<pad>	0
</s>	0
<unk>	0
,	-2.77756
.	-3.21491
▁ir	-3.74392
▁	-4.10388
s	-4.20507
▁kad	-4.44275
i	-4.66474
o	-4.96515
▁Europos	-5.04661
▁su	-5.08321
▁į	-5.21571
▁dėl	-5.3046
▁yra	-5.33765
ų	-5.39232
▁-	-5.41736
▁iš	-5.42326
e	-5.42421
▁ne	-5.5046
▁tai	-5.57147
ą	-5.59044
a	-5.6205
ti	-5.72112
u	-5.7472
us	-5.75343
as	-5.76648
▁pat	-5.79309
▁(	-5.79598
)	-5.79872
os	-5.81552
▁kaip	-5.9377
▁taip	-5.96469
ai	-5.99396
is	-6.00749
k	-6.02717
▁už	-6.05077
▁būti	-6.0514
▁turi	-6.07643
▁ES	-6.09086
▁pa	-6.11703
ė	-6.11766
t	-6.1211
▁būtų	-6.12699
▁m	-6.18356
▁savo	-6.19909
me	-6.21958
ta	-6.22404
▁labai	-6.22679
▁buvo	-6.22991
ės	-6.23037
▁apie	-6.23307
▁tik	-6.24902
ių	-6.25607
▁to	-6.26136
į	-6.2932
tų	-6.30852
ę	-6.32717
▁nes	-6.33921
▁mūsų	-6.35764
▁per	-6.3656
m	-6.39246
▁o	-6.39977
▁Komisijos	-6.40986
r	-6.43619
▁pirmininke	-6.46053
ma	-6.46843
g	-6.48204
imo	-6.48782
▁kai	-6.49383
▁ar	-6.49541
▁dar	-6.51658
š	-6.52222
▁bet	-6.52252
es	-6.54645
▁bus	-6.55786
▁nuo	-6.56351
▁mes	-6.57118
▁gali	-6.59697
te	-6.59938
▁Tai	-6.60365
▁reikia	-6.66997
tas	-6.67523
l	-6.67705
y	-6.68004
nt	-6.68021
to	-6.68583
▁"	-6.68668
n	-6.68851
▁jų	-6.71659
imas	-6.73898
▁norėčiau	-6.74316
in	-6.74386
▁kurie	-6.74516
mas	-6.74754
io	-6.75126
▁Sąjungos	-6.75407
:	-6.75824
mi	-6.78612
ra	-6.78809
▁Komisija	-6.79199
▁prie	-6.808
si	-6.81863
au	-6.82999
▁turėtų	-6.83023
al	-6.8342
▁Parlamento	-6.83804
▁jau	-6.84556
▁S	-6.85202
iu	-6.86208
▁Todėl	-6.86254
imą	-6.86445
▁turime	-6.87112
▁jos	-6.87296
▁kurios	-6.89474
yti	-6.92538
▁darbo	-6.93213
▁d	-6.93624
▁narių	-6.94441
▁šį	-6.95476
▁valstybių	-6.96286
d	-6.9675
ž	-6.96772
?	-6.96792
mos	-6.9713
▁prieš	-6.98085
▁vis	-6.98131
mo	-6.98667
▁Tačiau	-6.98912
▁šiuo	-6.99678
b	-6.99964
p	-6.99989
oje	-7.00227
▁valstybės	-7.01694
▁ypač	-7.01733
▁po	-7.02196
▁teisės	-7.02437
▁daug	-7.02631
▁metu	-7.0341
ius	-7.03782
ei	-7.04455
▁užtikrinti	-7.04849
▁tačiau	-7.05704
▁kuri	-7.05917
▁Pone	-7.05985
iai	-7.076
▁daugiau	-7.07765
ia	-7.0854
"	-7.0871
▁mums	-7.1053
en	-7.10718
▁bei	-7.12438
▁at	-7.12489
▁k	-7.13575
ir	-7.13765
▁M	-7.14049
mą	-7.1429
▁kuris	-7.15676
▁šios	-7.16091
▁politikos	-7.16709
▁nėra	-7.16744
ka	-7.1688
tą	-7.17097
▁A	-7.17155
tos	-7.18084
▁siekiant	-7.18463
▁aš	-7.2227
▁todėl	-7.2228
▁Be	-7.22402
z	-7.23167
▁mano	-7.24096
▁tam	-7.24347
▁teisių	-7.26146
;	-7.26453
▁šio	-7.27945
▁ji	-7.28013
▁Taip	-7.28339
▁be	-7.28845
omis	-7.30133
▁svarbu	-7.30201
▁Gerb	-7.3067
na	-7.31039
▁šalių	-7.31842
▁srityje	-7.31937
tu	-7.32124
▁ap	-7.32223
ant	-7.32596
▁manau	-7.32616
▁iki	-7.3277
▁B	-7.32794
ais	-7.33402
ar	-7.33905
▁visų	-7.3395
▁jie	-7.3416
▁dabar	-7.34216
▁arba	-7.35988
▁ekonomikos	-7.361
ū	-7.36993
▁galima	-7.37061
▁Parlamentas	-7.37365
mų	-7.37815
▁ši	-7.37887
▁J	-7.38122
▁K	-7.38909
▁proc	-7.39056
▁narės	-7.39911
am	-7.40429
▁tarp	-7.40976
▁pagal	-7.42129
ri	-7.42182
▁kurių	-7.42229
▁žmogaus	-7.42524
-	-7.42801
▁jis	-7.42996
▁metų	-7.43526
▁šių	-7.43547
ėme	-7.44131
▁klausimas	-7.44289
ija	-7.44729
iau	-7.44991
oms	-7.45092
▁Tarybos	-7.45273
▁tiek	-7.45456
▁priemonių	-7.4575
▁G	-7.46043
ys	-7.46075
▁bendradarbiavim	-7.46317
▁E	-7.4636
▁kas	-7.46919
▁ką	-7.47062
tik	-7.47089
▁kurį	-7.47278
dami	-7.4746
▁jei	-7.47751
▁žmonių	-7.47913
▁Vis	-7.47943
ėje	-7.47944
ik	-7.48299
▁nei	-7.48361
▁jo	-7.49256
ne	-7.49259
▁visiškai	-7.49268
▁pasakyti	-7.49503
▁re	-7.4953
inių	-7.49728
▁pranešimą	-7.49957
ose	-7.50087
▁Mes	-7.5024
▁T	-7.50309
▁veiksmų	-7.50386
ui	-7.50661
▁Sąjunga	-7.50694
▁nu	-7.51868
▁šią	-7.51917
tar	-7.52005
ųjų	-7.5318
▁Manau	-7.53321
ek	-7.53531
li	-7.53583
v	-7.54833
▁galėtų	-7.55015
▁šis	-7.56046
di	-7.56336
re	-7.56422
kl	-7.5655
er	-7.5707
sta	-7.57606
▁energijos	-7.57611
▁toliau	-7.57611
il	-7.57955
▁raštu	-7.58353
▁šiandien	-7.58688
uo	-7.58903
▁pri	-7.60428
▁apsaugos	-7.60917
on	-7.62176
▁nors	-7.6259
▁žemės	-7.62638
▁kartu	-7.62896
sime	-7.62974
▁rinkos	-7.63084
an	-7.63084
▁Ši	-7.63173
▁Ne	-7.63591
▁P	-7.64355
im	-7.64399
ur	-7.64848
▁man	-7.64882
▁būtina	-7.65489
tin	-7.65592
▁C	-7.65611
umo	-7.66296
▁atveju	-7.66689
▁t	-7.67193
ro	-7.67226
je	-7.67656
▁klausimu	-7.67775
▁Aš	-7.67978
▁prekybos	-7.68281
▁pateik	-7.68846
▁Norėčiau	-7.69655
inės	-7.70157
▁Taryba	-7.70218
▁pirma	-7.70763
or	-7.70982
ja	-7.70986
▁pasi	-7.7099
▁klausimą	-7.71039
tai	-7.71496
▁svarbi	-7.72167
c	-7.72725
▁jog	-7.72725
▁tuo	-7.73012
id	-7.73305
▁V	-7.73492
ams	-7.73613
dama	-7.74051
▁Europoje	-7.74784
do	-7.74898
▁Dėl	-7.74931
ijos	-7.74967
▁ponai	-7.74975
▁jūsų	-7.75835
oji	-7.75893
ni	-7.75979
la	-7.76569
▁kuriuos	-7.76912
▁maž	-7.77326
no	-7.78244
vo	-7.78309
▁D	-7.78566
▁kartą	-7.78939
▁kurią	-7.79122
0	-7.79177
sti	-7.79208
f	-7.79639
▁Kaip	-7.79716
▁vardu	-7.7993
P	-7.7994
▁Pa	-7.80069
jų	-7.80095
▁nepa	-7.80334
iam	-7.80405
nčių	-7.80582
men	-7.8118
▁dėmesį	-7.81673
uoti	-7.81698
ju	-7.81846
gi	-7.81992
▁Lisabonos	-7.82159
le	-7.82207
▁ž	-7.82396
ak	-7.82478
▁pvz	-7.82494
osios	-7.82674
ymo	-7.82907
▁dėlto	-7.83408
▁klimato	-7.83445
▁svarbus	-7.83508
▁pasiekti	-7.83595
▁kur	-7.8426
ko	-7.84274
▁net	-7.84554
▁Ponia	-7.846
imu	-7.85123
aus	-7.85156
▁biudžeto	-7.85305
▁ūkio	-7.85318
▁kitų	-7.85379
umą	-7.85406
▁padėkoti	-7.85907
▁piliečių	-7.86411
ymas	-7.86474
▁kelia	-7.86696
▁priimti	-7.8712
min	-7.87197
▁vien	-7.87289
mai	-7.87413
▁Šiuo	-7.87481
yb	-7.87491
▁frakcijos	-7.87642
▁Pirmininke	-7.87783
el	-7.8793
mu	-7.88048
ms	-7.88208
ki	-7.88398
▁laiko	-7.88413
▁mėn	-7.89117
▁galimybę	-7.89171
ėms	-7.8926
vy	-7.89331
▁imtis	-7.89518
A	-7.89605
j	-7.89829
ėmis	-7.9028
▁tikrųjų	-7.90335
▁priemones	-7.90401
iais	-7.90757
▁viena	-7.90981
▁ponios	-7.91199
/	-7.914
5	-7.91401
▁labiau	-7.91472
pa	-7.91879
▁de	-7.91882
S	-7.91899
joje	-7.92013
va	-7.92465
▁politiką	-7.92534
▁visi	-7.93006
lo	-7.93141
▁sk	-7.93687
▁saugumo	-7.93724
iant	-7.94127
1	-7.94135
▁įgyvendinti	-7.94229
iems	-7.94901
▁atžvilgiu	-7.9496
▁š	-7.95155
▁atsi	-7.95173
uose	-7.95215
jo	-7.95568
▁ko	-7.95643
▁pranešime	-7.95872
▁pateikti	-7.95898
▁finansų	-7.96003
ng	-7.96893
▁jeigu	-7.96938
▁darbą	-7.97297
▁transporto	-7.97431
▁Ar	-7.97543
▁negali	-7.97728
at	-7.97731
▁aiškiai	-7.97759
mis	-7.97887
▁pas	-7.98021
▁sveikatos	-7.98093
inti	-7.98251
avimo	-7.98534
ba	-7.98656
▁pra	-7.98697
▁Iš	-7.99098
tume	-7.99104
▁čia	-7.99425
mus	-7.99703
ina	-7.99744
▁politika	-7.99887
▁teis	-7.99898
imui	-8.00101
dė	-8.00183
ems	-8.00488
▁požiūriu	-8.00612
▁padaryti	-8.00895
▁vidaus	-8.00961
damas	-8.01281
▁šioje	-8.01311
ojo	-8.01496
▁pro	-8.01858
▁krizės	-8.01866
imų	-8.01961
2	-8.02239
▁nuomone	-8.02478
ūs	-8.03002
DE	-8.03334
h	-8.03396
▁sukurti	-8.04502
▁galime	-8.04609
▁R	-8.04654
ėja	-8.04724
▁priemonės	-8.04739
▁padėti	-8.04876
▁H	-8.04929
▁šiuos	-8.05009
▁Europa	-8.05595
▁N	-8.05751
▁sistemos	-8.05901
▁tikrai	-8.06189
kel	-8.06349
▁vienas	-8.06452
▁laisv	-8.06559
▁siekiama	-8.06603
da	-8.06616
▁privalo	-8.06745
usi	-8.06765
▁reiškia	-8.07058
▁g	-8.07254
čių	-8.07304
ėjo	-8.07673
čiau	-8.07765
tus	-8.07882
▁maisto	-8.0796
su	-8.082
▁visiems	-8.08308
▁nustatyti	-8.08395
nčios	-8.0845
veik	-8.08622
▁turėtume	-8.08928
▁jūs	-8.09047
tra	-8.09337
▁pasaulio	-8.09764
▁jums	-8.09991
▁šie	-8.10304
▁Sąjungoje	-8.10373
iją	-8.10572
▁atsak	-8.10704
▁pabrėžti	-8.11371
▁komiteto	-8.1148
▁skirti	-8.11489
▁šiame	-8.12222
sto	-8.12232
▁du	-8.12415
▁nariai	-8.12603
ru	-8.12687
nų	-8.13568
ži	-8.1384
ing	-8.14399
ime	-8.14401
iame	-8.14681
▁juos	-8.15319
▁klausimus	-8.15514
▁institucijos	-8.1572
▁kuriuo	-8.16016
▁ta	-8.16158
▁F	-8.16208
inio	-8.16241
▁b	-8.16383
ks	-8.16519
ty	-8.16586
ci	-8.16767
ame	-8.16881
▁jį	-8.17146
▁st	-8.17157
▁šalyse	-8.17976
aug	-8.18078
nti	-8.18481
ch	-8.1896
▁susi	-8.1918
▁kurias	-8.19357
▁kurioje	-8.19404
nor	-8.19829
▁padėtį	-8.19954
▁kurio	-8.20199
▁valstybėse	-8.2027
▁Taigi	-8.20529
iz	-8.20565
▁atsižvelgiant	-8.20619
▁teises	-8.20696
▁Mano	-8.20787
▁šalies	-8.20823
▁kiek	-8.20924
▁Tarybai	-8.20951
▁įskaitant	-8.21134
▁institucijų	-8.21368
▁visuomenės	-8.21414
▁žinoma	-8.21948
▁metus	-8.22079
T	-8.22105
▁žmonės	-8.22249
▁šalis	-8.22291
▁Parlamente	-8.22308
▁plėtros	-8.22565
▁atitinka	-8.22574
▁Turime	-8.22726
▁aplinkos	-8.22801
▁neturi	-8.22969
▁spręsti	-8.22974
du	-8.22982
ink	-8.23057
▁L	-8.23367
ter	-8.23502
ve	-8.23569
▁gal	-8.23763
iams	-8.23863
▁narys	-8.23914
▁šalys	-8.24195
▁bū	-8.24266
▁in	-8.24379
▁valstybėms	-8.24419
imus	-8.24544
lin	-8.24724
▁sistemą	-8.24781
ymą	-8.24906
der	-8.25041
▁naujo	-8.25061
▁EUR	-8.25184
▁vėl	-8.25292
oja	-8.25339
▁lygio	-8.25367
▁pasiūlymą	-8.25522
▁visos	-8.25601
▁vietos	-8.25631
▁e	-8.25887
▁tokia	-8.25935
▁jiems	-8.26005
▁susijusi	-8.2627
E	-8.2637
iškai	-8.26484
gr	-8.26626
▁ateityje	-8.26632
ymu	-8.27387
▁lygmeniu	-8.27395
yta	-8.27541
▁pak	-8.27599
▁problema	-8.27771
▁pasaulyje	-8.2781
▁ekonomin	-8.28089
▁pasiek	-8.28133
▁pranešimo	-8.2817
▁nebuvo	-8.28406
▁pirmiausia	-8.28697
▁suteikti	-8.28865
▁priežiūros	-8.29256
▁teisę	-8.29346
▁rink	-8.29481
▁ją	-8.29523
uoja	-8.29528
▁moterų	-8.2987
▁nori	-8.29984
▁dalis	-8.30049
▁būtent	-8.30338
▁mok	-8.30577
▁skatinti	-8.30709
▁metais	-8.3075
ama	-8.31001
▁Jei	-8.31065
▁keli	-8.31195
▁sistema	-8.31281
var	-8.3133
dar	-8.31463
uk	-8.31527
et	-8.32053
▁bendr	-8.32206
ome	-8.32239
cija	-8.32323
▁valdžios	-8.32756
▁kon	-8.32785
iama	-8.3282
tis	-8.32838
▁3	-8.32898
▁energetikos	-8.32952
kur	-8.32964
ran	-8.3299
▁Bendrijos	-8.32996
▁vaidmenį	-8.32996
▁geresn	-8.33018
▁tikslas	-8.33237
▁taisyklių	-8.33326
▁veiklos	-8.3337
▁pranešimas	-8.33403
▁ak	-8.33404
vie	-8.33835
▁sąlygas	-8.33985
umas	-8.34176
▁didel	-8.34242
▁Šis	-8.34274
▁kuriame	-8.34303
▁vyriausyb	-8.34412
ėti	-8.34599
I	-8.34644
naud	-8.34776
▁Dabar	-8.3501
ga	-8.35068
ęs	-8.35266
▁gerai	-8.35647
mon	-8.35666
▁susitarimo	-8.3569
▁esu	-8.35967
▁noriu	-8.35991
▁naujų	-8.36138
▁kuo	-8.36151
▁lyg	-8.36183
▁nary	-8.36242
3	-8.36289
▁kar	-8.36448
▁pritariu	-8.3678
ytų	-8.3682
▁problemų	-8.37201
▁p	-8.37243
▁sumažinti	-8.37456
ul	-8.37517
▁ra	-8.37576
▁taikyti	-8.37591
▁pagalbos	-8.38051
ža	-8.38073
▁mažiau	-8.38209
▁narėms	-8.38384
▁vieną	-8.38582
inį	-8.38636
▁narėse	-8.3878
▁paslaugų	-8.38883
▁išteklių	-8.38976
▁ga	-8.39134
▁bendrą	-8.39173
jimo	-8.39251
".	-8.39254
▁piliečiams	-8.39349
▁šalims	-8.39606
▁laik	-8.39825
▁mln	-8.39865
ol	-8.39958
▁paramos	-8.40081
▁produktų	-8.40357
▁O	-8.40561
▁darbuotojų	-8.40641
vir	-8.40806
▁pirm	-8.40842
▁vartotojų	-8.40925
tį	-8.40991
▁euro	-8.41077
▁oro	-8.41172
▁direktyvos	-8.41186
dži	-8.41403
▁tiesų	-8.41971
▁paramą	-8.42335
▁tr	-8.42423
▁norime	-8.42488
▁įsi	-8.42547
▁pritar	-8.42722
▁pareng	-8.42842
▁lėšų	-8.42937
▁dabartin	-8.43292
▁įtraukti	-8.43327
tor	-8.43396
6	-8.43645
▁geriau	-8.43793
▁2009	-8.43948
▁šia	-8.44044
▁kuriais	-8.44103
▁aktų	-8.44289
čia	-8.44621
▁kuria	-8.44735
▁padar	-8.45153
9	-8.4549
▁visa	-8.45581
▁mokesčių	-8.45634
8	-8.45722
M	-8.45878
▁daryti	-8.46046
▁atlikti	-8.46111
▁srityse	-8.46155
▁turėti	-8.46182
iniai	-8.46263
▁kyla	-8.46659
▁Balsavau	-8.46683
▁pradėti	-8.46699
▁klausimų	-8.46701
▁ant	-8.46827
▁dažnai	-8.46872
▁poveikį	-8.46884
▁sprendimą	-8.46986
▁gauti	-8.47053
▁Su	-8.47082
▁kuriose	-8.47098
▁pramonės	-8.47185
▁visus	-8.47196
ją	-8.47235
▁esmės	-8.47314
▁vadov	-8.47525
▁1	-8.47543
▁duomenų	-8.4782
D	-8.48011
▁li	-8.48086
▁pagrindinių	-8.48366
4	-8.48468
▁veikia	-8.48472
vil	-8.48642
▁gyventojų	-8.48667
ntis	-8.4867
tinka	-8.48783
▁tiesiog	-8.4896
7	-8.49201
▁visas	-8.49305
▁finansin	-8.49481
B	-8.49532
ėjimo	-8.49791
iš	-8.49845
▁tar	-8.50013
▁valdymo	-8.50026
▁reikalų	-8.50081
▁žmonėms	-8.50107
▁įvairi	-8.50139
un	-8.50142
oti	-8.50144
dav	-8.50146
▁tyrimų	-8.50376
▁I	-8.50376
▁užsienio	-8.50471
N	-8.50551
▁nesu	-8.50578
▁y	-8.50599
it	-8.50835
▁JAV	-8.50863
▁esame	-8.50893
▁turės	-8.5096
▁padėtis	-8.51085
▁naują	-8.51125
gal	-8.51151
ip	-8.51363
vi	-8.51401
siu	-8.51431
rin	-8.51554
nai	-8.51665
R	-8.51728
▁sprendimo	-8.51732
▁balsavau	-8.51758
▁informacijos	-8.51784
▁strategijos	-8.51837
▁siekti	-8.51849
sk	-8.51855
ku	-8.51907
▁susitarimą	-8.51959
ną	-8.52355
nas	-8.52439
▁reikėtų	-8.52541
sp	-8.52561
▁tinkamai	-8.52577
▁na	-8.52849
▁jūros	-8.53088
▁problemas	-8.53106
▁kodėl	-8.53185
▁piliečiai	-8.53436
▁įmonių	-8.53592
▁praš	-8.53678
cijos	-8.54006
▁aišku	-8.54027
▁gr	-8.54144
for	-8.54149
ce	-8.54271
▁vert	-8.54348
avo	-8.54356
▁tikiuosi	-8.5441
▁tikslų	-8.54518
▁sutarties	-8.54684
▁rinką	-8.5478
▁vieš	-8.5481
▁rodo	-8.5492
▁nustat	-8.5505
▁vyksta	-8.55574
▁atskir	-8.55702
▁le	-8.55816
▁demokratin	-8.55844
avimą	-8.55907
▁klausimais	-8.55948
C	-8.56388
▁Parlamentui	-8.56525
▁šias	-8.56659
▁priėm	-8.56889
▁didžiul	-8.56895
▁privalome	-8.56907
▁treči	-8.57096
ap	-8.5715
▁atkreipti	-8.57177
ab	-8.57214
dy	-8.57251
▁pl	-8.57258
▁socialinės	-8.57362
▁Komisijai	-8.57469
▁Kai	-8.57806
▁regiono	-8.57948
ner	-8.58339
ting	-8.5844
gali	-8.58518
▁būsim	-8.58587
kime	-8.58683
dal	-8.58764
▁toks	-8.58982
ima	-8.59214
▁a	-8.59667
▁sprendimas	-8.59673
inimo	-8.59685
inę	-8.59785
▁vietų	-8.59877
▁sp	-8.60125
▁20	-8.60468
▁remia	-8.60473
din	-8.60503
▁2008	-8.60535
▁aiški	-8.6078
▁kita	-8.60816
▁dirbti	-8.609
▁Galiausiai	-8.61113
▁dėmesio	-8.61491
▁sudaro	-8.61569
▁visą	-8.61765
avimas	-8.61804
▁suteik	-8.61865
▁priklauso	-8.61972
▁Man	-8.61982
▁šiam	-8.62013
O	-8.62309
▁galėtume	-8.62427
▁Antra	-8.62629
▁siek	-8.62754
▁vaikų	-8.62765
nčius	-8.63015
▁šalyje	-8.63106
kos	-8.63383
▁diskusijos	-8.63409
▁nebus	-8.63415
▁kuriomis	-8.6346
▁galimyb	-8.63472
auti	-8.63596
▁pinigų	-8.63729
gy	-8.63735
inimas	-8.63925
▁sektoriaus	-8.63968
▁šiol	-8.63979
V	-8.64028
▁pasinaudoti	-8.64028
▁nuolat	-8.6404
ios	-8.64101
FR	-8.64263
▁problemos	-8.64267
▁Mūsų	-8.64387
par	-8.64448
▁nacionalin	-8.64454
▁dalies	-8.64507
▁4	-8.64546
esni	-8.64665
liu	-8.64684
▁užtikrin	-8.64931
inis	-8.65096
zi	-8.65297
▁susiję	-8.653
či	-8.65353
▁pagrindin	-8.65358
▁visada	-8.65578
▁dauguma	-8.65705
▁kol	-8.65816
ali	-8.65828
▁susijusių	-8.65853
▁abejo	-8.65951
▁ilgalaik	-8.66019
▁pus	-8.6616
▁patvirtin	-8.66248
▁apsauga	-8.66385
▁tokių	-8.66423
daug	-8.66442
▁būdu	-8.66677
ntys	-8.66805
▁19	-8.66872
▁geriausi	-8.66886
▁pasak	-8.67161
▁Per	-8.67246
▁programos	-8.67373
▁var	-8.67379
▁itin	-8.67384
▁Mums	-8.67431
darb	-8.67641
▁sprendimus	-8.67647
▁tokios	-8.67702
ke	-8.67858
▁Labai	-8.68025
▁kalbė	-8.68133
PL	-8.68212
skai	-8.68226
▁iniciatyva	-8.68326
▁greičiau	-8.68425
ger	-8.685
▁tvirt	-8.68548
▁veikti	-8.68591
ėtų	-8.68637
ac	-8.68668
▁susitarimas	-8.68669
ver	-8.68714
▁min	-8.68954
ėjų	-8.69014
▁val	-8.69168
▁direktyva	-8.69239
čio	-8.69295
▁galimybes	-8.69381
▁demokratijos	-8.69397
▁rezoliucijos	-8.69428
▁kokia	-8.6948
▁te	-8.69541
inius	-8.69579
▁frakcija	-8.69619
ES	-8.69628
▁saugos	-8.69707
▁žingsnis	-8.69776
▁pastangas	-8.69808
▁la	-8.69813
iek	-8.69968
▁kovos	-8.69991
▁Šiandien	-8.70125
▁įmanoma	-8.70175
▁tikslus	-8.70226
",	-8.70312
kin	-8.70538
▁bendra	-8.70793
gu	-8.70803
▁veik	-8.71169
▁anksčiau	-8.71274
▁strategija	-8.71371
omi	-8.71498
damos	-8.71603
amb	-8.71645
nio	-8.7182
▁keletą	-8.71822
▁negalime	-8.71887
▁tada	-8.71937
▁Ma	-8.72161
▁politin	-8.72212
▁laikytis	-8.72251
▁kaitos	-8.72391
▁baig	-8.72454
▁Vadov	-8.72502
ingą	-8.72531
iausi	-8.72547
acija	-8.72628
▁apsaugoti	-8.72675
▁nare	-8.72691
▁atlik	-8.72741
▁kovoti	-8.72771
ėm	-8.72946
▁jas	-8.72963
▁Nors	-8.72974
per	-8.72997
▁veikla	-8.73045
esn	-8.73091
▁krizę	-8.73151
čiai	-8.73155
▁finansinių	-8.73161
laid	-8.73401
▁10	-8.73475
nčią	-8.73483
▁partner	-8.73495
▁reik	-8.73541
▁Re	-8.7361
▁veiklą	-8.73614
▁Jeigu	-8.73673
▁tvarkos	-8.73684
ag	-8.73955
▁dirba	-8.7402
▁skatina	-8.74417
▁remti	-8.74443
▁gamin	-8.74526
▁kadangi	-8.74612
▁fondo	-8.74738
jus	-8.74786
▁teisin	-8.74887
▁finansavimo	-8.74953
▁tinkl	-8.74958
▁kelią	-8.75073
▁žinome	-8.7509
▁naujas	-8.75164
▁ten	-8.75217
▁vyriausybės	-8.7523
imai	-8.75299
▁padėties	-8.7534
čiu	-8.75395
▁pareišk	-8.75527
oli	-8.7561
▁problemą	-8.7564
▁2010	-8.75647
▁Pri	-8.75664
▁įtrauk	-8.75764
▁Ko	-8.75838
▁klausimai	-8.75948
ties	-8.7597
▁išspręsti	-8.75977
jos	-8.76029
▁sprendimų	-8.76044
cijų	-8.76066
▁pripažin	-8.76219
▁kitos	-8.7628
jau	-8.76334
ieji	-8.76338
▁EP	-8.76452
▁kontrolės	-8.76453
▁atstov	-8.76499
laik	-8.76508
K	-8.76537
▁Tik	-8.76562
▁siekia	-8.76595
▁griež	-8.7664
IT	-8.7664
▁bendros	-8.7674
▁pramon	-8.76752
▁laikas	-8.77083
▁galimybės	-8.77187
▁apima	-8.77188
up	-8.77267
▁galimybių	-8.77419
tri	-8.77426
▁mokslinių	-8.77528
▁derybų	-8.77571
▁valstyb	-8.77737
▁gyvenimo	-8.77772
▁Rusijos	-8.77948
▁pagalbą	-8.78465
▁kalbėti	-8.7848
▁prisi	-8.7857
▁taisykles	-8.78603
▁susijęs	-8.78607
▁klausimo	-8.78642
ingo	-8.78702
▁padidinti	-8.7891
nčias	-8.79024
▁5	-8.7917
ąją	-8.79209
▁dujų	-8.79343
bi	-8.79376
▁pasiūlymas	-8.79505
▁papild	-8.79546
inant	-8.79548
▁priežasčių	-8.79575
▁strategiją	-8.7961
iška	-8.7967
▁pirminink	-8.79671
▁vykdyti	-8.7976
žym	-8.79798
▁blog	-8.79987
yt	-8.80032
▁2	-8.80102
▁v	-8.80335
▁vertus	-8.80345
▁gamybos	-8.80451
op	-8.80714
▁Sąjungai	-8.80729
▁įgyvendinimo	-8.80734
dėti	-8.80872
▁stipr	-8.81114
▁Po	-8.81238
▁rinkoje	-8.8124
fi	-8.81265
▁beveik	-8.81299
▁dalį	-8.81376
▁pone	-8.81426
po	-8.81433
bal	-8.81513
kalb	-8.8158
▁Afrikos	-8.81584
▁rezoliuciją	-8.81905
▁va	-8.81922
▁gerb	-8.82003
▁galutin	-8.82054
▁parengti	-8.82185
▁band	-8.82425
▁Dar	-8.82518
▁užsi	-8.82535
▁pakeisti	-8.82697
▁kriz	-8.82923
▁socialin	-8.82977
▁vystymosi	-8.83019
▁atsižvelgti	-8.83026
▁Europą	-8.83091
kti	-8.831
▁neturėtų	-8.83111
▁bendro	-8.83162
▁sanglaudos	-8.83235
▁laikotarpiu	-8.83308
▁gyvena	-8.83363
imti	-8.834
▁Žinoma	-8.83453
▁grup	-8.83492
▁teikti	-8.83559
▁kalba	-8.83834
man	-8.83955
▁sektoriuje	-8.84108
▁rasti	-8.84211
▁siūl	-8.84338
▁Komisiją	-8.84474
▁jokių	-8.84623
▁Jis	-8.8468
▁nebūtų	-8.84795
ciją	-8.84839
▁Š	-8.84912
▁regione	-8.84919
den	-8.8495
▁viso	-8.85256
▁apsaugą	-8.85394
▁leisti	-8.8546
amas	-8.85541
▁nurod	-8.86004
▁informaciją	-8.86025
yk	-8.86073
▁nusi	-8.86135
▁aukšt	-8.86198
▁remiantis	-8.86239
ino	-8.86262
▁pirmininkauja	-8.86286
▁žino	-8.86384
▁regionų	-8.86403
▁im	-8.86507
▁turėjo	-8.86666
▁Ji	-8.86841
ši	-8.86863
yst	-8.86865
▁didesn	-8.86904
ry	-8.86923
▁valstybes	-8.86937
od	-8.8694
▁000	-8.86999
▁dalyvauti	-8.87073
▁taik	-8.87174
▁poveikio	-8.87186
▁laisvės	-8.87295
▁Būtent	-8.87299
ic	-8.87364
▁sen	-8.87409
▁Tikiuosi	-8.87487
▁pagerinti	-8.87504
▁išorės	-8.87717
▁skyr	-8.8782
ybės	-8.87926
nių	-8.87962
▁įvertin	-8.87988
pu	-8.88173
gyvendin	-8.88409
▁esmin	-8.88576
kai	-8.88713
▁rezultatų	-8.88933
tais	-8.89015
F	-8.89079
ig	-8.89151
▁pasiūl	-8.89246
▁dalykas	-8.89279
L	-8.89298
▁įmonės	-8.893
▁dvi	-8.89337
▁augimo	-8.89399
▁ekonominės	-8.8957
▁pasiūlymus	-8.89665
ite	-8.89683
▁greitai	-8.8973
▁f	-8.89732
▁mus	-8.89742
▁teik	-8.89816
▁įvairių	-8.89877
▁pakankamai	-8.89919
▁padės	-8.89923
▁tokio	-8.8993
▁šalimis	-8.90056
▁įmonėms	-8.90064
▁informacija	-8.90089
▁kuriems	-8.90095
▁nar	-8.90275
▁programa	-8.90384
▁protokolą	-8.90439
žr	-8.90441
ud	-8.905
▁atrodo	-8.90551
▁pasiūlymo	-8.90635
▁sudaryti	-8.90688
▁turiu	-8.90773
nu	-8.90791
▁rū	-8.90891
▁gyv	-8.90937
▁ketina	-8.91113
▁tapti	-8.91221
▁mlrd	-8.91259
log	-8.91274
▁sąlygomis	-8.91299
▁organ	-8.91302
uoju	-8.91454
▁pasveikinti	-8.91652
▁kelių	-8.91654
▁jam	-8.91658
▁diskusijų	-8.91849
▁diskusijas	-8.91917
vien	-8.91965
▁svarst	-8.92026
▁kitą	-8.92253
ge	-8.92356
maž	-8.92518
▁procesą	-8.92525
▁tapo	-8.9256
▁išsi	-8.92852
▁teisė	-8.92892
nčio	-8.92895
▁Kitas	-8.93019
▁naujos	-8.93068
▁suteikia	-8.93209
▁nepaisant	-8.93235
usios	-8.93272
lių	-8.9329
▁par	-8.93308
▁juo	-8.93413
▁galbūt	-8.9348
pre	-8.935
ves	-8.93554
staty	-8.93562
▁Europai	-8.93676
▁bent	-8.93693
▁2007	-8.93775
▁atlieka	-8.93848
▁daro	-8.9389
▁skatin	-8.93906
▁sąlygos	-8.94208
▁balsu	-8.94279
▁pritarti	-8.94315
uosius	-8.94376
▁svarbiausia	-8.94378
eig	-8.94545
ad	-8.94704
▁sritis	-8.94772
▁tarptautinės	-8.94813
▁skiria	-8.94838
▁leidžia	-8.94894
viz	-8.94971
pl	-8.94991
vert	-8.95047
▁jai	-8.95048
prek	-8.95072
▁reikalauja	-8.95148
▁9	-8.95289
ėjimą	-8.95316
▁Ž	-8.95444
▁technin	-8.9549
▁pasirink	-8.95501
ką	-8.95512
▁nuomonės	-8.95651
▁Deja	-8.95834
aiški	-8.95881
▁išlaidų	-8.95918
▁numatyta	-8.96081
yra	-8.96141
ėte	-8.96245
▁verslo	-8.96246
▁daugiausia	-8.9625
val	-8.96303
naudoja	-8.96404
▁asmenų	-8.9641
▁nuomonę	-8.96453
▁džiaugiuosi	-8.96576
▁Kalbant	-8.96579
ąsias	-8.96647
nelyg	-8.9692
▁sudar	-8.9708
▁naudoti	-8.97223
▁balsavimo	-8.9724
▁kokybės	-8.97284
▁Jie	-8.9738
▁praėjus	-8.97431
jimas	-8.97502
▁sau	-8.9753
▁politinių	-8.97531
▁perspektyv	-8.97573
▁nebe	-8.97578
▁8	-8.97645
▁regionin	-8.97662
▁padidin	-8.97662
rė	-8.97704
leisti	-8.97714
▁kurti	-8.97741
▁įrod	-8.97783
vai	-8.97921
▁veiksmai	-8.97981
yje	-8.98071
▁visuotin	-8.98101
▁Pra	-8.98186
▁patvirtinti	-8.98291
ąjį	-8.98318
▁švietimo	-8.98454
de	-8.98887
▁labiausiai	-8.98966
ntiems	-8.9913
ines	-8.99149
▁sunki	-8.99175
jomis	-8.9922
▁tą	-8.99222
▁Rusija	-8.99387
▁rinkimų	-8.99411
▁sunku	-8.99449
▁bi	-8.99596
▁pranešimu	-8.99712
G	-8.9975
▁skaičius	-8.9977
▁6	-8.99798
▁poziciją	-8.99941
bu	-8.99955
▁aktus	-9.00006
▁žem	-9.0001
▁sutartis	-9.00114
▁išmetam	-9.00114
▁kitas	-9.00144
▁kalbant	-9.00163
▁kaimo	-9.00211
▁esant	-9.00225
ingų	-9.00276
▁jame	-9.00285
▁7	-9.0048
▁At	-9.00589
▁parama	-9.00717
▁nieko	-9.00787
▁programą	-9.00845
▁komitetas	-9.00886
▁skirta	-9.00908
▁antra	-9.00917
tojų	-9.00951
▁teig	-9.00962
▁kaita	-9.01096
▁skirtas	-9.01125
▁užimtumo	-9.01449
▁integr	-9.01478
▁Bendr	-9.01565
už	-9.01621
nės	-9.01662
▁svarbūs	-9.01754
▁atsisak	-9.01789
mui	-9.01892
▁svarbų	-9.01928
kart	-9.01948
▁vykdo	-9.02039
▁jus	-9.0204
kite	-9.02088
and	-9.02094
▁šiais	-9.02095
▁investicijų	-9.02234
▁laiką	-9.02366
EB	-9.02503
▁pasisak	-9.02514
▁balsuoti	-9.02522
ies	-9.02535
▁neseniai	-9.0263
▁susiduria	-9.02649
▁susitik	-9.02674
ysime	-9.02745
▁profesin	-9.02761
uota	-9.02826
kėl	-9.02838
▁vakar	-9.02995
▁tariant	-9.03074
kš	-9.03135
go	-9.03143
lai	-9.03161
dor	-9.03197
▁nepriklauso	-9.03212
dien	-9.0328
▁galės	-9.03374
ov	-9.03438
▁neabejotinai	-9.03512
▁stiprinti	-9.0353
ybę	-9.03586
▁san	-9.03608
klaus	-9.0365
Europos	-9.03692
▁kal	-9.03752
lu	-9.0376
▁naudos	-9.03773
▁vertinu	-9.03781
▁dviejų	-9.03823
▁galiausiai	-9.03957
▁Bet	-9.04002
▁vald	-9.04036
▁vadinam	-9.0408
kų	-9.0412
▁mat	-9.04156
▁nauja	-9.04166
▁joms	-9.04244
▁proceso	-9.04274
▁įvertinti	-9.043
▁reglamento	-9.04492
▁kiekviena	-9.04645
▁mastu	-9.04689
▁pripažinti	-9.04706
▁Amerikos	-9.04716
▁pareigas	-9.04736
▁komp	-9.0474
pie	-9.04742
▁paminėti	-9.04763
▁atvejais	-9.04818
▁tikras	-9.04848
▁kitaip	-9.04884
▁tenka	-9.04913
yv	-9.05142
lie	-9.05146
nes	-9.0525
▁teisinga	-9.05266
▁leis	-9.05337
ven	-9.05341
▁sukūr	-9.05359
▁De	-9.05418
▁reguliavimo	-9.05437
▁suteikta	-9.05508
▁pažangą	-9.05618
▁parod	-9.05722
▁direktyvą	-9.05754
▁sutartį	-9.05851
tvar	-9.0587
▁technologijų	-9.05921
▁panaikin	-9.05945
aud	-9.05979
▁darbu	-9.06078
▁kovo	-9.06102
▁partijos	-9.06163
▁kalbama	-9.06189
PT	-9.06196
▁virš	-9.06274
▁pasiūlymų	-9.06299
sumažin	-9.06357
▁link	-9.06422
▁12	-9.06449
▁kaimyn	-9.06476
ntį	-9.06485
▁padeda	-9.06502
▁paprast	-9.06604
▁Pirma	-9.06634
ėjimas	-9.06794
▁saugumą	-9.06848
00	-9.0694
▁veiksmus	-9.07014
▁JT	-9.07085
▁sąlygų	-9.07219
▁taikymo	-9.07267
▁Ir	-9.07269
▁išvengti	-9.07271
▁palaik	-9.0745
▁pabrėž	-9.07475
▁Šios	-9.07598
umu	-9.07666
▁pritaria	-9.07781
▁pagrindu	-9.07789
▁vyks	-9.07794
▁taisyklės	-9.07817
▁apibrėž	-9.07817
▁teigiama	-9.07892
▁politinės	-9.07929
▁kito	-9.08021
▁šiai	-9.08038
▁dalyvauja	-9.08047
ėjai	-9.0831
▁partnerystės	-9.08325
▁būdas	-9.08574
▁Sąjungą	-9.08792
▁tikrą	-9.08857
▁politikai	-9.08915
▁paskelb	-9.08954
▁naudotis	-9.09126
▁Toki	-9.09128
▁taigi	-9.09187
lio	-9.09287
▁meto	-9.09305
ybos	-9.09334
▁derybas	-9.09354
▁sak	-9.09374
▁sek	-9.09416
▁La	-9.09547
bo	-9.09578
▁socialinių	-9.09579
jama	-9.09623
▁praneš	-9.09781
pro	-9.09783
eiti	-9.0991
▁lengva	-9.09983
▁nepasi	-9.1005
▁reali	-9.1006
▁žmones	-9.10109
▁nares	-9.10145
dur	-9.10153
ob	-9.10291
▁Daug	-9.10358
▁Di	-9.1036
▁pamat	-9.10361
▁tampa	-9.10481
čius	-9.10486
iškas	-9.10641
▁negu	-9.10643
▁Turi	-9.10719
inimą	-9.10754
▁pozicija	-9.10774
▁įgyvendinant	-9.10835
ly	-9.1085
▁pirmininko	-9.1101
▁priemonėmis	-9.11022
▁išmok	-9.1109
tams	-9.11119
▁vartojimo	-9.11156
▁susijusios	-9.11204
▁vartotojams	-9.11204
žiau	-9.11225
▁kl	-9.11246
▁rinka	-9.11324
▁ci	-9.11335
▁rytoj	-9.11367
▁stebė	-9.11511
išku	-9.11512
▁automobilių	-9.1154
▁tarptautini	-9.11564
▁žvejybos	-9.11596
Europa	-9.11645
ančių	-9.11646
▁daugelis	-9.11782
▁Jungtinės	-9.11818
▁jūrų	-9.11829
pil	-9.11892
▁pačios	-9.11933
ilg	-9.11979
teisin	-9.12062
vin	-9.12082
▁naudojimo	-9.12086
▁pažeidžiam	-9.1212
▁nariams	-9.12153
▁dėkoju	-9.12263
vis	-9.12335
iniu	-9.1235
▁matyti	-9.12807
pat	-9.12817
ėjimu	-9.12905
tum	-9.12924
jant	-9.13017
pas	-9.13034
▁kolegos	-9.13052
▁pagrindinis	-9.13122
vad	-9.13159
▁pavyzdžiui	-9.13177
▁dėmesys	-9.13236
tinių	-9.13323
be	-9.13381
▁požiūrį	-9.13383
▁organizacijos	-9.13389
umui	-9.1342
▁netgi	-9.13442
▁kainų	-9.13555
▁pažangos	-9.13579
▁svarbą	-9.13628
▁norint	-9.13727
▁suprasti	-9.13816
▁prekyba	-9.13824
▁laiku	-9.13916
▁saugo	-9.13943
acijos	-9.14
▁Nepaisant	-9.1407
▁ateities	-9.14169
▁suinteresuot	-9.14267
▁tokie	-9.1429
▁tikrų	-9.14437
▁klaus	-9.14438
lyg	-9.14472
▁Li	-9.14482
nusikalt	-9.1451
▁turė	-9.14559
▁Airijos	-9.14564
▁visai	-9.14578
liai	-9.14578
silpn	-9.14663
▁nacionalinių	-9.14846
asis	-9.14848
▁15	-9.14935
▁aukščiausiojo	-9.14976
▁Rytų	-9.14983
▁panaikinti	-9.15031
▁grupės	-9.15145
▁dešimt	-9.15177
lig	-9.15207
▁Kinijos	-9.1531
sen	-9.15371
lis	-9.15395
rib	-9.15512
▁didinti	-9.15579
▁požiūrio	-9.1566
▁Viduržemio	-9.1581
inga	-9.1585
▁teikia	-9.15896
▁reikalavimus	-9.1596
▁savaitę	-9.1596
▁30	-9.15998
▁negalima	-9.16004
▁požiūris	-9.16062
▁pristat	-9.16183
▁teks	-9.16398
▁Kadangi	-9.16413
▁Prieš	-9.16557
▁teisingumo	-9.16658
▁paremti	-9.16886
▁minėjo	-9.16893
▁pobūdžio	-9.16919
▁visuomen	-9.16928
▁naudinga	-9.16955
pus	-9.17037
ketin	-9.17053
▁susijusius	-9.17208
▁vaidmuo	-9.17376
ydami	-9.17397
▁nenu	-9.17407
▁kalbame	-9.17657
▁sektorių	-9.17733
▁speciali	-9.17876
▁paslaugas	-9.17938
▁karto	-9.17952
▁tęsti	-9.17978
usių	-9.17993
▁finansinės	-9.18
▁reng	-9.18055
RO	-9.18067
▁tas	-9.18113
▁sėkm	-9.18223
▁įveikti	-9.18302
▁didin	-9.18444
▁laukia	-9.18471
▁peln	-9.18545
tės	-9.1855
▁tema	-9.18555
▁Šiaurės	-9.18657
▁taikoma	-9.18664
▁pagrindas	-9.18762
▁procesas	-9.18764
tuo	-9.19038
▁tų	-9.19082
▁pagalba	-9.19087
vers	-9.19291
▁dalykų	-9.19382
mais	-9.19437
▁keturi	-9.19591
▁veiksmingai	-9.19602
▁darbas	-9.19611
▁gruodžio	-9.19695
▁pasaulin	-9.19698
ten	-9.19793
▁sprendžia	-9.19814
▁numat	-9.19831
▁įtvirtin	-9.19878
žia	-9.19883
▁priežasties	-9.19903
▁patikrin	-9.19957
dų	-9.19982
▁demokratų	-9.20013
▁pranešėjas	-9.20034
▁galiu	-9.20206
▁stat	-9.20213
▁esama	-9.2023
▁sienų	-9.20232
nd	-9.20275
▁gauna	-9.20407
ėjus	-9.2041
▁žuvininkystės	-9.20447
bū	-9.20487
▁sako	-9.20517
▁padarinių	-9.20599
▁Nuo	-9.20674
▁nepakanka	-9.20699
▁mirties	-9.20755
▁viską	-9.20819
▁fondų	-9.20848
▁išlaikyti	-9.20869
▁lauk	-9.20888
▁žali	-9.20894
▁teisėkūros	-9.20953
▁iniciatyvos	-9.21115
▁bendrosios	-9.21194
20	-9.21373
port	-9.21378
gos	-9.21396
▁rezoliucija	-9.2143
▁solidarumo	-9.2143
▁sričių	-9.2143
▁atsakomybę	-9.21476
▁išdėst	-9.21488
▁kelias	-9.21567
▁sudėtinga	-9.21589
▁didelį	-9.21605
▁Mar	-9.21623
gai	-9.21639
▁eksp	-9.21713
▁pastangų	-9.21802
▁kiti	-9.21818
▁tris	-9.22061
▁interesus	-9.22069
▁atvyk	-9.22105
▁ge	-9.22184
▁se	-9.22185
iausia	-9.22194
šal	-9.22324
▁gyven	-9.22329
▁Pritariu	-9.22335
▁priežastis	-9.22389
▁padaryta	-9.22569
▁2020"	-9.22613
▁Pirmiausia	-9.22662
▁Jos	-9.2284
▁sustiprinti	-9.22896
džiu	-9.22955
▁neigia	-9.23006
administracin	-9.23087
▁bendruomen	-9.23133
▁pačių	-9.23256
▁nuolatin	-9.233
mės	-9.23328
▁Pirmininko	-9.23477
▁kuriam	-9.23515
▁išteklius	-9.2352
▁teigia	-9.23576
▁reikalinga	-9.23605
▁sektorius	-9.23628
▁baudžiam	-9.23629
▁Kon	-9.23634
jimu	-9.23709
inama	-9.23736
▁prieglobsčio	-9.23737
▁nepri	-9.23748
▁27	-9.23878
▁kalbėjo	-9.23893
ingas	-9.23901
imams	-9.23915
vimo	-9.24017
▁sakant	-9.2407
▁bendradarbiauti	-9.24092
▁strategin	-9.24112
▁patiria	-9.24252
rą	-9.24309
▁Vakarų	-9.24317
dą	-9.2438
ment	-9.24416
kol	-9.24499
ler	-9.2453
▁kalt	-9.24694
esnis	-9.24827
▁pavojus	-9.24883
▁komitete	-9.25103
ding	-9.25245
ber	-9.25322
turi	-9.25438
▁vėliau	-9.25543
▁aplinkai	-9.25544
▁standartus	-9.25544
▁laisvę	-9.25577
mer	-9.2567
▁konkurencijos	-9.25713
▁Gali	-9.25759
▁kr	-9.25764
▁nusprend	-9.25806
▁tvari	-9.25806
▁panaši	-9.25827
▁niekada	-9.25881
▁Turkijos	-9.25931
▁metin	-9.26117
▁turt	-9.2616
▁pakeitimų	-9.26265
iui	-9.26368
▁gana	-9.26405
iško	-9.26479
nos	-9.26483
▁mokymo	-9.26536
▁tokį	-9.26553
parlament	-9.26718
▁tikri	-9.26767
▁pasiūlymai	-9.26768
▁įsipareigo	-9.26789
▁planą	-9.26828
▁deja	-9.26838
▁aptarti	-9.26941
▁susirūpinimą	-9.26971
tinės	-9.26995
▁biurokrat	-9.27047
▁kultūros	-9.27049
▁jokios	-9.27053
▁biudžetą	-9.27106
▁Atsižvelgiant	-9.2716
▁aptar	-9.27291
▁pradėt	-9.27389
az	-9.27427
stan	-9.275
Pirminink	-9.27526
▁santykių	-9.2761
▁sistemų	-9.27673
tui	-9.27681
▁tvirtai	-9.27682
jai	-9.27688
▁manome	-9.27695
▁priimtas	-9.27737
joms	-9.27739
▁prisidėti	-9.27747
▁Šie	-9.27792
nga	-9.27793
ūro	-9.27813
▁visose	-9.27831
▁viening	-9.27955
▁teikiama	-9.27973
leidžia	-9.28052
▁standartų	-9.28119
▁bendras	-9.28191
J	-9.2829
▁palankiai	-9.28361
▁2006	-9.28415
angl	-9.28453
tina	-9.28503
▁pateikta	-9.28515
▁pasiraš	-9.28569
tę	-9.28582
▁MV	-9.28613
▁veiks	-9.28715
▁Pietų	-9.28745
▁išlaidas	-9.28747
▁karin	-9.28877
▁bu	-9.28887
▁amžiaus	-9.2903
▁santykius	-9.29088
▁zonos	-9.29145
▁skaidrumo	-9.29202
▁siekdami	-9.29255
▁paskutin	-9.2931
▁Bal	-9.29332
▁siekdama	-9.29397
▁tokiu	-9.29403
Plojimai	-9.29489
▁aktai	-9.29635
▁Jungtini	-9.29643
▁užtikrinant	-9.29715
▁priminti	-9.29721
uosi	-9.29727
▁inter	-9.29871
▁socialinę	-9.29896
▁puiki	-9.2999
▁didelių	-9.29995
▁ryt	-9.3
▁susitikime	-9.30049
▁Barroso	-9.30066
▁tikslą	-9.30066
▁interesų	-9.30066
▁tiesiogiai	-9.3009
▁susitarimų	-9.30095
▁tikru	-9.30149
▁kilmės	-9.30297
ypating	-9.30338
savo	-9.30363
ami	-9.30398
dėl	-9.30417
▁Jūs	-9.30418
iuose	-9.30485
tojai	-9.30492
▁vizų	-9.30598
▁Kita	-9.30602
▁institucijoms	-9.30646
▁tie	-9.30652
▁ginč	-9.30724
▁svarbiausi	-9.30743
▁nuomon	-9.30757
▁galėsime	-9.30804
▁panaudoti	-9.30837
▁atvejų	-9.30995
ūk	-9.31055
▁Kar	-9.31063
▁romų	-9.31234
▁reikalavimų	-9.31404
▁įsipareigojimų	-9.31463
▁didesnį	-9.31472
▁sal	-9.3169
žiūri	-9.31754
▁visame	-9.31769
NL	-9.31794
▁didelis	-9.31806
▁Šiame	-9.31961
▁Reikia	-9.32051
▁atsakyti	-9.32057
▁vertina	-9.32075
▁koleg	-9.32081
▁technologi	-9.32111
eng	-9.32124
▁atsinaujinanči	-9.32152
▁pateiktas	-9.32193
▁skubiai	-9.32202
nus	-9.32337
▁Jungtin	-9.32465
▁daugyb	-9.32469
▁rimtai	-9.32577
▁supaprastin	-9.32632
▁Šengeno	-9.32702
▁anglies	-9.32702
▁parodyti	-9.32712
▁Te	-9.32726
▁forma	-9.32727
▁tiekimo	-9.32751
del	-9.32751
▁daugelio	-9.32761
▁tikra	-9.32799
▁srities	-9.32821
▁kitose	-9.32836
▁h	-9.3287
▁kitais	-9.32886
vel	-9.32915
▁padėtų	-9.33001
avimu	-9.33035
▁tinkamas	-9.3304
▁globalizacijos	-9.33062
▁atsakomybės	-9.33132
▁įsitikin	-9.33149
▁projektą	-9.33178
▁masto	-9.33227
▁jud	-9.33271
▁laikin	-9.33276
▁lyder	-9.33298
dalyv	-9.33318
zo	-9.33326
▁2011	-9.33357
▁efektyvi	-9.33357
▁pati	-9.33405
avi	-9.33413
▁vykdoma	-9.33413
▁pažeid	-9.33429
region	-9.33505
▁atliekų	-9.33537
▁šeši	-9.33547
▁planu	-9.33631
tojo	-9.33632
▁puikiai	-9.33737
▁teisingai	-9.33742
▁kurioms	-9.33754
▁lygiu	-9.33811
▁nenori	-9.33878
išką	-9.3389
▁pastaruosius	-9.33896
▁nerimą	-9.3391
▁socialine	-9.33923
▁neap	-9.33942
▁kūr	-9.33969
▁taikomos	-9.34112
ird	-9.3413
jame	-9.34204
pajėg	-9.34235
▁Visi	-9.3434
▁kitus	-9.3439
leis	-9.34391
žvelg	-9.344
ydamas	-9.34419
▁sustiprin	-9.34539
sistem	-9.34728
▁analiz	-9.34741
▁moterys	-9.34741
▁pavyzdys	-9.34741
▁teisinės	-9.34805
▁tvark	-9.34845
▁integracijos	-9.34877
▁mažai	-9.34883
▁krize	-9.34909
konflikt	-9.35086
▁neat	-9.35095
ėjau	-9.35156
▁žmonėmis	-9.35166
▁pirmininkas	-9.35176
kas	-9.35304
▁tikslai	-9.35329
▁atkreip	-9.35384
pir	-9.35398
▁tikslu	-9.35407
▁tuos	-9.35529
▁Prancūzijos	-9.35715
▁11	-9.35743
atlygin	-9.35802
▁veiksminga	-9.35824
▁pakeitimus	-9.35846
▁rengiant	-9.35868
▁priemon	-9.35973
▁pakeitimai	-9.36023
▁tinkamą	-9.36025
▁Kalb	-9.36032
▁teisėms	-9.36046
▁taikos	-9.36099
▁pavyko	-9.36206
▁įtakos	-9.36208
▁sprendžiant	-9.36259
▁termin	-9.3627
▁lygį	-9.3628
▁apsvarstyti	-9.363
▁ekonomiką	-9.36329
izmo	-9.36337
ėse	-9.36354
▁procedūros	-9.3639
eik	-9.36443
rb	-9.36577
▁rezultatai	-9.36637
▁tiems	-9.36665
tautin	-9.36672
▁projekto	-9.36761
▁patvirtino	-9.36897
nauj	-9.36908
▁konkurencin	-9.36909
nis	-9.36913
▁sutinku	-9.36947
▁kuriai	-9.36983
▁apskritai	-9.37008
▁rizikos	-9.37008
▁vadovauja	-9.37054
yn	-9.37104
▁nelegal	-9.37138
▁atsakomyb	-9.37142
omuni	-9.37154
▁didėja	-9.37234
▁akivaizdu	-9.37309
inys	-9.3742
▁žinote	-9.37422
nį	-9.37561
▁skirtų	-9.37568
▁elektr	-9.37615
▁neiš	-9.37658
pač	-9.37693
▁pieno	-9.37693
uotų	-9.37697
▁dialogą	-9.37755
▁įsipareigojimus	-9.37755
▁reikalingas	-9.37782
▁dieną	-9.37826
▁esanči	-9.37977
▁pasiūlyti	-9.37978
▁rezultatus	-9.37992
▁atstovai	-9.38007
▁nepriimtina	-9.38069
▁siūloma	-9.3809
izmu	-9.38115
▁koks	-9.3827
ingai	-9.38348
▁agentūros	-9.38381
▁2020	-9.38581
▁visoms	-9.38591
amos	-9.38598
▁įtaką	-9.38635
esnės	-9.38695
▁sprendimai	-9.3876
ženkl	-9.38891
▁nacionaliniu	-9.38936
▁pozicijos	-9.39012
▁vidutin	-9.39014
▁privači	-9.3908
▁susitarimu	-9.39177
▁tikslo	-9.39214
forma	-9.39255
▁diskusijose	-9.39264
▁palaikyti	-9.39273
▁balsavimą	-9.39392
▁straipsnio	-9.39455
▁auto	-9.39465
▁turėsime	-9.39467
nčia	-9.3954
▁vienos	-9.39582
▁Trečia	-9.39646
▁principo	-9.39773
▁gerbia	-9.3983
▁Parlamentą	-9.39901
▁išsami	-9.39934
▁darbuotojams	-9.39965
▁tur	-9.40002
▁CO	-9.40004
▁taps	-9.40123
▁priemonė	-9.4016
ję	-9.40195
rand	-9.40219
▁Pasauli	-9.40289
▁pačiu	-9.40315
▁sukurta	-9.4035
▁gyvenimą	-9.4041
▁apribo	-9.40424
▁vandens	-9.40436
▁suderinti	-9.40541
skyr	-9.40556
▁trump	-9.40565
▁palaiko	-9.40621
▁pažanga	-9.40646
▁didelę	-9.40929
▁susirūpin	-9.4095
▁14	-9.4096
▁In	-9.41001
ono	-9.41026
kar	-9.41076
ėra	-9.41087
▁nustatyta	-9.41115
▁Noriu	-9.41119
▁da	-9.41195
duoda	-9.41233
▁Visų	-9.41289
▁vietas	-9.413
▁lėšas	-9.41314
▁paprašyti	-9.41327
▁tikros	-9.41356
▁taikomas	-9.41359
▁tyrimus	-9.41397
jam	-9.41409
ybe	-9.41416
▁kaina	-9.41514
▁nuostatas	-9.41602
▁aplinkybėmis	-9.41638
▁omenyje	-9.41638
▁mane	-9.41653
▁tokią	-9.41707
▁kuriuose	-9.41782
ine	-9.41786
▁įsitikinęs	-9.41797
▁rinkų	-9.41805
▁svarbios	-9.41921
▁užkirsti	-9.41959
▁moteris	-9.41963
▁bausm	-9.41971
▁greit	-9.42019
▁Kinija	-9.42029
▁sėkmingai	-9.42082
▁atstovauja	-9.42098
▁derin	-9.42111
▁geras	-9.42162
▁didži	-9.42178
vus	-9.42266
tumėte	-9.42289
▁Al	-9.4242
▁atnaujin	-9.42423
▁nario	-9.42435
▁Vokietijos	-9.42551
▁vienu	-9.42579
▁ekonomikai	-9.42742
▁uždar	-9.42778
ky	-9.42794
▁susitar	-9.42795
trūk	-9.42803
grįž	-9.4289
▁pareiškimai	-9.42895
▁iškelt	-9.43082
▁tarptautinių	-9.43109
kan	-9.43133
nuo	-9.43137
▁viešųjų	-9.43141
▁prieštarauja	-9.43145
land	-9.43189
che	-9.43244
▁atidžiai	-9.43341
▁pareikšti	-9.43341
vok	-9.43373
▁skirtos	-9.43463
uojant	-9.43498
inta	-9.43506
EL	-9.43519
uv	-9.43666
▁mažinti	-9.43723
pirmininkaujanti	-9.43731
▁terorizmu	-9.43804
▁Ponios	-9.43805
▁Teis	-9.43846
▁kažk	-9.43877
▁dvišal	-9.43888
▁klas	-9.44051
▁taikant	-9.44099
site	-9.44102
▁nelaim	-9.44216
▁principai	-9.44269
▁pagrindą	-9.44272
▁didelės	-9.44396
▁kandidat	-9.44469
▁penki	-9.4447
▁gerokai	-9.44477
kūr	-9.44524
▁Pagal	-9.446
ed	-9.44614
▁pranešėjo	-9.44718
▁konkrečių	-9.44743
vanden	-9.44863
fe	-9.44877
▁stipri	-9.44913
▁reišk	-9.44914
▁veng	-9.44942
▁prekių	-9.44943
▁pats	-9.44993
▁visais	-9.45199
▁patys	-9.452
▁25	-9.45279
ep	-9.45363
▁šalt	-9.45364
▁jokio	-9.45384
ide	-9.45389
▁finansavimą	-9.45493
pe	-9.45498
▁principų	-9.45543
▁projektas	-9.45543
▁pastat	-9.45579
▁Tuo	-9.45601
momis	-9.45602
▁skaičių	-9.4568
band	-9.45765
▁įgyvendina	-9.45781
▁priėmimo	-9.45781
▁kartais	-9.45794
▁nuostatos	-9.45815
▁draug	-9.45824
▁Nr	-9.45858
▁ribų	-9.45892
▁manymu	-9.45903
▁tarptautiniu	-9.45972
▁vykd	-9.46021
ana	-9.46022
antis	-9.46025
▁lemia	-9.46042
▁žodžiu	-9.46085
▁naudo	-9.46136
vz	-9.46144
▁augimą	-9.46159
▁priekį	-9.4616
▁išsaugoti	-9.46166
ministr	-9.46249
▁įstatymų	-9.46289
iškų	-9.46327
▁rengia	-9.46389
▁raginu	-9.46425
ny	-9.46439
▁žvej	-9.46482
bai	-9.46541
▁svarbiausių	-9.46636
nčioms	-9.46651
▁siūlom	-9.46802
▁kalbos	-9.4681
▁pavojų	-9.46835
▁ekonomika	-9.4684
▁Gal	-9.46874
vas	-9.4697
▁skurdo	-9.46971
▁Jo	-9.46989
▁Pranešime	-9.47059
▁bendrai	-9.47079
▁humanitarin	-9.47102
▁nukreipt	-9.47122
▁daroma	-9.47126
▁kainos	-9.47183
▁nedelsiant	-9.47245
gen	-9.47307
▁Taryboje	-9.47314
dyti	-9.47316
fer	-9.47341
▁rūpi	-9.47405
▁Darbo	-9.47496
nam	-9.47525
až	-9.47613
▁procedūrą	-9.47727
▁tikimės	-9.47732
▁plėtrą	-9.47737
▁Euro	-9.47792
▁supranta	-9.47799
▁skubi	-9.47828
▁kultūrin	-9.47846
▁ja	-9.47898
▁paklausti	-9.48072
▁jėga	-9.48073
▁birželio	-9.48142
▁apsi	-9.48308
▁pagrįsta	-9.48346
kelia	-9.48386
▁kokių	-9.48492
▁straipsnis	-9.48558
▁taptų	-9.48629
▁reikės	-9.48632
sprend	-9.48643
▁nuostatų	-9.48769
▁pranešimui	-9.48824
▁lyčių	-9.48838
lan	-9.48843
▁aspektus	-9.48882
▁U	-9.48977
▁mėnesius	-9.48977
▁nepaprastai	-9.48979
▁priversti	-9.49227
▁To	-9.49338
iški	-9.49375
▁13	-9.49393
▁institucija	-9.49454
▁nutrauk	-9.49479
lų	-9.49501
▁daugelį	-9.49538
▁poreikius	-9.4962
▁praeit	-9.49621
▁priemonę	-9.49671
▁vyriausybių	-9.49731
▁stabilumo	-9.49748
mano	-9.49799
▁Jau	-9.49811
▁programas	-9.49837
▁ragina	-9.49861
▁Svarbu	-9.4996
▁paskatin	-9.49983
iškos	-9.50065
▁kokiu	-9.5015
▁Dėkoju	-9.50313
▁šeimos	-9.50313
▁mokslin	-9.5038
▁Turkija	-9.50384
▁Ch	-9.50424
▁socialinio	-9.50427
▁puikų	-9.50455
▁augin	-9.50469
▁vež	-9.50474
▁Vien	-9.50495
▁tolesn	-9.50497
▁lėšos	-9.50525
▁biudžetas	-9.50528
▁išreikšti	-9.50588
▁interneto	-9.50597
▁Audito	-9.50667
▁rezultatas	-9.50667
▁šalį	-9.50673
▁pavadin	-9.5069
▁ištekliai	-9.50739
▁tuomet	-9.50777
▁šiose	-9.5079
▁valstybėje	-9.50856
▁imigracijos	-9.50881
▁skirtu	-9.50972
nijos	-9.51008
avimui	-9.51024
▁stabili	-9.51028
est	-9.51092
č	-9.511
kon	-9.51128
▁kokios	-9.51133
▁ponia	-9.51145
▁Graikijos	-9.51166
▁nagrinėja	-9.51166
▁gera	-9.51207
▁aplinką	-9.51237
▁pakartoti	-9.51309
▁pradžių	-9.51309
▁abejonių	-9.51343
▁gyvūnų	-9.51366
▁malonu	-9.51381
▁abipus	-9.5146
▁stebėti	-9.51509
▁Pas	-9.51514
▁reaguoti	-9.51516
▁susitarimus	-9.51587
▁asmenin	-9.516
migra	-9.51683
demokrat	-9.51688
▁Br	-9.5169
▁gerą	-9.51698
▁mir	-9.51709
▁principą	-9.51739
niu	-9.51873
▁besivystanči	-9.51874
gan	-9.51877
▁neįmanoma	-9.51955
▁diskusija	-9.51993
▁partneryst	-9.52005
▁sritį	-9.52099
ingi	-9.52209
▁vienod	-9.52221
▁projektų	-9.52243
▁naftos	-9.52315
lia	-9.52347
▁kolega	-9.52362
▁būtinas	-9.52376
davo	-9.52418
▁laivų	-9.52605
▁gyn	-9.52649
vart	-9.52661
▁siūlo	-9.52664
▁kartų	-9.52699
▁susitikimo	-9.52713
▁pokyčių	-9.52749
▁valstybėmis	-9.52756
▁br	-9.52846
tojams	-9.52913
▁kreip	-9.52965
▁principas	-9.53113
▁pakanka	-9.53143
▁Nauj	-9.53152
▁žiniasklaidos	-9.53186
▁Tautų	-9.53187
▁vienintel	-9.53215
▁pakeitimą	-9.53259
aktyv	-9.53265
▁ilgai	-9.53362
ang	-9.53408
▁tvarka	-9.5361
▁18	-9.53614
▁įgyvendinimą	-9.53625
▁gin	-9.5363
vesti	-9.53676
▁Vengrijos	-9.53697
▁bendrų	-9.53814
▁institucijas	-9.53857
▁nauji	-9.53888
▁išlaik	-9.53909
▁grąžin	-9.5399
▁pasiektas	-9.54041
▁plataus	-9.54064
▁pradėjo	-9.54099
▁svarbiausias	-9.54248
▁susijusias	-9.54255
▁lygis	-9.54262
▁ateitį	-9.54285
kio	-9.54286
▁pabrėžiama	-9.54287
▁naujus	-9.54291
tro	-9.54396
▁Kad	-9.54496
mat	-9.54496
reikšm	-9.54528
▁užtikrina	-9.54575
▁lygybės	-9.54626
lus	-9.54652
▁regionuose	-9.54802
▁aktyviai	-9.5485
▁rezoliucijoje	-9.54876
▁sunkumų	-9.54912
▁aspektų	-9.5495
krat	-9.54952
▁pagerin	-9.55086
▁plėt	-9.551
▁šimt	-9.55179
iami	-9.55229
▁kryptimi	-9.55321
▁plėtoti	-9.55568
▁grupių	-9.55571
▁dirb	-9.55673
▁aptaria	-9.55997
▁medžiagų	-9.56068
▁kriterijus	-9.56143
▁laikomasi	-9.5615
H	-9.56155
▁Vienas	-9.56184
gar	-9.56194
▁Italijos	-9.56218
▁persvarst	-9.56247
krikščionių	-9.56255
▁vertinti	-9.56319
▁Le	-9.56325
▁svarsto	-9.56403
▁pareigūn	-9.56444
▁jauni	-9.56451
▁subsidi	-9.56519
▁50	-9.56531
▁keleivių	-9.56595
▁PPE	-9.56745
▁bendrovės	-9.56759
▁gerinti	-9.56771
▁paaiškinti	-9.56897
▁Būtina	-9.56972
▁potencial	-9.57048
▁sausio	-9.57053
mobil	-9.57073
ans	-9.57096
▁parem	-9.57134
SV	-9.57152
riai	-9.57181
▁pagaliau	-9.57184
▁svarbių	-9.57191
▁paveik	-9.57339
▁konstituci	-9.57351
▁mažumų	-9.57428
▁ad	-9.57468
▁sava	-9.57533
▁toli	-9.57535
▁eurų	-9.5758
ėjusi	-9.57612
▁karo	-9.5762
ūp	-9.57627
▁Gr	-9.5777
▁viskas	-9.57795
▁pasmerk	-9.57809
▁Štai	-9.57831
pri	-9.57917
▁pasiekta	-9.57937
duoti	-9.58009
▁pagrindinės	-9.58112
▁plenarin	-9.5819
▁pradžioje	-9.58267
▁mėnesių	-9.58268
▁pranešėjui	-9.58278
U	-9.58302
▁pavaduotoja	-9.58344
▁vartotojai	-9.58344
▁vertinimo	-9.58396
▁neturė	-9.5844
dėjo	-9.58473
▁Už	-9.58527
▁naudojant	-9.58527
▁visuomenei	-9.58636
▁susilaik	-9.58639
▁teikiam	-9.58641
atsarg	-9.58837
▁vieno	-9.5884
▁sulauk	-9.58841
kom	-9.58855
▁reformos	-9.58882
▁paprasčiausiai	-9.58883
gre	-9.58946
▁saugi	-9.58982
▁Negalim	-9.59106
▁finans	-9.59116
lieka	-9.59138
▁palyginti	-9.59197
mams	-9.59234
▁procese	-9.59274
plat	-9.59286
▁kv	-9.59413
ich	-9.5947
ėjams	-9.59477
▁teršalų	-9.59501
▁tinkamo	-9.59506
▁principus	-9.59571
▁Vyriausyb	-9.59579
▁buvusi	-9.59582
▁politiniu	-9.59697
tov	-9.59777
▁tokius	-9.59891
▁demokratija	-9.59891
▁Pirmininkas	-9.59975
▁parodė	-9.59986
▁keičia	-9.6009
▁terorist	-9.60124
▁atsižvelg	-9.60161
▁dalimi	-9.60203
▁laikotarpio	-9.6028
▁laikotarpį	-9.6028
▁įsteig	-9.60312
▁skiriama	-9.60347
▁konkrečiai	-9.60377
▁derybos	-9.60386
▁vienintelis	-9.60405
tomis	-9.60458
▁procesu	-9.60497
▁keisti	-9.60516
▁kovojant	-9.60573
▁priklaus	-9.60591
konkreči	-9.60612
▁abejonės	-9.60626
rie	-9.60672
plan	-9.60777
▁produktai	-9.60829
▁principu	-9.60837
prie	-9.6087
▁skirtą	-9.60987
▁programų	-9.6099
pol	-9.61012
▁išsaugo	-9.61037
▁Privalom	-9.61146
▁pajamų	-9.61147
▁žinoti	-9.61168
▁įvyko	-9.61225
▁gyventojai	-9.61237
▁ekonominę	-9.61266
▁ginti	-9.61281
▁vaikai	-9.61422
tyje	-9.61435
▁dalykus	-9.61522
▁nacionalinės	-9.61524
▁svarba	-9.6157
▁dr	-9.61603
▁informuoti	-9.61621
▁ekonominių	-9.61645
▁reglamentą	-9.61777
▁tikėtis	-9.6179
ada	-9.61795
uojama	-9.61916
▁projektus	-9.61929
▁kova	-9.61966
▁joje	-9.62025
▁darbuotojai	-9.62096
▁platesn	-9.62117
▁ryž	-9.62259
end	-9.62267
▁finansuoti	-9.62378
▁draudimo	-9.62415
▁tinkama	-9.62465
▁duomenis	-9.62495
▁niek	-9.62609
▁procedūra	-9.62609
▁vyrų	-9.62655
▁tikro	-9.62705
▁prisijung	-9.6274
▁narė	-9.62765
▁kitiems	-9.62946
▁žinia	-9.62975
▁aspektas	-9.62976
▁pirk	-9.62981
▁grėsm	-9.63079
gebė	-9.63101
▁Sutarties	-9.63136
▁pranešėja	-9.63142
▁sveikatai	-9.63153
▁argument	-9.63217
▁galimybe	-9.63223
▁įved	-9.63226
cial	-9.63262
▁kelis	-9.63283
▁asmens	-9.63298
▁gyventojams	-9.63308
bus	-9.63414
▁pakeis	-9.63422
ančios	-9.63452
▁glaud	-9.63459
ysiu	-9.63465
▁laimė	-9.63482
tam	-9.63516
▁aspektai	-9.6354
▁neturime	-9.63548
▁rimta	-9.6355
▁kasdien	-9.63564
vų	-9.63584
▁autor	-9.63644
▁Diskusijos	-9.63701
▁reikalavimai	-9.63701
▁dienos	-9.63712
▁ram	-9.63723
nčiai	-9.63795
▁trans	-9.63959
▁organizuot	-9.64022
mokė	-9.64022
▁moterims	-9.64026
▁įgaliotin	-9.64026
▁bendrovių	-9.64072
▁Džiaugiuosi	-9.64107
▁pasakė	-9.64108
▁kitomis	-9.64417
▁sektoriui	-9.64432
▁europin	-9.64482
▁med	-9.64642
reg	-9.64691
▁Par	-9.64718
inėje	-9.64767
liko	-9.64881
▁Net	-9.64959
spaud	-9.64973
iniams	-9.64975
▁galėjo	-9.65065
▁papraš	-9.65119
▁atsisakyti	-9.65125
skund	-9.65149
▁Lenkijos	-9.65169
▁tarnybos	-9.65169
▁didesnio	-9.65182
▁pabaigos	-9.65221
▁visapusiškai	-9.65333
▁vykdant	-9.6539
▁nepritar	-9.65486
▁besi	-9.65518
▁būtinyb	-9.65535
damiesi	-9.6557
▁trūksta	-9.65582
▁eina	-9.65627
▁smurto	-9.65663
▁ties	-9.65673
▁kapitalo	-9.65694
▁kiekį	-9.65703
▁vaidmens	-9.65828
▁ekolog	-9.65839
▁aktyvi	-9.65843
▁pasitikėjimą	-9.65911
▁sukėl	-9.65913
galv	-9.65936
▁šaltinių	-9.6598
▁finansinę	-9.66
aciją	-9.66024
▁paklaus	-9.66077
▁proga	-9.66084
▁40	-9.66127
▁sukuria	-9.66136
▁grindžiama	-9.66179
▁paskatinti	-9.66298
▁niekas	-9.66408
▁struktūrin	-9.66464
▁sistemas	-9.66498
▁savi	-9.6652
▁lapkričio	-9.66575
▁bankų	-9.66665
▁steng	-9.6667
▁daugelyje	-9.66742
▁partija	-9.66744
kant	-9.6675
▁griežtai	-9.66763
▁Izraelio	-9.66909
▁prisideda	-9.66924
▁solidarumą	-9.66992
▁pabaigoje	-9.67057
▁miškų	-9.67083
HU	-9.67087
▁vaik	-9.67115
liet	-9.67364
▁mažinimo	-9.67367
▁taiko	-9.67404
▁kam	-9.67423
alai	-9.6749
vių	-9.67493
▁išreišk	-9.67497
leido	-9.67614
▁laisvių	-9.67628
▁ataskaita	-9.67664
▁organizacijų	-9.67664
▁išlaidos	-9.67837
▁atsakinga	-9.67874
ininkai	-9.67912
▁naudojimą	-9.67917
▁režimo	-9.67918
iesiems	-9.68048
▁Siekiant	-9.68171
uotos	-9.68266
▁pirmą	-9.68283
das	-9.68296
imais	-9.68352
▁susitarimai	-9.68422
▁stebi	-9.68427
▁Kodėl	-9.68449
▁kuriant	-9.68525
▁elektronin	-9.68607
▁Lo	-9.6874
▁pe	-9.68773
▁paskutini	-9.68776
▁gamyba	-9.6885
▁nuosekli	-9.6885
▁dabartinės	-9.68887
▁gegužės	-9.68935
▁demokratiją	-9.68936
▁naudingas	-9.68963
▁branduolini	-9.6902
▁Tam	-9.69073
▁reglamentu	-9.69074
▁produktus	-9.69106
▁valstybnar	-9.69109
▁paketo	-9.69195
▁pilietin	-9.69245
▁Kit	-9.69256
▁kokybę	-9.69263
▁agentūrų	-9.69277
▁migracijos	-9.69277
▁patenkinti	-9.69362
▁pan	-9.69429
▁Ashton	-9.69448
▁darbotvark	-9.69478
▁minėta	-9.69513
teisė	-9.69532
▁taikomi	-9.69681
▁aplinkosaugos	-9.69706
▁žemyn	-9.69913
▁Prancūzija	-9.69964
▁poreikį	-9.69964
▁žodžio	-9.7005
lės	-9.70194
▁investuoti	-9.7022
▁elektros	-9.70231
▁idėja	-9.70256
▁baz	-9.70277
cijoje	-9.70337
▁tikrov	-9.70338
▁teismo	-9.70387
▁agentūra	-9.70396
▁Koki	-9.70519
▁vyko	-9.70574
▁iniciatyvą	-9.70659
▁biologin	-9.7066
▁Kr	-9.70711
▁sutart	-9.70761
▁darbotvarkės	-9.70794
džio	-9.70813
▁17	-9.70815
eji	-9.70906
▁16	-9.70906
▁regis	-9.70926
▁sustabdyti	-9.70982
reikš	-9.71067
▁fondas	-9.7109
▁rūšių	-9.71091
▁leistų	-9.71101
▁modern	-9.71178
▁rod	-9.712
▁būdų	-9.71223
▁kolegų	-9.71241
▁Viena	-9.71261
nui	-9.71276
▁pasiūlymu	-9.71343
▁spalio	-9.71353
▁atskirti	-9.71363
ėję	-9.71379
▁prekybą	-9.7144
▁vyn	-9.71479
▁numatyti	-9.71522
▁prasme	-9.71737
riaus	-9.71769
▁Respublikos	-9.7179
▁komercin	-9.7179
▁mažesn	-9.71831
van	-9.71969
▁diena	-9.71998
▁patirt	-9.72014
▁kiekvieno	-9.72026
▁pakeitimas	-9.72055
▁didesnis	-9.7214
▁nemažai	-9.72144
▁plano	-9.72157
▁teisėmis	-9.72253
▁prašau	-9.72264
dinti	-9.72277
▁išsak	-9.72294
▁artimiausi	-9.72318
▁neatsižvelg	-9.72325
▁organizacija	-9.72329
▁plėtra	-9.72392
funkci	-9.72407
▁galiojanči	-9.72502
▁infrastruktūros	-9.7255
▁vietoje	-9.72551
▁Teisingumo	-9.72583
▁Ger	-9.72588
▁Akivaizdu	-9.72671
▁kūrimo	-9.72724
▁prisiimti	-9.72738
▁politinę	-9.72803
minėt	-9.72858
▁erdvės	-9.72858
▁rėm	-9.72955
▁pateikiam	-9.72957
▁2013	-9.73026
▁vykusi	-9.73112
▁pritaikyt	-9.73212
▁pašalinti	-9.73284
▁liaudies	-9.73293
▁skirtingų	-9.73294
▁dokumentu	-9.73382
▁žodžiai	-9.73382
▁namų	-9.73438
▁derybose	-9.73441
▁grindžiam	-9.7345
▁reformų	-9.73472
▁turizmo	-9.73486
▁susitikimas	-9.73537
▁pusės	-9.73585
▁judėjimo	-9.73591
▁spekuli	-9.7365
▁pasirengę	-9.7373
▁planuoja	-9.73846
nčiais	-9.73896
▁bio	-9.73899
▁politinio	-9.7399
▁gim	-9.74097
▁standartai	-9.74188
▁pagrindiniai	-9.74199
▁atliko	-9.74205
▁iškil	-9.74206
▁geležinkelių	-9.74278
▁ryšių	-9.74278
▁grėsmę	-9.74297
▁papildoma	-9.74363
▁pasirengusi	-9.74372
▁Susi	-9.74406
▁mokslo	-9.7446
▁nariui	-9.74484
▁nuoširdžiai	-9.74548
▁piliečius	-9.74548
▁tarpusavio	-9.74548
▁Kartu	-9.74562
▁duomenys	-9.74638
▁politinį	-9.74653
▁skurdu	-9.74729
▁brang	-9.74831
▁pareiga	-9.74871
ha	-9.74893
▁procedūras	-9.74962
▁BŽ	-9.74973
▁sukelia	-9.75095
▁konsul	-9.75114
▁raginama	-9.75147
▁pabėgėlių	-9.75182
▁įgyvendinimas	-9.75183
▁tolesni	-9.75203
▁liberalizav	-9.75208
▁dokumentų	-9.75272
▁paraginti	-9.75357
▁skiriasi	-9.75455
▁branduolinės	-9.75637
▁institucin	-9.75637
▁nežino	-9.7564
elio	-9.75669
vimas	-9.75722
▁pagrindines	-9.75724
▁trijų	-9.75731
▁kalbą	-9.75836
▁parlamentin	-9.75848
▁planas	-9.75918
▁nedidel	-9.7595
▁priimta	-9.75982
antys	-9.76005
▁leiskite	-9.76027
CS	-9.76055
▁atmet	-9.76066
▁tikiu	-9.76067
▁pranešėjai	-9.7609
▁tokias	-9.76168
▁istorin	-9.76188
▁susidar	-9.76198
▁neteisėta	-9.76293
▁užtikrinta	-9.76364
▁veiksmingesn	-9.76369
▁pasiūlyme	-9.76461
ybė	-9.76538
▁pritariame	-9.76601
▁tiesa	-9.76609
▁pastangos	-9.76645
▁100	-9.76679
▁matome	-9.76698
▁Balsavimas	-9.76737
▁Buvo	-9.7674
▁Parlamentu	-9.7681
▁II	-9.76823
▁pasirašyt	-9.76826
▁Ukrainos	-9.76829
▁kiekvieną	-9.76829
▁paketą	-9.76832
▁tyrimai	-9.76849
▁suteikiama	-9.76912
▁pradin	-9.76915
▁padėtyje	-9.76922
▁ūkininkams	-9.76954
prieš	-9.76973
▁disk	-9.77022
▁pasirod	-9.77068
▁skaidrumą	-9.77107
tojas	-9.77276
▁pripažįsta	-9.77296
▁pakeitimo	-9.77386
▁santykiai	-9.77477
▁poveikis	-9.77479
ekijos	-9.77514
▁tarybos	-9.7752
▁pasiūlymui	-9.7755
▁Ministr	-9.77571
▁netrukus	-9.77663
▁reikalauti	-9.77664
▁rekomendacija	-9.77664
▁sprendimu	-9.77696
▁asmenims	-9.77757
▁papildomų	-9.77763
▁skirs	-9.7777
▁jaunimo	-9.77784
ade	-9.77787
ado	-9.77813
bar	-9.77839
▁NATO	-9.7785
esnį	-9.77904
▁prioritetų	-9.78036
▁veiksmingiau	-9.78036
lyje	-9.78052
▁nepais	-9.78082
▁saugumas	-9.7813
▁labui	-9.7813
liberal	-9.78146
nij	-9.78151
▁kontrol	-9.78158
muose	-9.78196
▁pasitelk	-9.78223
▁sąlyga	-9.78244
▁rank	-9.78249
▁ataskaitą	-9.78317
▁energetin	-9.78317
▁padaryt	-9.78326
inėmis	-9.78328
▁pastabas	-9.78337
Ž	-9.78391
▁Pagrindini	-9.78403
▁pinigai	-9.78411
▁ataskaitos	-9.78505
▁neturėtume	-9.78546
ystės	-9.78573
▁posėdyje	-9.78598
▁dialogo	-9.78692
ytume	-9.78791
▁baigtos	-9.78826
izmas	-9.78831
sėkm	-9.78893
▁gerov	-9.78913
▁pabrėžia	-9.78952
▁policijos	-9.78975
▁norėtų	-9.78976
▁skiriamas	-9.78996
▁ras	-9.79072
▁Pro	-9.79153
▁kontroliuoti	-9.79259
▁plėtrai	-9.79323
▁svarbos	-9.79353
iamos	-9.79361
▁Ispanijos	-9.79447
▁įdieg	-9.79448
▁trys	-9.79499
▁Vert	-9.79593
▁keliu	-9.79605
▁dalykai	-9.79637
▁kliūtis	-9.79637
▁konkurencingumą	-9.79637
▁Irano	-9.79639
▁darbotvarkę	-9.79739
▁valdymą	-9.79788
▁dalyje	-9.79838
▁įvesti	-9.80078
diskusijos	-9.80093
▁Tr	-9.80094
▁diskusiją	-9.80113
▁spaudimą	-9.80115
izacijos	-9.80188
▁jais	-9.80229
▁asmenys	-9.80304
▁mėnesį	-9.80401
▁kovą	-9.80405
▁pranaš	-9.80496
▁narėmis	-9.80535
▁prieštara	-9.80568
▁suveren	-9.80593
▁negaliu	-9.80646
▁ekonominio	-9.80679
▁paskirst	-9.80792
garb	-9.8086
▁pažymėti	-9.80879
▁džiaug	-9.80881
▁pratęs	-9.80885
inami	-9.80915
avau	-9.80978
▁svarstyti	-9.81019
▁Valstybės	-9.81022
he	-9.81033
lauk	-9.81056
skiria	-9.8106
▁palaikau	-9.81106
▁pažeidimų	-9.81125
▁Airijoje	-9.81168
▁Leiskite	-9.81168
▁Valstijos	-9.81168
▁patirties	-9.81183
▁pusiausvyrą	-9.81264
▁suteiks	-9.81286
▁raš	-9.81298
▁verčia	-9.81423
▁gyventi	-9.81545
taip	-9.81553
▁tikslais	-9.81592
▁vysty	-9.81647
▁maistu	-9.81663
▁simboli	-9.81748
▁patar	-9.8178
▁įvykdymo	-9.81785
▁apibrėžti	-9.8184
▁prioritetas	-9.81845
▁didžiausi	-9.81866
dėjus	-9.81887
▁kolegoms	-9.81941
▁pensijų	-9.81942
▁kokyb	-9.81984
▁Valstijų	-9.82039
▁palik	-9.82115
▁kontrolę	-9.82127
▁energiją	-9.82136
▁akivaizdžiai	-9.82138
ren	-9.82191
▁Visiškai	-9.82315
▁2012	-9.82331
sąlyg	-9.82501
▁vystymuisi	-9.82526
▁keletas	-9.82526
▁finansuojam	-9.82531
▁užtikrintų	-9.82531
▁2005	-9.82561
▁didelio	-9.82582
▁skaidri	-9.82622
▁duomenimis	-9.82624
dra	-9.82625
▁šaliai	-9.82682
SK	-9.82699
▁PPO	-9.82722
▁reikalaujama	-9.82738
▁metai	-9.8279
▁teritorijoje	-9.8282
▁atsižvelgiama	-9.82949
▁dokumentai	-9.83114
olog	-9.8321
▁narius	-9.83253
▁politinis	-9.83317
piet	-9.83384
▁prisitaikymo	-9.83437
milijon	-9.8349
▁Galbūt	-9.83508
▁banko	-9.83519
▁reglamentas	-9.83607
▁stabilumą	-9.83706
iantis	-9.83722
▁tyr	-9.83774
▁ypatingą	-9.83793
▁deficit	-9.83804
▁sutartimi	-9.83811
esnę	-9.83826
▁stiprina	-9.83866
▁sutelkti	-9.83947
▁ateina	-9.83986
▁galioja	-9.84001
izavimo	-9.8402
▁tobul	-9.84044
▁žinių	-9.84139
▁Pasi	-9.84141
▁dviem	-9.84155
jį	-9.84187
▁lank	-9.842
▁didina	-9.84332
tys	-9.84345
▁arti	-9.84352
deda	-9.84383
▁kitoms	-9.84387
▁apibūdin	-9.844
▁geri	-9.84417
▁didžiausia	-9.84456
▁kokią	-9.84501
▁vaistų	-9.84501
▁visuomenę	-9.8455
▁apsaugo	-9.84559
▁užduotis	-9.84596
▁Kas	-9.84596
▁surink	-9.84651
▁ryšius	-9.84799
▁susitikimą	-9.84839
ausių	-9.84911
▁gynybos	-9.84915
▁teise	-9.84927
▁inovacijų	-9.84999
▁Pirm	-9.85005
▁nurodyti	-9.85064
raf	-9.85154
▁kenčia	-9.85201
▁dienų	-9.85217
▁priemonėms	-9.85224
mir	-9.85299
▁norėtume	-9.853
▁Baltijos	-9.853
▁pagrindų	-9.85305
mokestin	-9.8537
▁Rumunijos	-9.854
▁jėgos	-9.854
▁bendruomenės	-9.85416
ąja	-9.85422
labai	-9.85498
▁diskriminacija	-9.85501
▁akto	-9.85531
▁atstovų	-9.85549
▁etnin	-9.85604
jome	-9.85704
▁narėje	-9.85708
▁didesnę	-9.85777
▁global	-9.85798
▁Biudžeto	-9.85804
▁koordinuo	-9.85877
▁mėgin	-9.85906
▁apimti	-9.85906
▁diskutuo	-9.86072
▁didžiausią	-9.86294
▁Graikija	-9.8631
▁aviacijos	-9.8631
▁suprantama	-9.86407
▁konkurencija	-9.86419
▁esm	-9.86426
▁tęs	-9.86442
▁taršos	-9.86515
▁nesąžining	-9.86518
▁nukentėjusi	-9.86716
▁pranešėją	-9.86716
▁likusi	-9.86728
▁200	-9.8676
▁trumpai	-9.8678
universitet	-9.86818
▁įvykių	-9.86818
▁fondu	-9.86818
▁ankstesn	-9.86901
▁sutelk	-9.86978
▁tos	-9.86979
ved	-9.87002
▁abi	-9.87028
▁pasireng	-9.87029
▁žinau	-9.87127
▁frakcijų	-9.87228
▁nutraukti	-9.87233
▁baigti	-9.87241
▁Tarybą	-9.87329
▁įsipareigojimą	-9.8733
▁kokio	-9.87333
▁atsižvelgta	-9.87386
▁intensyv	-9.87432
▁pramonei	-9.87606
▁nurodyta	-9.87613
▁įvykd	-9.87614
▁viduje	-9.87637
ajai	-9.87737
▁konvencijos	-9.8774
▁prezidento	-9.87746
▁deram	-9.87811
▁eismo	-9.87845
▁kredito	-9.87846
keliančių	-9.87918
▁patvirtina	-9.87922
▁įprast	-9.87941
▁smarkiai	-9.87946
▁parodo	-9.87995
redit	-9.88017
bank	-9.88038
▁pinigus	-9.8805
▁sutarčių	-9.88052
▁posėdžio	-9.88153
▁tinkamu	-9.88204
▁patyr	-9.88248
▁technologijas	-9.88258
valstyb	-9.88262
inėms	-9.88262
▁egzistuoja	-9.8836
▁rugsėjo	-9.8836
▁vertybių	-9.88464
▁vertybes	-9.88464
▁institucijomis	-9.88671
▁nepriklausoma	-9.88791
▁reglamentuoja	-9.88814
▁gerovės	-9.88894
ind	-9.8894
▁pranešėjams	-9.88946
▁padarinius	-9.8895
▁lengviau	-9.88954
▁auga	-9.88955
▁politikoje	-9.88983
balsavimas	-9.89011
bėg	-9.89036
▁netinkama	-9.89167
▁pateiktų	-9.89187
▁gyvybiškai	-9.89401
▁Ra	-9.89496
▁demokratišk	-9.89511
▁gaus	-9.89543
▁moka	-9.8957
▁neuž	-9.89574
▁griežtesn	-9.8962
▁pagrįstas	-9.89665
▁teigiamai	-9.89687
▁kokį	-9.89719
▁sakė	-9.8976
PS	-9.89819
▁kompetencija	-9.8982
▁Ką	-9.89872
▁Iki	-9.89876
▁išveng	-9.89905
▁milijonų	-9.89934
▁iššūkius	-9.90031
▁nepakankamai	-9.90118
mojo	-9.90138
▁valstybei	-9.90209
▁sėkmės	-9.90235
tobulin	-9.9026
žiūrėti	-9.90281
▁sauga	-9.90293
▁visomis	-9.90335
▁sąjungos	-9.90347
iškumo	-9.90379
ck	-9.9042
▁pasikeit	-9.90559
vald	-9.90564
▁Kitaip	-9.90598
gauti	-9.90659
▁procedūrų	-9.90665
▁balsavo	-9.90677
lk	-9.90717
(	-9.90937
▁menk	-9.90951
krau	-9.9097
▁Ekonomikos	-9.90983
▁katastrof	-9.90983
▁struktūrinių	-9.91019
vės	-9.9102
▁pirmąjį	-9.91046
šiltnamio	-9.9109
▁įtrauktas	-9.91153
▁jaučia	-9.91159
▁veiksmingą	-9.91196
▁patvirtinimo	-9.91197
▁regionams	-9.91197
▁reformas	-9.91213
▁pamiršti	-9.91237
▁palengvin	-9.91293
lankst	-9.91295
▁pavyzdį	-9.91303
▁penkeri	-9.91303
▁žud	-9.91321
▁daugeliu	-9.91323
▁užmojo	-9.9144
▁vaizd	-9.91475
▁surengti	-9.915
▁Dabartin	-9.91513
▁aukų	-9.91522
▁projektu	-9.91526
▁atid	-9.91595
▁kiekvienas	-9.91595
▁perduoti	-9.91633
▁minima	-9.91719
▁Ap	-9.91992
cijomis	-9.92024
moms	-9.92067
▁Balkanų	-9.9216
▁oficiali	-9.92168
▁ėmėsi	-9.92171
▁įgyvendinta	-9.92222
▁užbaigti	-9.92242
▁gaminių	-9.92252
ininkų	-9.92293
▁rinkai	-9.92331
▁išnagrinėti	-9.9238
ajame	-9.92386
▁stengtis	-9.92413
leidimo	-9.92492
mokslinius	-9.92552
▁Tokia	-9.92633
▁60	-9.92634
▁nustatant	-9.92693
▁išsivysčiusi	-9.92699
▁Pasiūl	-9.92809
▁įtraukta	-9.92817
▁laisvai	-9.92857
▁Na	-9.92883
▁pokyčius	-9.92916
pel	-9.92927
▁elg	-9.92938
▁finansavimas	-9.92942
▁erdv	-9.92943
▁neatsi	-9.9297
▁gerbti	-9.92981
▁BVP	-9.93024
▁sąžininga	-9.93031
▁sveikinu	-9.93038
-20	-9.93108
▁veiksmingo	-9.93133
▁mažiausiai	-9.93143
▁sie	-9.93246
▁Šį	-9.93255
dvigub	-9.93288
▁situacija	-9.9335
▁tiksli	-9.9342
▁efektyvumo	-9.93459
▁priežiūrą	-9.93568
▁susitarti	-9.93572
▁kaimynystės	-9.93582
iečių	-9.93625
▁kapital	-9.93692
nčiam	-9.93731
▁Atsižvelgdama	-9.93787
▁eiti	-9.93837
▁supaprastinti	-9.93847
▁smulki	-9.93896
▁atkurti	-9.93897
▁naudojimas	-9.93917
▁bendradarbiauja	-9.9392
▁kilo	-9.93969
▁paties	-9.9398
▁Jūsų	-9.93993
▁balsavimas	-9.94086
▁puiku	-9.94116
▁skatinant	-9.94123
▁kokie	-9.94155
▁garantijų	-9.94225
▁persekioj	-9.94225
▁priimant	-9.94232
▁tarptautine	-9.94232
▁sutartyje	-9.94242
▁partnerių	-9.94326
trukd	-9.94377
▁bandom	-9.94396
▁dokumentą	-9.94445
▁pakenk	-9.94564
▁kliūčių	-9.94665
▁prevencijos	-9.94665
▁tarnyba	-9.94665
▁Rūmų	-9.94666
▁elgtis	-9.94695
▁nereikia	-9.94749
▁vietą	-9.94782
▁pirmininkavimo	-9.94883
▁Savo	-9.94884
▁eksporto	-9.94886
▁glaudžiai	-9.94887
▁fa	-9.94915
▁pateikiama	-9.94919
▁riba	-9.9492
▁mato	-9.94981
th	-9.95025
▁užtikrintas	-9.95051
bin	-9.95072
▁sienos	-9.95119
▁lieka	-9.95141
▁Nor	-9.95192
▁nustatytas	-9.95226
▁nuosavybės	-9.95229
▁rinkas	-9.9523
▁naudą	-9.95249
liū	-9.95318
▁pasirinkti	-9.95344
▁naujosios	-9.95385
▁ūkininkų	-9.95388
▁Praneš	-9.954
▁teisingu	-9.95419
▁siekiame	-9.9554
▁kolektyvin	-9.95552
▁atsakymą	-9.95607
▁2004	-9.95686
▁iniciatyvų	-9.9578
▁leidžiama	-9.95879
▁investicijas	-9.95886
▁ALDE	-9.95886
direktor	-9.95998
▁21	-9.96004
▁atsakingas	-9.96034
▁laikosi	-9.96093
audo	-9.96097
▁verta	-9.96114
▁aljanso	-9.96164
▁interesai	-9.96227
▁kiš	-9.96251
▁nesilaik	-9.96342
▁didesnės	-9.96389
▁informacin	-9.96446
▁prasm	-9.9657
▁daugumos	-9.96577
▁priimam	-9.96622
▁įmon	-9.96776
▁palank	-9.96782
keičia	-9.968
▁efektą	-9.96896
▁nedarbo	-9.96907
▁vietin	-9.96972
▁liepos	-9.97009
▁prezidentas	-9.97125
ard	-9.97255
▁minėjau	-9.97269
▁tikriausiai	-9.97349
▁buvę	-9.9735
▁valstybę	-9.97374
▁dabartinę	-9.97386
▁patvirtintas	-9.97408
▁balsavome	-9.97449
▁patekti	-9.97479
▁kiekio	-9.97503
▁Portugalijos	-9.97575
▁prioritetin	-9.97575
▁Ačiū	-9.97576
▁nauda	-9.97607
▁priemone	-9.97642
nčiomis	-9.97643
▁pašalin	-9.97737
▁Baltarusijos	-9.97803
▁žalos	-9.97806
▁tekstą	-9.97864
▁strategijoje	-9.97917
▁metams	-9.97962
▁mažina	-9.97986
nčiu	-9.98011
▁susiduriame	-9.98093
▁susidūr	-9.98125
▁pereinam	-9.98158
▁buvau	-9.9826
▁atitikti	-9.98322
▁regioninės	-9.98351
▁daugybę	-9.98378
▁politiniai	-9.98426
▁krizė	-9.98448
Darbo	-9.98452
▁imtasi	-9.98493
▁rinkimus	-9.98522
lenk	-9.98522
▁valdžia	-9.98644
▁ginklų	-9.98718
▁pagrindo	-9.98727
▁Toks	-9.98773
▁sugebėj	-9.98803
▁Žmogaus	-9.98833
▁patobulint	-9.98843
▁balandžio	-9.99063
numaty	-9.99063
▁savaime	-9.99111
▁vertės	-9.99116
▁palanki	-9.99151
▁socialinį	-9.99172
▁pasakyta	-9.99277
▁asmeniškai	-9.99294
▁pridėtin	-9.99305
▁rinkimai	-9.99396
▁priežiūra	-9.99409
▁geografin	-9.99525
▁koordinavimo	-9.99525
▁būtinybę	-9.99544
▁vertinimą	-9.99574
▁rengti	-9.99604
▁sukurt	-9.99604
▁dieg	-9.99641
rodo	-9.99659
▁atidėt	-9.99716
▁kompromisą	-9.99757
▁veikimo	-9.99866
▁verslu	-9.99875
▁sakyti	-10.0001
amp	-10.0018
▁praktiškai	-10.0019
▁ketvirt	-10.0022
▁išskirtin	-10.0024
▁įvykdyti	-10.0025
▁šak	-10.0033
▁sąrašą	-10.0034
▁kriterijai	-10.0046
▁straipsnį	-10.0046
▁suprantu	-10.0046
▁užtikrinama	-10.0052
▁atvirai	-10.0055
▁lygmens	-10.0058
ėjome	-10.0058
▁pirmasis	-10.0068
▁kiekvienos	-10.008
▁įgaliojimus	-10.0081
▁pokyčiai	-10.0081
▁kalbų	-10.0083
▁Turė	-10.0085
▁paslaugos	-10.0092
▁Švedijos	-10.0092
▁aukštos	-10.0099
▁pabaig	-10.0101
▁Karalystės	-10.0104
▁žmogišk	-10.0104
▁naudojami	-10.0106
▁persvarstyti	-10.0108
▁visuomet	-10.0112
▁teritorijos	-10.0116
▁balsų	-10.0116
▁svarbesn	-10.0116
▁nustatytos	-10.0116
▁įvykiai	-10.014
▁didėjanči	-10.0144
▁vaikams	-10.0146
mųjų	-10.015
▁komitetui	-10.0152
▁pasaulinės	-10.0153
▁Kopenhagos	-10.0163
▁investuot	-10.0164
▁ketiname	-10.0164
▁praras	-10.017
▁pasiūlyta	-10.0173
▁neįgal	-10.0175
izmą	-10.0176
▁atsižvelgdama	-10.0185
▁patirtimi	-10.0187
priimti	-10.0187
frakci	-10.0188
▁dvej	-10.0192
FI	-10.0194
▁milžinišk	-10.0199
▁numatoma	-10.0202
▁įmones	-10.0203
▁steig	-10.0207
▁prioritetus	-10.0215
▁JK	-10.0221
▁skaičiaus	-10.0222
▁Žemės	-10.0222
▁palengvinti	-10.0224
▁nelaimių	-10.0233
▁atsakingi	-10.0243
▁valiutos	-10.0246
LT	-10.0247
▁užbaig	-10.0249
▁Jame	-10.0252
▁Pagaliau	-10.0257
▁ženg	-10.0258
▁Vidurio	-10.0258
▁sistemoje	-10.0259
▁gamintojų	-10.0263
▁80	-10.027
▁ūkiu	-10.0271
▁pateiktą	-10.0273
▁laisvosio	-10.0274
▁500	-10.0275
▁paprastai	-10.0278
▁Ukraina	-10.0282
▁kompetencijos	-10.0282
▁kasmet	-10.0287
▁reitingų	-10.0294
▁įstatymo	-10.0294
▁socialistų	-10.0295
▁kalbu	-10.0298
▁išvadas	-10.0306
▁aukščiausio	-10.0308
▁tikisi	-10.0309
▁išvados	-10.0311
▁tarpvalstybin	-10.0313
▁riboja	-10.0318
▁gyvūn	-10.0321
▁plane	-10.0322
▁programoje	-10.033
▁didžiausias	-10.0333
▁tęsia	-10.0336
▁poreikis	-10.0342
▁įvairovės	-10.0355
▁vidutinės	-10.0356
▁naujovių	-10.0358
▁saugumui	-10.0362
▁Prezident	-10.0366
▁vietovėse	-10.0366
▁pavyzdžiu	-10.0369
vimą	-10.0371
▁pardav	-10.0377
▁kovai	-10.0378
▁gina	-10.0381
▁įvykdyt	-10.0398
▁pagrindinius	-10.0403
▁ieškoti	-10.041
▁vaikus	-10.0413
▁ataskaitoje	-10.0415
▁atsiranda	-10.0415
▁sieja	-10.0415
▁prireik	-10.0429
▁diskriminacijos	-10.0439
▁būdai	-10.0443
▁patrauk	-10.0447
▁reikšmę	-10.0452
▁skatinimo	-10.0461
▁Kosovo	-10.0463
osiomis	-10.0475
▁laikyti	-10.0475
▁nužud	-10.0476
▁ministras	-10.0476
▁sakiau	-10.0479
▁augimas	-10.0489
▁Turėtum	-10.0495
▁teisinę	-10.0496
▁ribos	-10.0496
▁vadovai	-10.0507
egz	-10.0508
▁narystės	-10.0508
▁kūrimą	-10.0509
▁diskusijoje	-10.0512
▁gamybą	-10.0512
▁paslaugomis	-10.0512
▁tikslams	-10.0512
▁žingsnį	-10.0512
▁konkurencingumo	-10.0512
▁subsidiarumo	-10.0512
▁Ties	-10.0514
izacija	-10.0518
▁geros	-10.052
▁aspektą	-10.0524
▁pasaulinio	-10.0529
▁nusipeln	-10.0537
▁sporto	-10.0537
▁naudojamos	-10.0538
▁priešingai	-10.0543
▁kitu	-10.0546
▁naujausi	-10.0547
▁kontroliuoja	-10.0551
▁sunkiai	-10.0553
dešimt	-10.0556
iečiai	-10.0569
▁fondą	-10.0574
čiausi	-10.0577
▁mintis	-10.0578
▁paskelbti	-10.058
lav	-10.0581
▁neteisinga	-10.0582
▁vertę	-10.0583
▁skait	-10.0586
▁pavyks	-10.0586
▁parlamento	-10.0591
▁Ispanija	-10.0598
▁dioksido	-10.0598
▁tarptautinę	-10.0598
▁nustatytų	-10.0609
▁Tarp	-10.061
▁Kal	-10.0619
▁sėkminga	-10.0623
▁vairuo	-10.0625
▁parengtas	-10.0627
▁aiškin	-10.0632
priklausomyb	-10.0638
▁esate	-10.0648
▁viešojo	-10.0659
▁daugiašal	-10.0661
▁tikslin	-10.067
▁kortel	-10.0673
▁trečiosiom	-10.0685
▁Kol	-10.069
▁vystymąsi	-10.0698
▁dėkinga	-10.0698
▁pradeda	-10.0708
milijard	-10.071
▁padėk	-10.071
▁zona	-10.0715
▁daugeliui	-10.072
▁atliekam	-10.0722
▁Briuselyje	-10.0748
▁europiečių	-10.0748
▁jumis	-10.0748
▁23	-10.0756
▁Sutinku	-10.076
▁neišveng	-10.076
▁žuvų	-10.076
▁žalą	-10.0761
▁minimali	-10.0763
▁efektyvumą	-10.0773
bendr	-10.0774
▁nelaimės	-10.0777
▁problemomis	-10.0785
▁vasario	-10.0785
▁prisidėjo	-10.0788
▁gamintojams	-10.0788
▁išankstin	-10.0798
▁neatitinka	-10.0798
▁perkelti	-10.0799
▁išsamiai	-10.0802
▁rimtų	-10.0811
▁nuveikti	-10.0811
▁ženklas	-10.0812
▁reikalingos	-10.0823
▁įstatymus	-10.0823
▁ekologin	-10.0834
▁atvejis	-10.0836
▁seksualin	-10.0836
▁bendrąj	-10.0837
krit	-10.0837
žius	-10.0842
▁Tarptautini	-10.0842
▁vienodo	-10.0844
▁dideliu	-10.0847
▁teikimo	-10.0848
▁energija	-10.0861
▁padėčiai	-10.0861
usią	-10.0861
▁grįžti	-10.0862
▁pažangi	-10.0864
▁norėjo	-10.087
▁akivaizd	-10.0873
▁pradžios	-10.0874
tinio	-10.0878
▁miestų	-10.0887
▁vieta	-10.0894
▁įreng	-10.09
▁įvairiose	-10.0902
▁skirtumus	-10.0905
▁nepamiršti	-10.0909
▁daugia	-10.091
▁konkurenciją	-10.0913
▁abiejų	-10.0925
▁biudžetu	-10.0927
▁atgal	-10.093
▁blok	-10.0938
▁regionai	-10.0942
▁peržiūrėti	-10.095
▁nuspręsti	-10.0952
▁šalin	-10.0956
▁pažeidimus	-10.0956
▁baim	-10.0958
▁objektyv	-10.0963
taut	-10.0966
aisiais	-10.0967
▁kreiptis	-10.0969
▁vos	-10.0978
▁svarstymą	-10.0984
▁įsikiš	-10.0989
▁pagarbą	-10.0989
▁atnaujinti	-10.0989
▁ieško	-10.099
▁pirmyn	-10.0993
▁girdė	-10.101
škai	-10.1013
▁sužinoti	-10.1013
▁tradicin	-10.1014
▁dalyvavo	-10.1015
▁skaitmenin	-10.1015
▁konflikto	-10.1017
▁teikiant	-10.102
▁privaloma	-10.1024
atsak	-10.1027
▁tekstilės	-10.1027
▁dalyvavimą	-10.1027
▁atėjo	-10.1031
▁linkme	-10.1032
▁sav	-10.1042
▁sustabd	-10.1043
▁naudojamas	-10.1054
▁ūkinink	-10.1054
▁konkrečius	-10.1054
▁tvirtą	-10.1056
▁laikantis	-10.1058
▁likti	-10.1062
▁tyrimą	-10.1067
▁įgyvendinama	-10.107
▁paketas	-10.108
vyriausyb	-10.1082
tenka	-10.1087
▁taup	-10.109
▁eil	-10.1096
▁sutarčiai	-10.1105
▁tiksliai	-10.1107
▁prašymą	-10.1118
▁dydžio	-10.1118
▁prisijungti	-10.1118
▁atsiras	-10.1125
▁padariniai	-10.113
▁paspartin	-10.1131
▁sutikti	-10.1135
▁varg	-10.1135
krikščion	-10.1138
▁pranešimų	-10.114
▁Rumunija	-10.1144
▁naštą	-10.1144
▁humanitarinės	-10.1145
▁bendradarbiau	-10.1161
▁Baigdamas	-10.1161
▁kovoja	-10.1164
pakeit	-10.1168
▁gamtos	-10.117
▁tekstas	-10.1178
▁fondai	-10.1183
▁atitinkamai	-10.1187
▁Tarptautinės	-10.1192
▁primygtinai	-10.1196
▁ūkininkai	-10.1198
ET	-10.12
▁krovinių	-10.121
▁praktika	-10.121
▁miesto	-10.121
▁stojimo	-10.121
▁įsitikinusi	-10.1212
▁mokėti	-10.1213
▁teisinio	-10.1218
▁žurnalist	-10.1223
▁pagarba	-10.1223
▁meta	-10.1227
▁užmokesčio	-10.1236
▁Raštišk	-10.1249
▁kompromisas	-10.1249
▁Rūmai	-10.1249
▁teisinį	-10.125
ulia	-10.1251
▁patvirtinta	-10.1256
▁įvykius	-10.1262
▁komand	-10.1263
▁esančių	-10.1272
avus	-10.1272
▁gerų	-10.1273
▁pasitikėjimo	-10.1275
▁tvarką	-10.1277
▁užduoti	-10.1288
▁Palestinos	-10.1289
▁pastaraisiais	-10.129
▁tautų	-10.129
▁žaisl	-10.129
▁socialinius	-10.1298
▁kitoje	-10.1302
▁išorin	-10.1314
▁asociacijos	-10.1315
▁pacientų	-10.1315
▁panaudot	-10.1325
▁teismų	-10.1328
▁proporcing	-10.1328
▁Afrikoje	-10.1328
▁išplėsti	-10.1328
▁pagrindinį	-10.133
▁pradžia	-10.1342
▁demografin	-10.1355
▁bausmės	-10.1356
▁mokyklos	-10.1368
▁didžiausių	-10.1374
▁dialogas	-10.1382
▁mechanizmą	-10.1382
▁pakeitimu	-10.1383
▁palikti	-10.1389
▁mokėjimų	-10.1397
tynų	-10.1407
▁atitiktų	-10.1408
▁svarstoma	-10.1413
▁raginame	-10.142
▁dokumentas	-10.1422
▁Aplinkos	-10.1422
▁sekretor	-10.1422
▁skirtingos	-10.1423
▁ekonominį	-10.1432
▁pagarbos	-10.1435
ajam	-10.1444
▁kriterijų	-10.1449
▁sektoriuose	-10.1449
▁grėsmė	-10.1449
▁pertvark	-10.1451
▁baud	-10.1465
▁PVM	-10.1476
▁darbuotojus	-10.1476
▁sudaryta	-10.1487
▁Bulgarijos	-10.1489
▁gamintojai	-10.1493
▁plačiai	-10.1494
▁teigiamą	-10.1496
▁žengti	-10.15
▁diskutuojame	-10.1504
▁kelti	-10.1508
lika	-10.151
▁tinklų	-10.1511
▁plačia	-10.1523
▁išlieka	-10.1526
rašyti	-10.1526
▁naujai	-10.1528
▁laikais	-10.153
▁struktūra	-10.1543
▁suderinta	-10.1543
▁dirbančių	-10.1549
dikta	-10.1555
▁bendrijos	-10.1557
▁direktyvoje	-10.1557
▁mikro	-10.1557
taisykl	-10.1558
▁prisitaik	-10.1562
▁valdymas	-10.1569
▁tūkst	-10.157
▁importo	-10.1571
▁nepasiek	-10.1573
cijoms	-10.1579
▁ilgą	-10.1582
▁pažeidžia	-10.1586
▁dirbo	-10.1594
ficial	-10.1597
▁religijos	-10.1598
▁verslinink	-10.1598
▁savaites	-10.1598
▁vertinama	-10.1609
▁atkūrimo	-10.1625
▁klaidų	-10.1625
▁taryba	-10.164
▁sveiki	-10.1651
▁gamtin	-10.1659
sunaikin	-10.1663
▁Tarptautin	-10.1665
▁žodžių	-10.1666
▁gaires	-10.1666
▁užuot	-10.1667
▁įtrauktos	-10.1671
▁Gruzijos	-10.168
▁investicijos	-10.168
▁nepra	-10.168
▁Žinau	-10.168
▁priimto	-10.1683
▁Kroatijos	-10.1694
▁Stabilum	-10.1694
▁tūkstančių	-10.1695
▁technologijos	-10.1698
šiems	-10.1706
▁nusivyl	-10.1708
▁negalės	-10.1708
▁naudojama	-10.1717
▁įsitrauk	-10.1721
▁Britanijos	-10.1721
▁laipsnišk	-10.1721
▁išplėt	-10.1721
▁pajamas	-10.1723
▁atliktą	-10.1727
▁riziką	-10.1735
▁jung	-10.1749
▁ekstr	-10.175
▁atsidūr	-10.177
▁pasiekėme	-10.1775
▁projektai	-10.1777
▁imigrantų	-10.1791
▁prioritetai	-10.1791
▁pilietinės	-10.1796
▁gero	-10.1796
mokyk	-10.1801
▁atgaivin	-10.1805
▁šešėlini	-10.1805
▁pašar	-10.1805
▁ligų	-10.1807
▁lankstumo	-10.1819
▁įvyks	-10.1819
▁klaiding	-10.182
▁save	-10.1825
▁Airija	-10.1833
▁skelb	-10.1836
▁nereiškia	-10.1847
▁projektams	-10.1847
▁atitinkamų	-10.185
▁paskirti	-10.1859
▁išaiškin	-10.186
▁specifin	-10.1861
▁išskyrus	-10.1861
vykus	-10.1884
▁reikalavimas	-10.1889
▁donor	-10.189
▁pareiškimą	-10.1891
klaida	-10.1891
▁neigiamą	-10.1896
▁pereiti	-10.1896
▁partijų	-10.1917
▁privalu	-10.1932
▁dvidešimt	-10.1933
▁protinga	-10.1935
▁24	-10.194
▁sunkumus	-10.1943
▁patenkintas	-10.1945
▁bendrov	-10.1948
▁tobulinti	-10.1951
▁privers	-10.1953
▁Vengrija	-10.1959
▁struktūros	-10.1973
▁judėti	-10.1979
deg	-10.198
▁vidutinėms	-10.1982
▁kritišk	-10.1985
▁mokesčio	-10.1988
ryšk	-10.1989
▁Teismo	-10.2
▁padėjo	-10.2
▁reikalingi	-10.2002
▁nusikaltimų	-10.2002
registruo	-10.2002
▁mažosioms	-10.2006
▁tebėra	-10.2016
▁trumpalaik	-10.2016
▁veiksnys	-10.2016
▁norėjau	-10.2016
▁skaid	-10.2028
▁rizika	-10.203
▁nuostata	-10.2041
▁apgailestauju	-10.2045
▁specialist	-10.2048
▁social	-10.2048
▁skirtumų	-10.2057
▁įdarbin	-10.2058
▁asmuo	-10.2059
▁Komisare	-10.2062
▁nuosav	-10.2063
▁trukmės	-10.2071
▁paskir	-10.2071
▁Pavyzdžiui	-10.2073
▁dalyvavimas	-10.2073
▁vykti	-10.2073
▁suteiktų	-10.2077
paprast	-10.2079
▁palaikymo	-10.2085
▁civilinės	-10.2087
▁straipsnyje	-10.2087
▁kenkia	-10.2087
▁perkėlimo	-10.2088
▁supras	-10.2088
▁indėlį	-10.2102
▁Laik	-10.2105
▁lob	-10.2105
▁elgesio	-10.2116
▁atmesti	-10.2118
▁ankstesni	-10.2119
▁prisiminti	-10.2131
▁priimtų	-10.2131
▁dalyvavimo	-10.2131
▁uostų	-10.2131
▁praktini	-10.2146
uomet	-10.2155
▁išgirsti	-10.2159
▁jūroje	-10.2159
▁ryžtingai	-10.2159
▁darome	-10.2163
▁internetu	-10.2174
▁išreikšt	-10.2178
▁teksto	-10.2181
pagrind	-10.2183
▁įgaliojimų	-10.2188
▁Remiant	-10.2191
▁vienodas	-10.2196
▁teisiškai	-10.2198
teikia	-10.2203
▁užtikrinimo	-10.2204
▁mobili	-10.2215
ėmės	-10.2216
▁fiskalin	-10.2217
▁interesams	-10.2217
▁teismin	-10.2225
vid	-10.2233
įvair	-10.2242
▁vienodai	-10.2246
▁gavo	-10.2249
▁sąskaita	-10.2261
▁priskir	-10.2268
▁mokėtojų	-10.2276
▁vyriausi	-10.2277
▁teisinių	-10.2283
▁iššūkiai	-10.229
2010	-10.2303
▁įgaliojimai	-10.2305
▁Švedija	-10.2305
▁reforma	-10.2316
▁konstruktyvi	-10.2319
▁trūkumų	-10.2319
▁149	-10.2324
▁Italijoje	-10.2334
▁situaciją	-10.2334
▁Tiesa	-10.2337
virš	-10.2337
▁tiesą	-10.2347
▁vykstanči	-10.2349
▁abiem	-10.2353
▁nutar	-10.2358
▁pavojinga	-10.2364
▁mokesčius	-10.2364
▁sveikatą	-10.2364
▁ateičiai	-10.2378
neturting	-10.2379
▁atleist	-10.2384
▁Atsak	-10.2384
▁kalin	-10.2394
traukti	-10.2402
sigaliojus	-10.2408
būtų	-10.2417
▁visuomenėje	-10.2424
▁mini	-10.2425
▁sparčiai	-10.2438
▁Region	-10.2438
▁atšauk	-10.2438
▁tyrimo	-10.2446
▁Sch	-10.2448
▁Esame	-10.2453
▁vidutinių	-10.2456
▁bendrovėms	-10.2456
▁teko	-10.2461
▁susisiekimo	-10.2467
▁veiksmingumą	-10.2467
▁žinią	-10.2467
▁pagamint	-10.2467
▁sudėtingo	-10.2467
▁kankin	-10.2468
▁fizin	-10.2469
▁sistemin	-10.2477
▁taikymą	-10.2478
▁internete	-10.2482
▁PSE	-10.2482
▁konfliktų	-10.2484
▁alternatyvi	-10.2497
▁vystyti	-10.2499
▁nurodoma	-10.2501
▁ligos	-10.2505
išrinkt	-10.2505
▁liga	-10.2508
▁nesugebėj	-10.2512
▁vykdomos	-10.2519
inėti	-10.2525
▁pesticid	-10.2527
▁žodį	-10.2527
▁faktas	-10.2527
▁lygiai	-10.2539
▁sumažėjo	-10.2542
▁vykdymo	-10.2551
▁besivystančioms	-10.2554
▁naudojam	-10.256
osioms	-10.2567
▁sandorių	-10.2572
▁koordinuoti	-10.2576
▁valdyti	-10.2579
▁leidimų	-10.2587
▁statybos	-10.259
▁spręs	-10.2591
▁AKR	-10.2602
padėtis	-10.2605
▁skirto	-10.2608
▁infrastruktūrą	-10.2612
▁dalin	-10.2614
▁sritys	-10.2618
▁sankcijų	-10.2648
biudžet	-10.2662
▁pavojaus	-10.2663
▁nepavyko	-10.2663
▁nemanau	-10.2663
▁tvaraus	-10.2663
bor	-10.2664
▁reguliuoja	-10.2666
2008	-10.2666
▁mažėja	-10.2672
▁intelektin	-10.2678
▁Serbijos	-10.2678
▁dalyką	-10.2678
▁iššūkis	-10.2678
▁korupcija	-10.2678
▁savaičių	-10.2678
▁diplomatin	-10.2679
▁suteikiant	-10.2683
▁nacional	-10.2693
▁ekspertų	-10.2693
problema	-10.2697
▁nestabil	-10.2708
▁pagrįsto	-10.2708
▁pasekmes	-10.2708
▁rūšies	-10.2708
▁įvykusi	-10.271
▁mąst	-10.2713
krypt	-10.2717
▁arešt	-10.2724
▁aiškų	-10.2729
▁įsteigti	-10.2733
▁konferencijos	-10.2739
▁būdą	-10.2747
▁būtinos	-10.2752
▁migrantų	-10.2754
▁komunist	-10.2754
▁Vida	-10.2761
▁gimt	-10.2763
temp	-10.2764
▁pirmenybę	-10.2768
▁modelį	-10.277
▁etape	-10.277
▁tyrimams	-10.2771
▁strategini	-10.2771
▁nepritaria	-10.2772
▁dalių	-10.2777
▁centrini	-10.2778
▁moksliniai	-10.2781
▁faktiškai	-10.2785
▁gresia	-10.2786
▁patirtį	-10.2787
▁dvejus	-10.2811
▁Portugalija	-10.2816
kov	-10.2817
▁ilgiau	-10.2831
▁teigiamų	-10.2834
▁nuspręs	-10.2845
▁sąjunga	-10.2847
▁reformą	-10.2847
▁pirmojo	-10.2851
▁tose	-10.2853
▁terorizmo	-10.2862
▁numatytos	-10.2863
stūm	-10.2877
▁mumis	-10.2879
▁tebe	-10.2886
▁erdvę	-10.2888
▁neatidėliotin	-10.2893
▁pradedant	-10.2902
▁vykstant	-10.2903
▁Aišku	-10.2908
▁pasekmių	-10.2909
▁pataisy	-10.2914
▁darbų	-10.2914
▁tokiomis	-10.2924
▁Būtų	-10.2925
▁neišspręs	-10.2926
▁sujung	-10.2931
▁atspindi	-10.294
▁ministrų	-10.2942
▁stebėjimo	-10.2947
▁Palankia	-10.2956
▁diskutuoti	-10.296
▁2000	-10.2968
▁transportu	-10.2974
▁skirtumai	-10.2986
▁trečiosios	-10.2994
▁Kroatija	-10.3003
▁Kiekviena	-10.3003
▁Van	-10.3004
▁Priešingai	-10.3005
skirti	-10.3006
▁panaikinimo	-10.3009
▁vykdyt	-10.3018
▁remdamasi	-10.3018
▁prašymu	-10.3018
▁sutiko	-10.3022
▁Kinijoje	-10.3034
▁Raginu	-10.3034
▁uždrausti	-10.3034
▁išimtin	-10.3049
▁pastabų	-10.305
▁Daugelis	-10.305
▁pradės	-10.3051
▁susitarime	-10.3057
2009	-10.306
▁užduot	-10.3065
▁alkohol	-10.3066
▁įsipareigojimai	-10.3066
▁galėčiau	-10.3066
▁Bendra	-10.3072
▁atvira	-10.3076
▁bankas	-10.3082
▁generalini	-10.3097
▁pusiausvyros	-10.3097
▁spaudos	-10.3098
▁terš	-10.31
▁vertiname	-10.3104
▁kontekste	-10.3113
▁audito	-10.3129
▁jungtin	-10.3143
▁anksto	-10.3145
▁pridurti	-10.3145
▁sudarytos	-10.3145
pirmininkaujanči	-10.3147
buvo	-10.3156
▁būtume	-10.3156
avę	-10.3157
plauk	-10.316
▁pavyzdžių	-10.3161
▁sąmoning	-10.3161
▁kvotų	-10.3161
▁šiuolaikin	-10.3167
▁Svarbiausia	-10.3177
▁pajėgų	-10.3179
švaist	-10.3192
▁imigracija	-10.3193
▁rekomendacijos	-10.3193
▁taupymo	-10.3198
kultūr	-10.3198
vėl	-10.3199
▁darbe	-10.32
▁integraciją	-10.3211
▁atskleid	-10.3213
▁įgyvendinimu	-10.3214
▁prognoz	-10.3225
▁Kopenhagoje	-10.3225
▁metodą	-10.3228
saugo	-10.3236
▁kultūra	-10.3238
▁patikima	-10.324
lov	-10.324
sąžin	-10.3241
▁ruoš	-10.3241
▁išnaudoti	-10.3241
▁Azijos	-10.3241
▁išnagrinė	-10.3256
▁nepalanki	-10.3257
▁puoselė	-10.3257
▁naudojasi	-10.3258
▁Rom	-10.3259
▁finansinio	-10.3259
▁Or	-10.3262
▁pranešimai	-10.3268
▁aukštesn	-10.327
lum	-10.3272
▁ekonomišk	-10.3273
▁Arkties	-10.3273
▁sureng	-10.3282
▁įtikin	-10.3284
▁Juodosios	-10.3289
▁ginkluot	-10.329
▁netaik	-10.3294
▁administravimo	-10.3306
▁europiečiai	-10.3306
▁konferencija	-10.3306
▁palygin	-10.331
▁mažųjų	-10.3311
▁sankcijas	-10.3322
▁pakalbėti	-10.3322
▁oficialiai	-10.3325
▁sienas	-10.3325
▁pripažįstama	-10.3326
▁Kiek	-10.3338
▁įtikinti	-10.3339
▁70	-10.3351
▁nelygyb	-10.3357
▁socialiniai	-10.3358
▁patenka	-10.3368
▁einantis	-10.3375
▁renka	-10.3375
▁aktą	-10.3381
▁galimybėmis	-10.3391
▁ryšio	-10.3403
▁perdavimo	-10.3436
▁grandin	-10.3438
▁dešin	-10.3445
▁22	-10.3445
▁Užsieni	-10.3452
▁paminėjo	-10.3453
▁gyvenančių	-10.3458
▁nustatytu	-10.346
▁praktikos	-10.3469
▁uždavinys	-10.3469
▁Teisės	-10.3469
▁gars	-10.3484
▁tarpusavyje	-10.3485
▁skurdą	-10.3485
▁EIB	-10.3485
▁susijusį	-10.3485
▁pasekmė	-10.3502
▁saugą	-10.3502
▁nustatoma	-10.3516
▁balt	-10.3517
▁opozicijos	-10.3518
▁priklausanči	-10.3519
kriz	-10.3522
▁vadovaujantis	-10.3524
ausias	-10.3534
▁smurtą	-10.3535
▁struktūrą	-10.3535
▁pasipriešin	-10.3536
▁bendrojo	-10.3537
▁šaltinis	-10.3539
▁seniai	-10.3543
▁gyvenime	-10.3545
▁dokumento	-10.3552
▁lėšomis	-10.3552
▁septyni	-10.3552
paversti	-10.3569
▁reikšminga	-10.357
▁atsakymas	-10.3572
▁visišką	-10.3577
ALE	-10.3585
▁įstatymai	-10.3585
▁taikymas	-10.3587
▁veda	-10.3591
rst	-10.3599
▁susipažinti	-10.36
▁regionas	-10.3603
▁sumažinta	-10.3618
▁padidėjo	-10.3618
▁išsamų	-10.3618
▁atmes	-10.3625
rov	-10.3626
▁Klausim	-10.3635
▁gautų	-10.3636
▁pasauliniu	-10.3641
didel	-10.3648
▁civilin	-10.3653
▁klausimams	-10.3655
sakyti	-10.3669
▁gelbė	-10.3669
praneš	-10.367
ėjimai	-10.3671
▁įsipareigojimas	-10.3672
▁įdomu	-10.3673
▁pagrįsti	-10.3685
pažeis	-10.369
▁išsiaiškinti	-10.3702
▁mechanizmas	-10.3702
▁religini	-10.3704
▁priims	-10.371
▁dažn	-10.3712
mūsų	-10.3725
▁spart	-10.3726
▁skaidrumas	-10.3736
▁reikalas	-10.3736
▁įvairovę	-10.3752
▁Respublika	-10.3753
▁daugiamet	-10.3759
▁pateiktus	-10.3767
▁švietimą	-10.377
▁režimas	-10.377
▁įprasta	-10.377
▁statistini	-10.3771
izaciją	-10.3771
▁Tada	-10.3782
▁Žinome	-10.3787
▁papildomą	-10.3787
rezerv	-10.3804
▁savarankiškai	-10.3815
▁atostogų	-10.3821
▁straipsniu	-10.3821
▁dažniausiai	-10.3821
▁susirink	-10.3822
▁užkirs	-10.3822
▁paragin	-10.3822
tampa	-10.3825
▁lėt	-10.3828
▁aplinkybes	-10.3838
▁asmenis	-10.3838
▁Norint	-10.3839
▁ačiū	-10.3855
simės	-10.3871
▁stebėsenos	-10.3872
▁sakau	-10.3878
▁Vakar	-10.3878
▁lengv	-10.3888
▁Indijos	-10.3889
▁repr	-10.3899
▁reikėjo	-10.3905
▁zonoje	-10.3906
▁Paskutin	-10.3906
▁kokybišk	-10.3921
▁bendroji	-10.3923
▁baronien	-10.3924
▁pagirti	-10.3924
▁ateitis	-10.3924
iniciatyv	-10.3924
▁negalėjo	-10.3925
▁iššūkių	-10.3941
▁pasaulis	-10.3941
▁Saugumo	-10.3941
▁kovoje	-10.3942
▁atrod	-10.3962
▁Pirmasis	-10.3962
▁26	-10.3969
▁laikotarpis	-10.3975
▁keleri	-10.3976
▁paskelbta	-10.3976
techn	-10.3977
▁Norime	-10.398
skirstymo	-10.3981
▁dažniau	-10.3993
▁punktas	-10.3993
▁reglamentavimo	-10.3993
▁metodas	-10.3995
▁praeityje	-10.3996
Euro	-10.4
▁viešosios	-10.4001
▁siekdamos	-10.4002
▁drąsi	-10.4011
▁sužino	-10.4013
▁mažesni	-10.402
▁protokolo	-10.4027
▁garantija	-10.4045
▁tvirtina	-10.4059
▁istorijos	-10.4062
▁lygmenimis	-10.4062
▁trūkumas	-10.4062
taikyti	-10.4062
▁mieste	-10.4062
▁Afganistano	-10.408
▁delegacija	-10.408
▁pasauliui	-10.408
imbabv	-10.408
▁ištirti	-10.408
▁rūmuose	-10.4082
▁vyksianči	-10.4082
▁pritaik	-10.4083
▁pagrindinėm	-10.4084
▁Sarkozy	-10.4097
▁Serbija	-10.4097
▁mechanizmo	-10.4097
pažįsta	-10.411
▁besivystančiose	-10.4111
▁užimtumą	-10.4115
▁sukelti	-10.4117
▁Rūmuose	-10.4132
▁motinystės	-10.4132
▁faktą	-10.4132
▁suvokti	-10.4133
▁mažumos	-10.4134
▁Pranešimas	-10.4134
▁bankai	-10.4134
▁norą	-10.4138
▁lanksči	-10.414
▁tarpinink	-10.414
▁informuot	-10.415
brėž	-10.415
▁derėtų	-10.415
▁gairės	-10.415
▁prieštaring	-10.4154
▁kitur	-10.4155
▁integruoti	-10.4167
▁Lenkija	-10.4168
▁konferencijoje	-10.4168
▁kompromisin	-10.4168
▁Indija	-10.4168
▁išaugo	-10.4171
▁ankstyv	-10.4185
▁milijonai	-10.4187
▁atomin	-10.4189
▁vertinimas	-10.4197
▁aštuoni	-10.4203
▁trauk	-10.4237
▁produktams	-10.4239
▁nesutar	-10.4242
▁atviru	-10.4247
▁tarpvalstybini	-10.4248
Komisijos	-10.4252
▁ženklinimo	-10.4253
▁Komisijoje	-10.4256
▁informavimo	-10.4256
▁siunčia	-10.4257
▁tinkamų	-10.4257
▁slap	-10.427
▁atviro	-10.4274
▁Vokietija	-10.4274
▁Tikimės	-10.4274
▁importuojam	-10.4275
▁Moldovos	-10.4292
▁profesional	-10.4292
▁infrastruktūra	-10.4307
▁panaudojimo	-10.431
▁chemin	-10.431
▁parduot	-10.4325
▁nesuteik	-10.4329
▁Vokietijoje	-10.4346
▁nviena	-10.4346
▁lėm	-10.4372
▁poreikių	-10.4382
▁nustatymo	-10.439
▁veikloje	-10.44
▁sveikata	-10.4414
▁sugebės	-10.4431
▁Bulgarija	-10.4436
▁apribojimų	-10.4436
▁pasienio	-10.4436
▁teisėtai	-10.4449
▁nukentėjo	-10.4454
▁orientuot	-10.4454
▁Pagrindin	-10.4456
aukščiausi	-10.447
▁autorius	-10.4475
▁sudarant	-10.4476
▁reguliar	-10.4491
▁šeimų	-10.4491
▁garantuoti	-10.4492
▁naudingi	-10.4495
▁Jungtinėm	-10.4501
▁didžioj	-10.4524
▁Graikijoje	-10.4527
▁Prancūzijoje	-10.4527
▁pageidauja	-10.4527
▁gyventojus	-10.4527
▁kryptis	-10.4528
▁įvairov	-10.4544
▁nagrinėti	-10.4545
▁prasidėjo	-10.4545
▁nacionaliniai	-10.4551
▁vyresni	-10.4564
▁pačią	-10.4564
▁prisidės	-10.4567
▁pranešėju	-10.4569
▁atsargi	-10.4575
▁augimui	-10.4583
Š	-10.4587
▁Valstyb	-10.4592
▁pagrįstą	-10.4601
▁solidarumas	-10.4601
▁kalbėjusi	-10.4613
▁situacijos	-10.4619
▁savarankišk	-10.4625
▁privati	-10.4626
▁pasirūpin	-10.4637
▁išlikti	-10.4638
▁prieigą	-10.4638
▁mokymą	-10.4642
teikti	-10.4642
▁serga	-10.4656
▁įstatymą	-10.4656
▁naudojimu	-10.4659
▁jokiu	-10.466
▁nepamirš	-10.466
▁28	-10.4668
▁apsvarst	-10.467
▁Tūkstantmeči	-10.4675
▁Transporto	-10.4693
▁nusikalstamumu	-10.4693
▁dinamišk	-10.4693
▁tragišk	-10.4694
▁grupėms	-10.4694
prasta	-10.4698
▁bylos	-10.4712
turėtų	-10.4713
▁dokumente	-10.473
▁ombudsmeno	-10.473
▁sušvelnin	-10.473
▁atsirado	-10.4731
▁banku	-10.4738
▁delegacijos	-10.4749
▁valdysenos	-10.4749
▁paskolų	-10.4749
▁našta	-10.475
▁Piliečių	-10.4768
▁Libijos	-10.4768
▁kalboje	-10.4769
▁ruožtu	-10.4787
program	-10.4787
vaizdu	-10.4797
▁diskusijoms	-10.4805
▁projekte	-10.4805
▁sukčiavimu	-10.4805
▁balsavimu	-10.4805
▁skolos	-10.4806
▁sudarytų	-10.4835
▁atitik	-10.4835
▁valios	-10.4857
▁Pakistano	-10.4862
▁tokioms	-10.4863
jungti	-10.4875
pasiūl	-10.4876
▁prašome	-10.488
▁jokia	-10.488
▁sudarymo	-10.488
▁reformuo	-10.4881
▁atstat	-10.4882
▁svar	-10.4884
▁šeima	-10.4886
▁žmogus	-10.49
▁tarptautinėje	-10.49
▁pastebim	-10.49
▁Jums	-10.49
▁gaben	-10.49
▁įpareigoja	-10.4919
▁Slovakijos	-10.4919
▁mokestį	-10.4919
▁surasti	-10.492
▁muitų	-10.4921
▁žaliavų	-10.4938
▁aukoms	-10.4938
▁skelbia	-10.4953
▁judumo	-10.4953
▁pusiausvyra	-10.4957
▁apginti	-10.4957
▁balsuosime	-10.4957
▁Atrodo	-10.4959
▁primena	-10.4961
▁konkrečios	-10.4963
išspręs	-10.4966
▁pavojingų	-10.4976
▁peržiūros	-10.4976
▁vietovių	-10.4976
▁atsižvelgdami	-10.499
▁kairiųjų	-10.4996
▁pirkimų	-10.5003
▁varom	-10.501
▁suvokia	-10.501
ėjimų	-10.5013
nutraukkalbėtoją	-10.5015
▁Ekonomin	-10.5015
▁įrangos	-10.5015
EGF	-10.5015
▁konkrečias	-10.5016
▁valdom	-10.5023
gauna	-10.5026
ininkams	-10.5039
reguliuo	-10.5049
▁susitelk	-10.5053
▁esamų	-10.5053
▁reikštų	-10.5054
▁tvarų	-10.5056
▁ministrai	-10.5057
▁ženklin	-10.5064
▁modelio	-10.5072
▁artėja	-10.5089
▁skirtingai	-10.5093
▁kritika	-10.5093
▁Rumunijoje	-10.5111
▁kreditų	-10.5111
▁konvencija	-10.513
▁vartotojus	-10.513
▁Žaliųjų	-10.5131
▁reguliuoti	-10.5131
▁įsipareigojo	-10.5137
▁Rytuose	-10.515
▁remdamiesi	-10.5169
▁dialogu	-10.5189
▁ideolog	-10.5189
▁moralin	-10.5189
▁kilti	-10.5189
▁ūkis	-10.519
▁pasaulį	-10.5209
▁nukryp	-10.5219
▁Veik	-10.5228
▁Neseniai	-10.5228
▁Komitet	-10.5228
▁Peticij	-10.5228
▁kadencijos	-10.5229
praktin	-10.5243
įkalin	-10.5244
▁centro	-10.5248
▁kompromiso	-10.5248
▁reikšmės	-10.5249
▁augalų	-10.5249
▁tipo	-10.5252
▁savęs	-10.5252
▁sunkumais	-10.5253
▁detal	-10.526
▁pasisteng	-10.5267
▁Afganistane	-10.5267
▁gairių	-10.5268
▁importuot	-10.5271
▁atidar	-10.5281
tarnaut	-10.5284
▁išbrauk	-10.5287
▁padeng	-10.5288
▁minėto	-10.5291
▁skland	-10.5304
▁kariuomen	-10.5307
▁įstaigų	-10.5307
▁testavim	-10.5308
▁misija	-10.531
▁pajėgos	-10.5311
▁esamo	-10.5311
nepriklausomybės	-10.5315
EC	-10.5326
▁Lenkijoje	-10.5327
▁reikalavimą	-10.5327
▁judėjimas	-10.5331
▁plati	-10.5334
organizaci	-10.5339
▁naštos	-10.5347
▁taikomų	-10.5352
▁diplomat	-10.5365
sprendžia	-10.5365
šioms	-10.5369
▁vertybės	-10.5377
▁29	-10.5379
▁žiauri	-10.5381
▁pasibaig	-10.5386
abejoti	-10.5393
▁socialiniam	-10.5397
▁apmokestinimo	-10.5406
▁ateinančiu	-10.5412
▁tabako	-10.5426
▁gaila	-10.5427
▁ligoni	-10.5435
▁Italija	-10.5446
▁mokesčiai	-10.5446
▁moksliniam	-10.5466
▁NVO	-10.5466
▁nereikėtų	-10.5466
▁trūkumus	-10.5466
▁gerbiamieji	-10.5466
▁atokiausi	-10.5487
2007	-10.5504
▁GUE	-10.5507
▁politiškai	-10.5507
▁indėlis	-10.5507
▁naujoji	-10.5507
▁stipresn	-10.5523
▁veiksmingumo	-10.5527
▁smerkia	-10.5527
▁sudėtingu	-10.5527
▁pagalvoti	-10.5527
▁švies	-10.5528
▁Schulz	-10.5547
▁direktyvų	-10.5547
▁ketvirtadienį	-10.5547
▁nepateik	-10.5563
geležin	-10.5568
▁2003	-10.5572
▁priežastys	-10.5588
▁vertybėmis	-10.5588
▁Nemanau	-10.5588
▁pareigą	-10.5588
▁tarptautinį	-10.5588
▁statusą	-10.5588
▁įgyti	-10.5592
▁istorija	-10.5608
▁problemoms	-10.5608
▁linijų	-10.5608
▁Baltarusija	-10.5629
Posėdis	-10.5629
BG	-10.5629
▁Kipro	-10.5629
▁kultūrą	-10.5629
▁valanda	-10.563
vykę	-10.5632
▁2002	-10.5635
▁biudžetin	-10.5643
NGL	-10.5649
▁idėją	-10.5649
▁puol	-10.565
▁trukdo	-10.5652
▁pirmenyb	-10.5653
▁Afrika	-10.567
▁Japonijos	-10.569
▁konvenciją	-10.569
▁rimtą	-10.569
▁Antroj	-10.569
▁pigi	-10.5693
▁įraš	-10.5698
ininkystės	-10.5701
▁Sprendim	-10.5711
▁pobūdį	-10.5711
▁referendumo	-10.5711
▁nebūtina	-10.5711
prezident	-10.5721
laisv	-10.5724
▁Gazos	-10.5731
▁skirtingas	-10.5732
▁neįtrauk	-10.5742
intervenci	-10.5747
▁politikų	-10.5752
▁regioną	-10.5754
▁posėdį	-10.5773
▁transatlantin	-10.5773
sanglauda	-10.5773
▁abu	-10.579
sidomė	-10.579
▁vandenyno	-10.5793
▁derėtis	-10.5793
▁formų	-10.5794
▁planų	-10.5796
▁šalimi	-10.5811
ratifikuo	-10.5814
▁prevencin	-10.5814
▁aukomis	-10.5814
▁atneš	-10.5814
▁režimą	-10.5814
▁remiu	-10.5834
▁kampanija	-10.5835
▁modelis	-10.5835
▁sritims	-10.5835
General	-10.5835
▁žvejyba	-10.5836
▁tautos	-10.5837
▁apibendrin	-10.5856
▁istoriją	-10.5856
▁musulmon	-10.5856
▁pastaruoju	-10.5856
▁kultūrų	-10.5857
▁biudžete	-10.5857
▁deryboms	-10.5877
▁valdžią	-10.5877
▁nemoka	-10.5879
▁savinink	-10.5893
▁poreikio	-10.5898
▁turbūt	-10.5898
▁nedarbas	-10.5899
▁prisiimt	-10.5903
▁Slovėnija	-10.5919
▁produkto	-10.5919
▁Rusijoje	-10.5919
▁trūkumo	-10.5919
▁prieigos	-10.592
▁paraš	-10.5927
▁Direktyvos	-10.594
▁savanoriška	-10.594
▁iškraip	-10.5961
▁taisyklėmis	-10.5961
▁apsisprend	-10.597
▁Strasbūre	-10.5982
▁elementų	-10.6003
▁kompensuo	-10.6003
▁paminėta	-10.6008
▁reklamos	-10.6024
▁akcentu	-10.6025
▁veiksmams	-10.6048
▁išspręsta	-10.6054
▁Sveikinu	-10.6067
▁diskriminaciją	-10.6067
▁efektyvesn	-10.6067
▁elementas	-10.6067
▁išgyvena	-10.6067
▁neaišku	-10.6067
▁namuose	-10.6072
▁veiksnių	-10.6073
▁pažeidimai	-10.6077
▁formos	-10.609
▁judėjimą	-10.6093
▁narkotikų	-10.611
▁ryšį	-10.611
▁keitimo	-10.611
▁vertinimu	-10.6111
▁operacijų	-10.6131
▁apribojimai	-10.6131
▁stengiasi	-10.6131
▁penkt	-10.6131
▁Didžioj	-10.6132
▁atverti	-10.6132
▁reikšti	-10.6133
▁išlaisvin	-10.6136
▁įstaigos	-10.6153
▁piršt	-10.6153
socialist	-10.616
tautinbendruomen	-10.6174
▁Moterų	-10.6174
▁2015	-10.6174
▁įrodymų	-10.6174
▁lyties	-10.6175
▁misijos	-10.6176
▁laimi	-10.6195
▁aiškesn	-10.6196
▁vyrauja	-10.6196
▁jūra	-10.6196
▁telefon	-10.6196
▁nusikaltimai	-10.6198
▁praėjusią	-10.6198
▁medicinos	-10.6218
▁įmanom	-10.6235
▁Brazilijos	-10.6239
▁apsunkin	-10.6239
▁koordinavimą	-10.6239
▁normal	-10.6239
▁Irane	-10.624
▁statistikos	-10.6261
▁nepavyks	-10.6261
▁europietišk	-10.6261
▁pietin	-10.6268
▁kompetenciją	-10.6283
▁rekomendacijų	-10.6283
▁patikė	-10.6288
▁antrą	-10.6292
▁smurtas	-10.6305
▁apsiribo	-10.6305
▁prezidentu	-10.6314
▁finansavimu	-10.632
▁Apskritai	-10.6327
▁tarnybų	-10.6327
▁režimu	-10.6332
▁kritin	-10.6334
▁šeimoms	-10.6348
▁paketu	-10.6356
▁komisar	-10.6371
▁prašytoj	-10.6375
▁centru	-10.6392
▁prevencija	-10.6392
▁Dauguma	-10.6393
▁individual	-10.6415
▁praktiką	-10.6415
▁sanglaudą	-10.6415
▁Sutartį	-10.6415
▁vyrai	-10.6415
▁Jugoslavijos	-10.6437
▁Kanados	-10.6437
▁pastarųjų	-10.6437
▁ugd	-10.6437
▁plėsti	-10.6438
▁chartijos	-10.6459
▁tendencija	-10.6459
▁Pramonės	-10.6459
▁aktuose	-10.6459
▁girdėjome	-10.646
▁Europol	-10.6461
▁išrinkta	-10.6481
▁privataus	-10.6481
▁protokola	-10.6481
▁rezoliucijų	-10.6481
▁FRONTE	-10.6481
▁ECB	-10.6481
▁įstatymas	-10.6481
▁pragyven	-10.6497
▁žingsniu	-10.6503
▁tūkstančiai	-10.6503
▁trečdali	-10.6526
▁Irako	-10.6526
▁tikėtina	-10.6527
▁Antrasis	-10.653
▁aspektu	-10.6533
▁ministru	-10.6534
▁mastą	-10.6534
▁gydymo	-10.6548
▁rezultatą	-10.6548
▁aktuali	-10.6548
traukia	-10.6549
▁Kongo	-10.6554
▁investicijoms	-10.657
▁kvalifikacijos	-10.657
▁nesupranta	-10.657
▁teritorini	-10.657
▁Prašau	-10.6571
▁reaguoja	-10.6582
▁smurtu	-10.6593
▁garantuoja	-10.6593
▁etapu	-10.6594
▁medžiagos	-10.6615
▁Sudano	-10.6615
▁skurdas	-10.6615
▁trišal	-10.6616
▁jaunimui	-10.6619
sign	-10.6626
▁Belgijos	-10.6638
▁sąvoka	-10.6638
▁Atlanto	-10.6638
▁Posėdži	-10.6638
išgelbė	-10.6638
▁suderinimo	-10.6638
▁post	-10.6643
pagalba	-10.6655
▁paslaugoms	-10.6661
▁reglamentų	-10.6661
▁esamą	-10.6661
▁surengt	-10.6676
▁ratifikavimo	-10.6683
▁imsis	-10.6687
▁garantijos	-10.6706
▁pareigų	-10.6706
▁paruoš	-10.6706
▁lošim	-10.6706
▁sutrik	-10.6708
▁parlamentų	-10.6732
▁pasitaik	-10.6737
▁tauta	-10.6739
▁neužtikrin	-10.6752
▁Socialistų	-10.6752
▁rinkimuose	-10.6752
▁parduodam	-10.6753
▁keliauja	-10.6762
privalo	-10.6763
▁auka	-10.677
▁Užimtumo	-10.6775
▁Sutartis	-10.6775
▁pasisek	-10.6777
▁Problem	-10.6797
▁švietimas	-10.6797
▁Reikėtų	-10.6798
▁likvid	-10.6798
▁tvarumo	-10.6798
▁veiksniai	-10.6798
▁absurdišk	-10.682
▁palūkanų	-10.682
▁žiniomis	-10.6821
▁Padėtis	-10.6821
▁kainuoja	-10.6821
▁pajamos	-10.6821
Front	-10.6827
▁chartija	-10.6844
▁sritimi	-10.6844
▁Mok	-10.6844
▁skaičiai	-10.6844
▁ketinimai	-10.6844
▁Gruzija	-10.6867
▁nesvarbu	-10.6867
▁protestu	-10.6867
reikia	-10.6875
▁komitetu	-10.6888
▁ministro	-10.6894
▁opi	-10.6896
▁konkuruoti	-10.6913
▁modeliu	-10.6913
▁žuvo	-10.6913
slapt	-10.6925
▁prioritetu	-10.6927
▁vyriausioj	-10.6934
▁drąsos	-10.6936
▁reikalingų	-10.6936
▁pačioje	-10.6936
▁atsakymus	-10.696
▁švent	-10.6962
▁Baltarusijoje	-10.6983
▁maksimal	-10.6983
▁neproporcing	-10.7006
▁pasimokyti	-10.7006
▁suderinto	-10.7006
▁sutaria	-10.7009
▁trukm	-10.7011
stipr	-10.7057
draudžia	-10.7072
▁mokestis	-10.7077
▁planai	-10.7082
▁galėtumėte	-10.7101
▁balans	-10.7101
▁nekalt	-10.7102
▁Lank	-10.7107
▁formuluot	-10.7112
▁mažuma	-10.7116
▁peržiūra	-10.7124
▁kritikuoja	-10.7124
▁ūkių	-10.7126
▁pamirš	-10.7139
laimė	-10.7143
▁pacientams	-10.7148
▁dvasia	-10.7148
▁Komisar	-10.7167
▁natūrali	-10.7172
▁2007-2013	-10.7172
▁Sanglaudos	-10.7172
▁kompromisu	-10.7172
▁lūkesčius	-10.7172
▁reakcija	-10.7172
▁spaudimas	-10.7172
▁Egipte	-10.7196
▁organizacijoms	-10.7196
▁spaudimo	-10.7196
▁rimto	-10.7197
▁santykiuose	-10.722
▁referent	-10.722
▁Lietuvos	-10.7244
▁pakeitimams	-10.7244
▁degalų	-10.7244
▁ištaisyti	-10.7244
▁baisi	-10.7263
▁Korėjos	-10.7268
▁jėgų	-10.7268
▁komunikate	-10.7268
▁pasiūlyto	-10.7284
▁sąnaudų	-10.7292
▁panašu	-10.7292
▁lytin	-10.7315
▁norėdami	-10.7316
▁ribą	-10.7319
▁Valstijomis	-10.734
▁neveiksming	-10.734
▁diskriminuoja	-10.734
▁trejus	-10.734
▁statut	-10.7351
gyventi	-10.7353
▁dalyvaus	-10.7365
▁paskui	-10.7365
▁kaup	-10.7367
▁grasin	-10.737
▁patekim	-10.7374
▁komitetų	-10.7389
▁sričiai	-10.7389
▁operacijos	-10.7389
▁apribojimus	-10.7389
▁miršta	-10.7389
▁ribota	-10.7389
▁pajėgas	-10.7391
dirba	-10.74
tektų	-10.7407
▁radikali	-10.7412
▁Dohos	-10.7413
▁investuoja	-10.7413
▁produktyv	-10.7413
▁ryšiai	-10.7413
▁sesijos	-10.7413
▁pietų	-10.7417
tiesiogin	-10.7436
konsoliduot	-10.7438
▁neramu	-10.7438
▁būdam	-10.7464
▁reglamente	-10.7487
▁užsienyje	-10.7487
▁aukos	-10.7488
finansin	-10.7493
▁sėd	-10.7503
▁Direktyva	-10.7511
▁konkretų	-10.7511
▁balsuojant	-10.7511
▁Artim	-10.7512
▁neteisėto	-10.7516
▁atsitikti	-10.7525
▁teritoriją	-10.7536
▁verslą	-10.7536
▁elgesį	-10.7536
▁sudėtingi	-10.7543
▁vakcin	-10.7561
telekomunikacijų	-10.7585
▁prasideda	-10.7585
▁elgesys	-10.7586
▁išnyk	-10.759
▁naudingos	-10.761
▁reguliavimą	-10.761
▁galvoje	-10.7611
▁antrąjį	-10.7611
▁poreikiai	-10.7611
▁atvėr	-10.7635
▁inovacijas	-10.7635
▁sudėtingą	-10.7635
▁naudingu	-10.7636
▁žinios	-10.7636
svarst	-10.7639
▁produkcijos	-10.766
▁punktu	-10.766
▁siaubing	-10.766
▁užuojautą	-10.766
▁sveikintina	-10.766
▁formuoja	-10.766
▁reikalo	-10.7661
▁eilut	-10.7663
▁restruktūrizav	-10.7665
▁Dunojaus	-10.7685
▁konsultacijų	-10.7685
▁transportą	-10.7685
▁darbininkų	-10.7685
▁pasielg	-10.7686
garantuot	-10.7702
▁dydį	-10.771
▁pastabą	-10.771
▁subjektų	-10.771
▁sąrašas	-10.771
Galileo	-10.7714
▁valią	-10.7714
▁etapą	-10.7736
▁dešimtmečius	-10.7736
▁nedalyvauja	-10.7736
▁pakrančių	-10.7736
▁įpareigot	-10.7736
Komisija	-10.7748
ekonomin	-10.7749
▁rimtu	-10.7761
▁Didžiosio	-10.7761
▁pažvelgti	-10.7761
▁sumažinimo	-10.7762
ekonomikos	-10.7774
▁Ispanijoje	-10.7786
▁geležinkelio	-10.7786
▁punktų	-10.7786
▁rūpestį	-10.7786
▁zoną	-10.7786
▁statuso	-10.7787
▁vertybini	-10.779
▁stabd	-10.7796
pagrįsta	-10.78
▁Izraelis	-10.7812
▁apgailestauti	-10.7812
▁pastangomis	-10.7812
▁operacija	-10.7812
▁neutral	-10.7812
▁uždavinius	-10.7812
▁ECR	-10.7812
▁normų	-10.7813
▁sakydama	-10.7829
▁Solidarumo	-10.7837
▁Vartotoj	-10.7837
▁ekonomikoje	-10.7863
▁nuogąstav	-10.7863
▁sesijoje	-10.7863
▁savaitės	-10.7863
▁konstruktyvų	-10.7888
▁bankininkystės	-10.7888
▁perskait	-10.7892
▁Bank	-10.7895
▁Ankstesn	-10.7914
▁pajėgumų	-10.7914
▁transportas	-10.7914
▁dalyviai	-10.7918
▁didžiąj	-10.7919
▁geneti	-10.792
▁mokyklų	-10.794
▁posėdžių	-10.7965
▁visapusišką	-10.7965
▁dalyvių	-10.7967
skaičiuoja	-10.7991
▁kadenciją	-10.7992
▁susieti	-10.7993
▁saugumu	-10.8001
▁Slovėnijos	-10.8017
▁mechanizmai	-10.8017
▁išvadų	-10.8018
▁Keli	-10.802
▁praranda	-10.8021
▁prielaida	-10.8022
▁skirtingi	-10.8025
galimyb	-10.8041
▁Pirmininkaujan	-10.8043
▁sudedam	-10.8048
rekomendaci	-10.8069
▁ataskaitų	-10.8069
▁istorijoje	-10.8069
▁pastebėti	-10.8069
▁ūkyje	-10.8069
▁skaidresn	-10.807
▁vidin	-10.807
▁fakto	-10.807
drausm	-10.8083
▁sąjunginink	-10.8095
▁UEN	-10.8095
▁pasiūlymams	-10.8095
▁riboto	-10.8095
▁apimtų	-10.8095
▁tinkami	-10.8104
atsakomyb	-10.8114
▁Briuselio	-10.8121
▁valandų	-10.8121
▁ūkį	-10.8123
▁faktu	-10.8123
▁aprūpinimo	-10.8148
▁centrų	-10.8148
▁horizontal	-10.8148
▁komitetą	-10.8148
▁gerinimo	-10.8148
▁paaiškėjo	-10.8174
▁imamasi	-10.8174
▁sąnaudas	-10.82
▁nepriklausomybę	-10.82
žeidžia	-10.8205
▁Brazilija	-10.8227
▁Egipto	-10.8227
▁Stokholmo	-10.8227
▁dalyvautų	-10.8227
▁rekomenduoja	-10.8227
▁susidoroti	-10.8227
▁nusteb	-10.8227
▁šalia	-10.824
▁nepalankiausiom	-10.8253
▁ratifikuoti	-10.8254
▁skola	-10.8262
▁alternatyva	-10.828
▁slypi	-10.828
▁reikalingą	-10.828
▁neatitik	-10.828
▁susidariusi	-10.8286
▁netinkamo	-10.8296
▁santykiams	-10.8307
▁skurdžiausi	-10.8307
▁TVF	-10.8307
▁suformuot	-10.8307
▁įsigalios	-10.8307
▁pasitrauk	-10.8322
▁dvideginio	-10.8333
▁atvejį	-10.8333
▁planavimo	-10.8333
▁paprasčiau	-10.836
▁Portugalijoje	-10.836
▁draudimą	-10.836
▁Tiesiog	-10.836
▁Žmonės	-10.836
▁plėtojant	-10.836
▁vilčių	-10.8361
▁sumokėti	-10.8361
▁Praeit	-10.8384
▁Kanada	-10.8387
▁reikalavo	-10.8387
▁reikalams	-10.8387
▁byla	-10.8387
▁novatorišk	-10.8414
▁vietoj	-10.8424
▁neteising	-10.8426
▁Vengrijoje	-10.8441
▁tarifų	-10.8441
▁žiniasklaida	-10.8441
▁sankcijos	-10.8441
▁gebėjimu	-10.8441
▁žodis	-10.8441
▁funkcija	-10.8441
▁pateisinti	-10.8441
▁įsipareigojusi	-10.8441
▁mokytis	-10.8443
leidimas	-10.8443
▁sektoriams	-10.8468
▁baigėsi	-10.847
▁metodai	-10.847
▁pragmati	-10.8477
▁pensin	-10.8484
▁nukreip	-10.8487
▁Trumpai	-10.8495
▁centre	-10.8495
▁vidurio	-10.8495
▁savanoriško	-10.8495
▁atsiliep	-10.8495
▁išdavimo	-10.8497
▁antrojo	-10.85
▁nešališk	-10.8504
▁asignavimų	-10.8522
▁pajėgumus	-10.8522
▁teritorija	-10.8522
▁nuostatomis	-10.8522
▁vaistus	-10.8523
▁riboti	-10.8523
▁Birmos	-10.8523
▁Tibeto	-10.855
▁reguliavimas	-10.855
▁kryptį	-10.855
▁progą	-10.8551
▁vienašališk	-10.8551
▁faktin	-10.8551
▁saugesn	-10.8552
mėlyn	-10.8571
prancūz	-10.8577
▁mechanizmų	-10.8577
▁informuoja	-10.8577
▁aktualu	-10.8577
▁klaidina	-10.8578
▁pagreitin	-10.8605
▁Belgija	-10.8605
▁administracija	-10.8605
leidimu	-10.8611
▁importu	-10.8611
▁Balsuoj	-10.8629
▁suprato	-10.8632
▁ieškant	-10.8632
▁sukčiavimo	-10.8632
▁sąjungų	-10.8632
▁įgūdžių	-10.8632
▁įsivaizduoti	-10.8632
▁žingsnių	-10.8632
▁džiaugiamės	-10.8632
▁amžiuje	-10.866
▁arabų	-10.8661
▁atsitiko	-10.8661
▁uždraud	-10.8662
iečiams	-10.8663
▁nuostolių	-10.8688
▁išminting	-10.8688
▁priklausomybę	-10.8688
▁prievarta	-10.8705
▁pavyzdin	-10.8715
▁2014	-10.8715
▁aktyvist	-10.8721
▁centrin	-10.8727
▁ilgesn	-10.8733
▁Tuniso	-10.8743
▁teritorijų	-10.8743
▁rekomendaciją	-10.8743
▁keleto	-10.8743
▁keleiviams	-10.8771
▁patikimumą	-10.8771
▁stabilumas	-10.8771
▁rodikliai	-10.8771
▁žymiai	-10.8773
▁aljans	-10.8786
▁prekybin	-10.8787
▁Liberalų	-10.8799
konkurencingumui	-10.88
▁vartojam	-10.88
akivaizdži	-10.8804
▁aktyvesn	-10.8811
▁Respublikoje	-10.8827
▁Barrot	-10.8827
▁Baigdama	-10.8848
▁Austrijos	-10.8855
▁jūrą	-10.8855
▁konferenciją	-10.8855
▁medienos	-10.8855
▁paveldo	-10.8855
▁viziją	-10.8856
▁padirb	-10.8856
▁atvejai	-10.8876
▁krypčių	-10.8884
▁trošk	-10.8884
▁minutės	-10.8884
▁prašymų	-10.8884
▁atsipraš	-10.8892
▁Nyderlandų	-10.8912
▁elementai	-10.8912
▁obligaci	-10.8912
▁valiuta	-10.8913
▁Haičio	-10.894
▁nesuderinam	-10.8941
▁laivai	-10.8941
▁dienomis	-10.8941
▁pastaba	-10.8963
▁užkerta	-10.8969
▁rugpjū	-10.8969
▁skrydžių	-10.8969
▁vienbalsiai	-10.8969
▁galėdamas	-10.8969
▁pasikeis	-10.8969
▁tarpvyriausybin	-10.8971
▁Tikrai	-10.8972
politika	-10.8976
▁islamo	-10.8997
▁ketveri	-10.8997
▁panaudojimą	-10.8997
▁rodiklius	-10.8997
▁išmetimo	-10.8997
▁vyktų	-10.8997
▁gyvulių	-10.8997
▁patenkina	-10.8997
▁devyni	-10.8998
▁vykdydam	-10.9014
ieško	-10.9019
▁aplinkybių	-10.9026
▁knygos	-10.9026
▁suderintą	-10.9026
▁Makedonijos	-10.9055
▁kampanijos	-10.9055
▁balsuojama	-10.9055
▁sesiją	-10.9055
▁vaisių	-10.9055
▁kitokia	-10.906
▁ignoruoja	-10.9084
▁būklės	-10.9084
▁sulaikymo	-10.9084
▁instituciją	-10.9113
▁nepriklausanči	-10.9113
▁Rusiją	-10.9113
▁idėjų	-10.9113
▁perduodam	-10.9133
▁Apgailestauju	-10.9142
▁pasitikėjimas	-10.9142
▁šiaurės	-10.9142
▁gyvybing	-10.9142
konkurencingumas	-10.9143
▁pačiam	-10.9158
▁sugriežtin	-10.9171
▁veiksmingų	-10.9171
▁galvoti	-10.9171
▁gerinant	-10.9171
▁rūšis	-10.92
▁IND	-10.9229
▁jurisdikci	-10.9229
▁koordinavimas	-10.9229
▁azartini	-10.9229
▁automobiliu	-10.9229
▁trūkumą	-10.9229
▁nvieno	-10.9229
▁skolų	-10.9229
▁žala	-10.9231
▁Kubos	-10.9258
▁aspekto	-10.9258
▁kritikos	-10.9258
▁pasidžiaugti	-10.9258
▁įsigaliojimo	-10.9258
▁draudimas	-10.9258
▁suvienodin	-10.9258
▁pareigos	-10.9258
▁prievol	-10.9265
pažįstu	-10.9288
▁principams	-10.9288
▁supratimą	-10.9288
▁patikslin	-10.9288
▁etapas	-10.9288
▁draudžiama	-10.9291
▁investavimo	-10.9317
▁pasinaudodam	-10.9317
▁sąžiningą	-10.9317
▁sąžiningo	-10.9317
▁įšald	-10.9331
▁domina	-10.9341
▁Malmstr	-10.9347
▁vartojimą	-10.9347
▁Jean	-10.9348
▁atveria	-10.9352
▁kampaniją	-10.9376
▁padidės	-10.9376
▁signalą	-10.9376
▁pastabos	-10.9376
▁apskaitos	-10.9377
▁Laisv	-10.9382
▁laivybos	-10.9406
▁priimtu	-10.9433
▁Konstitucijos	-10.9436
▁koncepcija	-10.9436
▁pavyzdžiai	-10.9436
▁redakcija	-10.9436
▁vandenyse	-10.9436
▁unikal	-10.9436
▁tėvų	-10.9436
▁vystymasis	-10.9466
▁Artimuosiu	-10.9475
▁reglamentai	-10.9496
▁studentų	-10.9496
▁dalyko	-10.9526
▁susidurti	-10.9526
▁užteršt	-10.9526
▁bankams	-10.9526
▁liečia	-10.9527
▁apgailėtin	-10.9556
Nabucco	-10.9556
▁Barnier	-10.9556
▁programoms	-10.9557
▁atskaitomybės	-10.9557
▁Kioto	-10.9557
▁solidarumu	-10.9587
▁švietimu	-10.9587
▁ESBO	-10.9587
▁Niekas	-10.9587
▁vartoti	-10.9587
▁raginimu	-10.9617
▁idėjos	-10.9617
▁Irake	-10.9617
▁energetika	-10.9648
▁išpuolių	-10.9648
▁mėnesio	-10.9679
▁kūrybišk	-10.9679
▁auganči	-10.9695
astaraisiais	-10.9709
▁Reglamento	-10.9709
▁kliūtys	-10.9709
▁televizijos	-10.9709
radikal	-10.9711
▁garbing	-10.9718
▁Suprantu	-10.974
▁dešimtmetį	-10.974
▁pasinaudojant	-10.974
▁įgyvendintos	-10.974
Paslaugų	-10.977
▁aiškūs	-10.977
▁ragino	-10.9771
▁išsamesn	-10.9771
▁peržiūrą	-10.9801
▁vaistai	-10.9803
▁lankstesn	-10.9809
finansų	-10.9824
▁Ateityje	-10.9832
▁eksportuoja	-10.9832
▁subjektai	-10.9832
▁tradicija	-10.9832
▁Pritariau	-10.9832
▁elgiasi	-10.9833
▁įvairūs	-10.9833
▁jėgą	-10.9864
▁personalo	-10.9864
▁sąskaitų	-10.9864
▁apgailestauja	-10.9864
▁Toliau	-10.9864
dramatišk	-10.9864
▁pastebėjo	-10.9895
▁srautų	-10.9895
▁Somali	-10.9895
▁eurą	-10.9895
▁OLAF	-10.9926
▁Turkijoje	-10.9926
▁kategorija	-10.9926
▁prarado	-10.9926
▁muitinės	-10.9926
▁nuostatą	-10.9927
▁Rompuy	-10.9958
▁nevienod	-10.9958
▁Iranas	-10.9958
▁kūrybin	-10.9958
▁poveikiu	-10.9959
▁atsinaujin	-10.9969
▁supratimo	-10.9989
▁sąrašo	-10.9989
▁Sutartyje	-11.0021
▁cukraus	-11.0021
▁išsilavinimą	-11.0021
▁panašaus	-11.0021
▁užmegzti	-11.0021
▁Kiniją	-11.0021
▁organizuoja	-11.0025
▁perženg	-11.0053
▁Buvusi	-11.0053
▁migracija	-11.0053
suvienyt	-11.008
▁beprasm	-11.0084
▁subalansuota	-11.0084
▁tarnybą	-11.0084
▁reikalavimo	-11.0084
▁integruotą	-11.0085
▁Korėja	-11.0085
▁apsilank	-11.0086
▁konstatuojam	-11.0116
▁pagrįstu	-11.0116
▁pagyvenusi	-11.0116
▁pilietis	-11.0116
▁sustabdytas	-11.0117
▁atsiskait	-11.0119
▁Klimato	-11.0148
▁signalas	-11.0148
▁įspūdį	-11.0148
▁Finansin	-11.0148
▁laikytųsi	-11.0148
▁koordinator	-11.0181
▁Ukrainoje	-11.0181
▁padidėjusi	-11.0181
▁Tunise	-11.0213
▁pasiruošę	-11.0213
▁anksti	-11.0213
▁konkretūs	-11.0245
▁trečiadienį	-11.0245
▁užsibrėžt	-11.0246
▁Pateikt	-11.0254
▁privala	-11.0258
▁tinkamiausi	-11.027
▁netiesiogiai	-11.0278
▁popierių	-11.0278
▁pasitenkin	-11.0278
▁knyga	-11.0278
▁nevykd	-11.0278
▁įkvėp	-11.031
▁elgiamasi	-11.031
▁sudėtingesn	-11.031
▁radijo	-11.031
▁išsiųst	-11.0333
▁agentūrą	-11.0343
▁nuosmukio	-11.0343
▁ryšys	-11.0343
▁strategijų	-11.0343
▁viršūnių	-11.0343
▁pažymėjo	-11.0343
▁Gruzijoje	-11.0376
▁Pakistane	-11.0376
▁palaipsniui	-11.0376
▁gebėjimą	-11.0376
▁reikalingu	-11.0376
▁organizacijomis	-11.0376
▁norėdama	-11.0376
▁stambi	-11.0387
rašyta	-11.0405
▁apytikriai	-11.0409
▁poreikiams	-11.0409
▁iškyla	-11.0409
▁įvykti	-11.0409
▁derybin	-11.0417
▁vokieči	-11.0419
▁Gvantanamo	-11.0442
▁etiket	-11.0442
▁klient	-11.0442
▁pastangoms	-11.0475
▁sąnaudos	-11.0475
▁Teigiama	-11.0475
▁atsakymų	-11.0475
▁galvoja	-11.0477
▁rizikuoja	-11.0479
▁konkuren	-11.0486
▁potvynių	-11.0508
▁sąžiningu	-11.0508
▁balsas	-11.0508
federaci	-11.0515
▁Izraeliu	-11.0541
▁referendumą	-11.0541
▁tranzito	-11.0541
▁Palaikau	-11.0541
▁gaivalin	-11.0541
▁Japonija	-11.0575
▁Septint	-11.0575
▁inicijuot	-11.0575
▁paplitusi	-11.0575
▁Strategij	-11.0575
▁faktai	-11.0575
▁išgirs	-11.0577
▁Ilg	-11.058
suvarž	-11.0588
▁1990	-11.0608
▁PNR	-11.0608
▁MERCOSUR	-11.0642
▁Makedonija	-11.0642
▁kraštutin	-11.0642
▁populiar	-11.0642
▁stovyklos	-11.0642
▁esamus	-11.0642
▁skurde	-11.0643
▁miestuose	-11.0676
▁patikimumo	-11.0676
▁nesutinku	-11.0676
▁avarijos	-11.0676
▁priimtą	-11.0676
▁mažinimu	-11.0681
▁Karibų	-11.071
▁perkėlimas	-11.071
▁teisėtumo	-11.071
▁Politin	-11.0711
▁nustatytą	-11.0728
▁Neturėtum	-11.0744
▁emisijų	-11.0744
▁europiečiams	-11.0744
▁sąjungą	-11.0744
▁Vietoj	-11.0744
▁pageidaut	-11.0744
▁Naujoj	-11.0772
▁elementu	-11.0778
▁1999	-11.0778
▁Norėtume	-11.0778
▁tėvai	-11.0778
▁komisijos	-11.0778
▁pažangioj	-11.0805
▁Sacharos	-11.0812
▁iššūkį	-11.0812
▁prevenciją	-11.0812
▁Ramiojo	-11.0812
▁Didžiausi	-11.0812
▁praktišk	-11.082
▁aklaviet	-11.0846
▁chartiją	-11.0846
▁pavojingo	-11.0846
▁pilietybės	-11.0846
▁dešimtmečio	-11.0846
▁trūkumai	-11.0881
▁civilių	-11.0881
Parlamentas	-11.089
▁centras	-11.0915
▁ignoruoti	-11.0915
▁paaiškinimai	-11.0915
▁pražūting	-11.0915
▁vystomojo	-11.0915
▁mokėtojai	-11.0916
grieb	-11.0917
▁medžiagas	-11.095
▁pensiją	-11.095
▁racionali	-11.095
▁modifikuot	-11.0985
▁korupcijos	-11.102
▁prioritetą	-11.102
▁statistika	-11.102
▁reagavimo	-11.102
▁pirmininkavusi	-11.1021
▁Angli	-11.1022
važiuo	-11.1047
▁byloja	-11.1055
▁tuberkulioz	-11.1055
▁vasarą	-11.1055
▁raginimą	-11.1055
▁liberalizuot	-11.109
▁bandymų	-11.109
netikėt	-11.1094
▁konsultacijas	-11.1126
▁rudenį	-11.1126
▁Žuvininkystė	-11.1126
▁raginti	-11.1126
▁Rehn	-11.1127
pažanga	-11.1139
▁kvalifikacijų	-11.1161
▁nesibaig	-11.1161
▁nusikalstamumo	-11.1161
▁pareikalauti	-11.1161
nacionalin	-11.1169
▁konsultacijos	-11.1197
▁susigrąžin	-11.1232
▁Balkanuose	-11.1232
▁įspūdis	-11.1232
▁Remdamasi	-11.1232
▁nesugeba	-11.1232
▁išmetimą	-11.1232
▁pasitikėti	-11.1232
▁intervencijos	-11.1232
▁susipažin	-11.1235
AIDS	-11.1268
▁efektyvumas	-11.1268
▁trokšta	-11.1268
▁GMO	-11.1268
▁sąžiningi	-11.1269
▁besąlygišk	-11.127
▁stengiamės	-11.1304
▁gyvybių	-11.1304
▁įstaiga	-11.1304
▁Danijos	-11.1304
▁staiga	-11.1304
▁priimanči	-11.1309
▁rezultato	-11.134
▁sudėtingų	-11.134
▁įvykis	-11.134
▁pastarojo	-11.134
▁gražu	-11.1341
▁draugišk	-11.1349
▁Turkiją	-11.1377
▁sluoksni	-11.1377
kontrol	-11.1394
▁Dublino	-11.1413
▁moratorium	-11.1413
▁nepatenkin	-11.1413
▁Gazoje	-11.1413
tvirtino	-11.1414
▁mėlynąj	-11.1422
▁efektyvaus	-11.1449
▁kategorijos	-11.1449
▁kodekso	-11.1449
▁operatyv	-11.1449
▁neoliberali	-11.1474
▁Atsižvelgdami	-11.1486
▁deklaracija	-11.1486
▁pacientai	-11.1486
▁pažiūrų	-11.1486
▁perdirbimo	-11.1486
▁piktnaudžiavimo	-11.1486
▁propaguoja	-11.1486
▁tragedija	-11.1486
▁verslas	-11.1486
▁įlankos	-11.1486
▁neoficiali	-11.1486
▁reaguo	-11.1511
▁dolerių	-11.1523
▁užimtumas	-11.1523
▁vartojimas	-11.1523
▁apkaltin	-11.156
▁Libijoje	-11.156
▁uostuose	-11.156
Erasmus	-11.156
▁Kultūros	-11.1597
▁Verheugen	-11.1597
▁imigraciją	-11.1597
▁saviraiškos	-11.1597
▁autobusų	-11.1597
▁pozicijų	-11.1597
kreipti	-11.162
fundamental	-11.1634
▁Bulgarijoje	-11.1634
▁atkreipdėmesį	-11.1634
▁produktas	-11.1634
▁tarpinstitucini	-11.1634
▁teritorinės	-11.1634
▁apgaul	-11.1634
▁jūrin	-11.1635
