<pad>	0
</s>	0
<unk>	0
¦	-1.28047
▁¦	-1.29603
के	-4.40189
है	-4.76263
▁़	-4.86293
में	-4.91895
▁।	-4.91995
▁,	-4.98428
और	-5.0139
की	-5.01525
ी	-5.15233
से	-5.16033
को	-5.18391
का	-5.26632
न	-5.40246
े	-5.41956
ों	-5.43281
ा	-5.43361
ने	-5.5378
कि	-5.59127
क	-5.59421
▁(	-5.60559
▁)	-5.66011
पर	-5.8693
ता	-5.91162
कर	-5.97666
-	-5.97683
हैं	-5.97959
लिए	-6.02567
▁.	-6.03543
या	-6.04572
एक	-6.05027
उस	-6.06949
इस	-6.07601
अ	-6.13171
ल	-6.19762
ज	-6.20424
ित	-6.20916
स	-6.21196
तो	-6.226
हो	-6.23639
म	-6.24618
जो	-6.26073
ं	-6.26908
त	-6.28418
नहीं	-6.29376
भी	-6.30053
उन	-6.30318
▁	-6.3491
फ	-6.39082
ख	-6.43696
ना	-6.44339
र	-6.47458
ई	-6.47691
ही	-6.52145
किया	-6.5519
यह	-6.55459
आ	-6.63858
तुम	-6.64826
वह	-6.67811
करने	-6.68912
हम	-6.77815
व	-6.80162
था	-6.86827
द	-6.86884
à	-6.88798
ग	-6.90197
𐋇	-6.90892
वे	-6.91618
प	-6.92848
अपने	-6.93374
ए	-6.93812
ते	-6.94623
य	-6.98761
ये	-7.00303
्	-7.00326
ब	-7.03076
जिस	-7.03351
ड	-7.06609
श	-7.06732
ला	-7.08817
ट	-7.09115
तथा	-7.11077
ले	-7.12717
गया	-7.13036
कुछ	-7.16155
रूप	-7.19469
जा	-7.19776
वि	-7.19863
ह	-7.19884
किसी	-7.20033
साथ	-7.23404
ओं	-7.23977
ि	-7.24281
िक	-7.24399
जब	-7.26505
s	-7.29408
ियों	-7.29798
दे	-7.31531
ण	-7.34191
इन	-7.342
ें	-7.34282
रा	-7.34381
्हें	-7.36097
आप	-7.36415
लोग	-7.38207
थे	-7.3836
उ	-7.38414
प्र	-7.38666
द्वारा	-7.39659
भारत	-7.40278
करते	-7.40661
ो	-7.4128
ती	-7.42234
सा	-7.44527
लोगों	-7.4458
सी	-7.45439
तक	-7.46651
▁¤	-7.48447
फिर	-7.48555
च	-7.49375
जाता	-7.4952
्य	-7.49973
हमार	-7.50495
मा	-7.52276
मैं	-7.52723
▁"	-7.54104
क्या	-7.54447
दिया	-7.55282
करें	-7.55354
a	-7.56231
कहा	-7.5897
करना	-7.59154
▁्	-7.60579
ुदा	-7.60636
दो	-7.61161
इ	-7.61957
सं	-7.62217
/	-7.63007
दा	-7.63498
अपनी	-7.63593
ल्लाह	-7.64381
नि	-7.64459
थी	-7.65839
रहे	-7.66041
ः	-7.66094
▁?	-7.67026
दी	-7.67245
भ	-7.67327
ध	-7.67548
हुए	-7.6787
पा	-7.69527
बात	-7.72238
वाले	-7.72693
कार	-7.75252
कार्य	-7.75583
▁;	-7.76535
हर	-7.77517
समय	-7.77587
करता	-7.78855
सकता	-7.79517
अधिक	-7.7979
बना	-7.81421
नी	-7.81562
बड	-7.81692
ऐ	-7.82135
रहा	-7.83633
होता	-7.83928
बाद	-7.84242
प्रति	-7.84384
ीय	-7.85735
वा	-7.86253
मान	-7.86782
बा	-7.86929
पास	-7.8801
स्	-7.88957
ू	-7.92613
बहुत	-7.92714
जी	-7.93784
2	-7.94028
र्	-7.95616
.	-7.96877
काम	-7.9713
तरह	-7.98648
री	-7.98954
सब	-7.9927
ली	-7.99551
वर्ष	-8.00567
उन्होंन	-8.00753
बार	-8.01018
घ	-8.01653
हुआ	-8.01877
e	-8.02583
ै	-8.02766
गए	-8.02798
क्षेत्र	-8.02943
ु	-8.02946
क्ष	-8.04107
जिन	-8.04303
तुम्हारे	-8.04508
दिन	-8.05036
▁¦_¦	-8.06557
▁'	-8.06706
थ	-8.06842
नाम	-8.07391
मे	-8.07583
छ	-8.07905
यदि	-8.07989
होने	-8.08477
राष्ट्रपति	-8.08555
ंग	-8.086
देश	-8.08772
ओ	-8.0879
कम	-8.09562
भाग	-8.09723
i	-8.10257
अन्य	-8.10394
प्राप्त	-8.10424
अनु	-8.10639
ाई	-8.10818
उनकी	-8.11311
सु	-8.11782
पी	-8.11874
एं	-8.12124
होगा	-8.12201
पहले	-8.12253
वाला	-8.12365
ओर	-8.14963
ऐसे	-8.15366
गई	-8.15535
व्यक्ति	-8.15702
सभी	-8.16262
▁%	-8.1709
पड	-8.17156
हा	-8.17262
प्रकार	-8.18652
करो	-8.19678
संबंध	-8.20128
सरकार	-8.20261
राज्य	-8.20458
▁:	-8.20485
मु	-8.20602
सकते	-8.20823
मत	-8.21298
कह	-8.21612
जाने	-8.2178
लो	-8.22448
बढ	-8.22672
कारण	-8.22861
अगर	-8.23012
𐊣	-8.24046
𐊼	-8.24046
रे	-8.24049
ॉ	-8.25144
रह	-8.25698
c	-8.25854
चाहिए	-8.26294
एव	-8.27268
होती	-8.27845
बे	-8.28321
बी	-8.29075
t	-8.29938
ऐसा	-8.30426
िंग	-8.30537
राज	-8.30757
क्यों	-8.31243
परि	-8.31293
d	-8.31623
रसूल	-8.32005
l	-8.32197
पूर्व	-8.32445
यों	-8.32722
उप	-8.32818
भारतीय	-8.329
पूर्ण	-8.33942
जन	-8.34672
मुझे	-8.35725
p	-8.36164
लिया	-8.36435
गा	-8.36811
प्रदान	-8.38985
रो	-8.39522
बर	-8.40062
अब	-8.4017
m	-8.40556
लगा	-8.40842
जान	-8.40897
टी	-8.4118
जाती	-8.4131
ढ	-8.41521
दोनो	-8.4157
o	-8.4227
4	-8.4271
िल	-8.42857
स्ट	-8.44624
ठ	-8.45614
ार	-8.45643
अपना	-8.46077
विकास	-8.4641
माल	-8.46445
जीवन	-8.46631
होते	-8.46845
उपयोग	-8.46879
जैसे	-8.47878
अभि	-8.48041
सेवा	-8.4844
झ	-8.49205
चीज	-8.49275
सि	-8.49759
श्री	-8.49801
गी	-8.49948
हां	-8.50121
ां	-8.50202
हुई	-8.50659
चल	-8.50756
देख	-8.5077
‍	-8.51547
दि	-8.51582
मि	-8.51784
चु	-8.51841
आई	-8.52525
रब	-8.52759
रही	-8.52969
ंड	-8.53397
दर	-8.53949
लिख	-8.5396
ौ	-8.54064
▁-	-8.5429
खा	-8.54458
क्	-8.54496
कु	-8.55506
स्थान	-8.56165
बन	-8.56517
ईमान	-8.56766
बारे	-8.56794
चार	-8.56822
वी	-8.57278
दार	-8.57551
बीच	-8.57588
ति	-8.57934
भेज	-8.58097
िया	-8.58374
मन	-8.5881
मेरे	-8.5906
ष	-8.59243
ाब	-8.59385
पैदा	-8.60103
रि	-8.60533
0	-8.60551
न्	-8.61003
सर	-8.61049
▁!	-8.61105
भर	-8.61108
गु	-8.61826
ेकिन	-8.62165
एस	-8.62331
रख	-8.62445
गे	-8.62538
समझ	-8.6265
आज	-8.62652
विचार	-8.62778
्स	-8.63791
हूँ	-8.63837
वर	-8.6403
सम	-8.64484
देने	-8.64726
दूसरे	-8.64778
अधिनियम	-8.64886
दिखा	-8.64996
1	-8.65048
आग	-8.65272
स्व	-8.65493
▁।"	-8.6552
स्थिति	-8.65715
चा	-8.66132
तर	-8.66918
टे	-8.67518
0¦	-8.67583
6	-8.68283
वाली	-8.68412
्त	-8.68519
छोड	-8.68795
जाएगा	-8.68801
बाहर	-8.68875
b	-8.69083
विशेष	-8.69091
मिल	-8.69209
जाना	-8.69712
जाए	-8.69851
स्त	-8.69854
एँ	-8.70035
ँ	-8.70235
थवा	-8.70566
्र	-8.70718
योजना	-8.70876
बि	-8.71021
लि	-8.71469
रु	-8.72711
r	-8.72906
मै	-8.72965
त्र	-8.73088
िर	-8.73341
मी	-8.73343
प्रयोग	-8.73465
शक्ति	-8.73563
वही	-8.73758
जि	-8.73818
हमें	-8.7427
मर	-8.743
केवल	-8.74425
राष्ट्रीय	-8.74656
सहाय	-8.74891
इसे	-8.75034
्म	-8.75377
चित	-8.75452
▁¦1	-8.7583
लोक	-8.75935
गो	-8.76144
तब	-8.76809
याद	-8.76846
श्	-8.77645
बस	-8.78175
ऐस	-8.7823
बल	-8.78595
ीकरण	-8.78776
चि	-8.78821
यर	-8.79047
सबसे	-8.79099
उसी	-8.79291
घर	-8.79364
राम	-8.79384
आधार	-8.79443
मेरी	-8.80308
धारा	-8.80672
डी	-8.80866
▁¥	-8.8088
डि	-8.81423
हि	-8.81433
व्य	-8.81483
सूची	-8.81529
ृ	-8.81535
कुल	-8.8183
ाइल	-8.81883
मू	-8.82289
धर	-8.82354
आय	-8.82754
कभी	-8.82867
सूचना	-8.82981
विषय	-8.83035
सह	-8.83173
ष्ट	-8.83256
रू	-8.83442
डाल	-8.83581
पत्र	-8.83582
उपलब्ध	-8.84145
ऊ	-8.84286
गत	-8.84383
करती	-8.8455
सो	-8.84699
वालों	-8.84779
ोर	-8.84793
सभा	-8.85643
जे	-8.85741
वाद	-8.8617
दु	-8.86195
जाते	-8.86677
संदेश	-8.86787
पु	-8.86842
अव	-8.87088
▁¦1¦	-8.87274
ीन	-8.87467
सकती	-8.87527
दान	-8.87696
बल्	-8.87937
तरफ	-8.88524
दूर	-8.88573
योग	-8.88891
शिक्षा	-8.88908
आर	-8.89241
200	-8.89746
ान	-8.89768
ाँ	-8.89993
मो	-8.90041
भाषा	-8.90159
g	-8.90281
लग	-8.90349
पि	-8.91082
अलग	-8.91104
दूसर	-8.91147
कल	-8.91254
कों	-8.91651
शा	-8.91674
परवरदिगार	-8.91735
पता	-8.92176
8	-8.92279
महा	-8.92395
3¦	-8.92534
जल	-8.93222
ंद	-8.93598
ट्र	-8.93619
u	-8.94087
सू	-8.94153
ियाँ	-8.94201
यू	-8.94361
वर्त	-8.94563
उत्तर	-8.94658
यहाँ	-8.94839
हार	-8.95119
9	-8.95138
हित	-8.95198
निर्माण	-8.95385
अच्छा	-8.95386
स्पष्ट	-8.95392
तः	-8.95554
शि	-8.95899
हूं	-8.96131
भाव	-8.96148
वर्ग	-8.96151
पो	-8.96604
तैयार	-8.96883
तम	-8.97067
जोड	-8.97113
रण	-8.97209
किताब	-8.97671
वै	-8.98408
हे	-8.98474
लिये	-8.98528
आदि	-8.98628
मार	-8.98694
बता	-8.98987
लड	-8.99106
name	-8.99173
▁”	-8.99176
सामान्य	-8.99247
पुर	-8.99255
पूरी	-8.99333
%	-8.99397
लाभ	-8.9949
ल्	-8.99866
वार	-9.00369
तौर	-9.00381
विश्व	-9.00714
अधीन	-9.0073
ज्ञान	-9.00765
होंगे	-9.00796
धन	-9.00881
अज	-9.01036
ग्	-9.01066
लगे	-9.01087
n	-9.01106
f	-9.01488
शब्द	-9.01517
अवसर	-9.01539
करेगा	-9.0179
खंड	-9.0189
अधिकार	-9.02187
विभिन्न	-9.02343
यक	-9.02792
ेगा	-9.02871
काल	-9.0357
स्तर	-9.03605
प्रभाव	-9.0378
शामिल	-9.03935
मुख्य	-9.03975
पन	-9.03986
पूरा	-9.04057
3	-9.04358
बु	-9.04431
चाहत	-9.04644
निश्चय	-9.0473
तू	-9.04917
रंग	-9.0493
क्रम	-9.05014
तुम्हार	-9.05151
मुख	-9.05187
उच्च	-9.05524
in	-9.05579
अर्थ	-9.05623
अप	-9.05766
होगी	-9.05947
वस्तु	-9.06377
पे	-9.07055
▁‘	-9.07243
करे	-9.07319
पक्ष	-9.07484
निकल	-9.07606
डर	-9.07814
▁¦19	-9.08212
ंत	-9.09031
पहल	-9.09256
्व	-9.09402
कै	-9.09506
हों	-9.09761
द्र	-9.10043
डे	-9.1039
मूल	-9.10579
प्रक्रिया	-9.10652
निकाल	-9.10825
उनमें	-9.11481
िस	-9.11598
बदल	-9.12522
एम	-9.12726
अन	-9.12788
y	-9.1296
चे	-9.12961
दौरा	-9.13116
▁...	-9.13144
रखा	-9.13344
परिवर्तन	-9.13403
्या	-9.13527
बन्द	-9.13623
टा	-9.13749
आपको	-9.1389
ाव	-9.14101
हेतु	-9.14149
करा	-9.14156
भवन	-9.1417
गण	-9.14199
मीन	-9.14357
यही	-9.14376
प्रत्ये	-9.14403
भू	-9.14558
दुनिया	-9.1504
4¦	-9.15259
ऑ	-9.15881
मंत्री	-9.16208
उनको	-9.16213
जमा	-9.16299
ऊपर	-9.1634
चाहता	-9.1656
जारी	-9.16822
फल	-9.16858
मध्य	-9.16867
पढ	-9.17072
नई	-9.17144
चला	-9.17207
कला	-9.17349
आम	-9.1741
ंट	-9.17524
al	-9.17644
सीमा	-9.1771
w	-9.1779
शुरू	-9.17798
विश्वास	-9.17811
अनुसार	-9.17823
मार्ग	-9.18235
2¦	-9.18243
दें	-9.18389
स्थाप	-9.18681
संख्या	-9.18702
माध्यम	-9.18726
धर्म	-9.18757
गयी	-9.18808
सार	-9.19142
इं	-9.19223
ियां	-9.19362
पै	-9.19682
मूल्य	-9.19748
अभी	-9.19812
इसी	-9.19946
र्इ	-9.19964
अनेक	-9.20072
मानव	-9.20084
बोल	-9.20092
▁¦3	-9.20363
पद	-9.20434
ण्ड	-9.20636
मदद	-9.20664
देखा	-9.20691
ऋ	-9.21511
समर्थ	-9.21592
तीन	-9.22331
सुन	-9.22369
खुदा	-9.22389
१	-9.22539
सम्	-9.22615
ेंगे	-9.22773
गू	-9.22798
एन	-9.23289
र्ज	-9.23294
महत्वपूर्ण	-9.23546
प्रबंध	-9.23573
र्क	-9.23673
म्बर	-9.23964
हाल	-9.24129
साम	-9.24231
k	-9.24498
प्रौद्योगिकी	-9.24525
ठीक	-9.24536
ास	-9.24587
देना	-9.24643
लाल	-9.24688
ोड	-9.24714
सुरक्षा	-9.24719
अंत	-9.24724
िका	-9.24758
कर्म	-9.24949
दिल	-9.24983
भा	-9.25001
अंतर	-9.25129
स्वयं	-9.25525
पानी	-9.26421
उद्देश्य	-9.26535
परिणाम	-9.26535
▁#	-9.26543
▁’	-9.26583
आदेश	-9.26793
फा	-9.27025
,	-9.27028
क्षेत्रों	-9.27037
निर्	-9.27044
आख	-9.27736
इतन	-9.27912
v	-9.28024
बैंक	-9.28143
करेंगे	-9.28358
सर्व	-9.28556
रुप	-9.2856
मौजूद	-9.28587
▁&	-9.28602
नीचे	-9.28638
कार्यक्रम	-9.28641
जनता	-9.2931
न्तु	-9.29398
रोक	-9.29412
नव	-9.29617
निर्धारित	-9.29628
केन्द्र	-9.29629
प्रतिशत	-9.29629
समूह	-9.2963
स्वीकार	-9.29725
विज्ञान	-9.2973
पूछ	-9.29827
अतः	-9.29936
संस्था	-9.30087
रत	-9.30158
यो	-9.30357
खोल	-9.30462
आया	-9.3061
न्द	-9.30619
साफ	-9.30756
चर	-9.31063
हाथ	-9.31205
9¦	-9.31293
क्रिया	-9.31393
बनाने	-9.31397
तुम्हारी	-9.3144
नीति	-9.31546
1¦	-9.31649
वादी	-9.31652
कृत	-9.31894
विधि	-9.32064
हत	-9.32099
बच्च	-9.32379
तों	-9.32476
राष्ट्र	-9.32773
▁¤3⁄4	-9.3282
ऋण	-9.32894
स्थ	-9.32955
मगर	-9.32963
मेरा	-9.33047
्यू	-9.33416
अधिकारी	-9.33628
प्रस्तुत	-9.33907
व्यापार	-9.33913
▁>	-9.33966
चित्र	-9.33973
सिवा	-9.33991
सिर्	-9.34022
रहत	-9.34032
तु	-9.341
पट	-9.34415
त्त	-9.34895
केंद्र	-9.3497
ोल्डर	-9.35006
प्रयास	-9.35011
स्वतंत्र	-9.35017
काफी	-9.35064
प्रमुख	-9.3509
वक्त	-9.35161
ूम	-9.35322
हु	-9.35706
6¦	-9.35804
जाओ	-9.35989
क्स	-9.36071
कृषि	-9.36117
पश्चिम	-9.36118
परियोजना	-9.36165
चाहे	-9.36179
बच	-9.36374
आए	-9.36496
ेड	-9.3655
संस्थान	-9.36707
आवश्यकता	-9.36711
मामले	-9.36714
्ट	-9.36816
िश	-9.3709
भार	-9.37145
ज्यादा	-9.37241
युद्ध	-9.37244
पिछल	-9.37249
सत्य	-9.37521
खोज	-9.37536
नो	-9.37552
11	-9.38176
ब्	-9.38283
नया	-9.38359
कानून	-9.38378
विश्वविद्यालय	-9.38379
▁“	-9.3838
निशान	-9.38382
ंस	-9.3843
न्याय	-9.38473
विंडो	-9.38548
ेह	-9.38591
बिना	-9.38718
कहत	-9.38964
पीछे	-9.39527
अवधि	-9.39529
न्यायालय	-9.39531
उद्योग	-9.39533
प्रधान	-9.39563
उत्	-9.39727
रात	-9.3978
जानते	-9.39791
गार	-9.39821
किस	-9.39956
०	-9.39972
अधि	-9.40071
रोग	-9.40245
सदस्य	-9.40246
टि	-9.40263
सामाजिक	-9.40689
अच्छे	-9.4069
12	-9.40752
बंद	-9.40767
टो	-9.41189
er	-9.41322
आकार	-9.41391
वान	-9.41404
ताओं	-9.41426
सत	-9.41476
टर	-9.41585
x	-9.41866
निम्न	-9.41866
विवरण	-9.41866
प्रेम	-9.41879
सहयोग	-9.41891
▁¦44	-9.41908
जीव	-9.41995
प्रो	-9.42218
ात	-9.42223
उठा	-9.42394
समान	-9.42482
पेश	-9.42491
क्र	-9.42535
सन	-9.42689
मेल	-9.42907
हिस्स	-9.43081
रिया	-9.43085
प्ल	-9.43188
h	-9.4328
जैसा	-9.433
म्ब	-9.43412
डियो	-9.43788
ब्र	-9.44183
निर्दिष्ट	-9.44261
जगह	-9.44269
प्रदेश	-9.44392
शन	-9.44551
आवश्यक	-9.44832
कारी	-9.44907
लाइन	-9.44963
युक्त	-9.45071
साल	-9.45321
नु	-9.45347
ध्यान	-9.45481
समस्या	-9.45481
निवेश	-9.45482
पश्चात	-9.45482
च्छ	-9.45506
बेशक	-9.45509
कर्ता	-9.45746
वास्त	-9.45904
राह	-9.46201
सारे	-9.46282
चयन	-9.46353
हक	-9.46564
बो	-9.46634
बराबर	-9.46716
सिंह	-9.46717
अल	-9.46727
8¦	-9.46746
सके	-9.46816
जुड	-9.46979
जिन्हें	-9.47036
यी	-9.47182
शहर	-9.47195
लें	-9.47336
सामन	-9.47579
गिर	-9.47608
ाना	-9.47948
प्रणाली	-9.47965
जानकारी	-9.4799
आर्थ	-9.48046
वन	-9.48161
क्षमता	-9.48187
अगल	-9.4854
हीं	-9.48866
त्व	-9.48928
सोच	-9.49088
पति	-9.49101
एक्स	-9.49175
लगभग	-9.49231
सुविधा	-9.49231
आकाश	-9.49239
ची	-9.49243
विशिष्ट	-9.49252
दृष्टि	-9.49258
छा	-9.49545
वेद	-9.49593
नियम	-9.49623
बाल	-9.49794
िट	-9.49938
२	-9.50006
पहुँच	-9.50061
ar	-9.50202
लेख	-9.50368
ल्ल	-9.50429
रहने	-9.50597
नक	-9.50629
डा	-9.50673
रखते	-9.50826
लेने	-9.50862
पार	-9.50881
आने	-9.50896
लाए	-9.51754
अतिरिक्त	-9.51813
ात्मक	-9.51918
टन	-9.51952
जु	-9.52343
देशों	-9.52614
बैठक	-9.52639
प्रकाश	-9.52719
ज्ञ	-9.5292
संसद	-9.53171
जन्म	-9.53194
राशि	-9.53332
ऑफ	-9.53372
रखने	-9.53505
र्स	-9.54217
विदेश	-9.54258
	-9.54461
निर्णय	-9.54461
कहने	-9.54626
मक	-9.54654
समाज	-9.54702
विभाग	-9.54781
न्न	-9.54963
शील	-9.55009
pr	-9.55516
नर	-9.55803
पहचान	-9.55812
हुक्म	-9.55812
अच्छी	-9.55814
मंत्रालय	-9.55815
कौन	-9.55817
शाल	-9.56114
बै	-9.56257
ौम	-9.56335
र्ड	-9.56351
सेट	-9.56425
धा	-9.56513
मिला	-9.56714
गैर	-9.57118
खड	-9.57159
मनुष्य	-9.57182
महिला	-9.57183
सच्च	-9.57183
यां	-9.57306
संघ	-9.5733
लों	-9.57365
निश्चित	-9.5753
गुण	-9.57564
म्प	-9.57595
बाज	-9.57653
कू	-9.57837
लू	-9.58051
ूर	-9.58054
▁¦10	-9.58128
)	-9.58151
िन	-9.58417
नए	-9.58429
प्रा	-9.58572
अं	-9.58578
ion	-9.5858
संयुक्त	-9.58628
पाठ	-9.58655
ुर	-9.58658
डाक	-9.59055
ोन	-9.59313
ान्त	-9.59365
रूर	-9.59545
दल	-9.59615
गुज	-9.59789
व्यक्त	-9.59833
पालन	-9.59844
बंगाल	-9.59979
कृप	-9.59993
परिवार	-9.60026
वाह	-9.60257
ष्	-9.60301
्ष	-9.60526
ार्थ	-9.60837
उत्पाद	-9.60956
सही	-9.61291
अनुसंधान	-9.61408
दक्षिण	-9.61408
यात्रा	-9.6141
सम्बन्ध	-9.61414
▁''	-9.61416
▁¦18	-9.61467
शासन	-9.61557
सुधार	-9.6162
लंब	-9.61644
एल	-9.61645
बह	-9.61855
पथ	-9.61862
पुस्तक	-9.61985
पाल	-9.6202
ूँ	-9.62078
यु	-9.62168
वत	-9.62182
वेब	-9.62243
धिक	-9.62289
बिल	-9.62375
ैल	-9.62604
अंतर्ग	-9.62872
वित्तीय	-9.62883
र्च	-9.629
जाएगी	-9.6291
शी	-9.63077
समिति	-9.63171
स्थापना	-9.63235
दाय	-9.6332
पहुंच	-9.63645
▁¦201	-9.63869
पत	-9.63992
ेशन	-9.64156
वास	-9.64324
प्रारंभ	-9.64328
३	-9.64328
संगठन	-9.64328
आयत	-9.64331
रिपोर्ट	-9.64338
यातना	-9.64339
कंपनी	-9.64342
लाख	-9.6476
आधारित	-9.64804
गर	-9.64831
जिससे	-9.64843
गड	-9.65007
चाल	-9.65055
र्द	-9.65112
सौ	-9.65322
सक्रिय	-9.6582
संपर्क	-9.6582
बोर्ड	-9.65829
थोड	-9.66136
तृत	-9.66186
िता	-9.6638
जाति	-9.67138
स्प	-9.67282
क्ल	-9.67379
साइट	-9.6739
दिशा	-9.67437
चुका	-9.67463
पैग	-9.675
स्वरूप	-9.67548
it	-9.67688
जिन्ह	-9.6771
परन्तु	-9.67753
ौर	-9.67996
कॉ	-9.68175
गति	-9.68215
शु	-9.68274
वृद्धि	-9.68389
ॉल	-9.68391
प्रत्य	-9.68441
वो	-9.68634
झुठला	-9.68873
	-9.68874
त्रुटि	-9.68874
मंदिर	-9.68874
दिल्ली	-9.68874
समाप्त	-9.68878
बाजार	-9.68913
मित्र	-9.68928
हमेश	-9.69122
बाग	-9.69301
स्क	-9.69399
भूत	-9.69929
30	-9.69938
र्ट	-9.70016
आत्म	-9.7003
बचा	-9.70049
जाएँ	-9.70162
निस्संद	-9.70436
प्रथम	-9.70437
▁¤°	-9.70439
अन्त	-9.70503
व्यवस्था	-9.70513
स्थित	-9.70607
परंतु	-9.70687
गठ	-9.70864
जरूरत	-9.70951
हटा	-9.70973
स्था	-9.71459
करण	-9.71482
भूमि	-9.71566
हल	-9.71683
नाथ	-9.7169
बंध	-9.71922
शक	-9.71924
लक्ष्य	-9.72024
निर्धारण	-9.7203
घाट	-9.7209
यन	-9.72216
योग्य	-9.72239
खेल	-9.7229
चौ	-9.72377
वहाँ	-9.72424
सूर	-9.72965
नही	-9.7309
an	-9.73304
re	-9.73523
▁¦2¦	-9.73546
लौट	-9.73552
अनुभव	-9.73638
बेहतर	-9.73644
वापस	-9.73661
नियंत्रण	-9.73671
एफ	-9.73929
ज्	-9.73941
फेर	-9.74178
मल	-9.74256
भय	-9.74315
नाज	-9.74338
भला	-9.74429
चू	-9.74864
भाई	-9.74915
़	-9.75101
बेट	-9.75129
00¦	-9.75151
िम	-9.75199
सद	-9.75199
रचना	-9.75232
गांधी	-9.75276
पुरुष	-9.75276
ग्रामीण	-9.75276
अंग्रेज	-9.75276
प्रश्न	-9.75277
जांच	-9.7528
महान	-9.75517
आसमान	-9.75546
कड	-9.75579
फाइल	-9.75707
मज	-9.75741
उत्पादन	-9.75797
खुल	-9.76007
रोज	-9.76046
हद	-9.76084
डॉ	-9.76732
स्वास्थ्य	-9.76943
वास्तव	-9.77022
राजा	-9.77253
रस	-9.7746
भीतर	-9.77522
र्व	-9.77631
लु	-9.77743
मांग	-9.77768
धार	-9.77884
बनाए	-9.7851
translat	-9.78637
option	-9.78637
पुनर्	-9.78638
इतिहास	-9.78666
माना	-9.78796
समझा	-9.78833
ैर	-9.78937
मना	-9.79172
छवि	-9.79204
भावना	-9.79259
श्त	-9.79448
सामग्र	-9.79706
िय	-9.80125
ष्ठ	-9.80298
गें	-9.8031
अलाव	-9.80314
व्यवहार	-9.80362
जवाब	-9.80364
सिद्ध	-9.80365
समुद्र	-9.8043
घटना	-9.80459
पाया	-9.80583
शाय	-9.80698
विकल्प	-9.80808
मुक	-9.81165
लेखा	-9.81257
अग्र	-9.81342
गोल	-9.81431
६	-9.82116
प्रस्ताव	-9.82116
मुँह	-9.82116
संभव	-9.82117
शरीर	-9.82117
दिवस	-9.82117
िफ	-9.8212
kg	-9.8214
बद्ध	-9.82159
स्थानीय	-9.82261
अमेरिका	-9.82271
नगर	-9.82283
जहाँ	-9.82302
र्जी	-9.82504
ीकृत	-9.83023
आयु	-9.83272
देखने	-9.83613
पृष्ठ	-9.83895
वैज्ञानिक	-9.83902
z	-9.83902
मृत्यु	-9.83902
स्रोत	-9.83903
जू	-9.83921
इट	-9.83947
ंतु	-9.841
वज	-9.84101
ृत	-9.84242
देखते	-9.84272
ic	-9.84288
त्रि	-9.84427
भिन्न	-9.84469
निर्देश	-9.84518
गुनाह	-9.84519
▁),	-9.84524
वीं	-9.84611
बच्चों	-9.84645
मौ	-9.8466
स्वा	-9.84706
तेज	-9.84729
विस्	-9.84751
रहो	-9.85023
व्या	-9.85281
लर	-9.85325
शो	-9.85668
तंत्र	-9.85687
दृश्य	-9.8572
८	-9.8572
खुद	-9.85831
जाय	-9.85842
सुना	-9.85901
मात्रा	-9.86088
देव	-9.86106
बहु	-9.86153
ग्रह	-9.86158
शोध	-9.86213
is	-9.86222
ra	-9.86255
ly	-9.86312
लै	-9.86355
सदस्यों	-9.86419
अंग	-9.86453
पात	-9.86514
्कार	-9.86528
बुरा	-9.86566
ंकि	-9.86803
उड	-9.87438
आरंभ	-9.87572
शेयर	-9.87573
संविधान	-9.87603
समा	-9.87648
पुकार	-9.87821
कितन	-9.87835
आशा	-9.87937
उपस्थित	-9.88343
तल	-9.88682
कैसे	-9.89
यम	-9.89025
पूर्वक	-9.89318
प्रमाण	-9.89444
प्रवेश	-9.8946
विस्तार	-9.89461
▁¤	-9.89466
पसंद	-9.89476
ंगी	-9.89482
ियन	-9.89494
प्रकट	-9.89527
खुश	-9.89595
गल	-9.89685
सर्वर	-9.89745
ंबर	-9.90003
ियम	-9.90016
तरीक	-9.90733
ूब	-9.90915
गाह	-9.9099
स्थाय	-9.91064
ाधिकार	-9.91206
शेष	-9.91308
चिकित्सा	-9.91382
नागरिक	-9.91382
चर्चा	-9.91382
निर्यात	-9.91388
▁?"	-9.91405
उपकरण	-9.91413
संसाधन	-9.91414
ईमानदार	-9.9146
्ल	-9.91828
चै	-9.91852
हाँ	-9.91885
ांत	-9.91906
धान	-9.92069
निवास	-9.92114
जाएँगे	-9.92149
रिक	-9.92191
दिनों	-9.92308
निक	-9.92336
संग्रह	-9.9251
सहायक	-9.92583
बर्	-9.93186
पुरान	-9.93299
आवेदन	-9.93343
▁¥	-9.93344
शुल्क	-9.9335
इस्ते	-9.93354
विकस	-9.93361
प्रगति	-9.93423
चरण	-9.93608
रेल	-9.93678
रेखा	-9.93819
भूमिका	-9.93994
पहुँचा	-9.9404
दू	-9.94119
लिखा	-9.94177
पक	-9.94188
मुक्त	-9.942
लोड	-9.94227
भि	-9.94323
प्रदर्श	-9.94355
र्थ	-9.94807
or	-9.94853
वाक	-9.94954
कट	-9.9527
वल	-9.95305
५	-9.95332
झूठ	-9.95342
छोटे	-9.95342
संपाद	-9.95343
स्कूल	-9.95343
गर्भ	-9.95348
अवस्था	-9.9536
ड्र	-9.95409
सम्मान	-9.95424
ुरान	-9.95475
प्रतीक	-9.95561
पकड	-9.95612
लागत	-9.95799
▁¦20	-9.95955
आस	-9.96031
युग	-9.96038
लाने	-9.96272
खो	-9.96416
हरे	-9.96596
अति	-9.96654
सरकारी	-9.96754
मंत्र	-9.96935
रक्त	-9.96953
हाला	-9.97043
सफल	-9.97142
लगत	-9.97219
साहित्य	-9.97309
उदाहरण	-9.97383
दृढ	-9.97383
भुगतान	-9.97383
४	-9.97383
संपत्ति	-9.97404
tp	-9.97509
शास्त्र	-9.97547
क्षमा	-9.97749
अंति	-9.97903
कमी	-9.98502
चले	-9.98506
ैसल	-9.98654
्टर	-9.98658
रुर	-9.98661
पट्ट	-9.98928
त्पन्न	-9.99158
मद	-9.99232
निज	-9.99327
क्त	-9.99347
चाहि	-9.99399
हस्ताक्षर	-9.99467
ht	-9.99488
प्रशिक्षण	-9.99488
निकट	-9.99617
पत्त	-9.9963
चुनें	-9.9964
स्त्र	-9.99807
मोह	-9.99836
दिखाएँ	-9.99932
िड	-9.99953
णा	-10.0001
जिला	-10.0005
बद	-10.0012
रास्त	-10.0032
वर्ण	-10.0088
श्र	-10.0092
वैध	-10.0105
बने	-10.0119
द्द	-10.0127
आपस	-10.0144
न्यू	-10.015
दम	-10.0156
महत्व	-10.0157
पुनः	-10.0159
समुदाय	-10.016
not	-10.016
प्रमाणपत्र	-10.0161
संगीत	-10.0164
वायु	-10.0165
आसान	-10.0171
संकेत	-10.0176
अपेक्षा	-10.0177
पूरे	-10.0194
बैठ	-10.0199
गलत	-10.0205
धु	-10.0224
उठ	-10.0232
खाते	-10.0248
रखना	-10.0257
हन	-10.0262
राय	-10.0272
तौ	-10.0298
गीत	-10.0306
सिल	-10.0313
पाक	-10.0321
नीय	-10.0327
th	-10.0328
्ता	-10.0352
▁¦199	-10.0373
क्षण	-10.0374
city	-10.0377
इस्लाम	-10.0377
शख्स	-10.0377
दिनांक	-10.0377
ऊर्जा	-10.0377
अध्ययन	-10.0377
रुद्ध	-10.0379
लैंड	-10.0379
इनमें	-10.0379
राजनीति	-10.0382
गुरु	-10.0384
खरीद	-10.0386
खाता	-10.0402
जैस	-10.0416
पीड	-10.0425
यें	-10.0432
सात	-10.0459
ट्टी	-10.0474
ालय	-10.0484
गवाह	-10.0491
nic	-10.05
पू	-10.0515
प्रण	-10.0527
रीब	-10.0543
पंज	-10.0544
रक्षा	-10.0545
क्ट	-10.0551
जाये	-10.057
मात्र	-10.0574
द्ध	-10.0576
फु	-10.0584
औद्योगिक	-10.0599
दस्तावेज	-10.0599
परीक्षा	-10.0599
पुलिस	-10.0599
▁://	-10.0599
▁@	-10.0599
कठिन	-10.06
htm	-10.0601
समझौत	-10.0602
संरक्षण	-10.0602
आतंकवाद	-10.0603
प्रकृति	-10.0605
वित्त	-10.0611
ग्राम	-10.0615
रज	-10.0616
ईसा	-10.0629
स्ट्र	-10.0631
्श्	-10.0633
राज्यों	-10.0658
त्म	-10.069
तत्व	-10.0696
सफलता	-10.0696
उपधार	-10.0715
अर्ज	-10.0717
en	-10.0814
उल्लेख	-10.0826
मुसलमान	-10.0826
पहाड	-10.0826
मजबूत	-10.0827
हवा	-10.083
प्राकृत	-10.0831
चाह	-10.0832
प्रशासन	-10.0836
ल्स	-10.0837
स्थल	-10.0839
▁):	-10.0849
ेंट	-10.09
निर	-10.0904
ालिम	-10.0936
अरब	-10.0942
रकम	-10.0943
पेट	-10.0951
सीख	-10.0972
मिलने	-10.0986
कृति	-10.0992
द्वार	-10.1014
▁/	-10.1034
जितन	-10.104
बाप	-10.1046
ेगी	-10.1057
doe	-10.1059
अनिवार्य	-10.1059
गुणवत्ता	-10.1059
पर्याप्त	-10.1059
ॅ	-10.1059
पूंजी	-10.1059
सम्मेलन	-10.1059
इच्छा	-10.1059
▁+	-10.1059
पूर्ति	-10.1059
समाधान	-10.106
पदार्थ	-10.1061
मीटर	-10.1062
विरोध	-10.1065
अनुमति	-10.1065
बन्ध	-10.1066
मिटा	-10.1066
केंद्रीय	-10.1067
वायद	-10.1068
वास्तविक	-10.1069
विवाह	-10.1073
मंडल	-10.1074
ूँगा	-10.1075
रुपये	-10.108
शिश	-10.108
विभाज	-10.1092
भली	-10.1099
तीसर	-10.111
पन्न	-10.1126
ग्री	-10.1159
धारण	-10.1175
मार्गदर्श	-10.1184
at	-10.1228
असफल	-10.1276
डिस्क	-10.1296
need	-10.1297
obab	-10.1297
आधुनिक	-10.1297
भविष्य	-10.1297
सार्वजनिक	-10.1297
७	-10.1297
संशोधन	-10.1297
व्यापक	-10.1298
प्रयोजन	-10.1298
गृह	-10.1298
डो	-10.1309
रखो	-10.1329
सक्षम	-10.1337
ल्ड	-10.135
ावा	-10.1368
दर्ज	-10.1374
आत्मा	-10.1377
वहन	-10.1385
दास	-10.1387
le	-10.1391
महीन	-10.1398
मोट	-10.1413
ाइड	-10.1435
बस्त	-10.1456
ुड	-10.1456
कहो	-10.1463
शीर्ष	-10.1483
संरचना	-10.1486
सुरक्ष	-10.1496
उद	-10.1508
ur	-10.152
औ	-10.1522
उद्	-10.1541
कंप्यूटर	-10.1541
नेटवर्क	-10.1541
बुद्धि	-10.1541
समारोह	-10.1541
गांव	-10.1541
ent	-10.1541
विजय	-10.1542
गाड	-10.1542
अध्यक्ष	-10.1543
अधिकांश	-10.1543
अर्थात	-10.1543
▁¦196	-10.1546
प्रयुक्त	-10.1553
वृत्त	-10.1555
मिली	-10.1563
्यु	-10.1563
आदमी	-10.157
चढ	-10.1573
बिल्	-10.1574
हिर	-10.1582
निधि	-10.1593
बुला	-10.1627
रखे	-10.1636
पहुंचा	-10.1656
आयोज	-10.1664
युवा	-10.1664
us	-10.1665
तरीके	-10.1681
बनी	-10.1681
to	-10.1693
वें	-10.1701
सरल	-10.1747
बीमार	-10.175
ॉर्	-10.1752
ईश्वर	-10.1791
परिषद	-10.1791
पर्यावरण	-10.1791
खाद्य	-10.1791
गिज	-10.1792
नाटक	-10.1794
मुद्द	-10.1794
डेटा	-10.1794
किसान	-10.1797
संभावना	-10.1798
▁–	-10.1801
पात्र	-10.1813
रेट	-10.1816
हज	-10.1819
द्यप	-10.1833
नदी	-10.1844
अंक	-10.1853
ुफ	-10.1855
प्रभावित	-10.1855
कार्ड	-10.1866
शुक्र	-10.1872
ुश	-10.1895
मिलता	-10.1911
एच	-10.1935
सच	-10.1941
पैर	-10.1976
वात	-10.1992
शर्त	-10.1997
न्दर	-10.2038
कांग्रेस	-10.2047
कृष्ण	-10.2047
जहन्नुम	-10.2047
शीघ्र	-10.2047
संस्करण	-10.2047
पुरस्कार	-10.2047
भंडार	-10.2047
पद्धति	-10.2047
परंपरा	-10.2047
ग्राहक	-10.2047
अवश्य	-10.2047
उद्यम	-10.2048
सत्ता	-10.2049
क्षेप	-10.2051
उपबंध	-10.2051
साधारण	-10.2054
आवाज	-10.2058
पिता	-10.2059
उपचार	-10.206
संसार	-10.2062
on	-10.2064
खूब	-10.207
दोष	-10.2072
संचार	-10.2073
लिम	-10.2095
संस्कृत	-10.2099
अत्यन	-10.2101
ग्रे	-10.2127
चीन	-10.2135
आयात	-10.2137
देती	-10.2158
बदला	-10.218
खास	-10.218
ग्रहण	-10.2187
पोर्ट	-10.2227
पाए	-10.2244
माँ	-10.226
बदले	-10.226
कठ	-10.2263
जरूर	-10.2266
1.	-10.2292
लेखक	-10.2308
शताब्द	-10.231
संदर्भ	-10.231
हिन्दी	-10.231
प्रेष	-10.2311
▁}	-10.2312
अपील	-10.2313
प्रेर	-10.2314
बयान	-10.2319
नियुक्त	-10.2321
विशाल	-10.2326
पीठ	-10.2329
झु	-10.2329
▁)।	-10.2334
सिर	-10.2334
देग	-10.2336
डरा	-10.2337
खर्च	-10.234
कविता	-10.234
▁¦14	-10.2342
100	-10.2346
व्यय	-10.2348
लिंग	-10.235
कार्	-10.2371
जीवित	-10.2377
संगत	-10.2419
याँ	-10.2432
चलता	-10.2467
काव्य	-10.2482
ब्ल	-10.249
टिक	-10.2541
vi	-10.2545
यंत्र	-10.2571
अनुच्छेद	-10.2581
हृदय	-10.2581
छोटा	-10.2581
कुंजी	-10.2581
सख्त	-10.2581
वंश	-10.2582
समाचार	-10.2584
नियत	-10.2586
of	-10.2588
विविध	-10.2605
मय	-10.2607
ढंग	-10.2615
सां	-10.2616
दशा	-10.2619
्रि	-10.2639
अभिलेख	-10.2642
गढ	-10.2645
दुख	-10.2647
्वा	-10.2648
मामल	-10.2665
आते	-10.2665
दीन	-10.2672
हट	-10.2696
बैंकों	-10.2699
इला	-10.274
रीख	-10.2753
ोगे	-10.2778
मूर्ति	-10.2783
ानु	-10.2785
वाई	-10.2796
मुझ	-10.2803
ून	-10.2808
चुन	-10.2826
वृत्ति	-10.2842
कुफ्फ	-10.2858
दायित्व	-10.2858
द्वीप	-10.2858
अत्याचार	-10.2858
चिह्न	-10.2858
सिस्टम	-10.2858
मोमिन	-10.2859
गतिविधिय	-10.2859
ठहरा	-10.2859
भेद	-10.2859
शुद्ध	-10.2859
प्रोग्राम	-10.286
स्वागत	-10.2861
स्वामी	-10.2861
भाषण	-10.2863
▁¦26	-10.2867
कूट	-10.2876
उतार	-10.2879
सलाह	-10.2881
प्रसार	-10.2883
कथा	-10.2891
se	-10.2901
िन्द	-10.2906
गिन	-10.2917
घट	-10.2919
मोड	-10.2935
सदन	-10.2942
परिभाष	-10.2965
शाह	-10.2992
तिथि	-10.2993
तर्क	-10.2997
प्त	-10.3034
्ति	-10.3048
रोध	-10.3074
हरि	-10.3124
अंतर्राष्ट्रीय	-10.3144
छोटी	-10.3144
हिदायत	-10.3144
कलकत्त	-10.3144
गुमराह	-10.3144
पांच	-10.3144
घोषणा	-10.3145
वेतन	-10.3147
कार्यालय	-10.315
रहेंगे	-10.3155
सागर	-10.3156
करार	-10.3166
छिपा	-10.317
...	-10.3178
वीर	-10.318
मालिक	-10.3196
देखें	-10.3205
नंबर	-10.3215
रिए	-10.3222
कदम	-10.3236
हानि	-10.3238
un	-10.3238
किनार	-10.3249
de	-10.3256
हालत	-10.3269
बनाएँ	-10.33
ed	-10.3313
ट्स	-10.3322
वरी	-10.3344
हेज	-10.3351
भूति	-10.3358
तट	-10.3375
el	-10.341
वश	-10.3424
प्प	-10.3435
नैतिक	-10.3438
वार्षिक	-10.3438
विद्युत	-10.3438
विधेयक	-10.3438
एशिया	-10.3438
जाँच	-10.3438
लघु	-10.3439
तिहास	-10.3441
विधान	-10.3446
साधन	-10.3462
तेल	-10.3468
श्रम	-10.347
पौध	-10.3474
मिले	-10.3483
प्रकाशित	-10.3485
ांतर	-10.3492
मनो	-10.3501
40	-10.3508
सत्र	-10.3544
मानक	-10.3622
संकल्प	-10.3626
गाय	-10.3656
बध	-10.3659
सुनिश्च	-10.3664
डाला	-10.3665
कल्पना	-10.3689
प्रिय	-10.3698
नियंत्र	-10.374
िरत	-10.374
शिकायत	-10.3741
दर्शा	-10.3741
धीरे	-10.3742
टुकड	-10.3742
प्रभुत्व	-10.3742
सिद्धांत	-10.3743
अर्थव्यवस्था	-10.3744
टू	-10.3746
पाई	-10.3754
दुर्	-10.376
पूर	-10.3762
31¦	-10.3768
गवान	-10.3769
प्रदर्शन	-10.377
ियो	-10.3779
रद्द	-10.3801
-1	-10.3801
बैठे	-10.3803
लम्ब	-10.3811
अत्य	-10.3819
खुला	-10.382
माज	-10.3824
विष	-10.3827
खुलत	-10.3834
विमान	-10.3835
बजाय	-10.3844
स्टा	-10.3869
विशेषता	-10.3889
रिज	-10.3895
सीता	-10.3952
रखें	-10.3966
जून	-10.3968
ॉप	-10.3997
ma	-10.4008
ज्ज	-10.4014
पाने	-10.4016
ऑन	-10.4019
रेशन	-10.4035
दस	-10.4036
गुना	-10.4042
कटौती	-10.4054
पत्थर	-10.4054
बावजूद	-10.4054
बौद्ध	-10.4054
अपराध	-10.4054
प्रसन्न	-10.4054
निर्मित	-10.4054
pres	-10.4054
ऊँच	-10.4054
▁[	-10.4054
चंद्र	-10.4055
सरकश	-10.4056
अनुरोध	-10.4057
स्वच्छ	-10.4058
क्रो	-10.4059
शांति	-10.4061
डु	-10.407
अनुप्रयोग	-10.407
स्वीकृत	-10.4071
▁¦16	-10.4076
दशक	-10.408
वासी	-10.4089
साझ	-10.4094
गैस	-10.4096
िन्दा	-10.411
पना	-10.4124
दिख	-10.4137
10	-10.4158
वर्णन	-10.4168
बग	-10.4178
प्राथमिकता	-10.4178
मिलकर	-10.4196
मां	-10.4245
सकें	-10.4251
विरा	-10.4253
न्स	-10.4274
बारा	-10.4309
जल्द	-10.4317
her	-10.4347
विध	-10.4355
>	-10.4359
यूरोप	-10.4372
घोष	-10.4376
आंदोलन	-10.4376
इजरायल	-10.4376
उपयोक्ता	-10.4376
कल्याण	-10.4376
स्क्रीन	-10.4376
प्रविष्ट	-10.4376
भोजन	-10.4376
वैश्वि	-10.4376
प्राधिकारी	-10.4376
शैली	-10.4377
आज्ञा	-10.4377
परस्पर	-10.4378
चुनाव	-10.4378
रोजगार	-10.4378
श्रेणीः	-10.438
छात्र	-10.4381
मिश्र	-10.4381
उपयुक्त	-10.4383
अन्तर्	-10.4383
लॉग	-10.439
आईटी	-10.4392
मेट	-10.4392
माह	-10.4399
▁¤1	-10.441
मुस्	-10.4421
कर्मचारी	-10.4422
बोध	-10.4429
अंश	-10.4435
पेड	-10.444
शीर्षक	-10.4454
दिला	-10.4463
शोर	-10.4476
भूल	-10.4482
फ्ल	-10.4483
मानते	-10.4509
कालीन	-10.4521
नौ	-10.4539
द्वि	-10.4543
ड्ड	-10.4547
ब्रा	-10.4607
सीम	-10.4625
माँग	-10.4671
चुने	-10.4688
;	-10.4692
बुनियाद	-10.471
समृद्ध	-10.471
हिन्दू	-10.471
गंभीर	-10.471
गिरोह	-10.471
आकर्ष	-10.471
▁¤®	-10.471
सचिव	-10.471
पाकिस्तान	-10.471
पारि	-10.471
ख्वाह	-10.471
प्राचीन	-10.4711
लोकप्रिय	-10.4712
गुप्त	-10.4712
मौसम	-10.4713
साहस	-10.4714
अंतरराष्ट्रीय	-10.4715
पर्यट	-10.4717
▁{	-10.4717
पर्वत	-10.4717
ॉन्ट	-10.4719
कुमार	-10.4719
शिव	-10.4722
विफल	-10.4739
अधिकारियों	-10.4739
दोस्त	-10.4741
सुख	-10.4751
प्रचार	-10.4752
उभर	-10.4753
रहेगा	-10.4761
जल्दी	-10.4772
ाएँगे	-10.4778
भोग	-10.4788
दंड	-10.48
कक्ष	-10.4804
सहमत	-10.4838
उतन	-10.4843
तलब	-10.485
प्राण	-10.4855
नीतिय	-10.4858
बहा	-10.4881
जनक	-10.4883
ana	-10.4891
ुन	-10.4938
णिक	-10.4948
ुद	-10.4958
the	-10.4978
संस्कृति	-10.4986
उन्ही	-10.499
उपाय	-10.5034
फैल	-10.5048
मंच	-10.5054
सप्ताह	-10.5055
महात्मा	-10.5055
शून्य	-10.5055
स्मृति	-10.5055
सुंदर	-10.5055
अध्याय	-10.5055
तुलना	-10.5055
सीधे	-10.5055
मशीन	-10.5055
सत्याप	-10.5057
िल्टर	-10.5059
उत्तम	-10.5059
बोझ	-10.506
मिशन	-10.5061
घटा	-10.5062
मैदान	-10.5064
प्राप्ति	-10.5068
ाँति	-10.5068
ध्वनि	-10.5071
दीवार	-10.5077
निहित	-10.5078
वाद्य	-10.5084
मुद्रा	-10.5086
बाब	-10.509
द्रव	-10.5103
प्रकाशन	-10.5111
me	-10.5111
▁¦192	-10.5117
चलते	-10.5128
भु	-10.5138
आठ	-10.5157
वाज	-10.5174
दबा	-10.5176
हजार	-10.5182
न्यून	-10.5187
तत्	-10.52
हाथों	-10.5204
िक्स	-10.5248
न्ध	-10.5265
देखो	-10.528
हरू	-10.5303
sh	-10.5335
दह	-10.5351
:	-10.5359
नियमों	-10.5368
रिश्त	-10.5372
चीत	-10.5383
खिलाफ	-10.5412
व्यवसाय	-10.5412
संघर्ष	-10.5412
ोल्यूशन	-10.5412
आदर्श	-10.5412
विद्वान	-10.5412
हिंदू	-10.5412
संविदा	-10.5412
अफ्रीका	-10.5412
दृष्टिकोण	-10.5412
न्यास	-10.5412
निगम	-10.5412
गंगा	-10.5412
उद्घाट	-10.5413
comm	-10.5413
जाएंगे	-10.5414
उपन्यास	-10.5414
नियमित	-10.5414
je	-10.5415
जाएं	-10.5416
कम्पन	-10.5418
निर्भर	-10.5418
▁¦198	-10.5418
गर्म	-10.5418
करीब	-10.5425
पशु	-10.5435
घात	-10.5443
जुला	-10.5444
खेती	-10.5449
बदलें	-10.5452
रिश्ते	-10.5458
तकनीकी	-10.5459
धो	-10.5463
बॉ	-10.5508
दर्शन	-10.5512
खाने	-10.5515
देय	-10.5551
तोष	-10.5553
लिक	-10.5583
अनक	-10.559
हस्त	-10.5599
त्यंत	-10.562
बिज	-10.5662
बनाना	-10.5671
पंचा	-10.5699
वार्	-10.5713
hi	-10.5717
भाष	-10.572
ट्ट	-10.5721
बुल	-10.5741
तुर	-10.5745
’	-10.5764
चेहर	-10.5772
स्थिर	-10.5778
धार्मिक	-10.5782
सांस्कृतिक	-10.5782
ङ	-10.5782
तस्वीर	-10.5782
इकट्ठ	-10.5782
बख्श	-10.5782
बिक्री	-10.5782
इत्या	-10.5782
दयालु	-10.5782
जर्मन	-10.5782
नसीहत	-10.5782
तथ्य	-10.5782
आउट	-10.5782
सुझा	-10.5784
वर्ध	-10.5785
लोकतंत्र	-10.5785
डाटा	-10.5786
हत्या	-10.5786
अध्य	-10.5787
िस्तान	-10.5788
जायेगा	-10.5789
मुकदम	-10.5789
सूत्र	-10.5791
ावरण	-10.5791
पोष	-10.5792
कहेंगे	-10.5792
निष्ठ	-10.5793
फरमा	-10.5796
गरीब	-10.5805
यूनिट	-10.5807
ूंगा	-10.5811
नौकर	-10.5815
उतर	-10.5841
ायिक	-10.5865
दौर	-10.5868
ांति	-10.5873
शासक	-10.5878
लौ	-10.5885
op	-10.5906
बीमा	-10.5911
सरण	-10.5927
लौटा	-10.5929
माप	-10.5937
देवी	-10.5957
▁(%	-10.5967
po	-10.5971
रेख	-10.5976
रार	-10.6016
विनियम	-10.6028
मानसिक	-10.6032
ध्व	-10.6062
चेतन	-10.6065
शास	-10.6068
"	-10.6069
डाय	-10.6084
त्मक	-10.6096
लिब	-10.6115
न्ट	-10.6128
मान्यता	-10.6135
ॉक्स	-10.6155
स्त्री	-10.6166
अद्यतन	-10.6167
प्रोत्साहन	-10.6167
प्रदूष	-10.6167
संलग्न	-10.6167
प्रतीक्षा	-10.6167
इंडिया	-10.6167
कर्तव्य	-10.6167
अनुकूल	-10.6167
आंकड	-10.6167
शत्रु	-10.6167
शैक्ष	-10.6167
पवित्र	-10.6167
१९	-10.6167
अल्प	-10.6168
ब्रिटि	-10.6168
पंजाब	-10.6171
प्रतिनिधि	-10.6172
▁]	-10.6173
▁\	-10.6177
लिंक	-10.6181
प्रभार	-10.6189
खाली	-10.6195
लक्षण	-10.6205
विवाद	-10.6208
चौड	-10.6215
संपूर्ण	-10.6216
महल	-10.6218
डाउन	-10.6227
पौ	-10.6229
सन्	-10.6231
बुरी	-10.6235
फैला	-10.6239
01	-10.6246
अनुवाद	-10.6248
con	-10.6253
ुदरत	-10.6256
कहानी	-10.6257
इबर	-10.6266
यश	-10.6273
ारिक	-10.6299
उठाने	-10.6301
रूस	-10.6328
एड	-10.6339
सजद	-10.636
पुस्त	-10.6414
भक्ति	-10.6436
im	-10.6456
डीए	-10.651
।	-10.6514
हासि	-10.6522
इंटर	-10.6552
j	-10.6563
कश्मीर	-10.6567
भागीदारी	-10.6567
समन्वय	-10.6567
पत्नी	-10.6567
अनुमोद	-10.6567
पंक्ति	-10.6567
प्रार्थना	-10.6567
संचालन	-10.6567
कनेक्शन	-10.6567
पृष्ठभूमि	-10.6568
कोशिका	-10.6568
जहाज	-10.6569
रीति	-10.657
संगम	-10.6572
uk	-10.6572
ोच्च	-10.6572
मिनट	-10.6574
विन्यास	-10.6575
पुत्र	-10.6576
बिहार	-10.6578
ii	-10.6579
जानवर	-10.6585
त्सव	-10.6638
गहर	-10.6638
▁.)	-10.6639
दिये	-10.6645
निदेशक	-10.6651
पारित	-10.6657
मामला	-10.6658
सामान	-10.6666
ुबूल	-10.6678
ांश	-10.6681
क्यू	-10.6699
ct	-10.6725
गहरा	-10.6759
हू	-10.6781
आवास	-10.68
आयोजन	-10.6831
यूस	-10.6846
ot	-10.685
ch	-10.6857
ुल्	-10.6875
परिवर्त	-10.6923
कर्मचार	-10.6932
रेश	-10.694
–	-10.6966
ख्याल	-10.6983
उम्मीद	-10.6983
ग्रंथ	-10.6983
महत्त्व	-10.6983
जिम्मेदार	-10.6983
व्याख्या	-10.6983
श्रेष्ठ	-10.6983
धैर्य	-10.6983
शुभकामना	-10.6983
द्वितीय	-10.6983
स्तंभ	-10.6983
पार्टी	-10.6983
बूझ	-10.6984
अक्सर	-10.6984
शिक्षक	-10.6984
ाधिकरण	-10.6984
ट्रैक	-10.6984
निर्देशिका	-10.6986
सौंप	-10.6986
ठिकान	-10.6988
सहकारी	-10.6989
ing	-10.6991
सम्मिल	-10.6991
अंदर	-10.6991
सुबह	-10.6997
कागज	-10.7002
प्रवाह	-10.7006
ol	-10.7008
ायत	-10.7012
संवाद	-10.7015
स्वर	-10.703
ताकत	-10.7035
प्रचल	-10.7041
शिकार	-10.7069
आस्ति	-10.7086
्रस्त	-10.7101
23	-10.7116
क्लि	-10.713
बेच	-10.7148
34	-10.7175
ग्न	-10.7179
मानो	-10.7215
ाणु	-10.7263
हल्	-10.7323
टु	-10.7357
‘	-10.7401
९	-10.7417
इंजीनियर	-10.7418
टिप्पण	-10.7418
मस्जिद	-10.7418
महामहिम	-10.7418
माबूद	-10.7418
विद्यमान	-10.7418
अज्ञात	-10.7418
आरम्भ	-10.7418
ढूंढ	-10.7418
प्रशंसा	-10.7418
भौतिक	-10.7418
रौशन	-10.7418
μ	-10.7418
साझीदार	-10.7418
ऊंचा	-10.7418
समर्प	-10.7418
िम्मे	-10.7418
उम्र	-10.7418
परामर्श	-10.7418
तकलीफ	-10.7418
ढांच	-10.7419
अभियान	-10.7419
फ्री	-10.7419
शिष्ट	-10.7419
कार्रवा	-10.742
जवाहर	-10.742
जलवायु	-10.7421
गुजरात	-10.7421
▁॰	-10.7422
यहूद	-10.7428
प्राप्तकर्ता	-10.7429
उच्चत	-10.7432
साहित्यिक	-10.7434
बूत	-10.7441
दर्द	-10.7449
सीडी	-10.7468
क्ति	-10.7471
लकड	-10.7481
चाय	-10.749
ीर्ण	-10.749
रिक्त	-10.7502
दादा	-10.7524
न्हीं	-10.7545
२००	-10.7595
मिलिय	-10.7598
घटक	-10.7601
ंकन	-10.7608
कंप	-10.7629
लॉक	-10.7666
सांस	-10.7706
नजर	-10.7726
तुम्हे	-10.7753
खुले	-10.7786
तकनीक	-10.7815
निभा	-10.7832
पालि	-10.7869
अस्तित्व	-10.7873
आध्यात्मिक	-10.7873
औषध	-10.7873
निष्क्रिय	-10.7873
मोहम्म	-10.7873
वाणिज्य	-10.7873
निरंतर	-10.7873
भ्रष्ट	-10.7873
मोबाइल	-10.7873
सावधान	-10.7873
दीर्घ	-10.7873
साम्राज्य	-10.7873
आबंट	-10.7873
नृत्य	-10.7873
ग्राफ	-10.7873
अगस्त	-10.7873
पसन्द	-10.7873
फिल्म	-10.7873
कमांड	-10.7873
मौलिक	-10.7873
उत्साह	-10.7874
मूल्यांक	-10.7874
qu	-10.7874
पलट	-10.7875
प्रेरणा	-10.7875
पूज्य	-10.7878
ख्यात	-10.7878
मिलेगी	-10.788
सहेजे	-10.7884
जनसंख्या	-10.7885
▁¦28	-10.7888
अवतर	-10.7889
प्रतिक्रिया	-10.789
bm	-10.7892
भरोस	-10.7892
घंट	-10.79
लिपि	-10.79
क्रय	-10.7909
टर्न	-10.7923
दत्त	-10.7953
संरक्ष	-10.7955
दावा	-10.7981
इब	-10.7984
निदेश	-10.7989
▁¦80	-10.8009
सकेग	-10.8027
ब्रि	-10.8032
किस्म	-10.8055
ियर	-10.8129
आरोप	-10.8151
मांस	-10.8163
गेंद	-10.8247
ौड	-10.825
नोट	-10.8253
स्त्रिय	-10.8305
बुर	-10.8309
ावस्था	-10.8311
▁¦21	-10.8326
श्रेणी	-10.8344
उत्कृष्ट	-10.8349
गिरफ्तार	-10.8349
मेहरबान	-10.8349
विश्लेषण	-10.8349
संक्षिप्त	-10.8349
सिफारिश	-10.8349
हथियार	-10.8349
पुष्टि	-10.8349
विश्वसनीय	-10.8349
वृक्ष	-10.8349
समग्र	-10.8349
शिखर	-10.8349
सिविल	-10.8349
औलाद	-10.8349
कुशल	-10.8349
जैव	-10.835
झाड	-10.835
छुट्ट	-10.835
दोहरा	-10.8351
prh	-10.8352
शेख	-10.8352
दैव	-10.8354
आंख	-10.8356
प्रभु	-10.8357
जंगल	-10.8357
दूध	-10.8361
संकट	-10.8362
शाखा	-10.8362
पेय	-10.8363
सिक्क	-10.8363
▁¦29	-10.8368
बदलाव	-10.8376
सराहन	-10.8377
पीढ	-10.8384
घेर	-10.8386
प्रेस	-10.8393
असल	-10.8397
चंद	-10.8398
अनुमान	-10.841
शुभ	-10.8421
ंदेह	-10.8426
पैमान	-10.8445
देंग	-10.8466
हिसा	-10.8479
बेह	-10.852
ॉँ	-10.8525
हिल	-10.8559
कहानिय	-10.8575
देवता	-10.8585
सवाल	-10.8618
कुर्	-10.8641
iv	-10.8683
मणि	-10.8717
अधिसूच	-10.8733
मुद्र	-10.88
अमेरिक	-10.8804
छिप	-10.8807
आदम	-10.8823
q	-10.8848
उपभोक्ता	-10.8849
गाँधी	-10.8849
फिलीस्तीन	-10.8849
मस्तिष्क	-10.8849
रजिस्ट्र	-10.8849
समीक्षा	-10.8849
इन्सान	-10.8849
सर्वेक्षण	-10.8849
देखभाल	-10.8849
प्रायः	-10.8849
बिंदु	-10.8849
सफेद	-10.8849
दाखिल	-10.8849
महसू	-10.8849
हिमालय	-10.8849
टैब	-10.8849
मुंब	-10.8849
विनष्ट	-10.8849
आनन्द	-10.8849
उन्होने	-10.8849
चैनल	-10.8849
जटिल	-10.8849
ब्याज	-10.885
शरीक	-10.885
ation	-10.885
चिंता	-10.8851
इकाई	-10.8851
नियोज	-10.8852
फायद	-10.8854
उठाए	-10.8857
शोथ	-10.8858
संयंत्र	-10.8858
कब्ज	-10.8859
राज्यपाल	-10.8859
मीडिय	-10.8859
संबद्ध	-10.8864
कंपनिय	-10.8864
सरदार	-10.8869
जादू	-10.8869
पाठ्य	-10.887
पहलू	-10.887
छू	-10.8873
प्रारूप	-10.8878
क्षति	-10.8882
पंथ	-10.889
बहुतेर	-10.8907
पूज	-10.8944
प्रवास	-10.896
ज्ञापन	-10.8977
विद्यार्थ	-10.8978
टूट	-10.9015
ऊतक	-10.9034
दीक्षा	-10.9047
चन्द	-10.9112
मस्त	-10.9128
मुक्ति	-10.9168
स्टो	-10.9176
कल्पि	-10.9238
लानेवालो	-10.9288
अपेक्ष	-10.933
ार्च	-10.9347
'	-10.9355
त्याग	-10.937
,000¦	-10.9375
आश्चर्य	-10.9375
इलेक्ट्रॉनिक	-10.9375
कौशल	-10.9375
प्रोत्साहित	-10.9375
मुश्किल	-10.9375
इंडियन	-10.9375
कॉन्फ	-10.9375
दैनिक	-10.9375
परिस्थितियों	-10.9375
संक्रमण	-10.9375
संवर्धन	-10.9375
श्रद्धा	-10.9375
संतुल	-10.9375
टैग	-10.9375
स्मारक	-10.9375
▁$	-10.9376
प्रतिनिधित्व	-10.9376
हिंसा	-10.9376
चोट	-10.9377
क्रांति	-10.9377
नेअमत	-10.9377
साहब	-10.9377
अक्षर	-10.9377
औसत	-10.9377
अग्रिम	-10.9377
खतरा	-10.9377
▁!"	-10.9378
संध्य	-10.9378
कमजोर	-10.9379
न्द्रना	-10.9379
चिन्त	-10.938
विरूद्	-10.9381
2018¦	-10.9382
पत्रिका	-10.9384
दीजिए	-10.9386
बादशाह	-10.9386
फिरऔन	-10.9386
मिसाल	-10.9386
हार्द	-10.9389
प्रतिभूति	-10.9393
मछल	-10.9393
02	-10.9393
प्रांत	-10.9399
अपमान	-10.9402
राजस्थान	-10.9403
आजाद	-10.9415
आएग	-10.9431
2014	-10.9435
निकाय	-10.9445
पहन	-10.945
मंज	-10.9456
शार	-10.9456
ीजिए	-10.946
तात्	-10.9502
ावट	-10.9567
दिखाये	-10.957
मकान	-10.9609
अकेल	-10.9636
▁¦193	-10.9687
झोंक	-10.9707
प्रतिभा	-10.9747
चक्र	-10.9769
उधार	-10.9772
ंजर	-10.9794
सिखा	-10.9841
ञ	-10.993
कम्प्यूटर	-10.9931
चुनौती	-10.9931
चेतावनी	-10.9931
डिजिटल	-10.9931
न्यायाधीश	-10.9931
प्रतियोगिता	-10.9931
शैतान	-10.9931
तत्वदर्श	-10.9931
बरदस्त	-10.9931
जहन्न	-10.9931
आक्रमण	-10.9931
एजेंस	-10.9931
मर्श	-10.9931
आनंद	-10.9931
बजट	-10.9932
मुनाफ	-10.9932
चन्द्र	-10.9934
तंत्रिका	-10.9934
प्रतीत	-10.9935
सुभाष	-10.9935
दरवाज	-10.9936
मददगार	-10.9936
-19	-10.9936
बाबू	-10.9937
ाधीन	-10.9937
यूरोपीय	-10.9938
रियल	-10.9938
मुगल	-10.994
इज्ज	-10.994
मक्का	-10.9944
श्रमिक	-10.9945
2013¦	-10.995
मुर्द	-10.995
क्शन	-10.995
फसल	-10.9958
दाहिन	-10.996
फार्म	-10.9967
सर्वाधिक	-10.9989
विवेक	-10.9993
कैस	-11.0009
शर्ते	-11.0072
भक्त	-11.0136
iii	-11.014
नमून	-11.0148
रंज	-11.02
39	-11.0215
तत्काल	-11.0279
प्राथमिक	-11.0286
नुपात	-11.0302
08	-11.041
लॉकि	-11.0458
09	-11.0459
ईमानवाल	-11.0506
शिक्षण	-11.0516
com	-11.0517
www	-11.0519
500	-11.0519
आंध्र	-11.0519
उल्लंघन	-11.0519
जम्मू	-11.0519
ब्राह्मण	-11.0519
विद्रोह	-11.0519
शुरुआत	-11.0519
—	-11.0519
अवज्ञा	-11.0519
सर्वोत्त	-11.0519
भ्रम	-11.0519
जोखिम	-11.0519
detail	-11.0519
india	-11.0519
प्रतिष्ठा	-11.0519
शिल्प	-11.0519
मेहनत	-11.0519
इजाज	-11.0519
परीक्षण	-11.0519
कार्यान्वयन	-11.052
जनरल	-11.052
दुर्घटना	-11.052
अकबर	-11.052
ेश्वर	-11.0521
पुस्तकालय	-11.0521
१५	-11.0522
नवान्वेषण	-11.0522
उन्नत	-11.0522
सिंच	-11.0523
धातु	-11.0523
for	-11.0524
मजदूर	-11.0525
घुस	-11.0526
पंख	-11.0527
संबोध	-11.0529
2015	-11.0532
▁¦194	-11.0541
सलाम	-11.0544
खेत	-11.0554
छूट	-11.0564
ंतरिक	-11.0567
शंकर	-11.0581
अहमद	-11.0597
निकास	-11.062
घरेल	-11.0632
बाधा	-11.0654
तबाह	-11.0666
िब्ब	-11.0726
mb	-11.0779
मियान	-11.0792
अम्	-11.0832
०००	-11.0893
विद्यार्थियो	-11.0984
अनुज्ञा	-11.0986
ाइज	-11.1021
वचन	-11.1119
?	-11.1126
व्यावस	-11.1138
प्रावधान	-11.1144
आउटपुट	-11.1144
निष्कर्ष	-11.1144
विपणन	-11.1144
श्रृंखला	-11.1144
सामर्थ्य	-11.1144
▁¦1956¦	-11.1144
#-#-#-#	-11.1144
माइक्रो	-11.1144
ऊंचे	-11.1144
परेशान	-11.1144
गौरव	-11.1144
डिजाइन	-11.1144
चरित्र	-11.1144
ट्यूब	-11.1144
खींच	-11.1144
तन्त्र	-11.1144
release	-11.1144
कार्यवाही	-11.1144
इमारत	-11.1144
अखिल	-11.1145
आत्मनिर्भर	-11.1145
विनय	-11.1146
खराब	-11.1147
चाहेंगे	-11.1147
ायण	-11.1149
फोटो	-11.1149
कार्बन	-11.115
ॉल्ट	-11.115
dent	-11.1151
ेक्ट्र	-11.1153
र्द्ध	-11.1155
तुझ	-11.1157
शिशु	-11.1159
प्रतिष्ठि	-11.1159
उलट	-11.116
▁¦202	-11.1227
पंच	-11.1294
रंपरि	-11.1397
रोपण	-11.1413
फेंक	-11.1646
-20	-11.1666
कहेग	-11.1792
\	-11.1793
छुट	-11.181
विद्या	-11.181
info	-11.1811
जागरूक	-11.1811
प्रयत्न	-11.1811
प्रासंगिक	-11.1811
विष्णु	-11.1811
स्क्रिप्ट	-11.1811
गंतव्य	-11.1811
फ्रांस	-11.1811
वरिष्ठ	-11.1811
सभ्यता	-11.1811
सूक्ष्म	-11.1811
ब्रह्म	-11.1811
ब्राउज	-11.1811
फरवरी	-11.1811
स्पर्श	-11.1811
पाँच	-11.1811
पाइप	-11.1811
सन्तान	-11.1811
स्नातक	-11.1811
उद्यान	-11.1811
संयोज	-11.1812
बांध	-11.1812
सेक्टर	-11.1812
मंजूर	-11.1812
मुकाबल	-11.1812
तलाश	-11.1813
आबादी	-11.1813
रंगमंच	-11.1813
ोत्तर	-11.1813
दुकान	-11.1814
कर्ण	-11.1814
सम्भव	-11.1815
जेक्ट	-11.1816
१०	-11.1817
रणनीति	-11.1819
विशेषज्ञ	-11.182
विधाय	-11.1826
नस्ल	-11.1827
दलील	-11.1827
ईरान	-11.183
2016¦	-11.1831
कहलात	-11.1857
सकेंगे	-11.1857
रचनात्मक	-11.1987
जापान	-11.2031
सचेत	-11.205
परमाण	-11.2075
सशक्त	-11.2407
(	-11.2507
विद्यालय	-11.2524
अस्पताल	-11.2525
	-11.2525
क्रियाकलाप	-11.2525
ग्रन्थ	-11.2525
चिकित्सक	-11.2525
पृथ्वी	-11.2525
प्रयोक्ता	-11.2525
मुलाकात	-11.2525
मुसीबत	-11.2525
मॉडल	-11.2525
हिन्दुस्तान	-11.2525
आँकड	-11.2525
संतुष्ट	-11.2525
इनपुट	-11.2525
घुमा	-11.2525
प्रिंट	-11.2525
सीआरए	-11.2525
दुःख	-11.2525
कर्नाटक	-11.2525
बाह्य	-11.2525
इकाइय	-11.2525
उपेक्ष	-11.2525
प्रसंग	-11.2526
चिन्ह	-11.2526
पुराण	-11.2526
प्रवर्तन	-11.2526
अभिगम	-11.2526
संभाल	-11.2526
जादूगर	-11.2526
ction	-11.2527
इंग्लै	-11.2527
यांत्रिक	-11.2527
स्विच	-11.2527
निर्माता	-11.2527
प्लेट	-11.2528
ाहौल	-11.2529
वसूल	-11.2529
सम्बंध	-11.253
अय्य	-11.253
खतरे	-11.2532
काउंट	-11.2537
विनिम	-11.2537
मुशर	-11.2543
प्रोटोक	-11.2548
संचालि	-11.2551
पारदर्श	-11.2552
अहं	-11.2554
ोत्	-11.2566
स्कीम	-11.2566
=	-11.3294
¬	-11.3294
{	-11.411
	-11.4128
	-11.5037
ऍ	-11.5037
]	-11.713
&	-11.713
ॆ	-11.7148
	-11.8398
ॊ	-11.8398
_	-11.9032
	-11.9821
	-11.9825
ळ	-11.9826
!	-12.1475
|	-12.1493
	-12.1493
	-12.1493
·	-12.1493
é	-12.1493
॰	-12.3475
*	-12.3493
	-12.3493
£	-12.3493
©	-12.3493
॥	-12.3493
#	-12.5973
¥	-12.5975
	-12.5993
§	-12.5993
ऎ	-12.5993
}	-12.9309
”	-12.9309
°	-12.9321
¢	-12.9326
“	-13.4309
	-13.4326
	-13.4326
̃	-13.4326
	-13.4326
`	-14.4309
$	-14.431
[	-14.431
+	-14.431
@	-14.431
~	-14.431
	-14.4311
¶	-14.4312
¡	-14.4313
	-14.4314
	-14.4315
«	-14.4316
	-14.4317
̄	-14.4318
̈	-14.4319
̧	-14.432
®	-14.4321
¿	-14.4321
<	-14.4322
⁄	-14.4323
7	-14.4324
5	-14.4325
	-14.4326
	-14.4326
	-14.4326
	-14.4326
¤	-14.4326
×	-14.4326
î	-14.4326
ò	-14.4326
þ	-14.4326
ą	-14.4326
ĺ	-14.4326
ş	-14.4326
ॄ	-14.4326
॓	-14.4326
‐	-14.4326
₹	-14.4326
