<pad>	0
</s>	0
<unk>	0
,	-2.6988
▁ᎠᎴ	-3.38831
.	-3.41749
▁ᎾᏍᎩ	-3.62162
;	-3.81434
Ꮓ	-4.01627
▁ᎯᎠ	-4.31229
Ꭲ	-4.33539
▁ᎨᏒ	-4.47535
Ꭹ	-4.66654
▁ᎥᏝ	-4.90195
▁Ꭴ	-4.92829
▁ᎨᏒᎢ	-4.93723
ᏰᏃ	-5.02049
▁ᎤᏁᎳᏅᎯ	-5.08757
Ꭿ	-5.13121
▁Ꭰ	-5.1508
Ꮧ	-5.24772
Ꮙ	-5.29316
▁	-5.30034
Ꮒ	-5.3063
Ꮫ	-5.3586
Ꮎ	-5.37162
Ꮅ	-5.42667
?	-5.42708
Ꭽ	-5.43982
▁Ꮎ	-5.52638
Ꭶ	-5.53726
Ꮕ	-5.54165
Ꮣ	-5.55306
▁ᏥᏌ	-5.57074
▁ᎾᏍᏉ	-5.57285
▁ᏴᏫ	-5.57984
▁ᎩᎶ	-5.58631
▁ᎠᏴ	-5.61327
Ᏹ	-5.62789
▁ᎨᏎᏍᏗ	-5.65291
Ꮈ	-5.69374
-	-5.70107
▁ᏂᎨᏒᎾ	-5.724
▁ᎤᎬᏫᏳᎯ	-5.72847
▁ᏥᎩ	-5.7375
▁ᎾᏍᎩᏯ	-5.78778
▁ᎢᏳᏍᏗ	-5.7912
▁ᎠᏎᏃ	-5.79498
▁Ꮷ	-5.80528
ᏍᏗ	-5.81472
Ꮿ	-5.81472
ᏍᎩᏂ	-5.83394
Ꮑ	-5.86996
▁ᏂᎯ	-5.88326
▁ᎤᏂ	-5.91152
Ꮟ	-5.9128
▁ᎦᎶᏁᏛ	-5.91738
▁ᎾᎿ	-5.93072
▁ᏱᎩ	-5.94769
Ꮵ	-6.01479
Ᏼ	-6.01742
▁ᎪᎱᏍᏗ	-6.03295
Ꭺ	-6.0362
Ꮩ	-6.06056
▁ᏂᎦᏛ	-6.06846
▁ᎢᎦ	-6.10605
Ꮢ	-6.12337
▁ᎠᏂ	-6.12662
▁ᎣᏍᏛ	-6.12874
ᏗᏱ	-6.1325
▁ᎢᏥ	-6.14812
▁Ꮵ	-6.14875
Ꮄ	-6.16114
▁Ꮧ	-6.17587
▁ᎢᏳᏃ	-6.17899
▁Ꮪ	-6.19401
▁Ꮳ	-6.20327
Ᏺ	-6.20607
Ꭸ	-6.25043
▁ᎿᏉᏃ	-6.25845
ᏍᎩ	-6.2658
Ᏻ	-6.28257
▁ᎬᏩ	-6.28571
▁ᎤᏪᏥ	-6.3207
Ꮳ	-6.32775
▁ᏞᏍᏗ	-6.32778
▁ᎡᎶᎯ	-6.3304
Ꭼ	-6.36131
▁ᎤᏲ	-6.38906
▁ᎤᎾ	-6.39185
▁ᎾᏍᎩᏃ	-6.40098
Ꮥ	-6.41644
Ꮆ	-6.42521
▁ᎿᏉ	-6.44273
▁ᎤᏣᏘ	-6.44759
▁Ᏹ	-6.47271
▁Ꭶ	-6.47307
▁ᏂᎦᎥ	-6.48388
▁Ꭲ	-6.50897
▁ᎤᏩᏒ	-6.51783
Ꮨ	-6.51909
Ꮸ	-6.52551
Ꮂ	-6.53174
▁ᏄᏍᏛ	-6.54757
ᏍᎪ	-6.54948
▁ᎬᏂᎨᏒ	-6.54958
Ꮃ	-6.55609
▁ᎧᏃᎮᏛ	-6.5602
Ꮻ	-6.56931
Ᏸ	-6.57611
▁ᎦᎸᏉᏗᏳ	-6.57702
▁ᎠᏓᏅᏙ	-6.58761
Ꮤ	-6.61371
▁ᎣᏏᏳ	-6.62561
▁ᎢᏴᏛ	-6.63992
▁ᎦᎸᎳᏗ	-6.64527
▁Ᏻ	-6.64704
▁ᎠᎩ	-6.65104
ᏍᎦ	-6.65145
Ꮲ	-6.65281
Ꮞ	-6.65958
Ꭾ	-6.65971
▁Ꮣ	-6.68325
▁ᎾᎯᏳ	-6.68504
▁ᎤᏟ	-6.70545
▁ᎯᎠᏃ	-6.71132
Ꮹ	-6.71247
▁ᎠᏥᎸ	-6.71469
Ꮼ	-6.71776
▁ᏗᎧᎿᏩᏛᏍᏗ	-6.71952
▁ᎠᏍᎦᏯ	-6.73107
ᏍᏛ	-6.7361
▁ᎪᎯ	-6.74495
ᏍᏓ	-6.75265
▁ᎡᎯ	-6.77417
▁ᏄᏪᏎᎢ	-6.77654
▁ᎤᏤᎵᎦ	-6.78417
▁ᏚᏂ	-6.78647
▁ᎦᏙ	-6.78758
Ꭰ	-6.79106
Ꮴ	-6.80721
▁ᎾᏂᎥ	-6.81994
▁ᎤᏤᎵ	-6.83794
Ꮺ	-6.84513
ᏅᎩ	-6.86781
ᏁᎢ	-6.86911
▁ᎠᏆ	-6.87178
ᏍᎨᏍᏗ	-6.89679
ᏁᎸ	-6.89819
Ꮇ	-6.89897
▁ᎢᏳᎵᏍᏙᏗᏱ	-6.90034
ᏍᏗᏱ	-6.91122
▁ᏌᏉ	-6.91273
▁Ꭱ	-6.91945
ᏒᎩ	-6.92332
▁ᎢᏨ	-6.92699
▁ᎢᏳ	-6.94212
▁ᏥᏌᏃ	-6.94529
▁Ꭿ	-6.9456
▁[	-6.94776
▁ᏰᎵ	-6.95226
▁ᎢᏣ	-6.95489
▁Ꮔ	-6.95866
ᎮᏍᏗ	-6.96038
ᎸᎩ	-6.96166
▁ᎤᏂᏣᏘ	-6.97313
Ꮖ	-6.97534
▁Ꭼ	-6.99742
▁ᎨᏎᎢ	-6.99942
ᏅᎯ	-7.00218
▁ᎬᏂᏳᏉ	-7.00627
▁ᏚᏳᎪᏛ	-7.01669
▁Ꮿ	-7.01996
Ꮠ	-7.03006
▁ᎠᏁᎯ	-7.03293
ᎴᎢ	-7.03668
ᏎᎢ	-7.03987
▁ᎢᎩ	-7.04339
Ꮪ	-7.04362
Ꮔ	-7.04772
Ꭵ	-7.04942
]	-7.05693
▁ᎠᏂᏧᏏ	-7.05744
▁Ꮻ	-7.05749
Ꭱ	-7.05833
▁ᏧᏓᎴᏅᏛ	-7.06873
▁ᎡᏥ	-7.07368
▁ᎬᏩᏍᏓᏩᏗᏙᎯ	-7.07983
▁ᎠᏎ	-7.09466
▁Ꮥ	-7.09729
▁Ꭸ	-7.09957
▁ᎤᎬᏩᎵ	-7.10233
ᎨᏍᏗ	-7.1143
▁Ꮒ	-7.11776
Ꮜ	-7.1216
▁ᎠᏥ	-7.12397
▁ᏧᏂ	-7.1382
▁ᎤᏪ	-7.14812
▁ᏈᏓ	-7.16831
ᏰᎸ	-7.1693
▁ᏗᎦ	-7.17702
ᏔᏅᎯ	-7.17772
ᎯᏳ	-7.1805
▁ᏣᏂ	-7.18348
ᎸᎯ	-7.19227
▁ᎦᎪ	-7.1926
ᏁᎵ	-7.20429
▁ᏂᏚᏪᏎᎴᎢ	-7.21424
▁ᏄᏪᏒᎩ	-7.22827
▁ᎤᏙᎯᏳᎯᏯ	-7.23999
ᎲᎢ	-7.25168
Ꭴ	-7.25383
▁ᏄᏪᏎᎴᎢ	-7.25499
▁ᎤᏓ	-7.25702
▁ᏔᎵᏁ	-7.25756
▁ᎦᏙᏃ	-7.26003
▁ᏝᏍᎪ	-7.26523
▁Ꭳ	-7.26852
▁ᎣᎩ	-7.26921
▁Ꮽ	-7.27065
▁ᎨᏒᎩ	-7.28321
▁ᏉᎳ	-7.29478
▁ᏥᎷᏏᎵᎻ	-7.31329
▁ᎢᏧᎳᎭ	-7.31465
▁ᎪᎯᏳᏗ	-7.31742
▁ᎢᎬᏱ	-7.31767
ᏔᏅ	-7.33801
ᏁᏗᏱ	-7.34732
▁ᏣᎬᏫᏳᎯ	-7.3497
▁ᎡᏍᎦ	-7.35153
▁ᏕᏥ	-7.35228
ᏍᎬᎢ	-7.36162
▁ᎠᎹ	-7.36239
▁ᎠᏏ	-7.36668
▁ᎬᏂᏛ	-7.3685
▁ᎠᎨᏴ	-7.37196
▁ᏂᏚᏪᏎᎸᎩ	-7.37273
ᏙᏗ	-7.38059
▁ᎠᏰᎵ	-7.38926
ᏍᎪᎢ	-7.39249
▁ᏄᏪᏎᎸᎩ	-7.40354
▁ᎨᏥ	-7.40701
▁ᏔᎵ	-7.42242
▁ᎤᏓᏙᎵᏍᏗ	-7.43603
ᏍᎬ	-7.44216
▁ᏂᎦᏗᏳ	-7.44232
▁ᎠᏕᎸ	-7.45075
▁ᎤᏅᏒ	-7.45553
Ꭷ	-7.45813
ᏗᎭ	-7.45817
▁ᏅᏗᎦᎵᏍᏙᏗᎭ	-7.45906
▁ᏧᏪᏥ	-7.45933
▁Ꭵ	-7.46515
▁ᏧᎾᏓᎴᏅᏛ	-7.4753
▁ᎦᏚ	-7.47708
ᏍᏚ	-7.49299
Ꮀ	-7.49489
▁ᏍᎩ	-7.49684
▁ᏓᏂ	-7.49973
▁ᎢᏤ	-7.50003
▁ᎤᏁᏨ	-7.50054
▁ᎢᏯᏂᏛ	-7.50062
Ꮯ	-7.50739
Ꮦ	-7.50769
▁ᏥᎪ	-7.51008
▁ᎬᏂ	-7.51241
▁ᎠᏓ	-7.51529
▁ᎠᎾ	-7.51633
▁ᏂᎪᎯᎸ	-7.53112
ᏙᏗᏱ	-7.54435
▁ᏅᎩ	-7.55936
▁ᎾᏍᎩᏯᎢ	-7.55964
▁ᏗᏣ	-7.56424
▁ᏧᎾ	-7.58267
ᎸᎢ	-7.58387
ᏁᎸᎯ	-7.58867
▁ᎤᏙᎯᏳᎯ	-7.59768
▁ᎠᎦ	-7.5993
▁ᎬᏩᎦᏘᏯ	-7.59979
▁ᎩᎳᏉ	-7.60261
ᎮᎢ	-7.60928
ᎦᎵ	-7.61923
▁Ꮫ	-7.62045
▁ᎠᏏᏉ	-7.62836
ᏓᏅ	-7.63478
▁ᎾᎥ	-7.63653
▁ᏧᎾᏁᎶᏗ	-7.6386
Ꮰ	-7.64016
▁Ꮶ	-7.64379
Ꭻ	-7.6466
▁ᎢᎦᎢ	-7.64979
▁ᏅᏩᏓᎴ	-7.65003
▁Ꮹ	-7.65134
ᏓᎴ	-7.65284
ᎦᏘ	-7.65883
ᏒᎢ	-7.65945
▁ᎠᏰᎸ	-7.66055
ᏉᏍᎩᏂ	-7.66292
ᎪᎢ	-7.66592
!	-7.66844
▁ᏄᎬᏫᏳᏒ	-7.66844
Ꮶ	-7.67002
▁ᎢᏳᏩᏂᏌᏛ	-7.67864
▁ᎤᏇᏓᎵ	-7.67864
▁ᏂᏨᏪᏎᎭ	-7.67897
▁ᎤᏍᏗ	-7.68261
ᏍᎨᎢ	-7.68556
▁ᏗᎧᎿᏩᏗᏙᎯ	-7.68895
▁ᎠᏫ	-7.69486
▁ᎤᎾᏓ	-7.69683
▁ᎬᏗ	-7.69933
▁ᎤᎵᏂᎩᏛ	-7.70009
▁ᎢᏓᎵᏅᏟ	-7.70991
▁ᏗᎦᎸᏫᏍᏓᏁᏗ	-7.70999
▁ᏗᏥ	-7.71112
▁Ꮴ	-7.72076
▁ᎤᎵ	-7.7208
ᏍᏕ	-7.72848
ᎬᎢ	-7.73432
Ꮡ	-7.73963
▁ᏗᏂ	-7.74464
ᏁᎸᎩ	-7.74593
ᏁᎭ	-7.75424
▁ᎣᎦ	-7.7573
ᏍᎩᏂᏃᏅ	-7.75875
ᎲᎩ	-7.76023
ᏍᏙ	-7.76265
▁ᏦᎢ	-7.76352
▁ᏱᎨᏎᏍᏗ	-7.7656
▁ᏅᏯ	-7.76618
▁ᎠᏏᏴᏫ	-7.7683
ᏁᎯ	-7.7694
▁ᎦᎵᏉᎩ	-7.77549
▁ᎦᏚᎲ	-7.77586
▁ᎤᏚᎩ	-7.77683
▁ᎤᏁ	-7.78045
▁Ꭽ	-7.78055
▁ᎡᏣ	-7.78251
Ꮏ	-7.7847
ᏁᏗ	-7.79481
▁ᏅᏩᏙᎯᏯᏛ	-7.79836
▁ᎤᏕᎵᏛ	-7.79837
▁ᎡᏙᏓ	-7.79897
▁ᎩᎶᏃ	-7.802
▁ᏱᎦ	-7.80348
▁ᏧᏙᎢᏛ	-7.82174
▁ᏧᎬᏩᎶᏗ	-7.82174
▁ᎠᏂᏍᎦᏯ	-7.82176
▁ᎢᏗᏢ	-7.8232
▁ᎢᎨᏎᏍᏗ	-7.83378
▁ᏄᏂᏪᏒᎩ	-7.83496
ᏛᎩ	-7.8396
ᎰᎢ	-7.84287
▁ᏄᏂᏪᏎᎢ	-7.8457
▁ᎤᏁᎳᎩ	-7.84836
▁ᏥᏚ	-7.8515
▁ᏚᎾ	-7.85282
▁ᎠᎾᏙᎴᎰᏍᎩ	-7.85789
▁ᎤᎾᏓᏅᏘ	-7.85887
ᏄᎪ	-7.85977
ᏍᏆ	-7.86076
▁ᎢᎬᏱᏱ	-7.86417
▁ᎪᏪᎵ	-7.86459
▁Ꭷ	-7.87477
ᏙᎵ	-7.87495
▁ᏰᎵᏉ	-7.87538
ᏒᎯ	-7.87858
▁ᎢᎦᏛ	-7.88167
▁ᎨᏎ	-7.88203
▁ᏔᎳᏚ	-7.88273
ᎪᎲ	-7.88391
ᏛᎦ	-7.88664
ᏅᎢ	-7.88709
▁ᎢᎸᎯᏳ	-7.89541
▁ᎢᏳᏰᏃ	-7.90006
ᏍᎨ	-7.90146
▁Ꮩ	-7.9094
▁ᏗᎦᎳᏫᎢᏍᏗᏱ	-7.91263
ᏙᎯ	-7.91442
▁ᎠᏂᏔᎵ	-7.92124
ᏔᏂ	-7.92141
Ꮷ	-7.92336
▁ᏙᏓ	-7.9238
ᏍᎬᎾ	-7.92528
Ꮝ	-7.93004
ᏗᏍᎨᏍᏗ	-7.93107
▁ᏌᏩᏂ	-7.93436
▁ᎡᎳᏗ	-7.93511
ᏔᏅᎩ	-7.93889
▁ᏄᏂᎬᏫᏳᏒ	-7.94769
▁ᎢᏏᎵ	-7.94774
ᏔᏁ	-7.94805
▁ᏱᏥ	-7.95672
▁ᎡᏆᎭᎻ	-7.9612
▁ᏱᎰᏩ	-7.96121
▁ᏅᏓᏳᏓᎴᏅᎯ	-7.96126
▁ᎨᎵᎵ	-7.96224
ᏄᏬ	-7.9664
▁ᏂᏚ	-7.97179
▁ᎠᏍᎦᏂ	-7.97501
▁ᎤᏍᏆᏂᎪᏗ	-7.97611
▁ᎦᏓᎭ	-7.97735
▁ᏂᎦ	-7.97759
Ꭳ	-7.9838
ᏁᎴ	-7.98452
ᎲᎾ	-7.98544
▁ᎢᎦᏤᎵ	-7.98686
▁ᎠᏂᏆᎵᏏ	-7.9888
Ꮋ	-7.98892
▁ᏚᏙᎥ	-7.98935
▁ᎤᎾᏤᎵᎦ	-7.99153
▁ᎼᏏ	-8.00288
▁ᏗᏂᎧᎿᏩᏗᏙᎯ	-8.00288
ᏍᏙᏗ	-8.00327
▁ᎨᏣ	-8.00451
▁ᏕᎦ	-8.00575
▁ᏱᎨᏎᎢ	-8.01022
Ꮘ	-8.01684
▁ᏥᏕ	-8.02703
ᎠᏁᎶᎯ	-8.03056
▁ᎠᏙᎴᎰᏍᎩ	-8.03175
▁ᎠᏎᏉ	-8.03484
▁ᏂᎬ	-8.0389
ᏗᎦᎳᏫᎢᏍᏗᏱ	-8.04131
Ꮱ	-8.04496
▁ᎠᏲᎱᎯᏍᏗ	-8.04637
ᏤᎵ	-8.04848
▁ᎤᏥ	-8.05329
▁ᏂᎬᏅ	-8.05455
▁ᏕᏣ	-8.06741
▁ᎢᏨᏒ	-8.06965
Ꮭ	-8.07033
ᎨᎢ	-8.07079
ᏍᏔᏂ	-8.07289
▁ᏱᏚ	-8.07492
▁ᏥᏂ	-8.07716
ᏍᏔᏅ	-8.07842
▁ᎠᎦᏴᎵᎨ	-8.08062
▁ᏱᏣ	-8.08088
▁ᎦᏙᎯ	-8.08477
▁ᏂᎯᏍᎩᏂ	-8.08796
ᏍᏙᏗᏱ	-8.0998
ᎯᏍᏗᏱ	-8.1061
▁ᎢᏯᎦᏴᎵ	-8.10745
▁ᎢᏗ	-8.10877
ᎬᏩ	-8.11023
▁ᎠᏁᎲ	-8.11508
▁ᎤᏅ	-8.12087
▁ᎠᏍᎩᎾ	-8.12349
Ꮗ	-8.12802
ᎬᎩ	-8.12978
ᏗᏍᎬ	-8.13292
▁ᏄᏍᏗ	-8.13299
▁ᎢᏯ	-8.13521
▁ᏂᏣ	-8.13678
▁ᎤᏛᏅ	-8.13931
▁ᎺᎵ	-8.13946
▁ᎦᏳᎳ	-8.13946
▁ᎠᏓᎨᏳᏗ	-8.14044
▁ᏱᏂ	-8.14081
ᎳᏫ	-8.14669
▁ᎤᎾᏛᎦᏅ	-8.1498
▁ᎤᎵᏂᎩᏗᏳ	-8.15737
▁Ꮨ	-8.15779
▁ᏕᏫ	-8.15991
▁ᎤᏙᏓ	-8.16379
ᎵᏍᏓ	-8.16533
▁ᎠᎦᏴᎵᎨᎢ	-8.17015
ᎯᏍᏗ	-8.17248
▁ᎠᏍᏓᏯ	-8.17258
ᎨᎶᎯ	-8.17322
ᎶᎯ	-8.17836
ᏲᎱ	-8.18385
▁ᎣᏂ	-8.1842
ᏚᎵ	-8.18664
▁ᎠᎾᎵᏅᏟ	-8.1895
▁ᎬᎩ	-8.19174
▁Ꮜ	-8.19532
▁ᎬᏩᏂ	-8.19575
ᎲᏍᎩ	-8.19624
▁ᏓᎾ	-8.19874
▁ᏄᎵᏍᏔᏅ	-8.20164
ᎧᏁ	-8.20543
▁ᎠᏂᏍᎩᎾ	-8.20677
ᏎᏍᏗ	-8.20723
▁Ꮭ	-8.21101
▁ᎥᎩ	-8.21209
ᎦᏔᎲ	-8.21455
ᏩᏛ	-8.21479
▁ᎢᏣᏓ	-8.21645
▁Ꮑ	-8.2179
▁ᏓᏥ	-8.21888
ᏔᏁᎢ	-8.22646
▁ᎨᏐᎢ	-8.23412
▁ᎤᎷᏨ	-8.23694
▁ᏕᎤ	-8.23904
▁ᏱᏓ	-8.24025
▁ᏧᏤᎵ	-8.24175
▁ᏆᎴᏗ	-8.24214
▁ᎠᏃᎯᏳᎲᏍᎩ	-8.24268
▁ᎦᎶᎯᏍᏗᏱ	-8.24287
ᎳᏗ	-8.24843
▁ᏄᏪᏒ	-8.2543
▁ᏫᏚ	-8.25784
▁ᏧᏂᏲᎱᏒᎯ	-8.26028
▁ᏅᏩᎾᏓᎴ	-8.26028
▁ᏅᏓᏳ	-8.26109
▁ᏱᏗ	-8.26243
ᎫᏴ	-8.2629
▁ᏥᏳᎯ	-8.26576
▁ᎠᏓᏁᎸ	-8.26916
▁ᎢᎦᏛᏃ	-8.26936
ᏁᎮᏍᏗ	-8.26952
▁ᏓᏳ	-8.26968
ᏨᎩ	-8.27848
ᏗᏍᎩ	-8.27874
▁ᎦᏰᎪᎩ	-8.27882
▁ᎠᏂᎨᏴ	-8.27884
▁ᎨᏥᏅᏏᏛ	-8.27928
▁ᎣᏥ	-8.28006
▁ᎤᏁᏤ	-8.28061
ᎧᏅ	-8.28169
▁ᏐᎢ	-8.28215
▁ᏥᎨᏒᎩ	-8.28246
▁Ꮕ	-8.28448
ᏙᏓ	-8.28804
▁ᏥᎦ	-8.29181
ᏛᎾ	-8.29246
ᎬᎾ	-8.29278
▁ᏗᏃᏪᎵᏍᎩ	-8.29767
▁ᏒᏃᏱ	-8.29767
▁ᎢᎬᏱᏗᏢ	-8.29801
ᏁᎴᎢ	-8.30236
▁ᏄᎵᏍᏔᏁᎢ	-8.30454
▁ᎦᎸᎶᎢ	-8.30468
▁ᎯᏍᎩ	-8.30529
▁ᎠᎵ	-8.30605
ᏍᎦᎩ	-8.30853
▁ᎤᎪᎲ	-8.30934
▁ᏂᏗ	-8.31417
ᏩᏛᎲ	-8.31469
▁ᏄᏓᎴᏒ	-8.31691
▁ᎢᏳᏍᎩᏂ	-8.3195
ᏲᎯ	-8.32083
Ꮮ	-8.32436
▁ᎤᎾᏓᏡᎬ	-8.32446
ᏁᎲ	-8.32771
ᏪᎳ	-8.32772
▁ᎢᎬᏩ	-8.3279
ᎦᏛ	-8.33071
▁ᏂᏓ	-8.33296
ᏅᏒ	-8.33542
ᎦᏔᎭ	-8.33579
▁ᎩᎦᎨ	-8.33651
▁ᎠᏛ	-8.33666
▁ᎤᏲᎱᏒ	-8.33693
▁ᎤᏤᎵᎪᎯ	-8.33722
▁"	-8.33781
▁ᎥᎥ	-8.33859
ᏒᎾ	-8.34171
▁ᏥᎨᏎᎢ	-8.34385
▁ᎤᎾᏤᎵ	-8.35471
ᏅᎦᎸ	-8.35613
▁ᎠᎺᏉᎯ	-8.35651
▁ᎤᎾᏙᏓᏆᏍᎬ	-8.35652
▁ᎤᏓᎵᎢ	-8.35675
ᎢᏍᏗᏱ	-8.35687
▁ᎡᎶᏛ	-8.35702
▁ᎤᏂᎬᏫᏳᎯ	-8.35716
ᏯᏅ	-8.35716
▁ᎢᏳᎾᏍᏗ	-8.35885
▁ᏨᏒ	-8.35894
ᏅᏒᎩ	-8.35903
▁ᎤᏂᎷᏤ	-8.36119
▁ᎤᏲᎢᏳ	-8.36133
▁ᏗᎬ	-8.36253
▁ᏦᎢᏁ	-8.36433
▁ᏥᏥ	-8.36767
▁ᏥᏳ	-8.36788
ᏐᏅ	-8.36881
ᏍᎬᎩ	-8.37371
▁ᎦᏥ	-8.37441
▁ᎤᎾᎵ	-8.37457
▁ᏗᏓ	-8.37591
▁ᏔᏕᏲᎲᏍᎩ	-8.37692
▁ᎩᎬ	-8.37782
▁ᏂᎬᎾᏛ	-8.38413
▁ᏓᎦ	-8.38568
▁ᎤᏂᏲ	-8.38737
▁ᏗᎬᏩ	-8.38997
ᏁᎳ	-8.39203
▁(	-8.39775
▁ᎡᎺᏅ	-8.39775
▁ᎠᎩᎾ	-8.40047
ᏎᎵ	-8.40204
▁ᎠᏲᎵ	-8.40245
▁ᏥᏄ	-8.40885
ᏌᏛ	-8.4124
Ꮬ	-8.41301
ᏁᏟᏴ	-8.41781
ᏰᎵ	-8.41801
▁ᎢᎪᎯᏛ	-8.41904
▁ᎤᏛᎦᏅ	-8.41926
▁Ꮤ	-8.41955
ᏓᏍᏗᏱ	-8.41988
▁ᏅᏗᎦᎵᏍᏙᏗᏍᎬ	-8.42251
▁ᏅᏓ	-8.42546
▁ᎤᏐᏅ	-8.42692
▁ᎢᏳᎵᏍᏙᏗ	-8.43783
▁ᎢᎸᎯᏢ	-8.44077
ᎡᎢ	-8.44347
ᎴᏂ	-8.44436
▁ᏗᎩ	-8.44561
▁ᎤᏩ	-8.4471
▁ᏂᏥ	-8.45101
ᏎᎭ	-8.45269
▁ᎤᏬ	-8.45523
▁ᏄᎾ	-8.45628
ᏂᎸ	-8.46202
▁ᎾᏍᎩᏍᎩᏂ	-8.4626
▁ᏅᏓᎬᏩᏓᎴᏅᏛ	-8.46302
▁ᎠᏂᏐᎢ	-8.46482
▁Ꭺ	-8.46493
▁ᏅᏗᎦᎵᏍᏙᏗᏍᎨᏍᏗ	-8.46559
▁Ꮀ	-8.46694
ᎴᏅ	-8.46772
ᏗᎾ	-8.46804
ᏫᏒ	-8.46964
▁ᏧᏗᏱ	-8.47203
ᏛᎢ	-8.47823
▁ᏅᏙ	-8.48882
▁ᏧᏤᎵᎦ	-8.49079
ᎷᏤᎸ	-8.49112
ᏤᎢ	-8.49383
ᏁᎮ	-8.49483
▁ᎢᎾᎨ	-8.49551
ᎧᎿ	-8.4962
▁ᎧᏁᎬ	-8.49862
ᏍᏔᏅᎯ	-8.49965
ᎠᏗᏔᏍᏗ	-8.50286
ᎨᏳᎯᏳ	-8.50542
ᏲᏎ	-8.50766
ᏓᏁᏗ	-8.50801
ᎵᏃᎮ	-8.5081
▁ᎢᏳᏟᎶᏛ	-8.50897
▁ᎢᏣᎵᏍᏓᏁᏗ	-8.50906
▁ᏗᎨᏥ	-8.51323
▁ᏕᏣᏓ	-8.51649
ᏅᏅ	-8.51711
ᏁᏤᎸ	-8.51914
ᏅᏏᏛ	-8.52066
ᎪᏩᏛᏗᏱ	-8.52316
ᏲᏏ	-8.52733
▁ᏭᏂ	-8.52845
▁ᎠᏁᎲᎢ	-8.53206
▁ᎠᏍᎪᎯᏧᏈ	-8.53286
ᏎᏗ	-8.53327
▁ᏧᏂᎸᏫᏍᏓᏁᎯ	-8.53358
▁Ᏺ	-8.53371
▁ᎠᎦᏙᎥᎯᏍᏗ	-8.53413
ᏍᏕᎸᏗᏱ	-8.53495
ᎦᏅᎯᏛ	-8.5351
▁ᏂᏥᎥ	-8.54458
▁ᏄᏪᏎᎴ	-8.54471
ᏌᎳ	-8.54578
ᎴᏍᏗ	-8.54869
Ꮉ	-8.55077
ᏁᎰᎢ	-8.55444
ᏕᏍᏗ	-8.55518
▁ᎤᎵᏍᏆᎸᏗ	-8.55717
▁ᏈᎵᎩ	-8.55721
▁ᏡᎬ	-8.55727
▁ᎠᏯ	-8.55782
▁ᏅᏓᎦᎵᏍᏙᏗᏍᎬᎩ	-8.55803
▁ᏂᎨ	-8.55811
▁ᎠᏇᏥ	-8.55976
▁ᎦᎸᏉᏗ	-8.56073
▁ᎤᏓᏅᏙ	-8.56104
▁ᎦᏚᎲᎢ	-8.56348
▁ᎢᎨ	-8.56463
▁ᎠᎦᏔᎲᎢ	-8.56719
ᏍᏕᎸ	-8.56779
▁ᎨᏐ	-8.57283
ᎾᏄᎪᏫᏎ	-8.57296
ᏯᎠ	-8.57458
ᏍᏔᏅᎩ	-8.57664
ᏅᎾ	-8.57855
▁ᎢᏧᎳ	-8.57892
▁ᏗᏓᏍᏚᏗᏱ	-8.58217
▁ᎤᏂᏣᏖ	-8.58218
▁ᎢᎸᏍᎩ	-8.58222
▁ᎬᏗᏍᎬ	-8.58342
▁ᎠᏂᏯᏫᏍᎩ	-8.58351
▁ᏥᎻ	-8.58612
ᎲᎦ	-8.58763
▁ᎾᏍᏉᏍᎩᏂ	-8.59207
ᎾᏍᎩ	-8.59349
ᎶᏒ	-8.59411
▁Ꮸ	-8.59534
▁ᏌᏉᏉ	-8.59703
▁ᏅᏛ	-8.59762
▁ᎦᏓ	-8.59843
ᎢᏍᏗ	-8.59883
Ꮽ	-8.60031
▁ᏯᎩ	-8.60188
▁ᎢᏅ	-8.60466
▁ᎢᎬ	-8.60592
▁ᎠᏓᏅᏖᏍᎬ	-8.60781
▁ᏫᎾᏍᏛᎾ	-8.60781
▁ᏗᏂᏲᎵ	-8.60826
▁ᏱᏥᎦᏔᎭ	-8.60828
ᏠᏱ	-8.6102
▁ᏕᎨᏥ	-8.61085
▁ᎠᎵᏍᏓᏴᏗ	-8.61354
▁ᎤᎷᏤ	-8.62319
ᎾᎵ	-8.62388
▁ᎡᎵ	-8.62424
ᏓᏅᏛ	-8.62426
ᎵᏍᏓᏴᏗ	-8.62669
ᏁᎸᎢ	-8.62868
ᎵᏍᏗ	-8.62896
ᏂᏏ	-8.63373
Ꮾ	-8.63396
▁ᎠᏥᎸᏉᏗᏳ	-8.63544
▁ᏥᎦᏔᎭ	-8.63708
▁ᏫᏗ	-8.63717
▁ᎤᏰᎸᏗ	-8.6378
ᏛᏁᏗ	-8.64008
▁ᎤᏂᎪᎲ	-8.64014
."	-8.64574
▁ᏱᎨᏎ	-8.64601
▁Ꮉ	-8.64734
ᏨᎯ	-8.64749
▁ᎦᏰ	-8.64781
▁ᏥᎨᏐ	-8.64829
▁ᏧᏪ	-8.64963
ᏩᏛᎮ	-8.65304
▁ᏩᎦ	-8.65438
ᏅᏍᏗᏱ	-8.65468
▁ᏫᏥ	-8.65539
▁ᎨᎦ	-8.65562
▁ᏕᎨ	-8.65635
ᏗᏍᎪᎢ	-8.65786
▁ᎤᏁᎳᏅᎯᏍᎩᏂ	-8.65828
▁ᎠᏍᎪᎯ	-8.65842
▁ᎤᏓᏅᏘ	-8.65997
▁ᏖᎸᎳᏗ	-8.66115
▁ᎤᏕ	-8.66229
▁ᎰᏩ	-8.66266
▁ᎤᏴ	-8.66353
▁ᎬᏔᏅᎯ	-8.66525
▁Ᏼ	-8.66581
ᏃᎮᎭ	-8.66678
▁ᎩᎶᏍᎩᏂ	-8.67064
▁ᏥᎨᏐᎢ	-8.67473
▁ᎤᏰᎸᏛ	-8.67543
ᏲᎵ	-8.67636
▁ᏄᎵᏍᏔᏅᎩ	-8.67644
▁ᏱᎬ	-8.67775
ᏅᏏᏓᏍᏗ	-8.67785
▁ᎠᏋᏒ	-8.6781
ᎾᏝᎢ	-8.6805
ᏍᏗᏍᎩ	-8.68109
▁ᏥᏓ	-8.68323
ᎢᏳ	-8.68425
▁ᏱᏗᏥ	-8.68847
▁ᏠᎨᏏ	-8.68893
▁ᎤᏃᏕᎾ	-8.68894
▁ᏗᎾᏓᏅᏟ	-8.68897
▁ᎭᏫᏂᏗᏢ	-8.6891
▁ᎤᏕᏁᎴᎢ	-8.68921
▁ᏥᎪᏪᎳ	-8.68974
▁ᏕᎯ	-8.69072
▁ᎤᏙᎴᎰᏒ	-8.6911
▁ᎭᏢ	-8.69235
▁ᏓᎩ	-8.69378
▁ᏓᏰ	-8.69438
▁ᏙᏛ	-8.69447
▁ᏂᏨ	-8.69673
ᎶᏗ	-8.6989
ᎡᎸ	-8.70324
ᏗᏍᏗᏱ	-8.70426
▁ᏂᏚᏳᎪᏛᎾ	-8.7175
▁ᎾᏂᏪᏍᎨᎢ	-8.71752
▁ᎢᎾᏛ	-8.71771
▁ᎤᏣᏔᏅᎯ	-8.71845
▁ᏦᏩ	-8.72107
ᎥᎢ	-8.7211
▁ᏫᎬᏩ	-8.72189
▁ᏓᎬ	-8.72394
▁ᏤᏥ	-8.72438
ᏍᏔᏁ	-8.72549
▁ᎤᏲᎱᏒᎯ	-8.72633
▁Ꮖ	-8.72933
ᏍᏔᏁᎢ	-8.72958
ᎥᎩ	-8.73371
ᏥᏯ	-8.73589
▁ᏔᎵᏁᏃ	-8.73867
▁ᎩᎳ	-8.73912
ᏓᎵ	-8.74135
ᏙᎴ	-8.74348
▁ᏅᏗᎦᎵᏍᏙᏗᏍᎨ	-8.7453
▁ᎢᏨᎨᏳᎢ	-8.74691
ᏗᎦᏅᏌᏗ	-8.74692
▁ᏎᏓᏂ	-8.74692
▁ᏥᏂᎬᏅ	-8.74693
▁ᎠᏂᏍᎦᎾ	-8.747
ᎨᏳᏎᏍᏗ	-8.74705
▁ᏣᏥ	-8.74894
▁ᏧᎵ	-8.75517
▁ᎬᏩᎾ	-8.76071
▁ᎬᏂᏳᏉᏃ	-8.76171
ᏍᏓᏴ	-8.76772
ᎵᏍᏕᎸᏙᏗ	-8.76852
ᏕᎰ	-8.76859
ᏗᏍᎬᎢ	-8.76876
▁ᎾᎿᏂ	-8.76978
ᏤᎸ	-8.77035
ᏁᏨ	-8.772
▁Ꮟ	-8.77219
▁ᎡᏗ	-8.77579
▁ᎤᎩᏨᏛ	-8.77722
▁ᎢᏳᎾᎵᏍᏓᏁᏗ	-8.77722
▁ᎢᏥᏍᎦᏯ	-8.77727
▁ᎤᏚᎵᏍᎬ	-8.77736
▁ᎠᏍᎦᎾ	-8.77744
▁ᎢᏤᎲ	-8.77787
▁ᏄᏍᏕᏍᏗ	-8.77818
ᏕᎵ	-8.77826
ᏐᎢ	-8.78056
ᏁᎶᏗ	-8.7811
ᏍᏕᏍᏗ	-8.78358
ᎦᏔᎮ	-8.78893
ᏌᏂ	-8.78903
Ꮁ	-8.78945
ᏅᏗ	-8.78974
▁ᏗᎨ	-8.79073
ᏅᏎ	-8.79098
▁ᏱᎨ	-8.79469
ᎵᏍᏙᏗ	-8.79569
▁ᎤᏣᏘᏂ	-8.79751
▁ᎧᏁ	-8.79992
▁ᏴᎬ	-8.80043
ᏍᏗᎭ	-8.80116
ᏎᎸᎯ	-8.80379
ᎪᏩᏛᏗ	-8.80476
ᏁᎰ	-8.80478
ᏍᏓᏱ	-8.80557
ᎸᎭ	-8.80564
▁ᎡᎭ	-8.80615
▁ᎠᏆᏤᎵ	-8.8067
ᏍᏆᏂᎪᏗ	-8.80698
▁ᎦᏁᎸ	-8.80737
▁ᎢᎳᏯ	-8.80851
▁ᎬᏃᏛ	-8.80899
ᎴᎯᏐᏗ	-8.80927
ᏯᏅᎲ	-8.81064
▁ᎠᎰᎵ	-8.81084
▁ᎤᎧᎵᏨᎯ	-8.81123
▁ᏧᏓᏏ	-8.81125
▁ᎾᏂ	-8.81145
▁ᏚᏪ	-8.81167
▁ᏧᏅᏏᏓᏍᏗ	-8.81192
▁ᎤᏠᏱ	-8.81229
▁ᏣᏁᎭ	-8.81452
▁ᏳᏂ	-8.81539
▁Ꭾ	-8.81627
▁ᎠᏰᎸᎢ	-8.81905
▁ᏄᏂ	-8.8194
▁ᎤᏂᏁᏨ	-8.82091
▁ᎤᏍᎦᏅᏨ	-8.82101
▁ᎤᏛᎾ	-8.82201
▁ᎠᏄᏬ	-8.82209
ᏛᏗ	-8.82292
▁ᎤᎶ	-8.82595
▁ᎪᏪᎸ	-8.82902
ᎧᏂ	-8.83126
▁ᏫᎦ	-8.8321
▁ᎤᏩᏒᏉ	-8.83441
ᎧᎵᎢ	-8.83523
ᏛᎯ	-8.83678
ᏑᏰᏛ	-8.84007
▁ᏗᏤ	-8.84025
▁ᏅᎬᏩᏪᏎᎸᎩ	-8.84073
▁ᏗᎵᏍᏓᏴᏗᏱ	-8.84074
▁ᎤᎴᏅᎮ	-8.84074
▁ᏂᎬᏩᏪᏎᎴᎢ	-8.84078
▁ᎢᏣᏛᏁᏗᏱ	-8.84121
▁ᏂᎦᏪᎭ	-8.84264
▁ᎢᏥᎦᏔᎭ	-8.84433
▁ᏥᏄᏍᏗ	-8.84538
▁ᎬᏅ	-8.84555
▁ᏴᎦ	-8.84584
ᎧᎲ	-8.84699
ᏛᏁᎵ	-8.84726
▁ᏱᏨ	-8.84886
ᏓᎸ	-8.84895
▁ᎦᏁᎸᎢ	-8.857
▁ᏤᎭ	-8.8577
▁ᎤᎷᏨᎩ	-8.85846
▁ᎤᏒ	-8.85979
ᏍᏆᏛ	-8.86053
ᏁᎳᏅᎯ	-8.86436
ᎷᏤᏗᏱ	-8.86469
ᏕᎢ	-8.86644
▁ᏅᏩᏓᎴᏃ	-8.86857
ᎵᏍᏔᏅ	-8.86974
ᏛᏁᎸ	-8.87154
▁ᎠᏰᎳᏍᏗ	-8.87406
▁ᏧᎾᏓ	-8.87406
▁ᏱᎦᎵᏍᏙᏓ	-8.87406
▁ᏔᎴᎲᎦ	-8.87406
▁ᏗᏂᎳᏫᎩ	-8.87407
▁ᎤᎵᏏᎬ	-8.87416
ᏍᏕᎵᏍᎬ	-8.87447
ᏡᏗᏍᎩ	-8.87468
▁Ꭻ	-8.87533
▁ᎤᏔᎳᏬᎯᏍᏗ	-8.87566
▁ᎠᏂᏏᏴᏫᎭ	-8.87609
ᏯᏅᏛ	-8.8761
▁ᏣᎾ	-8.87699
▁ᎠᎦᏔᎲ	-8.87789
ᎵᏍᎪᎸᏓ	-8.87965
ᎵᏏ	-8.88002
▁ᏧᏓ	-8.88024
▁ᎤᏟᎯᏳ	-8.88093
ᏙᎵᏍᏗ	-8.88153
ᏕᎩ	-8.88219
▁ᎡᎩ	-8.88541
ᎦᎵᏍᏓ	-8.88585
ᏩᏗᏒ	-8.88954
ᎾᏄᎪᏫ	-8.89021
▁ᏚᎴᏅ	-8.89026
▁ᏂᎪᎯᎸᎢ	-8.89102
▁ᎦᏍᎩᎸ	-8.89503
ᏎᎴ	-8.89867
ᏗᏍᎪ	-8.90148
▁ᏤᏣ	-8.90294
▁ᏴᏫᏉ	-8.90425
▁ᏕᎬᏩ	-8.90699
▁ᎤᏂᏁ	-8.90819
▁ᎨᏥᎸᏉᏗ	-8.90854
▁ᏂᎦᎵᏍᏗᎭ	-8.90855
▁ᏕᎤᏙᎥ	-8.90855
▁ᎠᏣᏗ	-8.90895
▁ᎦᎷᏨᎭ	-8.90929
▁ᎢᏳᏓᎴᏅᏛ	-8.90938
▁ᎦᏬᏂᏍᎬ	-8.90954
▁ᎦᎸᏉᏙᏗ	-8.91022
▁ᎠᏓᏁᎯ	-8.91041
▁ᎾᏆ	-8.91224
ᎥᎾ	-8.91239
ᎪᎯ	-8.91273
▁ᏕᏣᏓᏅᏛᎢ	-8.91352
ᎦᏔᎲᎾ	-8.91361
ᎡᎵ	-8.91361
ᎯᎠ	-8.91437
▁ᎡᏆ	-8.91557
▁Ꮡ	-8.91609
▁ᎡᎲ	-8.91686
ᏓᏂ	-8.91733
▁ᎤᏓᏅᏖ	-8.91737
▁ᏂᎦᏪᏍᎬ	-8.92097
ᎨᏳᎯ	-8.92323
ᏟᏌ	-8.92779
▁ᏣᏓ	-8.92914
▁ᎠᏇ	-8.93147
▁ᏂᏚᏪᏎᎴ	-8.93171
ᎪᏩᏛ	-8.93207
▁ᎦᎸᎶ	-8.93279
ᏯᎥᎢ	-8.93339
ᎨᎳᏍᏗᏱ	-8.93387
ᏍᏕᎸᎯ	-8.934
ᏁᏉᏤ	-8.93731
ᎷᏨ	-8.93925
▁ᎠᏋ	-8.94106
ᎪᎵᏰᏗ	-8.94156
▁ᎤᏣ	-8.94279
ᏕᏲ	-8.94289
▁ᎦᎨ	-8.94393
▁ᎭᏫᏂ	-8.94415
▁ᎢᏓᏓᏅᏟ	-8.94426
▁ᏄᎵᏍᏔᏂᏙᎸ	-8.94426
▁ᏓᏓᎿᏩᏍᏛ	-8.94426
▁ᏃᏈᏏ	-8.94426
▁ᏙᏱᏗᏢ	-8.94426
▁ᏅᏓᏳᎶᏒᎯ	-8.94426
▁ᏆᏂᏆ	-8.94426
ᎪᏩᏘᎭ	-8.94426
▁ᎾᏍᎦᏅᎾ	-8.94426
▁ᏗᏅᏃᏛ	-8.94427
▁ᎤᎵᏍᏆᏗᏍᏗ	-8.94429
▁ᎤᎦᎵᏍᏗ	-8.94438
▁ᏗᎩᎦᏴᎵᎨ	-8.94445
▁ᎢᎬᏁᎸᎯ	-8.945
▁ᎤᎩᎬ	-8.94516
▁ᎣᏓᎸ	-8.94537
▁ᏗᏓᏅᏙ	-8.94552
▁ᎡᎮ	-8.94621
ᏂᎪᎯ	-8.94839
▁ᎠᎪ	-8.94842
ᎷᏥ	-8.94905
▁ᎢᏓ	-8.95034
▁ᎦᏛᎦ	-8.95055
ᏬᏂᎯᏍᏗ	-8.95063
ᏍᏕᎸᏗ	-8.9532
▁ᏕᏨ	-8.95374
▁ᎠᏂᎦᏔᎲᎢ	-8.95583
▁ᎪᎵ	-8.95721
▁ᏗᎪ	-8.9603
▁ᎢᏤᎲᎢ	-8.96325
ᏓᏙᎵᏍᏗ	-8.96562
ᏁᎬ	-8.96613
▁ᏄᏛᏁᎸ	-8.96907
ᏪᏒ	-8.9693
▁ᏥᎨᏎ	-8.97123
▁ᏗᎨᏒ	-8.97247
ᎲᏍᎦ	-8.97537
ᏓᏍᏗ	-8.9771
ᏴᎵ	-8.97888
ᏏᏴᏫᎭ	-8.97905
ᎸᏉᏗᏳ	-8.98024
ᏍᏓᏩᏗᏙᎯ	-8.98082
ᏲᎦ	-8.98083
▁ᎤᎵᏍᏈᏗ	-8.98129
▁ᏐᏈᎵ	-8.9813
▁ᏓᏆᏙᎥ	-8.9813
▁ᎢᏨᏲᏎᎭ	-8.98131
▁ᎾᏎᎵᏗ	-8.98133
▁ᏧᏂᏢᎩ	-8.98137
▁ᏗᎨᎦᏁᎶᏗ	-8.98139
▁ᎾᎩᏪᏎᎸᎩ	-8.98142
▁ᎥᏓᎵ	-8.98215
▁ᎠᏥᏅᏏᏓᏍᏗ	-8.98241
▁ᎢᎩᏙᏓ	-8.98314
▁ᎢᏧ	-8.98373
ᏍᏗᏰ	-8.98391
▁ᏄᎾᏍᏛ	-8.98446
▁ᎣᏂᏃ	-8.98487
▁ᎠᏆᏤᎵᎦ	-8.98605
▁ᎠᎲ	-8.9863
▁ᎮᎾ	-8.98698
▁ᎦᏛᎬ	-8.98817
▁ᏯᏆ	-8.98822
ᎸᏉᏙᏗ	-8.99037
▁ᎢᏯᏛᏁᏗ	-8.99323
▁ᏥᏣ	-8.99677
▁ᎾᎾᏛᏁᎲ	-8.99732
ᎡᏗᏱ	-8.99733
ᏗᏍᎨᎢ	-8.99824
▁ᎪᏪᎵᎯ	-8.99989
ᎸᎾ	-9.00067
ᎲᏍᎨᏍᏗ	-9.00496
▁ᎤᎦᏔ	-9.00597
▁ᏚᎾᏓᏅᏛ	-9.00693
▁ᏄᎵᏍᏔᏁ	-9.007
▁ᏫᏓ	-9.01003
ᎪᏩ	-9.0117
▁ᎤᏄ	-9.01469
▁ᎧᏃᎮ	-9.01535
▁ᎢᏳᎾᏛᏁᏗ	-9.01609
▁ᏗᏣᏓ	-9.0176
ᏣᏘ	-9.01787
ᎵᎦ	-9.01804
ᏟᏂᎬᏁ	-9.01883
ᏕᎶᏆ	-9.01894
▁ᏧᎸᏫᏍᏓᏁᎯ	-9.01975
▁ᎢᏯᏛᏁᎯ	-9.01976
▁ᏤᎦᏈ	-9.01976
▁ᎢᏥᏈᏱ	-9.01978
▁ᎢᏳᎵᏍᏓᏁᏗ	-9.01981
▁ᏐᎳ	-9.01981
▁ᎤᏕᏯᏙᏗ	-9.01989
▁ᎢᏳᏩᏂᏐᏗᏱ	-9.02014
▁ᏅᏲᎯ	-9.02034
▁ᎠᏆᏓᏅᏙ	-9.02041
▁ᎤᎾᏙᎴᎰᏒ	-9.02059
ᏍᏓᏁᎸ	-9.02322
▁ᎢᏥᏙᏓ	-9.02438
▁ᎠᎬ	-9.02466
▁ᎢᎦᎦᏛ	-9.02487
▁ᎤᏠᏱᏉ	-9.02615
▁Ꮺ	-9.02622
▁ᎬᏙᏗ	-9.02828
▁ᎠᏂᎪᎢ	-9.02926
▁ᏍᎩᏯ	-9.03024
ᏗᏢ	-9.03212
▁ᎢᏣᎵ	-9.03555
ᎪᏗᏱ	-9.03821
--	-9.03866
▁ᏂᎦᎥᏉ	-9.04495
▁ᏥᏫ	-9.04527
▁ᎾᏂᎥᏉ	-9.04729
▁ᎠᏗᎭ	-9.04916
▁ᎡᎯᏍᏗ	-9.05151
ᏪᏎᎸᎩ	-9.05365
▁ᏗᎾ	-9.05597
▁ᏣᎦ	-9.05733
▁ᎯᏯ	-9.0577
ᏟᎶᏍ	-9.05836
ᎵᏍᏆᏗᏍᎩ	-9.05918
▁ᎧᏃᎯᏰᎩ	-9.05975
ᎪᏣᎴᏛ	-9.05976
▁ᎤᏬᏰᏂ	-9.05997
▁ᏙᏗ	-9.06048
▁ᎠᏲᎩ	-9.06071
▁ᏗᎨᏫ	-9.06167
▁ᎤᏃᎴ	-9.06215
▁ᎠᏆᏛᎦᏅᎩ	-9.06234
▁ᎤᏂᏬᏂᎯᏍᏗ	-9.06287
ᏓᎳ	-9.06473
▁ᎦᎶ	-9.06498
ᎳᏏ	-9.06669
ᎦᏚ	-9.06781
ᎮᎸ	-9.07001
▁ᎤᏅᏏᏓᏍᏗ	-9.07052
ᏓᎴᏅᏛ	-9.07072
▁Ꮼ	-9.07088
ᏘᏅᏍᏔ	-9.07474
▁ᏥᏯ	-9.07846
▁ᎾᏍᎩᏯᏉ	-9.07879
▁ᏭᎾ	-9.08151
ᎨᏒ	-9.08249
▁ᏉᎳᏃ	-9.08588
▁ᎢᏦᎯᏳᏒ	-9.08767
ᏉᏃ	-9.09058
▁ᎠᎾᏓ	-9.09214
ᏕᎬ	-9.09269
▁ᎠᏂᎦᏔᎲ	-9.09349
▁ᎦᏥᏯ	-9.09368
▁ᏂᏕ	-9.09371
▁ᏧᏂᎾᏫ	-9.09768
▁ᎤᎾᎵᎪ	-9.09993
▁ᎤᏪᏅ	-9.10053
ᏎᎮ	-9.10112
▁ᏄᏃᎯᏳᏒᎾ	-9.10142
▁ᏚᏂᎸᏫᏍᏓᏁᎲ	-9.10142
▁ᏅᏓᏳᎵᏍᏙᏔᏅᎩ	-9.10142
▁ᏅᏛᎩᏅᏏᏛ	-9.10142
▁ᎢᏳᎾᏛᎿᏕᎩ	-9.10147
ᏍᎦᏅᎢᏍᏗ	-9.10162
▁ᏑᏓᎵ	-9.10165
▁ᏗᏓᎴᏂᏍᎬ	-9.10184
▁ᎤᏪᎿᎢ	-9.10211
ᏁᎲᎾ	-9.10244
ᏥᏌ	-9.1025
▁ᏚᏁᏤᎴ	-9.10266
ᏲᎢᏳ	-9.10287
▁ᏗᎫᎪᏙᏗᏱ	-9.10372
ᏍᏓᏁᏗ	-9.10456
▁ᏓᎶᏂᎨ	-9.10459
ᎶᏛ	-9.10473
▁ᏩᏍᏛ	-9.10668
ᏩᏛᏗᏱ	-9.10688
▁ᎤᏬᎯᏳ	-9.1086
ᏁᏍᏗ	-9.10871
▁ᎤᏁᎳ	-9.11227
▁ᎪᏪᎸᎢ	-9.11896
ᏢᏅᎯ	-9.11908
ᏩᏛᎯ	-9.12018
▁ᏚᏃ	-9.12051
ᏃᎮᏍᎩ	-9.12321
▁ᏯᏂ	-9.12374
ᏄᎪᏤ	-9.12707
ᎦᏔᎯ	-9.12941
▁ᏗᎬᏩᏂ	-9.13134
ᎦᏴᎵᎨ	-9.13253
ᏁᎲᎢ	-9.13338
ᎦᏙ	-9.13572
ᏍᏗᏍᎨᏍᏗ	-9.13652
ᎵᏍᎪᎸᏔᏅᎯ	-9.13772
ᏄᎪᏨ	-9.13776
ᎬᏫᏳ	-9.13867
▁ᏗᎧᎿᏩᏛᏍᏗᏱ	-9.14228
ᏘᏂᏙᎯ	-9.1426
▁ᎠᏥᎸᏱ	-9.14265
▁ᎢᏤᏯᏔᎮᏍᏗ	-9.1449
▁ᎬᏩᏚᏫᏛ	-9.1449
▁ᎹᏏᏙᏂ	-9.1449
▁ᏅᎦᏍᎪᎯ	-9.1449
▁ᏗᏕᏲᏗ	-9.14491
ᏂᎳᏍᏓᎸ	-9.14492
▁ᏗᎹᏗ	-9.14492
▁ᎤᏣᎴᏍᏗ	-9.14517
ᏱᎵᏙ	-9.1456
▁ᎨᏥᏅᏏᏓᏍᏗ	-9.14588
ᏓᏑᏯ	-9.14608
ᏕᏯᏙ	-9.14609
▁ᏏᏌ	-9.14617
▁ᎠᎦᏘᏏᏗᏢ	-9.14636
▁ᎬᏂᏗᏳ	-9.1464
▁ᏣᏤᎵ	-9.14695
▁ᎤᏙᎯᏳᏒ	-9.14752
ᏍᏗᏍᎬ	-9.14947
▁ᎤᎾᏄᎪᏫᏒᎯ	-9.1503
ᎶᎯᏍᏗᏱ	-9.15077
▁ᎤᏂᏍᏆᏂᎪᏎᎢ	-9.15123
▁ᎠᏍᏓᏱ	-9.15468
ᏛᏁᎭ	-9.15471
ᏚᏓᎴᏍᏙᏗ	-9.15954
ᏁᏥ	-9.16053
ᎫᏴᎡᏗ	-9.16141
ᏍᏆᏂᎪᏙᏗᏱ	-9.1619
▁ᏚᏬ	-9.16413
▁ᎤᏙ	-9.16455
ᏰᏂ	-9.17119
ᏍᎦᏅᏤ	-9.17145
ᏅᏟ	-9.17192
▁ᏦᎩ	-9.17214
▁ᏧᏓᎴ	-9.17326
ᏂᏗᏳ	-9.17518
ᏎᎮᏍᏗ	-9.17574
▁ᏗᏨ	-9.17576
▁ᎠᏤᎵᏍᏛ	-9.17672
▁ᏚᎾᏓ	-9.17674
ᏛᏂ	-9.17892
ᏲᎲ	-9.17981
ᏃᎮᏍᎬ	-9.18176
ᏃᎮᏍᎬᎢ	-9.18305
ᏚᎸᏫᏍᏓᏁ	-9.18313
ᎤᏁᎳᏅᎯ	-9.18631
▁ᎢᏥᏰᎸ	-9.1867
ᎦᎳ	-9.18762
▁ᏓᎾᏓ	-9.18843
▁ᎢᏣᏤᎵ	-9.18931
ᏛᏓᏍᏓᏁ	-9.18949
ᎫᎪᏓ	-9.19008
▁ᎢᏳᏪ	-9.19032
▁ᏂᏚᎩᏨᏂᏒ	-9.19035
▁ᎤᎶᎩᎸ	-9.19064
▁ᎤᎾᏤᎵᎪᎯ	-9.19073
▁ᏭᎷᏨ	-9.19137
▁ᎦᏬᏂᎯᏍᏗ	-9.19236
▁ᏞᎦ	-9.19251
▁ᏗᏘᏂᏙᎯ	-9.19264
▁ᎤᏰᎸᏅ	-9.19338
▁ᎨᎳ	-9.1936
▁ᎠᏓᏅᏓᏗᏍᏗ	-9.19444
▁ᏅᏗᎦᎵᏍᏙᏗᏍᎪ	-9.19531
▁ᏑᎾᎴ	-9.19634
ᏗᏳ	-9.19652
▁ᎤᏁᏨᎩ	-9.19726
▁ᎠᎧᎵᎢ	-9.1989
▁ᏗᏦ	-9.20033
▁ᎬᏗᏍᎩ	-9.20148
▁ᏂᏙ	-9.20572
▁ᏨᏓ	-9.20581
ᏠᏯᏍᏗ	-9.20618
▁ᏚᎾᏓᏅᏛᎢ	-9.20653
ᏗᏍᎨ	-9.20755
ᏍᏕᎵᏍᎩ	-9.20785
▁ᏅᏗ	-9.20792
ᎨᏳᎭ	-9.20868
▁ᏗᏗ	-9.2087
▁ᏫᎬ	-9.21076
ᏉᏰᏃ	-9.21167
▁ᎤᏁᎬ	-9.21353
▁ᏱᏍᎩ	-9.21569
ᏁᎢᏍᏗ	-9.21706
ᎡᎯ	-9.2254
▁Ꮘ	-9.22629
▁ᎤᏪᎷ	-9.22667
▁ᏛᏂ	-9.22923
ᏩᏛᏗ	-9.23224
▁ᏗᏥᎾᏫ	-9.23418
▁ᏚᎵ	-9.23424
ᏴᎲ	-9.23454
ᏠᎾᏍᏗ	-9.23561
,)	-9.23575
▁ᎠᏖᎵᏙ	-9.23797
▁ᎣᏣᎵᏅᏟ	-9.23797
▁ᎧᎳᏩᏗᏒ	-9.23797
▁ᎢᏳᎾᎵᏍᏙᏗᏱ	-9.23798
▁ᎡᏈᏌ	-9.23798
▁ᎤᏕᎰᎯᏍᏗ	-9.23798
▁ᏂᏥᏪᎭ	-9.23798
▁ᏕᏣᏙᎥ	-9.238
▁ᎢᏌᏯ	-9.23801
▁ᎠᏥᎦᏘᏗᏍᏗ	-9.23804
▁ᏨᏍᎩᏃ	-9.23804
▁ᏗᏰᎸᎯ	-9.2381
▁ᏂᎦᏪᏍᎨᎢ	-9.23828
▁ᏓᎦᎷᏥ	-9.2383
ᏍᏓᏩᏕᎩ	-9.23835
▁ᎤᎧᏛ	-9.23838
▁ᏄᎬᏫᏳᏌᏕᎩ	-9.23852
▁ᎢᏗᎦᏔᎭ	-9.23875
ᎢᏳᏍᏗ	-9.23883
ᏚᎵᏍᎨ	-9.23938
▁ᏕᏥᎸᏫᏍᏓᏁᎲ	-9.24083
▁ᏗᏆ	-9.24121
▁ᎤᎸ	-9.24158
▁ᎤᎵᎮᎵᏍᏗ	-9.24217
▁ᎾᎩ	-9.24247
▁ᎢᏳᏓᎴ	-9.24287
ᎲᏍᎨ	-9.24355
▁ᏗᎦᏙᎵ	-9.24384
▁ᏫᎤ	-9.24523
ᏰᎯ	-9.24578
ᎷᎦ	-9.24675
▁ᏚᎸᏫᏍᏓᏁᎲᎢ	-9.24894
ᏁᏍᎨ	-9.24938
ᎫᏓᎴ	-9.25276
ᏲᏍᏗ	-9.253
ᏙᎮᏍᏗ	-9.25324
▁ᎡᎦ	-9.25338
ᏛᏅᎢᏍᏗ	-9.25349
▁ᎠᎾᎵ	-9.25532
ᎠᎴ	-9.25798
ᎳᏅᎯ	-9.25909
▁ᎦᏙᎨ	-9.2597
▁ᎣᏣ	-9.26468
▁ᎢᎪ	-9.26557
▁ᎤᏂᏍᎦᏅᏨ	-9.268
▁ᏥᏍᏆ	-9.26837
ᏍᎦᎢᎮ	-9.27076
ᎾᏄᎪᏫᏎᎸ	-9.27135
ᏛᏅᎢᏍᏓ	-9.27208
ᏤᎭ	-9.2735
▁ᎤᎾᏓᏅᏖ	-9.27896
ᏗᏔᏍ	-9.28395
▁ᏕᎬ	-9.28414
▁ᏧᎾᏍᏗ	-9.28451
ᏒᎭ	-9.28649
ᏚᎢᏍᏓᏁ	-9.28711
▁ᏦᏥ	-9.28758
Ꮊ	-9.2878
▁ᏑᎾᏓᏡᎩ	-9.28797
▁ᏨᏗᏓᎴᎲᏍᎦ	-9.28797
▁ᏄᏂᎬᏫᏳᏌᏕᎩ	-9.28807
▁ᎠᏉᎯᏳ	-9.28822
▁ᎤᎵᏁᏨ	-9.28887
▁ᏂᏗᎥ	-9.29034
▁ᎤᎷᎯᏍᏗᏱ	-9.29136
ᎴᏅᎲ	-9.29156
▁ᏭᎶᏎᎢ	-9.29237
▁ᎠᏍᎪᎵ	-9.29281
ᏁᏤᎸᎯ	-9.29391
▁ᎤᏰᎯ	-9.29643
▁ᎤᏲᎱᏎ	-9.29743
ᏲᎱᏎ	-9.29797
▁ᎠᎵᏍᏕᎸᏙᏗ	-9.29799
▁ᎣᏂᏱ	-9.29941
▁ᎠᏲᎱᏍ	-9.30005
▁ᎤᏩᏒᎯᏳ	-9.30061
▁ᎤᏪᏘ	-9.30083
ᏫᏎ	-9.30375
▁ᏫᏣ	-9.30526
▁ᏥᏰᎸ	-9.30708
▁ᏧᏩ	-9.30722
▁ᏗᎨᏒᎢ	-9.3074
ᏛᏁᎲ	-9.30747
ᏃᏁᎴ	-9.30785
ᏓᏙᎵᏍᏗᏍᎬ	-9.31142
ᎸᏉᏙᏗᏱ	-9.31552
▁ᎠᏏᏴᏫᏃ	-9.32177
▁ᎤᎾᏓᏡᎬᎢ	-9.3237
ᎷᎯᏍᏗ	-9.3257
▁ᏓᏲ	-9.32659
▁ᎤᎧᎵ	-9.32762
▁ᏱᏅ	-9.32909
ᏲᎭ	-9.32955
ᏘᏰ	-9.33174
▁ᏫᏂ	-9.33264
ᏅᎦ	-9.33278
ᏓᏬᏍ	-9.33666
ᎵᏍᎪᎸᏙᏗ	-9.33675
ᏎᏗᏱ	-9.33823
▁ᎠᏂᏅ	-9.33971
▁ᏥᎨᏒ	-9.33988
▁ᎠᎦᏛ	-9.34056
▁ᎤᏚᎸᏗ	-9.34061
▁ᏗᎪᏢᏔᏅᎯ	-9.34061
ᏂᎬᏎᎲ	-9.34061
▁ᎤᎾᏓᏤᎵᏛ	-9.34061
▁ᎪᎯᏳᎲᏍᎩ	-9.34061
▁ᎤᎾᏁᎳᎩ	-9.34065
▁ᎤᎵᏏᎩ	-9.34086
▁ᎡᏏᎩ	-9.3409
▁ᏱᏅᏗᎦᎵᏍᏙᏗᎭ	-9.34092
▁ᏧᏂᎸᏫᏍᏓᏁᏗᏱ	-9.34102
▁ᏂᏣᏛᏁᎲ	-9.34105
▁ᎢᏣᎵᏍᏙᏗᏱ	-9.34105
▁ᎤᎶᏐᏅ	-9.34111
▁ᏂᏣᏛᏁᎸ	-9.34119
ᏕᏘᏴ	-9.34119
▁ᎦᎵᏦᏕ	-9.34138
▁ᎡᏏᏱ	-9.34141
▁ᏗᎦᏚᎲ	-9.34147
▁Ꮗ	-9.34164
▁ᏓᏨ	-9.34176
▁ᎪᎯᏗᏳ	-9.34218
ᏥᎪᎥ	-9.34219
▁ᏏᏆ	-9.34243
▁ᏂᎯᏰᏃ	-9.34261
,]	-9.34368
▁ᏣᏁᎳᏅᎯ	-9.3439
▁ᎠᏂᏁ	-9.34423
▁ᎤᎪ	-9.34461
ᎷᏤᎵ	-9.34476
▁ᎢᏨᏗᏍᎨᏍᏗ	-9.34483
▁ᏥᎬ	-9.34562
▁ᎤᏂᏣᏛᎩ	-9.34618
ᎦᏔᎰ	-9.34625
ᏬᏂᏍᎬ	-9.34652
ᏓᏂᎸᎢᏍᏗ	-9.34693
▁ᏗᏍᎩ	-9.34841
▁ᏱᎬᏩ	-9.34855
▁ᏓᏁᏩᏗᏒᎢ	-9.34982
▁ᎤᏂᎯᏍᏗᏱ	-9.35054
▁ᏄᏅᏁ	-9.35071
ᏚᎪᏓ	-9.35167
▁ᎤᏂᏣᏔ	-9.35392
ᏍᏆᏗᏍ	-9.35409
ᎯᏍᏙᏗ	-9.35426
▁ᎪᏪᎳ	-9.35437
▁ᏂᎬᏩ	-9.35486
▁ᎤᏬᎸ	-9.35543
ᏅᏓᏕ	-9.35545
▁ᏓᎬᏩ	-9.35586
▁ᎢᎦᏤᎵᎦ	-9.35626
▁ᎠᏂᏂ	-9.35731
ᏍᏘ	-9.3592
ᏍᏆᏂ	-9.36122
ᏗᏍᎬᎩ	-9.36232
▁ᏄᏓ	-9.36303
ᏰᎵᏎ	-9.36604
ᎸᏫᏍᏓᏁᎭ	-9.36739
▁ᎾᎯᏳᏉ	-9.36752
▁ᏱᏗᏣ	-9.36914
ᏂᏪᏎ	-9.36925
▁ᎧᏁᎬᎢ	-9.37307
ᏆᎵ	-9.37312
▁ᏚᏁ	-9.37332
▁ᏥᎨ	-9.37425
▁ᎤᏓᏙ	-9.37653
ᎢᏍᏙᏗ	-9.37822
▁ᎢᏳᎢ	-9.37965
▁ᎪᎯᏍᎩᏂ	-9.38158
ᏢᏗ	-9.38176
ᎵᏍᎪᎸᏓᏁᎸᎯ	-9.38217
▁ᎤᏓᏅ	-9.38276
▁ᏄᎵᏍᏔᏅᎢ	-9.38333
▁ᏙᎩ	-9.38336
ᏧᏈ	-9.38424
▁ᎤᏕᏅ	-9.38628
▁ᎤᏂᎷᏨ	-9.39107
▁ᎡᎳᏪ	-9.39239
▁ᏗᏆᏤᎵ	-9.39246
ᏙᎴᎰᎯᏍᏗ	-9.39279
ᎳᏁ	-9.39313
▁ᎤᏍᏆᎸᎲ	-9.39616
▁ᏗᏟᎶᏍᏔᏅᎯ	-9.39616
▁ᏌᎺᎵᏱ	-9.39616
▁ᎤᏂᏃᏕᎾ	-9.39616
▁ᎤᏇᏓᎸ	-9.39616
▁ᎬᏩᏟᏍᏗ	-9.3962
▁ᎤᏚᎵᏍᎨᏍᏗ	-9.39621
▁ᏱᏄᏍᏗ	-9.39621
▁ᏧᏒᎯᏛ	-9.39623
▁ᏙᎴᏛ	-9.39625
▁ᏂᎬᏩᏪᏎᎸᎩ	-9.39629
▁ᎠᎾᏓᏅᏟ	-9.39631
▁ᎢᏣᎵᏅᏟ	-9.39632
▁ᎠᎩᎵᏯ	-9.39637
▁ᏚᎳᏍᎬ	-9.39647
▁ᏗᏓᏘᏂᏙᎯ	-9.39647
▁ᏱᎨᏐᎢ	-9.39648
▁ᏱᏙ	-9.39654
▁ᎢᏳᏩᏁᏗᏱ	-9.39656
▁ᏗᏣᏓᏅᏙ	-9.39666
ᏳᎪᏓᏁ	-9.39676
▁ᏧᎳᏏᏕᏂ	-9.39731
ᏯᎡᏍᏗ	-9.39796
▁ᏴᎨ	-9.39803
ᎵᏍᏔᏁᎢ	-9.39805
ᏓᏅᎦᎸᏛ	-9.3981
ᏄᎪᏫᏍᏗᏱ	-9.39829
ᏕᎦ	-9.39883
▁ᎠᎩᏁᏨ	-9.39901
▁ᎠᏂᎦᏔᎯ	-9.39917
ᎾᏰᏍᎬᎾ	-9.39932
▁ᏥᏙ	-9.39999
▁ᎤᎷᎯᏍᏗ	-9.40053
ᎪᎵᏰᎥ	-9.4012
ᏔᏲᏎᎸᎩ	-9.40153
▁ᎦᏰᏥ	-9.40168
ᎪᏩᏘᏍᎨᏍᏗ	-9.40179
ᏚᎲ	-9.40209
▁ᏅᏓᎬ	-9.40411
ᎧᎾ	-9.40519
ᏕᎨᏍᏗ	-9.40524
▁ᎢᏯᏍᏗ	-9.40723
▁ᎬᏆ	-9.40779
ᏍᎦᎸ	-9.40905
▁ᎢᎦᎦᏘ	-9.40948
▁ᏇᎵ	-9.41211
ᏅᏩᏅ	-9.41349
▁ᏫᏄ	-9.41386
ᏴᎭ	-9.41484
ᎡᎸᎩ	-9.41733
ᏚᎦ	-9.41877
ᏓᏅᏔ	-9.42669
ᏪᏎᎴᎢ	-9.43045
▁ᎤᎾᏛᏁ	-9.43099
▁ᏅᏩ	-9.43537
▁ᎨᎵ	-9.43734
▁ᏃᎦ	-9.43812
▁ᎤᏪᏅᏎ	-9.44022
▁ᏚᎸᏫᏍᏓᏁᎲ	-9.4416
ᎥᎯ	-9.44491
ᏍᏛᎾ	-9.44988
ᎾᏄᎪᏫᏒᎯ	-9.45009
:	-9.45498
▁ᎠᎾᏓᏅᏖᏍᎬ	-9.45498
▁ᎠᎩᎵᏲᎢᏍᏗ	-9.45498
▁ᎠᏚᎢᏍᏛ	-9.45498
▁ᎦᏓᏅᏖᏍᎬ	-9.45498
▁ᎬᏩᎷᏤᎴ	-9.45498
▁ᎠᏂᏙᎾᎥ	-9.45499
▁ᏑᏓᎴᎩ	-9.45499
▁ᏓᎿᏩ	-9.45499
▁ᏗᏂᎦᏙᎵ	-9.455
▁ᎠᎫᏴᏙᏗ	-9.455
▁ᎠᏠᏁᏗ	-9.455
▁ᏗᏂᎨᏫ	-9.455
▁ᏥᏄᏪᏎᎢ	-9.45501
▁ᎤᏛᏛᏁ	-9.45502
▁ᎦᏩᏒᎩ	-9.45502
▁ᎤᎾᏫᏱ	-9.4551
▁ᎢᎦᏪᏛ	-9.45513
▁ᏄᏩᏁᎸ	-9.45527
▁ᎥᏞᏍᏗ	-9.45529
▁ᏄᏛᏁᎴ	-9.45545
▁ᏄᎾᏛᏁᎸ	-9.45558
▁ᏗᏂᏏᏗ	-9.45582
▁ᎤᏗᏩ	-9.4569
ᏓᎵᏁᎯ	-9.45759
▁ᏧᏁᏤ	-9.4578
▁ᎤᏁᏢᏔᏅᏛ	-9.45929
▁ᏧᏁᏥ	-9.45954
▁ᏥᎨᏳᎢ	-9.4596
▁ᎢᏳᎾ	-9.45962
▁ᎢᏣᏤᎵᎦ	-9.46026
▁ᏣᏤᎵᎦ	-9.46052
▁ᏚᏅᏎ	-9.46132
ᏁᏤᎭ	-9.462
ᎵᏰᎢᎶᎯᏍᏗ	-9.46323
ᏲᎯᏎᎸᎩ	-9.46381
▁ᏗᏄᏬ	-9.46469
▁ᎢᎬᏒ	-9.46508
▁ᎤᏅᏒᏉ	-9.46544
▁ᎤᏄᎪᏤ	-9.4656
▁ᏥᎪᎨ	-9.46904
ᎾᏛᎦ	-9.47238
ᎾᏄᎪᏫᏏ	-9.47303
▁ᎤᎵᎮᎵᏨ	-9.47473
▁ᎠᏂᏁᎬ	-9.47603
ᏚᏓᎴᏍᏗ	-9.47621
▁ᎣᏏ	-9.47828
ᎸᏉᏔᏅ	-9.47852
ᎸᏉᏓ	-9.47916
ᏓᎴᏅᎯ	-9.48171
ᎧᎭ	-9.48308
▁ᎾᏃ	-9.48369
▁ᏚᏓ	-9.48653
ᏈᎵ	-9.48696
▁ᏚᏳᎪᏛᎢ	-9.48727
▁ᎡᎲᎢ	-9.48741
▁ᎢᎾᎨᎢ	-9.49071
ᏰᎭ	-9.49223
ᏅᏓᏓ	-9.50347
ᎨᏳᏗ	-9.5053
▁ᏴᏓ	-9.50553
▁ᎤᏙᎯᏳ	-9.50688
▁ᎦᏁ	-9.5075
ᏧᏏ	-9.50818
ᏩᏒ	-9.50871
▁ᎤᏢ	-9.50933
▁Ᏸ	-9.51158
ᏍᏆᏂᎪᏛ	-9.51216
ᏔᏲᏎᎴ	-9.51557
ᏚᎵᏍᎪ	-9.51622
▁ᏩᎩ	-9.51673
ᎬᎭᎷᏴ	-9.51748
▁ᎢᏯᎾᏛᏁᎯ	-9.51748
▁ᏄᏓᎵᏓᏍᏛᎾ	-9.51748
▁ᏅᏧᎵᏍᏙᏔᏅ	-9.51748
▁ᎢᏣᏓᏙᎵᏍᏗᏍᎨᏍᏗ	-9.51749
▁ᎠᎱᏍᏕᏍᏗ	-9.5175
▁ᏧᏕᏘᏴᏛ	-9.5175
▁ᎬᏩᏍᏓᏩᏛᏎᎢ	-9.51751
▁ᏏᏌᎵᏱ	-9.51751
▁ᏗᎨᎦ	-9.51752
▁ᎨᏆᏂ	-9.51754
ᏥᎤᏍᏕᏎ	-9.51755
▁ᎾᏛᏁᎮᏍᏗ	-9.51755
▁ᎢᎳᎪ	-9.51756
▁ᎤᏂᏴᏍᏗᏱ	-9.51758
▁ᎠᏂᏫᏅ	-9.51771
▁ᏧᎾᏛᏐᏅᎯ	-9.51771
ᏓᎪᎾᏛ	-9.51799
▁ᏏᏓᏁᎸ	-9.51803
▁ᏫᏚᏯᏅᎲ	-9.51804
▁ᎤᏂᎩᎬ	-9.5181
▁ᎠᏅᏗᏍᎬ	-9.51813
▁ᎪᏢᏔᏅᎯ	-9.51815
▁ᏓᏯᎢ	-9.51818
ᎿᎥᎢ	-9.51849
▁ᎢᏳᏅᏁᏗᏱ	-9.51872
▁ᎤᏁᎫᏥᏛ	-9.51918
▁ᎠᎪᏄ	-9.51921
ᏓᏅᏙ	-9.51969
ᏛᎿᏕᎩ	-9.52007
▁ᎠᏂᏬᏂᏍᎬ	-9.52015
▁ᏚᎴᏁ	-9.5205
▁ᎤᎾᏠᎾᏍᏗ	-9.52176
▁ᎤᎾᏰᎯᏍᏗ	-9.52201
▁ᎤᏓᏅᏘᏳ	-9.52206
ᎲᏏ	-9.52213
▁ᎢᏦ	-9.52235
▁ᏗᏥᏰᎸ	-9.52255
▁ᎠᏧᏏ	-9.52365
ᎥᎯᏍᏗ	-9.52431
ᏍᏆᏂᎪᏔᏅ	-9.52476
ᎲᏍᎬᎾ	-9.52493
▁ᏙᎯ	-9.52753
ᏰᎸᏗ	-9.52907
ᏂᏚᏩᏁᎸ	-9.5346
ᏓᏠ	-9.5356
▁ᎤᎾᏕ	-9.53616
ᏗᏔᏍᏗ	-9.53637
▁ᎢᎠ	-9.54145
ᎳᎻ	-9.5415
ᎵᏳ	-9.54158
▁ᏥᏓᏂ	-9.54162
▁ᏚᎾᎵ	-9.54292
▁ᎪᎩ	-9.54643
ᏅᏃ	-9.54782
ᎾᏕ	-9.54787
ᏅᏬᏗᏱ	-9.55133
ᏍᏗᏍᎬᎢ	-9.55155
▁ᎾᎥᏂ	-9.55212
▁ᏂᏥᎥᎢ	-9.55429
ᏲᎵᎸ	-9.55525
ᏍᏚᎲ	-9.556
▁ᏭᎷᏤ	-9.55694
▁ᏚᏙ	-9.55897
▁ᎢᎬᏁᏗ	-9.56027
ᎿᎢ	-9.56054
▁ᎠᏓᏙᎵᏍᏗ	-9.56135
▁Ꭹ	-9.56248
▁ᎤᏁᏨᎯ	-9.56289
ᏛᏔᏂ	-9.56459
ᏓᏅᏓᏗᏍᏗ	-9.56464
ᏁᎸᎾ	-9.56465
ᎵᏂᎬᎬ	-9.5649
ᎶᏎᎢ	-9.56509
▁ᎯᎠᏍᎩᏂ	-9.56631
ᏲᎯᏎᎸ	-9.5684
▁ᎢᏳᏅ	-9.57022
ᏍᏓᏁᎸᎯ	-9.5776
ᏓᎶᏂᎨ	-9.57904
▁ᏙᏓᎦ	-9.57968
ᏥᎨᏳᎢ	-9.5801
▁ᏗᎫᎪᏙᏗ	-9.58044
ᎤᏅ	-9.58169
▁ᏓᏣ	-9.58318
ᏔᏲᏎᎭ	-9.58322
ᏚᏓᏕᏫᏒ	-9.58415
▁ᏄᏜᏏᏛᏒᎾ	-9.58415
▁ᏩᏛᎬᎦ	-9.58415
▁ᎾᏂᏪᏍᎬᎩ	-9.58415
▁ᏕᎦᏚᏩᏗᏒ	-9.58415
▁ᏕᎹᏍᎦ	-9.58415
▁ᏂᎦᏥᏴᏁ	-9.58416
▁ᏚᏳᎪᏗ	-9.58416
▁ᎤᎾᎴᏅᎮ	-9.58416
▁ᏗᎨᏥᎤᏍᏕᏎᎸᎯ	-9.58416
▁ᎳᏏᎳ	-9.58416
▁ᎤᏪᎵᎯᏍᏗ	-9.58417
▁ᏌᏱᎳ	-9.58417
▁ᏓᏟᎶᏍᏛ	-9.58418
▁ᏭᏂᎷᏤ	-9.58418
▁ᏚᎧᎿᏅ	-9.58419
▁ᏮᏓ	-9.5842
▁ᏦᎯᏳᏒ	-9.5842
▁ᎢᏯᏅᏙ	-9.5842
▁ᎡᏉᎯᏳ	-9.58421
▁ᏕᏡᎬ	-9.58422
▁ᎠᏁᏙᎯ	-9.58424
▁ᏥᏁᎬᎢ	-9.58425
▁ᎠᏂᎩᏏᏙᎯ	-9.5843
ᎵᏍᏙᏔᏅ	-9.58455
▁ᎤᏃᎮᎸ	-9.58458
▁ᏅᏃᎯ	-9.58462
▁ᏍᎩᏃᎲᏏ	-9.5847
▁ᎢᎬᏩᎵᏍᏙᏗ	-9.58471
▁ᎾᎬᏁᎸ	-9.58497
▁ᎡᏙᎮ	-9.58499
▁ᎫᎫ	-9.58517
▁ᏦᏓᏂ	-9.58531
▁ᏗᏥᏲᎵ	-9.58539
▁ᎢᎩᏍᏕᎵᏍᎩ	-9.58549
▁ᏭᏴᎸ	-9.58571
▁ᎤᏪᏙᎸ	-9.58594
▁ᎠᎵᏍᏚᎶ	-9.58603
▁ᏅᏓᏳᎾᎵᏍᎪᎸᏔ	-9.5861
▁ᏄᏪ	-9.58657
▁ᎤᏙᎯᏳᏗᏱ	-9.5866
▁ᎤᏓᏅᏒᎩ	-9.58805
▁ᏙᎯᏱ	-9.58838
ᏂᏴᎲᎩ	-9.5887
ᏗᏧᎪ	-9.58879
▁ᎣᎬ	-9.58881
▁ᎤᏍᏚᎢᏒ	-9.58907
▁ᏱᏙᎦ	-9.5893
▁ᏗᏤᏥ	-9.58941
▁ᎤᏁᏅᏎ	-9.58972
▁ᎠᏥᎸᎠᏁᎶᎯ	-9.59013
ᏲᎯᏎᎸᎯ	-9.5909
▁ᎦᏁᎳ	-9.59124
ᏚᎩ	-9.59134
ᏙᎵᎩ	-9.59256
▁ᎬᏩᎷᏤᎸᎩ	-9.59267
▁ᎠᎵᏍᎪᎸᏔᏅᎯ	-9.5935
ᎸᏉᏕᏍᏗ	-9.59358
▁ᎤᏍᏆᏂᎪᏗᏳ	-9.59391
▁ᎤᏂᏍᎦᏅᏨᎯ	-9.59467
▁ᏰᎭ	-9.59531
▁ᎠᏥᎸᏉᏗ	-9.59596
▁ᎹᏗ	-9.59795
ᏥᏍ	-9.59847
ᏍᎪᎵ	-9.59976
▁ᏛᎾ	-9.60319
▁ᏙᏥ	-9.60498
▁ᏯᎾ	-9.60625
ᏍᏉ	-9.60661
▁ᎤᏬᎵ	-9.61017
▁ᎦᏍᎩᎸᎢ	-9.61141
▁ᏫᏨᏲᏪᎳ	-9.6128
▁ᏲᎩ	-9.61434
▁ᎠᏋᏒᏉ	-9.61744
▁ᎠᎦᏔ	-9.61968
▁ᎦᎸᎳᏗᏳ	-9.6214
ᎾᏙᎴᎰ	-9.62175
▁ᎠᏁᎭ	-9.6227
▁ᎢᏍᎩ	-9.62372
▁ᎤᏄᏬ	-9.62387
ᏔᏅᎢ	-9.62683
▁ᏨᏗ	-9.62811
▁ᎤᎶᏒ	-9.62812
▁ᎬᏗᏍᎬᎢ	-9.62845
ᏴᏫ	-9.62936
▁ᎦᎸ	-9.63059
ᏁᏤᎴ	-9.63106
▁ᎤᏤ	-9.63178
▁ᎤᏲᎱᏒᎢ	-9.63223
▁ᎢᏤᎯ	-9.6348
)	-9.63557
▁ᏱᏂᎬ	-9.63729
ᎸᏉᏗᎭ	-9.63758
▁ᎤᏣᏛ	-9.63808
▁ᏥᏕᎦ	-9.63927
ᎵᏍᎦᏍᏙᏛ	-9.64041
ᏓᏁᎮᏍᏗ	-9.64094
▁ᏚᎸᏫᏍᏓᏁᎸ	-9.64197
ᎪᎳ	-9.6426
ᎵᏰᎢᎶ	-9.64567
▁ᏚᏃᎸ	-9.64583
ᏪᏎᎸ	-9.64639
ᏕᏅ	-9.64648
▁ᏄᏛᏅ	-9.64653
ᏅᏏᏙᎯ	-9.64673
ᏂᏴᏗ	-9.64678
ᎨᎳᏍᏗ	-9.65015
ᎦᎶᏁᏛ	-9.65056
▁ᏗᎤ	-9.65104
ᏛᏗᏍᎩ	-9.65157
ᏑᏰᏒ	-9.65184
▁ᏥᏂᎦᏪ	-9.65195
ᏄᎪᏫᏎ	-9.65241
▁ᏧᎾᏤᎵ	-9.6541
▁ᎬᏬᎯᏳ	-9.65457
▁ᏗᏍᏓᏓᏅᏟ	-9.65558
▁ᎠᏂᏌᏚᏏ	-9.65558
▁ᎢᏤᎳᏗᏙᎮᏍᏗ	-9.65558
▁ᏅᏓᏳᏂᎶᏒᎯ	-9.65558
▁ᏥᏂᏣᏛᏅ	-9.65558
▁ᎡᏦᎢᏳ	-9.65558
▁ᎤᏁᎷᏅᎩ	-9.65559
▁ᎤᏌᎯᎸ	-9.65559
▁ᏞᎩᏳ	-9.65559
▁ᎠᏆᏚᎵᎭ	-9.6556
▁ᎠᏓᏰᏍᎩ	-9.6556
ᎦᎵᎷᎨᏍᏗ	-9.65561
ᏛᏳᎨᏗ	-9.65562
▁ᏗᏓᏬᏍᎩ	-9.65562
ᏄᎮᏛ	-9.65566
▁ᏧᏃᏰᏂ	-9.65568
▁ᏣᏔᎦ	-9.65575
ᏍᏓᏩᏛᏎ	-9.65577
▁ᏂᏣᏛᏅ	-9.6559
ᎵᏏᎾᎯᏍ	-9.65605
▁ᎤᏛᏁᎢ	-9.65617
ᏲᎯᏎᎴ	-9.65621
▁ᎢᏥᏯᏫᏍᎨᏍᏗ	-9.65632
▁ᎢᏧᏩᏁ	-9.65638
▁Ꮝ	-9.65642
▁ᎣᏥᎦᏔᎭ	-9.65655
▁ᎢᏨᏔᏲᏎᎭ	-9.65667
▁ᎦᎾᏰᎯᏍᏗ	-9.6567
▁ᏣᏂᏃ	-9.65672
▁ᎢᎬᏁᎯ	-9.65689
▁ᎤᏬᏢᏅᎯ	-9.65691
ᏗᏔᎲ	-9.65699
▁ᎤᏲᎱᎯᏍᏗᏱ	-9.65713
▁ᎠᏆᏚᎵᏍᎬ	-9.65718
▁ᎠᏁᏙᎮ	-9.65743
▁ᎠᏆᏁᎳᏅᎯ	-9.65792
▁ᏤᏈ	-9.65795
▁ᎠᏔᎴᏒ	-9.65804
ᏓᏎᎪᎩᏍ	-9.65808
ᏓᏂᎸᏨᎯ	-9.65811
▁ᎤᎾᎳᏅᎯ	-9.6583
▁ᎤᏄᎪᏨ	-9.6586
▁ᎠᏨᏍᏙᏗ	-9.65889
▁ᏓᏫᏒ	-9.66049
▁ᏗᏂᏰᎸ	-9.66115
▁ᎦᏅᏅ	-9.66204
▁ᏭᎶᏒᎩ	-9.66256
ᎷᏨᎭ	-9.66324
▁ᎤᏅᏏᏙᎯ	-9.66338
▁ᏦᎦ	-9.66358
▁ᎤᏄᎪᏨᎩ	-9.66551
▁ᏄᎵᏍᏓᏁ	-9.66704
ᏁᏙᎲ	-9.66755
▁ᏚᎾᏓᏡᏩᏗᏒᎢ	-9.66836
▁ᎤᏂᎷᏨᎩ	-9.66844
ᎪᏔᏅ	-9.67035
▁ᏄᎵ	-9.67037
▁ᎤᏬᏢ	-9.67124
ᏯᎥ	-9.67226
▁ᏗᎦᎸᏉᏗ	-9.67259
▁ᏗᎬᏩᎾ	-9.67272
ᏫᏒᎯ	-9.67409
▁ᏓᏆ	-9.67506
▁ᎠᎢᏒ	-9.67763
ᏢᏅ	-9.6777
ᏃᎲᏏ	-9.67829
▁ᎠᏓᏁᏗ	-9.67935
ᏓᎵᏓᏍᏗ	-9.68093
▁ᎤᎾᏛᎦᏅᎯ	-9.68352
ᎥᏍᎬ	-9.68478
▁ᏂᎦᏪᏍᎬᎢ	-9.68483
▁ᎢᎩᏍᎦᏅᏨ	-9.68591
ᏒᎦᎸ	-9.68818
ᎦᏚᎩ	-9.6882
▁ᏂᎦᏪ	-9.69126
▁ᏦᎾ	-9.69158
▁ᎢᏣᏓᏅᏖ	-9.69335
"	-9.69339
▁ᎬᏅᎢ	-9.69352
▁ᎪᏢᏒ	-9.6943
▁ᎤᎨᏳᎯ	-9.69563
▁ᏄᏪᏎ	-9.697
▁ᎪᏢ	-9.69885
▁ᎤᏁᏨᎢ	-9.69915
▁ᎧᏁᏉ	-9.69968
▁ᏄᎾᎵᏍᏓᏁ	-9.70287
ᏑᎵ	-9.70359
▁ᏅᏗᎦᎵᏍᏙᏗ	-9.70447
ᏂᎪᎮ	-9.70546
▁ᎦᏙᎬ	-9.70701
▁ᎾᎾᏛᏁ	-9.70849
▁ᎧᏁᎢᏍᏗ	-9.70902
▁ᎠᏢ	-9.7121
▁ᏚᎾᏓᏡᏩᏗᏒ	-9.71889
▁ᏓᏁᏩᏗᏒ	-9.71902
ᏓᏙᎵᏍᏓᏁᎯ	-9.71987
▁ᎠᏓᏅᏙᏍᎩᏂ	-9.72334
ᏅᏓᏛᎩ	-9.72411
▁ᎦᏌ	-9.72507
ᎵᏦ	-9.72785
ᎧᎵᏨᎯ	-9.72793
ᎢᏍᏗᏍᎨᏍᏗ	-9.72912
▁ᎬᏩᎷᏤᎸ	-9.72936
ᏎᎸᎩ	-9.72977
ᎱᏍᏗ	-9.7298
▁ᎠᎴᏬ	-9.73009
▁ᏗᏣᏤᎵ	-9.73119
▁ᎤᏴᏍᏗ	-9.73219
ᏙᎰ	-9.7323
ᏑᎶᏨᎯ	-9.73245
▁ᎠᏂᎦᏔᎿᎢ	-9.7325
▁ᎤᏍᏆᎸᎯᏗ	-9.7325
▁ᏚᏂᎸᏫᏍᏓᏁᎸᎢ	-9.7325
▁ᏚᏓᏘᎾᎥ	-9.7325
▁ᏧᏓᎿᏩᏛ	-9.7325
▁ᏅᏓᎦᎵᏍᏔᏂ	-9.7325
▁ᏧᏂᎳᏫᎢᏍᏗᏱ	-9.7325
▁ᎤᏜᏅᏛ	-9.7325
▁ᎦᏃᏍᎩᏍᎩ	-9.7325
▁ᏗᎧᏃᎩᏍᏗ	-9.7325
▁ᎠᏗᏒᏍᏗ	-9.7325
▁ᏛᏍᏆᎸᎯ	-9.7325
▁ᎢᏳᏕᏘᏴᏛ	-9.73251
▁ᏕᎦᎳᏫᎥ	-9.73251
▁ᏫᏄᏒᎸ	-9.73251
ᎧᎵᏬᎯ	-9.73251
ᏏᎾᏌᏅ	-9.73252
▁ᎤᏚᎢᏍᏔᏅ	-9.73252
▁ᎠᎦᏘᏏ	-9.73254
▁ᏌᏙᏂ	-9.73256
▁ᏧᏃᏑᎶᏨᎯ	-9.73256
▁ᎠᏟᏍᏛ	-9.73257
▁ᎯᏍᎦᏯ	-9.73257
▁ᎤᎾᏚᎵᏍᎬ	-9.73259
▁ᎤᏩᎨᏫ	-9.73261
▁ᏂᎪᎯᎸᎾᏉ	-9.73272
▁ᏓᏓᏏ	-9.73274
▁ᎾᎦᎥ	-9.73274
▁ᎡᏂᏗ	-9.73295
▁ᏗᏂᎰᎵ	-9.73297
▁ᏭᏂᎷᏨ	-9.733
▁ᏓᏓᏁᎸ	-9.73305
▁ᏕᎦᏚᎲ	-9.73309
▁ᎤᏪᏍᎩᎸ	-9.73323
ᏁᎶᏙᏗ	-9.73327
▁ᎤᏂᏁᎫᏥᏛ	-9.73331
▁ᏗᎾᏓ	-9.73406
▁ᎠᎪᏙᏗ	-9.73409
ᏬᏎᎴᎢ	-9.73423
▁ᏇᏍᏓ	-9.73434
▁ᎤᏪᎷᏅᎩ	-9.7344
▁ᎥᏓᎸ	-9.7347
▁ᎦᏅᎬ	-9.73485
▁ᎠᏥᎾᏝᎢ	-9.73492
▁ᎠᎾᎢᏒ	-9.73493
ᎵᏂᎪᎯᏍᏗ	-9.73586
▁ᎤᎩᎸ	-9.73646
▁ᎤᎾᎵᏍᏕᎸᏙᏗ	-9.73717
▁ᎬᏂᎨᏒᎢᏳ	-9.73721
▁ᎧᏃᎮᏍᎩ	-9.73734
▁ᏥᏂᎦᏪᎭ	-9.73742
▁ᏭᏂᎶᏎᎢ	-9.73773
▁ᎠᎩᏰᎸᎭ	-9.7378
▁ᎤᏂᎩᏒᎩ	-9.7381
▁ᎠᎵᎮᎵᏍᏗ	-9.73813
▁ᏧᎦᏴᎵᎨ	-9.7382
ᏗᎦᏘᏯ	-9.73965
▁ᎦᎬᏩ	-9.74089
ᎸᏫᏍᏓᏁᏗ	-9.74105
ᏫᏎᎢ	-9.7438
▁ᎤᎵᏂᎬᎬ	-9.74442
ᏲᎯᏏ	-9.74463
▁ᎬᏩᎪᎲ	-9.74511
▁ᎤᎴᏅᎲ	-9.74527
▁ᏚᎪᎲ	-9.74649
▁ᎵᏏ	-9.74675
▁ᎤᎾᏝᎢ	-9.75424
ᎪᏩᏘᏍᎪ	-9.75424
▁ᏂᎦᏪᏍᎬᎩ	-9.75502
▁ᏗᏤᎲ	-9.75506
▁ᎤᎪᎮ	-9.75601
▁ᎠᏤᎵᏍᏛᎢ	-9.75643
▁ᎠᎩᏏ	-9.7618
ᏚᏓᎴᏍ	-9.76206
▁Ꮋ	-9.7626
ᎰᎵ	-9.76549
▁ᎬᏩᏛᏛᏁ	-9.76875
▁ᎤᏁᏤᎴ	-9.76894
ᏲᎯᏍᏗ	-9.77097
▁ᎤᏰᎸᏛᎢ	-9.77233
▁ᏅᏓᎬᏩ	-9.77273
▁ᎤᏅᏎ	-9.77303
▁ᎠᎹᏱ	-9.77373
▁ᎬᏗᎭ	-9.77761
▁ᎢᏤᎾ	-9.77843
ᎦᏙᎥᏒ	-9.78011
▁ᎠᏍᎦᏅᏨ	-9.78187
ᏲᎢᏎ	-9.78249
▁ᏂᎬᎾᏛᎢ	-9.78613
▁ᎠᎾᎵᎮᎵ	-9.78861
▁ᎠᏓᏁᎸᎢ	-9.79491
▁ᎢᏣᏚᎵ	-9.7992
ᏆᏛᏁᏗ	-9.79921
ᎵᎮᎵᏍᏗ	-9.80108
ᎴᏅᏛ	-9.80137
▁ᎤᏯᏅ	-9.80249
▁ᏱᎦᎩ	-9.80278
ᎴᏂᏓᏍᏗ	-9.806
▁ᏄᏂᏪᏒ	-9.80673
ᎾᏰᏍᎬ	-9.80683
ᎵᏂᎩᏗᏳ	-9.80859
ᎵᏍᎦᏍᏙᏗ	-9.80871
▁ᎤᏬᎴ	-9.8113
ᎬᏫᏳᏌᏕᎩ	-9.81189
ᎧᎿᏩᏛᏍᏗ	-9.81282
ᎦᏘᏗᏍ	-9.81426
ᎬᏫᏳᎯ	-9.81438
▁ᎢᏨᏲᏪᎳ	-9.81537
ᏏᏱ	-9.81572
ᎸᏫᏍᏓᏏ	-9.81583
ᏍᎫᏓᏛ	-9.81583
▁ᎠᎾᎵᏥᏙᎲᏍ	-9.81584
▁ᎢᏣᏅᏖᏍᏗ	-9.81584
▁ᎦᎫᏍᏛᏗ	-9.81584
▁ᏕᏣᎸᏫᏍᏓᏁᎲ	-9.81584
▁ᏗᎾᏓᏂᏱᏍᎩ	-9.81584
▁ᏗᏑᏢᏛ	-9.81584
▁ᏙᏧᎾᏓᏅᏛ	-9.81584
▁ᏚᏟᎶᏍᏓᏁᎴ	-9.81584
▁ᏧᏓᏕᏒᏛ	-9.81584
▁ᎡᎳᏂᎬ	-9.81584
▁ᎢᏳᏩᎫᏗ	-9.81584
▁ᏆᎳᏆ	-9.81584
ᏔᏲᎯᎮᏍᏗ	-9.81584
▁ᎠᏥᎤᏍᏕᏎᎸᎯ	-9.81584
▁ᎢᏣᏛᎦᏅᎯ	-9.81584
▁ᏯᏃᎩᏳ	-9.81584
▁ᏂᏣᏛᏁᎮᏍᏗ	-9.81584
▁ᏧᏬᏰᏂ	-9.81584
ᎦᏯᎷᏗ	-9.81586
▁ᏂᏙᏓᏳ	-9.81586
▁ᏓᏂᎳᏫᎥ	-9.81586
▁ᎤᏃᎯᏳᏒ	-9.81587
▁ᎢᏳᏛᏁᎸᎯ	-9.8159
▁ᏚᎾᏙᎥ	-9.81591
▁ᎠᎩᎪᎲᎩ	-9.81595
▁ᎡᏙᎭ	-9.81603
▁ᎤᎶᏒᏍᏔᏅᎯ	-9.8161
▁ᎢᏕᎯ	-9.81612
▁ᎨᎦᏑᏰᏛ	-9.81632
ᏍᏆᎸᎡ	-9.81635
▁ᎢᏣᏓᏅᏘ	-9.81636
▁ᏂᏥᎦᏔᎲᎾ	-9.81639
▁ᎤᏁᏉᏨ	-9.81652
▁ᏱᏂᎦᎵᏍᏓ	-9.81665
▁ᏫᏥᎦᏛ	-9.81684
▁ᎥᎩᏅᏏᏛ	-9.81689
▁ᎠᏆᏓᏅᏖ	-9.81719
▁ᎤᏣᏖ	-9.81729
▁ᎪᏢᏅᎯ	-9.81737
▁ᎢᏣᏠᎾᏍᏗ	-9.81761
▁ᎤᎾᎵᏍᏓᏴᏗ	-9.81773
▁ᏚᎴᎯᏌᏅ	-9.81779
▁ᎠᏰᎲ	-9.81781
▁ᎬᎵᏍᏆᏗᏍᎩ	-9.81786
▁ᎤᎦᎾ	-9.8179
ᎦᏙᎥᎯᏍᏗᏱ	-9.81807
▁ᎣᏓᏅᏛ	-9.81829
▁ᏥᎨᏥ	-9.81835
ᏑᎵᎪ	-9.81846
▁ᎠᏆᎵᏏ	-9.81887
▁ᏱᏙᎨ	-9.81906
▁ᏕᎤᎴᏔᏅ	-9.81924
▁ᏤᎲᎩ	-9.81963
▁ᏣᎾᏫ	-9.81982
▁ᎤᏪᏅᏍᏗᏱ	-9.8206
▁ᎠᏁᎳ	-9.82093
▁ᎤᏰᎸᏁ	-9.82102
▁ᎤᏂᏃᎮᎸᎯ	-9.82153
▁ᎡᎳᏪᏱ	-9.82162
▁ᎤᏂᏄᎪᏨ	-9.82165
▁ᏗᏆᏤᎵᎦ	-9.82207
▁ᎠᏥᎸᎨᎶᎯ	-9.82244
ᏂᏢᏗᏱ	-9.82249
▁ᏚᏭ	-9.82304
▁ᎤᎾᏄᎪᎢᏍᏗ	-9.82313
▁ᎤᎬᏫᏳᏌᏕᎩ	-9.82342
▁ᎯᎦᏔᎭ	-9.82354
▁ᏧᏂᎾᏫᏱ	-9.82362
▁ᎢᏳᎾᏛᏁᏗᏱ	-9.82429
ᏥᏙᏁ	-9.82432
▁ᎠᎵᏥᏙᎲᏍᎨ	-9.82493
ᎶᏒᏍᏗ	-9.82548
▁ᏣᏙᏓ	-9.82578
▁ᎾᏅᏁ	-9.82582
▁ᎬᏩᏛᏛ	-9.8261
▁ᎡᏙᎲᎢ	-9.82611
ᎨᎳᏍᏙᏗ	-9.82615
ᏄᎪᏩ	-9.82617
▁ᎤᏓᏅᏛᎢ	-9.82773
▁ᏓᏕᏲᎲᏍᎬᎢ	-9.82851
▁ᏕᎬᏩᏂ	-9.82858
ᏥᏅᎵ	-9.83079
▁Ꮮ	-9.83198
ᎥᏍᎨᏍᏗ	-9.83244
▁ᎣᎬᏒ	-9.833
▁ᎤᏃᏴ	-9.83387
ᏣᎦᎸ	-9.83545
ᎥᏍᎩ	-9.8384
ᏟᎶᏍᏙᏗ	-9.83866
ᎬᏍᎪᎸᏁ	-9.83953
▁ᏕᎪ	-9.84012
▁ᎠᏜ	-9.84052
▁ᎾᎦᏛ	-9.842
ᏁᏟᏴᏍᏗ	-9.84347
ᏓᏁᎲ	-9.84373
;)	-9.84392
▁ᎤᎪᎲᎯ	-9.84435
ᎪᎵᏰᏍᎩ	-9.84478
▁ᏥᎬᏩ	-9.84487
▁ᎤᏩᏛᎲ	-9.85037
ᎵᏍᏔᏁ	-9.85063
▁ᎦᎾᏄᎪ	-9.85348
▁ᏫᏚᎾ	-9.85528
▁ᎪᎯᏳᏗᏍᎩ	-9.85613
▁ᏣᏚᎵ	-9.85814
ᏍᏓᏩᏗᏙ	-9.85888
▁ᎤᏁᏅ	-9.86214
▁ᎤᏓᏅᏎ	-9.86388
ᎩᏰᎸᎭ	-9.86578
▁ᏍᎩᎨᏳ	-9.86957
▁ᏄᎾᏓ	-9.86986
▁ᏤᎮ	-9.87292
▁ᎤᎩᏒ	-9.88293
ᏄᏪᏎ	-9.8854
▁ᏕᎦᏅ	-9.8864
ᎾᏄᎪᎢᏍᏗ	-9.8879
ᎵᎹ	-9.889
ᏍᎦᏅᏨᎯ	-9.88948
▁ᏓᏠᎯᏍᏛ	-9.89292
▁ᏓᏕᏲᎲᏍᎬ	-9.89304
▁ᎤᏂᏍᏆᏂᎪᏎ	-9.89332
▁ᎠᏥᏍᏕᎸᏗ	-9.89412
ᎦᏌᏯᏍᏗ	-9.89454
ᏁᎢᏍᏔᏁ	-9.89459
▁ᏕᏣᏓᏅᏛ	-9.89463
▁ᎤᏂᏣᏛ	-9.89766
▁ᏂᏚᏪᏎᎸ	-9.89773
▁ᎤᏃᎯᏳᏅ	-9.90071
▁ᎤᏂᏃᎮᎸ	-9.90073
▁ᎾᏥᏪᏎ	-9.90128
ᎢᏳᎾᏍᏗ	-9.90173
ᏓᏅᏖᏗ	-9.9035
▁ᎨᏥᏍᏕᎸᏗ	-9.90351
▁ᏧᎾᎴᎯᏐ	-9.90435
ᎴᎯᏌᏅ	-9.90461
ᏙᎴᎰᏒ	-9.90493
ᎵᏓᏍᏗ	-9.90656
ᏘᎿᏫᏛ	-9.90674
▁ᎠᏕᏒᎲᏍᎩ	-9.90674
▁ᎢᏳᏩᏂᏌᏅᎯ	-9.90674
▁ᎤᏂᏇᏓᎸᎢ	-9.90674
▁ᎥᏘᎣᎩ	-9.90674
▁ᎦᏃᎸᎥᏍᎬ	-9.90674
▁ᏒᎦᏔ	-9.90674
▁ᏔᎷᎩᏍᎩ	-9.90674
▁ᏕᎨᎦᏨᏍᏗᏍᎬ	-9.90674
▁ᏗᏖᎵᏙ	-9.90674
▁ᏣᎦᏟᎶᏍᏔᏅᎯ	-9.90674
▁ᏦᎠᏍᎪᎯ	-9.90674
▁ᏧᏩᎫᏔᏅᏒ	-9.90674
▁ᎠᎨᏳᏣ	-9.90675
▁ᎠᏤᎷᎩ	-9.90675
▁ᎡᏂᎾᏯ	-9.90675
▁ᎤᎳᎨᏯᏛᏤᎢ	-9.90675
▁ᏕᎨᏥᏰᎸᏔᏅᎩ	-9.90675
▁ᏧᏳᎪᏗ	-9.90675
▁ᏂᎬᏪᏎᎭ	-9.90675
▁ᎡᎩᎵᏈ	-9.90675
▁ᎤᎬᏫᏳᏎᏍᏗ	-9.90675
▁ᏫᏨᎷᏤᏗᏱ	-9.90675
▁ᎠᏂᏙᎾᎢ	-9.90675
▁ᏔᎷᏣ	-9.90675
▁ᎠᏂᎩᎵᏲ	-9.90675
▁ᎠᏏᎾᏌᏂ	-9.90675
▁ᎦᎬᏩᏐᏢ	-9.90676
ᏍᏉᎵᏱ	-9.90677
▁ᏄᎾᏓᎴᏒ	-9.90677
▁ᏫᏚᏯᏅᎮ	-9.90677
▁ᎢᏳᎵᏍᏔᏅᎯ	-9.90678
▁ᎤᎬᏫᏳᎭ	-9.90682
▁ᎢᏳᏛᏁᏗᏱ	-9.90682
▁ᎤᏛᎪᏗᏱ	-9.90683
▁ᎤᎵᏖᎸ	-9.90683
ᏛᏅᎢᏍᏙᏗᏱ	-9.90684
▁ᎯᎨᏴ	-9.90684
▁ᎠᏁᏙᎲᎢ	-9.90685
▁ᎠᎦᏔᎿᎢ	-9.90687
ᎵᎥᏂᎸ	-9.90687
▁ᏗᏓᏬᏍᏗ	-9.90688
▁ᎠᏲᎱᏒ	-9.90688
ᏍᏕᎵᎭ	-9.90692
▁ᎤᎾᏛᏅᎩ	-9.90693
▁ᎥᏳᎩ	-9.90696
▁ᎤᏕᎵᏒ	-9.90696
▁ᎣᎦᏛᎦᏅ	-9.90702
▁ᏱᏅᎦᎵᏍᏓ	-9.90703
▁ᏕᎩᎸᏫᏍᏓᏁ	-9.90706
▁ᎠᎬᏗᏍᎬᎢ	-9.90719
▁ᏙᎦ	-9.90719
▁ᎾᏂᎦᏔᎲᎾ	-9.90722
▁ᏄᏠᎾᏍᏛᎾ	-9.90736
▁ᎢᏣᏓᏡᎬ	-9.90739
ᎾᏙᏓᏆᏍ	-9.90754
ᏅᏍᏓᏕᎸᎩ	-9.90757
▁ᏧᎾᏓᏅᏙ	-9.9076
▁ᎠᏉᎳ	-9.90761
▁ᎨᏣᏍᏓᏩᏗᏙᎯ	-9.90763
▁ᎤᎦᏔᎲᏒ	-9.90769
▁ᎿᏛᏁ	-9.90775
▁ᏧᏪᏅᏒ	-9.90776
▁ᏥᏥᎦᏔᎭ	-9.90795
ᏓᏅᏖᏍᎨᏍᏗ	-9.90803
▁ᎬᏩᏍᏓᏩᏛᏒᎩ	-9.90814
▁ᎠᏓᏍᏓᏩᏗᏙᎯ	-9.90825
▁ᎠᎩᎬᏫᏳᎯ	-9.9083
▁ᎢᏥᎦᏔᎮᏍᏗ	-9.90844
▁ᎡᏣᎫᏴ	-9.90902
▁ᎠᏥᏃᎮᏍᎬᎢ	-9.90903
▁ᎢᏥᎦᏙᎥᎯᏍᏗᏱ	-9.9092
ᎬᏍᎦᎳ	-9.90924
▁ᏰᏥ	-9.90956
▁ᎤᏣᏔ	-9.90973
▁ᎠᏁᎩ	-9.90995
▁ᏥᏅᏗᎦᎵᏍᏙᏗᎭ	-9.91002
▁ᏦᏈ	-9.91005
▁ᎤᏛᎦᏁ	-9.91011
▁ᏧᎸᏫᏍᏓᏁᏗᏱ	-9.9102
▁ᎠᏫᏍᎩ	-9.91047
▁ᏧᎾᏄᏬ	-9.91055
ᏂᏌᏁ	-9.91077
▁ᎢᏓᎵ	-9.91095
▁ᎠᏂᏍᎦᎢᎮ	-9.91118
ᏘᏃᎸᎩ	-9.9113
ᏓᏙᎵᏍᏓᏁᏗ	-9.91168
▁ᎠᏁᏢᏔᏅᎯ	-9.91169
▁ᎠᎩᏅᏏᏛ	-9.91237
▁ᎠᏓᏅᏖᏗ	-9.91269
ᏂᏪᏏ	-9.91317
▁ᏭᏴᎴᎢ	-9.91407
▁ᎤᏩᏔᏅ	-9.91415
▁ᏥᏅᏏᏓᏍᏗ	-9.91442
▁ᎢᏥᏍᎦᏅᏨᎢ	-9.91534
▁ᏓᎻ	-9.91589
▁ᎣᏥᏃᎮ	-9.91597
ᏙᎵᏍᏗᏱ	-9.91631
▁ᎢᎩᏁᎸᎯ	-9.91636
▁ᎠᏍᎪᎯᏁ	-9.91701
▁ᎠᏍᏚᎲ	-9.91819
ᏉᏰᏂ	-9.91861
ᏗᏔᏍᏗᏱ	-9.9192
▁ᏕᎨᏌᏗᏒᎢ	-9.91936
ᎮᎮᎸ	-9.91965
▁ᏗᏨᏂᏗ	-9.92212
▁ᏓᎩᎸᏫᏍᏓᏁᎲ	-9.92256
ᎦᏄᎪᎬ	-9.9241
▁ᏚᎸᏫᏍᏓᏁᎸᎢ	-9.92471
▁ᎠᎢᏒᎢ	-9.925
ᏤᎳ	-9.92533
▁ᎤᏅᏟ	-9.92615
▁ᏤᎮᎢ	-9.92628
▁ᏭᎷᏤᎢ	-9.92643
▁ᎦᏛ	-9.92655
▁ᎢᏳᏩ	-9.9297
▁ᏂᏫ	-9.93165
ᎧᎵᎢᏍᏗᏱ	-9.9318
▁ᏂᏚᏅ	-9.93492
▁ᎤᏂᏍᎦᏅᏨᎢ	-9.93537
ᏍᏚᎢᏍᏗ	-9.93738
▁ᎢᏦᎯᏳᏒᎢ	-9.93822
ᏍᏈ	-9.94117
▁ᏄᏛᏁᎸᎢ	-9.94233
▁ᎠᎦᏔᎭ	-9.9426
▁ᎤᏪᏗᏱ	-9.94359
▁ᎠᏓᏙᎵᏍᏙᏗ	-9.94495
▁ᎢᎬᏩᏁᏗ	-9.94641
ᎯᏳᎲᏍᎦ	-9.94826
ᎦᏠᏯᏍ	-9.95827
ᎸᏍᏗᏱ	-9.97609
ᏅᏗᏍᎨᏍᏗ	-9.97783
ᏰᎸᏎᏍᏗ	-9.97784
▁ᏕᎨᏌᏗᏒ	-9.99299
ᎷᏤᏗ	-9.99556
▁ᎤᎷᏤᎴ	-9.99601
ᏔᏲᏎᎸ	-9.99702
ᎦᏙᎥᎯᏍᏗ	-9.99733
ᎵᏂᎩᏛ	-9.99905
ᏁᏢᏔᏅᏛ	-9.99932
▁ᏭᎶᏒ	-10.0002
ᏍᏆᏂᎪᏙ	-10.0007
ᎠᎩᎾ	-10.0028
ᏍᏚᎢᏒ	-10.0057
▁ᏱᏅᏗᎦᎵᏍᏙ	-10.0061
ᏂᏐᏗᏱ	-10.0067
▁ᎤᏂᏍᏆᏂᎪᏒᎩ	-10.0067
▁ᎾᎵᏍᏆᏗᏍᎬᎾ	-10.0067
▁ᏂᏚᎾᏓᏪᏎᎴᎢ	-10.0067
▁ᏅᎵᏌᎵ	-10.0067
▁ᏐᎵᎹᏅ	-10.0067
▁ᏕᏦᎯᏳᏎᏍᏗ	-10.0067
▁ᏗᏂᏩᎾᎦᎳ	-10.0067
▁ᎢᏯᏆᏛᏁᏗᏱ	-10.0067
▁ᎧᏂᎵᏯ	-10.0067
▁ᏧᏭᎪᏙᏗ	-10.0067
ᏘᏃᎮᎸᎩ	-10.0067
▁ᏱᏥᏍᎦᎢᎮᏍᏗ	-10.0067
▁ᎠᏂᎦᏓᎭ	-10.0067
▁ᎠᏂᏃᏍᎩᏍᎩ	-10.0067
▁ᎤᏂᏃᎮᎴ	-10.0067
▁ᎬᏩᏲᎱᎯᏍᏗ	-10.0067
▁ᏤᎦᎳᏯ	-10.0067
▁ᎬᎨᏳᎢ	-10.0067
▁ᏲᏥᎦᏔᎭ	-10.0067
▁ᏕᏥᏲᎵᎸᎭ	-10.0068
▁ᎢᏯᎬᏁᎸᎯ	-10.0068
▁ᏂᏦᎯᏳ	-10.0068
▁ᎥᏥᎪᎥᎩ	-10.0068
▁ᏅᏓᏳᎵᏍᏙᏗᏱ	-10.0068
▁ᎢᏍᎦᎳᏗ	-10.0068
▁ᏧᏙᏢᏅ	-10.0068
▁ᎢᏥᏆᎵᏏ	-10.0068
▁ᎤᎩᏨᏅ	-10.0068
▁ᎠᏚᎸᏗ	-10.0068
ᎵᏍᏓᏴᎲᏍᎦ	-10.0068
▁ᏗᎩᎾᏫ	-10.0068
▁ᎨᏅᎢᏍᏗ	-10.0068
▁ᎠᏄᎦᎸ	-10.0068
▁ᎤᏂᏰᎸᏒᎩ	-10.0068
▁ᏓᏕᏲᎲᏍᎨ	-10.0068
▁ᎤᏙᎴᎰᎯᏍᏗᏱ	-10.0068
▁ᎢᏦᎯᏳᎯ	-10.0068
▁ᎲᏗᏍᎨᏍᏗ	-10.0068
▁ᎠᏟᎶᏍᏗ	-10.0068
▁ᎢᏲᏍᏛ	-10.0068
▁ᎠᏧᏣ	-10.0068
▁ᏚᏁᏤᎸᎩ	-10.0068
▁ᏄᏩᏁᎴ	-10.0069
▁ᎦᏍᎩᎶ	-10.0069
ᏲᎯᏎᏗᏱ	-10.0069
ᎦᎫᏴᏓᏁᏗ	-10.007
▁ᏧᎸᏫᏍᏓᏁᏗ	-10.007
▁ᏥᎮᎾ	-10.007
▁ᏫᏂᎦᎵᏍᏓ	-10.0071
▁ᎤᏬᎯᏨ	-10.0071
▁ᎤᏓᏙᎵᏍᏔᏅ	-10.0071
▁ᎢᎨᎬᏁᏗ	-10.0072
ᏖᏆᎶ	-10.0073
▁ᏧᎾᎵᏂᎩᏛ	-10.0073
▁ᎡᏉᏂ	-10.0073
▁ᏚᎪᎮ	-10.0073
▁ᎢᏯᏍᏘ	-10.0074
▁ᏓᏓᏂᎸᎨᏍᏗ	-10.0074
▁ᎣᏂᏗᏢ	-10.0076
▁ᎤᏬᏚᎯᏳ	-10.0077
▁ᎯᎾᎩ	-10.0077
▁ᏔᎵᏧᏈ	-10.0079
▁ᏄᏂᎲᎾ	-10.008
▁ᎠᎩᎷᏥᎸ	-10.0081
ᎱᏍᏕ	-10.0083
▁ᏭᎶᎯᏍᏗᏱ	-10.0085
▁ᏗᎬᏩᎸᏌᏛ	-10.0086
▁ᏗᎦᎵᏍᏙᏗᎭ	-10.0088
▁ᎤᏓᏅᏖᎸᎯ	-10.0092
▁ᏭᏯᏅᎲ	-10.0092
ᎦᏌᏯᏍᏕᏍᏗ	-10.0093
▁ᎪᏍᏚ	-10.0095
▁ᎠᏃᏍᏛ	-10.0096
ᏕᏲᏅᎯ	-10.0097
ᏓᏂᎸᏤᎢ	-10.0099
▁ᎬᏩᏔᏲᏎᎴ	-10.01
▁ᎣᎦᏤᎵ	-10.01
▁ᏂᎬᏁᎭ	-10.01
▁ᎾᏥᎾᏝᎥᎾ	-10.0101
▁ᎢᏣᎵᏍᏕᎸᏙᏗ	-10.0102
▁ᎤᏃᏍᏛ	-10.0103
▁ᏬᎩᎷᏨᎩ	-10.0104
▁ᎦᎸᏉ	-10.0109
▁ᎠᏂᎦᏴᎵᎨ	-10.0123
▁ᏥᏁᎦ	-10.0124
▁ᎢᏥᏁᏍᏗ	-10.0126
ᎸᏫᏍᏓᏁᎰᎢ	-10.0129
▁ᏂᏕᎦᏪᏎᎲ	-10.013
▁ᎤᏯᎢ	-10.0133
▁ᏗᎨᏣ	-10.0133
▁ᎤᏃᎯᏳᏅᎯ	-10.0136
▁ᎨᏥᏁᎸᎯ	-10.014
▁ᎠᎩᎾᏫ	-10.0143
▁ᏗᏥᎾᏫᏱ	-10.015
▁ᎠᏎᏍᎩᏂᏃᏅ	-10.0152
▁ᎢᎦᏁᎳᏅᎯ	-10.0155
ᏖᎸᏗ	-10.0171
▁ᎾᏁᎲᎾ	-10.0173
▁ᏧᏁᏨ	-10.0175
▁ᎾᏛᏁᎲ	-10.0184
▁ᎩᎵ	-10.0189
▁ᏑᎾ	-10.019
▁ᎠᎾᎵᏍᏓᏴᎲᏍᎬ	-10.0191
ᎪᏪᎸ	-10.0192
▁ᏄᎾᏛᏅᎢ	-10.0193
▁ᎦᎵᏦᏛᎢ	-10.0195
▁ᎾᎦᏔᎲᎾ	-10.0195
ᎾᏰᎯᏍᏗ	-10.02
▁ᏓᏠᎯᏍᏛᎢ	-10.0222
ᏍᏕᎸᎲ	-10.0228
▁ᎤᏂᏙᏓ	-10.0232
▁ᏙᏓᎨ	-10.0232
ᏣᏅᏓᏗᏍ	-10.0235
▁ᎤᏢᎩ	-10.0258
▁ᎡᏥᎸᏉ	-10.0264
▁ᏃᎩ	-10.0267
▁ᎬᏩᏍᏓᏩᏗ	-10.0274
ᏩᏘᏍᎬ	-10.0281
▁ᎦᏙᎬᎩ	-10.0286
▁ᏄᏪᏎᎸ	-10.0316
▁ᎠᏍᎫᏕᏍᏗ	-10.0327
▁ᎨᏥᏰᎸ	-10.036
▁ᎠᎩᏍᏗᏱ	-10.0377
▁ᎡᎮᏍᏗ	-10.0379
▁ᎤᏓᏅᏛ	-10.0397
ᎵᏙᎲᎢ	-10.0398
ᏪᏨᎯ	-10.0437
ᏩᎾᎦᎳᎯᏳ	-10.0447
▁ᎤᏬᎯᏳᏒ	-10.0465
ᏥᏁᎦ	-10.0479
ᎷᏥᎸ	-10.0482
▁ᎤᏓᏅᏁ	-10.0493
ᎪᎵᏰᏍᎨᏍᏗ	-10.0543
▁ᎤᏢᎬ	-10.0566
ᏄᎪᏫᏒᎩ	-10.0577
▁ᏙᏓᎬ	-10.0601
ᏓᎨᏳᏗ	-10.0607
▁ᎠᏐᏢ	-10.0646
▁ᎤᏅᏏ	-10.0683
ᏓᏱᎵ	-10.069
▁ᎢᏥᏍᏆᏂᎪ	-10.07
ᎵᏥᏙᏗ	-10.0759
ᎾᏛᏛ	-10.0797
ᎸᏉᏛᎾ	-10.0868
ᎵᏍᏓᏴᎲᏍᎬᎢ	-10.0933
ᎸᏉᏗᏍᎩ	-10.0937
ᎦᏓᎢᏅ	-10.0944
▁ᎤᎷᏤᎸ	-10.0957
ᏙᎴᎰᏍᎦ	-10.096
▁ᎪᏙ	-10.0989
ᎦᎵᏍᏙᏗᎭ	-10.1004
▁ᎣᎵᏩ	-10.1017
▁ᎢᏣᎵᎮᎵ	-10.1039
▁ᏄᎾᏛᏅ	-10.1041
▁ᎡᏙᎲ	-10.1058
ᏁᏟᏴᏛ	-10.1076
▁ᎦᎵᏦᏛ	-10.109
ᏅᏁᏗᏱ	-10.109
ᎸᏉᏙ	-10.1113
ᏁᏢᏔᏅᎯ	-10.1122
ᎥᏝ	-10.1133
▁ᎦᎵᏦ	-10.1136
ᏁᏤᎲ	-10.1142
▁ᎯᎦᏔ	-10.1144
ᎿᏕᎩ	-10.1147
ᏤᎮ	-10.1161
ᏜᏏᏛᎡ	-10.1175
▁ᏐᎣᏁᎳ	-10.1179
▁ᏱᏥᎪᎵᏰᎣ	-10.1179
ᏂᏆᏘᎮᏍᏗ	-10.1179
ᏨᏰᎳᏗᏙᎭ	-10.1179
▁ᎠᎬᎭᎸᏛ	-10.1179
▁ᎢᎬᏪᏅᏛ	-10.1179
▁ᎢᏯᏋᏁ	-10.1179
▁ᎤᎵᎮᎵᏤ	-10.1179
▁ᎬᏍᎦᎢᏍᏓᎩ	-10.1179
▁ᎭᏓᏅᏖᏍᎬ	-10.1179
▁ᎾᏃᎯᏳᎲᏍᎬᎾ	-10.1179
▁ᏇᏗᏂᏱ	-10.1179
▁ᏐᏓᎻ	-10.1179
▁ᏕᎪᏢᏩᏗᏒ	-10.1179
▁ᏗᎧᎸᎬ	-10.1179
▁ᏗᏂᏬᏂᏍᎩ	-10.1179
▁ᏣᏃᏎᎰᎢ	-10.1179
▁ᎢᎧᏁᏨᎯ	-10.1179
▁ᏢᏓᏥ	-10.1179
▁ᎢᎨᎬᏁᎸᎯ	-10.1179
▁ᏧᎾᎬᏩᎶᏗ	-10.1179
ᎦᏯᎷᎥ	-10.1179
▁ᎠᎵᏏᎾᎯᏍᏙᏗ	-10.1179
▁ᎤᏃᎯᏳᏗᏱ	-10.1179
▁ᏂᎦᎵᏍᏔᏅᎭ	-10.1179
ᏓᏙᏕᏍᏗᏍᎩ	-10.1179
▁ᎠᎾᏛᎩᏍᎩ	-10.1179
▁ᏧᏁᎿᎢ	-10.1179
▁ᏧᎴᎯᏌᏅᎯ	-10.1179
▁ᎠᏙᎴᎰᎯᏍᏙᏗ	-10.1179
ᎾᏫᏛᎮ	-10.1179
ᏢᏈᏍᏗᏱ	-10.1179
▁ᏚᎸᏌᏛ	-10.1179
▁ᎤᏂᎷᎯᏍᏗᏱ	-10.1179
▁ᎢᏥᏪᏍᏗᏱ	-10.1179
ᏅᏍᏓᏕ	-10.1179
▁ᎤᎩᎵᏲᎢᏍᏗ	-10.1179
▁ᎤᎾᏂᎩᏒ	-10.1179
▁ᎤᎵᏍᏚᎢ	-10.1179
▁ᎥᏣᏱ	-10.118
▁ᎠᎯᏗᏳ	-10.118
▁ᎤᎾᎵᏍᏓᏴᏅ	-10.118
▁ᏧᎴᏔᏅᎯ	-10.118
ᎸᏉᏔᏂ	-10.118
▁ᏧᏓᏅᏛᎢ	-10.1181
ᎪᎵᏰᏍᎨ	-10.1181
▁ᎠᎦᏘᏯ	-10.1181
▁ᎢᏕᎾ	-10.1182
▁ᏂᏣᏛᎿᏕᎬᎢ	-10.1182
▁ᏗᎦᏓᎭ	-10.1182
▁ᏕᎦᏍᎩᎸ	-10.1182
▁ᎠᎾᏓᏍᏓᏩᏗᏙᎯ	-10.1182
▁ᏍᎩᏍᏓᏩᏚᎦ	-10.1182
▁ᏈᎵᏏ	-10.1183
ᏄᏩᏁᎰ	-10.1183
▁ᎤᏮᏔᏅ	-10.1183
▁ᎠᏓᎯᎯ	-10.1184
▁ᏗᎬᏩᏓᏂᎸᎢᏍᏗ	-10.1184
▁ᏭᏂᎶᎯᏍᏗᏱ	-10.1184
▁ᏭᏂᏴᎴ	-10.1185
▁ᎢᎪᏪᎳ	-10.1185
▁ᎢᏳᏩᏁᎸᎯ	-10.1185
▁ᏧᏬᎸ	-10.1186
▁ᎢᏯᎬᏁᏗ	-10.1187
▁ᎢᏨᏍᏗᏰᏗᎭ	-10.1187
▁ᎢᏣᎵᎮᎵᎨᏍᏗ	-10.1187
▁ᎠᎾᏓᏙᎵᏍᏓᏁᎯ	-10.1187
▁ᏗᏥᎸᏫᏍᏓᏁᏗᏱ	-10.1188
▁ᎣᎦᏣᏅ	-10.1189
▁ᏍᎩᏙᎵᎩ	-10.1189
ᏓᏛᏁᎮᏍᏗ	-10.119
▁ᎠᎦᏔᎯᏳ	-10.1192
ᎳᏗᏓᏍᏗᏱ	-10.1194
▁ᏕᎦᎶᏗ	-10.1194
▁ᎡᏃᏱ	-10.1196
▁ᎤᎸᏓᎸᎥᏍᎩ	-10.1197
▁ᎤᏬᏂᏒ	-10.1197
▁ᎤᎾᏕᏅᎯ	-10.1197
ᏙᎵᏨᎯ	-10.1198
▁ᎤᏓᏅᏖᎸᎢ	-10.1199
▁ᏚᏂᏢᎬ	-10.1201
▁ᎤᏂᏰᎸᏅ	-10.1201
▁ᎤᏁᏙᎸ	-10.1202
▁ᎢᏣᏓᏙᎵᏍᏗᏍᎬ	-10.1202
▁ᏍᎩᎾᏝᎢ	-10.1204
▁ᏓᎾᏕᏲᎲᏍᎬ	-10.1208
▁ᎤᎩᎵᏲᏨ	-10.121
▁ᏥᏄᎵᏍᏔᏅ	-10.1212
ᏙᎳᏅᏍᏗ	-10.1212
▁ᎤᏰᎸᏎ	-10.1212
▁ᏙᏧ	-10.1215
ᏂᏴᎮᎢ	-10.1216
▁ᎤᏂᎦᏙᎥᏒ	-10.1219
ᎵᏥᏙᏁᎸ	-10.1219
▁ᏂᏨᏁᎸ	-10.1223
ᎪᏍᏓᏯ	-10.1225
▁ᎢᏗᎬᏁ	-10.1225
▁ᎠᏆᏓᏅᏛ	-10.1229
▁ᏴᎨᏥ	-10.1232
▁ᏚᏂᏅᏎ	-10.1235
▁ᏂᎦᎵᏍᏓ	-10.1235
▁ᏯᎦᏔᎭ	-10.1236
▁ᏓᏤᎸ	-10.1237
▁ᏱᏣᏓ	-10.1237
▁ᎠᏂᏃᎮᏍᎩ	-10.124
▁ᏧᎾᏤᎵᎦ	-10.1245
▁ᏙᎤ	-10.1249
▁ᏧᎾᏄᎪᏫᏎᏗ	-10.1254
▁ᎤᎩᎵ	-10.1254
▁ᎦᏲᎵ	-10.1256
▁ᏓᎬᎾ	-10.1266
ᎨᎯᏙ	-10.1275
▁ᏧᏁᎬ	-10.1285
▁ᏓᎾᎵᏍᏓᏴᎲᏍᎬ	-10.1307
ᏞᏍᏗ	-10.1312
▁ᎤᏂᎪᏩᏛᏗᏱ	-10.1322
▁ᎤᏓᏔᏅᎯ	-10.1325
▁ᎢᏓᏙᎴᎰᎯ	-10.1329
▁ᏕᏥᎧᎿᏩ	-10.133
▁ᎢᏥᎦᏔᎲ	-10.1332
ᏍᎦᏅᏨᎢ	-10.1332
▁ᏥᏂᎨ	-10.1336
▁ᎣᎵᏩᏲ	-10.1344
▁ᎹᎦ	-10.1356
ᎵᏍᏓᏴᏙᏗ	-10.137
▁ᎯᏰᎸ	-10.1383
▁ᎠᏓᏫ	-10.1387
▁ᏰᏣ	-10.1393
▁ᎢᏨᏃᏁᎸ	-10.1396
ᎦᏁᎳᏅᎯ	-10.1444
▁ᏴᏛ	-10.1474
ᎾᏓᏡᎬ	-10.1478
ᎬᏩᎶ	-10.1504
ᏴᏍᏕᏍ	-10.1512
▁ᏥᏯᎵᎡᎵᏤ	-10.1547
▁ᏂᎬᏁᎲ	-10.1556
ᎸᏉᏗᏍᎬ	-10.1558
ᎬᏩᏪᏎ	-10.156
▁ᏱᏅᏩᏍᏗ	-10.1618
▁ᎹᏓ	-10.1622
▁ᏚᏪᎧ	-10.1668
▁ᎠᏥᏁᏗ	-10.169
ᏦᎯᏳᎲᏍᎦ	-10.1709
ᎤᎷᏨ	-10.1759
▁ᎠᏩᎾᎦᎳ	-10.1762
▁ᏂᏕᎬᏁ	-10.1855
▁ᎠᏥᏰᎸᎾᏁ	-10.1888
ᏙᎩᏯᏍ	-10.1896
ᏚᎸᏅᏗ	-10.1924
ᏥᏪᏏ	-10.1961
ᏓᏂᎸᎩ	-10.2022
ᏓᏙᎵᏍᏓᏁᎭ	-10.2036
▁ᎤᏅᏁ	-10.2054
ᎪᏪᎳᏅᎯ	-10.2115
▁ᎨᏥᏁᏗ	-10.2162
ᏂᏪᏍᎨ	-10.2177
ᎦᏔᎮᏍᏗ	-10.2184
▁ᏚᏁᎴ	-10.2213
▁ᎠᏥᏃᎮ	-10.2223
ᏯᏓᏙᎵᏍᏓᏁ	-10.223
ᏯᏓᏂᎸ	-10.2241
ᏁᏍᎨᏍᎩ	-10.2267
ᏣᏙᎴᎰ	-10.2282
ᎠᏕᎸ	-10.238
▁ᏥᏅᏗᎦᎵᏍᏙᏗ	-10.2383
ᏍᎦᎢᎲᎾ	-10.2385
ᏥᎾᏝᎥᎾ	-10.2386
▁ᎠᏍᏓᏱᏗᏍ	-10.2392
ᏍᏓᏩᏛᏒᎩ	-10.2409
ᏥᎷᏤ	-10.2421
ᏘᏃᎮᎴ	-10.2427
▁ᏂᎦᎵᏍᏔᏂ	-10.2428
ᏣᏪᏐᎸᏍᏙᏗ	-10.2428
'	-10.2429
▁ᏕᎤᎸᏫᏍᏓᏁᎲ	-10.2429
▁ᏕᎭᏕᏲᎲᏍ	-10.2429
ᏗᎦᎵᎠᏅᎯᏛ	-10.2429
ᏤᏯᏙᏤᎮᏍᏗ	-10.2429
▁ᎠᏂᏃᎯᎵᏙᎯ	-10.2429
▁ᎠᏓᏪᎳᎩᏍᎩ	-10.2429
▁ᎢᏯᏥᎸᏉᏗ	-10.2429
▁ᎤᎾᏄᎪᏥᎸ	-10.2429
▁ᎦᎶᎯᏍᏗᏳᎶᏗ	-10.2429
▁ᏄᏬᎯᏳᏒᎾ	-10.2429
▁ᏅᏓᎦᎵᏍᏙᏓ	-10.2429
▁ᏅᏓᎦᎵᏍᏙᏔᏂ	-10.2429
▁ᏓᎵᏍᏗᎳᏁᎬ	-10.2429
▁ᏕᎦᏬᏁᏗᏍᎬ	-10.2429
▁ᏕᏏᎶᏂᎦ	-10.2429
▁ᏗᎾᏕᏲᎲᏍᎩ	-10.2429
▁ᏗᏦᏪᎵᏍᎩ	-10.2429
▁ᏙᏗᏣᏓᏅᏛᎢ	-10.2429
▁ᏥᏚᏳᎪᏗ	-10.2429
▁ᏦᎩᎸᏫᏍᏓᏁᎯ	-10.2429
▁ᏧᎾᏄᏩᎢ	-10.2429
▁ᏫᎨᏥᏲᎵᎭ	-10.2429
ᎶᏄᎮᏗᏱ	-10.2429
▁ᎢᏗᏍᏓᏓᎳ	-10.2429
▁ᎤᏍᏆᏂᎪᏎ	-10.2429
▁ᎤᏓᏙᎵᏣᏛ	-10.2429
▁ᏱᏤᎵᎯᏍᎨᏍᏗ	-10.2429
▁ᎠᎩᏇᏓᎸ	-10.2429
▁ᎢᏧᏕᏘᏴᏛ	-10.2429
▁ᏧᎦᏒᏍᏗ	-10.2429
▁ᎢᏦᎯᏳᏗᏱ	-10.2429
ᏂᏆᏘᎯ	-10.2429
▁ᎤᏂᎩᎵᏲᎢᏍᏗ	-10.2429
▁ᏗᏓᎴᎲᏍᎦ	-10.2429
ᎵᏂᏆᏅᏁ	-10.2429
▁ᏥᏣᏛᎩᎭ	-10.2429
▁ᎤᏂᎬᎥᏍᎩ	-10.2429
▁ᎡᏥᏲᎵᎸᎭ	-10.2429
ᏍᏓᏩᏛᏍᏗᏱ	-10.2429
▁ᏧᏂᏁᏟᏴᏍᏗᏱ	-10.2429
▁ᏚᏓᏘᎿᎥ	-10.2429
▁ᏧᏬᏚᎯ	-10.2429
ᏓᏆᎧᎾᏅᎩ	-10.2429
▁ᎠᏂᎪᏗᏳ	-10.2429
▁ᏭᏂᎶᏒᎩ	-10.2429
▁ᎠᏂᏍᎦᎢᎲ	-10.2429
▁ᏥᏚᏙᎥ	-10.2429
▁ᎤᏄᏩᎥ	-10.2429
ᏁᏍᎨᎲᎯ	-10.2429
▁ᎦᏚᎢᏗᏢ	-10.2429
▁ᎬᏩᏓᏍᏕᎸᏗ	-10.2429
▁ᏣᏤᏍᏙ	-10.2429
▁ᏓᏂᏴᎨᏍᏗ	-10.2429
▁ᎾᏆᎵᏍᏓᏁᎸ	-10.2429
▁ᏓᏆᏓᏂᎸᎨᏍᏗ	-10.2429
ᏠᎠᏏ	-10.2429
ᏥᏲᏍᏙᏓᏁ	-10.2429
▁ᏗᏇᏥ	-10.2429
▁ᏂᎦᎵᏍᏗᏍᎪ	-10.2429
▁ᎯᎦᏙᎵ	-10.2429
▁ᏏᎵᏱ	-10.2429
▁ᎶᎻ	-10.2429
ᏍᏆᏂᎪᏔᏁ	-10.2429
ᏯᏪᏐ	-10.2429
▁ᎢᏍᏕᎾ	-10.2429
▁ᎤᎾᏓᏟᏌᏅ	-10.243
ᎵᏰᎢᎸᏍ	-10.243
ᎩᏏᏕᎩ	-10.243
ᏚᏓᎳᎡ	-10.243
▁ᎢᎦᎵᏍᏙᏗᏱ	-10.243
ᎵᏌᎳᏓᏅ	-10.243
▁ᏮᏛ	-10.2431
▁ᏕᎧᏁᏤ	-10.2431
▁ᏓᎨᏥ	-10.2431
ᎾᏰᏍᎦ	-10.2431
▁ᎠᏙᎴᎰᏒᎯ	-10.2431
▁ᏤᎵᎪ	-10.2431
▁ᏂᏣᎵᏍᏓᏁ	-10.2432
▁ᎠᏂᏦᎢ	-10.2433
ᎩᏲᎱᏒᎯ	-10.2433
▁ᎠᎪᏎᎮᏍᏗ	-10.2433
▁ᏄᏂᏪᏎᎸᎩ	-10.2434
▁ᎢᏯᏂᎢ	-10.2434
▁ᎤᏍᏗᎩᏛ	-10.2435
▁ᏕᏥᎧᎿᏩᏗᏙᎮᏍᏗ	-10.2435
▁ᏫᎦᎷᎩ	-10.2435
▁ᎠᏁᎮᎢ	-10.2436
▁ᎢᏛᏗᏍᎬ	-10.2437
▁ᎵᏫ	-10.2438
ᎪᎵᏯ	-10.2438
ᎳᏍᏓᎡ	-10.2438
▁ᎠᏇᎵᏒ	-10.2438
ᎢᎦᎸᏉᏗ	-10.2439
▁ᏚᏩᏂᎦᎸ	-10.2442
ᏄᎸᏗ	-10.2444
▁ᎨᏙᎲ	-10.2448
▁ᎦᎵᎡᎵᎦ	-10.2448
▁ᎤᎾᎵᎮᎵᏤ	-10.2449
▁ᎤᏂᎸᏉᏔᏁ	-10.245
▁ᏧᏂᎦᏴᎵᎨ	-10.2455
ᎵᏍᎪᎸᏓᏁᏗᏱ	-10.2455
▁ᎢᏣᏛᏓᏍᏓ	-10.2455
▁ᏌᏈ	-10.2456
▁ᎦᏁᏟᏴᏍᏗ	-10.2458
▁ᎬᏁᏍᏗ	-10.246
▁ᎤᏪᎷᏁᎢ	-10.2461
▁ᎢᏣᏟᏂᎬᏁ	-10.2463
ᏡᏔᏂ	-10.2464
ᏔᏲᏎᏗ	-10.2464
▁ᎡᏥᏯᏅᏛ	-10.2465
▁ᎤᏂᏲᎴ	-10.2466
ᎦᎾᏄᎪᏫᏍᎪ	-10.2469
▁ᎤᏕᏔᏅᎯ	-10.2471
▁ᎾᏍᎦᎢᎲᎾ	-10.2472
ᏂᏙᎲᎢ	-10.2473
ᏂᏣᏔ	-10.2474
▁ᏣᏓᏅᏙ	-10.2475
ᎸᏓᎩᏍ	-10.2476
▁ᎠᏥᏅᏏᏛ	-10.2477
▁ᏂᏕᏨ	-10.2479
▁ᏗᎵᏍᎪᎸᏓᏁᎸᎯ	-10.2482
ᎸᏃᏘ	-10.2484
▁ᎤᏪᏙᎴ	-10.2485
▁ᎢᏣᏓᏅᏛ	-10.2486
▁ᎤᎾᏄᎪᏨ	-10.2487
▁ᎤᎾᎵᏍᏓᏴᏗᏱ	-10.2488
▁ᎤᏂᏰᎸᏗ	-10.2492
▁ᎠᎫᏴᏗ	-10.2497
▁ᏗᏣᏤᎵᎦ	-10.2498
▁ᏗᏁᎲᎢ	-10.25
▁ᎦᏅᎨ	-10.2502
ᏬᏁᏙᏗ	-10.2502
▁ᏃᏯ	-10.2509
▁ᏅᏓᏰ	-10.2521
▁ᎤᏂᏴᎸ	-10.2523
ᎵᏍᎪᎸᏙᏗᏱ	-10.2527
ᎧᎿᏩᏗᏙᎮᏍᏗ	-10.2544
ᏘᏅᏒᎩ	-10.2552
▁ᏕᎬᏗᏍᎬ	-10.2555
ᏁᎢᏍᏓᏁᏗ	-10.2564
ᎬᏬᏎ	-10.2564
ᏃᎯᏴ	-10.2579
ᏏᏔᏗᏍ	-10.2603
▁ᎢᏣᎵᎮᎵᎬ	-10.2606
ᏍᏓᏩᏕᏅ	-10.2611
ᎵᏍᎪᎸᏓᏁᎴ	-10.2627
▁ᏣᏍᎦᏅᏨ	-10.2636
▁ᎾᏆᏍᏛ	-10.2639
ᏂᏲᎱᎯᏍᏗ	-10.2641
▁ᎢᏣᏚᎵᏍᎬ	-10.2645
ᏨᏲᏎ	-10.2648
▁ᎤᏓᏁᏟᏴ	-10.2649
▁ᎨᎦᎫᏴᎡ	-10.2671
▁ᎤᎴᏁ	-10.2672
ᏚᎢᏍᏓᏁᎴ	-10.2684
ᏍᏆᏂᎪᏕᏍᏗ	-10.2704
ᎵᏓᏍᏔᏅ	-10.2754
ᏛᎩᏍᎬ	-10.277
▁ᏕᎤᎴ	-10.2777
ᏘᏃᎴ	-10.2777
ᏥᏴᎩ	-10.2781
▁ᏓᎩᎸᏫᏍᏓᏁ	-10.2833
▁ᏓᏈ	-10.2846
ᎵᏱᎶᎯᏍᏗ	-10.286
▁ᎦᎾᏍ	-10.2919
▁ᎠᎾᎵᎮᎵᎨ	-10.3002
ᏛᏁᎵᏓᏍᏗ	-10.3082
ᏬᎯᏳᏁ	-10.3123
▁ᏂᏨᏪᏎ	-10.3137
ᏅᏁᎮᏍᏗ	-10.3159
ᏄᏪᏒ	-10.3217
ᏓᏂᎸᎦ	-10.3239
ᎡᎰ	-10.3243
▁ᎢᏨᏗᏍᎬ	-10.3243
▁ᎢᏦᎯᏳᎲ	-10.3261
ᏨᏍᏙᏗ	-10.3328
ᏓᏡᎬ	-10.3407
ᏯᏛᏁᏗᏱ	-10.3413
▁ᏱᏙᎬ	-10.3437
▁ᏂᏥᏪᏎ	-10.3438
ᎬᏍᎪᎸ	-10.3483
ᏂᎧᎿᏩ	-10.3494
ᏯᏂᏍᎨᏍᏗ	-10.3585
▁ᎠᎩᏃᎮ	-10.3627
ᏓᏅᏖᎴ	-10.3687
ᏡᏗᏍᎬᎢ	-10.3731
▁ᎢᏣᏙᎴᎰ	-10.3742
▁ᎠᏆᏛᎦᏅ	-10.377
▁ᎤᏂᎩᏒ	-10.3778
▁ᎤᏓᎨᏳ	-10.3794
ᎳᏏᏕᏂ	-10.3814
ᏓᏅᏖᏍᎨ	-10.3827
ᏠᎾᏍᏛᎾ	-10.3847
ᎪᏪᎵ	-10.3849
ᏏᏔᏛ	-10.3853
ᏛᏐᏅᎯ	-10.3855
ᏃᎮᎵᏙ	-10.3856
ᏎᎪᎩᏒ	-10.3856
▁ᏑᏟᎶᏛ	-10.3857
ᎬᎭᎷᏰ	-10.3857
ᏂᏆᏘᎭ	-10.3857
ᏘᎾᏫᏛᎲ	-10.3857
▁ᎠᎵᏍᎦᏁᏛ	-10.3857
▁ᎠᏓᏪᎵᎩᏍᎬ	-10.3857
▁ᎠᏰᏙᎳᏛ	-10.3857
▁ᎢᏨᏰᎳᏗᏙᎲ	-10.3857
▁ᎤᏬᏯᏁᏒ	-10.3857
▁ᎥᏓᎷᎶᏗ	-10.3857
▁ᏂᏚᎾᏁᎶᏛᎾ	-10.3857
▁ᏂᏚᎾᏓᏪᏎᎸᎩ	-10.3857
▁ᏂᏦᎵᎬᎾ	-10.3857
▁ᏅᏛᏆᏓᎴᏅᎯ	-10.3857
▁ᏓᏂᏄᏙᎬᎢ	-10.3857
▁ᏓᏓᏁᎳᏗᏒ	-10.3857
▁ᏕᎦᎸᏫᏍᏓᏁᎸ	-10.3857
▁ᏕᏥᏂᏴᏎᏍᏗ	-10.3857
▁ᏗᎧᏃᎩᏍᏙᏗ	-10.3857
▁ᏗᎾᏂᏏᎲᏍᎩ	-10.3857
▁ᏗᏂᎭᏄᎸᎯ	-10.3857
▁ᏧᎦᎾᏮ	-10.3857
▁ᏫᏲᏪᎳᏏ	-10.3857
ᎵᏍᏓᏴᎲᏍᎨᎢ	-10.3857
▁ᎠᏂᎦᏔᎾᎢ	-10.3857
▁ᎢᏳᏓᎨᏛ	-10.3857
▁ᎧᏅᏑᎸ	-10.3857
▁ᏓᏓᎶᏂ	-10.3857
▁ᏕᏅᏙᎥ	-10.3857
▁ᏚᎿᏍᏕᏢ	-10.3857
▁ᏚᏄᏩᎥ	-10.3857
▁ᏣᎦᏑᎲᎢ	-10.3857
▁ᎡᏙᏙᏱ	-10.3857
▁ᎤᎾᎵᏖᎸᏅ	-10.3857
▁ᎾᏂᏍᎦᏅᎾ	-10.3857
▁ᏑᏕᏘᏴᏛ	-10.3857
▁ᎤᏓᏙᎵᏣᏘ	-10.3857
▁ᎠᏄᎯᏍᏗᏍᎬ	-10.3857
▁ᏗᏕᏲᎲᏍᎩ	-10.3857
▁ᎠᏂᏙᎾᎡ	-10.3857
▁ᎢᎨᏣᏛᏁᏗ	-10.3857
▁ᎾᏂᏪᏍᎬᎢ	-10.3857
▁ᏣᏓᏲᏁᎸᎩ	-10.3857
▁ᎨᎴᏏᏱ	-10.3857
▁ᏂᏥᏪᏍᎪᎢ	-10.3857
▁ᏄᎾᏓᎡᏍᏗ	-10.3857
▁ᎠᏁᏙᎭ	-10.3857
▁ᏙᏛᎾᎴᏂ	-10.3857
▁ᏫᏥᏲᎵᎦ	-10.3857
ᏅᏓᏗᏍᏙᏗ	-10.3857
▁ᎢᏨᏯᏅᏓᏗᏍ	-10.3857
▁ᎤᏔᏲᎴ	-10.3857
▁ᏗᏄᎪᏗᏍᎩ	-10.3857
▁ᏕᏣᏓᏂᎸᏨ	-10.3857
▁ᏂᎦᎵᏍᏗᏍᎨᏍᏗ	-10.3857
▁ᎾᎩᏪᏒᎩ	-10.3857
ᏓᏂᎸᎬᎾ	-10.3857
ᏓᎦᎶᏐᏂ	-10.3857
▁ᎤᏪᏐᏅᏴ	-10.3857
▁ᎣᎦᏚᎵᎭ	-10.3857
▁ᏳᏃᎵᏤ	-10.3857
▁ᎠᏓᏰᎨᏍᏗ	-10.3857
▁ᏓᏓᏛᏂ	-10.3857
▁ᎠᏂᎸᏉᏗᏍᎨ	-10.3857
▁ᏗᎨᎫᎪᏓᏁᏗ	-10.3857
▁ᎢᏨᏃᎮᎮᎸ	-10.3857
▁ᎠᏁᎵᏍᎬᎩ	-10.3857
▁ᏚᏛᏛᏁ	-10.3858
▁ᎤᏗᏛᎮ	-10.3858
▁ᎦᏰᏥᏐᏢ	-10.3858
▁ᎤᎾᏛᎦᏁᎢ	-10.3858
ᏂᏍᏆᏂᎪᏍᎨ	-10.3858
▁ᎨᏥᏅᏒᎯ	-10.3858
ᏛᏅᎢᏍᏔᏅᎯ	-10.3858
▁ᎤᏢᏉᏗ	-10.3858
▁ᎦᎾᏄᎪᏥᎸ	-10.3858
▁ᏗᏆᎳᏏᏕᏂ	-10.3858
▁ᎤᎬᏩᎳ	-10.3858
ᎵᏍᎦᏍᏙᏙ	-10.3859
▁ᏌᏯᏂ	-10.3859
▁ᎤᏗᏗᏢ	-10.3859
▁ᎤᎵᏠᏯᏍᏕᏍᏗ	-10.3859
▁ᏧᏚᎪ	-10.386
ᏙᎴᎰᏎ	-10.386
▁ᏥᏍᎪᏴ	-10.386
▁ᏣᏁᎮᎢ	-10.386
ᏗᎦᎴᏲᏨᎯ	-10.386
▁ᎢᏥᎨᏴ	-10.3861
▁ᎤᏲᏍᏛᏉ	-10.3861
▁ᏗᏓᏂᏐᏗᏱ	-10.3861
▁ᎤᏄᏬᏍᏕᏍᏗ	-10.3861
▁ᎠᎩᏍᏛᏗᏍᎬ	-10.3861
▁ᏥᏂᎨᎬᏁ	-10.3861
▁ᏫᏥᎷᏨᎭ	-10.3861
ᏥᎶᏄᎡ	-10.3861
▁ᎠᏐᏴ	-10.3861
▁ᎤᏖᎸ	-10.3862
ᏜᏏᏛᎡᎲᎾ	-10.3862
▁ᏚᏂᏲᎱᏒ	-10.3862
▁ᎦᏃᏙᏗᏱ	-10.3862
▁ᏗᏣᎳᏏᏕᏂ	-10.3863
▁ᏧᎾᎳᏏᏕᏂ	-10.3863
▁ᎠᎩᎩᎬ	-10.3865
▁ᎢᏨᏲᏪᎳᏁᎭ	-10.3865
▁ᎠᎾᏛᎩᏍᎬ	-10.3865
▁ᏄᏪᎲᎾ	-10.3866
▁ᎠᏓᏲᏁᎮᏍᏗ	-10.3866
▁ᎤᏰᎸᎭ	-10.3866
▁ᏱᏂᎬᏁᎭ	-10.3867
▁ᎡᏣᏙᎵᎩ	-10.3868
▁ᎤᎴᏅᎩ	-10.3868
ᏖᎸᎲᏍ	-10.3868
▁ᏧᏁᎵᏁ	-10.3868
▁ᏗᎨᏥᎾᏝᎢ	-10.3869
ᎵᏍᏓᏁᎵᏕᎬ	-10.3869
▁ᏓᎦᏛᏁᎵ	-10.3869
ᏕᏯᏙᏔᏅᎩ	-10.3871
▁ᎦᏁᎲᎩ	-10.3871
ᏂᏧᏈᏍᏗ	-10.3872
▁ᏧᏂᎧᎿᏩᏛᏍᏗ	-10.3873
ᏠᎠᏒ	-10.3873
ᏍᏗᏰᏗᎭ	-10.3874
ᎾᏓᏂᎸᏨ	-10.3875
▁ᏅᏓᏳᏅᏏᏛ	-10.3875
▁ᎡᏣᎸᏉᏗᏳ	-10.3875
▁ᏂᏣᎵᏍᏔᏅ	-10.3876
▁ᎠᎾᏓᏙᎵᏍᏗᏍᎬ	-10.3876
▁ᏗᎩᎸᏫᏍᏓᏁᏗᏱ	-10.3877
▁ᎢᏣᏚᎵᏍᎨᏍᏗ	-10.3877
▁ᎣᏩᏒ	-10.3878
▁ᏚᏏᏔᏛ	-10.3879
▁ᎤᎾᏓᏑᏰᏛ	-10.388
▁ᎬᏬᎯᏳᏅᎩ	-10.3881
▁ᎤᏍᎦᏤ	-10.3882
▁ᎠᎾᎵᏍᏓᏴᏗᏍ	-10.3885
ᏔᏲᏎᎮ	-10.3885
▁ᏱᏂᏣᏛᏁ	-10.3886
▁ᏦᏓᎸ	-10.3886
▁ᎠᏥᏰᎯ	-10.3887
▁ᎠᎩᏅᏏᏙᎯ	-10.3887
▁ᎢᎩᏅᏟ	-10.389
▁ᎤᎦᏔᏔᏅᎯ	-10.389
ᏥᏍᎦᏨᎯ	-10.3891
▁ᎢᏕᎲ	-10.3891
▁ᏗᏕᎶᏆᏍ	-10.3894
ᏘᏃᎯᏍᏗᏱ	-10.3895
▁ᏓᏂᏁᎸᎢ	-10.3895
▁ᎤᎾᏓᏅᏎ	-10.3901
ᏤᏙᎭ	-10.3909
ᏧᏂᏲᎯᏍᏗᏱ	-10.3909
▁ᎤᏁᏅᏒᎩ	-10.3913
ᎦᏚᎵᏍᎬ	-10.3919
▁ᎨᏥᏛᏙᏗ	-10.3919
▁ᎠᎵᏥᏙᎲᏍᎬ	-10.3922
ᎾᏄᎪᏫᏍᎦ	-10.3922
▁ᎤᏓᏅᏍᏗᏱ	-10.3931
▁ᎣᏨᏗ	-10.3933
▁ᎤᎿᎸ	-10.3936
ᏔᎳᏬᎯᏍᏗ	-10.3948
▁ᎠᏓᎨᏗ	-10.3956
▁ᎠᏂᎪᏩᏘᏍᎬ	-10.3964
ᏓᏅᎡᎴ	-10.3967
ᎵᏍᏓᏴᎲᎦ	-10.3972
▁ᏗᏥᏲᎯ	-10.3992
▁ᏂᏨᏁᎲ	-10.4005
ᏬᏁᏔᏁ	-10.4009
▁ᎠᏂᏃᎮᏍᎬ	-10.4055
▁ᏫᎦᎾᏄᎪ	-10.4056
ᏥᎪᎵᏰ	-10.409
▁ᎠᏍᏆᏂᎪᏗᏍ	-10.4095
▁ᎢᏣᏓᏅᏖᏍᎬ	-10.4152
▁ᏍᎩᏍᏕᎸ	-10.4237
▁ᏂᎦᏪᏎ	-10.4314
ᏩᏔᏁ	-10.4356
ᏣᎧᏛ	-10.4376
ᎬᎪᏩᏛᏗ	-10.4447
ᎾᏚᎵᎭ	-10.448
ᏥᏁᎢᏍᏗᏍᎬ	-10.4495
▁ᏂᏥᏍᎦᏅ	-10.4513
ᎶᎨᏒᎢ	-10.4515
ᎠᎩᏏᏙᎯ	-10.4525
▁ᏕᎦᏄᎪᏫᏍ	-10.4561
ᏏᏐᏗ	-10.4584
▁ᎬᏩᎵᎪᏁ	-10.4639
ᏙᎳᏍ	-10.4707
▁ᎣᎩᏃᎮ	-10.4742
ᎪᎥᎯ	-10.4745
ᎾᎵᏍᎪᎸᏗ	-10.4759
▁ᏗᎬᏩᏁᎶ	-10.4814
ᏗᎧᏃ	-10.4914
▁ᎢᏣᏛᏁ	-10.4918
▁ᎡᎩᏍᏕᎸᏗ	-10.4952
ᏅᏩᏍᏗᏉ	-10.4954
ᏯᎵᎡᎵᏤᎭ	-10.4981
ᎿᏩᏗᏒ	-10.499
▁ᎬᏩᏂᎪᏩᏛᏗ	-10.5037
▁ᎠᏓᏙᎵᏍ	-10.5051
ᎵᎪᏁᎴ	-10.5103
ᏥᏯᏅᏗ	-10.5167
▁ᎤᏗᎦᎵᏍᏙ	-10.517
ᏛᏂᏗᏍᏗ	-10.518
▁ᎬᏬᎵ	-10.5187
ᏓᏁᎶ	-10.5215
ᎩᏲᎱᎯᏍᏗ	-10.5276
ᎰᎲᏍᏗ	-10.5325
ᎵᎮᎵᎪ	-10.5337
ᎤᏁᎢᏍᏔᏅ	-10.5345
ᎦᎸᎲᎩ	-10.5386
▁ᏭᏴᎴ	-10.5388
▁ᏭᎶᏎ	-10.539
▁ᎨᏥᏃᎮᏍ	-10.542
ᎬᏫᏳᏌᏕ	-10.5427
▁ᎠᏂᏯᏫᏍ	-10.543
ᏓᏅᏬᏗ	-10.5431
ᎦᏌᏯᏍᏙᏗ	-10.5458
▁ᎤᎾᏠᎾᏍ	-10.5471
ᏔᎴᏒ	-10.548
▁ᎤᏲᎱᎯᏍᏗ	-10.5486
ᎸᏉᏔᏁ	-10.5508
ᏟᏏᏍᎪ	-10.5511
▁ᎢᏰᏨᏁ	-10.5516
ᏍᏓᏩᏚᎦ	-10.5518
ᎦᎵᏍᏙᏗᏍᎬᎩ	-10.5522
▁ᏯᏛᏅ	-10.5522
ᎦᏥᏯᏠᎢᏍᏓᏁ	-10.5524
▁ᎠᏓᏪᎵᎩᏍᎩ	-10.5524
▁ᎠᏟᎶᎥ	-10.5524
▁ᎢᏯᏆᎵᏍᏙᏗᏱ	-10.5524
▁ᎤᏂᎵᏅᏨᎯ	-10.5524
▁ᎤᏤᎷᎯᏒᎩ	-10.5524
▁ᎥᎦᏥᎪᎥᎩ	-10.5524
▁ᎥᏆᎸᎢᏛ	-10.5524
▁ᎦᎵᏥᏙᎲᏍ	-10.5524
▁ᎪᎢᏳᎲᏍᎦ	-10.5524
▁ᎭᎵᎮᎵ	-10.5524
▁ᎯᏯᏛᎥᎦ	-10.5524
▁ᎰᏪᎸᎦ	-10.5524
▁ᎴᎣᏗᏏᏯ	-10.5524
▁ᏂᎪᎯᏳᎲᏍᎬᎾ	-10.5524
▁ᏂᏕᏣᏛᏁᎮᏍᏗ	-10.5524
▁ᏂᏣᏓᎨᏳᏒ	-10.5524
▁ᏄᎾᏛᏁᎵᏙᎸ	-10.5524
▁ᏄᏓᏑᏴᎾ	-10.5524
▁ᏅᏃᎱᎶᏗ	-10.5524
▁ᏅᏓᎬᏩᏍᏓᏩᏛᏛ	-10.5524
▁ᏅᏧᎵᏍᏙᏔᏁ	-10.5524
▁ᏓᎾᏓᏅᏖᏍᎬ	-10.5524
▁ᏗᎧᎿᏩᏕᎩ	-10.5524
▁ᏗᎫᎪᏗᏍᎩ	-10.5524
▁ᏗᏂᎬᏓᎨᏂ	-10.5524
▁ᏗᏂᏅᏌᏗ	-10.5524
▁ᏗᏂᏲᎤᎵ	-10.5524
▁ᏙᏛᎾᏓᏡᏔᏂ	-10.5524
▁ᏚᏟᎶᏍᏓᏁᎸᎩ	-10.5524
▁ᏛᏓᎴᎲᏍᎬᎩ	-10.5524
▁ᏦᏍᏓᏓᏅᏟ	-10.5524
▁ᏧᎸᏫᏍᏓᏁᎸᎯ	-10.5524
▁ᏧᏂᏦᏯᏍᏗ	-10.5524
▁ᎠᎾᏛᎬᎦ	-10.5524
▁ᏂᏑᏪᏎᎴᎢ	-10.5524
▁ᏓᏇᎪᏔᏅ	-10.5524
▁ᏕᎦᎳᏅᏛ	-10.5524
▁ᏙᏧᏁᏅᏒ	-10.5524
▁ᏥᏂᎦᎵᏍᏗᎭ	-10.5524
▁ᏧᏭᎪᏓᏁ	-10.5524
ᏄᏩᏂᏌᏅ	-10.5524
▁ᎢᎳᎩᏳ	-10.5524
▁ᎤᎾᏙᎴᎰᎯᏍᏙᏗ	-10.5524
▁ᎤᎾᏢᏉᏗ	-10.5524
▁ᏂᎬᏠᏍᎬᎾ	-10.5524
▁ᏗᏥᏲᎱᏒᎯ	-10.5524
▁ᎬᏭᎯᏍᏗᏍ	-10.5524
▁ᏂᏥᎪᎸᎾ	-10.5524
ᏂᏐᏢᎢᏍᏗᏍ	-10.5524
▁ᎢᏣᎦᏔᏅᏎ	-10.5524
▁ᎤᎵᏬᏨᎯ	-10.5524
▁ᏕᎦᏃᏣᎸ	-10.5524
▁ᏕᏣᏁᎶᏛ	-10.5524
▁ᏕᏦᏕᏍᏗ	-10.5524
▁ᏗᎪᏪᎶᏗ	-10.5524
▁ᏗᏥᎧᎿᏩᏛᏍᏗᏱ	-10.5524
▁ᎢᏨᏯᎵᏥᏙᏁᎸ	-10.5524
▁ᏥᏓᎩᎸᏫᏍᏓᏁᎭ	-10.5524
ᏩᎾᎦᎶ	-10.5524
▁ᎤᏘᏴᎯ	-10.5524
▁ᎠᏍᏆᎸᎲᎭ	-10.5524
▁ᎣᎨᏙᎸ	-10.5524
▁ᎤᏚᎸᎲ	-10.5524
▁ᎠᎹᏳᎶᏗ	-10.5524
▁ᏱᏄᎵᏍᏔᏅ	-10.5524
▁ᎠᎩᎵᏲᎬ	-10.5524
▁ᏅᏓᏨᏁᎵ	-10.5524
▁ᎪᎯᏳᎲᏍᎨᏍᏗ	-10.5524
▁ᎤᎵᏍᏆᏕ	-10.5524
▁ᎨᏦᎯᏳ	-10.5524
▁ᏥᏩᎾᎦ	-10.5524
▁ᎤᏂᎬᎥᏍᎬ	-10.5524
▁ᏗᎧᏃᏗᏱ	-10.5524
▁ᏚᏅᏩᏁ	-10.5524
ᎦᏌᏬᎢ	-10.5524
▁ᏓᏤᎵᏍᏛ	-10.5524
▁ᎡᎶᏗᏏ	-10.5524
▁ᎡᏈᎳ	-10.5524
▁ᎤᎾᏁᎶᏔᏅ	-10.5524
▁ᎤᏁᎷᏁᎢ	-10.5524
▁ᎤᎾᏓᏑᏴ	-10.5524
▁ᏚᏘᏅᏎ	-10.5524
ᎪᏩᏘᏍᎬᎾ	-10.5524
▁ᏗᏣᎧᏅᎦ	-10.5524
▁ᎤᎾᎵᏏᎾᎯᏍᏗ	-10.5524
▁ᎤᏃᎯᏳᎯ	-10.5524
ᏗᏂᏍᎪᏂᎯ	-10.5524
▁ᎤᏁᎳᏫᏎᎸ	-10.5524
▁ᎤᎬᎥᏍᎩ	-10.5524
▁ᏦᎩᎾᏫ	-10.5524
▁ᎠᏂᏈᎷ	-10.5524
▁ᎠᏣᏪᏐᎸᏍᏙᏗᏱ	-10.5524
▁ᎤᏗᎴᎩ	-10.5524
ᏘᏍᏓᏁᎯ	-10.5524
▁ᎰᏌᎾ	-10.5524
▁ᏭᏕᎵᎬ	-10.5524
▁ᏅᏓᎦᏪ	-10.5524
▁ᎤᏌᎳᏓᏅ	-10.5524
▁ᎤᏓᏑᏱ	-10.5524
▁ᎠᏂᎶᎻ	-10.5524
▁ᎬᏲᏎᎭ	-10.5524
▁ᎾᎪᏔᏅᎾ	-10.5524
▁ᎨᎻᎵ	-10.5524
▁ᏗᏥᎨᏫ	-10.5524
ᎵᏂᎪᎯᏍᏙᏗᏱ	-10.5524
▁ᎢᎪᏂᏯ	-10.5524
ᏍᏚᎢᎡᎸ	-10.5524
▁ᏂᎦᎵᏍᏔᏂᏙᎲ	-10.5524
ᏐᏢᎢᏍᏔ	-10.5524
ᏚᎸᏅᎥᏍᎬ	-10.5525
▁ᎠᏐᏢᎢᏍᏗᏍᎬ	-10.5525
▁ᎢᏣᎴᏂᏙᎲ	-10.5525
▁ᎠᏚᎢᏍᏔᏅ	-10.5525
▁ᏚᎾᎧᏛ	-10.5525
▁ᎦᎾᏄᎪᏫᏍᎪᎢ	-10.5525
ᏥᎳᏫᏎᎲ	-10.5525
▁ᎡᏗᏂᏱ	-10.5525
▁ᎢᏥᏁᎫ	-10.5525
▁ᏕᎪᏢᏒ	-10.5525
▁ᎠᎵᎮᎵᏤᏗ	-10.5525
▁ᏚᏂᎧᎵ	-10.5525
▁ᎠᏂᎪᎲᎭ	-10.5525
▁ᏂᎦᎵᏍᏗᏍᎬ	-10.5525
▁ᏕᏣᏂᏴ	-10.5525
▁ᎠᎫᎢᏍᏗᏍ	-10.5525
▁ᎤᏃᎯᏳᏁ	-10.5526
▁ᏚᏕᏲᏁ	-10.5526
▁ᏗᏐᏴ	-10.5526
▁ᏕᎬᏩᏘᏃᎮᎴ	-10.5526
▁ᏚᏂᎳᏫᏨ	-10.5526
▁ᎤᎵᏍᏗᏳ	-10.5526
▁ᏣᏓᏅᏛᎢ	-10.5526
▁ᎯᏄᎪᎢ	-10.5526
▁ᏳᏪᎭ	-10.5526
▁ᏂᏚᏂᏪᏎᎴ	-10.5526
▁ᏣᎢᏎᏍᏗ	-10.5527
▁ᎤᏏᏙᎵ	-10.5527
▁ᏂᏥᏍᎦᎢᎲᎾ	-10.5527
ᏓᏂᎸᎪᎢ	-10.5527
▁ᎠᎦᏔᎾᎢ	-10.5527
▁ᎤᏍᏗᎩᏳ	-10.5527
ᏅᎥᏏ	-10.5528
▁ᏧᎾᏓᎵᎢ	-10.5528
▁ᏤᏙᎲ	-10.5528
▁ᎤᏂᏰᎸᎭ	-10.5528
▁ᎢᏣᏙᎴᎰᎯᏍᏗᏱ	-10.5528
ᏂᏔᏲᎴ	-10.5528
ᏏᏏᏍᎩ	-10.5528
▁ᏗᎬᏩᏂᏰᎯ	-10.5529
▁ᏱᏄᏍᏕ	-10.5529
▁ᎢᏤᎵᎭ	-10.5529
▁ᎡᏥᎾᏰᏍᎨᏍᏗ	-10.5529
▁ᏥᏍᎦᎾ	-10.5529
▁ᏚᎾᎴᏁ	-10.5529
ᏑᎵᎪᎬᎾ	-10.553
▁ᎢᏯᏓᏅᏖᏗ	-10.553
▁ᎤᎾᏅᏗᏱ	-10.553
▁ᎢᏓᎵᎮᎵ	-10.553
▁ᎠᎾᏓᏙᎵᏍᏗᏍᎨ	-10.5531
▁ᎬᏬᎯᏳᎲᏍᎩ	-10.5531
▁ᎨᎦᎵᏥᏙᏁ	-10.5531
▁ᏓᏟᎶᏍᏗ	-10.5532
▁ᎢᏰᏨᏁᎸᎯ	-10.5532
▁ᏍᏗᏫ	-10.5533
ᏥᏰᎲᎾ	-10.5533
▁ᎢᏳᏩᏁᎯ	-10.5533
▁ᏏᏐᎢ	-10.5535
▁ᎢᏳᎾᎵᏍᏔᏅ	-10.5536
ᏛᏅᎢᏍᏔᏁ	-10.5536
▁ᎢᏣᏓᏅᏟ	-10.5536
▁ᎧᏃᎮᏍᎬᎩ	-10.5536
▁ᏅᏩᏙᎯ	-10.5536
ᏫᏂᏗᏢ	-10.5537
▁ᎤᏂᏃᏁᏗᏱ	-10.5537
▁ᏂᏣᏛᏁᎭ	-10.5537
▁ᎢᎬᏛᏁᏗ	-10.5537
▁ᏥᏚᎸᏫᏍᏓᏁᎭ	-10.5538
▁ᏭᏂᏴᎸ	-10.5538
▁ᏓᏥᎷᏥ	-10.5539
ᎫᏴᎡᎵ	-10.5539
ᎿᏕᎦ	-10.5539
ᏓᏂᎧᎿᏩᏕ	-10.5541
ᏚᎵᏥᏙᏁᎴ	-10.5541
▁ᎡᏣᎫᏴᎡᏗ	-10.5542
ᏗᎦᏛᎯ	-10.5542
▁ᎾᎬᏁᎴ	-10.5543
▁ᎠᏂᎩᏏ	-10.5543
ᏐᏢᎢᏍᏙᏗᏱ	-10.5545
ᏓᏨᏯᏍᏗ	-10.5546
▁ᎠᏍᏆᎸ	-10.5546
ᎵᎷᎬ	-10.5547
ᏗᏂᎦᏘᏯ	-10.555
▁ᏗᏣᏓᎴᏅ	-10.5553
▁ᎤᏓᏴᏍᏗ	-10.5558
ᎵᏍᏓᏴᎾᏁ	-10.556
▁ᎦᎨᏥᏁ	-10.5561
▁ᎠᏓᏲᏁ	-10.5565
ᎵᏍᏓᏴᏂ	-10.5567
▁ᎨᎪᏎ	-10.5569
ᏥᎩᎵᏲᎦ	-10.5573
▁ᎢᏣᏓᏅᏓᏗᏍ	-10.5579
▁ᏗᎦᎪᏙᏗ	-10.558
▁ᏚᏄᎪᏔ	-10.5581
ᎳᏍᎪᎯ	-10.5582
▁ᎾᏛᏁᎰ	-10.5582
▁ᎤᎬᏩᎸ	-10.5584
ᏗᏫᏎᎸ	-10.5589
▁ᎦᎢᏒ	-10.5591
ᏂᏴᏛ	-10.5594
ᏑᏰᏍ	-10.5611
▁ᎤᏰᎸᏒ	-10.5621
ᏂᎦᎥ	-10.564
ᎦᏢᏆ	-10.5689
ᎩᎾᎵᎢ	-10.5716
▁ᏟᏗ	-10.575
▁ᎤᏂᎩᏎ	-10.5768
ᎪᎲᏍᏙᏗ	-10.577
ᏓᎴᎾᏍᏗ	-10.5782
▁ᏗᎩᎸᏫᏍᏓᏁ	-10.5834
ᎪᏩᏘᏍᎨ	-10.5874
ᏂᎦᏪ	-10.5888
ᎦᏘᏏᏗᏢ	-10.5928
ᎦᎸᎢᏛ	-10.5931
▁ᎠᎦᎵᏍᎪᎸᏓᏁᎸ	-10.5936
▁ᎤᎵᏠᏯᏍ	-10.6022
ᏣᏓᏅᏖᏍᏗ	-10.6117
ᏍᎦᏅᎪᎢ	-10.6168
▁ᏗᏅᏂ	-10.6171
▁ᎢᏥᏍᎦᏅᏨ	-10.6191
▁ᎤᏗᎦᎵᏍᏙᏗᏍᎨ	-10.6225
▁ᎤᎾᏚᎸ	-10.6257
▁ᎰᎯᏳᎲᏍ	-10.6273
ᏓᏙᎵᏍᏓᏏ	-10.6307
ᎵᏍᎪᎸᏗᏍᎬ	-10.6357
▁ᏥᏄᎵᏍᏔ	-10.6478
ᎦᎷᎩ	-10.6478
ᎩᎵᏲᎢᏍᏙᏗ	-10.654
ᎾᏛᏁᎴ	-10.6555
▁ᏚᏄᎪᏫᏒ	-10.6579
▁ᎠᎩᏍᏆᏂᎪ	-10.6586
ᎦᏄᎪᏫᏍᎦ	-10.6589
ᏴᏔᏂᎸ	-10.6618
▁ᎤᎶᎨᏒ	-10.6706
ᏍᏆᏓᏱ	-10.6805
ᏤᎵᎯᏍ	-10.6819
ᎵᏁᏌ	-10.6882
ᏣᏛᎦᏁᎸ	-10.6888
ᏃᏟᏍ	-10.6925
ᏣᏛᏅᎢᏍᏓᏁ	-10.694
ᏣᏛᎪᏗ	-10.6946
▁ᎣᏥᏬᏂ	-10.718
▁ᏥᎦᏘᏏ	-10.7202
ᎦᏅᏗᏱ	-10.7262
ᏪᎵᏎᎢ	-10.7291
▁ᎯᎦᏘᏏ	-10.7304
▁ᏓᎧᎿᏩᏗ	-10.7324
ᎪᎯᏳᏗ	-10.7342
▁ᏭᏂᎶᏎ	-10.7388
ᏎᎪᎩᏍᏗ	-10.7452
ᎵᏍᏚᎶ	-10.7466
ᏚᏓᏂᎸᏤ	-10.7478
ᎦᎶᎨᏒ	-10.748
▁ᎤᏬᏚᎯ	-10.7505
▁ᎤᎵᏂᎩᏗ	-10.7505
ᏩᏂᎦᎸ	-10.7505
▁ᏂᏓᏕᏘᏴᎯᏒ	-10.7524
ᏣᎸᏫᏍᏓᏁᎮᏍᏗ	-10.7524
ᏲᎱᏏᏕᎾ	-10.7524
▁ᎠᏛᏂᏗᏍᏙᏗ	-10.7524
▁ᎠᏤᏍᏙᎩᎯ	-10.7524
▁ᎢᏣᏛᏅᎢᏍᏙᎢ	-10.7524
▁ᎢᏥᎩᎵᏲᎢᏍᏗ	-10.7524
▁ᎢᏯᏂᏪᏍᎩ	-10.7524
▁ᎣᎦᏓᏅᏔᏩᏕ	-10.7524
▁ᎤᏂᎧᎵᏤ	-10.7524
▁ᎤᏓᏙᎵᏍᏓᏁᎴᎢ	-10.7524
▁ᎦᎵᏆᏍᎪᎯ	-10.7524
▁ᎾᎵᏍᏓᏴᎲᏍᎬᎾ	-10.7524
▁ᎾᏍᏆᎵᏍᎬᎾ	-10.7524
▁ᏂᎦᏗᎹᏏ	-10.7524
▁ᏂᏍᏋᏁ	-10.7524
▁ᏅᏓᎦᏥᏴᏁᎵ	-10.7524
▁ᏅᏧᏓᎴᏅᎲᎾ	-10.7524
▁ᏇᏣᏱᏗ	-10.7524
▁ᏓᏂᎶᏄᎮᏍ	-10.7524
▁ᏓᏓᏂᏌᎲ	-10.7524
▁ᏓᏲᏣᏛᏁᎵ	-10.7524
▁ᏕᏥᏁᏤᎮᏍᏗ	-10.7524
▁ᏗᏂᎧᎿᏩᏕᎩ	-10.7524
▁ᏙᎩᎸᏫᏍᏓᏁᎲ	-10.7524
▁ᏚᎵᏍᏚᎢᏎᎢ	-10.7524
▁ᏚᏂᏏᏂᏙᎸ	-10.7524
▁ᏥᏂᏥᏪᎭ	-10.7524
▁ᏥᏕᏣᎪᎲᎩ	-10.7524
▁ᏥᏨᏰᎳᏗᏙᎲᎩ	-10.7524
▁ᏩᎵᏰᎢᎶᎯᎭ	-10.7524
▁ᏫᎨᏥᏯᏅᏛ	-10.7524
▁ᏫᏂᎦᎵᏍᏙᏓ	-10.7524
▁ᏬᎩᎶᏒᎩ	-10.7524
▁ᏬᎩᏅᏍᏔᏅᎩ	-10.7524
ᎶᏄᎮᏍᎩ	-10.7524
ᏕᏋᎯᏍ	-10.7524
▁ᎠᎵᎮᎵᎬ	-10.7524
▁ᎠᏓᎦᎵᏍᏓᏗᏍᎩ	-10.7524
▁ᎢᏳᎵᏍᏔᏂᏓᏍᏗ	-10.7524
▁ᎤᏚᏓᎴᏛ	-10.7524
▁ᎯᏍᎦᏍᎪᎯ	-10.7524
▁ᏂᏗᎨᏥᎾᏝᎥᎾ	-10.7524
▁ᏅᏓᏣᏓᎴᏅᎯ	-10.7524
▁ᏑᏓᎳᏍᎪᎯ	-10.7524
▁ᏗᎬᏩᎩᏨᏗ	-10.7524
▁ᏗᎾᏓᎾᏌᎲᏍᎩ	-10.7524
▁ᏗᏓᎴᏅᏗᏍᎩ	-10.7524
▁ᏚᎦᏒᏍᏛ	-10.7524
▁ᏚᏍᏆᎸᏔᏁ	-10.7524
ᏍᎦᏅᏨᎾ	-10.7524
▁ᎭᏰᎳᏍᏗ	-10.7524
▁ᏗᎦᏘᎴᎩ	-10.7524
▁ᏗᎾᏓᏲᏁᎯ	-10.7524
▁ᏗᏍᎩᎧᏁᎸᎯ	-10.7524
▁ᏧᏅᎨᏫ	-10.7524
ᏓᏄᏴᏛᎾ	-10.7524
▁ᎠᏂᏰᎪᎩ	-10.7524
▁ᎤᎦᏌᏯᏍᏗᏕᎩ	-10.7524
▁ᎤᏬᏪᎳᏅᎩ	-10.7524
▁ᎤᏬᏪᎳᏅᎯ	-10.7524
▁ᏓᏗᎶᏂ	-10.7524
▁ᏣᏃᏍᎩᏒᎩ	-10.7524
▁ᏧᏄᏩᎢ	-10.7524
▁ᏱᏣᏞᎨᏍᏗ	-10.7524
▁ᎠᎩᏍᏓᏩᏕᎨᏍᏗ	-10.7524
▁ᎤᎿᎷᏎ	-10.7524
▁ᏕᎭᏓᏅᎡᎮᏍᏗ	-10.7524
▁ᏥᎦᎷᎯᏍᏗᎭ	-10.7524
▁ᏧᎾᎩᎸᏗ	-10.7524
▁ᏄᏓᏓᎸᎾ	-10.7524
▁ᏕᏥᏃᎩᏍᎨᏍᏗ	-10.7524
ᎬᎭᎷᏯᏍ	-10.7524
ᏍᏓᏩᏕᏒᎭ	-10.7524
▁ᎤᏁᎷᎬᎩ	-10.7524
▁ᎭᏓᏅᏓᏓ	-10.7524
▁ᏗᎪᏪᎵᏍᎩ	-10.7524
▁ᎤᏂᏃᎮᏗᏱ	-10.7524
ᏍᏆᏃᏴᎪ	-10.7524
ᏟᎶᎡᎸ	-10.7524
▁ᎠᏆᎵᏥᏙᏗᏱ	-10.7524
▁ᎤᏛᏛᏅᎩ	-10.7524
▁ᏂᏨᏴᏁᎭ	-10.7524
▁ᏱᏂᎦᏛᏁᎭ	-10.7524
▁ᎨᏥᎦᏘᏗᏍᏗ	-10.7524
▁ᎭᎴᎲᎦ	-10.7524
▁ᏅᏓᏳᏄᎪᏨᎯ	-10.7524
▁ᏫᏚᏂᏯᏅᎲ	-10.7524
▁ᎠᏳᎾᎦ	-10.7524
▁ᎤᎾᏓᏙᎵᏍᏔᏅ	-10.7524
▁ᏁᏓᏂᎵ	-10.7524
▁ᏗᏣᎴᎲᎦ	-10.7524
▁ᎤᏁᎢᎸᏗ	-10.7524
▁ᏚᏌᎳᏓᏅ	-10.7524
▁ᎬᏩᎷᏤᎮ	-10.7524
▁ᏓᏰᏥᏁᎵ	-10.7524
▁ᏧᏂᏴᏍᏕᏍᎩ	-10.7524
ᎦᏕᎣᏍᎦ	-10.7524
▁ᎠᏥᏅᏩᏅᎯ	-10.7524
▁ᎢᏣᏛᎩᏍᎨᏍᏗ	-10.7524
▁ᎤᏩᎢᏎᎸᎯ	-10.7524
▁ᏥᎩᎵᏲᎬ	-10.7524
▁ᏩᏚᎵᏏ	-10.7524
▁ᎠᏗᏔᏍᎨᏍᏗ	-10.7524
▁ᎤᏁᏉᎢᏍᏗᏱ	-10.7524
▁ᎯᏲᏍᏗᏍᎩ	-10.7524
ᏃᎮᎮᎴ	-10.7524
▁ᎠᎾᎦᎵᏍᎩ	-10.7524
ᏓᏁᏣᏍᏚ	-10.7524
▁ᎡᏗᎨᏳ	-10.7524
▁ᎤᏂᏲᎢᏎᎸᎯ	-10.7524
▁ᏂᏪᏍᎬᎢ	-10.7524
ᎷᏆᏗᏅ	-10.7524
▁ᎢᏣᏛᎪᏗᏱ	-10.7524
▁ᎮᏯᏔ	-10.7524
▁ᏲᏨᏗᏍᎨ	-10.7524
▁ᎢᏯᏅᏁᎯ	-10.7524
▁ᎤᎾᏙᎴᎰᎯᏍᏗᏱ	-10.7524
ᏗᎨᏥᎤᏍᏕᏎᎸ	-10.7524
▁ᎤᏮᏙᏗᏱ	-10.7524
▁ᏅᎩᏦᏁ	-10.7524
▁ᎢᏣᎵᏍᏓᏴᏗᏱ	-10.7524
▁ᏕᎤᏙᏍᏛ	-10.7524
▁ᎤᏓᏑᏴ	-10.7524
ᎨᏳᏅᎾ	-10.7524
▁ᎡᎭᎦᏔ	-10.7524
▁ᎤᎾᏠᏤ	-10.7524
▁ᎤᎾᏚᎵᏍᎩ	-10.7524
▁ᏗᏥᎦᏙᎵ	-10.7524
ᏐᏢᏗᎭ	-10.7524
ᏓᏅᎡᎮᏍᏗ	-10.7524
ᏰᏲᎲᏍᎩ	-10.7524
▁ᏍᎩᏲᎮᏍᏗ	-10.7524
▁ᏗᏆᏓᎴᏅ	-10.7524
ᎦᏖᏃᎭ	-10.7524
▁ᏕᏥᏙᎨᏍᏗ	-10.7524
▁ᏚᏅᏍᏓᏕᎴ	-10.7524
▁ᎦᏬᏂᏍᎨ	-10.7524
▁ᏱᏚᏳᎪ	-10.7525
▁ᎤᏙᏢᏒ	-10.7525
▁ᏭᏯᏅᎮ	-10.7525
ᏍᏆᎸᎮ	-10.7525
▁ᏂᏨᏴᏁᎸ	-10.7525
▁ᏭᏴᏍᏗᏱ	-10.7525
ᏯᏙᎮᎮ	-10.7525
ᏂᎾᏗᏅᏎ	-10.7525
▁ᎯᏍᎩᏍᎪᎯ	-10.7525
▁ᏂᎨᎬᏁᎸ	-10.7525
▁ᏗᎵᏒᏍᏗ	-10.7525
ᏔᏲᎯᎰ	-10.7525
▁ᎬᏩᎪᎮᎢ	-10.7525
▁ᎦᎷᎶ	-10.7525
▁ᎠᎨᏲᏅ	-10.7525
ᎷᎯᏍᏓᏁ	-10.7525
▁ᎠᏂᎦᏘᏯ	-10.7525
ᏔᏪᏙ	-10.7526
▁ᏗᎪᏏᏏᏍᎩ	-10.7526
▁ᎠᏂᏃᎮᏍᎨ	-10.7526
▁ᏗᏟᏍᏗ	-10.7526
ᎦᏙᎥᏎ	-10.7526
▁ᎬᏩᏴᎸᎯ	-10.7526
▁ᏅᏧᏪᏎ	-10.7526
▁ᎬᏩᏍᏕᎸᎯᏙ	-10.7526
ᏣᎦᏌᏯᏍᏗᏕᎩ	-10.7526
ᏐᏢᎢᏍᏗᎭ	-10.7526
▁ᏱᏕᏣ	-10.7526
▁ᎣᏤᎯ	-10.7526
▁ᎠᏍᏙᏍᎩ	-10.7526
▁ᎤᏂᏚᎲᎢ	-10.7526
▁ᏗᏨᏲᎯᏎᏗᏱ	-10.7526
▁ᎠᏛᎩᏍᎨᏍᏗ	-10.7526
▁ᏚᏂᎧᏁᎢ	-10.7526
▁ᎣᏣᎵᎡᎵᏤ	-10.7527
ᏂᏬᏂᎭ	-10.7527
▁ᎠᎪᏩᏘᏍᎬ	-10.7527
▁ᎣᏣᎵᏥᏙᎲᏍ	-10.7527
▁ᏑᏓᎨ	-10.7527
▁ᎪᏪᎴ	-10.7527
▁ᎣᎪᎯᏳ	-10.7527
▁ᏂᏥᏪᏍᎬ	-10.7527
▁ᏣᎫᎪᏓᏁᏗ	-10.7528
▁ᏚᏃᏪᎸ	-10.7528
ᏄᏁᎩᏴ	-10.7528
▁ᎢᏨᏃᏁᎭ	-10.7528
ᏛᏛᎲᏍᎨᏍᏗ	-10.7528
▁ᏓᏅᏩ	-10.7528
▁ᏄᏂᎪᎸ	-10.7529
▁ᎢᎨᏨᏁᏗ	-10.7529
▁ᎤᎾᎵᏃᎮᎴ	-10.7529
▁ᎤᎴᏫᏍ	-10.7529
▁ᏰᎵᎦᏯ	-10.753
ᏤᏬᎩ	-10.753
ᏓᏙᎵᏍᏔᏂ	-10.753
▁ᎢᏥᏍᎦᎾ	-10.753
ᏯᏫᏍᎨᏍᏗ	-10.7531
ᏓᏡᏗᎭ	-10.7531
▁ᎦᏂᎳ	-10.7531
ᏓᎾᏌᎲᏍ	-10.7531
▁ᎠᏂᎧᎸ	-10.7531
▁ᏧᎾᏚᎪᏓᏁ	-10.7531
▁ᏭᎪᎮ	-10.7531
▁ᏭᎾᎦᏔᎲᏍ	-10.7532
ᎿᎷᏒ	-10.7533
▁ᏥᏯᏛᎦᏁ	-10.7533
ᏧᏁᏍᎨᎮᎢ	-10.7533
▁ᎠᎾᎵᏍᎦᏍᏙᏗᏍ	-10.7534
ᏓᏑᏰᏍᏗ	-10.7534
▁ᎠᎩᎪᏁᎸ	-10.7535
ᏓᏂᎸᎨᏍᏗ	-10.7535
ᏚᏂᎳᏫᏦ	-10.7537
ᏢᏅᎥᏍᎩ	-10.7539
▁ᏖᏒ	-10.7539
ᏲᎦᏛᏅ	-10.7543
ᏪᏲᎲᏍᎩ	-10.7546
ᏁᏪᏎᎢ	-10.7546
ᏓᏅᎦᎸᎾ	-10.7547
ᎪᎵᏰᏍᎬᎢ	-10.7548
▁ᎤᏎᎵᏔᏅ	-10.7548
ᏍᏕᏙᎲ	-10.755
▁ᏧᏭᏓ	-10.7551
ᏇᎵᏎ	-10.7562
ᎪᏑᎴ	-10.7562
ᏯᏪᎢᏍ	-10.7569
ᏍᏓᎦᎸ	-10.7569
▁ᎤᎬᏩᎴ	-10.7571
▁ᎠᎩᏰᎸᏅ	-10.7573
ᏁᏉᎡᏗ	-10.7574
ᏍᎦᏅᎬ	-10.7574
ᎵᎬᏚ	-10.7574
▁ᎬᏉᏎ	-10.7578
▁ᎤᏂᏰᎸᏁ	-10.7579
▁ᏗᏘᏲ	-10.7581
ᏍᏚᏟᏍ	-10.7582
ᏓᎴᏂᏍᎬ	-10.7583
ᎦᎴᏅᏔ	-10.7584
▁ᏗᎦᏓᎨᏳᎯ	-10.7589
▁ᏂᎨᏥᏪᏎᎸ	-10.7591
▁ᏣᎦᏨᏍ	-10.7591
▁ᏥᏄᎾᎵᏍᏓᏁ	-10.7602
▁ᎬᏩᏍᏛᏗᏍ	-10.7603
ᏣᎵᏍᏗᎭ	-10.7628
ᎸᏫᏍᏓᏁᎴ	-10.7647
▁ᎠᏴᏓᏆᎶ	-10.7671
ᎵᎥᏂᎵ	-10.7684
ᏚᏂᎳᏫᏤ	-10.7763
ᎩᏂᏴᏗᏱ	-10.7849
ᏣᏚᎵᏍᎬ	-10.7862
ᏂᎬᎬᎢ	-10.7863
ᏣᎵᏍᏓᏴ	-10.7902
▁ᎠᎩᏁᏤ	-10.7909
▁ᎠᏲᏍᏗᏍ	-10.7943
▁ᏫᏓᏯᏂᏍ	-10.795
ᏲᏞᏒ	-10.7956
ᏛᏗᏕᎨ	-10.7968
ᏁᏟᏴᎡᏗ	-10.814
▁ᎠᏓᎪᎵᏰᏍ	-10.8145
▁ᎾᏥᎸᏉ	-10.8202
ᏢᏉᏙᏗ	-10.8243
ᏂᏨᏁᏍᏗ	-10.8254
ᎾᎾᏛᏁᎰ	-10.8347
▁ᎤᎦᏙᎥ	-10.8378
▁ᎠᏂᎪᏩᏘᏍ	-10.8392
ᏥᏩᏛᎡ	-10.8451
ᎦᏌᏯᏍᏔᏅ	-10.851
▁ᎣᏣᏓᏙᎵᏍᏗᏍ	-10.8519
ᎬᏩᏛᏛᏅᎩ	-10.8577
▁ᏕᏥᎸᏫᏍᏓᏁ	-10.8737
ᏓᏅᏖᏍᎪ	-10.8782
▁ᏱᎾᎾᏛᏁ	-10.8807
ᏥᏌᎳᏙᏗ	-10.8877
▁ᎡᏣᏛᎦᏁ	-10.888
▁ᏳᎾᏚᎵ	-10.9058
ᎵᎮᎵᏨᎯ	-10.9147
ᏐᏅᎢᏍᏔᏅᎯ	-10.9233
ᎵᏍᎦᏍᏙᏔᏅ	-10.9257
ᎪᎵᏰᏍᎬᎩ	-10.9312
▁ᏱᏂᏥᏪ	-10.9326
ᏄᎪᏫᏏ	-10.9422
▁ᎠᎵᏥᏙᎲᏍ	-10.9618
ᎩᏍᏓᏩᏕ	-10.9623
ᏛᎿᏕᎬᎢ	-10.9683
ᏂᏴᎯᎯ	-10.9736
ᏣᏓᏱᎸ	-10.9786
ᏓᏅᏘᏐ	-10.9803
ᏬᏁᏔᏅᎢ	-10.9824
▁ᏂᏕᎦᏪᏎ	-10.9857
ᏥᎩᎡᏗ	-10.9869
▁ᎠᏙᎴᎰ	-10.9885
ᏁᎫᏥᏛ	-10.9921
▁ᏬᎩᎷᏨ	-10.9925
▁ᏅᏓᎦᎵᏍᏙᏗᏍᎬ	-10.9928
ᎩᎵᏲᏨ	-10.9949
ᎢᏧᎳᎭ	-10.9974
ᎧᏃᎮᏛ	-10.9974
▁ᏗᎬᏩᎸᏌ	-10.9975
▁ᏧᎶᏎ	-10.9979
▁ᎦᎵᎡᎵ	-10.9983
▁ᏗᏥᎸᏫᏍᏓᏁ	-11.0001
ᎬᏩᏓᏙᎵᏍᏓᏁ	-11.0003
ᎾᏗᎦᎴᏲ	-11.0018
▁ᎯᎩᎵᏲᎬ	-11.0024
▁ᎣᏥᎩᎵᏲᎬ	-11.0024
ᏂᎳᏍᏓᎳᏩᏗᏒᎢ	-11.0024
ᏍᎦᏰᎬᏍᏓ	-11.0024
ᏍᏓᏩᏗᏎᏍᏗ	-11.0024
ᏓᎾᏕᏒᎲᏍᎪᎢ	-11.0024
▁ᎠᎵᏱᎶᎸᎭ	-11.0024
▁ᎠᎾᏓᎾᏏᏂᏙᎯ	-11.0024
▁ᎠᏂᎦᏲᎵᏳ	-11.0024
▁ᎠᏂᏏᎾᏌᏂ	-11.0024
▁ᎠᏆᎴᏂᏙᎸ	-11.0024
▁ᎠᏆᏓᏅᏔᏩᏕ	-11.0024
▁ᎠᏲᏓᏝᎲᎢ	-11.0024
▁ᎡᏣᎵᎡᎵᏤᎮᏍᏗ	-11.0024
▁ᎢᏍᎪᏂᏗᏢ	-11.0024
▁ᎢᏥᏔᏲᏍᏗᏍᎨᏍᏗ	-11.0024
▁ᎢᏨᏰᎳᏗᏙᎸ	-11.0024
▁ᎢᏳᏂᏪᏍᏗᏱ	-11.0024
▁ᎤᎦᏛᎾᏨᎯ	-11.0024
▁ᎤᎾᎵᏍᏓᏴᏃᏅ	-11.0024
▁ᎤᏂᏔᎳᏬᏍᎬᎢ	-11.0024
▁ᎤᏂᏲᏠᎯᏎᎸ	-11.0024
▁ᎤᏍᏘᏰᎬ	-11.0024
▁ᎤᏎᎦᏨᎯ	-11.0024
▁ᎤᏕᏒᏂᎸᎯ	-11.0024
▁ᎤᏕᏘᏴᏌᏗᏒ	-11.0024
▁ᎤᏕᏯᏔᏁᎴ	-11.0024
▁ᎤᏗᏌᏓᏛ	-11.0024
▁ᎥᏆᏬᏍᏙᏗ	-11.0024
▁ᎥᏖᎣᎩ	-11.0024
▁ᎦᏙᎴᎣᏍᎦ	-11.0024
▁ᎪᎶᏁᏛ	-11.0024
▁ᎬᏩᏓᏡᏫᏍᏔ	-11.0024
▁ᎯᏍᏆᎵᏍᎨᏍᏗ	-11.0024
▁ᎾᏂᎦᏔᎾᎥᎾ	-11.0024
▁ᏁᏍᏗᏪᏎᎸᎭ	-11.0024
▁ᏂᎦᎷᎶᎬᎾ	-11.0024
▁ᏂᏓᏙᏓᏈᏒ	-11.0024
▁ᏂᏙᏓᎦᏪᏎᎵ	-11.0024
▁ᏂᏚᎾᏑᎴᎲᎾ	-11.0024
▁ᏄᏃᎯᏳᏅᎾ	-11.0024
▁ᏆᎻᏈᎵᏱ	-11.0024
▁ᏍᎩᏯᏅᏓᏗᏍᎨᏍᏗ	-11.0024
▁ᏍᎪᏂᏗᏢ	-11.0024
▁ᏏᎻᏯᏂ	-11.0024
▁ᏓᎦᎾᏄᎪᏥ	-11.0024
▁ᏕᎦᏕᏲᎲᏍᎬ	-11.0024
▁ᏕᎯᏁᏤᎮᏍᏗ	-11.0024
▁ᏕᏣᎸᏫᏍᏓᏁᎸ	-11.0024
▁ᏗᏂᎦᏘᎴᎩ	-11.0024
▁ᏗᏍᏇᏲᎲᏍᎩ	-11.0024
▁ᏙᏓᏥᏲᎱᏏ	-11.0024
▁ᏛᏂᎾᏄᎪᏥ	-11.0024
▁ᏥᏂᏥᏪᎠ	-11.0024
▁ᏥᏓᎾᏕᏲᎲᏍ	-11.0024
▁ᏧᏙᏓᏆᏛ	-11.0024
▁ᏫᎨᏣᏲᎵ	-11.0024
▁ᏫᎬᏲᏪᎳᏏ	-11.0024
▁ᏫᏴᎨᏥᎷᎩ	-11.0024
▁ᏱᎡᏦᎢᏳ	-11.0024
▁ᏱᏂᎬᏩᏍᏗᏉ	-11.0024
▁ᏱᏂᏣᎵᏍᏓᏁ	-11.0024
▁ᏱᏄᏓᎠ	-11.0024
▁ᏱᏓᎴᏂᏙᎭ	-11.0024
▁ᏱᏦᎯᏳᎲᎦ	-11.0024
▁ᏱᏫᏣᏴᎸ	-11.0024
ᏓᎿᏍᏆᎶᏍᏗ	-11.0024
▁ᎤᎦᏑᎲᎢ	-11.0024
▁ᎤᎾᏓᏅᏔᏩᏕ	-11.0024
▁ᎤᏕᏯᏔᏁᎸ	-11.0024
▁ᎦᎨᏥᏐᏢ	-11.0024
▁ᎦᏬᏂᏍᎩ	-11.0024
▁ᎾᏑᏴᎾ	-11.0024
▁ᏍᎩᏯᏛᎦᏁᎸᎯ	-11.0024
▁ᏗᏓᏂᏱᏍᎩ	-11.0024
▁ᏗᏓᏙᏪᏙᎥ	-11.0024
▁ᏚᏰᎵᎯᏍᏔᏅ	-11.0024
▁ᏣᏗᏫᏍᏓ	-11.0024
▁ᏧᎳᎨᏯᏛᏤᎢ	-11.0024
▁ᏧᏓᏅᏓᏗᏍᏙᏗᏱ	-11.0024
▁ᏱᎦᏬᏂᎭ	-11.0024
ᏗᎦᏔᏫᎢᏍᏗᏱ	-11.0024
▁ᎢᎤᏁᏅ	-11.0024
▁ᎢᎤᏪᏅ	-11.0024
▁ᎤᏁᎳᏗᏙᎲ	-11.0024
▁ᎤᏂᏆᏘᏍᏗ	-11.0024
▁ᎤᏓᏂᎵᎨ	-11.0024
▁ᏓᎾᏠᏱᎲᎢ	-11.0024
▁ᏱᎾᎦᏪ	-11.0024
▁ᏳᏬᎵᏤ	-11.0024
ᎦᏨᏩᏍᏙᏗᏱ	-11.0024
ᏜᏅᏓᏕᏗᏱ	-11.0024
ᎬᏇᎯᏍᏗᎭ	-11.0024
ᎳᎨᏯᏛ	-11.0024
ᎵᏍᏓᏴᎲᏍᎪᎢ	-11.0024
▁ᎠᏆᏒᏂᎦ	-11.0024
▁ᎠᏥᏂᏌᏅ	-11.0024
▁ᎤᎾᎵᏃᎯᏴᎯ	-11.0024
▁ᎤᏚᏫᏛ	-11.0024
▁ᎨᏥᎩᎵᏲᎢᏍᏙᏗᏱ	-11.0024
▁ᏚᏅᎵᏰ	-11.0024
▁ᏥᎾᏂᏪ	-11.0024
▁ᏥᏂᏨᏪᏎᎸᎩ	-11.0024
▁ᏩᏥᏯᏅᏗᏱ	-11.0024
▁ᏱᏨᏰᎵᏎᎭ	-11.0024
ᏍᏆᏂᎪᏔᏂ	-11.0024
▁ᎠᎵᏰᎢᎶᎸᎭ	-11.0024
▁ᎧᏃᎨᏂ	-11.0024
▁ᏕᎬᏩᏠᏎᎢ	-11.0024
▁ᏧᏭᏓᎴᏍᏗᏱ	-11.0024
▁ᏱᏗᏣᏰᎸᏁᎢ	-11.0024
▁ᎢᏣᏗᏔᏍᎨᏍᏗ	-11.0024
▁ᎤᏪᏲᏓᏛ	-11.0024
▁ᏅᏥᏪᏎᎸᎩ	-11.0024
ᎢᏥᎦᏔᎾᎢ	-11.0024
▁ᎤᏃᎱᎦ	-11.0024
▁ᏅᏓᏳᎾᏓᎴᏅᎯ	-11.0024
▁ᏕᎩᏂᏴ	-11.0024
▁ᏚᏬᏑᎴ	-11.0024
▁ᏣᏃᎮᎸᎩ	-11.0024
▁ᏧᎬᏩᎳᏅᎯ	-11.0024
▁ᎤᎾᎵᏥᏙᏅ	-11.0024
▁ᏗᎫᎪᏗᏱ	-11.0024
▁ᏱᏦᎵᎦ	-11.0024
ᏛᏂᏗᏍᏕᏍᏗ	-11.0024
▁ᎤᏓᏩᏗᏍᏙᏛ	-11.0024
▁ᏙᏓᏳᏲᏏ	-11.0024
▁ᏚᏚᎪᏔᏅ	-11.0024
▁ᏥᏁᏣᏛᏁ	-11.0024
ᏘᏃᎮᏗᏱ	-11.0024
▁ᎢᎬᏩᏛᏛᏁ	-11.0024
▁ᎢᏥᏇᏓᎸ	-11.0024
ᎿᎸᏍᏗᏍᎨᏍᏗ	-11.0024
ᏥᏥᏃᎯᏍᏓ	-11.0024
▁ᏓᏆᎴᎷ	-11.0024
▁ᏣᏓᏡᏗᏍᎪ	-11.0024
▁ᏧᎾᏓᏂᎸᎢᏍᏗᏱ	-11.0024
ᏩᏛᎱᎦ	-11.0024
▁ᎠᎵᏍᏆᏛᎭ	-11.0024
▁ᏌᎶᎻ	-11.0024
▁ᏚᏓᏂᎸᏨ	-11.0024
▁ᎤᎧᏲᏛ	-11.0024
▁ᎪᎹᎵ	-11.0024
▁ᏚᎾᏚᏫᏍ	-11.0024
▁ᎢᎬᏩᎾᏛᏁᏗ	-11.0024
ᎨᏣᏓᏑᏴ	-11.0024
▁ᏤᎿᎠ	-11.0024
▁ᏂᏚᏂᏪᏎᎸᎩ	-11.0024
▁ᏧᎾᏂᏏᏗᏱ	-11.0024
▁ᏕᏧᎪᏗᏍ	-11.0024
ᏔᏲᎯᎲᎢ	-11.0024
▁ᎠᏩᏘᏍᎪ	-11.0024
▁ᎡᏓᎵᏍᎦᏍᏙᏛ	-11.0024
▁ᏂᏥᏪᎠ	-11.0024
▁ᏕᏥᏄᎪᏫᏍ	-11.0024
▁ᎢᏥᏔᏲᎭ	-11.0024
▁ᏓᏳᏄᎪᏨᎩ	-11.0024
▁ᏫᏨᏲᎵ	-11.0024
▁ᏕᎨᎦᏬᏍ	-11.0024
ᏕᎰᎯᏍᏙᏗᏱ	-11.0024
▁ᏗᎨᎦᏛᏅᎯ	-11.0024
▁ᏥᏚᏓᏲᏎ	-11.0024
▁ᏧᏬᏢᏅᎯ	-11.0024
▁ᎤᎵᏍᎪᎸᏓᏁᎸᎩ	-11.0024
▁ᏙᏗᎧᏂᏍᎬ	-11.0024
▁ᎤᏩᎾᏓᎴ	-11.0024
▁ᏧᏓᏂᎸᎢᏍᏗᏳ	-11.0024
▁ᏙᏗᎾᎵᏍᏓᏴᎲᏍᎬ	-11.0024
▁ᏫᏂᏨᎦ	-11.0024
▁ᏄᎾᏛᏁᎴᎢ	-11.0024
▁ᏘᎦᏙᎵ	-11.0024
▁ᎠᏂᏍᏆᏂᎪᏗᏍᎩ	-11.0024
▁ᏓᏂᏴᎬᎢ	-11.0024
▁ᏗᏂᎾᏕᎩ	-11.0024
▁ᎠᏢᏈᏍᏗ	-11.0024
▁ᎢᏣᏛᎩᏍᎬᎢ	-11.0024
▁ᎤᏔᏲᎸ	-11.0024
▁ᎬᏩᏕᏁᎴᎢ	-11.0024
▁ᏥᏦᎯᏳ	-11.0024
▁ᏳᏲᎱᏒ	-11.0024
▁ᎦᎷᎪᎢ	-11.0024
▁ᏓᏍᏗᏰᏗᏍᎬ	-11.0024
▁ᏚᎵᏏᎲ	-11.0024
ᎩᎵᏲᎨᏍᏗ	-11.0024
▁ᎥᏇᎵᏎᎸ	-11.0024
▁ᏓᏱᏓᎵ	-11.0024
▁ᎤᎾᏞᏒ	-11.0024
▁ᏱᏣᏰᎸᏅ	-11.0024
ᏪᎵᏎᎴᎢ	-11.0024
▁ᎤᏚᏓᎸ	-11.0024
▁ᎠᏂᏁᎢᏍᏗᏍᎩ	-11.0025
▁ᎤᏔᏕᎩᏍ	-11.0025
▁ᎠᎾᏗᏒᎯ	-11.0025
▁ᎢᏣᎵᏏᎾᎯᏍᏗ	-11.0025
▁ᎤᏂᎶᏐᏅ	-11.0025
▁ᎢᏖᎳ	-11.0025
▁ᏚᏪᏟᏌᏅ	-11.0025
ᎦᏖᏃᎲ	-11.0025
▁ᏧᎵᏏᎬ	-11.0025
▁ᎠᏍᎩᏓᏍᎬ	-11.0025
▁ᏍᏆᏛᎦᏁ	-11.0025
▁ᎤᏅᏂᏍᏗᏱ	-11.0025
ᏢᏆᏍᏙᏗ	-11.0025
▁ᎡᎵᏍᏓᎦ	-11.0025
▁ᏓᎦᏘᎴ	-11.0025
▁ᎣᎩᎾᎵᎪ	-11.0025
▁ᏗᏠᎯᏍ	-11.0025
ᏣᏛᏂᏏ	-11.0025
ᎵᏂᎬᎦ	-11.0025
▁ᎢᏦᎯᏳᏅ	-11.0025
▁ᏓᎾᏗᏔᏍᎨ	-11.0026
▁ᎦᎶᏐᎲᏍ	-11.0026
▁ᎬᎩᎷᏤ	-11.0026
▁ᏫᎬᏩᏴᏔᏁ	-11.0027
▁ᏓᏘᏁᎲ	-11.0027
ᏘᏁᏒᎭ	-11.0027
▁ᏥᎦᎷᎪ	-11.0027
▁ᏗᎧᏁᎬ	-11.0028
▁ᏗᎬᏩᏂᏐᏢ	-11.0028
ᏍᎩᏰᎵᏎᎮᏍᏗ	-11.0029
▁ᎦᏥᏯᎵᏥᏙᏁ	-11.003
▁ᏓᏠᏱᎲ	-11.003
ᏢᏈᏍᏙᏗ	-11.003
▁ᎢᏯᏓᏛᏁ	-11.0031
ᏌᎺᎵ	-11.0031
ᎵᏍᏓᏱᏗᏍ	-11.0032
ᎵᏍᏗᏰᏓᏁ	-11.0032
ᎪᎯᏳᎲᏍᎪ	-11.0032
ᎬᏲᏪᎳᏁ	-11.0032
ᏂᏅᎪᎠ	-11.0033
▁ᏂᎤᏪᏎ	-11.0033
▁ᎢᏓᎴᏂᏙ	-11.0033
▁ᎮᏙᎲ	-11.0033
▁ᏧᏌᎴᏅ	-11.0034
▁ᏥᏍᎦᏅᏤᎸ	-11.0034
▁ᏂᏣᏛᏁᎰ	-11.0034
ᎷᎸᎥᏍ	-11.0035
▁ᎤᏍᏗᏰᏔᏁ	-11.0035
ᎪᏎᎲᎩ	-11.0035
▁ᎤᎾᏛᏓᏍ	-11.0036
ᏬᏁᏗᏍᎪ	-11.0036
ᎦᎾᏏᏍᎩ	-11.0037
▁ᎡᏓᏓᏙᎵᏍᏓᏁ	-11.0037
▁ᎣᏤᎲ	-11.0038
ᏣᎵᏥᏙᎲ	-11.0038
ᏙᏥᏩᏛᎲᎩ	-11.0041
▁ᏚᎧᎿᏁ	-11.0042
ᏗᎧᎿᏩᏗ	-11.0042
▁ᎤᎵᏍᏕᏍᏔ	-11.0044
▁ᎬᏩᏛᎦᏁᎸ	-11.0045
ᎪᎵᏰᏍᎪᎢ	-11.0048
▁ᎢᎦᎵᏍᏓᏁᏗ	-11.005
ᏟᏴᎡ	-11.0051
ᏅᏩᏍᏙᎢ	-11.0054
ᏥᏍᏛᏗᏍᏙᏗ	-11.0055
ᏓᏂᏰᎲᎩ	-11.0055
▁ᎤᏛᏓᏍ	-11.0059
▁ᎤᏄᎪᎢᏍᏗ	-11.0062
ᏓᎢᏅᏗᏱ	-11.0063
ᏗᎦᎸᏉᏗ	-11.0063
ᏠᎥᏔ	-11.0067
▁ᏓᎵᏂᎪᎯᏍᏗᏍ	-11.0067
▁ᎤᏂᏁᎢᏍᏔᏅ	-11.0079
▁ᎠᏟᏍᏕ	-11.008
▁ᎤᏂᏍᏛᏗᏍ	-11.0086
▁ᎠᏤᎷᎯ	-11.009
▁ᎣᎩᏍᏛᏗᏍ	-11.0094
ᎦᏁᏌᎢ	-11.011
▁ᏧᏄᎪᏙᏗ	-11.0112
ᏥᏁᎢᏍᏗᎭ	-11.0139
ᎦᎧᎲᏍᎨᏍᏗ	-11.0151
ᏓᏴᏍᏕᏍᏗ	-11.0151
▁ᎢᏦᎵᏍ	-11.0156
ᏥᏁᏟᏴᏒ	-11.0158
▁ᎠᏓᏰᎮ	-11.0158
▁ᏧᏂᎸᏫᏍᏓᏁ	-11.0164
▁ᎠᏂᎾᏄᎪᏫᏍ	-11.0185
ᏂᏚᏪᏎᎴ	-11.0198
▁ᎢᏨᏬᏁᏔᏅ	-11.0232
ᏣᏓᏅᏘ	-11.0243
▁ᎨᏣᏡᏗᏍᎬ	-11.0296
▁ᎠᏃᎯᏳᎲᏍ	-11.0361
▁ᎣᏣᎵᏍᎦᏍᏙ	-11.0415
ᏆᏚᎵᏍᎬ	-11.0472
ᎠᏎᎵᏛᏍ	-11.0579
ᏓᏂᏙᎦ	-11.0595
▁ᎡᏥᎾᏰᏍ	-11.072
ᏍᏓᏩᏗᏓᏍᏗᏱ	-11.0775
▁ᏦᏥᏩᎾᎦᎳ	-11.0779
▁ᏗᎬᏩᏂᏲᎱᎯ	-11.0926
ᏓᎢᏅᏎᎢ	-11.1196
ᏥᏪᏎᎸᎭ	-11.1222
▁ᏯᏂᎦᏔ	-11.1366
▁ᏯᏓᏅᏖ	-11.1395
ᏂᏕᎬᏁᎰ	-11.1445
ᏐᏢᏙᏗ	-11.1501
▁ᎠᏍᎫᏕ	-11.1591
▁ᏂᏣᏛᎿᏕ	-11.1604
ᏓᏕᎵᏎ	-11.1699
ᎦᏥᏅᏬᏗ	-11.1706
▁ᏗᏣᎸᏫᏍᏓᏁ	-11.1845
ᏫᏨᏲᏪᎳᏁᎸᎩ	-11.1856
▁ᎠᏓᏍᏕᎵᏍ	-11.1919
▁ᎠᏇᏅᏍᏗ	-11.1931
ᎤᏅᏩᏁ	-11.1986
ᏓᎵᏍᎪᎸ	-11.2029
▁ᏣᏍᎦᏅᎪ	-11.2083
ᏥᎾᏰᏍᎩ	-11.2749
ᏔᎳᏬᎯ	-11.2947
▁ᏗᏩᎾᎦᎳ	-11.2998
ᎬᏩᎵᎥᏂ	-11.3072
ᏴᏓᏆᎶᏍ	-11.31
▁ᏅᏗᎦᎵᏍᏙ	-11.3233
▁ᎬᏩᏃᎵᏍ	-11.3252
▁ᎤᏂᎧᎵᏨ	-11.3255
▁ᏓᎾᏕᏲᎲᏍ	-11.326
ᎮᎵᏤᏗ	-11.3295
ᏓᎩᎸᏫᏍᏓᏁᎲ	-11.3305
ᎠᎵᏍᏓᏴᎲᏍᎬ	-11.3305
ᏧᏂᎸᏫᏍᏓᏁᎯ	-11.3307
ᏚᏳᎪᏛ	-11.3309
ᏂᏐᏢᎢᏍᏙᏗ	-11.3316
▁ᎢᏳᏩᏂᏐᏗ	-11.332
ᏥᏄᎪᏫᏍᏗ	-11.3325
ᏣᎵᎡᎵᏤᏗ	-11.3352
ᏩᏙᎯᏯᏛ	-11.3355
~	-11.3357
▁ᏱᏣᏕᏯᏔᏁ	-11.3357
▁ᏱᏓᎧᎿᏩᏕ	-11.3357
ᎦᎵᏥᏙᎲᏍᎦ	-11.3357
ᎵᏍᏡᏰᎢ	-11.3357
ᎶᏄᎮᎸᎩ	-11.3357
ᎾᏓᏙᎵᏍᏓᏁᎲ	-11.3357
ᏍᏓᏩᏕᎪᎢ	-11.3357
ᏍᏕᎵᏌᏕᏒᎭ	-11.3357
ᏗᎨᏥᏰᎪᎢ	-11.3357
ᏙᏥᎵᏦᏛᎦ	-11.3357
ᏣᏪᏐᎸᏍᏓ	-11.3357
ᏧᎪᏓᏏ	-11.3357
ᏨᎾᏄᏫᏎᎭ	-11.3357
▁ᎠᎦᏔᏙᎥᏗᏍᎩ	-11.3357
▁ᎠᎩᎷᏤᎮᏍᏗ	-11.3357
▁ᎠᎩᏔᏕᎩᏍᎬ	-11.3357
▁ᎠᎵᏱᎵᏒᎢ	-11.3357
▁ᎠᎾᎵᏍᏓᏴᏂᏙᎮ	-11.3357
▁ᎠᏁᎷᎲᏍᎨ	-11.3357
▁ᎠᏂᏁᏄᎳᏍᏗᏍᎪ	-11.3357
▁ᎠᏆᎵᎮᎵᏨᎩ	-11.3357
▁ᎠᏓᏅᏬᎯᏍᏗᏍᎩ	-11.3357
▁ᎡᎭᏠᎠᎯ	-11.3357
▁ᎡᎵᎣᏈᎦ	-11.3357
▁ᎢᎤᎾᏨᏎ	-11.3357
▁ᎢᎵᎡᏌ	-11.3357
▁ᎢᏍᏙᏎᎸᎭ	-11.3357
▁ᎢᏤᎳᏗᏙᎭ	-11.3357
▁ᎢᏥᎩᎵᏲᎬᎢ	-11.3357
▁ᎢᏨᏯᏓᏅᏖ	-11.3357
▁ᎢᏨᏰᎳᏗᏙᎮᏍᏗ	-11.3357
▁ᎢᏯᎩᏪᏍᏗᏱ	-11.3357
▁ᎢᏰᎬᏁᎸᎯ	-11.3357
▁ᎤᎾᏁᎶᏔᏁ	-11.3357
▁ᎤᎾᏓᏄᏴᏗ	-11.3357
▁ᎤᏁᏄᎳᏍᏔᏁᎢ	-11.3357
▁ᎤᏍᎦᏅᏥᏙᎸ	-11.3357
▁ᎤᏔᎳᏬᏍᎬᎢ	-11.3357
▁ᎤᏗᎴᎲᏍᎨᎢ	-11.3357
▁ᎤᏪᏯᎸᏤᎢ	-11.3357
▁ᎦᏟᏏᏍᎨᏍᏗ	-11.3357
▁ᎨᏤᎳᏗᏙᎭ	-11.3357
▁ᎨᏤᎳᏗᏙᎮᏍᏗ	-11.3357
▁ᎭᎵᏥᏙᎲᏍ	-11.3357
▁ᎭᏓᎦᏖᏙᎢᏍᎨᏍᏗ	-11.3357
▁ᎭᏙᏯᏅᎯ	-11.3357
▁ᎾᎫᎢᏍᏛᎾ	-11.3357
▁ᏂᎠᏂᏪᎭ	-11.3357
▁ᏂᎦᏥᏪᏎᎭ	-11.3357
Ꮍ	-11.8357
Ꮚ	-12.8353
(	-12.8354
Ꮌ	-12.8355
Ꮛ	-12.8356
[	-12.8357
\	-12.8357
