<pad>	0
</s>	0
<unk>	0
▁¦	-0
ti	-1
ai	-2
in	-3
os	-4
▁p	-5
ri	-6
au	-7
as	-8
ar	-9
ir	-10
si	-11
al	-12
▁k	-13
an	-14
en	-15
ei	-16
am	-17
▁s	-18
im	-19
▁𐋇	-20
▁t	-21
at	-22
▁,	-23
▁n	-24
ad	-25
om	-26
is	-27
es	-28
ro	-29
▁d	-30
us	-31
on	-32
▁v	-33
ki	-34
▁ir	-35
to	-36
ės	-37
▁.	-38
er	-39
li	-40
tin	-41
či	-42
▁b	-43
ek	-44
uri	-45
ra	-46
ij	-47
▁m	-48
st	-49
tų	-50
yb	-51
uo	-52
tik	-53
av	-54
▁su	-55
em	-56
iš	-57
ių	-58
um	-59
▁g	-60
uro	-61
eik	-62
oj	-63
ėl	-64
et	-65
ap	-66
▁r	-67
▁š	-68
urop	-69
▁j	-70
▁kad	-71
▁į	-72
cij	-73
ta	-74
or	-75
ur	-76
▁E	-77
aip	-78
ink	-79
arb	-80
ak	-81
aug	-82
ant	-83
ais	-84
ab	-85
▁pri	-86
uropos	-87
ži	-88
su	-89
el	-90
sij	-91
ėj	-92
end	-93
▁l	-94
pr	-95
ausi	-96
imo	-97
eg	-98
▁T	-99
▁pas	-100
yv	-101
už	-102
ali	-103
min	-104
▁at	-105
▁iš	-106
▁P	-107
omi	-108
aik	-109
▁kuri	-110
ie	-111
yra	-112
mo	-113
ag	-114
id	-115
pri	-116
▁-	-117
yti	-118
eis	-119
ėm	-120
ien	-121
oje	-122
eš	-123
kad	-124
rin	-125
▁ne	-126
gi	-127
dėl	-128
kai	-129
uos	-130
▁K	-131
un	-132
tas	-133
▁Europos	-134
aus	-135
▁bū	-136
▁ši	-137
čiau	-138
oli	-139
tar	-140
ui	-141
ini	-142
tr	-143
až	-144
▁ž	-145
me	-146
jų	-147
ama	-148
▁ap	-149
pas	-150
imą	-151
tai	-152
aud	-153
▁dėl	-154
te	-155
ok	-156
yk	-157
ym	-158
ci	-159
▁pat	-160
ne	-161
▁pr	-162
tu	-163
ame	-164
ūs	-165
inti	-166
ši	-167
alst	-168
usi	-169
lam	-170
▁už	-171
ing	-172
alstyb	-173
▁pro	-174
imas	-175
bū	-176
omisij	-177
vo	-178
▁tik	-179
ąj	-180
▁yra	-181
alim	-182
auj	-183
ung	-184
lamen	-185
irmin	-186
cijos	-187
kuri	-188
▁(	-189
irminink	-190
par	-191
▁S	-192
tis	-193
čių	-194
je	-195
eiki	-196
ys	-197
kl	-198
▁vis	-199
ams	-200
ko	-201
varb	-202
▁to	-203
▁si	-204
tą	-205
and	-206
avo	-207
eli	-208
ari	-209
sti	-210
ėtų	-211
ausim	-212
aneš	-213
▁𐊣	-214
ūr	-215
ąjung	-216
dži	-217
tos	-218
▁B	-219
omis	-220
abai	-221
ūsų	-222
▁tai	-223
europos	-224
veik	-225
uvo	-226
▁par	-227
20	-228
▁A	-229
▁kl	-230
▁f	-231
pa	-232
▁in	-233
yje	-234
alb	-235
ėti	-236
amas	-237
▁M	-238
jos	-239
il	-240
var	-241
▁pad	-242
pat	-243
ku	-244
rim	-245
inių	-246
ans	-247
ka	-248
esn	-249
ijos	-250
▁pag	-251
toj	-252
pro	-253
ami	-254
endr	-255
mon	-256
re	-257
oms	-258
tat	-259
yg	-260
▁turi	-261
uom	-262
irmininke	-263
▁teis	-264
lo	-265
▁Komisij	-266
eng	-267
anči	-268
umo	-269
▁valstyb	-270
ej	-271
vis	-272
dar	-273
kir	-274
ori	-275
uk	-276
ūl	-277
emon	-278
▁daug	-279
kur	-280
orė	-281
eig	-282
▁pasi	-283
ili	-284
ybos	-285
kos	-286
inės	-287
ems	-288
▁V	-289
▁kaip	-290
▁J	-291
io	-292
▁tur	-293
eki	-294
iu	-295
iau	-296
ekon	-297
auk	-298
olitik	-299
ekt	-300
aš	-301
gyv	-302
eikia	-303
orėčiau	-304
ov	-305
▁ki	-306
sl	-307
▁taip	-308
▁"	-309
▁per	-310
eikal	-311
ėms	-312
▁svarb	-313
amos	-314
▁klausim	-315
▁darb	-316
isi	-317
tikrin	-318
ul	-319
▁susi	-320
šk	-321
uoj	-322
▁veik	-323
gr	-324
▁N	-325
saug	-326
ed	-327
irm	-328
prend	-329
tum	-330
avimo	-331
tim	-332
žv	-333
ome	-334
▁Par	-335
▁kai	-336
raš	-337
one	-338
man	-339
vir	-340
▁nes	-341
inans	-342
uoti	-343
▁o	-344
pag	-345
▁kon	-346
▁G	-347
ank	-348
▁praneš	-349
▁D	-350
▁Sąjung	-351
▁Parlamen	-352
sak	-353
orm	-354
ter	-355
▁ES	-356
▁po	-357
▁būtų	-358
ios	-359
men	-360
vai	-361
▁būti	-362
ymo	-363
yst	-364
▁did	-365
▁Š	-366
vien	-367
oma	-368
taip	-369
ent	-370
ties	-371
▁re	-372
▁nar	-373
pad	-374
▁galim	-375
ums	-376
ver	-377
turi	-378
▁man	-379
acij	-380
▁pa	-381
ang	-382
teis	-383
als	-384
per	-385
rind	-386
▁ko	-387
ėjo	-388
▁labai	-389
▁šal	-390
▁vien	-391
▁savo	-392
uose	-393
do	-394
abar	-395
bl	-396
valstyb	-397
daug	-398
▁buvo	-399
▁tar	-400
og	-401
iz	-402
tur	-403
▁bendr	-404
iausi	-405
form	-406
ch	-407
cial	-408
▁apie	-409
gal	-410
tari	-411
ose	-412
pasi	-413
▁dar	-414
kaip	-415
tori	-416
ektyv	-417
riz	-418
imų	-419
po	-420
val	-421
komisij	-422
erb	-423
lyg	-424
▁pak	-425
vyk	-426
▁ar	-427
blem	-428
tina	-429
rei	-430
stitu	-431
▁laik	-432
▁mūsų	-433
ačiau	-434
pl	-435
uomen	-436
tus	-437
▁gal	-438
tume	-439
škai	-440
tink	-441
▁prie	-442
erg	-443
▁reg	-444
ime	-445
▁20	-446
▁L	-447
isku	-448
darb	-449
▁priemon	-450
▁pl	-451
gyvend	-452
ilie	-453
▁R	-454
oti	-455
tyje	-456
▁nari	-457
▁nuo	-458
stem	-459
▁)	-460
ški	-461
▁politik	-462
aid	-463
▁Komisijos	-464
etu	-465
ypa	-466
▁rink	-467
od	-468
ting	-469
ras	-470
ūros	-471
buvo	-472
ik	-473
nes	-474
▁ver	-475
rak	-476
gali	-477
ati	-478
▁pirmininke	-479
▁dal	-480
ūlym	-481
tinės	-482
laik	-483
▁ekon	-484
eri	-485
▁ti	-486
kon	-487
▁Tar	-488
sm	-489
būtų	-490
lik	-491
did	-492
ėmis	-493
du	-494
por	-495
▁gali	-496
▁bet	-497
tau	-498
dž	-499
žvel	-500
ocial	-501
energ	-502
▁Tai	-503
ustat	-504
svarb	-505
esi	-506
▁net	-507
imus	-508
praneš	-509
parlamen	-510
šal	-511
▁reikal	-512
inę	-513
paž	-514
ybės	-515
ėje	-516
susi	-517
sižvel	-518
ypač	-519
iskusij	-520
▁kar	-521
klausim	-522
inio	-523
tojų	-524
ėra	-525
tarp	-526
rė	-527
▁tarp	-528
ming	-529
sąjung	-530
pak	-531
umą	-532
▁mok	-533
▁finans	-534
iai	-535
▁mes	-536
tikrinti	-537
audoj	-538
tinių	-539
mes	-540
žin	-541
tarim	-542
ybę	-543
▁visi	-544
vej	-545
▁bus	-546
▁I	-547
▁pav	-548
▁proc	-549
tį	-550
▁1	-551
ėk	-552
uosi	-553
▁sri	-554
▁To	-555
ūk	-556
nar	-557
▁sieki	-558
acijos	-559
▁gyv	-560
▁ats	-561
labai	-562
ion	-563
mok	-564
eikti	-565
sių	-566
amą	-567
ateg	-568
cija	-569
yn	-570
būti	-571
▁jų	-572
▁sprend	-573
▁žmon	-574
adarb	-575
link	-576
▁jau	-577
ija	-578
▁es	-579
▁tr	-580
▁str	-581
inimo	-582
iki	-583
yri	-584
emok	-585
savo	-586
galim	-587
dami	-588
sn	-589
▁nauj	-590
der	-591
lių	-592
▁są	-593
ųjų	-594
tinti	-595
▁kalb	-596
▁	-597
i	-598
¦	-599
a	-600
s	-601
t	-602
r	-603
o	-604
e	-605
n	-606
u	-607
k	-608
m	-609
p	-610
l	-611
d	-612
j	-613
v	-614
g	-615
,	-616
b	-617
ų	-618
y	-619
ė	-620
.	-621
š	-622
ą	-623
ž	-624
𐋇	-625
į	-626
ū	-627
c	-628
č	-629
E	-630
z	-631
f	-632
ę	-633
P	-634
T	-635
0	-636
-	-637
S	-638
K	-639
2	-640
(	-641
)	-642
B	-643
A	-644
𐊣	-645
𐊼	-646
1	-647
h	-648
"	-649
M	-650
V	-651
D	-652
N	-653
J	-654
R	-655
G	-656
L	-657
Š	-658
I	-659
:	-660
9	-661
5	-662
?	-663
3	-664
7	-665
4	-666
8	-667
;	-668
C	-669
6	-670
O	-671
F	-672
U	-673
Ž	-674
/	-675
H	-676
Į	-677
w	-678
!	-679
Č	-680
Y	-681
W	-682
x	-683
é	-684
%	-685
q	-686
á	-687
'	-688
ö	-689
Z	-690
X	-691
Ū	-692
è	-693
í	-694
ó	-695
ü	-696
+	-697
ä	-698
ş	-699
ă	-700
Q	-701
[	-702
&	-703
]	-704
ß	-705
ń	-706
ć	-707
ø	-708
ú	-709
°	-710
ķ	-711
à	-712
ê	-713
ï	-714
ň	-715
ł	-716
·	-717
ý	-718
ő	-719
ţ	-720
ż	-721
ç	-722
ñ	-723
Ţ	-724
Á	-725
Ö	-726
_	-727
ò	-728
ī	-729
ľ	-730
̨	-731
έ	-732
π	-733
ρ	-734
•	-735
É	-736
Í	-737
Ó	-738
Ő	-739
Ř	-740
ś	-741
Ş	-742
Υ	-743
”	-744
ř	-745
υ	-746
