<pad>	0
</s>	0
<unk>	0
▁¦	-0
ku	-1
ng	-2
ba	-3
wa	-4
th	-5
la	-6
na	-7
ni	-8
kh	-9
le	-10
si	-11
zi	-12
ka	-13
▁u	-14
ph	-15
lu	-16
we	-17
nga	-18
thi	-19
ma	-20
ya	-21
lo	-22
ye	-23
nd	-24
li	-25
be	-26
▁e	-27
oku	-28
ke	-29
▁,	-30
se	-31
kho	-32
za	-33
▁a	-34
bo	-35
▁ng	-36
ne	-37
▁i	-38
sa	-39
pha	-40
▁𐋇	-41
yo	-42
▁ku	-43
kulu	-44
yi	-45
mi	-46
▁k	-47
▁na	-48
khu	-49
▁uku	-50
▁wa	-51
bu	-52
ze	-53
mu	-54
ngi	-55
▁“	-56
nge	-57
uku	-58
▁.	-59
▁n	-60
▁ba	-61
sh	-62
bi	-63
nkulu	-64
▁o	-65
tha	-66
ko	-67
nt	-68
lwa	-69
okuba	-70
the	-71
hla	-72
so	-73
kwa	-74
nye	-75
fu	-76
▁aba	-77
nke	-78
phe	-79
ki	-80
khe	-81
wo	-82
khulu	-83
me	-84
▁K	-85
su	-86
thu	-87
▁nga	-88
je	-89
▁N	-90
▁ka	-91
ini	-92
da	-93
fa	-94
ha	-95
▁kwa	-96
ri	-97
aba	-98
▁ni	-99
ndi	-100
kepha	-101
no	-102
▁no	-103
▁ngi	-104
ntu	-105
kwe	-106
kha	-107
kulunkulu	-108
mbi	-109
zo	-110
yaku	-111
Nkulunkulu	-112
mba	-113
weni	-114
nya	-115
▁Ng	-116
tho	-117
ngo	-118
▁ya	-119
nda	-120
st	-121
khona	-122
▁si	-123
phi	-124
▁nge	-125
um	-126
kosi	-127
▁:	-128
▁be	-129
leyo	-130
▁lo	-131
.”	-132
vu	-133
fi	-134
▁;	-135
bona	-136
wu	-137
hle	-138
▁ukuba	-139
Je	-140
rist	-141
▁ne	-142
▁la	-143
zu	-144
de	-145
nza	-146
nzi	-147
ja	-148
▁um	-149
dwa	-150
ela	-151
▁ko	-152
wi	-153
pho	-154
nu	-155
ndla	-156
ngokuba	-157
Jesu	-158
lwe	-159
zin	-160
▁oku	-161
uma	-162
▁ukuthi	-163
muntu	-164
zwi	-165
ngu	-166
▁ngokuba	-167
▁ye	-168
oda	-169
epha	-170
mo	-171
tsh	-172
ga	-173
▁yi	-174
▁U	-175
ristu	-176
lela	-177
▁ngo	-178
zwe	-179
fundi	-180
▁Kepha	-181
mbe	-182
▁wathi	-183
qa	-184
lokho	-185
▁ezi	-186
▁kepha	-187
he	-188
ndu	-189
▁kwe	-190
▁isi	-191
xa	-192
nja	-193
zwa	-194
hlu	-195
kholwa	-196
phaka	-197
qo	-198
mp	-199
nje	-200
wathi	-201
nkulunkulu	-202
ndle	-203
▁ama	-204
sebe	-205
▁kuye	-206
swa	-207
▁we	-208
phu	-209
▁ngoku	-210
▁izi	-211
gc	-212
Nkosi	-213
kela	-214
va	-215
fe	-216
bonke	-217
▁esi	-218
lowo	-219
▁ma	-220
▁sa	-221
▁li	-222
▁Ngokuba	-223
▁.”	-224
▁za	-225
suku	-226
▁W	-227
zaku	-228
▁nje	-229
▁B	-230
kazi	-231
ngena	-232
yisi	-233
hlo	-234
mbu	-235
ukuba	-236
▁noku	-237
ngc	-238
▁‘	-239
wele	-240
ngoku	-241
phendu	-242
▁-	-243
nxa	-244
nze	-245
qini	-246
ningi	-247
▁naba	-248
ru	-249
▁Wa	-250
ukuthi	-251
▁em	-252
?”	-253
nkosi	-254
odana	-255
njalo	-256
munye	-257
nde	-258
yese	-259
ho	-260
ce	-261
lwane	-262
khuluma	-263
▁kubo	-264
▁se	-265
▁uma	-266
ro	-267
eli	-268
hli	-269
▁zi	-270
▁uJesu	-271
▁Nga	-272
sho	-273
kile	-274
wini	-275
lokhu	-276
ra	-277
ngaba	-278
phambi	-279
shi	-280
umi	-281
▁uNkulunkulu	-282
leni	-283
sha	-284
thanda	-285
heka	-286
isi	-287
▁kini	-288
ama	-289
bha	-290
phakathi	-291
phila	-292
phezu	-293
ezi	-294
nsi	-295
▁khona	-296
▁bonke	-297
Kristu	-298
mina	-299
ndo	-300
fika	-301
▁kwaba	-302
mandla	-303
vela	-304
sebenzi	-305
di	-306
▁A	-307
qala	-308
noku	-309
▁le	-310
▁ngu	-311
fane	-312
hu	-313
▁kodwa	-314
kubo	-315
kuye	-316
▁Ba	-317
uda	-318
mhla	-319
jesu	-320
hamba	-321
phela	-322
khathi	-323
▁yo	-324
hi	-325
zalwane	-326
sile	-327
esi	-328
dla	-329
bani	-330
khule	-331
izi	-332
▁konke	-333
nto	-334
du	-335
futhi	-336
phendula	-337
▁ukuze	-338
naba	-339
oya	-340
beni	-341
▁eli	-342
zela	-343
shumi	-344
lweni	-345
▁eku	-346
▁?	-347
nina	-348
funa	-349
awu	-350
bonaka	-351
gu	-352
lungi	-353
saba	-354
imi	-355
thetho	-356
kaNkulunkulu	-357
khi	-358
ntwa	-359
rofe	-360
bili	-361
▁noma	-362
lele	-363
tshe	-364
▁lokho	-365
nta	-366
Ma	-367
▁lu	-368
moya	-369
▁imi	-370
lwini	-371
gama	-372
gi	-373
kele	-374
ntwana	-375
zulwini	-376
bula	-377
hlizi	-378
et	-379
▁bathi	-380
hlala	-381
manga	-382
▁kaNkulunkulu	-383
leli	-384
oli	-385
ngelo	-386
▁owa	-387
ngcwele	-388
bheka	-389
ngum	-390
kristu	-391
profe	-392
kuba	-393
▁nase	-394
lile	-395
nyama	-396
dodana	-397
▁ze	-398
siwe	-399
zonke	-400
ngama	-401
mela	-402
ndlu	-403
ina	-404
mvu	-405
bathi	-406
phansi	-407
awulu	-408
ngelosi	-409
ca	-410
phuma	-411
kwaba	-412
re	-413
▁lapho	-414
moni	-415
kini	-416
▁𐊣	-417
busi	-418
▁kanye	-419
▁aku	-420
owa	-421
yu	-422
mulo	-423
risti	-424
swe	-425
nani	-426
▁kube	-427
bonakali	-428
kodwa	-429
sindi	-430
▁lokhu	-431
▁Ngakho	-432
ndodana	-433
Juda	-434
ndela	-435
▁ngenxa	-436
▁yakhe	-437
Moya	-438
zini	-439
ngakho	-440
zane	-441
▁yena	-442
musa	-443
▁abe	-444
thile	-445
kube	-446
▁Y	-447
etru	-448
phakade	-449
kani	-450
▁ese	-451
kwenza	-452
ngalokho	-453
kanye	-454
soku	-455
▁in	-456
▁nezi	-457
▁umuntu	-458
yazi	-459
Jo	-460
Si	-461
em	-462
baba	-463
zweni	-464
yini	-465
yise	-466
khosi	-467
vi	-468
▁so	-469
ngesi	-470
xuku	-471
kwazi	-472
nyane	-473
▁waba	-474
▁nina	-475
sale	-476
athi	-477
▁I	-478
▁kuba	-479
▁futhi	-480
sifa	-481
▁izin	-482
thoko	-483
salema	-484
.’	-485
▁phambi	-486
mbisa	-487
rusalema	-488
mbili	-489
▁E	-490
ngabi	-491
Ndodana	-492
▁Kwathi	-493
pristi	-494
mkhulu	-495
buso	-496
profethi	-497
yela	-498
▁izwi	-499
yakuba	-500
nezi	-501
▁UJesu	-502
yena	-503
ngathi	-504
▁mina	-505
fanele	-506
hliziyo	-507
konke	-508
▁phakathi	-509
kisa	-510
hane	-511
yoku	-512
▁bakhe	-513
sifazane	-514
ngani	-515
ngaka	-516
fileyo	-517
phandle	-518
ge	-519
eku	-520
sela	-521
go	-522
weyo	-523
themp	-524
▁Wayese	-525
shuma	-526
▁naye	-527
ceku	-528
ngwa	-529
thula	-530
khuleka	-531
thempeli	-532
lisa	-533
ngeli	-534
khonza	-535
woku	-536
▁Kho	-537
▁phezu	-538
▁kwakhe	-539
zizwe	-540
mthetho	-541
hlezi	-542
thina	-543
qinisile	-544
ndoda	-545
ta	-546
▁Ku	-547
khombisa	-548
▁kakhulu	-549
do	-550
▁uP	-551
boni	-552
riya	-553
▁wo	-554
fuma	-555
▁kwenu	-556
vangeli	-557
yishumi	-558
yiku	-559
▁iNkosi	-560
nika	-561
meni	-562
zulu	-563
ngenxa	-564
faka	-565
lapho	-566
njani	-567
ukuze	-568
kazimulo	-569
▁nama	-570
gcwele	-571
butha	-572
▁waye	-573
▁ngithi	-574
lotsh	-575
sinyane	-576
lini	-577
noma	-578
▁uya	-579
lelwa	-580
▁?”	-581
lunga	-582
▁aka	-583
▁engi	-584
ci	-585
thela	-586
beka	-587
▁angi	-588
▁zonke	-589
kukhona	-590
Ngi	-591
▁yini	-592
thathu	-593
yeli	-594
yizi	-595
meme	-596
seku	-597
qiniso	-598
kayo	-599
muka	-600
▁Khona	-601
nti	-602
pathi	-603
lula	-604
waba	-605
▁L	-606
hlwa	-607
▁uyaku	-608
bhapathi	-609
gcwa	-610
▁Ngi	-611
▁ngaba	-612
tsha	-613
mukela	-614
aku	-615
nama	-616
hawu	-617
zimba	-618
kwahlu	-619
bhu	-620
fakazi	-621
▁emi	-622
▁kwabo	-623
ese	-624
▁ninga	-625
▁eni	-626
ndlini	-627
in	-628
layo	-629
wayese	-630
ila	-631
risi	-632
ndawo	-633
doda	-634
▁babe	-635
▁loku	-636
thatha	-637
thando	-638
themba	-639
▁muntu	-640
lwandle	-641
Baba	-642
thiwa	-643
▁kimi	-644
yala	-645
jalo	-646
▁nani	-647
▁enga	-648
chi	-649
kiso	-650
nike	-651
gcina	-652
▁ngama	-653
namandla	-654
▁kuNkulunkulu	-655
nj	-656
▁ubu	-657
bonga	-658
beke	-659
muke	-660
nesi	-661
▁nalowo	-662
neni	-663
▁Kwa	-664
kileyo	-665
Yi	-666
▁	-667
a	-668
¦	-669
n	-670
i	-671
e	-672
u	-673
k	-674
o	-675
l	-676
h	-677
b	-678
s	-679
w	-680
m	-681
g	-682
y	-683
z	-684
t	-685
,	-686
d	-687
p	-688
.	-689
𐋇	-690
f	-691
N	-692
:	-693
r	-694
;	-695
j	-696
“	-697
q	-698
c	-699
K	-700
v	-701
”	-702
J	-703
-	-704
?	-705
x	-706
U	-707
B	-708
M	-709
A	-710
W	-711
S	-712
‘	-713
’	-714
P	-715
I	-716
Y	-717
L	-718
E	-719
𐊣	-720
𐊼	-721
F	-722
O	-723
G	-724
!	-725
T	-726
H	-727
D	-728
—	-729
Z	-730
R	-731
Q	-732
2	-733
1	-734
V	-735
3	-736
5	-737
X	-738
6	-739
4	-740
7	-741
8	-742
9	-743
C	-744
'	-745
0	-746
