<pad>	0
</s>	0
<unk>	0
,	-2.74276
▁ᎠᎴ	-3.43055
.	-3.46152
▁ᎾᏍᎩ	-3.66527
;	-3.85586
Ꮓ	-4.01416
Ꭲ	-4.29333
▁ᎯᎠ	-4.35082
▁ᎨᏒ	-4.51837
Ꭹ	-4.61858
▁Ꭴ	-4.84583
▁ᎥᏝ	-4.94595
▁ᎨᏒᎢ	-4.98219
ᏰᏃ	-5.06589
Ꭿ	-5.08158
Ꮅ	-5.0989
▁Ꭰ	-5.12
▁ᎤᏁᎳᏅᎯ	-5.13175
Ꮒ	-5.17404
Ꮧ	-5.2056
Ꮫ	-5.22933
Ꮎ	-5.23788
Ꭶ	-5.27281
Ꮙ	-5.27833
▁	-5.29516
Ꮕ	-5.30144
Ꮣ	-5.31708
Ꭽ	-5.39083
?	-5.4711
▁Ꮎ	-5.49735
Ꮈ	-5.52255
Ᏹ	-5.55392
▁ᏥᏌ	-5.61485
▁ᎾᏍᏉ	-5.61691
▁ᏴᏫ	-5.62377
▁ᎩᎶ	-5.63029
▁ᎠᏴ	-5.65814
Ꮿ	-5.68325
▁ᎨᏎᏍᏗ	-5.69697
Ꮑ	-5.69866
ᏍᏗ	-5.70279
▁Ꮷ	-5.73586
Ꮟ	-5.73896
-	-5.7454
▁ᏂᎨᏒᎾ	-5.76802
▁ᎤᎬᏫᏳᎯ	-5.77237
Ᏼ	-5.77467
▁ᏥᎩ	-5.78196
▁ᎤᏂ	-5.78281
Ꮩ	-5.80569
Ꭺ	-5.82676
ᏍᎩᏂ	-5.83368
▁ᎾᏍᎩᏯ	-5.83493
▁ᎢᏳᏍᏗ	-5.83537
▁ᎠᏎᏃ	-5.83937
Ꮵ	-5.85448
▁ᏂᎯ	-5.92789
Ᏺ	-5.938
▁ᎦᎶᏁᏛ	-5.9614
▁ᎾᎿ	-5.97427
▁Ꮪ	-5.98615
▁ᏱᎩ	-5.99176
▁ᎠᏂ	-6.01066
Ꮄ	-6.02476
Ꮢ	-6.03257
ᏗᏱ	-6.06353
▁ᎪᎱᏍᏗ	-6.07698
Ꭸ	-6.08653
▁ᎢᏥ	-6.09735
▁ᏂᎦᏛ	-6.1129
▁ᎢᎦ	-6.11876
▁Ꮧ	-6.13168
ᏍᎩ	-6.14579
▁Ꮳ	-6.15115
Ᏻ	-6.16693
▁Ꮵ	-6.16954
▁ᎣᏍᏛ	-6.17282
Ꭼ	-6.201
Ꮥ	-6.2025
Ꮆ	-6.2118
Ꮳ	-6.21184
▁ᎢᏳᏃ	-6.22307
▁Ꭶ	-6.22659
▁ᎬᏩ	-6.23804
Ꮃ	-6.27744
▁ᎤᎾ	-6.29618
▁ᎿᏉᏃ	-6.3025
Ꮻ	-6.32459
Ꮂ	-6.34825
Ᏸ	-6.35143
▁ᎤᏪᏥ	-6.36516
Ꮲ	-6.3681
▁ᏞᏍᏗ	-6.3716
▁ᎡᎶᎯ	-6.37444
Ꮨ	-6.40384
Ꮸ	-6.40559
▁ᎤᏲ	-6.43249
▁ᎾᏍᎩᏃ	-6.44576
ᏍᎪ	-6.44652
Ꮤ	-6.46326
▁ᎠᎩ	-6.46537
▁Ꮣ	-6.48238
▁ᎿᏉ	-6.48671
▁ᎤᏣᏘ	-6.49097
Ꭾ	-6.49408
▁Ꭲ	-6.50822
ᏍᎦ	-6.50869
Ꮼ	-6.51479
Ꮴ	-6.52468
▁ᏂᎦᎥ	-6.52797
▁Ᏹ	-6.54459
Ꮺ	-6.54712
Ꮞ	-6.55618
▁ᎤᏩᏒ	-6.56216
Ꮹ	-6.56706
▁ᎠᏓᏅᏙ	-6.58761
▁ᏄᏍᏛ	-6.59181
▁ᎬᏂᎨᏒ	-6.59361
▁ᎧᏃᎮᏛ	-6.60432
▁Ᏻ	-6.60988
▁ᎦᎸᏉᏗᏳ	-6.62116
ᏍᏓ	-6.64478
Ꮇ	-6.64783
▁ᎣᏏᏳ	-6.66964
▁ᎢᏴᏛ	-6.68395
ᏁᎢ	-6.68602
▁ᎦᎸᎳᏗ	-6.68906
▁ᏚᏂ	-6.70302
ᏍᏛ	-6.70388
ᏍᏗᏱ	-6.70602
Ꭵ	-6.70877
▁ᎢᏣ	-6.71639
▁ᎾᎯᏳ	-6.72968
Ꭰ	-6.74653
▁ᎤᏟ	-6.75062
▁ᎯᎠᏃ	-6.75667
▁ᎠᏥᎸ	-6.76045
▁ᏗᎧᎿᏩᏛᏍᏗ	-6.76334
ᏍᎨᏍᏗ	-6.76497
▁ᎠᏍᎦᏯ	-6.7751
Ꮖ	-6.78364
ᏁᎸ	-6.78506
▁ᎪᎯ	-6.79113
Ꮪ	-6.79941
ᎮᏍᏗ	-6.81691
▁ᎡᎯ	-6.8185
▁ᏄᏪᏎᎢ	-6.8211
▁ᎦᏙ	-6.82197
▁ᎠᏆ	-6.82504
▁ᎤᏤᎵᎦ	-6.82916
ᏅᎩ	-6.85417
▁Ꭿ	-6.8633
▁ᎾᏂᎥ	-6.86399
▁ᎢᏨ	-6.87817
▁ᎤᏤᎵ	-6.88107
▁Ꭱ	-6.88799
Ꮜ	-6.90084
Ꮠ	-6.90707
Ꭱ	-6.90764
ᏎᎢ	-6.90767
ᎸᎩ	-6.90856
▁ᎠᏥ	-6.9104
▁Ꭼ	-6.911
▁ᎤᏓ	-6.91103
ᏒᎩ	-6.92172
ᏰᎸ	-6.92373
▁Ꮔ	-6.92908
▁ᎢᏳᎵᏍᏙᏗᏱ	-6.94442
ᎴᎢ	-6.94951
▁ᏌᏉ	-6.95725
Ꮔ	-6.96017
▁Ꮿ	-6.96472
▁ᏰᎵ	-6.97125
▁ᎢᎩ	-6.97612
▁ᏚᏳᎪᏛ	-6.97707
▁ᎢᏳ	-6.98608
▁ᏥᏌᏃ	-6.98948
▁[	-6.99178
ᏅᎯ	-6.99724
▁ᎤᏂᏣᏘ	-7.01723
▁ᎤᏪ	-7.02041
▁Ꮻ	-7.02103
▁ᎨᏎᎢ	-7.04376
▁Ꮒ	-7.04953
▁ᎬᏂᏳᏉ	-7.05025
▁ᏧᏂ	-7.0599
▁ᎠᏎ	-7.06726
▁ᎡᏥ	-7.07235
▁ᎠᏁᎯ	-7.07777
ᎨᏍᏗ	-7.08085
ᎯᏳ	-7.08548
ᏔᏅᎯ	-7.09427
ᎸᎯ	-7.09766
▁Ꮥ	-7.09947
]	-7.10059
▁ᎠᏂᏧᏏ	-7.10148
▁ᏧᏓᎴᏅᏛ	-7.11279
Ꭴ	-7.11976
▁ᎬᏩᏍᏓᏩᏗᏙᎯ	-7.12387
ᏔᏅ	-7.12853
▁ᎤᎬᏩᎵ	-7.14637
▁ᏣᏂ	-7.147
ᎲᎢ	-7.15245
▁Ꮽ	-7.15581
▁ᎨᏥ	-7.16679
ᏁᏗᏱ	-7.18338
▁ᏗᎦ	-7.19694
▁Ꭸ	-7.19974
▁Ꭳ	-7.20881
▁ᏈᏓ	-7.21258
▁ᎦᎪ	-7.21863
▁ᎣᎩ	-7.22101
▁ᏕᏥ	-7.23367
ᏁᎵ	-7.24033
Ꮦ	-7.24159
ᏓᏅ	-7.25508
▁ᏂᏚᏪᏎᎴᎢ	-7.25839
▁ᏄᏪᏒᎩ	-7.2725
▁ᎢᏤ	-7.27593
Ꮀ	-7.27975
▁ᎪᎯᏳᏗ	-7.28205
ᏍᎬᎢ	-7.28232
▁ᎤᏙᎯᏳᎯᏯ	-7.28431
Ꮯ	-7.29418
▁ᏄᏪᏎᎴᎢ	-7.29928
Ꭷ	-7.30168
▁ᏔᎵᏁ	-7.30229
▁ᎦᏙᏃ	-7.30448
▁ᏝᏍᎪ	-7.30931
ᏍᎬ	-7.3119
▁ᎠᎹ	-7.3179
▁ᎠᎾ	-7.33453
▁ᎨᏒᎩ	-7.33467
ᏙᏗ	-7.33807
▁ᏉᎳ	-7.33878
▁ᏍᎩ	-7.34826
▁ᏥᎷᏏᎵᎻ	-7.35731
ᏁᎸᎯ	-7.35758
▁ᎢᏧᎳᎭ	-7.3586
▁ᎢᎬᏱ	-7.3617
▁Ꮶ	-7.37149
ᏍᎪᎢ	-7.37624
ᏗᎭ	-7.37793
▁ᎠᏓ	-7.3891
▁ᏣᎬᏫᏳᎯ	-7.39355
▁ᎡᏍᎦ	-7.39603
Ꮡ	-7.40957
▁ᎬᏂᏛ	-7.41309
▁ᏓᏂ	-7.41365
▁ᎠᎨᏴ	-7.416
▁ᏂᏚᏪᏎᎸᎩ	-7.41685
▁ᎠᏏ	-7.41773
Ꮰ	-7.42205
Ꭻ	-7.42698
▁Ꭵ	-7.42937
ᎸᎢ	-7.43121
▁ᎠᏰᎵ	-7.43348
▁ᎤᏁᏨ	-7.43456
ᏍᏚ	-7.43934
▁ᏄᏪᏎᎸᎩ	-7.44705
▁ᏧᎾ	-7.46286
▁ᏔᎵ	-7.46621
ᏍᏆ	-7.46817
Ꮏ	-7.47556
▁ᎤᏓᏙᎵᏍᏗ	-7.48028
▁ᏂᎦᏗᏳ	-7.48634
ᎲᎩ	-7.48768
ᎮᎢ	-7.48853
ᏓᎴ	-7.4892
ᏒᎢ	-7.49003
▁ᎠᏕᎸ	-7.4948
▁ᎤᏅᏒ	-7.50143
▁ᏅᏗᎦᎵᏍᏙᏗᎭ	-7.5031
▁ᏧᏪᏥ	-7.50356
▁ᎡᏣ	-7.50621
ᎦᏘ	-7.50683
ᎦᎵ	-7.5162
▁ᏧᎾᏓᎴᏅᏛ	-7.51932
▁ᎦᏚ	-7.52218
▁Ꮴ	-7.53184
ᏙᏗᏱ	-7.54381
▁ᎢᏯᏂᏛ	-7.54464
▁ᏥᎪ	-7.54471
▁ᏗᏣ	-7.54868
▁ᎤᏁ	-7.55099
ᏔᏁ	-7.55809
▁ᎬᏂ	-7.5584
▁ᏅᎩ	-7.56055
ᏁᎭ	-7.56132
Ꮶ	-7.56273
▁Ꮹ	-7.57152
ᏁᏗ	-7.57372
▁ᏂᎪᎯᎸ	-7.57454
ᏙᎵ	-7.57762
Ꮝ	-7.58147
▁ᎤᎾᏓ	-7.58468
▁ᎠᎦ	-7.59155
ᏍᏕ	-7.60225
ᏁᎯ	-7.60288
▁ᎾᏍᎩᏯᎢ	-7.60726
ᎪᎢ	-7.61918
▁ᏗᏥ	-7.61979
ᎬᎢ	-7.62055
ᏛᎦ	-7.62445
▁Ꮩ	-7.62766
ᏍᏙ	-7.62767
Ꮘ	-7.6291
▁ᎠᏫ	-7.63175
ᏍᎨᎢ	-7.63316
▁ᎬᏗ	-7.63605
▁ᎤᏙᎯᏳᎯ	-7.64131
▁ᎬᏩᎦᏘᏯ	-7.64381
▁ᎩᎳᏉ	-7.64658
▁ᏱᎦ	-7.65247
▁ᎤᎵ	-7.65645
ᏄᎪ	-7.65906
▁ᎤᏍᏗ	-7.66763
▁ᎠᏏᏉ	-7.67238
▁ᎾᎥ	-7.67378
▁Ꮫ	-7.67529
ᏁᏟᏴ	-7.68253
▁ᏧᎾᏁᎶᏗ	-7.68264
Ꮋ	-7.68548
ᏔᏂ	-7.69084
▁ᏅᏩᏓᎴ	-7.69408
▁ᎢᎦᎢ	-7.69867
ᏍᎩᏂᏃᏅ	-7.69924
ᏙᎯ	-7.70003
▁ᏙᏓ	-7.70163
ᏉᏍᎩᏂ	-7.7098
!	-7.71246
▁ᏄᎬᏫᏳᏒ	-7.71246
ᏁᎸᎩ	-7.71402
▁ᎠᏰᎸ	-7.71562
▁ᏂᏚ	-7.7226
▁ᎢᏳᏩᏂᏌᏛ	-7.72266
▁ᎤᏇᏓᎵ	-7.72266
ᎰᎢ	-7.72281
▁ᏂᏨᏪᏎᎭ	-7.72299
▁ᏥᏚ	-7.72979
▁Ꭽ	-7.73146
Ꮷ	-7.73193
▁ᏗᎧᎿᏩᏗᏙᎯ	-7.73297
ᎲᎾ	-7.7425
▁ᎤᎵᏂᎩᏛ	-7.74418
ᏄᏬ	-7.7443
ᎬᏩ	-7.74956
▁ᎣᎦ	-7.75135
▁ᏗᏂ	-7.75146
▁ᎢᏓᎵᏅᏟ	-7.75392
▁ᏗᎦᎸᏫᏍᏓᏁᏗ	-7.7541
▁ᏚᎾ	-7.7583
Ꮱ	-7.7628
ᏗᏍᎨᏍᏗ	-7.77049
ᏁᎴ	-7.79501
ᏍᏙᏗ	-7.79504
ᎪᎲ	-7.79823
▁ᏱᎨᏎᏍᏗ	-7.80978
▁ᏅᏯ	-7.81085
▁ᎠᏏᏴᏫ	-7.81218
▁ᏦᎢ	-7.81304
▁ᎤᏅ	-7.81334
ᏍᎬᎾ	-7.81719
▁ᎦᎵᏉᎩ	-7.81951
▁ᎤᏚᎩ	-7.81972
▁ᎦᏚᎲ	-7.81983
ᏲᎯ	-7.8203
▁ᏥᏂ	-7.82579
ᎵᏍᏓ	-7.84001
ᏛᎩ	-7.84078
▁ᏅᏩᏙᎯᏯᏛ	-7.84237
▁ᎤᏕᎵᏛ	-7.8424
▁ᎡᏙᏓ	-7.84315
▁ᎩᎶᏃ	-7.84638
ᏚᎵ	-7.84834
ᏒᎯ	-7.85992
▁ᏱᏣ	-7.86157
ᏅᎢ	-7.86226
▁ᏧᎬᏩᎶᏗ	-7.86576
▁ᏧᏙᎢᏛ	-7.86576
▁ᎠᏂᏍᎦᏯ	-7.86579
▁ᏂᏣ	-7.86597
▁ᎢᏗᏢ	-7.86768
▁ᎢᎨᏎᏍᏗ	-7.87781
▁ᏄᏂᏪᏒᎩ	-7.87905
▁ᏄᏂᏪᏎᎢ	-7.88972
▁ᏕᎦ	-7.89169
▁ᎤᏁᎳᎩ	-7.89293
ᏔᏅᎩ	-7.89314
ᏍᎨ	-7.8969
▁ᏱᏥ	-7.89855
▁ᏂᎦ	-7.90056
▁ᎠᎾᏙᎴᎰᏍᎩ	-7.90191
▁ᎤᎾᏓᏅᏘ	-7.90193
Ꮗ	-7.90306
▁ᎪᏪᎵ	-7.90834
▁ᎢᎬᏱᏱ	-7.90866
▁ᏱᏂ	-7.91334
ᎲᏍᎩ	-7.91345
Ꮮ	-7.91421
▁Ꭷ	-7.91448
▁ᏰᎵᏉ	-7.91991
▁ᎨᏎ	-7.92528
▁ᏔᎳᏚ	-7.92676
▁ᎢᎦᏛ	-7.93292
▁ᎢᎸᎯᏳ	-7.93944
▁ᎢᏳᏰᏃ	-7.94342
▁ᎨᏣ	-7.94354
ᏁᎮᏍᏗ	-7.95586
▁ᏗᎦᎳᏫᎢᏍᏗᏱ	-7.95664
Ꮭ	-7.95866
ᏍᏙᏗᏱ	-7.96154
▁ᎠᏂᏔᎵ	-7.96529
ᏍᏔᏅ	-7.97574
ᏗᏍᎩ	-7.97705
▁ᏌᏩᏂ	-7.97839
▁ᎡᎳᏗ	-7.97934
ᏗᏍᎬ	-7.98396
▁ᏱᏚ	-7.99013
▁ᏄᏂᎬᏫᏳᏒ	-7.99171
▁ᎢᏏᎵ	-7.9918
▁ᎢᏯ	-7.99184
▁ᏕᎤ	-7.99371
▁ᏫᏚ	-7.99651
ᎬᎩ	-7.99728
▁ᎡᏆᎭᎻ	-8.00523
▁ᏱᎰᏩ	-8.00523
▁ᏅᏓᏳᏓᎴᏅᎯ	-8.00531
▁ᎨᎵᎵ	-8.00668
▁ᎠᏍᎦᏂ	-8.01908
▁ᎤᏍᏆᏂᎪᏗ	-8.02063
ᏂᎸ	-8.02148
▁ᎦᏓᎭ	-8.02155
ᏯᏅ	-8.02276
▁Ꮜ	-8.02286
Ꭳ	-8.02777
ᏍᏔᏂ	-8.0294
▁ᎢᎦᏤᎵ	-8.02986
▁ᏥᏕ	-8.03104
▁ᎠᏂᏆᎵᏏ	-8.03281
▁ᏚᏙᎥ	-8.03288
▁ᎤᎾᏤᎵᎦ	-8.03637
ᎦᏛ	-8.04487
▁ᎼᏏ	-8.0469
▁ᏗᏂᎧᎿᏩᏗᏙᎯ	-8.0469
ᎬᎾ	-8.04783
ᎦᏔᎭ	-8.05014
▁ᏱᎨᏎᎢ	-8.05464
ᏓᏅᏛ	-8.05743
▁Ꭺ	-8.05997
▁ᎢᏗ	-8.06371
ᏁᎴᎢ	-8.06542
ᏤᎵ	-8.06816
▁ᏕᏣ	-8.07154
ᎠᏁᎶᎯ	-8.0747
▁ᎠᏙᎴᎰᏍᎩ	-8.07568
ᎯᏍᏗᏱ	-8.076
▁ᎠᏎᏉ	-8.08006
ᎨᎢ	-8.08061
▁ᏓᎾ	-8.08115
▁ᎢᏣᏓ	-8.08215
▁ᏂᎬ	-8.08239
ᎦᏔᎲ	-8.08266
▁ᎬᏩᏂ	-8.08267
ᏗᎦᎳᏫᎢᏍᏗᏱ	-8.08534
ᏲᎱ	-8.08618
ᎴᏅ	-8.08874
▁ᎠᏲᎱᎯᏍᏗ	-8.0904
▁ᏄᎾ	-8.09289
ᎳᏗ	-8.09384
▁ᏂᎬᏅ	-8.09963
Ꮬ	-8.10531
ᎯᏍᏗ	-8.11496
▁ᎤᏥ	-8.11538
▁ᎢᏨᏒ	-8.11542
▁ᎠᏓᏁᎸ	-8.11576
ᎧᏁ	-8.11967
ᏩᏛ	-8.12115
▁ᏅᏓᏳ	-8.12177
▁ᏗᏓ	-8.12459
▁Ꮨ	-8.12568
▁ᎠᎦᏴᎵᎨ	-8.12574
▁ᎤᏲᎱᏒ	-8.12974
▁ᎦᏙᎯ	-8.13127
▁ᏂᎯᏍᎩᏂ	-8.13188
ᎾᏝᎢ	-8.13588
ᏁᎳ	-8.1378
▁ᏗᎬᏩ	-8.13789
▁ᎠᎵ	-8.14571
▁ᏥᎦ	-8.14577
▁ᎤᎪᎲ	-8.14837
▁ᎢᏯᎦᏴᎵ	-8.15147
ᏅᏒᎩ	-8.15449
ᎶᎯ	-8.15458
▁ᏓᏥ	-8.15586
ᏎᏍᏗ	-8.15591
▁ᎠᏁᎲ	-8.15983
▁ᎬᎩ	-8.16026
ᏩᏛᎲ	-8.16052
ᏨᎩ	-8.1672
▁ᎠᏍᎩᎾ	-8.16758
▁ᎤᏩ	-8.17407
ᏙᏓ	-8.17756
▁ᏄᏍᏗ	-8.17914
▁Ꮕ	-8.17914
▁Ꮑ	-8.1802
ᏔᏁᎢ	-8.18038
▁ᎺᎵ	-8.18348
▁ᎦᏳᎳ	-8.1835
▁ᎤᏛᏅ	-8.18384
▁ᎠᏓᎨᏳᏗ	-8.1847
▁ᎤᎾᏛᎦᏅ	-8.19354
ᏁᎲ	-8.19449
▁ᏓᏳ	-8.19515
ᏅᏏᏛ	-8.19786
▁ᏂᎬᎾᏛ	-8.19993
▁ᎤᎵᏂᎩᏗᏳ	-8.20153
▁ᏅᏓ	-8.20273
ᎳᏫ	-8.20358
▁ᏕᏫ	-8.20537
▁ᏂᏥ	-8.20709
ᎫᏴ	-8.2071
▁ᎤᏙᏓ	-8.21024
ᏌᏛ	-8.21292
▁ᎠᎦᏴᎵᎨᎢ	-8.21484
ᏛᏁᏗ	-8.21502
▁ᎤᏂᏲ	-8.21569
▁ᎠᏍᏓᏯ	-8.21663
ᎨᎶᎯ	-8.21787
ᏍᎬᎩ	-8.21831
Ꮉ	-8.2224
▁ᎣᏥ	-8.22491
ᏐᏅ	-8.22739
ᏎᎵ	-8.2293
▁ᎣᏂ	-8.23171
▁ᎠᎾᎵᏅᏟ	-8.23358
▁ᏱᏓ	-8.23792
▁ᎢᎬᏩ	-8.24001
▁ᏓᎦ	-8.24131
ᏍᏔᏅᎯ	-8.24428
▁ᏄᎵᏍᏔᏅ	-8.24471
▁ᎠᏂᏍᎩᎾ	-8.25083
▁Ꮭ	-8.25588
ᏎᎭ	-8.25871
▁ᎥᎩ	-8.25918
▁ᎤᎾᎵ	-8.25959
▁ᎯᏍᎩ	-8.2597
ᏛᎾ	-8.26142
▁ᎠᎩᎾ	-8.26493
▁ᏱᏗ	-8.27226
ᏓᎸ	-8.27341
▁ᎨᏐᎢ	-8.27859
▁ᎤᎷᏨ	-8.28258
▁ᏧᏤᎵ	-8.28523
▁ᏂᏗ	-8.28555
▁ᏆᎴᏗ	-8.28616
▁ᎠᏃᎯᏳᎲᏍᎩ	-8.28673
▁ᎦᎶᎯᏍᏗᏱ	-8.28708
ᏪᎳ	-8.28722
ᎧᎿ	-8.2908
▁ᎠᏛ	-8.2933
ᎢᏍᏗᏱ	-8.29769
▁ᏄᏪᏒ	-8.29885
▁Ꮉ	-8.30409
▁ᏧᏂᏲᎱᏒᎯ	-8.3043
▁ᏅᏩᎾᏓᎴ	-8.30431
ᏅᎦᎸ	-8.30511
▁ᏥᏳᎯ	-8.31004
▁ᏂᎦᏪᏍᎬ	-8.31165
ᏲᎵ	-8.31208
▁ᎢᎦᏛᏃ	-8.31345
ᏍᏗᏍᎩ	-8.31554
▁ᎦᏰᎪᎩ	-8.32284
▁ᎠᏂᎨᏴ	-8.3229
▁ᎨᏥᏅᏏᏛ	-8.3237
ᏨᎯ	-8.32592
▁ᏥᎨᏒᎩ	-8.32677
▁ᏐᎢ	-8.32681
ᏅᏒ	-8.32772
▁ᎤᏁᏤ	-8.32932
▁ᏂᏨ	-8.33227
ᏓᏍᏗᏱ	-8.33582
▁ᏂᏓ	-8.34071
▁ᎤᏬ	-8.34076
▁ᏗᏃᏪᎵᏍᎩ	-8.34169
▁ᏒᏃᏱ	-8.34169
▁ᎢᎬᏱᏗᏢ	-8.34202
ᎧᏅ	-8.34293
ᏤᎢ	-8.34587
ᏒᎾ	-8.34698
▁ᏄᎵᏍᏔᏁᎢ	-8.34882
▁ᎦᎸᎶᎢ	-8.34902
ᎪᏩᏛᏗᏱ	-8.34942
▁ᎬᏗᏍᎬ	-8.35689
▁ᏄᏓᎴᏒ	-8.36093
▁ᎢᏳᏍᎩᏂ	-8.3618
ᏌᎳ	-8.36422
ᏍᎦᎩ	-8.36549
▁ᏥᏥ	-8.36633
▁ᎤᎾᏓᏡᎬ	-8.36704
▁ᎩᎦᎨ	-8.38053
ᏍᏔᏁ	-8.38087
▁ᎤᏤᎵᎪᎯ	-8.38125
▁"	-8.38183
▁ᏕᎬᏩ	-8.38299
▁ᎥᎥ	-8.38374
ᏅᏎ	-8.38424
▁ᏕᏣᏓ	-8.38443
ᏲᏎ	-8.38588
▁ᎦᏥ	-8.38705
ᎢᏍᏗ	-8.38795
▁ᏥᎨᏎᎢ	-8.38837
ᎾᎵ	-8.3886
ᎴᏂ	-8.39142
▁ᏗᎩ	-8.39266
▁ᏥᏄ	-8.39733
ᏛᎢ	-8.39758
▁ᎤᎾᏤᎵ	-8.39803
ᎵᏍᎪᎸᏓ	-8.39991
▁ᎠᎺᏉᎯ	-8.40053
▁ᎤᎾᏙᏓᏆᏍᎬ	-8.40054
▁ᎤᏂᎬᏫᏳᎯ	-8.40054
▁ᎤᏓᎵᎢ	-8.401
▁ᎡᎶᏛ	-8.40106
▁ᏗᎨᏥ	-8.40185
▁ᏨᏒ	-8.40314
▁ᎢᏳᎾᏍᏗ	-8.40355
ᏍᏗᎭ	-8.40572
▁ᎤᏲᎢᏳ	-8.4067
▁ᎤᏂᎷᏤ	-8.40952
▁ᏦᎢᏁ	-8.40969
▁ᏗᎬ	-8.41057
ᏁᎳᏅᎯ	-8.41198
▁ᏥᏳ	-8.41416
ᎶᏒ	-8.41652
ᏍᏔᏅᎩ	-8.41841
▁ᏔᏕᏲᎲᏍᎩ	-8.42094
▁ᎤᏰᎸᏛ	-8.42129
▁ᎩᎬ	-8.42139
ᏂᏏ	-8.42872
Ꮽ	-8.43412
ᏁᎸᎢ	-8.43522
▁(	-8.44177
▁ᎡᎺᏅ	-8.44177
▁ᎠᏍᎪᎯ	-8.44197
ᎵᏃᎮ	-8.44515
ᏁᎰᎢ	-8.4456
ᏙᎴ	-8.44808
▁ᎠᏲᎵ	-8.44899
ᏰᎵ	-8.4502
ᏍᏕᏍᏗ	-8.46284
Ꮾ	-8.46287
ᎷᏤᎸ	-8.46303
▁ᎢᎪᎯᏛ	-8.46307
▁ᎤᏛᎦᏅ	-8.46341
ᏍᏕᎸ	-8.46597
ᏠᏱ	-8.46651
▁ᏅᏗᎦᎵᏍᏙᏗᏍᎬ	-8.46653
▁Ꮤ	-8.46973
▁Ꮟ	-8.47176
▁ᎤᏐᏅ	-8.47337
ᏅᏍᏗᏱ	-8.47381
ᏗᏍᎬᎢ	-8.47797
▁ᏫᏥ	-8.47976
▁ᎢᏳᎵᏍᏙᏗ	-8.48161
▁ᎢᎬ	-8.4829
▁ᎢᎸᎯᏢ	-8.4848
▁ᎾᏆ	-8.48571
▁Ᏺ	-8.48678
▁ᎤᏕ	-8.49219
ᏁᏍᏗ	-8.49266
ᏲᏏ	-8.49479
ᎡᎢ	-8.49847
▁ᎾᏍᎩᏍᎩᏂ	-8.50136
ᎲᎦ	-8.50408
ᏍᏕᎸᏗᏱ	-8.5042
▁ᏅᏓᎬᏩᏓᎴᏅᏛ	-8.50704
▁Ᏼ	-8.50931
▁ᎤᎷᏤ	-8.50933
▁ᎠᏂᏐᎢ	-8.50945
▁ᏅᏗᎦᎵᏍᏙᏗᏍᎨᏍᏗ	-8.5099
ᏅᏟ	-8.51178
ᏅᎾ	-8.51317
ᏁᏤᎸ	-8.51392
▁Ꮀ	-8.51434
▁ᎠᏯ	-8.51935
▁ᏧᏗᏱ	-8.5223
ᏎᎸᎯ	-8.524
▁ᏅᏙ	-8.53443
▁ᏧᏤᎵᎦ	-8.53633
ᎵᏍᏓᏴᏗ	-8.53874
ᏎᏗ	-8.53888
▁ᎢᎾᎨ	-8.53896
ᏍᏗᏰ	-8.54136
▁ᎧᏁᎬ	-8.54288
▁ᏥᏓ	-8.54414
ᎷᏥ	-8.54424
▁Ꮡ	-8.54505
ᏗᎾ	-8.54535
ᎨᏳᎯᏳ	-8.54575
ᎠᏗᏔᏍᏗ	-8.54831
ᏁᏨ	-8.54854
ᏁᎮ	-8.55156
▁ᎢᏳᏟᎶᏛ	-8.55299
▁ᎢᏣᎵᏍᏓᏁᏗ	-8.55315
ᏫᏒ	-8.55357
ᎴᏍᏗ	-8.55448
ᏥᏯ	-8.55839
ᏅᏅ	-8.55847
ᏁᎲᎢ	-8.55932
▁ᏂᎨ	-8.56316
ᎸᎭ	-8.56491
▁ᎬᏅ	-8.56715
ᎡᎵ	-8.571
ᎵᏏ	-8.57222
▁ᎠᏍᎪᎯᏧᏈ	-8.57689
▁ᏧᏂᎸᏫᏍᏓᏁᎯ	-8.57763
ᎵᏍᏗ	-8.57817
▁ᎠᎦᏙᎥᎯᏍᏗ	-8.5782
ᏕᏍᏗ	-8.5782
▁ᏭᏂ	-8.57968
▁ᎠᏁᎲᎢ	-8.57987
▁ᏗᎨ	-8.57995
ᎦᏅᎯᏛ	-8.58005
▁ᎤᎶ	-8.58087
▁ᏫᎬᏩ	-8.58096
ᏓᎵ	-8.58511
ᎾᏄᎪᏫ	-8.58769
▁ᏄᏪᏎᎴ	-8.58878
▁ᏂᏥᎥ	-8.58883
▁ᎨᎦ	-8.59035
ᎦᏴᎵᎨ	-8.59166
ᏁᎰ	-8.59267
ᏕᎰ	-8.5929
▁Ꮼ	-8.59297
▁ᎦᎸᏉᏗ	-8.59615
ᎦᎵᏍᏓ	-8.59918
▁ᎤᎵᏍᏆᎸᏗ	-8.60119
ᏤᎸ	-8.60122
▁ᏈᎵᎩ	-8.60123
▁ᏡᎬ	-8.60134
▁ᏅᏓᎦᎵᏍᏙᏗᏍᎬᎩ	-8.6021
ᎷᏨ	-8.60428
▁ᎠᏇᏥ	-8.60451
ᏍᏔᏁᎢ	-8.60509
▁ᏓᏰ	-8.60532
▁ᎤᏓᏅᏙ	-8.6059
ᎨᏒ	-8.60655
Ꮁ	-8.60901
▁ᎦᏚᎲᎢ	-8.60906
▁Ꭾ	-8.60982
▁ᎠᎦᏔᎲᎢ	-8.61183
▁ᏓᎬ	-8.61229
▁ᎢᎨ	-8.61239
▁ᎨᏐ	-8.6166
ᎾᏄᎪᏫᏎ	-8.61939
ᏛᎯ	-8.62242
ᎥᎢ	-8.62256
▁ᏧᏪ	-8.62315
▁ᎢᏧᎳ	-8.62316
ᏑᏰᏛ	-8.62603
▁ᏗᏓᏍᏚᏗᏱ	-8.62619
▁ᎤᏂᏣᏖ	-8.62622
▁ᎢᎸᏍᎩ	-8.62627
▁ᎡᎭ	-8.62721
▁ᎠᏂᏯᏫᏍᎩ	-8.6276
ᏯᎠ	-8.62894
ᏓᏁᏗ	-8.62949
▁ᏥᎻ	-8.63167
▁ᎾᏍᏉᏍᎩᏂ	-8.63575
ᎾᏍᎩ	-8.63676
▁ᎢᏓ	-8.63678
▁ᏌᏉᏉ	-8.64071
ᏐᎢ	-8.64253
▁ᎡᎵ	-8.6426
ᎦᏔᎮ	-8.64793
▁ᏅᏛ	-8.64906
▁ᏫᎦ	-8.65007
▁ᎠᏓᏅᏖᏍᎬ	-8.65183
▁ᏯᎩ	-8.65183
▁ᏫᎾᏍᏛᎾ	-8.65184
▁ᏗᏂᏲᎵ	-8.6525
▁ᏱᏥᎦᏔᎭ	-8.65253
▁ᎦᏓ	-8.65287
ᎵᏍᏔᏅ	-8.65404
▁ᏕᎨᏥ	-8.65503
▁ᏫᏗ	-8.65685
ᏍᏓᏴ	-8.65743
▁ᎠᎵᏍᏓᏴᏗ	-8.65865
▁ᎢᏅ	-8.6595
▁ᎤᏴ	-8.65953
ᎦᏔᎲᎾ	-8.66116
▁ᏄᏂ	-8.66331
ᏗᏍᎪᎢ	-8.66495
ᏃᎮᎭ	-8.66915
ᏛᏗ	-8.67376
ᎶᏗ	-8.67511
ᏯᏅᏛ	-8.67613
▁Ꮸ	-8.67725
ᏛᏁᎵ	-8.67886
▁ᏄᏛᏁᎸ	-8.67938
ᏕᎩ	-8.67951
▁ᎡᏗ	-8.67982
▁ᎠᏥᎸᏉᏗᏳ	-8.67988
▁ᏍᎩᏯ	-8.68004
▁ᏥᎦᏔᎭ	-8.68218
▁ᏕᎯ	-8.68273
ᏗᏍᏗᏱ	-8.68307
▁ᏙᏛ	-8.68325
▁ᎤᏰᎸᏗ	-8.68442
▁ᎤᏂᎪᎲ	-8.68645
ᎪᏩᏛᏗ	-8.68653
▁ᎤᎸ	-8.6867
▁ᏗᎬᏩᏂ	-8.68796
ᏍᏕᎸᎯ	-8.68855
."	-8.68924
▁ᏱᎨᏎ	-8.6893
▁ᏥᎨᏐ	-8.69198
▁ᏚᏪ	-8.6938
ᏄᎪᏨ	-8.69468
ᏪᏎᎸᎩ	-8.69645
ᎥᎩ	-8.6965
▁ᏱᎬ	-8.6965
ᏩᏛᎮ	-8.70031
ᏁᎬ	-8.70096
ᏕᎵ	-8.70165
▁ᎤᏁᎳᏅᎯᏍᎩᏂ	-8.70169
▁ᎤᏓᏅᏘ	-8.70312
▁ᏖᎸᎳᏗ	-8.70518
ᏫᏎ	-8.70549
ᎢᏳ	-8.70677
▁ᎰᏩ	-8.70694
▁ᏕᎨ	-8.70823
▁ᏩᎦ	-8.7097
▁ᎬᏔᏅᎯ	-8.71031
▁ᎩᎶᏍᎩᏂ	-8.7142
▁ᏤᏥ	-8.71481
ᏅᏏᏓᏍᏗ	-8.71796
▁ᏥᎨᏐᎢ	-8.7194
▁ᏱᏨ	-8.72012
▁ᏄᎵᏍᏔᏅᎩ	-8.72113
▁ᎦᏰ	-8.72186
▁ᎠᏋᏒ	-8.72255
▁ᎠᎪ	-8.72455
ᏍᏆᏂᎪᏗ	-8.72727
▁ᏱᏗᏥ	-8.72828
▁ᎬᏩᎾ	-8.72861
▁ᎤᏢ	-8.73271
▁ᏠᎨᏏ	-8.73295
▁ᎤᏃᏕᎾ	-8.73296
▁ᏗᎾᏓᏅᏟ	-8.73304
▁ᎭᏫᏂᏗᏢ	-8.73312
▁ᎤᏕᏁᎴᎢ	-8.7334
▁ᏥᎪᏪᎳ	-8.73383
ᎪᏗᏱ	-8.73398
▁ᎤᏙᎴᎰᏒ	-8.73545
ᏓᏙᎵᏍᏗᏍᎬ	-8.73612
▁ᎭᏢ	-8.73794
ᏩᏗᏒ	-8.73986
▁ᎡᎩ	-8.74014
▁ᎧᏁ	-8.74069
ᏍᏓᏁᏗ	-8.7422
ᏃᎮᏍᎩ	-8.74653
ᎸᎾ	-8.74672
ᎲᏍᎨᏍᏗ	-8.74784
ᎲᏍᎦ	-8.74822
ᏁᎲᎾ	-8.74827
▁ᏧᎾᏓ	-8.75167
▁ᏧᎵ	-8.75587
▁ᏓᎩ	-8.75762
ᏙᎵᏍᏗ	-8.76112
ᎬᏫᏳ	-8.76136
▁ᏂᏚᏳᎪᏛᎾ	-8.76152
▁ᎢᏦᎯᏳᏒ	-8.76153
▁ᎠᏤᎵᏍᏛ	-8.76154
▁ᎾᏂᏪᏍᎨᎢ	-8.76154
▁ᎢᎾᏛ	-8.76181
▁ᎤᏣᏔᏅᎯ	-8.76258
▁ᏦᏩ	-8.76723
ᎥᎾ	-8.76741
ᎵᏍᏙᏗ	-8.7679
▁Ꮖ	-8.76886
▁ᏗᏨ	-8.76929
ᎧᎲ	-8.77039
▁ᎤᏲᎱᏒᎯ	-8.77336
ᏅᏗ	-8.77632
ᎡᎸ	-8.77721
▁ᏗᎪ	-8.77754
▁ᏱᎨ	-8.78024
ᏰᎯ	-8.7813
▁ᎩᎳ	-8.78285
▁ᏔᎵᏁᏃ	-8.78286
▁ᏥᏯ	-8.78558
ᎸᏉᏗᏳ	-8.78882
▁ᏅᏗᎦᎵᏍᏙᏗᏍᎨ	-8.7889
▁ᎢᏨᎨᏳᎢ	-8.79094
ᏗᎦᏅᏌᏗ	-8.79094
▁ᏎᏓᏂ	-8.79094
▁ᏥᏂᎬᏅ	-8.79096
ᏟᏂᎬᏁ	-8.79101
▁ᎠᏂᏍᎦᎾ	-8.79107
ᎨᏳᏎᏍᏗ	-8.7911
ᎧᏂ	-8.79115
ᏍᏆᏛ	-8.79994
▁ᏧᏓ	-8.80073
▁ᏣᏥ	-8.80185
▁ᎤᏬᎯᏳ	-8.80335
▁ᎬᏂᏳᏉᏃ	-8.80597
▁ᎤᎦᏔ	-8.80628
ᎵᏍᏕᎸᏙᏗ	-8.81191
ᏓᏍᏗ	-8.81905
▁ᎤᎩᏨᏛ	-8.82124
▁ᎢᏳᎾᎵᏍᏓᏁᏗ	-8.82125
▁ᎢᏥᏍᎦᏯ	-8.82132
▁ᎤᏚᎵᏍᎬ	-8.82149
▁ᎠᏍᎦᎾ	-8.82156
▁ᏄᏍᏕᏍᏗ	-8.82269
ᏁᎶᏗ	-8.82451
ᏪᏒ	-8.82578
▁ᎾᎿᏂ	-8.82701
▁ᎢᏤᎲ	-8.8281
ᏰᏂ	-8.82976
ᏟᏌ	-8.8393
▁ᎧᏃᎮ	-8.84014
ᏗᏔᏍ	-8.84017
ᏍᏗᏍᎨᏍᏗ	-8.84114
ᎮᎸ	-8.84431
ᏌᏂ	-8.84626
▁ᏂᏕ	-8.84638
ᎴᎯᏐᏗ	-8.84721
▁ᏗᏤ	-8.84771
▁ᎤᏣᏘᏂ	-8.84954
▁ᎠᏆᏤᎵ	-8.84987
▁ᏴᎬ	-8.85205
▁ᎢᎳᏯ	-8.85256
▁ᎠᎰᎵ	-8.85266
▁ᎬᏃᏛ	-8.85318
ᏕᏯᏙ	-8.85396
ᏁᏍᎨ	-8.85427
▁ᏧᏅᏏᏓᏍᏗ	-8.85623
▁ᏧᏓᏏ	-8.8563
▁ᎤᎧᎵᏨᎯ	-8.85633
ᎷᏤᏗᏱ	-8.85676
▁ᎦᏁᎸ	-8.85804
▁ᎤᏠᏱ	-8.85905
ᏍᏓᏱ	-8.85923
▁ᎤᏂᏁ	-8.85951
▁ᏴᎦ	-8.86023
▁ᏣᏁᎭ	-8.86061
ᏍᏕᎸᏗ	-8.86076
▁ᏣᏓ	-8.86293
▁ᎠᏇ	-8.86351
▁ᎠᏰᎸᎢ	-8.86463
ᏯᏅᎲ	-8.8665
▁ᏳᏂ	-8.86787
▁ᎤᏛᎾ	-8.86873
▁ᏱᏙ	-8.86923
▁ᏣᎾ	-8.86961
▁ᎤᏂᏁᏨ	-8.8702
▁ᎠᏄᏬ	-8.87084
ᎪᎯ	-8.87177
ᏎᎴ	-8.87186
▁ᎪᏪᎸ	-8.87238
▁ᏚᏬ	-8.87502
▁ᎾᏂ	-8.87512
ᏕᎬ	-8.87655
▁ᎤᏩᏒᏉ	-8.87843
ᎧᎵᎢ	-8.87891
▁ᎤᏍᎦᏅᏨ	-8.88053
ᏍᏗᏍᎬ	-8.88113
ᏍᏓᏁᎸ	-8.88246
▁ᏤᏣ	-8.88257
▁ᏅᎬᏩᏪᏎᎸᎩ	-8.88475
▁ᏗᎵᏍᏓᏴᏗᏱ	-8.88476
▁ᎤᎴᏅᎮ	-8.88477
▁ᏗᏥᎾᏫ	-8.88478
▁ᎢᏣᏛᏁᏗᏱ	-8.88479
▁ᏂᎬᏩᏪᏎᎴᎢ	-8.88482
▁ᏂᎦᏪᎭ	-8.88776
▁ᎢᏥᎦᏔᎭ	-8.89005
▁ᏥᏄᏍᏗ	-8.8905
▁ᎡᎮ	-8.8924
ᎪᏩᏛ	-8.89469
ᏛᏁᎸ	-8.89514
ᏗᏍᎪ	-8.9004
▁ᎦᏁᎸᎢ	-8.90318
▁ᎤᎷᏨᎩ	-8.90336
▁ᎢᏣᎵ	-8.90549
▁ᏤᎭ	-8.90637
▁ᎤᏂᏍᎦᏅᏨ	-8.90838
▁ᎦᏁ	-8.91114
▁ᏅᏩᏓᎴᏃ	-8.91274
ᏛᏁᎲ	-8.91493
ᏕᏲ	-8.91605
ᏲᎢᏳ	-8.91784
▁ᏱᎦᎵᏍᏙᏓ	-8.91808
▁ᎠᏰᎳᏍᏗ	-8.91808
▁ᏔᎴᎲᎦ	-8.91808
▁ᎤᏔᎳᏬᎯᏍᏗ	-8.91809
▁ᏗᏂᎳᏫᎩ	-8.91809
▁ᎤᎵᏏᎬ	-8.91824
ᏍᏕᎵᏍᎬ	-8.91879
ᏡᏗᏍᎩ	-8.91923
▁ᎠᏂᏏᏴᏫᎭ	-8.92036
▁Ꭻ	-8.92215
▁ᎤᏟᎯᏳ	-8.92568
▁ᎠᎦᏔᎲ	-8.92887
▁ᏚᎴᏅ	-8.93713
▁ᏂᎪᎯᎸᎢ	-8.93738
▁ᎦᏍᎩᎸ	-8.93851
ᏕᎢ	-8.93992
▁ᎤᏓᏅᏖ	-8.94099
▁ᏚᏃ	-8.94101
▁ᎤᏪᎷ	-8.94114
ᎨᏳᎯ	-8.94292
▁ᎤᏒ	-8.94694
ᏃᎮᏍᎬ	-8.948
▁ᏴᏫᏉ	-8.94934
ᏕᎶᏆ	-8.95166
▁ᎨᏥᎸᏉᏗ	-8.95256
▁ᏂᎦᎵᏍᏗᎭ	-8.95257
▁ᏕᎤᏙᎥ	-8.95259
▁ᎠᏣᏗ	-8.95308
ᏟᎶᏍ	-8.95328
▁ᎢᏳᏓᎴᏅᏛ	-8.9534
▁ᎦᎷᏨᎭ	-8.95401
▁ᎦᏬᏂᏍᎬ	-8.95402
▁ᎦᎸᏉᏙᏗ	-8.95443
ᏎᎮᏍᏗ	-8.95447
▁ᎠᏓᏁᎯ	-8.95524
▁ᏅᏗ	-8.95647
▁ᏕᏣᏓᏅᏛᎢ	-8.95776
▁ᎤᏄ	-8.95901
▁ᏯᏆ	-8.96113
ᎫᏴᎡᏗ	-8.96138
ᏂᎪᎯ	-8.9616
▁ᎡᏆ	-8.96166
ᏛᏂ	-8.96235
ᏓᏅᏖᏗ	-8.96311
ᎯᎠ	-8.96532
ᏛᏁᎭ	-8.96701
▁ᏱᏍᎩ	-8.97262
▁ᎦᎸᎶ	-8.97467
▁ᏂᏚᏪᏎᎴ	-8.97515
▁ᎡᎲ	-8.97801
▁ᎦᏥᏯ	-8.98149
ᎡᏗᏱ	-8.98269
ᎨᎳᏍᏗᏱ	-8.9833
▁ᎠᏋ	-8.98473
ᎪᎵᏰᏗ	-8.98502
ᏁᏉᏤ	-8.98572
ᏙᎴᎰᎯᏍᏗ	-8.98651
ᏯᎥᎢ	-8.98719
▁ᎭᏫᏂ	-8.98819
▁ᏃᏈᏏ	-8.98828
▁ᏄᎵᏍᏔᏂᏙᎸ	-8.98828
▁ᏓᏓᎿᏩᏍᏛ	-8.98828
▁ᎢᏓᏓᏅᏟ	-8.98828
▁ᏙᏱᏗᏢ	-8.98828
▁ᏅᏓᏳᎶᏒᎯ	-8.98828
ᎪᏩᏘᎭ	-8.98829
▁ᏆᏂᏆ	-8.98829
▁ᏗᏅᏃᏛ	-8.98829
▁ᎾᏍᎦᏅᎾ	-8.98829
▁ᎤᎵᏍᏆᏗᏍᏗ	-8.98831
▁ᎤᎦᎵᏍᏗ	-8.98847
▁ᏗᎩᎦᏴᎵᎨ	-8.98865
ᏣᏘ	-8.98915
▁ᎢᎬᏁᎸᎯ	-8.98938
▁ᎤᎩᎬ	-8.98955
▁ᏗᏓᏅᏙ	-8.99023
▁ᎣᏓᎸ	-8.9903
ᏚᎢᏍᏓᏁ	-8.99365
ᏬᏂᎯᏍᏗ	-8.99584
ᏗᏍᎨᎢ	-8.99646
▁ᎦᏛᎦ	-8.99658
ᏂᏗᏳ	-8.99944
▁ᏕᏨ	-8.9996
▁ᎠᏂᎦᏔᎲᎢ	-9.00037
ᏢᏅᎯ	-9.00114
▁ᎣᏣ	-9.0034
▁ᎤᏣ	-9.00466
▁ᎦᎨ	-9.0063
▁ᎢᏤᎲᎢ	-9.00938
ᎳᏏ	-9.0111
▁ᎠᎾᎵ	-9.0119
ᏓᏙᎵᏍᏗ	-9.01213
▁ᏥᎨᏎ	-9.01574
▁ᏗᏣᏓ	-9.01646
▁ᎪᎵ	-9.01659
▁ᏗᎨᏒ	-9.01824
▁ᏥᏫ	-9.01937
ᏏᏴᏫᎭ	-9.02278
ᏍᏓᏩᏗᏙᎯ	-9.02477
▁ᏫᏓ	-9.02501
▁ᏐᏈᎵ	-9.02532
▁ᎤᎵᏍᏈᏗ	-9.02532
▁ᏓᏆᏙᎥ	-9.02532
▁ᎢᏨᏲᏎᎭ	-9.02533
▁ᎾᏎᎵᏗ	-9.02537
▁ᎬᏬᎯᏳ	-9.02543
ᎵᏍᎪᎸᏙᏗ	-9.02543
▁ᏗᎨᎦᏁᎶᏗ	-9.02543
▁ᏧᏂᏢᎩ	-9.02544
▁ᎾᎩᏪᏎᎸᎩ	-9.0255
▁ᎥᏓᎵ	-9.0265
▁ᎠᏥᏅᏏᏓᏍᏗ	-9.02671
▁ᎦᏛᎬ	-9.02688
▁ᎢᎩᏙᏓ	-9.02771
▁ᎢᏧ	-9.02827
▁ᎣᏂᏃ	-9.029
▁ᏴᎨ	-9.02944
▁ᏄᎾᏍᏛ	-9.03043
▁ᎠᏆᏤᎵᎦ	-9.0315
▁ᎮᎾ	-9.03378
ᎸᏉᏙᏗ	-9.03395
)	-9.03517
▁ᎢᏯᏛᏁᏗ	-9.03721
ᏓᏂᎸᎢᏍᏗ	-9.03748
▁ᎠᎾᏓ	-9.03797
ᎸᏫᏍᏓᏁᎭ	-9.03879
ᏒᎭ	-9.04054
▁ᎾᎾᏛᏁᎲ	-9.04248
▁ᎪᏪᎵᎯ	-9.04477
▁ᏥᏣ	-9.04492
ᏘᏅᏍᏔ	-9.04559
▁ᏭᎷᏤ	-9.04677
ᏍᎦᏅᏤ	-9.04697
ᎥᏍᎩ	-9.04736
▁ᏄᎵᏍᏔᏁ	-9.04995
▁ᏚᎾᏓᏅᏛ	-9.05098
▁ᎤᏁᎳ	-9.05211
▁ᏭᎾ	-9.05243
ᎵᏍᎪᎸᏓᏁᎸᎯ	-9.05342
ᎳᏅᎯ	-9.05627
▁ᎢᏳᎾᏛᏁᏗ	-9.05995
▁ᎠᎲ	-9.06066
ᏲᎦ	-9.06205
▁ᏧᎸᏫᏍᏓᏁᎯ	-9.06378
▁ᎢᏯᏛᏁᎯ	-9.06378
▁ᏤᎦᏈ	-9.06379
▁ᎢᏥᏈᏱ	-9.06381
▁ᎢᏳᏩᏂᏐᏗᏱ	-9.06384
▁ᏐᎳ	-9.06386
▁ᎢᏳᎵᏍᏓᏁᏗ	-9.06386
▁ᎤᏕᏯᏙᏗ	-9.06398
▁ᎤᎾᏙᎴᎰᏒ	-9.06475
▁ᎠᏆᏓᏅᏙ	-9.06481
▁ᏅᏲᎯ	-9.0649
ᏓᏑᏯ	-9.06538
▁ᎢᏥᏙᏓ	-9.06972
▁ᎤᏠᏱᏉ	-9.07027
▁ᎯᏯ	-9.07061
▁ᎢᎦᎦᏛ	-9.07067
ᏕᎨᏍᏗ	-9.07414
▁ᎠᏂᎪᎢ	-9.07563
▁ᎬᏙᏗ	-9.07707
ᏰᎵᏎ	-9.07752
--	-9.0784
ᎲᏍᎨ	-9.08211
ᎪᏩ	-9.08216
▁ᏅᏩ	-9.08473
▁Ꮺ	-9.08587
▁ᏂᎦᎥᏉ	-9.08864
ᏪᏎᎴᎢ	-9.08889
▁ᎠᎬ	-9.08974
▁ᏥᎨ	-9.08977
ᏍᏆᏂ	-9.09021
ᏰᎸᏗ	-9.09074
ᏍᏚᎲ	-9.09093
▁ᎾᏂᎥᏉ	-9.09174
ᎵᏦ	-9.09817
▁ᎠᏗᎭ	-9.09821
▁ᎡᎯᏍᏗ	-9.0995
ᎵᏍᏆᏗᏍᎩ	-9.10322
▁ᎧᏃᎯᏰᎩ	-9.10378
ᎪᏣᎴᏛ	-9.10379
▁ᏚᎸᏫᏍᏓᏁᎸ	-9.10392
▁ᎤᏬᏰᏂ	-9.10413
ᎫᎪᏓ	-9.10444
▁ᏣᎦ	-9.10489
▁ᎠᏲᎩ	-9.10518
▁ᎠᏆᏛᎦᏅᎩ	-9.10648
▁ᎤᏃᎴ	-9.10691
▁ᏗᎨᏫ	-9.10693
ᏓᎴᏅᏛ	-9.10705
▁ᎤᏂᏬᏂᎯᏍᏗ	-9.10733
▁ᏙᏗ	-9.11287
ᎡᎯ	-9.11343
ᏗᏢ	-9.11379
ᏃᎮᏍᎬᎢ	-9.11396
ᏴᎵ	-9.1146
▁ᎤᏅᏏᏓᏍᏗ	-9.11557
ᏍᏛᎾ	-9.11656
▁ᎠᎦᏔ	-9.11987
▁Ꮘ	-9.12077
▁ᎾᏍᎩᏯᏉ	-9.12356
ᏴᎲ	-9.12379
▁ᎦᎶ	-9.12803
▁ᏉᎳᏃ	-9.13015
▁ᎠᎢᏒ	-9.13093
ᏗᏍᎨ	-9.13217
▁ᏥᎬ	-9.13707
▁ᎢᏣᏚᎵ	-9.13711
▁ᎠᏂᎦᏔᎲ	-9.13877
ᏓᎳ	-9.13919
▁ᏧᏂᎾᏫ	-9.14146
Ꮊ	-9.14541
▁ᏄᏃᎯᏳᏒᎾ	-9.14544
▁ᏚᏂᎸᏫᏍᏓᏁᎲ	-9.14544
▁ᏅᏓᏳᎵᏍᏙᏔᏅᎩ	-9.14544
▁ᏅᏛᎩᏅᏏᏛ	-9.14545
▁ᏗᏓᎴᏂᏍᎬ	-9.14545
▁ᎢᏳᎾᏛᎿᏕᎩ	-9.14551
ᏍᎦᏅᎢᏍᏗ	-9.14575
▁ᏑᏓᎵ	-9.14588
▁ᎤᏪᎿᎢ	-9.14626
▁ᏚᏁᏤᎴ	-9.14695
▁ᏗᎫᎪᏙᏗᏱ	-9.14791
▁ᎤᎾᎵᎪ	-9.1486
▁ᏓᎶᏂᎨ	-9.14861
▁ᎢᏦ	-9.1508
▁ᏩᏍᏛ	-9.15161
ᏓᏅᏙ	-9.15541
ᏩᏛᏗᏱ	-9.15679
ᏱᎵᏙ	-9.16012
ᏎᎮ	-9.1615
▁ᎪᏪᎸᎢ	-9.16391
ᎸᏫᏍᏓᏁᏗ	-9.16428
ᏥᏌ	-9.16568
▁ᏗᎾ	-9.16667
ᏩᏛᎯ	-9.16872
ᎦᏚ	-9.16918
▁ᏯᏂ	-9.16962
ᏗᏍᎬᎩ	-9.16975
ᏉᏃ	-9.17216
ᏛᏅᎢᏍᏓ	-9.17388
ᏎᏗᏱ	-9.18064
ᎵᏍᎪᎸᏔᏅᎯ	-9.18115
▁ᎢᏳᏪ	-9.18205
▁ᏱᏂᎬ	-9.18259
ᏄᎪᏤ	-9.18271
ᏘᏂᏙᎯ	-9.18653
▁ᎤᏪᏅ	-9.18818
ᏕᎦ	-9.18834
▁ᎢᏤᏯᏔᎮᏍᏗ	-9.18892
▁ᎬᏩᏚᏫᏛ	-9.18892
▁ᎹᏏᏙᏂ	-9.18892
▁ᏅᎦᏍᎪᎯ	-9.18892
▁ᏓᏕᏲᎲᏍᎬ	-9.18892
ᎦᏙᎥᏒ	-9.18893
▁ᏗᏕᏲᏗ	-9.18894
▁ᏗᎹᏗ	-9.18895
ᏂᎳᏍᏓᎸ	-9.18896
▁ᎤᏣᎴᏍᏗ	-9.18921
▁ᏫᏂ	-9.18921
▁ᏗᎧᎿᏩᏛᏍᏗᏱ	-9.18935
▁ᎠᏥᎸᏱ	-9.1897
▁ᎨᏥᏅᏏᏓᏍᏗ	-9.19018
▁ᎠᎦᏘᏏᏗᏢ	-9.19049
▁ᎬᏂᏗᏳ	-9.19063
▁ᏣᏤᎵ	-9.19073
▁ᏧᎾᏤᎵ	-9.19087
▁ᏏᏌ	-9.19118
▁ᎤᏙᎯᏳᏒ	-9.19185
ᏅᏓᏕ	-9.19477
▁ᎤᎾᏄᎪᏫᏒᎯ	-9.19484
▁ᎤᏂᏍᏆᏂᎪᏎᎢ	-9.19553
▁ᎠᏍᏓᏱ	-9.1962
ᏩᏒ	-9.19701
▁ᏚᎾᏓ	-9.199
ᎶᎯᏍᏗᏱ	-9.19959
ᎶᏛ	-9.20059
ᏚᏓᎴᏍᏙᏗ	-9.2018
ᎨᏳᎭ	-9.20375
ᏍᏆᏂᎪᏙᏗᏱ	-9.20489
ᏅᏩᏅ	-9.2068
▁ᏨᏓ	-9.20785
ᎦᏔᎯ	-9.20919
▁ᏱᏗᏣ	-9.20927
ᏲᎭ	-9.21457
▁ᏄᏪᏎ	-9.21817
▁ᏧᏓᎴ	-9.22414
ᏚᎸᏫᏍᏓᏁ	-9.22504
▁ᎢᏳᎾ	-9.23076
ᎤᏁᎳᏅᎯ	-9.23123
▁ᎨᎳ	-9.23141
▁ᏛᏂ	-9.23317
▁ᎢᏣᏤᎵ	-9.23331
ᏛᏓᏍᏓᏁ	-9.2335
▁ᏂᏚᎩᏨᏂᏒ	-9.23438
ᏍᎦᎢᎲᎾ	-9.23447
▁ᏞᎦ	-9.23447
▁ᏑᎾᎴ	-9.23453
▁ᎤᎾᏤᎵᎪᎯ	-9.23475
▁ᎤᎶᎩᎸ	-9.2348
▁ᏄᏪ	-9.23537
▁ᏭᎷᏨ	-9.23599
▁ᏗᏘᏂᏙᎯ	-9.23673
▁ᏦᎩ	-9.2369
▁ᎦᏬᏂᎯᏍᏗ	-9.23695
▁ᎠᏓᏅᏓᏗᏍᏗ	-9.2388
▁ᎤᏰᎸᏅ	-9.23883
▁ᏅᏗᎦᎵᏍᏙᏗᏍᎪ	-9.23912
▁ᎠᎧᎵᎢ	-9.24311
▁ᎢᏥᏰᎸ	-9.24373
▁ᏓᎾᏓ	-9.24488
▁ᏚᎵ	-9.24491
▁ᏗᏦ	-9.24646
▁ᎬᏗᏍᎩ	-9.24909
ᏠᏯᏍᏗ	-9.24914
ᏍᏕᎵᏍᎩ	-9.24952
▁ᎢᎪ	-9.2496
▁ᎤᏁᏨᎩ	-9.25024
▁ᏚᎾᏓᏅᏛᎢ	-9.25128
ᏉᏰᏃ	-9.25167
▁ᎡᎦ	-9.25389
▁ᏧᏩ	-9.25435
ᏙᎵᎩ	-9.25524
▁ᏗᏆ	-9.26014
ᏚᎵᏍᎨ	-9.26027
▁ᏫᎬ	-9.26085
▁ᏗᏗ	-9.26249
▁ᏗᎨᎦ	-9.26434
▁ᏱᏅ	-9.26685
▁ᎤᏁᎬ	-9.26796
▁ᏫᎤ	-9.2725
ᏅᏏᏙᎯ	-9.27394
ᎳᏏᏕᏂ	-9.2786
ᏬᏂᏍᎬ	-9.27902
ᏠᎾᏍᏗ	-9.27945
ᎢᏍᏙᏗ	-9.28061
▁ᎾᎩ	-9.28095
▁ᏓᏠᎯᏍᏛ	-9.28199
▁ᏕᎨᏌᏗᏒ	-9.28199
▁ᎠᏖᎵᏙ	-9.282
▁ᎧᎳᏩᏗᏒ	-9.282
▁ᎣᏣᎵᏅᏟ	-9.282
▁ᎢᏳᎾᎵᏍᏙᏗᏱ	-9.282
▁ᎤᏕᎰᎯᏍᏗ	-9.282
▁ᎡᏈᏌ	-9.282
▁ᏂᏥᏪᎭ	-9.28201
▁ᏕᏣᏙᎥ	-9.28204
▁ᎢᏌᏯ	-9.28205
▁ᏨᏍᎩᏃ	-9.28207
▁ᎠᏥᎦᏘᏗᏍᏗ	-9.28209
▁ᎤᏃᎯᏳᏅ	-9.28214
▁ᏗᏰᎸᎯ	-9.28218
▁ᎤᎾᏓᏅᏖ	-9.28223
ᏍᏓᏩᏕᎩ	-9.2824
▁ᏂᎦᏪᏍᎨᎢ	-9.28248
▁ᏄᎬᏫᏳᏌᏕᎩ	-9.28257
▁ᎤᎧᏛ	-9.28259
▁ᏓᎦᎷᏥ	-9.28259
▁ᎢᏗᎦᏔᎭ	-9.28313
▁ᎡᏙᎲ	-9.2836
▁ᏗᏣᏤᎵ	-9.28392
ᎢᏳᏍᏗ	-9.28417
▁ᏕᏥᎸᏫᏍᏓᏁᎲ	-9.28505
ᏓᏬᏍ	-9.28648
▁ᎤᎵᎮᎵᏍᏗ	-9.28657
▁ᎢᏳᏓᎴ	-9.28784
ᏤᎭ	-9.28893
ᎷᏨᎭ	-9.28917
▁ᎤᏙ	-9.28937
▁ᏗᎦᏙᎵ	-9.29001
ᏚᎲ	-9.2918
▁ᏚᎸᏫᏍᏓᏁᎲᎢ	-9.29345
ᏥᎪᎥ	-9.2935
ᎯᏍᏙᏗ	-9.295
ᏩᏛᏗ	-9.29618
ᏚᎪᏓ	-9.2972
ᎷᎯᏍᏗ	-9.29952
ᏛᏅᎢᏍᏗ	-9.29976
ᎫᏓᎴ	-9.30011
ᏍᏗᏍᎬᎢ	-9.30059
ᏓᎴᏅᎯ	-9.30294
▁ᎢᏣᏓᏅᏖ	-9.30394
▁ᎦᏙᎨ	-9.30557
ᎠᎴ	-9.30836
ᏙᎮᏍᏗ	-9.3125
▁ᎠᏂᏁ	-9.31548
▁ᎦᏙᎬ	-9.31566
▁ᏥᏍᏆ	-9.31674
▁ᏄᏓ	-9.31809
,)	-9.31876
▁ᏂᎦᏪ	-9.32269
▁ᏂᏙ	-9.32446
ᎾᏄᎪᏫᏎᎸ	-9.32505
ᏍᎦᎢᎮ	-9.32519
▁ᏓᏲ	-9.32626
ᎷᎦ	-9.32985
▁ᏑᎾᏓᏡᎩ	-9.332
▁ᏨᏗᏓᎴᎲᏍᎦ	-9.332
▁ᏄᏂᎬᏫᏳᏌᏕᎩ	-9.3321
ᏁᏢᏔᏅᎯ	-9.33216
▁ᎠᏉᎯᏳ	-9.33229
▁ᎠᏍᎪᎵ	-9.33265
▁ᎤᎵᏁᏨ	-9.33338
▁ᎠᎾᎵᎮᎵ	-9.33528
▁ᏂᏗᎥ	-9.33559
▁ᎤᎷᎯᏍᏗᏱ	-9.33564
▁ᏙᎩ	-9.33628
▁ᎤᎾᎵᏍᏓᏴᏗ	-9.33641
▁ᏭᎶᏎᎢ	-9.33671
▁ᏕᎬ	-9.33687
▁ᏧᎾᏍᏗ	-9.33766
ᏁᏤᎸᎯ	-9.34011
▁ᏦᏥ	-9.34082
▁ᎤᏲᎱᏎ	-9.34232
▁ᎠᎵᏍᏕᎸᏙᏗ	-9.34233
▁ᎣᏂᏱ	-9.34427
▁ᎬᏆ	-9.34519
▁ᎢᏳᏩ	-9.34575
▁ᎤᏩᏒᎯᏳ	-9.34599
▁ᎤᏰᎯ	-9.34622
▁ᎠᏲᎱᏍ	-9.34738
▁ᎤᏪᏘ	-9.34933
▁ᏗᎨᏒᎢ	-9.35271
▁ᏫᏣ	-9.35313
▁ᏥᏰᎸ	-9.35722
ᎸᏉᏙᏗᏱ	-9.35873
▁ᏓᏨ	-9.36165
ᎡᎸᎩ	-9.36215
ᎸᏉᏔᏅ	-9.36346
▁ᎠᏏᏴᏫᏃ	-9.36599
▁ᎤᎾᏓᏡᎬᎢ	-9.36936
▁ᎤᎧᎵ	-9.37278
ᎴᏅᎲ	-9.37625
▁ᏂᎯᏰᏃ	-9.37707
ᎵᏍᎦᏍᏙᏛ	-9.3785
ᏃᏁᎴ	-9.3808
ᎧᎿᏩᏛᏍᏗ	-9.38285
▁ᎤᏚᎸᏗ	-9.38463
▁ᏗᎪᏢᏔᏅᎯ	-9.38463
▁ᎦᎵᏦᏕ	-9.38463
ᏂᎬᏎᎲ	-9.38463
▁ᎢᏨᏲᏪᎳ	-9.38464
▁ᎤᎾᏓᏤᎵᏛ	-9.38464
▁ᎪᎯᏳᎲᏍᎩ	-9.38464
▁ᎦᎵᏦᏛ	-9.38466
▁ᎤᎾᏁᎳᎩ	-9.38469
▁ᎡᏏᏱ	-9.38478
▁ᏱᏅᏗᎦᎵᏍᏙᏗᎭ	-9.38497
▁ᎤᎵᏏᎩ	-9.38501
▁ᎡᏏᎩ	-9.38502
▁ᏄᎾᏛᏅ	-9.38503
▁ᏧᏂᎸᏫᏍᏓᏁᏗᏱ	-9.38509
▁ᎢᏣᎵᏍᏙᏗᏱ	-9.38525
▁ᏂᏣᏛᏁᎸ	-9.38538
▁ᎤᎶᏐᏅ	-9.38539
ᏕᏘᏴ	-9.38541
▁ᏂᏣᏛᏁᎲ	-9.38553
▁ᏗᎦᏚᎲ	-9.38564
▁ᎪᎯᏗᏳ	-9.3859
ᎪᎵᏰᎥ	-9.3869
ᏲᎱᏎ	-9.38728
▁ᏏᏆ	-9.38778
▁ᎠᏂᏅ	-9.38787
▁ᏥᎨᏒ	-9.38823
▁Ꮗ	-9.38985
▁ᎢᏨᏗᏍᎨᏍᏗ	-9.39005
▁ᏣᏁᎳᏅᎯ	-9.39041
▁ᎤᏂᏣᏛᎩ	-9.39047
ᎷᏤᎵ	-9.39053
▁ᎦᏰᏥ	-9.39076
ᏘᏰ	-9.39088
▁ᎪᏪᎳ	-9.39115
,]	-9.39128
▁ᏓᏁᏩᏗᏒᎢ	-9.39425
▁ᏱᎬᏩ	-9.39523
ᏥᏁᎦ	-9.39523
▁ᎤᏂᎯᏍᏗᏱ	-9.39697
▁ᏄᏅᏁ	-9.39894
▁ᏂᎬᏩ	-9.39942
▁ᎠᎦᏛ	-9.40085
ᎦᏔᎰ	-9.40152
▁ᎤᏂᏣᏔ	-9.40205
▁ᎢᎦᏤᎵᎦ	-9.405
▁ᏥᏓᏂ	-9.40658
▁ᏗᏍᎩ	-9.40867
▁ᎾᎯᏳᏉ	-9.40926
ᏍᏉ	-9.41138
▁ᏃᎦ	-9.41392
ᏍᏘ	-9.41471
ᏂᏪᏎ	-9.41508
▁ᎤᏬᎸ	-9.41574
▁ᏫᏄ	-9.41645
▁ᎧᏁᎬᎢ	-9.41869
▁ᎪᎯᏍᎩᏂ	-9.4253
▁ᏄᎵᏍᏔᏅᎢ	-9.42934
ᎵᏰᎢᎶ	-9.43059
▁ᎢᏳᎢ	-9.43233
ᏛᎩᏍᎬ	-9.43245
▁ᏗᏆᏤᎵ	-9.4353
▁ᎡᎳᏪ	-9.43615
▁ᎤᏂᎷᏨ	-9.43764
ᏥᎾᏝᎥᎾ	-9.44018
▁ᏌᎺᎵᏱ	-9.44018
▁ᎤᎵᎮᎵᏨ	-9.44018
▁ᎤᏍᏆᎸᎲ	-9.44018
▁ᏗᏟᎶᏍᏔᏅᎯ	-9.44018
▁ᎤᏂᏃᏕᎾ	-9.44019
▁ᎤᏇᏓᎸ	-9.44019
▁ᎬᏩᏟᏍᏗ	-9.44024
▁ᏱᏄᏍᏗ	-9.44024
▁ᏮᏓ	-9.44025
▁ᎤᏚᎵᏍᎨᏍᏗ	-9.44026
▁ᎣᎵᏩ	-9.44026
▁ᏧᏒᎯᏛ	-9.44027
ᏑᎵᎪ	-9.44032
▁ᏙᎴᏛ	-9.44034
▁ᏂᎬᏩᏪᏎᎸᎩ	-9.44036
▁ᎠᎾᏓᏅᏟ	-9.44051
▁ᎢᏣᎵᏅᏟ	-9.44056
▁ᏱᎨᏐᎢ	-9.44057
▁ᏗᏓᏘᏂᏙᎯ	-9.44059
▁ᎠᎩᎵᏯ	-9.4406
▁ᏚᎳᏍᎬ	-9.44073
▁ᏗᏣᏓᏅᏙ	-9.44094
ᏳᎪᏓᏁ	-9.44099
▁ᎢᏳᏩᏁᏗᏱ	-9.44106
ᎵᏏᎾᎯᏍ	-9.44107
ᏓᏅᎦᎸᏛ	-9.44274
ᏯᎡᏍᏗ	-9.44297
ᏂᏴᏗ	-9.44306
ᎵᏂᎪᎯᏍᏗ	-9.44343
▁ᎠᏂᎦᏔᎯ	-9.44353
ᎾᏰᏍᎬᎾ	-9.44383
▁ᏧᎳᏏᏕᏂ	-9.44406
▁ᎠᎩᏁᏨ	-9.44483
▁ᎠᏂᏂ	-9.44512
▁ᎤᎷᎯᏍᏗ	-9.44564
ᏔᏲᏎᎸᎩ	-9.44576
▁ᎤᏕᏅ	-9.44676
ᏪᏎᎸ	-9.44962
▁ᎤᎾᏛᏁ	-9.44991
ᎪᏩᏘᏍᎨᏍᏗ	-9.45142
ᏧᏈ	-9.45178
▁ᏅᏓᎬ	-9.45204
▁ᏓᎬᏩ	-9.45211
▁ᎢᏯᏍᏗ	-9.45511
▁ᎢᎦᎦᏘ	-9.45621
▁ᏇᎵ	-9.45706
ᏚᎵᏍᎪ	-9.45829
▁ᏥᏙ	-9.46008
ᏓᏅᏔ	-9.46046
▁ᏓᏆ	-9.46293
ᎧᎾ	-9.46529
ᏄᎪᏫᏍᏗᏱ	-9.46749
ᏥᏍ	-9.47313
ᏗᏳ	-9.48033
▁ᏚᎸᏫᏍᏓᏁᎲ	-9.48504
ᎵᏍᏔᏁᎢ	-9.4853
ᏍᏆᏗᏍ	-9.48737
ᎪᎵᏰᏍᎨ	-9.48925
▁ᎤᏪᏅᏎ	-9.48956
ᎸᏉᏓ	-9.49105
ᎵᏂᎬᎬ	-9.49107
ᎾᏄᎪᏫᏒᎯ	-9.49328
ᎶᏎᎢ	-9.49364
▁ᎨᎵ	-9.49372
ᏚᎦ	-9.49454
ᏴᏍᏕᏍ	-9.49595
▁ᏧᏁᏤ	-9.49794
▁ᎢᏣᎵᎮᎵ	-9.49883
:	-9.49901
▁ᎠᎾᏓᏅᏖᏍᎬ	-9.49901
▁ᎦᏓᏅᏖᏍᎬ	-9.49901
▁ᎬᏩᎷᏤᎴ	-9.49901
▁ᎠᎩᎵᏲᎢᏍᏗ	-9.49901
▁ᎠᏚᎢᏍᏛ	-9.49901
▁ᎠᏂᏙᎾᎥ	-9.49901
▁ᎥᏞᏍᏗ	-9.49902
▁ᎠᎫᏴᏙᏗ	-9.49902
▁ᏑᏓᎴᎩ	-9.49902
▁ᏓᎿᏩ	-9.49902
▁ᏗᏂᎦᏙᎵ	-9.49902
▁ᏗᏂᎨᏫ	-9.49903
▁ᎠᏠᏁᏗ	-9.49903
▁ᏥᏄᏪᏎᎢ	-9.49903
▁ᎤᏛᏛᏁ	-9.49906
▁ᎦᏩᏒᎩ	-9.49907
ᏂᏐᏗᏱ	-9.4991
▁ᎤᎾᏫᏱ	-9.49919
▁ᎢᎦᏪᏛ	-9.49923
▁ᏄᏩᏁᎸ	-9.49935
▁ᏧᏁᏥ	-9.49943
▁ᏄᏛᏁᎴ	-9.49973
▁ᏄᎾᏛᏁᎸ	-9.49996
▁ᏗᏂᏏᏗ	-9.50006
ᎿᎥᎢ	-9.50053
▁ᎤᏗᏩ	-9.50165
ᏓᎵᏁᎯ	-9.50315
▁ᏥᎨᏳᎢ	-9.50363
▁ᎤᏁᏢᏔᏅᏛ	-9.50369
▁ᎢᏣᏤᎵᎦ	-9.50587
ᏎᎸᎩ	-9.50601
▁ᏣᏤᎵᎦ	-9.50619
ᎾᏄᎪᏫᏏ	-9.50714
ᏁᏤᎭ	-9.50718
ᏚᏓᎴᏍᏗ	-9.50847
ᏲᎯᏎᎸᎩ	-9.50854
▁ᎤᏅᏒᏉ	-9.50924
ᎵᏰᎢᎶᎯᏍᏗ	-9.50931
▁ᏙᏓᎦ	-9.51036
▁ᏚᏅᏎ	-9.51058
▁ᎤᏄᎪᏤ	-9.5106
▁ᏗᏄᏬ	-9.51205
▁ᎢᎬᏒ	-9.51222
▁ᏥᎪᎨ	-9.51577
ᏥᏙᏁ	-9.51659
▁ᏗᎬᏩᎾ	-9.52044
▁ᎠᏂᏁᎬ	-9.52472
▁ᎤᏓᏙ	-9.52817
▁ᎣᏏ	-9.52989
ᎨᏳᏗ	-9.53381
▁ᎡᎲᎢ	-9.53493
▁ᎢᎾᎨᎢ	-9.53637
ᎧᎭ	-9.53647
▁ᎢᏍᎩ	-9.54097
▁ᎤᏙᎯᏳ	-9.55019
▁ᏴᏓ	-9.55514
ᏍᏆᏂᎪᏛ	-9.55515
ᏓᏅᏓᏗᏍᏗ	-9.55643
ᏅᏓᏓ	-9.5589
ᏔᏲᏎᎴ	-9.55951
ᏜᏏᏛᎡ	-9.56151
▁ᎢᏯᎾᏛᏁᎯ	-9.56151
▁ᏄᏓᎵᏓᏍᏛᎾ	-9.56151
▁ᏅᏧᎵᏍᏙᏔᏅ	-9.56151
ᎬᎭᎷᏴ	-9.56151
▁ᎢᏣᏓᏙᎵᏍᏗᏍᎨᏍᏗ	-9.56151
▁ᎠᎱᏍᏕᏍᏗ	-9.56152
▁ᏧᏕᏘᏴᏛ	-9.56153
▁ᎬᏩᏍᏓᏩᏛᏎᎢ	-9.56153
▁ᏏᏌᎵᏱ	-9.56154
▁ᎨᏆᏂ	-9.56158
ᏥᎤᏍᏕᏎ	-9.56159
▁ᎾᏛᏁᎮᏍᏗ	-9.56162
▁ᎢᎳᎪ	-9.56163
▁ᎤᏂᏴᏍᏗᏱ	-9.56168
▁ᏧᎾᏛᏐᏅᎯ	-9.56176
▁ᎠᏂᏫᏅ	-9.56182
ᏅᏬᏗᏱ	-9.56201
ᏧᏏ	-9.56215
ᏲᎯᏎᏗᏱ	-9.56215
▁ᏫᏚᏯᏅᎲ	-9.56224
ᏓᎪᎾᏛ	-9.56227
▁ᎢᏳᏅᏁᏗᏱ	-9.56231
▁ᎪᏢᏔᏅᎯ	-9.56235
▁ᎤᏂᎩᎬ	-9.56242
▁ᏓᏯᎢ	-9.56255
▁ᎠᏅᏗᏍᎬ	-9.56256
ᏲᎯᏎᎴ	-9.56257
▁ᏏᏓᏁᎸ	-9.56269
▁ᎤᏁᎫᏥᏛ	-9.56336
▁ᎠᎪᏄ	-9.56404
ᎧᎿᏩᏗᏙᎮᏍᏗ	-9.56406
ᏛᎿᏕᎩ	-9.56444
▁ᎠᏂᏬᏂᏍᎬ	-9.56492
▁ᎤᎾᏠᎾᏍᏗ	-9.5661
ᏓᏡᎬ	-9.5663
▁ᎤᎾᏰᎯᏍᏗ	-9.56643
▁ᎤᏓᏅᏘᏳ	-9.56661
▁ᏚᎴᏁ	-9.56669
ᎥᎯᏍᏗ	-9.56711
▁ᎠᏧᏏ	-9.56784
ᏗᏧᎪ	-9.56804
ᏍᏆᏂᎪᏔᏅ	-9.56886
▁ᏗᏥᏰᎸ	-9.56902
ᏂᏴᎲᎩ	-9.56933
▁ᏩᎩ	-9.57164
ᎲᏍᎬᎾ	-9.57194
▁ᎤᎾᏕ	-9.57223
ᏗᏔᏍᏗ	-9.58062
▁ᏕᎪ	-9.58138
▁ᎾᏃ	-9.58178
ᎥᏍᎨᏍᏗ	-9.582
ᏣᏙᎴᎰ	-9.58489
ᏂᏚᏩᏁᎸ	-9.58791
▁ᎢᎠ	-9.58805
▁ᎪᏢ	-9.59222
ᎳᎻ	-9.59268
▁ᏙᎯ	-9.59852
▁ᏂᏥᎥᎢ	-9.60023
▁ᎾᎥᏂ	-9.60118
▁ᎢᏥᏍᎦᏅᏨ	-9.60161
▁ᎪᎩ	-9.60771
▁ᎠᏓᏙᎵᏍᏗ	-9.61117
ᎾᏙᎴᎰ	-9.61154
ᏲᎯᏎᎸ	-9.61164
▁ᎢᎬᏁᏗ	-9.61373
▁ᎤᏁᏨᎯ	-9.61528
▁ᏗᎤ	-9.61934
ᎧᎵᏨᎯ	-9.62022
ᏓᎶᏂᎨ	-9.62306
▁ᏗᎫᎪᏙᏗ	-9.62419
ᏥᎨᏳᎢ	-9.62451
ᏛᏔᏂ	-9.62558
ᏔᏲᏎᎭ	-9.62722
ᎸᏫᏍᏓᏏ	-9.62817
ᏚᏓᏕᏫᏒ	-9.62817
▁ᏄᏜᏏᏛᏒᎾ	-9.62817
▁ᎠᏂᎩᏏᏙᎯ	-9.62817
▁ᏍᎩᏃᎲᏏ	-9.62817
▁ᏕᎦᏚᏩᏗᏒ	-9.62817
▁ᎾᏂᏪᏍᎬᎩ	-9.62817
▁ᏩᏛᎬᎦ	-9.62817
▁ᏕᎹᏍᎦ	-9.62818
▁ᎠᎵᏍᏚᎶ	-9.62818
▁ᏂᎦᏥᏴᏁ	-9.62818
▁ᏗᎨᏥᎤᏍᏕᏎᎸᎯ	-9.62818
▁ᏚᏳᎪᏗ	-9.62818
▁ᎤᎾᎴᏅᎮ	-9.62819
▁ᎳᏏᎳ	-9.62819
▁ᎤᏪᎵᎯᏍᏗ	-9.6282
▁ᏓᏟᎶᏍᏛ	-9.62821
▁ᏌᏱᎳ	-9.62821
▁ᏭᏂᎷᏤ	-9.62821
▁ᏚᎧᎿᏅ	-9.62823
▁ᎡᏉᎯᏳ	-9.62824
▁ᏦᎯᏳᏒ	-9.62826
▁ᎢᏯᏅᏙ	-9.62827
▁ᏕᏡᎬ	-9.62828
▁ᏥᏁᎬᎢ	-9.62831
▁ᎠᏁᏙᎯ	-9.62832
▁ᏦᏓᏂ	-9.62844
ᏑᏰᏒ	-9.62846
▁ᏅᏃᎯ	-9.62871
ᎵᏍᏙᏔᏅ	-9.62874
▁ᎤᏃᎮᎸ	-9.62877
▁ᏰᎭ	-9.62879
▁ᎢᎬᏩᎵᏍᏙᏗ	-9.62884
ᎾᏛᎦ	-9.6289
▁ᎾᎬᏁᎸ	-9.62914
▁ᎡᏙᎮ	-9.62941
▁ᎫᎫ	-9.62945
▁ᎢᏳᏅ	-9.62947
▁ᎢᎩᏍᏕᎵᏍᎩ	-9.62961
▁ᏗᏥᏲᎵ	-9.63019
▁ᎤᏁᏅᏎ	-9.63034
▁ᏭᏴᎸ	-9.63058
▁ᏅᏓᏳᎾᎵᏍᎪᎸᏔ	-9.63065
▁ᎤᏙᎯᏳᏗᏱ	-9.6308
▁ᎤᏪᏙᎸ	-9.63104
ᏓᎵᏓᏍᏗ	-9.63178
▁ᏙᎯᏱ	-9.63275
▁ᎤᏓᏅᏒᎩ	-9.63299
▁ᎤᏍᏚᎢᏒ	-9.63352
▁ᎠᏥᎸᎠᏁᎶᎯ	-9.63389
▁ᏗᏤᏥ	-9.63475
ᏲᎯᏎᎸᎯ	-9.63597
▁ᏗᎾᏓ	-9.63613
ᏩᏘᏍᎬ	-9.63688
▁ᎬᏩᎷᏤᎸᎩ	-9.63708
ᎸᏉᏕᏍᏗ	-9.63744
▁ᎠᎵᏍᎪᎸᏔᏅᎯ	-9.63785
▁ᎤᏍᏆᏂᎪᏗᏳ	-9.63907
▁ᏱᏙᎦ	-9.63943
▁ᎦᏁᎳ	-9.64123
▁ᎠᏥᎸᏉᏗ	-9.6419
▁ᎤᏂᏍᎦᏅᏨᎯ	-9.64393
▁ᏓᏣ	-9.64512
ᏲᎵᎸ	-9.64632
ᏍᏓᏁᎸᎯ	-9.64764
▁ᎹᏗ	-9.64977
▁ᏫᏨᏲᏪᎳ	-9.65445
▁ᏚᎾᎵ	-9.65594
▁ᎦᏍᎩᎸᎢ	-9.65668
ᎶᏒᏍᏗ	-9.66066
▁ᏙᏥ	-9.66077
▁ᎠᏋᏒᏉ	-9.66103
▁ᏲᎩ	-9.66275
▁ᎤᏬᎵ	-9.66417
▁ᏨᏗ	-9.66515
▁ᎣᎬ	-9.66647
ᎿᎢ	-9.66747
▁ᏯᎾ	-9.66756
▁ᎦᎸᎳᏗᏳ	-9.66984
ᎸᏉᏗᎭ	-9.67853
▁ᎠᏁᎭ	-9.67909
ᏁᏤᎴ	-9.67914
▁ᏥᏕᎦ	-9.68306
▁ᎤᏣᏛ	-9.68776
ᎦᏚᎩ	-9.68817
▁ᏥᏄᎵᏍᏔ	-9.68903
▁ᏄᏛᏅ	-9.68927
ᎦᎶᏁᏛ	-9.69459
▁ᏥᏂᎦᏪ	-9.6949
▁ᏛᎾ	-9.69698
ᎨᎳᏍᏗ	-9.69878
▁ᎠᏂᏌᏚᏏ	-9.6996
▁ᎢᏤᎳᏗᏙᎮᏍᏗ	-9.6996
▁ᎢᏥᏯᏫᏍᎨᏍᏗ	-9.6996
▁ᏅᏓᏳᏂᎶᏒᎯ	-9.6996
▁ᏗᏍᏓᏓᏅᏟ	-9.6996
▁ᏥᏂᏣᏛᏅ	-9.6996
▁ᎡᏦᎢᏳ	-9.6996
▁ᏞᎩᏳ	-9.6996
▁ᎠᏔᎴᏒ	-9.69961
▁ᎤᏁᎷᏅᎩ	-9.69961
▁ᎤᏌᎯᎸ	-9.69962
ᏘᏃᎮᎴ	-9.69963
▁ᎠᏆᏚᎵᎭ	-9.69963
▁ᎠᏓᏰᏍᎩ	-9.69964
▁ᏗᏓᏬᏍᎩ	-9.69965
ᏛᏳᎨᏗ	-9.69966
ᎦᎵᎷᎨᏍᏗ	-9.69966
▁ᎠᏨᏍᏙᏗ	-9.69967
▁ᎠᏆᏚᎵᏍᎬ	-9.69971
ᏄᎮᏛ	-9.69973
▁ᏧᏃᏰᏂ	-9.69975
ᏍᏓᏩᏛᏎ	-9.69987
▁ᏣᏔᎦ	-9.69989
▁ᏄᎾᎵᏍᏓᏁ	-9.70012
▁ᏂᏣᏛᏅ	-9.70013
ᎵᏍᎦᏍᏙᏗ	-9.70019
ᏏᏔᏛ	-9.70048
▁ᎤᏛᏁᎢ	-9.70051
ᏅᏓᏛᎩ	-9.70064
▁ᎢᏧᏩᏁ	-9.70067
▁ᎢᏨᏔᏲᏎᎭ	-9.70075
▁ᎦᎾᏰᎯᏍᏗ	-9.70103
▁ᎣᏥᎦᏔᎭ	-9.70106
▁ᎤᏬᏢᏅᎯ	-9.70112
▁ᎤᏲᎱᎯᏍᏗᏱ	-9.70127
▁ᎢᎬᏁᎯ	-9.70146
ᏗᏔᎲ	-9.7016
▁ᎠᏁᏙᎮ	-9.70163
▁ᏄᎵᏍᏓᏁ	-9.70235
ᏓᏂᎸᏨᎯ	-9.70291
▁ᎤᎦᎾ	-9.70315
▁ᎤᎾᎳᏅᎯ	-9.70324
▁ᎠᏆᏁᎳᏅᎯ	-9.7037
▁ᏤᏈ	-9.70401
ᏓᏎᎪᎩᏍ	-9.70411
▁ᏓᏫᏒ	-9.70572
▁ᎤᏬᏢ	-9.70579
ᏄᎪᏫᏎ	-9.70605
▁ᏚᏃᎸ	-9.70639
▁ᏭᎶᏒᎩ	-9.70692
▁ᏗᏂᏰᎸ	-9.70713
▁ᎦᏅᏅ	-9.70921
▁ᎤᏄᎪᏨᎩ	-9.71007
▁ᎤᏄᎪᏨ	-9.71152
▁ᎤᏅᏏᏙᎯ	-9.71209
▁ᏚᎾᏓᏡᏩᏗᏒᎢ	-9.71295
▁ᎤᏂᎷᏨᎩ	-9.7131
▁ᎦᎬᏩ	-9.71426
▁ᏗᎦᎸᏉᏗ	-9.71501
ᏁᏙᎲ	-9.71791
▁ᎠᏓᏁᏗ	-9.7245
▁ᎤᎾᏛᎦᏅᎯ	-9.72897
ᏓᏠ	-9.73204
ᎯᏳᎲᏍᎦ	-9.73247
ᏫᏒᎯ	-9.73749
"	-9.73892
▁ᎢᎩᏍᎦᏅᏨ	-9.73961
ᏒᎦᎸ	-9.73983
▁ᎧᏁᏉ	-9.74013
▁ᎤᎨᏳᎯ	-9.74102
▁ᏅᏗᎦᎵᏍᏙᏗ	-9.74637
▁ᎪᏢᏒ	-9.74708
▁ᎾᎾᏛᏁ	-9.75035
▁ᎧᏁᎢᏍᏗ	-9.75476
ᏲᎢᏎ	-9.76096
▁ᏚᎾᏓᏡᏩᏗᏒ	-9.76231
▁ᏓᏁᏩᏗᏒ	-9.76246
ᏓᏙᎵᏍᏓᏁᎯ	-9.76272
ᏂᎪᎮ	-9.76522
ᎢᏍᏗᏍᎨᏍᏗ	-9.76833
▁ᎾᏅᏁ	-9.77242
▁ᎬᏩᎷᏤᎸ	-9.77386
ᏑᎶᏨᎯ	-9.77647
▁ᎠᏂᎦᏔᎿᎢ	-9.77652
▁ᏗᎧᏃᎩᏍᏗ	-9.77652
▁ᏚᏂᎸᏫᏍᏓᏁᎸᎢ	-9.77652
▁ᎤᏍᏆᎸᎯᏗ	-9.77652
▁ᏅᏓᎦᎵᏍᏔᏂ	-9.77652
▁ᏚᏓᏘᎾᎥ	-9.77652
▁ᏧᏂᎳᏫᎢᏍᏗᏱ	-9.77652
▁ᏧᏓᎿᏩᏛ	-9.77652
▁ᎤᏜᏅᏛ	-9.77653
▁ᎦᏃᏍᎩᏍᎩ	-9.77653
▁ᏛᏍᏆᎸᎯ	-9.77653
▁ᎠᏗᏒᏍᏗ	-9.77653
▁ᎢᏳᏕᏘᏴᏛ	-9.77653
▁ᏕᎦᎳᏫᎥ	-9.77654
▁ᏫᏄᏒᎸ	-9.77654
ᎧᎵᏬᎯ	-9.77655
ᏏᎾᏌᏅ	-9.77655
▁ᎤᏚᎢᏍᏔᏅ	-9.77655
▁ᏗᏂᎰᎵ	-9.77656
▁ᏧᏃᏑᎶᏨᎯ	-9.77658
▁ᎠᏟᏍᏛ	-9.77662
ᏩᏂᎦᎸ	-9.77662
▁ᎯᏍᎦᏯ	-9.77662
▁ᏌᏙᏂ	-9.77663
▁ᎠᎦᏘᏏ	-9.77664
▁ᎤᎾᏚᎵᏍᎬ	-9.77667
▁ᎤᏩᎨᏫ	-9.77668
▁ᏂᎪᎯᎸᎾᏉ	-9.77678
ᎱᏍᏗ	-9.7768
▁ᎠᏆᏓᏅᏖ	-9.77685
▁ᏓᏓᏏ	-9.77696
▁ᎾᎦᎥ	-9.77699
▁ᎤᏂᎩᏒᎩ	-9.77709
▁ᎡᏂᏗ	-9.7771
▁ᏭᏂᎷᏨ	-9.7772
▁ᏕᎦᏚᎲ	-9.77731
▁ᎤᏂᏁᎫᏥᏛ	-9.77744
▁ᏓᏓᏁᎸ	-9.77752
▁ᏗᏥᎸᏫᏍᏓᏁ	-9.77758
▁ᎤᏪᏍᎩᎸ	-9.77762
ᏁᎶᏙᏗ	-9.77775
ᏬᏎᎴᎢ	-9.77836
▁ᏇᏍᏓ	-9.77858
▁ᎠᎪᏙᏗ	-9.77877
▁ᎤᏪᎷᏅᎩ	-9.7792
▁ᎠᎾᎢᏒ	-9.78012
▁ᎥᏓᎸ	-9.78042
▁ᎦᏅᎬ	-9.78078
▁ᎬᏂᎨᏒᎢᏳ	-9.78144
▁ᎤᎾᎵᏍᏕᎸᏙᏗ	-9.78167
▁ᏥᏂᎦᏪᎭ	-9.78168
▁ᎠᎩᏰᎸᎭ	-9.7818
▁ᎠᏥᎾᏝᎢ	-9.78193
▁ᏭᏂᎶᏎᎢ	-9.78199
▁ᎤᎩᎸ	-9.78218
▁ᎠᎵᎮᎵᏍᏗ	-9.78233
▁ᎤᎪᎮ	-9.78235
▁ᎧᏃᎮᏍᎩ	-9.78331
▁ᎠᏓᏲᏁ	-9.78365
ᏗᎦᏘᏯ	-9.7864
▁ᎤᎵᏂᎬᎬ	-9.78738
▁ᏧᎦᏴᎵᎨ	-9.78743
▁ᏗᎩᎸᏫᏍᏓᏁ	-9.78908
▁ᎤᎴᏅᎲ	-9.79116
▁ᎤᏴᏍᏗ	-9.79239
▁ᎬᏩᎪᎲ	-9.79258
ᎵᏙᎲᎢ	-9.79313
▁ᎵᏏ	-9.79537
▁ᏚᎪᎲ	-9.7976
ᎥᏍᎬ	-9.79859
ᎮᎮᎸ	-9.80162
▁ᏗᏤᎲ	-9.80256
▁ᎠᏂᎪᏩᏘᏍ	-9.80685
ᎬᏍᎪᎸ	-9.81424
▁ᎤᏁᏤᎴ	-9.81579
ᎪᏩᏘᏍᎪ	-9.81851
▁ᎬᏩᏛᏛᏁ	-9.81941
▁ᏅᏓᎬᏩ	-9.81981
ᏚᏓᎴᏍ	-9.82775
ᎵᎮᎵᏍᏗ	-9.84542
▁ᏄᏂᏪᏒ	-9.85049
ᎵᏂᎩᏗᏳ	-9.85194
▁ᎬᏩᏛᏛ	-9.85202
▁ᎠᏍᎦᏅᏨ	-9.85286
ᎸᏉᏙ	-9.85318
ᎬᏫᏳᏌᏕᎩ	-9.8554
ᎾᏰᏍᎬ	-9.85586
ᏍᎫᏓᏛ	-9.85986
▁ᎠᎾᎵᏥᏙᎲᏍ	-9.85986
▁ᎢᏣᏅᏖᏍᏗ	-9.85986
▁ᎦᎫᏍᏛᏗ	-9.85986
▁ᏕᏣᎸᏫᏍᏓᏁᎲ	-9.85986
▁ᏗᎾᏓᏂᏱᏍᎩ	-9.85986
▁ᏗᏑᏢᏛ	-9.85986
▁ᏙᏧᎾᏓᏅᏛ	-9.85986
▁ᏚᏟᎶᏍᏓᏁᎴ	-9.85986
▁ᏧᏓᏕᏒᏛ	-9.85986
▁ᎡᎳᏂᎬ	-9.85986
▁ᎢᏳᏩᎫᏗ	-9.85986
▁ᏆᎳᏆ	-9.85986
▁ᎠᏥᎤᏍᏕᏎᎸᎯ	-9.85986
▁ᏯᏃᎩᏳ	-9.85986
▁ᎢᏣᏛᎦᏅᎯ	-9.85987
▁ᎤᎶᏒᏍᏔᏅᎯ	-9.85987
ᏔᏲᎯᎮᏍᏗ	-9.85987
▁ᏂᏣᏛᏁᎮᏍᏗ	-9.85987
▁ᏧᏬᏰᏂ	-9.85987
▁ᏂᏙᏓᏳ	-9.85989
▁ᏓᏂᎳᏫᎥ	-9.85989
ᎦᏯᎷᏗ	-9.85989
▁ᎢᏰᏨᏁ	-9.8599
▁ᎤᏃᎯᏳᏒ	-9.85991
▁ᏕᎤᎴᏔᏅ	-9.85992
▁ᎢᏣᏓᏅᏘ	-9.85994
▁ᎢᏳᏛᏁᎸᎯ	-9.85994
▁ᏚᎾᏙᎥ	-9.85998
▁ᎠᎩᎪᎲᎩ	-9.86004
▁ᎡᏙᎭ	-9.86014
▁ᎢᏕᎯ	-9.86025
▁ᎨᎦᏑᏰᏛ	-9.86054
▁ᎤᏓᏅᏛᎢ	-9.86059
ᏍᏆᎸᎡ	-9.86068
ᏅᏓᏗᏍᏙᏗ	-9.86074
▁ᏂᏥᎦᏔᎲᎾ	-9.86081
ᎦᏙᎥᎯᏍᏗᏱ	-9.86087
▁ᎤᏁᏉᏨ	-9.86102
▁ᏱᏂᎦᎵᏍᏓ	-9.86124
▁ᎥᎩᏅᏏᏛ	-9.86132
▁ᏫᏥᎦᏛ	-9.86149
ᏓᏅᏖᏍᎨᏍᏗ	-9.86186
▁ᎤᏣᏖ	-9.86187
▁ᎪᏢᏅᎯ	-9.86196
▁ᎬᎵᏍᏆᏗᏍᎩ	-9.86209
▁ᎢᏣᏠᎾᏍᏗ	-9.86211
▁ᏚᎴᎯᏌᏅ	-9.86225
▁ᎠᏰᎲ	-9.86306
ᏍᎦᏅᏨᎢ	-9.86306
▁ᎠᏆᎵᏏ	-9.86434
▁ᏥᎨᏥ	-9.8644
▁ᎣᏓᏅᏛ	-9.86462
▁ᎤᏬᎴ	-9.86479
▁ᏣᎾᏫ	-9.8653
▁ᎤᏂᏃᎮᎸᎯ	-9.86581
▁ᏤᎲᎩ	-9.86593
▁ᎡᎳᏪᏱ	-9.86607
▁ᎠᏥᎸᎨᎶᎯ	-9.86618
▁ᏱᏙᎨ	-9.86624
▁ᎤᏪᏅᏍᏗᏱ	-9.86635
▁ᎤᎾᏄᎪᎢᏍᏗ	-9.86788
▁ᏗᏆᏤᎵᎦ	-9.86797
▁ᎾᏥᏪᏎ	-9.86801
▁ᎤᎬᏫᏳᏌᏕᎩ	-9.86812
▁ᏧᏂᎾᏫᏱ	-9.86821
▁ᎤᏗᎦᎵᏍᏙ	-9.86827
▁ᎤᏰᎸᏁ	-9.86859
ᏂᏢᏗᏱ	-9.86864
▁ᎢᏳᎾᏛᏁᏗᏱ	-9.86893
▁ᎤᏂᏄᎪᏨ	-9.87037
▁ᎯᎦᏔᎭ	-9.87047
▁ᏚᏭ	-9.87075
▁ᎤᏓᏅᏎ	-9.87109
ᎴᏂᏓᏍᏗ	-9.87159
ᎨᎳᏍᏙᏗ	-9.87256
▁ᏣᏙᏓ	-9.87262
ᏄᎪᏩ	-9.87473
▁ᎣᎬᏒ	-9.87719
▁ᎤᏃᏴ	-9.8777
ᎦᏓᎢᏅ	-9.87993
▁ᎠᎵᏥᏙᎲᏍᎨ	-9.88235
ᏟᎶᏍᏙᏗ	-9.88462
ᎪᎵᏰᏍᎩ	-9.88909
ᏣᎦᎸ	-9.88973
ᏙᎴᎰᏒ	-9.89474
▁ᎦᎾᏄᎪ	-9.89709
▁ᏥᎬᏩ	-9.89907
▁ᎤᏅᏎ	-9.90752
ᏓᎨᏳᏗ	-9.90775
ᏓᏁᎲ	-9.90884
ᎬᏍᎪᎸᏁ	-9.9093
ᎦᏘᏗᏍ	-9.91343
ᏍᏓᏩᏗᏙ	-9.91579
▁ᏍᎩᎨᏳ	-9.92173
▁ᎠᎵᏥᏙᎲᏍ	-9.9267
ᎾᏄᎪᎢᏍᏗ	-9.93169
ᎦᏌᏯᏍᏗ	-9.93386
▁ᏰᏥ	-9.93494
▁ᎤᏂᏍᏆᏂᎪᏎ	-9.93676
▁ᎤᎩᏒ	-9.93776
▁ᏕᏣᏓᏅᏛ	-9.93911
ᏍᎦᏅᏨᎯ	-9.94078
▁ᎤᏂᏣᏛ	-9.94154
▁ᏂᏚᏪᏎᎸ	-9.94162
▁ᎤᏂᏃᎮᎸ	-9.94454
ᎢᏳᎾᏍᏗ	-9.94579
ᎴᎯᏌᏅ	-9.94813
ᏄᏪᏎ	-9.95047
▁ᎠᏐᏢ	-9.95061
ᏘᎿᏫᏛ	-9.95077
▁ᎠᏕᏒᎲᏍᎩ	-9.95077
▁ᎢᏳᏩᏂᏌᏅᎯ	-9.95077
▁ᎤᎳᎨᏯᏛᏤᎢ	-9.95077
▁ᎤᏂᏇᏓᎸᎢ	-9.95077
▁ᎥᏘᎣᎩ	-9.95077
▁ᎦᏃᎸᎥᏍᎬ	-9.95077
▁ᏔᎷᎩᏍᎩ	-9.95077
▁ᏕᎨᎦᏨᏍᏗᏍᎬ	-9.95077
▁ᏣᎦᏟᎶᏍᏔᏅᎯ	-9.95077
▁ᏦᎠᏍᎪᎯ	-9.95077
▁ᏧᏩᎫᏔᏅᏒ	-9.95077
▁ᎠᎨᏳᏣ	-9.95077
▁ᏕᎨᏥᏰᎸᏔᏅᎩ	-9.95077
▁ᏗᏖᎵᏙ	-9.95077
▁ᎠᏤᎷᎩ	-9.95077
▁ᎡᏂᎾᏯ	-9.95077
▁ᎦᎬᏩᏐᏢ	-9.95077
▁ᏂᎬᏪᏎᎭ	-9.95077
▁ᏒᎦᏔ	-9.95077
▁ᏧᏳᎪᏗ	-9.95077
▁ᏫᏨᎷᏤᏗᏱ	-9.95077
▁ᎤᎬᏫᏳᏎᏍᏗ	-9.95077
▁ᎡᎩᎵᏈ	-9.95078
▁ᎠᏂᏙᎾᎢ	-9.95078
▁ᎠᏏᎾᏌᏂ	-9.95078
▁ᏔᎷᏣ	-9.95078
▁ᎠᏂᎩᎵᏲ	-9.95078
▁ᏄᎾᏓᎴᏒ	-9.95079
▁ᏧᎸᏫᏍᏓᏁᏗᏱ	-9.95079
▁ᎢᏥᎦᏔᎮᏍᏗ	-9.9508
▁ᎠᎩᎬᏫᏳᎯ	-9.9508
ᏍᏉᎵᏱ	-9.95081
▁ᏫᏚᏯᏅᎮ	-9.95082
▁ᎢᏳᎵᏍᏔᏅᎯ	-9.95082
ᎾᏙᏓᏆᏍ	-9.95084
▁ᎢᏳᏛᏁᏗᏱ	-9.95087
▁ᎠᏁᏙᎲᎢ	-9.95088
▁ᎤᎵᏖᎸ	-9.95088
ᏛᏅᎢᏍᏙᏗᏱ	-9.95089
▁ᎤᎬᏫᏳᎭ	-9.95089
▁ᎤᏛᎪᏗᏱ	-9.95092
▁ᎯᎨᏴ	-9.95093
▁ᎠᏲᎱᏒ	-9.95095
▁ᎠᎦᏔᎿᎢ	-9.95096
▁ᏗᏓᏬᏍᏗ	-9.95099
▁ᎤᎾᏛᏅᎩ	-9.95101
▁ᎥᏳᎩ	-9.95104
ᎵᎥᏂᎸ	-9.95104
ᏍᏕᎵᎭ	-9.95107
▁ᎤᏕᎵᏒ	-9.95112
▁ᎣᎦᏛᎦᏅ	-9.95115
▁ᏱᏅᎦᎵᏍᏓ	-9.95119
▁ᏕᎩᎸᏫᏍᏓᏁ	-9.95124
ᏏᏏᏍᎩ	-9.95125
▁ᎠᎬᏗᏍᎬᎢ	-9.95136
▁ᎾᏂᎦᏔᎲᎾ	-9.9514
▁ᏄᏠᎾᏍᏛᎾ	-9.95141
ᏅᏍᏓᏕᎸᎩ	-9.95166
ᏖᎸᎲᏍ	-9.95167
▁ᎨᏣᏍᏓᏩᏗᏙᎯ	-9.95171
▁ᏧᏪᏅᏒ	-9.95198
▁ᎤᎦᏔᎲᏒ	-9.95198
▁ᎠᏉᎳ	-9.95201
▁ᎡᏣᎫᏴ	-9.95202
▁ᏧᎾᏓᏅᏙ	-9.9522
▁ᎬᏩᏍᏓᏩᏛᏒᎩ	-9.95223
▁ᏥᏥᎦᏔᎭ	-9.95244
▁ᎿᏛᏁ	-9.95248
▁ᎠᏓᏍᏓᏩᏗᏙᎯ	-9.95249
▁ᎢᏣᏓᏡᎬ	-9.95263
ᏥᏅᎵ	-9.95294
▁ᎠᏥᏃᎮᏍᎬᎢ	-9.95325
▁ᎢᏥᎦᏙᎥᎯᏍᏗᏱ	-9.95337
▁ᏥᏅᏗᎦᎵᏍᏙᏗᎭ	-9.9542
ᏙᎴᎰᏍᎦ	-9.95456
▁ᎤᏣᏔ	-9.95462
▁ᎠᏁᎩ	-9.95506
ᏘᏃᎸᎩ	-9.95552
▁ᎠᏂᏍᎦᎢᎮ	-9.9557
ᏓᏙᎵᏍᏓᏁᏗ	-9.95575
▁ᎤᏛᎦᏁ	-9.9559
▁ᏧᎾᏄᏬ	-9.95635
▁ᏦᏈ	-9.95741
ᏂᏌᏁ	-9.95777
▁ᏥᏅᏏᏓᏍᏗ	-9.95838
ᏁᎢᏍᏔᏁ	-9.9598
▁ᎠᎩᏅᏏᏛ	-9.96049
▁ᎠᏥᏍᏕᎸᏗ	-9.9616
ᏑᏰᏍ	-9.96231
ᏂᏪᏏ	-9.96291
▁ᏧᎾᎴᎯᏐ	-9.96679
ᏗᏔᏍᏗᏱ	-9.96684
▁ᏓᎩᎸᏫᏍᏓᏁᎲ	-9.96785
▁ᎤᏓᏅᏁ	-9.9741
ᎦᏄᎪᎬ	-9.97646
ᎩᏰᎸᎭ	-9.97707
ᎧᎵᎢᏍᏗᏱ	-9.97721
▁ᎨᏥᏍᏕᎸᏗ	-9.97911
ᎬᏍᎦᎳ	-9.98113
ᏄᎪᏫᏒᎩ	-9.98471
▁ᎠᏓᏙᎵᏍᏙᏗ	-9.98716
ᏍᏚᎢᏍᏗ	-9.99318
ᏍᏈ	-10.0002
ᎦᏠᏯᏍ	-10.0097
▁ᎤᏩᏔᏅ	-10.0099
▁ᎢᎬᏩᏁᏗ	-10.013
ᏰᎸᏎᏍᏗ	-10.0221
▁ᎣᏥᏃᎮ	-10.0287
ᎷᏤᏗ	-10.0326
▁ᏗᏨᏂᏗ	-10.034
ᏔᏲᏎᎸ	-10.0407
ᎦᏙᎥᎯᏍᏗ	-10.0407
ᎾᏛᏛ	-10.0424
ᎵᏂᎩᏛ	-10.0424
ᏁᏢᏔᏅᏛ	-10.0427
ᏍᏆᏂᎪᏙ	-10.0442
▁ᏭᎶᏒ	-10.045
ᎠᎩᎾ	-10.0472
ᏍᏚᎢᏒ	-10.0498
▁ᏱᏅᏗᎦᎵᏍᏙ	-10.0501
ᏃᎮᎵᏙ	-10.0501
ᏔᎳᏬᎯ	-10.0507
▁ᎠᏍᎫᏕᏍᏗ	-10.0508
▁ᎢᏯᏆᏛᏁᏗᏱ	-10.0508
▁ᎤᏂᏍᏆᏂᎪᏒᎩ	-10.0508
▁ᎾᎵᏍᏆᏗᏍᎬᎾ	-10.0508
▁ᏂᏚᎾᏓᏪᏎᎴᎢ	-10.0508
▁ᏅᎵᏌᎵ	-10.0508
▁ᏐᎵᎹᏅ	-10.0508
▁ᏓᏓᏂᎸᎨᏍᏗ	-10.0508
▁ᏕᏦᎯᏳᏎᏍᏗ	-10.0508
▁ᏗᏂᏩᎾᎦᎳ	-10.0508
▁ᏤᎦᎳᏯ	-10.0508
▁ᎧᏂᎵᏯ	-10.0508
▁ᏧᏭᎪᏙᏗ	-10.0508
ᎩᎵᏲᎢᏍᏙᏗ	-10.0508
▁ᎬᏩᏲᎱᎯᏍᏗ	-10.0508
▁ᏧᏙᏢᏅ	-10.0508
▁ᏱᏥᏍᎦᎢᎮᏍᏗ	-10.0508
ᏘᏃᎮᎸᎩ	-10.0508
▁ᎠᏂᏃᏍᎩᏍᎩ	-10.0508
▁ᎤᏂᏃᎮᎴ	-10.0508
▁ᎤᏬᏚᎯᏳ	-10.0508
▁ᏲᏥᎦᏔᎭ	-10.0508
▁ᎠᏂᎦᏓᎭ	-10.0508
▁ᎬᎨᏳᎢ	-10.0508
▁ᏕᏥᏲᎵᎸᎭ	-10.0508
▁ᏂᏦᎯᏳ	-10.0508
▁ᎢᏯᎬᏁᎸᎯ	-10.0508
▁ᎢᏥᏆᎵᏏ	-10.0508
▁ᎥᏥᎪᎥᎩ	-10.0508
▁ᎢᏍᎦᎳᏗ	-10.0508
▁ᏅᏓᏳᎵᏍᏙᏗᏱ	-10.0508
ᎵᏍᏓᏴᎲᏍᎦ	-10.0508
▁ᎠᎩᎷᏥᎸ	-10.0508
▁ᎤᎩᏨᏅ	-10.0508
▁ᎠᏚᎸᏗ	-10.0508
▁ᎠᏥᏰᎸᎾᏁ	-10.0508
▁ᎨᏅᎢᏍᏗ	-10.0508
▁ᏗᎩᎾᏫ	-10.0508
▁ᎠᏄᎦᎸ	-10.0508
▁ᎤᏂᏰᎸᏒᎩ	-10.0508
▁ᏓᏕᏲᎲᏍᎨ	-10.0508
▁ᎲᏗᏍᎨᏍᏗ	-10.0509
▁ᎤᏙᎴᎰᎯᏍᏗᏱ	-10.0509
▁ᎢᏦᎯᏳᎯ	-10.0509
▁ᎠᏟᎶᏍᏗ	-10.0509
▁ᏚᏁᏤᎸᎩ	-10.0509
▁ᎢᏲᏍᏛ	-10.0509
▁ᎠᏧᏣ	-10.0509
▁ᏄᏩᏁᎴ	-10.0509
▁ᎦᏍᎩᎶ	-10.051
ᎦᎫᏴᏓᏁᏗ	-10.051
ᏥᏪᏏ	-10.0511
▁ᏥᎮᎾ	-10.0512
▁ᎤᏬᎯᏨ	-10.0512
▁ᏫᏂᎦᎵᏍᏓ	-10.0513
▁ᎤᏓᏙᎵᏍᏔᏅ	-10.0513
▁ᎢᎨᎬᏁᏗ	-10.0513
▁ᏧᎾᎵᏂᎩᏛ	-10.0514
▁ᎢᏯᏍᏘ	-10.0515
▁ᎡᏉᏂ	-10.0515
▁ᎣᏂᏗᏢ	-10.0516
ᏖᏆᎶ	-10.0517
▁ᏚᎪᎮ	-10.0518
▁ᏔᎵᏧᏈ	-10.0519
▁ᎯᎾᎩ	-10.0521
▁ᏂᏕᎬᏁ	-10.0522
▁ᏄᏂᎲᎾ	-10.0527
▁ᏭᎶᎯᏍᏗᏱ	-10.0527
▁ᏗᎦᎵᏍᏙᏗᎭ	-10.0529
ᎱᏍᏕ	-10.053
ᎦᏌᏯᏍᏕᏍᏗ	-10.0532
ᏓᏂᎸᏤᎢ	-10.0535
▁ᎤᏓᏅᏖᎸᎯ	-10.0536
▁ᏭᏯᏅᎲ	-10.0536
▁ᎡᏥᎾᏰᏍ	-10.0538
▁ᎠᏃᏍᏛ	-10.054
ᏕᏲᏅᎯ	-10.0541
▁ᎬᏩᏔᏲᏎᎴ	-10.0541
▁ᎣᎦᏤᎵ	-10.0543
▁ᏂᎬᏁᎭ	-10.0548
ᏁᏤᎲ	-10.0548
▁ᎬᏩᏍᏓᏩᏗ	-10.0549
▁ᎤᏃᏍᏛ	-10.055
▁ᎢᏣᎵᏍᏕᎸᏙᏗ	-10.0552
▁ᎪᏍᏚ	-10.0554
ᎵᏥᏙᏁᎸ	-10.056
ᎸᏫᏍᏓᏁᎰᎢ	-10.0579
▁ᏂᏕᎦᏪᏎᎲ	-10.058
▁ᎤᎷᏤᎴ	-10.0594
▁ᎤᏯᎢ	-10.0596
▁ᏕᏥᎧᎿᏩ	-10.0618
▁ᎡᏥᎸᏉ	-10.0645
▁ᎠᎾᎵᏍᏓᏴᎲᏍᎬ	-10.065
ᏖᎸᏗ	-10.0675
ᎾᏰᎯᏍᏗ	-10.0691
ᎪᏪᎸ	-10.0746
ᏣᏅᏓᏗᏍ	-10.0822
ᏩᎾᎦᎳᎯᏳ	-10.0852
▁ᎯᎦᏔ	-10.0979
ᏂᏲᎱᎯᏍᏗ	-10.0983
ᏍᏕᎸᎲ	-10.1024
▁ᎢᏥᏍᏆᏂᎪ	-10.1166
ᎸᏉᏛᎾ	-10.1265
ᏣᏚᎵᏍᎬ	-10.1304
ᎵᏥᏙᏗ	-10.1314
ᎵᏍᏓᏴᎲᏍᎬᎢ	-10.1342
ᎸᏉᏗᏍᎩ	-10.1402
ᎦᎵᏍᏙᏗᎭ	-10.1545
ᎿᏕᎩ	-10.1593
ᏅᏍᏓᏕ	-10.1612
▁ᏐᎣᏁᎳ	-10.1619
ᎾᏗᎦᎴᏲ	-10.1619
ᏂᏆᏘᎮᏍᏗ	-10.1619
ᏨᏰᎳᏗᏙᎭ	-10.1619
▁ᎠᎬᎭᎸᏛ	-10.1619
▁ᎠᏙᎴᎰᎯᏍᏙᏗ	-10.1619
▁ᎢᎬᏪᏅᏛ	-10.1619
▁ᎬᏍᎦᎢᏍᏓᎩ	-10.1619
▁ᎭᏓᏅᏖᏍᎬ	-10.1619
▁ᎾᏃᎯᏳᎲᏍᎬᎾ	-10.1619
▁ᏇᏗᏂᏱ	-10.1619
▁ᏐᏓᎻ	-10.1619
▁ᏗᎧᎸᎬ	-10.1619
▁ᏗᏂᏬᏂᏍᎩ	-10.1619
▁ᏱᏥᎪᎵᏰᎣ	-10.1619
▁ᎢᏯᏋᏁ	-10.1619
▁ᎤᎩᎵᏲᎢᏍᏗ	-10.1619
▁ᏕᎪᏢᏩᏗᏒ	-10.1619
▁ᏣᏃᏎᎰᎢ	-10.1619
▁ᏧᎾᎬᏩᎶᏗ	-10.1619
▁ᎤᎵᎮᎵᏤ	-10.1619
▁ᎢᎧᏁᏨᎯ	-10.1619
▁ᎢᏨᏍᏗᏰᏗᎭ	-10.1619
▁ᏢᏓᏥ	-10.1619
▁ᎢᎨᎬᏁᎸᎯ	-10.1619
▁ᎠᎵᏏᎾᎯᏍᏙᏗ	-10.1619
▁ᎤᏃᎯᏳᏗᏱ	-10.1619
▁ᏂᎦᎵᏍᏔᏅᎭ	-10.1619
ᎦᏯᎷᎥ	-10.1619
▁ᎠᎾᏛᎩᏍᎩ	-10.1619
ᏓᏙᏕᏍᏗᏍᎩ	-10.1619
▁ᏧᏁᎿᎢ	-10.1619
▁ᏧᎴᎯᏌᏅᎯ	-10.1619
▁ᎤᏂᎷᎯᏍᏗᏱ	-10.1619
▁ᏚᎸᏌᏛ	-10.162
ᎾᏫᏛᎮ	-10.162
▁ᎠᎯᏗᏳ	-10.162
ᏚᎸᏅᏗ	-10.162
▁ᎢᏥᏪᏍᏗᏱ	-10.162
▁ᎤᎾᏂᎩᏒ	-10.162
▁ᎤᎵᏍᏚᎢ	-10.162
▁ᎥᏣᏱ	-10.162
ᏢᏈᏍᏗᏱ	-10.162
▁ᎤᎾᎵᏍᏓᏴᏅ	-10.162
▁ᏧᎴᏔᏅᎯ	-10.1621
ᎸᏉᏔᏂ	-10.1622
▁ᎠᎦᏘᏯ	-10.1623
▁ᏧᏓᏅᏛᎢ	-10.1623
▁ᎠᎾᏓᏍᏓᏩᏗᏙᎯ	-10.1623
▁ᏍᎩᏍᏓᏩᏚᎦ	-10.1623
▁ᎢᏕᎾ	-10.1623
▁ᏗᎦᏓᎭ	-10.1623
▁ᏂᏣᏛᎿᏕᎬᎢ	-10.1624
▁ᏕᎦᏍᎩᎸ	-10.1624
▁ᏭᏂᎶᎯᏍᏗᏱ	-10.1624
▁ᎤᏮᏔᏅ	-10.1625
▁ᏈᎵᏏ	-10.1625
▁ᎠᏓᎯᎯ	-10.1626
ᏄᏩᏁᎰ	-10.1626
▁ᎢᎪᏪᎳ	-10.1626
▁ᏭᏂᏴᎴ	-10.1627
▁ᏗᎬᏩᏓᏂᎸᎢᏍᏗ	-10.1628
▁ᎠᎾᏓᏙᎵᏍᏓᏁᎯ	-10.163
▁ᏧᏬᎸ	-10.163
▁ᎢᏯᎬᏁᏗ	-10.1631
▁ᎣᎦᏣᏅ	-10.1631
▁ᎢᏳᏩᏁᎸᎯ	-10.1634
▁ᎢᏣᎵᎮᎵᎨᏍᏗ	-10.1636
ᏓᏛᏁᎮᏍᏗ	-10.1637
▁ᏍᎩᏙᎵᎩ	-10.1637
▁ᏕᎦᎶᏗ	-10.1638
▁ᎡᏃᏱ	-10.1638
▁ᎤᎾᏕᏅᎯ	-10.1638
ᎳᏗᏓᏍᏗᏱ	-10.164
▁ᎤᏓᏅᏖᎸᎢ	-10.1643
▁ᎤᏬᏂᏒ	-10.1643
▁ᎠᎦᏔᎯᏳ	-10.1643
▁ᏓᎾᏕᏲᎲᏍᎬ	-10.165
▁ᎤᏂᏰᎸᏅ	-10.1653
ᏙᎵᏨᎯ	-10.1655
▁ᎤᏁᏙᎸ	-10.1659
ᏙᎳᏅᏍᏗ	-10.1666
▁ᎤᏰᎸᏎ	-10.1673
ᏂᏴᎮᎢ	-10.1676
ᏂᏙᎲᎢ	-10.168
▁ᎢᏗᎬᏁ	-10.1687
ᎪᏍᏓᏯ	-10.1702
▁ᏧᎾᏄᎪᏫᏎᏗ	-10.1702
ᎨᎯᏙ	-10.174
▁ᏓᎾᎵᏍᏓᏴᎲᏍᎬ	-10.1759
ᎸᏉᏗᏍᎬ	-10.1836
ᎵᏍᏓᏴᏙᏗ	-10.185
▁ᎢᏓᏙᎴᎰᎯ	-10.1857
▁ᎢᏨᏃᏁᎸ	-10.19
▁ᏥᏯᎵᎡᎵᏤ	-10.1909
ᏯᏓᏂᎸ	-10.1972
ᏯᏓᏙᎵᏍᏓᏁ	-10.1995
▁ᏱᏅᏩᏍᏗ	-10.2028
ᏂᏪᏍᎨ	-10.2047
▁ᏂᎬᏁᎲ	-10.2144
▁ᏚᏪᎧ	-10.2148
▁ᎠᏩᎾᎦᎳ	-10.2159
ᏦᎯᏳᎲᏍᎦ	-10.2208
ᏙᎩᏯᏍ	-10.2316
ᏪᏨᎯ	-10.2334
ᏓᏁᎶ	-10.256
ᏓᏙᎵᏍᏓᏁᎭ	-10.2572
ᎤᎷᏨ	-10.2692
ᎪᏪᎳᏅᎯ	-10.274
▁ᏥᏅᏗᎦᎵᏍᏙᏗ	-10.2821
ᎠᏕᎸ	-10.2821
ᎬᏩᏪᏎ	-10.2826
ᏍᏓᏩᏛᏒᎩ	-10.2848
▁ᏂᎦᎵᏍᏔᏂ	-10.2868
ᏣᏪᏐᎸᏍᏙᏗ	-10.2869
'	-10.2869
ᏗᎦᎵᎠᏅᎯᏛ	-10.2869
ᏤᏯᏙᏤᎮᏍᏗ	-10.2869
▁ᎠᏂᏃᎯᎵᏙᎯ	-10.2869
▁ᎠᏓᏪᎳᎩᏍᎩ	-10.2869
▁ᎢᏯᏥᎸᏉᏗ	-10.2869
▁ᎤᎾᎵᎮᎵᏤ	-10.2869
▁ᎤᎾᏄᎪᏥᎸ	-10.2869
▁ᎤᏂᎩᎵᏲᎢᏍᏗ	-10.2869
▁ᎤᏓᏙᎵᏣᏛ	-10.2869
▁ᎦᎵᎡᎵᎦ	-10.2869
▁ᎦᎶᎯᏍᏗᏳᎶᏗ	-10.2869
▁ᏄᏬᎯᏳᏒᎾ	-10.2869
▁ᏅᏓᎦᎵᏍᏙᏓ	-10.2869
▁ᏅᏓᎦᎵᏍᏙᏔᏂ	-10.2869
▁ᏓᎵᏍᏗᎳᏁᎬ	-10.2869
▁ᏓᏆᏓᏂᎸᎨᏍᏗ	-10.2869
▁ᏕᎤᎸᏫᏍᏓᏁᎲ	-10.2869
▁ᏕᏏᎶᏂᎦ	-10.2869
▁ᏗᎾᏕᏲᎲᏍᎩ	-10.2869
▁ᏗᏦᏪᎵᏍᎩ	-10.2869
▁ᏙᏗᏣᏓᏅᏛᎢ	-10.2869
▁ᏥᏚᏳᎪᏗ	-10.2869
▁ᏦᎩᎸᏫᏍᏓᏁᎯ	-10.2869
▁ᏧᎾᏄᏩᎢ	-10.2869
▁ᏫᎨᏥᏲᎵᎭ	-10.2869
ᎶᏄᎮᏗᏱ	-10.2869
▁ᎢᏗᏍᏓᏓᎳ	-10.2869
▁ᏕᎦᏬᏁᏗᏍᎬ	-10.2869
▁ᏕᎭᏕᏲᎲᏍ	-10.2869
▁ᏚᏓᏘᎿᎥ	-10.2869
▁ᏱᏤᎵᎯᏍᎨᏍᏗ	-10.2869
▁ᎢᏧᏕᏘᏴᏛ	-10.2869
▁ᎤᏍᏆᏂᎪᏎ	-10.2869
▁ᏧᎦᏒᏍᏗ	-10.2869
ᏂᏆᏘᎯ	-10.2869
▁ᎠᎩᏇᏓᎸ	-10.2869
▁ᎢᏦᎯᏳᏗᏱ	-10.2869
ᎵᏂᏆᏅᏁ	-10.2869
▁ᏥᏣᏛᎩᎭ	-10.2869
▁ᎡᏥᏲᎵᎸᎭ	-10.2869
▁ᏗᏓᎴᎲᏍᎦ	-10.2869
ᏍᏓᏩᏛᏍᏗᏱ	-10.2869
▁ᏧᏂᏁᏟᏴᏍᏗᏱ	-10.2869
ᏎᎪᎩᏒ	-10.2869
▁ᎠᏂᎪᏗᏳ	-10.2869
ᏓᏆᎧᎾᏅᎩ	-10.2869
▁ᎤᏂᎬᎥᏍᎩ	-10.2869
▁ᏭᏂᎶᏒᎩ	-10.2869
▁ᏧᏬᏚᎯ	-10.2869
ᎵᏰᎢᎸᏍ	-10.2869
▁ᎦᏚᎢᏗᏢ	-10.2869
▁ᎤᏄᏩᎥ	-10.2869
▁ᎠᏂᏍᎦᎢᎲ	-10.2869
▁ᎬᏩᏓᏍᏕᎸᏗ	-10.2869
▁ᏣᏤᏍᏙ	-10.2869
ᏁᏍᎨᎲᎯ	-10.2869
▁ᏓᏂᏴᎨᏍᏗ	-10.2869
▁ᏥᏚᏙᎥ	-10.2869
▁ᎠᏙᎴᎰᏒᎯ	-10.2869
▁ᏂᎦᎵᏍᏗᏍᎪ	-10.2869
ᏥᏲᏍᏙᏓᏁ	-10.2869
ᏠᎠᏏ	-10.2869
▁ᏗᏇᏥ	-10.2869
▁ᎾᏆᎵᏍᏓᏁᎸ	-10.287
▁ᎯᎦᏙᎵ	-10.287
▁ᎤᎾᏓᏟᏌᏅ	-10.287
▁ᎢᏍᏕᎾ	-10.287
▁ᎶᎻ	-10.287
ᏍᏆᏂᎪᏔᏁ	-10.287
ᏯᏪᏐ	-10.287
ᏚᏓᎳᎡ	-10.287
ᎩᏏᏕᎩ	-10.2871
▁ᎢᎦᎵᏍᏙᏗᏱ	-10.2871
▁ᏕᎧᏁᏤ	-10.2871
ᎵᏌᎳᏓᏅ	-10.2871
▁ᏮᏛ	-10.2871
▁ᏓᎨᏥ	-10.2873
ᎾᏰᏍᎦ	-10.2873
▁ᏤᎵᎪ	-10.2873
▁ᎠᏂᏦᎢ	-10.2874
ᎩᏲᎱᏒᎯ	-10.2875
▁ᎠᎪᏎᎮᏍᏗ	-10.2876
▁ᎤᏍᏗᎩᏛ	-10.2877
▁ᎢᏯᏂᎢ	-10.2877
▁ᎠᏁᎮᎢ	-10.2877
▁ᏂᏣᎵᏍᏓᏁ	-10.2878
▁ᏄᏂᏪᏎᎸᎩ	-10.2878
▁ᎢᏛᏗᏍᎬ	-10.2881
ᎢᎦᎸᏉᏗ	-10.2882
ᎳᏍᏓᎡ	-10.2883
▁ᎠᏇᎵᏒ	-10.2883
▁ᎵᏫ	-10.2885
ᎪᎵᏯ	-10.2887
ᏄᎸᏗ	-10.2889
▁ᎨᏙᎲ	-10.2895
▁ᎢᏣᏛᏓᏍᏓ	-10.2897
▁ᎠᏍᏓᏱᏗᏍ	-10.2916
ᏔᏲᏎᏗ	-10.292
▁ᏂᏥᏪᏎ	-10.2928
ᎦᎾᏄᎪᏫᏍᎪ	-10.2941
▁ᎠᎫᏴᏗ	-10.2947
ᏂᏣᏔ	-10.2949
ᎸᏓᎩᏍ	-10.2958
ᏬᏁᏙᏗ	-10.2976
▁ᎦᏅᎨ	-10.2984
▁ᎤᏂᏴᎸ	-10.3018
▁ᏕᎬᏗᏍᎬ	-10.3023
ᏍᏓᏩᏕᏅ	-10.3133
ᏍᏆᏂᎪᏕᏍᏗ	-10.3133
ᏏᏔᏗᏍ	-10.3139
▁ᏣᏍᎦᏅᏨ	-10.3139
ᏙᎴᎰᏎ	-10.3143
ᏥᎷᏤ	-10.3148
ᏥᎪᎵᏰ	-10.3152
▁ᎨᎦᎫᏴᎡ	-10.3189
▁ᎤᎴᏁ	-10.3233
▁ᏓᎩᎸᏫᏍᏓᏁ	-10.3271
ᎵᏱᎶᎯᏍᏗ	-10.3322
ᎵᏓᏍᏔᏅ	-10.3386
ᎬᏬᏎ	-10.3479
ᏙᎳᏍ	-10.3531
▁ᎦᎾᏍ	-10.3539
ᏛᏁᎵᏓᏍᏗ	-10.3573
▁ᎢᏦᎯᏳᎲ	-10.367
ᏓᏂᎸᎦ	-10.376
ᏬᎯᏳᏁ	-10.3774
ᏂᎧᎿᏩ	-10.3833
ᏯᏛᏁᏗᏱ	-10.3876
▁ᏂᏨᏪᏎ	-10.3988
ᏯᏂᏍᎨᏍᏗ	-10.4035
ᏥᏴᎩ	-10.419
▁ᎠᏆᏛᎦᏅ	-10.421
ᏓᏅᏖᏍᎨ	-10.4264
ᏠᎾᏍᏛᎾ	-10.4287
ᏛᏐᏅᎯ	-10.4296
ᏘᎾᏫᏛᎲ	-10.4297
▁ᎠᎵᏍᎦᏁᏛ	-10.4297
▁ᎠᏂᎦᏔᎾᎢ	-10.4297
▁ᎠᏓᏪᎵᎩᏍᎬ	-10.4297
▁ᎠᏰᏙᎳᏛ	-10.4297
▁ᎢᏨᏰᎳᏗᏙᎲ	-10.4297
▁ᎤᏬᏯᏁᏒ	-10.4297
▁ᎥᏓᎷᎶᏗ	-10.4297
▁ᏂᏚᎾᏁᎶᏛᎾ	-10.4297
▁ᏂᏚᎾᏓᏪᏎᎸᎩ	-10.4297
▁ᏂᏦᎵᎬᎾ	-10.4297
▁ᏄᎾᏓᎡᏍᏗ	-10.4297
▁ᏑᏟᎶᏛ	-10.4297
▁ᏓᏂᏄᏙᎬᎢ	-10.4297
▁ᏓᏓᏁᎳᏗᏒ	-10.4297
▁ᏕᎦᎸᏫᏍᏓᏁᎸ	-10.4297
▁ᏕᏥᏂᏴᏎᏍᏗ	-10.4297
▁ᏗᎧᏃᎩᏍᏙᏗ	-10.4297
▁ᏗᎾᏂᏏᎲᏍᎩ	-10.4297
▁ᏗᏂᎭᏄᎸᎯ	-10.4297
▁ᏚᎿᏍᏕᏢ	-10.4297
▁ᏫᏲᏪᎳᏏ	-10.4297
ᎵᏍᏓᏴᎲᏍᎨᎢ	-10.4297
▁ᎡᏙᏙᏱ	-10.4297
▁ᎧᏅᏑᎸ	-10.4297
▁ᏅᏛᏆᏓᎴᏅᎯ	-10.4297
ᎬᎭᎷᏰ	-10.4297
ᏂᏆᏘᎭ	-10.4297
ᏓᏙᎵᏍᏓᏏ	-10.4297
▁ᎢᏳᏓᎨᏛ	-10.4297
▁ᎤᎾᎵᏖᎸᏅ	-10.4297
▁ᎨᎴᏏᏱ	-10.4297
▁ᎾᏂᏍᎦᏅᎾ	-10.4297
▁ᏕᏅᏙᎥ	-10.4297
▁ᏚᏄᏩᎥ	-10.4297
▁ᏣᎦᏑᎲᎢ	-10.4297
▁ᏧᎦᎾᏮ	-10.4297
▁ᏑᏕᏘᏴᏛ	-10.4297
▁ᏓᏓᎶᏂ	-10.4297
▁ᎤᏓᏙᎵᏣᏘ	-10.4297
▁ᎦᏰᏥᏐᏢ	-10.4297
▁ᏗᏕᏲᎲᏍᎩ	-10.4297
▁ᎠᏄᎯᏍᏗᏍᎬ	-10.4297
▁ᎾᏂᏪᏍᎬᎢ	-10.4297
▁ᏣᏓᏲᏁᎸᎩ	-10.4297
▁ᎠᏂᏙᎾᎡ	-10.4297
▁ᎢᎨᏣᏛᏁᏗ	-10.4297
▁ᎠᏁᏙᎭ	-10.4297
▁ᏂᏥᏪᏍᎪᎢ	-10.4297
▁ᏙᏛᎾᎴᏂ	-10.4297
▁ᏫᏥᏲᎵᎦ	-10.4297
▁ᏥᏂᎨᎬᏁ	-10.4297
▁ᎢᏨᏯᏅᏓᏗᏍ	-10.4297
▁ᎾᎩᏪᏒᎩ	-10.4297
▁ᏗᏄᎪᏗᏍᎩ	-10.4297
▁ᎤᏔᏲᎴ	-10.4297
▁ᏕᏣᏓᏂᎸᏨ	-10.4298
▁ᏂᎦᎵᏍᏗᏍᎨᏍᏗ	-10.4298
ᏓᏂᎸᎬᎾ	-10.4298
ᏓᎦᎶᏐᏂ	-10.4298
▁ᎤᏪᏐᏅᏴ	-10.4298
▁ᎣᎦᏚᎵᎭ	-10.4298
ᎵᏍᏓᏴᎲᎦ	-10.4298
▁ᎠᏓᏰᎨᏍᏗ	-10.4298
▁ᏳᏃᎵᏤ	-10.4298
▁ᎢᏨᏃᎮᎮᎸ	-10.4298
▁ᎠᏂᎸᏉᏗᏍᎨ	-10.4298
▁ᏓᏓᏛᏂ	-10.4298
▁ᏗᎨᎫᎪᏓᏁᏗ	-10.4298
▁ᎠᏁᎵᏍᎬᎩ	-10.4298
▁ᎤᏗᏛᎮ	-10.4298
▁ᎤᎾᏛᎦᏁᎢ	-10.4298
▁ᏚᏛᏛᏁ	-10.4298
▁ᎨᏥᏅᏒᎯ	-10.4298
ᏂᏍᏆᏂᎪᏍᎨ	-10.4298
ᏛᏅᎢᏍᏔᏅᎯ	-10.4298
▁ᎦᎾᏄᎪᏥᎸ	-10.4299
▁ᎤᎵᏠᏯᏍᏕᏍᏗ	-10.4299
▁ᎤᏢᏉᏗ	-10.4299
▁ᎤᏗᏗᏢ	-10.4299
ᎵᏍᎦᏍᏙᏙ	-10.4299
▁ᎤᎬᏩᎳ	-10.43
▁ᏌᏯᏂ	-10.43
▁ᏗᏆᎳᏏᏕᏂ	-10.4301
▁ᏣᏁᎮᎢ	-10.4301
▁ᏱᏂᏣᏛᏁ	-10.4301
▁ᎤᏲᏍᏛᏉ	-10.4301
▁ᏥᏍᎪᏴ	-10.4301
▁ᏧᏚᎪ	-10.4301
ᏥᎶᏄᎡ	-10.4302
▁ᎢᏥᎨᏴ	-10.4303
▁ᎠᎩᏍᏛᏗᏍᎬ	-10.4303
▁ᏚᏂᏲᎱᏒ	-10.4304
▁ᎠᏐᏴ	-10.4304
▁ᎦᏃᏙᏗᏱ	-10.4304
▁ᎤᏖᎸ	-10.4306
▁ᎤᏓᏩᏗᏍ	-10.431
▁ᏧᏁᎵᏁ	-10.4312
▁ᎤᎴᏅᎩ	-10.4313
ᏂᏧᏈᏍᏗ	-10.4314
ᎵᏍᏓᏁᎵᏕᎬ	-10.4314
ᏓᏅᎡᎴ	-10.4315
ᏠᎠᏒ	-10.4318
ᎾᏓᏂᎸᏨ	-10.4322
ᏘᏃᎯᏍᏗᏱ	-10.4335
▁ᎤᏍᎦᏤ	-10.4335
▁ᎠᎾᎵᏍᏓᏴᏗᏍ	-10.4336
ᏔᏲᏎᎮ	-10.4341
▁ᏗᏕᎶᏆᏍ	-10.4343
ᎪᏪᎵ	-10.4346
▁ᎢᏕᎲ	-10.4346
ᏥᏍᎦᏨᎯ	-10.4366
ᏧᏂᏲᎯᏍᏗᏱ	-10.437
ᎠᎩᏏᏙᎯ	-10.4373
ᏤᏙᎭ	-10.4377
▁ᎨᏥᏛᏙᏗ	-10.4386
▁ᎣᏨᏗ	-10.4398
▁ᎤᎿᎸ	-10.4427
▁ᎠᏓᎨᏗ	-10.4436
▁ᏫᎦᎾᏄᎪ	-10.4495
ᏬᏁᏔᏁ	-10.4505
▁ᎠᏍᏆᏂᎪᏗᏍ	-10.4596
▁ᏕᎦᏄᎪᏫᏍ	-10.4856
ᎦᏚᎵᏍᎬ	-10.4887
ᏥᏁᎢᏍᏗᏍᎬ	-10.4892
▁ᏂᏥᏍᎦᏅ	-10.5011
▁ᎬᏩᎵᎪᏁ	-10.503
ᏣᎧᏛ	-10.5031
ᏏᏐᏗ	-10.5121
ᎾᎵᏍᎪᎸᏗ	-10.5136
▁ᏗᎬᏩᏁᎶ	-10.5429
ᏅᏩᏍᏗᏉ	-10.5489
ᏯᎵᎡᎵᏤᎭ	-10.5532
▁ᎠᏓᏙᎵᏍ	-10.5577
▁ᏗᏣᏓᎴᏅ	-10.5654
ᎵᎪᏁᎴ	-10.572
▁ᏭᎶᏎ	-10.5825
ᎩᏲᎱᎯᏍᏗ	-10.5835
ᎵᎮᎵᎪ	-10.5844
ᎬᎪᏩᏛᏗ	-10.5856
ᎬᏫᏳᏌᏕ	-10.5866
▁ᎠᏂᏯᏫᏍ	-10.5867
ᎦᎸᎲᎩ	-10.588
ᎦᏌᏯᏍᏙᏗ	-10.5891
ᎦᏘᏏᏗᏢ	-10.5903
▁ᎤᎾᏠᎾᏍ	-10.591
▁ᎤᏲᎱᎯᏍᏗ	-10.5924
ᏓᏅᏖᏍᎪ	-10.5954
ᏟᏏᏍᎪ	-10.5956
ᏍᏓᏩᏚᎦ	-10.5957
ᏛᎿᏕᎬᎢ	-10.5961
ᎦᎵᏍᏙᏗᏍᎬᎩ	-10.5961
ᎦᏥᏯᏠᎢᏍᏓᏁ	-10.5964
ᏚᎸᏅᎥᏍᎬ	-10.5964
▁ᎠᎵᎮᎵᏤᏗ	-10.5964
▁ᎠᏍᏆᎸᎲᎭ	-10.5964
▁ᎠᏓᏪᎵᎩᏍᎩ	-10.5964
▁ᎢᏯᏆᎵᏍᏙᏗᏱ	-10.5964
▁ᎤᏤᎷᎯᏒᎩ	-10.5964
▁ᎥᎦᏥᎪᎥᎩ	-10.5964
▁ᎥᏆᎸᎢᏛ	-10.5964
▁ᎦᎵᏥᏙᎲᏍ	-10.5964
▁ᎪᎢᏳᎲᏍᎦ	-10.5964
▁ᎯᏯᏛᎥᎦ	-10.5964
▁ᎰᏪᎸᎦ	-10.5964
▁ᎴᎣᏗᏏᏯ	-10.5964
▁ᏂᎪᎯᏳᎲᏍᎬᎾ	-10.5964
▁ᏂᏕᏣᏛᏁᎮᏍᏗ	-10.5964
▁ᏄᎾᏛᏁᎵᏙᎸ	-10.5964
▁ᏄᏓᏑᏴᎾ	-10.5964
▁ᏅᏃᎱᎶᏗ	-10.5964
▁ᏅᏓᎬᏩᏍᏓᏩᏛᏛ	-10.5964
▁ᏅᏧᎵᏍᏙᏔᏁ	-10.5964
▁ᏓᎾᏓᏅᏖᏍᎬ	-10.5964
▁ᏗᎧᎿᏩᏕᎩ	-10.5964
▁ᏗᎫᎪᏗᏍᎩ	-10.5964
▁ᏗᏂᎬᏓᎨᏂ	-10.5964
▁ᏗᏂᏲᎤᎵ	-10.5964
▁ᏙᏛᎾᏓᏡᏔᏂ	-10.5964
▁ᏙᏧᏁᏅᏒ	-10.5964
▁ᏚᏟᎶᏍᏓᏁᎸᎩ	-10.5964
▁ᏛᏓᎴᎲᏍᎬᎩ	-10.5964
▁ᏦᏍᏓᏓᏅᏟ	-10.5964
▁ᏧᎸᏫᏍᏓᏁᎸᎯ	-10.5964
▁ᏧᏂᏦᏯᏍᏗ	-10.5964
▁ᎠᏟᎶᎥ	-10.5964
▁ᎤᏂᎵᏅᏨᎯ	-10.5964
▁ᎭᎵᎮᎵ	-10.5964
▁ᏂᏣᏓᎨᏳᏒ	-10.5964
▁ᏓᏇᎪᏔᏅ	-10.5964
▁ᏗᏂᏅᏌᏗ	-10.5964
▁ᏧᏭᎪᏓᏁ	-10.5964
▁ᎤᎾᏙᎴᎰᎯᏍᏙᏗ	-10.5964
▁ᎾᎪᏔᏅᎾ	-10.5964
▁ᏕᎦᎳᏅᏛ	-10.5964
▁ᏗᏥᏲᎱᏒᎯ	-10.5964
▁ᏥᏂᎦᎵᏍᏗᎭ	-10.5964
▁ᎢᎳᎩᏳ	-10.5964
▁ᏗᎧᏃᏗᏱ	-10.5964
ᏄᏩᏂᏌᏅ	-10.5964
▁ᎤᎾᏢᏉᏗ	-10.5964
▁ᎬᏭᎯᏍᏗᏍ	-10.5964
▁ᏂᎬᏠᏍᎬᎾ	-10.5964
▁ᎢᏨᏯᎵᏥᏙᏁᎸ	-10.5964
▁ᏂᏥᎪᎸᎾ	-10.5964
▁ᏕᎦᏃᏣᎸ	-10.5964
▁ᏕᏣᏁᎶᏛ	-10.5964
▁ᏕᏦᏕᏍᏗ	-10.5964
▁ᏗᏥᎧᎿᏩᏛᏍᏗᏱ	-10.5964
▁ᎤᎵᏬᏨᎯ	-10.5964
▁ᏗᎪᏪᎶᏗ	-10.5964
ᏂᏐᏢᎢᏍᏗᏍ	-10.5964
▁ᎤᏘᏴᎯ	-10.5964
▁ᏥᏓᎩᎸᏫᏍᏓᏁᎭ	-10.5964
▁ᎠᎹᏳᎶᏗ	-10.5964
▁ᎢᏣᎦᏔᏅᏎ	-10.5964
▁ᏱᏄᎵᏍᏔᏅ	-10.5964
▁ᎣᎨᏙᎸ	-10.5964
▁ᏅᏓᏨᏁᎵ	-10.5964
▁ᎨᏦᎯᏳ	-10.5964
ᏩᎾᎦᎶ	-10.5964
▁ᎤᏚᎸᎲ	-10.5964
▁ᎪᎯᏳᎲᏍᎨᏍᏗ	-10.5964
▁ᎤᏂᎬᎥᏍᎬ	-10.5964
▁ᎠᎩᎵᏲᎬ	-10.5964
▁ᎡᎶᏗᏏ	-10.5964
▁ᎤᎵᏍᏆᏕ	-10.5964
▁ᏓᏤᎵᏍᏛ	-10.5964
▁ᏗᏣᎧᏅᎦ	-10.5964
ᎦᏌᏬᎢ	-10.5964
▁ᎤᏃᎯᏳᎯ	-10.5964
▁ᎠᏣᏪᏐᎸᏍᏙᏗᏱ	-10.5964
ᏗᏂᏍᎪᏂᎯ	-10.5964
▁ᎤᎾᏁᎶᏔᏅ	-10.5964
▁ᎤᎾᎵᏏᎾᎯᏍᏗ	-10.5964
▁ᏚᏅᏩᏁ	-10.5964
▁ᎤᏁᎷᏁᎢ	-10.5964
▁ᎡᏈᎳ	-10.5964
▁ᏚᏘᏅᏎ	-10.5964
▁ᎤᎾᏓᏑᏴ	-10.5964
▁ᏦᎩᎾᏫ	-10.5964
▁ᎤᏗᎴᎩ	-10.5964
▁ᎰᏌᎾ	-10.5964
▁ᏥᏩᎾᎦ	-10.5964
ᎪᏩᏘᏍᎬᎾ	-10.5964
▁ᎤᏁᎳᏫᏎᎸ	-10.5965
▁ᏭᏕᎵᎬ	-10.5965
ᏘᏍᏓᏁᎯ	-10.5965
▁ᎠᏂᏈᎷ	-10.5965
ᏍᏚᎢᎡᎸ	-10.5965
ᎵᏂᎪᎯᏍᏙᏗᏱ	-10.5965
▁ᎬᏲᏎᎭ	-10.5965
▁ᎤᎬᎥᏍᎩ	-10.5965
▁ᎤᏌᎳᏓᏅ	-10.5965
▁ᎢᎪᏂᏯ	-10.5965
▁ᏅᏓᎦᏪ	-10.5965
▁ᏗᏥᎨᏫ	-10.5965
▁ᎨᎻᎵ	-10.5965
▁ᏂᎦᎵᏍᏔᏂᏙᎲ	-10.5965
▁ᎠᏂᎶᎻ	-10.5965
▁ᎤᏓᏑᏱ	-10.5965
▁ᎦᎾᏄᎪᏫᏍᎪᎢ	-10.5965
▁ᎠᏐᏢᎢᏍᏗᏍᎬ	-10.5965
▁ᎢᏣᎴᏂᏙᎲ	-10.5965
ᏐᏢᎢᏍᏔ	-10.5965
▁ᎠᏚᎢᏍᏔᏅ	-10.5965
▁ᏚᎾᎧᏛ	-10.5965
▁ᎡᏗᏂᏱ	-10.5966
ᏥᎳᏫᏎᎲ	-10.5966
▁ᎢᏥᏁᎫ	-10.5966
▁ᏕᎪᏢᏒ	-10.5966
▁ᏂᎦᎵᏍᏗᏍᎬ	-10.5966
▁ᏚᏂᎳᏫᏨ	-10.5966
▁ᎤᏃᎯᏳᏁ	-10.5967
▁ᏚᏂᎧᎵ	-10.5967
▁ᎠᎫᎢᏍᏗᏍ	-10.5967
▁ᏚᏕᏲᏁ	-10.5967
ᏐᏢᎢᏍᏙᏗᏱ	-10.5967
▁ᎤᎵᏍᏗᏳ	-10.5967
ᏓᏂᎸᎪᎢ	-10.5968
▁ᏂᏚᏂᏪᏎᎴ	-10.5969
▁ᏱᏄᏍᏕ	-10.5971
ᏂᏔᏲᎴ	-10.5971
ᎵᏍᏓᏴᎾᏁ	-10.5971
▁ᏤᏙᎲ	-10.5972
▁ᎢᏓᎵᎮᎵ	-10.5972
▁ᎨᎦᎵᏥᏙᏁ	-10.5973
▁ᏚᎾᎴᏁ	-10.5973
▁ᎠᎾᏓᏙᎵᏍᏗᏍᎨ	-10.5973
▁ᏓᏟᎶᏍᏗ	-10.5977
ᏫᏂᏗᏢ	-10.598
ᏛᏅᎢᏍᏔᏁ	-10.598
ᏥᏰᎲᎾ	-10.5982
▁ᏭᏂᏴᎸ	-10.5983
ᏓᏂᎧᎿᏩᏕ	-10.5984
▁ᎾᎬᏁᎴ	-10.5993
ᏚᎵᏥᏙᏁᎴ	-10.5994
ᏗᏂᎦᏘᏯ	-10.6001
ᏓᏨᏯᏍᏗ	-10.6003
▁ᎦᎨᏥᏁ	-10.6011
▁ᎨᎪᏎ	-10.6019
▁ᏚᏄᎪᏔ	-10.6024
▁ᏗᎦᎪᏙᏗ	-10.6032
▁ᎢᏣᏓᏅᏓᏗᏍ	-10.6032
ᏥᎩᎵᏲᎦ	-10.6037
▁ᎾᏛᏁᎰ	-10.6041
ᏗᏫᏎᎸ	-10.6083
ᎰᎲᏍᏗ	-10.6168
ᏛᏂᏗᏍᏗ	-10.6219
ᏣᏛᎪᏗ	-10.6264
▁ᎤᎵᏠᏯᏍ	-10.6487
▁ᎠᎦᎵᏍᎪᎸᏓᏁᎸ	-10.6521
ᎤᏁᎢᏍᏔᏅ	-10.6658
▁ᎰᎯᏳᎲᏍ	-10.6665
ᎵᏍᎪᎸᏗᏍᎬ	-10.6871
ᏣᏓᏅᏖᏍᏗ	-10.7046
ᎦᏄᎪᏫᏍᎦ	-10.721
▁ᎠᎩᏍᏆᏂᎪ	-10.7248
▁ᏚᏄᎪᏫᏒ	-10.7286
▁ᎠᏓᎪᎵᏰᏍ	-10.7292
ᎪᎵᏰᏍᎬᎩ	-10.7325
▁ᎨᏥᏃᎮᏍ	-10.7381
ᏣᏛᏅᎢᏍᏓᏁ	-10.7435
ᎩᏍᏓᏩᏕ	-10.7524
ᏤᎵᎯᏍ	-10.7745
▁ᏭᏂᎶᏎ	-10.7822
ᎪᏩᏘᏍᎨ	-10.7827
ᏎᎪᎩᏍᏗ	-10.7835
▁ᏓᎧᎿᏩᏗ	-10.7885
ᏃᏟᏍ	-10.7897
ᏚᏓᏂᎸᏤ	-10.7912
▁ᎤᎵᏂᎩᏗ	-10.7943
ᎵᏍᎦᏍᏙᏔᏅ	-10.7963
▁ᎣᎦᏓᏅᏔᏩᏕ	-10.7964
ᏍᏓᏩᏕᏒᎭ	-10.7964
ᏓᏄᏴᏛᎾ	-10.7964
ᏕᏋᎯᏍ	-10.7964
ᏣᎸᏫᏍᏓᏁᎮᏍᏗ	-10.7964
▁ᎠᏛᏂᏗᏍᏙᏗ	-10.7964
▁ᎠᏤᏍᏙᎩᎯ	-10.7964
▁ᎢᏣᏛᏅᎢᏍᏙᎢ	-10.7964
▁ᎢᏯᏂᏪᏍᎩ	-10.7964
▁ᎦᎵᏆᏍᎪᎯ	-10.7964
▁ᎭᏰᎳᏍᏗ	-10.7964
▁ᎾᎵᏍᏓᏴᎲᏍᎬᎾ	-10.7964
▁ᎾᏍᏆᎵᏍᎬᎾ	-10.7964
▁ᏂᎦᏗᎹᏏ	-10.7964
▁ᏂᏍᏋᏁ	-10.7964
▁ᏂᏓᏕᏘᏴᎯᏒ	-10.7964
▁ᏅᏓᎦᏥᏴᏁᎵ	-10.7964
▁ᏅᏧᏓᎴᏅᎲᎾ	-10.7964
▁ᏇᏣᏱᏗ	-10.7964
▁ᏑᏓᎳᏍᎪᎯ	-10.7964
▁ᏓᏂᎶᏄᎮᏍ	-10.7964
▁ᏓᏓᏂᏌᎲ	-10.7964
▁ᏕᎭᏓᏅᎡᎮᏍᏗ	-10.7964
▁ᏕᏥᏁᏤᎮᏍᏗ	-10.7964
▁ᏙᎩᎸᏫᏍᏓᏁᎲ	-10.7964
▁ᏚᎵᏍᏚᎢᏎᎢ	-10.7964
▁ᏚᏂᏏᏂᏙᎸ	-10.7964
▁ᏥᏂᏥᏪᎭ	-10.7964
▁ᏥᏕᏣᎪᎲᎩ	-10.7964
▁ᏥᏨᏰᎳᏗᏙᎲᎩ	-10.7964
▁ᏩᎵᏰᎢᎶᎯᎭ	-10.7964
▁ᏫᎨᏥᏯᏅᏛ	-10.7964
▁ᏫᏂᎦᎵᏍᏙᏓ	-10.7964
▁ᏬᎩᎶᏒᎩ	-10.7964
▁ᏬᎩᏅᏍᏔᏅᎩ	-10.7964
ᎶᏄᎮᏍᎩ	-10.7964
ᏲᎱᏏᏕᎾ	-10.7964
▁ᎢᏥᎩᎵᏲᎢᏍᏗ	-10.7964
▁ᎢᏳᎵᏍᏔᏂᏓᏍᏗ	-10.7964
▁ᎤᏂᎧᎵᏤ	-10.7964
▁ᎤᏓᏙᎵᏍᏓᏁᎴᎢ	-10.7964
▁ᎤᏚᏓᎴᏛ	-10.7964
▁ᎯᏍᎦᏍᎪᎯ	-10.7964
▁ᏗᎬᏩᎩᏨᏗ	-10.7964
▁ᏗᎾᏓᎾᏌᎲᏍᎩ	-10.7964
▁ᏗᏂᎧᎿᏩᏕᎩ	-10.7964
▁ᎠᎵᎮᎵᎬ	-10.7964
▁ᎠᏓᎦᎵᏍᏓᏗᏍᎩ	-10.7964
▁ᏂᏗᎨᏥᎾᏝᎥᎾ	-10.7964
▁ᏓᏲᏣᏛᏁᎵ	-10.7964
▁ᏗᏓᎴᏅᏗᏍᎩ	-10.7964
▁ᏚᎦᏒᏍᏛ	-10.7964
▁ᎤᎦᏌᏯᏍᏗᏕᎩ	-10.7964
▁ᏁᏓᏂᎵ	-10.7964
▁ᏅᏓᏣᏓᎴᏅᎯ	-10.7964
▁ᏗᎦᏘᎴᎩ	-10.7964
▁ᏗᏍᎩᎧᏁᎸᎯ	-10.7964
▁ᏚᏍᏆᎸᏔᏁ	-10.7964
▁ᏧᏄᏩᎢ	-10.7964
▁ᏧᏅᎨᏫ	-10.7964
ᏍᎦᏅᏨᎾ	-10.7964
▁ᎤᏬᏪᎳᏅᎩ	-10.7964
▁ᏗᎾᏓᏲᏁᎯ	-10.7964
▁ᏣᏃᏍᎩᏒᎩ	-10.7964
▁ᎤᏬᏪᎳᏅᎯ	-10.7964
▁ᏓᏗᎶᏂ	-10.7964
▁ᎠᎩᏍᏓᏩᏕᎨᏍᏗ	-10.7964
▁ᎠᏂᏰᎪᎩ	-10.7964
▁ᏥᎦᎷᎯᏍᏗᎭ	-10.7964
▁ᏱᏣᏞᎨᏍᏗ	-10.7964
▁ᏗᎪᏪᎵᏍᎩ	-10.7964
▁ᏥᏄᎾᎵᏍᏓᏁ	-10.7964
▁ᏧᎾᎩᎸᏗ	-10.7964
ᎦᏌᏯᏍᏔᏅ	-10.7964
▁ᎤᎿᎷᏎ	-10.7964
▁ᎭᏓᏅᏓᏓ	-10.7964
▁ᏕᏥᏃᎩᏍᎨᏍᏗ	-10.7964
ᎬᎭᎷᏯᏍ	-10.7964
▁ᎠᏆᎵᏥᏙᏗᏱ	-10.7964
▁ᎤᏂᏃᎮᏗᏱ	-10.7964
▁ᎨᏥᎦᏘᏗᏍᏗ	-10.7964
ᎵᎥᏂᎵ	-10.7964
▁ᏄᏓᏓᎸᎾ	-10.7964
ᏟᎶᎡᎸ	-10.7964
▁ᎤᏁᎷᎬᎩ	-10.7964
▁ᎤᏛᏛᏅᎩ	-10.7964
▁ᎭᎴᎲᎦ	-10.7964
▁ᏫᏚᏂᏯᏅᎲ	-10.7964
ᏍᏆᏃᏴᎪ	-10.7964
▁ᎬᏩᎷᏤᎮ	-10.7964
▁ᏗᏣᎴᎲᎦ	-10.7964
▁ᏱᏂᎦᏛᏁᎭ	-10.7964
▁ᎠᏳᎾᎦ	-10.7964
▁ᏅᏓᏳᏄᎪᏨᎯ	-10.7964
▁ᎤᎾᏓᏙᎵᏍᏔᏅ	-10.7964
▁ᎤᏁᎢᎸᏗ	-10.7964
▁ᏂᏨᏴᏁᎭ	-10.7964
▁ᏓᏰᏥᏁᎵ	-10.7964
ᎦᏕᎣᏍᎦ	-10.7964
▁ᏚᏌᎳᏓᏅ	-10.7964
~	-11.3797
Ꮍ	-11.8797
Ꮚ	-12.8793
(	-12.8794
Ꮌ	-12.8795
Ꮛ	-12.8796
[	-12.8797
\	-12.8797
