<pad>	0
</s>	0
<unk>	0
▁¦	-0
ch	-1
ai	-2
an	-3
ar	-4
th	-5
ea	-6
in	-7
▁𐋇	-8
ag	-9
dh	-10
na	-11
bh	-12
le	-13
mh	-14
ir	-15
▁.	-16
is	-17
▁,	-18
ío	-19
ach	-20
us	-21
il	-22
co	-23
agus	-24
id	-25
ta	-26
air	-27
gh	-28
ao	-29
tá	-30
each	-31
go	-32
la	-33
io	-34
do	-35
ra	-36
ei	-37
the	-38
te	-39
ain	-40
fh	-41
lá	-42
ad	-43
iú	-44
chu	-45
al	-46
de	-47
ás	-48
eo	-49
ann	-50
cov	-51
inn	-52
ine	-53
or	-54
sc	-55
aí	-56
ro	-57
anna	-58
eas	-59
9¦	-60
as	-61
áil	-62
tú	-63
éi	-64
nó	-65
íon	-66
ri	-67
ais	-68
▁¦2	-69
bhf	-70
19¦	-71
aithe	-72
covid	-73
uair	-74
ír	-75
-19¦	-76
mar	-77
sh	-78
éad	-79
▁’	-80
eadh	-81
ion	-82
nío	-83
má	-84
seo	-85
adh	-86
it	-87
éan	-88
ná	-89
▁¦1	-90
aigh	-91
ac	-92
eag	-93
ear	-94
du	-95
ig	-96
sa	-97
abh	-98
0¦	-99
idir	-100
íoch	-101
cho	-102
íonn	-103
fé	-104
ní	-105
acht	-106
tr	-107
aon	-108
amh	-109
aidh	-110
ithe	-111
igh	-112
óg	-113
aoine	-114
uil	-115
chun	-116
cás	-117
vír	-118
cu	-119
im	-120
tar	-121
eile	-122
óir	-123
mb	-124
áin	-125
agh	-126
eann	-127
nach	-128
bhfuil	-129
áid	-130
láin	-131
eal	-132
ín	-133
eacht	-134
ail	-135
▁(	-136
ph	-137
arth	-138
acha	-139
sé	-140
mó	-141
am	-142
stá	-143
rai	-144
áir	-145
▁)	-146
re	-147
isc	-148
atá	-149
éir	-150
ath	-151
íodh	-152
fao	-153
eamh	-154
níos	-155
st	-156
comh	-157
sp	-158
án	-159
ru	-160
thu	-161
oi	-162
ean	-163
ic	-164
taí	-165
oir	-166
iad	-167
víreas	-168
aith	-169
rú	-170
tu	-171
ró	-172
thar	-173
daoine	-174
dú	-175
ús	-176
on	-177
cl	-178
tha	-179
sin	-180
eith	-181
féidir	-182
sláin	-183
saí	-184
iom	-185
bhí	-186
éim	-187
▁¦20	-188
déan	-189
faoi	-190
eidh	-191
gc	-192
dt	-193
aghaidh	-194
aint	-195
rá	-196
se	-197
ist	-198
uairisc	-199
ol	-200
duine	-201
éadf	-202
vac	-203
imh	-204
tástá	-205
leis	-206
lean	-207
vacsaí	-208
sláinte	-209
2¦	-210
cú	-211
anta	-212
éis	-213
úsáid	-214
oib	-215
chur	-216
dhéan	-217
aid	-218
lea	-219
fhabh	-220
ionfhabh	-221
eagmh	-222
airt	-223
taithe	-224
5¦	-225
bás	-226
tear	-227
to	-228
ón	-229
ars	-230
lu	-231
aip	-232
iún	-233
sco	-234
4¦	-235
dó	-236
chomh	-237
ile	-238
ál	-239
raibh	-240
rial	-241
me	-242
ála	-243
un	-244
raí	-245
roinn	-246
3¦	-247
ort	-248
sars	-249
ur	-250
sú	-251
rio	-252
▁:	-253
éar	-254
tuairisc	-255
ith	-256
arthaí	-257
vacsaín	-258
ial	-259
ibh	-260
iar	-261
cuir	-262
bheith	-263
ina	-264
gach	-265
ill	-266
éadfadh	-267
▁¦202	-268
dhéanamh	-269
rud	-270
ba	-271
lú	-272
íocht	-273
ghl	-274
mu	-275
tuairiscíodh	-276
tais	-277
dear	-278
féin	-279
éal	-280
gur	-281
1¦	-282
och	-283
ras	-284
inne	-285
thair	-286
ian	-287
chóir	-288
su	-289
rta	-290
dá	-291
ard	-292
comharthaí	-293
sín	-294
8¦	-295
san	-296
áis	-297
duit	-298
▁¦2020¦	-299
ma	-300
ne	-301
mha	-302
eola	-303
ógra	-304
cásanna	-305
▁¦3	-306
eall	-307
rian	-308
roinnt	-309
dhaoine	-310
reis	-311
thug	-312
den	-313
don	-314
idh	-315
líon	-316
siad	-317
tug	-318
chú	-319
▁¦4	-320
gal	-321
nuair	-322
fan	-323
trí	-324
eabh	-325
rtha	-326
ia	-327
orthu	-328
lagh	-329
6¦	-330
aile	-331
son	-332
tástáil	-333
fu	-334
ce	-335
cé	-336
▁%	-337
fhéadfadh	-338
iúil	-339
nu	-340
eachta	-341
at	-342
7¦	-343
ob	-344
dí	-345
ráig	-346
chuir	-347
vir	-348
éig	-349
lena	-350
eagmháil	-351
fo	-352
márta	-353
radh	-354
lí	-355
int	-356
roimh	-357
eachtaí	-358
tach	-359
úd	-360
amach	-361
río	-362
aine	-363
gl	-364
eacha	-365
ítear	-366
fr	-367
scaip	-368
lán	-369
neamh	-370
eart	-371
00¦	-372
isteach	-373
có	-374
mo	-375
bun	-376
dóibh	-377
eaghl	-378
ae	-379
gco	-380
déim	-381
pla	-382
túir	-383
coro	-384
nadh	-385
freis	-386
freisin	-387
isiún	-388
aindéim	-389
navir	-390
-2¦	-391
spr	-392
domh	-393
da	-394
mí	-395
víris	-396
scoile	-397
leat	-398
▁-	-399
fáil	-400
coronavir	-401
amháin	-402
chás	-403
sonraí	-404
aig	-405
gan	-406
mór	-407
tas	-408
tóg	-409
inic	-410
ís	-411
coronavirus	-412
ionfhabhtaithe	-413
ca	-414
fanacht	-415
sí	-416
aol	-417
ram	-418
ainn	-419
br	-420
aim	-421
easc	-422
gheall	-423
chuig	-424
ho	-425
aire	-426
tinn	-427
bhíonn	-428
os	-429
▁/	-430
éil	-431
eidhm	-432
rom	-433
táil	-434
fach	-435
linn	-436
for	-437
maid	-438
rach	-439
íochta	-440
pa	-441
eis	-442
ábh	-443
leor	-444
bear	-445
tír	-446
osc	-447
maidir	-448
so	-449
teaghl	-450
áirítear	-451
hiom	-452
eabhra	-453
nad	-454
nua	-455
éin	-456
measc	-457
eachas	-458
artha	-459
lámha	-460
íortha	-461
náisiún	-462
réir	-463
leith	-464
sna	-465
clúd	-466
chuid	-467
fháil	-468
paindéim	-469
iomp	-470
dul	-471
meas	-472
acu	-473
eic	-474
▁¦2¦	-475
bhain	-476
▁"	-477
di	-478
sao	-479
oiblí	-480
aontaithe	-481
ór	-482
ead	-483
fud	-484
aois	-485
spid	-486
airle	-487
roimhe	-488
tástála	-489
scaipeadh	-490
li	-491
og	-492
mura	-493
ialta	-494
feabhra	-495
lé	-496
las	-497
aib	-498
tugadh	-499
aghaidhe	-500
nú	-501
dtí	-502
súil	-503
teaghlaigh	-504
fó	-505
fógra	-506
ospid	-507
ghal	-508
lín	-509
áide	-510
taist	-511
haghaidh	-512
irbhí	-513
iarr	-514
chéad	-515
easta	-516
,0	-517
en	-518
iúl	-519
éif	-520
feadh	-521
léir	-522
áiste	-523
náisiúnta	-524
cinn	-525
galar	-526
thabh	-527
▁“	-528
bu	-529
áit	-530
▁¦5	-531
bhaile	-532
aitheamh	-533
óis	-534
riospr	-535
scoileanna	-536
thú	-537
cuid	-538
iúla	-539
fig	-540
leigh	-541
mhair	-542
eanáir	-543
illiún	-544
ionfhabhtú	-545
áirithe	-546
ll	-547
sca	-548
náth	-549
eagmhála	-550
hiomláin	-551
aist	-552
chor	-553
éile	-554
álacha	-555
riospráide	-556
ait	-557
eá	-558
bhr	-559
ite	-560
tsín	-561
cúram	-562
saint	-563
ng	-564
chl	-565
oll	-566
poiblí	-567
cuireadh	-568
thabhairt	-569
▁”	-570
ip	-571
irt	-572
eoir	-573
hcov	-574
▁¦5¦	-575
mbeadh	-576
tion	-577
éigean	-578
bhfeidhm	-579
faoin	-580
ionad	-581
oscail	-582
▁;	-583
ios	-584
lár	-585
leath	-586
maith	-587
▁'	-588
pró	-589
thás	-590
rianta	-591
óisialta	-592
fad	-593
nas	-594
bhar	-595
mhéad	-596
liú	-597
eala	-598
fear	-599
▁¦1¦	-600
clúdach	-601
eac	-602
agat	-603
óirí	-604
beidh	-605
seacht	-606
fi	-607
tor	-608
oirí	-609
faidh	-610
seirbhí	-611
han	-612
stáit	-613
choinne	-614
leo	-615
char	-616
prío	-617
rith	-618
fhógra	-619
cht	-620
aisc	-621
dáil	-622
eáil	-623
fuair	-624
leighis	-625
pháiste	-626
sham	-627
eanna	-628
leanaí	-629
bhaineann	-630
siú	-631
éag	-632
aibre	-633
teacht	-634
oc	-635
dío	-636
cóir	-637
fidh	-638
dhoch	-639
shampla	-640
cas	-641
ladh	-642
leibh	-643
íos	-644
eimh	-645
gcásanna	-646
dhochtúir	-647
ló	-648
rs	-649
dhá	-650
staid	-651
othair	-652
níl	-653
daon	-654
achtan	-655
iomlán	-656
tíortha	-657
riachtan	-658
teagmháil	-659
who	-660
▁).	-661
oifig	-662
invíreas	-663
chaitheamh	-664
ara	-665
thaí	-666
stach	-667
cor	-668
cur	-669
eagra	-670
scoil	-671
ré	-672
mhí	-673
ospidéal	-674
gá	-675
mp	-676
oibr	-677
,000¦	-678
srianta	-679
eip	-680
doch	-681
cuair	-682
riosca	-683
ár	-684
fhor	-685
síne	-686
ábháil	-687
nta	-688
▁¦6	-689
thástáil	-690
fhr	-691
dhear	-692
santa	-693
chéile	-694
aibreán	-695
tho	-696
éid	-697
dearbh	-698
toradh	-699
rialtas	-700
thuairisc	-701
tí	-702
más	-703
luath	-704
comhairle	-705
tao	-706
chúis	-707
domhain	-708
ealt	-709
siúd	-710
▁¦4,	-711
srian	-712
íochaine	-713
dé	-714
far	-715
léi	-716
▁¦9	-717
anda	-718
glao	-719
luais	-720
dearfach	-721
eol	-722
níor	-723
nóis	-724
othar	-725
mbeidh	-726
aigheann	-727
dífhógra	-728
dífhógraíodh	-729
rón	-730
coró	-731
fhóg	-732
dáile	-733
tarchur	-734
pe	-735
bia	-736
mol	-737
beag	-738
▁¦4¦	-739
▁¦14¦	-740
óstach	-741
seach	-742
láthair	-743
íochtaí	-744
sóisialta	-745
dhío	-746
▁¦3¦	-747
déanaí	-748
▁–	-749
dhú	-750
imp	-751
▁),	-752
gnío	-753
uhan	-754
frith	-755
tháin	-756
dúnadh	-757
vacsaíní	-758
naí	-759
pob	-760
▁¦7	-761
iath	-762
láir	-763
mers	-764
teas	-765
thart	-766
aintín	-767
cosúil	-768
eachais	-769
fhógair	-770
sr	-771
bhás	-772
cabh	-773
raim	-774
sain	-775
liain	-776
minic	-777
tháinig	-778
eir	-779
bunús	-780
casacht	-781
oid	-782
aoin	-783
líne	-784
rithe	-785
ghnáth	-786
laíonn	-787
ss	-788
aer	-789
niú	-790
rogh	-791
chean	-792
eolas	-793
wuhan	-794
amhail	-795
bearta	-796
ialtóg	-797
laghdú	-798
chosaint	-799
óm	-800
all	-801
fho	-802
rna	-803
mhór	-804
eipid	-805
éagsú	-806
milliún	-807
sábháil	-808
eipidéim	-809
éifeacht	-810
aill	-811
deir	-812
méad	-813
itéin	-814
mbaol	-815
muigh	-816
che	-817
dhi	-818
nós	-819
thr	-820
iste	-821
caith	-822
coinn	-823
léinn	-824
mheas	-825
abhras	-826
tionchar	-827
íní	-828
dála	-829
nigh	-830
dochtúir	-831
cr	-832
um	-833
fhé	-834
lac	-835
sio	-836
achta	-837
ceann	-838
háirithe	-839
lasmuigh	-840
bhféadfadh	-841
fa	-842
dír	-843
lian	-844
suas	-845
choró	-846
láimh	-847
nithe	-848
oibre	-849
íonna	-850
cheart	-851
lae	-852
paí	-853
obair	-854
racha	-855
theas	-856
raíonn	-857
teagmhála	-858
ág	-859
cru	-860
tús	-861
▁¦8	-862
géar	-863
mbás	-864
agann	-865
▁¦10¦	-866
ghalair	-867
thoradh	-868
mhá	-869
bain	-870
foir	-871
airde	-872
láith	-873
céanna	-874
ealtaine	-875
leibhéal	-876
fhaigheann	-877
chó	-878
fss	-879
tábh	-880
fhéidir	-881
deac	-882
masc	-883
namh	-884
chéim	-885
laist	-886
inneadh	-887
sam	-888
ionn	-889
istí	-890
teor	-891
aonrú	-892
aighde	-893
tinnis	-894
oscailte	-895
mac	-896
fliú	-897
labh	-898
cháin	-899
dúirt	-900
garth	-901
gcuid	-902
ghabh	-903
ndéan	-904
laghad	-905
sláint	-906
tuithe	-907
covanna	-908
taistil	-909
torthaí	-910
taisteal	-911
bealtaine	-912
choinneáil	-913
tra	-914
áirt	-915
éagsúla	-916
deimh	-917
ealach	-918
achtach	-919
bunaithe	-920
fiabhras	-921
ionfhabhtuithe	-922
cha	-923
str	-924
tabh	-925
treo	-926
bliain	-927
iompar	-928
oibrithe	-929
dearbhaithe	-930
luaiseachtaí	-931
fe	-932
pá	-933
ze	-934
aic	-935
sho	-936
tic	-937
imní	-938
inte	-939
átha	-940
bharr	-941
leanú	-942
éigeandála	-943
hu	-944
fiú	-945
fós	-946
iti	-947
dach	-948
glan	-949
tréi	-950
áite	-951
ainmh	-952
bairt	-953
conas	-954
clinic	-955
airíonna	-956
ga	-957
néis	-958
tair	-959
ainne	-960
bíonn	-961
cheann	-962
cuairt	-963
imdhío	-964
ainmhithe	-965
coraintín	-966
gaí	-967
aise	-968
leag	-969
liana	-970
raith	-971
príomh	-972
laistigh	-973
thuairiscigh	-974
dru	-975
hio	-976
laghd	-977
álach	-978
sampla	-979
tugtar	-980
aisnéis	-981
próitéin	-982
▁?	-983
ama	-984
laí	-985
tai	-986
cosc	-987
saor	-988
síos	-989
lacht	-990
cliath	-991
láithr	-992
eitheamh	-993
eolaíoch	-994
rialtais	-995
eastaíonn	-996
ing	-997
ainm	-998
noll	-999
▁¦10	-1000
léigh	-1001
▁¦15¦	-1002
bhaint	-1003
iodáil	-1004
dáileog	-1005
meitheamh	-1006
imdhíonach	-1007
coróinvíreas	-1008
op	-1009
faí	-1010
ceal	-1011
ghnío	-1012
níodh	-1013
rianú	-1014
▁¦20¦	-1015
eastal	-1016
óireacht	-1017
té	-1018
ách	-1019
meán	-1020
eagairt	-1021
oireann	-1022
áiteanna	-1023
seachtain	-1024
seirbhísí	-1025
chomharthaí	-1026
mho	-1027
sula	-1028
▁¦6¦	-1029
sholá	-1030
aothar	-1031
foláir	-1032
ionaid	-1033
díreach	-1034
gcoinne	-1035
ndaoine	-1036
dteagmháil	-1037
úr	-1038
tiú	-1039
bhun	-1040
chlo	-1041
cúis	-1042
héir	-1043
phob	-1044
uine	-1045
cionn	-1046
réamh	-1047
fhéadf	-1048
dhearbh	-1049
itianta	-1050
▁¦2019¦	-1051
idirnáisiúnta	-1052
be	-1053
po	-1054
onn	-1055
chán	-1056
téar	-1057
baint	-1058
chosc	-1059
lacha	-1060
rinne	-1061
agnóis	-1062
tréimh	-1063
dhiaidh	-1064
rachtaí	-1065
úsáideann	-1066
cén	-1067
uas	-1068
fair	-1069
solá	-1070
thóg	-1071
trom	-1072
aigin	-1073
ansin	-1074
aradh	-1075
chloig	-1076
mhéadar	-1077
iarracht	-1078
rinneadh	-1079
riachtanach	-1080
imdhíonachta	-1081
el	-1082
eit	-1083
eor	-1084
gcó	-1085
mas	-1086
céim	-1087
lach	-1088
noch	-1089
chinn	-1090
cúraim	-1091
spreag	-1092
chomhairle	-1093
es	-1094
ts	-1095
bst	-1096
lig	-1097
omh	-1098
eath	-1099
fadh	-1100
isce	-1101
mhol	-1102
taca	-1103
▁¦19¦	-1104
daonna	-1105
dhuine	-1106
galair	-1107
shláin	-1108
deireadh	-1109
freastal	-1110
staidéar	-1111
foláireamh	-1112
cóg	-1113
ige	-1114
sei	-1115
óil	-1116
cean	-1117
pear	-1118
pian	-1119
stát	-1120
tapa	-1121
taobh	-1122
▁¦11¦	-1123
▁¦13¦	-1124
glaoch	-1125
sheach	-1126
bstaint	-1127
básmhair	-1128
ang	-1129
dhí	-1130
cath	-1131
tíre	-1132
údar	-1133
chtaí	-1134
raithe	-1135
aothartach	-1136
mhíochaine	-1137
eap	-1138
ord	-1139
tóm	-1140
óid	-1141
fhág	-1142
déine	-1143
ineál	-1144
▁¦24¦	-1145
invíris	-1146
iúltach	-1147
thagann	-1148
coitianta	-1149
tábhachtach	-1150
ab	-1151
ci	-1152
bhu	-1153
dara	-1154
lúth	-1155
rúpa	-1156
scrú	-1157
uill	-1158
breis	-1159
rialú	-1160
tharl	-1161
achtar	-1162
teanna	-1163
treoir	-1164
impeall	-1165
saotharl	-1166
bunúsacha	-1167
pearsanta	-1168
sraothartach	-1169
,3	-1170
cd	-1171
cón	-1172
fín	-1173
uir	-1174
máin	-1175
méid	-1176
ntae	-1177
ailiú	-1178
eatha	-1179
fearr	-1180
teach	-1181
arthas	-1182
bheidh	-1183
cabhrú	-1184
daonra	-1185
iscint	-1186
pobail	-1187
ialtóga	-1188
scaradh	-1189
tréimhse	-1190
éifeachtach	-1191
af	-1192
aoi	-1193
cal	-1194
sta	-1195
drom	-1196
earr	-1197
▁¦7¦	-1198
ceart	-1199
ceáil	-1200
niúmó	-1201
▁¦16¦	-1202
0,000¦	-1203
amhras	-1204
ealamh	-1205
mbaile	-1206
mbásanna	-1207
víreasach	-1208
and	-1209
con	-1210
óga	-1211
▁%)	-1212
aige	-1213
aoil	-1214
gcás	-1215
thao	-1216
tosú	-1217
iúint	-1218
nacha	-1219
mhárta	-1220
dhúnadh	-1221
déantar	-1222
niúmóine	-1223
rialacha	-1224
uilleadh	-1225
hairíonna	-1226
imeachtaí	-1227
ghluaiseachtaí	-1228
bo	-1229
asl	-1230
bra	-1231
fra	-1232
iúr	-1233
shu	-1234
aims	-1235
arís	-1236
fola	-1237
ocht	-1238
thos	-1239
toir	-1240
uait	-1241
neamhsh	-1242
oscailt	-1243
taighde	-1244
coinnigh	-1245
domhanda	-1246
sm	-1247
irí	-1248
pro	-1249
bhrí	-1250
mhar	-1251
scag	-1252
▁¦8¦	-1253
bháid	-1254
ndear	-1255
speic	-1256
leanbh	-1257
mbíonn	-1258
pháirt	-1259
ianaise	-1260
seachas	-1261
chásanna	-1262
héireann	-1263
shláinte	-1264
timpeall	-1265
eagmhálaí	-1266
míochaine	-1267
ash	-1268
cdc	-1269
ich	-1270
tan	-1271
tio	-1272
cúig	-1273
eorp	-1274
mheá	-1275
réig	-1276
stop	-1277
íomh	-1278
óstá	-1279
athrú	-1280
gcuir	-1281
measa	-1282
rudaí	-1283
▁¦12¦	-1284
▁¦30¦	-1285
drugaí	-1286
cosanta	-1287
ospidéil	-1288
thosaigh	-1289
bpaindéim	-1290
géarmhíochaine	-1291
,5	-1292
,8	-1293
bp	-1294
ge	-1295
nár	-1296
ois	-1297
tos	-1298
baol	-1299
eicn	-1300
fhad	-1301
gard	-1302
ille	-1303
itiú	-1304
iúin	-1305
lámh	-1306
ráta	-1307
aithn	-1308
dlúth	-1309
eanta	-1310
gnáth	-1311
toisc	-1312
▁¦23¦	-1313
meanna	-1314
cosaint	-1315
léirigh	-1316
nollaig	-1317
aitheann	-1318
bstaintí	-1319
dhéanann	-1320
faisnéis	-1321
trealamh	-1322
uaireanta	-1323
láithreach	-1324
fí	-1325
ve	-1326
fás	-1327
ind	-1328
pad	-1329
ron	-1330
sun	-1331
trá	-1332
anál	-1333
aolú	-1334
neca	-1335
samh	-1336
éann	-1337
▁¦19	-1338
aráid	-1339
astra	-1340
cófra	-1341
eoirí	-1342
ghlan	-1343
phrío	-1344
gníomh	-1345
zeneca	-1346
iomptóm	-1347
leathan	-1348
uachtar	-1349
diagnóis	-1350
rianaire	-1351
eagraíocht	-1352
sheachaint	-1353
astrazeneca	-1354
,6	-1355
rc	-1356
éa	-1357
lin	-1358
mic	-1359
tag	-1360
aing	-1361
dian	-1362
dtús	-1363
nasc	-1364
rais	-1365
éirí	-1366
córas	-1367
dhomh	-1368
gcéad	-1369
▁¦201	-1370
chúram	-1371
ghlaim	-1372
leagan	-1373
láimhe	-1374
ruithe	-1375
siopad	-1376
ataigin	-1377
dtugtar	-1378
áireamh	-1379
cóireáil	-1380
sábháilte	-1381
óireachta	-1382
vacsaínithe	-1383
choróinvíris	-1384
fá	-1385
mú	-1386
chi	-1387
dró	-1388
chru	-1389
dróm	-1390
imid	-1391
roma	-1392
afrai	-1393
dheir	-1394
dúnta	-1395
eacna	-1396
féadf	-1397
méadú	-1398
againn	-1399
breise	-1400
cheana	-1401
gceart	-1402
iondróm	-1403
▁¦2021¦	-1404
¦	-1405
▁	-1406
a	-1407
i	-1408
h	-1409
n	-1410
r	-1411
e	-1412
t	-1413
s	-1414
o	-1415
c	-1416
l	-1417
d	-1418
g	-1419
m	-1420
á	-1421
u	-1422
í	-1423
b	-1424
f	-1425
é	-1426
𐋇	-1427
ú	-1428
ó	-1429
.	-1430
,	-1431
p	-1432
v	-1433
-	-1434
1	-1435
2	-1436
0	-1437
9	-1438
’	-1439
3	-1440
4	-1441
5	-1442
)	-1443
(	-1444
6	-1445
8	-1446
7	-1447
w	-1448
:	-1449
y	-1450
%	-1451
"	-1452
/	-1453
k	-1454
z	-1455
“	-1456
;	-1457
”	-1458
'	-1459
–	-1460
j	-1461
x	-1462
?	-1463
q	-1464
‘	-1465
$	-1466
[	-1467
]	-1468
&	-1469
€	-1470
+	-1471
≥	-1472
#	-1473
~	-1474
×	-1475
@	-1476
α	-1477
β	-1478
|	-1479
£	-1480
°	-1481
ã	-1482
ç	-1483
γ	-1484
—	-1485
武	-1486
肺	-1487
=	-1488
_	-1489
­	-1490
à	-1491
å	-1492
′	-1493
汉	-1494
漢	-1495
炎	-1496
