<pad>	0
</s>	0
<unk>	0
▁¦	-0
▁᙮	-1
▁,	-2
ᑕᔥ	-3
ᐃᔑ	-4
ᐙᒡ	-5
ᑲᔦ	-6
ᐃᐃ	-7
ᐐᓐ	-8
ᓂᒡ	-9
ᓂᓂ	-10
ᐁᑮ	-11
ᑳᑮ	-12
ᐅᑮ	-13
ᓂᑑ	-14
ᐎᓐ	-15
ᑭᔐ	-16
ᒪᓂᑑ	-17
ᑭᔐᒪᓂᑑ	-18
ᐃᑭ	-19
ᐅᒋ	-20
▁:	-21
ᑳᐐᓐ	-22
ᑭᒋ	-23
ᒋᑫ	-24
ᑎᓯ	-25
ᐗᒃ	-26
ᐃᓂ	-27
ᑯᓯ	-28
ᐊᔮ	-29
ᐃᑕᔥ	-30
ᒦᑕᔥ	-31
ᒋᓴ	-32
ᐋᓃ	-33
ᐃᐃᒫ	-34
ᐃᓈ	-35
ᐊᐎ	-36
ᑳᐃᔑ	-37
ᑭᓇ	-38
ᐎᓂ	-39
ᔦᒃ	-40
ᐊᐊ	-41
ᑌᐺ	-42
ᐅᐅ	-43
ᑕᒧ	-44
ᐊᐎᔭ	-45
ᐊᐲ	-46
ᐱᒫ	-47
ᐃᑭᑐ	-48
ᓇᐙ	-49
ᑭᑭ	-50
ᑲᑭᓇ	-51
ᓇᓐ	-52
ᓂᒃ	-53
ᑎᐯ	-54
ᒋᓴᔅ	-55
ᐃᑯ	-56
ᐌᓂ	-57
ᐁᔑ	-58
ᑕᒪ	-59
ᐙᓐ	-60
ᐙᐸ	-61
ᑰᓐ	-62
ᐃᓇ	-63
ᑭᑎ	-64
ᐯᔑ	-65
ᑳᑌ	-66
ᒥᓐ	-67
ᑕᒫ	-68
ᑭᔐᒪᓂᑑᓐ	-69
ᐗᓐ	-70
ᓇᒥ	-71
ᒥᑯ	-72
ᐋᓃᔥ	-73
ᑲᓂ	-74
ᔮᓐ	-75
ᑖᑯᓯ	-76
ᔥᑭ	-77
ᓂᓂᒃ	-78
ᐃᓀ	-79
▁?	-80
ᑲᓇ	-81
ᐱᒫᑎᓯ	-82
ᑭᑫ	-83
ᑖᐱ	-84
ᑭᒫ	-85
ᐗᐞ	-86
ᐊᓂ	-87
ᒪᒋ	-88
ᐃᐌ	-89
ᐁᑕ	-90
ᑭᑭᓄ	-91
ᐸᓐ	-92
ᐅᑎ	-93
ᐃᓂᓂ	-94
ᐅᑕ	-95
ᐊᓇᒥ	-96
ᔭᓐ	-97
ᑭᑲ	-98
ᑮᔑ	-99
ᑭᑭᓄᐊ	-100
ᑭᓐ	-101
ᔥᐱ	-102
▁!	-103
ᑾᓐ	-104
ᓈᓐ	-105
ᓂᑮ	-106
ᓬᐊ	-107
ᑲᓐ	-108
ᐊᐌ	-109
ᐁᐐ	-110
ᑫᑰᓐ	-111
ᑕᕽ	-112
ᐅᑮᐃᓈ	-113
ᐋᓃᓐ	-114
ᐎᓂᕽ	-115
ᔥᑲ	-116
ᐃᔑᒋᑫ	-117
ᓂᒥ	-118
ᑳᑎᐯ	-119
ᓂᒫ	-120
ᑮᔥᐱ	-121
ᑮᔥᐱᓐ	-122
ᐐᒋ	-123
ᓃᓐ	-124
ᑲᑴ	-125
ᓄᑮ	-126
ᑮᓇᐙ	-127
ᑲᓅ	-128
▁𐋇	-129
ᐊᑮ	-130
ᓂᓯ	-131
ᒦᔥ	-132
ᓀᓐ	-133
ᑕᔑ	-134
ᓂᔕ	-135
ᑮᐃᑭᑐ	-136
ᐎᓂᓂ	-137
ᓂᑯ	-138
ᐐᒌ	-139
ᔥᑳ	-140
ᐗᒡ	-141
ᐅᑲ	-142
ᑕᒨ	-143
ᔥᑰ	-144
ᒪᑲ	-145
ᐃᔥ	-146
ᐊᑮᕽ	-147
ᑖᐱᔥᑰ	-148
ᓴᓐ	-149
ᑯᓂ	-150
ᒥᓄ	-151
ᓂᔑ	-152
ᓂᑎ	-153
ᓲᓐ	-154
ᒣᒃ	-155
ᐯᔑᒃ	-156
ᑳᑮᐃᔑ	-157
ᒪᐙ	-158
ᓯᐌ	-159
ᐊᓇᒥᐁ	-160
ᑰᒃ	-161
ᐋᔕ	-162
ᐌᑎ	-163
ᑾᔭ	-164
ᑳᐅ	-165
ᒥᓐᒡ	-166
ᑭᑮ	-167
ᑕᒧᐙᒡ	-168
ᐸᑭᑎ	-169
ᒋᓴᓲᓐ	-170
ᓈᒡ	-171
ᓵᑭ	-172
ᑳᑎᐯᒋᑫ	-173
ᓂᑖ	-174
ᒦᓇᐙ	-175
ᓂᑕ	-176
ᐃᔖ	-177
ᑕᑯ	-178
ᓈᑾ	-179
ᐃᒫ	-180
ᐆᑌ	-181
ᑭᓯ	-182
ᑲᔥᑭ	-183
ᐅᓇ	-184
ᑯᒡ	-185
ᓈᕽ	-186
ᐋᐱ	-187
ᐅᔑ	-188
ᐊᑕ	-189
ᑕᒥ	-190
ᐎᓯ	-191
ᐃᑎ	-192
ᐃᑰ	-193
ᐱᓯ	-194
ᑯᕽ	-195
ᑳᐅᒋ	-196
ᑕᐙ	-197
ᐎᓇᓐ	-198
ᓈᐙ	-199
ᐯᒫ	-200
ᑳᔑ	-201
ᐯᒫᑎᓯ	-202
ᑭᑐ	-203
ᓂᑲ	-204
ᐊᓇᒥᐁᐎ	-205
ᕒᐊ	-206
ᐐᑕᒪ	-207
ᒋᑳᑌ	-208
ᑫᑯ	-209
ᒋᑑ	-210
ᓂᐳ	-211
ᐅᑌᐺ	-212
ᑮᐌ	-213
ᑲᓇᐞ	-214
ᐱᒥ	-215
ᔮᕽ	-216
ᐅᔕ	-217
ᐅᑯᓯ	-218
ᑭᑭᓄᐊᒪᐙ	-219
ᑖᑾ	-220
ᓰᓐ	-221
ᑕᒣᒃ	-222
ᐃᐃᐌ	-223
ᑭᑑ	-224
ᑭᐸᓐ	-225
ᐃᔥᒀ	-226
ᐁᑳ	-227
ᑎᓄ	-228
ᑕᒃ	-229
ᑯᒻ	-230
ᑲᒥ	-231
ᑮᐃᔑ	-232
ᔭᕽ	-233
ᒋᒧ	-234
ᑐᒃ	-235
ᐱᑯ	-236
ᑳᐐ	-237
ᑭᑌ	-238
ᓈᑯᓯ	-239
ᑕᐎ	-240
ᓀᒃ	-241
ᑳᓱ	-242
ᑮᓐ	-243
ᒫᒡ	-244
ᔕᒃ	-245
ᐗᕽ	-246
ᒪᔥᑲ	-247
ᑎᐹ	-248
ᐲᐃ	-249
ᓃᑳ	-250
ᐯᔑᑾᓐ	-251
ᓇᕽ	-252
ᐊᓄᑮ	-253
ᑳᐊᔮ	-254
ᐄᑐᒃ	-255
ᓅᑯᒻ	-256
ᐃᑴ	-257
ᓯᒃ	-258
ᔓᐌ	-259
ᓇᑰᒃ	-260
ᑭᑭᓄᐊᒫ	-261
ᐅᑭᒫ	-262
ᑫᑰ	-263
ᐅᑮᐃᓈᐞ	-264
ᐎᒡ	-265
ᒪᒋᑑ	-266
ᑯᑕᒃ	-267
ᐅᐌ	-268
ᐐᑫ	-269
ᒥᓍ	-270
ᒦᓂ	-271
ᐸᑳ	-272
ᔑᑾ	-273
ᐃᓈᒡ	-274
ᐋᐱᒋ	-275
ᑲᒥᑯ	-276
ᑎᑫ	-277
ᑕᒥᓂᒡ	-278
ᒫᒪ	-279
ᐅᒌ	-280
ᐋᓇ	-281
ᑳᑎᐯᒋᑫᒡ	-282
ᔥᑫ	-283
ᓇᐃ	-284
ᐙᐞ	-285
ᓈᑯ	-286
ᐅᑌᐺᑕᒨ	-287
ᒥᕽ	-288
ᕒᐆ	-289
ᐅᑮᐃᓈᓐ	-290
ᒪᓐ	-291
ᐅᑌ	-292
ᒥᓯᐌ	-293
ᑖᓐ	-294
ᓃᕽ	-295
ᕒᐃ	-296
ᐁᐃᔑ	-297
ᓅᓐ	-298
ᑎᐱ	-299
ᐅᐅᒫ	-300
ᒫᒌ	-301
ᐱᒫᒋ	-302
ᑭᒋᐊᓇᒥᐁᐎ	-303
ᐅᑖᐱ	-304
ᓈᓂ	-305
ᓐᒡ	-306
ᒥᓂ	-307
ᐋᐸ	-308
ᑳᐃ	-309
ᑕᒧᐎᓐ	-310
ᔑᓐ	-311
ᐎᓐᑦ	-312
ᒥᑯᒡ	-313
ᐋᒡ	-314
ᐐᑳ	-315
ᑭᑭᓄᐊᒫᑫ	-316
ᒣᒀ	-317
ᐅᑕᒑ	-318
ᐐᒌᐎ	-319
ᓇᐎᓐᑦ	-320
ᐌᒋ	-321
ᒋᐅᒋ	-322
ᓈᓯ	-323
ᑲᑴᒋ	-324
ᐌᑯ	-325
ᑕᓐ	-326
ᐅᑖ	-327
ᐁᑮᐃᔑ	-328
ᑎᓰ	-329
ᒀᑕ	-330
ᑲᓇᓐ	-331
ᒫᐗᒡ	-332
ᐅᑯ	-333
ᐙᕽ	-334
ᒋᐃᔑ	-335
ᒫᒑ	-336
ᐆᑌᓈᕽ	-337
ᒫᓐ	-338
ᑌᐺᔦ	-339
ᐃᑭᑐᒡ	-340
ᑲᔥᑭᑑ	-341
ᐅᓄ	-342
ᔮᐱ	-343
ᐃᓀᑖᑯᓯ	-344
ᑕᑲ	-345
ᐊᐊᐌ	-346
ᐅᓇᔓᐌ	-347
ᑳᑮᐅᒋ	-348
ᐅᑑ	-349
ᐊᐱ	-350
ᑎᐸ	-351
ᑕᒻ	-352
ᑲᓂᓂᒃ	-353
ᑫᐅᒋ	-354
ᑯᓂᑫ	-355
ᑲᒥᑯᕽ	-356
ᑫᔑ	-357
ᐸᑳᓐ	-358
ᐊᒑ	-359
ᑕᒫᓐ	-360
ᐅᐅᐌ	-361
ᐎᓰ	-362
ᐅᑭᑭᓄᐊᒪᐙ	-363
ᔭᐄ	-364
ᓭᒃ	-365
ᐃᑯᒡ	-366
ᑾᔭᒃ	-367
ᐊᐌᓀᓐ	-368
ᑮᔑᑯᕽ	-369
ᑕᒫᑫ	-370
ᐌᒃ	-371
ᐐᔭ	-372
ᑲᒀᑕ	-373
ᓇᐗᒡ	-374
ᒥᑰ	-375
ᒥᒋ	-376
ᐙᐱ	-377
ᑭᑖ	-378
ᑫᔮᐱ	-379
ᐗᐊ	-380
ᐊᐗ	-381
ᓃᐱ	-382
ᑕᓰ	-383
ᐹᑏ	-384
ᓯᒀ	-385
ᒨᔕᒃ	-386
ᑭᒋᐅᑭᒫ	-387
ᑭᐌ	-388
ᔭᐋ	-389
ᔔᓂ	-390
ᐊᐎᔭᒃ	-391
ᐗᓈ	-392
ᑮᐊᓂ	-393
ᓃᐱᐗᐞ	-394
ᑫᒃ	-395
ᑕᑯᔑ	-396
ᐲᐃᑳᑌ	-397
ᐅᑭᑭᓄᐊᒪᐙᑲᓇᐞ	-398
ᑌᐱ	-399
ᐃᓇᔥᑫ	-400
ᐯᒫᑎᓯᓂᒡ	-401
ᑳᐸ	-402
ᐙᐙᒡ	-403
ᒥᑖ	-404
ᒫᐗ	-405
ᐅᓈ	-406
ᐱᓵ	-407
ᓇᑴ	-408
ᐌᑯᓀᓐ	-409
ᔑᒣ	-410
ᐃᔑᓂᔕ	-411
ᐊᐗᔑᒣ	-412
ᐊᔮᓂᒡ	-413
ᐌᐱ	-414
ᑲᑮ	-415
ᐐᓇᐙ	-416
ᒪᐎ	-417
ᓬᐃ	-418
ᑮᐅᒋ	-419
ᒥᓴ	-420
ᐊᑖ	-421
ᐁᐸ	-422
ᐲᑕ	-423
ᒥᑲ	-424
ᓂᑎᓱ	-425
ᓂᑳᓱ	-426
ᐐᓯ	-427
ᑭᑕ	-428
ᓇᑲ	-429
ᐙᑳᐃ	-430
ᑕᒧᐎᓂ	-431
ᐅᑯᓯᓴᓐ	-432
ᒪᔮ	-433
ᐃᑰᓐ	-434
ᐲᑎᑫ	-435
ᓯᐌᒃ	-436
ᐲᓂ	-437
ᐁᒐ	-438
ᓇᐌ	-439
ᐙᒃ	-440
ᐱᔑ	-441
ᑲᓂᕽ	-442
ᒫᑲᓂ	-443
ᒫᒃ	-444
ᒪᓯ	-445
ᐋᓂᑕ	-446
ᐎᓂᒡ	-447
ᒦᒋ	-448
ᒪᑲᒃ	-449
ᐊᐎᔭᐞ	-450
ᒋᒧᐎᓐ	-451
ᑕᐌ	-452
ᒋᑯ	-453
ᔖᑰ	-454
ᑳᑕᔑ	-455
ᑲᒃ	-456
ᐊᐎᔭᓐ	-457
ᐊᔮᒡ	-458
ᐹᑏᓄ	-459
ᐱᒫᑎᓯᐎᓐ	-460
ᓯᓄ	-461
ᑭᑭᑫ	-462
ᓭᓂᒃ	-463
ᑭᒋᑮᔑᑯᕽ	-464
ᓯᓅᓐ	-465
ᐯᒫᑎᓯᐙᒡ	-466
ᐊᑐ	-467
ᐊᔓ	-468
ᓂᔑᐗᓈ	-469
ᐸᑴ	-470
ᒥᓂᒃ	-471
ᓂᑳᑌ	-472
ᐌᓂᐗᒃ	-473
ᓂᑫ	-474
ᓂᓂᑭᓐ	-475
ᑳᐱ	-476
ᒎᐎ	-477
ᓴᓬᐊ	-478
ᐅᑎᔑ	-479
ᐙᐸᒫ	-480
ᑕᒪᐎ	-481
ᑭᑎᑳ	-482
ᐌᑖᑯᓯ	-483
ᐁᐱ	-484
ᐅᑌᑌ	-485
ᐅᑮᐃᑰᓐ	-486
ᑮᐊᔮ	-487
ᑎᕽ	-488
ᑑᒡ	-489
ᐁᐊᓂ	-490
ᑫᐃᔑ	-491
ᐲᒋ	-492
ᐊᔭᐋ	-493
ᑲᒥᒃ	-494
ᑲᓇᒃ	-495
ᓂᑖᐎ	-496
ᐅᒫ	-497
ᑭᐸ	-498
ᓈᑲ	-499
ᑮᔑᒃ	-500
ᑲᓇᐌ	-501
ᒪᓯᓇᐃ	-502
ᒉᕒᐆ	-503
ᒉᕒᐆᓴᓬᐊ	-504
ᑫᒋ	-505
ᓂᒧ	-506
ᓰᒻ	-507
ᑳᐃᓈᒡ	-508
ᐅᑌᐺᑕᒨᒃ	-509
ᑆᓬ	-510
ᓈᑾᒃ	-511
ᑖᑯ	-512
ᑫᑰᓇᓐ	-513
ᒪᔥᑲᐎᓰ	-514
ᕒᐃᔭ	-515
ᑎᓯᐎᓐ	-516
ᑫᑰᓂᓂ	-517
ᒥᓉ	-518
ᐸᑴᔑ	-519
ᒎᐗᒃ	-520
ᐅᑯᓯᓯ	-521
ᔑᒫᑲᓂ	-522
ᐃᑫ	-523
ᐸᐹ	-524
ᑯᒫ	-525
ᐲᓂᔥ	-526
ᑰᔦᒃ	-527
ᒫᐗᒋ	-528
ᐅᑕᒑᑾᓐ	-529
ᑳᑎᐯᒋᑫᓂᒡ	-530
ᑭᒋᐊᓇᒥᐁᐎᑭᒫ	-531
ᒥᑕ	-532
ᒥᓈ	-533
ᐱᒫᑎᓰ	-534
ᑎᐯᒋᑫ	-535
ᐃᓴ	-536
ᐋᑎ	-537
ᒪᒃ	-538
ᓰᑲ	-539
ᓂᑕᒻ	-540
ᐃᓇᑫ	-541
ᓈᐙᓐ	-542
ᐅᓵ	-543
ᐱᒥᓂᔕ	-544
ᐃᓂᓂᐗᓐ	-545
ᑴᓐ	-546
ᐅᑮᐃᔑ	-547
ᐁᓈ	-548
ᐃᓂᐌᓂ	-549
ᓱᒡ	-550
ᐐᑕᒪᐎ	-551
ᐁᔮ	-552
ᑭᒡ	-553
ᑳᓂ	-554
ᑾᒃ	-555
ᓃᔣ	-556
ᓯᔅ	-557
ᐲᑕᕒ	-558
ᐃᐃᐌᓂ	-559
ᐲᐊ	-560
ᐸᓀᓐ	-561
ᐅᓇᔓᐌᐎᓐ	-562
ᑳᒋ	-563
ᐊᐲᒡ	-564
ᔥᑳᑯ	-565
ᐃᑭᐌᓂᐗᒃ	-566
ᐃᔅ	-567
ᐊᓯ	-568
ᑭᑭᓇ	-569
ᓈᓯᑲ	-570
ᒪᒋᐊᒑ	-571
ᑮᐱ	-572
ᐐᔭᐎ	-573
ᓰᐗᒃ	-574
ᐃᓈᑯᓂᑫ	-575
ᒉᕒᐆᓴᓬᐊᒥᕽ	-576
ᑫᓐ	-577
ᒥᔅ	-578
ᑖᑾᒃ	-579
ᓂᒥᑯ	-580
ᔫᓯ	-581
ᓃᔑᓐ	-582
ᔔᓂᔮ	-583
ᑰᐞ	-584
ᒋᑮ	-585
ᐊᓇᒥᐋ	-586
ᐌᐌᓂ	-587
ᑮᓇᐎᓐᑦ	-588
ᓃᓇᐎᓐᑦ	-589
ᐲᔖ	-590
ᑳᑮᐱ	-591
ᒋᐱ	-592
ᓀᒀ	-593
ᐎᓐᒡ	-594
ᒋᑳᑌᒃ	-595
ᓂᑌ	-596
ᐅᔥᑭ	-597
ᐙᐸᒥ	-598
ᔐᒫᒃ	-599
ᐅᑕᓄᑮ	-600
ᐎᓂᓂᒻ	-601
ᐌᓂᒥ	-602
ᑕᒨᒃ	-603
ᓈᐙᒡ	-604
ᑭᑫᓂᒫ	-605
ᐅᐐ	-606
ᐱᑾ	-607
ᑕᓯ	-608
ᒞᓐ	-609
ᓇᒪ	-610
ᓵᐃ	-611
ᐐᓯᓂ	-612
ᐯᔑᑯ	-613
ᑭᑎᔑ	-614
ᑳᒎᐎ	-615
ᑖᒻ	-616
ᒦᐃ	-617
ᒦᓴ	-618
ᒎᐗᐞ	-619
ᒦᓂᑰ	-620
ᑳᕽ	-621
ᓅᒌ	-622
▁;	-623
ᐹᓂᒫ	-624
ᐗᓂᓂᒃ	-625
ᓈᐞ	-626
ᐃᑰᐞ	-627
ᑕᒧᒃ	-628
ᑖᓈᐙ	-629
ᐊᑭ	-630
ᐙᓭ	-631
ᐸᑭ	-632
ᑑᓐ	-633
ᑎᓄᐎ	-634
ᑕᒪᐙ	-635
ᑕᒪᓐ	-636
ᓇᒃ	-637
ᓬᐄ	-638
ᒧᐙᒡ	-639
ᐎᓂᐙᓐ	-640
ᑕᐱ	-641
ᐅᑭᒋ	-642
ᑭᑭᓇᐙ	-643
ᒥᓍᒋᒧᐎᓐ	-644
ᒪᐞ	-645
ᓅᑌ	-646
ᓯᐙ	-647
ᓂᑭᓐ	-648
ᓂᔑᔑ	-649
ᓇᒑ	-650
ᑫᐐᓐ	-651
ᑎᒃ	-652
ᑭᐱ	-653
ᓇᒫ	-654
ᑎᐯᑖᑯᓯ	-655
ᓈᓂᒃ	-656
ᐁᐊ	-657
ᐁᓀ	-658
ᐌᓅ	-659
ᓯᓄᒃ	-660
ᑳᐃᔑᒋᑫ	-661
ᐯᕒᐊ	-662
ᑎᐸᐊ	-663
ᓂᓂᒻ	-664
ᐋᐸᒋᑑ	-665
ᑲᒀᑕᑭ	-666
ᒫᐗᒋᐃᑎ	-667
ᓰᒃ	-668
ᒪᑲᓐ	-669
ᓂᓯᑐ	-670
ᑕᒪᐙᒡ	-671
ᑮᐃᑭᑐᐗᒃ	-672
ᓂᕽ	-673
ᐅᑎᐹ	-674
ᐊᐲᒋ	-675
ᓇᒥᐋ	-676
ᐁᑮᐅᒋ	-677
ᑫᑮᓇᐙ	-678
ᐃᓂᓂᐗᒃ	-679
ᑌᐯ	-680
ᒋᐊ	-681
ᑫᒡ	-682
ᑳᐊ	-683
ᔕᔒ	-684
ᐁᐅᒋ	-685
ᐅᑎᓯ	-686
ᐙᐸᑕ	-687
ᓂᑯᒡ	-688
ᐊᔮᐙᒡ	-689
ᑾᔭᒀ	-690
ᒋᑲᓂ	-691
ᐁᒐᓬᐊ	-692
ᐱᒫᑎᓯᒡ	-693
ᓈᐱ	-694
ᐆᑌᓇ	-695
ᑕᐙᒡ	-696
ᐸᑮ	-697
ᑯᓭ	-698
ᓂᓐ	-699
ᔥᑮ	-700
ᐃᔖᒡ	-701
ᐊᑕᐌ	-702
ᑌᓂᒃ	-703
ᑳᓵᑭ	-704
ᕒᐊᐋ	-705
ᐁᐸᕒᐊᐋ	-706
ᐴᓀ	-707
ᓀᓯ	-708
ᓃᑳᓂ	-709
ᐁᑮᐊᓂ	-710
ᐊᐱᓅᒌ	-711
ᐗᓂ	-712
ᒋᐋ	-713
ᓃᐸ	-714
ᐸᑭᑎᓈ	-715
ᓰᑲᐊᑖ	-716
ᐁᑮᐃᓈᒡ	-717
ᐊᒦ	-718
ᓇᐎ	-719
ᑕᓱ	-720
ᑎᓯᒡ	-721
ᑖᒥᓐ	-722
ᒥᓴᐌ	-723
ᓈᑾᓂᓂᒃ	-724
ᔑᒃ	-725
ᐴᔔ	-726
ᐁᑕᓱ	-727
ᐃᔑᐌ	-728
ᐙᐸᓐ	-729
ᒋᒥᓄ	-730
ᒫᐙᒡ	-731
ᔥᑭᓀ	-732
ᐅᑎᑭᑐ	-733
ᑯᐸᓀᓐ	-734
ᐃᔅᕒᐃᔭ	-735
ᐱᒫᑎᓯᐙᒡ	-736
ᒀᒥ	-737
ᒫᐞ	-738
ᒫᔑ	-739
ᐃᑎᓱ	-740
ᓂᑌᑌ	-741
ᓂᒫᒡ	-742
ᑳᐊᔮᐙᒡ	-743
ᒋᐐ	-744
ᓃᒋ	-745
ᓵᑲ	-746
ᕒᐄ	-747
ᑭᑎᑫ	-748
ᒥᓂᑴ	-749
ᐙᓴ	-750
ᑳᑑ	-751
ᐋᓇᐐᓐ	-752
ᓯᓂᓂᒃ	-753
ᑌᒃ	-754
ᒥᒃ	-755
ᓃᒑ	-756
ᒫᓇᒑ	-757
ᓰᒥᓐ	-758
ᑌᐯᒋᑫ	-759
ᐅᑮᐃᑰᐞ	-760
ᑳᒎᐎᐎᓯ	-761
ᑭᐐ	-762
ᒋᑆ	-763
ᒫᒋ	-764
ᑕᒪᕽ	-765
ᑳᐃᓇ	-766
ᑳᐅᒌ	-767
ᒪᓯᓇᐃᑲᓐ	-768
ᔖᑯ	-769
ᓯᓂᒃ	-770
ᐁᓂ	-771
ᐋᐃ	-772
ᐎᔕ	-773
ᐯᔓ	-774
ᐲᐎ	-775
ᐹᐃ	-776
ᒪᔑ	-777
ᓀᐱ	-778
ᓴᐞ	-779
ᐁᑕᔑ	-780
ᐁᑮᐱ	-781
ᑳᑭᒋ	-782
ᒥᓍᐸ	-783
ᐎᑭᒫ	-784
ᓇᐙᐸ	-785
ᒨᔥᑭᓀ	-786
ᐃᑭᑐᐙᒡ	-787
ᐊᐸ	-788
ᒦᓈ	-789
ᒋᑎᐯ	-790
ᒦᑭᐌ	-791
ᐯᐸᑳᓐ	-792
ᐅᑎᐯᒋᑫ	-793
ᐅᑕᒑᑯᓂ	-794
ᐴᓂ	-795
ᑮᑭᒋ	-796
ᒋᑭᑫ	-797
ᑕᒧᐎᓂᕽ	-798
ᑯᑌ	-799
ᒧᓭ	-800
ᑖᑯᒡ	-801
ᒨᓯᔅ	-802
ᐃᔑᓂᔕᐙ	-803
ᐱᒫᒋᐃᑰ	-804
ᑮᐌᐱᒫᑎᓯ	-805
ᓈᒻ	-806
ᔑᕽ	-807
ᐊᐌᓀ	-808
ᓵᑭᒋ	-809
ᒋᑫᐎᓐ	-810
ᐊᓅ	-811
ᐸᓯ	-812
ᒋᓇ	-813
ᐁᐐᒌ	-814
ᐎᓂᐙ	-815
ᑾᔭᑯ	-816
ᒋᐐᒋ	-817
ᓈᓈᑲ	-818
ᑭᒋᐊᓇᒥᐁᐎᑲᒥᑯᕽ	-819
ᓯᕽ	-820
ᓰᐞ	-821
ᑎᑯᕽ	-822
ᑎᓯᐙᒡ	-823
ᑭᑭᔥᑲ	-824
ᑲᒀᑕᑭᑑ	-825
ᒪᑲᓂᓂᒃ	-826
ᑌᐯᒋᑫᔭᓐ	-827
ᑮᔑᑲᓂᓂᒃ	-828
ᐅᓀ	-829
ᓇᑫ	-830
ᓴᑲ	-831
ᒫᒪᐎ	-832
ᔔᒥᓈ	-833
ᑎᐱᓇᐌ	-834
ᓂᑖᐎᑭ	-835
ᐃᔑᒋᑫᒡ	-836
ᐃᓈᑯᓂᑫᐎᓐ	-837
ᐐᑾ	-838
ᑕᔅ	-839
ᒦᐗ	-840
ᓃᐎ	-841
ᓇᑭ	-842
ᔒᑫ	-843
ᑳᐸᐎ	-844
ᑭᓯᐙᒡ	-845
ᑲᓇᐙᐸ	-846
ᐎᑲᒥᑯᕽ	-847
ᐃᒃ	-848
ᒌᑫ	-849
ᓈᑫ	-850
ᐁᐙᐸ	-851
ᑭᔐᐙ	-852
ᓂᓂᒡ	-853
ᔖᑰᒡ	-854
ᐎᓂᓃᕽ	-855
ᑳᐃᔥᒀ	-856
2¦	-857
ᐃᑣ	-858
ᐅᓂ	-859
ᑫᑌ	-860
ᒥᒡ	-861
ᓃᑭ	-862
ᑖᑾᓐ	-863
ᐊᓄᑮᐋ	-864
ᑕᐙᐙᒡ	-865
ᐃᓂᐌᓂᐗᐞ	-866
ᑯᑖ	-867
ᑳᓬᐊ	-868
ᓈᓯᑳ	-869
ᐊᔮᔦᒃ	-870
ᐃᑭᑐᓂᒡ	-871
ᑖᑾᓂᓂᒃ	-872
ᐅᑌᐺᑕᒨᐞ	-873
ᐅᐱ	-874
ᐊᔨ	-875
ᑴᒋ	-876
ᑳᐐᒋ	-877
ᑳᓃᑳ	-878
ᑖᑯᓯᒡ	-879
ᑫᐐᓇᐙ	-880
ᓈᑯᓯᒡ	-881
ᑖᐌ	-882
ᑾᐞ	-883
ᐁᑭᒋ	-884
ᑎᐹᒋ	-885
ᒥᑖᔑ	-886
ᐅᐙᑳᐃ	-887
ᐅᑮᐅᒋ	-888
ᑳᑎᐯᓂᒥ	-889
ᑳᓬᐊᓬᐄ	-890
ᑮᔗ	-891
ᐁᓈᓴ	-892
ᑑᐙᒡ	-893
ᑲᓂᓂ	-894
ᑲᓅᓂ	-895
ᑮᐅᑌᑌ	-896
ᑮᔑᑲᒃ	-897
ᓵᑭᐃᐌ	-898
ᐹᐱ	-899
ᐹᓐ	-900
ᐄᓴᓐ	-901
ᐅᓈᐸ	-902
ᑕᐃᔑ	-903
ᑫᓃᓐ	-904
ᔔᓂᔮᓐ	-905
ᐅᑕᓄᑮᐋ	-906
ᐱᒫᒋᐃᐌ	-907
ᐐᑕᒪᐎᓂᓂᒻ	-908
0¦	-909
ᐊᓈ	-910
ᐴᓐ	-911
ᓇᒧ	-912
ᐁᒐᓬ	-913
ᑮᐃᔖ	-914
ᐊᔮᒀᒥ	-915
ᒋᑳᑌᓂᒃ	-916
ᑌᔮ	-917
ᓂᓵ	-918
ᐱᓵᓐ	-919
ᑕᒫᑯ	-920
ᒫᒥᑲ	-921
ᔖᑯᐌ	-922
ᑌᐺᐎᓐ	-923
ᒪᔥᑲᐎ	-924
ᑭᑭᓄᐊᒪᐙᑲᓇᒃ	-925
ᐲᑎ	-926
ᑳᑕ	-927
ᒦᔑ	-928
ᒫᑭ	-929
ᓂᒻ	-930
ᐋᐙᒡ	-931
ᑕᒫᕽ	-932
ᓇᓈᑯ	-933
▁¦3	-934
ᐃᔥᑯᑌ	-935
ᐁᓅ	-936
ᒋᐸ	-937
ᐁᑮᔑ	-938
ᐃᔥᐱ	-939
ᑲᓂᐎ	-940
ᓬᐊᓐ	-941
ᐹᐃᓬᐊ	-942
ᔦᑭᐸᓐ	-943
ᑳᐃᑭᑐᒡ	-944
ᐊᑯ	-945
ᐊᑲ	-946
ᑰᒻ	-947
ᐱᔑᒀ	-948
ᒦᒋᒻ	-949
ᓇᔓᐌ	-950
ᐃᑴᐗᓐ	-951
ᐅᑖᓈᕽ	-952
ᒥᒥᓐᒡ	-953
ᐅᑭᑭᓄᐊᒫᑫ	-954
ᑭᒋᒪᓯᓇᐃᑲᓐ	-955
ᑫᑳ	-956
ᐁᑌᐺ	-957
ᑎᐎᓐ	-958
ᒦᐗᓐ	-959
ᑲᓅᓈᒡ	-960
ᒫᒪᑳᒋ	-961
ᒋᐃᔑᒋᑫ	-962
ᒫᓄ	-963
ᓂᐐ	-964
ᓂᑭ	-965
ᔕᐞ	-966
ᐃᑭᑑ	-967
ᐯᓂᒧ	-968
ᑳᐃᓂ	-969
ᑕᒫᑯᒡ	-970
ᐲᐃᑳᑌᒃ	-971
ᒦᕽ	-972
ᔂᒃ	-973
ᐌᓂᒫ	-974
ᐌᔫᓯ	-975
ᑳᓂᑖ	-976
ᒞᓇᓐ	-977
ᐅᑑᑭᒫ	-978
ᒋᑫᐎᓇᓐ	-979
ᒪᒋᑑᑕᒧᐎᓐ	-980
ᐌᒌ	-981
ᐐᐸ	-982
ᒫᓀ	-983
ᓄᕽ	-984
ᔭᔮ	-985
ᐁᑭᑐ	-986
ᒦᓈᒡ	-987
ᓂᑎᔑ	-988
ᐅᔑᐲᐃ	-989
ᐎᓂᐙᕽ	-990
ᑕᑯᔑᕽ	-991
ᐃᓂᓂᐗᐞ	-992
ᐊᓇᒥᐁᑕ	-993
ᔕᐌᑖᑯᓯ	-994
ᐙᓇ	-995
ᐯᑭ	-996
ᑰᐹ	-997
ᑳᓅ	-998
ᔕᓐ	-999
ᔮᒃ	-1000
ᐃᓐᒡ	-1001
ᐅᐐᓱ	-1002
ᑎᐸᐃ	-1003
ᑳᓀᓯ	-1004
ᓉᐲᐎ	-1005
ᐁᔑᒋᑫ	-1006
ᒥᓇ	-1007
ᔥᑴ	-1008
ᐃᓈᐸ	-1009
ᐅᑮᐱ	-1010
ᐐᒌᐙ	-1011
ᐸᑯᓭ	-1012
ᐸᓯᑸ	-1013
ᑕᐙᓐ	-1014
ᑕᓰᓐ	-1015
ᒦᑴᒋ	-1016
ᒦᓂᑯ	-1017
ᓂᑭᑫ	-1018
ᐃᑯᐙᒡ	-1019
ᐐᒌᐎᑯ	-1020
ᑫᒋᓈᒡ	-1021
ᑭᑭᔥᑭ	-1022
▁¦3¦	-1023
ᐅᐱᒫᑎᓰ	-1024
ᒪᒋᐊᔭᐋ	-1025
ᑳᑭᑭᓄᐊᒫᑫ	-1026
ᐗᒀ	-1027
ᔭᔅ	-1028
ᑳᑌᐺ	-1029
ᓃᐸᐎ	-1030
ᓈᓂᕽ	-1031
ᓭᑭᓯ	-1032
ᔑᑌᔮ	-1033
ᐁᓈᓴᒦ	-1034
ᑳᐃᑯᒡ	-1035
ᒥᑖᔂᒃ	-1036
ᒫᒪᑳᑌ	-1037
ᓇᒪᑕᐱ	-1038
ᓈᓂᐗᕽ	-1039
ᐱᒥᓂᔕᐅ	-1040
ᐸᑭᑎᓈᓱ	-1041
ᑖᑯᓯᓂᒡ	-1042
ᐃᔑᐲᐃᑳᑌ	-1043
ᐐᑕᒪᐎᓇᑰᒃ	-1044
ᐌᒡ	-1045
ᐅᒋᒋ	-1046
ᑕᒫᓱ	-1047
▁¦1	-1048
ᑎᓯᓂᒡ	-1049
ᒫᒥᑲᐎ	-1050
ᐁᔑᓈᑾᒃ	-1051
ᑯᓀ	-1052
ᒦᑳ	-1053
ᐁᐲᒋ	-1054
ᑮᐃᓀ	-1055
ᒥᓀᒃ	-1056
ᒥᓴᐙ	-1057
ᒥᔅᑸ	-1058
ᓄᐙᒡ	-1059
ᔕᔒᐯ	-1060
ᑕᒫᑫᒡ	-1061
ᑫᐃᔑᒋᑫ	-1062
ᐱᒫᑎᓯᓂᒡ	-1063
ᐃᔅᕒᐃᔭᓬᐊ	-1064
ᐁᐋ	-1065
ᓂᐱ	-1066
ᐁᐊᔮ	-1067
ᑑᑕᐎ	-1068
ᑭᐸᐅ	-1069
ᑳᐊᓂ	-1070
ᑳᑮᔑ	-1071
ᒣᕒᐃ	-1072
ᓂᓐᑦ	-1073
ᓇᐃᓂ	-1074
ᑲᓅᓈᐞ	-1075
ᓂᑳᓱᒡ	-1076
ᓵᐃᒪᓐ	-1077
ᐃᔥᐱᒥᕽ	-1078
ᐐᒌᐎᑯᒡ	-1079
ᐹᑏᓄᓂᒡ	-1080
ᑳᐅᓂᔑᔑ	-1081
ᑳᐊᔮᓂᒡ	-1082
ᒪᔥᑲᐎᓰᐎᓐ	-1083
ᐸᑫ	-1084
ᓃᔑ	-1085
ᐁᑭᑫ	-1086
ᐐᑎᑫ	-1087
ᒦᐗᒃ	-1088
ᓯᓂᓂ	-1089
ᓰᓈᐙ	-1090
ᐅᑭᔐᐙ	-1091
ᐅᓄᐌᓂ	-1092
ᐅᔑᐲᐊ	-1093
ᐋᓂᓐᑦ	-1094
ᑎᐹᑯᓂ	-1095
ᑭᑎᑳᓀ	-1096
ᒥᓄᐊᔮ	-1097
ᓂᑳᑌᒃ	-1098
ᐅᑎᐹᒋᒧ	-1099
ᑳᑕᔑᔦᒃ	-1100
ᓂᔑᐗᓈᒋ	-1101
ᐁᐸᕒᐊᐋᒻ	-1102
ᓂᓱ	-1103
ᔅᑲ	-1104
ᒣᐎᔕ	-1105
ᓂᐳᒡ	-1106
ᓈᑾᓐ	-1107
ᐃᔥᒀᒡ	-1108
ᐲᒋᓂᔕ	-1109
ᓃᒑᓂᓯ	-1110
ᐃᓂᐌᓂᐗᓐ	-1111
ᐁᐅ	-1112
ᐋᐞ	-1113
ᑭᔒ	-1114
ᐁᐎᓯ	-1115
ᐅᑎᓀ	-1116
ᑭᑌᐺ	-1117
ᑲᔥᑮ	-1118
ᑳᐃᓀ	-1119
ᓈᓂᒡ	-1120
ᐅᒪᒋᑑ	-1121
ᐐᒋᑭᐌ	-1122
ᑕᓇᒥᐋ	-1123
ᓂᒥᑯᒡ	-1124
ᐁᑑ	-1125
ᒋᓂ	-1126
ᒎᑏ	-1127
ᒥᑣ	-1128
ᒥᔑ	-1129
ᒪᕽ	-1130
ᐊᐲᑌ	-1131
ᑕᓯᒀ	-1132
ᒥᓈᓐ	-1133
ᒫᐐᓐ	-1134
ᓅᑌᓭ	-1135
ᐅᐅᐌᓂ	-1136
ᐅᑮᓇᑴ	-1137
ᒦᓂᑰᐎᓯ	-1138
ᓂᑳᓱᓂᒡ	-1139
ᐋᓐ	-1140
ᐌᐸ	-1141
ᓂᔐ	-1142
ᔥᑾ	-1143
ᐎᓂᓃ	-1144
ᑕᐙᐞ	-1145
ᒥᑕᓇ	-1146
ᓃᔣᓱ	-1147
ᒪᔥᑲᐌ	-1148
ᐯᕒᐊᓰᒃ	-1149
ᔑᒫᑲᓂᔒ	-1150
ᒪᒋᐊᒑᑾᐞ	-1151
ᐃᕽ	-1152
ᐊᔕ	-1153
ᐗᔦ	-1154
ᒋᑲ	-1155
ᒎᓴ	-1156
ᒨᒋ	-1157
ᓃᓵ	-1158
ᐅᑎᓈ	-1159
ᑕᐅᒋ	-1160
ᑫᐙᒡ	-1161
ᑭᒋᑲ	-1162
ᒋᑲᓐ	-1163
ᕒᐆᓐ	-1164
ᐃᔑᓭᒃ	-1165
ᐃᔥᒀᑌ	-1166
ᐋᔑᑌᔮ	-1167
ᒥᑰᔦᒃ	-1168
ᐁᑮᐃᑭᑐᒡ	-1169
ᑳᒎᐎᐎᓯᒀ	-1170
ᐎᓭ	-1171
ᑎᑯ	-1172
ᑕᐸ	-1173
ᑕᔕ	-1174
ᒌᕽ	-1175
ᐊᐙᒡ	-1176
ᑎᐙᒡ	-1177
ᑕᓯᒃ	-1178
ᒥᓂᒡ	-1179
ᒫᒑᒡ	-1180
ᓯᐙᓐ	-1181
ᔕᐌᓂ	-1182
ᐃᓇᑰᒃ	-1183
ᐐᒌᐙᒡ	-1184
ᐸᑭᑎᓂ	-1185
ᓈᑾᓂᓂ	-1186
ᔔᒥᓈᐳ	-1187
▁¦2¦	-1188
ᐃᔑᐌᐱᓯ	-1189
ᐅᑕᑳᓀᓯ	-1190
ᑭᑭᓄᐃᑫ	-1191
ᐅᑮᐃᓈᐙᓐ	-1192
ᑫᑮ	-1193
ᑫᓂ	-1194
ᐐᔭᐤ	-1195
ᐗᔦᔑ	-1196
ᒫᐙᓐ	-1197
ᐃᑴᐗᒃ	-1198
ᐃᔥᒀᓭ	-1199
ᐋᐱᑎᕽ	-1200
ᐱᓵᓂᑯ	-1201
ᑲᓇᐌᓂ	-1202
ᐹᐃᓬᐊᑦ	-1203
ᑭᐐᑕᒪᐎᓂᓂᒻ	-1204
ᑭᓰ	-1205
ᐁᕒᐊ	-1206
ᒋᑕᔑ	-1207
ᐃᓈᐙᒡ	-1208
ᐅᑖᐱᓇ	-1209
ᐱᔑᔑᒃ	-1210
ᑕᒪᐙᐙᒡ	-1211
ᑖᑯᓯᐙᒡ	-1212
ᐅᓄᐌᓂᐗᓐ	-1213
ᑭᑭᓇᐙᑕᔕ	-1214
ᐋᔑᑌᔮᑎᑯᕽ	-1215
ᐁᓇ	-1216
ᑕᑶ	-1217
ᑭᓉ	-1218
ᑭᓱ	-1219
ᑮᒋ	-1220
ᒌᒫ	-1221
ᐗᑭᒡ	-1222
ᐴᔥᑫ	-1223
ᑮᑭᑐ	-1224
ᓵᑲᐊ	-1225
ᐃᔖᐙᒡ	-1226
ᐅᒫᒫᓐ	-1227
ᑳᐊᐲᒋ	-1228
ᓂᐳᐎᓐ	-1229
ᓂᐳᓂᒡ	-1230
ᐅᑑᓇᔓᐌ	-1231
ᐃᓀᑖᑯᓯᒡ	-1232
ᑕᒧᐎᓂᐙᓐ	-1233
ᐱᓱ	-1234
ᐸᕒ	-1235
ᑎᔅ	-1236
ᒪᑗ	-1237
ᐅᓈᑯ	-1238
ᐌᑯᓀ	-1239
ᐸᑭᑌ	-1240
ᑰᔮᓐ	-1241
ᒫᑭᔖ	-1242
▁¦7	-1243
ᐸᑭᑎᓇ	-1244
ᑳᐅᔫᓯ	-1245
ᒪᑲᓂᓂ	-1246
ᐁᑮᐃᑯᒡ	-1247
ᐅᔥᑭᓃᑭ	-1248
ᐸᑭᑎᓂᑫ	-1249
ᑭᑭᓇᐙᒋ	-1250
ᐱᒌ	-1251
ᒪᒫ	-1252
ᔮᐸ	-1253
ᐃᑯᐙ	-1254
ᑑᓂᒡ	-1255
ᑫᓂᒡ	-1256
ᒐᔭᐄ	-1257
ᔑᓈᒻ	-1258
ᐁᑮᐊᐎ	-1259
ᑆᓬᐊᓐ	-1260
ᑎᓯᔦᒃ	-1261
ᑲᓂᐎᒡ	-1262
ᐃᔑᓂᔕᐅ	-1263
ᓂᑳᑌᓂᒃ	-1264
ᓈᑯᓯᐙᒡ	-1265
ᑏᐎᑲᒥᑯᕽ	-1266
ᐲᑯ	-1267
ᐸᔅ	-1268
ᑎᓱ	-1269
ᑫᒫ	-1270
ᑳᓇ	-1271
ᒌᑾ	-1272
ᒪᒡ	-1273
ᓵᒥ	-1274
ᔥᑯ	-1275
00¦	-1276
ᐃᔑᓭ	-1277
ᑕᑫᒃ	-1278
ᑭᑫᑌ	-1279
ᑯᑖᓀ	-1280
ᑲᑴᑗ	-1281
ᑳᐅᔑ	-1282
ᑳᐙᐸ	-1283
ᒐᓬᐃ	-1284
ᒥᑕᑎ	-1285
ᒥᑰᐞ	-1286
ᓄᓂᒡ	-1287
ᔕᔒᐱ	-1288
ᔥᑳᑌ	-1289
ᔮᐹᓐ	-1290
ᐅᑮᐙᐸ	-1291
ᑭᔐᒪᓂᑑᕽ	-1292
ᓈᓂᐗᓂᓂᒃ	-1293
ᔑᒫᑲᓂᔕᒃ	-1294
ᔑᒫᑲᓂᔒᐎᑭᒫ	-1295
ᐊᒀ	-1296
ᐹᕒ	-1297
ᑮᕽ	-1298
ᑾᔮ	-1299
ᒣᑴ	-1300
ᒪᑎ	-1301
ᒪᒀ	-1302
ᒪᓈ	-1303
ᓇᐊ	-1304
ᐅᑭᑫ	-1305
ᐙᐱᓯ	-1306
ᐱᑾᒋ	-1307
ᑭᑑᒋ	-1308
ᑲᓇᑫ	-1309
ᑳᑲᓅ	-1310
ᐅᓂᔑᔑ	-1311
ᐐᑕᒫᑫ	-1312
ᑎᐯᓂᒥ	-1313
ᒋᑫᐙᒡ	-1314
ᑎᐯᓂᒥᑯ	-1315
ᐌᔫᓯᒥᓐᒡ	-1316
ᑎᐱᑲᓂᓂᒃ	-1317
ᑭᑎᑳᓀᓴᓐ	-1318
ᒪᒋᐊᒑᑾᓐ	-1319
ᐅᒑ	-1320
ᑲᓀ	-1321
ᑳᐋ	-1322
ᒋᑴ	-1323
ᐃᔥᐯ	-1324
ᑕᓄᑮ	-1325
ᑕᓰᒻ	-1326
ᑳᑌᒃ	-1327
ᒋᐊᔮ	-1328
ᓵᑲᐃ	-1329
ᔖᑰᒋ	-1330
ᐅᓃᑳᓂ	-1331
ᐊᔓᑕᒫ	-1332
ᐙᓴᑯᓀ	-1333
ᐱᒌᓇᒃ	-1334
ᒪᑲᑭᓐ	-1335
ᓵᑭᐃᑎ	-1336
▁¦7¦	-1337
ᒫᓇᒑᓂᔐ	-1338
ᓂᐳᐎᓂᕽ	-1339
ᐃᔑᒋᑫᐙᒡ	-1340
ᐅᑎᑭᑐᐎᓐ	-1341
ᐙᑳᐃᑲᓂᕽ	-1342
ᐊᓇᒥᐁᐎᑭᒫ	-1343
ᐱᓀ	-1344
ᐴᓯ	-1345
ᑑᑖ	-1346
ᓂᑳ	-1347
¦	-1348
▁	-1349
ᓂ	-1350
ᐃ	-1351
ᓐ	-1352
ᑭ	-1353
ᑕ	-1354
ᒋ	-1355
ᑮ	-1356
ᑳ	-1357
ᐅ	-1358
ᐊ	-1359
ᑲ	-1360
ᒡ	-1361
ᒃ	-1362
ᔥ	-1363
ᔑ	-1364
ᐙ	-1365
᙮	-1366
ᓇ	-1367
ᐎ	-1368
,	-1369
ᐁ	-1370
ᒫ	-1371
ᑯ	-1372
ᑫ	-1373
ᓯ	-1374
ᒥ	-1375
ᑎ	-1376
ᐱ	-1377
ᐌ	-1378
ᒪ	-1379
ᐐ	-1380
ᓈ	-1381
ᕽ	-1382
ᐗ	-1383
ᒦ	-1384
ᐸ	-1385
ᔦ	-1386
ᐋ	-1387
ᑑ	-1388
ᑌ	-1389
ᑖ	-1390
ᓴ	-1391
ᓃ	-1392
ᔮ	-1393
ᔭ	-1394
ᑰ	-1395
ᐯ	-1396
ᓀ	-1397
ᐲ	-1398
ᐞ	-1399
ᓄ	-1400
ᑾ	-1401
ᔐ	-1402
ᓰ	-1403
ᑐ	-1404
ᔅ	-1405
ᓅ	-1406
ᔕ	-1407
ᒧ	-1408
ᒻ	-1409
ᒀ	-1410
:	-1411
ᑴ	-1412
ᒌ	-1413
ᐹ	-1414
ᓱ	-1415
ᓭ	-1416
ᒣ	-1417
ᓵ	-1418
ᓬ	-1419
ᕒ	-1420
ᐺ	-1421
ᒨ	-1422
ᒑ	-1423
ᔖ	-1424
ᐄ	-1425
?	-1426
ᐆ	-1427
ᔓ	-1428
!	-1429
ᒎ	-1430
ᐴ	-1431
x	-1432
𐋇	-1433
ᑦ	-1434
ᓲ	-1435
ᑣ	-1436
ᐳ	-1437
ᔒ	-1438
ᔔ	-1439
ᓉ	-1440
ᑏ	-1441
ᓍ	-1442
ᒐ	-1443
ᑆ	-1444
ᐤ	-1445
ᒉ	-1446
ᑸ	-1447
ᒞ	-1448
ᔫ	-1449
ᔣ	-1450
ᑉ	-1451
ᔨ	-1452
0	-1453
ᔂ	-1454
ᔗ	-1455
;	-1456
ᑗ	-1457
ᔩ	-1458
2	-1459
ᑶ	-1460
3	-1461
ᓶ	-1462
1	-1463
ᔪ	-1464
4	-1465
7	-1466
ᒬ	-1467
ᒸ	-1468
ᓋ	-1469
ᐾ	-1470
ᔛ	-1471
ᒶ	-1472
5	-1473
ᒍ	-1474
–	-1475
8	-1476
ᔀ	-1477
ᔾ	-1478
6	-1479
9	-1480
ᔡ	-1481
(	-1482
)	-1483
.	-1484
"	-1485
/	-1486
[	-1487
]	-1488
a	-1489
u	-1490
z	-1491
~	-1492
ᐧ	-1493
ᐼ	-1494
ᑡ	-1495
ᒒ	-1496
