<pad>	0
</s>	0
<unk>	0
▁	-3.31162
▁a	-3.66465
e	-3.81411
.	-3.83356
,	-3.86402
▁an	-4.00775
a	-4.09296
r	-4.14228
▁agus	-4.21418
s	-4.28586
▁ar	-4.31761
í	-4.60466
▁le	-4.60719
l	-4.65793
n	-4.66377
▁na	-4.67147
▁go	-4.69009
t	-4.74628
▁i	-4.74911
o	-4.77248
u	-4.81758
▁do	-4.9429
-	-5.01748
▁c	-5.04068
ú	-5.08433
d	-5.11606
c	-5.24651
▁ag	-5.25633
ch	-5.28377
ar	-5.3127
ó	-5.31492
▁d	-5.32387
▁t	-5.33632
is	-5.38018
in	-5.39598
á	-5.42178
il	-5.45393
▁covid	-5.48035
ta	-5.49409
i	-5.50817
▁s	-5.5246
▁de	-5.54037
iú	-5.5407
▁nó	-5.54092
é	-5.55505
ir	-5.55982
an	-5.58736
▁’	-5.59702
air	-5.59758
ach	-5.60514
-19	-5.62869
▁f	-5.641
la	-5.64407
▁b	-5.66201
g	-5.696
▁seo	-5.71871
▁sa	-5.74989
bh	-5.75636
▁ch	-5.76296
igh	-5.76328
f	-5.76941
p	-5.77253
▁mar	-5.78405
dh	-5.7896
adh	-5.81492
m	-5.82129
as	-5.84266
na	-5.8429
▁tú	-5.8434
▁n	-5.86207
ra	-5.86875
▁chun	-5.86987
▁eile	-5.88259
ol	-5.91568
on	-5.92771
▁th	-5.93113
▁h	-5.94432
ithe	-5.94796
▁bhfuil	-5.95042
▁(	-5.97549
aí	-5.98368
▁in	-6.01999
▁sé	-6.05259
os	-6.06375
▁ó	-6.07439
▁nío	-6.08131
ic	-6.08593
▁tá	-6.08701
b	-6.08896
▁atá	-6.10391
▁is	-6.10722
▁D	-6.10824
th	-6.11548
te	-6.11595
h	-6.11994
▁fh	-6.12336
▁p	-6.13339
▁gc	-6.13366
or	-6.16428
id	-6.17368
ad	-6.18486
án	-6.19841
mh	-6.21906
ann	-6.23616
▁Tá	-6.24422
0	-6.24424
▁sh	-6.24824
al	-6.25452
anna	-6.25578
▁2	-6.25883
eann	-6.25913
ais	-6.26008
▁é	-6.26774
íonn	-6.27952
1	-6.28421
)	-6.2929
▁g	-6.29447
▁bh	-6.30128
áin	-6.31184
▁féidir	-6.3131
im	-6.31323
oir	-6.33613
▁m	-6.34256
▁r	-6.34376
cov	-6.35191
▁C	-6.35904
▁cás	-6.36208
inn	-6.36426
áil	-6.36849
each	-6.37147
eas	-6.38402
▁daoine	-6.38485
▁faoi	-6.42079
▁sláinte	-6.42165
▁sin	-6.44498
3	-6.44957
aigh	-6.46007
▁duine	-6.46447
▁ná	-6.46936
it	-6.48366
5	-6.48778
▁leis	-6.4904
▁Is	-6.49153
▁lá	-6.49243
2	-6.49585
▁má	-6.4989
aithe	-6.50435
▁mh	-6.51036
idh	-6.52534
▁aon	-6.52889
ith	-6.53826
7	-6.53914
8	-6.54602
▁mó	-6.54681
▁T	-6.56623
re	-6.57764
▁S	-6.60507
▁raibh	-6.61039
6	-6.61274
tha	-6.6234
9	-6.62889
ag	-6.63273
:	-6.65951
ia	-6.67121
ig	-6.67977
4	-6.68787
▁bás	-6.69963
▁Má	-6.7053
▁víreas	-6.70656
ma	-6.71266
▁ort	-6.71501
▁I	-6.71824
▁sars	-6.72088
om	-6.7274
▁vacsaín	-6.74326
▁4	-6.74724
acht	-6.74938
▁Ní	-6.75021
▁bheith	-6.75334
acha	-6.76461
▁dhéanamh	-6.77502
▁3	-6.77588
▁mb	-6.77667
v	-6.77929
▁dt	-6.78597
▁úsáid	-6.7885
▁ba	-6.79055
▁ní	-6.79411
imh	-6.79833
▁rud	-6.80056
gh	-6.80927
ion	-6.81694
▁B	-6.82836
óg	-6.82861
▁l	-6.83062
▁éis	-6.84579
▁An	-6.84643
▁gh	-6.84682
▁iad	-6.8516
▁bhf	-6.85169
▁gur	-6.86127
ín	-6.86645
▁féin	-6.87193
▁chóir	-6.88688
ill	-6.89027
▁fhéadfa	-6.90207
ath	-6.90215
nach	-6.90261
cha	-6.90342
ac	-6.90369
▁chur	-6.90758
▁tar	-6.90886
▁2020	-6.90923
▁sc	-6.90939
ian	-6.90962
le	-6.91049
▁duit	-6.9165
▁dh	-6.92637
▁bhí	-6.93066
▁roinnt	-6.93833
▁comharthaí	-6.9422
▁dhaoine	-6.95703
eacha	-6.96623
int	-6.97133
▁siad	-6.97229
rú	-6.97599
úil	-6.98516
▁ach	-6.98765
▁ón	-6.9934
▁ph	-7.00083
gach	-7.01466
▁orthu	-7.01521
eacht	-7.01663
▁den	-7.0248
artha	-7.02707
ear	-7.02916
eidh	-7.03149
▁don	-7.03272
io	-7.03357
▁ina	-7.0352
▁u	-7.04695
▁br	-7.04974
▁5	-7.05013
▁líon	-7.05182
eadh	-7.05492
▁trí	-7.05584
▁san	-7.06786
am	-7.07193
▁thug	-7.07803
▁chomh	-7.08178
ála	-7.08298
lú	-7.08404
omh	-7.08955
▁1	-7.09813
aíonn	-7.10176
y	-7.10274
▁márta	-7.11602
▁fu	-7.12561
▁ráig	-7.12925
▁tástáil	-7.12975
tar	-7.1313
▁tr	-7.138
▁st	-7.15711
▁roimh	-7.16571
▁ann	-7.17796
-2	-7.18358
▁idir	-7.18507
éir	-7.1919
ola	-7.19476
▁amach	-7.20184
aoi	-7.20363
▁mór	-7.21471
ip	-7.21536
óir	-7.22014
▁leat	-7.22292
eanna	-7.227
éim	-7.22756
▁freisin	-7.2279
▁isteach	-7.22799
▁dóibh	-7.23784
▁nua	-7.23863
▁as	-7.23924
▁á	-7.24152
▁air	-7.24197
▁mí	-7.26071
íocht	-7.26249
oc	-7.26423
w	-7.26821
▁amháin	-7.26841
ne	-7.27163
▁fáil	-7.2722
▁chás	-7.27884
▁nuair	-7.28279
áit	-7.29421
▁co	-7.30599
▁gan	-7.30653
%	-7.31004
▁ionfhabhtaithe	-7.31021
▁tástála	-7.31561
▁gheall	-7.31561
▁chuig	-7.32105
▁cho	-7.32787
ine	-7.3357
▁ath	-7.34361
▁sonraí	-7.34847
ras	-7.34882
▁bhíonn	-7.36043
▁coronavirus	-7.3658
eart	-7.3733
▁Ba	-7.37824
áis	-7.37885
▁Tuairiscíodh	-7.38247
▁linn	-7.40421
▁lámha	-7.40588
▁me	-7.40801
▁Mar	-7.42365
▁fanacht	-7.42368
▁leor	-7.42956
▁aghaidh	-7.4302
▁Déan	-7.44189
amh	-7.44298
íodh	-7.44647
▁fháil	-7.44844
▁mo	-7.45134
▁Ag	-7.45414
áirítear	-7.45415
▁tír	-7.45744
all	-7.46185
▁dá	-7.46188
ite	-7.46903
▁déan	-7.47033
▁chuid	-7.47299
▁dtí	-7.47469
▁acu	-7.47533
sh	-7.48046
▁maidi	-7.48566
réir	-7.48726
▁comh	-7.48872
mp	-7.48986
▁dul	-7.49269
▁cásanna	-7.4981
▁measc	-7.4985
▁aontaithe	-7.49852
▁neamh	-7.50363
k	-7.51148
▁feabhra	-7.51148
▁scaipeadh	-7.51177
fh	-7.52458
▁teaghlaigh	-7.52468
▁sp	-7.52952
at	-7.53717
▁rial	-7.53872
▁ard	-7.54173
▁haghaidh	-7.54481
ib	-7.54816
ocht	-7.55298
íoch	-7.55735
▁aghaidhe	-7.55786
▁chéad	-7.55852
ce	-7.57316
▁10	-7.58255
▁aip	-7.58289
▁víris	-7.58634
▁leith	-7.59233
us	-7.59767
▁sna	-7.59799
íochta	-7.59957
▁tugadh	-7.60777
▁cé	-7.61166
▁eanáir	-7.61502
▁bhaile	-7.61503
▁siú	-7.62131
▁fógra	-7.62881
▁hiomláin	-7.62967
00	-7.63185
▁dó	-7.63608
▁20	-7.63645
;	-7.63708
éal	-7.63742
▁6	-7.65043
▁riospráide	-7.65206
othar	-7.65263
▁tuairiscíodh	-7.65964
▁tsín	-7.65981
eamh	-7.66505
▁poiblí	-7.66727
▁thabhairt	-7.66727
éil	-7.66852
tear	-7.67193
▁am	-7.675
cht	-7.67534
-19.	-7.68042
▁mbeadh	-7.68491
▁bhfeidhm	-7.69053
▁cinn	-7.69233
▁dí	-7.69294
▁cur	-7.69929
▁aois	-7.70148
'	-7.70634
▁maith	-7.70657
▁uair	-7.70813
▁hcov	-7.70896
ré	-7.71547
▁síne	-7.72342
óirí	-7.72784
op	-7.73053
▁cúram	-7.73053
▁bearta	-7.73145
▁ga	-7.73723
eachta	-7.74094
▁“	-7.74577
▁agat	-7.74622
ur	-7.75944
▁galar	-7.76389
▁faoin	-7.76507
▁chuir	-7.77245
ord	-7.77322
if	-7.77962
▁pháiste	-7.78075
▁bhaineann	-7.78937
▁leighis	-7.78973
▁Cuir	-7.79355
osca	-7.79675
▁feadh	-7.79749
uithe	-7.79753
▁leo	-7.79842
▁stáit	-7.79942
▁shampla	-7.80684
▁leanaí	-7.80711
eoirí	-7.80764
▁theas	-7.81002
▁7	-7.81329
ard	-7.81756
▁dhá	-7.82246
▁dhochtúir	-7.82462
▁paindéim	-7.82462
▁gcásanna	-7.82544
▁ionfhabhtú	-7.83164
eolaíoch	-7.83291
achta	-7.83833
▁tíortha	-7.84272
▁eis	-7.84274
▁ionad	-7.84474
▁othair	-7.8519
,000	-7.85199
ógraíodh	-7.85302
éin	-7.85375
▁te	-7.8566
▁9	-7.85855
▁chaitheamh	-7.86116
oifig	-7.86116
▁léir	-7.8639
).	-7.86419
▁scoileanna	-7.87109
átha	-7.87131
▁clúdach	-7.87194
ing	-7.87507
▁iomlán	-7.87993
lár	-7.88139
▁srianta	-7.88372
▁14	-7.89241
teagmháil	-7.89391
▁gá	-7.89724
rón	-7.89855
▁ng	-7.90788
▁dearfach	-7.90878
▁8	-7.91473
▁Ná	-7.91858
▁fad	-7.92075
▁chéile	-7.92858
faidh	-7.93552
▁Ar	-7.93848
▁aibreán	-7.93848
▁-	-7.94244
▁domhain	-7.95879
▁rialtas	-7.95891
▁tinn	-7.95942
▁mhí	-7.96061
▁bia	-7.97165
▁Dífh	-7.97956
▁toradh	-7.97962
▁"	-7.98165
z	-7.99004
▁who	-7.99004
habh	-7.99386
▁luath	-7.99674
),	-8.00057
▁bhféadfa	-8.00068
"	-8.02008
▁ospidéal	-8.0223
▁sóisialta	-8.0223
▁cuairt	-8.02231
▁comhairle	-8.02231
▁beag	-8.02263
▁dhí	-8.02279
onn	-8.03127
▁fhógair	-8.03332
úirt	-8.03412
▁déanaí	-8.03804
aíodh	-8.04106
▁leath	-8.04273
▁thástáil	-8.04441
▁mura	-8.04465
▁aer	-8.04597
▁thor	-8.0522
ítear	-8.05447
▁lua	-8.05683
illeadh	-8.05885
▁for	-8.05978
▁srian	-8.06268
▁Ch	-8.06709
onas	-8.06798
▁Bhí	-8.06918
▁19	-8.07076
nig	-8.07336
▁fuair	-8.07717
▁Lé	-8.0785
▁minic	-8.07856
▁bhás	-8.07888
▁thart	-8.09053
▁ghnáth	-8.10189
▁náisiúnta	-8.10189
cháin	-8.10488
▁milliún	-8.11379
▁wuhan	-8.11379
▁chosaint	-8.11379
▁ialtóg	-8.11379
▁tioncha	-8.11384
▁cosúil	-8.11387
▁teagmhála	-8.12584
▁éagsúla	-8.12584
▁mbaol	-8.12601
▁glao	-8.12733
unaithe	-8.13012
agann	-8.13807
▁léinn	-8.13809
▁riosca	-8.15039
ireacht	-8.1525
▁cheart	-8.15774
▁fhaigh	-8.16276
▁háirithe	-8.16288
▁casacht	-8.16309
óidh	-8.16484
nío	-8.17246
▁ceann	-8.17369
▁lasmuigh	-8.17554
▁sábháilte	-8.17554
▁vacsaíní	-8.17912
▁24	-8.18409
▁thái	-8.18542
▁mers	-8.18886
▁oibre	-8.19329
▁11	-8.19437
óid	-8.20782
▁caith	-8.20971
eachtaí	-8.21007
ions	-8.21291
próitéin	-8.21451
▁Go	-8.21451
▁riachtana	-8.21451
▁óstach	-8.21452
▁láthair	-8.21459
▁suas	-8.21491
▁thuairisc	-8.21613
▁céanna	-8.21852
▁coinn	-8.22029
▁fhéidir	-8.22784
▁laghdú	-8.22784
▁obair	-8.22785
▁ghalair	-8.22787
▁ceal	-8.23105
▁coraintín	-8.24135
▁dúnadh	-8.24135
▁Chuir	-8.24139
▁iarracht	-8.24141
▁méad	-8.24141
▁leibhéal	-8.24224
▁cheann	-8.24635
ainm	-8.25003
▁scoil	-8.25235
▁15	-8.26026
▁tinnis	-8.26161
coróinvíreas	-8.26894
▁bealtaine	-8.26894
▁eipidéim	-8.26894
▁taistil	-8.26894
▁gcuid	-8.26908
▁airde	-8.26944
▁choinneáil	-8.27013
▁rinne	-8.27109
▁Cé	-8.27234
▁12	-8.27428
▁laghad	-8.28302
▁príomh	-8.28302
▁cuireadh	-8.28387
▁mac	-8.28712
▁oibr	-8.28917
▁um	-8.29707
x	-8.29731
▁torthaí	-8.29731
▁seachtain	-8.29748
▁roinn	-8.2976
ionfhabhtuithe	-8.3118
▁bliain	-8.3118
▁dearbhaithe	-8.3118
▁tarchur	-8.31182
▁masc	-8.31194
imid	-8.31568
▁gníomh	-8.31981
aonrú	-8.3257
▁bharr	-8.32717
▁teacht	-8.34054
j	-8.34143
▁2019	-8.34144
▁ráta	-8.34165
áistí	-8.34167
▁imní	-8.34225
▁fós	-8.34246
▁Mura	-8.35658
▁taisteal	-8.35658
▁éigeandála	-8.35658
▁dochtúir	-8.35659
▁frith	-8.35695
onaid	-8.36518
fear	-8.36588
úsáid	-8.36791
▁23	-8.36961
▁cuir	-8.37195
▁mheas	-8.38389
aisnéis	-8.3876
▁eolas	-8.38766
álacha	-8.40213
?	-8.40347
▁cliath	-8.40347
▁iompar	-8.40347
▁rialtais	-8.40355
▁líne	-8.40374
▁síos	-8.40393
▁cosc	-8.40427
oisc	-8.40766
▁iodáil	-8.4196
▁láithreach	-8.4196
▁meitheamh	-8.4196
éifeacht	-8.42245
▁measa	-8.42461
seirbhís	-8.43564
▁Nua	-8.43599
▁fiabhras	-8.43599
▁sampla	-8.43604
▁13	-8.4425
ráid	-8.46102
▁mhéad	-8.46483
▁laistigh	-8.46961
▁ndaoine	-8.46961
▁dáileog	-8.46961
▁gcoinne	-8.46961
▁cabhr	-8.46983
▁fliú	-8.47026
▁fss	-8.47293
▁víreasach	-8.47575
▁dteagmháil	-8.47879
athair	-8.48334
▁rianú	-8.48692
▁cionn	-8.48722
iagnóis	-8.50439
▁idirnáisiúnta	-8.50439
▁dhiaidh	-8.5044
▁chomharthaí	-8.50443
▁cuid	-8.50494
0%	-8.50496
▁sula	-8.50512
▁mhéada	-8.50942
▁baint	-8.5104
▁imeachta	-8.51285
▁cúraim	-8.52225
▁chloig	-8.52225
▁ainmhithe	-8.52225
▁tapa	-8.52231
▁áirithe	-8.54048
▁díreach	-8.54062
▁éifeachtach	-8.54197
▁oibrithe	-8.54388
▁18	-8.54699
▁Faoi	-8.55895
▁freastal	-8.55895
▁daonna	-8.55896
▁dhuine	-8.55898
▁galair	-8.55915
▁seirbhísí	-8.55935
▁mui	-8.57665
▁chomhairle	-8.57784
▁deireadh	-8.57789
▁Tug	-8.57802
eagra	-8.58132
▁16	-8.58419
▁Lean	-8.59705
▁staidéar	-8.59705
▁réamh	-8.59713
▁bhaint	-8.59722
▁stát	-8.59722
▁riocht	-8.59768
víreas	-8.60112
chtaí	-8.6028
▁mbei	-8.605
▁coitianta	-8.61666
▁pearsanta	-8.61666
▁básmhaireacht	-8.61666
▁áiteanna	-8.61677
▁imdhíonachta	-8.61683
▁fhág	-8.61683
▁cúig	-8.61694
▁cúis	-8.61773
uail	-8.63095
stáil	-8.63659
▁foláireamh	-8.63665
▁eagraíocht	-8.63669
iarr	-8.63725
▁bunúsacha	-8.63759
▁dara	-8.64038
▁choinne	-8.65547
▁scaip	-8.65622
▁tábhachtach	-8.65706
▁méid	-8.65715
▁déine	-8.6574
léa	-8.65761
agairt	-8.65791
▁fearr	-8.65818
▁fíneá	-8.66123
▁mbásanna	-8.6779
▁mbaile	-8.67791
▁tabhair	-8.67791
▁chúis	-8.67848
▁mhór	-8.67939
▁gcás	-8.69799
▁Amha	-8.69917
▁hairíonna	-8.69917
▁mhárta	-8.69918
údará	-8.69935
▁amhras	-8.69951
▁glan	-8.70017
▁bhun	-8.71549
▁domhanda	-8.72091
▁daonra	-8.72092
▁feidhm	-8.72097
▁uait	-8.72111
▁cheana	-8.72285
▁cleachta	-8.72311
hug	-8.72384
oga	-8.72742
▁bhrí	-8.7383
▁Rinne	-8.74313
▁ghluaiseachtaí	-8.74313
▁míochaine	-8.74313
▁sraothartach	-8.74313
▁timpeall	-8.74313
▁éadrom	-8.74314
eiceáil	-8.74315
▁héireann	-8.74316
mhail	-8.74378
▁leanbh	-8.74391
▁bpaindéim	-8.76586
▁géarmhíochaine	-8.76586
▁pobail	-8.76586
▁ndearna	-8.76586
▁Úsáid	-8.76586
▁cosanta	-8.76586
▁rianair	-8.76592
▁treala	-8.76596
▁oiriún	-8.766
▁covanna	-8.76665
▁dhéanann	-8.78912
▁diúltach	-8.78912
▁drugaí	-8.78912
▁nollaig	-8.78912
▁ollscoil	-8.78912
aireanta	-8.78958
▁taighde	-8.79091
▁cead	-8.79148
rthóir	-8.8075
▁ospidéil	-8.81293
▁cófra	-8.81293
▁sheachaint	-8.81294
scoile	-8.81634
fíor	-8.83076
▁choróinvíris	-8.83732
▁dtugtar	-8.83732
▁tacaíocht	-8.83733
chúram	-8.83737
▁gcéad	-8.83744
▁dtús	-8.83802
bhreith	-8.83806
▁nochta	-8.84795
▁leagan	-8.85707
▁niúmóine	-8.86232
▁eorpach	-8.86232
▁leanúnach	-8.86232
▁deacracht	-8.86232
▁2021	-8.86233
▁breise	-8.86234
gartheagmháil	-8.86259
llmha	-8.86282
▁fios	-8.8629
▁againn	-8.86343
▁féa	-8.86412
iocfa	-8.87042
▁fhorbairt	-8.88796
▁suntasach	-8.88796
▁áireamh	-8.88797
▁chibear	-8.88797
▁reatha	-8.88799
▁láimhe	-8.88824
▁éigin	-8.88879
othú	-8.90416
▁dhomhanda	-8.91427
▁oideachais	-8.91427
▁siopadóireacht	-8.91427
▁gnáth	-8.91428
▁chinntiú	-8.91428
▁cosaint	-8.91428
▁bliana	-8.91428
▁dúnta	-8.91428
▁cruinn	-8.91428
▁oiread	-8.9143
ormhór	-8.9143
▁dlúth	-8.91435
▁spreag	-8.91458
eithre	-8.92831
héann	-8.93606
▁thosa	-8.9386
▁taobh	-8.94135
▁díobh	-8.9414
▁maisc	-8.94145
hlat	-8.95347
ialla	-8.96216
▁bunús	-8.96778
▁Oscailt	-8.96908
▁astrazeneca	-8.96908
▁eacnamaíoch	-8.96908
▁phaindéim	-8.96908
▁sholáthar	-8.96908
uiscint	-8.96908
▁liosta	-8.96908
▁cóireáil	-8.96908
▁roghn	-8.96908
▁grúpa	-8.96909
▁dtíortha	-8.96909
▁uisce	-8.96911
▁tógálach	-8.96913
▁freagra	-8.96917
imhnigh	-8.96935
▁Caith	-8.96998
▁cliniciúla	-8.99765
▁phobal	-8.99765
▁staidéir	-8.99765
▁scamhóg	-8.99766
▁gardaí	-8.99767
▁rianaithe	-8.99768
úlacht	-8.99776
▁gnó	-8.99837
ábhar	-9.02145
comparáid	-9.02706
▁tromchúiseach	-9.02706
▁fionraí	-9.02706
▁laghda	-9.02707
ghrúpa	-9.02711
▁chóna	-9.02785
impl	-9.0328
▁antasubstaintí	-9.05737
▁dromchla	-9.05737
▁idirmheánach	-9.05737
▁monatóireacht	-9.05737
▁uirthi	-9.05737
▁anailís	-9.05737
▁chlinic	-9.05737
▁suíomh	-9.05737
▁teastáil	-9.05738
▁aitheanta	-9.05739
▁thógáil	-9.05741
▁chlúda	-9.05746
▁Cuirea	-9.07394
▁eitilt	-9.08862
▁hiodáile	-9.08862
▁nádúrtha	-9.08862
▁fhreagairt	-9.08862
▁plean	-9.08871
▁ghalar	-9.08873
▁Thái	-9.0888
▁rogha	-9.09272
rialacha	-9.09897
▁leibhé	-9.11889
neamhriachtanach	-9.12087
▁choróinvíreas	-9.12087
▁gartheagmhálaí	-9.12087
▁shóisialta	-9.12087
▁íseal	-9.12088
▁cónaithe	-9.12089
▁ísle	-9.12093
▁tosaigh	-9.12105
▁cineál	-9.12538
pháirtí	-9.13676
▁clúda	-9.14917
▁saotharlainne	-9.15421
▁speisialta	-9.15421
▁tharchur	-9.15421
▁víreolaíoch	-9.15421
▁ndéanfa	-9.15421
▁shláinte	-9.15421
▁iarraidh	-9.15421
▁bhailiú	-9.15421
uachtarán	-9.15421
speicis	-9.15422
▁ligean	-9.15459
229	-9.15627
claíocht	-9.15691
▁gceist	-9.17843
theagmhála	-9.18868
▁anaithnid	-9.18869
▁dhearfach	-9.18869
▁forleathan	-9.18869
▁éigeantach	-9.18869
▁chineál	-9.18869
▁deimhnithe	-9.18869
▁teorainn	-9.18869
▁tuarascá	-9.18869
▁cúnamh	-9.18869
▁fásta	-9.1887
▁scaoil	-9.18879
éarchéim	-9.2244
▁géanóm	-9.2244
▁hubei	-9.2244
▁dheireadh	-9.2244
▁bpob	-9.22441
▁folláin	-9.22441
▁tobac	-9.22441
▁faireachas	-9.22441
▁gnách	-9.22441
▁dhearbha	-9.22442
▁cóireála	-9.22449
ntanas	-9.22507
uismitheoirí	-9.26144
▁Féadfa	-9.26144
▁eoraip	-9.26144
▁meiriceá	-9.26144
▁straitéis	-9.26144
▁nóiméad	-9.26144
▁páirt	-9.26145
▁afraic	-9.26145
▁eagla	-9.26149
eisteanna	-9.27263
▁trialach	-9.28513
acsaín	-9.29987
▁treoirlín	-9.2999
▁altranais	-9.2999
▁phoiblí	-9.2999
oimeád	-9.2999
▁tseachtain	-9.2999
▁éifeachtúlacht	-9.29991
▁acmhainn	-9.3399
▁féideartha	-9.3399
▁oideachas	-9.3399
▁réigiún	-9.3399
▁thaisteal	-9.3399
▁buinneach	-9.3399
▁rcgp	-9.3399
▁zónóiseach	-9.3399
▁fómhair	-9.3399
▁tarchuir	-9.3399
ardriosca	-9.33991
▁faide	-9.33993
“	-9.34591
huairisc	-9.37636
▁díghalr	-9.38157
▁gallúnach	-9.38157
▁ginearálta	-9.38157
▁sealadach	-9.38157
▁seicheamh	-9.38157
D	-11.5802
’	-12.0808
Ú	-13.081
P	-13.0811
O	-13.0812
–	-13.0813
”	-13.0814
R	-13.0815
/	-13.0816
G	-13.0817
L	-13.0818
F	-13.0819
S	-13.082
B	-13.0821
N	-13.0822
(	-13.0823
M	-13.0824
I	-13.0825
A	-13.0826
C	-13.0827
T	-13.0827
