<pad>	0
</s>	0
<unk>	0
▁¦	-0
de	-1
▁𐋇	-2
▁,	-3
en	-4
oc	-5
ll	-6
an	-7
ar	-8
er	-9
och	-10
om	-11
tt	-12
▁.	-13
in	-14
ör	-15
är	-16
st	-17
ig	-18
sk	-19
för	-20
ti	-21
on	-22
ade	-23
ag	-24
till	-25
han	-26
all	-27
or	-28
som	-29
än	-30
ra	-31
et	-32
ed	-33
na	-34
vi	-35
ck	-36
så	-37
den	-38
el	-39
att	-40
av	-41
un	-42
der	-43
var	-44
det	-45
▁;	-46
ick	-47
da	-48
jag	-49
sa	-50
her	-51
herr	-52
▁:	-53
ing	-54
på	-55
fr	-56
ån	-57
skall	-58
ol	-59
va	-60
icke	-61
herren	-62
med	-63
hon	-64
ta	-65
pp	-66
▁𐊣	-67
du	-68
bl	-69
ut	-70
se	-71
▁»	-72
har	-73
ud	-74
rä	-75
dem	-76
ter	-77
dig	-78
ver	-79
där	-80
honom	-81
men	-82
äl	-83
då	-84
us	-85
sin	-86
äg	-87
upp	-88
kt	-89
es	-90
kom	-91
mo	-92
ka	-93
and	-94
ja	-95
si	-96
ung	-97
sig	-98
ju	-99
gud	-100
man	-101
mig	-102
ma	-103
eder	-104
ef	-105
sade	-106
ro	-107
år	-108
ss	-109
min	-110
från	-111
din	-112
åg	-113
över	-114
åt	-115
ri	-116
▁.»	-117
ty	-118
hade	-119
lig	-120
alla	-121
hans	-122
la	-123
jor	-124
is	-125
vid	-126
ett	-127
när	-128
it	-129
nu	-130
ur	-131
efter	-132
kon	-133
tta	-134
lä	-135
be	-136
bar	-137
sta	-138
skol	-139
hav	-140
le	-141
are	-142
li	-143
ga	-144
br	-145
konung	-146
olk	-147
itt	-148
folk	-149
bli	-150
gi	-151
re	-152
ning	-153
ock	-154
ba	-155
vad	-156
såsom	-157
ull	-158
män	-159
het	-160
▁?	-161
säg	-162
isra	-163
sam	-164
israel	-165
gen	-166
mot	-167
son	-168
hel	-169
ne	-170
må	-171
ska	-172
hö	-173
gör	-174
as	-175
någ	-176
allt	-177
ller	-178
dag	-179
hör	-180
fra	-181
gå	-182
dö	-183
of	-184
arna	-185
em	-186
barn	-187
fö	-188
skola	-189
ev	-190
detta	-191
äm	-192
hava	-193
ön	-194
dan	-195
hus	-196
og	-197
dr	-198
ras	-199
ens	-200
des	-201
eller	-202
mer	-203
fram	-204
skull	-205
yn	-206
erna	-207
ot	-208
deras	-209
te	-210
sina	-211
ort	-212
jäl	-213
gjor	-214
sl	-215
herrens	-216
vill	-217
ste	-218
jän	-219
oss	-220
nen	-221
här	-222
vara	-223
od	-224
vil	-225
tjän	-226
yck	-227
vit	-228
os	-229
tr	-230
väl	-231
mm	-232
vor	-233
ha	-234
få	-235
hu	-236
ni	-237
under	-238
israels	-239
jer	-240
ande	-241
edan	-242
göra	-243
inn	-244
vå	-245
mitt	-246
ord	-247
und	-248
▁'	-249
säger	-250
ken	-251
tag	-252
land	-253
andra	-254
genom	-255
al	-256
rätt	-257
kun	-258
vän	-259
sitt	-260
dina	-261
skulle	-262
själ	-263
äng	-264
äro	-265
ingen	-266
bliva	-267
komma	-268
ul	-269
del	-270
stä	-271
trä	-272
blev	-273
kr	-274
ifrån	-275
ader	-276
utan	-277
str	-278
ned	-279
någon	-280
ber	-281
vär	-282
yg	-283
bet	-284
kan	-285
lå	-286
fer	-287
sedan	-288
iga	-289
tal	-290
stad	-291
offer	-292
syn	-293
hå	-294
fa	-295
jär	-296
vet	-297
ly	-298
sön	-299
brö	-300
hen	-301
ab	-302
ft	-303
sten	-304
voro	-305
jo	-306
pa	-307
hand	-308
mn	-309
dess	-310
svar	-311
else	-312
konungen	-313
fader	-314
ätt	-315
männi	-316
hi	-317
dessa	-318
guds	-319
bort	-320
ann	-321
david	-322
tid	-323
folket	-324
ång	-325
därför	-326
bland	-327
väg	-328
mina	-329
ditt	-330
ena	-331
lö	-332
eg	-333
hela	-334
kte	-335
lj	-336
mån	-337
stor	-338
skolen	-339
lat	-340
sp	-341
inför	-342
fär	-343
jes	-344
ott	-345
gon	-346
rö	-347
lla	-348
herre	-349
giva	-350
jorden	-351
vin	-352
svarade	-353
hög	-354
lan	-355
dde	-356
först	-357
prä	-358
sen	-359
nes	-360
ukt	-361
gjorde	-362
far	-363
tet	-364
sän	-365
lag	-366
läg	-367
söner	-368
vä	-369
ligen	-370
▁-	-371
vår	-372
juda	-373
gick	-374
fä	-375
fi	-376
▁!	-377
namn	-378
beg	-379
bo	-380
ära	-381
människ	-382
något	-383
▁--	-384
hur	-385
tog	-386
aden	-387
mi	-388
tjänare	-389
lo	-390
lem	-391
ia	-392
mose	-393
mar	-394
hjär	-395
▁?»	-396
låt	-397
usa	-398
kommer	-399
ker	-400
fy	-401
ser	-402
slä	-403
ej	-404
huru	-405
skap	-406
blivit	-407
åd	-408
jesus	-409
jerusa	-410
nas	-411
éerna	-412
jerusalem	-413
je	-414
färdig	-415
ho	-416
sö	-417
stå	-418
nar	-419
gr	-420
yp	-421
edra	-422
henne	-423
ko	-424
lar	-425
landet	-426
star	-427
ger	-428
byg	-429
ten	-430
drag	-431
mmel	-432
får	-433
förb	-434
säga	-435
egyp	-436
am	-437
himmel	-438
gjort	-439
¦	-440
▁	-441
a	-442
e	-443
n	-444
r	-445
t	-446
s	-447
d	-448
l	-449
o	-450
i	-451
h	-452
m	-453
g	-454
k	-455
𐋇	-456
v	-457
ä	-458
f	-459
u	-460
å	-461
c	-462
,	-463
ö	-464
b	-465
j	-466
p	-467
.	-468
y	-469
»	-470
;	-471
:	-472
𐊣	-473
𐊼	-474
?	-475
-	-476
'	-477
é	-478
!	-479
x	-480
(	-481
)	-482
2	-483
0	-484
4	-485
6	-486
1	-487
8	-488
9	-489
ó	-490
3	-491
5	-492
7	-493
í	-494
]	-495
á	-496
