<pad>	0
</s>	0
<unk>	0
▁t	-0
▁th	-1
▁a	-2
in	-3
▁the	-4
re	-5
on	-6
at	-7
en	-8
is	-9
▁o	-10
er	-11
▁w	-12
▁s	-13
it	-14
▁c	-15
ion	-16
or	-17
an	-18
▁p	-19
es	-20
▁of	-21
▁in	-22
▁to	-23
▁an	-24
▁f	-25
▁b	-26
ro	-27
al	-28
▁and	-29
ed	-30
ing	-31
▁m	-32
ar	-33
ent	-34
ou	-35
ic	-36
▁h	-37
▁re	-38
▁d	-39
le	-40
om	-41
ve	-42
▁n	-43
st	-44
▁be	-45
▁I	-46
▁is	-47
ct	-48
▁that	-49
il	-50
▁e	-51
ation	-52
pe	-53
as	-54
ly	-55
▁E	-56
ment	-57
▁for	-58
▁on	-59
ot	-60
▁T	-61
im	-62
▁wh	-63
ut	-64
▁we	-65
id	-66
▁l	-67
▁pro	-68
ur	-69
se	-70
ort	-71
▁C	-72
▁g	-73
▁M	-74
▁Th	-75
ol	-76
ce	-77
uro	-78
▁con	-79
▁al	-80
▁Euro	-81
un	-82
et	-83
▁it	-84
▁Europe	-85
ver	-86
port	-87
res	-88
▁this	-89
ul	-90
ra	-91
▁are	-92
ig	-93
▁as	-94
ld	-95
▁P	-96
▁ha	-97
▁de	-98
ith	-99
ow	-100
omm	-101
ch	-102
▁st	-103
ies	-104
▁with	-105
ate	-106
▁S	-107
ill	-108
▁European	-109
ould	-110
▁have	-111
▁su	-112
▁not	-113
ir	-114
▁The	-115
▁ne	-116
em	-117
ity	-118
sion	-119
op	-120
oun	-121
ive	-122
ay	-123
th	-124
ad	-125
us	-126
ers	-127
ble	-128
ke	-129
▁A	-130
ci	-131
ich	-132
ore	-133
▁im	-134
▁ex	-135
▁will	-136
ant	-137
os	-138
ust	-139
▁which	-140
ect	-141
ess	-142
▁v	-143
ter	-144
▁y	-145
▁Comm	-146
ia	-147
▁en	-148
igh	-149
▁by	-150
ain	-151
▁sh	-152
▁W	-153
▁r	-154
if	-155
qu	-156
ission	-157
▁ag	-158
est	-159
ge	-160
ber	-161
ere	-162
iv	-163
▁res	-164
▁has	-165
am	-166
▁-	-167
▁at	-168
our	-169
tr	-170
▁com	-171
ure	-172
art	-173
um	-174
▁U	-175
▁Commission	-176
▁le	-177
so	-178
▁all	-179
ions	-180
ight	-181
▁or	-182
und	-183
ident	-184
▁se	-185
▁Mr	-186
pp	-187
▁also	-188
ff	-189
▁wor	-190
rom	-191
od	-192
▁so	-193
▁Pres	-194
▁(	-195
ie	-196
ist	-197
el	-198
cial	-199
▁EU	-200
▁int	-201
▁Un	-202
ard	-203
and	-204
ates	-205
▁would	-206
▁reg	-207
▁me	-208
▁pol	-209
end	-210
▁do	-211
pport	-212
ud	-213
▁Mem	-214
▁St	-215
▁our	-216
▁from	-217
▁part	-218
▁fa	-219
▁can	-220
up	-221
very	-222
▁there	-223
▁ta	-224
▁President	-225
▁ad	-226
▁F	-227
▁should	-228
con	-229
▁We	-230
vel	-231
ree	-232
ations	-233
▁ch	-234
▁coun	-235
▁2	-236
▁must	-237
▁In	-238
use	-239
ult	-240
arl	-241
▁G	-242
ans	-243
▁H	-244
▁but	-245
▁am	-246
▁need	-247
▁Member	-248
cc	-249
▁B	-250
▁countr	-251
▁Union	-252
arlia	-253
arliament	-254
du	-255
▁go	-256
▁ab	-257
ue	-258
reat	-259
ally	-260
▁It	-261
ments	-262
ren	-263
all	-264
▁ma	-265
▁R	-266
▁inc	-267
ous	-268
pl	-269
out	-270
oc	-271
ome	-272
▁been	-273
▁report	-274
ance	-275
▁States	-276
ab	-277
ire	-278
ish	-279
▁import	-280
▁imp	-281
▁li	-282
▁tr	-283
▁Parliament	-284
▁co	-285
▁you	-286
king	-287
▁more	-288
ther	-289
▁dis	-290
▁j	-291
▁their	-292
ary	-293
▁fin	-294
ac	-295
▁right	-296
▁us	-297
si	-298
ast	-299
able	-300
▁cont	-301
▁un	-302
▁comm	-303
▁its	-304
gh	-305
▁like	-306
▁was	-307
ction	-308
▁20	-309
ical	-310
ose	-311
▁L	-312
ens	-313
conom	-314
ime	-315
▁This	-316
gy	-317
▁very	-318
cil	-319
▁cr	-320
▁pl	-321
▁prop	-322
ong	-323
▁app	-324
▁qu	-325
iti	-326
▁pr	-327
▁cons	-328
▁bec	-329
ational	-330
cy	-331
▁polic	-332
ear	-333
▁who	-334
▁pe	-335
tern	-336
▁D	-337
▁these	-338
fore	-339
▁econom	-340
pt	-341
ition	-342
▁support	-343
ial	-344
▁important	-345
ities	-346
ause	-347
ark	-348
▁pos	-349
ress	-350
▁eff	-351
▁1	-352
▁they	-353
velop	-354
▁O	-355
▁str	-356
▁countries	-357
ution	-358
▁comp	-359
▁man	-360
ated	-361
▁bet	-362
her	-363
▁work	-364
▁Coun	-365
▁conc	-366
ople	-367
▁acc	-368
▁Council	-369
for	-370
▁one	-371
ise	-372
get	-373
ces	-374
itt	-375
ence	-376
ll	-377
▁pre	-378
age	-379
ject	-380
▁new	-381
▁than	-382
pect	-383
▁out	-384
▁he	-385
▁about	-386
ide	-387
▁po	-388
▁cl	-389
ign	-390
bl	-391
▁vot	-392
▁other	-393
▁ind	-394
▁people	-395
▁develop	-396
ob	-397
▁propos	-398
ility	-399
ms	-400
ced	-401
int	-402
▁agree	-403
▁my	-404
ever	-405
▁und	-406
▁N	-407
▁spe	-408
▁sa	-409
ice	-410
are	-411
▁partic	-412
ag	-413
▁act	-414
▁year	-415
▁ra	-416
▁because	-417
one	-418
ep	-419
▁time	-420
▁tra	-421
ular	-422
▁up	-423
▁again	-424
arket	-425
ase	-426
cess	-427
▁policy	-428
▁only	-429
ieve	-430
▁leg	-431
▁what	-432
▁trans	-433
▁dec	-434
▁iss	-435
▁rec	-436
▁prov	-437
ern	-438
ord	-439
▁em	-440
▁under	-441
owever	-442
str	-443
ative	-444
ures	-445
ious	-446
ost	-447
ap	-448
ach	-449
og	-450
we	-451
▁ev	-452
fic	-453
▁market	-454
▁rights	-455
lear	-456
ip	-457
ib	-458
▁economic	-459
▁k	-460
▁dem	-461
▁rel	-462
me	-463
▁finan	-464
▁op	-465
erv	-466
form	-467
▁inv	-468
▁gro	-469
ine	-470
▁particular	-471
ention	-472
▁such	-473
ween	-474
▁produ	-475
▁between	-476
ame	-477
▁prot	-478
▁them	-479
ating	-480
▁bel	-481
pon	-482
ack	-483
ert	-484
uman	-485
▁into	-486
ink	-487
resent	-488
eren	-489
▁no	-490
▁now	-491
itiz	-492
lud	-493
▁if	-494
▁exp	-495
▁polit	-496
▁proposal	-497
irect	-498
▁fund	-499
ues	-500
▁sy	-501
ugh	-502
ian	-503
▁ob	-504
irst	-505
▁citiz	-506
xt	-507
ubl	-508
▁make	-509
sible	-510
act	-511
▁200	-512
▁ter	-513
▁take	-514
▁dif	-515
▁some	-516
▁ro	-517
ergy	-518
der	-519
▁protect	-520
ives	-521
ency	-522
▁respon	-523
eration	-524
ee	-525
▁those	-526
▁'	-527
▁any	-528
▁per	-529
stem	-530
▁citizens	-531
ace	-532
ards	-533
ade	-534
ict	-535
▁deb	-536
feren	-537
▁intern	-538
▁when	-539
ri	-540
▁proble	-541
vern	-542
lement	-543
▁therefore	-544
ural	-545
▁financial	-546
now	-547
▁fact	-548
stit	-549
▁human	-550
ov	-551
▁sub	-552
▁say	-553
▁ens	-554
eg	-555
day	-556
ks	-557
▁just	-558
▁clear	-559
ors	-560
▁concern	-561
ublic	-562
▁te	-563
▁sit	-564
▁appro	-565
▁incre	-566
▁over	-567
▁social	-568
ple	-569
▁meas	-570
▁being	-571
▁system	-572
▁against	-573
▁believe	-574
▁prog	-575
rent	-576
▁way	-577
▁cris	-578
▁energy	-579
rit	-580
▁point	-581
uation	-582
▁chan	-583
▁As	-584
unity	-585
rough	-586
▁political	-587
olution	-588
▁see	-589
ific	-590
▁bas	-591
de	-592
▁want	-593
ak	-594
ric	-595
▁many	-596
▁add	-597
▁rem	-598
▁disc	-599
rat	-600
sel	-601
▁crisis	-602
oy	-603
▁think	-604
▁were	-605
▁effect	-606
ual	-607
▁well	-608
▁requ	-609
▁However	-610
▁made	-611
▁know	-612
▁good	-613
▁quest	-614
▁great	-615
▁level	-616
▁There	-617
▁first	-618
▁la	-619
stru	-620
ision	-621
low	-622
iew	-623
▁includ	-624
mental	-625
ind	-626
▁att	-627
▁development	-628
lect	-629
ulation	-630
ices	-631
ised	-632
ful	-633
opt	-634
▁country	-635
▁Commissioner	-636
▁ent	-637
▁high	-638
ving	-639
▁order	-640
▁situation	-641
▁measures	-642
▁adopt	-643
isation	-644
▁ass	-645
udget	-646
▁cur	-647
ough	-648
▁use	-649
pet	-650
▁Wh	-651
ved	-652
uch	-653
ild	-654
▁Ch	-655
ism	-656
▁years	-657
uture	-658
uc	-659
▁implement	-660
ood	-661
▁sec	-662
▁direct	-663
▁ext	-664
▁mat	-665
▁future	-666
▁where	-667
iven	-668
▁national	-669
▁contin	-670
▁issue	-671
▁aut	-672
ety	-673
cept	-674
not	-675
▁coop	-676
wn	-677
read	-678
▁ensure	-679
utions	-680
ied	-681
▁J	-682
ry	-683
▁agreement	-684
▁through	-685
▁cre	-686
oth	-687
▁regard	-688
▁most	-689
▁debate	-690
▁sect	-691
▁result	-692
isl	-693
▁fe	-694
▁even	-695
ite	-696
▁today	-697
▁ac	-698
imate	-699
▁budget	-700
▁public	-701
▁same	-702
ittee	-703
ount	-704
ploy	-705
▁Mad	-706
ality	-707
▁every	-708
▁inform	-709
bers	-710
▁world	-711
wor	-712
iron	-713
urity	-714
▁rep	-715
▁compet	-716
ings	-717
▁tw	-718
ove	-719
arm	-720
▁here	-721
ertain	-722
ory	-723
uring	-724
▁legisl	-725
eur	-726
▁ach	-727
▁Madam	-728
alth	-729
ope	-730
viron	-731
cing	-732
▁call	-733
ram	-734
ass	-735
▁sign	-736
▁gen	-737
▁current	-738
▁neg	-739
▁strate	-740
▁possible	-741
reaty	-742
▁cannot	-743
▁sp	-744
▁impro	-745
▁hel	-746
▁area	-747
▁That	-748
▁exam	-749
▁long	-750
abl	-751
▁too	-752
▁consid	-753
erest	-754
▁govern	-755
▁respect	-756
▁democ	-757
▁protection	-758
men	-759
▁help	-760
ici	-761
ile	-762
▁ar	-763
▁could	-764
▁cooperation	-765
▁two	-766
▁beh	-767
▁cour	-768
omen	-769
▁end	-770
▁question	-771
orities	-772
ited	-773
reed	-774
▁law	-775
▁much	-776
▁does	-777
hip	-778
▁ful	-779
▁interest	-780
pporteur	-781
sib	-782
▁international	-783
ph	-784
▁how	-785
uss	-786
▁common	-787
ute	-788
▁fav	-789
ority	-790
▁vote	-791
▁prom	-792
▁gl	-793
▁rapporteur	-794
ready	-795
▁environ	-796
▁mon	-797
▁already	-798
▁auth	-799
▁set	-800
ail	-801
▁gu	-802
▁serv	-803
▁process	-804
ract	-805
▁voted	-806
trib	-807
▁said	-808
bon	-809
▁instit	-810
▁had	-811
▁certain	-812
▁both	-813
▁prev	-814
▁num	-815
▁redu	-816
▁your	-817
work	-818
▁view	-819
eral	-820
▁sol	-821
▁within	-822
itions	-823
▁tak	-824
▁put	-825
▁still	-826
▁On	-827
▁Treaty	-828
ges	-829
obal	-830
▁favour	-831
▁Gro	-832
▁own	-833
▁resolution	-834
▁writ	-835
▁consum	-836
ays	-837
come	-838
▁def	-839
▁conf	-840
▁region	-841
00	-842
ince	-843
▁necess	-844
▁ref	-845
▁car	-846
▁stand	-847
▁off	-848
▁saf	-849
▁security	-850
▁state	-851
ason	-852
▁sim	-853
▁change	-854
▁col	-855
▁K	-856
alf	-857
▁wel	-858
▁fra	-859
▁est	-860
▁differen	-861
▁invest	-862
▁writing	-863
▁cond	-864
▁amend	-865
▁main	-866
▁Committee	-867
▁dra	-868
▁hope	-869
▁health	-870
▁ser	-871
inci	-872
▁why	-873
cond	-874
▁sector	-875
oti	-876
▁course	-877
▁princi	-878
ene	-879
ential	-880
lu	-881
▁maj	-882
▁able	-883
▁reason	-884
▁opport	-885
entle	-886
▁min	-887
gan	-888
▁gentle	-889
urther	-890
▁information	-891
▁allow	-892
▁object	-893
▁case	-894
adies	-895
illion	-896
▁gentlemen	-897
▁negoti	-898
▁ke	-899
▁place	-900
ination	-901
oo	-902
te	-903
▁product	-904
arge	-905
▁group	-906
eth	-907
▁br	-908
▁last	-909
▁inter	-910
ec	-911
▁pers	-912
▁increas	-913
ration	-914
▁program	-915
▁Group	-916
ability	-917
▁Con	-918
▁women	-919
▁initi	-920
ty	-921
▁particularly	-922
itive	-923
▁V	-924
▁present	-925
▁global	-926
chn	-927
ules	-928
▁role	-929
▁problem	-930
▁necessary	-931
ablish	-932
▁des	-933
▁Mrs	-934
▁example	-935
▁effective	-936
▁indust	-937
▁action	-938
ources	-939
▁av	-940
ricult	-941
▁without	-942
▁issues	-943
▁trade	-944
▁equ	-945
▁appl	-946
▁provid	-947
arch	-948
ollow	-949
▁represent	-950
air	-951
▁needs	-952
▁thank	-953
▁taken	-954
isbon	-955
▁number	-956
▁lead	-957
mework	-958
▁establish	-959
▁real	-960
▁contrib	-961
▁require	-962
man	-963
ines	-964
▁means	-965
ft	-966
▁problems	-967
oura	-968
fter	-969
ves	-970
▁med	-971
▁areas	-972
▁invol	-973
▁Lisbon	-974
▁aim	-975
▁promot	-976
▁climate	-977
▁may	-978
red	-979
▁201	-980
iver	-981
pa	-982
▁sm	-983
cific	-984
ising	-985
ently	-986
ang	-987
▁pow	-988
▁better	-989
▁account	-990
▁techn	-991
own	-992
▁val	-993
▁grow	-994
▁ask	-995
▁rev	-996
pr	-997
▁aw	-998
▁strategy	-999
▁behalf	-1000
ning	-1001
sibility	-1002
▁det	-1003
ployment	-1004
▁effort	-1005
▁access	-1006
rodu	-1007
▁legal	-1008
ether	-1009
▁since	-1010
▁follow	-1011
reedom	-1012
▁pri	-1013
▁his	-1014
▁then	-1015
▁aff	-1016
▁deal	-1017
▁elect	-1018
▁inf	-1019
ficult	-1020
ird	-1021
▁If	-1022
▁difficult	-1023
ening	-1024
old	-1025
▁rules	-1026
▁For	-1027
▁child	-1028
▁consider	-1029
▁ladies	-1030
ound	-1031
ital	-1032
▁agricult	-1033
ouse	-1034
▁specific	-1035
▁form	-1036
fit	-1037
▁job	-1038
idency	-1039
gth	-1040
▁meet	-1041
DE	-1042
▁different	-1043
iness	-1044
amental	-1045
▁give	-1046
▁approach	-1047
ners	-1048
▁however	-1049
▁imm	-1050
▁project	-1051
20	-1052
▁institutions	-1053
stain	-1054
▁strong	-1055
ank	-1056
ell	-1057
▁serious	-1058
▁including	-1059
▁legislation	-1060
▁freedom	-1061
ession	-1062
▁terms	-1063
▁proced	-1064
ward	-1065
▁improve	-1066
land	-1067
▁welcome	-1068
▁3	-1069
▁organ	-1070
▁next	-1071
▁Min	-1072
▁framework	-1073
ately	-1074
wards	-1075
▁bene	-1076
ents	-1077
▁food	-1078
▁given	-1079
▁further	-1080
▁services	-1081
▁es	-1082
▁continue	-1083
arant	-1084
▁step	-1085
ug	-1086
▁So	-1087
▁loo	-1088
arity	-1089
▁directive	-1090
ting	-1091
racy	-1092
▁far	-1093
▁Members	-1094
▁sc	-1095
pecial	-1096
ss	-1097
▁opin	-1098
isions	-1099
▁whether	-1100
ered	-1101
▁before	-1102
imes	-1103
▁come	-1104
▁tax	-1105
▁progress	-1106
▁find	-1107
iol	-1108
▁guarant	-1109
▁increase	-1110
▁tal	-1111
▁instru	-1112
allen	-1113
▁economy	-1114
▁bus	-1115
▁cap	-1116
▁transport	-1117
▁cost	-1118
rength	-1119
oint	-1120
▁adopted	-1121
chan	-1122
▁fore	-1123
▁provide	-1124
ises	-1125
leg	-1126
ratic	-1127
▁decision	-1128
▁Se	-1129
self	-1130
▁fish	-1131
▁strength	-1132
▁pract	-1133
▁pay	-1134
iving	-1135
▁comple	-1136
▁after	-1137
ication	-1138
▁Presidency	-1139
▁hand	-1140
▁ess	-1141
▁resources	-1142
▁mention	-1143
▁matter	-1144
▁products	-1145
▁State	-1146
▁integ	-1147
▁Ag	-1148
▁crit	-1149
▁mod	-1150
▁ur	-1151
▁happ	-1152
▁achieve	-1153
min	-1154
▁contro	-1155
▁De	-1156
stand	-1157
pecially	-1158
▁rat	-1159
▁soci	-1160
▁exist	-1161
▁regulation	-1162
▁authorities	-1163
▁policies	-1164
▁challen	-1165
als	-1166
▁position	-1167
ran	-1168
ese	-1169
▁wish	-1170
▁ris	-1171
▁especially	-1172
ner	-1173
led	-1174
lusion	-1175
▁introdu	-1176
▁Pro	-1177
▁conditions	-1178
▁regul	-1179
ne	-1180
tain	-1181
▁plan	-1182
he	-1183
gether	-1184
▁towards	-1185
▁business	-1186
▁som	-1187
ten	-1188
ccess	-1189
▁small	-1190
▁basis	-1191
▁person	-1192
▁opportunity	-1193
▁start	-1194
▁proposals	-1195
▁commit	-1196
▁rese	-1197
▁fundamental	-1198
▁remain	-1199
▁importance	-1200
rant	-1201
▁done	-1202
ross	-1203
▁mem	-1204
▁working	-1205
▁get	-1206
▁sustain	-1207
ually	-1208
▁activ	-1209
▁compan	-1210
▁cor	-1211
▁going	-1212
▁forward	-1213
▁during	-1214
▁word	-1215
▁ed	-1216
▁viol	-1217
▁opinion	-1218
▁relations	-1219
▁signific	-1220
▁play	-1221
osed	-1222
▁back	-1223
▁An	-1224
▁aid	-1225
▁At	-1226
▁EUR	-1227
utes	-1228
▁Community	-1229
▁What	-1230
▁third	-1231
ared	-1232
▁success	-1233
▁few	-1234
▁used	-1235
▁United	-1236
▁implementation	-1237
▁addition	-1238
▁million	-1239
atives	-1240
▁effici	-1241
▁bu	-1242
ified	-1243
▁together	-1244
▁Fund	-1245
▁adv	-1246
▁safety	-1247
▁workers	-1248
▁subject	-1249
▁negotiations	-1250
ify	-1251
other	-1252
ily	-1253
▁pur	-1254
▁free	-1255
▁expl	-1256
▁supp	-1257
▁greater	-1258
▁lif	-1259
ata	-1260
▁three	-1261
ased	-1262
▁educ	-1263
mit	-1264
▁research	-1265
▁second	-1266
▁Af	-1267
▁transpa	-1268
▁Rom	-1269
ath	-1270
▁comb	-1271
▁essential	-1272
▁lab	-1273
ret	-1274
▁del	-1275
▁enc	-1276
▁show	-1277
▁whole	-1278
▁impact	-1279
▁funds	-1280
▁nat	-1281
av	-1282
selves	-1283
ogn	-1284
▁move	-1285
ivil	-1286
iod	-1287
▁based	-1288
arian	-1289
▁growth	-1290
▁really	-1291
▁House	-1292
imin	-1293
▁var	-1294
▁express	-1295
ases	-1296
sequ	-1297
ences	-1298
ivers	-1299
▁suff	-1300
▁efforts	-1301
▁attention	-1302
▁5	-1303
▁text	-1304
▁benefit	-1305
struct	-1306
overn	-1307
▁industry	-1308
▁fight	-1309
▁children	-1310
nov	-1311
ways	-1312
▁large	-1313
▁partners	-1314
▁accept	-1315
urn	-1316
▁reach	-1317
▁less	-1318
▁ins	-1319
▁oper	-1320
▁ide	-1321
▁recogn	-1322
▁responsibility	-1323
▁data	-1324
▁bring	-1325
▁discuss	-1326
▁power	-1327
▁major	-1328
▁tar	-1329
tic	-1330
▁democracy	-1331
▁colle	-1332
▁did	-1333
ists	-1334
▁significant	-1335
ivid	-1336
▁coh	-1337
▁while	-1338
ium	-1339
▁vis	-1340
▁achie	-1341
ension	-1342
▁become	-1343
▁speak	-1344
uct	-1345
les	-1346
▁environmental	-1347
▁clearly	-1348
ification	-1349
▁environment	-1350
▁ban	-1351
▁understand	-1352
▁creat	-1353
pri	-1354
▁Fin	-1355
▁control	-1356
▁Intern	-1357
ingle	-1358
▁commun	-1359
▁extre	-1360
▁making	-1361
▁These	-1362
▁prevent	-1363
▁society	-1364
▁standards	-1365
ick	-1366
▁principle	-1367
▁democratic	-1368
▁manage	-1369
ule	-1370
▁down	-1371
ened	-1372
▁another	-1373
rency	-1374
eri	-1375
▁address	-1376
ussia	-1377
▁consumers	-1378
oney	-1379
ething	-1380
▁interests	-1381
▁internal	-1382
▁ca	-1383
▁They	-1384
ged	-1385
▁cult	-1386
▁increasing	-1387
▁prep	-1388
▁pass	-1389
ible	-1390
▁Pol	-1391
▁regions	-1392
ror	-1393
▁ple	-1394
▁euro	-1395
▁air	-1396
▁positive	-1397
▁affect	-1398
idarity	-1399
ussion	-1400
ples	-1401
ral	-1402
▁look	-1403
ances	-1404
▁taking	-1405
▁pop	-1406
▁something	-1407
▁4	-1408
istr	-1409
▁encoura	-1410
▁assist	-1411
▁bl	-1412
▁loc	-1413
▁money	-1414
ness	-1415
▁coord	-1416
▁cent	-1417
▁least	-1418
▁proposed	-1419
ically	-1420
cies	-1421
ech	-1422
▁Am	-1423
▁expect	-1424
▁education	-1425
▁Direct	-1426
olog	-1427
▁agricultural	-1428
▁programme	-1429
▁general	-1430
▁dep	-1431
gest	-1432
▁among	-1433
▁opp	-1434
ics	-1435
ina	-1436
▁care	-1437
▁always	-1438
▁fail	-1439
▁pres	-1440
▁civil	-1441
▁read	-1442
▁abs	-1443
▁Russia	-1444
▁Ar	-1445
bour	-1446
▁force	-1447
▁employment	-1448
▁rece	-1449
ialog	-1450
▁demand	-1451
▁agreements	-1452
▁companies	-1453
▁Al	-1454
ining	-1455
ext	-1456
ater	-1457
ocus	-1458
▁month	-1459
▁once	-1460
▁Is	-1461
▁Tur	-1462
▁quality	-1463
▁innov	-1464
▁target	-1465
▁key	-1466
▁jobs	-1467
▁fully	-1468
aly	-1469
▁recent	-1470
▁short	-1471
▁enter	-1472
▁concerned	-1473
▁discussion	-1474
▁appropri	-1475
▁bord	-1476
ined	-1477
▁production	-1478
▁lim	-1479
▁focus	-1480
▁bal	-1481
com	-1482
▁emph	-1483
▁various	-1484
▁each	-1485
▁objectives	-1486
▁full	-1487
▁her	-1488
▁period	-1489
▁individ	-1490
▁19	-1491
ages	-1492
▁treat	-1493
light	-1494
fort	-1495
▁best	-1496
▁wee	-1497
▁Therefore	-1498
▁non	-1499
▁itself	-1500
▁extreme	-1501
▁ap	-1502
▁Govern	-1503
igration	-1504
▁things	-1505
▁fam	-1506
ialogue	-1507
▁colleag	-1508
aking	-1509
▁pack	-1510
'.	-1511
gin	-1512
▁life	-1513
▁solution	-1514
issions	-1515
iveness	-1516
ference	-1517
▁concerns	-1518
▁close	-1519
ging	-1520
▁Rep	-1521
▁assess	-1522
▁sustainable	-1523
airs	-1524
▁let	-1525
▁farm	-1526
esion	-1527
ister	-1528
▁inst	-1529
▁el	-1530
eed	-1531
▁amendments	-1532
▁Reg	-1533
▁emphas	-1534
▁risk	-1535
▁individual	-1536
▁developing	-1537
▁aspect	-1538
▁open	-1539
eng	-1540
▁create	-1541
▁context	-1542
uge	-1543
itted	-1544
▁guarantee	-1545
▁mil	-1546
▁press	-1547
▁groups	-1548
▁2009	-1549
ensive	-1550
▁Str	-1551
▁words	-1552
▁yet	-1553
epend	-1554
▁sch	-1555
ung	-1556
ck	-1557
▁ph	-1558
▁government	-1559
▁avail	-1560
irm	-1561
vention	-1562
▁often	-1563
▁markets	-1564
ield	-1565
ators	-1566
▁systems	-1567
ron	-1568
cu	-1569
▁sur	-1570
round	-1571
ending	-1572
▁having	-1573
▁experi	-1574
verty	-1575
fortun	-1576
▁regional	-1577
aps	-1578
▁currently	-1579
▁Afric	-1580
▁single	-1581
though	-1582
▁members	-1583
raph	-1584
▁results	-1585
▁solidarity	-1586
▁All	-1587
▁programm	-1588
▁fel	-1589
most	-1590
▁draft	-1591
▁Government	-1592
▁initiative	-1593
▁mechan	-1594
▁rather	-1595
ering	-1596
▁cred	-1597
▁Bar	-1598
▁accord	-1599
▁priv	-1600
ulate	-1601
ts	-1602
▁comprom	-1603
oung	-1604
▁consequ	-1605
row	-1606
itor	-1607
▁build	-1608
▁involved	-1609
▁following	-1610
▁amb	-1611
▁management	-1612
▁states	-1613
ier	-1614
▁Directive	-1615
▁actually	-1616
▁occ	-1617
▁request	-1618
▁package	-1619
▁dialogue	-1620
▁cong	-1621
▁terror	-1622
▁With	-1623
▁though	-1624
▁compl	-1625
thing	-1626
▁try	-1627
▁resol	-1628
ended	-1629
ania	-1630
▁ann	-1631
▁parliament	-1632
ably	-1633
▁harm	-1634
0%	-1635
▁young	-1636
▁congrat	-1637
▁points	-1638
▁name	-1639
▁labour	-1640
▁mot	-1641
▁sum	-1642
▁challenges	-1643
▁poverty	-1644
▁competition	-1645
▁transparency	-1646
▁exce	-1647
ave	-1648
▁funding	-1649
ourt	-1650
uclear	-1651
ministr	-1652
cise	-1653
sw	-1654
▁recomm	-1655
▁legislative	-1656
▁costs	-1657
▁majority	-1658
▁Let	-1659
▁independ	-1660
▁To	-1661
▁struct	-1662
ply	-1663
▁ret	-1664
▁docu	-1665
▁Part	-1666
▁mentioned	-1667
▁objective	-1668
▁available	-1669
▁ago	-1670
▁cohesion	-1671
▁Court	-1672
empt	-1673
▁procedure	-1674
ternal	-1675
▁peace	-1676
▁extremely	-1677
▁complete	-1678
▁needed	-1679
ead	-1680
orth	-1681
▁answ	-1682
▁reform	-1683
road	-1684
▁US	-1685
▁particip	-1686
▁En	-1687
▁cases	-1688
▁stat	-1689
▁found	-1690
▁local	-1691
▁concerning	-1692
▁projects	-1693
▁pot	-1694
▁principles	-1695
▁commitment	-1696
ees	-1697
▁strateg	-1698
lict	-1699
▁programmes	-1700
ling	-1701
▁First	-1702
ims	-1703
▁low	-1704
▁caus	-1705
equ	-1706
fortunately	-1707
▁feel	-1708
▁conclusion	-1709
▁proper	-1710
▁stress	-1711
▁2008	-1712
▁rele	-1713
▁mar	-1714
its	-1715
▁sure	-1716
▁vict	-1717
ock	-1718
line	-1719
▁field	-1720
▁emissions	-1721
▁responsible	-1722
▁obl	-1723
atory	-1724
▁simply	-1725
▁mob	-1726
▁mean	-1727
orm	-1728
▁seem	-1729
▁apply	-1730
▁list	-1731
▁joint	-1732
idence	-1733
mber	-1734
▁lack	-1735
▁oblig	-1736
▁priority	-1737
▁assistance	-1738
▁sever	-1739
oub	-1740
▁investment	-1741
▁quite	-1742
▁2020	-1743
▁decisions	-1744
▁activities	-1745
▁6	-1746
▁conv	-1747
▁monitor	-1748
▁regarding	-1749
▁months	-1750
▁China	-1751
▁facil	-1752
▁threat	-1753
▁promote	-1754
▁nuclear	-1755
▁draw	-1756
▁fl	-1757
▁Gree	-1758
ake	-1759
▁response	-1760
▁appropriate	-1761
▁begin	-1762
▁due	-1763
▁instruments	-1764
emoc	-1765
term	-1766
▁Finally	-1767
ibility	-1768
FR	-1769
▁cru	-1770
▁administr	-1771
▁several	-1772
▁aware	-1773
imination	-1774
ix	-1775
▁review	-1776
▁compromise	-1777
ters	-1778
thers	-1779
urd	-1780
▁Bel	-1781
over	-1782
ived	-1783
▁pat	-1784
▁kind	-1785
▁subst	-1786
▁keep	-1787
ense	-1788
▁questions	-1789
▁fle	-1790
▁recommend	-1791
▁values	-1792
ogy	-1793
▁conflict	-1794
▁constit	-1795
iter	-1796
reen	-1797
▁reduce	-1798
▁population	-1799
▁appe	-1800
▁demon	-1801
hing	-1802
ub	-1803
▁shall	-1804
▁fellow	-1805
▁times	-1806
▁war	-1807
igin	-1808
erman	-1809
▁certainly	-1810
▁trad	-1811
ption	-1812
▁urg	-1813
illeg	-1814
▁road	-1815
▁special	-1816
▁integration	-1817
▁Sch	-1818
▁ident	-1819
▁thing	-1820
atic	-1821
▁meeting	-1822
haps	-1823
▁par	-1824
▁illeg	-1825
ights	-1826
anced	-1827
ond	-1828
enda	-1829
less	-1830
oid	-1831
key	-1832
▁disp	-1833
▁fair	-1834
▁provided	-1835
ology	-1836
▁Hung	-1837
PL	-1838
sp	-1839
kes	-1840
000	-1841
ides	-1842
▁demonstr	-1843
▁origin	-1844
▁parties	-1845
▁achieved	-1846
ression	-1847
▁excell	-1848
vious	-1849
▁doing	-1850
mb	-1851
utional	-1852
▁true	-1853
wh	-1854
▁8	-1855
▁pleased	-1856
vant	-1857
ection	-1858
▁others	-1859
▁entire	-1860
▁enough	-1861
▁exc	-1862
▁7	-1863
▁sup	-1864
ighbour	-1865
▁disast	-1866
▁But	-1867
▁farmers	-1868
▁Aff	-1869
itting	-1870
▁Affairs	-1871
▁foreign	-1872
▁include	-1873
edi	-1874
unities	-1875
▁prices	-1876
▁eas	-1877
▁day	-1878
encies	-1879
▁maintain	-1880
▁creation	-1881
eria	-1882
erous	-1883
▁stud	-1884
▁Turkey	-1885
▁potential	-1886
▁consumer	-1887
olute	-1888
▁Social	-1889
▁tot	-1890
▁actions	-1891
▁themselves	-1892
aged	-1893
▁amendment	-1894
ceed	-1895
▁billion	-1896
▁sug	-1897
▁never	-1898
▁2010	-1899
▁crucial	-1900
io	-1901
side	-1902
▁violence	-1903
▁indeed	-1904
ale	-1905
▁fisher	-1906
itarian	-1907
▁mult	-1908
▁absolute	-1909
▁increased	-1910
ted	-1911
▁final	-1912
ctions	-1913
▁changes	-1914
▁matters	-1915
▁hist	-1916
▁German	-1917
▁stability	-1918
▁consequences	-1919
IT	-1920
imum	-1921
▁reasons	-1922
▁enterpr	-1923
▁contain	-1924
eless	-1925
ilities	-1926
▁innovation	-1927
▁2007	-1928
▁ear	-1929
▁cut	-1930
ither	-1931
▁cross	-1932
▁rest	-1933
▁existing	-1934
▁000	-1935
ants	-1936
▁mom	-1937
new	-1938
sid	-1939
ried	-1940
▁Rights	-1941
▁conclud	-1942
▁net	-1943
▁industr	-1944
▁pa	-1945
▁quick	-1946
fully	-1947
▁discr	-1948
▁Democ	-1949
▁highlight	-1950
▁10	-1951
▁efficiency	-1952
por	-1953
▁regards	-1954
ru	-1955
▁depend	-1956
▁avoid	-1957
istan	-1958
▁Re	-1959
▁broad	-1960
▁link	-1961
ticle	-1962
isations	-1963
▁Second	-1964
ember	-1965
▁idea	-1966
▁comes	-1967
by	-1968
▁above	-1969
ean	-1970
▁medium	-1971
▁requirements	-1972
▁dr	-1973
ians	-1974
osition	-1975
▁past	-1976
▁territ	-1977
▁governments	-1978
▁ele	-1979
▁Republic	-1980
▁soon	-1981
▁ve	-1982
▁relation	-1983
▁seen	-1984
▁congratulate	-1985
▁longer	-1986
▁bod	-1987
▁contribution	-1988
▁Minutes	-1989
▁Bal	-1990
▁moment	-1991
▁elections	-1992
uel	-1993
strict	-1994
▁excellent	-1995
▁gas	-1996
▁cho	-1997
▁amount	-1998
▁hon	-1999
orrow	-2000
▁procedures	-2001
▁opportunities	-2002
▁refer	-2003
▁jud	-2004
▁previous	-2005
aring	-2006
▁gener	-2007
unction	-2008
▁instrument	-2009
ison	-2010
▁emer	-2011
iting	-2012
▁sci	-2013
ateral	-2014
▁aspects	-2015
▁everyone	-2016
▁voting	-2017
▁application	-2018
▁regulations	-2019
▁decl	-2020
▁competit	-2021
iance	-2022
▁mind	-2023
ledge	-2024
▁ensuring	-2025
▁reports	-2026
▁One	-2027
▁value	-2028
▁integr	-2029
▁active	-2030
til	-2031
▁talk	-2032
▁East	-2033
▁face	-2034
▁Sw	-2035
▁agreed	-2036
▁priorities	-2037
▁restrict	-2038
▁My	-2039
▁Minister	-2040
▁provisions	-2041
▁tas	-2042
outh	-2043
▁wast	-2044
▁share	-2045
▁Sp	-2046
ring	-2047
reland	-2048
rist	-2049
▁equal	-2050
▁Ireland	-2051
iz	-2052
▁prof	-2053
▁encourage	-2054
▁criteria	-2055
▁using	-2056
ilateral	-2057
conomic	-2058
▁across	-2059
▁businesses	-2060
▁victims	-2061
▁governance	-2062
pite	-2063
▁illegal	-2064
▁external	-2065
▁might	-2066
▁employ	-2067
▁renew	-2068
▁enterprises	-2069
▁ty	-2070
▁around	-2071
ned	-2072
iation	-2073
▁Our	-2074
ffic	-2075
fer	-2076
▁grant	-2077
▁line	-2078
▁He	-2079
▁technolog	-2080
ittle	-2081
▁term	-2082
▁Develop	-2083
▁rule	-2084
irc	-2085
▁continu	-2086
▁meth	-2087
▁partnership	-2088
▁offic	-2089
▁week	-2090
itary	-2091
soci	-2092
▁makes	-2093
▁simpl	-2094
beral	-2095
▁capital	-2096
▁9	-2097
▁little	-2098
▁item	-2099
▁supported	-2100
▁living	-2101
vere	-2102
▁Wor	-2103
▁organisations	-2104
▁suggest	-2105
▁circ	-2106
▁dist	-2107
▁tack	-2108
▁indic	-2109
▁Thank	-2110
▁wr	-2111
▁practice	-2112
▁hard	-2113
▁method	-2114
▁harmon	-2115
▁agenda	-2116
▁immedi	-2117
▁stop	-2118
▁obvious	-2119
cr	-2120
uly	-2121
ires	-2122
▁purp	-2123
▁strengthen	-2124
▁neighbour	-2125
▁adoption	-2126
',	-2127
▁relating	-2128
▁competitiveness	-2129
▁doub	-2130
▁colleagues	-2131
▁lear	-2132
▁required	-2133
reh	-2134
ief	-2135
fact	-2136
▁Article	-2137
▁bo	-2138
kra	-2139
▁solutions	-2140
▁along	-2141
▁natural	-2142
icient	-2143
▁deter	-2144
▁Development	-2145
▁UN	-2146
▁dang	-2147
▁carried	-2148
▁private	-2149
▁vital	-2150
▁corre	-2151
▁perhaps	-2152
▁flex	-2153
force	-2154
▁mess	-2155
▁speech	-2156
▁him	-2157
▁Agree	-2158
▁respond	-2159
▁four	-2160
▁thus	-2161
▁reduction	-2162
▁14	-2163
▁additional	-2164
ffice	-2165
▁supply	-2166
▁talking	-2167
▁agriculture	-2168
▁nothing	-2169
▁reject	-2170
▁defin	-2171
▁borders	-2172
▁turn	-2173
▁technical	-2174
▁post	-2175
▁balance	-2176
▁tom	-2177
▁Africa	-2178
rastruct	-2179
▁enable	-2180
▁mis	-2181
▁More	-2182
▁obs	-2183
▁Mon	-2184
▁detail	-2185
▁initiatives	-2186
angu	-2187
▁anim	-2188
▁basic	-2189
iversity	-2190
▁strategic	-2191
▁throughout	-2192
▁Ukra	-2193
▁death	-2194
▁quickly	-2195
itious	-2196
▁levels	-2197
▁tomorrow	-2198
erb	-2199
igrant	-2200
▁infrastruct	-2201
▁When	-2202
▁training	-2203
lov	-2204
ols	-2205
ided	-2206
▁model	-2207
▁jo	-2208
rup	-2209
),	-2210
▁unem	-2211
aced	-2212
rats	-2213
yl	-2214
just	-2215
▁char	-2216
▁cultural	-2217
▁hold	-2218
ven	-2219
▁Secondly	-2220
▁answer	-2221
▁coordin	-2222
▁repe	-2223
apt	-2224
▁although	-2225
▁Greece	-2226
az	-2227
▁financing	-2228
▁top	-2229
▁committee	-2230
▁absolutely	-2231
▁live	-2232
▁goods	-2233
▁community	-2234
istic	-2235
▁accession	-2236
).	-2237
▁dut	-2238
▁huge	-2239
▁coming	-2240
▁discrimination	-2241
▁saying	-2242
▁vol	-2243
▁she	-2244
▁monitoring	-2245
▁contribute	-2246
atis	-2247
▁effects	-2248
▁dire	-2249
▁tell	-2250
▁waste	-2251
▁immigration	-2252
▁traffic	-2253
▁until	-2254
▁International	-2255
▁Ind	-2256
▁implemented	-2257
▁namely	-2258
▁everything	-2259
EP	-2260
▁ambitious	-2261
ti	-2262
▁dest	-2263
▁author	-2264
▁service	-2265
▁sitting	-2266
▁powers	-2267
▁conn	-2268
▁precise	-2269
EC	-2270
▁Roma	-2271
▁ever	-2272
▁analy	-2273
▁affected	-2274
forms	-2275
▁clos	-2276
▁mand	-2277
▁thanks	-2278
▁carry	-2279
▁superv	-2280
hold	-2281
▁leaders	-2282
▁langu	-2283
▁aimed	-2284
▁Agreement	-2285
▁coordination	-2286
▁big	-2287
▁subsid	-2288
erial	-2289
▁fishing	-2290
▁creating	-2291
reg	-2292
▁seems	-2293
▁No	-2294
▁pressure	-2295
▁Slov	-2296
▁red	-2297
oh	-2298
▁military	-2299
▁Port	-2300
siz	-2301
▁Just	-2302
▁facilit	-2303
▁consult	-2304
▁treatment	-2305
▁reached	-2306
▁12	-2307
▁price	-2308
TO	-2309
▁relig	-2310
▁consist	-2311
▁providing	-2312
eric	-2313
▁humanitarian	-2314
rael	-2315
▁crimin	-2316
▁asked	-2317
▁eng	-2318
▁Med	-2319
▁Cent	-2320
▁los	-2321
ends	-2322
▁communication	-2323
▁attempt	-2324
rench	-2325
▁lot	-2326
▁tabl	-2327
la	-2328
▁document	-2329
acy	-2330
▁capac	-2331
▁direction	-2332
▁Fr	-2333
▁reflect	-2334
▁sectors	-2335
vers	-2336
▁terrorism	-2337
▁involve	-2338
▁assessment	-2339
uine	-2340
200	-2341
▁regret	-2342
▁Iran	-2343
▁influ	-2344
aration	-2345
order	-2346
▁held	-2347
▁Strate	-2348
sized	-2349
▁outside	-2350
▁improving	-2351
▁ourselves	-2352
▁pen	-2353
▁Or	-2354
▁media	-2355
une	-2356
▁water	-2357
▁test	-2358
ender	-2359
▁Americ	-2360
▁ground	-2361
▁dam	-2362
▁Israel	-2363
▁fall	-2364
▁Portug	-2365
▁hear	-2366
▁wa	-2367
ilar	-2368
▁old	-2369
ME	-2370
▁passeng	-2371
▁closed	-2372
▁gr	-2373
ograph	-2374
PT	-2375
▁exchan	-2376
ator	-2377
▁called	-2378
▁And	-2379
▁Barro	-2380
▁included	-2381
▁summit	-2382
▁compreh	-2383
▁correct	-2384
▁sense	-2385
▁relevant	-2386
▁mechanism	-2387
▁cam	-2388
more	-2389
▁export	-2390
▁bre	-2391
▁opt	-2392
▁recently	-2393
pid	-2394
▁Le	-2395
▁promoting	-2396
ES	-2397
▁eval	-2398
▁offer	-2399
▁French	-2400
itten	-2401
▁effectively	-2402
rought	-2403
▁Tr	-2404
unch	-2405
▁Sec	-2406
▁movement	-2407
ished	-2408
▁function	-2409
▁attack	-2410
▁Tra	-2411
▁men	-2412
▁efficient	-2413
sels	-2414
▁15	-2415
cember	-2416
ote	-2417
▁five	-2418
▁er	-2419
▁lives	-2420
▁measure	-2421
▁experience	-2422
▁dom	-2423
▁travel	-2424
▁December	-2425
▁dev	-2426
▁justice	-2427
▁possibility	-2428
isms	-2429
▁remind	-2430
▁budgetary	-2431
The	-2432
▁scient	-2433
▁nature	-2434
estic	-2435
▁Democrats	-2436
oday	-2437
▁benefits	-2438
▁reality	-2439
▁challenge	-2440
▁Today	-2441
overy	-2442
▁Prog	-2443
▁completely	-2444
▁associ	-2445
border	-2446
▁Further	-2447
▁return	-2448
▁Ge	-2449
▁total	-2450
▁Can	-2451
▁almost	-2452
▁Now	-2453
▁according	-2454
▁burd	-2455
▁light	-2456
▁combat	-2457
▁fisheries	-2458
ylum	-2459
ars	-2460
mitted	-2461
RO	-2462
aper	-2463
▁Regulation	-2464
rupt	-2465
▁reforms	-2466
▁visa	-2467
▁becom	-2468
duct	-2469
egu	-2470
▁provides	-2471
iterran	-2472
▁presented	-2473
▁remains	-2474
iterranean	-2475
▁family	-2476
▁message	-2477
▁strengthening	-2478
▁infrastructure	-2479
▁Cz	-2480
arus	-2481
▁decided	-2482
▁agencies	-2483
▁Strategy	-2484
▁supporting	-2485
iable	-2486
▁except	-2487
▁produc	-2488
hic	-2489
▁penal	-2490
▁targets	-2491
ications	-2492
▁Romania	-2493
▁Ex	-2494
▁Of	-2495
▁established	-2496
omp	-2497
▁safegu	-2498
▁alloc	-2499
▁calls	-2500
▁whose	-2501
▁applied	-2502
▁Belarus	-2503
▁purs	-2504
▁developed	-2505
▁reducing	-2506
▁age	-2507
▁head	-2508
theless	-2509
▁received	-2510
▁administrative	-2511
▁land	-2512
▁met	-2513
sibilities	-2514
▁comprehensive	-2515
▁Ukraine	-2516
▁left	-2517
igrants	-2518
▁regime	-2519
Office	-2520
▁Czech	-2521
▁Ad	-2522
▁industrial	-2523
▁adapt	-2524
▁pati	-2525
▁motion	-2526
▁MEP	-2527
pective	-2528
▁heard	-2529
ional	-2530
▁firm	-2531
▁combating	-2532
▁Internet	-2533
▁vehic	-2534
▁undert	-2535
org	-2536
arily	-2537
▁statement	-2538
▁green	-2539
▁committed	-2540
▁Pe	-2541
accept	-2542
ys	-2543
▁Man	-2544
▁arg	-2545
▁mor	-2546
▁deep	-2547
▁prepared	-2548
▁statements	-2549
▁satis	-2550
▁guid	-2551
itional	-2552
▁task	-2553
▁steps	-2554
▁collect	-2555
▁either	-2556
▁rate	-2557
▁technology	-2558
▁Europeans	-2559
▁leave	-2560
▁cla	-2561
▁circum	-2562
▁brought	-2563
▁implementing	-2564
dict	-2565
▁days	-2566
▁explo	-2567
▁events	-2568
▁finally	-2569
app	-2570
▁liberal	-2571
▁weak	-2572
▁doubt	-2573
▁credit	-2574
▁unaccept	-2575
▁run	-2576
ially	-2577
▁crime	-2578
▁capacity	-2579
lf	-2580
▁personal	-2581
▁six	-2582
▁Firstly	-2583
▁equality	-2584
▁Swed	-2585
▁knowledge	-2586
af	-2587
▁san	-2588
▁SME	-2589
▁mut	-2590
▁self	-2591
▁modern	-2592
auc	-2593
▁facing	-2594
▁independent	-2595
inking	-2596
▁stage	-2597
▁shown	-2598
▁obtain	-2599
▁Convention	-2600
▁Furthermore	-2601
▁giving	-2602
▁counter	-2603
ourable	-2604
▁unacceptable	-2605
▁successful	-2606
▁May	-2607
Euro	-2608
▁behind	-2609
▁analys	-2610
▁deleg	-2611
▁adequ	-2612
ash	-2613
▁unemployment	-2614
▁enh	-2615
▁requires	-2616
rete	-2617
▁provision	-2618
▁famil	-2619
▁raised	-2620
▁parliamentary	-2621
▁oil	-2622
▁conduct	-2623
aff	-2624
▁rural	-2625
▁tabled	-2626
ppl	-2627
ulg	-2628
▁gra	-2629
▁rapporteurs	-2630
▁Li	-2631
▁cause	-2632
▁Bank	-2633
▁referen	-2634
▁27	-2635
▁created	-2636
▁genuine	-2637
entions	-2638
▁expressed	-2639
▁represents	-2640
▁sent	-2641
▁altern	-2642
ange	-2643
to	-2644
▁representatives	-2645
▁rein	-2646
imately	-2647
▁concrete	-2648
uted	-2649
alled	-2650
▁Unfortunately	-2651
▁took	-2652
▁investig	-2653
▁technologies	-2654
▁minimum	-2655
▁emphasise	-2656
▁profession	-2657
▁dise	-2658
▁Br	-2659
uth	-2660
▁bar	-2661
▁Brit	-2662
▁poor	-2663
▁critic	-2664
yond	-2665
Europe	-2666
erve	-2667
etary	-2668
▁contract	-2669
▁spo	-2670
▁discussions	-2671
▁Human	-2672
▁caused	-2673
▁material	-2674
▁border	-2675
▁upon	-2676
▁Barroso	-2677
▁economies	-2678
ons	-2679
arter	-2680
▁sources	-2681
▁introduction	-2682
▁2006	-2683
▁exchange	-2684
▁similar	-2685
▁banks	-2686
▁receive	-2687
▁asylum	-2688
▁away	-2689
▁culture	-2690
itation	-2691
▁takes	-2692
▁criminal	-2693
know	-2694
▁prim	-2695
▁commitments	-2696
hood	-2697
▁scho	-2698
▁event	-2699
▁EC	-2700
▁competitive	-2701
sec	-2702
▁circumst	-2703
▁recovery	-2704
erate	-2705
▁activity	-2706
▁fig	-2707
▁scope	-2708
▁Pr	-2709
istics	-2710
▁Party	-2711
▁closely	-2712
go	-2713
▁11	-2714
▁confidence	-2715
▁Ne	-2716
▁Bulg	-2717
▁Georg	-2718
pplause	-2719
Applause	-2720
▁producers	-2721
▁aims	-2722
▁rail	-2723
▁rise	-2724
▁Mediterranean	-2725
▁higher	-2726
▁difficulties	-2727
▁June	-2728
ton	-2729
▁France	-2730
▁condem	-2731
▁extent	-2732
▁mobility	-2733
ying	-2734
engen	-2735
▁const	-2736
▁schem	-2737
▁Ir	-2738
▁vo	-2739
▁side	-2740
▁trying	-2741
▁official	-2742
action	-2743
▁transparent	-2744
mp	-2745
ousand	-2746
agraph	-2747
way	-2748
▁Italy	-2749
▁instead	-2750
▁pension	-2751
▁mass	-2752
▁beyond	-2753
▁Economic	-2754
▁mechanisms	-2755
▁Prot	-2756
▁advant	-2757
▁negative	-2758
▁Christ	-2759
▁expert	-2760
olid	-2761
resident	-2762
ex	-2763
▁achieving	-2764
ufact	-2765
▁scientific	-2766
▁ver	-2767
▁unfortunately	-2768
▁colleague	-2769
▁design	-2770
▁Schengen	-2771
▁Be	-2772
▁cover	-2773
▁SMEs	-2774
▁construct	-2775
▁circumstances	-2776
▁plans	-2777
▁despite	-2778
▁ir	-2779
▁Nations	-2780
▁South	-2781
▁Central	-2782
▁2011	-2783
▁Vice	-2784
itime	-2785
aria	-2786
ource	-2787
▁precisely	-2788
▁convin	-2789
▁Hungarian	-2790
▁discussed	-2791
▁establishing	-2792
▁practices	-2793
open	-2794
▁note	-2795
▁rapid	-2796
▁weeks	-2797
NL	-2798
▁else	-2799
▁shows	-2800
▁Amend	-2801
val	-2802
▁Germany	-2803
▁Agency	-2804
▁increasingly	-2805
wise	-2806
▁worth	-2807
udit	-2808
ively	-2809
▁Sea	-2810
portion	-2811
201	-2812
▁CO	-2813
▁thousand	-2814
▁Irish	-2815
imension	-2816
President	-2817
▁duty	-2818
▁awa	-2819
▁forces	-2820
▁history	-2821
▁Moreover	-2822
▁trust	-2823
▁People	-2824
▁anti	-2825
▁defence	-2826
▁fulf	-2827
▁Justice	-2828
▁launch	-2829
elines	-2830
▁opposition	-2831
agen	-2832
▁fri	-2833
▁Cons	-2834
struction	-2835
▁accordance	-2836
▁calling	-2837
▁yes	-2838
▁home	-2839
▁paid	-2840
ban	-2841
▁manufact	-2842
▁considered	-2843
▁cod	-2844
▁wrong	-2845
estern	-2846
▁recon	-2847
▁status	-2848
▁half	-2849
▁complex	-2850
▁standard	-2851
▁wanted	-2852
▁strongly	-2853
▁proceed	-2854
▁recommendations	-2855
▁remember	-2856
▁substant	-2857
▁renewable	-2858
▁properly	-2859
▁Poland	-2860
sian	-2861
roat	-2862
▁allowed	-2863
▁Last	-2864
▁forget	-2865
▁integrated	-2866
▁seek	-2867
▁happen	-2868
▁qual	-2869
▁early	-2870
▁beginning	-2871
▁chec	-2872
▁central	-2873
▁Serb	-2874
▁highly	-2875
▁prison	-2876
▁purpose	-2877
▁lat	-2878
lines	-2879
acc	-2880
▁quot	-2881
▁participation	-2882
▁Ladies	-2883
▁produce	-2884
idd	-2885
▁199	-2886
▁Jan	-2887
uations	-2888
▁balanced	-2889
▁risks	-2890
▁improved	-2891
▁relationship	-2892
▁impos	-2893
▁explain	-2894
▁loss	-2895
ifying	-2896
European	-2897
▁safeguard	-2898
hagen	-2899
ercial	-2900
▁clar	-2901
▁World	-2902
openhagen	-2903
▁recognise	-2904
lus	-2905
inding	-2906
▁territor	-2907
▁nor	-2908
ulner	-2909
sman	-2910
▁legit	-2911
▁directly	-2912
▁overall	-2913
▁Copenhagen	-2914
▁eth	-2915
dum	-2916
▁extra	-2917
▁decide	-2918
▁sufficient	-2919
▁sens	-2920
▁migration	-2921
▁cle	-2922
▁looking	-2923
▁conclusions	-2924
▁independence	-2925
▁Market	-2926
▁Croat	-2927
▁bodies	-2928
▁forms	-2929
▁specifically	-2930
idents	-2931
▁sanctions	-2932
▁Ha	-2933
▁Kos	-2934
▁ways	-2935
▁urgent	-2936
▁vulner	-2937
illions	-2938
ties	-2939
▁MEPs	-2940
▁disaster	-2941
▁defend	-2942
paign	-2943
▁concept	-2944
▁mandate	-2945
▁paragraph	-2946
▁ge	-2947
endit	-2948
▁limit	-2949
ush	-2950
▁content	-2951
ensus	-2952
▁How	-2953
▁disch	-2954
▁approved	-2955
▁discussing	-2956
▁mov	-2957
▁transfer	-2958
▁Kosov	-2959
ustom	-2960
▁Although	-2961
▁growing	-2962
▁introduce	-2963
▁25	-2964
▁Trans	-2965
▁distrib	-2966
unt	-2967
▁Action	-2968
▁refuge	-2969
▁dimension	-2970
▁di	-2971
ously	-2972
vereign	-2973
▁argu	-2974
par	-2975
▁profit	-2976
isters	-2977
▁campaign	-2978
▁sovereign	-2979
ured	-2980
▁sk	-2981
▁intended	-2982
ude	-2983
▁exer	-2984
▁reading	-2985
▁conclude	-2986
▁seriously	-2987
▁includes	-2988
li	-2989
ught	-2990
▁repl	-2991
ussels	-2992
▁March	-2993
coming	-2994
▁Res	-2995
▁manner	-2996
▁rad	-2997
anish	-2998
▁Acc	-2999
▁bilateral	-3000
▁Pal	-3001
▁confirm	-3002
▁minorities	-3003
rest	-3004
▁gives	-3005
▁setting	-3006
care	-3007
▁fre	-3008
▁practical	-3009
▁debt	-3010
▁elements	-3011
fin	-3012
▁fuel	-3013
▁Brussels	-3014
cal	-3015
▁led	-3016
▁added	-3017
▁useful	-3018
▁building	-3019
▁Program	-3020
inary	-3021
▁exact	-3022
▁influence	-3023
▁burden	-3024
▁alternative	-3025
head	-3026
▁goes	-3027
▁consideration	-3028
spect	-3029
amber	-3030
▁perspective	-3031
▁cat	-3032
▁gender	-3033
▁perform	-3034
▁tour	-3035
▁poll	-3036
▁member	-3037
▁expression	-3038
ody	-3039
▁ce	-3040
▁alone	-3041
▁obligations	-3042
▁guidelines	-3043
▁Kosovo	-3044
▁connection	-3045
eneral	-3046
▁leading	-3047
▁convinced	-3048
xual	-3049
etimes	-3050
▁reduced	-3051
nam	-3052
▁party	-3053
▁laws	-3054
▁Trade	-3055
▁referendum	-3056
▁discharge	-3057
▁propose	-3058
▁families	-3059
▁lar	-3060
▁language	-3061
▁spir	-3062
uary	-3063
▁coll	-3064
▁occur	-3065
▁rightly	-3066
▁recognition	-3067
be	-3068
▁Rus	-3069
▁vehicles	-3070
▁tackle	-3071
▁date	-3072
▁differences	-3073
▁passengers	-3074
▁13	-3075
called	-3076
▁adequate	-3077
arks	-3078
▁Afgh	-3079
rop	-3080
▁documents	-3081
▁Fore	-3082
ureauc	-3083
▁den	-3084
▁annual	-3085
▁ill	-3086
▁gain	-3087
ulations	-3088
▁commercial	-3089
▁introduced	-3090
▁January	-3091
▁raise	-3092
▁stated	-3093
▁maritime	-3094
▁institutional	-3095
▁18	-3096
ored	-3097
▁finance	-3098
▁mere	-3099
▁comments	-3100
▁Serv	-3101
ober	-3102
▁African	-3103
▁dealing	-3104
▁Co	-3105
▁join	-3106
▁Charter	-3107
▁structural	-3108
▁views	-3109
▁fear	-3110
▁limited	-3111
▁defic	-3112
▁medic	-3113
▁suc	-3114
▁acts	-3115
▁Since	-3116
ai	-3117
▁After	-3118
▁heart	-3119
▁speaker	-3120
▁deg	-3121
ustr	-3122
▁regulatory	-3123
▁vulnerable	-3124
▁urge	-3125
rep	-3126
▁mutual	-3127
▁establishment	-3128
▁bad	-3129
▁managed	-3130
uff	-3131
where	-3132
abil	-3133
▁Prime	-3134
▁z	-3135
▁enl	-3136
▁Some	-3137
▁Afghan	-3138
ream	-3139
▁goal	-3140
▁known	-3141
▁succeed	-3142
▁Do	-3143
▁Inde	-3144
▁wants	-3145
works	-3146
▁acknow	-3147
▁bureauc	-3148
▁protecting	-3149
▁High	-3150
▁asking	-3151
▁binding	-3152
▁obviously	-3153
PE	-3154
▁UK	-3155
▁safe	-3156
▁unf	-3157
▁ship	-3158
aging	-3159
▁type	-3160
▁Georgia	-3161
▁related	-3162
▁Bulgaria	-3163
▁announ	-3164
▁becoming	-3165
▁Programme	-3166
▁damage	-3167
▁observ	-3168
▁Balk	-3169
▁goals	-3170
ury	-3171
set	-3172
▁enabl	-3173
icy	-3174
▁developments	-3175
▁linked	-3176
▁Palest	-3177
▁consensus	-3178
▁Indeed	-3179
▁Security	-3180
▁Amendment	-3181
▁animal	-3182
▁Croatia	-3183
▁investments	-3184
▁prevention	-3185
▁former	-3186
ports	-3187
▁guarantees	-3188
aries	-3189
▁whom	-3190
crib	-3191
▁police	-3192
ired	-3193
▁prob	-3194
▁record	-3195
▁persons	-3196
▁patients	-3197
▁North	-3198
▁situations	-3199
▁ut	-3200
▁parts	-3201
ovember	-3202
▁constant	-3203
▁happened	-3204
▁consolid	-3205
▁dangerous	-3206
riers	-3207
▁treaty	-3208
EL	-3209
▁entry	-3210
▁satisf	-3211
▁Energy	-3212
▁reference	-3213
used	-3214
▁expendit	-3215
▁contra	-3216
▁improvement	-3217
▁ult	-3218
▁histor	-3219
▁secure	-3220
▁November	-3221
▁perman	-3222
▁payments	-3223
▁Foreign	-3224
▁enforce	-3225
▁domestic	-3226
▁send	-3227
▁contact	-3228
lant	-3229
▁inclusion	-3230
DP	-3231
▁Never	-3232
▁occas	-3233
▁univers	-3234
ued	-3235
adow	-3236
▁Ash	-3237
▁emerg	-3238
▁truly	-3239
▁excess	-3240
▁stake	-3241
ient	-3242
enary	-3243
▁determ	-3244
▁Many	-3245
wide	-3246
▁outcome	-3247
..	-3248
terday	-3249
▁react	-3250
▁comply	-3251
▁involvement	-3252
▁lo	-3253
▁religious	-3254
▁cand	-3255
▁thousands	-3256
▁spirit	-3257
▁partner	-3258
reci	-3259
itable	-3260
▁custom	-3261
▁ahead	-3262
▁mobil	-3263
▁study	-3264
▁strict	-3265
▁Represent	-3266
▁closer	-3267
ruption	-3268
▁network	-3269
▁experien	-3270
nership	-3271
▁produced	-3272
joy	-3273
▁regular	-3274
▁expenditure	-3275
▁candid	-3276
▁demands	-3277
▁learn	-3278
▁concent	-3279
nic	-3280
▁adver	-3281
▁choice	-3282
▁susp	-3283
▁income	-3284
▁later	-3285
▁interp	-3286
▁supervision	-3287
▁immediate	-3288
▁Partnership	-3289
▁institution	-3290
▁Russian	-3291
▁analysis	-3292
▁promotion	-3293
erity	-3294
▁enjoy	-3295
▁ready	-3296
▁voice	-3297
▁chance	-3298
▁Western	-3299
▁sometimes	-3300
uditors	-3301
▁trafficking	-3302
▁failure	-3303
▁opening	-3304
▁organisation	-3305
▁Lat	-3306
▁failed	-3307
▁company	-3308
ya	-3309
itude	-3310
▁welcom	-3311
▁Nevertheless	-3312
ger	-3313
akistan	-3314
▁appeal	-3315
ler	-3316
▁Policy	-3317
▁Chamber	-3318
▁thinking	-3319
▁territory	-3320
▁ign	-3321
▁consumption	-3322
▁critical	-3323
urs	-3324
▁path	-3325
▁ones	-3326
▁assum	-3327
▁acqu	-3328
▁Pakistan	-3329
▁plenary	-3330
▁won	-3331
▁near	-3332
▁Hungary	-3333
trary	-3334
▁lost	-3335
ctober	-3336
▁delay	-3337
ological	-3338
▁immediately	-3339
iddle	-3340
▁firstly	-3341
▁By	-3342
ront	-3343
▁tem	-3344
▁putting	-3345
▁constructive	-3346
▁intervention	-3347
rs	-3348
▁speed	-3349
▁organised	-3350
▁saving	-3351
▁October	-3352
▁milk	-3353
▁separ	-3354
▁British	-3355
▁Eastern	-3356
▁considerable	-3357
▁appreci	-3358
▁Third	-3359
▁freedoms	-3360
▁Spain	-3361
ours	-3362
▁shadow	-3363
▁liberalisation	-3364
▁Bl	-3365
▁easy	-3366
▁PPE	-3367
▁enorm	-3368
▁Fra	-3369
▁earl	-3370
▁fraud	-3371
▁dead	-3372
▁While	-3373
▁facilitate	-3374
▁benefic	-3375
pay	-3376
lantic	-3377
▁Ob	-3378
▁exactly	-3379
...	-3380
▁tool	-3381
illed	-3382
▁speaking	-3383
▁30	-3384
▁warm	-3385
▁Spanish	-3386
▁coheren	-3387
▁operation	-3388
ployed	-3389
▁incor	-3390
▁probably	-3391
of	-3392
plom	-3393
uses	-3394
▁addressed	-3395
▁recognised	-3396
inese	-3397
▁Organ	-3398
AP	-3399
▁body	-3400
▁staff	-3401
▁sensitive	-3402
▁communities	-3403
dom	-3404
▁port	-3405
ulated	-3406
▁submitted	-3407
▁flexibility	-3408
▁Why	-3409
▁resolve	-3410
▁session	-3411
▁anything	-3412
ritten	-3413
urance	-3414
▁Chinese	-3415
▁globalisation	-3416
▁wide	-3417
▁Serbia	-3418
oses	-3419
▁happy	-3420
▁instance	-3421
▁carbon	-3422
▁informed	-3423
ken	-3424
▁diplom	-3425
▁brief	-3426
▁contains	-3427
▁ec	-3428
▁publ	-3429
▁mainly	-3430
mbud	-3431
▁max	-3432
▁proportion	-3433
▁hy	-3434
▁Accord	-3435
▁election	-3436
▁conference	-3437
ah	-3438
▁faced	-3439
▁minority	-3440
▁Representative	-3441
inian	-3442
▁enlarge	-3443
▁trading	-3444
going	-3445
▁methods	-3446
▁continues	-3447
ira	-3448
▁21	-3449
▁plac	-3450
▁ideas	-3451
▁Portugal	-3452
▁sw	-3453
based	-3454
▁worked	-3455
▁suffering	-3456
▁causes	-3457
▁thought	-3458
▁16	-3459
bate	-3460
▁disasters	-3461
▁functioning	-3462
▁shared	-3463
▁signed	-3464
HU	-3465
▁unc	-3466
icated	-3467
▁rates	-3468
▁contrary	-3469
▁spec	-3470
▁Auditors	-3471
▁obst	-3472
▁17	-3473
▁Sy	-3474
▁Gl	-3475
▁signal	-3476
▁advantage	-3477
▁healthcare	-3478
▁crimes	-3479
▁understanding	-3480
ivity	-3481
▁via	-3482
▁arm	-3483
▁Slovak	-3484
▁debates	-3485
▁sound	-3486
▁taxpay	-3487
▁willing	-3488
ev	-3489
▁supports	-3490
▁forest	-3491
▁authority	-3492
▁positions	-3493
▁Ashton	-3494
▁Belg	-3495
apan	-3496
onia	-3497
▁jour	-3498
▁helping	-3499
▁mist	-3500
▁referred	-3501
▁happening	-3502
▁evaluation	-3503
urm	-3504
pro	-3505
bourg	-3506
icians	-3507
▁Ital	-3508
▁obstac	-3509
▁1.	-3510
vest	-3511
▁Sum	-3512
elling	-3513
▁table	-3514
▁div	-3515
ills	-3516
▁forced	-3517
▁Written	-3518
▁element	-3519
▁continuing	-3520
els	-3521
▁starting	-3522
▁India	-3523
▁immigrants	-3524
▁remov	-3525
▁millions	-3526
bal	-3527
▁2009.	-3528
▁According	-3529
mbudsman	-3530
▁ability	-3531
▁NA	-3532
▁bringing	-3533
▁complain	-3534
-201	-3535
▁log	-3536
▁Alliance	-3537
▁Framework	-3538
▁delegation	-3539
▁professional	-3540
▁elimin	-3541
▁says	-3542
▁permanent	-3543
▁thereby	-3544
▁100	-3545
urally	-3546
▁Summit	-3547
▁effectiveness	-3548
▁easier	-3549
▁refugees	-3550
▁interpret	-3551
stitutional	-3552
▁coordinated	-3553
dra	-3554
▁figures	-3555
▁numerous	-3556
▁Budget	-3557
▁incent	-3558
▁earlier	-3559
verage	-3560
▁consistent	-3561
▁enormous	-3562
gypt	-3563
▁compens	-3564
Ch	-3565
▁serve	-3566
▁networks	-3567
▁inh	-3568
reness	-3569
▁Sol	-3570
debate	-3571
acter	-3572
▁bear	-3573
sk	-3574
▁II	-3575
ruit	-3576
▁Lib	-3577
▁myself	-3578
ugg	-3579
▁condemn	-3580
▁greatest	-3581
▁Pl	-3582
undred	-3583
▁Global	-3584
▁applies	-3585
▁stronger	-3586
▁accepted	-3587
▁honourable	-3588
ift	-3589
▁Egypt	-3590
CS	-3591
▁rating	-3592
▁competence	-3593
mission	-3594
▁unable	-3595
ats	-3596
icial	-3597
▁talks	-3598
▁bank	-3599
▁norm	-3600
▁advoc	-3601
▁exercise	-3602
raz	-3603
▁af	-3604
▁summ	-3605
▁elected	-3606
uting	-3607
▁tele	-3608
▁definite	-3609
▁came	-3610
▁scheme	-3611
▁America	-3612
▁Japan	-3613
au	-3614
SV	-3615
▁abol	-3616
▁administration	-3617
ancing	-3618
▁sexual	-3619
▁fo	-3620
▁Mal	-3621
▁Swedish	-3622
▁tourism	-3623
▁pun	-3624
▁Even	-3625
▁lower	-3626
▁adopting	-3627
▁territorial	-3628
▁harmonisation	-3629
▁deliver	-3630
▁character	-3631
▁sustainability	-3632
▁fulfil	-3633
▁manufacture	-3634
erc	-3635
▁simple	-3636
▁Italian	-3637
▁awareness	-3638
▁Afghanistan	-3639
iet	-3640
ptember	-3641
▁comment	-3642
▁consultation	-3643
raq	-3644
ival	-3645
▁oral	-3646
▁accounts	-3647
▁enlargement	-3648
icro	-3649
▁Green	-3650
▁merely	-3651
ighted	-3652
▁Ombudsman	-3653
amp	-3654
making	-3655
▁improvements	-3656
▁entirely	-3657
▁statistics	-3658
orn	-3659
rel	-3660
▁cy	-3661
▁wat	-3662
porary	-3663
▁Des	-3664
▁Iraq	-3665
▁attacks	-3666
▁September	-3667
oph	-3668
▁factor	-3669
▁propert	-3670
Rule	-3671
▁stim	-3672
▁option	-3673
▁sides	-3674
▁structure	-3675
▁yesterday	-3676
▁tim	-3677
▁proc	-3678
range	-3679
▁interv	-3680
▁hom	-3681
ature	-3682
▁abstain	-3683
▁compliance	-3684
▁spent	-3685
▁Turk	-3686
▁electric	-3687
▁directives	-3688
▁ethnic	-3689
▁don	-3690
▁source	-3691
ets	-3692
ilst	-3693
ronic	-3694
▁getting	-3695
▁significantly	-3696
fare	-3697
▁2009,	-3698
▁Rules	-3699
▁construction	-3700
ik	-3701
▁sort	-3702
▁insist	-3703
▁subsidi	-3704
▁Fundamental	-3705
nes	-3706
▁innovative	-3707
▁overcome	-3708
oration	-3709
▁expected	-3710
▁obligation	-3711
▁controls	-3712
▁20%	-3713
▁dict	-3714
lam	-3715
▁exec	-3716
5%	-3717
▁2005	-3718
▁Health	-3719
▁school	-3720
▁mission	-3721
▁membership	-3722
fe	-3723
▁WTO	-3724
▁animals	-3725
▁surve	-3726
▁feed	-3727
▁hundred	-3728
▁revision	-3729
▁politicians	-3730
ateg	-3731
▁sett	-3732
eb	-3733
the	-3734
▁Saf	-3735
▁withdra	-3736
▁conflicts	-3737
▁emb	-3738
▁equip	-3739
▁Protection	-3740
▁granted	-3741
▁planning	-3742
▁encouraging	-3743
▁occup	-3744
SE	-3745
ancial	-3746
▁class	-3747
▁parliaments	-3748
▁recommendation	-3749
lands	-3750
▁flow	-3751
▁resolutions	-3752
▁reserv	-3753
▁diversity	-3754
▁collective	-3755
▁operations	-3756
ades	-3757
ourage	-3758
entially	-3759
▁violations	-3760
▁ey	-3761
▁forth	-3762
▁engage	-3763
▁protected	-3764
▁interesting	-3765
▁fis	-3766
▁barriers	-3767
▁imports	-3768
▁evidence	-3769
▁prospect	-3770
▁rejected	-3771
rate	-3772
▁credibility	-3773
aw	-3774
▁prosp	-3775
▁fighting	-3776
▁decis	-3777
▁pointed	-3778
▁restrictions	-3779
ked	-3780
▁Baltic	-3781
▁corruption	-3782
▁negotiating	-3783
ze	-3784
oples	-3785
▁Cl	-3786
▁allowing	-3787
▁Sloven	-3788
razil	-3789
▁2013	-3790
▁Balkans	-3791
▁sea	-3792
▁drawn	-3793
ensible	-3794
▁payment	-3795
▁autom	-3796
▁compar	-3797
▁CAP	-3798
▁heav	-3799
▁Environ	-3800
att	-3801
▁extend	-3802
ize	-3803
anim	-3804
▁fast	-3805
▁votes	-3806
▁maximum	-3807
▁explan	-3808
▁started	-3809
mined	-3810
▁changed	-3811
▁materials	-3812
▁arr	-3813
0.	-3814
▁Pact	-3815
▁emergency	-3816
sh	-3817
respon	-3818
▁intend	-3819
▁substances	-3820
▁NATO	-3821
▁disease	-3822
ifications	-3823
▁King	-3824
oldov	-3825
ompan	-3826
▁fiscal	-3827
▁repeat	-3828
▁factors	-3829
▁associated	-3830
arations	-3831
▁largest	-3832
▁emphasis	-3833
▁followed	-3834
▁acceptable	-3835
ather	-3836
▁claim	-3837
▁peoples	-3838
▁strategies	-3839
gn	-3840
▁infring	-3841
▁welfare	-3842
▁involving	-3843
▁ought	-3844
pping	-3845
▁union	-3846
▁Polish	-3847
▁aviation	-3848
▁substantial	-3849
▁Liber	-3850
▁volunt	-3851
sc	-3852
oor	-3853
cast	-3854
fect	-3855
▁Tun	-3856
▁range	-3857
▁Gu	-3858
▁dign	-3859
▁Ab	-3860
ocol	-3861
▁ord	-3862
ulating	-3863
▁describ	-3864
▁urgently	-3865
pes	-3866
▁Monetary	-3867
▁2012	-3868
▁solve	-3869
▁Proced	-3870
▁appoint	-3871
ocks	-3872
outher	-3873
▁Safety	-3874
▁Given	-3875
▁penalty	-3876
▁allows	-3877
▁incorpor	-3878
ithu	-3879
▁operators	-3880
▁sal	-3881
ressive	-3882
▁wonder	-3883
▁spending	-3884
▁Organisation	-3885
▁Gaz	-3886
▁lies	-3887
outhern	-3888
ots	-3889
▁cal	-3890
ittees	-3891
▁Lithu	-3892
▁Moldov	-3893
▁continent	-3894
▁ultimately	-3895
hern	-3896
▁cars	-3897
▁Thirdly	-3898
▁arrange	-3899
▁exploitation	-3900
▁seeking	-3901
▁requirement	-3902
ins	-3903
▁suppl	-3904
▁office	-3905
▁unanim	-3906
▁pi	-3907
▁gradu	-3908
▁enforcement	-3909
vered	-3910
▁Such	-3911
▁prior	-3912
▁property	-3913
▁intention	-3914
rol	-3915
▁opposed	-3916
▁Portugues	-3917
▁employees	-3918
▁ton	-3919
▁citizen	-3920
▁arrest	-3921
gra	-3922
▁lay	-3923
▁Every	-3924
▁vision	-3925
▁individuals	-3926
justment	-3927
pril	-3928
lation	-3929
▁surpr	-3930
▁carefully	-3931
▁Portuguese	-3932
▁nations	-3933
▁told	-3934
▁anyone	-3935
▁ongoing	-3936
▁industries	-3937
▁late	-3938
▁firmly	-3939
asing	-3940
lying	-3941
▁laid	-3942
ographic	-3943
sequently	-3944
▁impossible	-3945
ateful	-3946
▁April	-3947
▁Only	-3948
▁Greek	-3949
▁offers	-3950
▁series	-3951
▁hor	-3952
▁imposed	-3953
▁covered	-3954
▁guaranteed	-3955
▁bi	-3956
▁pill	-3957
▁subsidiarity	-3958
vis	-3959
house	-3960
▁Brazil	-3961
▁parent	-3962
▁average	-3963
▁mark	-3964
▁symb	-3965
▁scale	-3966
▁smo	-3967
▁Despite	-3968
▁poore	-3969
▁respected	-3970
▁Conference	-3971
▁cou	-3972
▁estim	-3973
▁tools	-3974
▁afford	-3975
▁highest	-3976
▁judicial	-3977
▁transp	-3978
▁flexible	-3979
▁der	-3980
ellig	-3981
▁sole	-3982
economic	-3983
▁distribution	-3984
▁hop	-3985
illing	-3986
▁severe	-3987
▁grateful	-3988
▁frequ	-3989
▁moving	-3990
▁purposes	-3991
▁participate	-3992
▁cooperate	-3993
▁excessive	-3994
enomen	-3995
avi	-3996
ames	-3997
▁Agricult	-3998
nual	-3999
▁Are	-4000
▁phenomen	-4001
▁boost	-4002
▁urban	-4003
▁presence	-4004
▁repeated	-4005
▁Tunis	-4006
eff	-4007
▁EP	-4008
▁dealt	-4009
vote	-4010
iqu	-4011
cent	-4012
▁Dec	-4013
▁July	-4014
▁space	-4015
▁Procedure	-4016
▁structures	-4017
rend	-4018
▁Single	-4019
▁approval	-4020
▁taxpayers	-4021
▁Service	-4022
▁currency	-4023
SK	-4024
oz	-4025
▁2008,	-4026
▁destro	-4027
▁initial	-4028
endly	-4029
▁Burm	-4030
standing	-4031
sibly	-4032
holders	-4033
▁unfair	-4034
▁AC	-4035
▁entit	-4036
▁ratification	-4037
atically	-4038
AT	-4039
▁truth	-4040
actions	-4041
▁disapp	-4042
▁leadership	-4043
ought	-4044
▁From	-4045
▁exclusion	-4046
▁contributions	-4047
govern	-4048
▁primarily	-4049
▁reasonable	-4050
▁affairs	-4051
▁definition	-4052
▁GDP	-4053
▁capable	-4054
▁allocated	-4055
▁introducing	-4056
▁conver	-4057
aken	-4058
▁2004	-4059
▁Anot	-4060
▁Another	-4061
▁Stability	-4062
▁committees	-4063
ping	-4064
▁placed	-4065
▁hous	-4066
▁weap	-4067
ciliation	-4068
ebru	-4069
▁drug	-4070
ebruary	-4071
▁Kingdom	-4072
▁totally	-4073
▁strengthened	-4074
▁Middle	-4075
▁courage	-4076
▁experts	-4077
▁tro	-4078
▁Food	-4079
▁politics	-4080
imb	-4081
▁limits	-4082
alities	-4083
▁detailed	-4084
▁equally	-4085
▁perfect	-4086
▁realise	-4087
ape	-4088
▁Mar	-4089
▁slow	-4090
▁Commun	-4091
▁definitely	-4092
▁AL	-4093
▁proposing	-4094
▁written	-4095
▁February	-4096
▁labelling	-4097
▁transactions	-4098
▁agency	-4099
▁Canad	-4100
▁categ	-4101
▁pra	-4102
▁wid	-4103
▁inequ	-4104
iodiversity	-4105
lled	-4106
▁mer	-4107
▁planned	-4108
▁equipment	-4109
ibet	-4110
▁budgets	-4111
▁compared	-4112
▁delighted	-4113
▁personally	-4114
▁preventing	-4115
ishing	-4116
▁operate	-4117
▁External	-4118
ristian	-4119
▁General	-4120
▁belong	-4121
▁stri	-4122
▁impose	-4123
▁legally	-4124
aviour	-4125
▁clean	-4126
▁Cy	-4127
▁Em	-4128
▁attract	-4129
▁century	-4130
▁Those	-4131
▁court	-4132
▁desire	-4133
▁applic	-4134
▁terrorist	-4135
ilt	-4136
▁plant	-4137
▁protest	-4138
▁uns	-4139
▁ALDE	-4140
oubted	-4141
▁exempt	-4142
▁plants	-4143
▁worse	-4144
▁speakers	-4145
mbly	-4146
sembly	-4147
▁Tibet	-4148
▁meetings	-4149
▁voluntary	-4150
FI	-4151
▁Sh	-4152
▁otherwise	-4153
▁declaration	-4154
▁lea	-4155
▁abuse	-4156
▁hours	-4157
▁morning	-4158
▁greenhouse	-4159
▁impl	-4160
▁sport	-4161
▁please	-4162
▁buildings	-4163
▁50	-4164
▁appear	-4165
▁Com	-4166
▁learning	-4167
anian	-4168
▁Rule	-4169
▁honest	-4170
▁behaviour	-4171
comm	-4172
▁Kore	-4173
▁forthcoming	-4174
▁2.	-4175
▁worry	-4176
▁Moldova	-4177
▁2008.	-4178
▁works	-4179
▁sincere	-4180
▁dig	-4181
▁pursu	-4182
▁interested	-4183
ected	-4184
▁Invest	-4185
▁crises	-4186
▁decent	-4187
▁purch	-4188
ook	-4189
▁Sud	-4190
▁Gaza	-4191
▁redund	-4192
iab	-4193
▁lob	-4194
reneur	-4195
repreneur	-4196
advant	-4197
▁belie	-4198
▁break	-4199
▁degree	-4200
▁quotas	-4201
▁electronic	-4202
▁rul	-4203
▁lines	-4204
▁spread	-4205
lusive	-4206
orough	-4207
▁topic	-4208
Christian	-4209
▁Islam	-4210
▁micro	-4211
▁condition	-4212
▁disadvant	-4213
▁transition	-4214
▁Environment	-4215
▁representative	-4216
bs	-4217
▁Ms	-4218
▁Funds	-4219
Os	-4220
▁New	-4221
oubtedly	-4222
▁thorough	-4223
▁examples	-4224
▁disappoint	-4225
▁Go	-4226
▁win	-4227
gment	-4228
▁Thus	-4229
▁Libya	-4230
▁original	-4231
ps	-4232
nal	-4233
▁floor	-4234
here	-4235
▁che	-4236
▁Cong	-4237
▁centre	-4238
pol	-4239
iscr	-4240
▁Before	-4241
▁dignity	-4242
▁obstacles	-4243
car	-4244
ding	-4245
▁spoke	-4246
▁Ma	-4247
earch	-4248
quality	-4249
▁advert	-4250
▁dy	-4251
▁Per	-4252
▁attitude	-4253
▁resolved	-4254
▁fr	-4255
▁processes	-4256
ana	-4257
▁Sub	-4258
▁retain	-4259
operation	-4260
body	-4261
▁decisive	-4262
ctic	-4263
▁coast	-4264
▁demonstrated	-4265
orate	-4266
▁actual	-4267
▁concluded	-4268
▁continued	-4269
▁demonstrate	-4270
▁500	-4271
▁stable	-4272
▁savings	-4273
▁biodiversity	-4274
▁miss	-4275
▁Paper	-4276
formation	-4277
▁customs	-4278
▁Research	-4279
▁designed	-4280
▁opinions	-4281
▁generally	-4282
▁evalu	-4283
▁suffer	-4284
▁visit	-4285
▁got	-4286
isory	-4287
▁Plan	-4288
▁breach	-4289
▁operational	-4290
iling	-4291
urning	-4292
▁defined	-4293
▁Financial	-4294
pped	-4295
orse	-4296
▁Women	-4297
▁danger	-4298
▁Turkish	-4299
stitution	-4300
▁hands	-4301
▁exclud	-4302
per	-4303
icate	-4304
oting	-4305
▁expectations	-4306
▁mac	-4307
▁gave	-4308
▁fruit	-4309
▁intellig	-4310
▁medicines	-4311
utin	-4312
iding	-4313
▁meant	-4314
▁nation	-4315
▁stabil	-4316
▁subsidies	-4317
uable	-4318
▁Struct	-4319
▁united	-4320
▁operating	-4321
▁strugg	-4322
▁announced	-4323
▁dou	-4324
▁peaceful	-4325
▁highlighted	-4326
▁places	-4327
▁reiter	-4328
gic	-4329
▁wit	-4330
▁rising	-4331
acking	-4332
▁flood	-4333
▁diseases	-4334
▁reliable	-4335
▁existence	-4336
uck	-4337
▁passed	-4338
▁treated	-4339
▁applying	-4340
▁withdraw	-4341
no	-4342
▁deli	-4343
▁reci	-4344
AS	-4345
asbourg	-4346
▁endorse	-4347
▁legitimate	-4348
hib	-4349
▁pet	-4350
eries	-4351
▁temporary	-4352
enn	-4353
lined	-4354
▁spoken	-4355
▁amending	-4356
▁resulting	-4357
▁wishes	-4358
▁Structural	-4359
iff	-4360
▁2010,	-4361
▁reven	-4362
▁uncertain	-4363
▁played	-4364
▁languages	-4365
▁Strasbourg	-4366
▁undertaking	-4367
▁lose	-4368
▁hit	-4369
▁board	-4370
▁users	-4371
▁infringe	-4372
▁wealth	-4373
▁prepare	-4374
▁entrepreneur	-4375
▁ten	-4376
▁Rec	-4377
▁choose	-4378
▁American	-4379
lling	-4380
▁skills	-4381
▁generation	-4382
▁undoubtedly	-4383
▁east	-4384
▁soil	-4385
▁whilst	-4386
▁preparing	-4387
br	-4388
▁clause	-4389
▁criticism	-4390
▁bio	-4391
▁meaning	-4392
▁medical	-4393
▁increases	-4394
ij	-4395
governmental	-4396
▁Sudan	-4397
▁Col	-4398
▁Inter	-4399
▁decades	-4400
▁targeted	-4401
▁Globalisation	-4402
▁glad	-4403
▁neighbours	-4404
LT	-4405
▁prosperity	-4406
▁sovereignty	-4407
va	-4408
ery	-4409
▁Consum	-4410
▁coherent	-4411
▁geograph	-4412
▁dynam	-4413
▁trend	-4414
▁Inst	-4415
▁latest	-4416
▁gap	-4417
iss	-4418
▁welcomed	-4419
▁pollution	-4420
▁earth	-4421
rab	-4422
▁ste	-4423
urement	-4424
▁proceedings	-4425
irms	-4426
▁Act	-4427
▁electricity	-4428
2)	-4429
orthern	-4430
▁brings	-4431
▁taxation	-4432
▁grounds	-4433
▁Cooperation	-4434
▁guaranteeing	-4435
▁traditional	-4436
▁taxes	-4437
▁requested	-4438
▁demographic	-4439
▁technological	-4440
osal	-4441
▁separate	-4442
▁banking	-4443
▁offered	-4444
▁candidate	-4445
▁Here	-4446
▁Sweden	-4447
▁reinfor	-4448
▁performance	-4449
▁Not	-4450
▁likely	-4451
▁details	-4452
▁restruct	-4453
▁Fron	-4454
▁answers	-4455
▁Cont	-4456
▁entitled	-4457
▁identify	-4458
▁vir	-4459
▁constantly	-4460
▁secret	-4461
▁deficit	-4462
▁accidents	-4463
▁studies	-4464
▁waiting	-4465
▁dependent	-4466
▁difference	-4467
▁stor	-4468
▁house	-4469
illance	-4470
▁latter	-4471
try	-4472
▁Lu	-4473
▁Te	-4474
▁...	-4475
▁Haiti	-4476
▁quant	-4477
lection	-4478
▁witness	-4479
▁religion	-4480
tex	-4481
▁rich	-4482
atever	-4483
▁reinforce	-4484
rog	-4485
▁changing	-4486
▁migrants	-4487
▁contracts	-4488
▁manufacturers	-4489
ellect	-4490
roduct	-4491
▁finding	-4492
EU	-4493
ones	-4494
▁stay	-4495
▁Palestinian	-4496
▁procurement	-4497
▁teach	-4498
▁involves	-4499
▁bit	-4500
▁Black	-4501
▁permit	-4502
▁societ	-4503
▁facilities	-4504
▁multilateral	-4505
▁host	-4506
▁2010.	-4507
▁tasks	-4508
▁neighbouring	-4509
▁macro	-4510
▁worldwide	-4511
cel	-4512
▁monetary	-4513
cont	-4514
▁healthy	-4515
▁Her	-4516
▁Agriculture	-4517
▁speeches	-4518
TA	-4519
▁23	-4520
etheless	-4521
-0	-4522
IB	-4523
▁playing	-4524
▁minutes	-4525
IS	-4526
▁check	-4527
▁journal	-4528
▁neither	-4529
▁accompan	-4530
▁published	-4531
▁acknowledge	-4532
icit	-4533
▁gone	-4534
▁Baron	-4535
▁lobby	-4536
▁Socialist	-4537
▁Lastly	-4538
▁advance	-4539
▁Arctic	-4540
▁Instead	-4541
▁examine	-4542
▁Baroness	-4543
▁launched	-4544
▁determined	-4545
▁compensation	-4546
akes	-4547
▁push	-4548
▁insurance	-4549
▁Frontex	-4550
▁relative	-4551
▁Public	-4552
▁Asia	-4553
▁Head	-4554
▁Other	-4555
▁submit	-4556
abilities	-4557
▁Austr	-4558
▁prove	-4559
▁tried	-4560
▁margin	-4561
▁enhance	-4562
▁focused	-4563
ott	-4564
▁Gre	-4565
▁Som	-4566
▁news	-4567
▁2007,	-4568
▁tests	-4569
▁evening	-4570
▁keeping	-4571
▁preserv	-4572
▁regrett	-4573
▁version	-4574
▁constitu	-4575
▁enhanced	-4576
▁considering	-4577
LE	-4578
▁Est	-4579
ellectual	-4580
▁register	-4581
oral	-4582
▁During	-4583
▁assure	-4584
▁justified	-4585
▁Solidarity	-4586
▁surveillance	-4587
▁24	-4588
▁pie	-4589
arding	-4590
▁block	-4591
▁sl	-4592
▁Coh	-4593
▁Pet	-4594
iform	-4595
▁Civil	-4596
▁primary	-4597
▁maintaining	-4598
emical	-4599
related	-4600
▁normal	-4601
▁contained	-4602
▁stakeholders	-4603
▁base	-4604
▁emerging	-4605
▁dri	-4606
▁ves	-4607
andon	-4608
▁noted	-4609
▁phase	-4610
▁replace	-4611
▁Slovakia	-4612
▁appreciate	-4613
cedent	-4614
▁extension	-4615
ares	-4616
GF	-4617
▁Cor	-4618
▁sold	-4619
▁valuable	-4620
▁exception	-4621
▁president	-4622
▁raw	-4623
▁types	-4624
▁naturally	-4625
▁prisoners	-4626
▁rig	-4627
▁wine	-4628
onom	-4629
▁abandon	-4630
▁Investment	-4631
▁successfully	-4632
aj	-4633
▁Bos	-4634
▁VAT	-4635
▁diplomatic	-4636
▁friends	-4637
ses	-4638
part	-4639
▁facts	-4640
▁proud	-4641
▁Canada	-4642
▁prefer	-4643
▁determination	-4644
▁ren	-4645
▁dram	-4646
▁expand	-4647
▁realistic	-4648
▁exists	-4649
▁schools	-4650
▁suitable	-4651
▁phenomenon	-4652
ground	-4653
▁Maced	-4654
▁numbers	-4655
▁passenger	-4656
vent	-4657
▁surv	-4658
oon	-4659
▁Leg	-4660
▁art	-4661
▁Report	-4662
▁seeing	-4663
▁remarks	-4664
▁chain	-4665
▁seven	-4666
▁players	-4667
ria	-4668
fuel	-4669
▁built	-4670
▁prohib	-4671
▁mid	-4672
▁sets	-4673
▁proposes	-4674
▁pursue	-4675
▁simplification	-4676
opol	-4677
▁Fish	-4678
▁West	-4679
▁uniform	-4680
year	-4681
erative	-4682
▁stocks	-4683
▁actively	-4684
-2013	-4685
arent	-4686
▁supposed	-4687
▁Transport	-4688
▁intellectual	-4689
▁environmentally	-4690
▁Over	-4691
ama	-4692
▁save	-4693
▁investigation	-4694
▁stra	-4695
▁reply	-4696
▁identity	-4697
▁Ministers	-4698
ops	-4699
▁cuts	-4700
ursday	-4701
▁traged	-4702
▁affects	-4703
▁disposal	-4704
▁Lithuania	-4705
▁abstained	-4706
▁happens	-4707
▁nevertheless	-4708
▁Without	-4709
cco	-4710
factory	-4711
▁Tunisia	-4712
▁someone	-4713
▁ordinary	-4714
▁Commissioners	-4715
nia	-4716
▁chair	-4717
▁biggest	-4718
active	-4719
▁accident	-4720
▁bureaucracy	-4721
▁Free	-4722
▁stock	-4723
▁contradict	-4724
▁represented	-4725
ederal	-4726
ernity	-4727
▁felt	-4728
▁debating	-4729
▁conducted	-4730
▁disag	-4731
▁release	-4732
▁Thursday	-4733
▁officials	-4734
▁Then	-4735
▁texts	-4736
▁relates	-4737
▁tackling	-4738
▁confident	-4739
▁complicated	-4740
▁arrangements	-4741
ha	-4742
asm	-4743
lav	-4744
▁unp	-4745
▁extended	-4746
▁identified	-4747
▁ACP	-4748
▁round	-4749
▁airlines	-4750
▁collection	-4751
▁massive	-4752
▁Any	-4753
▁paper	-4754
▁owners	-4755
▁amounts	-4756
erts	-4757
▁scr	-4758
▁acquis	-4759
▁finances	-4760
bit	-4761
prus	-4762
uild	-4763
▁Cub	-4764
▁Arab	-4765
▁options	-4766
▁flag	-4767
▁oppos	-4768
▁attach	-4769
▁recall	-4770
▁housing	-4771
▁hundreds	-4772
▁149	-4773
▁War	-4774
▁phys	-4775
▁Cyprus	-4776
▁destroy	-4777
▁intentions	-4778
▁duties	-4779
▁weapons	-4780
▁Regional	-4781
▁presidency	-4782
raft	-4783
▁collab	-4784
▁listen	-4785
▁parents	-4786
▁Christian	-4787
▁significance	-4788
▁upd	-4789
stood	-4790
▁scrutin	-4791
▁ministers	-4792
▁achievement	-4793
▁Mor	-4794
▁Greens	-4795
▁cities	-4796
▁legitim	-4797
▁PSE	-4798
ulture	-4799
▁Korea	-4800
itiative	-4801
▁charges	-4802
▁sad	-4803
▁punish	-4804
▁worrying	-4805
▁confirmed	-4806
▁Adjustment	-4807
▁negotiation	-4808
necess	-4809
▁societies	-4810
▁advertising	-4811
▁App	-4812
iciently	-4813
▁suffered	-4814
▁Fisheries	-4815
▁incentives	-4816
▁diver	-4817
▁farming	-4818
▁threats	-4819
▁affecting	-4820
irth	-4821
itage	-4822
▁Chair	-4823
▁addressing	-4824
▁Once	-4825
▁Burma	-4826
▁worst	-4827
▁Perhaps	-4828
▁drawing	-4829
▁Latin	-4830
▁Grow	-4831
▁profits	-4832
▁depends	-4833
▁secondly	-4834
cer	-4835
▁Under	-4836
▁fishermen	-4837
▁3.	-4838
▁experiencing	-4839
▁aud	-4840
▁count	-4841
▁leader	-4842
airy	-4843
osen	-4844
cession	-4845
▁belief	-4846
▁resist	-4847
oul	-4848
scale	-4849
▁digital	-4850
▁unnecess	-4851
▁geographical	-4852
pir	-4853
gence	-4854
▁pipe	-4855
▁room	-4856
▁symbol	-4857
▁contributed	-4858
▁persec	-4859
▁centres	-4860
▁reaction	-4861
▁demanding	-4862
▁entrepreneurs	-4863
50	-4864
▁Macedonia	-4865
▁distort	-4866
▁opened	-4867
▁autonom	-4868
▁careful	-4869
▁disagree	-4870
▁constitution	-4871
ches	-4872
▁Bosnia	-4873
▁occasions	-4874
▁Dan	-4875
urely	-4876
▁Growth	-4877
▁science	-4878
▁wait	-4879
▁whatever	-4880
ini	-4881
▁largely	-4882
▁universal	-4883
▁isol	-4884
▁online	-4885
▁amongst	-4886
▁becomes	-4887
▁Christians	-4888
▁chosen	-4889
▁double	-4890
▁honour	-4891
ique	-4892
orry	-4893
▁size	-4894
▁poorest	-4895
▁politically	-4896
▁appropriations	-4897
▁exports	-4898
▁substance	-4899
▁dairy	-4900
▁toler	-4901
iannual	-4902
▁underm	-4903
atlantic	-4904
▁biofuel	-4905
▁intends	-4906
▁negotiated	-4907
▁enabling	-4908
▁complement	-4909
iles	-4910
▁fields	-4911
▁helped	-4912
▁exceptional	-4913
▁speculation	-4914
anging	-4915
▁front	-4916
▁losses	-4917
▁dispute	-4918
▁endors	-4919
▁harmful	-4920
EN	-4921
nel	-4922
▁envis	-4923
▁sensible	-4924
▁tend	-4925
▁liber	-4926
▁wider	-4927
▁deserv	-4928
▁driving	-4929
▁acknowled	-4930
▁association	-4931
aily	-4932
▁leads	-4933
▁applicable	-4934
ris	-4935
▁requests	-4936
atures	-4937
▁motor	-4938
▁System	-4939
▁Internal	-4940
▁airports	-4941
▁nationals	-4942
ari	-4943
discr	-4944
▁coal	-4945
▁issued	-4946
▁National	-4947
▁experienced	-4948
co	-4949
▁team	-4950
▁define	-4951
▁previously	-4952
▁declarations	-4953
▁core	-4954
▁visas	-4955
▁ambition	-4956
▁certainty	-4957
▁beneficial	-4958
▁NG	-4959
acco	-4960
▁chemical	-4961
▁occasion	-4962
▁Ber	-4963
▁blue	-4964
▁generations	-4965
▁pestic	-4966
▁urgency	-4967
▁preparation	-4968
▁possibilities	-4969
gies	-4970
▁optim	-4971
▁extrem	-4972
rees	-4973
▁daily	-4974
▁eight	-4975
▁paying	-4976
▁proved	-4977
▁convict	-4978
▁counterfe	-4979
uls	-4980
▁resum	-4981
▁greatly	-4982
▁et	-4983
▁heavy	-4984
▁imbal	-4985
▁knows	-4986
kers	-4987
▁imag	-4988
inated	-4989
▁simplify	-4990
▁eliminate	-4991
▁foundations	-4992
adequ	-4993
▁fine	-4994
▁resulted	-4995
tt	-4996
ein	-4997
ingu	-4998
▁alarm	-4999
▁applications	-5000
ites	-5001
▁har	-5002
▁schemes	-5003
aud	-5004
▁percent	-5005
▁granting	-5006
▁competences	-5007
▁saw	-5008
ament	-5009
▁valid	-5010
▁approx	-5011
▁Auth	-5012
▁divid	-5013
▁clarify	-5014
▁pensions	-5015
▁arguments	-5016
▁understood	-5017
usion	-5018
▁violation	-5019
▁emphasised	-5020
▁encouraged	-5021
▁restructuring	-5022
▁fem	-5023
▁sil	-5024
right	-5025
▁formal	-5026
▁inadequ	-5027
▁reaching	-5028
ague	-5029
what	-5030
▁figure	-5031
▁competent	-5032
▁impression	-5033
▁Sc	-5034
appe	-5035
ories	-5036
▁lessons	-5037
▁attempts	-5038
▁sufficiently	-5039
▁198	-5040
▁approve	-5041
▁supplement	-5042
▁regrettable	-5043
▁30%	-5044
▁EIB	-5045
▁pain	-5046
▁Where	-5047
▁foremost	-5048
▁neighbourhood	-5049
▁spite	-5050
▁Secret	-5051
▁appears	-5052
▁conserv	-5053
▁apparent	-5054
▁underline	-5055
inc	-5056
▁Sim	-5057
▁etc	-5058
▁kept	-5059
▁Follow	-5060
iability	-5061
▁follows	-5062
▁dism	-5063
▁zone	-5064
▁loans	-5065
▁benefici	-5066
coh	-5067
▁Ky	-5068
▁raising	-5069
▁supplies	-5070
▁extensive	-5071
▁Tw	-5072
novation	-5073
▁southern	-5074
▁accessible	-5075
ecision	-5076
▁acting	-5077
▁oppose	-5078
▁coordinate	-5079
CE	-5080
ta	-5081
▁bro	-5082
▁haz	-5083
▁birth	-5084
▁remove	-5085
▁Control	-5086
▁absence	-5087
institutional	-5088
▁arms	-5089
▁detri	-5090
▁assume	-5091
▁radical	-5092
mark	-5093
build	-5094
▁unless	-5095
▁Eng	-5096
▁cert	-5097
▁moral	-5098
▁hearing	-5099
gm	-5100
▁Ver	-5101
▁Assembly	-5102
▁carrying	-5103
▁correctly	-5104
▁supervisory	-5105
ped	-5106
edly	-5107
▁swift	-5108
▁students	-5109
▁dictators	-5110
▁recession	-5111
rid	-5112
▁links	-5113
▁consci	-5114
etherlands	-5115
ables	-5116
cl	-5117
▁bound	-5118
▁emission	-5119
illenn	-5120
▁described	-5121
▁22	-5122
▁40	-5123
▁Latv	-5124
▁correspon	-5125
▁discrimin	-5126
▁reflected	-5127
free	-5128
▁Ice	-5129
▁disappe	-5130
▁credible	-5131
▁negotiate	-5132
▁constitute	-5133
MF	-5134
hol	-5135
▁claims	-5136
▁charge	-5137
▁bureaucratic	-5138
rain	-5139
▁dos	-5140
cohol	-5141
▁divers	-5142
▁nearly	-5143
▁utmost	-5144
▁indicators	-5145
erm	-5146
▁vig	-5147
▁somewhat	-5148
▁undertaken	-5149
▁youth	-5150
▁compon	-5151
▁running	-5152
▁Employment	-5153
▁background	-5154
▁harmonised	-5155
▁Netherlands	-5156
ane	-5157
▁below	-5158
▁26	-5159
like	-5160
level	-5161
▁flight	-5162
▁showing	-5163
▁estimated	-5164
▁mandatory	-5165
▁codecision	-5166
▁Me	-5167
▁Bec	-5168
▁possibly	-5169
▁penalties	-5170
▁difficulty	-5171
▁concentrate	-5172
illennium	-5173
▁employers	-5174
▁governing	-5175
▁economically	-5176
▁easily	-5177
▁Iceland	-5178
▁holding	-5179
▁Its	-5180
▁asse	-5181
▁solely	-5182
put	-5183
▁Mus	-5184
ading	-5185
▁seeks	-5186
▁displ	-5187
▁corpor	-5188
▁vessels	-5189
▁Following	-5190
▁necessity	-5191
▁highlights	-5192
na	-5193
arkoz	-5194
▁dossi	-5195
ufficient	-5196
▁historic	-5197
▁physical	-5198
▁qualified	-5199
▁succeeded	-5200
▁len	-5201
vision	-5202
▁unity	-5203
▁legitimacy	-5204
▁authorisation	-5205
lder	-5206
▁beg	-5207
▁cop	-5208
▁incom	-5209
▁species	-5210
▁textile	-5211
▁Su	-5212
▁wind	-5213
▁black	-5214
▁unnecessary	-5215
▁virt	-5216
arkozy	-5217
▁argument	-5218
▁investors	-5219
DA	-5220
ki	-5221
utch	-5222
▁Both	-5223
▁pillar	-5224
▁Consumer	-5225
▁ratified	-5226
▁resource	-5227
dd	-5228
ALE	-5229
oard	-5230
osure	-5231
▁batt	-5232
▁contributing	-5233
ony	-5234
▁Verts	-5235
▁tragedy	-5236
▁prospects	-5237
▁historical	-5238
▁qualifications	-5239
▁cele	-5240
▁Sarkozy	-5241
ulsory	-5242
▁inhab	-5243
▁spend	-5244
▁intens	-5245
▁amended	-5246
▁genuinely	-5247
▁referring	-5248
▁regardless	-5249
▁fost	-5250
▁tort	-5251
▁checks	-5252
▁Subject	-5253
.)	-5254
▁radio	-5255
▁rapidly	-5256
▁revised	-5257
▁treaties	-5258
▁completed	-5259
abwe	-5260
imbabwe	-5261
▁debated	-5262
▁constitutional	-5263
▁NGOs	-5264
ancies	-5265
▁faith	-5266
▁Heads	-5267
▁tariff	-5268
▁Consequently	-5269
wing	-5270
▁mix	-5271
▁touch	-5272
▁Israeli	-5273
▁leaving	-5274
▁convention	-5275
%.	-5276
cle	-5277
cipl	-5278
▁Non	-5279
▁tob	-5280
▁proof	-5281
▁reass	-5282
abled	-5283
bling	-5284
oslav	-5285
▁sorry	-5286
▁exceed	-5287
▁eastern	-5288
▁restore	-5289
▁Lab	-5290
ception	-5291
▁cancer	-5292
▁letter	-5293
▁stands	-5294
▁privacy	-5295
▁heritage	-5296
▁offering	-5297
▁essentially	-5298
urb	-5299
▁10%	-5300
▁Par	-5301
▁trial	-5302
session	-5303
ugoslav	-5304
▁predict	-5305
▁tobacco	-5306
▁extraord	-5307
▁reiterate	-5308
▁satisfied	-5309
emic	-5310
▁piece	-5311
▁plays	-5312
▁spect	-5313
▁surely	-5314
▁relatively	-5315
▁Gal	-5316
▁sharing	-5317
▁detention	-5318
▁Constitution	-5319
raid	-5320
▁crop	-5321
▁wage	-5322
▁afraid	-5323
▁timely	-5324
▁Agenda	-5325
▁doubts	-5326
▁alcohol	-5327
▁creates	-5328
▁deserve	-5329
▁regulate	-5330
▁allocation	-5331
una	-5332
▁vast	-5333
utive	-5334
▁2000	-5335
▁Well	-5336
▁went	-5337
▁bearing	-5338
▁convergence	-5339
▁28	-5340
▁buy	-5341
idesp	-5342
▁Legal	-5343
▁compat	-5344
idespread	-5345
▁obtained	-5346
▁Sm	-5347
teneg	-5348
▁reve	-5349
▁deaths	-5350
▁summer	-5351
▁considers	-5352
▁town	-5353
▁Belgium	-5354
▁Protocol	-5355
ko	-5356
omet	-5357
▁adjust	-5358
▁prosec	-5359
▁Monteneg	-5360
▁biofuels	-5361
▁friendly	-5362
▁regulated	-5363
▁widespread	-5364
▁i	-5365
▁agg	-5366
▁forg	-5367
▁tang	-5368
▁toys	-5369
▁vacc	-5370
igation	-5371
▁Conserv	-5372
▁je	-5373
▁tragic	-5374
▁complaints	-5375
▁educational	-5376
▁Climate	-5377
▁Romanian	-5378
coun	-5379
astro	-5380
▁obliged	-5381
▁expensive	-5382
▁fire	-5383
▁meat	-5384
▁clarity	-5385
▁powerful	-5386
while	-5387
▁Common	-5388
▁dynamic	-5389
▁storage	-5390
estion	-5391
▁slight	-5392
▁producing	-5393
▁Information	-5394
SP	-5395
tra	-5396
▁ded	-5397
oring	-5398
General	-5399
▁fairly	-5400
▁imported	-5401
▁mobilisation	-5402
▁transitional	-5403
NG	-5404
stitute	-5405
▁civilian	-5406
▁elsewhere	-5407
▁interpretation	-5408
▁Like	-5409
▁remark	-5410
▁regimes	-5411
▁compulsory	-5412
viously	-5413
▁courts	-5414
▁waters	-5415
▁Because	-5416
▁60	-5417
▁Home	-5418
▁tough	-5419
▁consent	-5420
▁promised	-5421
▁Bus	-5422
ifies	-5423
▁Left	-5424
▁deeply	-5425
▁entail	-5426
▁length	-5427
▁constitutes	-5428
▁efficiently	-5429
▁populations	-5430
anks	-5431
▁hence	-5432
▁quota	-5433
▁respects	-5434
▁multi	-5435
▁entered	-5436
▁feeling	-5437
▁determine	-5438
sist	-5439
▁Nor	-5440
rible	-5441
▁revenue	-5442
▁warming	-5443
▁stressed	-5444
▁extending	-5445
▁freely	-5446
▁Will	-5447
▁foot	-5448
▁Britain	-5449
▁Socialists	-5450
▁journalists	-5451
itical	-5452
▁forum	-5453
▁minim	-5454
▁causing	-5455
▁maintained	-5456
oss	-5457
2008	-5458
▁plat	-5459
▁outer	-5460
▁annivers	-5461
▁suggested	-5462
▁Millennium	-5463
▁advantages	-5464
exic	-5465
▁unre	-5466
▁female	-5467
▁orient	-5468
▁drivers	-5469
▁expense	-5470
▁Cohesion	-5471
▁deserves	-5472
▁Authority	-5473
▁representation	-5474
▁pan	-5475
▁Atlantic	-5476
▁suggestions	-5477
▁universities	-5478
▁31	-5479
2009	-5480
▁hung	-5481
▁flows	-5482
▁pleas	-5483
▁Belgian	-5484
▁inequalities	-5485
mm	-5486
osis	-5487
▁40%	-5488
▁eye	-5489
▁briefly	-5490
▁minister	-5491
▁scrutiny	-5492
▁approximately	-5493
rich	-5494
oviet	-5495
▁Time	-5496
▁pict	-5497
▁expan	-5498
▁Budgets	-5499
▁deliber	-5500
▁occurred	-5501
▁struggle	-5502
pel	-5503
oted	-5504
▁hal	-5505
▁calc	-5506
▁Joint	-5507
istical	-5508
▁earthqu	-5509
▁Neighbour	-5510
▁unemployed	-5511
▁stip	-5512
▁decre	-5513
▁Petitions	-5514
▁favourable	-5515
▁anniversary	-5516
duc	-5517
▁Imp	-5518
▁abroad	-5519
▁ageing	-5520
▁ignore	-5521
▁marine	-5522
employed	-5523
▁Pa	-5524
▁accur	-5525
ultural	-5526
▁inhabit	-5527
▁thanking	-5528
▁expansion	-5529
▁voc	-5530
▁door	-5531
▁2007.	-5532
▁partly	-5533
▁forests	-5534
▁commission	-5535
▁importantly	-5536
▁satisfactory	-5537
anda	-5538
▁hazard	-5539
▁Austria	-5540
▁financed	-5541
ube	-5542
▁watch	-5543
▁assets	-5544
▁Iranian	-5545
▁outermost	-5546
▁prem	-5547
▁trib	-5548
regular	-5549
▁believes	-5550
▁remaining	-5551
▁intelligent	-5552
▁presentation	-5553
▁IC	-5554
▁deals	-5555
▁viable	-5556
▁vehicle	-5557
▁Montenegro	-5558
▁inadequate	-5559
▁willingness	-5560
zeg	-5561
▁lic	-5562
▁beings	-5563
▁indicated	-5564
▁29	-5565
▁inspect	-5566
▁Slovenia	-5567
ores	-5568
▁signing	-5569
▁openness	-5570
▁Neighbourhood	-5571
ax	-5572
oman	-5573
▁50%	-5574
▁alleg	-5575
ferences	-5576
▁preserve	-5577
▁maternity	-5578
▁solid	-5579
▁shame	-5580
▁Obviously	-5581
▁uncertainty	-5582
▁Az	-5583
▁pesticides	-5584
lease	-5585
ustry	-5586
▁mistake	-5587
▁Pre	-5588
▁Stock	-5589
▁mother	-5590
▁notably	-5591
▁tangible	-5592
▁reporting	-5593
▁assessments	-5594
cif	-5595
iers	-5596
opard	-5597
ovina	-5598
▁rare	-5599
▁Mexic	-5600
▁tight	-5601
▁intensive	-5602
iar	-5603
osp	-5604
▁Day	-5605
▁Also	-5606
▁diss	-5607
▁search	-5608
hr	-5609
▁apart	-5610
▁Centre	-5611
▁distin	-5612
▁opposite	-5613
▁pipeline	-5614
▁Mart	-5615
▁card	-5616
▁talked	-5617
▁warning	-5618
▁explicit	-5619
ulz	-5620
▁eyes	-5621
▁jeopard	-5622
amb	-5623
lin	-5624
ancy	-5625
▁Schulz	-5626
▁joined	-5627
▁purely	-5628
▁turned	-5629
▁freight	-5630
roductive	-5631
UE	-5632
▁Red	-5633
▁2003	-5634
▁armed	-5635
▁scand	-5636
inent	-5637
country	-5638
zegovina	-5639
▁Islamic	-5640
lif	-5641
oli	-5642
elong	-5643
stuff	-5644
▁liqu	-5645
comings	-5646
▁actors	-5647
lymp	-5648
oler	-5649
ocking	-5650
▁2020.	-5651
▁Rural	-5652
▁Soviet	-5653
▁broader	-5654
▁disabled	-5655
▁drafting	-5656
5,	-5657
ara	-5658
rad	-5659
▁dum	-5660
▁rob	-5661
arians	-5662
▁heading	-5663
▁reflects	-5664
▁welcomes	-5665
inal	-5666
rors	-5667
obody	-5668
▁admit	-5669
▁recipro	-5670
▁declared	-5671
▁Slovenian	-5672
AF	-5673
iox	-5674
alle	-5675
▁GUE	-5676
▁sac	-5677
▁2002	-5678
▁Olymp	-5679
▁Please	-5680
▁shortcomings	-5681
▁transatlantic	-5682
ox	-5683
ileo	-5684
▁Car	-5685
▁pil	-5686
raint	-5687
▁promises	-5688
▁Regarding	-5689
▁defending	-5690
▁providers	-5691
▁respecting	-5692
▁insufficient	-5693
▁stre	-5694
▁couple	-5695
▁integrity	-5696
▁irregular	-5697
enty	-5698
▁gam	-5699
▁jur	-5700
▁removed	-5701
▁protectionism	-5702
ries	-5703
▁Nat	-5704
▁Does	-5705
▁drugs	-5706
▁prompt	-5707
▁terrible	-5708
▁collaboration	-5709
▁communications	-5710
▁depr	-5711
▁killed	-5712
▁focusing	-5713
▁indirect	-5714
▁managing	-5715
▁surround	-5716
ruction	-5717
▁smaller	-5718
apse	-5719
▁inj	-5720
▁diox	-5721
▁catch	-5722
▁unique	-5723
▁inhabitants	-5724
▁inev	-5725
▁victim	-5726
▁Industry	-5727
▁Having	-5728
▁advice	-5729
▁plural	-5730
▁electoral	-5731
▁consistency	-5732
thly	-5733
▁EGF	-5734
▁Four	-5735
▁burdens	-5736
▁listened	-5737
▁perfectly	-5738
▁suspended	-5739
▁tradition	-5740
lim	-5741
city	-5742
alling	-5743
▁Dutch	-5744
▁antic	-5745
▁dispro	-5746
▁discipl	-5747
▁consequence	-5748
▁considerably	-5749
▁ES	-5750
▁Cuba	-5751
▁Goals	-5752
▁quote	-5753
▁choices	-5754
▁evident	-5755
▁ambitions	-5756
NGL	-5757
deav	-5758
enced	-5759
▁erad	-5760
▁sake	-5761
▁transl	-5762
▁Services	-5763
▁imposing	-5764
▁explanations	-5765
discrimination	-5766
band	-5767
fers	-5768
▁ineff	-5769
▁endeav	-5770
▁Galileo	-5771
▁lasting	-5772
▁promoted	-5773
▁destruction	-5774
ont	-5775
point	-5776
▁Danube	-5777
▁stance	-5778
▁tonnes	-5779
▁territories	-5780
arer	-5781
iring	-5782
▁himself	-5783
▁sending	-5784
▁announce	-5785
▁percentage	-5786
▁dictatorship	-5787
▁tension	-5788
▁missions	-5789
▁adaptation	-5790
conn	-5791
▁Treat	-5792
▁inflation	-5793
irable	-5794
▁volum	-5795
▁Office	-5796
▁prevail	-5797
▁Northern	-5798
▁Secretary	-5799
▁became	-5800
▁transposition	-5801
.'	-5802
aks	-5803
▁brut	-5804
▁city	-5805
ective	-5806
▁helps	-5807
▁param	-5808
▁campaigns	-5809
▁dependence	-5810
rem	-5811
▁horiz	-5812
▁deteri	-5813
oto	-5814
mining	-5815
▁kinds	-5816
▁older	-5817
▁covers	-5818
▁delays	-5819
▁Freedom	-5820
ka	-5821
uy	-5822
ili	-5823
▁Pri	-5824
ondon	-5825
ystem	-5826
▁glob	-5827
▁vari	-5828
▁2006,	-5829
▁London	-5830
▁gradually	-5831
▁juris	-5832
▁aftern	-5833
▁battle	-5834
▁alongside	-5835
▁intervene	-5836
▁frequently	-5837
▁reconciliation	-5838
▁0.	-5839
▁Van	-5840
▁142)	-5841
▁Small	-5842
▁Their	-5843
▁select	-5844
▁patient	-5845
▁straight	-5846
▁USA	-5847
▁puts	-5848
lderly	-5849
▁obser	-5850
▁extraordinary	-5851
▁2011.	-5852
▁combined	-5853
▁ownership	-5854
▁receiving	-5855
▁implications	-5856
▁Parliamentary	-5857
▁beneficiaries	-5858
▁consolidation	-5859
▁Constitutional	-5860
▁Cr	-5861
▁Fer	-5862
▁She	-5863
▁inn	-5864
versi	-5865
▁Colle	-5866
▁began	-5867
▁sched	-5868
reshold	-5869
▁Associ	-5870
▁anticip	-5871
▁jointly	-5872
▁indicate	-5873
▁stations	-5874
▁demonstrates	-5875
):	-5876
see	-5877
holm	-5878
petr	-5879
▁doct	-5880
▁pharm	-5881
▁remed	-5882
▁liquid	-5883
▁refers	-5884
▁threshold	-5885
▁processing	-5886
▁Herzegovina	-5887
▁socio	-5888
▁sphere	-5889
▁airport	-5890
▁restricted	-5891
itch	-5892
▁Alb	-5893
versial	-5894
▁routes	-5895
▁perpetr	-5896
▁regarded	-5897
▁undermine	-5898
▁tape	-5899
zone	-5900
▁sla	-5901
place	-5902
▁Somal	-5903
▁roads	-5904
▁wages	-5905
▁persist	-5906
▁Treaties	-5907
▁organise	-5908
▁broadcast	-5909
▁repeatedly	-5910
▁partnerships	-5911
▁Bro	-5912
aucas	-5913
▁losing	-5914
▁proven	-5915
▁Liberties	-5916
▁accompanied	-5917
uing	-5918
▁hyp	-5919
▁rid	-5920
apter	-5921
▁Conc	-5922
▁Europol	-5923
▁elderly	-5924
▁dramatic	-5925
ca	-5926
ych	-5927
▁4.	-5928
orous	-5929
▁farms	-5930
▁refus	-5931
oha	-5932
▁drafted	-5933
initiative	-5934
▁Democratic	-5935
▁expressing	-5936
utr	-5937
▁Ham	-5938
▁fun	-5939
▁aside	-5940
▁Caucas	-5941
▁island	-5942
▁periods	-5943
▁Mc	-5944
ients	-5945
▁models	-5946
▁railway	-5947
▁abolition	-5948
▁marketing	-5949
As	-5950
edge	-5951
▁fewer	-5952
▁dossier	-5953
▁picture	-5954
▁turning	-5955
▁weakness	-5956
▁threatened	-5957
AC	-5958
▁Appro	-5959
astroph	-5960
▁Reform	-5961
ds	-5962
iced	-5963
▁arise	-5964
▁ships	-5965
▁Latvia	-5966
▁larger	-5967
lusively	-5968
▁arising	-5969
▁ecological	-5970
down	-5971
▁dia	-5972
mpath	-5973
▁missing	-5974
▁whereby	-5975
umb	-5976
rated	-5977
building	-5978
▁endorsed	-5979
▁humanity	-5980
▁catastroph	-5981
▁facilitating	-5982
▁Op	-5983
▁route	-5984
▁Innovation	-5985
▁80%	-5986
▁Doha	-5987
▁cheap	-5988
▁track	-5989
▁afternoon	-5990
▁coherence	-5991
▁vocational	-5992
igu	-5993
tion	-5994
▁lie	-5995
▁Most	-5996
stuffs	-5997
▁Mexico	-5998
▁equival	-5999
▁generate	-6000
▁rational	-6001
▁overl	-6002
▁creative	-6003
▁Budgetary	-6004
▁everybody	-6005
▁expertise	-6006
▁simplified	-6007
▁reconstruction	-6008
ani	-6009
ode	-6010
▁ECB	-6011
▁chann	-6012
diction	-6013
▁sympath	-6014
▁whereas	-6015
▁investing	-6016
▁achievements	-6017
▁consultations	-6018
ming	-6019
▁motiv	-6020
▁forgot	-6021
▁patent	-6022
▁unions	-6023
▁Caucasus	-6024
▁Association	-6025
▁controversial	-6026
▁disproportion	-6027
oly	-6028
▁300	-6029
atell	-6030
▁webs	-6031
▁south	-6032
▁unequ	-6033
▁reductions	-6034
▁undertakings	-6035
5.	-6036
▁fix	-6037
▁mit	-6038
▁failing	-6039
▁seekers	-6040
▁informal	-6041
▁citizenship	-6042
%,	-6043
▁fires	-6044
▁reloc	-6045
▁strike	-6046
▁mistakes	-6047
▁Stockholm	-6048
▁connected	-6049
▁settlement	-6050
▁GM	-6051
etic	-6052
▁army	-6053
▁incon	-6054
▁collapse	-6055
▁redundant	-6056
▁murd	-6057
▁troops	-6058
▁Albania	-6059
▁falling	-6060
▁none	-6061
▁scen	-6062
▁Techn	-6063
▁minute	-6064
▁ensured	-6065
▁marking	-6066
▁promise	-6067
▁torture	-6068
▁revolution	-6069
▁multiannual	-6070
ET	-6071
SL	-6072
ski	-6073
▁ecos	-6074
▁string	-6075
▁recognises	-6076
▁mur	-6077
▁Pers	-6078
▁impr	-6079
▁util	-6080
▁blood	-6081
▁drive	-6082
▁items	-6083
▁sugar	-6084
▁unpre	-6085
▁adverse	-6086
▁necessarily	-6087
omb	-6088
▁Obama	-6089
▁fuels	-6090
▁prevented	-6091
▁Presidents	-6092
▁television	-6093
▁blame	-6094
▁transit	-6095
ogical	-6096
▁hunger	-6097
▁clearer	-6098
▁pleasure	-6099
▁standing	-6100
▁conventions	-6101
▁unprecedent	-6102
6-0	-6103
▁Clear	-6104
▁Congo	-6105
▁gross	-6106
▁pilot	-6107
▁pragm	-6108
▁reveal	-6109
▁ecosystem	-6110
▁respective	-6111
▁modernisation	-6112
▁depart	-6113
▁cutting	-6114
▁imbalances	-6115
▁infringement	-6116
▁149)	-6117
▁Wall	-6118
▁Again	-6119
▁devast	-6120
▁planet	-6121
▁popular	-6122
▁terrorists	-6123
▁exclusively	-6124
asion	-6125
▁mobile	-6126
▁showed	-6127
▁Through	-6128
▁compete	-6129
▁Liberals	-6130
▁surprised	-6131
▁comparison	-6132
▁unprecedented	-6133
erted	-6134
inger	-6135
▁bott	-6136
▁frag	-6137
▁aspir	-6138
▁specul	-6139
▁imagine	-6140
▁interim	-6141
▁sincerely	-6142
▁Nonetheless	-6143
▁instability	-6144
▁accountability	-6145
appro	-6146
ticles	-6147
▁declare	-6148
▁excluded	-6149
▁hazardous	-6150
▁accounting	-6151
▁presenting	-6152
BG	-6153
zer	-6154
requ	-6155
oured	-6156
▁ruling	-6157
usterity	-6158
▁candidates	-6159
lex	-6160
▁falls	-6161
▁enables	-6162
▁democrat	-6163
oe	-6164
▁nine	-6165
▁monit	-6166
▁Labour	-6167
▁abuses	-6168
▁coastal	-6169
oll	-6170
rum	-6171
stone	-6172
▁murder	-6173
▁internet	-6174
▁congratulations	-6175
uter	-6176
ivest	-6177
▁arch	-6178
▁ment	-6179
▁specif	-6180
ivestock	-6181
▁scandal	-6182
▁alarming	-6183
▁protocol	-6184
▁hopefully	-6185
▁undertake	-6186
▁Stat	-6187
▁arbit	-6188
▁usual	-6189
▁contacts	-6190
▁reported	-6191
▁condemned	-6192
▁repression	-6193
yes	-6194
ster	-6195
▁ben	-6196
verse	-6197
▁exerc	-6198
▁deadline	-6199
▁explanation	-6200
▁satisfaction	-6201
1,	-6202
gen	-6203
spe	-6204
craft	-6205
uries	-6206
venth	-6207
ourism	-6208
▁commend	-6209
nex	-6210
▁IT	-6211
lish	-6212
▁Bas	-6213
▁privile	-6214
▁Otherwise	-6215
▁civilians	-6216
▁resolving	-6217
▁persecution	-6218
vens	-6219
▁Two	-6220
▁code	-6221
▁abort	-6222
▁dispar	-6223
▁transpl	-6224
▁imprison	-6225
▁foundation	-6226
▁underlying	-6227
ona	-6228
▁IMF	-6229
ednes	-6230
utical	-6231
▁voters	-6232
ednesday	-6233
▁advanced	-6234
▁forgotten	-6235
ulf	-6236
rous	-6237
▁justify	-6238
▁responses	-6239
▁totalitarian	-6240
▁unw	-6241
▁Moro	-6242
▁reint	-6243
▁finish	-6244
▁sought	-6245
inational	-6246
▁observed	-6247
▁Communist	-6248
▁systematic	-6249
cyc	-6250
ull	-6251
▁resc	-6252
▁tuna	-6253
▁Allow	-6254
▁reaff	-6255
tenance	-6256
▁uphold	-6257
▁widely	-6258
ederation	-6259
▁evaluate	-6260
▁livestock	-6261
▁emphasises	-6262
ipping	-6263
itative	-6264
▁engaged	-6265
▁disputes	-6266
▁inclusive	-6267
ugust	-6268
▁enshr	-6269
▁hopes	-6270
sequent	-6271
▁errors	-6272
▁inside	-6273
▁Special	-6274
▁moreover	-6275
▁austerity	-6276
▁procedural	-6277
▁safeguarding	-6278
SCE	-6279
cul	-6280
back	-6281
inians	-6282
▁conve	-6283
▁homes	-6284
▁woman	-6285
▁invite	-6286
▁decline	-6287
▁stimulate	-6288
▁safeguards	-6289
▁disappointed	-6290
▁Cur	-6291
▁elig	-6292
▁euros	-6293
▁journe	-6294
▁USD	-6295
▁Educ	-6296
▁English	-6297
▁deficits	-6298
▁incident	-6299
▁earthquake	-6300
▁reservations	-6301
▁ECR	-6302
ections	-6303
itizens	-6304
▁robust	-6305
▁aircraft	-6306
hus	-6307
jud	-6308
▁197	-6309
▁firms	-6310
▁timet	-6311
▁directed	-6312
▁contributes	-6313
▁unanimously	-6314
LV	-6315
▁innoc	-6316
▁Estonia	-6317
▁subsequent	-6318
▁clarification	-6319
acerb	-6320
inder	-6321
aching	-6322
▁persu	-6323
▁princip	-6324
▁violent	-6325
▁autonomy	-6326
▁Wednesday	-6327
▁Air	-6328
▁copy	-6329
▁enfor	-6330
▁shape	-6331
▁commod	-6332
▁exacerb	-6333
▁multinational	-6334
ef	-6335
cri	-6336
▁frank	-6337
▁residence	-6338
ER	-6339
national	-6340
▁Tourism	-6341
▁wording	-6342
▁gambling	-6343
▁subjects	-6344
▁ant	-6345
▁map	-6346
▁image	-6347
istered	-6348
▁topics	-6349
▁facility	-6350
▁lifelong	-6351
▁imperative	-6352
▁traditions	-6353
▁delegations	-6354
vi	-6355
wan	-6356
resh	-6357
▁unb	-6358
▁names	-6359
ospital	-6360
▁August	-6361
▁advocate	-6362
▁examined	-6363
print	-6364
▁exposed	-6365
▁ignored	-6366
▁motions	-6367
▁released	-6368
fri	-6369
atab	-6370
▁adm	-6371
▁Nord	-6372
▁rely	-6373
▁contam	-6374
▁ratify	-6375
▁shares	-6376
▁2007-2013	-6377
iminal	-6378
▁mount	-6379
▁trace	-6380
unctioning	-6381
▁attractive	-6382
▁observation	-6383
pow	-6384
▁hum	-6385
▁Chad	-6386
▁recover	-6387
▁Education	-6388
▁incentive	-6389
▁concession	-6390
▁productive	-6391
▁compromises	-6392
▁consistently	-6393
ald	-6394
allel	-6395
▁sites	-6396
▁Culture	-6397
▁applaud	-6398
▁dioxide	-6399
fortunate	-6400
▁maintenance	-6401
▁investigations	-6402
▁characteristics	-6403
ann	-6404
▁cease	-6405
▁ports	-6406
▁incomp	-6407
▁joining	-6408
▁unfortunate	-6409
otive	-6410
▁fort	-6411
▁sacr	-6412
▁sell	-6413
▁stream	-6414
▁closure	-6415
ontal	-6416
▁marks	-6417
▁hardly	-6418
▁dumping	-6419
▁illegally	-6420
▁disadvantaged	-6421
hn	-6422
▁Er	-6423
esty	-6424
commun	-6425
▁datab	-6426
▁super	-6427
▁suspect	-6428
▁employed	-6429
▁representing	-6430
oud	-6431
▁IN	-6432
ustain	-6433
▁misle	-6434
▁signs	-6435
▁relate	-6436
▁equivalent	-6437
▁outstanding	-6438
enko	-6439
keep	-6440
▁1990	-6441
▁Rome	-6442
▁unlike	-6443
▁ensures	-6444
▁covering	-6445
▁familiar	-6446
▁Hamas	-6447
▁derog	-6448
▁error	-6449
▁neglect	-6450
▁entering	-6451
▁integrate	-6452
▁stringent	-6453
▁manufacturing	-6454
▁manag	-6455
▁lacking	-6456
▁forecast	-6457
mos	-6458
unte	-6459
▁SIS	-6460
▁cope	-6461
▁begun	-6462
uestion	-6463
▁raises	-6464
▁weight	-6465
▁closing	-6466
▁medicinal	-6467
▁regularly	-6468
text	-6469
▁rescue	-6470
aceutical	-6471
emen	-6472
▁keen	-6473
forest	-6474
▁retire	-6475
▁intoler	-6476
▁refused	-6477
▁promotes	-6478
▁transform	-6479
▁incorporated	-6480
NR	-6481
2010	-6482
▁Mer	-6483
arded	-6484
▁Decl	-6485
▁mort	-6486
▁pact	-6487
▁Ferre	-6488
▁parallel	-6489
▁profound	-6490
▁participating	-6491
fur	-6492
umn	-6493
▁Har	-6494
olved	-6495
▁crops	-6496
▁stages	-6497
▁Clearly	-6498
▁Equality	-6499
▁tolerance	-6500
isp	-6501
alse	-6502
▁notice	-6503
▁spring	-6504
▁timber	-6505
▁judgment	-6506
▁disparities	-6507
▁orientation	-6508
▁potentially	-6509
arked	-6510
▁ener	-6511
▁Guant	-6512
▁judge	-6513
▁corner	-6514
▁player	-6515
▁basically	-6516
▁approaches	-6517
▁suggestion	-6518
▁Int	-6519
▁fat	-6520
▁mun	-6521
▁Comp	-6522
▁Business	-6523
che	-6524
osing	-6525
▁died	-6526
▁cooper	-6527
▁category	-6528
▁division	-6529
▁listening	-6530
▁punishment	-6531
off	-6532
2007	-6533
▁Spe	-6534
▁fif	-6535
▁bond	-6536
▁seat	-6537
▁hypoc	-6538
▁impet	-6539
▁night	-6540
▁smart	-6541
▁visible	-6542
30	-6543
▁impetus	-6544
▁exchanges	-6545
▁horizontal	-6546
▁travelling	-6547
▁appointment	-6548
DF	-6549
abu	-6550
▁hyd	-6551
▁syn	-6552
ophob	-6553
requis	-6554
▁2011,	-6555
▁floods	-6556
▁fragment	-6557
regulation	-6558
▁functions	-6559
▁Concern	-6560
▁adapted	-6561
▁answered	-6562
▁preventive	-6563
▁resistance	-6564
9,	-6565
LAF	-6566
gans	-6567
▁finger	-6568
▁organs	-6569
▁defining	-6570
▁hospital	-6571
▁envisaged	-6572
▁categories	-6573
itzer	-6574
▁wors	-6575
▁friend	-6576
▁divided	-6577
▁immunity	-6578
▁spectrum	-6579
▁adequately	-6580
ior	-6581
dden	-6582
ioned	-6583
phere	-6584
abucco	-6585
▁looks	-6586
▁interf	-6587
▁stimul	-6588
▁unjust	-6589
▁tribute	-6590
itzerland	-6591
4,	-6592
▁nar	-6593
▁sen	-6594
being	-6595
▁recyc	-6596
▁looked	-6597
▁sports	-6598
▁strive	-6599
▁Southern	-6600
▁disabilities	-6601
▁Taj	-6602
othing	-6603
▁insec	-6604
▁attend	-6605
▁funded	-6606
▁worthy	-6607
friendly	-6608
amentally	-6609
▁controlled	-6610
oles	-6611
stan	-6612
▁spl	-6613
▁OSCE	-6614
▁Above	-6615
▁conce	-6616
▁solved	-6617
iological	-6618
▁contrast	-6619
▁convince	-6620
gu	-6621
oad	-6622
▁enthus	-6623
▁privat	-6624
▁Olympic	-6625
ationally	-6626
▁Criminal	-6627
▁liability	-6628
▁Declaration	-6629
▁statistical	-6630
▁presidential	-6631
gs	-6632
med	-6633
▁UEN	-6634
▁bra	-6635
known	-6636
▁banned	-6637
emocratic	-6638
▁strictly	-6639
▁criminals	-6640
▁prerequis	-6641
▁redundancies	-6642
▁pharmaceutical	-6643
time	-6644
▁Inc	-6645
▁Tai	-6646
▁rac	-6647
apers	-6648
ounce	-6649
▁cere	-6650
▁warmly	-6651
▁Nabucco	-6652
▁gradual	-6653
financing	-6654
▁Dr	-6655
igned	-6656
▁liked	-6657
▁engine	-6658
▁refuse	-6659
▁observe	-6660
▁avoiding	-6661
▁features	-6662
▁exclusive	-6663
▁infrastructures	-6664
xic	-6665
view	-6666
▁placing	-6667
▁programming	-6668
2,	-6669
gments	-6670
▁fails	-6671
▁Taiwan	-6672
▁detain	-6673
▁flights	-6674
▁shortly	-6675
▁variety	-6676
▁Institute	-6677
▁Switzerland	-6678
▁conservation	-6679
▁CF	-6680
▁Area	-6681
▁drop	-6682
▁irre	-6683
others	-6684
▁dream	-6685
▁invited	-6686
▁discipline	-6687
▁experiences	-6688
▁subsequently	-6689
▁considerations	-6690
mer	-6691
▁El	-6692
imer	-6693
▁Lux	-6694
▁label	-6695
▁Barrot	-6696
▁attain	-6697
▁outlined	-6698
▁containing	-6699
▁pays	-6700
▁bench	-6701
▁fresh	-6702
▁ideal	-6703
▁absurd	-6704
atellite	-6705
▁renewed	-6706
▁messages	-6707
▁draftsman	-6708
▁researchers	-6709
law	-6710
yan	-6711
namo	-6712
▁adult	-6713
▁decade	-6714
▁resett	-6715
▁helpful	-6716
▁mobilise	-6717
▁yourself	-6718
▁conviction	-6719
▁engagement	-6720
▁simplifying	-6721
▁nav	-6722
exist	-6723
stream	-6724
▁milit	-6725
▁newsp	-6726
▁initiated	-6727
▁monitored	-6728
▁everywhere	-6729
▁occupation	-6730
▁recognising	-6731
▁jurisdiction	-6732
asc	-6733
▁nom	-6734
▁warn	-6735
▁Balkan	-6736
▁lesson	-6737
▁sudden	-6738
▁sentence	-6739
▁harmonise	-6740
▁movements	-6741
▁compatible	-6742
▁foodstuffs	-6743
ero	-6744
rew	-6745
▁learned	-6746
▁section	-6747
▁reserves	-6748
▁exemption	-6749
ew	-6750
▁5.	-6751
esides	-6752
▁Luxem	-6753
▁faster	-6754
▁pursued	-6755
▁resumed	-6756
▁platform	-6757
▁interconn	-6758
▁Concerning	-6759
▁interference	-6760
▁Sup	-6761
▁fil	-6762
▁scar	-6763
▁false	-6764
▁volume	-6765
▁dismant	-6766
ommission	-6767
▁Director	-6768
▁acceptance	-6769
IF	-6770
ossil	-6771
tering	-6772
▁2013.	-6773
▁chapter	-6774
▁entities	-6775
▁globally	-6776
▁Ukrainian	-6777
▁permitted	-6778
▁subjected	-6779
8,	-6780
▁era	-6781
▁Conf	-6782
▁White	-6783
▁assert	-6784
▁publish	-6785
▁exceptions	-6786
aut	-6787
▁EF	-6788
rust	-6789
ercos	-6790
▁earm	-6791
▁Malta	-6792
▁badly	-6793
▁fleet	-6794
▁autumn	-6795
▁pretext	-6796
▁bankrupt	-6797
▁household	-6798
▁regulating	-6799
▁fate	-6800
ooking	-6801
▁fourth	-6802
▁gained	-6803
▁smooth	-6804
▁billions	-6805
▁corporate	-6806
▁explained	-6807
▁surrounding	-6808
urg	-6809
▁mach	-6810
▁shipy	-6811
ercosur	-6812
▁Certain	-6813
▁focuses	-6814
▁illustr	-6815
▁visited	-6816
▁accurate	-6817
▁irrespon	-6818
▁stresses	-6819
▁comparable	-6820
▁inequality	-6821
▁elimination	-6822
ula	-6823
heart	-6824
▁lawy	-6825
▁moved	-6826
▁grants	-6827
▁enshrined	-6828
▁consolidate	-6829
▁bul	-6830
▁brutal	-6831
▁breaches	-6832
▁imperial	-6833
▁realised	-6834
▁destroyed	-6835
▁timetable	-6836
▁accordingly	-6837
ID	-6838
let	-6839
orne	-6840
quir	-6841
ublin	-6842
▁brid	-6843
rorism	-6844
▁middle	-6845
▁Luxembourg	-6846
▁retirement	-6847
▁fundamentally	-6848
pone	-6849
▁wise	-6850
▁blind	-6851
▁minors	-6852
▁postpone	-6853
▁disastrous	-6854
▁mal	-6855
▁sex	-6856
▁vit	-6857
▁acted	-6858
▁parad	-6859
▁apolog	-6860
▁slightly	-6861
▁preparations	-6862
mstr	-6863
tini	-6864
▁Gender	-6865
▁arrive	-6866
▁disreg	-6867
▁Process	-6868
▁Somalia	-6869
▁Working	-6870
▁registr	-6871
▁tackled	-6872
▁innocent	-6873
▁pursuing	-6874
▁desirable	-6875
uk	-6876
▁Who	-6877
liers	-6878
▁Mich	-6879
▁soft	-6880
iciary	-6881
▁foster	-6882
▁analyse	-6883
▁exploit	-6884
respective	-6885
▁suppliers	-6886
▁indication	-6887
6,	-6888
LO	-6889
celona	-6890
▁meets	-6891
▁fossil	-6892
▁precond	-6893
▁abortion	-6894
▁disappear	-6895
▁acknowledged	-6896
▁irregularities	-6897
mann	-6898
▁seas	-6899
▁Guine	-6900
▁outset	-6901
▁preced	-6902
▁dangers	-6903
▁stopped	-6904
▁usually	-6905
▁scientists	-6906
ato	-6907
eter	-6908
ibly	-6909
nier	-6910
elled	-6911
▁Among	-6912
▁clauses	-6913
▁tonight	-6914
▁coordinating	-6915
▁Gar	-6916
▁Sah	-6917
▁diagn	-6918
▁ended	-6919
carious	-6920
▁convey	-6921
▁priorit	-6922
▁Chairman	-6923
▁marginal	-6924
▁withdrawal	-6925
▁Den	-6926
ashing	-6927
▁heads	-6928
▁interm	-6929
▁mothers	-6930
▁presents	-6931
▁replaced	-6932
▁component	-6933
cho	-6934
rect	-6935
sset	-6936
▁Gulf	-6937
▁capt	-6938
▁2020,	-6939
▁train	-6940
lements	-6941
▁obtaining	-6942
▁availability	-6943
bre	-6944
enez	-6945
▁argue	-6946
▁Dublin	-6947
▁Monday	-6948
▁waiver	-6949
▁Barnier	-6950
▁reinforcing	-6951
▁congratulating	-6952
rov	-6953
ijing	-6954
▁OLAF	-6955
ivered	-6956
▁Finland	-6957
▁Malmstr	-6958
▁volat	-6959
▁arbitr	-6960
▁nobody	-6961
▁judiciary	-6962
▁unanimous	-6963
▁misleading	-6964
▁responding	-6965
▁Rel	-6966
▁acad	-6967
▁pret	-6968
▁uses	-6969
itably	-6970
▁Hence	-6971
▁atmos	-6972
▁story	-6973
▁havens	-6974
▁Beijing	-6975
▁devoted	-6976
▁findings	-6977
▁activists	-6978
▁delivered	-6979
▁pragmatic	-6980
▁atmosphere	-6981
▁restrictive	-6982
▁conciliation	-6983
▁Dar	-6984
antly	-6985
▁desp	-6986
ussions	-6987
▁resort	-6988
▁avoided	-6989
▁solving	-6990
▁assessed	-6991
▁executive	-6992
▁rejection	-6993
▁constituency	-6994
▁demonstration	-6995
▁internationally	-6996
DC	-6997
ls	-6998
whel	-6999
▁cha	-7000
▁esc	-7001
▁kil	-7002
▁Venez	-7003
▁emerge	-7004
▁College	-7005
▁postpon	-7006
▁removal	-7007
▁Citizens	-7008
▁assurance	-7009
▁endeavour	-7010
▁concessions	-7011
▁nonetheless	-7012
▁associations	-7013
▁professionals	-7014
vy	-7015
▁80	-7016
ompl	-7017
urit	-7018
ressed	-7019
▁Venezuel	-7020
▁offences	-7021
▁overwhel	-7022
▁assessing	-7023
▁estimates	-7024
▁alternatives	-7025
▁Po	-7026
▁foods	-7027
▁input	-7028
▁agrees	-7029
▁donors	-7030
▁multip	-7031
▁Similar	-7032
▁distingu	-7033
▁eurozone	-7034
▁reaffirm	-7035
▁Barcelona	-7036
▁reflection	-7037
▁stabilisation	-7038
▁dele	-7039
▁game	-7040
▁wake	-7041
▁depos	-7042
▁Martin	-7043
▁incomes	-7044
▁monopol	-7045
▁limiting	-7046
▁rigorous	-7047
▁initially	-7048
▁transplant	-7049
▁reciprocity	-7050
▁die	-7051
under	-7052
▁audit	-7053
▁north	-7054
▁toxic	-7055
▁veget	-7056
▁accompl	-7057
▁founded	-7058
▁Approval	-7059
▁Mercosur	-7060
▁pluralism	-7061
▁inspections	-7062
state	-7063
▁feas	-7064
▁onto	-7065
▁Prize	-7066
▁Thanks	-7067
▁excuse	-7068
▁modified	-7069
▁chemicals	-7070
▁encourages	-7071
how	-7072
▁earn	-7073
▁empt	-7074
▁cycle	-7075
▁domin	-7076
▁frame	-7077
cultural	-7078
▁diverse	-7079
▁damaging	-7080
▁handling	-7081
▁meantime	-7082
▁detriment	-7083
▁recycling	-7084
forestation	-7085
▁automotive	-7086
▁dependency	-7087
▁transaction	-7088
jan	-7089
mas	-7090
rown	-7091
▁Net	-7092
rogen	-7093
▁alle	-7094
▁grat	-7095
▁sales	-7096
agement	-7097
▁marked	-7098
oliberal	-7099
ustainable	-7100
▁residents	-7101
ooks	-7102
oper	-7103
▁60%	-7104
▁Code	-7105
▁camps	-7106
▁shift	-7107
▁socially	-7108
▁precarious	-7109
▁productivity	-7110
mon	-7111
▁Lam	-7112
ocide	-7113
▁Could	-7114
unately	-7115
▁fought	-7116
▁accused	-7117
▁pillars	-7118
▁invested	-7119
▁Bulgarian	-7120
▁criticised	-7121
DEM	-7122
▁faces	-7123
▁unres	-7124
▁Denmark	-7125
▁feature	-7126
▁unified	-7127
▁judgments	-7128
CO	-7129
eneva	-7130
opoly	-7131
▁pose	-7132
▁zero	-7133
ferent	-7134
▁aiming	-7135
▁retail	-7136
▁enhancing	-7137
EAS	-7138
▁vary	-7139
carbon	-7140
▁Compet	-7141
▁shipping	-7142
▁consolidated	-7143
▁diversification	-7144
▁proportionality	-7145
puy	-7146
▁11.	-7147
▁fit	-7148
▁depl	-7149
▁Rompuy	-7150
▁smoking	-7151
▁Belarusian	-7152
▁reinforced	-7153
▁La	-7154
▁sums	-7155
▁narrow	-7156
▁struck	-7157
▁Morocco	-7158
▁energies	-7159
▁mountain	-7160
▁addresses	-7161
▁generated	-7162
▁eventually	-7163
▁neoliberal	-7164
▁aspirations	-7165
uber	-7166
▁Dav	-7167
▁PNR	-7168
▁fears	-7169
▁celebr	-7170
▁arrested	-7171
▁everyday	-7172
▁soldiers	-7173
▁Naturally	-7174
▁constraint	-7175
▁participants	-7176
▁counterfeiting	-7177
▁IND	-7178
rical	-7179
▁Sever	-7180
▁stick	-7181
▁twice	-7182
▁Seventh	-7183
▁investigate	-7184
▁consequently	-7185
▁relationships	-7186
7-0	-7187
ork	-7188
▁gir	-7189
▁squ	-7190
ariat	-7191
erbai	-7192
▁maybe	-7193
▁seats	-7194
▁Change	-7195
egration	-7196
reaching	-7197
▁desired	-7198
▁essence	-7199
▁inhuman	-7200
▁obstacle	-7201
▁indicates	-7202
▁lobbyists	-7203
▁traceability	-7204
add	-7205
▁Dep	-7206
icter	-7207
▁dear	-7208
iminary	-7209
▁fallen	-7210
▁openly	-7211
▁telling	-7212
▁volunte	-7213
▁purchase	-7214
▁shortage	-7215
▁observers	-7216
▁satellite	-7217
▁thoroughly	-7218
▁concentration	-7219
▁70%	-7220
▁Pat	-7221
▁vigil	-7222
▁Instru	-7223
▁bottom	-7224
appropri	-7225
▁Support	-7226
▁heavily	-7227
▁sectoral	-7228
▁explicitly	-7229
▁democratisation	-7230
US	-7231
▁Lank	-7232
heimer	-7233
▁Syria	-7234
▁Darfur	-7235
▁Within	-7236
▁trends	-7237
▁cultures	-7238
▁transferred	-7239
▁Palestinians	-7240
▁substantially	-7241
ipped	-7242
▁2001	-7243
▁zones	-7244
zheimer	-7245
▁Geneva	-7246
▁northern	-7247
▁wherever	-7248
▁fulfilled	-7249
▁conscience	-7250
▁Progressive	-7251
▁examination	-7252
▁progressive	-7253
▁constituents	-7254
vo	-7255
ros	-7256
▁Sri	-7257
ounded	-7258
▁Armen	-7259
▁Leban	-7260
▁exert	-7261
▁Guinea	-7262
▁laying	-7263
▁Azerbai	-7264
▁redress	-7265
▁pressing	-7266
beit	-7267
▁dup	-7268
▁Decision	-7269
▁Alzheimer	-7270
▁Democracy	-7271
▁appointed	-7272
▁broadband	-7273
▁recommended	-7274
kh	-7275
▁hes	-7276
▁sale	-7277
ushing	-7278
▁prejud	-7279
▁reverse	-7280
▁transmission	-7281
▁justification	-7282
turn	-7283
ulous	-7284
▁stem	-7285
▁Kyoto	-7286
▁posed	-7287
▁safer	-7288
▁piracy	-7289
▁establishes	-7290
▁disadvantage	-7291
7,	-7292
IP	-7293
iov	-7294
▁ali	-7295
redit	-7296
ulates	-7297
▁empty	-7298
▁towns	-7299
▁quarter	-7300
▁securing	-7301
▁stricter	-7302
▁wholeheart	-7303
▁incorporate	-7304
▁0	-7305
roup	-7306
▁hot	-7307
▁Canc	-7308
▁enabled	-7309
▁streets	-7310
▁diplomacy	-7311
▁examining	-7312
▁exploited	-7313
▁witnessed	-7314
▁authorised	-7315
▁decommission	-7316
▁Eff	-7317
▁reimb	-7318
▁Current	-7319
▁channels	-7320
▁survival	-7321
▁Palestine	-7322
▁precedent	-7323
▁registered	-7324
call	-7325
stry	-7326
roots	-7327
▁upgra	-7328
▁fragile	-7329
▁morator	-7330
▁incidents	-7331
▁Amendments	-7332
▁complexity	-7333
▁concluding	-7334
▁corresponding	-7335
-1	-7336
▁CE	-7337
urch	-7338
ongue	-7339
▁born	-7340
▁guard	-7341
▁holid	-7342
▁albeit	-7343
▁poorer	-7344
▁serves	-7345
▁offices	-7346
▁confront	-7347
liferation	-7348
▁criticise	-7349
▁socialist	-7350
▁moratorium	-7351
▁eliminating	-7352
▁democratically	-7353
empl	-7354
▁Ter	-7355
anged	-7356
▁kill	-7357
▁Until	-7358
▁absor	-7359
▁accus	-7360
▁Muslim	-7361
▁initiate	-7362
▁petition	-7363
▁suggests	-7364
▁workforce	-7365
▁enterprise	-7366
▁overwhelming	-7367
▁registration	-7368
▁interventions	-7369
3,	-7370
dep	-7371
het	-7372
isc	-7373
▁6.	-7374
stic	-7375
▁12.	-7376
▁dupl	-7377
▁2012.	-7378
▁Great	-7379
▁match	-7380
▁prime	-7381
▁emerged	-7382
▁infringements	-7383
abe	-7384
ano	-7385
son	-7386
itle	-7387
▁400	-7388
▁root	-7389
▁2005,	-7390
▁donor	-7391
▁career	-7392
▁reperc	-7393
▁carriers	-7394
▁copyright	-7395
▁liquidity	-7396
▁references	-7397
▁certification	-7398
▁systematically	-7399
zen	-7400
ship	-7401
sych	-7402
▁Made	-7403
soever	-7404
▁mitig	-7405
▁pregn	-7406
▁denied	-7407
▁genocide	-7408
▁pursuant	-7409
▁globalised	-7410
▁publication	-7411
▁continuation	-7412
▁repercussions	-7413
hand	-7414
▁2014	-7415
▁Bali	-7416
▁Camp	-7417
legisl	-7418
lihood	-7419
▁liter	-7420
▁sympathy	-7421
▁consulted	-7422
▁apparently	-7423
▁whatsoever	-7424
▁capabilities	-7425
▁identification	-7426
amed	-7427
ugen	-7428
▁25%	-7429
▁dual	-7430
▁prel	-7431
▁logic	-7432
iciency	-7433
idencies	-7434
▁capacities	-7435
▁continuous	-7436
AN	-7437
arsh	-7438
▁pick	-7439
▁distance	-7440
▁forestry	-7441
▁remained	-7442
▁concludes	-7443
seen	-7444
▁Luk	-7445
▁cast	-7446
▁gaps	-7447
▁hoped	-7448
▁located	-7449
▁collected	-7450
▁requiring	-7451
▁transfers	-7452
▁preliminary	-7453
▁irrespective	-7454
CC	-7455
ima	-7456
icip	-7457
▁Mult	-7458
ughter	-7459
▁psych	-7460
▁learnt	-7461
▁fishery	-7462
▁silence	-7463
▁delivery	-7464
▁isolation	-7465
▁distinction	-7466
IV	-7467
ey	-7468
▁Leh	-7469
ommod	-7470
▁trig	-7471
▁embar	-7472
▁Voting	-7473
▁issuing	-7474
▁victory	-7475
mentioned	-7476
board	-7477
▁shar	-7478
▁fixed	-7479
▁protests	-7480
▁recorded	-7481
7%	-7482
tar	-7483
▁hour	-7484
orient	-7485
▁faire	-7486
▁article	-7487
▁install	-7488
▁western	-7489
▁personnel	-7490
▁attempting	-7491
▁university	-7492
GA	-7493
▁Far	-7494
▁Mug	-7495
aming	-7496
utors	-7497
▁halt	-7498
▁2006.	-7499
▁refugee	-7500
▁accommod	-7501
▁Technology	-7502
▁civilisation	-7503
Med	-7504
emb	-7505
▁Mos	-7506
▁phil	-7507
▁borne	-7508
▁minor	-7509
▁sight	-7510
ophobia	-7511
▁indisp	-7512
▁mental	-7513
▁Madeira	-7514
▁ethical	-7515
▁Conservatives	-7516
▁sem	-7517
▁Comb	-7518
▁Rehn	-7519
▁Games	-7520
▁guide	-7521
▁Mugabe	-7522
▁workplace	-7523
▁preservation	-7524
▁irresponsible	-7525
▁Law	-7526
▁Sal	-7527
▁race	-7528
▁accel	-7529
▁Lukash	-7530
▁banana	-7531
▁equity	-7532
▁backing	-7533
▁integral	-7534
▁stimulus	-7535
▁weaknesses	-7536
▁accountable	-7537
▁combination	-7538
▁-.	-7539
▁Fl	-7540
atch	-7541
▁disse	-7542
develop	-7543
▁federal	-7544
▁Federation	-7545
▁unilateral	-7546
▁Functioning	-7547
▁detrimental	-7548
▁ideological	-7549
▁prerequisite	-7550
Af	-7551
ho	-7552
▁reb	-7553
enous	-7554
itect	-7555
owski	-7556
▁debts	-7557
▁sheep	-7558
pection	-7559
▁symbols	-7560
▁deciding	-7561
▁monopoly	-7562
▁symbolic	-7563
▁Similarly	-7564
▁wonderful	-7565
▁adjustment	-7566
communications	-7567
ario	-7568
▁90%	-7569
overed	-7570
▁confron	-7571
▁creativity	-7572
▁inspection	-7573
▁ties	-7574
▁Verhe	-7575
▁modes	-7576
▁popul	-7577
▁website	-7578
▁adapting	-7579
▁defended	-7580
▁mutually	-7581
▁publicly	-7582
▁architect	-7583
▁principal	-7584
▁Lukashenko	-7585
▁identifying	-7586
▁threatening	-7587
▁translation	-7588
asp	-7589
▁7.	-7590
haust	-7591
▁deem	-7592
▁wall	-7593
reasing	-7594
▁disturb	-7595
▁assembly	-7596
▁railways	-7597
▁tensions	-7598
▁Verheugen	-7599
▁accepting	-7600
▁dedicated	-7601
▁Azerbaijan	-7602
▁practically	-7603
ocal	-7604
▁wave	-7605
▁asset	-7606
▁grave	-7607
ensable	-7608
icating	-7609
assroots	-7610
▁location	-7611
▁inappropri	-7612
▁composition	-7613
▁distributed	-7614
IA	-7615
MO	-7616
long	-7617
arters	-7618
▁Child	-7619
▁Paris	-7620
▁hedge	-7621
▁stead	-7622
▁survive	-7623
▁advances	-7624
▁reviewed	-7625
▁customers	-7626
fire	-7627
lers	-7628
▁Def	-7629
▁Sak	-7630
▁aqu	-7631
▁mig	-7632
pical	-7633
▁pace	-7634
uments	-7635
▁gases	-7636
▁lists	-7637
▁oppon	-7638
▁syner	-7639
▁buying	-7640
▁entails	-7641
▁Everyone	-7642
▁Instrument	-7643
▁allowances	-7644
▁suspension	-7645
▁counterfeit	-7646
mes	-7647
▁9.	-7648
urse	-7649
ization	-7650
▁philos	-7651
▁footing	-7652
▁vitally	-7653
▁returned	-7654
▁paramount	-7655
ministration	-7656
▁problematic	-7657
Mediterranean	-7658
▁characterised	-7659
mar	-7660
aving	-7661
▁emot	-7662
▁Apart	-7663
▁ceiling	-7664
▁logical	-7665
▁ratings	-7666
▁managers	-7667
▁reproductive	-7668
▁demonstrations	-7669
cow	-7670
ibb	-7671
ils	-7672
eded	-7673
▁His	-7674
▁Nig	-7675
idden	-7676
▁bill	-7677
uesday	-7678
▁coach	-7679
▁preca	-7680
▁disgra	-7681
▁fairer	-7682
emporary	-7683
▁decrease	-7684
▁Christmas	-7685
▁definitive	-7686
▁disability	-7687
▁indispensable	-7688
2.	-7689
iant	-7690
Afric	-7691
asmus	-7692
group	-7693
Russia	-7694
mitting	-7695
▁Reding	-7696
▁season	-7697
▁journey	-7698
▁stating	-7699
▁anywhere	-7700
▁pointing	-7701
▁severely	-7702
▁teachers	-7703
▁intermedi	-7704
▁excellence	-7705
▁volatility	-7706
▁constraints	-7707
▁preferences	-7708
▁transnational	-7709
uled	-7710
▁Board	-7711
▁fault	-7712
▁remit	-7713
▁surpl	-7714
▁repeal	-7715
▁interoper	-7716
▁deforestation	-7717
EA	-7718
▁5%	-7719
iest	-7720
depth	-7721
ureau	-7722
▁mostly	-7723
cription	-7724
▁exhaust	-7725
▁politic	-7726
▁swiftly	-7727
▁tariffs	-7728
▁removing	-7729
▁deadlines	-7730
▁prud	-7731
▁units	-7732
▁remedy	-7733
establish	-7734
▁confusion	-7735
▁earmarked	-7736
▁Communication	-7737
In	-7738
celer	-7739
ivate	-7740
▁fines	-7741
▁impart	-7742
▁update	-7743
▁Network	-7744
▁knowing	-7745
▁Fourthly	-7746
▁governed	-7747
▁abandoned	-7748
▁expecting	-7749
▁extremism	-7750
▁resettlement	-7751
TS	-7752
akh	-7753
▁Bu	-7754
▁ends	-7755
ashion	-7756
▁throw	-7757
▁airline	-7758
▁automatic	-7759
▁trialogue	-7760
▁completion	-7761
(2)	-7762
▁Fort	-7763
▁Pack	-7764
ietnam	-7765
▁manif	-7766
▁scept	-7767
culosis	-7768
ilingual	-7769
▁worried	-7770
▁confirms	-7771
▁disgrace	-7772
▁belonging	-7773
▁responded	-7774
uberculosis	-7775
▁capitalist	-7776
▁wholeheartedly	-7777
▁Aust	-7778
ibbean	-7779
▁depth	-7780
▁Moscow	-7781
▁leaves	-7782
▁praise	-7783
▁reserve	-7784
▁Progress	-7785
▁sections	-7786
▁synergies	-7787
▁organising	-7788
▁renewables	-7789
made	-7790
rage	-7791
▁Cam	-7792
ouses	-7793
▁lingu	-7794
▁Eurost	-7795
▁lowest	-7796
▁notion	-7797
▁Tibetan	-7798
▁acceler	-7799
▁authors	-7800
▁refusal	-7801
▁selling	-7802
▁scenario	-7803
▁ultimate	-7804
▁electrical	-7805
▁underlined	-7806
▁innovations	-7807
▁radioactive	-7808
▁industrialised	-7809
IDS	-7810
gue	-7811
▁EN	-7812
▁Found	-7813
▁cance	-7814
ography	-7815
▁revise	-7816
▁arrived	-7817
▁assured	-7818
▁testing	-7819
▁paragraphs	-7820
▁purchasing	-7821
▁facilitation	-7822
▁macroeconomic	-7823
kel	-7824
lig	-7825
isch	-7826
with	-7827
▁Dal	-7828
▁shop	-7829
dition	-7830
▁corrid	-7831
▁incred	-7832
▁warrant	-7833
▁frequent	-7834
col	-7835
ett	-7836
▁Round	-7837
▁compr	-7838
▁poses	-7839
▁Whilst	-7840
▁caught	-7841
▁threaten	-7842
▁defenders	-7843
▁differently	-7844
▁substantive	-7845
▁announcement	-7846
▁condemnation	-7847
yn	-7848
▁sep	-7849
▁Corre	-7850
▁celeb	-7851
▁yield	-7852
▁voices	-7853
▁unequiv	-7854
▁Japanese	-7855
▁isolated	-7856
▁producer	-7857
▁appalling	-7858
▁insecurity	-7859
▁Sk	-7860
ball	-7861
▁mus	-7862
erion	-7863
oning	-7864
▁fals	-7865
▁Person	-7866
▁adding	-7867
▁delayed	-7868
▁reminded	-7869
▁decentral	-7870
▁petitions	-7871
▁inevitably	-7872
▁separation	-7873
▁underlines	-7874
mail	-7875
▁San	-7876
▁flu	-7877
harov	-7878
▁roll	-7879
▁2004,	-7880
ialogues	-7881
▁abolish	-7882
▁evasion	-7883
▁salaries	-7884
▁Caribbean	-7885
▁criterion	-7886
▁preferred	-7887
▁introduces	-7888
▁inappropriate	-7889
▁Equ	-7890
▁insp	-7891
▁scan	-7892
icious	-7893
▁colon	-7894
icurity	-7895
keeping	-7896
▁Bureau	-7897
▁Stream	-7898
▁propag	-7899
▁Pacific	-7900
▁Workers	-7901
▁Sakharov	-7902
▁advocates	-7903
▁financially	-7904
eds	-7905
rier	-7906
▁McC	-7907
bonds	-7908
cient	-7909
▁trip	-7910
ultane	-7911
osexual	-7912
▁kilomet	-7913
▁enforced	-7914
▁surprise	-7915
▁inconsist	-7916
abilisation	-7917
▁indirectly	-7918
3%	-7919
6%	-7920
▁allevi	-7921
▁proves	-7922
▁racism	-7923
▁reluct	-7924
▁Burmese	-7925
▁misunder	-7926
▁components	-7927
▁bold	-7928
▁lays	-7929
▁Asylum	-7930
▁agents	-7931
▁costly	-7932
▁gather	-7933
regional	-7934
▁enjoyed	-7935
▁momentum	-7936
▁depending	-7937
▁secondary	-7938
2006	-7939
ault	-7940
▁Bet	-7941
▁HIV	-7942
▁Scot	-7943
▁dimin	-7944
▁sends	-7945
▁divide	-7946
▁switch	-7947
▁Against	-7948
▁Erasmus	-7949
▁fashion	-7950
▁signals	-7951
▁manifest	-7952
▁underest	-7953
▁deployment	-7954
▁ecosystems	-7955
▁regulators	-7956
▁standardisation	-7957
AR	-7958
ands	-7959
▁Ban	-7960
▁whe	-7961
▁title	-7962
ometric	-7963
▁Poverty	-7964
▁Tuesday	-7965
▁migrant	-7966
▁deprived	-7967
▁strengthens	-7968
▁decommissioning	-7969
ubb	-7970
▁ILO	-7971
▁Pan	-7972
▁hat	-7973
ester	-7974
iality	-7975
▁await	-7976
▁bonds	-7977
▁passing	-7978
▁Scotland	-7979
▁delegated	-7980
▁incorrect	-7981
▁simultane	-7982
▁automatically	-7983
uv	-7984
ife	-7985
▁gre	-7986
▁Would	-7987
orously	-7988
▁sensit	-7989
▁Ferrero	-7990
▁Vietnam	-7991
▁artific	-7992
▁satisfy	-7993
ugoslavia	-7994
▁Americans	-7995
▁destination	-7996
▁devastating	-7997
9%	-7998
ma	-7999
uin	-8000
coni	-8001
▁Doc	-8002
▁blow	-8003
▁lend	-8004
aldner	-8005
bility	-8006
▁advis	-8007
▁moves	-8008
▁noise	-8009
▁tempt	-8010
itology	-8011
ranging	-8012
▁Should	-8013
▁protein	-8014
▁recital	-8015
▁simpler	-8016
▁analyses	-8017
▁demanded	-8018
▁clarified	-8019
▁realities	-8020
▁fulfilling	-8021
▁indications	-8022
emy	-8023
iev	-8024
▁EM	-8025
alem	-8026
cious	-8027
▁Mean	-8028
▁deny	-8029
utious	-8030
▁champ	-8031
▁newly	-8032
▁Opening	-8033
▁recruit	-8034
▁strange	-8035
▁Maritime	-8036
▁Recovery	-8037
▁formally	-8038
▁execution	-8039
▁Foundation	-8040
▁capitalism	-8041
▁x	-8042
oms	-8043
pled	-8044
power	-8045
▁exch	-8046
▁uphe	-8047
etting	-8048
minute	-8049
▁Asian	-8050
▁girls	-8051
Waldner	-8052
▁driven	-8053
inations	-8054
▁handled	-8055
▁admitted	-8056
▁database	-8057
▁affordable	-8058
▁1%	-8059
ilty	-8060
uble	-8061
uction	-8062
▁backed	-8063
▁Together	-8064
▁Combating	-8065
▁speculative	-8066
EEC	-8067
▁150	-8068
▁boy	-8069
iovis	-8070
▁mine	-8071
▁shap	-8072
▁tens	-8073
contro	-8074
▁2013,	-8075
▁intim	-8076
▁shock	-8077
igenous	-8078
ocation	-8079
▁worker	-8080
ashington	-8081
▁impunity	-8082
▁Meanwhile	-8083
▁linguistic	-8084
▁controlling	-8085
▁referendums	-8086
▁demonstrating	-8087
▁protectionist	-8088
udes	-8089
▁Dim	-8090
▁Ken	-8091
▁Kurd	-8092
▁outl	-8093
▁wild	-8094
▁Osset	-8095
▁Maurit	-8096
▁arises	-8097
iovisual	-8098
▁combine	-8099
▁display	-8100
▁thirdly	-8101
▁Venezuela	-8102
▁monopolies	-8103
8)	-8104
gle	-8105
ales	-8106
amped	-8107
▁100%	-8108
▁bomb	-8109
▁shut	-8110
▁notes	-8111
▁ending	-8112
▁guilty	-8113
▁inland	-8114
▁recast	-8115
▁reward	-8116
▁Serbian	-8117
▁Statute	-8118
▁sacrific	-8119
▁understandable	-8120
stein	-8121
iguous	-8122
▁recip	-8123
esterday	-8124
▁permits	-8125
efficient	-8126
▁boosting	-8127
▁normally	-8128
▁officers	-8129
▁biometric	-8130
▁proactive	-8131
▁Washington	-8132
▁preserving	-8133
▁fingerprint	-8134
▁appropriately	-8135
▁supplementary	-8136
aces	-8137
▁Each	-8138
▁tick	-8139
▁discl	-8140
▁divor	-8141
▁Michel	-8142
▁bigger	-8143
▁marria	-8144
▁underp	-8145
▁Lebanon	-8146
▁killing	-8147
▁academic	-8148
▁violated	-8149
▁complaint	-8150
▁selection	-8151
▁transportation	-8152
oke	-8153
ool	-8154
sess	-8155
▁Cap	-8156
▁ball	-8157
▁incur	-8158
issible	-8159
▁enrich	-8160
▁inquir	-8161
▁postal	-8162
▁cheaper	-8163
▁allocate	-8164
▁drinking	-8165
▁punished	-8166
▁taxpayer	-8167
▁abolished	-8168
▁liberties	-8169
▁unanimity	-8170
▁conducting	-8171
▁dimensions	-8172
▁mainstream	-8173
▁privatisation	-8174
alin	-8175
▁15%	-8176
▁ICT	-8177
aunch	-8178
▁gets	-8179
▁clust	-8180
▁perce	-8181
▁Merkel	-8182
▁Austral	-8183
▁conform	-8184
▁impacts	-8185
▁pushing	-8186
▁updated	-8187
▁vigilant	-8188
▁advocated	-8189
▁deepening	-8190
▁displaced	-8191
▁opponents	-8192
▁scheduled	-8193
▁officially	-8194
▁encouragement	-8195
IFT	-8196
▁70	-8197
WIFT	-8198
jour	-8199
▁Hol	-8200
akers	-8201
▁Jean	-8202
▁chapt	-8203
▁relief	-8204
▁frankly	-8205
▁offence	-8206
▁hydrogen	-8207
▁revenues	-8208
▁remarkable	-8209
▁undermining	-8210
oty	-8211
▁3%	-8212
▁Kh	-8213
oric	-8214
▁Brok	-8215
▁epid	-8216
earing	-8217
icular	-8218
▁harsh	-8219
▁alleged	-8220
▁cautious	-8221
▁textiles	-8222
▁autonomous	-8223
▁unresolved	-8224
▁ineffective	-8225
▁ER	-8226
oure	-8227
▁Exp	-8228
▁Pap	-8229
racies	-8230
▁align	-8231
▁geopol	-8232
▁harass	-8233
▁painful	-8234
▁concepts	-8235
▁delicate	-8236
▁generous	-8237
▁teaching	-8238
▁philosoph	-8239
▁cofinancing	-8240
▁cooperating	-8241
▁perpetrators	-8242
▁Av	-8243
▁GSP	-8244
▁Abkh	-8245
▁Anti	-8246
▁Mand	-8247
▁magn	-8248
▁rhet	-8249
▁runs	-8250
▁coinc	-8251
▁holds	-8252
▁manip	-8253
orating	-8254
▁Tajani	-8255
▁hoping	-8256
▁sustained	-8257
▁appreciation	-8258
▁observations	-8259
▁Mil	-8260
▁dur	-8261
▁van	-8262
▁vill	-8263
▁wars	-8264
iction	-8265
urances	-8266
▁Indian	-8267
▁absent	-8268
aculture	-8269
▁illness	-8270
regulated	-8271
▁attached	-8272
▁launching	-8273
▁Lithuanian	-8274
▁accelerate	-8275
▁indigenous	-8276
▁restricting	-8277
▁restriction	-8278
ita	-8279
que	-8280
anas	-8281
obod	-8282
icing	-8283
▁calm	-8284
▁gold	-8285
▁hide	-8286
▁Abkhaz	-8287
▁Danish	-8288
▁devote	-8289
▁summary	-8290
▁Documents	-8291
▁returning	-8292
▁surprising	-8293
▁nationality	-8294
gi	-8295
ala	-8296
plan	-8297
▁Tom	-8298
▁xen	-8299
▁EEAS	-8300
▁nutr	-8301
itudes	-8302
▁doors	-8303
▁risen	-8304
▁hinder	-8305
▁Defence	-8306
▁intimid	-8307
▁donation	-8308
▁postponed	-8309
▁viability	-8310
TE	-8311
def	-8312
mun	-8313
▁8.	-8314
▁cab	-8315
mense	-8316
▁rock	-8317
▁escal	-8318
ifiable	-8319
▁attrib	-8320
▁lending	-8321
▁renewal	-8322
▁chapters	-8323
▁operates	-8324
▁reassure	-8325
▁thoughts	-8326
▁arbitrary	-8327
▁sentences	-8328
▁stabilise	-8329
▁undermined	-8330
10	-8331
4%	-8332
9.	-8333
stad	-8334
▁Pie	-8335
▁Und	-8336
▁Taking	-8337
▁Several	-8338
▁bluefin	-8339
▁packages	-8340
▁revealed	-8341
▁comitology	-8342
▁delivering	-8343
▁exceptionally	-8344
ON	-8345
adays	-8346
▁intr	-8347
▁books	-8348
▁differ	-8349
▁wished	-8350
▁immense	-8351
▁intense	-8352
▁Eurostat	-8353
▁articles	-8354
▁flooding	-8355
▁passports	-8356
▁shipyards	-8357
▁withdrawn	-8358
▁internally	-8359
▁deterioration	-8360
det	-8361
▁ash	-8362
▁phr	-8363
egoti	-8364
stadt	-8365
athers	-8366
▁SWIFT	-8367
▁merit	-8368
urities	-8369
▁Berlin	-8370
▁termin	-8371
▁awaiting	-8372
▁assisting	-8373
▁originally	-8374
▁architecture	-8375
za	-8376
zy	-8377
utor	-8378
▁149(	-8379
▁book	-8380
▁diff	-8381
▁endang	-8382
▁fleets	-8383
▁Ossetia	-8384
▁injured	-8385
▁militar	-8386
▁Austrian	-8387
▁successes	-8388
▁Personally	-8389
▁Resolution	-8390
▁frameworks	-8391
▁positively	-8392
▁Corrections	-8393
▁communicate	-8394
▁imperialist	-8395
▁Conservative	-8396
-20	-8397
afi	-8398
ded	-8399
▁2%	-8400
▁35	-8401
▁Ph	-8402
▁SO	-8403
erce	-8404
iasm	-8405
▁Kla	-8406
▁Vol	-8407
front	-8408
▁Work	-8409
▁duly	-8410
▁luck	-8411
▁fifth	-8412
aratory	-8413
▁served	-8414
▁pursuit	-8415
▁equipped	-8416
▁Eur	-8417
vance	-8418
▁Card	-8419
▁Peace	-8420
▁grand	-8421
ilation	-8422
▁fruitful	-8423
▁multiple	-8424
▁aquaculture	-8425
▁determining	-8426
isa	-8427
inen	-8428
▁Ben	-8429
▁Iraqi	-8430
▁reput	-8431
▁roles	-8432
▁viewed	-8433
▁claimed	-8434
▁occupied	-8435
rehensible	-8436
▁Political	-8437
▁meaningful	-8438
▁highlighting	-8439
25	-8440
aul	-8441
urt	-8442
olly	-8443
reme	-8444
oboda	-8445
▁Cost	-8446
▁Forum	-8447
▁Norway	-8448
▁wasted	-8449
▁weapon	-8450
▁Turkmen	-8451
▁describe	-8452
▁passport	-8453
▁persuade	-8454
▁reconsid	-8455
▁Initiative	-8456
▁enthusiasm	-8457
▁transformation	-8458
2%	-8459
agn	-8460
vert	-8461
▁swe	-8462
▁porn	-8463
▁storm	-8464
▁urged	-8465
▁Superv	-8466
▁Federal	-8467
▁Nuclear	-8468
▁blocked	-8469
▁exclude	-8470
▁believed	-8471
▁resident	-8472
▁upcoming	-8473
▁Certainly	-8474
▁accessing	-8475
▁overcoming	-8476
▁challenging	-8477
ali	-8478
fall	-8479
ized	-8480
risy	-8481
▁Cat	-8482
phone	-8483
▁Frid	-8484
▁scre	-8485
▁trem	-8486
asures	-8487
▁chose	-8488
▁hesit	-8489
parency	-8490
▁weaken	-8491
▁dictator	-8492
▁lobbying	-8493
▁approving	-8494
▁gratitude	-8495
▁hypocrisy	-8496
▁homosexual	-8497
▁precaution	-8498
▁flexicurity	-8499
bus	-8500
ica	-8501
▁eg	-8502
elho	-8503
laim	-8504
▁lag	-8505
using	-8506
▁ACTA	-8507
▁Nice	-8508
▁iron	-8509
▁pity	-8510
depend	-8511
▁Coelho	-8512
▁visits	-8513
pectives	-8514
▁statute	-8515
▁founding	-8516
▁guidance	-8517
▁protects	-8518
▁supplied	-8519
▁centuries	-8520
▁emphasising	-8521
▁preparatory	-8522
▁concentrated	-8523
▁250	-8524
▁Kaz	-8525
▁Tal	-8526
▁ast	-8527
istry	-8528
▁asks	-8529
▁cens	-8530
▁rape	-8531
istrib	-8532
▁desert	-8533
oriented	-8534
▁Swoboda	-8535
▁Warrant	-8536
▁assumed	-8537
▁caution	-8538
▁influen	-8539
▁apologise	-8540
▁arrangement	-8541
▁Gr	-8542
ogas	-8543
▁10.	-8544
▁75%	-8545
▁Cath	-8546
▁bare	-8547
▁cell	-8548
▁Lanka	-8549
▁minds	-8550
▁hatred	-8551
etically	-8552
▁Liberal	-8553
▁coexist	-8554
▁consists	-8555
▁quantity	-8556
▁Currently	-8557
▁convincing	-8558
▁visibility	-8559
▁realisation	-8560
▁contamination	-8561
iny	-8562
▁Jer	-8563
▁Kar	-8564
acing	-8565
space	-8566
▁bail	-8567
▁echo	-8568
▁fert	-8569
▁149(8)	-8570
▁Annual	-8571
▁Arrest	-8572
▁Friday	-8573
▁borrow	-8574
▁condol	-8575
▁municip	-8576
▁murdered	-8577
▁modernise	-8578
▁biological	-8579
▁struggling	-8580
▁vegetables	-8581
ga	-8582
cile	-8583
▁Pra	-8584
▁gest	-8585
rating	-8586
▁posts	-8587
▁broken	-8588
▁tremend	-8589
roduction	-8590
▁chairman	-8591
ermination	-8592
▁jeopardise	-8593
▁propaganda	-8594
erto	-8595
otic	-8596
▁Bah	-8597
iment	-8598
think	-8599
▁Frat	-8600
▁Lama	-8601
▁volc	-8602
addafi	-8603
▁facto	-8604
▁grown	-8605
▁sadly	-8606
▁Solana	-8607
▁exempl	-8608
▁mining	-8609
▁remote	-8610
▁silent	-8611
▁awarded	-8612
▁computer	-8613
▁fairness	-8614
▁nationalism	-8615
▁intelligence	-8616
SA	-8617
For	-8618
east	-8619
▁Imm	-8620
▁doll	-8621
▁Dalai	-8622
▁allies	-8623
▁Closure	-8624
▁compare	-8625
▁lengthy	-8626
▁organis	-8627
▁trouble	-8628
▁resolute	-8629
▁whenever	-8630
▁diagnosis	-8631
▁differenti	-8632
▁electorate	-8633
▁quantities	-8634
▁stimulating	-8635
▁broadcasting	-8636
▁deliberately	-8637
HR	-8638
LVIT	-8639
oeuv	-8640
▁aro	-8641
apsed	-8642
▁Annex	-8643
▁Anyone	-8644
▁Besides	-8645
▁existed	-8646
▁reception	-8647
▁virtually	-8648
▁households	-8649
▁inevitable	-8650
▁adjustments	-8651
▁continually	-8652
▁complementary	-8653
Ivo	-8654
utral	-8655
▁shel	-8656
Ivoire	-8657
ounter	-8658
▁ruled	-8659
▁listed	-8660
▁pushed	-8661
▁slowly	-8662
▁weather	-8663
▁airspace	-8664
▁Australia	-8665
▁forecasts	-8666
▁processed	-8667
▁mentioning	-8668
▁dismantling	-8669
▁eligibility	-8670
▁readmission	-8671
IC	-8672
EGF	-8673
▁Sa	-8674
▁Ug	-8675
SEAN	-8676
iled	-8677
▁Bol	-8678
ingly	-8679
▁Fran	-8680
▁barb	-8681
ereoty	-8682
ratory	-8683
▁white	-8684
▁formed	-8685
▁speaks	-8686
▁lifesty	-8687
ustration	-8688
▁Georgian	-8689
▁clothing	-8690
▁mentions	-8691
▁expresses	-8692
▁Agreements	-8693
▁condemning	-8694
▁criticisms	-8695
▁navigation	-8696
▁seriousness	-8697
serv	-8698
marks	-8699
scept	-8700
▁curb	-8701
▁mixed	-8702
▁SOLVIT	-8703
▁deeper	-8704
▁deport	-8705
▁insult	-8706
▁sooner	-8707
▁Gaddafi	-8708
▁manoeuv	-8709
▁margins	-8710
▁Eurojust	-8711
▁Frattini	-8712
▁acquired	-8713
▁Implement	-8714
▁phenomena	-8715
▁promising	-8716
▁limitations	-8717
▁accessibility	-8718
▁multinationals	-8719
ede	-8720
roc	-8721
▁na	-8722
unal	-8723
▁196	-8724
compl	-8725
▁love	-8726
assion	-8727
▁ridic	-8728
▁smugg	-8729
▁houses	-8730
▁makers	-8731
▁paradox	-8732
▁mobilised	-8733
▁Communities	-8734
determination	-8735
▁perspectives	-8736
map	-8737
▁(1	-8738
▁GN	-8739
▁Ra	-8740
▁III	-8741
▁Ref	-8742
▁hol	-8743
ukush	-8744
▁Kall	-8745
▁plus	-8746
lessly	-8747
▁looph	-8748
▁stood	-8749
▁escape	-8750
▁famous	-8751
▁congest	-8752
▁records	-8753
▁skilled	-8754
▁station	-8755
▁Abkhazia	-8756
▁complied	-8757
▁pressures	-8758
▁reconcile	-8759
▁relevance	-8760
▁exemptions	-8761
▁separately	-8762
▁contractual	-8763
▁Turkmenistan	-8764
▁geopolitical	-8765
▁tuberculosis	-8766
da	-8767
outs	-8768
▁vac	-8769
ffick	-8770
▁utter	-8771
ivation	-8772
▁merits	-8773
▁survey	-8774
▁suspic	-8775
ukushima	-8776
▁liberty	-8777
▁expanding	-8778
▁integrating	-8779
▁discriminatory	-8780
kind	-8781
▁anx	-8782
▁camp	-8783
▁chief	-8784
▁Kallas	-8785
▁defici	-8786
▁uncond	-8787
▁forcing	-8788
▁proport	-8789
terrorism	-8790
▁suddenly	-8791
▁concerted	-8792
▁specified	-8793
▁Particular	-8794
▁livelihood	-8795
▁contradiction	-8796
ige	-8797
ray	-8798
▁ing	-8799
enses	-8800
▁pled	-8801
▁sees	-8802
▁tail	-8803
▁abide	-8804
▁rough	-8805
▁bridge	-8806
ursement	-8807
▁coverage	-8808
▁medicine	-8809
▁rhetoric	-8810
▁worthwhile	-8811
ibi	-8812
reb	-8813
▁Ev	-8814
gent	-8815
▁600	-8816
▁eat	-8817
elect	-8818
orial	-8819
▁Drug	-8820
▁GMOs	-8821
▁flaw	-8822
▁hast	-8823
▁turb	-8824
▁Dimas	-8825
▁Weber	-8826
▁biogas	-8827
▁auction	-8828
▁capture	-8829
▁suspend	-8830
financial	-8831
▁blocking	-8832
▁traffick	-8833
▁Consumers	-8834
▁interfere	-8835
▁migratory	-8836
▁motivated	-8837
▁assurances	-8838
▁objections	-8839
▁structured	-8840
▁independently	-8841
DG	-8842
isen	-8843
▁Sen	-8844
▁lit	-8845
comes	-8846
worth	-8847
▁beef	-8848
▁benef	-8849
▁owing	-8850
▁degrad	-8851
▁modest	-8852
▁counting	-8853
▁receives	-8854
▁stereoty	-8855
▁reforming	-8856
▁aggressive	-8857
▁courageous	-8858
▁recommends	-8859
▁condolences	-8860
▁cornerstone	-8861
▁harmonising	-8862
ids	-8863
upp	-8864
usa	-8865
akis	-8866
ourse	-8867
▁Move	-8868
▁Based	-8869
▁plain	-8870
itherto	-8871
▁driver	-8872
▁massac	-8873
▁scarce	-8874
▁banning	-8875
▁noticed	-8876
▁wishing	-8877
▁agreeing	-8878
▁produces	-8879
▁emergence	-8880
▁occurring	-8881
▁redistrib	-8882
▁sentenced	-8883
▁disappointment	-8884
ley	-8885
tail	-8886
▁oce	-8887
▁Gold	-8888
▁Oral	-8889
▁2012,	-8890
▁2015.	-8891
ressing	-8892
▁commem	-8893
▁presum	-8894
▁broadly	-8895
▁minimise	-8896
▁spreading	-8897
▁executions	-8898
▁reputation	-8899
▁investigated	-8900
▁psychological	-8901
face	-8902
oked	-8903
▁EFD	-8904
▁Jos	-8905
▁rot	-8906
erent	-8907
▁Ange	-8908
▁Data	-8909
▁coup	-8910
▁opens	-8911
▁solar	-8912
▁Lamped	-8913
▁Sahara	-8914
▁injust	-8915
▁memory	-8916
▁doctors	-8917
▁pattern	-8918
▁unclear	-8919
▁shoulder	-8920
▁vaccines	-8921
▁Eurobonds	-8922
▁Fukushima	-8923
▁commodity	-8924
▁communist	-8925
▁rejecting	-8926
▁aggression	-8927
▁confronted	-8928
▁Multiannual	-8929
▁catastrophe	-8930
▁commodities	-8931
▁consolidating	-8932
lo	-8933
bled	-8934
▁Bud	-8935
▁Sar	-8936
▁Next	-8937
▁cart	-8938
▁ease	-8939
▁fill	-8940
▁deriv	-8941
▁drastic	-8942
▁guiding	-8943
▁lifting	-8944
▁feasible	-8945
▁finished	-8946
productive	-8947
▁evaluated	-8948
▁identical	-8949
▁prohibited	-8950
▁requesting	-8951
▁counterpart	-8952
▁simultaneously	-8953
ih	-8954
ole	-8955
sch	-8956
card	-8957
ulent	-8958
▁defe	-8959
▁site	-8960
ompass	-8961
▁ASEAN	-8962
▁maxim	-8963
▁split	-8964
▁vague	-8965
▁Nordic	-8966
▁Stalin	-8967
▁missed	-8968
▁twenty	-8969
▁Neither	-8970
▁locally	-8971
▁pending	-8972
▁strikes	-8973
▁Congress	-8974
▁detained	-8975
▁eligible	-8976
▁inhumane	-8977
▁systemic	-8978
▁Lampedusa	-8979
▁encompass	-8980
▁correspond	-8981
▁competitors	-8982
▁deregulation	-8983
ias	-8984
igm	-8985
▁90	-8986
▁Ul	-8987
ander	-8988
▁conj	-8989
▁dare	-8990
▁ours	-8991
▁acute	-8992
▁annex	-8993
▁cruel	-8994
▁ingred	-8995
▁poorly	-8996
▁summar	-8997
▁fathers	-8998
▁prisons	-8999
▁tabling	-9000
▁discover	-9001
▁formulated	-9002
▁audiovisual	-9003
ECD	-9004
oned	-9005
▁Mot	-9006
▁fro	-9007
month	-9008
pidla	-9009
▁club	-9010
icking	-9011
ilater	-9012
roducing	-9013
▁foresee	-9014
ilaterally	-9015
▁childcare	-9016
▁compensate	-9017
▁evaluating	-9018
▁signatures	-9019
▁democracies	-9020
▁authoritarian	-9021
05	-9022
iful	-9023
lock	-9024
▁adh	-9025
▁EPAs	-9026
▁clash	-9027
▁arisen	-9028
▁judges	-9029
▁acquire	-9030
▁chances	-9031
▁damaged	-9032
▁spouses	-9033
▁mortality	-9034
▁viewpoint	-9035
▁conditional	-9036
▁responsibly	-9037
▁precondition	-9038
▁administrations	-9039
▁120	-9040
▁700	-9041
▁FTA	-9042
richt	-9043
▁abst	-9044
▁sick	-9045
makers	-9046
▁Maast	-9047
▁dying	-9048
▁portf	-9049
▁saved	-9050
▁senior	-9051
▁charged	-9052
▁discret	-9053
▁outrage	-9054
▁wanting	-9055
▁football	-9056
▁incompat	-9057
▁slaughter	-9058
▁Maastricht	-9059
▁extraction	-9060
▁reliability	-9061
▁imprisonment	-9062
SME	-9063
▁km	-9064
▁Naz	-9065
vency	-9066
▁exit	-9067
orders	-9068
ulling	-9069
ulsion	-9070
▁2005.	-9071
▁drain	-9072
▁incap	-9073
▁temper	-9074
▁trains	-9075
▁islands	-9076
▁expenses	-9077
▁expressly	-9078
▁advocating	-9079
▁benefiting	-9080
▁Fortunately	-9081
▁multilingual	-9082
▁reintegration	-9083
ua	-9084
gers	-9085
oton	-9086
unta	-9087
uous	-9088
▁dil	-9089
▁hab	-9090
inter	-9091
▁2050	-9092
▁loan	-9093
▁beaut	-9094
▁affirm	-9095
▁handed	-9096
▁outbre	-9097
▁Armenia	-9098
▁tourist	-9099
▁Articles	-9100
▁complying	-9101
▁Hungarians	-9102
▁invitation	-9103
▁legislators	-9104
▁dramatically	-9105
▁precautionary	-9106
reas	-9107
munia	-9108
▁fell	-9109
▁hygi	-9110
▁user	-9111
▁Hague	-9112
▁draws	-9113
▁theme	-9114
▁Assist	-9115
▁Prague	-9116
▁dement	-9117
▁weaker	-9118
▁Almunia	-9119
▁council	-9120
▁courses	-9121
▁weekend	-9122
▁exposure	-9123
▁conscious	-9124
▁imbalance	-9125
▁partially	-9126
▁restoring	-9127
▁Directorate	-9128
▁genetically	-9129
▁permanently	-9130
▁pornography	-9131
▁Transparency	-9132
▁fragmentation	-9133
▁intercultural	-9134
▁proportionate	-9135
AO	-9136
gain	-9137
▁EIT	-9138
speed	-9139
▁Rail	-9140
▁knew	-9141
▁medi	-9142
▁toll	-9143
Bendit	-9144
oultry	-9145
▁alike	-9146
ritical	-9147
▁Rather	-9148
▁theory	-9149
▁holiday	-9150
▁linking	-9151
▁surplus	-9152
▁Specific	-9153
▁legality	-9154
▁reformed	-9155
▁Relations	-9156
▁benefited	-9157
▁Mauritania	-9158
▁collecting	-9159
▁philosophy	-9160
▁transposed	-9161
▁interdepend	-9162
▁sensitivity	-9163
▁IP	-9164
▁Eco	-9165
▁Cohn	-9166
▁fees	-9167
▁suit	-9168
orated	-9169
▁Chern	-9170
▁Cuban	-9171
▁accum	-9172
▁bears	-9173
▁finds	-9174
▁lived	-9175
▁licens	-9176
▁neutral	-9177
▁typical	-9178
▁prevents	-9179
▁falsified	-9180
▁logistics	-9181
▁reviewing	-9182
▁destroying	-9183
▁discretion	-9184
▁optimistic	-9185
▁prosperous	-9186
▁witnessing	-9187
▁recruitment	-9188
ika	-9189
▁48	-9190
asse	-9191
aste	-9192
auer	-9193
prom	-9194
zing	-9195
▁Tax	-9196
▁tol	-9197
▁Opel	-9198
ecting	-9199
▁Three	-9200
▁Water	-9201
▁habit	-9202
▁relax	-9203
finance	-9204
itoring	-9205
▁deemed	-9206
▁eating	-9207
▁wholly	-9208
▁149(8))	-9209
▁Whether	-9210
▁discrep	-9211
▁breaking	-9212
▁crossing	-9213
▁instances	-9214
▁readiness	-9215
▁threatens	-9216
▁eliminated	-9217
▁generating	-9218
▁definitions	-9219
▁discriminated	-9220
ok	-9221
obyl	-9222
pass	-9223
▁Dis	-9224
▁pup	-9225
cture	-9226
▁Good	-9227
▁haul	-9228
▁vent	-9229
pelled	-9230
▁Costa	-9231
▁Lehne	-9232
▁Order	-9233
▁afore	-9234
▁bases	-9235
▁overs	-9236
▁unamb	-9237
▁devices	-9238
▁serving	-9239
▁unsatis	-9240
▁improves	-9241
▁mitigate	-9242
▁tendency	-9243
▁underpin	-9244
▁dialogues	-9245
▁differing	-9246
▁divisions	-9247
▁intensify	-9248
▁boundaries	-9249
▁congestion	-9250
▁imprisoned	-9251
▁profitable	-9252
▁specialist	-9253
▁supporters	-9254
▁undermines	-9255
▁distortions	-9256
▁aforementioned	-9257
Is	-9258
dr	-9259
▁Bow	-9260
tical	-9261
water	-9262
▁veto	-9263
otonou	-9264
▁remun	-9265
▁adults	-9266
oreboard	-9267
▁entrust	-9268
▁implies	-9269
▁reactors	-9270
▁refusing	-9271
▁relaunch	-9272
▁schedule	-9273
▁attitudes	-9274
▁coalition	-9275
▁strongest	-9276
▁accusations	-9277
▁circulation	-9278
▁derogations	-9279
ips	-9280
▁36	-9281
▁RE	-9282
aded	-9283
ener	-9284
fund	-9285
teen	-9286
▁CFP	-9287
▁Joh	-9288
▁owe	-9289
▁toy	-9290
andum	-9291
iques	-9292
▁Daul	-9293
▁cash	-9294
▁rect	-9295
▁shif	-9296
▁Basel	-9297
▁Impro	-9298
▁elite	-9299
orandum	-9300
▁handle	-9301
▁harder	-9302
▁seemed	-9303
mination	-9304
▁arrests	-9305
▁poultry	-9306
▁Dialogue	-9307
▁Chernobyl	-9308
▁exemplary	-9309
▁Confederal	-9310
▁interpreted	-9311
▁participated	-9312
des	-9313
▁34	-9314
▁bol	-9315
▁cas	-9316
ourge	-9317
uated	-9318
▁Elect	-9319
▁adhere	-9320
▁Regions	-9321
▁belongs	-9322
▁damages	-9323
▁divorce	-9324
▁prolong	-9325
▁shocking	-9326
▁forefront	-9327
▁worsening	-9328
▁newspapers	-9329
▁connections	-9330
▁transplantation	-9331
zz	-9332
▁75	-9333
ador	-9334
▁Jew	-9335
reevy	-9336
▁nons	-9337
▁feels	-9338
▁junta	-9339
alistic	-9340
▁habits	-9341
▁landsc	-9342
▁street	-9343
▁formula	-9344
▁hygiene	-9345
▁appeared	-9346
▁uncontro	-9347
▁formation	-9348
▁reactions	-9349
▁grassroots	-9350
▁repressive	-9351
▁duplication	-9352
▁Agricultural	-9353
15	-9354
inate	-9355
▁Refuge	-9356
▁entity	-9357
▁guided	-9358
▁revers	-9359
▁McCreevy	-9360
▁sanction	-9361
▁stepping	-9362
▁continents	-9363
▁exercising	-9364
▁journalist	-9365
▁preference	-9366
▁techniques	-9367
▁tremendous	-9368
ba	-9369
fra	-9370
▁Im	-9371
aire	-9372
▁God	-9373
▁Has	-9374
▁Nic	-9375
▁dro	-9376
▁odd	-9377
organ	-9378
▁Trib	-9379
▁diet	-9380
▁nice	-9381
▁alter	-9382
▁revol	-9383
▁blocks	-9384
▁regain	-9385
▁Cotonou	-9386
▁cluster	-9387
▁gaining	-9388
▁refrain	-9389
▁student	-9390
▁Egyptian	-9391
▁alliance	-9392
▁deployed	-9393
▁alleviate	-9394
▁celebrate	-9395
▁mediation	-9396
▁benchmarks	-9397
▁scandalous	-9398
▁conjunction	-9399
▁distinguish	-9400
▁methodology	-9401
▁disappointing	-9402
di	-9403
raf	-9404
date	-9405
hard	-9406
▁Del	-9407
▁cos	-9408
icity	-9409
▁Alex	-9410
▁Corb	-9411
▁leak	-9412
▁unch	-9413
▁Roman	-9414
▁indif	-9415
▁lacks	-9416
▁Region	-9417
▁father	-9418
▁frozen	-9419
▁thinks	-9420
▁tongue	-9421
balanced	-9422
legation	-9423
▁Harbour	-9424
▁conceal	-9425
▁heating	-9426
▁contents	-9427
▁distinct	-9428
▁flagship	-9429
▁tolerate	-9430
▁shortages	-9431
▁continuity	-9432
▁intolerance	-9433
▁secretariat	-9434
▁unsatisfactory	-9435
-00	-9436
bly	-9437
elt	-9438
▁65	-9439
▁kn	-9440
oyal	-9441
▁Jud	-9442
▁Mob	-9443
▁cul	-9444
▁elab	-9445
▁loud	-9446
decess	-9447
prises	-9448
▁sharp	-9449
▁smoke	-9450
▁anyway	-9451
▁barely	-9452
▁deploy	-9453
▁invent	-9454
▁repair	-9455
▁Corbett	-9456
▁encount	-9457
▁attended	-9458
▁expanded	-9459
▁failures	-9460
▁hearings	-9461
▁measured	-9462
▁opposing	-9463
▁shameful	-9464
▁allowance	-9465
▁competing	-9466
▁performed	-9467
▁predecess	-9468
▁Management	-9469
▁assistants	-9470
▁socialists	-9471
▁Composition	-9472
▁cooperative	-9473
▁conventional	-9474
▁deficiencies	-9475
▁prostitution	-9476
▁Stabilisation	-9477
▁contradictory	-9478
▁DG	-9479
SMEs	-9480
ched	-9481
▁Ant	-9482
acity	-9483
ipher	-9484
▁fasc	-9485
▁lift	-9486
▁roots	-9487
fficial	-9488
▁Libyan	-9489
▁lawyers	-9490
developed	-9491
▁annually	-9492
▁Sometimes	-9493
▁functional	-9494
▁undemocratic	-9495
▁Ah	-9496
aval	-9497
▁bab	-9498
▁pig	-9499
▁Much	-9500
▁pull	-9501
▁unqu	-9502
▁Klaus	-9503
▁weigh	-9504
▁Former	-9505
▁argued	-9506
▁excise	-9507
armament	-9508
▁England	-9509
▁Nigeria	-9510
▁bargain	-9511
▁extract	-9512
▁reduces	-9513
▁certific	-9514
▁moderate	-9515
▁striking	-9516
▁persecuted	-9517
▁politician	-9518
▁anticipated	-9519
▁volunteering	-9520
ixt	-9521
aran	-9522
llor	-9523
oren	-9524
anide	-9525
oling	-9526
▁OECD	-9527
▁file	-9528
▁flee	-9529
Africa	-9530
health	-9531
usalem	-9532
▁spare	-9533
▁Korean	-9534
▁Mechan	-9535
▁labels	-9536
▁Finance	-9537
itiveness	-9538
▁Jerusalem	-9539
▁ceasefire	-9540
▁mobilising	-9541
▁speculators	-9542
▁unjustified	-9543
cks	-9544
rig	-9545
▁195	-9546
▁rain	-9547
ounced	-9548
▁unite	-9549
▁prerog	-9550
▁comfort	-9551
▁secured	-9552
▁synergy	-9553
▁hitherto	-9554
▁mistaken	-9555
▁retained	-9556
▁scanners	-9557
▁attempted	-9558
▁stipulated	-9559
▁vaccination	-9560
▁incompatible	-9561
▁decentralised	-9562
8%	-9563
cut	-9564
met	-9565
grow	-9566
ques	-9567
▁scra	-9568
▁alert	-9569
▁settle	-9570
contract	-9571
▁discards	-9572
▁injuries	-9573
▁exporting	-9574
▁capability	-9575
ora	-9576
otage	-9577
▁hect	-9578
▁merc	-9579
ptions	-9580
▁arena	-9581
ittings	-9582
through	-9583
▁pollut	-9584
▁verify	-9585
▁bananas	-9586
▁analysed	-9587
▁restored	-9588
▁disregard	-9589
▁newspaper	-9590
▁replacing	-9591
▁bankruptcy	-9592
▁xenophobia	-9593
▁approaching	-9594
▁codification	-9595
▁collectively	-9596
▁commissioner	-9597
ux	-9598
enth	-9599
irds	-9600
▁Tam	-9601
▁Val	-9602
▁cow	-9603
▁nan	-9604
ience	-9605
▁Blue	-9606
▁Post	-9607
▁Very	-9608
▁breat	-9609
▁enlar	-9610
▁write	-9611
atories	-9612
▁Ecofin	-9613
▁Floren	-9614
▁upheld	-9615
▁dismiss	-9616
▁Aviation	-9617
▁Campania	-9618
▁engaging	-9619
▁inherent	-9620
▁promptly	-9621
▁hospitals	-9622
▁somewhere	-9623
▁designated	-9624
▁stipulates	-9625
-2	-9626
1%	-9627
zek	-9628
lims	-9629
omin	-9630
uite	-9631
▁EPP	-9632
▁Gau	-9633
▁Lie	-9634
▁Bang	-9635
▁anybody	-9636
▁deposit	-9637
▁partial	-9638
▁unequal	-9639
▁preserved	-9640
▁Monitoring	-9641
▁derogation	-9642
▁harassment	-9643
▁prioritise	-9644
▁privileged	-9645
▁substitute	-9646
▁Regulations	-9647
▁appreciated	-9648
▁intolerable	-9649
▁quantitative	-9650
hof	-9651
irty	-9652
▁bur	-9653
erred	-9654
▁pand	-9655
icable	-9656
▁gains	-9657
▁intra	-9658
iolence	-9659
▁Verhof	-9660
▁Kurdish	-9661
▁outline	-9662
▁pregnant	-9663
▁dominated	-9664
▁artificial	-9665
▁performing	-9666
▁translated	-9667
▁Verhofstadt	-9668
▁Organization	-9669
▁acknowledges	-9670
▁individually	-9671
▁desertification	-9672
7.	-9673
8.	-9674
bo	-9675
stay	-9676
▁800	-9677
▁ESF	-9678
▁bom	-9679
▁AIDS	-9680
▁Sund	-9681
▁blat	-9682
▁star	-9683
▁tone	-9684
▁alive	-9685
▁tract	-9686
ustrial	-9687
▁lawyer	-9688
ancellor	-9689
▁barrier	-9690
▁patents	-9691
▁profile	-9692
▁secular	-9693
▁downturn	-9694
▁duration	-9695
▁insisted	-9696
▁licences	-9697
▁amounting	-9698
▁afterwards	-9699
▁degradation	-9700
▁accompanying	-9701
▁manufacturer	-9702
▁proliferation	-9703
▁organisational	-9704
ami	-9705
eck	-9706
imp	-9707
Comm	-9708
▁Tim	-9709
enter	-9710
▁1980	-9711
▁seal	-9712
rupted	-9713
▁slavery	-9714
▁Croatian	-9715
▁envisage	-9716
▁watching	-9717
▁Strategic	-9718
▁equitable	-9719
▁neglected	-9720
▁screening	-9721
▁fulfilment	-9722
▁imposition	-9723
▁indicating	-9724
▁unsustainable	-9725
EF	-9726
▁Due	-9727
▁Sur	-9728
eters	-9729
▁Saud	-9730
▁bans	-9731
▁rush	-9732
▁brain	-9733
▁League	-9734
▁engines	-9735
▁traders	-9736
▁claiming	-9737
▁operator	-9738
▁sittings	-9739
▁signature	-9740
▁completing	-9741
▁stabilising	-9742
▁Administration	-9743
EPA	-9744
dor	-9745
life	-9746
▁Fif	-9747
▁bee	-9748
▁fan	-9749
▁quo	-9750
balgs	-9751
ifice	-9752
▁biom	-9753
▁unus	-9754
▁Cross	-9755
▁pieces	-9756
▁unrest	-9757
missible	-9758
▁Section	-9759
▁credits	-9760
▁seconds	-9761
▁shaping	-9762
▁topical	-9763
▁trained	-9764
▁Ministry	-9765
▁Piebalgs	-9766
▁Tribunal	-9767
▁entirety	-9768
▁foreseen	-9769
▁ideology	-9770
▁likewise	-9771
▁overview	-9772
employment	-9773
▁extremist	-9774
▁formulate	-9775
▁Chancellor	-9776
▁discovered	-9777
▁kilometres	-9778
▁replacement	-9779
▁reinforcement	-9780
ACH	-9781
oni	-9782
▁33	-9783
▁Bo	-9784
pers	-9785
▁reh	-9786
astic	-9787
pring	-9788
▁List	-9789
▁pave	-9790
▁brave	-9791
▁urges	-9792
▁enters	-9793
ertaking	-9794
▁explore	-9795
▁harvest	-9796
▁rulings	-9797
▁summits	-9798
anational	-9799
▁Measures	-9800
▁Recently	-9801
▁Tunisian	-9802
▁striving	-9803
▁Goldstone	-9804
▁analysing	-9805
▁indicator	-9806
▁legislator	-9807
▁supportive	-9808
▁eradication	-9809
▁understands	-9810
eli	-9811
idal	-9812
ione	-9813
ogen	-9814
onym	-9815
▁Aid	-9816
▁jun	-9817
▁kid	-9818
▁wal	-9819
▁Rein	-9820
▁evol	-9821
▁fron	-9822
▁pock	-9823
▁supr	-9824
compet	-9825
ustoms	-9826
▁Kenya	-9827
▁scene	-9828
▁inspir	-9829
▁phrase	-9830
▁starts	-9831
together	-9832
▁Florenz	-9833
▁appeals	-9834
▁charter	-9835
▁corrupt	-9836
▁Sudanese	-9837
▁illusion	-9838
▁eradicate	-9839
▁informing	-9840
▁Delegation	-9841
▁forgetting	-9842
▁supranational	-9843
1.	-9844
atom	-9845
oyle	-9846
▁ICC	-9847
▁anch	-9848
orship	-9849
▁Doyle	-9850
▁Draft	-9851
▁Kazakh	-9852
▁papers	-9853
▁salary	-9854
▁trials	-9855
▁denounce	-9856
▁ignoring	-9857
▁prescrib	-9858
▁websites	-9859
Parliament	-9860
▁importers	-9861
▁clarifying	-9862
▁Undertaking	-9863
▁derivatives	-9864
▁excessively	-9865
▁qualitative	-9866
▁ep	-9867
ette	-9868
olic	-9869
poll	-9870
eness	-9871
▁Schm	-9872
▁drag	-9873
▁reun	-9874
▁slog	-9875
▁spot	-9876
▁Poles	-9877
▁embra	-9878
▁games	-9879
▁tells	-9880
▁wines	-9881
forward	-9882
ropical	-9883
▁hidden	-9884
▁plenty	-9885
▁taught	-9886
ettinger	-9887
▁classes	-9888
▁cyanide	-9889
▁sessions	-9890
compliance	-9891
▁Mechanism	-9892
▁expectancy	-9893
▁reconsider	-9894
▁coexistence	-9895
▁technically	-9896
▁unregulated	-9897
▁marginalised	-9898
usz	-9899
▁dw	-9900
East	-9901
agas	-9902
▁Sky	-9903
▁ice	-9904
▁unh	-9905
emics	-9906
trade	-9907
▁dogm	-9908
▁heat	-9909
▁Buzek	-9910
▁Camer	-9911
▁David	-9912
▁Saudi	-9913
▁backd	-9914
▁devise	-9915
▁carries	-9916
▁deplore	-9917
▁organic	-9918
ferential	-9919
▁peripher	-9920
democratic	-9921
▁democrats	-9922
▁frequency	-9923
▁telephone	-9924
▁allocating	-9925
▁prohibition	-9926
▁specialised	-9927
▁stereotypes	-9928
▁continuously	-9929
▁presidencies	-9930
vez	-9931
grav	-9932
▁box	-9933
▁Cash	-9934
▁dark	-9935
▁unex	-9936
iments	-9937
▁Nobody	-9938
▁aggrav	-9939
▁tempor	-9940
▁gesture	-9941
▁holders	-9942
▁inquiry	-9943
▁subsidy	-9944
▁telecom	-9945
iminatory	-9946
▁Oettinger	-9947
▁maintains	-9948
▁Directives	-9949
▁committing	-9950
▁decisively	-9951
▁precedence	-9952
▁protective	-9953
▁travellers	-9954
▁ministerial	-9955
▁catastrophic	-9956
NA	-9957
sum	-9958
yet	-9959
▁TV	-9960
alli	-9961
▁Ult	-9962
▁sho	-9963
icide	-9964
▁1999	-9965
▁Carl	-9966
▁REACH	-9967
▁Swiss	-9968
▁chaos	-9969
▁cyber	-9970
▁distr	-9971
▁teams	-9972
▁Colomb	-9973
▁Explan	-9974
▁orders	-9975
▁predom	-9976
▁tested	-9977
▁unbund	-9978
▁Cashman	-9979
▁drought	-9980
▁roadmap	-9981
▁violate	-9982
▁outcomes	-9983
▁tourists	-9984
▁warnings	-9985
▁corridors	-9986
▁incapable	-9987
▁retention	-9988
▁Ultimately	-9989
▁anticipate	-9990
▁permission	-9991
▁ridiculous	-9992
▁submitting	-9993
▁successive	-9994
▁coordinator	-9995
▁encountered	-9996
▁exacerbated	-9997
▁furthermore	-9998
BP	-9999
ek	-10000
CAP	-10001
ady	-10002
uty	-10003
anic	-10004
berg	-10005
rote	-10006
▁web	-10007
inded	-10008
▁Guid	-10009
▁alia	-10010
▁ally	-10011
▁dece	-10012
▁libr	-10013
▁noon	-10014
▁unit	-10015
ailand	-10016
▁Alber	-10017
embered	-10018
sighted	-10019
stically	-10020
utrality	-10021
▁extends	-10022
▁attacked	-10023
▁choosing	-10024
▁munitions	-10025
▁oversight	-10026
▁assumption	-10027
▁disarmament	-10028
▁prosecution	-10029
▁safeguarded	-10030
▁reimbursement	-10031
RC	-10032
rez	-10033
tle	-10034
▁Ur	-10035
lean	-10036
▁Rad	-10037
▁une	-10038
gered	-10039
tries	-10040
▁Road	-10041
▁bloc	-10042
▁bran	-10043
▁nurs	-10044
▁Sunday	-10045
▁absorb	-10046
▁Islands	-10047
▁passive	-10048
▁proving	-10049
▁Thailand	-10050
▁checking	-10051
▁observer	-10052
▁proclaim	-10053
▁selected	-10054
▁impartial	-10055
▁manoeuvre	-10056
▁prejudice	-10057
▁premature	-10058
▁religions	-10059
▁suspicion	-10060
▁remembered	-10061
▁corporations	-10062
discriminatory	-10063
▁Environmental	-10064
mn	-10065
ny	-10066
seas	-10067
▁Jou	-10068
▁bon	-10069
▁fib	-10070
esity	-10071
sters	-10072
▁cure	-10073
▁horr	-10074
▁award	-10075
▁inval	-10076
▁mortg	-10077
▁norms	-10078
▁veter	-10079
▁behave	-10080
▁geared	-10081
▁occurs	-10082
▁thrown	-10083
▁window	-10084
▁Muslims	-10085
▁Children	-10086
▁prominent	-10087
▁translate	-10088
▁distortion	-10089
▁explaining	-10090
▁exploiting	-10091
▁relocation	-10092
▁suggesting	-10093
▁temporarily	-10094
▁questionable	-10095
▁disadvantages	-10096
▁straightforward	-10097
CF	-10098
iban	-10099
shore	-10100
▁Hist	-10101
▁cold	-10102
▁fant	-10103
iances	-10104
▁river	-10105
▁seize	-10106
looking	-10107
▁Jouyet	-10108
▁Uganda	-10109
▁bought	-10110
▁images	-10111
▁liable	-10112
▁pupils	-10113
▁Bearing	-10114
▁settled	-10115
▁staying	-10116
▁parental	-10117
▁reconcil	-10118
▁fostering	-10119
▁inability	-10120
▁pointless	-10121
▁weakening	-10122
▁neutrality	-10123
HO	-10124
sm	-10125
▁Ro	-10126
paid	-10127
▁13.	-10128
▁EDF	-10129
▁ENP	-10130
▁Fac	-10131
sians	-10132
▁2015	-10133
▁Pass	-10134
▁Rober	-10135
▁Strip	-10136
▁breed	-10137
▁deval	-10138
▁Wallis	-10139
▁domain	-10140
▁vessel	-10141
▁somehow	-10142
▁Likewise	-10143
▁assigned	-10144
▁backdrop	-10145
▁dementia	-10146
▁destabil	-10147
▁dominant	-10148
▁Pakistani	-10149
▁Temporary	-10150
▁blackmail	-10151
▁landscape	-10152
▁loopholes	-10153
▁extremists	-10154
▁impressive	-10155
▁influenced	-10156
▁parameters	-10157
▁restoration	-10158
▁demonstrators	-10159
40	-10160
mad	-10161
▁-,	-10162
load	-10163
▁eco	-10164
▁fly	-10165
▁CFSP	-10166
▁unst	-10167
▁wood	-10168
enders	-10169
market	-10170
urches	-10171
▁music	-10172
▁pride	-10173
▁prize	-10174
▁undec	-10175
▁unlaw	-10176
▁adjour	-10177
▁interl	-10178
▁neglig	-10179
▁resume	-10180
▁Taliban	-10181
▁honestly	-10182
▁province	-10183
▁weakened	-10184
increasing	-10185
▁perceived	-10186
▁obligatory	-10187
▁ingredients	-10188
▁unrealistic	-10189
▁Explanations	-10190
▁occupational	-10191
▁conditionality	-10192
MS	-10193
ams	-10194
far	-10195
ump	-10196
▁45	-10197
▁Gy	-10198
▁CIA	-10199
▁Ext	-10200
▁GBP	-10201
▁Nag	-10202
▁fab	-10203
igare	-10204
▁Requ	-10205
▁unsu	-10206
working	-10207
▁influx	-10208
tenstein	-10209
▁authent	-10210
▁leverage	-10211
▁evolution	-10212
▁importing	-10213
▁injustice	-10214
▁restraint	-10215
▁exchanging	-10216
▁perpetrated	-10217
▁fingerprints	-10218
▁transferring	-10219
ilis	-10220
▁unt	-10221
▁wis	-10222
archy	-10223
ooked	-10224
pling	-10225
rence	-10226
▁Exec	-10227
▁Visa	-10228
▁pron	-10229
▁Alban	-10230
▁Along	-10231
▁Coord	-10232
▁Liech	-10233
▁boats	-10234
▁Compan	-10235
▁Surely	-10236
▁speedy	-10237
▁artists	-10238
▁shorter	-10239
▁stepped	-10240
▁Canadian	-10241
▁somebody	-10242
▁unwilling	-10243
▁fragmented	-10244
▁disappeared	-10245
▁professions	-10246
▁manufactured	-10247
▁preferential	-10248
▁unilaterally	-10249
▁Liechtenstein	-10250
▁unconditional	-10251
?'	-10252
HA	-10253
We	-10254
aes	-10255
ino	-10256
atri	-10257
vign	-10258
▁Pos	-10259
adesh	-10260
heres	-10261
plete	-10262
▁Cast	-10263
ladesh	-10264
▁Minsk	-10265
▁Scott	-10266
▁turns	-10267
▁wrote	-10268
athered	-10269
▁Review	-10270
quarters	-10271
▁Customs	-10272
▁reacted	-10273
▁reminds	-10274
▁cabotage	-10275
▁estimate	-10276
▁exceeded	-10277
generation	-10278
▁Countries	-10279
▁immigrant	-10280
▁licensing	-10281
▁sacrifice	-10282
▁Bangladesh	-10283
▁University	-10284
▁abolishing	-10285
▁Competition	-10286
▁countryside	-10287
▁objectively	-10288
▁traffickers	-10289
▁transported	-10290
▁remuneration	-10291
1)	-10292
TP	-10293
do	-10294
▁55	-10295
list	-10296
arest	-10297
▁obsc	-10298
▁cohes	-10299
▁attent	-10300
▁begins	-10301
▁tables	-10302
▁murders	-10303
▁revital	-10304
▁Russians	-10305
▁treating	-10306
▁validity	-10307
▁insisting	-10308
▁bargaining	-10309
▁controvers	-10310
▁cultivation	-10311
▁uncontrolled	-10312
▁confidentiality	-10313
CT	-10314
PS	-10315
bur	-10316
lla	-10317
rgy	-10318
usp	-10319
▁Vi	-10320
will	-10321
▁MDG	-10322
▁neo	-10323
elson	-10324
track	-10325
▁dish	-10326
▁Right	-10327
▁arrog	-10328
▁overr	-10329
lusconi	-10330
private	-10331
▁abused	-10332
▁breast	-10333
▁varied	-10334
▁virtue	-10335
▁voiced	-10336
▁catches	-10337
▁decides	-10338
▁possess	-10339
▁utterly	-10340
▁gathered	-10341
▁recourse	-10342
▁servants	-10343
▁legislate	-10344
▁paternity	-10345
▁platforms	-10346
▁welcoming	-10347
▁Berlusconi	-10348
▁Kazakhstan	-10349
▁harmonious	-10350
▁verification	-10351
Sah	-10352
best	-10353
hips	-10354
▁Gom	-10355
ested	-10356
icism	-10357
sided	-10358
▁hamp	-10359
imated	-10360
itives	-10361
people	-10362
uality	-10363
▁Frank	-10364
▁Mitch	-10365
▁dread	-10366
▁loyal	-10367
▁recur	-10368
▁resid	-10369
▁wheel	-10370
roducts	-10371
▁cigare	-10372
▁Univers	-10373
▁categor	-10374
▁channel	-10375
istically	-10376
▁attaches	-10377
▁charging	-10378
▁outbreak	-10379
▁patterns	-10380
▁countless	-10381
▁exercised	-10382
▁applicants	-10383
▁mitigation	-10384
▁accelerated	-10385
▁conferences	-10386
▁intimidation	-10387
▁installations	-10388
bles	-10389
ials	-10390
ruct	-10391
▁Sad	-10392
▁Sit	-10393
▁Tob	-10394
agues	-10395
class	-10396
inery	-10397
sofar	-10398
▁Bush	-10399
▁2000,	-10400
▁keeps	-10401
▁labor	-10402
▁midst	-10403
ttering	-10404
▁Church	-10405
▁Leinen	-10406
▁deepen	-10407
▁pretty	-10408
▁urging	-10409
▁Mitchell	-10410
▁educated	-10411
▁Brazilian	-10412
▁backwards	-10413
▁measuring	-10414
▁specialists	-10415
Ru	-10416
▁Sz	-10417
▁ri	-10418
ITES	-10419
▁ped	-10420
lared	-10421
oking	-10422
utory	-10423
▁print	-10424
▁rises	-10425
Saharan	-10426
▁antibi	-10427
▁famine	-10428
vignette	-10429
▁Euratom	-10430
▁curtail	-10431
▁expects	-10432
▁mercury	-10433
▁surface	-10434
intensive	-10435
▁Training	-10436
▁sporting	-10437
▁unlikely	-10438
▁Executive	-10439
▁targeting	-10440
▁outrageous	-10441
▁perception	-10442
▁unbundling	-10443
▁beneficiary	-10444
▁disagreement	-10445
▁preconditions	-10446
▁classification	-10447
OL	-10448
lad	-10449
▁4%	-10450
mand	-10451
mmet	-10452
ogue	-10453
sile	-10454
▁Gra	-10455
▁Jun	-10456
▁Wel	-10457
▁aer	-10458
▁hoc	-10459
iably	-10460
otics	-10461
undus	-10462
▁Camb	-10463
▁Gauz	-10464
▁dies	-10465
▁hind	-10466
▁spon	-10467
▁vers	-10468
change	-10469
credit	-10470
▁Cypri	-10471
▁Oomen	-10472
▁ratio	-10473
▁tries	-10474
ologies	-10475
▁Markets	-10476
▁minimal	-10477
▁rebuild	-10478
▁rehabil	-10479
▁balances	-10480
▁enthusia	-10481
▁nowadays	-10482
▁lifestyle	-10483
▁polluting	-10484
▁upgrading	-10485
▁Assistance	-10486
▁disturbing	-10487
▁provisional	-10488
▁Transatlantic	-10489
▁commissioners	-10490
4.	-10491
GN	-10492
MA	-10493
cin	-10494
win	-10495
Ruij	-10496
roes	-10497
▁Mag	-10498
hardt	-10499
scrib	-10500
▁Finn	-10501
▁inex	-10502
▁succ	-10503
ported	-10504
▁drink	-10505
Ruijten	-10506
▁Mundus	-10507
▁circle	-10508
▁freeze	-10509
▁biomass	-10510
▁denying	-10511
▁licence	-10512
▁obesity	-10513
▁churches	-10514
▁optimism	-10515
▁predomin	-10516
▁speeding	-10517
▁recipients	-10518
▁undeclared	-10519
▁conservative	-10520
3.	-10521
OS	-10522
ford	-10523
▁Att	-10524
▁ETS	-10525
▁Exc	-10526
▁Six	-10527
backs	-10528
▁Sant	-10529
▁vice	-10530
▁admin	-10531
▁mines	-10532
ishment	-10533
▁fabric	-10534
▁milest	-10535
▁timing	-10536
rocities	-10537
▁Nothing	-10538
▁Parties	-10539
▁prudent	-10540
▁unknown	-10541
▁younger	-10542
▁Independ	-10543
▁cohesive	-10544
▁contempt	-10545
▁exported	-10546
▁nonsense	-10547
▁reminder	-10548
▁stopping	-10549
▁Eurogroup	-10550
▁databases	-10551
▁suspected	-10552
▁Prevention	-10553
▁pensioners	-10554
▁celebrating	-10555
▁centralised	-10556
▁interaction	-10557
▁utilisation	-10558
pez	-10559
▁38	-10560
arth	-10561
atur	-10562
ests	-10563
obel	-10564
▁15.	-10565
party	-10566
ritre	-10567
trans	-10568
▁Germ	-10569
▁John	-10570
▁unden	-10571
sharing	-10572
▁Madrid	-10573
▁Police	-10574
▁lifted	-10575
▁arguing	-10576
▁degrees	-10577
▁shocked	-10578
committee	-10579
▁assuming	-10580
▁dissemin	-10581
▁employee	-10582
▁executed	-10583
▁supplier	-10584
▁unreason	-10585
▁adjourned	-10586
▁combining	-10587
▁smuggling	-10588
▁oppression	-10589
▁unquestion	-10590
▁Immigration	-10591
▁breakthrough	-10592
▁notification	-10593
▁vulnerability	-10594
▁Competitiveness	-10595
OR	-10596
ega	-10597
ker	-10598
mal	-10599
mpt	-10600
▁37	-10601
▁1.5	-10602
▁hur	-10603
endar	-10604
▁erup	-10605
▁feet	-10606
▁fatal	-10607
▁novel	-10608
▁flying	-10609
▁judged	-10610
▁ticket	-10611
▁besides	-10612
▁freezing	-10613
▁seasonal	-10614
▁supporter	-10615
▁consulting	-10616
▁prevailing	-10617
▁modernising	-10618
▁contaminated	-10619
▁postponement	-10620
);	-10621
ords	-10622
ware	-10623
which	-10624
▁Farm	-10625
▁unav	-10626
▁enact	-10627
▁quiet	-10628
▁advise	-10629
▁refund	-10630
ermarket	-10631
▁Overall	-10632
▁hardest	-10633
▁insofar	-10634
▁premium	-10635
▁confined	-10636
▁consular	-10637
▁investor	-10638
▁revising	-10639
▁visiting	-10640
▁diversify	-10641
▁stressing	-10642
enterprises	-10643
▁Everything	-10644
▁atrocities	-10645
▁disruption	-10646
▁reciprocal	-10647
▁submission	-10648
withstanding	-10649
▁settlements	-10650
▁counterparts	-10651
▁interpreters	-10652
▁deliberations	-10653
';	-10654
PA	-10655
bek	-10656
yle	-10657
▁46	-10658
ella	-10659
▁sun	-10660
atism	-10661
erers	-10662
▁Prov	-10663
▁hero	-10664
lining	-10665
▁Creat	-10666
▁bills	-10667
▁cards	-10668
▁decou	-10669
▁motto	-10670
▁steel	-10671
reading	-10672
▁humans	-10673
▁safely	-10674
▁unused	-10675
ignation	-10676
▁Capital	-10677
▁defines	-10678
▁embargo	-10679
▁roaming	-10680
▁honoured	-10681
▁prohibit	-10682
▁supervis	-10683
▁encounter	-10684
▁offensive	-10685
▁purchases	-10686
▁altogether	-10687
▁Accordingly	-10688
ada	-10689
dam	-10690
oil	-10691
rgyz	-10692
rine	-10693
▁Pay	-10694
▁Plat	-10695
bestos	-10696
▁Nobel	-10697
▁actor	-10698
▁cells	-10699
▁repay	-10700
▁Access	-10701
▁Eritre	-10702
▁Medved	-10703
▁assass	-10704
▁audits	-10705
▁capita	-10706
▁carers	-10707
▁thrust	-10708
▁favours	-10709
▁Tibetans	-10710
▁arriving	-10711
▁goodwill	-10712
▁inspired	-10713
▁journeys	-10714
▁marriage	-10715
▁civilised	-10716
▁enforcing	-10717
▁expulsion	-10718
▁persistent	-10719
▁Eurovignette	-10720
▁dissemination	-10721
atz	-10722
stop	-10723
▁Jac	-10724
▁fed	-10725
▁fee	-10726
cking	-10727
▁Have	-10728
▁fluct	-10729
▁phone	-10730
ounding	-10731
▁affair	-10732
▁conven	-10733
▁doctor	-10734
▁metres	-10735
▁thirds	-10736
▁troubl	-10737
▁Interim	-10738
▁Package	-10739
▁cancell	-10740
▁epidemic	-10741
▁incurred	-10742
▁overseas	-10743
▁beautiful	-10744
▁factories	-10745
▁forwarded	-10746
▁relatives	-10747
▁supplying	-10748
▁tragedies	-10749
▁deliberate	-10750
▁reflecting	-10751
▁comparative	-10752
▁convictions	-10753
▁supermarket	-10754
brid	-10755
lete	-10756
zbek	-10757
▁Add	-10758
▁Cal	-10759
▁cra	-10760
▁crew	-10761
▁evil	-10762
▁pert	-10763
▁phot	-10764
ighter	-10765
luding	-10766
▁pages	-10767
limited	-10768
▁Azores	-10769
▁Kyrgyz	-10770
▁farmer	-10771
▁legacy	-10772
financed	-10773
▁hostage	-10774
▁outlook	-10775
▁reaches	-10776
▁spheres	-10777
▁touched	-10778
▁Medvedev	-10779
▁condemns	-10780
▁confused	-10781
▁deadlock	-10782
▁enlarged	-10783
▁precious	-10784
▁updating	-10785
▁triggered	-10786
▁conformity	-10787
▁incidentally	-10788
▁multilingualism	-10789
ava	-10790
▁VI	-10791
6-04	-10792
ccup	-10793
fold	-10794
▁Aud	-10795
▁Rev	-10796
▁cycl	-10797
minded	-10798
▁2004.	-10799
▁Peter	-10800
▁Putin	-10801
▁bombs	-10802
▁adopts	-10803
▁beliefs	-10804
▁cleaner	-10805
▁letters	-10806
▁passion	-10807
▁scourge	-10808
▁venture	-10809
▁populist	-10810
▁machinery	-10811
▁sceptical	-10812
▁tolerated	-10813
▁transpose	-10814
▁incredible	-10815
▁possession	-10816
▁constructively	-10817
▁da	-10818
cker	-10819
risk	-10820
▁bid	-10821
▁lia	-10822
eland	-10823
onest	-10824
▁UKIP	-10825
ocally	-10826
▁Tajik	-10827
▁pione	-10828
▁shops	-10829
▁Arabia	-10830
▁Manuel	-10831
▁output	-10832
▁winner	-10833
▁Bahrain	-10834
▁checked	-10835
▁growers	-10836
▁repatri	-10837
▁returns	-10838
▁verdict	-10839
▁Facility	-10840
▁colonial	-10841
▁offshore	-10842
▁patience	-10843
▁tractors	-10844
▁Colleagues	-10845
▁Rapporteur	-10846
▁reasonably	-10847
▁evaluations	-10848
▁incorporating	-10849
ura	-10850
▁Na	-10851
case	-10852
▁Prof	-10853
▁exag	-10854
▁male	-10855
vation	-10856
▁Sadly	-10857
▁rigid	-10858
▁sympt	-10859
agascar	-10860
assoure	-10861
▁barbar	-10862
▁incite	-10863
▁asbestos	-10864
▁blockade	-10865
▁juncture	-10866
▁obstruct	-10867
▁villages	-10868
▁Albertini	-10869
▁Universal	-10870
▁exporters	-10871
▁finalised	-10872
▁gathering	-10873
▁penalised	-10874
▁wellbeing	-10875
▁approached	-10876
▁modulation	-10877
▁supposedly	-10878
▁Presidencies	-10879
▁prescription	-10880
▁contradictions	-10881
UC	-10882
ska	-10883
▁Il	-10884
ager	-10885
▁EPA	-10886
▁Pen	-10887
▁Sem	-10888
▁cry	-10889
▁hun	-10890
▁rum	-10891
ensen	-10892
gener	-10893
ichet	-10894
▁Rasm	-10895
▁gall	-10896
▁tact	-10897
tariff	-10898
urable	-10899
▁Maybe	-10900
▁virus	-10901
certain	-10902
▁cataly	-10903
▁forums	-10904
▁rarely	-10905
▁Greater	-10906
▁Rasmuss	-10907
▁accepts	-10908
▁cloning	-10909
▁default	-10910
▁distant	-10911
▁forming	-10912
▁lagging	-10913
▁roughly	-10914
onourable	-10915
▁penalise	-10916
▁benchmark	-10917
▁dignified	-10918
▁Lamassoure	-10919
▁Madagascar	-10920
▁Membership	-10921
▁temperature	-10922
▁unequivocal	-10923
▁confirmation	-10924
▁peacekeeping	-10925
▁dictatorships	-10926
▁profitability	-10927
▁militarisation	-10928
gr	-10929
lor	-10930
sun	-10931
▁1,	-10932
▁Up	-10933
burg	-10934
step	-10935
zens	-10936
▁194	-10937
▁Mik	-10938
▁thr	-10939
obile	-10940
olski	-10941
rians	-10942
▁ESDP	-10943
▁Goog	-10944
▁kidn	-10945
▁tune	-10946
▁Fisch	-10947
▁bread	-10948
egrated	-10949
▁intent	-10950
perately	-10951
▁Latvian	-10952
▁Trichet	-10953
▁harmony	-10954
▁inflict	-10955
▁Violence	-10956
▁guardian	-10957
legislator	-10958
▁Rasmussen	-10959
▁influenza	-10960
▁reinforces	-10961
▁tendencies	-10962
▁Sustainable	-10963
▁correlation	-10964
▁shipbuilding	-10965
SS	-10966
▁:	-10967
▁2,	-10968
bone	-10969
feld	-10970
sect	-10971
ucht	-10972
▁Ret	-10973
▁TEN	-10974
▁bat	-10975
▁hus	-10976
▁ran	-10977
elles	-10978
▁ITER	-10979
▁Schw	-10980
▁burn	-10981
▁clim	-10982
▁gang	-10983
▁west	-10984
solete	-10985
▁2002,	-10986
▁Gucht	-10987
▁Uzbek	-10988
▁dates	-10989
strateg	-10990
▁Better	-10991
▁Consid	-10992
▁Object	-10993
▁Robert	-10994
▁Senate	-10995
▁Things	-10996
▁oceans	-10997
▁warned	-10998
▁Looking	-10999
▁feeding	-11000
▁husband	-11001
▁moments	-11002
▁quicker	-11003
▁refuses	-11004
▁rethink	-11005
▁applause	-11006
▁destruct	-11007
▁employer	-11008
▁smoothly	-11009
▁steadily	-11010
▁tropical	-11011
▁radically	-11012
▁realising	-11013
▁absorption	-11014
▁disclosure	-11015
▁overlooked	-11016
▁reiterated	-11017
▁vigorously	-11018
▁Secretariat	-11019
▁departments	-11020
▁desperately	-11021
▁unambiguous	-11022
.,	-11023
5)	-11024
cz	-11025
ois	-11026
cles	-11027
greg	-11028
otal	-11029
oven	-11030
pire	-11031
ached	-11032
eline	-11033
▁Capp	-11034
▁beat	-11035
▁film	-11036
Wolski	-11037
▁2003,	-11038
▁Regul	-11039
▁Which	-11040
▁sorts	-11041
▁Google	-11042
▁Twenty	-11043
▁hugely	-11044
▁winter	-11045
▁History	-11046
▁cereals	-11047
▁weakest	-11048
▁Reinfeld	-11049
▁feelings	-11050
▁invasion	-11051
▁lowering	-11052
▁thematic	-11053
▁questioned	-11054
▁contracting	-11055
▁controversy	-11056
▁extradition	-11057
▁facilitated	-11058
▁facilitates	-11059
▁regrettably	-11060
proliferation	-11061
▁intermediate	-11062
▁unequivocally	-11063
0,	-11064
11	-11065
ROM	-11066
sub	-11067
wer	-11068
▁88	-11069
▁Ve	-11070
food	-11071
omic	-11072
▁dub	-11073
ursed	-11074
▁Sary	-11075
▁outd	-11076
▁rend	-11077
angered	-11078
▁Regret	-11079
▁shield	-11080
▁shores	-11081
▁Fischer	-11082
▁Jacques	-11083
▁tighten	-11084
▁Ferreira	-11085
▁Tomorrow	-11086
▁dossiers	-11087
▁unstable	-11088
▁Decisions	-11089
▁Mandelson	-11090
▁addiction	-11091
▁admission	-11092
▁pipelines	-11093
▁retaining	-11094
▁mutilation	-11095
▁veterinary	-11096
▁fortunately	-11097
▁predictable	-11098
▁respectively	-11099
▁supplemented	-11100
▁compatibility	-11101
CR	-11102
20,	-11103
due	-11104
▁43	-11105
recy	-11106
▁Cas	-11107
▁Job	-11108
▁lev	-11109
frame	-11110
nistr	-11111
▁None	-11112
▁Pitt	-11113
▁Sign	-11114
▁Soci	-11115
▁amaz	-11116
▁anth	-11117
▁disb	-11118
contin	-11119
energy	-11120
▁CITES	-11121
▁Kroes	-11122
▁broke	-11123
▁rests	-11124
ighting	-11125
▁defeat	-11126
▁misuse	-11127
▁Cappato	-11128
▁Posting	-11129
▁Saryusz	-11130
▁dubious	-11131
▁mineral	-11132
▁afforded	-11133
▁champion	-11134
▁combated	-11135
▁director	-11136
▁imminent	-11137
▁residing	-11138
▁subscrib	-11139
▁Reinfeldt	-11140
▁balancing	-11141
▁childhood	-11142
▁crucially	-11143
▁economics	-11144
▁Statements	-11145
▁limitation	-11146
▁commendable	-11147
▁designation	-11148
▁frustration	-11149
▁intensified	-11150
▁predecessor	-11151
▁emphatically	-11152
▁hypocritical	-11153
▁accommodation	-11154
cap	-11155
eal	-11156
oys	-11157
▁42	-11158
▁ru	-11159
enna	-11160
▁McG	-11161
▁Mod	-11162
ernal	-11163
essor	-11164
erness	-11165
otechn	-11166
▁Brown	-11167
▁Medic	-11168
▁Legisl	-11169
▁carcin	-11170
▁cattle	-11171
▁Railway	-11172
▁derived	-11173
▁varying	-11174
ilisation	-11175
represent	-11176
▁backbone	-11177
▁obsolete	-11178
▁overlook	-11179
▁volcanic	-11180
▁Accession	-11181
▁pesticide	-11182
▁classified	-11183
▁Governments	-11184
▁illustrates	-11185
▁standardised	-11186
▁mainstreaming	-11187
eme	-11188
▁32	-11189
▁95	-11190
abel	-11191
▁14.	-11192
▁sky	-11193
oming	-11194
onian	-11195
▁Casp	-11196
▁Hond	-11197
▁Oper	-11198
▁prec	-11199
▁shot	-11200
▁tsun	-11201
▁Scient	-11202
▁cloned	-11203
▁talent	-11204
▁clashes	-11205
▁honesty	-11206
▁mankind	-11207
▁nowhere	-11208
▁Colombia	-11209
▁dreadful	-11210
▁earliest	-11211
▁endanger	-11212
▁homeless	-11213
▁scarcity	-11214
▁Alexander	-11215
▁Communism	-11216
▁Greenland	-11217
▁advertise	-11218
▁conferred	-11219
▁departure	-11220
▁objection	-11221
▁privilege	-11222
▁reluctant	-11223
▁reminding	-11224
▁Tajikistan	-11225
▁escalation	-11226
▁observance	-11227
▁temptation	-11228
▁accomplished	-11229
▁discrepancies	-11230
3)	-11231
oj	-11232
eye	-11233
iel	-11234
▁CC	-11235
2004	-11236
ears	-11237
hran	-11238
olio	-11239
uest	-11240
▁tun	-11241
anium	-11242
atero	-11243
atisf	-11244
icken	-11245
▁ERDF	-11246
▁Polit	-11247
▁Wales	-11248
▁horse	-11249
apatero	-11250
assador	-11251
▁Tehran	-11252
▁racial	-11253
▁toward	-11254
iscrimin	-11255
▁Germans	-11256
▁Lulling	-11257
▁Passeng	-11258
▁secrecy	-11259
▁tougher	-11260
▁unitary	-11261
accession	-11262
▁Catholic	-11263
▁Scottish	-11264
▁responds	-11265
▁unlawful	-11266
▁Situation	-11267
▁directors	-11268
▁generates	-11269
▁repeating	-11270
▁peacefully	-11271
▁privileges	-11272
▁feasibility	-11273
▁investigating	-11274
00.	-11275
NTE	-11276
auth	-11277
elve	-11278
ovsk	-11279
ower	-11280
uart	-11281
▁FRO	-11282
▁Mun	-11283
aysia	-11284
▁SEPA	-11285
▁aged	-11286
▁boyc	-11287
▁bulk	-11288
▁drew	-11289
▁forb	-11290
erence	-11291
igious	-11292
▁cited	-11293
▁opium	-11294
▁FRONTE	-11295
▁Hondur	-11296
▁format	-11297
▁segreg	-11298
▁seized	-11299
▁subord	-11300
▁unfore	-11301
▁fulfils	-11302
▁genetic	-11303
▁insists	-11304
strategic	-11305
▁backward	-11306
▁dynamism	-11307
▁optional	-11308
▁convicted	-11309
▁entrusted	-11310
▁portfolio	-11311
▁destructive	-11312
▁inconsistent	-11313
▁jeopardising	-11314
▁unreasonable	-11315
▁strategically	-11316
6.	-11317
ni	-11318
eem	-11319
fia	-11320
▁49	-11321
illi	-11322
imal	-11323
▁Bor	-11324
▁Bur	-11325
▁Dia	-11326
▁Mat	-11327
▁Rem	-11328
▁eve	-11329
▁Take	-11330
▁adds	-11331
orable	-11332
rained	-11333
urmoil	-11334
▁Gomes	-11335
growing	-11336
▁Recent	-11337
▁frustr	-11338
▁varies	-11339
undering	-11340
▁careers	-11341
▁relying	-11342
▁unavoid	-11343
▁Malaysia	-11344
▁advisory	-11345
▁complies	-11346
▁killings	-11347
▁detainees	-11348
▁literally	-11349
▁statutory	-11350
▁unchanged	-11351
▁waterways	-11352
▁Transnistr	-11353
▁calculated	-11354
▁correction	-11355
▁counteract	-11356
▁fraudulent	-11357
▁incredibly	-11358
▁formulation	-11359
▁prerogatives	-11360
▁traditionally	-11361
lah	-11362
▁MP	-11363
arab	-11364
▁Ath	-11365
▁geo	-11366
arios	-11367
▁City	-11368
owners	-11369
ulence	-11370
▁2015,	-11371
▁Faced	-11372
▁aston	-11373
▁enemy	-11374
▁overf	-11375
▁reall	-11376
▁unfav	-11377
uinness	-11378
▁ambigu	-11379
▁dollar	-11380
▁Borders	-11381
▁chronic	-11382
▁disrupt	-11383
▁pledged	-11384
▁turmoil	-11385
▁utilise	-11386
▁calendar	-11387
▁dealings	-11388
▁deposits	-11389
▁hectares	-11390
▁hesitate	-11391
▁maximise	-11392
▁turnover	-11393
▁desperate	-11394
▁occupying	-11395
▁pertinent	-11396
▁McGuinness	-11397
▁enormously	-11398
▁rigorously	-11399
▁calculation	-11400
▁engineering	-11401
▁acknowledging	-11402
▁authorisations	-11403
afe	-11404
▁78	-11405
▁Ke	-11406
▁Eth	-11407
▁Sil	-11408
endid	-11409
legal	-11410
▁Jord	-11411
▁ausp	-11412
▁cust	-11413
▁hier	-11414
▁shed	-11415
funded	-11416
ivable	-11417
ogenic	-11418
person	-11419
▁arose	-11420
▁backs	-11421
▁prest	-11422
▁redef	-11423
▁undes	-11424
▁Cambod	-11425
▁inject	-11426
▁lively	-11427
▁rooted	-11428
▁wisdom	-11429
▁Equally	-11430
▁arrival	-11431
▁kidnapp	-11432
▁uranium	-11433
▁worries	-11434
▁explains	-11435
▁shipyard	-11436
▁attending	-11437
▁scenarios	-11438
▁Increasing	-11439
▁usefulness	-11440
▁originating	-11441
▁Specifically	-11442
▁redistribution	-11443
▁totalitarianism	-11444
50.	-11445
▁16.	-11446
▁Deb	-11447
▁shr	-11448
ounds	-11449
short	-11450
urate	-11451
▁Lear	-11452
▁eggs	-11453
▁pure	-11454
▁rose	-11455
▁codes	-11456
▁grasp	-11457
▁Unless	-11458
▁Supreme	-11459
▁imposes	-11460
▁reveals	-11461
▁tsunami	-11462
▁volumes	-11463
effective	-11464
producing	-11465
▁Olympics	-11466
▁artistic	-11467
▁auspices	-11468
▁splendid	-11469
▁advisable	-11470
▁magnitude	-11471
▁predicted	-11472
▁violating	-11473
▁wondering	-11474
competitive	-11475
▁decreasing	-11476
▁reaffirmed	-11477
▁proportions	-11478
▁certificates	-11479
▁modification	-11480
rot	-11481
▁Ay	-11482
bies	-11483
wand	-11484
apest	-11485
child	-11486
endix	-11487
▁boat	-11488
▁cite	-11489
▁Dalli	-11490
▁brand	-11491
▁globe	-11492
▁Motors	-11493
▁Spring	-11494
▁casual	-11495
▁portal	-11496
▁Finnish	-11497
▁genital	-11498
▁herself	-11499
▁Official	-11500
▁catalyst	-11501
▁headings	-11502
▁allegedly	-11503
▁excluding	-11504
▁fantastic	-11505
▁milestone	-11506
▁Honourable	-11507
▁auctioning	-11508
▁exacerbate	-11509
▁indiscrimin	-11510
▁principally	-11511
▁differentiated	-11512
▁specifications	-11513
BR	-11514
EE	-11515
cs	-11516
alys	-11517
▁Kyi	-11518
▁Suu	-11519
▁cyn	-11520
catch	-11521
eping	-11522
▁Prom	-11523
▁inad	-11524
▁flour	-11525
▁paths	-11526
▁Negoti	-11527
▁enjoys	-11528
▁offset	-11529
▁pedest	-11530
▁selective	-11531
▁Guidelines	-11532
▁censorship	-11533
▁peripheral	-11534
▁earthquakes	-11535
▁provocation	-11536
▁shareholders	-11537
▁unfavourable	-11538
38	-11539
ati	-11540
▁44	-11541
▁Ort	-11542
▁pred	-11543
worthy	-11544
▁Andor	-11545
▁Angel	-11546
autaire	-11547
▁dozens	-11548
▁ideals	-11549
▁noting	-11550
▁pledge	-11551
uestions	-11552
ychelles	-11553
▁Regrett	-11554
▁connect	-11555
▁doubled	-11556
▁landing	-11557
▁Honduras	-11558
▁recalled	-11559
▁severity	-11560
▁utilised	-11561
▁automobile	-11562
▁identifies	-11563
▁resolutely	-11564
▁standpoint	-11565
▁questioning	-11566
▁coordinators	-11567
▁headquarters	-11568
▁communautaire	-11569
▁deteriorating	-11570
▁Implementation	-11571
jo	-11572
bin	-11573
eda	-11574
▁Ass	-11575
▁Kau	-11576
▁lod	-11577
▁mad	-11578
▁1970	-11579
▁ages	-11580
▁Harms	-11581
▁Stand	-11582
▁abund	-11583
▁risky	-11584
elected	-11585
feiting	-11586
inating	-11587
▁colour	-11588
▁counts	-11589
▁render	-11590
▁theore	-11591
commerce	-11592
▁closest	-11593
▁rolling	-11594
▁unusual	-11595
▁winners	-11596
▁Platform	-11597
▁awarding	-11598
▁capitals	-11599
▁outdated	-11600
▁quarters	-11601
▁Emissions	-11602
▁timeframe	-11603
▁unfounded	-11604
▁corrective	-11605
▁insistence	-11606
▁Regrettably	-11607
▁criticising	-11608
▁expectation	-11609
▁personality	-11610
▁subcontract	-11611
hat	-11612
▁CS	-11613
kara	-11614
rian	-11615
▁Bay	-11616
▁CCS	-11617
▁Fam	-11618
▁Too	-11619
aware	-11620
nesty	-11621
tered	-11622
upper	-11623
▁vacu	-11624
saving	-11625
social	-11626
▁digit	-11627
▁eager	-11628
▁Scheme	-11629
▁church	-11630
▁handic	-11631
▁humane	-11632
▁posted	-11633
▁slogan	-11634
▁impasse	-11635
▁Israelis	-11636
▁discoura	-11637
▁abilities	-11638
▁appealing	-11639
▁breakdown	-11640
▁interview	-11641
▁observing	-11642
▁purchased	-11643
▁summarise	-11644
▁endeavours	-11645
▁geographic	-11646
▁tightening	-11647
▁indifferent	-11648
▁nationalist	-11649
▁negotiators	-11650
▁reservation	-11651
▁distinguished	-11652
▁documentation	-11653
▁underestimate	-11654
▁rehabilitation	-11655
Ar	-11656
EM	-11657
CTB	-11658
ael	-11659
▁8%	-11660
▁TF	-11661
ivic	-11662
ogna	-11663
orum	-11664
selt	-11665
▁Ann	-11666
▁Hel	-11667
▁Tro	-11668
aling	-11669
ymmet	-11670
▁Ecol	-11671
▁flat	-11672
▁fled	-11673
▁vide	-11674
▁Monti	-11675
▁Serbs	-11676
▁Almost	-11677
▁Ankara	-11678
▁petrol	-11679
▁vacuum	-11680
▁Bologna	-11681
▁Posselt	-11682
▁blatant	-11683
▁dropped	-11684
▁empower	-11685
▁irrever	-11686
▁machine	-11687
▁replies	-11688
▁Budapest	-11689
▁Semester	-11690
▁holistic	-11691
▁massacre	-11692
▁tailored	-11693
▁unexpect	-11694
▁visitors	-11695
▁workable	-11696
▁Paragraph	-11697
▁ascertain	-11698
▁decreased	-11699
▁justifies	-11700
▁Seychelles	-11701
▁friendship	-11702
▁indicative	-11703
▁motivation	-11704
▁publishing	-11705
▁broadcasters	-11706
▁instructions	-11707
▁instrumental	-11708
CM	-11709
20.	-11710
aki	-11711
conf	-11712
luet	-11713
▁17.	-11714
▁IAS	-11715
▁Out	-11716
▁Haug	-11717
▁Mann	-11718
uartet	-11719
▁Catal	-11720
▁Staff	-11721
▁Times	-11722
▁reads	-11723
▁stone	-11724
▁Vienna	-11725
▁denial	-11726
▁overly	-11727
▁preval	-11728
business	-11729
ritorial	-11730
▁Mission	-11731
▁chaired	-11732
▁consume	-11733
▁denomin	-11734
▁onwards	-11735
▁overdue	-11736
▁spectac	-11737
▁undergo	-11738
▁Heritage	-11739
commercial	-11740
▁Medicines	-11741
▁additives	-11742
▁alignment	-11743
▁compliment	-11744
▁measurable	-11745
▁profoundly	-11746
▁explanatory	-11747
UU	-11748
awa	-11749
cip	-11750
flu	-11751
mil	-11752
oom	-11753
▁Hu	-11754
cris	-11755
suff	-11756
▁Geb	-11757
▁gay	-11758
▁umb	-11759
atson	-11760
usive	-11761
▁Aung	-11762
▁fool	-11763
erable	-11764
▁Chile	-11765
liberal	-11766
▁Jordan	-11767
▁Watson	-11768
▁assent	-11769
▁chains	-11770
▁delete	-11771
▁fright	-11772
▁master	-11773
▁Haitian	-11774
▁devised	-11775
▁pricing	-11776
icultural	-11777
▁Gebhardt	-11778
▁Supervis	-11779
▁barbaric	-11780
▁endorses	-11781
▁operated	-11782
▁pandemic	-11783
▁reserved	-11784
▁vigorous	-11785
▁dissatisf	-11786
▁nutrition	-11787
▁packaging	-11788
▁memorandum	-11789
▁nomination	-11790
▁turbulence	-11791
▁allegations	-11792
▁conflicting	-11793
▁disgraceful	-11794
▁calculations	-11795
▁entrepreneurial	-11796
35	-11797
RE	-11798
ios	-11799
▁Jo	-11800
chez	-11801
mony	-11802
rass	-11803
▁ang	-11804
China	-11805
▁issu	-11806
crisis	-11807
orious	-11808
▁2050.	-11809
▁Adopt	-11810
▁deeds	-11811
▁files	-11812
▁glass	-11813
▁grain	-11814
▁naive	-11815
arantee	-11816
▁Fourth	-11817
▁Lamber	-11818
▁Others	-11819
▁curric	-11820
▁stored	-11821
▁asymmet	-11822
▁coupled	-11823
▁liaison	-11824
▁pockets	-11825
▁suppose	-11826
luetongue	-11827
▁Albanian	-11828
▁ceremony	-11829
▁holidays	-11830
▁premises	-11831
▁violates	-11832
stitutions	-11833
▁embarrass	-11834
▁evidently	-11835
▁directions	-11836
▁undergoing	-11837
▁authorising	-11838
▁inefficient	-11839
▁interfering	-11840
▁unavoidable	-11841
▁voluntarily	-11842
▁Particularly	-11843
▁interpretations	-11844
aya	-11845
evo	-11846
▁Ac	-11847
▁FP	-11848
arre	-11849
igue	-11850
▁Lud	-11851
▁Orb	-11852
oeing	-11853
oving	-11854
▁Rest	-11855
▁dile	-11856
▁trap	-11857
recast	-11858
▁rescu	-11859
▁stuck	-11860
▁upper	-11861
▁waves	-11862
▁Schwab	-11863
▁assign	-11864
▁bloody	-11865
▁native	-11866
▁perpet	-11867
▁steady	-11868
▁deleted	-11869
▁ordered	-11870
▁Whatever	-11871
▁collapsed	-11872
▁locations	-11873
▁ratifying	-11874
established	-11875
▁Revolution	-11876
▁infections	-11877
▁properties	-11878
▁reluctance	-11879
▁description	-11880
▁transparently	-11881
49	-11882
▁4,	-11883
▁CR	-11884
cost	-11885
odox	-11886
▁95%	-11887
▁fru	-11888
burgh	-11889
▁000.	-11890
▁Cond	-11891
▁Kash	-11892
▁Krem	-11893
▁mira	-11894
▁plun	-11895
▁sing	-11896
consum	-11897
untary	-11898
▁deple	-11899
▁hydro	-11900
▁store	-11901
raining	-11902
▁Ashraf	-11903
▁Farage	-11904
▁accred	-11905
▁dilemm	-11906
▁embass	-11907
▁esteem	-11908
▁incumb	-11909
▁themes	-11910
polluter	-11911
▁illicit	-11912
▁leakage	-11913
▁logging	-11914
▁suicide	-11915
▁vaccine	-11916
▁Freedoms	-11917
▁favoured	-11918
ologically	-11919
▁communism	-11920
▁emotional	-11921
▁Uzbekistan	-11922
▁circumvent	-11923
▁devastated	-11924
▁rebuilding	-11925
▁renational	-11926
▁eradicating	-11927
▁segregation	-11928
▁interconnection	-11929
▁,	-11930
aur	-11931
isk	-11932
ovi	-11933
uts	-11934
▁Si	-11935
7-02	-11936
enew	-11937
▁Ins	-11938
▁Syn	-11939
▁luc	-11940
▁sid	-11941
ouros	-11942
start	-11943
▁Mark	-11944
▁Text	-11945
▁cosm	-11946
▁fits	-11947
▁page	-11948
▁2001,	-11949
▁Satur	-11950
▁Simps	-11951
▁overt	-11952
rometer	-11953
▁Airbus	-11954
▁ethics	-11955
▁misery	-11956
specific	-11957
▁Diamand	-11958
▁anxious	-11959
▁confisc	-11960
▁fleeing	-11961
▁multipl	-11962
▁pertain	-11963
▁studied	-11964
Community	-11965
▁Saturday	-11966
▁consumed	-11967
▁smallest	-11968
▁Exclusion	-11969
▁Romanians	-11970
▁attacking	-11971
▁intensity	-11972
▁Kyrgyzstan	-11973
▁Securities	-11974
▁experiment	-11975
▁incomplete	-11976
▁allocations	-11977
▁expressions	-11978
▁neighbourly	-11979
▁supervisors	-11980
▁Diamandouros	-11981
inn	-11982
van	-11983
High	-11984
asph	-11985
▁17%	-11986
▁ina	-11987
▁mag	-11988
▁sle	-11989
avour	-11990
▁bees	-11991
▁edge	-11992
▁leap	-11993
▁lots	-11994
▁pool	-11995
formed	-11996
parent	-11997
▁Drugs	-11998
▁Gener	-11999
▁Works	-12000
▁neuro	-12001
▁walls	-12002
▁cereal	-12003
▁embark	-12004
▁modify	-12005
▁plight	-12006
▁suited	-12007
▁Farmers	-12008
▁specify	-12009
▁suffers	-12010
identally	-12011
▁Cameroon	-12012
▁insecure	-12013
▁detection	-12014
▁diplomats	-12015
functioning	-12016
▁discourage	-12017
▁denominator	-12018
▁emergencies	-12019
▁signatories	-12020
▁Subcommittee	-12021
administration	-12022
▁interdependence	-12023
St	-12024
exam	-12025
uate	-12026
▁110	-12027
▁19.	-12028
▁Ali	-12029
▁Kir	-12030
andes	-12031
ighth	-12032
night	-12033
▁Garc	-12034
▁Lang	-12035
▁Shal	-12036
▁baby	-12037
▁prox	-12038
▁vain	-12039
enable	-12040
levant	-12041
opular	-12042
▁embod	-12043
▁spons	-12044
▁revive	-12045
▁Kremlin	-12046
▁Simpson	-12047
▁optimum	-12048
▁Ecolabel	-12049
▁homeland	-12050
▁shopping	-12051
▁Migration	-12052
▁Objective	-12053
▁Terrorism	-12054
▁authorise	-12055
▁populated	-12056
▁regulator	-12057
▁channelled	-12058
▁institutes	-12059
▁sacrifices	-12060
▁intensively	-12061
▁transformed	-12062
▁withdrawing	-12063
▁advantageous	-12064
▁manipulation	-12065
MT	-12066
▁id	-12067
aeda	-12068
airo	-12069
icks	-12070
oded	-12071
rade	-12072
rido	-12073
ctory	-12074
olese	-12075
vable	-12076
▁hall	-12077
▁sham	-12078
▁stif	-12079
▁unim	-12080
▁Sport	-12081
▁dilig	-12082
▁greed	-12083
▁retro	-12084
▁stagn	-12085
▁tyres	-12086
asphemy	-12087
▁Davies	-12088
▁Lewand	-12089
▁Making	-12090
▁hiding	-12091
▁Congrat	-12092
▁Garrido	-12093
▁Welcome	-12094
▁useless	-12095
▁Appendix	-12096
▁inviting	-12097
▁outlines	-12098
▁paradigm	-12099
▁reassess	-12100
▁republic	-12101
▁tortured	-12102
▁Congolese	-12103
▁blacklist	-12104
▁illnesses	-12105
▁marriages	-12106
▁offenders	-12107
▁similarly	-12108
▁bluetongue	-12109
▁proceeding	-12110
▁Lewandowski	-12111
▁liberalised	-12112
▁relocations	-12113
▁comprehensible	-12114
HS	-12115
arz	-12116
dis	-12117
nez	-12118
▁fu	-12119
6-00	-12120
ajevo	-12121
human	-12122
▁000,	-12123
▁extin	-12124
ificant	-12125
raising	-12126
▁Credit	-12127
▁height	-12128
election	-12129
▁Chapter	-12130
▁Debates	-12131
▁Euromed	-12132
▁command	-12133
▁couples	-12134
▁factory	-12135
▁impover	-12136
▁virtual	-12137
▁Sarajevo	-12138
▁finalise	-12139
▁forwards	-12140
▁hierarchy	-12141
▁incumbent	-12142
▁registers	-12143
▁endangered	-12144
▁initiating	-12145
▁securities	-12146
▁abandonment	-12147
▁antibiotics	-12148
▁Transnistria	-12149
▁recommending	-12150
(1)	-12151
deg	-12152
iki	-12153
lem	-12154
mot	-12155
oot	-12156
▁ju	-12157
▁35%	-12158
▁CMO	-12159
▁joy	-12160
arkin	-12161
green	-12162
osion	-12163
ouble	-12164
▁Cold	-12165
▁Hope	-12166
▁Sreb	-12167
▁agri	-12168
▁fier	-12169
▁tied	-12170
holder	-12171
renica	-12172
▁2050,	-12173
▁Renew	-12174
▁aller	-12175
▁buses	-12176
▁inher	-12177
▁opted	-12178
▁treas	-12179
▁trick	-12180
▁unacc	-12181
▁Turmes	-12182
▁caring	-12183
▁humili	-12184
▁reside	-12185
lessness	-12186
▁Society	-12187
▁Wallstr	-12188
▁convers	-12189
▁unaware	-12190
▁Moldovan	-12191
▁auditing	-12192
▁climatic	-12193
▁corridor	-12194
▁diminish	-12195
▁drilling	-12196
▁mandates	-12197
▁populism	-12198
▁remedies	-12199
▁Professor	-12200
▁cancelled	-12201
▁employing	-12202
▁infection	-12203
▁Srebrenica	-12204
▁renovation	-12205
▁unreported	-12206
▁influential	-12207
▁Negotiations	-12208
▁reunification	-12209
▁interconnected	-12210
GB	-12211
den	-12212
dez	-12213
▁NU	-12214
▁SA	-12215
▁Ty	-12216
▁Bon	-12217
▁Sac	-12218
▁VIS	-12219
▁fut	-12220
▁pit	-12221
orily	-12222
▁jail	-12223
▁reap	-12224
▁2014.	-12225
▁Waste	-12226
▁blank	-12227
▁recru	-12228
arching	-12229
▁diesel	-12230
▁oblige	-12231
▁poison	-12232
▁racist	-12233
▁rigour	-12234
iliation	-12235
▁Trading	-12236
▁endless	-12237
▁reorgan	-12238
▁auditors	-12239
▁councils	-12240
▁district	-12241
▁dividing	-12242
▁failings	-12243
▁renegoti	-12244
▁scarcely	-12245
▁Euroscept	-12246
▁Something	-12247
▁accompany	-12248
▁advancing	-12249
▁ambiguous	-12250
▁municipal	-12251
▁pregnancy	-12252
▁upholding	-12253
▁appliances	-12254
▁distribute	-12255
▁liberalise	-12256
▁coincidence	-12257
▁livelihoods	-12258
▁nutritional	-12259
▁progressing	-12260
▁unification	-12261
▁comparability	-12262
▁confrontation	-12263
▁intermediaries	-12264
▁Congratulations	-12265
BA	-12266
ITS	-12267
aid	-12268
big	-12269
iro	-12270
rey	-12271
▁Us	-12272
▁sn	-12273
agon	-12274
arag	-12275
▁21.	-12276
▁Che	-12277
▁Hed	-12278
▁Jia	-12279
▁Lyn	-12280
▁pir	-12281
asive	-12282
otton	-12283
oulos	-12284
rella	-12285
▁NUTS	-12286
▁Tele	-12287
▁reop	-12288
ducive	-12289
▁Advis	-12290
▁Bowis	-12291
▁named	-12292
▁rebel	-12293
▁semin	-12294
▁video	-12295
▁Athens	-12296
▁Boeing	-12297
▁Future	-12298
▁hearts	-12299
▁provin	-12300
▁spokes	-12301
vernight	-12302
▁Amnesty	-12303
▁factual	-12304
▁origins	-12305
▁passage	-12306
▁stories	-12307
▁vicious	-12308
▁Cambodia	-12309
▁labelled	-12310
▁reacting	-12311
▁comprises	-12312
▁incidence	-12313
▁accurately	-12314
▁celebrated	-12315
▁prosecuted	-12316
▁wilderness	-12317
▁inspiration	-12318
▁distributing	-12319
▁historically	-12320
▁introductory	-12321
▁multicultural	-12322
▁underestimated	-12323
34	-12324
CD	-12325
No	-12326
ieu	-12327
▁Mu	-12328
GNOS	-12329
aker	-12330
gone	-12331
odes	-12332
oved	-12333
prot	-12334
▁FAO	-12335
▁Koz	-12336
▁Oce	-12337
▁Vir	-12338
eding	-12339
erior	-12340
urban	-12341
uters	-12342
▁Batt	-12343
▁hate	-12344
▁levy	-12345
▁orph	-12346
▁peer	-12347
thodox	-12348
umbers	-12349
▁Bauer	-12350
▁civic	-12351
▁flags	-12352
▁revis	-12353
inarily	-12354
▁Harkin	-12355
▁unsafe	-12356
elligent	-12357
▁confine	-12358
▁destiny	-12359
▁objects	-12360
▁Learning	-12361
▁maternal	-12362
▁mortgage	-12363
▁provider	-12364
▁rotating	-12365
▁Europeana	-12366
▁blasphemy	-12367
▁bordering	-12368
▁describes	-12369
▁deterrent	-12370
▁overnight	-12371
▁recipient	-12372
▁separated	-12373
▁Ukrainians	-12374
▁appearance	-12375
▁illustrate	-12376
▁occurrence	-12377
▁endorsement	-12378
▁Institutions	-12379
▁contemporary	-12380
Can	-12381
DCs	-12382
een	-12383
▁ax	-12384
anes	-12385
appy	-12386
bene	-12387
book	-12388
enci	-12389
felt	-12390
illa	-12391
▁Lif	-12392
▁Var	-12393
-2010	-12394
ashed	-12395
etime	-12396
isive	-12397
▁Boel	-12398
▁Paul	-12399
▁gear	-12400
▁kick	-12401
ieving	-12402
▁Karas	-12403
▁Papua	-12404
▁polls	-12405
▁repet	-12406
▁tonne	-12407
evident	-12408
▁Morocc	-12409
▁anthem	-12410
▁explos	-12411
▁instig	-12412
▁lastly	-12413
▁oldest	-12414
▁wisely	-12415
▁Catania	-12416
▁gallery	-12417
▁phasing	-12418
▁surveys	-12419
▁trigger	-12420
▁assisted	-12421
▁holdings	-12422
▁improper	-12423
▁situated	-12424
▁verified	-12425
▁Angelilli	-12426
▁conducive	-12427
▁unlimited	-12428
sufficiency	-12429
▁dissidents	-12430
▁scoreboard	-12431
▁acquisition	-12432
▁liberalising	-12433
▁congratulated	-12434
▁disappearance	-12435
SEC	-12436
hor	-12437
lod	-12438
tte	-12439
▁6%	-12440
emet	-12441
math	-12442
west	-12443
▁Cla	-12444
▁Dam	-12445
▁EAS	-12446
▁ECO	-12447
▁Kov	-12448
▁Pod	-12449
▁lux	-12450
pleas	-12451
▁Fern	-12452
▁twin	-12453
Lisbon	-12454
racted	-12455
▁alien	-12456
▁coerc	-12457
▁crude	-12458
▁escap	-12459
▁lands	-12460
keepers	-12461
onymous	-12462
▁Anders	-12463
▁Experi	-12464
▁Respon	-12465
▁ballot	-12466
▁bypass	-12467
▁filled	-12468
▁sounds	-12469
▁Sacconi	-12470
▁Turning	-12471
▁college	-12472
▁emotion	-12473
▁hopeful	-12474
▁officer	-12475
▁upgrade	-12476
▁wealthy	-12477
▁Democrat	-12478
▁feedback	-12479
▁practise	-12480
▁Generally	-12481
▁Hopefully	-12482
▁distorted	-12483
▁slightest	-12484
▁supervise	-12485
▁attributed	-12486
▁containers	-12487
▁undeniable	-12488
▁characteristic	-12489
Le	-12490
hem	-12491
tat	-12492
▁5,	-12493
Ukra	-12494
cycl	-12495
ects	-12496
lets	-12497
ools	-12498
▁900	-12499
▁Aut	-12500
inked	-12501
▁Hans	-12502
▁Jarz	-12503
▁Jour	-12504
▁Tann	-12505
▁eman	-12506
▁invo	-12507
ilings	-12508
sburgh	-12509
weight	-12510
▁Dates	-12511
▁landf	-12512
▁mafia	-12513
▁stamp	-12514
African	-12515
rencies	-12516
▁Shalit	-12517
▁boards	-12518
▁fortun	-12519
▁wholes	-12520
▁worksh	-12521
fficking	-12522
▁Gazprom	-12523
▁Jarzemb	-12524
▁Ludford	-12525
▁Tannock	-12526
▁Valenci	-12527
▁advised	-12528
▁confuse	-12529
▁critics	-12530
▁erosion	-12531
▁reviews	-12532
▁sharply	-12533
▁Refugees	-12534
▁develops	-12535
▁devising	-12536
▁fertilis	-12537
▁corrected	-12538
▁creditors	-12539
▁declining	-12540
▁footprint	-12541
▁Pittsburgh	-12542
▁currencies	-12543
▁incitement	-12544
▁resumption	-12545
▁calculating	-12546
▁drastically	-12547
▁formalities	-12548
▁undesirable	-12549
▁distributors	-12550
▁irreversible	-12551
▁transforming	-12552
▁multilateralism	-12553
55	-12554
km	-12555
sts	-12556
▁57	-12557
euro	-12558
ille	-12559
owed	-12560
raud	-12561
vity	-12562
▁Kac	-12563
▁MON	-12564
▁bed	-12565
▁dry	-12566
anted	-12567
ilipp	-12568
onial	-12569
▁Lady	-12570
▁clin	-12571
▁ruin	-12572
▁soul	-12573
atered	-12574
finite	-12575
rading	-12576
utmann	-12577
▁Equal	-12578
▁basin	-12579
▁grams	-12580
▁imply	-12581
▁stret	-12582
istance	-12583
opoulos	-12584
portant	-12585
▁Jewish	-12586
▁breaks	-12587
▁cotton	-12588
▁tender	-12589
▁twelve	-12590
children	-12591
▁Conduct	-12592
▁ashamed	-12593
▁exceeds	-12594
▁optimal	-12595
▁composed	-12596
▁umbrella	-12597
▁Improving	-12598
▁Trautmann	-12599
▁aftermath	-12600
▁authentic	-12601
▁confusing	-12602
▁explosion	-12603
▁heartfelt	-12604
▁Scientific	-12605
▁beforehand	-12606
▁forcefully	-12607
▁unforeseen	-12608
arliamentary	-12609
▁accommodate	-12610
▁pedestrians	-12611
▁concentrating	-12612
▁acknowledgement	-12613
▁extraordinarily	-12614
ED	-12615
IN	-12616
dec	-12617
run	-12618
▁3,	-12619
bner	-12620
last	-12621
▁Gda	-12622
▁Ser	-12623
▁ros	-12624
emies	-12625
▁Ster	-12626
▁deaf	-12627
▁grey	-12628
▁inde	-12629
▁myth	-12630
▁odds	-12631
▁unle	-12632
stones	-12633
▁CCCTB	-12634
▁Roure	-12635
▁awful	-12636
▁insol	-12637
▁trian	-12638
▁Langen	-12639
▁earned	-12640
▁fierce	-12641
▁headed	-12642
▁quoted	-12643
▁rocket	-12644
existent	-12645
▁Juncker	-12646
▁mergers	-12647
▁mindful	-12648
▁rejects	-12649
alienable	-12650
barometer	-12651
▁Councils	-12652
▁delaying	-12653
▁horrific	-12654
▁infected	-12655
▁Consensus	-12656
▁favouring	-12657
▁achievable	-12658
▁decoupling	-12659
▁deplorable	-12660
▁logistical	-12661
▁scrutinise	-12662
▁unexpected	-12663
▁foreseeable	-12664
▁reactionary	-12665
▁Incidentally	-12666
▁Jarzembowski	-12667
▁installation	-12668
99	-12669
Un	-12670
ipp	-12671
jer	-12672
rou	-12673
▁51	-12674
▁Ol	-12675
▁Ens	-12676
▁Ten	-12677
igmat	-12678
ondra	-12679
uttil	-12680
author	-12681
render	-12682
▁Laval	-12683
▁Lynne	-12684
istrust	-12685
▁square	-12686
ternally	-12687
▁Between	-12688
▁Schools	-12689
▁ancient	-12690
▁chamber	-12691
▁chiefly	-12692
▁dilemma	-12693
▁hunting	-12694
▁inspire	-12695
▁oversee	-12696
▁rectify	-12697
▁seventh	-12698
▁wasting	-12699
enerative	-12700
▁Busuttil	-12701
▁Moroccan	-12702
▁ceilings	-12703
▁customer	-12704
▁destined	-12705
▁distress	-12706
▁exciting	-12707
▁sticking	-12708
▁versions	-12709
▁displayed	-12710
▁exceeding	-12711
▁intending	-12712
▁undertook	-12713
▁motherhood	-12714
▁prescribed	-12715
▁disregarded	-12716
▁Conciliation	-12717
▁carcinogenic	-12718
▁incorporates	-12719
▁qualification	-12720
▁municipalities	-12721
▁comprehensively	-12722
39	-12723
00)	-12724
cor	-12725
elf	-12726
ola	-12727
2011	-12728
lene	-12729
olln	-12730
ttes	-12731
▁20.	-12732
▁EMU	-12733
▁Vig	-12734
forth	-12735
▁grid	-12736
gering	-12737
needed	-12738
▁Ahmad	-12739
▁Earth	-12740
▁Golln	-12741
▁imper	-12742
▁Econom	-12743
▁Unlike	-12744
▁Vondra	-12745
▁flawed	-12746
▁fronts	-12747
▁solemn	-12748
▁unfold	-12749
▁Grosset	-12750
▁Journal	-12751
▁Philipp	-12752
▁flavour	-12753
▁forever	-12754
▁teacher	-12755
factorily	-12756
▁literacy	-12757
▁telecoms	-12758
grassroots	-12759
▁Gollnisch	-12760
▁directory	-12761
▁exercises	-12762
▁institute	-12763
▁practised	-12764
▁surrender	-12765
▁Efficiency	-12766
▁abandoning	-12767
▁Supervisory	-12768
▁generalised	-12769
▁transplants	-12770
▁underground	-12771
▁discriminate	-12772
▁repatriation	-12773
▁Eurobarometer	-12774
▁homosexuality	-12775
▁uncertainties	-12776
(5)	-12777
iop	-12778
opl	-12779
▁85	-12780
▁ow	-12781
upid	-12782
▁fur	-12783
▁nit	-12784
South	-12785
imity	-12786
ucing	-12787
umber	-12788
▁Dise	-12789
▁Horn	-12790
▁Look	-12791
▁rout	-12792
orries	-12793
▁clubs	-12794
▁penet	-12795
▁tends	-12796
repared	-12797
▁coasts	-12798
▁insert	-12799
▁testim	-12800
▁unders	-12801
▁Company	-12802
▁Forward	-12803
▁assault	-12804
▁deepest	-12805
▁deprive	-12806
▁enlight	-12807
▁fastest	-12808
▁realism	-12809
▁separat	-12810
▁Armenian	-12811
▁Movement	-12812
▁inclined	-12813
▁mistrust	-12814
▁prompted	-12815
▁suspects	-12816
▁waterway	-12817
▁elaborate	-12818
▁profiling	-12819
▁rationale	-12820
▁travelled	-12821
▁confirming	-12822
▁subsidised	-12823
▁contentious	-12824
▁geostrategic	-12825
▁progressively	-12826
60	-12827
idt	-12828
sen	-12829
▁47	-12830
▁Es	-12831
AIDS	-12832
cers	-12833
rika	-12834
rium	-12835
smen	-12836
tery	-12837
armon	-12838
ashir	-12839
aside	-12840
essim	-12841
loduy	-12842
ocols	-12843
pered	-12844
rable	-12845
▁IPCC	-12846
▁sadd	-12847
Canada	-12848
igital	-12849
rative	-12850
▁Eight	-12851
▁Ocean	-12852
▁Salaf	-12853
▁cargo	-12854
▁freed	-12855
▁hards	-12856
▁lever	-12857
▁recre	-12858
▁uncon	-12859
entials	-12860
▁concur	-12861
▁lament	-12862
▁luxury	-12863
▁exagger	-12864
▁volcano	-12865
▁watered	-12866
▁Interior	-12867
▁adjusted	-12868
▁breeding	-12869
▁detected	-12870
▁maturity	-12871
industrial	-12872
▁Andersson	-12873
▁answering	-12874
▁graduates	-12875
▁proximity	-12876
▁retailers	-12877
▁Conditions	-12878
▁exhaustive	-12879
▁corresponds	-12880
▁inalienable	-12881
▁intervening	-12882
▁Christianity	-12883
▁Implementing	-12884
▁accelerating	-12885
▁cancellation	-12886
▁compromising	-12887
▁Confederation	-12888
▁modifications	-12889
▁radicalisation	-12890
net	-12891
och	-12892
▁39	-12893
▁54	-12894
isan	-12895
itar	-12896
lude	-12897
▁18.	-12898
▁Nav	-12899
▁irr	-12900
▁mel	-12901
▁piv	-12902
aster	-12903
eliev	-12904
ranca	-12905
▁Adam	-12906
▁Math	-12907
▁Stud	-12908
▁feat	-12909
▁soph	-12910
rorist	-12911
▁Level	-12912
▁Simpl	-12913
▁panic	-12914
benefit	-12915
▁Assess	-12916
▁Observ	-12917
▁Ortega	-12918
▁bitter	-12919
▁heated	-12920
▁provoc	-12921
▁richer	-12922
▁Eritrea	-12923
▁adhered	-12924
▁assumes	-12925
▁boycott	-12926
▁burning	-12927
▁greener	-12928
▁ignores	-12929
▁library	-12930
▁ranging	-12931
▁regrets	-12932
▁restaur	-12933
▁touches	-12934
▁Reducing	-12935
▁commonly	-12936
▁concentr	-12937
▁outright	-12938
▁preceded	-12939
▁Voluntary	-12940
▁arrogance	-12941
▁degrading	-12942
▁infringed	-12943
▁kilometre	-12944
otechnology	-12945
▁Regulators	-12946
▁Scoreboard	-12947
▁cigarettes	-12948
▁consisting	-12949
generational	-12950
▁Operational	-12951
▁reconciling	-12952
▁residential	-12953
▁Humanitarian	-12954
▁confidential	-12955
▁satisfactorily	-12956
ja	-12957
FOR	-12958
ISA	-12959
oca	-12960
vin	-12961
▁ga	-12962
ilib	-12963
mond	-12964
ubar	-12965
▁12%	-12966
▁130	-12967
▁350	-12968
▁Fla	-12969
▁Jeg	-12970
▁mir	-12971
▁row	-12972
▁von	-12973
osity	-12974
owned	-12975
▁Plus	-12976
▁Prop	-12977
▁Ship	-12978
▁terr	-12979
▁tiny	-12980
design	-12981
ethnic	-12982
fluous	-12983
isible	-12984
owards	-12985
profit	-12986
redits	-12987
taking	-12988
thirds	-12989
▁1999,	-12990
▁expon	-12991
▁indis	-12992
▁upset	-12993
odified	-12994
respect	-12995
▁Jeggle	-12996
▁accede	-12997
▁detect	-12998
▁lasted	-12999
▁pessim	-13000
▁phones	-13001
▁spaces	-13002
stricted	-13003
▁insight	-13004
▁stigmat	-13005
▁Advisory	-13006
▁commence	-13007
▁widening	-13008
▁disparity	-13009
▁shoulders	-13010
▁Integrated	-13011
▁reimbursed	-13012
▁sacrificed	-13013
▁variations	-13014
▁yourselves	-13015
▁extensively	-13016
▁influencing	-13017
▁measurement	-13018
▁remembering	-13019
▁superfluous	-13020
▁catastrophes	-13021
▁legitimately	-13022
▁microfinance	-13023
▁proportional	-13024
▁Intercultural	-13025
▁misunderstand	-13026
▁unnecessarily	-13027
WTO	-13028
ckx	-13029
uzz	-13030
▁Ba	-13031
▁Ou	-13032
bach	-13033
iate	-13034
▁Ach	-13035
▁Did	-13036
▁Had	-13037
chnya	-13038
▁EULE	-13039
▁band	-13040
▁coin	-13041
▁grip	-13042
▁mixt	-13043
▁mode	-13044
▁olig	-13045
▁tank	-13046
▁wife	-13047
▁anger	-13048
▁empow	-13049
▁grass	-13050
▁ignor	-13051
▁noble	-13052
▁perse	-13053
▁trees	-13054
cutting	-13055
▁Animal	-13056
▁Basque	-13057
▁Bowles	-13058
▁Lankan	-13059
▁Natura	-13060
ilibrium	-13061
▁Mathieu	-13062
▁Refugee	-13063
▁Sterckx	-13064
▁broaden	-13065
▁dollars	-13066
▁lorries	-13067
▁paralys	-13068
▁respons	-13069
▁tickets	-13070
▁Chechnya	-13071
▁activist	-13072
▁dynamics	-13073
▁enjoying	-13074
▁exporter	-13075
▁meanwhile	-13076
▁prohibits	-13077
▁strengths	-13078
▁Supervisor	-13079
▁critically	-13080
▁extinction	-13081
▁likelihood	-13082
▁thresholds	-13083
▁credentials	-13084
▁mountainous	-13085
▁Coordination	-13086
▁cornerstones	-13087
▁environments	-13088
▁categorically	-13089
▁predictability	-13090
▁scientifically	-13091
▁Representatives	-13092
▁notwithstanding	-13093
bul	-13094
ham	-13095
▁96	-13096
▁CD	-13097
fast	-13098
only	-13099
otou	-13100
▁140	-13101
▁99%	-13102
▁IUU	-13103
▁Poz	-13104
▁WHO	-13105
nment	-13106
othes	-13107
▁Bill	-13108
▁busy	-13109
▁coff	-13110
amount	-13111
ealand	-13112
▁Guard	-13113
▁MONUC	-13114
▁Media	-13115
▁Micro	-13116
▁Pract	-13117
▁cater	-13118
▁grids	-13119
▁likes	-13120
▁panel	-13121
▁riots	-13122
▁uncom	-13123
▁Canary	-13124
▁Castro	-13125
▁Cather	-13126
▁Naples	-13127
▁School	-13128
▁losers	-13129
▁occupy	-13130
▁relies	-13131
▁stupid	-13132
entities	-13133
▁Request	-13134
▁differs	-13135
▁educate	-13136
▁haulage	-13137
▁obliges	-13138
▁routine	-13139
▁Ensuring	-13140
▁Lifelong	-13141
▁electron	-13142
▁exerting	-13143
▁interpre	-13144
▁lifetime	-13145
▁prestige	-13146
▁societal	-13147
▁studying	-13148
▁unbeliev	-13149
▁underway	-13150
lexibility	-13151
▁Catherine	-13152
▁accounted	-13153
▁endorsing	-13154
▁fortunate	-13155
▁publicity	-13156
▁qualities	-13157
▁Forwarding	-13158
▁challenged	-13159
▁irrelevant	-13160
▁streamlined	-13161
▁suppression	-13162
▁transposing	-13163
▁attractiveness	-13164
':	-13165
'?	-13166
17	-13167
fl	-13168
py	-13169
arg	-13170
nik	-13171
ste	-13172
war	-13173
▁52	-13174
▁Rw	-13175
aden	-13176
apol	-13177
hour	-13178
iety	-13179
yard	-13180
▁11%	-13181
▁Ste	-13182
inity	-13183
roach	-13184
useum	-13185
▁Audy	-13186
▁Stav	-13187
▁Veld	-13188
▁doom	-13189
▁laud	-13190
▁sand	-13191
▁tram	-13192
public	-13193
rising	-13194
▁Blair	-13195
▁Force	-13196
▁Topol	-13197
▁annum	-13198
▁demag	-13199
▁incin	-13200
▁index	-13201
▁laugh	-13202
▁sixth	-13203
cardini	-13204
roughts	-13205
▁Argent	-13206
▁Groups	-13207
▁Impact	-13208
▁Parish	-13209
▁chairs	-13210
▁enquir	-13211
▁evolve	-13212
▁lesser	-13213
▁Indones	-13214
▁Nicarag	-13215
▁Respect	-13216
▁Schmidt	-13217
▁circles	-13218
▁hazards	-13219
▁misused	-13220
▁monthly	-13221
▁pharmac	-13222
▁wrongly	-13223
ouncement	-13224
▁branches	-13225
▁clearing	-13226
▁provoked	-13227
▁Addiction	-13228
▁Statement	-13229
▁attentive	-13230
▁envisages	-13231
▁impressed	-13232
▁motorways	-13233
▁repealing	-13234
▁unsuccess	-13235
▁Muscardini	-13236
▁Salafranca	-13237
▁accomplish	-13238
▁documented	-13239
▁hesitation	-13240
▁negatively	-13241
▁postponing	-13242
▁recovering	-13243
▁universally	-13244
▁definitively	-13245
▁enlargements	-13246
▁fluctuations	-13247
▁differentiation	-13248
27	-13249
Am	-13250
gl	-13251
EIB	-13252
FIN	-13253
nek	-13254
oya	-13255
pat	-13256
plo	-13257
▁59	-13258
▁Rh	-13259
▁TR	-13260
arms	-13261
▁116	-13262
▁Div	-13263
▁Maj	-13264
▁gun	-13265
aired	-13266
andom	-13267
▁Buch	-13268
▁MDGs	-13269
▁Reul	-13270
▁heed	-13271
▁plea	-13272
▁rede	-13273
▁spur	-13274
resses	-13275
ubarak	-13276
▁score	-13277
▁skill	-13278
ouncing	-13279
▁Ethiop	-13280
▁Rwanda	-13281
▁aeropl	-13282
▁argues	-13283
informed	-13284
interest	-13285
▁Banking	-13286
▁Illegal	-13287
▁Lambert	-13288
▁Synergy	-13289
▁cleared	-13290
▁downgra	-13291
▁readily	-13292
▁relieve	-13293
▁Kozloduy	-13294
▁Nowadays	-13295
▁catching	-13296
▁cosmetic	-13297
▁flagrant	-13298
▁Operation	-13299
▁adherence	-13300
▁borrowing	-13301
▁reaffirms	-13302
▁referenda	-13303
▁witnesses	-13304
legislative	-13305
▁comprising	-13306
▁dedication	-13307
▁foreigners	-13308
▁indefinite	-13309
▁mitigating	-13310
▁modernised	-13311
▁proclaimed	-13312
▁sentiments	-13313
▁equilibrium	-13314
▁interrupted	-13315
▁restructure	-13316
▁supervising	-13317
▁transmitted	-13318
iscrimination	-13319
▁Independence	-13320
▁contributors	-13321
▁exacerbating	-13322
▁illustration	-13323
▁preventative	-13324
▁prerequisites	-13325
▁establishments	-13326
13	-13327
DI	-13328
my	-13329
bag	-13330
bed	-13331
gar	-13332
osa	-13333
voc	-13334
▁UC	-13335
ESCO	-13336
epal	-13337
meat	-13338
ppro	-13339
rela	-13340
utre	-13341
▁sav	-13342
2009)	-13343
omsen	-13344
▁outs	-13345
berger	-13346
▁Surve	-13347
▁catal	-13348
▁disgu	-13349
▁exile	-13350
▁forge	-13351
▁grips	-13352
▁polar	-13353
▁sheet	-13354
▁stops	-13355
ireless	-13356
sterdam	-13357
▁Deputy	-13358
▁fibres	-13359
▁overha	-13360
▁Product	-13361
▁Thomsen	-13362
▁dictate	-13363
▁filling	-13364
▁hostile	-13365
▁pivotal	-13366
▁richest	-13367
▁supreme	-13368
▁contempl	-13369
▁expelled	-13370
▁prisoner	-13371
▁triangle	-13372
▁attracted	-13373
▁computers	-13374
▁donations	-13375
▁finishing	-13376
▁fragility	-13377
▁healthier	-13378
▁prosecute	-13379
▁reasoning	-13380
rengthening	-13381
▁attracting	-13382
▁arbitrarily	-13383
▁dictatorial	-13384
▁meaningless	-13385
▁theoretical	-13386
▁predominantly	-13387
▁representations	-13388
Rs	-13389
EEE	-13390
rin	-13391
▁66	-13392
▁Wa	-13393
▁ox	-13394
aint	-13395
feed	-13396
ilad	-13397
isti	-13398
orts	-13399
▁Dem	-13400
▁ITS	-13401
▁MPs	-13402
▁que	-13403
-2012	-13404
chner	-13405
icrob	-13406
occup	-13407
▁Fava	-13408
▁mism	-13409
▁nets	-13410
▁seiz	-13411
▁slip	-13412
▁ster	-13413
▁triv	-13414
ensual	-13415
▁Ayala	-13416
▁Build	-13417
▁Nepal	-13418
▁ranks	-13419
▁spill	-13420
▁thera	-13421
healthy	-13422
iration	-13423
parable	-13424
▁ECOFIN	-13425
▁requis	-13426
▁spiral	-13427
▁strand	-13428
▁Mubarak	-13429
▁Persons	-13430
▁anxiety	-13431
▁classic	-13432
▁exerted	-13433
including	-13434
political	-13435
▁commerce	-13436
▁instruct	-13437
▁premiums	-13438
▁reversed	-13439
▁settling	-13440
▁slowdown	-13441
▁unreserv	-13442
▁Establish	-13443
▁adversely	-13444
▁assertion	-13445
▁declaring	-13446
▁distances	-13447
▁exchanged	-13448
▁Experience	-13449
▁domination	-13450
▁externally	-13451
▁invaluable	-13452
▁protesting	-13453
▁treatments	-13454
▁compensated	-13455
▁correctness	-13456
▁prohibiting	-13457
▁Mobilisation	-13458
▁commissioned	-13459
▁entitlements	-13460
89	-13461
UN	-13462
Pal	-13463
▁86	-13464
▁MF	-13465
▁Pi	-13466
atus	-13467
omor	-13468
▁COP	-13469
▁GNI	-13470
nchez	-13471
ollah	-13472
▁0.7%	-13473
▁Bern	-13474
▁Dell	-13475
▁Jews	-13476
▁Long	-13477
▁peak	-13478
▁reck	-13479
▁walk	-13480
abling	-13481
income	-13482
iously	-13483
ivated	-13484
▁Coven	-13485
▁EURES	-13486
▁Texts	-13487
▁Timor	-13488
▁indeb	-13489
▁layer	-13490
▁lying	-13491
▁undue	-13492
Article	-13493
Ukraine	-13494
chement	-13495
ifiably	-13496
▁Adjour	-13497
▁Deprez	-13498
▁Santos	-13499
▁cancel	-13500
▁hungry	-13501
▁random	-13502
▁uneven	-13503
products	-13504
▁Disease	-13505
▁bonuses	-13506
▁custody	-13507
▁cynical	-13508
▁dischar	-13509
▁emerges	-13510
▁Battisti	-13511
▁Patients	-13512
▁droughts	-13513
▁indisput	-13514
▁policing	-13515
▁Icelandic	-13516
▁apologies	-13517
▁avoidance	-13518
▁continual	-13519
▁exhausted	-13520
▁protocols	-13521
▁surpluses	-13522
▁vegetable	-13523
▁Programmes	-13524
▁department	-13525
▁emigration	-13526
degenerative	-13527
ministrative	-13528
▁Adjournment	-13529
▁Philippines	-13530
▁complaining	-13531
▁formulating	-13532
▁revolutionary	-13533
wa	-13534
HCR	-13535
bye	-13536
ena	-13537
esb	-13538
weg	-13539
▁7%	-13540
▁Ly	-13541
ndez	-13542
rank	-13543
scho	-13544
▁GMO	-13545
▁Mid	-13546
▁Nie	-13547
icacy	-13548
prime	-13549
▁Copt	-13550
▁EFSA	-13551
▁Gord	-13552
▁Khad	-13553
▁Vict	-13554
▁aver	-13555
▁Tamil	-13556
▁greet	-13557
▁guilt	-13558
▁juven	-13559
▁march	-13560
▁mouth	-13561
▁plane	-13562
▁usage	-13563
▁wheat	-13564
▁yours	-13565
credits	-13566
imation	-13567
ivities	-13568
lexible	-13569
▁breath	-13570
▁hamper	-13571
▁valued	-13572
▁Estrela	-13573
▁Flautre	-13574
▁cooling	-13575
▁defends	-13576
▁handing	-13577
▁letting	-13578
▁portion	-13579
▁recalls	-13580
▁subsist	-13581
▁village	-13582
▁whoever	-13583
isticated	-13584
▁Covenant	-13585
▁Cultural	-13586
▁disputed	-13587
▁doctrine	-13588
▁rewarded	-13589
▁Amsterdam	-13590
▁Bucharest	-13591
▁Passenger	-13592
▁illusions	-13593
▁inquiries	-13594
development	-13595
▁Industrial	-13596
▁consensual	-13597
▁generosity	-13598
▁henceforth	-13599
▁volunteers	-13600
▁corrections	-13601
▁criminality	-13602
▁diminishing	-13603
▁artificially	-13604
▁occasionally	-13605
▁supermarkets	-13606
▁assassination	-13607
GT	-13608
po	-13609
su	-13610
asy	-13611
sea	-13612
▁IM	-13613
▁PC	-13614
idis	-13615
mans	-13616
such	-13617
werp	-13618
yser	-13619
▁103	-13620
▁Amb	-13621
▁err	-13622
ellow	-13623
icted	-13624
iliou	-13625
iumph	-13626
▁Ford	-13627
▁Know	-13628
▁Vass	-13629
▁Wars	-13630
driven	-13631
ommend	-13632
▁Being	-13633
▁Label	-13634
▁appar	-13635
▁ultra	-13636
ourably	-13637
▁Keyser	-13638
▁UNESCO	-13639
▁census	-13640
▁derive	-13641
▁metals	-13642
▁rappro	-13643
▁Antwerp	-13644
▁carrier	-13645
▁dissent	-13646
▁enemies	-13647
▁gravity	-13648
▁pretend	-13649
▁triumph	-13650
▁Contrary	-13651
▁Orthodox	-13652
▁achieves	-13653
▁hauliers	-13654
▁optimise	-13655
▁scandals	-13656
▁throwing	-13657
▁unwanted	-13658
▁Recommend	-13659
▁Vassiliou	-13660
▁dishonest	-13661
▁jurisdict	-13662
▁organisms	-13663
▁recording	-13664
▁tightened	-13665
▁identities	-13666
▁preferable	-13667
▁repetition	-13668
▁streamline	-13669
▁comfortable	-13670
▁constructed	-13671
▁deportation	-13672
▁Unemployment	-13673
▁rapprochement	-13674
▁clarifications	-13675
hy	-13676
lab	-13677
voy	-13678
▁Fe	-13679
NATO	-13680
crup	-13681
linz	-13682
thia	-13683
▁10,	-13684
▁Det	-13685
▁GCC	-13686
▁Gas	-13687
▁bag	-13688
▁bog	-13689
▁sat	-13690
iated	-13691
olera	-13692
uneva	-13693
▁Iron	-13694
▁Wort	-13695
▁evac	-13696
▁EUFOR	-13697
▁Erika	-13698
▁Klinz	-13699
▁Langu	-13700
▁Svens	-13701
▁cloud	-13702
▁crack	-13703
▁dwell	-13704
▁sands	-13705
▁theat	-13706
artment	-13707
ophobic	-13708
▁Greeks	-13709
▁Kuneva	-13710
▁Marian	-13711
▁Modern	-13712
▁deadly	-13713
▁deduct	-13714
lamation	-13715
▁Fifthly	-13716
▁counted	-13717
▁notable	-13718
▁premise	-13719
▁qualify	-13720
▁delivers	-13721
▁dictated	-13722
▁eventual	-13723
▁indebted	-13724
▁overturn	-13725
▁software	-13726
▁uprising	-13727
▁compelled	-13728
▁embassies	-13729
▁radiation	-13730
▁unhealthy	-13731
▁uniformly	-13732
▁Venezuelan	-13733
▁admiration	-13734
▁influences	-13735
▁unrestricted	-13736
▁complementarity	-13737
▁professionalism	-13738
12	-13739
14	-13740
At	-13741
ez	-13742
ky	-13743
FRS	-13744
efe	-13745
fly	-13746
Kool	-13747
oros	-13748
post	-13749
raou	-13750
vili	-13751
word	-13752
▁CAR	-13753
▁wre	-13754
-2009	-13755
tiers	-13756
▁GNSS	-13757
▁Jose	-13758
▁Name	-13759
▁bell	-13760
▁epis	-13761
▁maps	-13762
▁semi	-13763
▁Panel	-13764
▁consp	-13765
▁evade	-13766
▁irrit	-13767
▁ozone	-13768
dumping	-13769
eastern	-13770
raction	-13771
umption	-13772
▁Medina	-13773
▁passes	-13774
▁rivers	-13775
approval	-13776
▁Cypriot	-13777
▁Project	-13778
▁dealers	-13779
▁fitting	-13780
▁generic	-13781
▁realloc	-13782
▁revival	-13783
▁tighter	-13784
▁trivial	-13785
▁wearing	-13786
▁Africans	-13787
▁Svensson	-13788
▁Wortmann	-13789
▁electrom	-13790
▁machines	-13791
▁mediator	-13792
▁semester	-13793
▁superfic	-13794
▁believing	-13795
▁successor	-13796
▁aspiration	-13797
▁pertaining	-13798
▁continental	-13799
▁enhancement	-13800
▁illustrated	-13801
▁justifiable	-13802
▁permissible	-13803
▁appointments	-13804
▁sophisticated	-13805
SF	-13806
TF	-13807
▁.	-13808
ACP	-13809
GDP	-13810
IMF	-13811
▁67	-13812
iege	-13813
▁Inf	-13814
▁Use	-13815
▁bub	-13816
▁pin	-13817
endas	-13818
ierre	-13819
olars	-13820
raoui	-13821
roads	-13822
rouze	-13823
▁20%.	-13824
▁Open	-13825
▁Risk	-13826
▁Uigh	-13827
▁aven	-13828
▁nurt	-13829
▁tant	-13830
▁ther	-13831
izarre	-13832
orates	-13833
ounder	-13834
school	-13835
▁Niger	-13836
▁Penal	-13837
▁UCITS	-13838
▁flaws	-13839
▁gangs	-13840
▁lorry	-13841
▁mercy	-13842
▁stems	-13843
▁token	-13844
alified	-13845
▁Around	-13846
▁Atomic	-13847
▁Gordon	-13848
▁Nagoya	-13849
▁beaten	-13850
▁mature	-13851
▁oversh	-13852
▁strang	-13853
capacity	-13854
mittedly	-13855
▁Improve	-13856
▁bankers	-13857
▁bridges	-13858
▁happily	-13859
▁harbour	-13860
▁refunds	-13861
▁shadows	-13862
▁unpleas	-13863
aperrouze	-13864
▁Islamist	-13865
▁inconven	-13866
▁necessit	-13867
▁rendered	-13868
▁appearing	-13869
▁clarifies	-13870
▁educating	-13871
▁hindering	-13872
▁interrupt	-13873
▁prevailed	-13874
represented	-13875
▁Admittedly	-13876
▁Assessment	-13877
▁Department	-13878
▁Developing	-13879
▁Throughout	-13880
▁respectful	-13881
▁compromised	-13882
▁revolutions	-13883
▁spectacular	-13884
▁Strengthening	-13885
▁employability	-13886
▁incorporation	-13887
(3)	-13888
arc	-13889
irs	-13890
ras	-13891
ups	-13892
▁6,	-13893
▁Fj	-13894
orge	-13895
ouis	-13896
stal	-13897
▁Kal	-13898
▁Put	-13899
▁Sam	-13900
▁TEC	-13901
-2020	-13902
Fraud	-13903
edoph	-13904
▁1995	-13905
▁Anna	-13906
▁Appl	-13907
▁Dear	-13908
▁Hahn	-13909
▁agro	-13910
▁blog	-13911
▁buff	-13912
ellner	-13913
▁Evans	-13914
▁Urban	-13915
▁brink	-13916
▁cabin	-13917
▁inaug	-13918
▁patch	-13919
▁rival	-13920
▁Grosch	-13921
▁Munich	-13922
▁stockp	-13923
▁troika	-13924
military	-13925
▁Digital	-13926
▁Schmitt	-13927
▁afflict	-13928
▁cholera	-13929
▁conting	-13930
▁halting	-13931
▁harness	-13932
▁prescri	-13933
▁reactor	-13934
▁Fjellner	-13935
▁accuracy	-13936
▁embarked	-13937
▁implicit	-13938
▁incoming	-13939
▁liberals	-13940
▁shifting	-13941
▁withhold	-13942
▁Fernandes	-13943
▁Indonesia	-13944
▁Transfers	-13945
▁acquiring	-13946
▁stipulate	-13947
▁Especially	-13948
▁Laperrouze	-13949
▁Resumption	-13950
▁abstention	-13951
▁announcing	-13952
▁consequent	-13953
▁intervened	-13954
▁physically	-13955
▁retraining	-13956
▁collaborate	-13957
▁contradicts	-13958
▁communicated	-13959
▁inadmissible	-13960
32	-13961
anz	-13962
jad	-13963
2001	-13964
dorf	-13965
fits	-13966
oski	-13967
▁170	-13968
▁Ess	-13969
▁Ott	-13970
▁Sav	-13971
▁bes	-13972
▁bow	-13973
▁sam	-13974
▁tab	-13975
atial	-13976
stant	-13977
treat	-13978
▁Herc	-13979
▁Kiev	-13980
▁Nazi	-13981
▁Saak	-13982
▁soya	-13983
▁stag	-13984
annual	-13985
cience	-13986
ledged	-13987
ocracy	-13988
▁2000.	-13989
▁2003.	-13990
▁Recon	-13991
▁exhib	-13992
▁femin	-13993
▁hasty	-13994
▁helpl	-13995
▁loses	-13996
▁owned	-13997
▁patri	-13998
▁renov	-13999
▁tenth	-14000
▁tolls	-14001
▁traum	-14002
Counter	-14003
ardless	-14004
avoured	-14005
ocratic	-14006
▁Barack	-14007
▁Franco	-14008
▁Savary	-14009
▁Sender	-14010
▁aspire	-14011
▁crunch	-14012
▁elites	-14013
▁expose	-14014
▁orphan	-14015
▁Severin	-14016
▁Various	-14017
▁agendas	-14018
▁bolster	-14019
▁clients	-14020
▁complac	-14021
▁embrace	-14022
▁tactics	-14023
▁unscrup	-14024
otopoulos	-14025
▁esteemed	-14026
▁flexibly	-14027
▁overhaul	-14028
▁polluter	-14029
▁Khadraoui	-14030
▁denounced	-14031
▁persuaded	-14032
▁punishing	-14033
▁requisite	-14034
▁Memorandum	-14035
▁appointing	-14036
▁cooperated	-14037
▁describing	-14038
▁economical	-14039
▁pollutants	-14040
▁tantamount	-14041
▁imagination	-14042
▁legislature	-14043
▁paradoxical	-14044
▁subsistence	-14045
▁colegislator	-14046
▁disappearing	-14047
98	-14048
dy	-14049
30.	-14050
aci	-14051
chi	-14052
ipt	-14053
olf	-14054
rim	-14055
uan	-14056
anol	-14057
inth	-14058
lass	-14059
▁12:	-14060
▁16%	-14061
▁290	-14062
▁Ram	-14063
▁son	-14064
avier	-14065
ercas	-14066
ghreb	-14067
ogene	-14068
olios	-14069
otion	-14070
overs	-14071
stick	-14072
style	-14073
ulled	-14074
▁Blok	-14075
▁EASA	-14076
▁ESMA	-14077
▁Main	-14078
▁bioc	-14079
▁cord	-14080
▁culp	-14081
▁fake	-14082
artite	-14083
assoni	-14084
gences	-14085
raying	-14086
▁Cairo	-14087
▁Clean	-14088
▁Gilad	-14089
▁owner	-14090
▁remem	-14091
▁spell	-14092
▁tense	-14093
ashvili	-14094
binding	-14095
imicrob	-14096
▁Beyond	-14097
▁Cercas	-14098
▁Monnet	-14099
▁advent	-14100
▁branch	-14101
▁insign	-14102
▁lawful	-14103
▁phased	-14104
rankoski	-14105
sessions	-14106
▁Consult	-14107
▁invalid	-14108
▁lobbies	-14109
▁manages	-14110
▁obscure	-14111
▁rumours	-14112
▁wheeled	-14113
valuation	-14114
▁Frassoni	-14115
▁Judicial	-14116
▁accorded	-14117
▁conveyed	-14118
▁efficacy	-14119
▁evolving	-14120
▁homework	-14121
▁polluted	-14122
▁redouble	-14123
▁Argentina	-14124
▁Diversity	-14125
▁Governing	-14126
▁champions	-14127
▁doubtless	-14128
▁inflicted	-14129
▁lucrative	-14130
▁subscribe	-14131
▁sufferers	-14132
▁2007-2013,	-14133
▁Statistics	-14134
▁conversion	-14135
▁fatalities	-14136
▁starvation	-14137
▁Virrankoski	-14138
▁advancement	-14139
▁celebration	-14140
▁sustainably	-14141
▁constructing	-14142
▁enthusiastic	-14143
▁impartiality	-14144
Counterfeiting	-14145
▁communicating	-14146
▁fundamentalism	-14147
▁unquestionably	-14148
▁destabilisation	-14149
4)	-14150
Th	-14151
tw	-14152
EFA	-14153
▁72	-14154
▁Ed	-14155
▁Gi	-14156
6-02	-14157
bler	-14158
cend	-14159
iese	-14160
▁ECJ	-14161
▁Rap	-14162
▁nut	-14163
▁pal	-14164
aldem	-14165
dorff	-14166
inson	-14167
[...]
