<pad>	0
</s>	0
<unk>	0
▁¦	-0
ku	-1
ng	-2
ba	-3
wa	-4
th	-5
la	-6
na	-7
ni	-8
kh	-9
le	-10
si	-11
zi	-12
ka	-13
▁u	-14
ph	-15
lu	-16
we	-17
nga	-18
thi	-19
ma	-20
ya	-21
lo	-22
ye	-23
nd	-24
li	-25
be	-26
▁e	-27
oku	-28
ke	-29
▁,	-30
se	-31
kho	-32
za	-33
▁a	-34
bo	-35
▁ng	-36
ne	-37
▁i	-38
sa	-39
pha	-40
▁𐋇	-41
yo	-42
▁ku	-43
kulu	-44
yi	-45
mi	-46
▁k	-47
▁na	-48
khu	-49
▁uku	-50
▁wa	-51
bu	-52
ze	-53
mu	-54
ngi	-55
▁“	-56
nge	-57
uku	-58
▁.	-59
▁n	-60
▁ba	-61
sh	-62
bi	-63
nkulu	-64
▁o	-65
tha	-66
ko	-67
nt	-68
lwa	-69
okuba	-70
the	-71
hla	-72
so	-73
kwa	-74
nye	-75
fu	-76
▁aba	-77
nke	-78
phe	-79
ki	-80
khe	-81
wo	-82
khulu	-83
me	-84
▁K	-85
su	-86
thu	-87
▁nga	-88
je	-89
▁N	-90
▁ka	-91
ini	-92
da	-93
fa	-94
ha	-95
▁kwa	-96
ri	-97
aba	-98
▁ni	-99
ndi	-100
kepha	-101
no	-102
▁no	-103
▁ngi	-104
ntu	-105
kwe	-106
kha	-107
kulunkulu	-108
mbi	-109
zo	-110
yaku	-111
Nkulunkulu	-112
mba	-113
weni	-114
nya	-115
▁Ng	-116
tho	-117
ngo	-118
▁ya	-119
nda	-120
st	-121
khona	-122
▁si	-123
phi	-124
▁nge	-125
um	-126
kosi	-127
▁:	-128
▁be	-129
leyo	-130
▁lo	-131
.”	-132
vu	-133
fi	-134
▁;	-135
bona	-136
wu	-137
hle	-138
▁ukuba	-139
Je	-140
rist	-141
▁ne	-142
▁la	-143
zu	-144
de	-145
nza	-146
nzi	-147
ja	-148
▁um	-149
dwa	-150
ela	-151
▁ko	-152
wi	-153
pho	-154
nu	-155
ndla	-156
ngokuba	-157
Jesu	-158
lwe	-159
zin	-160
▁oku	-161
uma	-162
▁ukuthi	-163
muntu	-164
zwi	-165
ngu	-166
▁ngokuba	-167
▁ye	-168
oda	-169
epha	-170
mo	-171
tsh	-172
ga	-173
▁yi	-174
▁U	-175
ristu	-176
lela	-177
▁ngo	-178
zwe	-179
fundi	-180
▁Kepha	-181
mbe	-182
▁wathi	-183
qa	-184
lokho	-185
▁ezi	-186
▁kepha	-187
he	-188
ndu	-189
▁kwe	-190
▁isi	-191
xa	-192
nja	-193
zwa	-194
hlu	-195
kholwa	-196
phaka	-197
qo	-198
mp	-199
nje	-200
wathi	-201
nkulunkulu	-202
ndle	-203
▁ama	-204
sebe	-205
▁kuye	-206
swa	-207
▁we	-208
phu	-209
▁ngoku	-210
▁izi	-211
gc	-212
Nkosi	-213
kela	-214
va	-215
fe	-216
bonke	-217
▁esi	-218
lowo	-219
▁ma	-220
▁sa	-221
▁li	-222
▁Ngokuba	-223
▁.”	-224
▁za	-225
suku	-226
▁W	-227
zaku	-228
▁nje	-229
▁B	-230
kazi	-231
ngena	-232
yisi	-233
hlo	-234
mbu	-235
ukuba	-236
▁noku	-237
ngc	-238
▁‘	-239
wele	-240
ngoku	-241
phendu	-242
▁-	-243
nxa	-244
nze	-245
qini	-246
ningi	-247
▁naba	-248
ru	-249
▁Wa	-250
ukuthi	-251
▁em	-252
?”	-253
nkosi	-254
odana	-255
njalo	-256
munye	-257
nde	-258
yese	-259
ho	-260
ce	-261
lwane	-262
khuluma	-263
▁kubo	-264
▁se	-265
▁uma	-266
ro	-267
eli	-268
hli	-269
▁zi	-270
▁uJesu	-271
▁Nga	-272
sho	-273
kile	-274
wini	-275
lokhu	-276
ra	-277
ngaba	-278
phambi	-279
shi	-280
umi	-281
▁uNkulunkulu	-282
leni	-283
sha	-284
thanda	-285
heka	-286
isi	-287
▁kini	-288
ama	-289
bha	-290
phakathi	-291
phila	-292
phezu	-293
ezi	-294
nsi	-295
▁khona	-296
▁bonke	-297
Kristu	-298
mina	-299
ndo	-300
fika	-301
▁kwaba	-302
mandla	-303
vela	-304
sebenzi	-305
di	-306
▁A	-307
qala	-308
noku	-309
▁le	-310
▁ngu	-311
fane	-312
hu	-313
▁kodwa	-314
kubo	-315
kuye	-316
▁Ba	-317
uda	-318
mhla	-319
jesu	-320
hamba	-321
phela	-322
khathi	-323
▁yo	-324
hi	-325
zalwane	-326
sile	-327
esi	-328
dla	-329
bani	-330
khule	-331
izi	-332
▁konke	-333
nto	-334
du	-335
futhi	-336
phendula	-337
▁ukuze	-338
naba	-339
oya	-340
beni	-341
▁eli	-342
zela	-343
shumi	-344
lweni	-345
▁eku	-346
▁?	-347
nina	-348
funa	-349
awu	-350
bonaka	-351
gu	-352
lungi	-353
saba	-354
imi	-355
thetho	-356
kaNkulunkulu	-357
khi	-358
ntwa	-359
rofe	-360
bili	-361
▁noma	-362
lele	-363
tshe	-364
▁lokho	-365
nta	-366
Ma	-367
▁lu	-368
moya	-369
▁imi	-370
lwini	-371
gama	-372
gi	-373
kele	-374
ntwana	-375
zulwini	-376
bula	-377
hlizi	-378
et	-379
▁bathi	-380
hlala	-381
manga	-382
▁kaNkulunkulu	-383
leli	-384
oli	-385
ngelo	-386
▁owa	-387
ngcwele	-388
bheka	-389
ngum	-390
kristu	-391
profe	-392
kuba	-393
▁nase	-394
lile	-395
nyama	-396
dodana	-397
▁ze	-398
siwe	-399
zonke	-400
ngama	-401
mela	-402
ndlu	-403
ina	-404
mvu	-405
bathi	-406
phansi	-407
awulu	-408
ngelosi	-409
ca	-410
phuma	-411
kwaba	-412
re	-413
▁lapho	-414
moni	-415
kini	-416
▁𐊣	-417
busi	-418
▁kanye	-419
▁aku	-420
owa	-421
yu	-422
mulo	-423
risti	-424
swe	-425
nani	-426
▁kube	-427
bonakali	-428
kodwa	-429
sindi	-430
▁lokhu	-431
▁Ngakho	-432
ndodana	-433
Juda	-434
ndela	-435
▁ngenxa	-436
▁yakhe	-437
Moya	-438
zini	-439
ngakho	-440
zane	-441
▁yena	-442
musa	-443
▁abe	-444
thile	-445
kube	-446
▁Y	-447
etru	-448
phakade	-449
kani	-450
▁ese	-451
kwenza	-452
ngalokho	-453
kanye	-454
soku	-455
▁in	-456
▁nezi	-457
▁umuntu	-458
yazi	-459
Jo	-460
Si	-461
em	-462
baba	-463
zweni	-464
yini	-465
yise	-466
khosi	-467
vi	-468
▁so	-469
ngesi	-470
xuku	-471
kwazi	-472
nyane	-473
▁waba	-474
▁nina	-475
sale	-476
athi	-477
▁I	-478
▁kuba	-479
▁futhi	-480
sifa	-481
▁izin	-482
thoko	-483
salema	-484
.’	-485
▁phambi	-486
mbisa	-487
rusalema	-488
mbili	-489
▁E	-490
ngabi	-491
Ndodana	-492
▁Kwathi	-493
pristi	-494
mkhulu	-495
buso	-496
profethi	-497
yela	-498
▁izwi	-499
yakuba	-500
nezi	-501
▁UJesu	-502
yena	-503
ngathi	-504
▁mina	-505
fanele	-506
hliziyo	-507
konke	-508
▁phakathi	-509
kisa	-510
hane	-511
yoku	-512
▁bakhe	-513
sifazane	-514
ngani	-515
ngaka	-516
fileyo	-517
phandle	-518
ge	-519
eku	-520
sela	-521
go	-522
weyo	-523
themp	-524
▁Wayese	-525
shuma	-526
▁naye	-527
ceku	-528
ngwa	-529
thula	-530
khuleka	-531
thempeli	-532
lisa	-533
ngeli	-534
khonza	-535
woku	-536
▁Kho	-537
▁phezu	-538
▁kwakhe	-539
zizwe	-540
mthetho	-541
hlezi	-542
thina	-543
qinisile	-544
ndoda	-545
ta	-546
▁Ku	-547
khombisa	-548
▁kakhulu	-549
do	-550
▁uP	-551
boni	-552
riya	-553
▁wo	-554
fuma	-555
▁kwenu	-556
vangeli	-557
yishumi	-558
yiku	-559
▁iNkosi	-560
nika	-561
meni	-562
zulu	-563
ngenxa	-564
faka	-565
lapho	-566
njani	-567
ukuze	-568
kazimulo	-569
▁nama	-570
gcwele	-571
butha	-572
▁waye	-573
▁ngithi	-574
lotsh	-575
sinyane	-576
lini	-577
noma	-578
▁uya	-579
lelwa	-580
▁?”	-581
lunga	-582
▁aka	-583
▁engi	-584
ci	-585
thela	-586
beka	-587
▁angi	-588
▁zonke	-589
kukhona	-590
Ngi	-591
▁yini	-592
thathu	-593
yeli	-594
yizi	-595
meme	-596
seku	-597
qiniso	-598
kayo	-599
muka	-600
▁Khona	-601
nti	-602
pathi	-603
lula	-604
waba	-605
▁L	-606
hlwa	-607
▁uyaku	-608
bhapathi	-609
gcwa	-610
▁Ngi	-611
▁ngaba	-612
tsha	-613
mukela	-614
aku	-615
nama	-616
hawu	-617
zimba	-618
kwahlu	-619
bhu	-620
fakazi	-621
▁emi	-622
▁kwabo	-623
ese	-624
▁ninga	-625
▁eni	-626
ndlini	-627
in	-628
layo	-629
wayese	-630
ila	-631
risi	-632
ndawo	-633
doda	-634
▁babe	-635
▁loku	-636
thatha	-637
thando	-638
themba	-639
▁muntu	-640
lwandle	-641
Baba	-642
thiwa	-643
▁kimi	-644
yala	-645
jalo	-646
▁nani	-647
▁enga	-648
chi	-649
kiso	-650
nike	-651
gcina	-652
▁ngama	-653
namandla	-654
▁kuNkulunkulu	-655
nj	-656
▁ubu	-657
bonga	-658
beke	-659
muke	-660
nesi	-661
▁nalowo	-662
neni	-663
▁Kwa	-664
kileyo	-665
Yi	-666
▁Uma	-667
▁nxa	-668
zinsuku	-669
sweni	-670
hlanga	-671
lotshi	-672
▁Aba	-673
bela	-674
▁O	-675
muzi	-676
qonda	-677
fundisa	-678
▁Kristu	-679
Jerusalema	-680
umo	-681
mhlaba	-682
nq	-683
▁asi	-684
▁lwa	-685
thelo	-686
kwenze	-687
ndleni	-688
yisikhombisa	-689
▁wam	-690
▁nami	-691
bandla	-692
▁phansi	-693
ngase	-694
shiya	-695
Sa	-696
▁nesi	-697
thokoza	-698
bone	-699
fo	-700
buye	-701
keni	-702
▁wena	-703
tu	-704
ngezi	-705
ngazi	-706
nase	-707
ve	-708
cala	-709
hluphe	-710
Johane	-711
▁ngesi	-712
wesifazane	-713
hlakani	-714
phon	-715
▁omunye	-716
ngubo	-717
fumana	-718
cwa	-719
nene	-720
yakhe	-721
esa	-722
naye	-723
thwa	-724
kwathi	-725
▁njalo	-726
kakhulu	-727
▁ngakho	-728
gazi	-729
she	-730
limi	-731
▁bam	-732
▁kuze	-733
▁nabo	-734
landela	-735
zono	-736
▁nom	-737
memeza	-738
umuntu	-739
bezizwe	-740
nyu	-741
▁Ko	-742
ninga	-743
▁kuwe	-744
▁lakhe	-745
ywa	-746
stoli	-747
fikile	-748
fanekiso	-749
jo	-750
▁m	-751
lesi	-752
vuka	-753
▁ngezi	-754
▁abanye	-755
▁ezulwini	-756
labo	-757
phostoli	-758
shumayela	-759
nyi	-760
sra	-761
▁en	-762
lise	-763
srayeli	-764
izwi	-765
▁ani	-766
▁abafundi	-767
langa	-768
melwe	-769
sono	-770
▁lowo	-771
khanda	-772
zandla	-773
▁kunge	-774
koku	-775
nyaka	-776
kwakhe	-777
▁Wathi	-778
▁ngokwe	-779
juda	-780
ti	-781
aka	-782
biza	-783
lutho	-784
▁yami	-785
▁abantu	-786
nami	-787
nyawo	-788
yalo	-789
▁lwe	-790
uj	-791
nkazimulo	-792
▁yoku	-793
thethe	-794
lotshiwe	-795
▁kuphela	-796
angi	-797
xu	-798
bhe	-799
nce	-800
waye	-801
demoni	-802
khanya	-803
ngeni	-804
nguku	-805
zwile	-806
hambe	-807
▁ngaye	-808
▁ngiya	-809
bonakaliso	-810
raha	-811
▁baba	-812
lezo	-813
qobo	-814
zoku	-815
▁ema	-816
braha	-817
▁koku	-818
brahama	-819
▁wayese	-820
bakhe	-821
mehlo	-822
nkulungwa	-823
Fa	-824
mbo	-825
▁soku	-826
▁zakhe	-827
cela	-828
niya	-829
thuma	-830
▁S	-831
ndlela	-832
ngithi	-833
▁ngase	-834
thempelini	-835
nkulungwane	-836
abe	-837
sika	-838
▁esa	-839
mbula	-840
misebenzi	-841
▁iNdodana	-842
shwa	-843
bukhosi	-844
kholwayo	-845
▁.’	-846
misa	-847
kwenu	-848
▁omkhulu	-849
▁masinyane	-850
ose	-851
kobe	-852
lilo	-853
mele	-854
zayo	-855
esu	-856
babe	-857
dumo	-858
thane	-859
▁onga	-860
sandla	-861
▁kwami	-862
▁yethu	-863
lelo	-864
▁emhla	-865
▁ngokuthi	-866
mpela	-867
ebo	-868
▁yilowo	-869
▁uKristu	-870
Ba	-871
goge	-872
bhali	-873
▁kuyo	-874
nagoge	-875
phamba	-876
▁lutho	-877
▁manje	-878
▁njengokuba	-879
ena	-880
ntando	-881
▁ababe	-882
dle	-883
nwa	-884
fike	-885
yweni	-886
ngweni	-887
fundisi	-888
bele	-889
kimi	-890
leka	-891
suka	-892
▁uyi	-893
▁Base	-894
uya	-895
▁ebu	-896
Ngcwele	-897
Nkosini	-898
nhliziyo	-899
ngom	-900
ngabe	-901
zisa	-902
▁sebe	-903
Farisi	-904
▁eJerusalema	-905
▁—	-906
nabo	-907
ndwa	-908
kwami	-909
liswa	-910
ngiya	-911
thande	-912
ngalokhu	-913
Ni	-914
▁Ma	-915
▁Kodwa	-916
ani	-917
▁zo	-918
engi	-919
bindi	-920
mukele	-921
ncenga	-922
diya	-923
Ga	-924
loku	-925
wena	-926
▁Jesu	-927
▁oNgcwele	-928
boku	-929
naku	-930
nweni	-931
ndaweni	-932
sabatha	-933
,”	-934
nom	-935
buka	-936
▁ngom	-937
▁thina	-938
▁uMoya	-939
▁bazalwane	-940
▁”	-941
mpo	-942
thaka	-943
khumbi	-944
ngokwe	-945
thembi	-946
▁uzaku	-947
▁yakho	-948
asi	-949
dumi	-950
lika	-951
kwabo	-952
thini	-953
thembe	-954
▁bheka	-955
▁wakhe	-956
thumela	-957
base	-958
nkwa	-959
cwadi	-960
hlane	-961
hlanu	-962
▁ezweni	-963
phambili	-964
▁yomuntu	-965
ebe	-966
qhu	-967
fowa	-968
vide	-969
yisa	-970
hlaka	-971
ndele	-972
phele	-973
qondi	-974
▁ethi	-975
fowabo	-976
khatha	-977
ngubani	-978
▁kanjani	-979
hliziyweni	-980
ngco	-981
Na	-982
mile	-983
▁olu	-984
phulu	-985
uyaku	-986
▁labo	-987
▁woku	-988
thandi	-989
▁uPawulu	-990
▁Ngalokho	-991
bala	-992
soze	-993
hlobo	-994
lungileyo	-995
oma	-996
▁wami	-997
fakaza	-998
▁likaNkulunkulu	-999
bhi	-1000
ji	-1001
Petru	-1002
hlale	-1003
▁seku	-1004
bulala	-1005
▁yonke	-1006
▁ngiyaku	-1007
▁Wayesethi	-1008
yeza	-1009
zala	-1010
laba	-1011
▁naku	-1012
▁waphendula	-1013
▁njengalokho	-1014
emi	-1015
ngqo	-1016
mbuso	-1017
nyeni	-1018
khonzi	-1019
mileyo	-1020
tshela	-1021
busisiwe	-1022
eni	-1023
▁izwe	-1024
▁sakhe	-1025
lisi	-1026
kunge	-1027
▁Ni	-1028
▁bo	-1029
nywa	-1030
ilatu	-1031
thele	-1032
▁kulo	-1033
ngcoli	-1034
▁Bheka	-1035
▁yathi	-1036
mangala	-1037
fana	-1038
seni	-1039
,’	-1040
Ja	-1041
▁uM	-1042
▁igama	-1043
▁kwakho	-1044
▁kanjalo	-1045
!”	-1046
khala	-1047
hlwanye	-1048
sindiswa	-1049
Ku	-1050
zile	-1051
Israyeli	-1052
sithathu	-1053
▁endlini	-1054
▁abaningi	-1055
▁ngaphandle	-1056
mazi	-1057
khipha	-1058
hlanganye	-1059
qe	-1060
siya	-1061
bhalo	-1062
hlela	-1063
mbala	-1064
mbuza	-1065
nguye	-1066
▁ezin	-1067
▁nguye	-1068
▁kukhona	-1069
▁eNkosini	-1070
Lo	-1071
▁yenu	-1072
▁okukhulu	-1073
izin	-1074
dlula	-1075
ngene	-1076
kwenzi	-1077
phathi	-1078
sukela	-1079
buthaka	-1080
thembiso	-1081
▁Lo	-1082
kelwa	-1083
▁wase	-1084
▁munye	-1085
▁wethu	-1086
▁bayaku	-1087
▁nambili	-1088
ngaphandle	-1089
nakho	-1090
pu	-1091
qu	-1092
ili	-1093
sizi	-1094
▁laba	-1095
▁zabo	-1096
omunye	-1097
▁lonke	-1098
phenduka	-1099
▁umthetho	-1100
hlakanipha	-1101
ngala	-1102
ngaye	-1103
bam	-1104
▁ki	-1105
vuma	-1106
muhle	-1107
wethu	-1108
▁anga	-1109
▁ngani	-1110
dlu	-1111
hora	-1112
kulo	-1113
leso	-1114
phefu	-1115
nyameni	-1116
nagogeni	-1117
▁kwabafileyo	-1118
manje	-1119
mihla	-1120
nalowo	-1121
▁awu	-1122
lahle	-1123
lelwe	-1124
▁zenu	-1125
kulunga	-1126
sebenza	-1127
▁okuhle	-1128
yisihlanu	-1129
▁ivangeli	-1130
kuka	-1131
kuze	-1132
▁emva	-1133
Simoni	-1134
abanye	-1135
▁nokuthi	-1136
zimu	-1137
nduna	-1138
wenza	-1139
phambe	-1140
▁Na	-1141
▁bu	-1142
kuwe	-1143
nini	-1144
▁wazi	-1145
Galile	-1146
kaKristu	-1147
▁abaJuda	-1148
ngamashumi	-1149
▁kukaNkulunkulu	-1150
mpa	-1151
mise	-1152
sabi	-1153
lakhe	-1154
khutha	-1155
liwe	-1156
mpum	-1157
nazi	-1158
onke	-1159
uthi	-1160
yeni	-1161
zuku	-1162
▁Ese	-1163
▁ayi	-1164
bantu	-1165
puthe	-1166
shaya	-1167
khulume	-1168
Abrahama	-1169
gcwalise	-1170
mpumputhe	-1171
kwahlulela	-1172
thandekayo	-1173
▁emhlabeni	-1174
buza	-1175
febe	-1176
ngisa	-1177
thaba	-1178
ubu	-1179
wam	-1180
▁Ka	-1181
enga	-1182
▁lami	-1183
▁nokuba	-1184
▁amandla	-1185
▁abakhulu	-1186
cane	-1187
hlalo	-1188
mpofu	-1189
zelwa	-1190
gameni	-1191
yilowo	-1192
hlupheka	-1193
phefumulo	-1194
jerusalema	-1195
buthakathaka	-1196
nqo	-1197
Bheka	-1198
▁yisi	-1199
Jakobe	-1200
▁ngalo	-1201
abafundi	-1202
sondela	-1203
lomo	-1204
rode	-1205
muhla	-1206
zwayo	-1207
▁baya	-1208
▁siya	-1209
Pawulu	-1210
abantu	-1211
▁lapha	-1212
▁ngezwi	-1213
ngalungi	-1214
lalela	-1215
Yise	-1216
▁waya	-1217
▁zoku	-1218
▁kwesi	-1219
▁uPetru	-1220
▁ethempelini	-1221
khunj	-1222
kwini	-1223
bonile	-1224
pawulu	-1225
Thi	-1226
kithi	-1227
▁lase	-1228
▁bethi	-1229
▁uqobo	-1230
Sathane	-1231
▁indoda	-1232
▁umbuso	-1233
▁isikhathi	-1234
▁imisebenzi	-1235
njengokuba	-1236
gq	-1237
▁am	-1238
belo	-1239
vini	-1240
udiya	-1241
zakhe	-1242
▁base	-1243
▁okwa	-1244
▁sesi	-1245
ndleleni	-1246
phambanweni	-1247
sisa	-1248
phuza	-1249
kanjalo	-1250
▁niyaku	-1251
▁isixuku	-1252
▁kuKristu	-1253
duze	-1254
mini	-1255
hlophe	-1256
nokuba	-1257
nyelwe	-1258
kuphela	-1259
philayo	-1260
nxu	-1261
wazi	-1262
▁ngum	-1263
▁nathi	-1264
sana	-1265
yami	-1266
butho	-1267
ncane	-1268
ezulwini	-1269
sezulwini	-1270
wayesethi	-1271
enye	-1272
file	-1273
hloni	-1274
khuni	-1275
zelwe	-1276
▁kuka	-1277
▁ngini	-1278
▁wakho	-1279
bonakala	-1280
zukulwane	-1281
mbona	-1282
nziwe	-1283
petru	-1284
ntabeni	-1285
Da	-1286
Uma	-1287
khwe	-1288
nhla	-1289
Kepha	-1290
▁yabo	-1291
ngithu	-1292
▁umusa	-1293
bum	-1294
shu	-1295
goli	-1296
sesi	-1297
wenu	-1298
zama	-1299
ngaso	-1300
ngini	-1301
qonde	-1302
shilo	-1303
thole	-1304
golide	-1305
khunjini	-1306
mbusweni	-1307
mhlabeni	-1308
kuyo	-1309
▁lesi	-1310
▁unga	-1311
▁nguku	-1312
▁wonke	-1313
sokunene	-1314
▁nangoku	-1315
▁ukuphila	-1316
nqa	-1317
ema	-1318
nci	-1319
vume	-1320
▁eza	-1321
letha	-1322
phika	-1323
phile	-1324
▁nibe	-1325
Davide	-1326
▁nezin	-1327
▁nonke	-1328
nkosini	-1329
▁ukudla	-1330
hlambala	-1331
▁elikhulu	-1332
dumisa	-1333
lingani	-1334
He	-1335
mva	-1336
▁Yi	-1337
ngalo	-1338
▁bona	-1339
▁yaba	-1340
phonsa	-1341
▁kukho	-1342
▁sonke	-1343
▁kuqala	-1344
nzo	-1345
luka	-1346
muso	-1347
wula	-1348
dleni	-1349
lapha	-1350
ndaba	-1351
ngiyaku	-1352
emva	-1353
siye	-1354
kukho	-1355
▁kuwo	-1356
lelani	-1357
phatha	-1358
▁kahle	-1359
▁uBaba	-1360
▁kwethu	-1361
▁ngosuku	-1362
▁izinsuku	-1363
▁nguNkulunkulu	-1364
laka	-1365
liya	-1366
yimi	-1367
banga	-1368
kubona	-1369
masinyane	-1370
dli	-1371
▁om	-1372
mali	-1373
wabo	-1374
waya	-1375
ababe	-1376
khube	-1377
yethu	-1378
▁bami	-1379
▁enye	-1380
johane	-1381
ndlebe	-1382
thupha	-1383
▁bakho	-1384
▁zinto	-1385
fundiso	-1386
▁kungabi	-1387
▁indodana	-1388
yedwa	-1389
wayini	-1390
Ha	-1391
Mina	-1392
nezin	-1393
▁maka	-1394
▁onke	-1395
▁Bathi	-1396
▁kubantu	-1397
▁sikhathi	-1398
▁ukukholwa	-1399
gci	-1400
galo	-1401
wase	-1402
yaba	-1403
mbeni	-1404
shoyo	-1405
zalwa	-1406
zenzi	-1407
zinge	-1408
lisiwe	-1409
njenge	-1410
thweni	-1411
thuneni	-1412
shiyagalo	-1413
waphendula	-1414
▁Ya	-1415
sele	-1416
yathi	-1417
ntathu	-1418
▁Kuthe	-1419
▁ingelosi	-1420
▁njengoku	-1421
njengalokho	-1422
ngcebo	-1423
Ka	-1424
fazi	-1425
kiswa	-1426
phawu	-1427
▁sika	-1428
nkemba	-1429
khazimu	-1430
khaphela	-1431
longweni	-1432
thandayo	-1433
▁njengalokhu	-1434
uyi	-1435
yoni	-1436
bamba	-1437
funda	-1438
omkhulu	-1439
ngukuthi	-1440
uzaku	-1441
zanga	-1442
▁uthi	-1443
▁wabo	-1444
nyanga	-1445
▁nange	-1446
▁njenge	-1447
khumbula	-1448
bazalwane	-1449
▁namandla	-1450
sefa	-1451
bizwa	-1452
gqila	-1453
khaya	-1454
ngcwe	-1455
shana	-1456
nikelo	-1457
nyango	-1458
ngomuso	-1459
pheleli	-1460
hlalweni	-1461
mukeliswa	-1462
Mose	-1463
▁abo	-1464
▁kuyi	-1465
▁nawe	-1466
▁nazi	-1467
▁wasi	-1468
Mariya	-1469
kwakho	-1470
▁banga	-1471
▁lakho	-1472
▁ngiku	-1473
▁kinina	-1474
▁phakade	-1475
▁esikhulu	-1476
▁eziningi	-1477
sayo	-1478
manzi	-1479
retha	-1480
bekezela	-1481
reki	-1482
siza	-1483
▁eya	-1484
khali	-1485
zonda	-1486
▁bayi	-1487
▁okwe	-1488
mbethe	-1489
thombe	-1490
▁kwezi	-1491
hluleli	-1492
kungabi	-1493
qondana	-1494
▁emzini	-1495
▁amabili	-1496
▁kungathi	-1497
ngcolileyo	-1498
▁sobukhosi	-1499
qha	-1500
onga	-1501
unga	-1502
yebo	-1503
bethe	-1504
wakhe	-1505
busuku	-1506
farisi	-1507
sukuma	-1508
ngokuthi	-1509
ngiqinisile	-1510
zoni	-1511
▁funa	-1512
▁zaba	-1513
▁ukufa	-1514
▁amehlo	-1515
▁inkosi	-1516
▁othile	-1517
phulukisa	-1518
▁ngalokho	-1519
▁eziyishumi	-1520
busa	-1521
kanu	-1522
yona	-1523
dalwa	-1524
ngulu	-1525
lahlwa	-1526
qaleni	-1527
lonyeni	-1528
ngqondo	-1529
zibonga	-1530
khashana	-1531
khathaze	-1532
hlambalaza	-1533
kwesokunene	-1534
bazi	-1535
nikwa	-1536
▁bazi	-1537
▁abanga	-1538
baya	-1539
giji	-1540
lase	-1541
nzalo	-1542
sakhe	-1543
thuku	-1544
sibili	-1545
▁F	-1546
Bar	-1547
guqu	-1548
muva	-1549
soka	-1550
zele	-1551
lwano	-1552
▁mhla	-1553
buyela	-1554
hlambu	-1555
bathini	-1556
abaningi	-1557
sikhathi	-1558
vunyelwe	-1559
▁kwafika	-1560
vumelwano	-1561
▁abantwana	-1562
▁okuphakade	-1563
▁ngokukholwa	-1564
sila	-1565
Pho	-1566
▁,”	-1567
Kesa	-1568
mani	-1569
wami	-1570
ngayo	-1571
nziwa	-1572
yakho	-1573
▁kuso	-1574
▁Kwase	-1575
▁Nkosi	-1576
▁indlu	-1577
▁kithi	-1578
▁kuthi	-1579
▁umoya	-1580
kholweni	-1581
▁iqiniso	-1582
▁ngizaku	-1583
▁njengaba	-1584
en	-1585
men	-1586
nwe	-1587
rna	-1588
cebi	-1589
dabu	-1590
zana	-1591
bayaku	-1592
khethi	-1593
Nga	-1594
ethi	-1595
▁aye	-1596
kweni	-1597
nxusa	-1598
sikho	-1599
Herode	-1600
ezweni	-1601
▁owaye	-1602
kanjani	-1603
profetha	-1604
thabatha	-1605
▁ababili	-1606
▁egameni	-1607
▁kwalokho	-1608
▁ngaphambili	-1609
▁eziyisikhombisa	-1610
olu	-1611
nemi	-1612
ngele	-1613
bhekani	-1614
yomuntu	-1615
zaretha	-1616
dala	-1617
dini	-1618
kise	-1619
qale	-1620
velo	-1621
vula	-1622
▁azi	-1623
▁ebe	-1624
▁eyi	-1625
bithe	-1626
khiwa	-1627
muphi	-1628
ndisa	-1629
▁lona	-1630
▁niya	-1631
▁sibe	-1632
▁ungo	-1633
khuphu	-1634
lekile	-1635
melana	-1636
phethe	-1637
▁ndawo	-1638
hlulela	-1639
kulungi	-1640
nyukela	-1641
▁njengo	-1642
bandleni	-1643
▁weNkosi	-1644
▁kulotshiwe	-1645
▁owesifazane	-1646
eza	-1647
izwe	-1648
yonke	-1649
naka	-1650
yalu	-1651
ngane	-1652
nzani	-1653
thewu	-1654
▁lezo	-1655
▁sami	-1656
▁yayo	-1657
▁yebo	-1658
Judiya	-1659
khohli	-1660
niyaku	-1661
njengo	-1662
▁abase	-1663
lukhuni	-1664
lungile	-1665
▁nginga	-1666
▁ngoMoya	-1667
▁wangena	-1668
saya	-1669
seke	-1670
funya	-1671
futha	-1672
hambi	-1673
kakhe	-1674
linga	-1675
nqoba	-1676
nzeka	-1677
thuka	-1678
bhubhi	-1679
ndweni	-1680
nyiswa	-1681
khuleke	-1682
phikisa	-1683
sindisa	-1684
thethweni	-1685
bhapathiza	-1686
al	-1687
lami	-1688
sazi	-1689
umbe	-1690
▁bem	-1691
linye	-1692
▁wayi	-1693
▁yizi	-1694
▁Ngase	-1695
▁amane	-1696
▁izono	-1697
▁ungum	-1698
▁amazwi	-1699
▁wazala	-1700
▁leNkosi	-1701
▁uJohane	-1702
▁umzimba	-1703
▁esiphambanweni	-1704
mfi	-1705
igama	-1706
kuthe	-1707
kuzwa	-1708
kom	-1709
qhe	-1710
▁No	-1711
felo	-1712
kedo	-1713
thwe	-1714
▁ali	-1715
khula	-1716
lunye	-1717
mbeza	-1718
nzela	-1719
phiwa	-1720
phume	-1721
▁babo	-1722
gulayo	-1723
tsheni	-1724
▁benga	-1725
▁iyaku	-1726
▁ngobu	-1727
buthana	-1728
nembeza	-1729
felokazi	-1730
▁Kanjalo	-1731
▁amadoda	-1732
▁izingubo	-1733
ngithumileyo	-1734
▁,’	-1735
ezin	-1736
nayo	-1737
yenu	-1738
hlukani	-1739
yizinkulungwane	-1740
▁Si	-1741
umbu	-1742
▁owe	-1743
lizwa	-1744
mvelo	-1745
▁akhe	-1746
▁beza	-1747
▁lika	-1748
abanga	-1749
thengi	-1750
▁kwaku	-1751
endlini	-1752
▁akakho	-1753
▁wezulu	-1754
israyeli	-1755
▁ibandla	-1756
ngalaleli	-1757
▁endaweni	-1758
kwabafileyo	-1759
kwase	-1760
vuswa	-1761
yihlo	-1762
bhubha	-1763
chitha	-1764
kwambu	-1765
mesaba	-1766
phinda	-1767
qinisa	-1768
kanyezi	-1769
ngesabi	-1770
kedoniya	-1771
ngcosana	-1772
ngakanani	-1773
phikisana	-1774
tilongweni	-1775
selwe	-1776
▁Sebe	-1777
▁nemi	-1778
iliphu	-1779
kuqala	-1780
nikela	-1781
▁ngemi	-1782
▁nithi	-1783
mhlophe	-1784
▁othiwa	-1785
okukhulu	-1786
umthetho	-1787
▁izandla	-1788
▁embusweni	-1789
▁umzalwane	-1790
ngokukholwa	-1791
▁sikaNkulunkulu	-1792
kade	-1793
umusa	-1794
umbuso	-1795
nambili	-1796
bufakazi	-1797
kwakukhona	-1798
hlanganyela	-1799
?’	-1800
yin	-1801
alta	-1802
anga	-1803
fula	-1804
wasi	-1805
zabo	-1806
▁uzi	-1807
funga	-1808
lonke	-1809
phumu	-1810
thene	-1811
wakho	-1812
▁kuzo	-1813
▁sasi	-1814
▁yona	-1815
altare	-1816
boshwa	-1817
mbamba	-1818
qinise	-1819
zelela	-1820
kwesaba	-1821
▁akukho	-1822
▁omuhle	-1823
lekileyo	-1824
▁kalokhu	-1825
▁kusukela	-1826
thethelelwa	-1827
mose	-1828
sayi	-1829
wela	-1830
khawu	-1831
lahla	-1832
moyeni	-1833
isixuku	-1834
nokuthi	-1835
ayi	-1836
liva	-1837
nisa	-1838
vusa	-1839
▁Isi	-1840
▁ase	-1841
▁ena	-1842
▁obu	-1843
▁ube	-1844
hlaba	-1845
nanga	-1846
ngiku	-1847
zange	-1848
zenza	-1849
zinto	-1850
▁kuna	-1851
▁kuya	-1852
▁ungu	-1853
▁zami	-1854
ngekho	-1855
▁Futhi	-1856
▁kunga	-1857
▁kwaze	-1858
▁ngayo	-1859
▁uYise	-1860
▁kuyaku	-1861
▁kwakukhona	-1862
abo	-1863
cho	-1864
lwi	-1865
saka	-1866
veza	-1867
zenu	-1868
bambe	-1869
bodwa	-1870
ndiso	-1871
phuze	-1872
fowenu	-1873
kanuko	-1874
khumbu	-1875
ntweni	-1876
okuhle	-1877
tshele	-1878
tshelo	-1879
amandla	-1880
mangali	-1881
ndwangu	-1882
ngenaku	-1883
nyaweni	-1884
zimbeni	-1885
ivangeli	-1886
nsindiso	-1887
isikhathi	-1888
pheleleyo	-1889
khuthazela	-1890
kwahlulelwa	-1891
cebo	-1892
loba	-1893
lona	-1894
nile	-1895
yeka	-1896
▁ize	-1897
mnika	-1898
mvusa	-1899
▁Emva	-1900
dabula	-1901
indoda	-1902
jabula	-1903
lobela	-1904
zakuba	-1905
▁zakho	-1906
▁okunga	-1907
▁wabona	-1908
abrahama	-1909
mlandela	-1910
▁lokuthi	-1911
▁ngubani	-1912
▁wahlala	-1913
▁ukulunga	-1914
▁kubafundi	-1915
▁inkazimulo	-1916
ju	-1917
kude	-1918
kuwo	-1919
galile	-1920
kinina	-1921
kubantu	-1922
mpristi	-1923
phezulu	-1924
zinceku	-1925
ingelosi	-1926
khulunywa	-1927
La	-1928
▁Z	-1929
nibe	-1930
sibo	-1931
vuna	-1932
vuzo	-1933
▁use	-1934
Hamba	-1935
gcine	-1936
lakho	-1937
nathi	-1938
shiwe	-1939
siswa	-1940
swele	-1941
thola	-1942
▁yesi	-1943
ngezwi	-1944
▁Ngoku	-1945
▁nango	-1946
▁ngawo	-1947
▁nokho	-1948
▁okubi	-1949
hlakalo	-1950
landele	-1951
mothewu	-1952
sindisi	-1953
sondele	-1954
thelisi	-1955
faneleyo	-1956
kwenzayo	-1957
phambeko	-1958
▁izixuku	-1959
▁ningaba	-1960
emhlabeni	-1961
▁iminyaka	-1962
▁izithelo	-1963
▁kaKristu	-1964
besifazane	-1965
gcwaliseke	-1966
sinagogeni	-1967
thethelela	-1968
Ngiqinisile	-1969
bhapathizwa	-1970
beza	-1971
nawe	-1972
wama	-1973
bethi	-1974
abakhulu	-1975
Ng	-1976
up	-1977
Qha	-1978
zali	-1979
▁Uku	-1980
khuza	-1981
nquma	-1982
▁weza	-1983
▁yase	-1984
Josefa	-1985
nginga	-1986
▁Ngiya	-1987
▁lithi	-1988
kalokhu	-1989
▁ehlane	-1990
▁enkulu	-1991
▁inceku	-1992
▁isizwe	-1993
njengoku	-1994
▁namalunga	-1995
▁emkhunjini	-1996
co	-1997
te	-1998
nqu	-1999
nyo	-2000
dudu	-2001
kiya	-2002
kuyi	-2003
riyu	-2004
cinde	-2005
dumbu	-2006
konzo	-2007
kunga	-2008
qhele	-2009
inkosi	-2010
khiphe	-2011
mpahla	-2012
sileyo	-2013
rofethi	-2014
kwenzeka	-2015
ncinyane	-2016
phambene	-2017
kwamukela	-2018
hlakaniphi	-2019
khethiweyo	-2020
sekuqaleni	-2021
am	-2022
xo	-2023
▁zwi	-2024
Greki	-2025
▁wesi	-2026
▁engum	-2027
▁nanga	-2028
▁zethu	-2029
Filiphu	-2030
ngizaku	-2031
▁izinto	-2032
▁kwathi	-2033
▁njenga	-2034
▁yayisi	-2035
Mfundisi	-2036
▁ekudleni	-2037
▁abapristi	-2038
▁nokuthula	-2039
▁wayesethi	-2040
ethempelini	-2041
▁abangcwele	-2042
▁ngiqinisile	-2043
gqo	-2044
dani	-2045
lezi	-2046
maka	-2047
nawo	-2048
soni	-2049
susa	-2050
yabo	-2051
yele	-2052
uqobo	-2053
zinyo	-2054
mariya	-2055
imisebenzi	-2056
kulotshiwe	-2057
qi	-2058
Ngu	-2059
mpi	-2060
nte	-2061
bule	-2062
kana	-2063
kiwe	-2064
lala	-2065
ngwe	-2066
▁usi	-2067
Eliya	-2068
hloko	-2069
kwesi	-2070
liswe	-2071
nyiwe	-2072
sheya	-2073
wumbe	-2074
▁leyo	-2075
▁nobu	-2076
▁ukum	-2077
▁yimi	-2078
dabuka	-2079
gcwala	-2080
hlango	-2081
hlanzi	-2082
jakobe	-2083
khokho	-2084
lileyo	-2085
tsheli	-2086
▁bodwa	-2087
▁nakho	-2088
▁ngize	-2089
▁uyise	-2090
mvubelo	-2091
phelele	-2092
▁siyaku	-2093
▁wamuka	-2094
ngesikho	-2095
phesheya	-2096
▁intando	-2097
komthetho	-2098
mangalela	-2099
▁umfowabo	-2100
▁ezintathu	-2101
▁abaprofethi	-2102
zazi	-2103
kwethu	-2104
yayisi	-2105
sathane	-2106
Be	-2107
Gi	-2108
So	-2109
gco	-2110
Wena	-2111
▁Ngu	-2112
▁kum	-2113
▁zwe	-2114
ngela	-2115
▁Waba	-2116
▁into	-2117
▁kaba	-2118
▁yibo	-2119
Pilatu	-2120
▁isono	-2121
▁ngaso	-2122
▁sithi	-2123
▁unina	-2124
▁usuku	-2125
▁amanga	-2126
▁makube	-2127
▁waqala	-2128
ukuphila	-2129
▁Bhekani	-2130
▁isandla	-2131
▁uthando	-2132
▁zinsuku	-2133
▁elwandle	-2134
▁kuyakuba	-2135
▁kwabantu	-2136
mfihlakalo	-2137
▁ngamandla	-2138
▁wakhuluma	-2139
▁Kwakukhona	-2140
▁umprofethi	-2141
▁!	-2142
stu	-2143
fesu	-2144
kene	-2145
kiyo	-2146
hleni	-2147
ngolo	-2148
nyaye	-2149
tshwa	-2150
mbathi	-2151
misela	-2152
khileyo	-2153
ngosuku	-2154
xukwini	-2155
hlangani	-2156
phenduke	-2157
shunyaye	-2158
mprofethi	-2159
yisithupha	-2160
hlakaniphileyo	-2161
pi	-2162
ebu	-2163
lawo	-2164
lusi	-2165
nela	-2166
▁eba	-2167
▁pho	-2168
bakho	-2169
kuhle	-2170
linda	-2171
wonke	-2172
▁Yena	-2173
▁lawo	-2174
▁saba	-2175
▁suku	-2176
ngcono	-2177
ukudla	-2178
▁izulu	-2179
▁kambe	-2180
▁ngami	-2181
▁okuyi	-2182
▁umuzi	-2183
ngibona	-2184
▁engena	-2185
▁nakuba	-2186
▁umyalo	-2187
▁bhekani	-2188
▁eGalile	-2189
▁nabafundi	-2190
▁ubufakazi	-2191
▁ukukhuluma	-2192
▁Ngiqinisile	-2193
▁UNkulunkulu	-2194
▁enhliziyweni	-2195
hha	-2196
dade	-2197
nonke	-2198
akakho	-2199
mpande	-2200
simoni	-2201
ngenisa	-2202
elikhulu	-2203
wokuqala	-2204
ukukholwa	-2205
njengalokhu	-2206
Wu	-2207
om	-2208
qh	-2209
ase	-2210
bile	-2211
duma	-2212
lule	-2213
nele	-2214
wesi	-2215
yesi	-2216
▁ifa	-2217
▁obe	-2218
longo	-2219
muthi	-2220
nzini	-2221
▁sezi	-2222
▁yayi	-2223
Kesari	-2224
Wundlu	-2225
fokazi	-2226
hlweni	-2227
khetha	-2228
▁ezine	-2229
▁ukuyo	-2230
Gibithe	-2231
buthene	-2232
nangoku	-2233
ndulela	-2234
ngelela	-2235
zenzisi	-2236
▁UPetru	-2237
▁Yayisi	-2238
▁lwakhe	-2239
▁wafika	-2240
njengaba	-2241
phambano	-2242
▁indlela	-2243
▁isinkwa	-2244
▁ngibona	-2245
Nazaretha	-2246
mangaliso	-2247
shumayeza	-2248
▁ethuneni	-2249
▁ezimbili	-2250
▁noJohane	-2251
bhapathizi	-2252
bonakalisa	-2253
▁naphakade	-2254
owesifazane	-2255
▁abayishumi	-2256
▁abazalwane	-2257
▁izingelosi	-2258
▁okungukuthi	-2259
▁noNkulunkulu	-2260
▁ngakwesokunene	-2261
mfu	-2262
okwa	-2263
sise	-2264
kelwe	-2265
sonke	-2266
banika	-2267
komoya	-2268
lungele	-2269
indodana	-2270
izinsuku	-2271
kwabantu	-2272
phakamisa	-2273
Ko	-2274
Pha	-2275
bayi	-2276
zila	-2277
kahle	-2278
sango	-2279
▁athi	-2280
▁layo	-2281
▁ongi	-2282
▁utho	-2283
mzimba	-2284
▁Bonke	-2285
▁Ninga	-2286
▁ebona	-2287
▁kanti	-2288
▁kwase	-2289
▁oyaku	-2290
▁singa	-2291
Barnaba	-2292
thobela	-2293
▁inyama	-2294
▁naseku	-2295
▁owenza	-2296
▁siyazi	-2297
▁ngegama	-2298
▁ukwenza	-2299
▁amademoni	-2300
▁ngesandla	-2301
▁umsebenzi	-2302
▁kwabezizwe	-2303
▁ekukholweni	-2304
▁esihlalweni	-2305
▁ngemisebenzi	-2306
cha	-2307
ywe	-2308
bami	-2309
fela	-2310
fisa	-2311
hlwi	-2312
lifa	-2313
reya	-2314
bhuji	-2315
hlazo	-2316
kakho	-2317
kanti	-2318
muzwa	-2319
ngeze	-2320
ntiyo	-2321
nyuka	-2322
shise	-2323
thuba	-2324
xenye	-2325
bulali	-2326
davide	-2327
sekelo	-2328
shelwa	-2329
vukile	-2330
hlushwa	-2331
phasika	-2332
thukulu	-2333
kwenzile	-2334
mehlweni	-2335
ntiyokiya	-2336
lahlekelwa	-2337
thembekile	-2338
shiyagalolunye	-2339
lolo	-2340
sibe	-2341
▁usu	-2342
Yihlo	-2343
benza	-2344
yenza	-2345
yikho	-2346
▁baze	-2347
▁boku	-2348
▁wafa	-2349
madoda	-2350
▁kuhle	-2351
▁kwama	-2352
▁lingu	-2353
▁sakho	-2354
▁uMose	-2355
▁ubuso	-2356
▁ukuya	-2357
Bhekani	-2358
namuhla	-2359
▁kuJesu	-2360
fakazela	-2361
▁entabeni	-2362
▁izinyawo	-2363
▁kaDavide	-2364
▁umntwana	-2365
▁umpristi	-2366
▁inhliziyo	-2367
▁maqondana	-2368
▁nababhali	-2369
▁ngezandla	-2370
▁emhlabathini	-2371
ulu	-2372
▁!”	-2373
feni	-2374
loni	-2375
nokho	-2376
yisela	-2377
to	-2378
gwe	-2379
▁Um	-2380
fase	-2381
fiki	-2382
funi	-2383
mubi	-2384
tshi	-2385
veli	-2386
wayo	-2387
▁uba	-2388
finye	-2389
gunya	-2390
musha	-2391
nceku	-2392
phiwe	-2393
▁Yebo	-2394
▁baku	-2395
▁leli	-2396
▁ungi	-2397
▁wenu	-2398
▁wona	-2399
Madoda	-2400
phonse	-2401
▁Lokho	-2402
▁evela	-2403
▁igazi	-2404
▁kwayo	-2405
▁mazwi	-2406
▁udumo	-2407
khiwane	-2408
mbazana	-2409
▁ezinga	-2410
▁induna	-2411
hawukela	-2412
khelwane	-2413
kungathi	-2414
ndlalifa	-2415
▁okuvela	-2416
▁yeNkosi	-2417
fumananga	-2418
hlangothi	-2419
zinyaweni	-2420
▁abampofu	-2421
▁uSathane	-2422
Makedoniya	-2423
bonakaliswa	-2424
ngabantwana	-2425
▁etilongweni	-2426
shiyagalombili	-2427
ona	-2428
indlu	-2429
kusho	-2430
nqumo	-2431
kholwe	-2432
necala	-2433
hambani	-2434
kwafika	-2435
kwabezizwe	-2436
azi	-2437
Angi	-2438
koni	-2439
lima	-2440
zaba	-2441
▁Nje	-2442
▁ami	-2443
▁ela	-2444
benga	-2445
bonge	-2446
singa	-2447
ukufa	-2448
▁Amen	-2449
amehlo	-2450
hlephu	-2451
kuyaku	-2452
ngenzi	-2453
▁enhle	-2454
▁ngazo	-2455
▁impela	-2456
▁indawo	-2457
▁kuBaba	-2458
▁kuvela	-2459
▁wabuye	-2460
eziningi	-2461
gcwalisa	-2462
abantwana	-2463
▁bamangala	-2464
▁ukukhanya	-2465
▁ngesikhathi	-2466
▁ayisikhombisa	-2467
▁ezinhliziyweni	-2468
dela	-2469
dili	-2470
duzo	-2471
hlwe	-2472
kozo	-2473
lena	-2474
liba	-2475
shwe	-2476
zind	-2477
zuze	-2478
abase	-2479
dingi	-2480
kwezi	-2481
mbile	-2482
mbiza	-2483
ngemi	-2484
nothi	-2485
thulu	-2486
bulawa	-2487
emzini	-2488
gatsha	-2489
khonze	-2490
khukhu	-2491
liweyo	-2492
melene	-2493
mukeli	-2494
mukisa	-2495
phangi	-2496
phinga	-2497
thathe	-2498
amabili	-2499
cwadini	-2500
fowethu	-2501
khubeka	-2502
khulula	-2503
nduduzo	-2504
phelani	-2505
pheleni	-2506
wangena	-2507
esikhulu	-2508
gijimela	-2509
hawukele	-2510
hlupheko	-2511
kusukela	-2512
thengisa	-2513
kholwanga	-2514
sobukhosi	-2515
thokozisa	-2516
bonakalise	-2517
lotshiweyo	-2518
nokukholwa	-2519
phendulela	-2520
kwamukeliswa	-2521
Wo	-2522
buya	-2523
maye	-2524
ungu	-2525
yayo	-2526
▁iyi	-2527
bonwa	-2528
kwaku	-2529
kwaze	-2530
lingi	-2531
umoya	-2532
▁beni	-2533
▁besi	-2534
▁kuno	-2535
▁libe	-2536
▁nawo	-2537
▁othi	-2538
▁seni	-2539
▁wawu	-2540
othile	-2541
▁imali	-2542
▁itshe	-2543
▁Yilowo	-2544
▁izizwe	-2545
▁nasezi	-2546
▁ngathi	-2547
▁uphawu	-2548
nitshela	-2549
▁izinkwa	-2550
▁uHerode	-2551
▁waphuma	-2552
wakhuluma	-2553
▁ngemihla	-2554
eziyishumi	-2555
▁abafileyo	-2556
▁ngesabatha	-2557
▁esinagogeni	-2558
▁izinhliziyo	-2559
▁bakaNkulunkulu	-2560
pe	-2561
eya	-2562
okwe	-2563
wayi	-2564
wube	-2565
kuthi	-2566
ntaba	-2567
akukho	-2568
mnyama	-2569
sindise	-2570
bumnyama	-2571
ngaphambili	-2572
;’	-2573
Li	-2574
mpe	-2575
Maye	-2576
bemi	-2577
besi	-2578
bika	-2579
dena	-2580
deni	-2581
gula	-2582
kabi	-2583
kesa	-2584
kuzo	-2585
mene	-2586
vivi	-2587
wume	-2588
▁Pho	-2589
▁iya	-2590
gcini	-2591
hlanj	-2592
iyaku	-2593
kezwe	-2594
mbela	-2595
mbewu	-2596
nange	-2597
ngobu	-2598
ntsha	-2599
perna	-2600
qambi	-2601
yodwa	-2602
▁lezi	-2603
▁wama	-2604
Ngakho	-2605
amazwi	-2606
bizela	-2607
busisa	-2608
chithe	-2609
fikeni	-2610
hlamvu	-2611
hlungu	-2612
lekela	-2613
sokuba	-2614
wabona	-2615
zaneni	-2616
zelayo	-2617
▁abaku	-2618
▁ngiyi	-2619
▁wenza	-2620
▁yikho	-2621
amadoda	-2622
boshiwe	-2623
hlukene	-2624
iqiniso	-2625
lilweni	-2626
mbulala	-2627
ngesiye	-2628
phonswe	-2629
thandwa	-2630
▁ingubo	-2631
▁kufika	-2632
▁nababe	-2633
denariyu	-2634
khanyeni	-2635
memezela	-2636
▁isitsha	-2637
▁iwayini	-2638
▁kwavela	-2639
▁nakanye	-2640
▁uPilatu	-2641
pernawume	-2642
shumayele	-2643
thandweni	-2644
▁abathile	-2645
▁enyameni	-2646
▁ndawonye	-2647
▁noKristu	-2648
▁nomhlaba	-2649
▁ukuthula	-2650
Thimothewu	-2651
khawulweni	-2652
ngalungile	-2653
okuphakade	-2654
▁amathathu	-2655
▁ngomthetho	-2656
▁sizukulwane	-2657
eziyisikhombisa	-2658
▁lukaNkulunkulu	-2659
un	-2660
babo	-2661
bayo	-2662
beli	-2663
sami	-2664
weza	-2665
yibo	-2666
mbusi	-2667
mlilo	-2668
owaye	-2669
thani	-2670
bethelwe	-2671
yethemba	-2672
Aba	-2673
Unga	-2674
ungo	-2675
▁enu	-2676
▁nim	-2677
▁uye	-2678
mazwi	-2679
nyala	-2680
▁Mina	-2681
▁benu	-2682
▁leso	-2683
▁masi	-2684
▁nayo	-2685
▁neze	-2686
▁niba	-2687
▁niye	-2688
makube	-2689
▁Lokhu	-2690
▁Petru	-2691
▁bethu	-2692
▁izaku	-2693
▁linye	-2694
▁lwesi	-2695
▁sengi	-2696
▁yedwa	-2697
▁zathi	-2698
Hambani	-2699
ababili	-2700
egameni	-2701
▁kufike	-2702
▁kulowo	-2703
▁ngezin	-2704
▁ngisho	-2705
▁ziyaku	-2706
kwalokho	-2707
▁incwadi	-2708
▁kaningi	-2709
▁komunye	-2710
▁namuhla	-2711
nokuphila	-2712
▁abezizwe	-2713
▁izinceku	-2714
▁wathatha	-2715
thukuthela	-2716
▁abaFarisi	-2717
▁emlonyeni	-2718
▁esandleni	-2719
▁ezintweni	-2720
▁nabaFarisi	-2721
▁ngomkhumbi	-2722
▁uyiNdodana	-2723
▁ngokwenyama	-2724
bulo	-2725
gugu	-2726
kuso	-2727
libe	-2728
nalo	-2729
qeda	-2730
qili	-2731
sisi	-2732
tale	-2733
valo	-2734
zani	-2735
zaru	-2736
bheke	-2737
dlayo	-2738
izono	-2739
phiwo	-2740
rdani	-2741
swela	-2742
ungum	-2743
zwaka	-2744
bonayo	-2745
dukisa	-2746
hhashi	-2747
hlelwa	-2748
mesabi	-2749
ndlala	-2750
niyala	-2751
shaywa	-2752
yikuba	-2753
cilongo	-2754
mungulu	-2755
nsimini	-2756
nyakazi	-2757
phumele	-2758
sekhona	-2759
talenta	-2760
sindiswe	-2761
khashelwa	-2762
kubafundi	-2763
nesibindi	-2764
ngithanda	-2765
ngakholwayo	-2766
Ra	-2767
aye	-2768
bar	-2769
eba	-2770
eyi	-2771
Sama	-2772
vame	-2773
▁Izi	-2774
▁Qha	-2775
▁abu	-2776
Isaya	-2777
betha	-2778
hlisa	-2779
mbeka	-2780
▁inga	-2781
▁ithi	-2782
▁sayo	-2783
▁siyi	-2784
▁yezi	-2785
herode	-2786
judiya	-2787
▁ababi	-2788
▁ngabe	-2789
▁ngabo	-2790
▁ngibe	-2791
▁ukuzi	-2792
landisa	-2793
thumele	-2794
▁amanzi	-2795
▁bazaku	-2796
▁nasema	-2797
▁nizaku	-2798
▁umvuzo	-2799
Samariya	-2800
mfundisi	-2801
▁emoyeni	-2802
▁uyakuba	-2803
▁yiNkosi	-2804
abapristi	-2805
ndodakazi	-2806
▁ngokunga	-2807
▁ophilayo	-2808
▁endleleni	-2809
▁mhlawumbe	-2810
nenkazimulo	-2811
▁kwezinsuku	-2812
▁emthethweni	-2813
▁nenkazimulo	-2814
▁eziyisihlanu	-2815
▁emasinagogeni	-2816
▁kwasekuqaleni	-2817
pa	-2818
nko	-2819
kuya	-2820
liyu	-2821
sala	-2822
amane	-2823
nithi	-2824
sithi	-2825
hlangu	-2826
ngenza	-2827
njenga	-2828
wazala	-2829
izixuku	-2830
miselwe	-2831
umzimba	-2832
wahlala	-2833
izingubo	-2834
nokuthula	-2835
qinisileyo	-2836
esiphambanweni	-2837
Phe	-2838
bem	-2839
dra	-2840
rku	-2841
ska	-2842
uka	-2843
Roma	-2844
baka	-2845
bini	-2846
bisa	-2847
dewu	-2848
doni	-2849
dusi	-2850
lazi	-2851
seli	-2852
▁Bam	-2853
▁Esa	-2854
▁ake	-2855
▁ene	-2856
Efesu	-2857
Isaka	-2858
dlule	-2859
hlile	-2860
kwayo	-2861
nandi	-2862
ndala	-2863
nyana	-2864
nzima	-2865
phuzi	-2866
qamba	-2867
swini	-2868
▁Nina	-2869
▁imvu	-2870
▁sabo	-2871
▁yawo	-2872
bulale	-2873
fumane	-2874
inceku	-2875
nomoya	-2876
phingi	-2877
sabelo	-2878
siyaku	-2879
wafika	-2880
wundlu	-2881
zindlo	-2882
▁Konke	-2883
▁benza	-2884
▁kungo	-2885
▁kwalo	-2886
▁ningi	-2887
▁ongum	-2888
▁sakwa	-2889
Ngokuba	-2890
hlakaze	-2891
khandle	-2892
khwelwe	-2893
ngesiso	-2894
phileni	-2895
philisa	-2896
phumile	-2897
phumula	-2898
tshelwe	-2899
▁engiku	-2900
▁imihla	-2901
▁kwenze	-2902
bhubhisa	-2903
funyanwa	-2904
hlanjulu	-2905
kuyakuba	-2906
thabathe	-2907
zamazama	-2908
▁kithina	-2909
▁nalokho	-2910
▁ngalezo	-2911
▁ngoJesu	-2912
▁ngomusa	-2913
▁ukubona	-2914
▁umbhalo	-2915
khubekisa	-2916
▁	-2917
a	-2918
¦	-2919
n	-2920
i	-2921
e	-2922
u	-2923
k	-2924
o	-2925
l	-2926
h	-2927
b	-2928
s	-2929
w	-2930
m	-2931
g	-2932
y	-2933
z	-2934
t	-2935
,	-2936
d	-2937
p	-2938
.	-2939
𐋇	-2940
f	-2941
N	-2942
:	-2943
r	-2944
;	-2945
j	-2946
“	-2947
q	-2948
c	-2949
K	-2950
v	-2951
”	-2952
J	-2953
-	-2954
?	-2955
x	-2956
U	-2957
B	-2958
M	-2959
A	-2960
W	-2961
S	-2962
‘	-2963
’	-2964
P	-2965
I	-2966
Y	-2967
L	-2968
E	-2969
𐊣	-2970
𐊼	-2971
F	-2972
O	-2973
G	-2974
!	-2975
T	-2976
H	-2977
D	-2978
—	-2979
Z	-2980
R	-2981
Q	-2982
2	-2983
1	-2984
V	-2985
3	-2986
5	-2987
X	-2988
6	-2989
4	-2990
7	-2991
8	-2992
9	-2993
C	-2994
'	-2995
0	-2996
