<pad>	0
</s>	0
<unk>	0
▁¦	-0
▁s	-1
st	-2
▁p	-3
▁𐋇	-4
▁j	-5
▁v	-6
ch	-7
▁,	-8
li	-9
▁n	-10
▁a	-11
ho	-12
te	-13
ov	-14
od	-15
▁k	-16
ou	-17
▁t	-18
▁m	-19
▁z	-20
by	-21
em	-22
ní	-23
ra	-24
ro	-25
ak	-26
ed	-27
▁d	-28
al	-29
ti	-30
ne	-31
▁je	-32
in	-33
na	-34
to	-35
še	-36
je	-37
ře	-38
il	-39
▁.	-40
že	-41
le	-42
▁o	-43
ce	-44
ud	-45
▁ne	-46
la	-47
▁po	-48
ři	-49
▁na	-50
rá	-51
ří	-52
▁se	-53
▁b	-54
ni	-55
▁A	-56
sp	-57
sk	-58
ně	-59
ého	-60
▁sv	-61
po	-62
no	-63
bo	-64
spod	-65
ko	-66
spodin	-67
se	-68
ví	-69
▁by	-70
mu	-71
ob	-72
ých	-73
▁u	-74
ji	-75
lo	-76
ter	-77
jí	-78
▁J	-79
en	-80
▁H	-81
dy	-82
do	-83
▁js	-84
lu	-85
▁I	-86
ám	-87
ru	-88
ka	-89
va	-90
el	-91
▁Ho	-92
za	-93
▁B	-94
yn	-95
▁i	-96
ude	-97
▁do	-98
▁P	-99
▁Hospodin	-100
sta	-101
ží	-102
dě	-103
sv	-104
▁za	-105
ým	-106
ci	-107
▁to	-108
lov	-109
ta	-110
▁vy	-111
▁pro	-112
vi	-113
▁od	-114
▁při	-115
▁jest	-116
ze	-117
vá	-118
řek	-119
▁jeho	-120
řed	-121
tě	-122
tí	-123
me	-124
ma	-125
da	-126
▁N	-127
ky	-128
▁S	-129
▁h	-130
ná	-131
vy	-132
ku	-133
▁kter	-134
▁č	-135
ova	-136
▁že	-137
sti	-138
cí	-139
vo	-140
mě	-141
vě	-142
▁pak	-143
▁T	-144
ha	-145
pro	-146
mi	-147
▁vše	-148
ší	-149
▁:	-150
dyž	-151
roz	-152
▁aby	-153
de	-154
js	-155
lé	-156
zra	-157
be	-158
sl	-159
řekl	-160
ve	-161
ové	-162
ako	-163
ži	-164
▁tak	-165
lid	-166
ovi	-167
né	-168
či	-169
ši	-170
▁K	-171
▁te	-172
ýž	-173
jich	-174
▁ob	-175
▁ji	-176
▁syn	-177
▁bude	-178
teří	-179
obě	-180
mo	-181
▁jsem	-182
▁M	-183
při	-184
pra	-185
če	-186
▁krá	-187
zrael	-188
▁Ne	-189
teříž	-190
▁st	-191
áš	-192
ím	-193
ůj	-194
hospodin	-195
▁zem	-196
vše	-197
ům	-198
▁ho	-199
nu	-200
▁Je	-201
éž	-202
ste	-203
▁své	-204
vé	-205
zal	-206
ká	-207
rd	-208
▁ně	-209
lí	-210
jest	-211
at	-212
kter	-213
▁ve	-214
čin	-215
bude	-216
lá	-217
co	-218
▁tě	-219
ny	-220
▁Bo	-221
sa	-222
ved	-223
▁mě	-224
▁před	-225
jeho	-226
ili	-227
▁vě	-228
rod	-229
▁D	-230
emu	-231
aby	-232
ské	-233
ství	-234
▁řekl	-235
▁;	-236
▁lid	-237
sí	-238
ný	-239
ale	-240
▁byl	-241
kr	-242
▁V	-243
šel	-244
▁jako	-245
nou	-246
ět	-247
▁všec	-248
tak	-249
▁E	-250
stu	-251
hl	-252
pak	-253
▁ch	-254
▁pra	-255
▁když	-256
cha	-257
▁jejich	-258
pa	-259
mé	-260
▁Z	-261
▁ná	-262
▁Izrael	-263
děl	-264
di	-265
ty	-266
ůh	-267
nebo	-268
žíš	-269
▁jed	-270
▁O	-271
▁roz	-272
tá	-273
vil	-274
▁ni	-275
▁mu	-276
udou	-277
du	-278
zi	-279
pov	-280
lik	-281
▁nebo	-282
ly	-283
syn	-284
▁kterýž	-285
alo	-286
lou	-287
▁kteříž	-288
žd	-289
tož	-290
ry	-291
krá	-292
▁ko	-293
pu	-294
dí	-295
an	-296
hu	-297
tr	-298
ník	-299
ště	-300
ád	-301
▁pod	-302
ri	-303
zem	-304
▁jsou	-305
ští	-306
▁tv	-307
jsem	-308
▁mne	-309
▁Nebo	-310
mí	-311
▁svého	-312
sto	-313
ním	-314
kou	-315
▁Pro	-316
luže	-317
lužeb	-318
což	-319
▁ka	-320
tv	-321
má	-322
ej	-323
án	-324
▁toho	-325
ských	-326
▁mo	-327
tu	-328
vu	-329
ného	-330
▁ale	-331
zd	-332
▁ani	-333
as	-334
oval	-335
▁ru	-336
sá	-337
ými	-338
bra	-339
▁?	-340
chá	-341
oj	-342
vid	-343
zá	-344
▁ten	-345
▁zá	-346
své	-347
byl	-348
bi	-349
▁Jo	-350
ck	-351
ův	-352
pe	-353
zí	-354
stí	-355
před	-356
ský	-357
▁jsi	-358
on	-359
▁me	-360
▁Bůh	-361
▁proti	-362
am	-363
▁kteréž	-364
▁jim	-365
▁země	-366
bu	-367
cho	-368
ského	-369
tom	-370
šli	-371
▁Po	-372
▁já	-373
když	-374
lově	-375
ilo	-376
hla	-377
ráž	-378
▁vám	-379
▁jemu	-380
stou	-381
dá	-382
▁ř	-383
▁zemi	-384
▁ty	-385
▁ú	-386
▁mlu	-387
▁pře	-388
val	-389
▁Da	-390
pl	-391
jed	-392
▁až	-393
▁také	-394
jako	-395
nám	-396
rou	-397
▁C	-398
ba	-399
pově	-400
▁pr	-401
▁dí	-402
▁ž	-403
▁pří	-404
▁kdo	-405
bě	-406
oud	-407
vedl	-408
zu	-409
▁tobě	-410
▁mí	-411
▁vá	-412
▁budou	-413
edy	-414
yna	-415
▁ti	-416
jící	-417
stě	-418
▁ví	-419
dali	-420
čí	-421
sly	-422
zalé	-423
kterýž	-424
▁praví	-425
sté	-426
ruzalé	-427
▁mi	-428
▁jej	-429
▁nad	-430
ckni	-431
šickni	-432
koli	-433
ovati	-434
▁Tedy	-435
jte	-436
ct	-437
re	-438
▁byli	-439
ných	-440
yp	-441
▁bra	-442
činil	-443
mlu	-444
▁tvé	-445
pá	-446
▁pa	-447
nost	-448
▁va	-449
pod	-450
▁dě	-451
ová	-452
▁Ale	-453
ovo	-454
teráž	-455
▁ot	-456
jejich	-457
▁král	-458
já	-459
izrael	-460
kteříž	-461
gyp	-462
neb	-463
▁mé	-464
▁svou	-465
▁sta	-466
nov	-467
▁slov	-468
▁vi	-469
▁domu	-470
pří	-471
stá	-472
▁ži	-473
▁služeb	-474
lení	-475
ruh	-476
vrá	-477
tří	-478
nosti	-479
su	-480
pí	-481
▁le	-482
▁každ	-483
bou	-484
vad	-485
ovali	-486
▁což	-487
▁dne	-488
▁poko	-489
udu	-490
eme	-491
jsou	-492
uje	-493
▁vš	-494
men	-495
▁svých	-496
všec	-497
▁hla	-498
▁ce	-499
lil	-500
akž	-501
▁má	-502
kdo	-503
▁L	-504
▁be	-505
jisté	-506
▁nem	-507
▁mno	-508
▁vás	-509
nem	-510
▁G	-511
oh	-512
stup	-513
tedy	-514
▁jmé	-515
▁sed	-516
▁obět	-517
▁tvá	-518
ar	-519
kázal	-520
▁David	-521
rdce	-522
▁všech	-523
▁(	-524
tel	-525
▁Boží	-526
proti	-527
▁du	-528
vr	-529
et	-530
ouž	-531
vám	-532
pr	-533
hro	-534
ten	-535
iáš	-536
▁sobě	-537
ot	-538
my	-539
▁jí	-540
mou	-541
stří	-542
▁dob	-543
▁bylo	-544
▁R	-545
▁kně	-546
▁Protož	-547
ali	-548
mne	-549
▁skr	-550
tek	-551
vý	-552
ani	-553
ků	-554
▁tu	-555
▁králov	-556
pře	-557
▁sm	-558
jíce	-559
svého	-560
▁člově	-561
▁Boha	-562
so	-563
žil	-564
svě	-565
▁lidu	-566
sil	-567
nad	-568
▁Sa	-569
▁mezi	-570
toho	-571
ctví	-572
té	-573
něm	-574
▁Jud	-575
▁F	-576
▁jste	-577
▁synů	-578
▁řek	-579
chu	-580
sla	-581
ců	-582
mno	-583
níci	-584
odí	-585
▁Moj	-586
bylo	-587
bí	-588
iti	-589
střed	-590
dal	-591
bý	-592
stoup	-593
▁těch	-594
kla	-595
jde	-596
sm	-597
▁velik	-598
▁můj	-599
▁všecky	-600
▁Jeruzalé	-601
led	-602
řel	-603
▁Já	-604
▁Ž	-605
áb	-606
ským	-607
▁Hospodinu	-608
▁dá	-609
dou	-610
▁té	-611
▁bý	-612
▁národ	-613
dob	-614
jsi	-615
um	-616
til	-617
▁synové	-618
▁tedy	-619
jo	-620
▁den	-621
▁svat	-622
kteréž	-623
vedli	-624
▁vz	-625
budou	-626
▁spra	-627
liže	-628
byli	-629
▁ra	-630
▁vo	-631
▁bez	-632
gypt	-633
▁nich	-634
dce	-635
▁ním	-636
bil	-637
lech	-638
▁Na	-639
▁mně	-640
▁Mojžíš	-641
jim	-642
▁on	-643
▁syna	-644
cháze	-645
▁jeden	-646
bůh	-647
▁oči	-648
jemu	-649
▁	-650
¦	-651
o	-652
e	-653
a	-654
i	-655
n	-656
t	-657
s	-658
l	-659
v	-660
d	-661
m	-662
k	-663
u	-664
,	-665
p	-666
h	-667
r	-668
j	-669
í	-670
b	-671
c	-672
y	-673
á	-674
z	-675
ž	-676
ě	-677
ř	-678
é	-679
š	-680
.	-681
𐋇	-682
ý	-683
č	-684
ů	-685
:	-686
A	-687
ť	-688
J	-689
H	-690
;	-691
I	-692
B	-693
P	-694
N	-695
S	-696
?	-697
T	-698
K	-699
f	-700
M	-701
D	-702
g	-703
V	-704
E	-705
Z	-706
O	-707
ň	-708
ú	-709
ď	-710
-	-711
C	-712
L	-713
G	-714
(	-715
)	-716
R	-717
F	-718
Ž	-719
ó	-720
U	-721
Š	-722
Ř	-723
!	-724
Č	-725
Ó	-726
[	-727
]	-728
1	-729
x	-730
3	-731
2	-732
4	-733
5	-734
8	-735
0	-736
9	-737
6	-738
Ú	-739
7	-740
Ď	-741
#	-742
𐊣	-743
𐊼	-744
Í	-745
Ý	-746
