<pad>	0
</s>	0
<unk>	0
▁¦	-0
▁,	-1
ꮝꭹ	-2
ꮝꮧ	-3
▁𐊣	-4
ꭰꮄ	-5
▁.	-6
ꮎꮝꭹ	-7
ꭸꮢ	-8
▁;	-9
ꭿꭰ	-10
ꮅꮝ	-11
ꮕꭿ	-12
ꭲᏻ	-13
ꮧᏹ	-14
ꭴꮑ	-15
ꭼꮹ	-16
ꮒꭶ	-17
ꮣꮑ	-18
ꮣꮕ	-19
ꭴꮒ	-20
ꮝꭼ	-21
ꭿᏻ	-22
ꮝꭶ	-23
ꭸꮢꭲ	-24
ꭵꮭ	-25
ꭰꮒ	-26
ꭴꮎ	-27
ᏸꮓ	-28
ꮺꮞ	-29
ꮃꮕꭿ	-30
ꭸꮞ	-31
ꮝꮫ	-32
ꭴꮑꮃꮕꭿ	-33
ꮩꮧ	-34
ꮝꮧᏹ	-35
ꮴꮅ	-36
ꭼꮻ	-37
ꮝꭸ	-38
ꭼꮻᏻ	-39
ꮣꮄ	-40
ꮝꭹꮒ	-41
ꭶꮈ	-42
ꮵꮜ	-43
ꮈꭹ	-44
ꮝꭺ	-45
ꮒꭸꮢ	-46
ᏼꮻ	-47
ꭹꮆ	-48
▁?	-49
ꭰꮞ	-50
ꭸꮞꮝꮧ	-51
ꮧꭶ	-52
ꮝꮣ	-53
ꭲꭶ	-54
ꭼꮻᏻꭿ	-55
ꮝꮙ	-56
ꮫꮑ	-57
ꮩꭿ	-58
ꮎꮝꮙ	-59
ꮤꮕ	-60
ꮈꭿ	-61
ꮄꭲ	-62
ꮎꮝꭹꮿ	-63
ꮒꭿ	-64
ꭴꮺ	-65
ꭰᏼ	-66
ꮝꮣꮑ	-67
ꮵꭹ	-68
ꮹꮫ	-69
ꮓꭾ	-70
ꮏꮙ	-71
ꮢꭹ	-72
ꮆꭿ	-73
ꭲꮳ	-74
ꭲꮵ	-75
ꮧᏻ	-76
ꭰꮵ	-77
ꮝꭸꮝꮧ	-78
ꮒꭸꮢꮎ	-79
ꭴꭼꮻᏻꭿ	-80
ꮹꮧ	-81
ꭲᏻꮝꮧ	-82
ꭶꮆ	-83
ꭺꭿ	-84
ꮩꮧᏹ	-85
ꮂꭲ	-86
ꭰꮞꮓ	-87
ꭶꮤ	-88
ꮈꭲ	-89
ꮳꮨ	-90
ꮔꮺꮞ	-91
ꭷꮏ	-92
ꮕꮫ	-93
ꮑꭲ	-94
ꮑꮫ	-95
ꭾꮝꮧ	-96
ꭶꮩ	-97
ꮎꮏ	-98
ꮻꮝꮣꮑ	-99
ꭰꭹ	-100
ꭴᏺ	-101
ꭶꮆꮑꮫ	-102
ꮃꮧ	-103
ꮝꮥ	-104
ꮔꭺ	-105
ꭸꮵ	-106
ꮕꮣ	-107
ꭰꮑ	-108
ꮝꮖ	-109
ꮒꮪ	-110
ᏹꭹ	-111
ꮷꮎ	-112
ᏸꮈ	-113
ꮩꮣ	-114
ꭼꮒ	-115
ꮤꮕꭿ	-116
ꮁꮝꮧ	-117
ꭴꮴꮅ	-118
ꮕꭹ	-119
ꮅꮝꮩꮧ	-120
ꭰꮎ	-121
ꭺꮁꮝꮧ	-122
ᏸꮅ	-123
ꮣꮒ	-124
ꮝꭼꭲ	-125
ꮅꮝꮧ	-126
ꭿꮝꮧ	-127
ꮒꭶꮫ	-128
ꮈꮻꮝꮣꮑ	-129
ꭲꮸ	-130
ꭳꮝꮫ	-131
ꮣꮩ	-132
ꮎꮝꭹꮓ	-133
ꮣꮕꮩ	-134
ꭴꮹ	-135
ꭴꮅ	-136
ꭰꮖ	-137
ꭲꮿ	-138
ꭲᏻꮓ	-139
ꮣꮅ	-140
ꭴꮩ	-141
ꭰꮝꭶ	-142
ꮒꭼ	-143
ꭶꮈꮙ	-144
ꮹꮧꮩꭿ	-145
ꮏꮙꮓ	-146
ꮅꮝꮣ	-147
ꮷꮒ	-148
ꭲꭼ	-149
ꭸᏻ	-150
ꮮꮝꮧ	-151
ꮣꮄꮕꮫ	-152
ꮤꮅ	-153
ꮧꭷꮏ	-154
ꮎꮒ	-155
ꮪꮒ	-156
ꮧꮒ	-157
ꭴꮺꮵ	-158
ꭰꮟ	-159
ᏼꮫ	-160
ꭱꮆꭿ	-161
ꮒꭺ	-162
ꮕꮟ	-163
ꭴꮳꮨ	-164
ꮞꭲ	-165
ꭰꮵꮈ	-166
ꮫꭶ	-167
ꮕꮹ	-168
ꭴꮹꮢ	-169
ꮄꮀ	-170
ꭷꮓꭾ	-171
ꮧꭶꮅꮝꮩꮧ	-172
ꮒꭶꭵ	-173
ꮢꭿ	-174
ꮔꮒ	-175
ꮒꮪꮺꮞ	-176
ꮇꮴ	-177
ꭶꮪ	-178
ꮂꭹ	-179
ꮆꮧ	-180
ꮢꭲ	-181
ꭶꮨ	-182
ꭸꮞꭲ	-183
ꮕꮧꭶꮅꮝꮩꮧ	-184
ꮕꭲ	-185
ꭼꮒꭸꮢ	-186
ꮃꮻ	-187
ꮑꮈ	-188
ᏻꭺ	-189
ꭴꮩꭿᏻ	-190
ꭿꭰꮓ	-191
ꮔꮝꮫ	-192
ꭰꮣꮕꮩ	-193
ꮅꮝꮣꮑ	-194
ᏼꮅ	-195
ꭰꮣ	-196
ꭷꮓꭾꮫ	-197
ꮝꮖꮒꭺ	-198
ꭳꮟ	-199
ꭶꮈꮙꮧᏻ	-200
ꭴꮯ	-201
ꭶꮅ	-202
ꮸꭿ	-203
ꭺꮺ	-204
ꮅꮝꮩꮧᏹ	-205
ꮎꭿᏻ	-206
ꮧꮲ	-207
ꮩꮄꮀ	-208
ꮅꮝꮣᏼ	-209
ꮪꮎ	-210
ᏺꮁ	-211
ꭼꭲ	-212
ꮣꮕꮦ	-213
ꮈꮙ	-214
ꮫꭲ	-215
ꭳꮟᏻ	-216
ꮧꭷꮏꮹꮫ	-217
ꮔꭺꮻ	-218
ꭶꮈꮃꮧ	-219
ꭲᏼꮫ	-220
ꭲꭼᏹ	-221
ꮝꮩꮧ	-222
ꭱꭿ	-223
ꮤꮒ	-224
ꮂꮝꭹ	-225
ꭴꮥ	-226
ꮂꮎ	-227
ꭴꮕ	-228
ꮧꮵ	-229
ꭲꭹ	-230
ꮔꮅꮝ	-231
ꮤꮕꭹ	-232
ꮔꮺꮞꭲ	-233
ꭸꮝꮧ	-234
ꭰꭶ	-235
ꮎꮒꭵ	-236
ꮧꮝꭹ	-237
ꮺꮢꭹ	-238
ꭴꮩꭿᏻꭿ	-239
ꭰꮝꭶꮿ	-240
ꮧꭷꮏꮹꮫꮝꮧ	-241
ꮥꮳ	-242
ꮥꮵ	-243
ꮜꮙ	-244
ꮠꭲ	-245
ꮒꭹ	-246
ꮤꮑ	-247
ꭲꮴ	-248
ꮇꮸ	-249
ꮹꮒ	-250
ꭴꮼ	-251
ꮵꭺ	-252
ꮝꭶꮕ	-253
ꮴꮅꭶ	-254
ꭴꮪ	-255
ꮥꭹ	-256
ꮧꮳ	-257
ꮪᏻꭺ	-258
ꭲꮝꮧᏹ	-259
ꭴꮴꮅꭶ	-260
ꮟꮅ	-261
ꮝꭸꭲ	-262
ꮝꭺꭲ	-263
ꭼꮹꮝꮣ	-264
ꮒꮳ	-265
ꮕꮣᏻ	-266
ꮝꭼꭹ	-267
ꭲꮷ	-268
ꮣꮩꮅꮝꮧ	-269
ꭾꭲ	-270
ꭼꮒᏻ	-271
ꮅꮝꭺ	-272
ꮥꮈ	-273
ꮣꮝꮧ	-274
ꭸꮢꭹ	-275
ꭼꮒᏻꮙ	-276
ꮝꮪ	-277
ꭱꮵ	-278
ꮷꮟ	-279
ꮵꮜꮓ	-280
ꮕꮯ	-281
ꮑꮈꭿ	-282
ᏺꭿ	-283
ꭺꭿᏻ	-284
ꭸᏼ	-285
ꭶꮤꭽ	-286
ꭼꮧ	-287
ꭼꮹꮅ	-288
ꭲᏻꮅꮝꮩꮧᏹ	-289
ꮤꮑꭲ	-290
ᏺꮅ	-291
ꮒꭺꭿ	-292
ᏼꮅꭸ	-293
ꭼꭹ	-294
ꮑꮧᏹ	-295
ꭲᏻꮎ	-296
▁[	-297
ꮒꮵ	-298
ꮫꭹ	-299
ꮫꮎ	-300
ꮔꮎ	-301
ꭴꮒꮳꮨ	-302
ꭴꮣ	-303
ꮥᏺ	-304
ꮑꮴ	-305
ꮒꮸ	-306
ꮯꮆ	-307
ꭴꮓ	-308
ꮥꭶ	-309
ꭰꮑꭿ	-310
ꭿꮝꮧᏹ	-311
ꮅꮝꭺꮈ	-312
ꮪᏻꭺꮫ	-313
ᏺꮞ	-314
ꮣꮱ	-315
ꭳꭹ	-316
ꮅꮟ	-317
ꮩꭵ	-318
ꮅᏸ	-319
ꮙꮃ	-320
ꭰꮒꮷꮟ	-321
ꮣꮎ	-322
ꭲꮷꮃ	-323
ꮤꮅꮑ	-324
ꮷꮣꮄꮕꮫ	-325
ꮀꭲ	-326
ꮑꮧ	-327
ꮫꮓ	-328
ꭼꮹꮝꮣꮹꮧꮩꭿ	-329
ꮎꭵ	-330
ꭼꮻᏻꮢ	-331
ꭺꮂ	-332
ꮷꮺ	-333
ꭴꭼꮹꮅ	-334
ꮈꮧ	-335
ꮵꮩ	-336
ꭴꮣꮕ	-337
ꮵꮿ	-338
ꮳꮒ	-339
ꮧꮎ	-340
ꮔꮼ	-341
ꭴꮅꮝ	-342
ꭸꭶ	-343
ꭸꮳ	-344
ꮘꮣ	-345
ꮵꮇ	-346
ꮝꭼꮎ	-347
ꭷꮅ	-348
ꮃꮻꭲꮝꮧᏹ	-349
ꮧꭽ	-350
ꭲꮝꮧ	-351
ꭶꭺ	-352
ꮑꮆꮧ	-353
ꭴꮅꮒꭹ	-354
ꭾꮅ	-355
ꮅᏺ	-356
ꮎꮻ	-357
ꮜꮫ	-358
ꮝꭺꭿ	-359
ꭰꮒꭶ	-360
ꮔꮺꮢꭹ	-361
ꮒꮪꮺꮞꮄꭲ	-362
ꭰꮉ	-363
ꭴꮑꮸ	-364
ꭶꮩꮓ	-365
ꮩꮄꮀꮝꭹ	-366
ꮑꭽ	-367
ꮕꮟꮫ	-368
ꭷꮑ	-369
ꮔꮺꮞꮄꭲ	-370
ꮕꮟꮣꮝꮧ	-371
ꭴꮩꭿᏻꭿꮿ	-372
ꮕꮧꭶꮅꮝꮩꮧꭽ	-373
ꭴꭹ	-374
ꮿꮫ	-375
ꮒꭶꮺ	-376
ꮧꭼꮹ	-377
ꮝꮩꮧᏹ	-378
ꭹꮃ	-379
ꮩꮅ	-380
ꭴᏸꮈ	-381
ꮑꮅ	-382
ꮤꮃ	-383
ꮶꭲ	-384
ꭴᏺꮁ	-385
ꮧꮝꮧ	-386
ꮭꮝꭺ	-387
ꮶꭿᏻ	-388
ᏹꭶ	-389
ꮢꮓ	-390
ꮧꭶꮃꮻꭲꮝꮧᏹ	-391
ꭰꮒꮝꭶ	-392
ꭲꮷꮃꭽ	-393
ꮟꮅꮋ	-394
ꭴꮫ	-395
ꮝꮩ	-396
ꮧꮤ	-397
ꭺꭿᏻꮧ	-398
ꮵꮇꮟꮅꮋ	-399
ꮄꮕ	-400
ꮝꭹꮎ	-401
ꮙꮓ	-402
ꮿꮕ	-403
ꮞꮝꮧ	-404
ꭱꮳ	-405
ꭲᏻꮹꮒ	-406
ꮒꮪꮺꮞꮈꭹ	-407
ꭵꭹ	-408
ꭻᏼ	-409
ꮒᏼ	-410
▁]	-411
ꮧꮣ	-412
ꭱꮝꭶ	-413
ꮳꭼꮻᏻꭿ	-414
ꭼꮎ	-415
ꭼꮒꮫ	-416
ꭰꭸᏼ	-417
ꭴꮕꮢ	-418
ꭶꮣ	-419
ꭺꭲ	-420
ꮧꭹ	-421
ꭰᏸꮅ	-422
ꭰꭶꮤ	-423
ꮕꮹꮣꮄ	-424
ꮎꮝꭹᏸꮓ	-425
ꭶᏸ	-426
ꭶꮎ	-427
ꭺꭹ	-428
ꭺꮲ	-429
ꮃꭹ	-430
ꮔꮺꮞꮈꭹ	-431
ꭲꮈ	-432
ꭰꮥꮈ	-433
ꭲꮿꮒ	-434
ꭲꮫ	-435
ꮹꮨ	-436
ꮂꮝꭶ	-437
ꮣꮒꮈ	-438
ꮼꮒ	-439
ꭴꮳ	-440
ꭴꮝꮧ	-441
ᏹꮵ	-442
ꮕꮓ	-443
ꭰꭶᏼꮅꭸ	-444
ꮎꮫ	-445
ꮓꭿᏻ	-446
ꮝꮤꮕꭿ	-447
ꮺꮞꭽ	-448
ꮒꭶꮧᏻ	-449
ꮺꮞꮈꭹ	-450
ꭴꮣꮩꮅꮝꮧ	-451
ꭰꮻ	-452
ꮧꮝꭸꮝꮧ	-453
ꮷꮺꮵ	-454
ꭴꮆ	-455
ꮃꮟ	-456
ꭶꮨꮿ	-457
ꭴꮎꮣꮕ	-458
ꮷꮎꮣꮄꮕꮫ	-459
ꮣꮣ	-460
ꮝꮥꮝꮧ	-461
ꮅꮝꭹ	-462
ꮝꮤꮕ	-463
ꮒꭺꭿꮈ	-464
ꮎꮝꭹꮿꭲ	-465
ꭳꮒ	-466
ꭴꮗ	-467
ꭶꮫ	-468
ꮀꮹ	-469
ꮸꭹ	-470
ꭲꮿꮒꮫ	-471
ꮅꮝꮣꮑꮧ	-472
ꭵꭲ	-473
ꮣꮕꮯ	-474
ꮯᏼ	-475
ꭸꮠꭲ	-476
ꮎꮫꮑ	-477
ꭰꮅ	-478
ꮑꭿ	-479
ꭰꮣꮑ	-480
ꭴꮝꮖꮒꭺ	-481
ꮔꮝꮧ	-482
ꮢꮎ	-483
ꭺꮺꮅ	-484
ꭰꮎꮅ	-485
ꭲꮣꮅ	-486
ꭵꮭᏸꮓ	-487
ꮝꭶꮕꮸ	-488
ꭶꮑ	-489
ꮑꮈꭹ	-490
ꭸꭲ	-491
ꮷꮩ	-492
ꮫꮑꮧ	-493
ꭰꮟᏼꮻ	-494
ꮝꭹꮒꮓ	-495
ꮂꭶ	-496
ꭶꮈꮻꮝꮣꮑ	-497
ꭱꮖ	-498
ꮠꮕ	-499
ꮵᏻ	-500
ꭲꭶꭲ	-501
ꭶꮩꭵ	-502
ꮣꮄꮕꭿ	-503
ꭼꮹꭶꮨꮿ	-504
ꮅꮫ	-505
ꮙꮝꭹꮒ	-506
ꭱꮅ	-507
ꮣꮈ	-508
ꮧꮓ	-509
ꮪꮅ	-510
ꮤᏺꮞ	-511
ꭰꮒꭶꮤ	-512
ꭺꮹꮫ	-513
ꮑꮄꭲ	-514
ꮦꮈ	-515
ꭶꮪꮂ	-516
ꭺꮅᏸ	-517
ꮝꮫꮎ	-518
ꮷꮎꮑꮆꮧ	-519
ꮑꮄ	-520
ꮰᏹ	-521
ꮴꭲ	-522
ꭴꮎꮅ	-523
ꮪꮅꮝ	-524
ꮽꮒ	-525
ꭰᏺꮁ	-526
ꭹꮆꮓ	-527
ꭰꮝꭺꭿ	-528
ꮆꭿꮝꮧᏹ	-529
ꮝꭹꮒꮓꮕ	-530
ꮠꮲ	-531
ꮫꭶꮕ	-532
ᏹꮳ	-533
▁!	-534
ꭻꭺ	-535
ꮜꮿ	-536
ꮒꮸꮺꮞꭽ	-537
ꮔꭼꮻᏻꮢ	-538
ꮧꭷꮏꮹꮧꮩꭿ	-539
ꭰᏸ	-540
ꮣꭶ	-541
ꮣꭹ	-542
ᏺꭿꮞ	-543
ꭰꮝꮣ	-544
ꮒꭼꮕ	-545
ꮷꭼꮹ	-546
ꭴꮗꮣꮅ	-547
ꭲᏻꮹꮒꮜꮫ	-548
ꮪꮈꮻꮝꮣꮑ	-549
ꮧꭶꮈꮻꮝꮣꮑ	-550
ꭳꭶ	-551
ꮒꮩ	-552
ꮕꮣꭶ	-553
ꭱꮝꭶꮙ	-554
ꮔꮒꮺꮞ	-555
ꮘꮅ	-556
ꮡᏸ	-557
ꭰᏸꮈ	-558
ꭲꮧꮲ	-559
ꮝꮥꮈ	-560
ꮣꮕꮫꭲ	-561
ꭲꮣꮅꮕꮯ	-562
ꮔꮺ	-563
ꮕꮿ	-564
ꮫꮕꭲ	-565
ꮫꮑꮧᏹ	-566
ꮓꭿ	-567
ꭴꮒꮳ	-568
ꮥꮝꮧ	-569
ꮕꮹꮩꭿ	-570
ꭸꮅ	-571
ꮑꮸ	-572
ꭴꮇꮸ	-573
ꮔꮅꮝꮤꮕ	-574
ꮙꭹ	-575
ᏹꭸꮞꮝꮧ	-576
ꭴꮅꮒꭹꮫ	-577
ᏸꮒ	-578
ꮧꭶꮈꮻꮝꮣꮑꮧ	-579
ꮅꮩ	-580
ꮒꮧ	-581
ꮿꮻ	-582
ꭲꭼꮹ	-583
ꭴꮎꮣ	-584
ꭴꮪꭹ	-585
ꭶꮅꮙꭹ	-586
ꮈꮻꮝꮣꮑꭿ	-587
ꭸꮠ	-588
ꮊꮅ	-589
ꮔꮹ	-590
ꮕꮞ	-591
ꭱꮩꮣ	-592
ꮷꮩꭲꮫ	-593
ꮷꭼꮹꮆꮧ	-594
ꭳꮵ	-595
ꮎꭹ	-596
ꮵꮪ	-597
ꭰꮅꮝ	-598
ꮖꮅꮟ	-599
ꭴꮥꮅꮫ	-600
ꮔꮒꮺꮢꭹ	-601
ꮣꮩꮅꮝꮣꮑ	-602
ꭼꮹꮒ	-603
ꮧꮝꭼ	-604
ꭴꮅꮝꮖ	-605
ꭰꮒꮝꭶꮿ	-606
ꮕꮹꮩꭿꮿꮫ	-607
ꮇꭹ	-608
ꮎꮭ	-609
ꮹꮧꮢ	-610
ꭰꮑꮆꭿ	-611
ꭲꭸꮞꮝꮧ	-612
ꮔꮒꮺꮞꭲ	-613
ꮈꭽ	-614
ꮥꮎ	-615
ꮥꮻ	-616
ꮧꭸ	-617
ꭺꮹꮨ	-618
ꮅꮝꮩ	-619
ꭴꮑꮃꭹ	-620
ꭰꮗ	-621
ꭱꮧ	-622
ꮒꭸ	-623
ᏸꮅꮙ	-624
ꭰꮟꮙ	-625
ꭸᏻꮧ	-626
ꮒꮩꭿ	-627
ꮣꮕꮫ	-628
ꭲꭼᏹᏹ	-629
ꮝꮤꮕꭹ	-630
ꭴꮎꮣꮕꮨ	-631
ꭰꮎꮩꮄꮀꮝꭹ	-632
ꮄꭿ	-633
ꮣꮖ	-634
ꮷꮣ	-635
ꭲᏻᏸꮓ	-636
ꭶꮓ	-637
ꭶꮈꮆ	-638
ꮤꮃꮪ	-639
ꭿꭰᏸꮓ	-640
ꮎꮔꭺꮻ	-641
ꭰꮛ	-642
ꮻꮒ	-643
ꭲꮈꭿᏻ	-644
ꮣꮝꮧᏹ	-645
ꮧꮒꭷꮏ	-646
ꭽꮋ	-647
ꮒꮖ	-648
ꮣꮑꮧ	-649
ꭶꮃ	-650
ꭲꮟꮅ	-651
ꭰꮒꮤꮅ	-652
ꭴꮎꮣꮱ	-653
ꮞꮅ	-654
ꮰꮎ	-655
ꮷꮑ	-656
ꮷꮘ	-657
ᏹꮀꮹ	-658
ꭲꭶꮫ	-659
ꭺꮺꮃ	-660
ꮒꭼꮹ	-661
ꮜꮹꮒ	-662
ꮞꮈꭿ	-663
ꭱꮖꭽꮋ	-664
ꮣꮧ	-665
ꮫꮒ	-666
ꭱꮃꮧ	-667
ꭶꮣꭽ	-668
ꮥꮈꮩꮧ	-669
ꮔꮒꭼꮻᏻꮢ	-670
ꭶꭸ	-671
ꭹꭼ	-672
ꮜꮧ	-673
ꮧꭸꮵ	-674
ꮪꮩꭵ	-675
ꭰꮝꭶꮒ	-676
ꮕꮣᏻꮣꮄꮕꭿ	-677
ꭶꮵ	-678
ꮌꮟ	-679
ꭲꮳꮅ	-680
ꭸꮅꮅ	-681
ꮃꮧꮩ	-682
ꮄꮝꮧ	-683
ꮧꮣꮄ	-684
ꮼꮒꭿ	-685
ꭴꮎꮴꮅꭶ	-686
ꭴꮝꮖꮒꭺꮧ	-687
ꮥꮨ	-688
ꮻꮪ	-689
ꭸꮆꭿ	-690
ꮂꮝꭼ	-691
ꮎꮒꮺ	-692
ꮝꮣꮹ	-693
ꮝꮤꮒ	-694
ꮫꮑꮈ	-695
ᏺꮁꮢꭿ	-696
ꭲꭶꮴꮅ	-697
ꭴꮎꮴꮅ	-698
ꭼꮻᏻꮜ	-699
ꮺꮞꮄꭲ	-700
ꭰꮒꮖꮅꮟ	-701
ꭲꮧ	-702
ꭴꮵ	-703
ꭸꮃ	-704
ꮎᏸ	-705
ꮥꭿ	-706
ꮹꮎ	-707
ꭵꮭꮓ	-708
ꭶꮩꭿ	-709
ꮝꭹꮓ	-710
ꮩꮣꮖ	-711
ᏹꭸꮞꭲ	-712
ꭰꮩꮄꮀꮝꭹ	-713
ꮅꮝꭺꮈꮣꮑ	-714
ꮧꮒꭷꮏꮹꮧꮩꭿ	-715
ᏺꮺ	-716
ꭳꮳ	-717
ꮑꮆ	-718
ꮫꮏ	-719
ꮫꮕ	-720
ꮎꮣꮄ	-721
ꮝꭶꭲ	-722
ꮈꮓ	-723
ꮓꭹ	-724
ꮪꮣ	-725
ꭲꮿꭶ	-726
ꭴꮒᏺ	-727
ꮣꮕꮦꮝꭼ	-728
ꮄꮓ	-729
ꭰꮞꮙ	-730
ꮝꮫꭲ	-731
ꭰꮵꮈꮙ	-732
ꭲꮶꭿᏻ	-733
ꮑꮃꮕꭿ	-734
ꮥᏺꮂꮝꭹ	-735
ꮅꮝꮣᏼꮧᏹ	-736
ꭱꮩ	-737
ꭴꮇ	-738
ꮕꭶ	-739
ꮻꮵ	-740
ꮝꮤꮑ	-741
ꮒꭶꮅꮝꮧ	-742
ꮒꭿꮝꭹꮒ	-743
ꭰꮫ	-744
ꭲꮎ	-745
ꮖꮄ	-746
ꭸᏻꭲ	-747
ꮝꮖꮈ	-748
ꭶꮈꮙꮧ	-749
ꮒꭶꮫꮓ	-750
ꮅꮝꮣᏼꮧ	-751
ꭰᏺꮁꭿꮝꮧ	-752
ᏹꮩ	-753
ꮑꮓ	-754
ꮣᏻ	-755
ꮣꮵ	-756
ꮪꭲ	-757
ꮵꭶꮤꭽ	-758
ꭼꮻᏻꮜꮥꭹ	-759
ᏻꮃ	-760
ꭰꮴ	-761
ꭴꭶ	-762
ꮕꮩ	-763
ꮧꮖ	-764
ꭲꮸꮢ	-765
ꭴꮣꮅ	-766
ꭽꮻꮒ	-767
ꮎꮏꮓ	-768
ꮣꮄꮢ	-769
ꭲꮿꭶᏼꮅ	-770
ᏼꭹ	-771
ꮎꮖ	-772
ꭴꮑꮴ	-773
ꮕꮢꭹ	-774
ꭰꮝꭹꮎ	-775
ꭹꮃꮙꮓ	-776
ꮎꮝꭹꮝꭹꮒ	-777
ꭼꮼ	-778
ꮈꮎ	-779
ꭴꮇꮴ	-780
ꭶᏻꮃ	-781
ꮈꮙꮧ	-782
ꮝꭹꮿ	-783
ꮑꭲꮝꮧ	-784
ꭴꮄ	-785
ꭴꮩꮣ	-786
ꭴꮪꮅꮝ	-787
ꭶᏼꮅꭸ	-788
ꮝꮤꮑꭲ	-789
ꮹꮧꮢꭲ	-790
ꭲᏻꮎꮝꮧ	-791
ꮂꮝꭸꮝꮧ	-792
ꮼꮒꭿꮝꮧ	-793
ꭰꭶᏼꮅꭸꭲ	-794
ꭴꮅꮒꭹꮧᏻ	-795
ᏺꭹ	-796
ꭴꮧ	-797
ꮇꮵ	-798
ꮑꮂ	-799
ꮞꭽ	-800
ꮧꮴ	-801
ꮪꭺ	-802
ꮴꭽ	-803
ꮷꮼ	-804
ꭴꮅꮟ	-805
ꭰꮓꭿᏻ	-806
ꭰꮝꮣꮿ	-807
ꮺꮅꮝꭹ	-808
ᏼꭿ	-809
ꭴᏼ	-810
ꮀꮅ	-811
ꮰꮿ	-812
ꮟᏼꮻ	-813
ꭴꮓꭿᏻ	-814
ꭼꮹꮇꮴ	-815
ꮧꮤꮝꮧ	-816
ꭰꮎꮅꮕꮯ	-817
ꭰꮣꭸᏻꮧ	-818
ꭴꮒꮝꮖꮒꭺ	-819
ꮅꭺ	-820
ꮠꮧ	-821
ꭰꮑꮂ	-822
ꭴꮝꮥ	-823
ꭴꮰᏹ	-824
ꮒꮵꮺ	-825
ꭰꮒꮝꭹꮎ	-826
ꮔꮅꮝꮤꮑꭲ	-827
ꮪꮒꮈꮻꮝꮣꮑ	-828
ꭰꭺ	-829
ꭰꮊ	-830
ꭱꭽ	-831
ꮞꮧ	-832
ꮿꭲ	-833
ꭰꭶꮨ	-834
ꮕꭿꮫ	-835
ꮤꮃꮼ	-836
ꮧꭻꭺ	-837
ꮷꮴꮅ	-838
ꮒꮳꮫꮑ	-839
ꮟᏼꮻꭽ	-840
ꮨꮒꮩꭿ	-841
ꭶꮆꭿꮝꮧᏹ	-842
ꭲꮃ	-843
ꭼꮓ	-844
ꮜꮒ	-845
ꮣꮫ	-846
ꭲᏻꮹ	-847
ꭶꮝꭹ	-848
ꭶꮤꮂ	-849
ꮵᏻꭿ	-850
ꭲꭶꮫꮓ	-851
ꭴꮒꮇꮴ	-852
ꮕꮣꭼꮹ	-853
ꭲꮣ	-854
ꭵꮎ	-855
ꮆꮫ	-856
ꮏꭲ	-857
ꮵꮑ	-858
ꮠꮧᏹ	-859
ꮕꮹꮎꮣꮄ	-860
ꮝꮣꮹꮧꮩꭿ	-861
ꮷꮒᏺꮁꮢꭿ	-862
ꭰꮓꭿᏻꮂꮝꭹ	-863
ᏸꭿ	-864
ꮎꭲ	-865
ꮣᏺ	-866
ꮿꮒ	-867
ꭰꭹꮎ	-868
ꭴꭷꮅ	-869
ꮎꮭꭲ	-870
ꮑꮯᏼ	-871
ꭰꮒꭸᏼ	-872
ꭴꮣꮕꮨ	-873
ꭶᏸꭺꭹ	-874
ꮵꭸꮢꭹ	-875
ꭱꮃ	-876
ꭸꮻ	-877
ꮡꮎ	-878
ꮤꮄ	-879
ꮥꭼ	-880
ꮪꮈ	-881
ꮪꮺ	-882
ꭴꮄꮕ	-883
ꭵꮝꭹ	-884
ꮢꮓᏹ	-885
ꭶꮈꮆꭲ	-886
ꮝꮥꮈꮧ	-887
ꮧꮝꭼꭲ	-888
ꭲꭼᏹꮧꮲ	-889
ꭴꮑꮃꮕꭿᏸꮓ	-890
▁"	-891
ꮙꭿ	-892
ꮝꭻ	-893
ꮥꮒ	-894
ꮪꮓ	-895
ꮳꭶ	-896
ꮷꮓ	-897
ꮽꮆ	-898
ꮿꭹ	-899
ꭴꮔꭺ	-900
ꭺꭿꮫ	-901
ꭿꮝꭹ	-902
ꮪꮣꮄ	-903
ꮯꮆꮫ	-904
ꮂꮝꭼꭲ	-905
ꭴꮎꮣꮱꭼ	-906
ꮧꮓꮺꮅꮝꭹ	-907
ꮅꮝꭺꮈꮤꮕꭿ	-908
ꭰꮓ	-909
ꭱꭹ	-910
ꭵꭵ	-911
ꮒꮣ	-912
ꮔꭾ	-913
ꮣᏸ	-914
ꮵꮥ	-915
ꮸꮢ	-916
ꮿꮩ	-917
ꭴꭺꮂ	-918
ꮑꮈꭲ	-919
ꮝꭶꮿ	-920
ꮡᏸꮫ	-921
ꮫꮑꭲ	-922
ꭴꮩꮄꮀ	-923
ꮑꭾꮝꮧ	-924
ꮵꭸꮞꭲ	-925
ꭴꮎꮩꮣꮖ	-926
ꭴꮴꮅꭺꭿ	-927
ꭸꮵꮕꮟꮫ	-928
ꭶꮩꭵꭿꮝꮧ	-929
ᏹꮧ	-930
ꭱꭲ	-931
ꭴꭺ	-932
ꭶꮕ	-933
ꮜꮃ	-934
ꮟꮜ	-935
ꮿꮤ	-936
ꭰꮛꮢ	-937
ꭶꮅꮶ	-938
ꭹꭶꭸ	-939
ꮃꮝꮧ	-940
ꮇꮸꭽ	-941
ꮥꭸꮵ	-942
ꮹꮝꮫ	-943
ꭰꮊꮙꭿ	-944
ꭴꮣꮅꭲ	-945
ꭴꮣꮕꮦ	-946
ꮅꮝꮩꮣ	-947
ꮔꮣꮄꮢ	-948
ꮕꮝꮧᏹ	-949
ꮝꮧꮝꭹ	-950
ꭴꮒꭼꮻᏻꭿ	-951
ꮕꮧꭶꮅꮝꮩꮧꮝꭸꮝꮧ	-952
ꭱꮊ	-953
ꭴꮲ	-954
ꭷꮒ	-955
ꮕꮢ	-956
ꮧꭷ	-957
ꮪꮻ	-958
ᏸꮈꭽ	-959
ᏸꮈꭿ	-960
ꭰᏺꮅ	-961
ꭴꮒᏼ	-962
ꭷꮅꭲ	-963
ꮆꮢꭿ	-964
ꮔꮺꮢ	-965
ꮙꭿᏻ	-966
ꮝꮪꭲ	-967
ꮹꮫꮂ	-968
ꮅꮝꮤꮕ	-969
ꮎꮎꮫꮑ	-970
ꮝꭶꮕꮎ	-971
ꮰꮎꮝꮧ	-972
ꮝꮥꮈꮧᏹ	-973
ꮤꮥᏺꮂꮝꭹ	-974
▁(	-975
ꭿꮿ	-976
ꮂꮟ	-977
ꮄꮫ	-978
ꮑꮙ	-979
ꮥꭸ	-980
ꮧꮸ	-981
ꮩꮒ	-982
ꮫꭿ	-983
ꮻꮸ	-984
ꭱꮊꮕ	-985
ꭹꮅᏺ	-986
ꮅꮝꭶ	-987
ꮝꭶꭹ	-988
ꭰꮣꮑꮈ	-989
ꭴᏺꭲᏻ	-990
ꭴꮒꮓꭾ	-991
ꮥꮨᏼꮫ	-992
ꭺꮹꮫꮧᏹ	-993
ꮈꮻꮝꮣꮑꮧᏹ	-994
ꭲꭸ	-995
ꭲꮕ	-996
ꮢꭽ	-997
ꮣꮆ	-998
ꮻꮎ	-999
ꭰꮧꮎ	-1000
ꭼꮹꮫ	-1001
ꭲꭺꭿꮫ	-1002
ꭸᏻꭿᏻ	-1003
ꮒꭼꮎꮫ	-1004
ꭲᏻꮝꭹꮒ	-1005
ꭴꮎꮔꭺꮻ	-1006
ꮅꮝꮩꮧꮝꭼꭹ	-1007
ꭸꮟ	-1008
ꮎꮣ	-1009
ꮧꭼ	-1010
ꮩᏹ	-1011
ꭲꮈꭿ	-1012
ꭴꭹꮸ	-1013
ꭴꮫꮕ	-1014
ꮑꮝꮧ	-1015
ꮧꭸꭶ	-1016
ꮫꮑꭿ	-1017
ꮷꮧᏹ	-1018
ꭰꮒꮿꮻ	-1019
ꭲꮈꭿꮲ	-1020
ꭴᏺꮁꮢ	-1021
ꭴꮎꮫꭶ	-1022
ꭶꮤꮂꮎ	-1023
ꮃꮟꮥꮒ	-1024
ꮒꭶꮺꭽ	-1025
ꮝꭶꮕꮸꭲ	-1026
ꭲᏻꮅꮝꮩꮧ	-1027
ꭰꮿ	-1028
ꭱꮟ	-1029
ꭾꮎ	-1030
ꮎꮓ	-1031
ꭸᏻꭿ	-1032
ꭺꮧᏹ	-1033
ꮤꮒꮩ	-1034
ꮿꮕꮂ	-1035
ꭰꮒꮠꭲ	-1036
ꭶꮪꮂꭲ	-1037
ꭼꮧꮝꭼ	-1038
ꭰꮧꮤꮝꮧ	-1039
ꭴꮎꮫꭶꮕ	-1040
ꮕꮣꭼꮹꮣꮄꮕꮫ	-1041
ꮷꮒꮈꮻꮝꮣꮑꭿ	-1042
ᏺꮟ	-1043
ꮎꮵ	-1044
ꮜꮕ	-1045
ꮥꮸ	-1046
ᏺꮞꭽ	-1047
ꭴꮠꮕ	-1048
ꭶꮼꮒ	-1049
ꮃꮝꮣ	-1050
ꮅꮵꮩ	-1051
ꮫꮑꮅ	-1052
ꭰꮑꮂꭲ	-1053
ꮞꭾꮝꮧ	-1054
ꮵꭹꮅᏺ	-1055
ꮷꮴꮅꭶ	-1056
ꮅꮝꮥꮈꮩꮧ	-1057
ᏹꮸ	-1058
ꮕꮷ	-1059
ꮘꮧ	-1060
ꮥꭲ	-1061
ꮥꮅ	-1062
ꮽꭺ	-1063
ᏹꮝꭹ	-1064
ꭱꮧᏹ	-1065
ꭲꮎꭸ	-1066
ꭹꮃꮙ	-1067
ꮪꮑꮴ	-1068
ꮿꮩꮧ	-1069
ꭾꮅꮝꮧ	-1070
ꮔꮺꮞꮄ	-1071
ꭲᏻꮯꮆꮫ	-1072
ꭰꭶꮩꭵꭿꮝꮧ	-1073
ꭴꮎꮩꮣꮖꮝꭼ	-1074
ᏸꭲ	-1075
ꭼꭽ	-1076
ꮳꮣ	-1077
ꮳꮧ	-1078
ꮵꭶ	-1079
ꭱꮆꮫ	-1080
ꭱꮝꮧ	-1081
ꭴꮒꮑ	-1082
ꭴꮣꮩ	-1083
ꮔꮫꮑ	-1084
ꮕꮜꮧ	-1085
ꮢꮝꮧ	-1086
ꭴꮒᏸꮈ	-1087
ꭿꮝꮩꮧ	-1088
ꮕꭲꮝꮧ	-1089
ꮝꮪꮧᏹ	-1090
ꭰꮝꭺꭿꮷꮘ	-1091
ꮎꮝꮙꮝꭹꮒ	-1092
ꭲꮳꮅꮝꮣꮑꮧ	-1093
ꭴꮑꮃꮕꭿꮝꭹꮒ	-1094
ꮕꮣꭶꮅꮝꮩꮧꮝꭼꭹ	-1095
ᏹꮓ	-1096
ꭰꮕ	-1097
ꭼꮕ	-1098
ꮅꮿ	-1099
ꮥꮀ	-1100
ꮧꭺ	-1101
ꮪꭶ	-1102
ꮪꮼ	-1103
ꮵꮫ	-1104
ꮶꭹ	-1105
ꭰꮗꮵ	-1106
ꭴꮒꮓ	-1107
ꭶꮜꮿ	-1108
ꮎꮻᏹ	-1109
ꮒꮵꭵ	-1110
ꮘꮅꭹ	-1111
ꮘꮣꮓ	-1112
ꮝꮧᏸ	-1113
ꭴꮣꮕꮩ	-1114
ꮄꭿꮠꮧ	-1115
ꮧꮝꮧᏹ	-1116
ꮹꮎꭶꮃ	-1117
ꭰꭶꮤꮂꭲ	-1118
ꭴꮅꮝꮖꮈꮧ	-1119
ꭱꮈ	-1120
ꮵꮋ	-1121
ꭴꮝꮖ	-1122
ꭴꮺꮇ	-1123
ꮎꮔꭺ	-1124
ꮞꮧᏹ	-1125
ꮥꭼꮹ	-1126
ꭴꮒꮳꮦ	-1127
ꮓꭾꮝꭹ	-1128
ꮫꮏꮥꭹ	-1129
ꭴꮎꮩꮄꮀ	-1130
ꭰꮵꮈꮙꮧᏻ	-1131
ꮧꮣꮝꮪꮧᏹ	-1132
ᏹꮅ	-1133
ꭽꮲ	-1134
ꮄꮒ	-1135
ꮟꮫ	-1136
ꮩꭹ	-1137
ꮽᏼ	-1138
ᏹꮧꮵ	-1139
ꭰꮑꮩ	-1140
ꭲꮸꮿ	-1141
ꮇꮸꭹ	-1142
ꮒꭶꮤ	-1143
ꮜꮙꮙ	-1144
ꮞꭺꭹ	-1145
ꮣꮄꭹ	-1146
ꮿꮕꮫ	-1147
ꭼꮤꮕꭿ	-1148
ꮆꭿꮝꮧ	-1149
ꮧꮒᏺꮅ	-1150
ᏹꮵꭶꮤꭽ	-1151
ꭹꮆꮝꭹꮒ	-1152
ꭺꮲꮤꮕꭿ	-1153
ꮻꮎꮝꮫꮎ	-1154
ꭼꮹꮝꮣꮹꮧꮩꭿꮓ	-1155
ꮕꮎ	-1156
ꮞꮈ	-1157
ꮤᏺ	-1158
ꮥꭽ	-1159
ꮥꮆ	-1160
ꮨꮿ	-1161
ꮱꭼ	-1162
ꮴꮵ	-1163
▁."	-1164
ꭰꮒꮩ	-1165
ꭴꭶꮤ	-1166
ꮂꮝꭸ	-1167
ꮞꮄꭲ	-1168
ꮣꮥᏺ	-1169
ꮧꭶꮤ	-1170
ꮧꮝꭺ	-1171
ꮫꮕꭹ	-1172
ꮰꭸꮟ	-1173
ꭲꮳꮣꮕ	-1174
ꭹꮆᏸꮓ	-1175
ꮇꮴꮧᏹ	-1176
ꮎꮝꭹꮙ	-1177
ꮥꭸꮝꮧ	-1178
ꮒꭶꮅꮝꮧꭽ	-1179
ꮎꮅ	-1180
ꮑꮀ	-1181
ꮴꮈ	-1182
ꮵᏼ	-1183
ꮷꭺ	-1184
ᏹꭸꮞ	-1185
ꮓꭾꭽ	-1186
ꮵꭸꮠ	-1187
ꭰꮞꮙꮙ	-1188
ꭴᏸꮈꮧ	-1189
ꭴꮓꮥꮎ	-1190
ꭴꮫꭶꮕ	-1191
ꭺꮹꮫꮧ	-1192
ꮖꮧꮝꭹ	-1193
ꮤꮅꮑꮓ	-1194
ꮦꮈꮃꮧ	-1195
ꮵꭸꮠꭲ	-1196
ꮵꭺꮺꮃ	-1197
ꭴꮒꮳꮨꮓ	-1198
ꭼꮒᏻꮙꮓ	-1199
ꮈꮻꮝꮣꮑꮂ	-1200
ꮔꮅꮝꮤꮕꭹ	-1201
ꮕꮧꭶꮅꮝꮩꮧꮝꭼ	-1202
ꭰꮧ	-1203
ꭴꮈ	-1204
ꭹᏻ	-1205
ꮕꮅ	-1206
ꮡꮆ	-1207
ꮣꮃ	-1208
ꮪꮕ	-1209
ꭰꮣꮕ	-1210
ꭴꮒꭹ	-1211
ꭷꮑꭼ	-1212
ꮃꮻꭹ	-1213
ꮎꮏꮒ	-1214
ꮒꭿꮓ	-1215
ꮖꮄꮧ	-1216
ꮝꭺꮅ	-1217
ꮹꮧꮩ	-1218
ꭰꭶꮨꮟ	-1219
ꭴꮳꮨꮒ	-1220
ꮝꮣꮹꮫ	-1221
ꮝꮥꮈꭿ	-1222
ꮣꮆꮒꭸ	-1223
ꮣꮒꮈꭲ	-1224
ꮧꭼꮹꮒ	-1225
ꭰᏼꮝꭹꮒ	-1226
ꭴꮥꮑꮄꭲ	-1227
ꭽꮻꮒꮧꮲ	-1228
ꮓꭾꮝꭼꭲ	-1229
ꮝꮥꮅꮝꭹ	-1230
ꮧꮎꮣꮕꮯ	-1231
ꮎꮒꮺꮝꭸꭲ	-1232
ꮤꮃꮼꭿꮝꮧ	-1233
ꭴꮏ	-1234
ꭷꮕ	-1235
ꭼꭶ	-1236
ꮉꮧ	-1237
ꮔꮕ	-1238
ꮘꮟ	-1239
ꮣꮰ	-1240
ꮥꮕ	-1241
ꮪꭹ	-1242
ꮵꮵ	-1243
ꮶꮹ	-1244
ᏺꮺꮃ	-1245
ꭰꮒꮑ	-1246
ꭲᏻꮕ	-1247
ꮣꮈꭲ	-1248
ꮤꮕꭲ	-1249
ꮥꮆꮖ	-1250
ꮪꮅꭽ	-1251
ᏻꭺꮫꮎ	-1252
ꭰᏼᏸꮓ	-1253
ꭰꮴꮅꮝ	-1254
ꭴᏸꮈꮫ	-1255
ꮂꮝꭼꮎ	-1256
ꮣꮧꮝꮧ	-1257
ꭴᏺꮁꮢꭿ	-1258
ꭴꮳꮤꮕꭿ	-1259
ꭰꮒꮿꮻꮝꭹ	-1260
ꭼꮹꮝꮣꮹꮫ	-1261
ꮕꮧꭶꮅꮝꮩꮧꮝꭸ	-1262
ᏻꮒ	-1263
ꮢꮒ	-1264
ꮣꮡ	-1265
ꮥꮢ	-1266
ꮵꮒ	-1267
ᏼꮻꮙ	-1268
ꭶꮵꮿ	-1269
ꮒꮖꮨ	-1270
ꮝꮧꭽ	-1271
ꮞꮈꭹ	-1272
ꮞꮣꮒ	-1273
ꮥꭴꮩ	-1274
ꮬꮟꮫ	-1275
ꮯꮒꭼ	-1276
ꭰᏸꮈꭲ	-1277
ꭴꮎꮔꭺ	-1278
ꭴꮼꭿᏻ	-1279
ꮵꮒꭼꮕ	-1280
ꭸᏻꮞꮝꮧ	-1281
ꮒꭶꮅꮝꮣ	-1282
ꮔꮝꮥꮝꮧ	-1283
ꮧꭶꮕꮜꮧ	-1284
ꭰꮅꮝꮣᏼꮧ	-1285
ꮒꮪᏻꭺꮫꮎ	-1286
ᏹᏻ	-1287
ꭵꮒ	-1288
ꭹꮟ	-1289
ꮡꮄ	-1290
ꮳꮵ	-1291
ꮵꮳ	-1292
ꭴꮎꮑ	-1293
ꭴꮑꮇ	-1294
ꮅꮒꭹ	-1295
ꮕꭼꮹ	-1296
ꮕꮫꭹ	-1297
ꮥꭼꭲ	-1298
ꮦꮅꮩ	-1299
ꮶꭲꮑ	-1300
ꮻꭼꮹ	-1301
ᏸꭿꮝꮧ	-1302
ꭲꮈꮝꭹ	-1303
ꭶꮕꭿꮫ	-1304
ꮕꮟꮩꭿ	-1305
ꭲꮵꮝꭶꮿ	-1306
ꮣꮕꮦꮝꭼꭲ	-1307
ꭸꮒ	-1308
ꮕꮧ	-1309
ꮥꭴ	-1310
ꮲꭹ	-1311
ꮲꮘ	-1312
ꮴꭶ	-1313
ꭰꮀꮅ	-1314
ꭰꮔꮼ	-1315
ꭲꮴꮂ	-1316
ꭴꮫꮎ	-1317
ꭶꮑꮈ	-1318
ꭻꮵꮫ	-1319
ꭼꮓꮫ	-1320
ꭼꮹꮎ	-1321
ꮑꮂꮎ	-1322
ꮣꮑꮈ	-1323
ꮤᏺꭿ	-1324
ꮳꮑꭽ	-1325
ꮷꮣꮄ	-1326
ꮷꮣꮟ	-1327
ꮹꮫꭾ	-1328
ꭰꮖꮴꮅ	-1329
ꭴꮇꮸꭹ	-1330
ꭴꮒꭺꮂ	-1331
ꭴꮹꮢꮙ	-1332
ꭶꮑꮈꭲ	-1333
ꮅꮝꮤꮒ	-1334
ꭴꭷꮅꮸꭿ	-1335
ꮕꮹꮣꮄꮓ	-1336
ꭲꮳꮫꮑꮧᏹ	-1337
ꭴꭼꮻᏻꭿꮓ	-1338
ꮷꮕꮟꮣꮝꮧ	-1339
ꮕꭼꮹꮺꮞꮈꭹ	-1340
ꮧꮅꮝꮣᏼꮧᏹ	-1341
ᏸꭹ	-1342
▁-	-1343
▁𐋇	-1344
ꭵꭶ	-1345
ꭵꭿ	-1346
ꭹꮸ	-1347
ꭺꮅ	-1348
ꮅᏹ	-1349
ꮣꮸ	-1350
ꮧꮧ	-1351
ꮨꮓ	-1352
ꮨꮕ	-1353
ꮯꮜ	-1354
ꮷꮹ	-1355
ꮻꭶ	-1356
ꮼꭹ	-1357
▁,]	-1358
ꭰᏼꮓ	-1359
ꭶꮫꭶ	-1360
ꮑꮂꭲ	-1361
ꮙᏸꮓ	-1362
ꮝꮫꮧ	-1363
ꮩꮅꭹ	-1364
ᏸꮃꮧꮩ	-1365
ᏺꮺꮃꮟ	-1366
ꭲꮵꭶꮤ	-1367
ꭴꮄꮕꭾ	-1368
ꭼꮼꭿᏻ	-1369
ꮪꮎꮣꮱ	-1370
ꮫꭶꮕꭹ	-1371
ꮵꮔꮝꮧ	-1372
ꭲꮵꭶꮤꭽ	-1373
ꭴꮩꮄꮀꮢ	-1374
ꭶꮈꮙꮩꮧ	-1375
ꮒꭺꭿꮈꭲ	-1376
ꮝꭶꮕꮸꭿ	-1377
ꮔꮅꮝꮤꮒꮩ	-1378
ꮧꮣꮄꮂꮝꭶ	-1379
ꭲꮳꮣꮩꮅꮝꮧ	-1380
ꮒꭼꮹꮺꮞꮄꭲ	-1381
ꭰꭲ	-1382
ꭵꮖ	-1383
ꭹꭿ	-1384
ꭼꮿ	-1385
ꮉꮟ	-1386
ꮩꮫ	-1387
ꮳꮎ	-1388
ꮳꮑ	-1389
ꮿꮓ	-1390
ꭱꮃꮺ	-1391
ꭲꮃꮿ	-1392
ꭲꮎꮫ	-1393
ꭴꮑꮙ	-1394
ꭴꮺꮅ	-1395
ꮅꭱꮅ	-1396
ꮎꭵꭲ	-1397
ꮎꮞꮅ	-1398
ꮒꮧᏻ	-1399
ꮓꮘꮟ	-1400
ꮥꮧᏹ	-1401
ꮥꮳꮣ	-1402
ꮧꮕꮓ	-1403
ꮲꮤꮕ	-1404
ꮴꮅꮫ	-1405
ꮽꮇꮴ	-1406
ꭴꮯꭿᏻ	-1407
ꮎꭿᏻꮓ	-1408
ꮤꮄꮂꭶ	-1409
ꭰᏸꮃꮝꮧ	-1410
ꮅꮝꭶꮝꮩ	-1411
ꮒꮪꮺꮞꮄ	-1412
ꮔꮅꮝꮤꮑ	-1413
ꮧꮒꮃꮻꭹ	-1414
ᏹꭶꮅꮝꮩꮣ	-1415
ꭰꮒꮟᏼꮻꭽ	-1416
ꭴꮝꮥꮞꮈꭿ	-1417
ꮯꮆꮝꮤꮕꭿ	-1418
ꭴꮤꮃꮼꭿꮝꮧ	-1419
ᏹꮣ	-1420
ꭰᏺ	-1421
ꭼꮖ	-1422
ꮝꮨ	-1423
ꮞꮓ	-1424
ꮟꮤ	-1425
ꮪꮆ	-1426
ꮺꮫ	-1427
ꮿꮖ	-1428
ᏸꮈꭲ	-1429
ᏺꭲᏻ	-1430
ꭰꭻᏼ	-1431
ꭰꮉꮯ	-1432
ꭰꮖꮅ	-1433
ꭲꮵꮘ	-1434
ꭴꭹꭼ	-1435
ꭷꮓꭿ	-1436
ꮅᏸꭲ	-1437
ꮓꭾꭾ	-1438
ꮝꭻꮥ	-1439
ꮣꮣꮏ	-1440
ꮥꭸꭶ	-1441
ꮧꮒꭶ	-1442
ꮲꮕꭿ	-1443
ꭰꮣꮑꭿ	-1444
ꭶꮇꮸꭽ	-1445
ꭶꮎꮔꭺ	-1446
ꭺꮺꮅꭿ	-1447
ꮂꮝꭸꭲ	-1448
ꮂꮝꭺꭲ	-1449
ꮅꮝꭼꭲ	-1450
ꮣꮑꮯᏼ	-1451
ꮤᏺꮞꭽ	-1452
ꮧꮝꭺꭲ	-1453
ꮧꮣꮕꮩ	-1454
ꮩᏹꮧꮲ	-1455
ꮪꮅꮝꭼ	-1456
ꮱꮧꮝꭹ	-1457
ꭲꭼꮑꮈꭿ	-1458
ꭴꭶꮅꮝꮧ	-1459
ꭸꮵꮈꮙꮧ	-1460
ꮿꮤꭾꮝꮧ	-1461
ꭰꮣꮕꮦꮝꭼ	-1462
ꭲᏻꮣꮄꮕꮫ	-1463
ꮥꮳꮣꮕꮫꭲ	-1464
ᏼꭶ	-1465
ꭱꮂ	-1466
ꭱꮘ	-1467
ꮅꭹ	-1468
ꮅꭽ	-1469
ꮎꭶ	-1470
ꮎꭼ	-1471
ꮟꮧ	-1472
ꮧꮶ	-1473
ꮫꮣ	-1474
ꮳꮓ	-1475
ꮴꮳ	-1476
ᏸꮈꮎ	-1477
ꭰꮝꮪ	-1478
ꭰꮣᏸ	-1479
ꭰꮳꮧ	-1480
ꭱꮂꭲ	-1481
ꭳꮒꮓ	-1482
ꭴꮺꮩ	-1483
ꭼꮩꮧ	-1484
ꮅꮟꮎ	-1485
ꮕꮧᏹ	-1486
ꮖꮒꮖ	-1487
ꮠꮕꭿ	-1488
ꮫꮑꭽ	-1489
ꮯꮝꮧ	-1490
ꮳꮄꮫ	-1491
ꮼꮑꮧ	-1492
ꮽꮒꮆ	-1493
ꭰꭶꮤꮂ	-1494
ꭰꭹꮅᏺ	-1495
ꭲꮴꮂꭲ	-1496
ꭴꭼꮻᏻ	-1497
ꭴꮅꭾꮅ	-1498
ꮈꮙꮧᏻ	-1499
ꮔꮓꭿᏻ	-1500
ꮣꮑꮧᏹ	-1501
ꮧꮕꮓꮫ	-1502
ꮵꭺꭵꭹ	-1503
ꮷꮒꮲꭹ	-1504
ꮹꮫꮧᏹ	-1505
ꭲꮣꮣꮕꮯ	-1506
ꭼꮧꮝꭼꭲ	-1507
ꮎꮝꭶꮕꮎ	-1508
ꮒꭶꮺꮝꭼ	-1509
ꭰꮒꭶꮤꮂꭲ	-1510
ꮕꮣᏻꮆꮢꭿ	-1511
ꮧꭹꭶᏼꮅꭸ	-1512
ᏹꮪ	-1513
ᏼꭼ	-1514
ꭴꭷ	-1515
ꭷꮃ	-1516
ꮥꭺ	-1517
ꮫꮧ	-1518
ꮹꭶ	-1519
ꮺꮟ	-1520
ꭲꮿꮖ	-1521
ꭵꮣꮅ	-1522
ꭼꭽꮇ	-1523
ꮑꮈꭽ	-1524
ꮙꮃꮓ	-1525
ꮝꭺꮈ	-1526
ꮠꮘꮅ	-1527
ꮣꮯꮆ	-1528
ꮧꭸꮢ	-1529
ꮧꮣꮼ	-1530
ꮧꮳꮣ	-1531
ꮨꮓꭾ	-1532
ꭱꭾꮝꮧ	-1533
ꭲꭹꮩꮣ	-1534
ꭼꮑꮈꭿ	-1535
ꮒꭶꭵꮙ	-1536
ꮒꮵꮺꭽ	-1537
ꮣꮖꮩꭵ	-1538
ꮲꮤꮕꮫ	-1539
ꮼꮒꮝꭼ	-1540
ꭰꮖꮴꮅꭶ	-1541
ꭲꮸᏺꮞꭽ	-1542
ꭲꮸꭸᏻꭲ	-1543
ꭲꮿꮫꮑꭿ	-1544
ꭶꮎꮔꭺꮻ	-1545
ꭸꮃꮝꮧᏹ	-1546
ꮕꮷꮅꮝꮩ	-1547
ꮫꮑꭾꮝꮧ	-1548
ꮈꮻꮝꮣꮑꮧ	-1549
ꮎꭹꮺꮞꮈꭹ	-1550
ꮕꮣᏻꮅꮝꮩ	-1551
ꮝꮧꮝꭸꮝꮧ	-1552
ꮧꭸꭶꮑꮆꮧ	-1553
ꭲᏻꮎꮅꮝꮣꮑꮧ	-1554
ꮅꮝꭺꮈꮣꮑꮈꭿ	-1555
ꭵꮟ	-1556
ꮅꮢ	-1557
ꮆꮋ	-1558
ꮑꮵ	-1559
ꮒꮟ	-1560
ꮠꮃ	-1561
ꮪꮄ	-1562
ꮵꮸ	-1563
ꮸꭲ	-1564
ꮸꮓ	-1565
ꮺꮃ	-1566
ꮺꮠ	-1567
ꮼꮑ	-1568
ꮽꮎ	-1569
ꭰꮒꮓ	-1570
ꭰꮧꭽ	-1571
ꭴꮝꭶ	-1572
ꭴꮺꮕ	-1573
ꭵꮝꭼ	-1574
ꮅꮝꭼ	-1575
ꮑꮀꭲ	-1576
ꮒꮝꭼ	-1577
ꮒꮪꮒ	-1578
ꮕᏺꭿ	-1579
ꮕꭶꮈ	-1580
ꮥᏺꮧ	-1581
ꮧꭸꮻ	-1582
ꮪꭷꮏ	-1583
ꮴꭶꮘ	-1584
ꮵꭸꮞ	-1585
ꭰꮒꭺꭲ	-1586
ꭱꭿꮝꮧ	-1587
ꭲꮵꮩꮣ	-1588
ꭴꮰᏹꮙ	-1589
ꭸᏻꭲᏻ	-1590
ꭺꮺꮈꭲ	-1591
ꭼꮒꮧᏻ	-1592
ꮓꭾꮝꭼ	-1593
ꮡꮆꮸꭿ	-1594
ꮧꭶꮤꭽ	-1595
ꮲꮤꮕꭿ	-1596
ꮴꭾꮝꮧ	-1597
ꭰꮖꮣꮕꮩ	-1598
ꭴꮅꮝꮘꮧ	-1599
ꭴꮥꮿꮩꮧ	-1600
ꮯꮆꮝꮣꮑ	-1601
ꭰꮖꮫꭶꮕꭹ	-1602
ꭲᏻꮎꮫꮑꮧ	-1603
ꭰꮵꮕꮟꮣꮝꮧ	-1604
ꭲᏻꮎꮫꮏꮥꭹ	-1605
ꭲᏻꮹꮒꮠꮧᏹ	-1606
ꮷꮈꮻꮝꮣꮑꭿ	-1607
ᏸꭽ	-1608
ꭷꮓ	-1609
ꮎꮕ	-1610
ꮖꮧ	-1611
ꮣᏹ	-1612
ꮭꭲ	-1613
ꮲꮕ	-1614
ꮻꮢ	-1615
ꮿꭰ	-1616
ꭰᏺꭹ	-1617
ꭷꮑꭲ	-1618
ꭸᏻꭽ	-1619
ꭺꮂꭹ	-1620
ꮅꮕꮯ	-1621
ꮑꮝꭸ	-1622
ꮒꮩꮣ	-1623
ꮠꭲꮓ	-1624
ꮣꮑꭿ	-1625
ꮣꮫꭹ	-1626
ꮧꭶꮪ	-1627
ꮧꮝꮣ	-1628
ꮪꮄꮕ	-1629
ꮹꮢꭹ	-1630
ꮻꮝꮣ	-1631
ꭰꮅꮵꮩ	-1632
ꭰꮝꭶꮎ	-1633
ꭰꮩꮄꮀ	-1634
ꭲꮵꮘᏹ	-1635
ꭴꮅꮟꭼ	-1636
ꭴꮝꮖꮈ	-1637
ꭴꮼᏸꮒ	-1638
ꭶꮝꭹꮈ	-1639
ꭷꮏꮹꮫ	-1640
ꭺꮲꮕꭿ	-1641
ꮃꮝꮣꮈ	-1642
ꮎꮞꮅꮧ	-1643
ꮎꮭꭵꮎ	-1644
ꮒꮳꮫꮕ	-1645
ꮥꭴꮩꭵ	-1646
ꭲꮳꮅꭾꮅ	-1647
ꭴꮪꮅꮝꭼ	-1648
ꭷꮓꭿᏸꭹ	-1649
ꮎꮝꭹꮿꮙ	-1650
ꮪꮎꮣꮕꮫ	-1651
ꭴꮕꮟꮣꮝꮧ	-1652
ꮈꮻꮝꮣꮑꭽ	-1653
ꮕꮫꭹꮕꮟꮫ	-1654
ꮣꮒꮈꭲꮝꮧ	-1655
ꭴꮅꮝꮖꮧꮝꮧ	-1656
ꮣꮩꮅꮝꮣꮑꭿ	-1657
ꭳꮅ	-1658
ꭴꮔ	-1659
ꭸꮧ	-1660
ꮒꮢ	-1661
ꮗꮅ	-1662
ꮣꭼ	-1663
ꮣꭽ	-1664
ꮪꮃ	-1665
ꮳꮤ	-1666
ꮻꭼ	-1667
ꮿꮇ	-1668
ꭰꮪꭲ	-1669
ꭴꮎꮥ	-1670
ꭴꮑꭼ	-1671
ꭴꮒꭶ	-1672
ꭶᏸꮵ	-1673
ꮜꮕꭿ	-1674
ꮝꮧꮙ	-1675
ꮹꮫꭿ	-1676
ꮹꮫꮧ	-1677
ꮻꮪꮒ	-1678
ꭰꮎꮫꭹ	-1679
ꭴꮑꮸꭹ	-1680
ꭻᏼꭱꮧ	-1681
ꮒꭼꮑꭽ	-1682
ꮷꮒꮎꮻ	-1683
ꭲꮶꭿᏻꮢ	-1684
ꭲꮿꮫꮑꮧ	-1685
ꮅꮝꮤꮕꭿ	-1686
ꮝꮣꮑꮈꭿ	-1687
ꭰꮎꮅꮝꮣᏼ	-1688
ꮔꮓꭿᏻꮢꮎ	-1689
ꮣꮣꮏꮹꮝꮫ	-1690
ꮧꭻꭺꮩꮧᏹ	-1691
ꭰꮅꮝꮖꮧꮝꭹ	-1692
ꮈꮻꮝꮣꮑꮂꭲ	-1693
ꮧꭷꮏꮹꮫꮝꮧᏹ	-1694
ꮕꮣᏻꮅꮝꮩꮤꮕꭹ	-1695
ᏻꮓ	-1696
ꭰꮂ	-1697
ꭱꮶ	-1698
ꭳꭼ	-1699
ꭴꭼ	-1700
ꭿꭿ	-1701
ꮑꮃ	-1702
ꮔꮣ	-1703
ꮜꮅ	-1704
ꮟᏹ	-1705
ꮟꮎ	-1706
ꮟꮖ	-1707
ꮣꮋ	-1708
ꮩꮃ	-1709
ꮴꮩ	-1710
ꮺꮢ	-1711
ꮻꮳ	-1712
ꭴꮎꮻ	-1713
ꭴꮓꮄ	-1714
ꭴꮔꮼ	-1715
ꮧꭶꮄ	-1716
ꮳꮴꮅ	-1717
ꮵꮝꮖ	-1718
ꭰꭷꮅꭲ	-1719
ꭰꮵꭶꮨ	-1720
ꭴꮣꮑꮧ	-1721
ꭶꮅꮝꮣ	-1722
ꭼꮹꮪꮻ	-1723
ꮂꮝꭼꭹ	-1724
ꮉꮟꮩꮒ	-1725
ꮎꮒꭵꮙ	-1726
ꮒꭿᏸꮓ	-1727
ꮔꮎꮫꮑ	-1728
ꮔꮫꮑꮈ	-1729
ꮕꮣᏻꮎ	-1730
ꮝꭹꮝꭹ	-1731
ꮝꮧꮝꭼ	-1732
ꮣꭶꮇꮵ	-1733
ꮣꮕꮣꮧ	-1734
ꮧꮥᏺꮧ	-1735
ꭴꮳꮄꮝꮧ	-1736
ꭷꮑꭲꮝꮧ	-1737
ꭿꭰꮝꭹꮒ	-1738
ꮕꭶꮝꭺꭿ	-1739
ꭰꭶꮨꮟꮧꮲ	-1740
ꮝꭶꭲꭾꮝꮧ	-1741
ꮣꮒꮈꭸꮝꮧ	-1742
ꭲᏻꮅꮝꮣꮑꮧ	-1743
ꭲꮴꮿꮤꭾꮝꮧ	-1744
ꭴꮎꮔꭺꮻꮢꭿ	-1745
ꭸꮵꮕꮟꮣꮝꮧ	-1746
ꭴꮒꮝꮖꮒꭺꮞꭲ	-1747
ᏹꭼ	-1748
ꭲꮢ	-1749
ꭴꮾ	-1750
ꭾꮓ	-1751
ꮆꭲ	-1752
ꮞꮄ	-1753
ꮮꭶ	-1754
ꮵꮻ	-1755
ꮷꮄ	-1756
▁,)	-1757
▁--	-1758
ꭰꮎꮣ	-1759
ꭴꮆꭹ	-1760
ꭴꮎꮫ	-1761
ꭴꮑꭲ	-1762
ꭴꮒꮆ	-1763
ꭴꮥꮀ	-1764
ꭶꮩꮅ	-1765
ꭺꮎꮫ	-1766
ꭺꮺꮈ	-1767
ꮅꭵꮒ	-1768
ꮜꮊꮅ	-1769
ꮝꭺꮒ	-1770
ꮝꮣꮥ	-1771
ꮝꮩꭲ	-1772
ꮣꮕꮤ	-1773
ꮣꮰꭿ	-1774
ꮩꮫꮎ	-1775
ꮺꮠꮈ	-1776
ꮽꮒᏼ	-1777
ᏺꮂꮝꭹ	-1778
ᏺꮅꮈꭽ	-1779
ꭰꮒꭹꮟ	-1780
ꭰꮟꮙꮓ	-1781
ꭰꮵꮈᏹ	-1782
ꭲꭶꭶꮫ	-1783
ꭲꮳꮴꮅ	-1784
ꭴꮒꮑꮸ	-1785
ꭼꮧꮝꭹ	-1786
ꮈꮙꮩꮧ	-1787
ꮒꮪꭹꮸ	-1788
ꮔꮎꮝꮫ	-1789
ꮣꮒꮈꮸ	-1790
ꮧꭷꮓꭹ	-1791
ꮫꭶꮕꭿ	-1792
ꭰꮒꮝꭶꮎ	-1793
ꭰꮴꮅꮝꮫ	-1794
ꭴꮩꭿᏻꮢ	-1795
ꮝꭶꭲꮂꮎ	-1796
ꮧꮨꮒꮩꭿ	-1797
ꭴꮎꮴꮅꭺꭿ	-1798
ꮒꭶꮺꮝꭸꭲ	-1799
ꮔꮎꮅꮝꮣꮑ	-1800
ꮪꮎꮣꮕꮫꭲ	-1801
ꭴꮒꮼꮒꭿꮝꮧ	-1802
ꮔꭼꮻᏻꮜꮥꭹ	-1803
ᏺꭲ	-1804
ꭰꮙ	-1805
ꭰꮰ	-1806
ꭲᏺ	-1807
ꭴꮨ	-1808
ꭴꮴ	-1809
ꭸꮖ	-1810
ꮂꮓ	-1811
ꮅꭲ	-1812
ꮒᏻ	-1813
ꮓꭶ	-1814
ꮔꮅ	-1815
ꮜꮪ	-1816
ꮣꮏ	-1817
ꮣꮳ	-1818
ꮲꮖ	-1819
ꮳꮕ	-1820
ꮻꮔ	-1821
ᏺꮁꭿ	-1822
ᏺꮅꭶ	-1823
ꭰꮄꮼ	-1824
ꭰꮣꮩ	-1825
ꭰꮣꮺ	-1826
ꭱꮈꭹ	-1827
ꭲꮜꮿ	-1828
ꭲꮳꮣ	-1829
ꭴꮆꮢ	-1830
ꭴꮓꭾ	-1831
ꭼꮧꭽ	-1832
ꭼꮹꮓ	-1833
ꮀꮹꮓ	-1834
ꮄꮒꮩ	-1835
ꮅꭾꮅ	-1836
ꮎꮻꮫ	-1837
ꮒꭼꭼ	-1838
ꮒꭼꮞ	-1839
ꮕꮞꮓ	-1840
ꮠꮲꭲ	-1841
ꮡꮣꮅ	-1842
ꮣꮱꭹ	-1843
ꮣꮱꭼ	-1844
ꮧꮉꮧ	-1845
ꮪꮣꮨ	-1846
ꮻꮝꮧ	-1847
ꭰꮝꭶꮕ	-1848
ꭰꮣꮕꮦ	-1849
ꭰꮦꮅꮩ	-1850
ꭴꭹꮅᏺ	-1851
ꭴꮎꮄꮕ	-1852
ꭶꮅꮵꮩ	-1853
ꮅꮒꭺꭿ	-1854
ꮇꭸꮝꮧ	-1855
ꮎꮝꭹꮒ	-1856
ꮜꮃꮣꮕ	-1857
ꮤᏺꮞꮄ	-1858
ꮥꭸꮜꮧ	-1859
ꮥꮳꮩꭵ	-1860
ꮧᏸꮈꭿ	-1861
ꮧꮵꮎꮻ	-1862
ꮪᏻꭺꮧ	-1863
ꮸꮝꭹꮓ	-1864
ꮺꮝꮧᏹ	-1865
ꭰꮟᏼꮻꮓ	-1866
ꭲᏻꮣꮄꭹ	-1867
ꭲꮧꭶꮤꭽ	-1868
ꭳꮳꮅꮕꮯ	-1869
ꭴꮎꮣꮕꮦ	-1870
ꮅꮝꭸꮝꮧ	-1871
ꮠꮲꭲꮝꮧ	-1872
ꮧꮄꭿꮠꮧ	-1873
ꭴꮅꭾꮅꮝꮧ	-1874
ꭴꮇꭿꮝꮧᏹ	-1875
ꭴꮥꮀꭿꮝꮧ	-1876
ꭰꮝꭶꮕꭲꮝꮧ	-1877
ꭶꮩꭵꭿꮝꮧᏹ	-1878
ꭲᏻꮎꮅꮝꮩꮧᏹ	-1879
ꮪꮈꮻꮝꮣꮑꮂꭲ	-1880
ꮕꮧꭶꮅꮝꮩꮧꮝꭺ	-1881
ᏹꮆ	-1882
ᏻꮎ	-1883
ꭱꭾ	-1884
ꭲᏸ	-1885
ꭶꮒ	-1886
ꭷꮎ	-1887
ꭸꭹ	-1888
ꭸꮩ	-1889
ꮇꭶ	-1890
ꮎꮙ	-1891
ꮩꭲ	-1892
ꮩꮵ	-1893
ꮴꭿ	-1894
ꮵꮔ	-1895
ꮺꭽ	-1896
ꮻꮫ	-1897
ꭰꭹꮟ	-1898
ꭱꮘꮜ	-1899
ꭲᏻꭲ	-1900
ꭳꮣꮈ	-1901
ꭴᏸꭿ	-1902
ꭴꮒꭺ	-1903
ꭴꮒꮕ	-1904
ꭴꮣꮡ	-1905
ꭴꮪꭲ	-1906
ꭴꮺꮨ	-1907
ꭶꭼꮹ	-1908
ꭶꮈꮫ	-1909
ꭷꮏꮹ	-1910
ꮆꮔꭾ	-1911
ꮏꭲᏻ	-1912
ꮒꮧꭵ	-1913
ꮒꮪꮹ	-1914
ꮣꮿꭲ	-1915
ꮥꭶꮪ	-1916
ꮥꭺꮲ	-1917
ꮲꮧᏹ	-1918
ꮵꮣꮒ	-1919
ꮷꮎꮫ	-1920
ꮷꮑꮴ	-1921
ꭰꮅꭾꮅ	-1922
ꭰꮙꭿᏻ	-1923
ꭰꮝꭺꮅ	-1924
ꭴꮑꮸꮓ	-1925
ꮇꭿꮝꮧ	-1926
ꮝꮤꮕꭲ	-1927
ꮧꭶꮩꮅ	-1928
ꮧꭸꮢꭲ	-1929
ꮷꮎꮝꮧ	-1930
ꮽꮆꮞꭲ	-1931
ꭰꮎꮅꭾꮅ	-1932
ꭰꮒꭶꮤꮂ	-1933
ꭴꮹꮢꭿᏻ	-1934
ꭷꮏꮹꮧꮩ	-1935
ꭺꭿꮝꭹꮒ	-1936
ꭼꮹꮪꮻꮫ	-1937
ꮡꮎꮣꮱꭹ	-1938
ꭰꮣꮩꮅꮝꮧ	-1939
ꭴꮎꮣꮱꭼꭲ	-1940
ꭴꮒꮝꭶꮕꮸ	-1941
ꭶꮼꮒꭿꮝꮧ	-1942
ꭺꭿᏻꮂꮝꭹ	-1943
ꮧꮣꮄꮒꮝꭼ	-1944
ꭰꮅꮝꮥꮈꮩꮧ	-1945
ꭲꮸꮧꮝꭸꮝꮧ	-1946
ꮔꮅꮝꮤꮒꮩꮈ	-1947
ꮸꮧꮣꮄꮂꮝꭶ	-1948
ꮔꮒꭼꮻᏻꮜꮥꭹ	-1949
ꮷꮒꮈꮻꮝꮣꮑꮧᏹ	-1950
ᏺꭽ	-1951
ᏼꮧ	-1952
ꭰꭼ	-1953
ꭰꭿ	-1954
ꭰꮁ	-1955
ꭰꮔ	-1956
ꭰꮯ	-1957
ꭰꮸ	-1958
ꭶꭻ	-1959
ꭸꮫ	-1960
ꭺꮧ	-1961
ꮂꭽ	-1962
ꮂꭿ	-1963
ꮃꭸ	-1964
ꮃꮑ	-1965
ꮢꮈ	-1966
ꮯꮟ	-1967
ꮳꭲ	-1968
ꮳꭹ	-1969
ꮴꮧ	-1970
ꮵꮝ	-1971
ꮶꮵ	-1972
ꮷꮳ	-1973
ᏺꮝꮧ	-1974
ꭰꮟꮎ	-1975
ꭱꮟꭹ	-1976
ꭲꮸꮓ	-1977
ꭴꭼꮹ	-1978
ꭶꮩꭸ	-1979
ꭻꮣꮄ	-1980
ꮑꮴꭽ	-1981
ꮕꮝꮧ	-1982
ꮣꮑꭽ	-1983
ꮹꮥꭹ	-1984
ꮺꮞꮈ	-1985
ꭴꮳꮨꮓ	-1986
ꭶꮅꮶꮥ	-1987
ꭷꮑꭼꭲ	-1988
ꭺꭿꮧᏻ	-1989
ꮄꭿꮜꮕ	-1990
ꮅꮒꭹꮫ	-1991
ꮎꮒꭶꮤ	-1992
ꮩꮅꮝꮧ	-1993
ꮪꮒꮃꮻ	-1994
ꮫꮑꮈꭿ	-1995
ꭰꮒꮝꭶꭲ	-1996
ꭲꭶꮴꮅꭶ	-1997
ꭴꮎꮑꮃꭹ	-1998
ꭴꮒꮳꮫꭹ	-1999
ꭴꮝꭶꮕꮸ	-2000
ꭿꮝꮧꮝꭹ	-2001
ꮃꮧꮝꮧᏹ	-2002
ꮇꭿꮝꮧᏹ	-2003
ꮝꮣꮑꮧᏹ	-2004
ꮝꮣꮹꮥꭹ	-2005
ꮪᏻꭺꮫꭲ	-2006
ꮳꮑꮃꮕꭿ	-2007
ꭰꮒꮃꮝꮣꮈ	-2008
ꭲꮵꮟᏼꮻꭽ	-2009
ꭲꮸᏸꮃꮧꮩ	-2010
ꭴꮒꭿꮝꮧᏹ	-2011
ꮃꮧꮩꭾꮝꮧ	-2012
ꮅꮝꭺꮈꮩꮧ	-2013
ꮔꮅꮝꮤꮕꭲ	-2014
ꮣꮑꮹꮧꮢꭲ	-2015
ꮧꭺꮲꮤꮕꭿ	-2016
ꮪꮣꮄꮝꮩꮧ	-2017
ꮪꮯꮆꮝꮣꮑ	-2018
ꮿꮻꮝꭸꮝꮧ	-2019
ꭰꮣꮕꮣꮧꮝꮧ	-2020
ꭲꮳꮅꮝꮩꮧᏹ	-2021
ᏹꮕꮧꭶꮅꮝꮩꮧꭽ	-2022
ᏸꮳ	-2023
ᏹꮒ	-2024
ꭵꮓ	-2025
ꭶꮜ	-2026
ꭶꮿ	-2027
ꭷꭽ	-2028
ꮄꭹ	-2029
ꮈꮫ	-2030
ꮣꮨ	-2031
ꮴꮂ	-2032
ꮵꮎ	-2033
ꮶꮅ	-2034
ꮻꮕ	-2035
ᏸꮈꮕ	-2036
ꭰꮒꮕ	-2037
ꭱꮄꭲ	-2038
ꭳꭶꮪ	-2039
ꭳꮅꮹ	-2040
ꭴꮒꭼ	-2041
ꭴꮫꭶ	-2042
ꭶꮈꮃ	-2043
ꭷꮑꮙ	-2044
ꮃꮻꮞ	-2045
ꮇꮴꮅ	-2046
ꮇꮴꮈ	-2047
ꮟꮝꭹ	-2048
ꮡꮅꭺ	-2049
ꮢꭿꮫ	-2050
ꮣꮅꮣ	-2051
ꮦꮝꮧ	-2052
ꮫꮑꮂ	-2053
ꮱꭼꭲ	-2054
ꮴꮧᏹ	-2055
ꮷꮽꭺ	-2056
ꮹꮨꭽ	-2057
ꮿꮤꮑ	-2058
ᏹꭸꮠꭲ	-2059
ᏹꮔꮝꮧ	-2060
ꭰꭹꮅꮿ	-2061
ꭲꭶꭶꮨ	-2062
ꭲꮿꮝꮧ	-2063
ꭴꮅꮟꭹ	-2064
ꭴꮒꮔꭺ	-2065
ꭴꮪꮈꮧ	-2066
ꮒꮪꮎꮣ	-2067
ꮔꮬꮟꮫ	-2068
ꮖꮄꮧꮓ	-2069
ꮜꮊꮅᏹ	-2070
ꮧꮖꮴꮅ	-2071
ꮪꮅꮝꭺ	-2072
ꮷꮢꭿꮫ	-2073
ᏺꮁꭿꮝꮧ	-2074
ꭰꮎꮣꮕꮯ	-2075
ꭰꮝꮣᏹᏻ	-2076
ꭲꮳꮅꮕꮯ	-2077
ꭴꮇꭿꮝꮧ	-2078
ꭴꮒꮓꮥꮎ	-2079
ꭼꮹꮯꮝꮧ	-2080
ꮔꮅꮝꮣꮑ	-2081
ꮝꮖꮒꭺꮧ	-2082
ꮣꮑꭾꮝꮧ	-2083
ꮤᏺꮞꮈꭹ	-2084
ꮧꮳꮣꮕꮩ	-2085
ꮷꮃꮟꮥꮒ	-2086
ꮷꮎꮔꭺꮻ	-2087
ꭲᏻꮹꮑꮧᏹ	-2088
ꭴꮎꮅꮝꮣᏼ	-2089
ꭴꮎꮣꮴꮅꮫ	-2090
ꮧꮣꮨꮒꮩꭿ	-2091
ꭰꮵꭶꮨꮧꮝꮧ	-2092
ꭴꮪꮅꮝꭸꮝꮧ	-2093
ꭺꮹꮨꮝꭸꮝꮧ	-2094
ꮒꭼꮹꮺꮞꮈꭹ	-2095
ꮝꮖꮒꭺꮩꮧᏹ	-2096
ꮧꮯꮆꮝꮤꮕꭿ	-2097
ᏹꮃ	-2098
ᏼꭸ	-2099
ᏼꭽ	-2100
▁:	-2101
ꮄꭳ	-2102
ꮇꭿ	-2103
ꮑꭹ	-2104
ꮒꮓ	-2105
ꮒꮜ	-2106
ꮓꮳ	-2107
ꮣꮟ	-2108
ꮥꮴ	-2109
ꮧꮕ	-2110
ꮧꮟ	-2111
ꮧꮿ	-2112
ꮽꮣ	-2113
ᏹꮧꮳ	-2114
ᏺꮝꮩ	-2115
▁.]	-2116
ꭰꮷꮟ	-2117
ꭱꮈꭿ	-2118
ꭱꮟᏹ	-2119
ꭲᏻꮺ	-2120
ꭴꮼꭿ	-2121
ꭸᏻꮢ	-2122
ꭺꮤꮕ	-2123
ꭼꮑꮧ	-2124
ꮑꮈꮎ	-2125
ꮒꮥꭶ	-2126
ꮣꮏꮹ	-2127
ꮣꮕꮨ	-2128
ꮥꭴꮄ	-2129
ꮧꭶꮅ	-2130
ꮧꮒᏹ	-2131
ꮧꮔꮼ	-2132
ꮩꮄꮫ	-2133
ꮩꮈꭿ	-2134
ꮫꭹꭽ	-2135
ꮳꮒꮓ	-2136
ꮵꭸꮢ	-2137
ꮷꮑꮵ	-2138
ꮹꮒꭶ	-2139
ꮻꭸꮵ	-2140
ꭰꮰꮑꮧ	-2141
ꭱꮶꭲᏻ	-2142
ꭲꭶꮺꮫ	-2143
ꭲꮎꭸꭲ	-2144
ꭴꮎꮻᏹ	-2145
ꭴꮒꮇꮸ	-2146
ꭴꮕꮢꮙ	-2147
ꭴꮣꮩꮅ	-2148
ꭵꮮꮝꮧ	-2149
ꭶꮹꮢꭹ	-2150
ꭺꮹꮨꭽ	-2151
ꮃꭸꮿꮫ	-2152
ꮅꮝꭼꮎ	-2153
ꮇꭹꮝꭹ	-2154
ꮑꮴꮈꭿ	-2155
ꮝꮖꮈꭿ	-2156
ꮝꮣꮑꮈ	-2157
ꮡꮣꮄꭹ	-2158
ꮣꮒꮃꮻ	-2159
ꮧꮒꭸꮻ	-2160
ꮳꮴꮅꭶ	-2161
ꮳꮺꮠꮈ	-2162
ꮵꭺꮅᏸ	-2163
ᏺꭿꮞꮈꭹ	-2164
ꭰꭻᏼꮩꮧ	-2165
ꭰꮅꮝꮣᏼ	-2166
ꭲꮳꮴꮅꭶ	-2167
ꭲꮿꮎꮫꮑ	-2168
ꭴꭹꮸꮫꮓ	-2169
ꭴꮳꮨᏸꮓ	-2170
ꭵꮝꭸꮝꮧ	-2171
ꭷꮃꮹꮧꮢ	-2172
ꮧꮒꭶꮩꮅ	-2173
ꮰꮎꮝꮫꮎ	-2174
ꮵꮔꮺꮞꭲ	-2175
ꭲᏻꮕꮑꮧᏹ	-2176
ꭴꮑꮃꮕꭿᏹ	-2177
ꭴꮑꮲꮤꮕꮫ	-2178
ꭼꮹꮇꮴꮈꭹ	-2179
ꮣꮅꮣꮝꮫꮎ	-2180
ꮕꮷꮅꮝꮩꮤꮕ	-2181
ᏺꮵ	-2182
ꭱꮒ	-2183
ꭱꮣ	-2184
ꭵꮨ	-2185
ꭵꮳ	-2186
ꭿꮈ	-2187
ꭿꮓ	-2188
ꮅꮣ	-2189
ꮆꮟ	-2190
ꮆꮢ	-2191
ꮔꮩ	-2192
ꮕꮼ	-2193
ꮜꮣ	-2194
ꮠᏼ	-2195
ꮥꮉ	-2196
ꮥꮶ	-2197
ꮴꮓ	-2198
ꮷꭶ	-2199
ꮻꮿ	-2200
ꮼꭿ	-2201
ꮿꮑ	-2202
ᏸꮈꮧ	-2203
ᏻꮆꮧ	-2204
▁;]	-2205
ꭰꭺꮔ	-2206
ꭰꮑꭽ	-2207
ꭰꮒꮒ	-2208
ꭰꮤꮄ	-2209
ꭰꮯꮆ	-2210
ꭲꭼꮢ	-2211
ꭲꮃꭺ	-2212
ꭲꮢꭲ	-2213
ꭲꮳꮫ	-2214
ꭴꮒꮗ	-2215
ꭴꮝꮣ	-2216
ꭶꮫꭼ	-2217
ꭼꮑꮅ	-2218
ꭼꮝꭶ	-2219
ꮈꮙꮣ	-2220
ꮒꭸꭼ	-2221
ꮒꮪꮎ	-2222
ꮝꮥꭲ	-2223
ꮣꮒꮅ	-2224
ꮣꮡꮿ	-2225
ꮥꭻꭺ	-2226
ꮪᏸꮅ	-2227
ꮫꮕꭿ	-2228
ꮬꮕꮫ	-2229
ꮵꭺꭸ	-2230
ꮵꮜꮃ	-2231
ꭴꭹꮸꮫ	-2232
ꭴꮅᏸꭲ	-2233
ꭴꮅꮑꮸ	-2234
ꭴꮒꭹꭼ	-2235
ꭴꮒꮝꭶ	-2236
ꭶꮆꮔꭾ	-2237
ꭼꮹꮒᏼ	-2238
ꮅꮝꮣꮟ	-2239
ꮒꮵꭵꭲ	-2240
ꮕꮣᏻꮒ	-2241
ꮝꮣꮑꮧ	-2242
ꮝꮧꮥꭹ	-2243
ꮣꮑꮈꭿ	-2244
ꮥꮉꮝꭶ	-2245
ꮧꭶꮪꮂ	-2246
ꮧꮒꮟꮧ	-2247
ᏺꭿꮝꮧᏹ	-2248
ᏺꭿꮞꮧᏹ	-2249
ꭴꮝꮖꮈꭿ	-2250
ꭴꮝꮖꮈꮂ	-2251
ꭴꮣꮕꮢꭹ	-2252
ꭴꮣꮕꮨᏻ	-2253
ꭶꮈꮃꮧᏻ	-2254
ꭺꮅᏸꮝꭹ	-2255
ꭺꮅᏸꮧᏹ	-2256
ꮈꮙꮩꮧᏹ	-2257
ꮷꮥꮨᏼꮫ	-2258
ꭰꮁꮝꮥꮝꮧ	-2259
ꭰꮒꭹꮟꮩꭿ	-2260
ꭲꮿꮎꮫꮑꭿ	-2261
ꭴꮎᏸꭿꮝꮧ	-2262
ꭴꮎꮩꮄꮀꮢ	-2263
ꭴꮎꮰꮎꮝꮧ	-2264
ꭴꮒᏼꮝꮧᏹ	-2265
ꮃꭸꮿꮫꮴꭲ	-2266
ꮎꮒꮺꮝꭼꭹ	-2267
ꮎꮫꮑꭾꮝꮧ	-2268
ꮒꭶꮺꮝꭼꭹ	-2269
ꮷꮎꮫꮠꮕꭿ	-2270
ꭰꮎꮣꮩꮅꮝꮧ	-2271
ꮔꮣꮅꮣꮝꮫꮎ	-2272
ꭷꮏꮹꮧꮩꭾꮝꮧ	-2273
ꭼꮹꮝꮣꮹꮫꮞꭲ	-2274
ꮥꮵꮈꮻꮝꮣꮑꮂ	-2275
ꭲꮳꮣꮩꮅꮝꮧꮝꭸꮝꮧ	-2276
ᏹꮕ	-2277
ᏺꭶ	-2278
ꭱꮨ	-2279
ꭲꭺ	-2280
ꭴꮜ	-2281
ꭷꮂ	-2282
ꭻꭻ	-2283
ꮅꮕ	-2284
ꮒꮻ	-2285
ꮓᏼ	-2286
ꮕꮤ	-2287
ꮖꮃ	-2288
ꮙꮧ	-2289
ꮟꮓ	-2290
ꮠꮒ	-2291
ꮧꮡ	-2292
ꮩꭶ	-2293
ꮪꭿ	-2294
ꮪꮑ	-2295
ꮴꭾ	-2296
ꮵꭼ	-2297
ꮵꮓ	-2298
ꮷꮅ	-2299
ꮷꮕ	-2300
ꮹꮢ	-2301
ꮿꮺ	-2302
ᏹꮕꭶ	-2303
ꭰꮝꮖ	-2304
ꭰꮣᏺ	-2305
ꭲᏻꮒ	-2306
ꭲꭶꮨ	-2307
ꭲꮴꭿ	-2308
ꭴꮑꮃ	-2309
ꭶꭸꮵ	-2310
ꭶꮑꮃ	-2311
ꭶꮫꭲ	-2312
ꭼꮹꭺ	-2313
ꮃꮟꮃ	-2314
ꮅꮓꭾ	-2315
ꮅꮩꭿ	-2316
ꮔꭺꭲ	-2317
ꮕꮓꭿ	-2318
ꮜᏹꮃ	-2319
ꮜꮪꮟ	-2320
ꮝꭹꮈ	-2321
ꮝꮫꭹ	-2322
ꮞꮀꭲ	-2323
ꮩꭿᏹ	-2324
ꮴꮂꭹ	-2325
ꮵꮥꮳ	-2326
ꮶꮣꮒ	-2327
ꮷꮒꭶ	-2328
ꮿꭵꭲ	-2329
ᏼꮝꮧᏹ	-2330
ꭰꮑꮩꭿ	-2331
ꭱꮙꭿᏻ	-2332
ꭲꮿꮕꮩ	-2333
ꭴꭶꮤꮂ	-2334
ꭴꮎꮅꭺ	-2335
ꭴꮎꮣꮩ	-2336
ꭴꮑꮸꭲ	-2337
ꭴꮑꮸꭿ	-2338
ꭴꮝꮪꭲ	-2339
ꭴꮯᏸꮓ	-2340
ꭶꮅꭱꮅ	-2341
ꭷꮅꮸꭿ	-2342
ꭸꮃꮝꮧ	-2343
ꮅꮝꭸꭲ	-2344
ꮅꮝꭼꭹ	-2345
ꮎꮝꮙꮓ	-2346
ꮒꭶꮵᏼ	-2347
ꮒꮳꮫꮏ	-2348
ꮔꮝꮫꭲ	-2349
ꮔꮹꮑꮈ	-2350
ꮜꮹꮒꮓ	-2351
ꮝꭶꮕꮴ	-2352
ꮝꮣꮹꮥ	-2353
ꮟꮜꮅᏹ	-2354
ꮣꮅꮑꭿ	-2355
ꮣꮎꮥᏺ	-2356
ꮧꭼꮹꮈ	-2357
ꮧꮵᏺꮅ	-2358
ꮪꮃꮝꭼ	-2359
ꮫꮑꮂꭲ	-2360
ꮵꭸᏻꭲ	-2361
ꮵꮑꭼꭲ	-2362
ꮶꭲꮑꮓ	-2363
ꮹꮫꭼꭶ	-2364
ꮹꮫꮂꭹ	-2365
ꮻꮝꮣꮟ	-2366
ꮻꮪꮿꮕ	-2367
ꮽꮒꮇꮴ	-2368
ᏺꭿꮞꮈꭿ	-2369
ꭰꮅꮝꮪꮆ	-2370
ꭰꮎꮅꮵꮩ	-2371
ꭰꮒꭺꮹꮨ	-2372
ꭰꮖꮪꮅꭽ	-2373
ꭴᏺꮁꮢꭲ	-2374
ꭴꮑꭻꮵꮫ	-2375
ꭶꮝꭹꮈꭲ	-2376
ꮅꮝꮤꮕꭹ	-2377
ꮈꮙꮥꮝꮧ	-2378
ꮒꮳꮫꮑꮈ	-2379
ꮝꭹꮓꮂꮟ	-2380
ꮝꮣꮹꮪꭶ	-2381
ꮝꮧᏸꮧꭽ	-2382
ꮤꮇꭹꮝꭹ	-2383
ꮧꭻꭺꮩꮧ	-2384
ꭴꮑꮃꮕꭿꮓ	-2385
ꭴꮩꭿᏻꮧᏹ	-2386
ꭴꮺꮅꭿꮝꮧ	-2387
ꭹꮅᏺꭲꮝꮧ	-2388
ꮔꮬꮟꮫꮢꮎ	-2389
ꮣꮎꮅꮝꮣᏼ	-2390
ꮧꮝꮣꮣꮕꮯ	-2391
ꭰꭹꮅᏺꭲꮝꮧ	-2392
ꭰꮵꮈꭰꮑꮆꭿ	-2393
ꭲꭹꮝꮥꮅꮝꭹ	-2394
ꭲꭼꮹꮅꮝꮩꮧ	-2395
ꭴꮒꮝꭶꮕꮸꭿ	-2396
ꭴꮝꮖꮒꭺꮧᏻ	-2397
ꭵꮭꮝꭹꮒꮓꮕ	-2398
ꭰꮅꮝꭺꮈꮤꮕꭿ	-2399
ꭲꮵꮿꮻꮝꭸꮝꮧ	-2400
ꮧꭷꮏꮹꮧꮩꭿꮓ	-2401
ꮧꭸꮵꭴꮝꮥꮞꮈꭿ	-2402
ᏼꮎ	-2403
ꭰꭸ	-2404
ꭰꮪ	-2405
ꭱꮓ	-2406
ꭲꭿ	-2407
ꭲꮶ	-2408
ꭴꮢ	-2409
ꭶꮇ	-2410
ꮅꮴ	-2411
ꮎꮎ	-2412
ꮑꭶ	-2413
ꮑꭾ	-2414
ꮔꭶ	-2415
ꮥꮧ	-2416
ꮧꮗ	-2417
ꮪᏺ	-2418
ꮪꮩ	-2419
ꮫꭾ	-2420
ꮲꮧ	-2421
ꮶꮎ	-2422
ꮹꭹ	-2423
ꮻꮣ	-2424
ᏹꮅꮩ	-2425
ᏹꮒꭶ	-2426
ᏺꮅꭽ	-2427
ᏻꭺꮧ	-2428
ᏼꮻꮓ	-2429
ꭲꮝꭹ	-2430
ꭲꮝꮣ	-2431
ꭲꮵꭹ	-2432
ꭲꮷꮹ	-2433
ꭴꭶꮎ	-2434
ꭴꮼꮅ	-2435
ꭶꭸꮫ	-2436
ꭶꮨꮟ	-2437
ꭺꮂꭿ	-2438
ꭼꮕꭲ	-2439
ꭽꮣꮕ	-2440
ꮇꮵꮈ	-2441
ꮈꭹꮓ	-2442
ꮏꮝꮥ	-2443
ꮑꮂꭹ	-2444
ꮒꭸꮵ	-2445
ꮒꭼꮎ	-2446
ꮒꮩꮈ	-2447
ꮠꮕꭲ	-2448
ꮣꮅꭲ	-2449
ꮥꮨᏼ	-2450
ꮧꭺꮺ	-2451
ꮧꮣꮩ	-2452
ꮧꮴꮵ	-2453
ꮩꮄꭲ	-2454
ꮩꮣꮵ	-2455
ꮪꭿᏻ	-2456
ꮫꮧᏹ	-2457
ꮮꭹᏻ	-2458
ꮿꮝꮧ	-2459
ᏼꮻᏸꮓ	-2460
ꭰꭹꮑꮸ	-2461
ꭰꮛꮢꮙ	-2462
ꭰꮣꮑꮧ	-2463
ꭰꮫꮕꭲ	-2464
ꭲꭼꮑꭿ	-2465
ꭲꭼꮑꮧ	-2466
ꭴꮒꮳꮤ	-2467
ꭴꮗꮣꮈ	-2468
ꭴꮫꮑꭲ	-2469
ꭴꮫꮫꮑ	-2470
ꭼꮝꭺꮈ	-2471
ꮅꮝꮖꮧ	-2472
ꮈꮙꮤꮑ	-2473
ꮎꮒꭵꭲ	-2474
ꮎꮒꭵꮓ	-2475
ꮕꮹꮝꮧ	-2476
ꮥꮿꮩꮧ	-2477
ꮧꭼꮹꮎ	-2478
ꮪꮎꮩꭵ	-2479
ꮷꮎꮴꮅ	-2480
ꮷꮓᏸꮒ	-2481
ꮽꮆꮢꭹ	-2482
ꭰꮒꮜꮪꮟ	-2483
ꭰꮕꮧꮝꭼ	-2484
ꭰꮸꮝꮩꮧ	-2485
ꭲꮳꮣꮕꮦ	-2486
ꭳꮵꭶꮤꭽ	-2487
ꭴꭼꮻᏻꭽ	-2488
ꭴꮎꮃꮕꭿ	-2489
ꭴꮎꮫꮑꭲ	-2490
ꭴꮑꮇꮕꭹ	-2491
ꭴꮒꮇꮸꭹ	-2492
ꭴꮔꭺꮸꭹ	-2493
ꭴꮕꮟꮩꭿ	-2494
ꭴꮼꮲꮕꭿ	-2495
ꭶꮼꮒꮝꭼ	-2496
ꭷꮓꭾꮝꭹ	-2497
ꭿᏻꮂꮝꭶ	-2498
ꮅꮝꮤꮑꭲ	-2499
ꮣꮒᏹꮝꭹ	-2500
ꮣꮒꮈꮸꭿ	-2501
ꮥꮝꮧꮝꭹ	-2502
ꮧꮣꮼꮝꭹ	-2503
ꮪꮅꮝꭼꮎ	-2504
ꮫꮝꮖꮈꭿ	-2505
ꮳꮣꮕꮫꭲ	-2506
ꮵꮒꮳꮫꮕ	-2507
ꭰꮖꮑꮃꮕꭿ	-2508
ꭲꮸꮤᏺꮞꭽ	-2509
ꭴꮎꮫꭶꮕꭿ	-2510
ꭶꮅꮇꭸꮝꮧ	-2511
ꭶꮎᏸꭿꮝꮧ	-2512
ꮅꮝꭶꮝꮩꮧ	-2513
ꮎꮖꮅꮝꮣꮑ	-2514
ꮒꭶꮺꮝꭼꭲ	-2515
ꮒꮪꭹꮸꮒꮢ	-2516
ꮶꭿᏻꮞꮝꮧ	-2517
ꭰꮣꮕꮩꮝꭹꮒ	-2518
ꭴᏺꮁꭿꮝꮧᏹ	-2519
ꮒꮳꮫꮑꭾꮝꮧ	-2520
ꮕꮣᏻꮒꮆꮢꭿ	-2521
ꮪꮈꮻꮝꮣꮑꮂ	-2522
ꭲꮴꮃꮧꮩꭾꮝꮧ	-2523
ꮪꮎꮣꮱꮹꮧꮢꭲ	-2524
ꮪꮒꮈꮻꮝꮣꮑꮂ	-2525
ꮪꮒꮈꮻꮝꮣꮑꮈꭲ	-2526
ꮕꮣᏻꮎꮅꮝꭺꮈꮤꮕꭿ	-2527
ᏸꮧ	-2528
ᏻꭹ	-2529
ꭲꮥ	-2530
ꭷꮫ	-2531
ꭼꮙ	-2532
ꮑꭻ	-2533
ꮕꭽ	-2534
ꮞꭾ	-2535
ꮞꭿ	-2536
ꮤꮇ	-2537
ꮦꮓ	-2538
ꮪꮫ	-2539
ꮰꭿ	-2540
ꮵꮈ	-2541
ꮶꭶ	-2542
ꮹꭿ	-2543
ᏹꭶꭹ	-2544
ᏹꮒꮳ	-2545
ᏺꭿꮟ	-2546
ᏻꭸꮧ	-2547
ᏼꭸꮵ	-2548
ꭰꭹꭽ	-2549
ꭰꮒꭺ	-2550
ꭰꮫꭹ	-2551
ꭲꭸꮳ	-2552
ꭲꮳꮕ	-2553
ꭲꮴꮅ	-2554
ꭴꭷꮫ	-2555
ꭴꮑꮅ	-2556
ꭵꮝꭶ	-2557
ꭶꮩꭼ	-2558
ꭸꮖꮒ	-2559
ꭸꮵꮫ	-2560
ꭾᏸꮓ	-2561
ꭿꭰꮙ	-2562
ꭿꭶꮤ	-2563
ꮀꮝꮫ	-2564
ꮂꮝꭺ	-2565
ꮎꭶꭵ	-2566
ꮏꭵꭲ	-2567
ꮏꮹꮫ	-2568
ꮑꮴꮈ	-2569
ꮒꮸꭶ	-2570
ꮔꮹꭲ	-2571
ꮗꮝꮣ	-2572
ꮝꭶꮒ	-2573
ꮝꮥꮎ	-2574
ꮣꮒᏼ	-2575
ꮣꮣꮑ	-2576
ꮥꮿꮩ	-2577
ꮧꭶꮨ	-2578
ꮧꮎꮣ	-2579
ꮩꮷꮎ	-2580
ꮪꮒꮲ	-2581
ꮳꭶꮈ	-2582
ꮳꮤꭶ	-2583
ꮴꭾꭲ	-2584
ꮷꮔꭺ	-2585
ꮺꮞꮅ	-2586
ꮼꮒꭽ	-2587
ꮽꮇꮸ	-2588
ꮿꮩꭾ	-2589
ᏺꭿꮝꮧ	-2590
ꭰꭸᏼꮓ	-2591
ꭰꭺꮩꮧ	-2592
ꭰꮖꮅꮟ	-2593
ꭴꭸᏻꭿ	-2594
ꭴꮅꮰꮿ	-2595
ꭴꮆꮠꮕ	-2596
ꭴꮎꮒꭹ	-2597
ꭴꮎꮭꭲ	-2598
ꭴꮝꮥꮞ	-2599
ꭴꮬꮕꮫ	-2600
ꭴꮹꭸꮻ	-2601
ꭴꮺꮏꭲ	-2602
ꭷꮅꮼꭿ	-2603
ꭸꭶꭻᏼ	-2604
ꭿꮝꭶꮿ	-2605
ꭿꮝꮧꭽ	-2606
ꮅᏸꭲꮆ	-2607
ꮈꮙꮧꭽ	-2608
ꮎꭵꮒᏻ	-2609
ꮝꭹꮈꭲ	-2610
ꮥꭶꮃꮻ	-2611
ꮧꭶꮨꮿ	-2612
ꮧꮒꮀꮅ	-2613
ꮧꮝꭸꭲ	-2614
ꮧꮳꮴꮅ	-2615
ꮺꮃꮕꭿ	-2616
ꮻꮔꮢꮈ	-2617
ꮼꮒꮝꭹ	-2618
ꮽꮇꮴꭲ	-2619
ᏺꮺꮃꮑꭽ	-2620
ꭰꭹᏸꮈꭽ	-2621
ꭰꮒꭶꮤꭿ	-2622
ꭰꮒꮩꮎꭵ	-2623
ꭰꮣᏸꮝꭹ	-2624
ꭰꮣꮑꮈꭲ	-2625
ꭰꮣꮺꮅꭹ	-2626
ꭰꮧꮢꮝꮧ	-2627
ꭰꮵꮈꮙꮧ	-2628
ꭰꮵꮎꮭꭲ	-2629
ꭰꮹꮎꭶꮃ	-2630
ꭲꮳꮩꮄꮀ	-2631
ꭴᏸꮈꮫꭲ	-2632
ꭴꮒꭶꮩꭵ	-2633
ꭴꮒꭹꮢꭹ	-2634
ꭴꮺꮇꮕꭹ	-2635
ꭶᏼꮅꭸꭲ	-2636
ꮎꭿᏻᏸꮓ	-2637
ꮎꮎꮫꮑꮂ	-2638
ꮎꮝꮙᏸꮓ	-2639
ꮒᏼꮞꮝꮧ	-2640
ꮒꭼꮎꮫꭲ	-2641
ꮕꮣꮧꮝꮧ	-2642
ꮝꮫꮧꮝꮧ	-2643
ꮣꮑꮹꮧꮢ	-2644
ꮥꭸꮵᏸꮈ	-2645
ꮧꭶꮈꮙꮧ	-2646
ꮧꭺꮳꮄꮫ	-2647
ꮵꮒꭶꮺꭽ	-2648
ꮷꮣꮏꮹꮫ	-2649
ꮻꮪꮿꮕꮂ	-2650
ꮽꮒꮆꮞꭲ	-2651
ꭰꮅꭾꮅꮝꮧ	-2652
ꭰꮒꮼꮒꮝꭼ	-2653
ꭰꮴꮅꮝꮫꭲ	-2654
ꭰꮵꮈꭸꮆꭿ	-2655
ꭲᏻꮥꮨᏼꮫ	-2656
ꭴꮒꮑꭻꮵꮫ	-2657
ꭴꮝꮖꮈꭿꮧ	-2658
ꭶꮆꮑꮫᏸꮓ	-2659
ꭶꮓꮝꭹꮝꭹ	-2660
ꭷꮏꮹꮫꮝꮧ	-2661
ꮅꮝꭶꮝꮩꮫ	-2662
ꮅꮝꮖꮧꮝꭹ	-2663
ꮅꮝꮣꮑꮧᏹ	-2664
ꮅꮟꮎꭿꮝꮧ	-2665
ꮒꭺꭿꮈꮎꮙ	-2666
ꮨꮕꮝꮤꮕꭹ	-2667
ꮷꮎꮄꭿꮠꮧ	-2668
ꮷꮓꮡꮆꮸꭿ	-2669
ꮕꮣꭶꮅꮝꮤꮒ	-2670
ꮧꭶꮅꮝꮩꮧꭽ	-2671
ꮪꮈꮻꮝꮣꮑꮈ	-2672
ꮪꮎꮣꮱꮹꮧꮢ	-2673
ꮷꮒꮃꮻꭲꮝꮧᏹ	-2674
ꮧꭷꮏꮹꮫꮝꮧᏸꮓ	-2675
ᏸꮵ	-2676
ᏻꭿ	-2677
ᏼꮣ	-2678
ꭰꮬ	-2679
ꭱꮙ	-2680
ꭴᏸ	-2681
ꭴꮟ	-2682
ꭸꮕ	-2683
ꭺꮃ	-2684
ꭻꮧ	-2685
ꮄꮧ	-2686
ꮅꮘ	-2687
ꮆꮔ	-2688
ꮎꮛ	-2689
ꮎꮿ	-2690
ꮑꭼ	-2691
ꮒꮿ	-2692
ꮔꮈ	-2693
ꮜꮥ	-2694
ꮠꭳ	-2695
ꮠꮅ	-2696
ꮣꮴ	-2697
ꮤꮓ	-2698
ꮧꮄ	-2699
ꮧꮻ	-2700
ꮩꭽ	-2701
ꮪꮨ	-2702
ꮫꭽ	-2703
ꮫꮫ	-2704
ꮲꮫ	-2705
ꮵꭸ	-2706
ꮿꮵ	-2707
ᏹꭼꮹ	-2708
ᏹꮣꮎ	-2709
ᏺꮕꭿ	-2710
ᏼꮝꮥ	-2711
ᏼꮝꮧ	-2712
▁;)	-2713
ꭰꮉᏹ	-2714
ꭰꮑꮃ	-2715
ꭰꮥꮢ	-2716
ꭰꮧꮤ	-2717
ꭱꮩꭽ	-2718
ꭲᏸꮸ	-2719
ꭲꭼꮺ	-2720
ꭲꮝꮫ	-2721
ꭲꮣꮩ	-2722
ꭲꮥꭿ	-2723
ꭲꮴꮎ	-2724
ꭳꮒᏹ	-2725
ꭴᏺꭿ	-2726
ꭴꭹꮈ	-2727
ꭴꮂꭲ	-2728
ꭴꮎꮰ	-2729
ꭴꮎꮳ	-2730
ꭴꮎꮸ	-2731
ꭴꮢꮓ	-2732
ꭴꮧꮹ	-2733
ꭴꮿꮕ	-2734
ꭶꮓꮈ	-2735
ꭷꮕꭲ	-2736
ꭸᏻꮳ	-2737
ꭹꮥꮅ	-2738
ꭻꮤꮕ	-2739
ꮅꮝꮥ	-2740
ꮏꮻꮫ	-2741
ꮒꮖꮕ	-2742
ꮒꮧꮵ	-2743
ꮕꮟᏼ	-2744
ꮕꮢꭿ	-2745
ꮕꮣꮧ	-2746
ꮖꮃꮖ	-2747
ꮗꮣꮈ	-2748
ꮜꮩꮒ	-2749
ꮝꮣꮿ	-2750
ꮡꮂꭲ	-2751
ꮡꮎꮄ	-2752
ꮣᏸꮵ	-2753
ꮣꮑꮅ	-2754
ꮣꮖꮆ	-2755
ꮣꮣꮟ	-2756
ꮣꮣꮼ	-2757
ꮣꮵꮿ	-2758
ꮤꮕꮎ	-2759
ꮥꭶꮕ	-2760
ꮪꮒꮕ	-2761
ꮪꮕꮹ	-2762
ꮪꮼꮑ	-2763
ꮳꮩꮣ	-2764
ꮴꮅꭿ	-2765
ꮵꭸꮵ	-2766
ꮵꮑꭶ	-2767
ꮵꮥꭶ	-2768
ꮵꮥꮵ	-2769
ꮷꮑꭼ	-2770
ꮺꮞꮂ	-2771
ꮺꮞꮄ	-2772
ꮻꮢꭲ	-2773
ꮻꮪꮎ	-2774
ꮿꮇꮧ	-2775
ꮿꮓꭹ	-2776
ꭰꭺꮅᏸ	-2777
ꭰꮅꮝꭶ	-2778
ꭱꮃꮒꭼ	-2779
ꭱꮩꮂꭲ	-2780
ꭲꮝꮩꮧ	-2781
ꭲꮳꮫꭹ	-2782
ꭲꮵᏸꮈ	-2783
ꭲꮵꮇꮴ	-2784
ꭴᏼꮝꮧ	-2785
ꭴꭺꮂꭿ	-2786
ꭴꮅꮝꮪ	-2787
ꭴꮒꮎᏸ	-2788
ꭵꭿꮝꮧ	-2789
ꭶꮑꮯᏼ	-2790
ꭶꮩꭼꭹ	-2791
ꭷꮏꮹꮧ	-2792
ꭷꮑꮸꭿ	-2793
ꭸᏻꮢꭲ	-2794
ꭺꮳꮄꮫ	-2795
ꭿꭶꮤꭽ	-2796
ꮅꮝꮧꭽ	-2797
ꮅꮩꮂꭲ	-2798
ꮈꮙꮫꮎ	-2799
ꮎꮏᏸꮓ	-2800
ꮒᏼꮧᏹ	-2801
ꮒꭶꮅꮝ	-2802
ꮒꮧꭸꮵ	-2803
ꮔꮫꮑꮄ	-2804
ꮝꮣꮑꭿ	-2805
ꮣꮕꮤꮹ	-2806
ꮧꮒᏸꮈ	-2807
ꮩꭾꮝꮧ	-2808
ꮶꭿᏻꮢ	-2809
ꮷꮣꮥꮢ	-2810
ꮷꮼᏸꮒ	-2811
ꮿꭱꮝꮧ	-2812
ꭰꭹꭺꮂꭹ	-2813
ꭰꮒꮠꭲꮓ	-2814
ꭰꮝꮖꮒꭺ	-2815
ꭰꮫᏻꭸꮧ	-2816
ꭲᏻꮹꭻꮧ	-2817
ꭲᏻꮺꮸꭿ	-2818
ꭲꮳꮣꮕꮨ	-2819
ꭲꮵꭹꮅᏺ	-2820
ꭳꮟᏻᏸꮓ	-2821
ꭴꮎꮄꮕꭾ	-2822
ꭴꮣꮕꮫꭲ	-2823
ꭵꭹꮕꮟꮫ	-2824
ꭶꭻꮝꮫꮧ	-2825
ꭶꮆꮔꭾꮫ	-2826
ꭸꭶꮡᏸꮫ	-2827
ꮅꭱꮅꮴꭽ	-2828
ꮅꮒꭹꮧᏻ	-2829
ꮎᏸꮝꭼꮎ	-2830
ꮎꭿᏻꮙꮓ	-2831
ꮎꮒꭵᏸꮓ	-2832
ꮑꮴꭾꮝꮧ	-2833
ꮒꭶꮫᏸꮓ	-2834
ꮔꭺꮻꮝꭶ	-2835
ꮧꮖꮴꮅꭶ	-2836
ꮪꮣꮄꮝꮧ	-2837
ꮷꮒꮎꮻᏹ	-2838
ꮽꮣꭺꮎꮫ	-2839
ᏹꮒꭶꮅꮝꮣ	-2840
ꭰꮒꭶꮤꮏꭲ	-2841
ꭲᏻꮫꮑꮈꭿ	-2842
ꭲꭼꮹꮫꮑꮧ	-2843
ꭲꮳꮕꮦꮝꮧ	-2844
ꭲꮳꮫꭶꮕꭿ	-2845
ꭲꮳꮰꮎꮝꮧ	-2846
ꭲꮶꭿᏻꮢꭲ	-2847
ꭴꮒꮓꭾꮈꭿ	-2848
ꭴꮺꮕꮝꮧᏹ	-2849
ꭶꮣꮕꮦꮝꭼ	-2850
ꮈꮻꮝꮣꮑꮈ	-2851
ꮑꮯᏼꮝꮧᏹ	-2852
ꮒꮵꭶꮤꮂꮎ	-2853
ꮔꭺꮻꮝꮧᏹ	-2854
ꮤᏺꭿꭾꮝꮧ	-2855
ꮪꮅꮝꭸꮝꮧ	-2856
ꭲᏻꮅꮝꮤꮕꭿ	-2857
ꭲᏻꮎꮫꮑꮧᏹ	-2858
ꭲᏻꮝꭹꮒꮓꮕ	-2859
ꭴꭼꮻᏻꮜꮥꭹ	-2860
ꭴꮆꮢꮝꮤꮕꭿ	-2861
ꭴꮎꮅꮝꮣᏼꮧ	-2862
ꭼꮅꮝꮖꮧꮝꭹ	-2863
ꮈꮻꮝꮣꮑꮈꭿ	-2864
ꮣꮥᏺꮂꮝꭼꭲ	-2865
ꭰꮵꭴꮝꮥꮞꮈꭿ	-2866
ꭴꮅᏸꭲꮆꭿꮝꮧ	-2867
ꭴꮎꮅꮝꮥꮈꮩꮧ	-2868
ᏹꭸ	-2869
ᏻꮼ	-2870
ꭱꮆ	-2871
ꭳꭲ	-2872
ꭴꮶ	-2873
ꭵꮣ	-2874
ꭸꮸ	-2875
ꭹꮅ	-2876
ꮈꭶ	-2877
ꮉꮅ	-2878
ꮎꮟ	-2879
ꮔꮃ	-2880
ꮜꮨ	-2881
ꮝꮛ	-2882
ꮣꮔ	-2883
ꮧꮹ	-2884
ꮩꮳ	-2885
ꮲꭿ	-2886
ꮲꮻ	-2887
ꮳꮖ	-2888
ꮳꮫ	-2889
ꮴꮄ	-2890
ꮵᏸ	-2891
ꮵꮣ	-2892
¦	-2893
▁	-2894
ꮝ	-2895
ꮧ	-2896
ꭰ	-2897
ꭹ	-2898
ꭲ	-2899
ꮎ	-2900
ꮒ	-2901
ꭿ	-2902
ꭴ	-2903
ꭶ	-2904
,	-2905
ꮣ	-2906
ꮅ	-2907
ꮕ	-2908
ꭸ	-2909
ꮄ	-2910
ꮑ	-2911
ꮫ	-2912
ꮓ	-2913
ꮵ	-2914
ꮢ	-2915
ꭼ	-2916
ꮈ	-2917
ᏻ	-2918
𐊣	-2919
𐊼	-2920
ꮩ	-2921
ᏹ	-2922
.	-2923
ꭺ	-2924
ꮞ	-2925
ꮹ	-2926
ꮻ	-2927
ꮙ	-2928
;	-2929
ꮃ	-2930
ꮳ	-2931
ꮪ	-2932
ᏼ	-2933
ꮿ	-2934
ꮥ	-2935
ꮤ	-2936
ꮺ	-2937
ꮆ	-2938
ᏸ	-2939
ꮔ	-2940
ꭵ	-2941
ꮷ	-2942
ꭽ	-2943
ꮂ	-2944
ꮟ	-2945
ꮴ	-2946
ꭱ	-2947
ᏺ	-2948
ꮸ	-2949
ꮜ	-2950
ꭾ	-2951
ꮏ	-2952
ꮖ	-2953
ꮨ	-2954
ꮭ	-2955
ꭷ	-2956
ꭳ	-2957
ꮇ	-2958
ꮼ	-2959
ꮯ	-2960
ꮲ	-2961
ꮀ	-2962
ꮁ	-2963
ꮠ	-2964
?	-2965
ꮶ	-2966
-	-2967
ꮘ	-2968
ꮦ	-2969
ꮽ	-2970
ꭻ	-2971
ꮮ	-2972
ꮡ	-2973
ꮰ	-2974
ꮋ	-2975
ꮗ	-2976
ꮉ	-2977
ꮱ	-2978
[	-2979
ꮊ	-2980
]	-2981
ꮛ	-2982
ꮬ	-2983
"	-2984
!	-2985
ꮾ	-2986
ꮌ	-2987
(	-2988
)	-2989
𐋇	-2990
:	-2991
'	-2992
ꮚ	-2993
~	-2994
ꮍ	-2995
\	-2996
