<pad>	0
</s>	0
<unk>	0
¦	-1.36053
▁¦	-1.66884
▁	-3.22753
𐋇	-3.26295
▁,	-3.48437
u	-4.15034
a	-4.47517
e	-4.49072
▁.	-4.49121
o	-4.63495
i	-4.72996
ni	-5.06425
na	-5.17283
yo	-5.20047
▁:	-5.21042
▁;	-5.24952
“	-5.29425
wa	-5.49228
kepha	-5.62123
ngokuba	-5.66849
ka	-5.77861
nkulunkulu	-5.78186
ku	-5.8615
▁.”	-5.91057
nga	-5.91472
no	-5.93725
eni	-5.9714
ukuba	-5.98775
-	-5.99544
nke	-6.04163
ba	-6.09204
ukuthi	-6.13781
ne	-6.14156
wathi	-6.17011
lo	-6.22078
khona	-6.35832
nge	-6.36464
jes	-6.39418
uku	-6.39988
aba	-6.42322
nkosi	-6.43861
ko	-6.44438
kuye	-6.45811
ke	-6.47346
uma	-6.48135
ngo	-6.49958
be	-6.53862
weni	-6.55127
ya	-6.55227
▁?	-6.57908
muntu	-6.58588
le	-6.65159
ngi	-6.6767
krist	-6.69465
ndla	-6.70916
kwa	-6.71387
kubo	-6.71645
li	-6.733
si	-6.73577
zo	-6.73899
𐊣	-6.7618
𐊼	-6.76181
kodwa	-6.81739
kini	-6.82154
yi	-6.836
lokho	-6.84244
ini	-6.8514
nxa	-6.87184
we	-6.87232
la	-6.88396
ile	-6.89688
ngakho	-6.97622
lokhu	-6.9766
za	-7.01001
wo	-7.04171
‘	-7.05513
bo	-7.05903
sa	-7.07419
bonk	-7.09863
bathi	-7.11566
se	-7.12143
ye	-7.13388
ngoku	-7.13951
lowo	-7.14387
▁?”	-7.15298
ukuze	-7.15666
noma	-7.1793
so	-7.18424
noku	-7.18784
moy	-7.22198
kholwa	-7.24645
ama	-7.2768
um	-7.28282
lapho	-7.28518
kanye	-7.30828
ngu	-7.32287
mina	-7.34539
lu	-7.35365
yena	-7.36113
baba	-7.36427
ng	-7.37063
leyo	-7.38558
bili	-7.39491
kwe	-7.40059
isi	-7.40174
nina	-7.4073
kube	-7.41046
kwathi	-7.41417
phakathi	-7.43005
futhi	-7.43639
naba	-7.4541
kwaba	-7.48266
yakhe	-7.48447
de	-7.494
phezu	-7.50909
juda	-7.51127
ngcwele	-7.51374
n	-7.51707
esu	-7.51804
ze	-7.52068
phambi	-7.52288
uj	-7.52375
ma	-7.52929
mtheth	-7.53537
njalo	-7.54075
ela	-7.56709
nani	-7.58622
naye	-7.60039
izwi	-7.60293
zi	-7.61021
▁.’	-7.62931
yini	-7.64138
kakhulu	-7.64612
eli	-7.65288
kuthi	-7.66185
ndodan	-7.66422
kwakhe	-7.66475
bakhe	-7.66589
kwen	-7.67964
ngithi	-7.70358
gama	-7.70861
bheka	-7.72309
sikhathi	-7.7235
izi	-7.72819
nye	-7.7305
zalwane	-7.76031
kuphila	-7.79105
kimi	-7.79711
wena	-7.8163
nami	-7.82129
phansi	-7.82146
base	-7.82233
pha	-7.82624
ngelosi	-7.82722
nase	-7.8296
rist	-7.84077
abanye	-7.84369
kuqala	-7.84646
ningi	-7.84931
usa	-7.86014
suku	-7.87276
omunye	-7.8745
hlala	-7.87736
kwabo	-7.87923
lwa	-7.9007
abantu	-7.91549
ndlu	-7.91639
nabo	-7.91871
pho	-7.91923
sika	-7.93613
kuka	-7.9378
ngalokho	-7.94666
dwa	-7.94838
munye	-7.9516
lika	-7.95198
lutho	-7.96071
ru	-7.96501
njengalokh	-7.9679
jer	-7.96944
esi	-7.97127
m	-7.97132
shumi	-7.97269
ezulw	-7.97553
nalowo	-7.9825
kuphela	-7.98258
abafundi	-7.98291
funa	-7.99033
oku	-8.00028
lema	-8.02073
manje	-8.0425
kho	-8.0487
kuze	-8.05191
eziyi	-8.05994
labo	-8.06044
nama	-8.06085
babe	-8.0614
kuwe	-8.07764
abo	-8.08098
ezi	-8.08293
anga	-8.09437
ngiya	-8.10052
lakhe	-8.10472
musa	-8.10769
pawu	-8.10872
ese	-8.11252
kanjalo	-8.12675
misebenzi	-8.12687
wayeseth	-8.13387
hamba	-8.13878
tha	-8.14113
pet	-8.14426
waba	-8.14567
nguye	-8.14642
esifazane	-8.15378
wayese	-8.15468
abe	-8.17142
is	-8.17407
yami	-8.18808
njengokuba	-8.19488
khuluma	-8.19604
iya	-8.19942
uya	-8.20127
ngena	-8.20677
ngaye	-8.20947
yise	-8.20967
phuma	-8.21399
waye	-8.21562
bona	-8.21681
phandle	-8.22546
zakhe	-8.23038
vangeli	-8.23142
masinya	-8.23412
indoda	-8.2351
johan	-8.24353
mazwi	-8.24406
zulu	-8.24638
thina	-8.25503
ezizwe	-8.26097
kade	-8.2857
sikhombis	-8.2889
nkazimul	-8.29153
ezwe	-8.294
w	-8.29572
nom	-8.29574
kuyo	-8.29635
waphendula	-8.29889
kwase	-8.30087
laba	-8.30471
kwam	-8.31451
far	-8.31544
yethu	-8.3166
emv	-8.31783
bantu	-8.32666
wu	-8.32945
ethi	-8.33303
ayi	-8.3334
ndawo	-8.33742
sixuk	-8.33854
ngokuthi	-8.34251
nyama	-8.35035
khuleka	-8.35126
thu	-8.35585
ndle	-8.3604
in	-8.36277
wakhe	-8.3639
yathi	-8.36941
isa	-8.3715
kuba	-8.37307
vela	-8.37417
nezi	-8.38858
zwi	-8.38986
kukhona	-8.39357
thula	-8.39848
nam	-8.40279
wami	-8.4174
kithi	-8.41745
izwe	-8.41777
ngase	-8.4195
zimba	-8.44256
yebo	-8.44273
yakho	-8.44332
oya	-8.44368
▁,”	-8.44565
wam	-8.44812
kudla	-8.45508
kanja	-8.46667
nokuba	-8.46955
lesi	-8.47888
thokoza	-8.4807
umbus	-8.48466
yen	-8.48621
kwakho	-8.48915
bhekani	-8.49141
sakhe	-8.49753
nhliziyo	-8.49793
nje	-8.49811
iwe	-8.50073
khonza	-8.50251
manzi	-8.51447
lwe	-8.51452
endl	-8.51623
wethu	-8.52646
kulo	-8.52909
thi	-8.53213
athu	-8.53613
uthi	-8.53625
elo	-8.54341
ngubani	-8.54569
fanekis	-8.54691
wazi	-8.54715
zen	-8.55716
uyaku	-8.55832
gazi	-8.55881
kwazi	-8.55934
sto	-8.56196
em	-8.56229
themba	-8.56387
mo	-8.56469
lapha	-8.56557
fa	-8.56792
▁,’	-8.57162
zwe	-8.57415
kuthe	-8.58181
ninga	-8.58888
ow	-8.58941
melwe	-8.59127
ray	-8.59487
abayi	-8.59505
l	-8.59581
wase	-8.5983
lunga	-8.59886
mkhulu	-8.60251
enga	-8.60318
hlezi	-8.60367
simo	-8.612
ayo	-8.61616
fundisa	-8.61632
sebe	-8.61867
khanda	-8.61907
okukhulu	-8.62055
kwakukhona	-8.62295
zabo	-8.62782
ump	-8.62799
obe	-8.63003
baya	-8.63109
file	-8.63322
siya	-8.64129
beka	-8.64263
mi	-8.64412
ababe	-8.64604
mbe	-8.64793
niya	-8.65212
kukho	-8.65755
da	-8.65851
lase	-8.66155
okuhle	-8.66279
nene	-8.66367
ani	-8.66678
ngiyaku	-8.66776
bukhosi	-8.6726
abra	-8.67263
lami	-8.67352
ngalo	-8.67596
ethempeli	-8.67702
enye	-8.6808
zinto	-8.68327
hama	-8.68641
vuka	-8.68765
galil	-8.70014
emhlab	-8.70061
ngani	-8.70207
leli	-8.71073
fanele	-8.71175
yala	-8.71682
bethi	-8.7207
wana	-8.72667
the	-8.72757
khulu	-8.72869
waya	-8.73128
nathi	-8.73534
ngathi	-8.74137
sizwe	-8.74959
kungathi	-8.75427
▁”	-8.75695
abakhulu	-8.75792
othi	-8.75944
elwa	-8.7596
iso	-8.7755
iqinisile	-8.7772
uqo	-8.7788
mashumi	-8.77884
mpela	-8.78047
jak	-8.78621
nakho	-8.79008
soku	-8.79896
up	-8.80056
kwethu	-8.80849
indi	-8.81095
ngaba	-8.81813
ngaphambi	-8.81942
ngama	-8.82531
nawe	-8.82831
abatha	-8.82956
wakho	-8.83053
bhali	-8.83416
yabo	-8.83659
sathan	-8.84679
kungabi	-8.84814
inkosi	-8.8501
ele	-8.85453
kufika	-8.85472
thanda	-8.86142
bani	-8.86158
bam	-8.8635
memeza	-8.86401
abaning	-8.87226
elikhulu	-8.87883
shumayela	-8.87933
loku	-8.87993
nibe	-8.8817
mbi	-8.88708
kulotshiwe	-8.88806
yaba	-8.88817
limi	-8.89048
ngokwe	-8.89313
izinsuk	-8.89338
fika	-8.89537
akakho	-8.89872
phendula	-8.90032
ezint	-8.90149
bufakazi	-8.90324
oni	-8.90555
imi	-8.90768
lakho	-8.91361
abantwan	-8.91379
atu	-8.91438
lilo	-8.91506
kahle	-8.91513
amadoda	-8.91565
mari	-8.92
lomo	-8.92267
mvu	-8.9253
iza	-8.9257
enu	-8.92594
esa	-8.92743
kwabaf	-8.93195
kuvela	-8.9343
amehl	-8.93435
bu	-8.93515
kubant	-8.93908
khanya	-8.93923
linye	-8.93964
omkhul	-8.94212
njengo	-8.94532
msebenzi	-8.94684
kanti	-8.94919
bayaku	-8.94995
wabo	-8.95068
busisiwe	-8.95145
cal	-8.95204
biza	-8.9638
awu	-8.9647
mbus	-8.9651
zwile	-8.96615
mazi	-8.96796
kusuk	-8.97174
bami	-8.97458
un	-8.97744
nesi	-8.97787
ngezw	-8.97972
thile	-8.97987
▁!”	-8.98517
dla	-8.98713
nokho	-8.98853
thembis	-8.99249
ngom	-8.99321
nazi	-8.9937
fakaza	-8.99562
esikhulu	-8.99814
muzi	-8.99986
sihlan	-9.00651
leso	-9.00757
uthe	-9.01005
eya	-9.01167
izon	-9.01376
kuya	-9.02072
babo	-9.02153
s	-9.02913
owa	-9.0292
kwenza	-9.02991
iqinis	-9.03165
thuma	-9.03325
emzi	-9.03571
niyaku	-9.03928
dem	-9.04181
luka	-9.04344
ukufa	-9.04366
ose	-9.04449
phe	-9.04571
hor	-9.04632
nithi	-9.04753
nikela	-9.05731
othile	-9.05746
k	-9.05916
b	-9.05937
qinisile	-9.06858
kazi	-9.0702
bazi	-9.0724
uyi	-9.07358
ungu	-9.07818
ngizaku	-9.07844
okuphaka	-9.08118
ab	-9.08259
aka	-9.08275
mhlaba	-9.08403
beza	-9.0842
yimi	-9.08857
ncenga	-9.08878
kukhuluma	-9.08972
nika	-9.092
phi	-9.09335
hlane	-9.10622
mhla	-9.10723
qha	-9.11203
nange	-9.11232
buka	-9.11256
kunge	-9.11294
buthakathak	-9.11297
sibe	-9.1162
akukho	-9.11731
baprofethi	-9.12139
kesari	-9.12266
koku	-9.12319
cela	-9.12605
egam	-9.12749
eki	-9.13401
yoku	-9.13403
bumnyam	-9.13635
kwafik	-9.13745
zinceku	-9.1376
kuso	-9.14091
ezining	-9.14397
iminya	-9.1484
qinis	-9.15024
yihlo	-9.15062
sami	-9.15135
bakho	-9.15271
banga	-9.15461
zwa	-9.15503
esiphamban	-9.15577
uzaku	-9.15809
madoda	-9.15862
onga	-9.15866
maye	-9.16073
makhosi	-9.16705
olu	-9.17672
herod	-9.18517
jud	-9.18783
gr	-9.18788
uthand	-9.18855
angi	-9.18877
thumela	-9.18905
zulw	-9.18991
kuzo	-9.19019
lwakh	-9.19258
kwesaba	-9.19568
kile	-9.1972
ubus	-9.20095
lungile	-9.20171
abap	-9.20376
woku	-9.20431
wabona	-9.2076
weza	-9.20837
yona	-9.21298
gula	-9.2143
thempeli	-9.21751
phenduka	-9.21886
kubona	-9.22277
yawo	-9.22691
akhe	-9.23155
ngayo	-9.23293
izix	-9.23393
ezimbi	-9.23518
umfow	-9.23557
us	-9.23644
izingu	-9.23702
lawo	-9.23981
kwaze	-9.24757
yayo	-9.24842
kwab	-9.24881
mfundis	-9.24883
ngawo	-9.24922
nda	-9.25048
shiya	-9.25053
dlula	-9.2572
mkhunj	-9.25919
gcina	-9.25931
abase	-9.26452
naku	-9.26564
wakhuluma	-9.26998
kugcina	-9.27015
benza	-9.27035
ene	-9.27246
lele	-9.27495
emi	-9.27684
endaw	-9.27777
sondela	-9.27796
butho	-9.27884
umzalwane	-9.27985
kubafundi	-9.28193
bala	-9.28223
goli	-9.2826
ngibona	-9.28306
omuhl	-9.28506
izinya	-9.28601
ngekho	-9.29619
pil	-9.29666
khipha	-9.29987
mali	-9.30055
letha	-9.3015
ngesi	-9.3018
njenge	-9.30213
etr	-9.30349
kulunkulu	-9.30637
ngakwesok	-9.30655
bulala	-9.30677
nangoku	-9.30897
mhlabathi	-9.30994
zami	-9.31081
bar	-9.31088
gcwele	-9.31105
kuhle	-9.3114
iswa	-9.31409
sindis	-9.31574
vuma	-9.31809
wabuye	-9.32067
lukhu	-9.32105
umuzi	-9.32162
ema	-9.32267
okubi	-9.32374
waqala	-9.32453
wazal	-9.32484
wayini	-9.32514
amane	-9.3252
sebenzi	-9.32717
ngize	-9.32917
nab	-9.33134
eyi	-9.33171
zikhathi	-9.33278
▁?’	-9.3328
baka	-9.33478
uhla	-9.33712
sizi	-9.34038
siyazi	-9.3417
kule	-9.3418
om	-9.34963
yama	-9.3511
abaprofethi	-9.35203
lithi	-9.3532
yase	-9.35581
ngesa	-9.35829
ngabe	-9.35847
y	-9.35909
khala	-9.36059
inceku	-9.36081
ngomus	-9.36175
ngabo	-9.36221
wamuka	-9.36231
eliya	-9.36506
ane	-9.36595
zika	-9.3665
thela	-9.36662
eza	-9.3699
wafika	-9.373
engi	-9.37347
phonsa	-9.37514
am	-9.37515
zinsuk	-9.37753
sindiswa	-9.3785
fumana	-9.38456
kusho	-9.38466
wenza	-9.38616
ngithumile	-9.38633
jose	-9.39063
zethu	-9.39513
hlakanipha	-9.39604
yibo	-9.39808
lalela	-9.4009
owaye	-9.40284
maka	-9.40407
athi	-9.40437
kuyakub	-9.40501
ngemi	-9.40956
usuku	-9.41311
hlupheka	-9.41354
abanga	-9.41409
izithe	-9.4154
fakazi	-9.41934
sithi	-9.4198
zinkulungwa	-9.41991
uva	-9.41995
lunye	-9.42006
phawu	-9.42107
ase	-9.42432
yayisi	-9.42499
nges	-9.42596
okung	-9.42598
wula	-9.4265
mzimb	-9.42776
yeza	-9.42905
bantwan	-9.43132
tar	-9.43197
ngene	-9.43378
hlobo	-9.43842
hlambalaza	-9.43956
yikho	-9.43957
ndoda	-9.44011
enkulu	-9.44048
sho	-9.44315
aye	-9.44341
umprofethi	-9.44477
udum	-9.44784
uyise	-9.44812
phika	-9.44946
fazi	-9.45046
muka	-9.45233
makub	-9.45332
bekezela	-9.45368
ethu	-9.45653
ngezi	-9.45972
fana	-9.46376
maqo	-9.46472
duze	-9.46491
hla	-9.46517
yazi	-9.46695
ubu	-9.46831
mabandl	-9.46862
waphuma	-9.46882
suka	-9.46889
nabafundi	-9.47063
kukholw	-9.47239
ekudl	-9.47366
saba	-9.47485
kwenzeka	-9.47555
esefik	-9.47639
umo	-9.47774
wen	-9.47781
ize	-9.47816
kuqale	-9.47821
nguku	-9.47858
indun	-9.48218
tsha	-9.48243
ifa	-9.48521
asi	-9.48594
ngceb	-9.48802
izinto	-9.48824
enhliziy	-9.49035
ngaso	-9.49213
kuzwa	-9.4927
ki	-9.49309
me	-9.49441
nambi	-9.4946
nemi	-9.49824
intand	-9.50066
ndana	-9.50284
soka	-9.50365
seku	-9.50455
zoku	-9.50527
laka	-9.50548
khumbula	-9.50608
nyaka	-9.50647
fu	-9.50803
awulu	-9.51098
azare	-9.51115
mhlo	-9.51253
ngami	-9.51517
matshe	-9.51823
ngeza	-9.51868
ngum	-9.5211
kosi	-9.52238
hambani	-9.52698
lony	-9.5294
emba	-9.53007
sana	-9.53008
sikhashan	-9.5315
bamangal	-9.53183
kude	-9.53188
yalo	-9.5343
ngisho	-9.53581
phulukisa	-9.53631
nxusa	-9.53731
kwavela	-9.53848
wafa	-9.54035
esinagoge	-9.541
nanga	-9.54488
al	-9.54496
ben	-9.55051
inhliziyo	-9.55073
sha	-9.55144
ezine	-9.55563
iband	-9.55813
ezinga	-9.56069
isin	-9.56112
ukwenza	-9.56298
owenza	-9.56351
siye	-9.56382
amen	-9.56389
azi	-9.56445
etilong	-9.56495
sizukulwane	-9.56587
sivumelwan	-9.56729
esihlal	-9.56836
unina	-9.56863
mphefumul	-9.56954
umyal	-9.57354
lezi	-9.57459
lingu	-9.57509
indlela	-9.57802
thabatha	-9.57924
emon	-9.57933
naphaka	-9.58
nkulungwa	-9.58204
abakholwa	-9.58261
amad	-9.58337
lisa	-9.58529
ebus	-9.58686
nakuba	-9.58916
landela	-9.58923
emihle	-9.59186
gibi	-9.59727
kwabant	-9.59738
mva	-9.59767
yenza	-9.5978
sihawu	-9.59802
kangaka	-9.60038
ebona	-9.60183
sebenza	-9.60367
yizi	-9.60522
baze	-9.60569
mpof	-9.60818
esandl	-9.61217
kabi	-9.61317
khali	-9.61344
thewu	-9.61556
nceku	-9.61878
ethun	-9.61906
ngakholwa	-9.62068
profetha	-9.62137
inyama	-9.62271
kuyi	-9.62434
st	-9.62648
phila	-9.6279
ngqond	-9.63255
wathatha	-9.63792
sesi	-9.63809
thole	-9.63822
ukum	-9.63828
sakho	-9.63906
baphendula	-9.63925
bonile	-9.6407
zelwe	-9.6408
utho	-9.64198
umnt	-9.64296
langa	-9.64324
lahlwa	-9.64349
f	-9.64566
zibonakalis	-9.64676
elwe	-9.64702
libe	-9.64896
bethu	-9.65041
kwezin	-9.6513
kungesi	-9.65262
entab	-9.6542
zibonga	-9.65497
dle	-9.65499
amanga	-9.65522
izizwe	-9.65542
thatha	-9.65594
ami	-9.65708
wele	-9.65944
sazi	-9.66119
wayo	-9.66131
kuno	-9.66299
ono	-9.66566
mbhapathiz	-9.66619
hlanganyel	-9.66872
mkhosi	-9.66958
kedoni	-9.67012
msindis	-9.67257
nenza	-9.67338
itshe	-9.67428
khethiwe	-9.67478
zakh	-9.67697
ngokunjalo	-9.67768
kuna	-9.67943
nginga	-9.68214
engena	-9.68302
wayi	-9.68556
ngalez	-9.68606
phatha	-9.68817
mehl	-9.68929
qonda	-9.69258
ukulung	-9.69412
bayi	-9.6946
z	-9.69621
abafi	-9.69625
njengaba	-9.69831
wona	-9.70047
ube	-9.70087
ezinhliziy	-9.70219
ncwadi	-9.70394
enhle	-9.70683
sila	-9.70909
wela	-9.71094
duduz	-9.71241
yayi	-9.71374
zaba	-9.71395
mlandela	-9.71458
mar	-9.71509
ngazi	-9.71536
kela	-9.71548
mesaba	-9.71956
ungum	-9.71984
beni	-9.72131
unga	-9.7218
simu	-9.72275
namalu	-9.72311
kugcwalisek	-9.7246
bafika	-9.72565
ndlela	-9.72649
mangalis	-9.73589
ngiku	-9.74077
wasi	-9.74319
umbhal	-9.74416
jabula	-9.74465
ngithanda	-9.74535
besaba	-9.74539
sukuma	-9.74592
sezinyaw	-9.74604
ariy	-9.74635
liva	-9.74669
ukuya	-9.74726
ukwahlulel	-9.74795
thand	-9.74936
ngoko	-9.75029
amatha	-9.75128
ha	-9.75171
bufebe	-9.75247
kunga	-9.75365
yane	-9.76239
vula	-9.76273
phuze	-9.76328
woza	-9.76424
linda	-9.76469
kwalo	-9.76584
nawo	-9.76665
kele	-9.76712
yeka	-9.76722
kunjalo	-9.76975
okazi	-9.77378
incwadi	-9.77431
nango	-9.77855
mbuza	-9.7789
imp	-9.77894
sasi	-9.78175
mfihlakal	-9.78474
thimo	-9.78533
phuza	-9.78641
ef	-9.78665
nithanda	-9.78679
kufike	-9.78816
yisa	-9.7894
masinagoge	-9.79015
komhlaba	-9.79251
okwa	-9.79258
abapho	-9.79259
zithombe	-9.79281
febe	-9.79546
kufanele	-9.79569
bi	-9.7959
mnika	-9.79645
kuyaku	-9.80003
yayisith	-9.80172
ithi	-9.80238
kungalungi	-9.80241
betha	-9.8047
mphendula	-9.80483
ndodakazi	-9.80718
khi	-9.80739
vunyelw	-9.80971
enyam	-9.8112
niyazi	-9.81182
busa	-9.81654
isitsh	-9.81861
nababe	-9.81904
thini	-9.81996
bonakala	-9.82139
siyi	-9.82276
lela	-9.82413
khe	-9.82516
esizwe	-9.82537
ngiye	-9.8267
▁;’	-9.82694
ipha	-9.82726
aku	-9.82767
rom	-9.82783
odwa	-9.829
sin	-9.83024
bezwa	-9.83028
benga	-9.83565
ngabona	-9.83727
hu	-9.83749
oza	-9.83756
othand	-9.83843
phethe	-9.83847
mbona	-9.83927
zonda	-9.8393
ngikhuluma	-9.83939
kungena	-9.8398
kungaba	-9.84182
khonzi	-9.84356
eqinis	-9.84432
ingub	-9.84534
bese	-9.84674
izinkw	-9.84741
sabo	-9.84746
hambi	-9.8478
jo	-9.85011
ophila	-9.85091
sikhonzi	-9.85096
nzi	-9.85357
shwa	-9.8537
bone	-9.85396
endlel	-9.86177
weyo	-9.8645
wawu	-9.86553
ngibe	-9.86992
nabafow	-9.87042
phambene	-9.87102
ukuthul	-9.87168
phesh	-9.87169
mandl	-9.87188
ziyaku	-9.87347
phela	-9.87377
liphu	-9.87631
fi	-9.87901
boshiwe	-9.87912
im	-9.8825
loba	-9.88298
bakholwa	-9.88432
sawul	-9.88912
mawu	-9.88945
ngomkhu	-9.88963
bonga	-9.89043
nothand	-9.89125
kolw	-9.89187
kwezw	-9.89457
ngemihla	-9.8958
nqum	-9.89933
ra	-9.89935
thelisi	-9.89989
kum	-9.89999
ntand	-9.90174
zizwe	-9.90187
wenze	-9.90224
isilo	-9.90596
mvusa	-9.90665
ngezin	-9.909
tshe	-9.91248
ngingu	-9.91414
khululekile	-9.9144
ngumuphi	-9.91549
kw	-9.9159
khula	-9.91645
kariy	-9.91719
umvuz	-9.91913
ethile	-9.91947
owazi	-9.92057
umkakh	-9.92091
isib	-9.922
ise	-9.92212
zom	-9.92354
yilo	-9.92434
ngobu	-9.9254
imvu	-9.92548
misa	-9.93194
mbethe	-9.93306
wasuka	-9.93355
qala	-9.93555
dani	-9.93713
bemi	-9.93721
bhubha	-9.93861
akusikh	-9.94103
zini	-9.94142
kwaku	-9.94184
khuza	-9.94191
bebona	-9.94285
anazi	-9.94475
ngcolile	-9.94505
okuningi	-9.94699
isibonakalis	-9.94712
ubi	-9.94726
upha	-9.94782
ngenza	-9.94883
isithe	-9.95113
yok	-9.95235
izibonakalis	-9.95302
khuthazela	-9.95371
abathi	-9.95529
njengoku	-9.95533
kwawo	-9.95557
dabuka	-9.9558
fiki	-9.95751
ukubona	-9.9578
bafumana	-9.9584
imihla	-9.95921
veza	-9.96031
filip	-9.96035
bem	-9.96158
nizaku	-9.96185
bhapathiza	-9.96198
okholwa	-9.96266
ngilandele	-9.96315
mu	-9.9638
nitshela	-9.96488
mbamba	-9.96533
lungisiswa	-9.96675
zindl	-9.96757
lwane	-9.96768
njenga	-9.96859
into	-9.97027
nabantwan	-9.97167
siza	-9.97233
mbusi	-9.97234
okunga	-9.97301
uyakuba	-9.97334
umkhumb	-9.97573
sekel	-9.97623
nembe	-9.97749
qinisa	-9.97867
anti	-9.97869
ngiyazi	-9.97937
isaka	-9.98041
ungubani	-9.98111
lungel	-9.98459
kwenze	-9.98625
ngaphezu	-9.9877
p	-9.98778
zalwa	-9.98997
vuswa	-9.99094
wema	-9.99179
ukuza	-9.99294
sakwa	-9.99671
lukhulu	-10.0019
ngenisa	-10.0026
siyaku	-10.0032
kholwe	-10.0046
lani	-10.0077
yemi	-10.0096
xway	-10.0106
len	-10.0109
use	-10.011
susa	-10.0113
akusho	-10.0122
yekhulu	-10.0149
linga	-10.0158
bambuza	-10.0161
on	-10.0163
lahla	-10.0167
ningabi	-10.0189
landisa	-10.0211
ngangom	-10.0213
isisa	-10.0225
bamanga	-10.0231
nqoba	-10.0241
ofu	-10.0243
umhlaba	-10.0244
kwesi	-10.0253
kukhanye	-10.0255
nisa	-10.0256
fokazi	-10.0311
melana	-10.0343
lula	-10.0353
vusa	-10.0355
lile	-10.0368
ez	-10.0408
sibonakalis	-10.0425
nesib	-10.0446
lahlekelwa	-10.045
sengi	-10.0505
omhlaba	-10.0511
ningaba	-10.0522
kom	-10.0525
beb	-10.0551
tshela	-10.0559
ngeze	-10.0567
hlangothi	-10.0569
lawa	-10.0585
badla	-10.0598
abazal	-10.0599
ezinhl	-10.06
chitha	-10.0615
ezindlebe	-10.0617
asiya	-10.0627
yam	-10.0642
guny	-10.0655
ntombazan	-10.0655
▁;”	-10.0657
baye	-10.0676
nezin	-10.0684
bakhuluma	-10.0696
hlushwa	-10.0699
kwesihla	-10.0699
nikwa	-10.0737
butha	-10.0741
uso	-10.0741
ekha	-10.0749
nize	-10.0757
yezi	-10.0761
babona	-10.0765
washo	-10.0789
ngawe	-10.0813
thethelelw	-10.0841
njan	-10.0863
behamba	-10.0886
babusi	-10.0922
kungu	-10.0937
ukukhany	-10.0946
uhlala	-10.0982
gqila	-10.0985
size	-10.0987
kunguku	-10.0989
obu	-10.0997
sithanda	-10.1011
bathandeka	-10.1014
bazaku	-10.1025
bezi	-10.1039
zisa	-10.1046
isihla	-10.1052
nonina	-10.1065
os	-10.1068
memezel	-10.1077
lali	-10.1092
wamukela	-10.1104
kwenzile	-10.1124
zinkanuk	-10.1164
kon	-10.117
nenze	-10.118
shelwa	-10.1202
phakamisa	-10.1211
jor	-10.1211
miphefumul	-10.1231
funda	-10.1245
seni	-10.1246
ju	-10.1252
ethanda	-10.1255
sivini	-10.1263
kuphikisa	-10.1266
sathi	-10.1275
ngokwam	-10.1276
alifa	-10.1278
muzwa	-10.1289
phinda	-10.1295
zanga	-10.133
bali	-10.1334
kwama	-10.1347
selwa	-10.1347
tho	-10.1349
lungisa	-10.1361
ngezwa	-10.1364
zalo	-10.1367
ngenzi	-10.1378
bhapathizwa	-10.1386
ntwan	-10.1404
kuyini	-10.1409
mibhal	-10.1413
dala	-10.1419
naso	-10.142
imiyal	-10.1446
masi	-10.1447
ebu	-10.1477
hane	-10.1483
muhl	-10.149
sendlel	-10.1503
sona	-10.1505
ebe	-10.1508
ziya	-10.1511
olungi	-10.1515
kuse	-10.1521
izith	-10.1549
okwe	-10.1566
yikhona	-10.1601
babuye	-10.161
elish	-10.1613
niye	-10.1616
ando	-10.1627
esabi	-10.1637
fisa	-10.1682
ngesib	-10.171
zala	-10.1716
ngiphe	-10.1746
ahla	-10.1767
hhashi	-10.1801
ithu	-10.1803
ho	-10.1805
lama	-10.1813
lelwa	-10.1825
ink	-10.1831
bangena	-10.1832
nca	-10.1833
mhlambi	-10.1841
ngiyani	-10.1857
ngizwa	-10.1857
besa	-10.1864
nkonz	-10.1878
wehlela	-10.1898
yingco	-10.1916
izind	-10.1929
sala	-10.1952
kungenzek	-10.1974
izimv	-10.1982
eseshi	-10.1991
ri	-10.2021
hambe	-10.206
nabase	-10.2065
yaso	-10.2084
zazi	-10.2088
gatsha	-10.2089
uzakuba	-10.2093
aze	-10.2101
wama	-10.2109
ngokwesi	-10.2121
ahlale	-10.2122
iyu	-10.2132
unama	-10.2143
ukhuluma	-10.2174
zinhluphek	-10.2179
ngiyi	-10.2197
thele	-10.224
kunye	-10.227
mkhaphela	-10.2275
buthe	-10.2283
waze	-10.2284
naka	-10.2302
oko	-10.2303
benze	-10.2304
ern	-10.2305
khubekis	-10.2319
bele	-10.2341
mqond	-10.2343
ambo	-10.2344
sawo	-10.2346
kuzwile	-10.2348
nto	-10.2358
bulo	-10.2358
behlel	-10.2367
awume	-10.2373
kap	-10.2382
nobus	-10.2387
kubap	-10.2395
kukhonza	-10.2412
lwesith	-10.2412
akusi	-10.2416
dama	-10.2419
zinga	-10.2425
engum	-10.2442
bezwe	-10.2448
azo	-10.2459
hlangabeza	-10.2463
zamazam	-10.2467
emlil	-10.248
thobela	-10.2486
mthanda	-10.2488
bulawa	-10.2503
uyazi	-10.2506
nquma	-10.2506
mbulala	-10.2514
qonde	-10.2517
qeda	-10.2533
thukuthela	-10.2552
rabi	-10.2573
kuqonda	-10.2573
ibe	-10.2576
njengom	-10.2579
uthanda	-10.2586
mthatha	-10.2586
bubele	-10.2591
sokuba	-10.2591
zinkanyezi	-10.2597
uye	-10.2607
mkhiwane	-10.2608
nhloko	-10.2614
ngozi	-10.2615
semhlab	-10.2618
alanga	-10.2621
sibo	-10.2625
zase	-10.2631
es	-10.264
bubi	-10.2642
nendoda	-10.2643
sihambe	-10.2651
uze	-10.2674
lenta	-10.2688
ala	-10.2692
sam	-10.2695
nalo	-10.2724
khu	-10.2739
besi	-10.2756
ukuyo	-10.2764
usho	-10.2781
ekwazi	-10.2784
yiyo	-10.2788
abakhile	-10.279
yilokhu	-10.2794
ukuzwa	-10.2805
ongena	-10.2806
bahamba	-10.281
phiwa	-10.2824
ezandl	-10.2843
gcwalisa	-10.2846
ita	-10.2855
lazi	-10.2864
yile	-10.2892
saya	-10.2893
lwen	-10.291
zile	-10.2917
othanda	-10.2935
mprofethi	-10.2942
hlatshel	-10.2946
liya	-10.295
lizwa	-10.2954
ngasem	-10.2962
qondi	-10.2966
kwenziwa	-10.2988
ngifuna	-10.299
ngokufanele	-10.2998
zibe	-10.3003
yinkosi	-10.3005
iceb	-10.301
yize	-10.3024
sifundis	-10.3025
nezon	-10.3069
kulokho	-10.3075
siphamban	-10.3076
ntaba	-10.3079
gugu	-10.309
mshad	-10.309
ziphambek	-10.3091
isidum	-10.3095
lolo	-10.3098
nezinhlanz	-10.3101
buhlung	-10.3106
makez	-10.311
baqala	-10.3122
basho	-10.3151
heb	-10.3158
kholekile	-10.3162
shesha	-10.3164
khathazeki	-10.3171
kwamukela	-10.3191
thola	-10.3195
ica	-10.3199
kuphumul	-10.3202
oyaku	-10.322
ababi	-10.3221
thokozisa	-10.3224
lwase	-10.3232
yana	-10.3234
akho	-10.3242
jona	-10.3245
ilanga	-10.3256
bamba	-10.3264
buza	-10.3264
nangama	-10.3265
makabe	-10.3287
izinyo	-10.3292
emini	-10.3298
onama	-10.3326
livela	-10.3333
gijimela	-10.3354
nod	-10.3357
okwenzekile	-10.3368
inga	-10.3369
sise	-10.3371
egazi	-10.3372
ukuhlakaniph	-10.3374
lungisela	-10.3385
sadu	-10.3399
lom	-10.3402
izimp	-10.3425
kuza	-10.3433
bede	-10.3447
abani	-10.3458
esihle	-10.3471
emisebenzi	-10.3472
enkazimul	-10.3481
khulula	-10.3485
bonwa	-10.3499
khwelwe	-10.35
sipho	-10.3505
yima	-10.3518
sib	-10.3518
bhubhisa	-10.3537
wesi	-10.3539
ubula	-10.3543
bheke	-10.355
kumbe	-10.3553
bonakaliswa	-10.3559
nibona	-10.3569
abamp	-10.3582
wabayal	-10.3591
lokuba	-10.3598
bingelela	-10.3621
bakwa	-10.3631
mhawu	-10.3639
kuphil	-10.3644
mnini	-10.3645
bangaba	-10.3646
sase	-10.3654
bikela	-10.3655
kor	-10.3669
yimp	-10.3685
niyala	-10.3694
okuyi	-10.3704
kucela	-10.3717
ngulu	-10.3725
enza	-10.3761
nale	-10.3792
okwakhulunywa	-10.3793
sisw	-10.3793
shunyayelw	-10.3797
ongum	-10.3802
umfundi	-10.3802
buqili	-10.3805
musha	-10.3808
nzuzo	-10.3809
qamba	-10.3812
cathul	-10.3817
umakhelwa	-10.3828
yiba	-10.383
thwele	-10.3837
nomunye	-10.3837
hayi	-10.384
makungabi	-10.3846
yisi	-10.3846
ngingum	-10.3862
wali	-10.3866
dra	-10.389
abangena	-10.3895
nane	-10.3897
doni	-10.3911
hlangana	-10.3921
andle	-10.3924
ning	-10.3937
hlwanyela	-10.3963
mdumisa	-10.3966
sizwa	-10.3966
njengezi	-10.3995
sekus	-10.4004
ngenk	-10.4008
nakhu	-10.4011
ngokw	-10.4013
dela	-10.4016
kubhujisw	-10.4022
laza	-10.4035
ngini	-10.4039
sishiyagalo	-10.4046
asiyiku	-10.4052
andi	-10.4052
ngco	-10.4064
phu	-10.4082
alusi	-10.4101
mnike	-10.4105
fundisi	-10.4113
umnikel	-10.414
mvini	-10.4149
ukwahlukan	-10.4152
aw	-10.4159
nolwa	-10.4194
othe	-10.4198
iyaku	-10.4206
zimu	-10.4208
alu	-10.421
ninika	-10.4214
bamlandela	-10.4216
wawo	-10.4229
minikel	-10.426
iqhu	-10.4267
ngomli	-10.4279
som	-10.4289
esinga	-10.4296
ngokunga	-10.4299
hi	-10.4301
h	-10.4317
ekufik	-10.4323
mphakathi	-10.4341
bamemez	-10.4342
ngokoku	-10.4344
bayakuba	-10.4352
j	-10.4352
zabant	-10.4353
kungaka	-10.4357
engu	-10.4362
nasezi	-10.4365
mbiza	-10.439
mba	-10.4404
thandeka	-10.4419
okhokh	-10.4422
nemini	-10.4426
ezazi	-10.4446
ufana	-10.4449
mene	-10.445
uk	-10.4455
senu	-10.4482
tom	-10.4486
yeni	-10.4504
zenza	-10.4507
ebandl	-10.4521
ar	-10.4525
kow	-10.4536
zuza	-10.4538
imizi	-10.4538
kubonile	-10.454
ukuhluphek	-10.4571
2	-10.4574
tir	-10.4574
andr	-10.4575
ngikhulume	-10.458
par	-10.4586
kathath	-10.4587
umqh	-10.459
lambile	-10.4601
nele	-10.4602
busisa	-10.4609
umpho	-10.4618
phumela	-10.462
seli	-10.4632
emikhawul	-10.464
okhuluma	-10.465
eside	-10.4655
kwez	-10.466
ukwazi	-10.4676
siphuza	-10.4689
vuna	-10.47
nishumaye	-10.4709
oyi	-10.4722
ayisithu	-10.4737
umye	-10.4748
val	-10.4751
diya	-10.4753
hlakaniphile	-10.4754
dum	-10.4761
wakha	-10.4764
zela	-10.4766
now	-10.4774
yibamba	-10.4795
xosha	-10.481
eru	-10.4813
thwa	-10.4815
ngasho	-10.4818
thith	-10.4822
waso	-10.4826
bafa	-10.4837
bahlakaniphile	-10.4838
kukhulu	-10.484
qoth	-10.4846
ndaba	-10.4848
encwadi	-10.4852
nanto	-10.4858
senza	-10.4881
mbethel	-10.4885
ongwe	-10.4885
lombus	-10.4888
ngales	-10.4904
kulabo	-10.4904
vule	-10.4906
okwesitha	-10.4916
babuza	-10.4924
elis	-10.4937
silinganis	-10.4948
kubi	-10.496
fakazela	-10.4964
inxe	-10.4968
yibona	-10.4974
bengi	-10.4977
babil	-10.4988
yeli	-10.5008
ebi	-10.5008
mpande	-10.5012
esasi	-10.5032
bakhonza	-10.5036
thiya	-10.5064
mfel	-10.5078
wabanik	-10.5089
kusebenza	-10.5105
inte	-10.5112
misile	-10.5117
bekwa	-10.5122
neni	-10.5123
zithanda	-10.5125
bahlala	-10.5126
fundise	-10.5128
hloni	-10.5131
ngokom	-10.5141
uf	-10.5142
phelele	-10.5156
thethelela	-10.5157
zezi	-10.5199
ohlezi	-10.5213
kwahlulel	-10.5232
kelwa	-10.5233
boku	-10.5238
akayiku	-10.5251
nobu	-10.5261
nas	-10.5264
ezinye	-10.5269
bathumela	-10.5284
awo	-10.5295
hle	-10.53
ningena	-10.5313
ungesab	-10.5314
wezi	-10.5319
embethe	-10.5328
siyakuba	-10.5334
dale	-10.5344
r	-10.5345
ukusindis	-10.5372
bet	-10.5377
tsheli	-10.5382
ngump	-10.5386
nezinyo	-10.5397
ekufe	-10.54
su	-10.5402
hunyu	-10.5407
tshi	-10.5407
1	-10.5407
kuboshw	-10.541
ezinkulu	-10.5411
umnini	-10.5414
njengokulotshiwe	-10.5415
sokwahlulel	-10.5417
eliphezu	-10.5419
liyaku	-10.5443
mzane	-10.5447
kuzingelw	-10.5448
salo	-10.5452
nabap	-10.5466
buyisela	-10.5476
bamuka	-10.5477
kuyakuthi	-10.5491
yazini	-10.5493
aphandle	-10.5501
ncin	-10.5508
abezwa	-10.5511
imon	-10.5527
ngokufa	-10.5539
ayaku	-10.5544
uhlaka	-10.555
umphathi	-10.5561
kwenziw	-10.5563
embona	-10.5565
▁’	-10.5568
uyindoda	-10.557
lesith	-10.5571
ithole	-10.5576
mihla	-10.5578
ulu	-10.5578
nifuna	-10.5591
namukel	-10.5593
sokile	-10.5602
aso	-10.5605
umhawu	-10.5605
eva	-10.5609
nilobela	-10.5609
fela	-10.561
imbe	-10.5623
qhel	-10.5627
uhambe	-10.5629
izuze	-10.563
ngamesabi	-10.5655
mbo	-10.566
ophe	-10.568
hohlo	-10.5685
emizi	-10.5686
khiphe	-10.569
ngent	-10.5696
ezith	-10.5703
siprofeth	-10.5708
dumisa	-10.5712
nasema	-10.5731
nginge	-10.5754
manga	-10.5757
weli	-10.5777
thembekile	-10.5783
kwezi	-10.5789
ehamba	-10.5791
maba	-10.5803
isiwe	-10.5825
njeng	-10.5835
ses	-10.5845
vuthulu	-10.585
bus	-10.5876
ndi	-10.5878
bethelw	-10.5883
kuphi	-10.5889
fil	-10.5892
qambi	-10.5907
kwabase	-10.5915
ongu	-10.5927
abalungile	-10.5934
lelwe	-10.5935
ofuna	-10.5936
esixuk	-10.5938
ubo	-10.5941
ngalaleli	-10.5961
buye	-10.5966
sinagoge	-10.5967
ndwang	-10.5972
sekuphele	-10.5975
bengena	-10.5977
nangezi	-10.6006
funyanwa	-10.6021
qaphelan	-10.6034
ethemba	-10.6052
bawo	-10.6057
zifundis	-10.607
kulokhu	-10.6071
kuhamba	-10.6075
wom	-10.6075
uyihlo	-10.6078
ub	-10.6087
endun	-10.6095
isho	-10.6099
zingela	-10.6106
ngathandi	-10.612
makab	-10.6129
angiso	-10.6138
phumele	-10.6148
ber	-10.6156
kune	-10.6173
ebub	-10.6175
nasem	-10.6183
eze	-10.6194
gijima	-10.6207
pro	-10.6213
qinile	-10.6218
mkhumb	-10.6222
kukhala	-10.6227
ngemv	-10.623
dodan	-10.6232
lini	-10.6237
uphi	-10.6239
abafow	-10.6252
inama	-10.6264
angala	-10.6276
nikele	-10.6289
kuyint	-10.6291
embathisa	-10.6307
yisibon	-10.631
ket	-10.6313
apholo	-10.632
adam	-10.6321
fundiswa	-10.6325
kukhubekisa	-10.6327
bongeka	-10.6327
khubek	-10.6329
ngokuphelele	-10.6332
nakubo	-10.6351
ozaku	-10.6353
ngabant	-10.6355
ensim	-10.6361
kwambulw	-10.6365
yazisa	-10.6369
kuthethelel	-10.637
aya	-10.6373
amaziny	-10.6377
ungumprofethi	-10.6387
dukiswa	-10.6389
kulotshwe	-10.6392
ngithe	-10.6395
unywa	-10.6396
balekela	-10.6398
omnc	-10.6404
uza	-10.641
mamukele	-10.6415
ukungi	-10.6417
wezwa	-10.6421
liwe	-10.6424
ntombi	-10.6425
etha	-10.6428
zishay	-10.643
ngikusho	-10.6431
nezilim	-10.6432
abenza	-10.6436
ukuthel	-10.6439
nezindu	-10.6442
ngisa	-10.6445
cele	-10.6452
bangcolile	-10.646
sile	-10.6484
yafika	-10.6486
angina	-10.6492
ngadli	-10.6494
sihamba	-10.6519
adle	-10.6521
thuka	-10.6527
yiphi	-10.6529
ekuzwa	-10.6529
yenze	-10.6531
nohlezi	-10.6531
isela	-10.6543
lise	-10.6544
nezinye	-10.6549
lwesi	-10.655
okunjalo	-10.6557
bonakalis	-10.6565
angithandi	-10.6569
ndu	-10.6576
zesi	-10.6581
ukulwa	-10.6591
ewu	-10.6593
nombus	-10.6602
mani	-10.6614
ekuse	-10.6615
langazelela	-10.6617
kuphuma	-10.6628
sekufik	-10.6631
bazenzis	-10.6642
sezi	-10.6642
mdala	-10.6644
d	-10.6658
abahamba	-10.6659
ofe	-10.6668
angisho	-10.6669
okuthi	-10.667
iyakuba	-10.6673
nta	-10.6675
ud	-10.6677
kugcine	-10.6682
ezindaw	-10.6701
akala	-10.6703
kwaso	-10.671
leka	-10.6711
qed	-10.6728
khaphela	-10.6737
kungalaleli	-10.6738
enani	-10.6742
khiwe	-10.676
kuvele	-10.6762
ngoka	-10.6765
mnqum	-10.6771
kumi	-10.6778
ungene	-10.6795
nowa	-10.6799
embi	-10.681
akuvel	-10.6811
edwal	-10.6815
hlwanyel	-10.6816
ngento	-10.6834
ehlela	-10.6853
ndulela	-10.6855
ngam	-10.6856
kuvuk	-10.6865
iningi	-10.6878
esihog	-10.688
ntab	-10.688
bamnceng	-10.6884
ali	-10.689
ondele	-10.6896
nezinya	-10.6905
nde	-10.6912
buya	-10.6934
ziboshw	-10.6941
isile	-10.6944
kokuthi	-10.6953
ange	-10.6957
wab	-10.6969
feze	-10.6974
pi	-10.6983
bel	-10.7009
dalw	-10.7019
inzal	-10.702
amata	-10.7027
phinga	-10.7036
ezon	-10.7041
yasi	-10.7078
kobus	-10.7088
oma	-10.7089
bamukis	-10.7098
kukhulume	-10.7099
hlale	-10.7099
baphenduke	-10.7111
akhay	-10.7123
dukisa	-10.7132
izitho	-10.7137
ekuling	-10.7143
zam	-10.7145
ngobus	-10.7149
kufumana	-10.7163
kubonga	-10.7172
thunzi	-10.718
inkanyezi	-10.7182
yakwenza	-10.7186
likhi	-10.7189
ende	-10.7194
amalung	-10.7214
buyel	-10.7222
uphonsw	-10.7234
angisiy	-10.725
hlatshelwe	-10.7259
okunye	-10.726
endal	-10.7278
nikelwa	-10.7279
mhlatshel	-10.7283
cindezela	-10.7285
enqab	-10.7285
zange	-10.7286
abhu	-10.7307
cwebezela	-10.7316
gumbi	-10.7316
aleksandr	-10.7316
arki	-10.7319
sebefik	-10.7328
fundile	-10.7329
sihlale	-10.7329
faka	-10.7343
engqond	-10.7348
netha	-10.7348
siphile	-10.7351
tilong	-10.7352
menyiwe	-10.7352
anothi	-10.7353
yaluyal	-10.7359
khathazek	-10.7362
singaba	-10.7363
tra	-10.737
zizukulwane	-10.7371
lokwahlulel	-10.7378
lamba	-10.7381
mshay	-10.7387
ethandeka	-10.7395
kungco	-10.7397
ezixuk	-10.74
anikholwa	-10.7402
notho	-10.7404
aniso	-10.7409
khohlisa	-10.743
endlebe	-10.7432
mise	-10.7436
nginitshela	-10.744
izindl	-10.7442
phikisa	-10.7444
inkon	-10.7445
gcoba	-10.7446
nguwe	-10.7451
ngokubona	-10.7462
hlanzekile	-10.7466
cabanga	-10.7472
ngamafu	-10.7473
neze	-10.7474
ngokuningi	-10.7489
angena	-10.7492
kokubi	-10.7498
thunyiwe	-10.7499
uthembekile	-10.7503
namahlon	-10.7516
wavuka	-10.7527
uthela	-10.7546
wakholwa	-10.7548
hlukene	-10.755
khulumile	-10.7565
yafa	-10.7579
dabul	-10.76
fw	-10.7602
namadoda	-10.7648
komo	-10.7658
sir	-10.7659
singa	-10.7671
sebezw	-10.7677
mbonga	-10.7682
nginama	-10.7684
ngasoki	-10.7697
zawo	-10.7711
kun	-10.7712
abangama	-10.7729
bamukel	-10.7739
zindlela	-10.7742
int	-10.7753
khana	-10.7754
ngale	-10.7764
akubanga	-10.7765
elik	-10.7766
kweza	-10.7772
kwezinya	-10.7785
ntsha	-10.7787
thenga	-10.7803
akwenza	-10.7818
okuphila	-10.7825
duka	-10.7831
and	-10.785
njengama	-10.7855
lila	-10.7907
sibani	-10.7909
odla	-10.7911
ngen	-10.7911
enze	-10.792
zindlebe	-10.7938
ifu	-10.7938
ababusi	-10.7943
ezinyaw	-10.7952
bango	-10.7961
khuthalela	-10.7977
wakubo	-10.7978
ingani	-10.7982
phiwe	-10.799
ngesibo	-10.7996
eyaku	-10.8002
miswa	-10.8003
ningabe	-10.8028
abafel	-10.8032
emnya	-10.8036
yela	-10.8037
elele	-10.8044
ngizakuku	-10.8044
zipho	-10.8047
onakho	-10.8055
okufa	-10.8057
mkhonza	-10.8061
ngise	-10.8063
zama	-10.8069
kuvuny	-10.808
azenza	-10.808
kwalez	-10.8089
ngezo	-10.8098
libo	-10.8104
ngiyakum	-10.8115
thule	-10.8122
vik	-10.8136
yamuka	-10.8138
ziphendulel	-10.8139
mbhal	-10.8145
abela	-10.8147
ngwa	-10.8152
aboku	-10.8154
mev	-10.8161
bungcwele	-10.8162
kamu	-10.8162
ngiyakuba	-10.8163
anakho	-10.8178
wehla	-10.8188
umi	-10.8192
kungengoku	-10.8194
phonsw	-10.8195
tro	-10.8202
onqoba	-10.8203
khanyis	-10.8211
mfundi	-10.8216
imini	-10.823
khetha	-10.8235
she	-10.8241
lotshiwe	-10.825
abethe	-10.8251
okungena	-10.8267
wabafundi	-10.8291
neza	-10.8294
basi	-10.8295
uvuk	-10.8306
ngamadoda	-10.8308
nqunyw	-10.8311
qondile	-10.8316
ingena	-10.8326
mel	-10.8326
umka	-10.833
shumayele	-10.8339
umnya	-10.8348
kakhe	-10.8348
okungaka	-10.8354
eyisi	-10.8363
lwes	-10.8364
hloniph	-10.8367
wasukuma	-10.8373
mbeka	-10.8381
uyaphi	-10.8387
walo	-10.8399
ongakholwa	-10.8403
mahlulel	-10.8405
kaso	-10.8408
sodo	-10.8412
delela	-10.8414
kufa	-10.8418
5	-10.8427
ucez	-10.8428
chibi	-10.8428
chasisel	-10.8428
hlanza	-10.8432
likhuluma	-10.8434
jas	-10.8437
wammisa	-10.8439
dumaza	-10.8439
izincwadi	-10.8441
kubonakalis	-10.8442
babamba	-10.8443
mbongol	-10.8445
ngasoleki	-10.8448
kuhambe	-10.845
kukusindis	-10.845
stefan	-10.8452
khulile	-10.8463
ngcweliswa	-10.8466
mp	-10.8471
zila	-10.8472
aphi	-10.8473
ngalel	-10.8474
ngabap	-10.848
zigabisa	-10.8491
hlabelel	-10.8497
kubuye	-10.8507
ngitshele	-10.8507
ziyisith	-10.8508
kunale	-10.8519
bakhuleka	-10.852
wayesebabiz	-10.8528
nzal	-10.8534
ngamado	-10.8535
kha	-10.8536
yisho	-10.8546
izikhonz	-10.8558
khonze	-10.8562
sini	-10.8575
ul	-10.858
nganhliziyo	-10.8591
okuqond	-10.8594
sikhundl	-10.8596
sisi	-10.8604
hlangulis	-10.8614
mbele	-10.8617
guqa	-10.8619
ngele	-10.8619
yobu	-10.8629
angizang	-10.8631
ngokwa	-10.8632
nqamuk	-10.8633
kwala	-10.8633
udle	-10.8644
phelelisiwe	-10.8658
angazi	-10.8662
bambulal	-10.8664
sizini	-10.8667
yesith	-10.8668
cho	-10.8673
khombis	-10.868
guqul	-10.8682
okodo	-10.8689
yaya	-10.8692
ukuma	-10.8707
shilo	-10.871
okuku	-10.8711
nxanel	-10.8728
gan	-10.874
ezwa	-10.8742
nya	-10.8745
shisekel	-10.8785
ukuphenduk	-10.8798
abanjalo	-10.8799
yom	-10.8807
swa	-10.8815
nen	-10.8815
wala	-10.8827
okoku	-10.883
nxazo	-10.8834
ngezind	-10.8866
zona	-10.8877
indlal	-10.889
olub	-10.8891
qhutsh	-10.8908
vub	-10.8908
zidla	-10.8954
ziyi	-10.8955
nezimp	-10.8969
bamyis	-10.8972
ningam	-10.8977
sithel	-10.8981
funani	-10.8983
lobela	-10.8984
impande	-10.8993
gqolozel	-10.8997
meyo	-10.901
sibone	-10.9029
awusi	-10.9032
ila	-10.9033
misela	-10.908
ehlo	-10.9083
nezinto	-10.9094
benyama	-10.9095
owaba	-10.9102
lingwa	-10.9109
nemp	-10.9111
angali	-10.9112
ngangi	-10.9121
thwale	-10.9128
abangakholwa	-10.9128
ezinkanuk	-10.9129
ste	-10.9137
enama	-10.9138
ukubiz	-10.9173
sekuyi	-10.9179
sithombe	-10.918
mlalela	-10.9184
uyakusindis	-10.9203
bathath	-10.9217
kubola	-10.9229
ukusho	-10.9233
sifazane	-10.9237
ngezili	-10.9242
phuzisa	-10.9244
shisa	-10.9255
yizwi	-10.9263
bayizi	-10.9274
ezinda	-10.9277
yab	-10.9293
nginilobel	-10.9296
sigqila	-10.9299
ababizi	-10.9304
wamangal	-10.9305
ngiza	-10.9312
gqok	-10.932
esithi	-10.932
sar	-10.933
sibusis	-10.9331
isifundis	-10.9339
bela	-10.9341
ningab	-10.9348
ari	-10.9356
sekuf	-10.9359
kwabuth	-10.9365
okudal	-10.9373
beli	-10.9387
re	-10.9398
nte	-10.9399
ukela	-10.9402
baleth	-10.9404
boba	-10.9437
manyal	-10.9437
siyo	-10.9448
okom	-10.9454
balandela	-10.9454
kuhlanganyel	-10.9462
ndiswe	-10.9464
philisa	-10.9468
cebile	-10.9469
babule	-10.9494
bambelel	-10.9503
elise	-10.9508
emikhulek	-10.9524
nayi	-10.9524
khulelwe	-10.9533
phithi	-10.9534
inza	-10.954
wamukele	-10.9544
ngenze	-10.9544
yokulung	-10.955
yeba	-10.9559
lobu	-10.9567
neliy	-10.9588
okuza	-10.9592
ndiswa	-10.9623
ibi	-10.9629
samukela	-10.9632
di	-10.9633
geza	-10.9646
wadabu	-10.9646
inye	-10.9648
yiso	-10.9654
bebe	-10.9659
nginoku	-10.9665
nikhuleke	-10.9667
izim	-10.9668
gceke	-10.9677
weqa	-10.9677
mbhinq	-10.9677
khuren	-10.9678
suse	-10.9678
lahlekile	-10.9679
duma	-10.9686
zisindise	-10.9686
ukuyobona	-10.9687
ntshon	-10.9692
kushumayela	-10.9694
mbuzi	-10.9694
balekele	-10.9698
nezikhulu	-10.97
ngqongqotha	-10.97
deki	-10.9703
kise	-10.9706
nabangena	-10.9707
leh	-10.9708
nakekela	-10.9708
khulumisa	-10.9714
nesishiyagalo	-10.9717
minyanis	-10.9717
shiwo	-10.9721
hlalisa	-10.9725
mafu	-10.9727
luva	-10.9727
sekuhlw	-10.973
bahambe	-10.973
bafel	-10.9734
ngisindis	-10.9747
kuthanda	-10.9749
hlanganis	-10.9751
ngihawukel	-10.9754
limaza	-10.9759
ungaphing	-10.976
zani	-10.9764
abahlezi	-10.9764
wabayi	-10.9765
nokuqond	-10.9767
indwang	-10.9772
ngokwesith	-10.9774
bamdumisa	-10.978
ayese	-10.978
basuka	-10.9783
nithethelela	-10.9784
mthomb	-10.9785
ndisa	-10.9797
ingco	-10.98
thandi	-10.98
sim	-10.9809
safa	-10.9809
kuswelekile	-10.9816
umahlulel	-10.9841
bulale	-10.9855
abu	-10.9859
kusa	-10.986
zivela	-10.9862
ubone	-10.9873
akaze	-10.9874
nakini	-10.9878
lis	-10.9886
umbon	-10.9897
ohlis	-10.9905
buqinisile	-10.9908
yithanda	-10.9916
ekile	-10.9929
nkathi	-10.9936
niyi	-10.9947
buthong	-10.9951
alf	-10.9955
hleba	-10.9962
beze	-10.9963
kwahlulelw	-10.9966
ngesihl	-10.9971
izaku	-10.9974
kusiza	-10.998
ukuthanda	-10.9985
mikhulek	-10.9985
qaphela	-10.9992
wenyukel	-10.9995
ngamad	-10.9998
akele	-10.9998
akube	-11.0001
siphe	-11.0003
okuyiz	-11.0015
yalez	-11.0018
vikel	-11.0018
ngelika	-11.0032
ngeson	-11.0033
bangabi	-11.0034
amukele	-11.0035
abakhuleka	-11.0054
kungum	-11.0056
gcwalisek	-11.0059
izilim	-11.0064
umus	-11.0074
wakhuphuk	-11.0076
engiku	-11.008
thembeka	-11.0085
yesi	-11.0086
mini	-11.0086
waphind	-11.0103
bema	-11.0103
lungu	-11.0116
lungiselwe	-11.0119
ochok	-11.0124
ondo	-11.0125
isabe	-11.0132
mphathi	-11.0134
ngalob	-11.0134
lenze	-11.0135
buzana	-11.0151
akenz	-11.0155
uyakuphi	-11.0158
ziye	-11.0161
lube	-11.0166
mathun	-11.0182
sino	-11.0183
benzi	-11.0186
andulela	-11.0196
siba	-11.0208
obaba	-11.0209
ngane	-11.0212
kungenge	-11.0234
yinto	-11.0236
wayesem	-11.0238
ukuzi	-11.0241
ongesi	-11.0259
abacebile	-11.0268
ufakazi	-11.027
thinti	-11.0275
vumela	-11.0284
ziwe	-11.0302
dinga	-11.0305
uhlale	-11.0312
nabanga	-11.0313
phonse	-11.0323
enca	-11.0331
ngibuye	-11.0336
bizela	-11.0339
yez	-11.0346
nokw	-11.0351
uzi	-11.037
kwabonakal	-11.0373
enzela	-11.0382
dakwa	-11.0395
qhuzu	-11.04
etshe	-11.0406
ngapheli	-11.0412
mbela	-11.0412
elimn	-11.0412
nezing	-11.0416
nezimv	-11.0419
embez	-11.042
kukhulek	-11.0422
okunje	-11.0434
luya	-11.0434
wabapha	-11.0439
sifanele	-11.0452
njengokush	-11.0454
yawa	-11.0482
mhl	-11.0483
nakwaba	-11.0507
thukulul	-11.0508
gcini	-11.0513
ndile	-11.0518
khiwa	-11.0521
mile	-11.0525
okulotshiwe	-11.0527
msind	-11.0531
ebo	-11.0576
yithatha	-11.0579
kuthwala	-11.0579
kwemi	-11.058
yakwa	-11.059
kulula	-11.0593
x	-11.0604
sengiya	-11.0605
impa	-11.0612
yanga	-11.0614
ayeli	-11.0622
mbul	-11.0625
qhweb	-11.0629
izin	-11.0631
vimb	-11.0646
sisha	-11.0648
emse	-11.0676
bule	-11.0679
ivela	-11.07
kuhlanjululwa	-11.0706
keni	-11.0711
abathe	-11.0718
sama	-11.073
bunga	-11.0755
lawod	-11.0767
diliz	-11.0775
nyoko	-11.0781
thengisa	-11.0782
ayida	-11.0782
yinhl	-11.0785
phindisel	-11.0791
owahlulela	-11.0793
ngakwazi	-11.0793
kungcol	-11.0811
zincoma	-11.0815
ubani	-11.0816
thande	-11.0821
zithiba	-11.0823
feza	-11.0827
engikwenz	-11.0827
wabafundis	-11.083
aman	-11.0841
owam	-11.0847
nesithu	-11.0851
umbu	-11.0854
inkulu	-11.0874
imith	-11.0878
bagcwal	-11.0893
muphi	-11.0901
aban	-11.0904
mak	-11.0907
uthabath	-11.091
babhapathizw	-11.0912
ngowo	-11.0913
vumi	-11.0924
mbisa	-11.0927
miselwe	-11.0931
den	-11.0934
muke	-11.0951
ngow	-11.0957
hlephula	-11.0961
mnikel	-11.0965
uzakuthi	-11.0966
izwa	-11.0976
sizaku	-11.0978
afe	-11.099
solwa	-11.0992
bonwe	-11.1001
indlebe	-11.1023
zithi	-11.1028
lala	-11.1031
nakwab	-11.1032
nhlobo	-11.1036
bathanda	-11.1037
beno	-11.1037
ngamath	-11.104
elihle	-11.1041
ngimi	-11.1046
ney	-11.1047
gala	-11.1051
abancin	-11.1053
usi	-11.1055
qaba	-11.1062
lobo	-11.1068
dunyisw	-11.1072
kuswela	-11.1074
kunja	-11.1077
zele	-11.108
elithi	-11.1082
kusithek	-11.1086
bunzi	-11.1087
nginitsheli	-11.11
ngamukela	-11.11
qaphele	-11.11
bets	-11.1105
naki	-11.1105
gedla	-11.1106
iziqa	-11.1106
gingq	-11.1106
gongol	-11.1106
phakanyisw	-11.1106
etaful	-11.1106
hlatshwa	-11.1108
mkhathi	-11.1109
inkath	-11.1109
badle	-11.1109
phuzi	-11.1112
andulele	-11.1113
esaba	-11.1114
sicebi	-11.1115
anisibo	-11.1117
betho	-11.1119
phathwa	-11.112
ungabu	-11.112
zinsukw	-11.1122
nodadew	-11.1123
lahlwe	-11.1123
sela	-11.1124
bafanele	-11.1126
yema	-11.1134
zibonge	-11.1135
basuth	-11.1144
indaba	-11.1149
hudulel	-11.1149
zingulube	-11.1149
wobu	-11.1152
izinhla	-11.1155
benzela	-11.1159
kwakha	-11.1165
ngacim	-11.1166
izink	-11.1175
sethempeli	-11.1176
eson	-11.118
mfula	-11.1181
lungisele	-11.1183
fun	-11.1184
kuyakum	-11.1185
womile	-11.119
noval	-11.1196
lud	-11.1197
eyenziw	-11.1201
ahambe	-11.1204
kuswele	-11.1215
nikhumbuza	-11.1226
uyakuthi	-11.123
bakhonona	-11.1233
bashumayela	-11.1246
bememeza	-11.125
buni	-11.1252
utshani	-11.1253
sihlephula	-11.1253
sine	-11.1261
abonakalis	-11.1263
mathe	-11.1265
lathi	-11.127
khandleka	-11.1271
mamukela	-11.1291
ngeni	-11.1294
zithoba	-11.1299
mele	-11.1299
zakuba	-11.1305
ufanele	-11.1305
chithek	-11.1313
isitha	-11.1314
abathandeka	-11.1315
unec	-11.1317
zab	-11.1319
ngabahlanganyel	-11.1324
isihl	-11.1326
sesifi	-11.1326
mhawukela	-11.1337
okufanele	-11.1338
engaka	-11.1356
akwenzile	-11.1358
mphongol	-11.1358
ngaziwa	-11.1365
ngabazi	-11.1366
wanikwa	-11.1371
bayibulal	-11.1381
emgod	-11.1387
esingesi	-11.139
bambe	-11.1391
linganis	-11.1394
samu	-11.1396
mnt	-11.1408
akha	-11.1415
anyisw	-11.1416
swele	-11.1418
kawu	-11.1421
siwe	-11.1422
asho	-11.1435
siyakuthi	-11.1439
misiwe	-11.1448
ngokwen	-11.1455
njengokwe	-11.1455
wavuma	-11.1478
baphume	-11.1478
thusi	-11.1487
qiniswa	-11.1491
kusondel	-11.1501
lindi	-11.151
siyizi	-11.1511
nezida	-11.1511
nhlan	-11.1518
langabi	-11.1521
mona	-11.1523
zenzisi	-11.1529
obezaku	-11.1532
kuziphendulel	-11.1547
sihawukel	-11.1555
wanga	-11.1558
izinkulungwa	-11.1567
akazi	-11.1572
esingenam	-11.1575
nakuzwa	-11.1586
sitsh	-11.159
olunga	-11.1597
isiphi	-11.1604
ngikhaphela	-11.1607
yinye	-11.1611
senze	-11.1611
thengisi	-11.1613
chith	-11.1635
liyi	-11.1639
asina	-11.1642
kubulala	-11.1645
kre	-11.1658
izif	-11.1659
abesi	-11.166
enqo	-11.1663
koze	-11.1679
nothile	-11.1686
mayi	-11.1709
benginga	-11.1711
koniy	-11.1724
yesaba	-11.1726
ngaku	-11.174
kayi	-11.1741
mam	-11.1755
sale	-11.1756
ngowase	-11.177
iziny	-11.1779
kwabanga	-11.1783
thembisa	-11.1791
lusiz	-11.1833
holi	-11.1836
nakulo	-11.1851
babutha	-11.1857
ulwa	-11.1859
kwehlela	-11.1859
lisiwe	-11.1861
vumele	-11.1871
hola	-11.1878
uphe	-11.1891
kukhetha	-11.1892
banika	-11.1892
wayeseba	-11.1894
nigcwalis	-11.1897
uzakuni	-11.1914
ngafi	-11.1917
tshwa	-11.1919
bonisi	-11.1926
nim	-11.1929
suke	-11.1932
ungabi	-11.1936
nez	-11.194
empum	-11.1941
ngokunye	-11.1953
mboph	-11.196
siyana	-11.1964
mukeliswa	-11.1973
wamanga	-11.198
uqinisile	-11.198
abaku	-11.1987
kababa	-11.1996
guquka	-11.2002
zithel	-11.2007
ukukhulul	-11.2013
pholi	-11.2013
inko	-11.2017
singabant	-11.2024
hange	-11.2025
owo	-11.2028
uvela	-11.2036
anika	-11.2036
ukulahl	-11.2036
baph	-11.2039
akuna	-11.2048
zakufa	-11.2053
mntana	-11.2064
kubonakala	-11.2067
lamukela	-11.2074
ngaphi	-11.2082
inyo	-11.2093
riy	-11.2104
cindezel	-11.2104
semnya	-11.2115
funyanw	-11.2119
ezintab	-11.2124
vumelana	-11.2125
sitshel	-11.2133
ilong	-11.214
yesin	-11.2143
ululela	-11.2156
sebu	-11.217
bewu	-11.217
ngabhubhi	-11.2177
shumayez	-11.2183
angiyiku	-11.2184
angisi	-11.2185
bangam	-11.2204
fumani	-11.2224
nangu	-11.2237
mana	-11.2237
ndwe	-11.2238
khulekela	-11.2241
gaba	-11.2254
bekezelela	-11.2258
okwesith	-11.2262
efa	-11.2265
emith	-11.227
esengen	-11.2271
ngas	-11.2274
njengase	-11.2274
angabi	-11.2284
mnya	-11.2287
engizaku	-11.2288
ngishumayel	-11.2288
bambamb	-11.2289
ndo	-11.2293
wababiz	-11.2304
mela	-11.2308
bukhulu	-11.2319
yin	-11.2325
zigcwele	-11.2338
ningazi	-11.2342
bahlulel	-11.2355
hlan	-11.2359
ungasho	-11.2379
kuvu	-11.238
bekuzw	-11.2383
thukuthelel	-11.2383
yath	-11.2384
umkhu	-11.2386
ngiyam	-11.2386
mthumile	-11.2395
shiwe	-11.2403
ngamukeli	-11.241
ngakhulumi	-11.2413
ekuvu	-11.2417
ngiyakuku	-11.2426
ngumbus	-11.2428
yindoda	-11.2442
sidal	-11.2443
lingaka	-11.2449
nilinde	-11.2453
ezwi	-11.2456
yizin	-11.2468
akaso	-11.2472
baphulukis	-11.2477
nenhla	-11.248
ezingena	-11.2485
nivam	-11.25
isigqila	-11.2515
lwaba	-11.2515
gange	-11.2517
amafu	-11.2517
khulume	-11.2521
owesi	-11.2522
swela	-11.2537
wothand	-11.2541
mfow	-11.2546
kwenzele	-11.2549
eniyakuku	-11.2555
ogw	-11.2564
bhapathizi	-11.2566
nise	-11.2572
dli	-11.2583
sebenzela	-11.2591
izindlela	-11.2604
lamul	-11.2608
esivini	-11.2608
funela	-11.261
sigcin	-11.2617
nifund	-11.2627
ngumfundi	-11.263
bhapathizwe	-11.2631
bengaba	-11.2639
bongi	-11.2642
gay	-11.2642
du	-11.2644
ihlaz	-11.265
ethemb	-11.2653
kwakunge	-11.2653
basindisw	-11.2662
nenya	-11.2663
wayeba	-11.2667
kudlule	-11.2678
okungco	-11.2691
akuyiku	-11.2697
kuhlwanyel	-11.2699
mbulal	-11.2715
bafike	-11.2717
esibi	-11.272
nizwa	-11.272
ngim	-11.2724
lwand	-11.2731
senziw	-11.2731
umum	-11.2731
yehla	-11.2732
zibona	-11.2739
eyayi	-11.2747
ezimvab	-11.2754
shiye	-11.2756
sihlwa	-11.2757
bapha	-11.2758
avam	-11.2762
ezigc	-11.2765
ngithokozi	-11.2765
ezincek	-11.2769
mbonile	-11.2772
izakukh	-11.2772
iniga	-11.2773
ngcwelisa	-11.2773
pont	-11.2773
kuhuhek	-11.2773
adiy	-11.2773
funyaniswa	-11.2773
mbhede	-11.2773
selit	-11.2773
khafulel	-11.2773
sambathek	-11.2773
hlanjalazwa	-11.2773
anifund	-11.2776
valelisa	-11.2776
esambath	-11.2777
funisisa	-11.2777
usulu	-11.2779
eseqed	-11.2779
abathath	-11.278
abern	-11.2783
ngukufa	-11.2783
bayishay	-11.2783
zikhukhumez	-11.2787
kuzila	-11.2787
kokudal	-11.2788
endod	-11.279
shiywa	-11.279
besahamba	-11.2793
eline	-11.2796
ngidumisa	-11.2799
lize	-11.2801
lokufa	-11.2802
ningahlulel	-11.2808
phunyuka	-11.2809
ningaze	-11.281
uphume	-11.2812
yizwani	-11.2813
olekile	-11.2815
ngingoka	-11.2818
lokugcina	-11.282
akusiy	-11.282
wenzile	-11.2825
pris	-11.2828
zuz	-11.2831
ngemizi	-11.2832
ngobum	-11.2838
bahawukel	-11.2844
ayisishiyagalo	-11.2844
olwa	-11.2852
kululek	-11.2856
ngcwelisiwe	-11.2858
oyisim	-11.2858
yomp	-11.2859
kungene	-11.2862
njengesel	-11.2863
ongayiku	-11.2863
belusi	-11.2865
sendl	-11.2868
obizw	-11.2868
amuke	-11.2869
nibuthan	-11.287
mesab	-11.2871
sisa	-11.2872
sesang	-11.2874
kuthuka	-11.2874
phepha	-11.2874
ubeke	-11.2875
nsim	-11.2875
ukuthatha	-11.2879
inkokh	-11.2888
okus	-11.2888
ababez	-11.2889
ekuphum	-11.2893
sinda	-11.2894
engiyaku	-11.29
yizinhlobo	-11.2904
uthuli	-11.2908
ezindl	-11.291
elokugcina	-11.2914
iziphi	-11.2918
ningangeni	-11.2924
hleka	-11.2927
bathele	-11.2927
engingaku	-11.294
ngamac	-11.2947
kulahl	-11.2948
okunc	-11.2949
buyisana	-11.295
ngokwazi	-11.295
engceb	-11.2952
akabe	-11.2955
maninga	-11.2957
dlulile	-11.2959
bathand	-11.2964
akade	-11.2975
ayinike	-11.2979
khotham	-11.2982
yinceku	-11.2984
nginika	-11.2993
yipha	-11.2993
herodiy	-11.2994
ingum	-11.2995
buyisan	-11.3003
lwi	-11.3003
wehlelw	-11.3004
tshani	-11.3006
nqume	-11.3022
senyam	-11.3031
hekile	-11.3032
yizimp	-11.3033
izazi	-11.3041
ngaphathi	-11.3044
athen	-11.3047
dlela	-11.3051
ngatheli	-11.3052
niphum	-11.3057
ahlulela	-11.3059
lwabo	-11.3062
philile	-11.3064
ngina	-11.3064
akw	-11.3069
ningethu	-11.3074
pham	-11.308
nenk	-11.3108
kulungile	-11.3113
thelwe	-11.312
ebengi	-11.3127
ziwa	-11.3129
ngipha	-11.3132
unja	-11.3134
wavela	-11.3134
inyang	-11.3144
sebandl	-11.3149
kweso	-11.3149
buntwan	-11.3149
olahla	-11.3151
uyakuvu	-11.3157
luleka	-11.3159
ohlwanyel	-11.316
nyakazisa	-11.3174
unguku	-11.3182
hlis	-11.3184
wambona	-11.3194
vamile	-11.321
yinquma	-11.3216
dlile	-11.322
phelela	-11.3225
boshwe	-11.3227
linjenge	-11.3228
qinisela	-11.3232
wayenga	-11.3233
khalela	-11.3233
ezela	-11.3237
sibosh	-11.3237
singab	-11.3239
nangokuthu	-11.324
njiwe	-11.3242
esinama	-11.3254
amahla	-11.326
emhl	-11.3273
nikile	-11.3276
bekile	-11.3278
ngingaz	-11.3291
hlola	-11.3294
esise	-11.3299
amukeliswa	-11.3299
ngcolisa	-11.3303
phelelisw	-11.3311
ngifika	-11.3314
ozibonga	-11.3322
uthethelelw	-11.3322
lingi	-11.3323
abagan	-11.3325
elinga	-11.3332
bamukela	-11.3336
kungo	-11.3337
kushilo	-11.3345
wababusi	-11.336
bashiya	-11.3362
yes	-11.3364
nangom	-11.3368
kungase	-11.3374
kulandela	-11.3384
owasi	-11.3387
abalizwa	-11.3389
izela	-11.3395
abadla	-11.34
babalek	-11.3403
abazaku	-11.3411
uyakwamukel	-11.3412
ziba	-11.3416
ebhe	-11.3416
c	-11.3427
bemli	-11.3427
esephum	-11.3432
kakho	-11.3437
iva	-11.3454
bavusel	-11.3461
ukwambul	-11.3467
ngiba	-11.3483
yaliwe	-11.3486
hlisa	-11.3486
baphila	-11.3488
njengabant	-11.3489
nibuza	-11.3505
sisondel	-11.3506
sil	-11.3509
nezithe	-11.3515
banike	-11.352
kubekezel	-11.353
duduza	-11.3541
umntana	-11.3543
ngafuni	-11.3554
ngesilo	-11.3558
olile	-11.3562
namac	-11.3563
zisho	-11.3569
zin	-11.3571
lindele	-11.358
zakwazi	-11.3589
okwam	-11.3591
ngokum	-11.3602
zibophe	-11.3603
ngazalwa	-11.3606
ngab	-11.3607
sekudlul	-11.3611
babela	-11.3614
nezink	-11.3622
ukusi	-11.3628
fundisiwe	-11.3631
owavus	-11.3636
mbon	-11.3657
kushay	-11.3669
basha	-11.3672
ndeni	-11.3672
nyakaziswa	-11.3684
kuyis	-11.3686
abakhuluma	-11.3691
okuya	-11.3694
wesa	-11.3705
ngamalung	-11.371
kuchitha	-11.371
yangithanda	-11.3711
otha	-11.3713
ubuye	-11.3719
tshala	-11.3722
ula	-11.3724
nokubekezel	-11.3734
sola	-11.3734
emizan	-11.3735
ihlezi	-11.3737
kuchith	-11.3739
yenziw	-11.3752
thethelele	-11.3753
ifike	-11.3757
ufuna	-11.3764
balwa	-11.3769
umba	-11.378
abayizi	-11.379
njwa	-11.3794
angisayiku	-11.3795
amasa	-11.3804
khuthalel	-11.3823
ngokuhle	-11.3827
ngenama	-11.3837
njengab	-11.3843
khawul	-11.3845
hlile	-11.3847
macal	-11.385
hlwa	-11.3858
siphila	-11.3868
zingane	-11.3869
sifa	-11.3895
ngaphenduki	-11.3896
lakwa	-11.3902
ngokuso	-11.3913
wile	-11.3921
enzeki	-11.3924
akuso	-11.3925
ngezins	-11.3943
kwenzekile	-11.3951
nahlulel	-11.3959
okulungi	-11.3962
kwenzek	-11.3971
hlabathi	-11.3985
sikhw	-11.3986
kweba	-11.4001
akhuleke	-11.4009
bhapathizelwa	-11.4013
waphenduk	-11.4014
meli	-11.4021
imibu	-11.4025
gomo	-11.4032
basondela	-11.4042
ngaya	-11.4046
batshela	-11.4047
emibhal	-11.4051
namathel	-11.4061
zeli	-11.4062
ngokwenza	-11.4104
nizonda	-11.4112
hlaba	-11.412
en	-11.4129
enc	-11.4133
okubonwa	-11.4148
bhujisw	-11.4152
wayesethath	-11.4167
wabe	-11.4173
zifakazela	-11.4175
ngayiku	-11.4176
kubonakalisw	-11.4179
yison	-11.4184
ngikhonze	-11.4188
izimpi	-11.4189
ulungile	-11.4195
dabukisw	-11.4203
mukeli	-11.4216
beya	-11.4223
phumi	-11.423
engazi	-11.423
ngaboni	-11.4237
baphile	-11.424
ongathi	-11.4243
isih	-11.4254
zizwa	-11.4263
uzakungi	-11.4275
nifundisa	-11.4278
wahlukene	-11.4297
ungayi	-11.4299
semihl	-11.43
ukuvun	-11.4302
dumile	-11.4306
yale	-11.4309
ngiyisi	-11.431
phuc	-11.4318
mukis	-11.4327
lale	-11.433
ngabaza	-11.4331
hlwith	-11.4333
ungang	-11.4334
esigc	-11.4334
nang	-11.4335
nokubi	-11.4337
hlali	-11.4351
okusha	-11.4361
ukukhulule	-11.4374
vulek	-11.4383
sizo	-11.4388
fanis	-11.4389
abanc	-11.439
nesih	-11.4398
sakhiw	-11.4401
bekiwe	-11.4414
iki	-11.4419
bayakuni	-11.4421
simi	-11.4423
masang	-11.4437
yidla	-11.4439
benyukel	-11.4444
welul	-11.4449
ngukulung	-11.4451
ezinde	-11.4455
emibi	-11.4463
buth	-11.4465
kwabayi	-11.447
yichi	-11.4476
ngephu	-11.4483
ngezint	-11.4483
waga	-11.4483
uyaphil	-11.4484
wehle	-11.4497
bathokoza	-11.4498
kungak	-11.4505
siphambe	-11.4512
khulunywa	-11.4514
nimi	-11.4518
ngikwazi	-11.4519
edabul	-11.4526
wangu	-11.453
yalel	-11.4532
kuzaku	-11.4533
insiz	-11.4539
ukuphelel	-11.4541
isay	-11.455
mzuz	-11.455
vunyiwe	-11.4552
ukula	-11.4555
amthanda	-11.4557
oze	-11.4568
nezind	-11.4575
siko	-11.4581
singabe	-11.4596
aris	-11.4597
bile	-11.4599
ngihamba	-11.4601
ngokuz	-11.4603
kuseyi	-11.462
awus	-11.4623
ukhulul	-11.4633
bakhala	-11.4635
dons	-11.4638
lam	-11.4641
elibi	-11.4641
ukubhapathiz	-11.4654
kuseza	-11.4659
nitshele	-11.4661
ngabafundisi	-11.4662
vutha	-11.4662
ngombus	-11.4663
mful	-11.4666
sethu	-11.4676
klebhul	-11.4676
dlule	-11.4681
shiyi	-11.4681
imim	-11.4692
esehla	-11.4699
benja	-11.4714
mfumana	-11.472
athane	-11.4725
lulele	-11.473
dingek	-11.4734
ukhathalel	-11.4746
cish	-11.4749
phelelise	-11.4751
ashiyw	-11.4751
esifub	-11.4752
enyusel	-11.4753
khohlisi	-11.4753
hlambuluk	-11.4754
imikhu	-11.4755
ukuyi	-11.4757
ngcwelise	-11.4759
elic	-11.476
ababemi	-11.4761
giyo	-11.4764
ulimi	-11.4765
zibekelel	-11.4769
sukw	-11.4771
ezingulube	-11.4772
4	-11.4773
pherg	-11.4773
ncintisana	-11.4773
nikhumbule	-11.4773
yembatha	-11.4773
goqw	-11.4773
kufiphazw	-11.4773
linqaba	-11.4773
ephafr	-11.4773
khumul	-11.4773
khathalel	-11.4773
ithakal	-11.4773
nawodadew	-11.4774
zihlambulul	-11.4774
zinganekwane	-11.4774
gubuzel	-11.4774
eyihla	-11.4777
engiyakum	-11.478
wayenamadoda	-11.478
uqinise	-11.4783
udadew	-11.4784
dazuluk	-11.4784
sithume	-11.4785
alikho	-11.4785
luk	-11.4785
yamukela	-11.4786
bahlulek	-11.4786
ezindlel	-11.4787
entan	-11.4788
sishiye	-11.479
izelwa	-11.479
sard	-11.4794
ekamel	-11.4796
bhidliza	-11.4797
kwaphuc	-11.48
sanguluk	-11.48
bashayw	-11.4801
did	-11.4801
pheme	-11.4802
nabangalaleli	-11.4803
wenziwa	-11.4805
zabapho	-11.4807
abenzi	-11.4816
kwamukele	-11.4817
kujul	-11.4817
sishwabene	-11.482
enzal	-11.482
nime	-11.4823
mduduz	-11.4824
bakhubek	-11.4824
kuqonde	-11.4825
ushane	-11.483
abangayiku	-11.483
kumfow	-11.4832
obekuzaku	-11.4833
basuke	-11.4833
kwabalungile	-11.4836
esiyi	-11.4836
vivinya	-11.4839
ngiyakwenza	-11.484
kobu	-11.4842
kabana	-11.4842
iziboph	-11.4852
khishw	-11.4852
kwaph	-11.4853
beqala	-11.4859
kump	-11.4859
libi	-11.4862
mfuma	-11.4864
nginikhu	-11.4868
sibalo	-11.4868
bizele	-11.4869
nansi	-11.4874
kangi	-11.4875
agcwalise	-11.4876
fuman	-11.4878
ngakwenza	-11.488
lizwi	-11.488
ngizakwenza	-11.4884
kwelase	-11.4885
semi	-11.4896
akasi	-11.4898
avela	-11.4898
ukhulume	-11.49
abangaba	-11.4904
fike	-11.491
bahlal	-11.4911
dede	-11.4914
makunga	-11.4915
nibambelel	-11.4916
okungaye	-11.4918
kubandezek	-11.4918
julile	-11.4919
bathunyelw	-11.4923
esifanele	-11.4926
kwenzelwe	-11.4927
kumiselwe	-11.4928
yizindl	-11.4928
sici	-11.4929
zotha	-11.4935
ningabaka	-11.494
esevuk	-11.4943
abasho	-11.4949
bart	-11.4951
engikusho	-11.4958
amu	-11.496
okungayikwa	-11.4964
kudingek	-11.4966
ici	-11.4972
yahlulela	-11.4975
ikhazimulis	-11.4982
waqhubek	-11.4983
iphile	-11.4986
qhubekel	-11.4988
kungenga	-11.5
naseku	-11.5003
engali	-11.5004
engump	-11.5004
wathola	-11.5005
nokufa	-11.5007
abasha	-11.5009
nokuthanda	-11.5009
ufanis	-11.501
uden	-11.5014
phanga	-11.5021
myal	-11.5023
matha	-11.5025
ngabafundi	-11.5027
enginga	-11.5032
kholiwe	-11.5035
nabesi	-11.5039
okuba	-11.504
balamukele	-11.5042
zenzile	-11.5044
qalekisiwe	-11.505
isid	-11.5054
esese	-11.5055
obunga	-11.5059
iyakuzond	-11.5063
okungabon	-11.5067
awuyiku	-11.5067
aphuma	-11.5077
nikhulekela	-11.5079
nyazi	-11.5079
eziza	-11.508
nqobe	-11.5085
nyamalal	-11.5088
uyisi	-11.5089
kuhluphek	-11.5089
sikwazi	-11.5093
nasin	-11.5105
sifik	-11.5105
esingu	-11.5107
wasithanda	-11.5108
liphilile	-11.5115
nowoku	-11.5116
abathanda	-11.5118
neson	-11.5118
uhamba	-11.5123
umhum	-11.5126
kusilele	-11.5131
sifinyelel	-11.5132
nyaz	-11.5132
zim	-11.5133
obukhulu	-11.5154
wayehlez	-11.516
hambela	-11.5161
babulal	-11.5166
wathum	-11.517
ngaqondi	-11.5172
ngumprofethi	-11.5174
thandiwe	-11.5191
kuvam	-11.5191
ngayazi	-11.52
zamanga	-11.52
isazi	-11.5202
kujezis	-11.5202
kuyihl	-11.5209
fenik	-11.5215
vunguz	-11.5215
ubutha	-11.5216
bacebile	-11.5222
eliza	-11.5223
imbal	-11.5227
kulinganis	-11.5228
nihawukel	-11.5228
koba	-11.525
uswa	-11.5254
owadal	-11.5257
omi	-11.5259
mzingela	-11.5265
phathi	-11.5267
angifuman	-11.5271
kubaph	-11.5277
zilinganis	-11.5283
sasinga	-11.5284
zenzis	-11.5295
kufunda	-11.53
tam	-11.5301
vimbel	-11.5302
vuselela	-11.5308
wayengu	-11.5312
uyayi	-11.5327
roni	-11.5333
eng	-11.5339
bakhulule	-11.5343
uthul	-11.5347
hawukela	-11.535
zithobe	-11.5353
kuzakub	-11.5354
zindab	-11.5356
umfan	-11.5359
ingabe	-11.5363
luthi	-11.537
ngiy	-11.5383
njengam	-11.5389
bajezis	-11.5397
bugqil	-11.54
hlanjululwa	-11.54
amas	-11.5401
ziphathi	-11.5408
uzakuza	-11.5422
bathengisa	-11.5432
ezelwe	-11.544
nisindis	-11.5453
hlengwa	-11.5454
buzela	-11.5456
iko	-11.5459
okomo	-11.5459
esish	-11.5461
kunjengo	-11.5466
nipha	-11.5467
ngikhiph	-11.5469
asid	-11.547
anizang	-11.5476
banjw	-11.5477
aphulw	-11.5481
mangalelwa	-11.549
niyakuba	-11.5508
ngabuyel	-11.5513
izinka	-11.5526
namad	-11.5532
akasiy	-11.5533
eyisa	-11.5539
kubhubh	-11.5543
okwenza	-11.5544
fakelw	-11.5552
akukuhl	-11.5552
ulele	-11.5555
ngofakaz	-11.5556
bumpof	-11.5572
wengu	-11.5578
idili	-11.5584
amnceng	-11.5597
abakhe	-11.5614
abangasoki	-11.5616
nishisekel	-11.5622
kwesa	-11.5628
ngenhla	-11.5631
ungebi	-11.564
way	-11.5641
abeza	-11.5641
akubona	-11.5644
ezingak	-11.5662
hlole	-11.5682
esingaka	-11.569
siku	-11.5692
ufik	-11.5693
qali	-11.57
zihlobo	-11.5713
lingena	-11.5717
yis	-11.5735
kulidl	-11.5738
ding	-11.5738
ilungel	-11.5744
engakholwa	-11.5758
zise	-11.577
ombus	-11.5771
esebuy	-11.5773
ngesen	-11.5777
wayeseqal	-11.5782
yombu	-11.5786
bayeke	-11.5796
sahlukanis	-11.5796
ukisa	-11.5801
aniyiku	-11.5802
uyale	-11.5804
yakwahlulel	-11.5811
delelwa	-11.5824
hlwanyelw	-11.5826
nikelwe	-11.5832
elungile	-11.5832
ngomuhl	-11.5833
mnyam	-11.5837
thengise	-11.584
engama	-11.5853
ebuthakathak	-11.5857
iyakon	-11.5858
shoni	-11.5862
yezinyo	-11.5862
utha	-11.5864
angibang	-11.5867
fihliwe	-11.5868
luhla	-11.5877
kukhazimula	-11.5882
zimp	-11.5888
yibonile	-11.5895
amah	-11.5897
silungisis	-11.5899
khand	-11.5919
sen	-11.5922
finyelel	-11.5924
siyani	-11.5925
nokuthu	-11.5928
siyin	-11.5933
zenze	-11.5933
ekubona	-11.5949
eningena	-11.5961
emp	-11.5968
jezis	-11.5968
baqonda	-11.5978
ngithand	-11.5979
nokum	-11.5986
isibon	-11.5986
mmangalela	-11.5994
nababulal	-11.6006
zinhluph	-11.601
wayem	-11.602
enzi	-11.6022
noqh	-11.6025
ngem	-11.6031
valel	-11.6035
amahl	-11.6036
kufihliwe	-11.6048
ehla	-11.605
bakhuleke	-11.605
buhle	-11.6053
nabath	-11.6058
yiz	-11.606
epheth	-11.6065
kutamas	-11.6084
bambona	-11.6097
ak	-11.6106
ngesin	-11.6114
uzwa	-11.6116
bengakholwa	-11.6134
sesitha	-11.6134
ngeziny	-11.6136
ngaki	-11.6138
kwabelw	-11.6139
hlukanis	-11.6154
ithe	-11.6155
ngivu	-11.6157
ukumth	-11.616
okwabant	-11.6164
hlela	-11.6168
nobumn	-11.6177
bamkhand	-11.6197
osha	-11.6216
ifika	-11.623
njengesi	-11.6231
fungi	-11.6248
abakhi	-11.6251
anani	-11.6256
ebukha	-11.6262
akunaku	-11.6266
ngend	-11.6269
ingu	-11.6269
mlandele	-11.6279
jabhiswa	-11.629
azaku	-11.6293
ngikhulul	-11.6299
usus	-11.6318
nginazi	-11.6319
zinyo	-11.6322
lolu	-11.6323
ukwamukela	-11.6327
ngathethelel	-11.6327
enzile	-11.6338
shuk	-11.6339
mzalwane	-11.6344
efile	-11.6348
mayib	-11.6353
sebeb	-11.6357
ukudl	-11.6359
kutusw	-11.6359
babulala	-11.6367
abaphenduk	-11.637
fikelwa	-11.6385
kuthath	-11.639
amnqabel	-11.6398
nent	-11.6414
ukhipha	-11.6426
nezint	-11.6438
abiya	-11.645
chithe	-11.6454
sabona	-11.6455
ngamazi	-11.646
iqonde	-11.6465
ungabe	-11.6469
engakaso	-11.6474
khokhel	-11.6478
ngife	-11.649
yezwa	-11.6504
masinga	-11.6505
sindwa	-11.651
bhe	-11.6512
asithand	-11.6514
ngivela	-11.6515
ofanele	-11.6526
siphi	-11.6535
khiwane	-11.6542
sisindis	-11.6544
noka	-11.655
okhonza	-11.6557
yokuba	-11.6577
nikwenza	-11.6578
aqa	-11.6605
badukis	-11.6609
hlolisis	-11.6617
bonakali	-11.662
kusas	-11.6631
banaka	-11.6637
nezim	-11.6639
ngimangalelw	-11.6645
londe	-11.6649
dumis	-11.665
cabang	-11.6663
lulama	-11.6667
el	-11.6689
sebenzisa	-11.6691
bazalwa	-11.6696
phakamisel	-11.6714
nakule	-11.6721
beba	-11.6723
yizwe	-11.6747
ngenyukela	-11.6755
badabu	-11.6762
ngabi	-11.6771
esezw	-11.6772
liphi	-11.6775
ifik	-11.678
bonakale	-11.6781
ngabad	-11.6783
kuqinisek	-11.6796
ukukha	-11.6803
izahlulel	-11.6805
likhul	-11.6812
uyakwamuk	-11.6812
ilahle	-11.6816
ngafa	-11.6831
esitsh	-11.6834
untu	-11.6841
singe	-11.6849
mkhomb	-11.685
van	-11.6858
ephi	-11.6864
singama	-11.6882
thwala	-11.6884
zikhohlisa	-11.6898
nokuzi	-11.6899
sis	-11.6905
nanges	-11.6914
zima	-11.6923
kam	-11.6926
akhulume	-11.6928
esihlahl	-11.6933
ekufundis	-11.6934
yindl	-11.6934
usu	-11.6938
nihlambulul	-11.6945
olizwa	-11.6946
wabakhiph	-11.6952
enikholwa	-11.6962
he	-11.6968
bafund	-11.6969
amakha	-11.6969
nikiwe	-11.6972
hlo	-11.6972
washay	-11.6976
yivula	-11.6983
babulaw	-11.6987
nxib	-11.6989
thumile	-11.6989
mpi	-11.6991
sibambis	-11.6994
neyesi	-11.7006
lamukele	-11.7007
ngingena	-11.7012
fihlakele	-11.7016
bafe	-11.7025
ezif	-11.7033
buyis	-11.7036
nibikel	-11.7037
bashay	-11.7037
ukugcwal	-11.7042
geze	-11.7044
wemba	-11.7045
kayiku	-11.7058
akuza	-11.7059
ingaka	-11.7063
engabo	-11.7065
okuphelele	-11.7069
nompho	-11.707
ikha	-11.7079
babik	-11.708
mth	-11.708
kwembatha	-11.708
ayesem	-11.7087
ziboph	-11.709
sahamba	-11.7095
yikuph	-11.7096
ningahlangan	-11.7099
kugcin	-11.7105
siqalekis	-11.711
abathengisa	-11.7116
ihlambulul	-11.7119
babheka	-11.7119
wayengum	-11.7121
eniyaku	-11.7123
anamathel	-11.7125
enziw	-11.7133
vulekile	-11.7134
khonona	-11.7137
ungow	-11.7142
dluli	-11.7144
ngifik	-11.7146
unemb	-11.7148
ezincwadi	-11.7158
ezinhluphek	-11.7166
yali	-11.7177
iphu	-11.7179
gene	-11.718
ukwamukel	-11.7182
yabuye	-11.7182
isikha	-11.7184
yihl	-11.7187
abaphila	-11.719
uliwe	-11.7193
ezigcwele	-11.7194
mbhubhis	-11.7197
asenza	-11.7197
ngamah	-11.7199
phendukel	-11.7201
wagcwal	-11.7207
ufike	-11.7208
hliwe	-11.7208
wagu	-11.721
dukile	-11.7211
abayaku	-11.7212
gona	-11.7214
abading	-11.7217
ngenja	-11.7224
nemizi	-11.7225
bantw	-11.7229
nangase	-11.7232
amaqa	-11.7234
niqinise	-11.7235
esang	-11.7239
zidele	-11.7241
zokubu	-11.7244
encek	-11.7246
onesa	-11.7249
mcol	-11.7251
asihamb	-11.7251
ezitsh	-11.7257
umpheth	-11.7259
bayizimp	-11.7261
ngesithe	-11.7264
akhuluma	-11.7265
miswe	-11.7267
ezihlal	-11.7269
iyakubiz	-11.7269
yeki	-11.7269
gxum	-11.7271
mati	-11.7272
umangalela	-11.7272
6	-11.7273
ger	-11.7273
mbuq	-11.7273
mqamekel	-11.7273
phakanyiselw	-11.7273
tiberiy	-11.7273
amagw	-11.7273
ogibe	-11.7273
qongelel	-11.7273
setshenzw	-11.7273
siqong	-11.7273
sivunguvung	-11.7273
cunul	-11.7273
hlunyelelw	-11.7273
phuphuthek	-11.7273
ziklabi	-11.7273
ngizingele	-11.7273
ugob	-11.7273
mthathe	-11.7273
akhushul	-11.7273
ixha	-11.7273
umthen	-11.7273
gudluk	-11.7273
ukugana	-11.7273
hemu	-11.7274
shelwe	-11.7274
sihibe	-11.7274
kwambulela	-11.7274
ngabalingis	-11.7275
siqashi	-11.7275
enalizwa	-11.7276
lahliwe	-11.7276
akusayikuba	-11.7276
halel	-11.7276
sikhulekele	-11.7277
ncelisa	-11.7277
engenziwa	-11.7277
laywa	-11.7277
bhula	-11.7278
yaluza	-11.7279
yenyukela	-11.728
ekuphele	-11.728
izikhw	-11.728
ntshumayel	-11.7281
kungakabi	-11.7281
owayefak	-11.7282
kungenziwa	-11.7282
uzakwenza	-11.7282
philisiwe	-11.7283
nenxe	-11.7283
ziqaphele	-11.7283
aphume	-11.7283
nezitho	-11.7284
ayiyiku	-11.7284
bhekisisa	-11.7284
abakhonza	-11.7284
mataful	-11.7286
umhlanga	-11.7286
awukhathal	-11.7287
okuthandeka	-11.7287
ubup	-11.7288
afune	-11.7289
unyisw	-11.7292
enkanuk	-11.7294
babengenaku	-11.7294
ganwe	-11.7295
wamonyuk	-11.7296
zilungisele	-11.7297
dabukisa	-11.7299
ahlukane	-11.7299
amabhan	-11.7303
usufik	-11.7303
ukubuke	-11.7305
nezinja	-11.7309
akususw	-11.7309
hloma	-11.7309
nabakhile	-11.7309
indisel	-11.731
kuzwisis	-11.7313
ababiz	-11.7316
bathenga	-11.7317
kuthunjelw	-11.7318
sayikuba	-11.732
esiyaku	-11.732
ngithinti	-11.7321
phumul	-11.7324
babengazi	-11.7325
lomp	-11.7327
nenhlan	-11.7327
esawu	-11.7328
dabukile	-11.7329
lithukulul	-11.733
holwa	-11.7331
ngahawukelwa	-11.7337
yambul	-11.7338
eziphel	-11.7338
hlanzwe	-11.7338
uyahlan	-11.7339
yilethe	-11.7342
kuvez	-11.7343
ngikulobel	-11.7343
zamukele	-11.7344
niyakubona	-11.7345
okumhlo	-11.7347
hlephule	-11.7352
ziphakamis	-11.7353
ikamela	-11.7354
bamlalela	-11.7354
avuke	-11.7356
yababe	-11.7356
libala	-11.7356
wamamukela	-11.7358
lwezw	-11.736
ngok	-11.7361
vilapha	-11.7362
oyakungi	-11.7368
alishilo	-11.7368
simfu	-11.7369
lalise	-11.7369
bathul	-11.737
ukhulumela	-11.7371
humusha	-11.7377
nenzele	-11.7379
ngibeke	-11.738
baphelele	-11.738
yokushis	-11.738
asinike	-11.7381
ezifundis	-11.7382
siyakuvu	-11.7392
afike	-11.7392
nomahlulel	-11.7393
bagcine	-11.7394
esebona	-11.7396
obi	-11.7398
nomprofethi	-11.7399
beyizi	-11.74
ungenis	-11.7403
ngikhombis	-11.7403
elibu	-11.7407
yathela	-11.7409
ara	-11.7411
thokozela	-11.7412
nemiza	-11.7415
thengela	-11.7416
bakwenze	-11.7416
bamfuna	-11.7417
nowesi	-11.7418
sitaladi	-11.7418
ngithuma	-11.7419
mewu	-11.7424
nezihla	-11.7428
ingafi	-11.7436
ngesiphamb	-11.7437
angayi	-11.7438
bengazi	-11.7439
ngokwethemb	-11.744
yokufa	-11.7442
mayela	-11.7442
chichima	-11.7443
lingise	-11.7447
semp	-11.7448
nengwa	-11.745
ongala	-11.7452
waphonse	-11.7457
ondolo	-11.7457
nomzalwane	-11.7458
esahamba	-11.7461
isifu	-11.7462
owayenom	-11.7462
ubonakalisi	-11.7464
uyindl	-11.7468
nihlale	-11.7472
encik	-11.7474
wahlulela	-11.7475
nganelis	-11.7475
ongamukela	-11.748
mkhiphel	-11.7484
wemi	-11.7484
bayakwamukel	-11.7488
wesaba	-11.7496
ngakhe	-11.7503
thokoze	-11.7504
esezim	-11.7505
hlanga	-11.7508
ophilisa	-11.751
ilin	-11.7513
langazel	-11.7517
uyabona	-11.7518
ngahlulela	-11.7522
alusa	-11.7522
kukhathazek	-11.7524
ungaze	-11.7525
namafu	-11.7526
beniyaku	-11.7527
lingwe	-11.7529
sesifub	-11.753
abasindiswa	-11.7532
hlupha	-11.754
nabakhulu	-11.7543
ngishiya	-11.7545
isithand	-11.7548
elingaka	-11.7548
sesihlal	-11.755
ukushay	-11.7553
ziphi	-11.7555
phathe	-11.7557
bamangalel	-11.7557
abakubona	-11.7561
tamas	-11.7567
kwalotsh	-11.7569
kwabangena	-11.757
izinsiz	-11.7579
niyakwamukel	-11.758
kungokwen	-11.7586
zibuthe	-11.7587
uyakuma	-11.7601
yaph	-11.7606
neziphi	-11.7609
kubuthan	-11.7609
siphiwe	-11.7612
unyoko	-11.7615
kuding	-11.7617
wakhula	-11.7619
nx	-11.7623
ibilis	-11.7626
nabaka	-11.7635
nombha	-11.7638
nabakhuleka	-11.7645
waphatha	-11.7645
endul	-11.7648
elingcwele	-11.7649
okuphuma	-11.765
welisa	-11.7653
kuthela	-11.7658
wabiz	-11.766
niswa	-11.7664
qob	-11.7669
lomemeza	-11.7672
ungowaba	-11.7674
seza	-11.7677
nginguku	-11.7684
yiphathe	-11.7688
impeth	-11.769
nokub	-11.7692
ephelele	-11.7694
sekuya	-11.7695
zebu	-11.7696
wayeseza	-11.7698
chok	-11.7709
kiwe	-11.7711
baluleka	-11.7711
nisiza	-11.7712
nyathela	-11.7715
ngifake	-11.7723
awuka	-11.7724
ungaka	-11.7724
uda	-11.7728
nabapha	-11.7731
isif	-11.7732
oden	-11.7733
azesul	-11.7736
ohlangothi	-11.7737
nginibekezelel	-11.7738
kulinganiselw	-11.7739
yink	-11.7745
profethi	-11.7752
uyison	-11.7766
niphethe	-11.7771
sisho	-11.7775
bembon	-11.7776
sidlulile	-11.7779
aphila	-11.7786
sikhuphuk	-11.7787
finyelela	-11.7787
bengahla	-11.7789
ukhu	-11.7795
sivulele	-11.7795
zafika	-11.78
kukhokh	-11.7801
uyakusi	-11.7802
angisa	-11.7806
kungukufa	-11.7815
ngiyindoda	-11.7817
sekuy	-11.7817
nasezind	-11.7822
qondani	-11.7829
esiphil	-11.7841
nilile	-11.7844
singena	-11.7845
layi	-11.7852
nidla	-11.7855
bahlambalaza	-11.786
okusho	-11.7861
esazi	-11.7861
zikhulumel	-11.787
nenhlam	-11.7873
ngenani	-11.7874
nis	-11.7882
yafu	-11.7892
wendlu	-11.7897
iyakushay	-11.7901
nhloni	-11.7912
bazuz	-11.7914
hlanganyele	-11.7915
ezingenam	-11.7924
zidle	-11.7924
wayengaka	-11.7924
akhuleka	-11.7928
bheki	-11.7929
mngcolisa	-11.7931
ungisa	-11.7933
bayim	-11.794
zobu	-11.7946
okhuthazela	-11.7946
ngiyenza	-11.7947
nzisa	-11.7956
zibonel	-11.7957
aniswe	-11.7973
amathu	-11.7974
alina	-11.7984
phahla	-11.7985
qhube	-11.7994
ngumkab	-11.7995
yabona	-11.7998
baland	-11.8
akanak	-11.8005
shu	-11.8006
yisihl	-11.8008
ninoku	-11.8012
asibeke	-11.8018
zas	-11.802
ningikhumbul	-11.8034
kwakungesi	-11.804
ohlwanyela	-11.804
kuqhubek	-11.8045
nemith	-11.8051
kuhlakaniph	-11.8082
maqom	-11.8083
ukubong	-11.8083
yizwa	-11.8086
sihle	-11.8097
sikhulul	-11.8103
uyakufa	-11.8106
ngubutha	-11.8108
kudle	-11.8112
asilahle	-11.8114
bavela	-11.8116
wayengo	-11.8116
menyezelw	-11.8123
dalelwa	-11.8125
basola	-11.8125
zilungile	-11.813
ywe	-11.813
ekiwe	-11.8134
namhla	-11.8135
kwec	-11.8137
lingel	-11.8138
vuki	-11.8141
ngizakukukho	-11.8141
ayize	-11.8142
okuse	-11.815
aphang	-11.8151
ngavela	-11.8156
or	-11.8163
sibusisa	-11.8175
osebenza	-11.8177
benqabel	-11.8177
kufez	-11.818
kuhlw	-11.8189
lilotshiwe	-11.8195
kokho	-11.8198
nginithand	-11.8198
evangeli	-11.8201
obona	-11.8209
ume	-11.8209
ababem	-11.822
sithibez	-11.8234
zinikele	-11.8235
lili	-11.8237
thobele	-11.8239
ngakuyek	-11.824
lima	-11.8248
ngikuthand	-11.8248
qondakal	-11.8249
nokubong	-11.8251
njengemi	-11.8261
zungezi	-11.8266
ndela	-11.8279
ngikwenza	-11.828
ninezin	-11.8283
ubona	-11.8286
ngidla	-11.8289
othembek	-11.8291
qiniswe	-11.8297
profethe	-11.8298
yizon	-11.83
ital	-11.8305
yazo	-11.8316
kayina	-11.8327
songela	-11.8332
baso	-11.8338
enikhuluma	-11.8346
fihl	-11.8351
asinik	-11.8354
sibekele	-11.8366
ikh	-11.8371
owona	-11.8375
inyan	-11.838
kwezint	-11.8381
kuy	-11.8385
ubheke	-11.839
ceb	-11.839
thokozis	-11.8397
bengaka	-11.8404
elene	-11.8408
adlula	-11.8409
niphendulan	-11.8426
amhl	-11.8428
nokwab	-11.8436
sifuman	-11.8455
ngizwe	-11.8458
ngafung	-11.8468
weso	-11.8469
abethelw	-11.8473
busiswa	-11.8477
bube	-11.8478
silele	-11.8492
op	-11.8497
ongumf	-11.8506
lezin	-11.8514
nemvu	-11.8519
lwesin	-11.852
yavela	-11.8521
kuvusw	-11.8524
icela	-11.8525
bayeka	-11.8538
zitho	-11.854
bambo	-11.854
chil	-11.8546
siqed	-11.8547
ngokubong	-11.8554
abuye	-11.8556
ovu	-11.8566
esikuzwile	-11.8573
obulala	-11.8576
umth	-11.8578
behl	-11.8598
daba	-11.8618
bamnikel	-11.8619
esiza	-11.8626
kuqondile	-11.8629
ifund	-11.8642
ngezindl	-11.8646
esifundis	-11.8651
ubonga	-11.8654
nangesi	-11.8655
nabayi	-11.8658
kwambulwe	-11.8658
zilethe	-11.8659
nant	-11.8672
uphu	-11.8676
bonise	-11.8676
kuhlubuk	-11.8677
mazwe	-11.8678
ngahlulel	-11.8682
evuma	-11.8683
yiphu	-11.8684
ngqo	-11.8698
ngokungazi	-11.87
isith	-11.8705
kungokwa	-11.8713
nishay	-11.8719
angiyi	-11.8732
ozwa	-11.8747
zilind	-11.8758
kusibo	-11.8761
omk	-11.8763
mithi	-11.8764
ayikho	-11.8793
idle	-11.8794
zihlakaniphile	-11.8795
ngabaph	-11.8799
bathethelel	-11.8805
kuphuza	-11.8806
kungokwam	-11.8814
mbala	-11.8815
enikuzw	-11.8815
lokuzal	-11.8821
uzibonakalis	-11.8831
kumazi	-11.8859
zor	-11.8863
izidum	-11.8877
ocela	-11.8903
ngangeni	-11.8931
zwela	-11.8933
nesabel	-11.8942
esekhulum	-11.8945
nyukela	-11.895
lungisisi	-11.8954
mpum	-11.8961
boni	-11.8963
rethe	-11.8968
wathwal	-11.898
njwe	-11.8984
baphind	-11.8987
awuyi	-11.8999
sina	-11.9001
senz	-11.9004
kung	-11.9005
onakale	-11.9016
zibonile	-11.9022
nembal	-11.9024
zimisel	-11.9026
imic	-11.9028
ongenaku	-11.903
bab	-11.9039
kusuthis	-11.9043
lizaku	-11.9053
saku	-11.9068
ngil	-11.907
yakha	-11.9078
isik	-11.9086
wamphath	-11.9087
khazimulis	-11.9091
khawulez	-11.9092
hlamba	-11.9097
yabuza	-11.911
amac	-11.9121
shunyaye	-11.914
yabu	-11.9142
kamela	-11.9145
makani	-11.9154
midum	-11.9157
lawu	-11.9171
kwenyuk	-11.9171
hawukelwa	-11.9174
ol	-11.9202
ngenzan	-11.922
nilizwa	-11.9221
ndise	-11.923
abaz	-11.923
ohlo	-11.9231
bamuke	-11.9234
okusindis	-11.924
liwil	-11.9246
ezimpond	-11.9253
baphath	-11.9253
yisishiyagalo	-11.9257
zibone	-11.9257
ngokukheth	-11.9265
mangali	-11.9267
iselwe	-11.9273
kwababe	-11.9274
bengin	-11.9278
okusiza	-11.9296
isibo	-11.9298
kweminy	-11.9302
kwenezel	-11.9322
miyal	-11.9325
ngithumel	-11.9325
okwesi	-11.933
zinhlanz	-11.9349
kuphume	-11.9354
uz	-11.9357
ngasenaku	-11.9364
ebesi	-11.9364
wambo	-11.9381
ngokwaba	-11.9381
engam	-11.9381
babi	-11.9384
ngingo	-11.9392
wayeng	-11.9393
bathol	-11.9399
okwen	-11.94
neliswa	-11.9406
sithol	-11.9408
abam	-11.9422
balele	-11.9445
kul	-11.9445
bavuma	-11.945
entsh	-11.9451
okhal	-11.9463
gcine	-11.9465
akayi	-11.9477
okwezw	-11.9482
buze	-11.9489
sinama	-11.9493
lekile	-11.9494
abaphath	-11.9495
esebu	-11.9514
amaphik	-11.9522
balala	-11.9523
wabuz	-11.953
bening	-11.9535
zungez	-11.9536
bere	-11.9538
ch	-11.9547
kungeng	-11.9553
nendu	-11.9562
qhoth	-11.9563
kubizw	-11.9576
ngiphuzis	-11.9583
bazis	-11.9588
khuphukel	-11.9589
umile	-11.959
ngikhulumi	-11.9592
senize	-11.9613
kuqal	-11.9613
mbeke	-11.9615
mkhiphe	-11.9615
cim	-11.9631
sobu	-11.9632
amvusa	-11.9637
edla	-11.9644
kulindel	-11.9645
emsebenzi	-11.9647
khethi	-11.9663
bamh	-11.9663
’	-11.9665
ngehli	-11.9678
ngamas	-11.9683
nimangalela	-11.9687
nokuhleng	-11.9694
ngikhuleke	-11.9709
hlulela	-11.971
zibamb	-11.9716
singu	-11.9723
izihlal	-11.9747
nizingela	-11.9749
guqule	-11.9751
engiba	-11.9764
kuchachi	-11.9768
vunul	-11.9786
bahleka	-11.9786
azany	-11.9786
bamvu	-11.9789
esino	-11.9789
kubonakaliswa	-11.9791
zuzi	-11.9801
athan	-11.9807
babemi	-11.9808
bavumela	-11.9809
eb	-11.9812
inhloko	-11.9816
abaphili	-11.9826
uyathand	-11.9844
oqo	-11.9869
bingelel	-11.9871
esenikel	-11.9873
nabatheng	-11.9882
phendul	-11.9888
kwahlukan	-11.9888
nokungena	-11.989
ngaze	-11.9891
bacebi	-11.9905
qinisek	-11.9908
qalekisa	-11.991
khuphuk	-11.991
bakhwel	-11.991
nakum	-11.9916
sesis	-11.9934
kwahlukanis	-11.9935
ngihamb	-11.9955
sifaka	-11.9961
wayeseya	-11.9964
ezimpi	-11.9964
bababulal	-11.997
abaze	-11.9978
hluph	-11.9987
kumpha	-11.9988
ngalandel	-11.9993
sinalo	-11.9999
esibuk	-12.0003
amathe	-12.0011
shay	-12.0014
ahlulelwe	-12.002
mgodi	-12.0022
zikhethel	-12.0037
nangokuz	-12.004
mletha	-12.0043
zehla	-12.0048
zikha	-12.0053
ningesi	-12.0055
ngokuf	-12.0056
ningakwazi	-12.0057
ngemp	-12.0057
ongazi	-12.0058
msus	-12.0062
wagul	-12.0074
nqolobane	-12.0077
mbulale	-12.0078
kashi	-12.0083
lingo	-12.009
nokungcoli	-12.0092
kubonwa	-12.0093
zany	-12.0098
izakuvu	-12.0106
mmukis	-12.0109
bafakaza	-12.0111
anise	-12.0112
esingena	-12.0119
deka	-12.0128
adi	-12.0132
abahlakazekile	-12.0134
nokungcol	-12.0135
nangez	-12.0138
uzakum	-12.0144
ngangise	-12.0149
math	-12.0156
nomp	-12.0158
kunxuse	-12.0158
uphiwe	-12.016
kufund	-12.0169
mibi	-12.0178
yithi	-12.0179
elim	-12.0186
zimi	-12.0186
ngayeka	-12.0188
myeke	-12.019
kukhazimul	-12.0191
ukuwu	-12.0196
nokuphulukis	-12.0196
;	-12.0204
babuyis	-12.0204
izinhluph	-12.0205
bakhulum	-12.0207
chachi	-12.021
sigu	-12.0221
ahlul	-12.0223
sithandw	-12.0225
yakuza	-12.0226
mukise	-12.0247
badumis	-12.025
bazakuyi	-12.0252
bavumel	-12.027
babele	-12.0273
ngomun	-12.0274
ukukhuthal	-12.0275
singazi	-12.0289
phelekezela	-12.0294
izingane	-12.0296
kukhandlek	-12.0304
ungowom	-12.0306
nosiz	-12.0313
eziqond	-12.0317
asebenze	-12.0322
nginike	-12.0322
nyuka	-12.0325
nowesith	-12.0333
yayise	-12.0339
nj	-12.0342
kulethw	-12.0344
njengabanga	-12.0345
shwe	-12.035
esihlabathi	-12.0351
nemv	-12.0355
uyakuthath	-12.036
wahlukan	-12.0366
sikhule	-12.0368
kuchichim	-12.0374
abalala	-12.0378
anda	-12.038
abadlula	-12.0385
ngesik	-12.0391
sabel	-12.0398
zigabis	-12.04
italadi	-12.0407
nesif	-12.0408
impe	-12.0415
ngesizo	-12.0418
thotshis	-12.0419
kwasebu	-12.0422
abangcwelisiwe	-12.0423
wasinik	-12.0428
ngehl	-12.0431
kumesab	-12.0435
nithokoz	-12.0438
ungowe	-12.0445
akenze	-12.0446
engumbu	-12.0452
anele	-12.0455
badlula	-12.0466
athabath	-12.0472
kungavel	-12.0479
ikamel	-12.048
klolodel	-12.0492
nyathel	-12.0494
wasipha	-12.0494
nginilobela	-12.0496
gol	-12.0497
imikh	-12.0498
niyin	-12.0509
igax	-12.0511
tshwe	-12.0511
kufik	-12.0512
kwakuyi	-12.0514
elingena	-12.0516
kusuth	-12.0517
ngithol	-12.0521
zibula	-12.0522
inhlangan	-12.0523
meza	-12.0528
zinja	-12.0533
gotha	-12.0535
let	-12.0542
isitho	-12.0543
abasayiku	-12.0545
ega	-12.0547
ethembekile	-12.0548
gad	-12.0548
lungis	-12.0549
ngant	-12.0549
uphenduke	-12.0551
babesendl	-12.0551
ziphendu	-12.0552
nothi	-12.0553
lishilo	-12.0555
sem	-12.0558
odadew	-12.0558
nabahle	-12.0558
bakuzw	-12.0559
zwakale	-12.0563
ugcwalis	-12.0563
qinisekile	-12.0567
ngathembeki	-12.0569
ongowase	-12.057
esihla	-12.0571
eziyizi	-12.0572
kuhlwanyelw	-12.0573
ekulung	-12.0576
namakha	-12.0579
abathenw	-12.058
ife	-12.0581
isikhw	-12.0581
ebezaku	-12.0582
abulaw	-12.0588
yamukele	-12.0589
ekwenze	-12.0589
bahlanganyel	-12.059
emfuy	-12.059
net	-12.0591
isiqh	-12.0592
ukho	-12.0592
esembethel	-12.0595
agcinw	-12.0595
akhohlw	-12.0597
emig	-12.0597
giya	-12.0597
ivuke	-12.0598
okuphind	-12.0598
genca	-12.0598
nilangazelel	-12.06
yifa	-12.06
khumb	-12.0602
inhlanz	-12.0604
ushisw	-12.0604
kuyakukh	-12.0605
7	-12.0606
elaliq	-12.0606
sagu	-12.0606
9	-12.0606
ikhihliz	-12.0606
tert	-12.0606
engumt	-12.0606
maviy	-12.0606
qoqe	-12.0606
xokozela	-12.0606
sitshekelwe	-12.0606
▁¦6:2	-12.0606
herm	-12.0606
ngibekezelele	-12.0606
emigodi	-12.0606
zihlobis	-12.0606
fet	-12.0606
kubhidlik	-12.0606
dunyazw	-12.0606
ukuphamban	-12.0606
kuduke	-12.0606
zikholek	-12.0606
ejwayele	-12.0606
amvusel	-12.0606
nqatshelw	-12.0606
nokushi	-12.0606
phaphama	-12.0607
mkhond	-12.0607
salimon	-12.0607
sinen	-12.0607
nilalele	-12.0607
owalenza	-12.0608
engiwuphiwe	-12.0608
njengezinyo	-12.0608
cansi	-12.0608
balenza	-12.0608
njengokushiwo	-12.0608
ngithobi	-12.0608
camel	-12.0609
bamqhub	-12.0609
kumangalela	-12.0609
sisaswele	-12.0609
awuseyi	-12.061
nqunyelw	-12.061
ambulela	-12.0611
singes	-12.0611
awufaka	-12.0612
okunike	-12.0612
zenzekile	-12.0612
tshele	-12.0613
kubaphathi	-12.0613
thukuthelis	-12.0613
galiy	-12.0613
kuhlambulul	-12.0614
umkhulek	-12.0615
wawusu	-12.0616
hlumelel	-12.0618
namagqu	-12.0618
usikhulule	-12.0618
nyathelw	-12.0619
ngitshengis	-12.0619
gaxa	-12.0619
elithulul	-12.0619
bakhandw	-12.062
ungakhali	-12.0621
engalizwa	-12.0623
yenyuka	-12.0623
yibaphi	-12.0623
zethembi	-12.0624
eyayimi	-12.0624
nanko	-12.0625
basebenze	-12.0626
bekelwe	-12.0627
ngolahliwe	-12.063
alingcwelis	-12.0631
ngezif	-12.0631
alelwa	-12.0633
kuphenduke	-12.0634
klawudiy	-12.0634
abafundisi	-12.0635
ekul	-12.0635
ongenami	-12.0636
engakuzwa	-12.0636
zenzele	-12.0639
mfane	-12.0639
baphumul	-12.064
thenjiswa	-12.0641
ngikhazimulis	-12.0641
nehlelw	-12.0643
ngamlahl	-12.0644
ngibuza	-12.0644
kwenzelwa	-12.0644
qhwa	-12.0644
ngiyinceku	-12.0644
ombo	-12.0645
abayimangalela	-12.0646
bakubik	-12.0646
lihlatshiwe	-12.0646
iliba	-12.0647
abalalela	-12.0648
eyopha	-12.0649
bembamb	-12.0649
dilizile	-12.0649
ungangihl	-12.065
nigxil	-12.0651
nababi	-12.0651
ngonya	-12.0652
baqalekisiwe	-12.0652
zahlukanis	-12.0652
aduduze	-12.0653
wayesemuka	-12.0653
senginitshel	-12.0654
kwakhiw	-12.0655
ukukhahlel	-12.0656
bavalel	-12.0656
kududuzek	-12.0656
lihle	-12.0658
ezinjan	-12.0658
bamehlis	-12.0658
bedabul	-12.0659
disi	-12.0659
ubize	-12.066
khukhumal	-12.0661
kujwayela	-12.0662
aniphe	-12.0663
umkhwe	-12.0663
uzuze	-12.0663
olungol	-12.0664
sikhulume	-12.0664
abakuthanda	-12.0665
namaqa	-12.0665
enhlam	-12.0666
ngikuf	-12.0667
engimkhonza	-12.0668
akwabe	-12.0669
ngihlale	-12.0669
ukushisekel	-12.0672
bakhuphukel	-12.0672
engikwenzile	-12.0672
sasilalelwe	-12.0673
wasikhulula	-12.0675
ezinezin	-12.0676
nokuqu	-12.0676
omningi	-12.0681
neyezi	-12.0682
zabutha	-12.0682
ngingowa	-12.0682
udaka	-12.0684
juliy	-12.0684
ebud	-12.0685
delelekile	-12.0685
senhla	-12.0686
akwethembela	-12.0689
kuphulukisw	-12.069
ngaluphi	-12.069
uzakubona	-12.0691
phahlile	-12.0692
kudunyisw	-12.0693
ziphons	-12.0696
ngokwambul	-12.0696
wahlwith	-12.0698
yalusa	-12.0701
fakela	-12.0701
ibinga	-12.0702
yitshe	-12.0702
kubuyiselw	-12.0704
nangen	-12.0704
nogan	-12.0704
ngikushay	-12.0705
yiqondis	-12.0705
ubun	-12.0705
neli	-12.0706
nilithukulul	-12.0709
isida	-12.071
babuya	-12.071
ezifanele	-12.0711
okuqini	-12.0712
nd	-12.0716
nhliziyombi	-12.0716
yisiphi	-12.0717
abavuma	-12.0717
rakh	-12.072
uyiqamb	-12.0723
esiqh	-12.0724
ngingab	-12.0725
khazimuliswa	-12.0727
njengabangena	-12.0728
umlind	-12.073
linganise	-12.0731
gangeni	-12.0732
aniwu	-12.0733
mbonge	-12.0737
cil	-12.0737
ngokulinganis	-12.0738
abamuzwa	-12.0743
nesifo	-12.0745
nasezinta	-12.0746
anginike	-12.0749
ngumvuz	-12.0753
yithumela	-12.076
unike	-12.076
ngiyawu	-12.0762
isikhulu	-12.0762
nqol	-12.0764
bemangal	-12.0765
baphendukel	-12.0765
ngathokozi	-12.0765
kusithekile	-12.0766
niphumul	-12.0767
anzi	-12.0769
nezesi	-12.0771
ngilandela	-12.0777
wenezel	-12.0778
kuklebhu	-12.0781
ukukhonz	-12.0783
kwakungo	-12.0789
xaban	-12.0791
enec	-12.0792
wuphiwe	-12.0792
akayek	-12.0793
kabaqond	-12.0793
hlonipheka	-12.0793
wamhl	-12.0796
iyihlan	-12.0799
imfu	-12.0801
ngiyanazi	-12.0804
linike	-12.0804
ngin	-12.0805
asihlambulul	-12.0805
waphons	-12.0807
fr	-12.0809
babonakalis	-12.0811
bacebe	-12.0812
nginibong	-12.0813
ngiyisa	-12.0815
nangezinye	-12.0818
nginibhapathiz	-12.082
wayesesuk	-12.0821
lime	-12.0827
ahlulele	-12.083
nisisa	-12.0831
bayakuthi	-12.0832
zenzi	-12.0834
wababe	-12.0836
akehle	-12.0844
ingelelwa	-12.0851
kwalel	-12.0851
lahlulela	-12.0852
iyalid	-12.0852
angaboni	-12.0853
livulekile	-12.0855
akumisel	-12.0857
bunjenge	-12.0857
kufafaz	-12.0862
nangobu	-12.0865
buphathi	-12.0868
nisela	-12.0871
welela	-12.0872
ithume	-12.0873
basukuma	-12.0874
oswela	-12.0874
sesilo	-12.0874
ngikuthethelel	-12.0875
zithibe	-12.0875
yikha	-12.0876
sizakala	-12.0876
ugeze	-12.0877
bebuye	-12.088
buthanel	-12.088
silandel	-12.0881
sicela	-12.0883
kunezi	-12.0885
ayakuba	-12.0887
aphilile	-12.0887
nomka	-12.0889
beyaku	-12.0889
uyakuthatha	-12.089
bebutha	-12.089
akholwa	-12.089
funeka	-12.0892
andela	-12.0896
nesiphuz	-12.0896
emiya	-12.0898
engashiy	-12.0904
zithathel	-12.0908
othembekile	-12.0908
liyisi	-12.0911
nesihla	-12.0912
noza	-12.0914
kusha	-12.092
enzisa	-12.092
sizonda	-12.092
abahlanganyel	-12.0926
nikhulul	-12.0931
hlakazekile	-12.0935
zemp	-12.094
bumba	-12.0943
sibuthe	-12.0945
isiphe	-12.0945
angizi	-12.0946
ezivumelwan	-12.0949
yizihla	-12.095
kwakunguku	-12.095
boshelwa	-12.0953
lida	-12.0955
akunikel	-12.0956
ngehle	-12.0959
zabuye	-12.096
ashe	-12.0969
bamqaphel	-12.097
niluleka	-12.0974
ngwe	-12.0978
adel	-12.0979
esenziw	-12.0981
niphulukis	-12.0981
nokwahlulel	-12.0981
awunaku	-12.0983
wezwi	-12.0983
ngephi	-12.0985
umele	-12.0993
uhlane	-12.0994
ongathandi	-12.0997
uzisho	-12.0998
qhubek	-12.0998
engiyi	-12.0998
kungenjenga	-12.1
thunji	-12.1001
nesithe	-12.1001
nabanama	-12.1001
hlwe	-12.1002
nangenk	-12.1009
okuzaku	-12.1009
ngezinye	-12.1009
seniy	-12.1024
bamukeli	-12.1025
yahlul	-12.1025
kuphelele	-12.1026
angam	-12.1028
enikubon	-12.1029
ekula	-12.1031
sop	-12.1034
owehla	-12.1036
ngumbu	-12.1043
kufihlakele	-12.1049
uneso	-12.1054
uphonse	-12.1054
wenyuk	-12.1056
mlindele	-12.1058
kunalo	-12.1059
areth	-12.1059
enginilobel	-12.106
sibona	-12.1061
ngilethe	-12.1061
ngacindezel	-12.1062
nithobela	-12.1069
lwalu	-12.107
imbona	-12.108
kuphiwe	-12.1086
hopho	-12.1091
ezibhebhe	-12.1092
ngehlelw	-12.1094
zibonele	-12.1095
amukela	-12.1096
buzisis	-12.1097
wamadoda	-12.1097
nak	-12.1107
zidli	-12.1111
nezinceku	-12.1114
ungishiy	-12.1116
dili	-12.1118
yensi	-12.112
thisa	-12.1122
iphakamisi	-12.1125
kufezek	-12.1128
livul	-12.1129
anivum	-12.1134
makwa	-12.1135
ngiyakun	-12.1136
esikholwa	-12.1145
amnika	-12.1148
yisitha	-12.1148
wubonile	-12.115
inento	-12.1151
ekungen	-12.1157
zayi	-12.1163
ongabu	-12.1175
mababe	-12.1175
engenalu	-12.1185
kunemb	-12.1188
asizang	-12.1192
hiya	-12.1193
bungane	-12.1194
yosu	-12.1194
buwul	-12.1198
usebenzile	-12.1199
nomus	-12.12
baphonse	-12.1202
nimhlu	-12.1203
ngazenzi	-12.1204
bahlazisa	-12.1206
sebeli	-12.1207
ngimbona	-12.1207
kwabakho	-12.1209
uvukel	-12.1212
bayizith	-12.122
wahlul	-12.1222
ugcwalisek	-12.1226
nihola	-12.1238
ushilo	-12.124
ngamanga	-12.1241
lahlanga	-12.1246
iyakuthum	-12.1254
mhlangulis	-12.1255
iyinkosi	-12.1261
khomba	-12.1261
abakwazi	-12.1267
wayithum	-12.1267
bakhukhumele	-12.1279
ej	-12.128
lwenkosi	-12.1282
sok	-12.1283
kuvamile	-12.1288
sole	-12.1288
owakholwa	-12.1298
ngingesi	-12.1301
nywa	-12.1306
samukelisw	-12.1311
yehlel	-12.1314
ukuphan	-12.1316
yamukeliswa	-12.1318
wedwa	-12.1329
wokusha	-12.1336
ilula	-12.1336
bangaqondi	-12.1344
phule	-12.1349
kukhany	-12.1355
ngithath	-12.1358
neh	-12.1358
ambile	-12.1359
okhubekis	-12.1364
izint	-12.1364
selis	-12.1365
seliph	-12.1368
selufi	-12.1372
kungayiku	-12.1372
silindel	-12.1374
nokuva	-12.1382
bambisise	-12.1385
wah	-12.1388
ngikulobi	-12.1392
wathint	-12.1392
bayakwahlulel	-12.1394
siny	-12.1395
nivusel	-12.1399
lokaz	-12.1404
luze	-12.1422
abakhel	-12.1426
khohliswa	-12.1427
cindezelw	-12.1429
kwal	-12.1429
sezith	-12.1429
okwaku	-12.1441
gwemel	-12.1449
sembel	-12.1451
nakweli	-12.1456
sesiqhingi	-12.1458
akholwe	-12.1465
abamele	-12.1467
shanel	-12.1469
ungaba	-12.1472
baphendule	-12.1476
vuthulule	-12.1493
ijo	-12.1496
uyiphi	-12.1499
kokwam	-12.1499
nasez	-12.15
ikhumbuz	-12.1507
ebayal	-12.1509
emthanda	-12.1514
ahlukanisa	-12.1524
isifund	-12.1528
nelaba	-12.1528
ninama	-12.1529
engow	-12.153
kumahlulel	-12.1539
siyiso	-12.154
omvu	-12.1543
lungisisa	-12.1544
oyakusindis	-12.1546
nezith	-12.1552
zeso	-12.1557
bezaku	-12.156
ngiloba	-12.1564
kugcwale	-12.1564
ziz	-12.1564
owabe	-12.1568
lwezin	-12.157
sinawo	-12.1574
womtheth	-12.1577
abali	-12.1577
babeli	-12.1581
sizincom	-12.1582
lethe	-12.1582
etho	-12.1586
gco	-12.1589
ukuphang	-12.1589
bale	-12.159
mvumela	-12.1592
hlanzek	-12.1596
imu	-12.1597
kungoko	-12.1601
kufunyanw	-12.1603
bakhiphe	-12.1607
kusekelw	-12.1607
abeke	-12.1618
edwa	-12.1632
sithath	-12.164
yakubusiswa	-12.164
esingo	-12.1644
abama	-12.1649
isiya	-12.1652
sothand	-12.1656
likhulu	-12.1666
ufeze	-12.1667
nqabel	-12.1671
ihlobo	-12.1671
soba	-12.1672
je	-12.1673
nibuye	-12.1675
yent	-12.1675
efe	-12.1676
okuhlwanyel	-12.1682
ufung	-12.1685
ngasizi	-12.1689
kwakum	-12.1691
abawu	-12.1697
ngiphiki	-12.1702
makaf	-12.1705
seqinis	-12.1714
yishay	-12.1715
ayenzi	-12.1729
ivuma	-12.1738
nobub	-12.174
bayakuvuk	-12.1745
nomfundi	-12.1746
bazibek	-12.175
elimele	-12.175
tuseka	-12.175
amabel	-12.1754
mata	-12.1754
tshengise	-12.176
makungab	-12.1768
bangabant	-12.1772
ngino	-12.1775
ukuthela	-12.1778
imif	-12.1799
kulondoloz	-12.1808
bathandiwe	-12.1813
abenze	-12.1822
isimu	-12.1835
ngamaza	-12.1837
ente	-12.1838
akuse	-12.1853
thwe	-12.1855
ningangi	-12.1856
kukhulunywa	-12.1857
kokufa	-12.1857
ingcwele	-12.1858
bawu	-12.1872
abangab	-12.1876
besinge	-12.1877
lufi	-12.1895
onawo	-12.1898
wakhw	-12.19
ngikukhuluma	-12.1909
iyakum	-12.1917
kora	-12.1921
ny	-12.1923
iphi	-12.1928
eselu	-12.1929
kuyisibon	-12.1933
sali	-12.1938
bangikhonz	-12.1941
engaf	-12.1955
hlaka	-12.1956
olukhu	-12.1965
endle	-12.1967
kungokwakh	-12.1985
lokuling	-12.199
abapheth	-12.1994
uvus	-12.2005
athatha	-12.2008
asibo	-12.2017
qambe	-12.202
behla	-12.2024
akwenziw	-12.203
inzi	-12.2049
babus	-12.2049
umshu	-12.2054
esegcin	-12.2054
gom	-12.2056
walandel	-12.2059
jonga	-12.206
sehla	-12.2063
obuth	-12.2067
ifunda	-12.2068
sabakho	-12.2068
sesihamb	-12.2077
ngishay	-12.2082
noy	-12.2095
niphelelis	-12.2099
bangaboni	-12.2104
zigcinel	-12.2106
sasise	-12.211
kuqinisile	-12.2112
ngingenz	-12.2121
enomo	-12.2134
sebebon	-12.2138
vuliwe	-12.2149
biziwe	-12.2151
muki	-12.2158
ababemlandel	-12.2158
balingwa	-12.2159
yengwa	-12.2161
yisibo	-12.2167
umelana	-12.2169
abapha	-12.2172
basebenzisa	-12.2176
yakunipha	-12.218
ngokungalungi	-12.2196
inta	-12.2206
ezingaka	-12.2215
bamfuman	-12.2223
ndlebe	-12.2224
uyasi	-12.2226
beyi	-12.2238
ogani	-12.2249
ngokuhl	-12.2253
ngabhapathiza	-12.2259
nowab	-12.2286
lokulungis	-12.2298
seniya	-12.2304
kukhonz	-12.231
ngikwenze	-12.2317
ezithel	-12.2325
bayakum	-12.2332
ngezenz	-12.2383
ubung	-12.2384
ngokungaphez	-12.2393
enemi	-12.2399
bathobel	-12.2403
abaqh	-12.2405
niyakuthi	-12.2407
njengakwab	-12.2409
besam	-12.2413
onakala	-12.2418
nizonde	-12.2424
bunye	-12.2429
sihog	-12.2437
ndli	-12.2439
sencek	-12.2445
khal	-12.2454
umqamb	-12.2466
yakuba	-12.247
iyakusuk	-12.2472
ilishumayela	-12.2476
usilahl	-12.2489
ci	-12.2492
anginama	-12.2493
kubusiswa	-12.2502
ngenisi	-12.2503
abathand	-12.2515
uyachith	-12.2516
samuk	-12.2517
aqinisile	-12.2537
kungeku	-12.2543
ngikhulekel	-12.2543
ezinyoni	-12.2559
umnewe	-12.2565
akuyala	-12.2577
besazi	-12.2582
ngakube	-12.2594
abonile	-12.2597
sens	-12.2601
bebuth	-12.261
bha	-12.261
iyaluyal	-12.2611
nofuna	-12.2664
ngikha	-12.2668
khawuleze	-12.2672
njengabazenz	-12.2678
ih	-12.2678
laling	-12.2689
hlubuk	-12.2689
nesiphi	-12.2692
ezingaphe	-12.2698
ngiz	-12.27
sekw	-12.2712
niphenduke	-12.2725
yakusi	-12.2732
nend	-12.2733
onile	-12.2746
siyaba	-12.2749
bammangalela	-12.2774
okuthethelel	-12.2775
ngakuba	-12.2776
njengaku	-12.2778
ababhubhis	-12.2779
bahol	-12.279
abaza	-12.279
anu	-12.2797
khwe	-12.2797
nasikh	-12.2803
nalud	-12.2807
abakhwelw	-12.2814
asis	-12.2816
namath	-12.2837
engavuswa	-12.2838
waleth	-12.2857
kusekho	-12.2859
vivinye	-12.2861
lithe	-12.2863
iyifum	-12.2868
imanga	-12.2869
abuthe	-12.2872
theli	-12.2875
izile	-12.2877
uzakub	-12.2887
wayeselula	-12.2891
sokub	-12.2892
wabethe	-12.2894
eyakuba	-12.2895
umb	-12.2897
babefik	-12.2909
ngiyaba	-12.291
nganyakaziswa	-12.2913
nesabe	-12.2913
bakhumbul	-12.2917
ngokuyi	-12.2917
magatsh	-12.2929
sad	-12.294
angibona	-12.2944
imind	-12.2948
lalingu	-12.295
jabhis	-12.2952
nasezw	-12.2956
nasend	-12.2962
sishumayel	-12.2974
hethwe	-12.2975
yigqolozel	-12.2985
nikwenze	-12.2992
ngingakwaz	-12.2998
uy	-12.3
kumka	-12.3009
kubuthe	-12.3027
owenze	-12.3042
bama	-12.3044
wabathath	-12.3048
basiza	-12.3054
nisekel	-12.3055
esim	-12.3059
nginibon	-12.3072
kwemih	-12.3079
kubafo	-12.308
lenke	-12.3095
icele	-12.31
wayenemi	-12.3108
fafaz	-12.3112
nobuhl	-12.312
usebenza	-12.3133
nokuphuz	-12.3144
lekela	-12.3145
ngukubong	-12.3148
aningi	-12.3165
uyakuza	-12.3194
imin	-12.3197
endodakazi	-12.3203
ababese	-12.3214
ningibon	-12.3219
okoz	-12.3237
yembe	-12.3238
makazi	-12.3239
banjalo	-12.3253
nabayiz	-12.3253
mbingelela	-12.3264
bevu	-12.3275
angaw	-12.328
sinjenge	-12.3289
khazimula	-12.3295
abasokile	-12.3301
amvu	-12.3301
nginalo	-12.3306
zakuza	-12.3309
babhubha	-12.331
zondelel	-12.3316
nithengi	-12.3325
behlis	-12.3358
athath	-12.3361
ukuzindl	-12.3363
zithobis	-12.3364
ziy	-12.3368
delele	-12.3373
zivuth	-12.3379
ngakubona	-12.3417
qale	-12.3422
liqinile	-12.3424
ofakaza	-12.3425
onezin	-12.3425
sidla	-12.3426
zahlulel	-12.3426
nicela	-12.3432
zigcine	-12.3441
ithanda	-12.3444
bamkhaphel	-12.3448
lenhl	-12.3469
kufuna	-12.3477
ngininik	-12.3485
futh	-12.3492
ichithe	-12.3498
uyakubiz	-12.3505
kuqonden	-12.3505
kungubu	-12.3508
kamazi	-12.3514
ohlanga	-12.3527
ndwa	-12.3546
usefi	-12.3548
ebiz	-12.355
kuhlanzek	-12.3554
phingi	-12.3557
ngamukel	-12.3558
okungalungi	-12.3567
esingam	-12.357
sondel	-12.3582
lokud	-12.3582
linama	-12.3591
wamad	-12.3605
itho	-12.3608
cabangi	-12.3612
baphi	-12.3621
ngokuhamba	-12.3636
nikhale	-12.3662
bathint	-12.3667
isisu	-12.3679
bavusw	-12.369
ngemvu	-12.3696
arab	-12.3698
zikhuza	-12.3704
ungumfundi	-12.3712
emazw	-12.372
ngolungi	-12.3726
wasibi	-12.3729
ningamazi	-12.373
londoloz	-12.3738
asin	-12.3746
kazalwa	-12.3754
ngibon	-12.3786
abayiz	-12.3796
ibethel	-12.3811
lingum	-12.3818
okuvel	-12.3829
uzakuku	-12.3831
ork	-12.3841
nenko	-12.3841
amba	-12.3842
isiy	-12.3863
bevum	-12.3864
okuli	-12.3873
zula	-12.3882
kombus	-12.3895
okushay	-12.3895
kumenyezel	-12.3919
nezen	-12.3921
ngalazi	-12.3925
ngigcin	-12.3926
ngaphezul	-12.3927
bakuzwa	-12.3937
rna	-12.3943
phume	-12.3951
kungamesabi	-12.3956
asinjeng	-12.396
engayi	-12.3962
elana	-12.3964
bahlabe	-12.3966
ayivusa	-12.3974
esokh	-12.3982
angifumana	-12.4013
ngibhapathiz	-12.4014
sisekho	-12.4016
wayen	-12.4021
bethele	-12.4023
esem	-12.4024
lisusa	-12.4026
esezaku	-12.4043
bisa	-12.4057
phula	-12.4059
kudukisa	-12.406
ngokweqi	-12.4071
uzula	-12.4072
nawom	-12.4074
isibuy	-12.4074
ayis	-12.4085
ading	-12.4091
besab	-12.4105
bafulathel	-12.4117
sasind	-12.4119
inc	-12.4124
lulek	-12.4127
mbambe	-12.4128
athanda	-12.413
niding	-12.4137
belila	-12.4138
bay	-12.4139
wath	-12.4147
sizakwen	-12.415
nec	-12.4157
owayen	-12.4173
nasemakha	-12.4179
kwav	-12.418
bamkhiphe	-12.4183
ingenaku	-12.4204
ngaman	-12.4212
mbuyise	-12.4227
nokusol	-12.4227
phulukisw	-12.4229
enzele	-12.4235
benam	-12.424
oluhl	-12.4242
ngithume	-12.4249
nikhathazeke	-12.4252
ngifuman	-12.4253
lulela	-12.426
wambamb	-12.4264
niki	-12.4264
wazinik	-12.4268
kus	-12.4275
yisela	-12.4279
kodo	-12.4279
bangenis	-12.4288
bangazi	-12.4289
ner	-12.4292
ayilungisel	-12.43
thuli	-12.4302
ihlale	-12.4305
sikhonz	-12.4318
sikhon	-12.4329
ihlotshis	-12.4333
likhazimul	-12.435
gweme	-12.4364
nikude	-12.4365
sikholw	-12.4367
kuguqulw	-12.4368
isizi	-12.4383
ukudel	-12.4387
nonile	-12.4388
siyakwenz	-12.4392
zikhulume	-12.4399
thuki	-12.4404
akuyi	-12.4404
ningakhubeki	-12.4413
akukhuluma	-12.4416
ukumkhu	-12.4419
bamukelisw	-12.4423
kwabafundi	-12.4435
xutsh	-12.445
phakamise	-12.4465
waguq	-12.4472
bebenga	-12.4476
wamm	-12.4492
yisith	-12.4498
zingu	-12.4499
ngalotshwa	-12.4503
saphil	-12.4507
pu	-12.4508
ongayikw	-12.4519
okukuw	-12.4523
bokwal	-12.4526
siyab	-12.4528
bathe	-12.4528
abanesithu	-12.4534
okw	-12.4535
uyakuzi	-12.4541
kwabez	-12.4554
angaqondi	-12.4558
hume	-12.4559
yayisiyi	-12.4574
bangama	-12.4576
aqinise	-12.4586
wayenge	-12.4587
wezimp	-12.4593
khukhumele	-12.4594
ningakwenz	-12.4596
nibiz	-12.4604
ziyakuba	-12.4606
nemikhu	-12.4607
nivuse	-12.4612
ebengu	-12.4613
wahlukanisi	-12.4626
isikhu	-12.4629
sekulung	-12.4632
wamenz	-12.4635
nibusis	-12.4637
ohlol	-12.4644
ngiyib	-12.4644
phefumul	-12.4652
gcwalise	-12.4661
bayakuyi	-12.4688
thunyelwa	-12.4689
onom	-12.47
alethw	-12.4713
maning	-12.4719
alahlekelw	-12.4721
thukulu	-12.4733
ajabhis	-12.4737
wapha	-12.4745
isana	-12.475
ngiyakufaka	-12.4765
qhingi	-12.4774
sebembon	-12.4777
kufakaz	-12.4785
siyal	-12.4791
oyisi	-12.4803
ubumn	-12.4803
zifune	-12.4808
nkanyezi	-12.4809
uziboph	-12.4817
hlotsh	-12.4825
philisile	-12.4831
ishiyele	-12.4839
ukwenzel	-12.4844
zinike	-12.4849
ingozi	-12.4851
zakwenyuk	-12.4855
izibul	-12.4863
uyamukeliswa	-12.4866
ivus	-12.4867
esesishiyagalo	-12.4869
ephil	-12.4871
ingalo	-12.4877
zimpond	-12.4893
shaneli	-12.4897
ngikunike	-12.4897
okokufa	-12.4913
ngel	-12.4917
yithabath	-12.4918
baphele	-12.4927
emimoy	-12.4934
landele	-12.4939
nhluphek	-12.4945
sime	-12.4947
owayo	-12.495
nif	-12.496
aziso	-12.4965
ngembathis	-12.4966
nibekezelela	-12.497
ngomnya	-12.4975
okucabanga	-12.4976
faki	-12.4982
ukusus	-12.4993
nesin	-12.4999
khany	-12.5013
siqhingi	-12.5022
isiphamb	-12.5024
uyakubonakala	-12.5026
enabel	-12.5032
ahluphe	-12.5035
bafakazel	-12.5036
avu	-12.5042
sife	-12.5048
ikhathaza	-12.5061
ngiyakuw	-12.5071
wesink	-12.5085
bengabakho	-12.5086
hlambi	-12.5087
abangas	-12.5087
ngubu	-12.5095
ahlushw	-12.5099
rti	-12.5103
hez	-12.5116
liyakum	-12.5118
viviny	-12.512
lukiy	-12.5129
ngamelan	-12.5135
kwamukelw	-12.5137
zaze	-12.5147
guquk	-12.5148
kumlalel	-12.515
tende	-12.5152
nokubu	-12.5154
thiwe	-12.5154
abathobe	-12.5156
kulingana	-12.5164
beyakukhu	-12.5164
ukugcob	-12.5164
kungakholw	-12.5167
izikhulu	-12.5173
nowasi	-12.5173
lifik	-12.5176
ngiyaphi	-12.5176
sezimuki	-12.5189
ganile	-12.5198
bangahlambalaz	-12.5199
kunaku	-12.52
yiphons	-12.5203
khethile	-12.5206
phathisw	-12.5207
.	-12.5207
nelezi	-12.5208
?	-12.5208
eliyu	-12.5208
kuthukuthele	-12.5208
azar	-12.5211
ukuhlan	-12.5215
haqile	-12.5216
eningaku	-12.5217
njiswa	-12.5222
zinjalo	-12.5223
ufakaze	-12.5227
enyukel	-12.5227
nezif	-12.5231
uyakuy	-12.5232
esikh	-12.5235
otho	-12.5241
esehle	-12.5245
salil	-12.5252
gab	-12.5253
uyakun	-12.5262
abakho	-12.5266
khaph	-12.5277
eliswa	-12.5278
nqa	-12.5282
ningabafundi	-12.5284
nkulu	-12.5295
kungavu	-12.5299
esebeke	-12.5299
zinhl	-12.5304
nihluphek	-12.5306
owanibiz	-12.5309
zikh	-12.5312
ongamel	-12.5313
kuyizi	-12.5325
abashintsh	-12.5327
umphik	-12.533
zincom	-12.5334
khumbuza	-12.5335
cwa	-12.5338
bamdumis	-12.5342
beme	-12.5345
icabangi	-12.5346
ngafumana	-12.5351
zabik	-12.5358
goqo	-12.5359
zinezi	-12.5361
imangalela	-12.5361
bakhumbu	-12.5364
mbuz	-12.5365
ngiseza	-12.5365
aphulukis	-12.5366
ngembathi	-12.5367
colisa	-12.5371
eshi	-12.5374
ezenzi	-12.5374
zwakalis	-12.538
gadla	-12.5388
esif	-12.5398
benikwa	-12.5406
kwakul	-12.5408
okubulala	-12.5411
londoloze	-12.5414
ado	-12.5415
azimisel	-12.5415
gijim	-12.5417
singasindi	-12.5417
ningakh	-12.5418
iphele	-12.5423
iqale	-12.5423
amaf	-12.5431
akhwel	-12.5431
kuthokoz	-12.5432
ejok	-12.5433
esikucel	-12.5437
kukheth	-12.5442
okubola	-12.5442
singatha	-12.5443
laleli	-12.5446
ayikwazi	-12.5446
shumayel	-12.5447
akuvuny	-12.5449
aliz	-12.5451
engayib	-12.5453
ngisekho	-12.5455
sesondel	-12.5455
ezoni	-12.5457
xa	-12.5461
ayifuman	-12.5463
ongangi	-12.5464
sembethe	-12.5464
emiful	-12.5464
qaphelisis	-12.5465
nezihl	-12.5465
kunci	-12.5466
rod	-12.5468
senzele	-12.547
nceng	-12.547
liyakub	-12.5472
alahle	-12.5473
uphenduk	-12.5475
mahluk	-12.5476
inja	-12.5476
ngayidl	-12.5478
rob	-12.548
zasend	-12.548
ezink	-12.5481
ifo	-12.5483
ngifumana	-12.5486
mvumel	-12.5489
akhubek	-12.5491
nyiwe	-12.5492
abathandiwe	-12.5493
ibisi	-12.5499
zelwa	-12.55
ngabafo	-12.5502
yagcwal	-12.5502
ungash	-12.5505
zonde	-12.5505
khandlek	-12.5507
emakha	-12.5511
phelekezelw	-12.5515
mnqob	-12.5516
ekuthunj	-12.5518
otshala	-12.5519
yivus	-12.5521
phindis	-12.5522
esenz	-12.5531
liqhu	-12.5532
gxil	-12.5533
woba	-12.5535
bekezele	-12.5536
iyele	-12.5537
nembath	-12.5538
celi	-12.5539
inkanuk	-12.5542
sasele	-12.5544
bahlul	-12.5547
ziqed	-12.5549
phonsi	-12.5551
bayis	-12.5551
ilotshiwe	-12.5552
akathi	-12.5554
abiy	-12.5555
njengesikh	-12.5561
wakhul	-12.5561
muny	-12.5562
hlakaniphe	-12.5565
esehlal	-12.5565
kwempa	-12.5566
aphenduke	-12.5567
ngizakwenz	-12.5567
nimangale	-12.5572
ngokuzith	-12.5573
kungokwe	-12.5573
yaphind	-12.5575
ahlukile	-12.5579
ayinkulu	-12.5583
zikhuleke	-12.5584
uyakwehlis	-12.5585
vivi	-12.5585
mdelel	-12.5585
esidl	-12.5588
bagcwalis	-12.5588
ukutho	-12.5588
thakatha	-12.5589
bahlakazek	-12.559
ihlume	-12.559
efakazelw	-12.559
isivum	-12.5593
sifela	-12.5594
zingak	-12.5595
phinde	-12.5596
akhulunyw	-12.5596
izinhlo	-12.5597
nxusela	-12.5598
iphulukis	-12.5598
afakaze	-12.5599
gezo	-12.5599
genk	-12.5599
kwesih	-12.56
dlov	-12.56
agq	-12.5601
jabulisa	-12.5602
ukwelak	-12.5603
izigidi	-12.5604
anikhumbul	-12.5605
ukhuleke	-12.5605
gezile	-12.5605
ahumush	-12.5605
ibulaw	-12.5605
okugu	-12.5606
ligu	-12.5606
gogi	-12.5606
gwedl	-12.5606
gwegwe	-12.5606
ingagudluz	-12.5606
okungayikuhlaluk	-12.5606
'	-12.5606
0	-12.5606
aqembu	-12.5606
bakuhlabel	-12.5606
baveze	-12.5606
cwilis	-12.5606
gidu	-12.5606
godla	-12.5606
gundi	-12.5606
kuging	-12.5606
kugwal	-12.5606
nizikhumbul	-12.5606
trif	-12.5606
tshulw	-12.5606
xhwangu	-12.5606
zigidigidi	-12.5606
zigodi	-12.5606
ziqheny	-12.5606
sebemmise	-12.5606
mncoma	-12.5606
nqunyiwe	-12.5606
mklomel	-12.5606
rtu	-12.5606
usamkhathaz	-12.5606
zishisw	-12.5606
▁¦12:	-12.5606
gets	-12.5606
jivaz	-12.5606
mbunganyel	-12.5606
yahluma	-12.5606
luthungel	-12.5606
nconyw	-12.5606
kwafipha	-12.5606
azizuzel	-12.5606
ngaxegi	-12.5606
kahlulel	-12.5606
kris	-12.5606
yikriso	-12.5606
akusu	-12.5606
nyukumal	-12.5606
zifinyez	-12.5606
zithakazel	-12.5606
kadadew	-12.5606
ekhakhasi	-12.5606
yanulek	-12.5606
mmemile	-12.5606
sidebesel	-12.5606
bayibeke	-12.5607
lundiza	-12.5607
ngilalele	-12.5607
bepheny	-12.5607
anisayiku	-12.5607
▁’;	-12.5607
ukuphambuk	-12.5607
okubekelwa	-12.5607
nasemig	-12.5607
akuhlambululile	-12.5607
wayondliw	-12.5607
okwangehlela	-12.5607
bashisw	-12.5607
qhinga	-12.5607
abesehamba	-12.5607
kungeqi	-12.5607
umkamfow	-12.5607
ngimenze	-12.5607
baxokozel	-12.5607
droni	-12.5607
sezizakuphel	-12.5607
ngokuphindiwe	-12.5607
ngasabonakali	-12.5607
finyezwa	-12.5607
amaphuph	-12.5608
hweba	-12.5608
izikhu	-12.5608
esedlulel	-12.5608
libhe	-12.5608
uphuluki	-12.5608
sihlom	-12.5608
ngiwuth	-12.5608
ulande	-12.5608
eley	-12.5608
bakuphiwa	-12.5608
ancishwa	-12.5609
beniqhub	-12.5609
zinjengezin	-12.5609
likheth	-12.5609
uphendule	-12.5609
kwesabisa	-12.5609
ngolulandela	-12.561
badedela	-12.561
ezijabulisa	-12.561
ziphanyek	-12.561
hlasela	-12.5611
xakek	-12.5611
enomkh	-12.5611
wamfaka	-12.5611
zezifu	-12.5612
singalahlwa	-12.5612
uthathe	-12.5612
elingenziw	-12.5612
ngilikhazimulis	-12.5612
abamgwaz	-12.5612
raha	-12.5612
ngahlukanisel	-12.5612
elinqa	-12.5612
bangad	-12.5613
wahlulelwe	-12.5613
ithunyelw	-12.5613
safir	-12.5613
kwasha	-12.5614
wawunjengom	-12.5614
amkhaphel	-12.5614
akusayi	-12.5614
dalma	-12.5615
ngokuhlamba	-12.5615
akhazimulisw	-12.5615
lidlulisel	-12.5615
antipa	-12.5615
engibathanda	-12.5615
wayiho	-12.5616
kufiphal	-12.5616
hosho	-12.5616
ngikuhlosa	-12.5616
senabusa	-12.5616
eyahlukene	-12.5616
ezandulela	-12.5617
hara	-12.5617
akayikubanga	-12.5617
baraki	-12.5617
ohlake	-12.5618
okumfanele	-12.562
liyaphi	-12.562
thengiselan	-12.562
nemig	-12.562
ngobup	-12.562
niphathane	-12.562
ngiphendule	-12.562
abangangcolis	-12.5621
sinxusela	-12.5621
ngijabule	-12.5621
engowenza	-12.5622
ithathe	-12.5622
ngihube	-12.5622
ngilidlulisel	-12.5622
sonakalisa	-12.5622
azibekelel	-12.5622
duku	-12.5622
onikhohlisa	-12.5622
siw	-12.5622
okwahluk	-12.5623
kukhulisw	-12.5623
hlosa	-12.5623
ngethembi	-12.5624
ningadi	-12.5626
casha	-12.5626
esemfu	-12.5626
ezilimaza	-12.5626
sikhukhul	-12.5626
abakulungiselwe	-12.5626
njengabafow	-12.5627
nithwes	-12.5627
emhlang	-12.5627
zilungisi	-12.5627
esilungiselwe	-12.5628
laphi	-12.5628
okushiwo	-12.5628
yelekelela	-12.5628
kwabadumile	-12.5629
maphuc	-12.5629
bahlezi	-12.5629
athobis	-12.5629
ngingakubamb	-12.563
hamb	-12.5631
kungaziwa	-12.5632
akuthol	-12.5632
mahlukanisi	-12.5632
ngis	-12.5633
nabaphathi	-12.5633
wayengangena	-12.5633
zezink	-12.5633
geziwe	-12.5634
bahlalis	-12.5635
nibabekezelel	-12.5635
zithukulul	-12.5635
akwethembis	-12.5635
bamphelekezela	-12.5636
nicetshis	-12.5636
kiswa	-12.5636
sebedabul	-12.5636
ingasayikukhul	-12.5637
engikuzwa	-12.5638
ngibonise	-12.5638
yezin	-12.5639
balalele	-12.5639
pr	-12.564
esiphelele	-12.5641
bakhuphu	-12.5641
azilokothel	-12.5641
wazama	-12.5641
yizif	-12.5641
esayenza	-12.5641
sekuzaku	-12.5642
bengath	-12.5642
nimla	-12.5642
alimal	-12.5643
azulazul	-12.5643
ngimfu	-12.5643
awudi	-12.5644
angizisol	-12.5644
izinhlobo	-12.5644
nginivuse	-12.5644
sithumile	-12.5644
yakhw	-12.5645
jabule	-12.5645
akufuna	-12.5645
zingaphi	-12.5645
akutheng	-12.5646
nokunci	-12.5646
sabak	-12.5646
yagxum	-12.5648
angathola	-12.5648
kwakuyizin	-12.5648
okwelekel	-12.5649
yisifu	-12.565
sp	-12.565
isiyalez	-12.565
ungowesi	-12.565
nganamukeli	-12.565
akasho	-12.565
awavumel	-12.5653
kwehlele	-12.5654
wehlele	-12.5654
ngilingis	-12.5655
wangenzela	-12.5655
abangalaleli	-12.5656
nabaqambi	-12.5657
elinde	-12.5659
mmiselwe	-12.5659
angifuni	-12.5659
ongowe	-12.566
abadli	-12.566
ehlambulukile	-12.5661
ayikhulu	-12.5661
engakabi	-12.5662
elibheke	-12.5662
esenqum	-12.5662
nizidlul	-12.5663
ngililel	-12.5664
mvumi	-12.5664
lamula	-12.5664
wathathe	-12.5664
engingayi	-12.5665
siyakuwu	-12.5666
yayenziw	-12.5667
akungabe	-12.5667
abuyisel	-12.5667
eyisish	-12.5667
silungisele	-12.5669
abadumile	-12.5669
okusez	-12.5669
alwenz	-12.567
wethembisa	-12.5671
bahlubuk	-12.5672
ngesid	-12.5672
asenze	-12.5672
yamukeleka	-12.5672
kungengokwe	-12.5673
meme	-12.5673
awuhlwanyel	-12.5673
abayisishiyagalo	-12.5673
ukisile	-12.5674
nokokwa	-12.5674
unju	-12.5674
esenyukel	-12.5674
nokufafaz	-12.5675
ningakhathal	-12.5675
elingatheli	-12.5675
ekhwel	-12.5677
hlazisa	-12.5677
ukukhuphu	-12.5678
ngazinqumel	-12.5679
nyeki	-12.5681
kwabathengisa	-12.5682
angizuku	-12.5683
bangimangalel	-12.5684
sesivu	-12.5685
nowesaba	-12.5685
yithumile	-12.5685
akathanda	-12.5685
ubengayiku	-12.5685
xubani	-12.5687
bazenz	-12.5687
asibamb	-12.5688
umchi	-12.5688
yisiphe	-12.5689
wamgcoba	-12.5689
zamkh	-12.5689
ikhokhe	-12.569
igcwal	-12.5691
owabiz	-12.5692
abamamukela	-12.5693
ngimela	-12.5693
bunjengob	-12.5693
abakhandleka	-12.5696
aphile	-12.5696
sebenzile	-12.5697
athenge	-12.5699
bayihlanganyel	-12.5699
wakubeka	-12.5699
fuzula	-12.57
isimis	-12.57
siqinise	-12.5702
libazis	-12.5703
sihaqi	-12.5704
mikhunjan	-12.5704
angicel	-12.5705
nemih	-12.5705
obizelw	-12.5707
kabasayik	-12.5707
enhl	-12.5707
anisiw	-12.5708
akunikez	-12.5709
kubuki	-12.5711
ngibonakalis	-12.5711
kunqobe	-12.5712
sibambisis	-12.5712
ngazindli	-12.5712
phosho	-12.5712
akusin	-12.5713
ngisele	-12.5713
ngokwakhulunywa	-12.5714
nokutho	-12.5714
ngiphumele	-12.5715
siduduzek	-12.5715
ukugeza	-12.5715
yowoni	-12.5716
banamathel	-12.5717
angakhipha	-12.5721
sebes	-12.5722
kuqwash	-12.5723
ngokutho	-12.5723
beyin	-12.5724
ngingowo	-12.5724
ngezimpa	-12.5725
luleki	-12.5727
qothu	-12.5727
bakuphik	-12.5728
azivu	-12.5728
nomfow	-12.573
enabiz	-12.5734
ngabanje	-12.5735
sesamukel	-12.5735
beqinis	-12.5736
wahlukanisel	-12.5737
okubekiwe	-12.5738
ngiyakuthu	-12.5738
luyasi	-12.5739
aguqa	-12.5739
nginxusele	-12.5739
okudili	-12.574
wayethe	-12.5744
ikhulume	-12.5746
mkhaphel	-12.5747
njengokuswel	-12.5754
erod	-12.5755
nilahl	-12.5755
okungaziwa	-12.5755
anamukeliswa	-12.5756
babekho	-12.5757
simenz	-12.5759
baphambukel	-12.5759
ezisez	-12.576
enging	-12.5761
babem	-12.5761
thunqa	-12.5763
abadukisa	-12.5764
nazin	-12.5764
esiqhingi	-12.5764
ewuf	-12.5764
siyawu	-12.5766
soqo	-12.5766
namukeliswa	-12.5767
bakha	-12.5768
bithi	-12.5771
baqhube	-12.5772
yabakhanyis	-12.5772
ababu	-12.5772
luphi	-12.5773
ulobe	-12.5774
malung	-12.5775
layith	-12.5777
bayimith	-12.5777
esitha	-12.5777
ngilibala	-12.5778
uzakut	-12.5778
iyinto	-12.5779
kungaze	-12.5779
azalw	-12.578
ngiyanif	-12.5782
aliso	-12.5784
amthint	-12.5787
oshwe	-12.579
simboz	-12.5791
eningas	-12.5791
bamshay	-12.5792
akuyikul	-12.5793
nyak	-12.5794
iklolodel	-12.5794
kwabangakwesok	-12.5795
yokupha	-12.5798
uyakwe	-12.5799
fulathela	-12.58
ubeka	-12.5801
ngamzond	-12.5803
niyakukhuluma	-12.5804
wasifela	-12.5806
badak	-12.5807
zabangena	-12.5808
sinale	-12.5811
lisebenzis	-12.5813
ninganik	-12.5813
gabu	-12.5816
kubalind	-12.5816
uqale	-12.5817
usenzele	-12.5818
ngikuth	-12.5819
olak	-12.5821
uthele	-12.5822
ugcin	-12.5822
azelwa	-12.5823
okukhulunywa	-12.5823
siyabona	-12.5826
asifuman	-12.5827
maningakho	-12.5829
kungeyi	-12.583
nisengab	-12.5835
laliyi	-12.5837
ngiqinisa	-12.5837
wax	-12.5838
nekha	-12.5843
nakuma	-12.5844
neyes	-12.5845
iphilile	-12.5845
ubambe	-12.5847
hloniphek	-12.5847
ukuviviny	-12.5849
bahlabelel	-12.5849
asu	-12.585
khathele	-12.5851
eyitshe	-12.5852
agawu	-12.5852
sekubonakal	-12.5853
zinsiz	-12.5854
bazila	-12.5855
sabela	-12.5855
akambon	-12.5855
angamvus	-12.5856
abasez	-12.5857
abazuzi	-12.5857
eqinisekile	-12.5857
akakheth	-12.586
babebahl	-12.5861
njengemb	-12.5862
okuyikhona	-12.5862
isigqo	-12.5866
huma	-12.5868
kukhunjul	-12.5868
ningamuk	-12.5868
fihla	-12.5869
kunilung	-12.587
bazigcine	-12.5872
bangabe	-12.5874
njengeso	-12.5877
siqinisa	-12.5877
engenam	-12.5877
sombha	-12.5878
bahlambalaz	-12.5878
nezezi	-12.5879
umiselw	-12.5879
ngokhululekile	-12.5879
baphuc	-12.5882
nidabukisw	-12.5882
zinakekel	-12.5884
nangales	-12.5884
phatr	-12.5885
nibambe	-12.5886
ufakazelw	-12.5886
yezwakal	-12.5887
ngimzwel	-12.589
ondliw	-12.5891
athokoze	-12.5891
usese	-12.5892
shintsha	-12.5893
niligcine	-12.5893
abaveza	-12.5895
bengenaku	-12.5897
ukuzith	-12.5898
iyakuyi	-12.5898
kawush	-12.59
lingama	-12.5901
bakuvuma	-12.5901
wavumela	-12.5904
zihlonipheka	-12.5904
emahl	-12.5905
ngehlela	-12.5906
zihlakazekile	-12.5906
cebe	-12.5911
benezel	-12.5911
okulu	-12.5911
bemhaq	-12.5911
nowezi	-12.5913
akuhlangan	-12.5913
uzikheth	-12.5914
basilaya	-12.5916
kubulal	-12.5916
inhla	-12.5916
nangokwazi	-12.5917
bambiza	-12.5917
ababew	-12.592
zithotshis	-12.5921
nisinda	-12.5923
kuyali	-12.5924
ukuland	-12.5925
akudal	-12.5926
owayengum	-12.5927
kuyakun	-12.5927
yahlulel	-12.5929
bamthatha	-12.593
ehlelw	-12.5932
kuqondi	-12.5934
ehle	-12.5936
angiyek	-12.5941
asibal	-12.5942
obusu	-12.5945
alisus	-12.5946
ngithokozisa	-12.5946
abanja	-12.5949
abangakhulek	-12.5952
sengaba	-12.5954
uyakuph	-12.5956
engiwakhulum	-12.5956
ngidlul	-12.5959
baqale	-12.596
mdal	-12.596
kulotshelw	-12.5963
nangasem	-12.5964
inesih	-12.5965
esimi	-12.5965
umun	-12.5965
ngakulob	-12.5966
engalikhulum	-12.5966
bengakahla	-12.5967
engaqondi	-12.5968
yizinhl	-12.5969
ningibizel	-12.597
zakungenis	-12.5973
ngisezaku	-12.5974
kukhulekela	-12.5974
kwemif	-12.5976
eyindoda	-12.5978
uyakwenezel	-12.598
ngeyoku	-12.598
bakhonz	-12.5981
ayesevul	-12.5987
beyakuli	-12.599
amshay	-12.5991
bomu	-12.5993
dleke	-12.5995
anisin	-12.5995
engamise	-12.5996
ungalib	-12.5997
abaduki	-12.5999
zikhonza	-12.6
abus	-12.6
uswe	-12.6
kabasho	-12.6001
nasekutha	-12.6001
ngiyinkosi	-12.6002
sapheph	-12.6003
lokumbel	-12.6004
abazibonga	-12.6004
siduduza	-12.6005
naban	-12.6006
asamukela	-12.6007
ekumuk	-12.6007
lidons	-12.6009
beland	-12.6013
jiswa	-12.6014
eningababi	-12.6016
kokuf	-12.6021
ezilwa	-12.6022
walahle	-12.6024
anginaku	-12.6026
okungavel	-12.6026
abakuzwa	-12.6026
ifane	-12.6027
nokwanel	-12.6028
gayo	-12.6029
isibusis	-12.6029
nihl	-12.6032
sasinawo	-12.6033
nenyo	-12.6033
ayele	-12.6034
bap	-12.6036
ababambis	-12.6036
ungasi	-12.6037
okufunda	-12.6037
usind	-12.6038
ngesikhashan	-12.6038
khalakathel	-12.6045
basikhiph	-12.6046
phathiswa	-12.6047
sizila	-12.6047
kugcwal	-12.6048
lumi	-12.6048
evutha	-12.6049
ungadelel	-12.605
owanibiza	-12.6051
nezamb	-12.6053
esithand	-12.6055
lalisa	-12.6056
kusem	-12.6056
inkamb	-12.606
owasiphi	-12.6063
yakwembath	-12.6067
nelinga	-12.6071
ayale	-12.6075
ningawamukel	-12.6076
wembe	-12.6076
besengi	-12.608
matende	-12.6081
abeleth	-12.6084
inhlam	-12.6085
uzilungisele	-12.6086
kuvimbe	-12.609
ngakhulum	-12.6091
nimthethelel	-12.6091
selidluli	-12.6093
sasingaba	-12.6098
ukukulob	-12.6099
ezimi	-12.6099
waholel	-12.61
abangenaku	-12.6103
bezakum	-12.6106
nisale	-12.6109
ngokutus	-12.611
singabokukh	-12.6113
amakho	-12.6114
sithemb	-12.6115
balungisisile	-12.6115
cime	-12.6121
uzile	-12.6121
bengavum	-12.6122
isifik	-12.6122
ngokwezi	-12.6126
esesith	-12.6126
ningambon	-12.6128
enginiyal	-12.6136
ngizibona	-12.6138
ugcine	-12.6141
gele	-12.6143
asidla	-12.6145
iseza	-12.6146
zakuyinqum	-12.6151
esishiyagalo	-12.6151
onyo	-12.6151
ebhan	-12.6152
ukuphile	-12.6157
ngxa	-12.6157
ngithunyelw	-12.6158
basondel	-12.6158
amangalelw	-12.6159
zibekiwe	-12.6165
uthengise	-12.6165
usondel	-12.6165
simisela	-12.6166
abhekisis	-12.617
uzakugcwalis	-12.6172
nihlo	-12.6172
kusasele	-12.6174
nelen	-12.6175
luphelele	-12.6178
kwesab	-12.6181
zaphaka	-12.6181
vulele	-12.6184
kumhlo	-12.6185
singabuy	-12.6185
enezel	-12.6191
yilobe	-12.6192
lubona	-12.6192
yamehl	-12.6193
bangekwen	-12.6196
niyam	-12.6197
kwabavun	-12.6199
sibizela	-12.6201
bacasuk	-12.6201
khela	-12.6201
kwakungena	-12.6207
ngamaf	-12.6213
bazise	-12.6222
okunja	-12.6223
olom	-12.6224
kisi	-12.6225
babengenam	-12.6228
ayakuza	-12.6228
wayihl	-12.6235
ezipha	-12.6238
izelel	-12.6239
sebebuy	-12.624
akali	-12.6244
baphelelis	-12.6246
ngomb	-12.625
owenyukel	-12.6254
anizwa	-12.6267
ahleka	-12.6268
uyakuwu	-12.627
nifak	-12.6273
kunyoko	-12.6274
baligcin	-12.6286
izinso	-12.6288
uyakusind	-12.629
ngigijimela	-12.629
ukhalela	-12.6292
akahlal	-12.6293
utshal	-12.6294
esingaba	-12.6295
siyibonile	-12.6299
nginikheth	-12.6301
kwaphu	-12.6307
wembath	-12.6308
baleke	-12.6309
ngokukhulunyw	-12.631
dabukisile	-12.6314
esizaku	-12.6314
sokuphelel	-12.6318
sekudal	-12.6318
umiselwe	-12.6319
nensim	-12.6322
abakhala	-12.6322
libambe	-12.6322
usindisw	-12.6327
inxi	-12.6333
ngalith	-12.6333
bethuk	-12.6337
izifu	-12.634
atom	-12.634
izindle	-12.6341
okuhlangan	-12.6341
asafa	-12.6345
wakhanyis	-12.6347
ngenam	-12.635
nokuqalekis	-12.635
ukubonakalis	-12.6352
thethwe	-12.6356
bas	-12.6362
mfa	-12.6365
yizinyo	-12.6365
eziprofeth	-12.6366
kubekiwe	-12.6367
odabul	-12.6368
nezis	-12.6369
ash	-12.6374
owamukele	-12.6375
ngendl	-12.6377
adabul	-12.6377
gwin	-12.6377
izenz	-12.6379
balinga	-12.6387
sikhumbul	-12.6395
bangezi	-12.6398
sihlabathi	-12.6404
xwayis	-12.6408
ungafi	-12.6411
ubapha	-12.6417
engil	-12.6417
elilungi	-12.6419
ngokufana	-12.6421
ezinama	-12.6424
wayengesi	-12.643
niyangi	-12.6431
kwasez	-12.6433
okunguye	-12.6433
bakhethile	-12.6434
usuke	-12.6436
owamu	-12.6437
nakuphakam	-12.6437
ngesoku	-12.6437
asaneli	-12.6439
enihlupheka	-12.6441
ipro	-12.6441
engimis	-12.6447
madol	-12.6448
akuyikuba	-12.6453
khubekisi	-12.6454
athembekile	-12.6465
obulu	-12.6471
ngumkh	-12.6477
okungazenzisi	-12.6477
zihlakazek	-12.6482
libu	-12.6487
esabe	-12.6489
bayam	-12.6489
angaze	-12.65
uyali	-12.6506
lotshwe	-12.6512
wenziw	-12.6513
hliswa	-12.6523
akusa	-12.6524
khaphel	-12.6529
zinqolobane	-12.6535
abafike	-12.6539
wayesegijim	-12.6541
asenz	-12.6545
thes	-12.6549
ngingom	-12.6552
aphelele	-12.6556
yithu	-12.6563
uvamis	-12.6572
bazibamb	-12.6572
kungabe	-12.6575
ukuphendula	-12.6577
ukwehlis	-12.6578
ephenduke	-12.6578
ngokufu	-12.6582
babikel	-12.6582
lingani	-12.6585
ngowom	-12.6588
nangokum	-12.6589
abazalwa	-12.659
yingini	-12.6594
aphumele	-12.6594
ongowen	-12.6604
ligcwalis	-12.6604
onginike	-12.6608
ngijong	-12.661
siyakwamukel	-12.6613
yova	-12.6616
emithi	-12.6618
thengiswa	-12.6619
asil	-12.6623
ababamba	-12.6623
iphilisile	-12.6643
akhela	-12.6648
zeza	-12.6652
hlakele	-12.6662
okwenzakele	-12.6663
ozenza	-12.6666
bakhaphela	-12.6676
bevuka	-12.67
hucu	-12.67
kuvelela	-12.6703
owakha	-12.6709
ikukhazimulis	-12.6713
nasekukhule	-12.6717
esezakwen	-12.6722
nabemi	-12.6728
kubehlel	-12.6732
bengingen	-12.6736
abangenaluth	-12.6736
kawus	-12.6737
akhiphe	-12.6745
engingow	-12.6752
nowen	-12.6753
usifak	-12.6791
esiyakuba	-12.6792
ngiphelekezel	-12.6795
basindiswa	-12.6797
okona	-12.6803
bahambisa	-12.6806
kulungiselwe	-12.6806
yalisis	-12.6814
bangifumana	-12.6816
nimel	-12.6817
ezibu	-12.6817
ngiyakuli	-12.6819
wakhumbula	-12.6819
abayal	-12.6825
bengingafi	-12.6827
amnike	-12.6828
aphelelis	-12.6829
abesab	-12.6835
adale	-12.6836
mhlwith	-12.6838
sigcwalis	-12.6844
kumngcolis	-12.6845
ngafunyanwa	-12.6847
kuyind	-12.6855
sibhek	-12.686
ukub	-12.6863
oninika	-12.6865
libalel	-12.6866
nikhathaz	-12.6872
ukumb	-12.688
yakuchith	-12.6881
khulek	-12.6889
mphindisel	-12.6896
ngalamukela	-12.6898
edum	-12.6902
vunwa	-12.6903
kwemith	-12.6904
esinges	-12.6905
elixu	-12.691
bekhuphukel	-12.6914
baziphath	-12.6924
ngoweny	-12.6924
awukhulum	-12.6926
angenyukel	-12.6928
sigc	-12.693
ikhule	-12.6937
kwamalung	-12.6942
bakhaphel	-12.6965
yazondl	-12.6978
akam	-12.6981
umshay	-12.6982
kushunyayelw	-12.6984
izinku	-12.6999
athathe	-12.7005
vuse	-12.7023
ninganak	-12.7026
angasinik	-12.7034
mbuyisel	-12.7034
sebebabon	-12.7035
yokuvun	-12.7051
ngazithib	-12.7053
yashunyaye	-12.7053
uh	-12.7056
angakhulum	-12.7064
kungumyal	-12.7067
engavum	-12.7067
ngezibo	-12.7078
baqhubel	-12.708
ayifumana	-12.7085
sithwal	-12.7089
esiqond	-12.709
sebamukel	-12.7114
kuziland	-12.7124
sihlwanyelw	-12.7125
eqonde	-12.7134
gcwal	-12.7136
ebeni	-12.7144
bamvumela	-12.7147
isibona	-12.7147
iyimise	-12.7149
ngikukhulum	-12.715
liphum	-12.716
ngembathisa	-12.717
lingam	-12.717
nikhathazekel	-12.7175
ekunik	-12.7177
bengange	-12.7178
hlalise	-12.719
ikwenze	-12.719
ezingo	-12.7195
udi	-12.7199
aniyi	-12.7205
yisihla	-12.7214
uvule	-12.7215
nayiphi	-12.7231
kubafanele	-12.7244
nangoml	-12.7253
wesitha	-12.7259
uyakuli	-12.7271
uyakuzib	-12.7272
yichitha	-12.7278
ongaza	-12.7279
zihlolisis	-12.7279
lidumile	-12.7284
asise	-12.7297
kuyisa	-12.7304
ngabheki	-12.7311
okumangal	-12.732
mfulathel	-12.7325
engiswa	-12.7326
lwesikh	-12.7333
bahlabel	-12.7343
kuzwakale	-12.735
bababul	-12.7358
kulonde	-12.7365
sebebal	-12.7373
wazikheth	-12.7382
kwethemb	-12.7388
yiliba	-12.7392
wahlukanisa	-12.7393
bamkhiphel	-12.7413
yamphonsa	-12.7419
dalulwa	-12.7425
harm	-12.7425
ngibizel	-12.7431
seson	-12.7431
ongayi	-12.7434
ekeze	-12.7447
ngokuqondi	-12.7447
linjengelo	-12.7457
umn	-12.7457
anginilobel	-12.7461
ngakhubekisi	-12.7462
phikwa	-12.7465
ngingathand	-12.7474
alisi	-12.7489
zifis	-12.7494
awalond	-12.7503
isimemez	-12.7506
ongenza	-12.7506
zabakh	-12.751
nabakhohlis	-12.7512
siyala	-12.7535
njengokw	-12.756
lithembekile	-12.757
uyahla	-12.7575
ozithob	-12.7584
engesi	-12.7587
godle	-12.7597
okunguku	-12.7604
dali	-12.7605
makanga	-12.7609
benqab	-12.763
siyakha	-12.7633
masing	-12.7636
kuhlangan	-12.7641
singenz	-12.7655
bamtshe	-12.7662
ngibaphil	-12.7664
ngizakuba	-12.7665
kangak	-12.7668
eziduk	-12.7679
ezindla	-12.7681
low	-12.769
wunqum	-12.7691
ammis	-12.7697
abadele	-12.7706
bhoz	-12.771
vusel	-12.7723
okuncin	-12.7726
ukuyiph	-12.7727
akanama	-12.7728
sebemuk	-12.773
akunikiwe	-12.7751
ningakud	-12.7753
esazis	-12.7769
ngentam	-12.7784
esiphenduk	-12.7806
zicele	-12.7812
gamali	-12.7819
njengokwethemb	-12.7822
benjenga	-12.7825
engimthum	-12.784
nikhetha	-12.7842
ngabanika	-12.7845
kuwuthobel	-12.7846
ayikhiph	-12.7846
lungisile	-12.7856
aphele	-12.7857
asinaku	-12.7858
sesikhon	-12.7862
ngokushis	-12.7868
eyabonakal	-12.7872
ngisahl	-12.7905
exo	-12.7908
kwababhubh	-12.7909
ekhazimul	-12.7922
wamehl	-12.7941
shayile	-12.7949
mathempeli	-12.7954
nasekul	-12.7966
limuki	-12.7973
ngiphelelis	-12.7979
eseqal	-12.7984
sithokoz	-12.7997
nakusol	-12.8006
nezinhluph	-12.8014
gcob	-12.8026
apholi	-12.8033
hlotshis	-12.8041
nokweth	-12.805
babazingel	-12.8055
okungabhubhi	-12.8058
sishisekel	-12.8068
bayakubiz	-12.8083
ngakuphi	-12.8084
bangazil	-12.8084
ukugcwalis	-12.8092
siyash	-12.812
esebizi	-12.8121
guqulek	-12.813
ungivum	-12.8131
ngiyakubuy	-12.8138
balibon	-12.8144
wayesembamb	-12.8162
lokubi	-12.8164
kwezindl	-12.8203
betamas	-12.8207
babhapathizelwa	-12.8211
silahle	-12.822
gcobe	-12.8221
bayakuzw	-12.8261
zifundisi	-12.8269
sekubuth	-12.8286
ungowab	-12.8295
bumn	-12.8299
hube	-12.8303
nizakuphi	-12.8319
ngifakazel	-12.8327
umboz	-12.8344
engiyikh	-12.8349
usile	-12.8349
ngingani	-12.835
bashumayez	-12.8352
nenikuzw	-12.8352
bababamb	-12.8377
babezil	-12.841
nisahlal	-12.8422
ezinhlanz	-12.8465
lisus	-12.8477
eliyaku	-12.8484
siqonde	-12.8491
siseyiz	-12.8502
ngingasena	-12.8506
yisisu	-12.8516
siduduz	-12.8538
bahlulelw	-12.8552
nangok	-12.8563
njengenhla	-12.8568
ngibabo	-12.8579
kuyingc	-12.8582
isele	-12.8589
ngomnt	-12.859
nyezwa	-12.8613
isig	-12.8624
oyakuvu	-12.8635
mndeni	-12.8655
aphambuk	-12.8656
kungengam	-12.8657
kwakunjeng	-12.8659
begcw	-12.8661
ayikhaphel	-12.8669
usukum	-12.8683
baguqul	-12.8695
khathaz	-12.8699
ngey	-12.8703
bengabenya	-12.8715
sasim	-12.8721
anana	-12.8723
badakwa	-12.8748
esilwane	-12.8748
yayinge	-12.8753
nasemiz	-12.8776
njengomkh	-12.8779
ngambona	-12.879
abamaz	-12.88
besing	-12.8818
uyasiz	-12.8822
ihola	-12.8823
okusemhlab	-12.8825
bengaphenduk	-12.8826
cunuki	-12.8838
uleka	-12.8847
izid	-12.8871
ngikumis	-12.8885
uyakuqond	-12.8898
owayebe	-12.8912
odaka	-12.8937
ngabathandeka	-12.8952
beyibek	-12.8956
kubafow	-12.8961
aphikan	-12.8991
ngingath	-12.9003
abangazi	-12.9004
od	-12.9006
ningali	-12.9009
ukuniph	-12.9012
yayin	-12.9012
sibonakal	-12.903
ezinqol	-12.9032
zithule	-12.9069
zihlal	-12.9081
abakhathaz	-12.9085
wayesemqh	-12.909
selula	-12.909
senimb	-12.9091
ngangifuna	-12.9114
nangamany	-12.9125
bajabh	-12.9144
angisayikuz	-12.9149
esinc	-12.9165
usitshe	-12.9189
kungekwenz	-12.9205
wayesephons	-12.9234
sibikela	-12.925
kuvun	-12.9283
imbozi	-12.9293
uyakuphendul	-12.9294
ibethele	-12.9336
suthis	-12.9351
yakuthola	-12.9361
ithini	-12.9366
abalind	-12.9368
kusebenzela	-12.9396
akasaf	-12.9397
ziyizi	-12.9419
bengamaz	-12.9429
bambek	-12.943
akad	-12.9431
mik	-12.944
ningabiz	-12.9445
ngaphinda	-12.9473
niguquk	-12.9478
ezivu	-12.9481
babonakal	-12.9505
nakufihl	-12.9515
niqal	-12.9521
nasemi	-12.9521
sekuphel	-12.9532
akayikujabh	-12.9559
baduka	-12.957
lizakub	-12.9573
ababes	-12.9593
engakamb	-12.9601
ngezinkan	-12.9607
eyakum	-12.9615
esithombe	-12.9626
ethwa	-12.963
kwabethe	-12.9651
nokukhol	-12.9681
bephikis	-12.9688
abuthwe	-12.9693
bangabaza	-12.9716
thab	-12.972
kufundis	-12.975
vivinyek	-12.9769
imqinis	-12.9775
zensi	-12.9777
bhobo	-12.9782
niqin	-12.9785
ganiwe	-12.9789
bahlukan	-12.9793
mzuzwan	-12.9814
abaphik	-12.9815
bahlanganis	-12.9815
abahambi	-12.9822
mdum	-12.9841
yaphul	-12.9849
ngashay	-12.9862
anikha	-12.988
ngiyakunitshe	-12.9885
yakuguqul	-12.9885
kungenjengok	-12.9922
asilalel	-12.9926
omzuzwan	-12.9927
nokuf	-12.9952
ezaluk	-12.9954
amvalel	-12.996
sezif	-12.996
nqabe	-12.9994
ukuphulukis	-12.9994
yisithun	-12.9998
ngiphil	-13.0016
igqila	-13.0029
ningalahl	-13.003
sebeza	-13.0033
nifikelwa	-13.0037
wayengenak	-13.0042
bazale	-13.007
bal	-13.0093
siqond	-13.011
nangeh	-13.0119
nikwenzel	-13.0131
cunuk	-13.014
abahlek	-13.0217
shaywe	-13.0252
zivu	-13.0283
niy	-13.0285
ziphuz	-13.0292
zidumisa	-13.031
kumtshe	-13.0312
wayalel	-13.0323
nabathandi	-13.0345
sesizw	-13.0354
ukufi	-13.0355
thululel	-13.0373
ezidlul	-13.0384
yah	-13.0391
wayemb	-13.0394
angal	-13.0404
nizakuf	-13.0411
aniyikub	-13.0421
kuthobel	-13.0423
kuyakwehl	-13.0428
ningakhohl	-13.0502
sehl	-13.0562
sebephume	-13.0563
buyisel	-13.0591
befakazel	-13.061
kungenjeng	-13.0645
sesiphamban	-13.0658
ukuva	-13.0664
sesith	-13.0671
lithel	-13.0674
abunjw	-13.0689
yakuphuza	-13.0691
ngigcwalis	-13.0691
nilenz	-13.0701
ayenjenga	-13.0705
kungcolis	-13.0706
jos	-13.0719
zimngcolis	-13.0727
ngokuhawukel	-13.0774
ure	-13.0779
singo	-13.08
bebabi	-13.0822
makath	-13.0823
linjengel	-13.0823
esid	-13.083
iswe	-13.086
owamukel	-13.0872
ahambisan	-13.0881
abuyel	-13.089
sihl	-13.0921
ngowokuth	-13.0932
nokumbuz	-13.0938
ngibethel	-13.0943
ora	-13.0955
umhlan	-13.0959
njengakw	-13.0961
mukela	-13.0967
kwaphind	-13.0975
ngahlanj	-13.0993
ngatshal	-13.1013
naman	-13.1027
ngingenis	-13.1036
okuthand	-13.1039
abasekh	-13.105
maningaf	-13.1062
sahlulelw	-13.1068
sikhumb	-13.1095
bebayal	-13.1111
lichith	-13.1152
kwenyus	-13.1167
kukhululek	-13.1171
wethemb	-13.1183
adlanga	-13.1203
heli	-13.1215
nabangakhol	-13.123
lent	-13.1297
bayal	-13.1304
yid	-13.1304
siphelelis	-13.1345
kohl	-13.1346
benik	-13.1352
asiyikub	-13.1368
nokukheth	-13.1373
nc	-13.1382
zavul	-13.1395
singayiku	-13.1406
ugodl	-13.1426
kulungisel	-13.1438
hlanganisel	-13.1462
ngilahlekelw	-13.148
ngibiz	-13.1481
balangazelel	-13.1505
wanik	-13.1533
solak	-13.1561
ayakum	-13.1603
wabikel	-13.1608
ukubingelel	-13.1649
benyuk	-13.1652
khwic	-13.1675
aniphathi	-13.1681
nin	-13.1693
njengeng	-13.1718
makadu	-13.1733
sethemb	-13.1751
baxosh	-13.1757
babuthan	-13.177
bakhiph	-13.1783
nginceng	-13.1789
vuthi	-13.1791
bengabafo	-13.1841
nizakukh	-13.1848
esith	-13.1866
baqoth	-13.1874
wamkhiph	-13.1883
enganik	-13.1908
sebekh	-13.1914
okutuseka	-13.1923
bagijim	-13.1924
yasipha	-13.1935
ngisebenze	-13.1945
angik	-13.1946
okungesab	-13.1948
ebun	-13.1965
wayeyis	-13.1977
ngabazal	-13.1979
ngumph	-13.2004
abafun	-13.2007
ziyakum	-13.2021
kabasiz	-13.2034
engen	-13.2035
bechith	-13.2041
ezindwang	-13.2044
ekhul	-13.2057
bengis	-13.206
nimfu	-13.2102
sengilung	-13.2111
ansi	-13.2127
mbisisa	-13.2135
asikhululel	-13.2165
okungok	-13.2202
zivam	-13.2207
onakalisa	-13.2226
selif	-13.2252
kunokud	-13.2331
yakwal	-13.2342
babengath	-13.2367
nasemih	-13.2382
asiz	-13.239
uzakuvu	-13.2424
khulekele	-13.2444
nezinhl	-13.2453
ngizakukuthum	-13.2478
sakhathaz	-13.2487
olungisisa	-13.2494
kuhlangul	-13.25
ninyakazis	-13.2527
awakhi	-13.253
ligcin	-13.253
njengabaf	-13.2548
nteng	-13.2559
kuqham	-13.2582
kubusis	-13.2588
siqwash	-13.2646
kuqinise	-13.2672
heleli	-13.2674
bayalisis	-13.2702
ningavu	-13.2725
wayengakaf	-13.2727
ziqondi	-13.273
ezikhul	-13.2731
ningaqa	-13.2738
yavul	-13.2739
kwamand	-13.2758
ngezinhluph	-13.2802
abezw	-13.2804
asibiza	-13.2806
abaphilis	-13.2813
ngilobe	-13.2819
bahlo	-13.2821
ukuthuku	-13.2825
owayenam	-13.2831
bayakuphil	-13.2831
ayaphula	-13.2839
atheng	-13.2851
kuzwakal	-13.2867
komus	-13.2868
nabagcin	-13.2879
uyengw	-13.2913
hlehlela	-13.2917
liswe	-13.2917
sebekuzw	-13.2919
ngikhumbul	-13.2937
ngec	-13.2966
sebeth	-13.2975
singuk	-13.2987
imib	-13.2993
kudal	-13.3026
nqamu	-13.3031
isisile	-13.3036
asivulel	-13.3048
engizakusi	-13.307
waphum	-13.3078
isand	-13.3081
ngagijimel	-13.3082
ekhohli	-13.3111
umkhonz	-13.3131
akaqini	-13.3141
kubalekel	-13.3154
ibolile	-13.3156
nomhl	-13.3156
ningash	-13.3159
mf	-13.3167
abado	-13.3181
uyan	-13.3191
dal	-13.3236
nokukhan	-13.324
hawukel	-13.3257
yehle	-13.3279
ngesih	-13.3325
engakafi	-13.3332
zamm	-13.3337
nasenya	-13.334
waphulukis	-13.3348
ngukuthu	-13.3348
ayethuny	-13.3403
phelelisa	-13.3417
kwehlisel	-13.3427
kwakukhuluny	-13.3441
ngikub	-13.3456
njengasemi	-13.3473
balobel	-13.3473
ngobungcwe	-13.3476
yayal	-13.3528
ivuth	-13.3531
baceb	-13.3539
esevu	-13.3548
athuthumel	-13.355
eniyakukukhulu	-13.3567
kwed	-13.3573
ekh	-13.3585
lishumayel	-13.3593
zihlakaze	-13.363
simela	-13.3634
”	-13.3639
vumelwan	-13.3657
sasinezi	-13.3664
nokubiz	-13.3671
wabasok	-13.3696
eseqh	-13.3705
ser	-13.3711
ngasebenz	-13.3717
wagcin	-13.373
hlanjulul	-13.3742
wakhuphu	-13.376
bhebhe	-13.3787
eduz	-13.3816
esiyisi	-13.3824
bahlu	-13.3838
bahlehl	-13.3839
sikhuphu	-13.3859
zidukis	-13.387
zingahl	-13.3894
nidukis	-13.3894
lotshelw	-13.3919
khunju	-13.3922
izins	-13.3945
singathe	-13.3972
phath	-13.3977
okushesha	-13.3986
kutshengis	-13.3995
angikulob	-13.4
sebey	-13.4011
ebuz	-13.4016
nzeka	-13.4021
wayeshumayel	-13.4047
banxus	-13.4049
ngiyith	-13.4075
sibhe	-13.411
bamhl	-13.4111
basonde	-13.4122
ohluphek	-13.4124
niyakukha	-13.4158
ibalay	-13.4167
kupheph	-13.4201
wesabeka	-13.4218
casuk	-13.4222
ukuthumel	-13.4235
kubonisis	-13.4247
yayisisuk	-13.4247
mhlubuk	-13.4256
mthokozis	-13.4292
mphelekezel	-13.4298
sangibon	-13.4299
wathumb	-13.43
ngabalahla	-13.4302
kayiph	-13.4307
mkhwe	-13.4316
hlakaniphi	-13.4322
yanyathel	-13.4322
alukiwe	-13.4328
okheth	-13.4342
ngilahlekel	-13.4345
ababek	-13.4368
ezindun	-13.4379
sokudl	-13.438
ngokuland	-13.4386
sikh	-13.4399
wabakhu	-13.4417
ahlukan	-13.442
saniphath	-13.4421
uhlangul	-13.4422
owawukh	-13.4428
babehamb	-13.4431
kulinde	-13.4432
sesifu	-13.4436
hlambalaz	-13.4437
sisonde	-13.4437
yiny	-13.4443
zithathe	-13.4457
gal	-13.4457
okungcoli	-13.4458
awayiku	-13.4466
kuvus	-13.4471
batheng	-13.448
wakhile	-13.4493
ngikuloba	-13.4502
sekufundi	-13.4504
kawoni	-13.451
banizingel	-13.4514
▁’.	-13.4519
yaqa	-13.4527
zimangal	-13.4542
esikhwe	-13.4554
baguqu	-13.4555
nsonga	-13.4559
sikhuthalel	-13.4564
baphak	-13.4565
thukuthele	-13.4568
ompo	-13.4575
sezakuvu	-13.4578
bandezek	-13.4582
besendl	-13.459
nganakekel	-13.4597
ice	-13.4607
nginokuzi	-13.4608
wahole	-13.4612
akuhlwanyela	-13.4612
ngabahl	-13.4618
wayesehla	-13.4621
yayisim	-13.4623
nasezinhla	-13.4624
kukhule	-13.4633
gutsh	-13.4646
abazakum	-13.4654
rban	-13.4667
zukulwane	-13.4668
ephulukis	-13.4674
esefu	-13.469
wagci	-13.4696
kufe	-13.47
wufez	-13.4726
eminya	-13.4734
ngukuphi	-13.4735
singad	-13.4745
mkhuz	-13.4753
hlupheki	-13.4755
kuhlatshwe	-13.4757
sihlangabez	-13.4763
mfum	-13.4785
ezingcwe	-13.4788
ukukhol	-13.4805
sishu	-13.4816
ohli	-13.4841
nginilulek	-13.4845
asihleng	-13.485
babalekel	-13.4854
zisindi	-13.4862
wayeneng	-13.4862
yakwehlel	-13.487
nanjengalo	-13.4876
abazid	-13.4889
dabukisi	-13.4897
kwaqa	-13.4897
alun	-13.4898
ongath	-13.4907
iluthol	-13.4909
kuthengisw	-13.4914
sizakal	-13.4915
adr	-13.4922
ngaliny	-13.4925
ammuk	-13.4931
thokozi	-13.494
kunifundis	-13.4943
uyakwenziwa	-13.4943
ningaph	-13.4948
dakis	-13.4961
khanuke	-13.4964
sifakaze	-13.4974
bayakukhi	-13.4979
obamb	-13.4985
bayakul	-13.5
yesabe	-13.5007
sesand	-13.5019
asinalu	-13.5022
nisindi	-13.5022
sigijime	-13.503
kukhuthazel	-13.5033
ukuphum	-13.5034
kuhumush	-13.5037
engimz	-13.5037
balungisisi	-13.5062
ningaduki	-13.5062
per	-13.5064
ngokungapha	-13.5076
nokubhe	-13.508
bangcwelisw	-13.5085
nokwahlul	-13.5097
libhubh	-13.51
nezid	-13.51
idabuli	-13.5101
umkh	-13.5103
baphons	-13.5103
nembathis	-13.5108
sod	-13.512
abameny	-13.5121
ngokushi	-13.5122
kuvivinyw	-13.5123
bhubhis	-13.5125
kudukis	-13.5127
izimanga	-13.5147
sahlukan	-13.5152
niyakwamuk	-13.5158
hudul	-13.5161
sithekile	-13.5172
vilaph	-13.5179
kunciph	-13.5184
amfakazel	-13.5186
ngokwemp	-13.5193
bamlalel	-13.5194
ipheph	-13.5196
ishaye	-13.5201
ashaye	-13.5202
mngcolis	-13.5204
ekhonz	-13.5205
mz	-13.5211
njengesik	-13.5217
iyakuvu	-13.5219
okuphak	-13.5226
okukhulunyw	-13.5227
baphambuk	-13.5229
,	-13.5232
dabuki	-13.5242
nokuq	-13.5244
bahlangan	-13.5245
lahlekelw	-13.5246
jwayez	-13.5249
baduk	-13.5263
shwabene	-13.5265
ukunike	-13.5265
kabayiku	-13.528
ziboni	-13.5281
bagane	-13.5283
phunyuk	-13.5289
ngihluphek	-13.5291
inqob	-13.53
fak	-13.5312
esemqhweb	-13.5313
obuk	-13.5315
ehluphek	-13.5316
asamuke	-13.5317
nasezint	-13.5323
yithokozis	-13.5323
okungasoleki	-13.5324
ngqongqoth	-13.5326
amanx	-13.5328
zikhuz	-13.5329
enkol	-13.5329
iphamban	-13.5331
wangithum	-13.5336
ngamaphi	-13.5338
nenala	-13.5341
nikhule	-13.5343
lahlulel	-13.5343
nenisind	-13.5347
ngivul	-13.5354
akutshel	-13.5357
ukuzib	-13.5357
niling	-13.5358
silungisi	-13.5359
fulathel	-13.536
akwamuke	-13.5361
silalelwe	-13.5362
ngikhaphel	-13.5362
ngithokozis	-13.5368
nimelan	-13.5372
ngiwenzi	-13.5372
ngisay	-13.5373
kwabanc	-13.5374
engasayikub	-13.5376
siwil	-13.5381
yokushi	-13.5383
mamuke	-13.5384
bammangalel	-13.5385
abize	-13.5385
nidabuk	-13.5386
mphendul	-13.5387
lingenis	-13.5388
esigab	-13.5389
ngokukhukhu	-13.5395
waqh	-13.5401
ngokukhan	-13.5405
lixuba	-13.5406
izic	-13.5407
wathath	-13.5408
eyaz	-13.541
mphulukis	-13.5413
kucel	-13.5414
nizakwa	-13.5414
angizuk	-13.5415
zint	-13.5416
ngikhohl	-13.5417
wokush	-13.5418
kungehlel	-13.542
nimlalel	-13.5425
zigcob	-13.5427
kasikho	-13.5428
bhidliz	-13.5428
ingulube	-13.5431
esenyuk	-13.5431
diswe	-13.5432
bafowe	-13.5438
emtho	-13.5438
asingayi	-13.5438
bayakuzib	-13.5441
zithumel	-13.5442
ngangihl	-13.5444
amb	-13.5445
xosh	-13.5445
niphele	-13.5446
hlatshiwe	-13.5446
yakuhawukel	-13.5448
uyakutheth	-13.5448
silahli	-13.5452
basand	-13.5452
alahleke	-13.5452
lungolwa	-13.5454
ngezis	-13.5457
sithomb	-13.5459
wamphu	-13.5464
saphuz	-13.5465
akuqed	-13.5465
sibize	-13.547
nobup	-13.547
bangakhulek	-13.547
ngimthum	-13.5471
yimangalel	-13.5472
wabaqa	-13.5473
madod	-13.5473
akuzil	-13.5473
wayithu	-13.5476
khukhumez	-13.5478
ngikutshe	-13.5478
amkhulekel	-13.5479
igqolozele	-13.548
okufihl	-13.5483
hwele	-13.5485
uyakuhla	-13.5486
iyakukunik	-13.5489
nomhlanga	-13.5491
tshelwe	-13.5492
kwaqin	-13.5493
klawud	-13.5493
ngabafundis	-13.5496
thenjis	-13.5496
lempe	-13.5498
iyinq	-13.5498
8	-14.9285
3	-14.9286
—	-14.9287
!	-14.9288
v	-14.9289
q	-14.929
:	-14.9291
t	-14.9292
g	-14.9293
