<pad>	0
</s>	0
<unk>	0
▁¦	-0
er	-1
no	-2
▁d	-3
re	-4
▁s	-5
▁c	-6
to	-7
an	-8
el	-9
la	-10
▁p	-11
li	-12
▁i	-13
▁𐋇	-14
ti	-15
on	-16
▁a	-17
te	-18
ra	-19
ri	-20
ro	-21
▁e	-22
▁di	-23
di	-24
ta	-25
en	-26
le	-27
lo	-28
▁m	-29
ch	-30
gli	-31
es	-32
ia	-33
io	-34
▁,	-35
▁f	-36
qu	-37
tu	-38
co	-39
al	-40
un	-41
in	-42
▁v	-43
se	-44
si	-45
▁il	-46
ar	-47
po	-48
do	-49
uo	-50
sa	-51
va	-52
▁la	-53
▁ch	-54
gno	-55
▁del	-56
▁in	-57
da	-58
ca	-59
▁S	-60
▁per	-61
ci	-62
me	-63
mo	-64
de	-65
▁co	-66
so	-67
non	-68
▁g	-69
▁n	-70
gnore	-71
▁tu	-72
▁che	-73
il	-74
▁al	-75
▁qu	-76
tto	-77
▁con	-78
vi	-79
ma	-80
per	-81
che	-82
mi	-83
ce	-84
st	-85
▁o	-86
za	-87
vo	-88
▁Si	-89
▁«	-90
con	-91
era	-92
▁le	-93
ve	-94
▁lo	-95
▁un	-96
▁l	-97
▁I	-98
▁po	-99
tti	-100
▁non	-101
gi	-102
ere	-103
igli	-104
ché	-105
pa	-106
▁D	-107
▁si	-108
▁Signore	-109
▁su	-110
del	-111
pi	-112
▁ri	-113
▁G	-114
anno	-115
na	-116
tro	-117
▁so	-118
▁se	-119
ter	-120
su	-121
▁A	-122
one	-123
▁pa	-124
▁de	-125
zi	-126
▁'	-127
ne	-128
tà	-129
▁da	-130
▁re	-131
▁h	-132
ui	-133
ni	-134
▁ca	-135
sse	-136
▁ma	-137
▁b	-138
ero	-139
▁vi	-140
▁vo	-141
▁E	-142
▁nel	-143
▁è	-144
rono	-145
tra	-146
▁loro	-147
▁te	-148
or	-149
bb	-150
▁:	-151
▁an	-152
ac	-153
tte	-154
ando	-155
sto	-156
▁suo	-157
▁M	-158
bi	-159
▁figli	-160
▁gli	-161
chi	-162
▁ci	-163
▁C	-164
▁Dio	-165
sc	-166
ele	-167
▁mi	-168
pre	-169
min	-170
fa	-171
fi	-172
gg	-173
▁pre	-174
sra	-175
▁P	-176
men	-177
signore	-178
▁fa	-179
tta	-180
iu	-181
▁ha	-182
anti	-183
tre	-184
▁no	-185
vano	-186
eri	-187
▁dal	-188
ior	-189
ss	-190
▁me	-191
ani	-192
▁della	-193
sti	-194
ven	-195
▁pi	-196
erà	-197
▁perché	-198
cco	-199
▁ques	-200
▁come	-201
▁pro	-202
sta	-203
ssi	-204
nel	-205
▁dei	-206
go	-207
ba	-208
loro	-209
▁tuo	-210
elli	-211
▁u	-212
pe	-213
▁;	-214
rà	-215
ese	-216
sso	-217
zione	-218
oni	-219
anto	-220
sraele	-221
gu	-222
du	-223
arà	-224
que	-225
ver	-226
tri	-227
▁una	-228
cia	-229
▁sono	-230
ga	-231
polo	-232
zo	-233
ru	-234
▁li	-235
ran	-236
ene	-237
enza	-238
▁era	-239
ssa	-240
▁N	-241
cca	-242
▁do	-243
▁ne	-244
sco	-245
figli	-246
man	-247
mp	-248
dio	-249
lla	-250
lora	-251
▁ave	-252
▁sa	-253
sì	-254
▁.	-255
zia	-256
erò	-257
▁L	-258
gni	-259
zza	-260
▁mo	-261
▁ti	-262
ff	-263
suo	-264
sci	-265
▁io	-266
eli	-267
terra	-268
ha	-269
dre	-270
uomo	-271
▁disse	-272
▁sta	-273
▁alla	-274
fe	-275
▁sua	-276
esti	-277
cen	-278
▁mio	-279
ggi	-280
tor	-281
dei	-282
▁tutti	-283
una	-284
Qu	-285
▁figlio	-286
ttà	-287
ria	-288
iorno	-289
elo	-290
ten	-291
rai	-292
▁Il	-293
pp	-294
▁»	-295
▁fu	-296
ello	-297
usa	-298
▁par	-299
▁ven	-300
▁B	-301
▁voi	-302
perché	-303
mini	-304
spo	-305
dal	-306
rta	-307
chia	-308
giu	-309
vanti	-310
▁Qu	-311
▁suoi	-312
zzo	-313
lta	-314
pro	-315
vide	-316
ron	-317
come	-318
▁T	-319
della	-320
gna	-321
▁sac	-322
▁av	-323
▁Ma	-324
ente	-325
oi	-326
stro	-327
▁popolo	-328
▁lui	-329
rò	-330
▁man	-331
bo	-332
stri	-333
▁ai	-334
▁giu	-335
mme	-336
ques	-337
enti	-338
fu	-339
ini	-340
stra	-341
mpo	-342
▁nella	-343
cu	-344
ser	-345
iamo	-346
ed	-347
pri	-348
condo	-349
bbe	-350
uomini	-351
rat	-352
▁questo	-353
▁Al	-354
▁F	-355
cchi	-356
ste	-357
par	-358
cor	-359
esù	-360
qua	-361
unque	-362
▁chi	-363
erai	-364
▁tra	-365
sono	-366
▁Giu	-367
uto	-368
▁più	-369
ave	-370
▁terra	-371
▁fe	-372
gia	-373
ei	-374
anza	-375
lui	-376
ai	-377
dò	-378
gge	-379
gh	-380
▁Da	-381
erdo	-382
ab	-383
▁sarà	-384
rito	-385
▁dell	-386
egli	-387
▁contro	-388
».	-389
eranno	-390
▁com	-391
▁ser	-392
cri	-393
ranno	-394
▁Israele	-395
▁aveva	-396
▁ver	-397
▁egli	-398
▁paese	-399
▁tua	-400
▁ra	-401
▁fi	-402
lto	-403
▁Sa	-404
ato	-405
▁città	-406
▁ho	-407
▁sul	-408
lemme	-409
▁R	-410
▁quel	-411
uni	-412
sè	-413
▁tutto	-414
▁for	-415
▁casa	-416
sero	-417
▁-	-418
▁pri	-419
dere	-420
▁qua	-421
mento	-422
mpio	-423
▁O	-424
mon	-425
esso	-426
▁mia	-427
▁giorno	-428
rio	-429
cio	-430
ciò	-431
▁paro	-432
erusa	-433
erusalemme	-434
disse	-435
ul	-436
ad	-437
anta	-438
alla	-439
▁ad	-440
▁anche	-441
figlio	-442
tt	-443
endo	-444
fatti	-445
mpa	-446
▁degli	-447
sce	-448
eliti	-449
▁poi	-450
tua	-451
▁du	-452
uore	-453
▁pe	-454
sraeliti	-455
▁tro	-456
glie	-457
▁Per	-458
▁Mo	-459
▁davanti	-460
spose	-461
dia	-462
▁quando	-463
tutti	-464
sua	-465
tare	-466
glia	-467
alle	-468
▁delle	-469
▁Davide	-470
zioni	-471
▁Io	-472
▁Non	-473
▁all	-474
▁abb	-475
▁gran	-476
mio	-477
tuo	-478
uno	-479
ge	-480
▁Co	-481
lti	-482
ze	-483
voi	-484
▁dalla	-485
▁mon	-486
mia	-487
cin	-488
av	-489
sp	-490
▁Allora	-491
▁?	-492
cci	-493
▁hai	-494
mpi	-495
▁uomini	-496
▁col	-497
▁ogni	-498
▁mor	-499
poi	-500
ssero	-501
gen	-502
gio	-503
iorni	-504
▁Gesù	-505
▁fatto	-506
▁des	-507
zio	-508
▁Se	-509
▁ba	-510
▁ac	-511
cora	-512
▁tuoi	-513
▁pie	-514
mb	-515
dato	-516
for	-517
don	-518
▁così	-519
▁noi	-520
ine	-521
▁gu	-522
aranno	-523
▁Ch	-524
▁sacerdo	-525
essi	-526
▁mezzo	-527
▁frat	-528
mpre	-529
▁né	-530
ho	-531
gui	-532
gitto	-533
contro	-534
▁nu	-535
quando	-536
israele	-537
▁secondo	-538
rete	-539
essa	-540
!»	-541
gn	-542
pra	-543
suoi	-544
▁bene	-545
qui	-546
▁ed	-547
▁due	-548
▁gio	-549
▁dice	-550
▁erano	-551
poli	-552
questo	-553
rifi	-554
anche	-555
arò	-556
▁sal	-557
sac	-558
▁ar	-559
nella	-560
tan	-561
mente	-562
▁Giuda	-563
sie	-564
popolo	-565
▁V	-566
▁Di	-567
▁Mosè	-568
▁tutte	-569
▁Poi	-570
▁chia	-571
erto	-572
scolta	-573
▁gra	-574
rato	-575
▁porta	-576
▁alle	-577
glio	-578
▁Gerusalemme	-579
erete	-580
▁mano	-581
▁por	-582
▁pu	-583
▁abi	-584
scia	-585
▁hanno	-586
▁La	-587
▁ste	-588
sia	-589
▁In	-590
rdi	-591
pirito	-592
▁fo	-593
pie	-594
essu	-595
esta	-596
tò	-597
▁na	-598
tura	-599
▁cor	-600
ess	-601
stru	-602
ina	-603
▁mani	-604
▁sulla	-605
essuno	-606
gue	-607
▁fino	-608
▁sia	-609
allora	-610
ccato	-611
▁padre	-612
sul	-613
guar	-614
▁fuo	-615
▁essi	-616
giorno	-617
▁ta	-618
▁Israeliti	-619
aveva	-620
tutto	-621
mor	-622
dice	-623
▁servi	-624
▁sue	-625
menti	-626
ena	-627
▁tre	-628
abb	-629
così	-630
▁vita	-631
mina	-632
▁san	-633
ggio	-634
più	-635
stre	-636
all	-637
▁Tu	-638
tter	-639
▁ciò	-640
▁tor	-641
▁nome	-642
▁cuore	-643
dri	-644
sarà	-645
anni	-646
str	-647
car	-648
trib	-649
ora	-650
stizia	-651
be	-652
ane	-653
sca	-654
cento	-655
dell	-656
vol	-657
▁occhi	-658
uogo	-659
nu	-660
paro	-661
▁questa	-662
▁ve	-663
ggia	-664
▁cui	-665
nd	-666
chio	-667
onne	-668
▁tempio	-669
quel	-670
por	-671
▁tutta	-672
▁uno	-673
lato	-674
paese	-675
▁grande	-676
via	-677
▁sei	-678
▁nelle	-679
▁agli	-680
mò	-681
entre	-682
▁Egli	-683
▁Quando	-684
▁parola	-685
dici	-686
▁senza	-687
▁giorni	-688
oro	-689
tten	-690
città	-691
▁ter	-692
mano	-693
tato	-694
▁spa	-695
casa	-696
ccia	-697
amo	-698
porta	-699
▁Pa	-700
▁verso	-701
▁cosa	-702
▁dunque	-703
eni	-704
abi	-705
ura	-706
ona	-707
des	-708
ffer	-709
▁quelli	-710
tanto	-711
col	-712
sei	-713
im	-714
▁miei	-715
mici	-716
vato	-717
due	-718
nato	-719
▁car	-720
cre	-721
die	-722
cato	-723
cono	-724
▁cre	-725
▁quanto	-726
▁ess	-727
senza	-728
tevi	-729
fatto	-730
hai	-731
?»	-732
▁Chi	-733
▁ten	-734
gran	-735
▁fra	-736
erano	-737
am	-738
gra	-739
fo	-740
▁Z	-741
▁en	-742
mone	-743
ecco	-744
san	-745
▁dove	-746
ogni	-747
mila	-748
dare	-749
▁profe	-750
degli	-751
▁Ora	-752
pu	-753
▁die	-754
▁capi	-755
▁cose	-756
▁va	-757
sieme	-758
▁vol	-759
sal	-760
▁U	-761
▁fece	-762
▁diven	-763
mato	-764
▁capo	-765
loria	-766
▁usci	-767
davanti	-768
esse	-769
ren	-770
feri	-771
▁Gio	-772
cendo	-773
ante	-774
mani	-775
accia	-776
cobbe	-777
sen	-778
▁tempo	-779
▁ro	-780
▁infatti	-781
▁lib	-782
tribù	-783
delle	-784
bra	-785
davide	-786
ppe	-787
moni	-788
▁male	-789
▁parole	-790
▁Ri	-791
▁rispose	-792
▁uomo	-793
dano	-794
tano	-795
dalla	-796
vece	-797
olo	-798
pere	-799
cc	-800
▁ancora	-801
▁gen	-802
▁parte	-803
end	-804
dito	-805
▁Cri	-806
ghi	-807
▁nostro	-808
ttro	-809
detto	-810
tr	-811
bili	-812
▁to	-813
▁Cristo	-814
noi	-815
▁fratelli	-816
mora	-817
▁cielo	-818
ang	-819
▁cu	-820
▁sc	-821
sser	-822
vere	-823
▁vostro	-824
ete	-825
padre	-826
▁sotto	-827
▁saranno	-828
▁poiché	-829
ghe	-830
▁quale	-831
▁mentre	-832
ffri	-833
▁sacrifi	-834
altare	-835
▁sempre	-836
bene	-837
▁quello	-838
▁sopra	-839
onia	-840
gre	-841
gesù	-842
mu	-843
▁cono	-844
lu	-845
▁detto	-846
ana	-847
▁sp	-848
▁im	-849
sper	-850
▁ordi	-851
▁allora	-852
▁fuoco	-853
▁vostri	-854
vita	-855
sor	-856
▁tue	-857
▁scri	-858
secondo	-859
tuoi	-860
▁Così	-861
▁Le	-862
citi	-863
▁Gli	-864
▁via	-865
segui	-866
frat	-867
tui	-868
fino	-869
▁dopo	-870
dine	-871
strui	-872
▁gi	-873
▁stato	-874
▁dall	-875
cchio	-876
hanno	-877
▁sacerdote	-878
spe	-879
tanti	-880
▁cam	-881
▁nei	-882
▁cin	-883
▁bo	-884
este	-885
▁avete	-886
▁mangia	-887
sacerdo	-888
né	-889
gento	-890
mezzo	-891
▁essa	-892
▁luogo	-893
erca	-894
▁qual	-895
▁Gia	-896
terà	-897
ilonia	-898
▁An	-899
▁legge	-900
▁ecco	-901
lomone	-902
▁anni	-903
Israele	-904
▁Mi	-905
▁peccato	-906
mare	-907
▁Ecco	-908
gua	-909
▁Figli	-910
▁forse	-911
altro	-912
Egitto	-913
▁fin	-914
ella	-915
▁servo	-916
cau	-917
more	-918
nun	-919
ure	-920
▁app	-921
▁altri	-922
indi	-923
estia	-924
▁queste	-925
mino	-926
▁giustizia	-927
tutte	-928
▁dai	-929
▁stra	-930
ono	-931
▁ucci	-932
verso	-933
liste	-934
mero	-935
scri	-936
ziani	-937
▁ora	-938
date	-939
▁morte	-940
usci	-941
ppa	-942
▁Eli	-943
▁sangue	-944
▁ascolta	-945
ggiun	-946
▁mie	-947
giuda	-948
bile	-949
▁Ba	-950
▁gri	-951
nò	-952
arca	-953
com	-954
▁questi	-955
fer	-956
zzi	-957
ltre	-958
stato	-959
▁!	-960
▁sor	-961
mosè	-962
viti	-963
acqua	-964
erità	-965
ppure	-966
▁solo	-967
▁essere	-968
questa	-969
esa	-970
male	-971
▁padri	-972
lare	-973
onna	-974
▁dato	-975
bu	-976
▁bu	-977
dire	-978
raone	-979
sione	-980
darono	-981
poiché	-982
gione	-983
fra	-984
▁alc	-985
▁spada	-986
▁Be	-987
torno	-988
segna	-989
▁nell	-990
zze	-991
ela	-992
▁nessuno	-993
esto	-994
▁presso	-995
elle	-996
acca	-997
▁ved	-998
gerusalemme	-999
ffi	-1000
tere	-1001
▁Saul	-1002
▁sacerdoti	-1003
pera	-1004
uovo	-1005
servi	-1006
fuo	-1007
▁ge	-1008
▁là	-1009
sue	-1010
colo	-1011
▁sette	-1012
▁eser	-1013
▁guar	-1014
ie	-1015
▁voce	-1016
argento	-1017
sulla	-1018
cò	-1019
cosa	-1020
versa	-1021
▁regno	-1022
uta	-1023
tenza	-1024
▁stesso	-1025
messo	-1026
▁fare	-1027
duto	-1028
▁fratello	-1029
▁lu	-1030
▁far	-1031
seppe	-1032
ire	-1033
lio	-1034
mar	-1035
dità	-1036
miglia	-1037
pren	-1038
▁avevano	-1039
▁gia	-1040
rire	-1041
pia	-1042
care	-1043
▁passa	-1044
▁insieme	-1045
▁prima	-1046
derà	-1047
tutta	-1048
cero	-1049
▁H	-1050
▁molti	-1051
dono	-1052
guardo	-1053
israeliti	-1054
▁schia	-1055
ronte	-1056
altra	-1057
quità	-1058
▁cen	-1059
▁coman	-1060
derò	-1061
andon	-1062
posto	-1063
▁Fi	-1064
ontan	-1065
esi	-1066
▁dov	-1067
▁Giacobbe	-1068
suè	-1069
Non	-1070
▁furono	-1071
rre	-1072
mondo	-1073
quanto	-1074
eser	-1075
zò	-1076
parola	-1077
▁Perché	-1078
nelle	-1079
rispose	-1080
dove	-1081
▁tribù	-1082
val	-1083
angelo	-1084
▁sca	-1085
quelli	-1086
▁bocca	-1087
▁dalle	-1088
èl	-1089
der	-1090
▁donna	-1091
▁gloria	-1092
ppo	-1093
listei	-1094
deva	-1095
scend	-1096
là	-1097
nome	-1098
cuore	-1099
tori	-1100
rsi	-1101
▁dire	-1102
lazione	-1103
scepoli	-1104
▁mai	-1105
gri	-1106
ronne	-1107
volta	-1108
▁giun	-1109
▁moglie	-1110
agli	-1111
dete	-1112
▁vesti	-1113
uti	-1114
cui	-1115
occhi	-1116
▁lavo	-1117
▁prese	-1118
▁trova	-1119
rlo	-1120
grande	-1121
erra	-1122
▁quella	-1123
dai	-1124
▁acco	-1125
▁Aronne	-1126
▁deserto	-1127
▁Do	-1128
▁primo	-1129
arti	-1130
fece	-1131
▁dicendo	-1132
spa	-1133
alleanza	-1134
gono	-1135
tempio	-1136
gne	-1137
ssimo	-1138
lea	-1139
▁giudi	-1140
spon	-1141
▁quali	-1142
ram	-1143
nci	-1144
▁pia	-1145
dopo	-1146
lle	-1147
dati	-1148
mentre	-1149
para	-1150
rcon	-1151
▁oggi	-1152
▁siete	-1153
▁invece	-1154
mmo	-1155
dr	-1156
▁mare	-1157
biti	-1158
giorni	-1159
infatti	-1160
dunque	-1161
ttere	-1162
vesti	-1163
bito	-1164
▁popoli	-1165
▁K	-1166
ari	-1167
▁mondo	-1168
▁piedi	-1169
eso	-1170
▁distru	-1171
ben	-1172
prio	-1173
vole	-1174
scuno	-1175
▁abbiamo	-1176
seri	-1177
alza	-1178
▁tenda	-1179
fferta	-1180
▁entra	-1181
▁posto	-1182
▁pren	-1183
▁causa	-1184
▁monte	-1185
▁Ti	-1186
▁sulle	-1187
ster	-1188
miei	-1189
vero	-1190
lib	-1191
questi	-1192
▁faccia	-1193
Ch	-1194
anzi	-1195
tene	-1196
vicin	-1197
▁Abra	-1198
dizione	-1199
▁Bab	-1200
as	-1201
cito	-1202
uoi	-1203
▁notte	-1204
▁nulla	-1205
ira	-1206
ccio	-1207
▁colui	-1208
capi	-1209
egitto	-1210
estiame	-1211
mai	-1212
profe	-1213
scere	-1214
▁carne	-1215
▁Babilonia	-1216
?».	-1217
▁?»	-1218
venti	-1219
zie	-1220
cinque	-1221
parte	-1222
▁giov	-1223
▁dissero	-1224
▁!»	-1225
▁».	-1226
alva	-1227
stimoni	-1228
cam	-1229
▁Salomone	-1230
cuno	-1231
▁fru	-1232
▁pen	-1233
▁gente	-1234
▁madre	-1235
▁profeti	-1236
▁eserciti	-1237
▁spe	-1238
▁nostri	-1239
terno	-1240
asse	-1241
fica	-1242
sette	-1243
iordano	-1244
at	-1245
▁st	-1246
vò	-1247
cose	-1248
▁figlia	-1249
pol	-1250
ccati	-1251
presso	-1252
▁comuni	-1253
mati	-1254
zz	-1255
ttino	-1256
nunzia	-1257
▁osser	-1258
eredità	-1259
▁quanti	-1260
▁spirito	-1261
capo	-1262
diven	-1263
▁nemici	-1264
frai	-1265
▁fer	-1266
▁Poiché	-1267
mmi	-1268
▁fede	-1269
▁vostra	-1270
▁sacrificio	-1271
dov	-1272
mba	-1273
dente	-1274
tempo	-1275
app	-1276
rì	-1277
rei	-1278
gere	-1279
▁Gi	-1280
tale	-1281
▁parti	-1282
▁numero	-1283
minio	-1284
ancora	-1285
tuario	-1286
▁senti	-1287
▁abitanti	-1288
ascolta	-1289
▁farò	-1290
▁lascia	-1291
rore	-1292
torna	-1293
▁bru	-1294
▁offri	-1295
cla	-1296
parole	-1297
▁segui	-1298
ontano	-1299
▁pane	-1300
▁faraone	-1301
rare	-1302
fraim	-1303
sacri	-1304
▁vostre	-1305
nero	-1306
▁molto	-1307
fratelli	-1308
quale	-1309
▁condu	-1310
ati	-1311
▁andò	-1312
rati	-1313
avete	-1314
forse	-1315
▁finché	-1316
tì	-1317
▁Lo	-1318
ucci	-1319
▁lun	-1320
cristo	-1321
gnuno	-1322
vezza	-1323
essere	-1324
cche	-1325
▁coloro	-1326
giustizia	-1327
scon	-1328
sotto	-1329
▁Ben	-1330
prese	-1331
▁acca	-1332
▁avrà	-1333
saranno	-1334
ture	-1335
nostro	-1336
sericor	-1337
▁visto	-1338
quello	-1339
tue	-1340
cielo	-1341
gnel	-1342
bbero	-1343
▁grazia	-1344
spirito	-1345
causto	-1346
qual	-1347
fon	-1348
▁Gà	-1349
bato	-1350
▁be	-1351
▁venti	-1352
ore	-1353
▁Su	-1354
▁qui	-1355
▁Padre	-1356
▁leviti	-1357
vostro	-1358
▁Con	-1359
▁pace	-1360
▁compi	-1361
nessuno	-1362
▁genera	-1363
sopra	-1364
trà	-1365
▁Bet	-1366
▁cio	-1367
vanni	-1368
▁aver	-1369
▁poss	-1370
stitui	-1371
illa	-1372
▁t	-1373
▁verità	-1374
anna	-1375
mico	-1376
queste	-1377
sempre	-1378
▁Vi	-1379
▁fuori	-1380
accampa	-1381
▁sco	-1382
▁cioè	-1383
▁rice	-1384
▁altro	-1385
▁nuovo	-1386
▁quattro	-1387
ppi	-1388
vare	-1389
veri	-1390
tente	-1391
▁acque	-1392
doli	-1393
▁deci	-1394
miglie	-1395
teranno	-1396
▁Giudei	-1397
mili	-1398
telli	-1399
gente	-1400
▁Giosuè	-1401
dà	-1402
▁ru	-1403
vina	-1404
▁Abramo	-1405
drone	-1406
▁fronte	-1407
età	-1408
nei	-1409
cino	-1410
ttato	-1411
fuoco	-1412
maria	-1413
vostri	-1414
▁Giuseppe	-1415
▁	-1416
¦	-1417
e	-1418
i	-1419
a	-1420
o	-1421
r	-1422
n	-1423
l	-1424
t	-1425
s	-1426
c	-1427
d	-1428
u	-1429
p	-1430
m	-1431
g	-1432
v	-1433
,	-1434
h	-1435
f	-1436
𐋇	-1437
b	-1438
z	-1439
q	-1440
à	-1441
'	-1442
ò	-1443
:	-1444
S	-1445
è	-1446
é	-1447
I	-1448
.	-1449
;	-1450
»	-1451
«	-1452
D	-1453
A	-1454
G	-1455
E	-1456
ì	-1457
C	-1458
ù	-1459
M	-1460
P	-1461
?	-1462
N	-1463
L	-1464
!	-1465
B	-1466
Q	-1467
T	-1468
-	-1469
F	-1470
R	-1471
O	-1472
k	-1473
V	-1474
U	-1475
Z	-1476
H	-1477
K	-1478
"	-1479
1	-1480
6	-1481
(	-1482
2	-1483
)	-1484
3	-1485
4	-1486
5	-1487
7	-1488
8	-1489
0	-1490
9	-1491
’	-1492
J	-1493
j	-1494
]	-1495
}	-1496
