<pad>	0
</s>	0
<unk>	0
▁¦	-0
an	-1
ma	-2
ch	-3
▁y	-4
in	-5
aj	-6
is	-7
▁t	-8
al	-9
naj	-10
▁𐋇	-11
▁h	-12
et	-13
eb	-14
mam	-15
il	-16
co	-17
un	-18
ca	-19
▁ch	-20
▁is	-21
to	-22
ay	-23
ul	-24
▁C	-25
ˈ¦	-26
ni	-27
▁Co	-28
▁Comam	-29
▁̈	-30
ebnaj	-31
xin	-32
ah	-33
▁,	-34
▁naj	-35
ey	-36
ab	-37
el	-38
ax	-39
at	-40
▁ma	-41
tz	-42
▁tu	-43
▁yin	-44
caw	-45
▁ebnaj	-46
anma	-47
ti	-48
▁hun	-49
▁chi	-50
oj	-51
▁ha	-52
▁.	-53
comam	-54
▁yu	-55
can	-56
io	-57
ios	-58
ak	-59
chi	-60
en	-61
▁xin	-62
wal	-63
▁tz	-64
aw	-65
tu	-66
▁yul	-67
▁caw	-68
te	-69
yu	-70
▁ay	-71
▁s	-72
▁Y	-73
tx	-74
ha	-75
ta	-76
yin	-77
pax	-78
▁ti	-79
es	-80
hun	-81
ix	-82
▁D	-83
ex	-84
▁hune	-85
alni	-86
▁Dios	-87
ẍi	-88
▁anma	-89
▁H	-90
▁yeb	-91
▁tet	-92
xa	-93
ˈ,	-94
ol	-95
on	-96
▁co	-97
wi	-98
unil	-99
ban	-100
ic	-101
▁b	-102
han	-103
▁tzet	-104
▁w	-105
▁ta	-106
▁J	-107
no	-108
▁―	-109
▁j	-110
▁mach	-111
ej	-112
taj	-113
paxo	-114
▁yet	-115
▁ca	-116
oc	-117
bal	-118
▁isc	-119
▁ẍi	-120
ap	-121
yul	-122
ba	-123
oh	-124
ico	-125
▁yi	-126
▁c	-127
▁I	-128
am	-129
cano	-130
ec	-131
atx	-132
dios	-133
yi	-134
hune	-135
▁haca	-136
ilo	-137
tzet	-138
ob	-139
▁sat	-140
ahan	-141
▁Is	-142
tek	-143
▁x	-144
om	-145
▁mac	-146
isto	-147
tet	-148
▁Jes	-149
inal	-150
yeb	-151
▁hey	-152
watx	-153
▁ix	-154
uy	-155
man	-156
ˈ.	-157
eh	-158
jan	-159
aja	-160
isc	-161
mach	-162
▁Ha	-163
yet	-164
▁l	-165
risto	-166
tan	-167
lax	-168
uc	-169
ojan	-170
▁sunil	-171
qu	-172
▁isk	-173
ús	-174
▁tato	-175
▁in	-176
chej	-177
inan	-178
▁yuto	-179
▁con	-180
tzo	-181
ulal	-182
ra	-183
▁W	-184
ahaw	-185
▁Yu	-186
▁:	-187
sat	-188
▁cat	-189
niman	-190
ucristo	-191
▁ye	-192
▁tx	-193
ahwi	-194
▁hunu	-195
▁isba	-196
eyet	-197
lo	-198
▁huntek	-199
ayet	-200
ilal	-201
er	-202
▁M	-203
▁yalni	-204
▁bey	-205
itz	-206
em	-207
apni	-208
▁Wal	-209
▁chu	-210
che	-211
chah	-212
ya	-213
haca	-214
bil	-215
mac	-216
banil	-217
▁yal	-218
ilni	-219
bi	-220
▁bay	-221
rael	-222
▁chey	-223
▁wal	-224
▁A	-225
con	-226
chejab	-227
▁chal	-228
▁Jesús	-229
▁yuxin	-230
aco	-231
▁chis	-232
ye	-233
hey	-234
yalni	-235
otx	-236
tic	-237
um	-238
ojab	-239
▁yiban	-240
▁¿	-241
oche	-242
▁yel	-243
ayic	-244
uẍ	-245
sunil	-246
jes	-247
▁te	-248
ac	-249
▁m	-250
yel	-251
▁han	-252
bey	-253
▁yun	-254
yuto	-255
uyw	-256
ar	-257
▁P	-258
im	-259
▁n	-260
cam	-261
ayo	-262
yij	-263
▁Caw	-264
ayto	-265
▁Jesucristo	-266
isk	-267
ˈ:	-268
axa	-269
▁k	-270
col	-271
yuxin	-272
tato	-273
▁T	-274
ri	-275
▁ism	-276
ahawil	-277
▁S	-278
▁“	-279
▁machi	-280
ach	-281
we	-282
▁p	-283
▁hac	-284
▁L	-285
banile	-286
▁ayco	-287
▁istx	-288
▁no	-289
▁chin	-290
ut	-291
ich	-292
▁teyet	-293
▁xol	-294
chu	-295
▁yak	-296
▁maẍ	-297
as	-298
aben	-299
▁Yalni	-300
tel	-301
yal	-302
wan	-303
ojal	-304
tzoti	-305
hac	-306
chal	-307
eba	-308
la	-309
xol	-310
ehi	-311
▁cam	-312
anil	-313
ro	-314
uj	-315
ib	-316
▁Israel	-317
tajil	-318
▁yanma	-319
anto	-320
anico	-321
do	-322
emp	-323
atan	-324
cat	-325
▁Yuxin	-326
ebil	-327
wa	-328
atut	-329
▁E	-330
▁yoc	-331
▁ak	-332
huntek	-333
txa	-334
▁hex	-335
abal	-336
apno	-337
isba	-338
nimanil	-339
▁yip	-340
walan	-341
ebix	-342
▁Hayet	-343
ablo	-344
▁Lahwi	-345
▁ischejab	-346
na	-347
hunu	-348
▁yaja	-349
etan	-350
cha	-351
pí	-352
bay	-353
ho	-354
us	-355
píri	-356
ohtaj	-357
píritu	-358
yaja	-359
▁qu	-360
xaco	-361
abe	-362
▁win	-363
yak	-364
▁isto	-365
▁Hac	-366
chey	-367
▁he	-368
icham	-369
tak	-370
maj	-371
án	-372
▁Yaja	-373
lah	-374
uywom	-375
amb	-376
▁ni	-377
walil	-378
tzotel	-379
ed	-380
ute	-381
▁Yet	-382
xan	-383
jesús	-384
chis	-385
inti	-386
xi	-387
▁haw	-388
▁chex	-389
ahol	-390
ila	-391
uẍta	-392
▁Ch	-393
yiban	-394
és	-395
axan	-396
▁chij	-397
yun	-398
ón	-399
hol	-400
▁?	-401
ala	-402
ibn	-403
▁―¿	-404
▁tinan	-405
mal	-406
ip	-407
▁isp	-408
eyin	-409
ulch	-410
ohtan	-411
machi	-412
hul	-413
▁istz	-414
hex	-415
▁isya	-416
▁chiw	-417
▁iswi	-418
edro	-419
▁hunun	-420
oti	-421
chin	-422
uybanile	-423
ois	-424
ohal	-425
oisés	-426
▁niman	-427
jesucristo	-428
uẍtaj	-429
tzwalil	-430
li	-431
abel	-432
iloj	-433
majul	-434
,”	-435
ism	-436
tojan	-437
etic	-438
▁ec	-439
istx	-440
chahni	-441
▁matxa	-442
maẍ	-443
▁heyanma	-444
▁ton	-445
▁yatut	-446
lahwi	-447
▁heba	-448
▁ebix	-449
nico	-450
ek	-451
gel	-452
ayco	-453
hayet	-454
ani	-455
ángel	-456
▁Ay	-457
▁Pablo	-458
da	-459
abil	-460
hal	-461
▁yilal	-462
je	-463
▁lan	-464
▁iswatx	-465
ley	-466
▁xahan	-467
teyet	-468
yoc	-469
uan	-470
haw	-471
chel	-472
chico	-473
▁yaj	-474
canoj	-475
▁to	-476
amben	-477
▁yilni	-478
ule	-479
exol	-480
▁texol	-481
▁ixim	-482
tit	-483
▁yalan	-484
▁satcan	-485
itzitz	-486
▁Es	-487
empohal	-488
uhan	-489
obal	-490
israel	-491
xahan	-492
▁maca	-493
▁sata	-494
anxa	-495
ea	-496
nihan	-497
▁yelapno	-498
▁isn	-499
▁icham	-500
yanma	-501
▁yapni	-502
én	-503
▁hunel	-504
▁¡	-505
hil	-506
▁Hun	-507
anab	-508
▁chiwalan	-509
win	-510
eo	-511
▁yehi	-512
ehan	-513
awet	-514
▁chon	-515
awom	-516
yip	-517
▁Yuto	-518
▁iscuywom	-519
yaj	-520
ical	-521
ik	-522
go	-523
▁maẍto	-524
anc	-525
▁isti	-526
alén	-527
ehal	-528
usalén	-529
erusalén	-530
▁isb	-531
xinwal	-532
acer	-533
dote	-534
▁chak	-535
acerdote	-536
ano	-537
ischejab	-538
utx	-539
empo	-540
▁isbi	-541
▁yaben	-542
▁Espíritu	-543
▁Ta	-544
▁teyin	-545
elo	-546
▁Haxa	-547
▁oc	-548
▁yahawil	-549
lan	-550
howal	-551
▁Pedro	-552
▁Moisés	-553
▁cuybanile	-554
▁Istzoti	-555
▁juẍta	-556
ayoj	-557
▁N	-558
▁wetan	-559
▁matzwalil	-560
he	-561
▁hec	-562
▁jet	-563
▁ho	-564
▁yinta	-565
rey	-566
▁Han	-567
ub	-568
hel	-569
▁Istak	-570
ij	-571
elico	-572
yelal	-573
▁choche	-574
Tz	-575
quin	-576
ilax	-577
tinan	-578
yo	-579
▁chico	-580
▁lahan	-581
▁ayxaco	-582
espíritu	-583
ujan	-584
alah	-585
isp	-586
▁ismajul	-587
cab	-588
▁ismul	-589
mi	-590
▁chaw	-591
maman	-592
lahan	-593
▁nich	-594
▁tzoti	-595
▁col	-596
▁chiak	-597
aban	-598
▁janma	-599
eso	-600
▁ya	-601
▁quin	-602
chex	-603
▁Yaj	-604
santo	-605
▁jin	-606
paxojan	-607
aba	-608
▁Santo	-609
istz	-610
▁ah	-611
▁iss	-612
▁chej	-613
▁chioc	-614
rah	-615
alax	-616
Tzet	-617
▁hal	-618
mun	-619
Mam	-620
▁Yin	-621
▁Juan	-622
▁quex	-623
etx	-624
chiw	-625
elax	-626
ˈ?	-627
yilal	-628
▁yuninal	-629
ten	-630
icto	-631
ton	-632
▁yahaw	-633
chij	-634
▁yij	-635
bican	-636
▁istan	-637
txum	-638
ayat	-639
ulan	-640
ati	-641
itzc	-642
▁yeli	-643
ayical	-644
iswatx	-645
▁yebpaxo	-646
quex	-647
▁babel	-648
le	-649
▁Hune	-650
ech	-651
enilo	-652
hunun	-653
▁chiyu	-654
matxa	-655
alo	-656
tom	-657
▁yechel	-658
ías	-659
bahan	-660
▁In	-661
▁cha	-662
tax	-663
ilan	-664
iswi	-665
isya	-666
cach	-667
▁	-668
a	-669
¦	-670
n	-671
i	-672
t	-673
c	-674
e	-675
o	-676
h	-677
y	-678
l	-679
ˈ	-680
m	-681
u	-682
j	-683
s	-684
b	-685
x	-686
̈	-687
w	-688
,	-689
𐋇	-690
.	-691
k	-692
C	-693
z	-694
p	-695
r	-696
ẍ	-697
d	-698
Y	-699
H	-700
:	-701
D	-702
J	-703
―	-704
I	-705
M	-706
q	-707
ú	-708
W	-709
?	-710
¿	-711
T	-712
A	-713
í	-714
g	-715
é	-716
P	-717
S	-718
“	-719
”	-720
L	-721
á	-722
;	-723
E	-724
ó	-725
f	-726
v	-727
!	-728
¡	-729
‐	-730
N	-731
B	-732
G	-733
K	-734
F	-735
R	-736
X	-737
O	-738
Z	-739
‘	-740
’	-741
(	-742
)	-743
Q	-744
U	-745
ñ	-746
