<pad>	0
</s>	0
<unk>	0
s	-3.28689
▁the	-3.32309
.	-3.43023
,	-3.59702
▁	-3.81267
▁of	-3.97435
▁to	-4.10902
▁in	-4.15302
▁a	-4.43575
e	-4.45254
▁and	-4.45919
ed	-4.48424
ing	-4.5541
t	-4.63831
▁is	-4.83616
d	-5.01455
y	-5.05696
▁The	-5.10086
o	-5.10167
▁be	-5.13517
▁for	-5.13971
c	-5.16743
n	-5.20005
m	-5.25999
al	-5.28726
-	-5.30235
p	-5.40104
▁are	-5.40546
er	-5.43031
▁that	-5.43397
▁has	-5.44139
▁on	-5.45785
a	-5.51318
u	-5.52454
▁have	-5.52821
g	-5.57064
▁with	-5.5837
r	-5.5861
i	-5.60685
or	-5.61656
'	-5.63248
ly	-5.64395
▁A	-5.65804
in	-5.66038
re	-5.70525
▁will	-5.74499
▁from	-5.7664
▁was	-5.78563
ar	-5.80601
f	-5.81388
ur	-5.81594
▁corona	-5.8192
▁not	-5.8445
b	-5.85422
es	-5.86338
h	-5.87116
an	-5.92914
▁by	-5.93248
▁S	-5.93655
▁been	-5.95898
ir	-5.95926
l	-5.96326
▁patients	-5.99577
k	-6.01331
▁as	-6.01571
▁p	-6.01576
▁vaccine	-6.01602
▁w	-6.03051
▁at	-6.04105
▁this	-6.04382
▁re	-6.06225
▁it	-6.13006
▁said	-6.13928
▁f	-6.14393
ation	-6.14671
le	-6.14857
▁or	-6.15669
on	-6.15791
at	-6.15816
st	-6.17515
▁"	-6.20793
▁government	-6.21758
▁(	-6.2193
▁people	-6.22712
w	-6.22982
▁In	-6.23992
▁state	-6.26153
▁b	-6.26325
it	-6.26968
ic	-6.27886
▁also	-6.28298
se	-6.31764
ri	-6.32699
en	-6.32943
▁c	-6.35651
▁B	-6.36911
▁C	-6.36953
▁number	-6.37022
?	-6.37484
▁were	-6.39462
out	-6.39895
▁virus	-6.40777
▁co	-6.41124
th	-6.42413
▁P	-6.43401
▁M	-6.45111
-19	-6.48221
ion	-6.48367
ro	-6.49735
ent	-6.49756
ad	-6.51141
▁can	-6.51422
if	-6.51925
il	-6.54852
0	-6.55564
)	-6.55651
▁I	-6.56178
▁Corona	-6.56233
▁an	-6.56544
is	-6.56694
1	-6.57673
▁m	-6.58229
▁should	-6.59787
▁other	-6.61309
ive	-6.61361
ce	-6.6203
la	-6.62438
▁T	-6.62705
ch	-6.62717
▁health	-6.6296
id	-6.63126
te	-6.6379
▁Minister	-6.63919
2	-6.64129
ment	-6.65823
▁had	-6.66109
us	-6.66395
I	-6.6741
ha	-6.68532
v	-6.6963
ra	-6.72372
▁ab	-6.72982
C	-6.73047
as	-6.73311
▁who	-6.74206
ter	-6.74332
▁no	-6.74715
:	-6.74999
▁2	-6.75208
mp	-6.75647
ers	-6.75709
▁de	-6.76625
5	-6.77576
ul	-6.77738
▁there	-6.77784
▁Maharashtra	-6.78983
▁after	-6.78986
3	-6.79041
▁all	-6.79067
▁oxygen	-6.79123
▁G	-6.79686
ist	-6.7987
▁India	-6.8
▁COVID	-6.80511
▁you	-6.80884
ate	-6.8114
ig	-6.81391
li	-6.81978
▁D	-6.82164
▁time	-6.82406
ac	-6.84136
▁infection	-6.84161
ity	-6.85552
▁r	-6.87838
un	-6.88531
▁he	-6.89089
▁disease	-6.89309
▁more	-6.90569
ut	-6.91015
▁do	-6.91379
j	-6.91609
ol	-6.92366
▁Dr	-6.92742
▁This	-6.93436
▁l	-6.94512
▁we	-6.95291
▁ex	-6.9623
sh	-6.9631
▁tr	-6.96707
▁lockdown	-6.96894
▁than	-6.97096
▁vaccination	-6.97398
▁But	-6.97587
▁some	-6.97624
▁new	-6.98248
ne	-6.9831
ve	-6.98897
▁con	-6.99147
▁d	-7.00645
▁F	-7.00703
▁so	-7.00917
op	-7.01222
S	-7.02058
▁It	-7.03587
CoV	-7.04558
▁per	-7.05323
8	-7.05959
tic	-7.06756
4	-7.06915
E	-7.0714
A	-7.07326
▁Health	-7.08056
▁country	-7.0806
9	-7.08606
and	-7.09246
▁days	-7.09442
▁He	-7.09665
▁h	-7.10427
▁one	-7.10588
▁4	-7.10915
6	-7.1096
▁me	-7.11265
▁H	-7.11895
hich	-7.1199
▁O	-7.12878
im	-7.12958
▁being	-7.13313
▁need	-7.14073
x	-7.15065
▁1	-7.15592
7	-7.15595
▁but	-7.16109
▁hospital	-7.16194
▁K	-7.16213
▁L	-7.16428
ated	-7.16805
▁vaccines	-7.17562
▁district	-7.1769
am	-7.17705
tion	-7.18045
▁On	-7.18232
▁e	-7.18285
▁these	-7.18861
▁first	-7.19147
ther	-7.19399
el	-7.19786
▁hand	-7.19857
▁g	-7.19881
▁3	-7.20148
▁many	-7.2068
M	-7.21413
um	-7.21859
▁N	-7.22509
ies	-7.2278
ant	-7.23268
om	-7.23328
▁use	-7.23583
ta	-7.23696
▁E	-7.23758
▁spread	-7.24302
▁found	-7.24303
▁may	-7.24984
vi	-7.25827
ect	-7.25967
▁We	-7.2606
qu	-7.26115
▁two	-7.27211
▁day	-7.27598
▁get	-7.28146
▁last	-7.28595
ill	-7.29294
▁second	-7.29412
▁over	-7.29752
▁'	-7.29858
ia	-7.29885
▁such	-7.30441
%	-7.3091
▁cases	-7.3097
▁out	-7.31192
▁pro	-7.31272
har	-7.31337
ho	-7.315
ma	-7.31734
▁under	-7.31862
hief	-7.32099
▁work	-7.32344
ver	-7.32743
▁March	-7.32814
▁test	-7.33201
▁Mumbai	-7.33536
▁symptoms	-7.33536
T	-7.33699
▁SARS	-7.33944
R	-7.34193
age	-7.34498
▁2020	-7.35489
▁According	-7.35736
▁any	-7.36289
ction	-7.37005
ting	-7.37241
"	-7.3757
due	-7.3787
▁says	-7.3825
ti	-7.38319
▁given	-7.38377
ard	-7.38446
▁situation	-7.38748
z	-7.38983
▁dis	-7.39012
P	-7.39092
▁up	-7.399
▁V	-7.4033
▁sp	-7.40545
no	-7.40618
▁children	-7.41068
▁treatment	-7.41898
▁wave	-7.42121
▁person	-7.43456
▁go	-7.44078
▁There	-7.4553
▁W	-7.46051
▁7	-7.46385
▁However	-7.46985
▁Covid	-7.47253
D	-7.47758
end	-7.48041
▁5	-7.48223
▁only	-7.48577
ide	-7.48611
▁system	-7.48649
ted	-7.4881
▁home	-7.49501
▁Re	-7.49548
able	-7.49605
iv	-7.49809
▁countries	-7.50066
me	-7.50288
ance	-7.50301
▁coronavirus	-7.50638
▁take	-7.50682
▁your	-7.50799
▁available	-7.50925
ten	-7.51256
▁R	-7.51265
▁infected	-7.5296
▁April	-7.53576
▁his	-7.5385
▁even	-7.53856
▁they	-7.53925
ab	-7.54538
▁If	-7.54652
ine	-7.54781
wa	-7.55745
▁cent	-7.55888
ang	-7.56513
▁What	-7.56711
▁during	-7.56859
ial	-7.57356
▁against	-7.58166
-2	-7.58745
▁As	-7.58827
▁risk	-7.59015
ll	-7.59021
▁Ra	-7.59052
▁un	-7.5943
▁how	-7.59647
▁10	-7.59689
N	-7.59984
▁year	-7.6034
han	-7.60388
ke	-7.60652
▁when	-7.60867
▁care	-7.61143
;	-7.61222
▁while	-7.61542
▁now	-7.61689
▁used	-7.61935
▁8	-7.62141
▁week	-7.62189
com	-7.62227
ok	-7.62278
▁Pune	-7.62835
▁those	-7.6348
▁vaccinated	-7.6394
va	-7.64
na	-7.64379
di	-7.64907
line	-7.65121
tra	-7.65379
ak	-7.65632
▁Co	-7.66682
▁So	-7.66713
est	-7.67242
▁taken	-7.67431
▁medical	-7.67476
▁Thackeray	-7.68155
,000	-7.68162
▁U	-7.68296
."	-7.68468
▁public	-7.69257
very	-7.69405
mi	-7.69735
he	-7.69815
▁through	-7.69879
▁cause	-7.6993
▁reported	-7.70204
▁9	-7.70451
lu	-7.70641
▁rate	-7.71349
co	-7.71408
ry	-7.71848
ical	-7.72218
▁outbreak	-7.72701
▁large	-7.7306
ould	-7.7326
▁drug	-7.73419
▁No	-7.73765
▁made	-7.73869
▁hospitals	-7.73889
▁effective	-7.74225
▁come	-7.74466
▁restrictions	-7.74506
ep	-7.74996
▁Sa	-7.75287
00	-7.75376
ence	-7.75655
▁China	-7.76345
▁De	-7.76486
▁world	-7.76716
ary	-7.76947
▁patient	-7.77101
▁part	-7.77751
▁center	-7.77828
▁6	-7.77862
▁beds	-7.78767
▁lakh	-7.78977
▁sta	-7.79895
▁workers	-7.7996
/	-7.80126
hi	-7.80358
▁pre	-7.80604
▁report	-7.80926
▁For	-7.80969
O	-7.81002
man	-7.81166
▁current	-7.81289
▁contact	-7.81289
▁app	-7.81881
▁like	-7.82111
▁including	-7.82465
▁covid	-7.82863
▁-	-7.8297
▁Hospital	-7.83257
▁announced	-7.83257
▁travel	-7.83259
▁age	-7.83738
fter	-7.83779
▁Wh	-7.84043
old	-7.84174
up	-7.84792
ip	-7.85146
▁control	-7.85265
▁Ma	-7.8546
▁Center	-7.85679
▁important	-7.85689
▁bo	-7.85741
▁20	-7.85802
▁high	-7.86401
▁areas	-7.86668
▁say	-7.8689
▁human	-7.86903
da	-7.87311
▁information	-7.87314
▁follow	-7.87315
▁prevent	-7.87315
▁started	-7.87329
av	-7.87486
▁most	-7.87735
▁condition	-7.88985
▁increase	-7.8917
▁well	-7.89299
▁result	-7.89831
▁provide	-7.89864
▁what	-7.90268
war	-7.90455
▁same	-7.90686
und	-7.91138
▁increased	-7.91353
▁include	-7.91543
▁va	-7.91966
to	-7.92151
▁closed	-7.92711
▁help	-7.92852
▁our	-7.92956
▁cl	-7.93052
▁did	-7.93265
▁level	-7.9329
The	-7.93375
▁every	-7.93427
ty	-7.93726
▁testing	-7.93886
▁show	-7.94271
).	-7.94392
ally	-7.94739
▁positive	-7.9506
▁years	-7.9541
▁decision	-7.95509
▁respirator	-7.95509
ous	-7.95771
▁doctors	-7.95915
▁supply	-7.95959
nd	-7.96342
▁increasing	-7.96412
▁few	-7.96426
▁case	-7.96585
▁body	-7.97329
▁ra	-7.97437
ack	-7.97503
tric	-7.97531
▁crore	-7.97784
▁administration	-7.97796
ndra	-7.97801
▁city	-7.97906
▁meeting	-7.98245
bo	-7.98293
▁its	-7.98296
▁million	-7.98706
ge	-7.98754
▁An	-7.9893
▁demand	-7.99173
▁tests	-7.99371
▁between	-7.99638
▁where	-8.00362
though	-8.00592
based	-8.00802
▁Uddhav	-8.01053
▁office	-8.01593
▁data	-8.02016
ile	-8.02456
),	-8.02486
▁students	-8.02488
▁present	-8.02496
▁see	-8.0283
io	-8.02892
▁Modi	-8.02973
▁far	-8.03057
▁low	-8.03274
▁question	-8.03457
ness	-8.03477
W	-8.03692
▁hands	-8.04005
▁sc	-8.04337
▁service	-8.04435
▁died	-8.04688
kar	-8.04902
▁into	-8.052
▁Delhi	-8.05423
▁deaths	-8.05612
▁make	-8.06021
▁direct	-8.06421
▁central	-8.06424
▁inter	-8.06618
▁could	-8.06686
▁school	-8.06711
ian	-8.07304
▁death	-8.07342
▁three	-8.07936
▁dose	-8.07956
▁does	-8.07963
▁Ja	-8.08212
▁man	-8.0833
▁citizens	-8.08445
▁before	-8.08446
▁period	-8.08446
▁around	-8.08487
vir	-8.08649
▁set	-8.09111
▁12	-8.09303
▁BBC	-8.09474
▁plan	-8.09523
ish	-8.1035
▁Prim	-8.10562
▁19	-8.10735
ood	-8.10867
▁15	-8.11341
▁50	-8.11663
Y	-8.12087
▁thousand	-8.12092
▁UK	-8.1211
ural	-8.13063
▁campaign	-8.13158
▁change	-8.13162
ble	-8.13622
ap	-8.13779
▁severe	-8.14017
H	-8.14191
▁social	-8.14237
▁order	-8.14286
▁states	-8.14625
od	-8.14696
▁recommend	-8.15876
▁different	-8.15876
▁private	-8.15876
▁study	-8.15876
▁hours	-8.15877
▁doses	-8.16126
▁Unit	-8.1643
cross	-8.16444
ized	-8.17413
▁start	-8.17536
▁shortage	-8.17568
ach	-8.17801
▁At	-8.17839
B	-8.18149
▁January	-8.18669
▁education	-8.18669
ors	-8.18877
▁allowed	-8.19098
ell	-8.19197
ik	-8.19383
▁form	-8.19979
▁May	-8.20146
ology	-8.20344
▁research	-8.20384
▁possible	-8.20387
ever	-8.20603
▁Institute	-8.20962
▁rules	-8.20963
▁percent	-8.20965
▁tested	-8.21378
▁them	-8.21492
own	-8.21868
▁J	-8.21954
▁effect	-8.21995
▁local	-8.22128
▁mask	-8.22519
ition	-8.22543
▁grow	-8.22719
▁open	-8.2273
▁working	-8.22954
▁continue	-8.23308
par	-8.23817
▁Raje	-8.23908
▁washing	-8.23939
ath	-8.23988
ya	-8.2485
▁group	-8.25104
ful	-8.25816
▁Su	-8.25832
ga	-8.26337
lic	-8.26667
unicipal	-8.26787
con	-8.27112
▁30	-8.27444
▁reduce	-8.27625
▁whe	-8.27758
▁To	-8.28029
ash	-8.28069
▁develop	-8.28148
refore	-8.28179
▁Some	-8.28296
▁long	-8.28639
▁Rs	-8.2866
▁Government	-8.28797
▁24	-8.29203
▁February	-8.29426
ade	-8.29622
▁schools	-8.29691
F	-8.29758
gra	-8.29839
▁11	-8.29876
peaking	-8.29972
▁consider	-8.3006
▁reason	-8.30062
▁anti	-8.30426
▁Many	-8.30712
▁protect	-8.30738
▁reach	-8.30979
▁discuss	-8.31337
▁14	-8.31618
▁company	-8.31982
▁States	-8.32544
▁called	-8.32578
▁addition	-8.32631
▁down	-8.32752
hu	-8.32797
ities	-8.33101
▁quarantine	-8.33285
▁place	-8.33499
▁developed	-8.33831
▁less	-8.34016
▁Ka	-8.34495
▁affected	-8.34558
▁pandemic	-8.34605
▁village	-8.34605
▁area	-8.34656
ja	-8.34746
▁produce	-8.34807
ank	-8.34842
▁Na	-8.35004
▁Union	-8.35273
▁using	-8.3541
▁cons	-8.35607
▁learn	-8.35943
▁blood	-8.35944
▁regard	-8.35945
▁held	-8.35953
▁total	-8.37057
▁because	-8.37299
▁closure	-8.37299
▁become	-8.37331
gen	-8.37518
▁ca	-8.37695
V	-8.3819
▁department	-8.38673
▁ventilator	-8.38673
▁official	-8.38673
▁still	-8.38766
▁seen	-8.38793
▁both	-8.38903
▁fact	-8.39288
▁since	-8.3937
▁limit	-8.39371
▁relat	-8.39379
▁measures	-8.39605
mm	-8.3974
▁transmission	-8.40067
▁much	-8.40071
▁face	-8.40222
▁masks	-8.40305
light	-8.40772
▁process	-8.41481
▁don	-8.4162
▁Medic	-8.42024
L	-8.42135
▁months	-8.42151
▁response	-8.42195
▁clinical	-8.42195
▁heart	-8.42208
▁four	-8.42213
tory	-8.4238
▁done	-8.42392
▁conduct	-8.42914
▁among	-8.42914
▁today	-8.42934
taking	-8.42945
▁18	-8.4323
▁exam	-8.43263
▁recover	-8.43651
▁sever	-8.44055
▁Kovid	-8.44369
▁problem	-8.44369
G	-8.4437
▁Al	-8.44371
▁phase	-8.44376
▁production	-8.45105
▁find	-8.45129
▁air	-8.45317
▁Indian	-8.45693
▁Ministry	-8.45845
▁population	-8.45845
▁implement	-8.45845
▁contain	-8.45846
vel	-8.46323
till	-8.46445
▁end	-8.46509
▁Nagpur	-8.46591
▁emergency	-8.46596
▁treat	-8.46602
▁soap	-8.46725
serv	-8.47087
▁Do	-8.47147
▁sent	-8.47201
mit	-8.47334
▁avoid	-8.47343
▁third	-8.47343
▁house	-8.47348
▁him	-8.47712
rious	-8.4774
▁leader	-8.47792
▁WHO	-8.47932
▁going	-8.4808
▁market	-8.48101
▁surveillance	-8.48101
▁next	-8.48101
▁doctor	-8.48174
▁media	-8.48215
▁fire	-8.48297
▁places	-8.4862
▁difficult	-8.48864
▁train	-8.48892
▁higher	-8.48929
▁State	-8.49005
▁sub	-8.49638
▁issue	-8.49771
▁When	-8.4999
▁known	-8.50093
▁samples	-8.50197
▁World	-8.50408
▁imposed	-8.5041
▁asked	-8.50454
▁HCoV	-8.5076
▁issued	-8.5108
▁release	-8.51194
▁How	-8.51953
▁according	-8.51977
▁Tope	-8.51991
▁cell	-8.52242
activ	-8.52559
▁register	-8.52771
▁support	-8.52771
▁fight	-8.52771
land	-8.52999
▁All	-8.53035
▁five	-8.53448
▁experts	-8.53571
▁another	-8.53577
U	-8.53798
▁remain	-8.5438
▁New	-8.54395
▁Ch	-8.54687
ism	-8.55029
▁Commission	-8.5519
▁serious	-8.55196
▁stay	-8.55737
▁crisis	-8.5601
▁type	-8.56011
▁keep	-8.56013
▁told	-8.56208
▁al	-8.56802
▁approved	-8.56836
▁further	-8.56839
▁Par	-8.5695
▁fever	-8.57166
▁Pra	-8.57316
ase	-8.57355
log	-8.57502
▁likely	-8.57595
▁crowd	-8.5767
▁early	-8.58516
▁trials	-8.5852
▁good	-8.58753
low	-8.58896
ially	-8.59086
▁family	-8.59357
▁police	-8.59357
▁small	-8.59358
▁Serum	-8.59362
▁staff	-8.59363
espec	-8.59411
▁La	-8.59558
▁back	-8.59725
▁She	-8.59845
▁Organization	-8.60212
▁least	-8.60213
▁yet	-8.6022
▁rapidly	-8.60359
led	-8.60588
▁again	-8.60844
▁Corporation	-8.61074
▁lung	-8.61076
▁water	-8.61106
▁came	-8.61511
▁coronary	-8.61859
▁Chinese	-8.61944
▁You	-8.61951
▁200	-8.62009
self	-8.6204
▁admitted	-8.62821
▁essential	-8.62821
▁distance	-8.62823
▁animal	-8.62825
▁US	-8.63056
vin	-8.63321
▁University	-8.63706
▁strain	-8.63707
▁prepar	-8.63774
▁touch	-8.64649
▁And	-8.64908
▁transport	-8.655
▁injection	-8.655
▁breath	-8.65501
▁proper	-8.65507
▁Z	-8.65612
▁know	-8.65867
▁Pro	-8.66161
▁my	-8.68014
▁People	-8.68252
▁concern	-8.68252
▁global	-8.68252
▁similar	-8.68252
▁host	-8.68281
▁sw	-8.6876
▁flu	-8.68869
▁epidemic	-8.69187
▁major	-8.69187
▁common	-8.69187
▁each	-8.69363
▁Pradesh	-8.7013
▁monitor	-8.7013
▁happen	-8.7013
▁month	-8.70192
▁she	-8.70361
ize	-8.70424
▁16	-8.70526
▁Cha	-8.70757
▁six	-8.71084
▁claim	-8.71084
▁lack	-8.71271
▁close	-8.71388
app	-8.71507
▁Nare	-8.71586
▁critical	-8.72044
▁minister	-8.72044
▁collect	-8.72046
▁women	-8.72046
▁way	-8.72127
▁coming	-8.7218
▁non	-8.72605
▁wear	-8.72904
▁community	-8.73015
▁suggest	-8.73015
▁immune	-8.73015
▁class	-8.7303
▁pain	-8.73036
▁June	-8.731
▁Wuhan	-8.73996
▁examination	-8.73996
▁Even	-8.74006
▁Office	-8.74985
▁cough	-8.74985
▁decided	-8.74985
▁parents	-8.74986
▁want	-8.75189
▁capacity	-8.75985
▁return	-8.75986
▁head	-8.75992
▁highest	-8.76119
▁give	-8.76141
▁development	-8.76195
▁Ex	-8.76356
▁required	-8.76544
▁medicine	-8.76995
▁general	-8.76996
▁Also	-8.77028
▁big	-8.77373
agar	-8.77645
▁Biotech	-8.78016
▁antibodies	-8.78016
▁companies	-8.78016
▁expected	-8.78016
▁2019	-8.78016
▁Bharat	-8.78018
▁young	-8.78031
▁name	-8.78065
cute	-8.78398
▁ser	-8.78673
ught	-8.79018
▁BJP	-8.79047
▁received	-8.79047
▁daily	-8.79047
▁project	-8.79047
▁chest	-8.7906
▁cold	-8.79563
▁evidence	-8.80088
▁safety	-8.80127
▁distribut	-8.81141
▁tweet	-8.81141
▁protein	-8.81143
▁clean	-8.81156
▁clear	-8.81157
▁organ	-8.81158
▁post	-8.8117
▁South	-8.81174
▁MERS	-8.82205
▁Marathi	-8.82205
▁Vaccine	-8.82205
▁ICU	-8.82205
▁half	-8.82214
▁imp	-8.82324
▁cancel	-8.82509
ship	-8.82644
▁Amravati	-8.8328
▁passenger	-8.8328
▁estimate	-8.83281
▁variant	-8.83281
▁Pawar	-8.83282
▁relatives	-8.83288
▁main	-8.8333
▁Centr	-8.83411
▁dry	-8.83627
▁100	-8.8413
▁Europe	-8.84367
▁deliver	-8.84397
▁visit	-8.85467
lock	-8.85467
▁why	-8.85496
▁enter	-8.85702
▁stage	-8.85706
▁60	-8.85744
▁cities	-8.85787
▁mov	-8.85791
round	-8.85816
▁card	-8.86371
▁mus	-8.86403
▁Meanwhile	-8.86577
▁look	-8.86579
▁mutation	-8.86579
▁national	-8.86581
▁Italy	-8.86609
▁active	-8.86614
▁store	-8.86656
ake	-8.87061
▁check	-8.87701
▁letter	-8.87701
▁shops	-8.87701
▁strict	-8.87704
▁appear	-8.87711
▁outside	-8.87717
▁kit	-8.87775
produc	-8.88491
▁safe	-8.88795
▁facilities	-8.88837
▁think	-8.88837
▁origin	-8.88843
▁National	-8.88845
ified	-8.88886
▁full	-8.89568
▁25	-8.89823
▁stock	-8.89987
ternational	-8.89988
▁everyone	-8.89995
posed	-8.90005
▁experience	-8.90802
▁free	-8.91135
▁taluka	-8.91149
▁immediately	-8.91295
▁municipal	-8.91428
▁perform	-8.92326
▁challenge	-8.92326
▁potential	-8.92326
▁right	-8.92326
▁observ	-8.92326
▁room	-8.92349
▁away	-8.92357
▁require	-8.92854
▁Ju	-8.92944
▁December	-8.93516
▁individual	-8.93516
▁program	-8.93518
▁compar	-8.93525
▁detect	-8.93605
▁17	-8.93994
▁prior	-8.94734
aff	-8.95806
▁provid	-8.95848
▁necessary	-8.95941
▁negative	-8.95941
▁special	-8.95941
▁sector	-8.95943
▁viral	-8.95967
▁stop	-8.95975
▁sit	-8.95993
▁affect	-8.96029
ublic	-8.96923
▁Pfizer	-8.97175
▁pneumonia	-8.97175
▁talk	-8.97177
▁illness	-8.97179
▁arriv	-8.97186
source	-8.97243
▁call	-8.97404
ency	-8.98179
▁reduc	-8.98299
▁School	-8.98425
▁influenza	-8.98425
▁review	-8.98425
▁fear	-8.98486
long	-8.98958
▁enough	-8.99691
▁establish	-8.99691
▁record	-8.99691
▁just	-8.99692
▁feel	-8.99707
▁undergo	-8.99711
▁manufacture	-9.00973
▁mortality	-9.00973
▁suspect	-9.00973
▁2021	-9.00974
▁having	-9.00976
▁recent	-9.0099
▁lead	-9.01571
▁unti	-9.02093
▁occur	-9.02272
▁declining	-9.02272
▁guidelines	-9.02272
▁suffer	-9.02272
▁genome	-9.02272
▁mild	-9.02283
▁near	-9.02327
▁writ	-9.02437
generat	-9.02674
▁Control	-9.03588
▁Remedesivir	-9.03588
▁organization	-9.03588
▁Uttar	-9.03588
▁task	-9.03589
▁advis	-9.03592
K	-9.04031
pite	-9.04055
ological	-9.04605
▁front	-9.04921
▁lab	-9.05462
▁covacin	-9.06272
▁sanitizer	-9.06272
▁method	-9.06273
ability	-9.06305
▁short	-9.0758
▁child	-9.0764
▁senior	-9.07642
▁pay	-9.07697
▁side	-9.08059
▁Oxford	-9.09031
▁September	-9.09031
▁business	-9.09031
▁impact	-9.09034
▁great	-9.09039
▁teach	-9.09039
▁lot	-9.09173
rupt	-9.10413
▁District	-9.10439
▁Vaccination	-9.10439
▁decrease	-9.10439
▁survey	-9.10439
▁application	-9.1044
▁hotel	-9.1044
▁example	-9.10441
▁above	-9.10449
▁began	-9.10502
▁rise	-9.10783
▁already	-9.11868
▁might	-9.11868
▁political	-9.11868
▁temperature	-9.11868
▁prevalen	-9.11869
▁slow	-9.1201
▁completely	-9.13317
▁alcohol	-9.13317
▁election	-9.13319
▁sick	-9.13321
▁step	-9.13345
symptomatic	-9.14788
▁Department	-9.14788
▁published	-9.14788
▁significant	-9.14788
▁worldwide	-9.14788
▁multi	-9.14797
▁isolation	-9.14804
▁single	-9.14806
PCR	-9.14807
AstraZeneca	-9.1628
▁Research	-9.1628
▁RNA	-9.16281
tensive	-9.16309
▁More	-9.16375
▁allow	-9.16724
▁Fadnavis	-9.17795
▁President	-9.17795
▁involve	-9.17795
▁success	-9.17795
▁maintain	-9.17796
▁underway	-9.17798
▁option	-9.17811
▁planning	-9.17812
▁team	-9.17821
▁trying	-9.17857
▁initial	-9.18461
▁Lockdown	-9.19334
▁Patients	-9.19334
▁effort	-9.19334
▁syndrome	-9.19334
▁General	-9.19334
▁genetic	-9.19334
▁member	-9.19334
▁attend	-9.19359
▁past	-9.19385
▁virolog	-9.19883
▁benefit	-9.20896
▁instructions	-9.20896
▁laboratory	-9.20896
▁High	-9.20899
bacteria	-9.20902
▁Home	-9.20906
▁life	-9.20923
▁curfew	-9.22484
▁economic	-9.22484
▁exposure	-9.22484
▁industry	-9.22484
▁victims	-9.22484
▁minute	-9.22484
▁tanker	-9.22485
▁remov	-9.22486
▁chain	-9.22493
▁save	-9.22677
▁die	-9.228
▁vaccinate	-9.23437
RCGP	-9.24097
cientists	-9.24097
▁college	-9.24097
▁financial	-9.24097
▁immunity	-9.24097
▁infectious	-9.24097
▁previous	-9.24097
ntibody	-9.24097
▁view	-9.24097
▁fast	-9.24513
▁share	-9.2458
▁contract	-9.25736
▁incidence	-9.25736
▁answer	-9.25738
▁left	-9.25738
▁employees	-9.25738
▁That	-9.25761
▁role	-9.25841
▁Kumbh	-9.27403
▁Sunday	-9.27403
▁permission	-9.27403
▁entire	-9.27404
▁stopped	-9.2741
▁Drug	-9.27419
▁Thane	-9.27432
came	-9.28663
▁Friday	-9.29098
▁Secretary	-9.29098
▁candidate	-9.29098
▁equipment	-9.29098
▁president	-9.29098
▁Police	-9.29098
▁Russia	-9.29098
species	-9.29099
▁point	-9.29099
▁usual	-9.29106
▁region	-9.29113
▁Mela	-9.29129
▁Congress	-9.30822
▁expressed	-9.30822
▁families	-9.30822
▁surface	-9.30822
▁video	-9.30822
▁season	-9.30822
▁RSC	-9.30822
▁sign	-9.30827
▁ensur	-9.30829
▁Care	-9.30921
▁onset	-9.30924
▁import	-9.32512
▁Disease	-9.32576
▁pressure	-9.32576
▁job	-9.32576
▁Kumar	-9.32578
▁matter	-9.32581
▁micro	-9.32581
▁With	-9.32583
eight	-9.32634
associated	-9.34362
▁Africa	-9.34362
▁authorities	-9.34362
▁occasion	-9.34362
▁studies	-9.34362
▁CDC	-9.34363
▁together	-9.34367
▁carri	-9.34376
▁Shiv	-9.34466
njay	-9.34631
▁interact	-9.34709
▁emerg	-9.36168
▁mandatory	-9.3618
▁protocol	-9.3618
▁future	-9.3618
▁Patil	-9.36186
▁Korea	-9.36186
▁raised	-9.36188
load	-9.36342
▁Association	-9.38032
▁Covishield	-9.38032
▁Education	-9.38032
▁agricultur	-9.38032
▁location	-9.38032
▁Nashik	-9.38032
▁design	-9.38032
▁solution	-9.38032
▁leave	-9.38033
▁hygiene	-9.39919
▁material	-9.39919
vailability	-9.39919
▁standard	-9.39919
▁access	-9.39919
▁PPE	-9.3992
power	-9.39925
▁Sonu	-9.39958
▁wait	-9.39971
▁College	-9.41842
▁Oxygen	-9.41842
▁amount	-9.41842
▁cylinder	-9.41842
▁separate	-9.41842
▁antiviral	-9.41842
▁attention	-9.41843
▁paper	-9.41852
▁Since	-9.41858
▁surg	-9.41869
▁account	-9.43803
▁address	-9.43803
▁criticiz	-9.43803
▁indicat	-9.43906
kept	-9.43923
▁drive	-9.43959
▁count	-9.43965
April	-9.45618
▁diabetes	-9.45802
▁diarrhea	-9.45802
▁identified	-9.45802
▁primary	-9.45802
▁sequencing	-9.45802
▁society	-9.45802
shield	-9.45803
▁policy	-9.45803
▁average	-9.45809
▁gather	-9.45813
▁alone	-9.45816
▁Court	-9.4582
▁depend	-9.47343
▁Director	-9.47843
▁Vasai	-9.47843
▁building	-9.47843
▁difference	-9.47843
▁vehicle	-9.47843
▁Doctor	-9.47844
▁appealed	-9.47844
▁moder	-9.47846
▁added	-9.47854
▁rapid	-9.49572
corona	-9.49841
Currently	-9.49927
▁Collector	-9.49927
▁little	-9.49927
▁morning	-9.49927
▁postpone	-9.49929
▁gave	-9.49943
▁beginning	-9.52054
▁pathogen	-9.52054
▁menstrua	-9.52054
▁particular	-9.52054
▁Bengal	-9.52055
▁skin	-9.52064
▁sample	-9.5264
▁Palghar	-9.54228
▁target	-9.54228
▁Brazil	-9.54228
▁adults	-9.54228
▁schedule	-9.54228
▁advice	-9.54228
▁approach	-9.54228
▁except	-9.5423
▁lost	-9.54246
▁update	-9.54571
▁Britain	-9.5645
▁Saturday	-9.5645
▁announcement	-9.5645
▁possibility	-9.5645
▁natural	-9.56451
▁scheme	-9.56451
▁MLA	-9.56451
▁stress	-9.56451
Virar	-9.56619
▁certain	-9.58723
▁mobile	-9.58723
▁regulator	-9.58723
▁religious	-9.58723
▁Varsha	-9.58723
▁throat	-9.58723
▁PHE	-9.58724
▁France	-9.58726
▁living	-9.58732
▁Joshi	-9.61049
▁economy	-9.61049
▁progress	-9.61049
▁supplied	-9.61049
▁vegetable	-9.61049
▁RTPCR	-9.61049
▁purchas	-9.61049
▁behind	-9.61051
▁Expert	-9.6343
▁awareness	-9.6343
▁disinfect	-9.6343
▁physical	-9.6343
▁remedicivir	-9.6343
▁focus	-9.6343
▁incident	-9.6343
▁request	-9.63431
▁detail	-9.63432
▁relax	-9.63434
▁break	-9.63435
▁turn	-9.63435
▁huge	-9.63435
▁speak	-9.63765
▁Gujarat	-9.65869
▁Thursday	-9.65869
▁conference	-9.65869
▁picture	-9.65869
▁platform	-9.65869
▁field	-9.65869
▁threat	-9.65869
▁function	-9.65871
▁black	-9.65872
▁adapt	-9.65873
▁model	-9.65887
▁employ	-9.68365
▁transmit	-9.68369
▁Gaikwad	-9.68369
▁backdrop	-9.68369
▁complain	-9.68369
▁contagious	-9.68369
▁environment	-9.68369
▁responsibility	-9.68369
▁website	-9.68369
▁Johns	-9.68369
▁exactly	-9.68369
▁receptor	-9.68369
▁Satara	-9.6837
▁phone	-9.68374
q	-9.70552
▁Guardian	-9.70933
▁Information	-9.70933
▁Monday	-9.70933
▁Service	-9.70933
▁Trump	-9.70933
▁hundred	-9.70933
▁laboratories	-9.70933
▁manufacturing	-9.70933
▁precaution	-9.70933
▁sudden	-9.70933
▁regular	-9.70933
▁Coronavirus	-9.70934
J	-9.71306
▁California	-9.73564
▁Emergenc	-9.73564
▁Opposition	-9.73564
▁Solapur	-9.73564
▁distancing	-9.73564
▁responsible	-9.73564
▁scientific	-9.73564
▁session	-9.73565
▁export	-9.73565
▁zone	-9.73566
COVID	-9.74044
dependent	-9.74221
pproximate	-9.76267
▁Additional	-9.76267
▁Aurangabad	-9.76267
▁appropriate	-9.76267
▁digital	-9.76267
▁network	-9.76267
▁tempora	-9.76267
▁improve	-9.76268
▁join	-9.76268
▁damage	-9.76268
▁measure	-9.78094
▁Citizens	-9.79045
▁November	-9.79045
▁Poonawala	-9.79045
▁Prevention	-9.79045
▁Wednesday	-9.79045
▁accept	-9.79045
▁admission	-9.79045
▁ambulance	-9.79045
▁frequent	-9.79045
▁strong	-9.79045
▁studied	-9.79045
▁universities	-9.79045
▁storage	-9.79045
▁operation	-9.79045
▁chron	-9.79046
flamma	-9.79053
▁believe	-9.7907
WHO	-9.79672
▁immediate	-9.81543
sufficient	-9.81902
▁Australia	-9.81902
▁Passenger	-9.81902
▁Tuesday	-9.81902
▁approval	-9.81902
▁capital	-9.81902
▁obtain	-9.81902
▁respond	-9.81902
(	-11.3222
Z	-11.6316
