<pad>	0
</s>	0
<unk>	0
¦	-2.0863
▁¦	-2.19953
▁、	-2.65233
▁	-2.93058
▁。	-3.35623
の	-4.08319
を	-4.23757
は	-4.28152
に	-4.491
と	-4.52919
が	-4.72366
その	-4.98542
▁、「	-5.50896
た	-5.51514
も	-5.55889
▁」。	-5.60454
い	-5.61945
か	-5.62456
また	-5.63568
から	-5.66929
し	-5.67035
で	-5.69037
る	-5.70093
わたしは	-5.70926
り	-5.83216
て	-5.84601
あなたの	-6.04597
き	-6.06654
よ	-6.07866
な	-6.13806
く	-6.19873
である	-6.19977
あなたは	-6.25582
って	-6.26319
わたしの	-6.27977
彼らは	-6.31419
み	-6.38115
この	-6.41247
った	-6.43719
した	-6.45389
して	-6.45567
なさい	-6.48859
え	-6.50773
しかし	-6.50946
お	-6.5228
そして	-6.53309
主は	-6.53883
す	-6.54294
いた	-6.55561
彼は	-6.56449
う	-6.57901
つ	-6.59662
言った	-6.60442
め	-6.6291
あなたがたは	-6.63629
ま	-6.64552
者	-6.67352
ことを	-6.68235
ない	-6.71617
▁」	-6.72127
すなわち	-6.72663
ら	-6.74098
これを	-6.74962
人	-6.76609
ル	-6.78725
の子	-6.79174
ア	-6.80323
のために	-6.80742
ように	-6.83366
そこで	-6.84276
わたし	-6.85649
わたしを	-6.86328
によって	-6.86936
わたしが	-6.87978
れ	-6.88345
や	-6.88844
をもって	-6.89027
および	-6.92584
主の	-6.94269
者は	-6.94339
すべての	-6.9673
さ	-6.97168
からである	-6.97706
▁「	-6.98038
のように	-6.98482
それを	-6.99942
られた	-7.00163
する	-7.00697
わが	-7.0161
け	-7.02525
もし	-7.04143
あなたがたの	-7.07569
ず	-7.08281
シ	-7.08443
これは	-7.08805
そ	-7.10063
られる	-7.10305
主が	-7.10338
ある	-7.11407
時	-7.11975
わたしに	-7.12186
あなた	-7.12499
彼らを	-7.15695
あ	-7.15923
彼らの	-7.16001
なかった	-7.1613
自分の	-7.16299
こ	-7.16838
びと	-7.18354
であろう	-7.18559
のである	-7.19309
王	-7.19319
すべて	-7.19327
彼ら	-7.19458
▁、『	-7.20284
いて	-7.20327
のか	-7.20415
ヤ	-7.20752
まで	-7.21151
物	-7.22548
テ	-7.22672
ば	-7.23422
一	-7.23973
ン	-7.24077
こと	-7.24677
です	-7.25011
であった	-7.25552
神の	-7.25967
む	-7.26308
わ	-7.26853
いる	-7.28144
ラ	-7.2838
▁』	-7.29508
に言った	-7.29838
なければならない	-7.30446
主	-7.31636
あなたが	-7.32098
きた	-7.32943
ます	-7.34489
だ	-7.34908
あなたがた	-7.35651
神	-7.35672
とき	-7.35772
と共に	-7.37819
彼	-7.38483
び	-7.38986
ので	-7.39475
あなたを	-7.39657
エ	-7.39741
彼を	-7.40435
せ	-7.41743
日	-7.41818
見よ	-7.42044
させ	-7.42079
には	-7.42592
イ	-7.42771
ました	-7.42954
それは	-7.43618
こう	-7.4382
行って	-7.43996
上	-7.44679
もの	-7.4668
事	-7.46847
された	-7.46866
ている	-7.47564
あなたに	-7.50896
の上に	-7.51798
マ	-7.52348
女	-7.52349
デ	-7.52605
今	-7.52628
神は	-7.53159
それ	-7.53194
ならば	-7.53826
なら	-7.54021
んで	-7.54366
民	-7.55163
罪	-7.5526
国	-7.55421
彼らに	-7.55529
きて	-7.55626
ぎ	-7.55928
であって	-7.56128
父	-7.56339
こうして	-7.56538
ナ	-7.57373
について	-7.57384
言われた	-7.57509
地	-7.5787
知	-7.5789
ハ	-7.57939
イエスは	-7.58365
心	-7.58511
十	-7.5909
・	-7.59377
人の	-7.59458
じ	-7.59706
主に	-7.59839
らせ	-7.59926
これ	-7.6081
たち	-7.61715
べ	-7.62312
のうちに	-7.63851
祭司	-7.64307
る者	-7.64809
ム	-7.64987
レ	-7.65176
るであろう	-7.65235
所	-7.6525
として	-7.65532
言	-7.65755
大	-7.65801
あなたがたに	-7.65912
もろもろの	-7.6597
ど	-7.662
手	-7.66854
足	-7.66928
人を	-7.67039
みな	-7.67353
の子孫	-7.67657
主よ	-7.67848
言う	-7.6936
ぶ	-7.69941
とを	-7.70294
リ	-7.70746
下	-7.70827
見	-7.70936
行	-7.71124
彼らが	-7.71816
んだ	-7.71948
子	-7.72635
行った	-7.72714
地に	-7.72961
恐れ	-7.73139
ダビデ	-7.7321
られ	-7.73724
される	-7.73754
ク	-7.73887
人は	-7.74251
あなたがたが	-7.74409
事を	-7.75096
町	-7.754
力	-7.75813
出	-7.76391
へ	-7.76475
ち	-7.76621
そう	-7.7669
彼の	-7.76705
しい	-7.76996
イスラエル	-7.77137
敵	-7.7735
キリスト	-7.7789
の中に	-7.7937
人が	-7.80636
全	-7.81584
それゆえ	-7.81863
ただ	-7.81966
っている	-7.82274
ために	-7.82586
イスラエルの	-7.83412
ご	-7.83553
われわれは	-7.83648
彼に	-7.8402
ください	-7.84439
王は	-7.84805
彼が	-7.84841
の前に	-7.84883
すると	-7.84934
自分	-7.85418
にある	-7.86026
石	-7.86218
ス	-7.8623
エル	-7.87322
来る	-7.87414
物を	-7.8743
年	-7.87627
『	-7.87655
わたしたちは	-7.87906
います	-7.87935
人々は	-7.88107
の家	-7.8855
山	-7.89423
を見	-7.89594
行く	-7.89997
そこに	-7.90521
ブ	-7.90842
バ	-7.90879
命	-7.91085
祭壇	-7.91103
律法	-7.91341
なる	-7.91599
イエス	-7.91921
実	-7.92292
分	-7.92555
てください	-7.92895
よう	-7.92897
しもべ	-7.93534
者が	-7.941
している	-7.94116
王の	-7.94359
えて	-7.94782
イスラエルの人々	-7.95125
悪	-7.95493
肉	-7.95727
タ	-7.95904
なく	-7.95918
ため	-7.96073
てはならない	-7.96117
行き	-7.96594
水	-7.96752
手を	-7.9776
立って	-7.97919
ユダ	-7.98168
その時	-7.98432
人々	-7.98663
後	-7.99048
それで	-7.99788
れる	-8.00046
のです	-8.00062
多くの	-8.0042
パ	-8.00742
大いなる	-8.00837
火	-8.01093
にも	-8.01641
ふ	-8.02729
彼女	-8.0336
夜	-8.03763
立ち	-8.03775
者を	-8.03817
あなたがたを	-8.0417
兄弟	-8.04946
所に	-8.05023
海	-8.05064
預言者	-8.05121
ところ	-8.05273
ダビデは	-8.05298
ひとり	-8.06101
エルサレム	-8.0737
となり	-8.07599
口	-8.076
のは	-8.0773
目	-8.07809
る者は	-8.07845
でしょう	-8.08295
なお	-8.08386
霊	-8.08403
天	-8.08674
にむかって	-8.08678
れた	-8.08828
月	-8.09027
言葉	-8.09461
どうして	-8.09845
に対して	-8.09894
ヤコブ	-8.10088
地の	-8.10212
家	-8.10299
パン	-8.10511
かた	-8.11024
喜び	-8.11537
出て	-8.11639
のですか	-8.11902
者たち	-8.12182
げ	-8.12352
あなたの神	-8.12897
ことは	-8.13032
引き	-8.1313
時に	-8.13155
ベ	-8.13734
兄弟たち	-8.13759
羊	-8.13966
器	-8.13984
助け	-8.14087
ん	-8.1426
ミ	-8.14523
を取り	-8.14552
さて	-8.14615
母	-8.14885
よりも	-8.15377
数	-8.156
々	-8.16178
がある	-8.16606
ひ	-8.16847
聞いて	-8.169
与え	-8.17141
町々	-8.17202
ね	-8.17326
取り	-8.17873
三	-8.17918
はその	-8.18091
救	-8.18115
銀	-8.18863
聖なる	-8.19309
聞き	-8.19824
知恵	-8.20153
われわれの	-8.20283
あった	-8.20435
ニ	-8.20468
▁』。	-8.20795
栄光	-8.20795
渡	-8.21414
会	-8.21448
たので	-8.21462
四	-8.21467
定め	-8.21678
内	-8.21752
と言った	-8.21995
心を	-8.22222
一つ	-8.22255
従	-8.22679
思い	-8.2292
書	-8.23136
香	-8.23381
光	-8.23701
でも	-8.23947
道	-8.24079
愛	-8.24458
皆	-8.24713
のだ	-8.25025
にしたがって	-8.25037
という	-8.25084
からだ	-8.25281
これらの	-8.25615
人に	-8.25705
怒り	-8.25898
おり	-8.26292
木	-8.26396
モーセ	-8.26488
良い	-8.26903
ではないか	-8.26948
ネ	-8.2706
れて	-8.27109
とが	-8.27643
ろ	-8.27817
メ	-8.27902
ひとりの	-8.27911
わたしたちの	-8.28028
恵み	-8.28107
死	-8.28173
言い	-8.28362
をも	-8.28527
とし	-8.28557
ぼ	-8.28644
世	-8.28846
主は言われる	-8.29153
える	-8.29263
レビびと	-8.295
中	-8.2968
食べ	-8.29846
めて	-8.30011
わざ	-8.3005
祈	-8.3015
となる	-8.30176
そうすれば	-8.3019
万	-8.30235
ものは	-8.30448
だけ	-8.30508
川	-8.30526
行い	-8.30847
間	-8.3107
かな	-8.31133
妻	-8.31147
は言った	-8.3131
に向かって	-8.3159
であり	-8.31773
ことごとく	-8.31938
パロ	-8.31979
五	-8.32131
神が	-8.32167
牛	-8.3245
になった	-8.3249
ぐ	-8.32501
され	-8.32725
生	-8.32746
祭	-8.32821
かつ	-8.3288
カ	-8.32888
かせ	-8.33255
ホ	-8.33276
われわれ	-8.33311
不	-8.33333
ザ	-8.33389
一つの	-8.33595
百	-8.3363
オ	-8.3368
ものである	-8.33746
七	-8.33909
ヨ	-8.34065
共に	-8.34154
二	-8.34215
いで	-8.34317
えた	-8.34466
このように	-8.34524
前	-8.34613
サウル	-8.34709
ト	-8.34828
はならない	-8.35785
キ	-8.36336
モーセは	-8.36346
ことが	-8.36546
と言う	-8.36711
よく	-8.36765
しく	-8.36859
ダ	-8.36902
があった	-8.37017
キュビト	-8.37062
過	-8.37086
あり	-8.37091
言葉を	-8.37315
とは	-8.37324
長	-8.37462
獣	-8.37463
ものを	-8.37911
ロ	-8.37928
金	-8.38571
ほかの	-8.38692
着	-8.38815
になって	-8.39264
者の	-8.39536
残	-8.39735
さばき	-8.39759
わせ	-8.39837
のもとに	-8.39939
義	-8.39992
神に	-8.40477
男	-8.40586
シャ	-8.40838
セ	-8.40857
だから	-8.4092
の王	-8.41207
心に	-8.41423
かけ	-8.41488
の娘	-8.41587
手に	-8.41643
起	-8.41644
者に	-8.41675
ではなく	-8.42051
べき	-8.42069
主を	-8.42102
では	-8.42187
上って	-8.42327
民は	-8.42818
身を	-8.42864
あげ	-8.4315
方	-8.43195
主の前に	-8.43199
滅び	-8.43353
入れ	-8.4336
野	-8.4369
どうぞ	-8.43709
教え	-8.44025
立て	-8.44099
人の子	-8.44178
身	-8.44187
死んだ	-8.44564
捨て	-8.44834
きょう	-8.44918
柱	-8.44918
これに	-8.45048
ところが	-8.45302
アロン	-8.45382
道を	-8.4542
思	-8.45872
どうか	-8.46346
神を	-8.46459
ここに	-8.46496
ケ	-8.46561
頭	-8.46657
名を	-8.46833
信仰	-8.46873
ゼ	-8.46976
つるぎ	-8.46997
だれが	-8.47048
滅ぼし	-8.47394
があり	-8.47645
門	-8.47709
かに	-8.47722
がよい	-8.48125
のある	-8.48181
次	-8.48199
使	-8.48387
しるし	-8.48491
いだ	-8.48887
とその	-8.48974
っ	-8.49709
もまた	-8.50033
と一緒に	-8.5006
人たち	-8.50111
ません	-8.50211
に従って	-8.50247
それから	-8.50251
らない	-8.50801
いや	-8.51008
帰	-8.51155
彼女は	-8.51195
あかし	-8.51232
戒め	-8.51328
嗣業	-8.51657
わたしたち	-8.51758
ユダヤ人	-8.51798
戦い	-8.51906
まだ	-8.51968
ためである	-8.52035
ていた	-8.52069
者と	-8.52445
守	-8.52592
告げ	-8.52601
箱	-8.52973
の部族	-8.52999
のうちから	-8.53209
宮	-8.53476
歌	-8.5386
となった	-8.53996
サ	-8.54019
つく	-8.54177
住	-8.54232
を得	-8.54286
悪い	-8.54412
の門	-8.5486
つけ	-8.55012
祝福	-8.55017
結	-8.55161
その子	-8.55161
信じ	-8.55189
エジプト	-8.55716
ける	-8.55776
人々が	-8.55876
おられる	-8.56031
重	-8.56112
夫	-8.56112
種	-8.56113
その日	-8.56114
をことごとく	-8.56124
ましょう	-8.56207
を受け	-8.56293
おまえ	-8.56441
しなければならない	-8.56767
だれ	-8.57028
食	-8.57274
よい	-8.57321
あるいは	-8.57511
高	-8.57767
られて	-8.57823
ユダの	-8.57938
当	-8.5794
声	-8.58016
の前で	-8.58388
るように	-8.5839
取	-8.58749
て言った	-8.58778
せよ	-8.58899
しない	-8.5896
部	-8.59301
るために	-8.59564
六	-8.59599
二十	-8.59722
エルサレムに	-8.59826
奪	-8.60299
馬	-8.60299
答え	-8.6061
ガ	-8.60685
ペ	-8.60775
朝	-8.60775
入	-8.60862
報い	-8.60971
を与え	-8.61086
畑	-8.61244
まず	-8.6137
地を	-8.61498
ヘ	-8.61734
のがれ	-8.61865
をお	-8.61872
他の	-8.62083
にいる	-8.62185
を攻め	-8.62218
死ぬ	-8.62241
たちは	-8.62264
のところに	-8.62305
はみな	-8.625
聖所	-8.6265
破	-8.62846
前に	-8.62941
正しい	-8.63151
再び	-8.63194
のうち	-8.63232
血	-8.63405
者である	-8.63406
めた	-8.63487
ってはならない	-8.63577
イスラエルの神	-8.63616
ウ	-8.63673
ペリシテびと	-8.63748
イスラエルの王	-8.63806
おのおの	-8.63806
多く	-8.64333
尋ね	-8.64345
になる	-8.64409
富	-8.64669
ついに	-8.6471
逃げ	-8.65136
合	-8.65157
互に	-8.65497
求め	-8.65618
は皆	-8.65652
なぜ	-8.65718
のすべての	-8.65914
拝	-8.66166
ても	-8.66361
答えて	-8.6657
何	-8.66597
苦	-8.66657
ヨセフ	-8.66669
麦	-8.66674
風	-8.66674
娘	-8.66741
いない	-8.66764
の子たち	-8.66853
の中で	-8.66905
必ず	-8.67205
名	-8.67467
近	-8.67487
ざ	-8.67516
アブラハム	-8.67773
かれ	-8.67844
など	-8.67871
ることを	-8.6793
ド	-8.68186
ながら	-8.68243
ようと	-8.68373
けて	-8.68685
無	-8.6872
のゆえに	-8.68845
イエスを	-8.68905
ふたり	-8.68912
金の	-8.69089
千	-8.69131
ぬ	-8.69213
ろう	-8.69267
を取って	-8.69427
知っている	-8.69431
そこ	-8.69521
の地	-8.69535
らず	-8.6954
産	-8.69566
っていた	-8.70069
顔を	-8.70104
あの	-8.70117
日に	-8.70182
その人	-8.70433
願い	-8.70595
数え	-8.70619
ような	-8.70622
下って	-8.7069
教	-8.70889
家に	-8.70959
いま	-8.71237
▁』」。	-8.71338
幕屋	-8.71342
なり	-8.71399
来て	-8.71813
目に	-8.71846
フ	-8.71863
ッ	-8.71868
こう言われる	-8.72009
と言って	-8.72174
水を	-8.72401
の子らは	-8.7244
悪しき者	-8.72501
第	-8.726
もとに	-8.72627
主人	-8.72849
ベニヤミン	-8.72942
すでに	-8.73017
ると	-8.73364
ほ	-8.73399
工	-8.73483
聞く	-8.73483
知らない	-8.73548
ソロモン	-8.73654
主の言葉	-8.73796
とする	-8.73858
コ	-8.73942
これらは	-8.73947
ユダの王	-8.74007
の長	-8.74154
命を	-8.7447
の木	-8.74534
帰って	-8.74725
ジ	-8.75122
庭	-8.75122
兵	-8.75122
おきて	-8.75165
外	-8.75211
の言葉	-8.75247
知らせ	-8.75331
意	-8.75667
滅ぼす	-8.75675
語り	-8.76064
または	-8.76164
もう	-8.76222
軍	-8.76226
離れ	-8.7627
のうちで	-8.76332
語	-8.76352
願	-8.76457
の手から	-8.7698
ではない	-8.77028
あなたがたの神	-8.77212
モ	-8.77278
明	-8.7735
台	-8.77351
してはならない	-8.77402
のような	-8.77464
顔	-8.77542
自身	-8.77594
先祖たち	-8.77753
投げ	-8.77877
してください	-8.77982
座	-8.78367
いなさい	-8.78381
動	-8.78484
北	-8.78484
の間	-8.78754
主なる神は	-8.78977
わし	-8.78981
酒	-8.79045
糸	-8.79055
雲	-8.79055
シオン	-8.79081
答えた	-8.79153
罰	-8.79402
われ	-8.79443
権	-8.7963
除	-8.7963
ほど	-8.79724
ること	-8.7977
ようになる	-8.79804
切	-8.79914
わず	-8.80003
囲	-8.80208
知って	-8.80364
土	-8.80534
エリ	-8.80623
打ち	-8.80706
に言われた	-8.80749
解	-8.80789
みずから	-8.80794
子を	-8.81116
代	-8.81163
連れて	-8.81256
あって	-8.81352
ボ	-8.81374
寝	-8.81374
歳	-8.81374
どんな	-8.81374
のうちの	-8.81403
望み	-8.8149
の間に	-8.81491
に仕え	-8.81654
ろば	-8.81716
泣	-8.81957
群衆	-8.81962
天幕	-8.81978
アビ	-8.82058
バビロン	-8.82515
親	-8.82554
を聞いた	-8.82554
悩み	-8.82554
イエスが	-8.82703
来	-8.82726
気	-8.82828
弟子たち	-8.82844
災	-8.83083
わたしはあなたの	-8.83218
不義	-8.8323
初め	-8.83441
の上	-8.83627
罪を	-8.83678
戸	-8.83748
またその	-8.84005
造	-8.84024
二つの	-8.84046
なん	-8.84234
満	-8.84307
グ	-8.84351
雄羊	-8.84361
真実	-8.8437
燔祭	-8.84441
住む	-8.84497
すぐ	-8.84622
何を	-8.84803
語る	-8.84871
を見て	-8.84933
十二	-8.84935
害	-8.84957
側	-8.84957
の下に	-8.84964
戦	-8.85025
ども	-8.85291
ゲ	-8.85453
小羊	-8.85594
もない	-8.85666
とした	-8.85668
いつくしみ	-8.8618
家畜	-8.86184
すべての民	-8.86221
うちに	-8.86262
命じられた	-8.8627
民を	-8.8632
国々	-8.86527
者も	-8.86536
の日	-8.86596
同	-8.86674
があって	-8.86699
の子ら	-8.86752
成	-8.86789
群れ	-8.86797
務	-8.86797
ことができる	-8.86842
救い	-8.86973
出し	-8.87312
耳	-8.87462
の中	-8.87541
にあって	-8.87663
三十	-8.87709
なんの	-8.8782
子供	-8.87858
であろうか	-8.87972
エフライム	-8.88043
岩	-8.88043
める	-8.88048
感謝	-8.88089
と言い	-8.88122
イスラエルの人々は	-8.88508
東	-8.88616
パウロ	-8.88633
もはや	-8.88713
なし	-8.88839
サウルは	-8.88917
ほかに	-8.89108
ヨアブ	-8.89305
の人々	-8.89511
の妻	-8.8955
町の	-8.89574
かった	-8.89693
させた	-8.89878
病	-8.89919
異邦人	-8.89942
出して	-8.90291
ヨハネ	-8.90583
僕	-8.90583
官	-8.90583
ったので	-8.90738
あと	-8.90792
を行う	-8.90846
主の宮	-8.90957
による	-8.90967
ゆえ	-8.90977
させる	-8.90982
ヨルダン	-8.91228
放	-8.91228
つかさたち	-8.91747
れば	-8.91765
その人は	-8.91822
それに	-8.9187
エレミヤ	-8.91878
荒	-8.91921
民の	-8.92056
恥	-8.92072
返	-8.92487
布	-8.92531
あなたと	-8.92938
の中から	-8.92967
八	-8.93123
小	-8.9316
別	-8.93186
墓	-8.93189
大きな	-8.93191
安息日	-8.93396
の名は	-8.93682
ビ	-8.93692
神々	-8.93784
誇	-8.93851
偶像	-8.93851
なければ	-8.93852
しめ	-8.93891
がない	-8.9393
の父	-8.93995
悪を	-8.94014
備え	-8.94108
持って	-8.94473
平	-8.94502
王たち	-8.94514
あわれみ	-8.94518
イサク	-8.94518
地は	-8.94518
バアル	-8.94627
油	-8.94707
出す	-8.94867
らなければならない	-8.9495
契約を	-8.94994
とこしえに	-8.95189
にお	-8.9519
軍勢	-8.95194
この地	-8.95322
良	-8.95501
切り	-8.95532
先祖	-8.95536
イエスの	-8.95745
売	-8.95865
勇士	-8.95867
天に	-8.95919
ないでください	-8.96098
をする	-8.96114
たが	-8.96437
んでいる	-8.96441
乳	-8.96545
落ち	-8.96564
自	-8.96619
長老たち	-8.96648
祭司は	-8.96723
契約	-8.96743
祭司たち	-8.96797
るべき	-8.97072
はずかしめ	-8.9723
ギレアデ	-8.9723
皮	-8.9723
モーセに言われた	-8.97262
セラ	-8.97351
死に	-8.97367
わない	-8.97625
ゆ	-8.97646
るでしょう	-8.97657
生き	-8.97816
信	-8.97857
心は	-8.97864
断	-8.97892
を集め	-8.9792
受け	-8.98042
言え	-8.98083
強く	-8.98349
されて	-8.98368
おく	-8.98483
諸	-8.98601
移	-8.98614
だれか	-8.98879
の氏族	-8.99038
命じた	-8.99296
を追い	-8.99345
流れ	-8.99451
そのとき	-8.99584
国民	-8.99619
ることはない	-8.9965
ごとに	-8.99866
の手	-9.00003
エドム	-9.00018
むすこ	-9.00021
見た	-9.00162
ないように	-9.00211
において	-9.00299
バル	-9.00355
食い	-9.00578
得	-9.00643
穴	-9.00727
時は	-9.00755
わたしたちが	-9.00827
荒野	-9.00866
彼らに言った	-9.01025
られない	-9.01158
となって	-9.01194
分け	-9.01351
あがない	-9.01533
仕え	-9.01554
かれた	-9.01608
取った	-9.01791
生れた	-9.01876
だれも	-9.01909
と言われた	-9.02032
その上に	-9.02034
ろうと	-9.02092
聖	-9.02129
城壁	-9.02163
導き	-9.02431
だからである	-9.02456
現れ	-9.02527
去	-9.02561
満ち	-9.02781
けた	-9.02875
ヒゼキヤ	-9.02885
合わせて	-9.02886
たとい	-9.02904
のない	-9.03045
する者	-9.03063
しよう	-9.03102
歩	-9.03181
場所	-9.03198
このような	-9.03216
じて	-9.03255
族	-9.03392
書き	-9.03403
シケル	-9.03615
サマリヤ	-9.03629
人々に	-9.03638
彼に言った	-9.03919
王が	-9.04283
叫び	-9.04413
ことである	-9.04473
いった	-9.04504
もなく	-9.04761
ああ	-9.04868
伝え	-9.04901
理	-9.05083
を守る	-9.05142
天の	-9.05211
全地	-9.05301
していた	-9.05428
ダビデの	-9.05583
ひと	-9.05714
洗	-9.05837
苦しみ	-9.05838
食物	-9.06068
どう	-9.06086
その中に	-9.06104
身に	-9.06132
のもの	-9.06207
悟	-9.06294
ひとりも	-9.06409
の言葉を	-9.06902
ことはない	-9.07006
とおり	-9.07057
を見た	-9.07206
来た	-9.07245
イスラエルの家	-9.07328
マナセ	-9.07347
ヨナタン	-9.07356
大いに	-9.07372
上げ	-9.07496
王に	-9.0751
宿営	-9.076
清め	-9.07686
る時	-9.07702
ませ	-9.07791
油を	-9.07894
夕	-9.0811
終	-9.0826
ることがない	-9.08264
強い	-9.08408
キリストの	-9.08416
いのち	-9.08418
の声	-9.08519
一頭	-9.08552
まった	-9.08611
国の	-9.08791
自分を	-9.08829
に属する	-9.08879
非常に	-9.08882
の日に	-9.09069
われわれの神	-9.09081
君	-9.09235
のひとり	-9.0934
獲	-9.0934
を愛し	-9.09425
の家に	-9.09604
戦車	-9.09665
終り	-9.09952
の神	-9.09953
証	-9.10076
エルサレムの	-9.10209
わなければならない	-9.1025
を得る	-9.10403
開	-9.10696
を捨て	-9.10825
ただし	-9.10826
会衆	-9.11186
像	-9.11223
宮の	-9.11251
われた	-9.1128
堅く	-9.11351
エジプトびと	-9.11356
のを見て	-9.11396
治め	-9.11521
栄え	-9.11608
ふたりの	-9.11726
わり	-9.11849
そうと	-9.12141
われわれを	-9.1216
エリヤ	-9.12167
だろうか	-9.12315
主である	-9.12331
わか	-9.12551
ラム	-9.12574
耳を	-9.12761
広	-9.12808
ズ	-9.12817
目を	-9.13009
立つ	-9.13038
を求め	-9.13096
ベル	-9.13122
見え	-9.13156
女は	-9.13436
より	-9.13618
ダン	-9.1362
しえたげ	-9.13624
イスラエルを	-9.13629
ロン	-9.13666
に告げ	-9.13732
若い	-9.13837
の手に	-9.1422
流	-9.14276
かの	-9.14287
去って	-9.14415
わが民	-9.14433
新しい	-9.14459
去った	-9.14528
の入口	-9.14577
の時	-9.14919
はいって	-9.14943
わたしたちに	-9.15139
心の	-9.15161
ピ	-9.15256
道に	-9.1538
アル	-9.15483
くだ	-9.15601
づ	-9.15634
日の	-9.16071
かけて	-9.16072
雄牛	-9.16094
平安	-9.16095
の所に	-9.1614
ことも	-9.16171
声を	-9.16322
わたしと	-9.16503
しし	-9.16678
のため	-9.1683
取って	-9.16967
かつて	-9.16968
山に	-9.1703
ないで	-9.17057
ない者	-9.17128
さない	-9.17331
わたしたちを	-9.1734
まり	-9.17345
示し	-9.17508
あだ	-9.17648
でしょうか	-9.17725
ほめたたえ	-9.17756
ぶどう酒	-9.17771
つえ	-9.18026
の方	-9.18053
食べる	-9.18057
やり	-9.18212
すべき	-9.18228
イエスに	-9.18242
国に	-9.18465
にはいって	-9.1851
天から	-9.18572
告	-9.18574
何も	-9.18586
教会	-9.18648
ささげ	-9.18709
くる	-9.18807
その家	-9.1894
正しい者	-9.1904
すべての人	-9.19113
につけ	-9.19183
汚れ	-9.19234
彼らはその	-9.19302
去り	-9.19305
アブサロム	-9.19458
所有	-9.19473
らせた	-9.19542
をし	-9.19567
ものと	-9.19594
飲み	-9.19604
の子である	-9.19616
もろもろの民	-9.19788
まま	-9.19795
服	-9.20298
同じ	-9.20299
暗	-9.20313
かえって	-9.20331
神よ	-9.20393
進み	-9.20411
万軍の主	-9.20443
部族	-9.20554
せて	-9.20569
望	-9.2067
るならば	-9.20674
は彼	-9.20895
とおりに	-9.20959
の町	-9.21066
これが	-9.2109
荒れ	-9.21098
かない	-9.21107
全く	-9.21137
悲しみ	-9.21185
法	-9.2119
ぶどう	-9.21193
ペテロ	-9.21213
おおい	-9.21311
それが	-9.21314
らなかった	-9.21585
いている	-9.21591
ることは	-9.219
ぞ	-9.22056
を持って	-9.2229
高く	-9.22419
の血	-9.22509
を呼び	-9.22566
になり	-9.2266
働	-9.22719
かれる	-9.22748
通	-9.22893
者ども	-9.22897
息	-9.22943
立	-9.22976
のようで	-9.23181
たからである	-9.23268
せず	-9.23373
さえ	-9.23551
帰り	-9.23557
愛する	-9.23577
ばかり	-9.23853
死んで	-9.24044
帰った	-9.24052
われわれに	-9.24243
どこに	-9.24254
見る	-9.24335
のを見た	-9.24404
あります	-9.24417
そのすべての	-9.24437
安	-9.24569
したので	-9.24613
宝	-9.24707
利	-9.24738
宿	-9.2474
つか	-9.24777
さらに	-9.24778
ヤコブは	-9.25009
愛する者	-9.25046
これら	-9.25101
救う	-9.2518
を建て	-9.2526
アヒ	-9.25341
おのおのその	-9.25425
父の	-9.25518
呼	-9.25521
魂	-9.25564
汚れた	-9.25573
の道	-9.25592
ることができる	-9.25631
待ち	-9.25694
を造り	-9.25697
となるであろう	-9.25717
により	-9.25819
加え	-9.26057
話し	-9.26209
やめ	-9.26493
約束	-9.26515
屋	-9.26565
集まって	-9.26573
バビロンの王	-9.26634
を打ち	-9.26684
先に	-9.26713
出た	-9.26912
いたので	-9.2709
しなかった	-9.27134
楽し	-9.27148
ころ	-9.27236
外に	-9.27347
ないであろう	-9.27372
この世	-9.27434
に臨んだ	-9.27469
作	-9.27571
絶え	-9.27576
供え物	-9.27738
御	-9.27738
われらの	-9.2795
捕え	-9.27954
知り	-9.27966
後に	-9.28027
ことができない	-9.28128
持ち	-9.28211
高い	-9.28236
すれば	-9.28276
さあ	-9.2828
強	-9.28426
青	-9.28433
激しい	-9.2844
御霊	-9.28464
彼はその	-9.28512
わた	-9.28607
イスラエルは	-9.28622
わたしはあなた	-9.28684
ことに	-9.28796
ヨシュア	-9.28862
んじ	-9.28881
殺し	-9.28903
言って	-9.28928
御使	-9.29115
を離れ	-9.29182
します	-9.29192
言われる	-9.29206
生れ	-9.29266
わたしのために	-9.29349
のほとり	-9.29377
のかたわらに	-9.29386
に対する	-9.29399
イスラエルに	-9.29417
を通	-9.2944
をした	-9.29564
ベテ	-9.29676
ようとする	-9.29897
怒りを	-9.30032
さし	-9.30098
は次のとおりであ	-9.30118
四十	-9.30129
変	-9.30197
この民	-9.30286
会見の幕屋	-9.30295
をなし	-9.30366
殺す	-9.30395
殺され	-9.30466
の名	-9.30508
の人々は	-9.30518
いたが	-9.30522
働き	-9.30581
家来たち	-9.30601
場	-9.30795
モアブ	-9.308
争	-9.30817
ヨシュアは	-9.30849
その民	-9.30891
報	-9.30896
う者	-9.30921
この町	-9.31017
預言者たち	-9.31292
貧しい者	-9.31293
ほしい	-9.31365
口に	-9.31426
あなたの民	-9.316
話	-9.31672
モアブの	-9.31783
ささげなければならない	-9.3187
て下さる	-9.31883
だろう	-9.32144
エサウ	-9.32261
ヨセフは	-9.32271
をささげ	-9.3241
起き	-9.32451
のではない	-9.32538
の子孫は	-9.32558
み名	-9.32572
らし	-9.33075
ヒ	-9.33119
生きている	-9.33161
永遠の	-9.33242
置き	-9.33322
ミカ	-9.33441
海の	-9.33447
見ると	-9.33588
造った	-9.33617
ですか	-9.33618
ほめ	-9.33725
恐れる	-9.33788
すべての事	-9.33965
負	-9.34004
いって	-9.34079
ソロモンは	-9.34135
待	-9.34189
福音	-9.34235
彼はまた	-9.34306
らは	-9.34318
のち	-9.3438
に命じて	-9.34519
その後	-9.3455
を守り	-9.34671
あれ	-9.34813
そこから	-9.34977
人と	-9.35128
飲	-9.35144
ききん	-9.35266
を受ける	-9.35282
るもの	-9.35605
ちり	-9.35707
その所で	-9.35725
隠	-9.35922
に与えた	-9.36039
留	-9.36242
高き所	-9.36246
聖霊	-9.36285
ゆるし	-9.36317
なぜなら	-9.36351
寄せ	-9.36378
ようか	-9.36448
から出た	-9.36574
罪祭	-9.36601
すること	-9.36625
わたしはあなたを	-9.36719
去らせ	-9.36726
わが神	-9.36733
ぜ	-9.37047
出した	-9.37105
なかったので	-9.37141
ささげる	-9.3716
異	-9.37262
アハブ	-9.37262
そのように	-9.37292
ノア	-9.37356
正義	-9.37398
遠く	-9.37449
罪を犯し	-9.37455
リヤ	-9.37522
造られた	-9.37543
撃	-9.37718
王と	-9.3774
祭の	-9.37789
づけ	-9.37811
喜ば	-9.3789
一緒に	-9.37925
られました	-9.38015
求める	-9.38036
から出て	-9.38181
を見る	-9.38184
人々を	-9.38253
小さい	-9.38294
年に	-9.38314
おられた	-9.38394
まことに	-9.38438
くじ	-9.3847
られている	-9.38615
行う	-9.38721
民に	-9.38825
その地	-9.38872
主はこう言われる	-9.39126
レビ	-9.39333
マリヤ	-9.39371
この事	-9.39371
衣服	-9.39423
五十	-9.39472
殺した	-9.39627
与えられた	-9.39667
に与える	-9.39756
くら	-9.39792
つかわした	-9.39795
におる	-9.39828
所で	-9.39835
の住民	-9.39881
エジプトの	-9.39898
のだから	-9.39923
受けいれ	-9.39937
寄	-9.39949
出された	-9.40078
べて	-9.4011
水の	-9.40182
なす	-9.4021
語って	-9.40249
見て	-9.40287
るためである	-9.40312
けれども	-9.40388
進んで	-9.40422
この事を	-9.40434
常に	-9.40503
の所へ	-9.4053
その子は	-9.40555
前から	-9.40598
ではありません	-9.40659
「	-9.4071
栄	-9.40906
呼び	-9.4092
を離れて	-9.4116
家族	-9.41283
先	-9.4138
ルベン	-9.41452
させてください	-9.4147
災を	-9.4157
悪霊	-9.41585
エジプトの国	-9.41608
のかしら	-9.41633
出てきた	-9.4177
連れ	-9.41811
な者	-9.42053
力を	-9.42153
彼と共に	-9.42166
滅	-9.42281
とをもって	-9.42359
さきに	-9.42439
何か	-9.42473
用	-9.425
勝	-9.42517
ごらん	-9.42526
死体	-9.42548
谷	-9.4261
深い	-9.42652
示	-9.42658
をとって	-9.42661
語った	-9.42729
目は	-9.4308
と同じ	-9.43128
驚	-9.43379
遠	-9.43409
千人	-9.43516
様	-9.43613
計	-9.43613
真理	-9.43625
ゆえに	-9.4368
わたしはまた	-9.43754
娘たち	-9.43813
まい	-9.43878
置いた	-9.43955
その兄弟	-9.44052
を携えて	-9.44314
つるぎを	-9.44387
空	-9.44416
およびその	-9.44423
われる	-9.44516
飲む	-9.44608
建	-9.44638
車	-9.44698
議	-9.44712
平和	-9.44723
あざ	-9.44882
イム	-9.45071
割礼	-9.45334
こそ	-9.45519
あなたがたのうちに	-9.45606
ささげた	-9.45791
あらゆる	-9.45823
ギ	-9.45823
犠牲をささげ	-9.45823
賜わった	-9.45823
正しく	-9.45846
出る	-9.45879
女たち	-9.45888
いつも	-9.45906
を設け	-9.45973
わたしも	-9.45992
アラ	-9.45992
地から	-9.46004
嘆き	-9.46016
決して	-9.46069
人であった	-9.46239
するであろう	-9.46315
かなければならない	-9.46464
持っている	-9.46603
れている	-9.4677
るとき	-9.46833
滅ぼされ	-9.46843
者よ	-9.46918
去る	-9.46937
ヨシャパテ	-9.46947
とその放牧地	-9.46953
アッスリヤの王	-9.46981
神の宮	-9.46986
主なる神	-9.47041
を捕え	-9.47135
ようとして	-9.47178
時には	-9.4721
金を	-9.47277
を殺し	-9.47307
自ら	-9.47328
つかわされた	-9.47336
あなたはわたしの	-9.47422
同じように	-9.47572
怒	-9.47597
やぎ	-9.47636
アナ	-9.47693
年の	-9.47956
を守ら	-9.48
にはいった	-9.48035
真	-9.48035
プ	-9.48083
宣べ伝え	-9.48083
仰せ	-9.48109
その血	-9.48154
のつかさ	-9.48181
の供え物	-9.48315
はじめ	-9.48353
悟り	-9.48532
まれ	-9.48547
にはいる	-9.48582
三人	-9.48618
エジプトの地	-9.48753
少し	-9.48971
がなく	-9.49006
これらの事	-9.49075
たちが	-9.49088
の谷	-9.49143
幕	-9.49192
主はまた	-9.49233
偽り	-9.49468
に行き	-9.49828
歩み	-9.49842
長さ	-9.49879
のところへ	-9.49883
喜んで	-9.49906
君たち	-9.50118
愚かな者	-9.50169
弟子	-9.50244
ツ	-9.50372
音	-9.50392
ラッパ	-9.50396
おこない	-9.50401
飲ませ	-9.5041
もので	-9.50488
あなたのしもべ	-9.50541
あなたの父	-9.50641
らい	-9.50678
寄り	-9.50723
ほか	-9.50733
義と	-9.5093
一日	-9.50993
初	-9.50996
はいり	-9.51014
に住む	-9.51036
その女	-9.51069
ポ	-9.51572
十二人	-9.51572
むしろ	-9.51573
を生んだ	-9.51586
あなたがたも	-9.51595
だれでも	-9.51644
ともに	-9.51702
かすめ	-9.51865
イスラエルのすべての	-9.52081
であることを	-9.52424
に住む者	-9.52431
わたしの民	-9.52505
れない	-9.52532
偽りを	-9.52585
られるであろう	-9.52595
ペリシテびとの	-9.526
うち	-9.5262
事は	-9.52762
よみがえ	-9.52763
ならびに	-9.52768
場合	-9.52785
こさせ	-9.52853
三日	-9.53026
わら	-9.53059
もろもろの国民	-9.53351
わたしの父	-9.53443
人たちは	-9.53536
ようとした	-9.53562
正	-9.5371
得た	-9.53737
食物を	-9.53888
万軍の主は	-9.53919
ことがない	-9.53949
全会衆	-9.54029
行かせ	-9.5413
送り	-9.54349
悪人	-9.5437
青銅の	-9.54729
燔祭と	-9.54947
ノ	-9.55075
憎むべき	-9.55127
殺	-9.55187
ダニエル	-9.55187
のろい	-9.5525
モン	-9.5526
祭と	-9.55268
死人	-9.55348
町に	-9.55357
七つの	-9.55359
召し	-9.55409
に臨む	-9.55443
今日	-9.55505
間に	-9.55543
なるであろう	-9.55545
となえ	-9.55628
を造った	-9.55642
主なる神は言われ	-9.55701
アサ	-9.55733
隠れ	-9.55757
取る	-9.55991
サムエル	-9.56048
口を	-9.5605
を撃ち	-9.56053
所から	-9.56056
られます	-9.56096
年の間	-9.5636
悲	-9.56412
ヤラベアム	-9.56421
ヨアシ	-9.56422
書いてある	-9.56422
ぶどう畑	-9.56448
があれば	-9.56458
のようだ	-9.56549
あなたの前に	-9.56555
わたしがあなた	-9.56622
長子	-9.5668
少	-9.56704
ることができない	-9.56756
すわって	-9.56849
を守って	-9.56946
あらわ	-9.56949
子ら	-9.56956
火を	-9.56974
証人	-9.56994
荒野に	-9.57019
おいた	-9.57027
われわれが	-9.57029
大祭司	-9.57161
信じる	-9.57294
弟子たちは	-9.57299
ことのない	-9.57358
偽	-9.57376
わき	-9.57428
この人	-9.57441
堅	-9.57468
人間	-9.57543
やみ	-9.57653
それぞれ	-9.57671
ヘブロン	-9.57672
カルデヤびと	-9.57672
激しく	-9.57677
シモン	-9.57758
つかわし	-9.57778
されている	-9.57818
あなたのために	-9.57829
に告げて	-9.57868
おうと	-9.57878
まれる	-9.58108
立てた	-9.5837
て下さった	-9.58421
モーセが	-9.58441
があるか	-9.58496
なさ	-9.58566
女が	-9.58667
に至る	-9.58862
なのである	-9.5887
エレアザル	-9.58937
ガリラヤ	-9.58937
サムソン	-9.58937
ガド	-9.58983
頭を	-9.59018
する者は	-9.59021
主はこう仰せられる	-9.59053
あがめ	-9.59089
命じ	-9.59098
わけ	-9.59099
若者	-9.59124
に満ち	-9.5921
使者	-9.59228
地で	-9.59317
うせ	-9.59374
彼女を	-9.59475
しるされ	-9.59662
定	-9.59686
リム	-9.59762
を立てて	-9.59953
送	-9.60118
主の宮の	-9.6018
エヒウ	-9.60219
宣	-9.60219
の周囲に	-9.60219
喜ぶ	-9.6023
二百	-9.60305
水が	-9.60359
ホル	-9.60623
あなたがたのために	-9.60792
を捨てて	-9.61141
七十	-9.61193
体	-9.61452
を焼き	-9.61518
周囲の	-9.61518
生きながらえ	-9.61519
近づいて	-9.61519
うしろ	-9.6152
わたしの前に	-9.6154
四つの	-9.61542
ありません	-9.61548
を呼んで	-9.61551
バラム	-9.6158
引いて	-9.61757
多い	-9.61807
とおりである	-9.61944
を殺した	-9.62093
子供たち	-9.62175
あるように	-9.62385
牧者	-9.62425
テル	-9.62728
わな	-9.62822
をつかさど	-9.62842
一同	-9.62989
を与えて	-9.63186
サムエルは	-9.63234
右	-9.63297
へ行って	-9.63363
ことのないように	-9.63378
したら	-9.63604
臨	-9.63641
造り	-9.63705
さなければならない	-9.63753
恥じ	-9.63767
の境	-9.63797
七日	-9.63922
立った	-9.63977
買	-9.64047
の上で	-9.64155
くださる	-9.6419
返し	-9.64259
エルサレムで	-9.64359
わたしの名	-9.64449
ることができ	-9.64561
主なる	-9.64589
頭に	-9.6469
を祝福し	-9.64731
エジプトから	-9.64755
を連れて	-9.64791
ようになった	-9.64837
められる	-9.65206
嘆	-9.65285
深く	-9.65379
対	-9.65437
命じる	-9.65501
起きて	-9.65509
衣を	-9.65518
永	-9.65518
着物を	-9.6562
残りの	-9.65693
楽しみ	-9.65769
シバ	-9.6584
ダビデが	-9.6595
ふさ	-9.65998
生きる	-9.66054
離	-9.66069
長く	-9.66259
現	-9.66651
歩む	-9.66711
わざわい	-9.66825
をさして	-9.6688
兄	-9.66883
勇	-9.66884
ピラト	-9.66889
おこなった	-9.66889
聖別し	-9.66896
捕	-9.66902
安らかに	-9.66927
を知る	-9.66938
ベテル	-9.67084
に与えて	-9.67119
なりません	-9.67134
若	-9.6717
わたしはあなたに	-9.67244
きたので	-9.67428
ことはできない	-9.67507
ませんでした	-9.67825
置か	-9.68165
ここ	-9.68232
和	-9.68264
アモリびと	-9.68277
誓いを	-9.68277
礼拝	-9.68285
のあいだ	-9.68335
清い	-9.6836
帰らせ	-9.68415
サラ	-9.68494
語られた	-9.68507
をうけ	-9.68545
淫	-9.68561
すであろう	-9.68721
されるであろう	-9.68823
てしまった	-9.68999
聖なる物	-9.69285
わが子	-9.69473
自分のために	-9.69481
二つ	-9.69516
度	-9.69561
衣	-9.69566
を産んだ	-9.6966
シケム	-9.69686
レバノン	-9.69686
みこころ	-9.69686
モーセとアロン	-9.69687
するのか	-9.69696
買い	-9.69812
手で	-9.69959
の方に	-9.70106
争い	-9.70362
アダ	-9.70383
あなたと共に	-9.70457
わせた	-9.70581
わたしに言われた	-9.70637
らう	-9.70679
に住んだ	-9.7078
打	-9.70952
おいて	-9.71067
はいけない	-9.71115
重ねて	-9.71116
さんび	-9.71119
神の国	-9.71185
人をつかわして	-9.71196
ユダの人々	-9.71231
ヨブ	-9.7126
産んだ	-9.71264
きよめ	-9.71269
右の手	-9.71389
第二	-9.7163
青銅	-9.71654
つけた	-9.71798
わなかった	-9.7184
男の子	-9.71896
あげて	-9.71978
らす	-9.71988
主にささげ	-9.72107
すまい	-9.72243
定めと	-9.72278
さま	-9.72322
アブラハムは	-9.72331
その父	-9.72393
さず	-9.72419
営	-9.72554
オリブ	-9.72564
タラント	-9.72564
しばらく	-9.72564
ゼデキヤ	-9.72564
アブラム	-9.72564
くびき	-9.72569
断食	-9.72604
エリシャ	-9.7269
主を恐れ	-9.72731
主にささげる	-9.72751
と言ったので	-9.72946
もろもろの国	-9.72962
救われる	-9.73084
ささげ物	-9.7333
愚かな	-9.73506
を起し	-9.73626
りました	-9.73753
弟	-9.73935
撃ち	-9.73972
ペテロは	-9.73995
家を建て	-9.74028
ケルビム	-9.74034
むなしい	-9.74038
アビメレク	-9.74042
わたしの言葉	-9.74061
病気	-9.74068
カナンびと	-9.74075
清く	-9.74083
ゆるされ	-9.7416
さいわいである	-9.74221
入れた	-9.74366
置いて	-9.74369
殺そうと	-9.74471
汚	-9.74602
な子	-9.74696
いったい	-9.74782
食事	-9.74783
立っている	-9.74823
と思う	-9.75036
罪を犯した	-9.75244
力ある	-9.75251
召	-9.75255
悪しき	-9.75262
わたしがあなたがた	-9.75328
ことがある	-9.75422
ことができなかった	-9.7549
アンモンの人々	-9.75527
イエスは彼らに	-9.75543
らい病	-9.75546
見せ	-9.75562
ごろ	-9.75701
偽りの	-9.75799
その日には	-9.75816
メル	-9.7602
神の人	-9.76117
近く	-9.76128
みわざ	-9.76257
へ行った	-9.76326
その名を	-9.76358
られるように	-9.76563
言っている	-9.76682
決	-9.76708
仕	-9.76747
その妻	-9.76805
思う	-9.76883
落	-9.76932
半	-9.76969
にとって	-9.76983
にあずか	-9.77046
パウロは	-9.77136
四方	-9.77146
おまえたち	-9.77475
残った	-9.77681
下り	-9.77829
まさ	-9.77892
示す	-9.78132
あなたがたのうち	-9.78214
に従い	-9.78225
定められた	-9.78277
自分たちの	-9.78489
スリヤびと	-9.78576
賜わる	-9.7858
いっさい	-9.7858
あふれ	-9.78608
ツロ	-9.78611
に至るまで	-9.78672
その子ら	-9.78684
と名づけた	-9.78831
ことなく	-9.78844
見ている	-9.78846
タン	-9.78958
つるぎをもって	-9.78965
おき	-9.78972
わたされ	-9.79002
立っていた	-9.79105
むち	-9.79109
荒野で	-9.79138
六十	-9.79246
ますます	-9.79342
火祭	-9.79366
を与える	-9.79389
主の名	-9.79466
あるもの	-9.79668
ユダヤ人たち	-9.79844
吹	-9.79909
されました	-9.79979
新	-9.80099
十分の一	-9.80143
バラク	-9.80143
代って王となった	-9.80143
アブネル	-9.80143
ナダブ	-9.80143
七年	-9.80165
エリコ	-9.80187
を生み	-9.80187
から出る	-9.80229
頼み	-9.80231
生きて	-9.80252
ハラ	-9.80278
どろ	-9.8036
られたので	-9.80376
彼のために	-9.80381
メン	-9.80474
のろわれ	-9.80479
空の	-9.80566
のための	-9.80568
自分たち	-9.806
を汚し	-9.8065
レア	-9.80761
すみ	-9.80768
らくだ	-9.80802
何事	-9.80894
子牛	-9.81068
そのころ	-9.81535
常	-9.81551
に仕える	-9.81694
ミデアン	-9.8173
モルデカイ	-9.8173
ダマスコ	-9.8173
ヨシヤ	-9.8173
大きい	-9.81738
ヨラム	-9.81779
ひろ	-9.81863
入れて	-9.82005
を受けて	-9.82034
境	-9.8215
されたので	-9.82199
生かし	-9.8233
イスラエルびと	-9.82339
供え	-9.82376
わが主	-9.82379
地方	-9.82473
声をあげて	-9.82483
るのを	-9.82619
ることはできない	-9.82655
てしまう	-9.82684
言いました	-9.82855
命じて	-9.82924
進	-9.83075
主は言われた	-9.83112
さいわい	-9.83138
われらは	-9.8314
起る	-9.8326
タマル	-9.83344
立たせ	-9.83347
知らなかった	-9.83442
望む	-9.837
彼に言われた	-9.83918
座して	-9.83982
与えられる	-9.84219
しもべたち	-9.84712
みんな	-9.84914
御言	-9.84927
アッスリヤ	-9.84938
ることなく	-9.84966
ねばならない	-9.84982
びとの氏族が出	-9.84982
に伏し	-9.84984
下さい	-9.85008
先生	-9.8502
聖書	-9.85044
多	-9.85124
まれた	-9.85134
わが魂	-9.85148
残っている	-9.85155
ユダヤ	-9.85243
シャン	-9.85251
かかって	-9.85276
時代	-9.85316
あす	-9.85453
御子	-9.85545
これを聞いて	-9.85624
み前に	-9.85653
もしあなたが	-9.85908
加	-9.85914
第三	-9.86076
主イエス	-9.86159
導き出し	-9.86217
主君	-9.86275
隠し	-9.86401
エリシャは	-9.86568
この人は	-9.86594
ことをしない	-9.86623
壁	-9.86644
に乗って	-9.86649
恐るべき	-9.86659
いばら	-9.86713
六百	-9.86735
出て行って	-9.86758
祈って	-9.86765
世々	-9.86789
にまさる	-9.86849
吹き	-9.869
はかり	-9.86972
老	-9.87062
起った	-9.87137
彼らのために	-9.87199
送った	-9.87201
に告げた	-9.87369
に従う	-9.87422
右に	-9.87426
ことによって	-9.87475
エラ	-9.8755
つぎ	-9.87739
すべてのもの	-9.87747
尋ねた	-9.87753
にまさって	-9.87974
それらの	-9.88007
他	-9.88274
ソ	-9.88344
不思議	-9.88344
ネブカデネザル	-9.88344
ラバン	-9.88344
ことを知る	-9.88437
持	-9.88451
シロ	-9.88725
思い出	-9.88823
食べて	-9.88921
われらを	-9.88954
テラ	-9.88999
につき	-9.89025
呼ばれ	-9.89181
出てきて	-9.89755
雄	-9.90007
ハマン	-9.90069
宮殿	-9.90085
カナンの地	-9.90094
を得させ	-9.90145
開いて	-9.9015
一度	-9.90157
行われた	-9.90169
金銀	-9.90195
絶えず	-9.90227
くなって	-9.90645
残して	-9.90786
終った	-9.90808
一千	-9.90811
へび	-9.90844
家来	-9.90875
の目の前で	-9.91237
貧	-9.91394
バプテスマ	-9.91407
いつまで	-9.91441
に住んでいる	-9.91449
てくれた	-9.91489
二千	-9.91594
レハベアム	-9.91822
アザリヤ	-9.91823
ギデオン	-9.91823
のういご	-9.91825
に投げ入れ	-9.91951
を用い	-9.91965
む者	-9.91998
山々	-9.92041
作った	-9.9213
カル	-9.9214
さなかった	-9.92194
驚き	-9.92203
つかさ	-9.92211
いつまでも	-9.92212
戦う	-9.92328
大きく	-9.92591
に宿営し	-9.93024
引	-9.93047
を造って	-9.93049
連	-9.93437
るべきである	-9.93509
この女	-9.936
シメオン	-9.93608
に向け	-9.93608
エステル	-9.93608
計りごと	-9.93608
エポデ	-9.93608
ヘロデ	-9.93609
の書にしるされている	-9.93609
あがなわ	-9.93616
救い出し	-9.93644
しましょう	-9.93673
受ける	-9.93673
半ば	-9.93694
変え	-9.93858
民衆	-9.9389
捕われ	-9.93943
高さ	-9.93975
葬	-9.94082
二万	-9.94734
愚か	-9.94821
仕事	-9.94837
淫を行	-9.94996
に着いた	-9.95033
葉	-9.95226
神である	-9.95328
おられます	-9.95338
必	-9.95342
散	-9.95385
よろしく	-9.95427
はなはだ	-9.95427
信頼	-9.95434
むべき	-9.95449
聞きいれ	-9.95469
しかも	-9.95527
ひざ	-9.95529
神の子	-9.95546
おとめ	-9.95547
四百	-9.95564
三百	-9.95569
男子	-9.96028
はしため	-9.96087
獲た	-9.96172
もし人が	-9.96222
われら	-9.96361
安息	-9.96714
あなたの家	-9.96714
み言葉	-9.96805
民はみな	-9.96927
の名によって	-9.96956
求めた	-9.97057
やもめ	-9.97275
ベツレヘム	-9.97278
ザドク	-9.97278
永遠に	-9.97278
ラケル	-9.97279
やぐら	-9.97279
そんな	-9.97279
明らかに	-9.97281
いなご	-9.97285
そむいて	-9.97286
暗やみ	-9.97294
わたしたちの主イエス	-9.97308
ぶどうの木	-9.97313
今日まで	-9.97393
置く	-9.97413
使徒たち	-9.9754
ロテ	-9.9764
叫んで	-9.97705
ハム	-9.97802
救われ	-9.97891
その子孫	-9.97964
を求める	-9.98121
できる	-9.98174
滅ぼされる	-9.98176
行け	-9.98438
のもとへ	-9.98875
かしら	-9.98908
士	-9.99159
城	-9.9916
すみやかに	-9.99165
を憎む者	-9.99165
ナフタリ	-9.99165
イザヤ	-9.99165
サタン	-9.99189
やがて	-9.99223
のかたわら	-9.99231
食べてはならない	-9.99268
行かれた	-9.99287
神殿	-9.99313
東の方	-9.99334
パンを食べ	-9.9935
オン	-9.9946
着物	-9.99579
ためであった	-10.0006
正しい人	-10.0034
そばに	-10.0061
するために	-10.0071
七人	-10.0075
主をほめたたえよ	-10.0109
たくわえ	-10.0109
のごとく	-10.0109
の手に渡され	-10.0111
この国	-10.0124
ガテ	-10.0139
この所	-10.0148
わたしと一緒に	-10.0159
これらのことを	-10.0186
へ行き	-10.0197
デヤ	-10.0199
五十人	-10.0217
自分の家	-10.0224
葬られ	-10.0235
破れ	-10.0247
をさばく	-10.0267
わたしの目	-10.0269
ゼカリヤ	-10.0305
ゼブルン	-10.0305
アマレク	-10.0305
ヘテびと	-10.0305
父の家	-10.0316
五百	-10.0318
ご自身	-10.0319
ことができようか	-10.032
に住んでいた	-10.0322
三つの	-10.0323
ゲル	-10.0342
一万	-10.0346
されない	-10.0359
ことについて	-10.0361
を喜ばせ	-10.0385
おろし	-10.0416
第十	-10.0442
老い	-10.0445
を治める	-10.045
彼らの上に	-10.0467
と思った	-10.0472
建てた	-10.0474
導	-10.0476
山地	-10.0478
殿	-10.0487
聖徒	-10.0492
シドン	-10.0505
ソドム	-10.0505
種入れぬ	-10.0505
を出立して	-10.0505
その氏族によ	-10.0507
用意	-10.0508
諸国民	-10.0509
ナタン	-10.0509
歩いて	-10.051
全体	-10.0511
結んだ	-10.0525
ささえ	-10.053
のようであった	-10.0532
にかなう	-10.0535
彼らのうちに	-10.054
に従った	-10.054
楽	-10.0544
のぼって	-10.056
すみか	-10.0579
なくなった	-10.0588
なくなる	-10.0589
土地	-10.0594
万軍の	-10.0631
ここで	-10.0633
を捕えて	-10.0639
をつかわして	-10.0641
孫	-10.0676
アロンとその子たち	-10.0709
ギベア	-10.0709
高ぶり	-10.0709
ねたみ	-10.0709
国々の民	-10.0712
殺された者	-10.0713
進んだ	-10.0715
ることができようか	-10.0716
恐	-10.0725
歩き	-10.0775
に臨み	-10.0782
氏族の長	-10.079
呼ばわって	-10.0828
五人	-10.0835
める者	-10.0843
パリサイ人	-10.0849
しもべら	-10.0906
多くの人	-10.091
ことがなく	-10.0912
おおよそ	-10.0917
アハズ	-10.0917
アンモンびと	-10.0917
ギベオン	-10.0917
ヘブル	-10.0917
主の言葉がわたしに臨ん	-10.0917
かたくな	-10.0918
もっと	-10.0924
出される	-10.0952
怒って	-10.0953
これを見て	-10.0964
主にむかって	-10.0967
信仰によって	-10.0971
パリサイ人たち	-10.0986
を撃って	-10.0992
若者たち	-10.0999
割礼を受け	-10.101
のようになり	-10.1035
を汚した	-10.1058
呼ばわり	-10.1061
てくれる	-10.1062
あなたがたの先祖	-10.1074
ソロモン王	-10.1083
絶	-10.1093
出て行った	-10.1121
こう仰せられる	-10.1124
福	-10.1129
エズレル	-10.113
エッサイ	-10.113
世を治めた	-10.113
同様に	-10.113
シメイ	-10.113
コハテ	-10.113
ほむべきか	-10.113
ともしび	-10.1135
父祖	-10.1136
心をつくし	-10.1138
上がって	-10.115
とどめ	-10.117
に会う	-10.1171
しい者	-10.1177
歩く	-10.119
できない	-10.1225
示された	-10.123
これらのもの	-10.1233
があろうか	-10.1239
殺さ	-10.1267
二頭	-10.1277
長老	-10.1326
主に仕え	-10.1326
に座し	-10.1336
ヅ	-10.1347
選ばれた	-10.1347
アハジヤ	-10.1347
あわれんで	-10.1347
エゼル	-10.1347
アセル	-10.1348
祭司長たち	-10.1348
近寄って	-10.1348
雄やぎ	-10.1348
いくさ	-10.1349
行わなければならない	-10.1359
五キュビト	-10.1362
着せ	-10.1371
頼む	-10.1374
帰ってきて	-10.1375
コラ	-10.1375
さばく	-10.139
生き物	-10.1405
あなたの子孫	-10.1481
備	-10.1483
義人	-10.1496
ことができましょう	-10.1515
ダビデの町	-10.1518
感	-10.157
アマジヤ	-10.157
預言して	-10.157
ミヅパ	-10.157
にそむいた	-10.1571
叫んだ	-10.1572
どこへ	-10.1572
とどまって	-10.1577
落し	-10.158
与えられ	-10.1583
ひそかに	-10.1584
のまわりに	-10.1585
というのは	-10.1608
のもとにきて	-10.1619
食べさせ	-10.1624
であれば	-10.1624
とどまる	-10.1635
建てる	-10.1665
捕えられ	-10.1681
ひれ伏して	-10.1738
全部	-10.1747
ぶんどり物	-10.1797
地のおもて	-10.1797
解き明かし	-10.1797
イシマエル	-10.1797
シマヤ	-10.1797
ヨルダンを渡	-10.1797
をおおう	-10.1797
散らし	-10.1799
御座	-10.1801
そしり	-10.1801
撃たれ	-10.1802
バシャン	-10.1802
淫行	-10.1804
約束された	-10.1812
導いて	-10.1813
だれにも	-10.1816
に代って	-10.182
貧しい人	-10.1852
上着を	-10.1872
に帰する	-10.1878
帰ってきた	-10.1879
気をつけ	-10.1916
声をあげ	-10.1929
日の間	-10.1943
できません	-10.196
出て行く	-10.1963
使徒	-10.1998
第四	-10.2013
追い出し	-10.2019
勢	-10.2028
イッサカル	-10.203
広場	-10.2032
アサフ	-10.2033
三度	-10.2034
みんなの者	-10.204
わざわいだ	-10.2041
五頭	-10.2044
葬った	-10.2051
みまえに	-10.2058
御使たち	-10.21
を汚す	-10.2101
をあらわし	-10.2167
の世に	-10.2216
罪を犯す	-10.2268
キリア	-10.2268
つまずき	-10.2268
父なる神	-10.2269
石がき	-10.227
七日の間	-10.2273
に当った	-10.2274
のその他の	-10.2277
食べることができる	-10.2279
行われる	-10.2279
バプテスマを受け	-10.2324
のままに	-10.2336
につかわして	-10.2366
国の民	-10.2392
開かれ	-10.2419
助	-10.2427
いちじく	-10.2511
に向かい	-10.2512
エブスびと	-10.2512
メラリ	-10.2512
ハナン	-10.2512
近づいた	-10.2512
こんな	-10.2512
つかわす	-10.2512
どこから	-10.2512
に聞き従わ	-10.2512
たきぎ	-10.2513
宝石	-10.2522
ロト	-10.2527
聖徒たち	-10.2528
ことができず	-10.2544
いるのを見	-10.2548
他人	-10.2574
持ち物	-10.2576
信心	-10.2616
と呼ばれる	-10.2638
にならない	-10.271
恵	-10.2739
ネゲブ	-10.2762
ひじょうに	-10.2762
ちょうど	-10.2762
ハマテ	-10.2762
の族長	-10.2762
むなしく	-10.2762
われらの神	-10.2762
手のわざ	-10.2763
戦争	-10.2765
二度	-10.2766
ウリヤ	-10.2766
それとも	-10.2768
をとおって	-10.2805
の産物	-10.2824
ひれ伏し	-10.2826
主は生きておられ	-10.284
御名	-10.2854
あらわれ	-10.2918
連れてきて	-10.2924
答	-10.2933
呼ばわる	-10.295
イスラエルの人々のうち	-10.2965
仰	-10.3011
ギルガル	-10.3018
あなたがたに言っておく	-10.3018
オピヤ	-10.3018
散らされ	-10.3018
香ばしいかおり	-10.3018
ほら穴	-10.3018
エホヤキム	-10.3018
ギリシヤ	-10.3018
ピリポ	-10.3018
罪を犯させ	-10.3018
あまねく	-10.3018
高ぶる者	-10.3018
目をあげて	-10.302
叫ぶ	-10.3021
呼んだ	-10.3031
これがために	-10.3031
見つか	-10.3055
を負わせ	-10.3087
のことで	-10.3203
を作り	-10.3211
と言われ	-10.3233
と名づけ	-10.3238
たいと	-10.3255
の全家	-10.3257
殺される	-10.326
用いる	-10.3262
メレク	-10.328
祝	-10.3281
いと高き者	-10.3281
ヒルキヤ	-10.3281
ヘシボン	-10.3281
ふたたび	-10.3281
ラッパを吹き	-10.3281
めいめい	-10.3281
セイル	-10.3281
大ぜい	-10.3281
いにしえ	-10.3281
あざけり	-10.3281
大声で	-10.3281
血を流し	-10.3281
たずね	-10.3281
あわて	-10.3282
の治世	-10.3283
燔祭をささげ	-10.3293
憎むべき事	-10.3294
代々	-10.3294
打ち場	-10.3295
の一族	-10.3314
万軍の神	-10.3356
ヒラム	-10.3407
をつくし	-10.3408
イエスは答え	-10.3472
めとった	-10.3544
非	-10.3551
まっすぐに	-10.3551
ひねもす	-10.3551
スリヤの王	-10.3551
リベカ	-10.3551
いけにえ	-10.3551
そのいつくしみはとこしえに絶え	-10.3551
ペルシャ	-10.3551
ざくろ	-10.3551
野の獣	-10.3552
そむく	-10.3552
喜んだ	-10.3554
知恵ある者	-10.3554
分け与え	-10.3555
他の神々	-10.3559
を負う	-10.3562
を撃った	-10.359
ほふら	-10.361
の道に歩	-10.3709
勝利	-10.3736
撃ち殺し	-10.3771
を知った	-10.3784
カナン	-10.3817
ボアズ	-10.3829
あいさつ	-10.3829
ほんとう	-10.3829
ほふり	-10.3829
たくさん	-10.3829
マアカ	-10.3829
つかえめ	-10.3829
おとずれ	-10.3829
こちら	-10.3829
めぐらし	-10.3832
の代りに	-10.3832
ユダとエルサレム	-10.3834
不正	-10.3835
。	-10.384
を打つ	-10.3841
心にとめ	-10.3841
わからない	-10.3842
置	-10.3939
を罰する	-10.3941
ことはありません	-10.3984
滅ぼさ	-10.4031
を負わ	-10.4061
有	-10.411
かも知れない	-10.4115
よこしまな	-10.4115
犯した罪	-10.4115
エホヤダ	-10.4115
エフタ	-10.4115
たちまち	-10.4115
目をさまして	-10.4115
羊の群れ	-10.4115
うわさ	-10.4115
つながれ	-10.4116
悪を行う者	-10.4116
にむかい	-10.4117
なにゆえ	-10.4118
打たれ	-10.4119
を持つ	-10.4123
の手に渡し	-10.4125
先祖の神	-10.4125
に帰る	-10.4126
にさわ	-10.4229
をあけ	-10.4229
汚れたもの	-10.4315
食事をし	-10.4323
に感謝せ	-10.4387
ベエルシバ	-10.4409
ユフラテ	-10.4409
の前から追い払	-10.4409
アムノン	-10.4409
あがなう	-10.4409
他国人	-10.4409
にしたがい	-10.441
七日のあいだ	-10.441
のぼり	-10.4413
いただき	-10.4429
をひき	-10.4443
次のとおりであ	-10.4498
頼	-10.4656
と言わせ	-10.4695
一歳の雄の小羊	-10.4712
ウジヤ	-10.4712
オベデ	-10.4712
主の契約の箱	-10.4712
衣服を洗	-10.4712
イスラエルの聖者	-10.4712
臨ませ	-10.4715
子を産む	-10.4715
を断ち	-10.4716
あわれま	-10.4717
きわめ	-10.4737
三日目に	-10.4743
をつけて	-10.4749
に会い	-10.4797
勝利を得	-10.4817
にとどまってい	-10.4822
を撃ち殺した	-10.4895
呼ばわった	-10.4907
設けた	-10.4987
とどまった	-10.5002
束	-10.5024
死人の中からよみがえ	-10.5024
エズラ	-10.5024
寄留の他国人	-10.5024
恐ろしい	-10.5024
ひとりびとり	-10.5025
出身の	-10.5025
君たる者	-10.5025
いずれ	-10.5026
日が来る	-10.5027
と呼ばれた	-10.5028
その境は	-10.5029
妻をめと	-10.503
火の中	-10.5049
おおわれ	-10.506
宮を建て	-10.5099
、	-10.5131
イスラエルの人々に言	-10.5147
に出会	-10.516
を送って	-10.5164
供え物をささげ	-10.5305
導かれ	-10.5334
深	-10.5343
礼	-10.5345
に油を注いで	-10.5347
サウロ	-10.5347
とこしえの	-10.5347
ナザレ	-10.5347
へりくだ	-10.5347
ラモテ	-10.5347
しきりに	-10.5347
めぐり	-10.5347
牧場	-10.5348
いちじくの木	-10.5349
望んでい	-10.5406
言われました	-10.5419
どこで	-10.5447
携えてきた	-10.5466
言おう	-10.5488
にゆだね	-10.568
いろいろ	-10.568
夕まで汚れる	-10.568
祭壇の上で焼	-10.568
アシラ像	-10.568
ケルブ	-10.568
シャルム	-10.568
くださった	-10.5681
あわれむ	-10.5681
の前に恵みを得	-10.5684
ことができよう	-10.5708
を造る	-10.5724
牧	-10.5785
と思われ	-10.5813
になろう	-10.5829
に住んで	-10.5849
に現れて	-10.5909
主がモーセに命じられたとおり	-10.6025
バビロンの王ネブカデレザル	-10.6025
メシュラム	-10.6025
立ちあがり	-10.6025
つるぎに倒れ	-10.6025
アドニヤ	-10.6025
エシュア	-10.6025
ハナニヤ	-10.6025
バルナバ	-10.6025
歌うたう者	-10.6025
いなずま	-10.6025
ナオミ	-10.6025
エフライムの山地	-10.6025
カデシ	-10.6025
害を加え	-10.6025
よろず	-10.6025
さばかれる	-10.6025
住まわせ	-10.6025
伝	-10.685
戒	-10.7043
設	-10.7132
徒	-10.7534
共	-10.7799
ょ	-10.7954
叫	-10.8242
愚	-10.8336
ユ	-10.8386
供	-10.8416
互	-10.854
求	-10.965
司	-10.9817
喜	-11.0505
激	-11.0895
約	-11.0901
業	-11.0901
清	-11.1774
割	-11.2114
衆	-11.2671
緒	-11.3344
投	-11.4262
」	-11.4549
ー	-11.6007
再	-11.8112
逃	-11.8115
受	-11.9241
与	-12.0607
銅	-12.2463
祖	-12.4403
治	-12.6659
偶	-13.0296
畜	-14.5189
燃	-14.5253
裂	-14.5254
奴	-14.5255
隷	-14.5256
払	-14.5257
属	-14.5258
砕	-14.5259
伸	-14.526
乗	-14.5261
邦	-14.5262
最	-14.5263
周	-14.5264
以	-14.5265
犠	-14.5266
牲	-14.5267
―	-14.5268
及	-14.5269
賜	-14.527
選	-14.5271
携	-14.5272
伏	-14.5273
至	-14.5274
燔	-14.5275
悩	-14.5276
注	-14.5277
氏	-14.5278
契	-14.5279
憎	-14.528
攻	-14.5281
倒	-14.5282
焼	-14.5283
誓	-14.5284
犯	-14.5285
群	-14.5286
律	-14.5287
捨	-14.5288
壇	-14.5289
追	-14.529
集	-14.5291
向	-14.5292
預	-14.5293
ュ	-14.5294
尋	-14.5294
ャ	-14.5295
』	-14.5296
謝	-14.5297
嗣	-14.5297
聞	-14.5297
