<pad>	0
</s>	0
<unk>	0
▁Ꭰ	-0
▁Ꭴ	-1
▁Ꮎ	-2
ᏍᎩ	-3
ᏍᏗ	-4
▁Ꭲ	-5
▁ᎠᎴ	-6
▁ᎾᏍᎩ	-7
▁Ꭸ	-8
▁Ꮒ	-9
▁ᎨᏒ	-10
▁Ꮵ	-11
▁Ꭶ	-12
▁Ꮧ	-13
▁Ꭿ	-14
▁ᎯᎠ	-15
ᎵᏍ	-16
▁Ꮷ	-17
ᏅᎯ	-18
▁Ꮔ	-19
▁Ꭼ	-20
▁ᎢᏳ	-21
▁Ᏹ	-22
▁Ꭱ	-23
ᏗᏱ	-24
▁ᎤᏁ	-25
▁Ꮪ	-26
▁Ꭵ	-27
ᏓᏁ	-28
▁ᎠᏂ	-29
ᏓᏅ	-30
▁ᎤᏂ	-31
ᏍᎬ	-32
▁Ꮕ	-33
ᏍᎦ	-34
ᎯᏳ	-35
▁Ꭳ	-36
▁ᎥᏝ	-37
▁ᎨᏒᎢ	-38
ᏰᏃ	-39
ᏪᏎ	-40
ᎳᏅᎯ	-41
▁ᎤᎾ	-42
▁Ꮥ	-43
▁Ꮣ	-44
ᏍᏛ	-45
▁Ꭺ	-46
▁ᎤᏁᎳᏅᎯ	-47
ᏙᏗ	-48
▁ᏂᎦ	-49
ᏍᏗᏱ	-50
ᏤᎵ	-51
ᎬᏫ	-52
▁Ꭹ	-53
ᏍᎨ	-54
ᎬᏫᏳ	-55
ᎨᏒ	-56
ᏍᎩᏂ	-57
▁Ꮳ	-58
ᏓᎴ	-59
ᏎᏍᏗ	-60
▁ᎬᏩ	-61
ᎸᎩ	-62
ᏍᎪ	-63
▁ᏥᏌ	-64
ᏴᏫ	-65
ᎬᏩ	-66
ᏍᏓ	-67
▁ᎩᎶ	-68
▁ᎠᏎ	-69
▁ᎢᎦ	-70
ᎬᏫᏳᎯ	-71
ᏍᏉ	-72
ᏛᏁ	-73
ᏙᎯ	-74
▁ᎾᏍᏉ	-75
ᎸᎯ	-76
ᏔᏅ	-77
▁ᏴᏫ	-78
ᎴᎢ	-79
▁ᎬᏂ	-80
ᎦᏔ	-81
▁ᎾᏍᎩᏯ	-82
▁ᎠᏴ	-83
ᏍᏓᏁ	-84
▁ᎤᏪ	-85
ᏩᏛ	-86
▁Ꮻ	-87
ᎸᏉ	-88
▁Ꮏ	-89
ᏃᎮ	-90
▁ᎢᏥ	-91
ᏒᎩ	-92
ᎶᎯ	-93
▁ᎿᏉ	-94
▁ᎨᏎᏍᏗ	-95
▁ᎢᏣ	-96
ᏗᏳ	-97
▁ᎠᏥ	-98
ᏎᎢ	-99
ᏍᎨᏍᏗ	-100
ᎨᏒᎾ	-101
▁ᏥᎩ	-102
▁ᏂᎨᏒᎾ	-103
▁ᎤᎬᏫᏳᎯ	-104
▁ᏂᎯ	-105
ᏩᏗ	-106
ᏙᏗᏱ	-107
ᎲᎢ	-108
▁ᎠᏎᏃ	-109
▁ᎢᏳᏍᏗ	-110
ᎸᎢ	-111
ᎦᎵᏍ	-112
▁Ꭷ	-113
ᏣᏘ	-114
ᎶᏁ	-115
ᎧᎿ	-116
ᏁᎢ	-117
ᎸᏫ	-118
ᎮᏍᏗ	-119
▁ᎾᎿ	-120
ᎶᏁᏛ	-121
▁ᏄᏪᏎ	-122
ᎸᏫᏍᏓᏁ	-123
ᎳᏗ	-124
ᏍᏕ	-125
ᏄᎪ	-126
ᎯᏍᏗ	-127
ᏍᏆ	-128
▁ᎦᎶᏁᏛ	-129
▁ᎤᏲ	-130
▁ᎠᎩ	-131
ᏙᏓ	-132
ᏰᎸ	-133
▁ᏱᎩ	-134
▁Ꮤ	-135
▁ᏧᎾ	-136
▁ᏂᏚ	-137
ᏅᏛ	-138
ᏔᏅᎯ	-139
ᎱᏍᏗ	-140
▁ᎤᏤᎵ	-141
▁ᎠᎾ	-142
▁ᎪᎱᏍᏗ	-143
ᏰᎵ	-144
ᏍᎬᎢ	-145
ᎵᏍᏗ	-146
▁ᎠᏁ	-147
▁ᏅᏓ	-148
▁ᏂᎦᏛ	-149
▁ᎢᏨ	-150
▁Ꮽ	-151
ᏓᏙ	-152
▁ᎣᏍᏛ	-153
▁Ꮜ	-154
ᏓᏅᏙ	-155
▁ᎾᏍᎩᏃ	-156
▁ᎤᏩ	-157
▁ᎠᏆ	-158
▁ᎢᏳᏃ	-159
▁ᎢᏯ	-160
▁ᎦᏙ	-161
▁ᎤᎵ	-162
▁Ꮶ	-163
▁ᏗᎦ	-164
ᏓᎵ	-165
▁Ꮮ	-166
ᏂᎪ	-167
▁ᎠᏍᎦ	-168
▁ᏧᏂ	-169
ᏩᏗᏙᎯ	-170
ᎦᎵᏍᏙᏗ	-171
▁ᎿᏉᏃ	-172
▁ᎢᎬ	-173
ᎨᏳ	-174
ᏓᎴᏅᏛ	-175
ᏅᎩ	-176
▁ᎤᏙ	-177
▁ᏗᎧᎿ	-178
▁ᏗᏂ	-179
▁ᎦᎸ	-180
ᎦᏘ	-181
▁ᎤᏪᏥ	-182
▁ᎾᏂ	-183
ᏴᏛ	-184
▁ᏞᏍᏗ	-185
▁ᎡᎶᎯ	-186
▁ᎦᎸᏉ	-187
ᏅᏏ	-188
▁ᎤᏣᏘ	-189
ᏛᎦ	-190
▁ᎠᏏ	-191
▁ᎤᏩᏒ	-192
ᎴᎰ	-193
ᎶᏗ	-194
ᏒᎯ	-195
▁ᏂᎦᎥ	-196
▁ᎧᏃᎮ	-197
ᏗᎦᎵᏍᏙᏗ	-198
▁Ᏻ	-199
▁ᏚᏂ	-200
ᎷᏤ	-201
ᎲᎩ	-202
ᏒᎢ	-203
▁ᏄᏂ	-204
▁Ꮿ	-205
▁ᏂᏚᏪᏎ	-206
ᏅᎢ	-207
ᎪᎯ	-208
ᏓᏂ	-209
ᎵᏍᏓ	-210
▁ᎨᏥ	-211
▁ᏔᎵ	-212
ᏙᎥ	-213
▁ᎬᏂᎨᏒ	-214
ᎳᏫ	-215
ᏁᎸ	-216
▁ᎤᏙᎯᏳ	-217
▁ᎠᎦ	-218
▁ᎯᎠᏃ	-219
▁ᏅᏩ	-220
ᏳᎪ	-221
▁ᎢᏳᎵᏍ	-222
▁ᎠᏓᏅᏙ	-223
ᏴᎵ	-224
ᏍᏆᏂᎪ	-225
▁ᏄᏍᏛ	-226
▁ᎧᏃᎮᏛ	-227
▁ᎣᏏ	-228
▁ᎠᏥᎸ	-229
ᏨᎯ	-230
ᏙᎴᎰ	-231
▁ᎠᏓ	-232
▁ᎦᎸᏉᏗᏳ	-233
▁ᎤᏟ	-234
ᏗᏢ	-235
ᎬᎢ	-236
ᏲᎱ	-237
▁ᏰᎵ	-238
▁Ꮴ	-239
▁ᎾᎯᏳ	-240
▁ᏅᏗᎦᎵᏍᏙᏗ	-241
ᏓᏅᏖ	-242
ᏛᎢ	-243
▁ᎣᏏᏳ	-244
▁ᏗᎧᎿᏩᏛ	-245
ᏔᏂ	-246
ᏄᎪᏫ	-247
▁ᎪᎯ	-248
ᎵᏍᏓᏴ	-249
▁ᎢᏴᏛ	-250
▁ᎢᎬᏱ	-251
ᏍᏙᏗ	-252
▁ᎦᎸᎳᏗ	-253
ᎵᏍᏓᏁ	-254
ᎲᎾ	-255
ᎲᏍᎩ	-256
▁Ꮩ	-257
▁ᎤᏕ	-258
ᏩᏂ	-259
▁ᎢᎩ	-260
ᎨᏥ	-261
ᏔᏅᎩ	-262
ᎨᏍᏗ	-263
ᏪᏒᎩ	-264
▁ᎤᏅ	-265
▁ᎦᏚ	-266
▁ᎤᏙᎯᏳᎯ	-267
▁ᎾᏂᎥ	-268
▁ᏗᎧᎿᏩᏛᏍᏗ	-269
ᏐᎢ	-270
▁ᏚᎾ	-271
▁ᎠᏍᎦᏯ	-272
▁ᏌᏉ	-273
ᏂᎩ	-274
ᎦᏔᎭ	-275
ᎷᏨ	-276
ᏔᏁ	-277
ᏤᎵᎦ	-278
▁ᏱᎨ	-279
ᏍᎦᏅ	-280
▁ᎡᎯ	-281
▁ᎢᏤ	-282
▁ᎤᏬ	-283
▁ᏄᏪᏎᎢ	-284
ᎢᏍᏗᏱ	-285
▁ᎤᏤᎵᎦ	-286
ᏏᎵ	-287
▁Ꭽ	-288
▁Ꮘ	-289
ᏍᎨᎢ	-290
▁ᎤᏚ	-291
ᏍᎪᎢ	-292
▁ᏅᏓᏳ	-293
ᏍᏓᏩᏗᏙᎯ	-294
ᏍᎬᎩ	-295
▁ᏕᏥ	-296
ᏗᏍᎩ	-297
▁ᏂᎬ	-298
▁ᏄᎵᏍ	-299
ᏓᏙᎵᏍᏗ	-300
▁ᎢᏧ	-301
ᎮᎢ	-302
ᏍᏚ	-303
ᏕᎸ	-304
ᏳᏉ	-305
ᏛᎩ	-306
ᎯᏍᏗᏱ	-307
▁ᎡᏥ	-308
▁ᏍᎩ	-309
ᏳᎪᏛ	-310
▁ᎬᏂᏳᏉ	-311
ᏓᏍᏗ	-312
ᎢᏳ	-313
ᏁᎸᎯ	-314
▁ᏥᏌᏃ	-315
ᏅᏟ	-316
▁ᏕᏣ	-317
ᎨᏴ	-318
ᏕᎩ	-319
ᏧᏏ	-320
ᎪᎸ	-321
▁ᎢᏳᎵᏍᏙᏗᏱ	-322
ᏲᎵ	-323
ᏔᏁᎢ	-324
ᏪᎵ	-325
ᏴᎵᎨ	-326
▁Ꮭ	-327
▁ᏗᏥ	-328
ᏁᏗᏱ	-329
ᏲᎯ	-330
▁[	-331
ᏬᏂ	-332
▁ᏗᏣ	-333
▁ᎤᏂᏣᏘ	-334
▁ᎤᎵᏍ	-335
▁ᎤᏓ	-336
ᏁᏤ	-337
ᏕᏲ	-338
▁ᏕᎦ	-339
▁ᎨᏎᎢ	-340
ᏗᎦ	-341
▁ᎤᎬᏩ	-342
ᎾᏛ	-343
ᏟᎶ	-344
▁ᏥᏂ	-345
ᎵᏏ	-346
ᏗᎭ	-347
ᏲᏎ	-348
▁ᎪᎯᏳ	-349
▁ᎤᏃ	-350
▁ᎠᏁᎯ	-351
▁ᏂᏥ	-352
ᎵᏰ	-353
▁ᏚᏳᎪᏛ	-354
ᏓᏡ	-355
▁Ꮹ	-356
ᏉᎳ	-357
▁ᎦᎵ	-358
▁ᎠᏂᏧᏏ	-359
ᏪᎳ	-360
▁ᏂᏣ	-361
▁ᏥᎪ	-362
▁ᏧᏓᎴᏅᏛ	-363
ᎰᎢ	-364
▁ᎤᏛ	-365
▁ᏔᎵᏁ	-366
ᎬᏫᏳᏒ	-367
▁ᎬᏩᏍᏓᏩᏗᏙᎯ	-368
▁ᎢᏧᎳ	-369
ᎸᏗ	-370
▁ᏥᎨ	-371
ᎪᎲ	-372
▁ᏓᏂ	-373
▁ᏣᏂ	-374
▁ᎤᎬᏩᎵ	-375
ᏁᏗ	-376
▁ᏧᏪ	-377
ᏓᏗ	-378
ᏙᎵ	-379
▁Ꮸ	-380
▁ᎣᎩ	-381
▁ᏂᏨ	-382
▁ᎤᏓᏅ	-383
▁ᏉᎳ	-384
▁ᎢᏳᎾ	-385
▁ᎨᏒᎩ	-386
ᏛᏃ	-387
ᏍᎬᎾ	-388
ᏯᏅ	-389
ᎳᏫᎢᏍᏗᏱ	-390
▁ᎦᎪ	-391
▁ᏈᏓ	-392
ᏁᎶᏗ	-393
▁ᎤᎵᏂᎩ	-394
ᎧᎵ	-395
ᎵᏥ	-396
▁	-397
Ꮝ	-398
Ꮧ	-399
Ꭰ	-400
Ꭹ	-401
Ꭲ	-402
Ꮎ	-403
Ꮒ	-404
Ꭿ	-405
Ꭴ	-406
Ꭶ	-407
,	-408
Ꮣ	-409
Ꮅ	-410
Ꮕ	-411
Ꭸ	-412
Ꮄ	-413
Ꮑ	-414
Ꮫ	-415
Ꮓ	-416
Ꮵ	-417
Ꮢ	-418
Ꭼ	-419
Ꮈ	-420
Ᏻ	-421
Ꮩ	-422
Ᏹ	-423
.	-424
Ꭺ	-425
Ꮞ	-426
Ꮹ	-427
Ꮻ	-428
Ꮙ	-429
;	-430
Ꮃ	-431
Ꮳ	-432
Ꮪ	-433
Ᏼ	-434
Ꮿ	-435
Ꮥ	-436
Ꮤ	-437
Ꮺ	-438
Ꮆ	-439
Ᏸ	-440
Ꮔ	-441
Ꭵ	-442
Ꮷ	-443
Ꭽ	-444
Ꮂ	-445
Ꮟ	-446
Ꮴ	-447
Ꭱ	-448
Ᏺ	-449
Ꮸ	-450
Ꮜ	-451
Ꭾ	-452
Ꮏ	-453
Ꮖ	-454
Ꮨ	-455
Ꮭ	-456
Ꭷ	-457
Ꭳ	-458
Ꮇ	-459
Ꮼ	-460
Ꮯ	-461
Ꮲ	-462
Ꮀ	-463
Ꮁ	-464
Ꮠ	-465
?	-466
Ꮶ	-467
-	-468
Ꮘ	-469
Ꮦ	-470
Ꮽ	-471
Ꭻ	-472
Ꮮ	-473
Ꮡ	-474
Ꮰ	-475
Ꮋ	-476
Ꮗ	-477
Ꮉ	-478
Ꮱ	-479
[	-480
Ꮊ	-481
]	-482
Ꮛ	-483
Ꮬ	-484
"	-485
!	-486
Ꮾ	-487
Ꮌ	-488
(	-489
)	-490
:	-491
'	-492
Ꮚ	-493
~	-494
Ꮍ	-495
\	-496
