<pad>	0
</s>	0
<unk>	0
,	-2.81886
▁och	-3.34641
.	-3.59753
s	-4.16458
▁till	-4.2141
▁i	-4.21761
▁som	-4.38571
▁att	-4.51136
▁han	-4.52216
▁de	-4.56447
;	-4.61321
▁så	-4.68668
▁för	-4.73937
:	-4.76187
h	-4.7661
▁skall	-4.82029
▁jag	-4.83687
▁det	-4.84856
▁Oc	-4.85289
▁en	-4.86361
▁på	-4.89451
▁icke	-4.90598
▁är	-4.96
▁av	-4.98364
▁den	-4.98413
▁	-4.9876
▁med	-5.00688
▁har	-5.08057
▁dem	-5.10359
▁honom	-5.115
en	-5.11803
▁»	-5.12577
▁du	-5.13695
a	-5.15792
t	-5.18365
▁HERREN	-5.34701
▁I	-5.3713
▁mig	-5.3872
▁dig	-5.44825
▁sig	-5.4497
r	-5.46142
▁var	-5.47185
▁sade	-5.49457
.»	-5.53362
▁hade	-5.55875
▁eder	-5.56839
som	-5.62852
▁om	-5.65102
▁hans	-5.66099
▁då	-5.71587
▁upp	-5.72233
n	-5.75458
▁Men	-5.78798
▁sin	-5.78963
de	-5.79567
▁Gud	-5.81373
er	-5.81659
▁alla	-5.81816
▁över	-5.86985
▁ett	-5.90316
▁åt	-5.90388
▁från	-5.90534
▁din	-5.9253
▁min	-5.95174
▁nu	-5.95544
▁man	-5.99879
e	-5.99882
▁efter	-6.02139
▁när	-6.04903
▁ut	-6.05101
▁Då	-6.07507
▁skola	-6.09543
▁vad	-6.1014
▁hava	-6.14906
▁ty	-6.15043
▁där	-6.17616
▁vi	-6.19675
▁men	-6.21209
▁son	-6.22986
▁mot	-6.24341
▁deras	-6.26443
na	-6.26445
▁sina	-6.26571
d	-6.27908
▁vid	-6.30382
▁allt	-6.31164
▁detta	-6.3156
?	-6.32536
▁barn	-6.33542
▁HERRENS	-6.35417
▁oss	-6.39182
▁hus	-6.43801
▁ock	-6.44236
▁Israels	-6.46262
▁eller	-6.46376
▁vara	-6.48823
▁Ty	-6.49332
▁säger	-6.50526
▁mitt	-6.5307
▁sitt	-6.54622
▁Så	-6.55453
▁fram	-6.55487
▁folk	-6.56057
▁göra	-6.56448
▁vill	-6.56943
▁äro	-6.57426
▁skulle	-6.57861
▁komma	-6.58389
▁må	-6.59756
▁land	-6.59864
▁genom	-6.60321
ar	-6.60447
▁dina	-6.60465
▁bliva	-6.60588
▁in	-6.63355
et	-6.65242
▁någon	-6.66347
▁se	-6.66994
▁ned	-6.68654
▁utan	-6.69206
▁voro	-6.70213
▁dess	-6.73561
▁under	-6.74584
▁konungen	-6.75715
▁få	-6.77063
g	-6.77314
▁bort	-6.78381
▁gå	-6.79187
▁konung	-6.80227
▁hon	-6.81523
▁kom	-6.81646
▁ur	-6.82241
▁hela	-6.83025
▁ord	-6.83449
▁skolen	-6.84041
▁ditt	-6.84723
▁inför	-6.8525
▁Han	-6.85266
▁hand	-6.85482
▁folket	-6.86477
k	-6.86822
▁andra	-6.88273
o	-6.88365
▁ifrån	-6.88877
▁Israel	-6.89666
▁Guds	-6.89896
▁svarade	-6.90756
▁blev	-6.91626
l	-6.91817
▁dag	-6.91909
▁När	-6.92082
▁mina	-6.92344
▁jorden	-6.93968
▁dessa	-6.96889
▁ingen	-6.96894
▁söner	-6.9796
▁ju	-6.98315
▁bland	-6.98544
▁Jag	-6.99738
▁David	-7.00014
it	-7.00225
▁något	-7.01343
▁gick	-7.01842
?»	-7.0363
▁tjänare	-7.03782
▁sedan	-7.03801
▁--	-7.04366
▁giva	-7.04672
▁'	-7.05379
▁låt	-7.06585
▁gjorde	-7.06781
▁än	-7.07026
▁Juda	-7.09004
▁blivit	-7.09956
▁Jerusalem	-7.10075
▁kommer	-7.10122
▁namn	-7.10439
▁Jesus	-7.10621
▁män	-7.10721
▁De	-7.11458
▁henne	-7.11804
-	-7.11834
▁kan	-7.13637
▁mer	-7.15648
edra	-7.16303
▁Ja	-7.16359
▁säga	-7.17203
▁ej	-7.19085
▁Mose	-7.19448
▁tid	-7.20123
▁lät	-7.20953
▁därför	-7.21398
▁Herren	-7.21664
v	-7.21733
▁två	-7.21997
f	-7.23224
▁gjort	-7.2358
▁själv	-7.24745
!	-7.24809
▁denna	-7.27847
▁får	-7.28862
▁landet	-7.30602
▁ögon	-7.31889
▁hos	-7.32062
i	-7.32544
▁vår	-7.32596
m	-7.32963
▁tillbaka	-7.33153
▁fader	-7.34128
▁gav	-7.35247
▁låta	-7.36051
▁år	-7.36196
▁tog	-7.36891
or	-7.37884
▁här	-7.3821
▁himmelen	-7.3823
▁åter	-7.38886
▁Egypten	-7.38985
▁ja	-7.39559
▁hundra	-7.39655
▁dagen	-7.39798
▁taga	-7.40448
▁väl	-7.40949
▁haven	-7.41055
▁Om	-7.41175
▁huru	-7.41676
▁denne	-7.41764
▁ännu	-7.4395
▁gör	-7.4428
st	-7.44288
an	-7.44511
▁intet	-7.45002
▁kommit	-7.4663
▁Se	-7.47888
▁höra	-7.48526
▁be	-7.4957
▁tusen	-7.5159
▁väg	-7.51632
▁bliver	-7.5221
'	-7.52232
▁hjärta	-7.53053
▁ända	-7.53331
b	-7.53393
da	-7.53581
▁Den	-7.5374
▁åstad	-7.5408
▁Du	-7.55174
▁kunna	-7.55842
▁ansikte	-7.57096
▁liv	-7.57728
▁bröder	-7.57989
▁emot	-7.5889
▁skull	-7.59212
▁många	-7.5947
▁äta	-7.60141
▁staden	-7.60217
▁fick	-7.60491
▁också	-7.6153
▁talade	-7.61992
▁omkring	-7.62368
re	-7.64035
om	-7.64342
▁rätt	-7.64465
nde	-7.64533
▁kommo	-7.6493
▁hålla	-7.64933
es	-7.6719
▁stor	-7.67255
▁kvar	-7.6868
Jag	-7.68697
as	-7.68889
▁mycket	-7.70263
▁dagar	-7.70971
▁lika	-7.71243
▁tala	-7.71313
▁sju	-7.7149
▁går	-7.71601
j	-7.71767
▁såg	-7.71836
▁tre	-7.72127
▁måste	-7.72516
▁vilken	-7.73268
▁människor	-7.74614
▁förde	-7.74664
ade	-7.7503
▁bo	-7.75214
▁hustru	-7.75491
▁vatten	-7.76371
▁sagt	-7.76613
▁stå	-7.77537
▁givit	-7.78873
än	-7.80101
ta	-7.80564
la	-7.80615
▁hörde	-7.81299
▁Sedan	-7.81863
het	-7.82109
▁nåd	-7.82142
▁vare	-7.82207
y	-7.83242
el	-7.8381
▁stad	-7.8451
▁Därför	-7.85018
▁hennes	-7.85302
▁stod	-7.86555
▁stora	-7.86997
▁Därefter	-7.87113
▁allenast	-7.87395
▁guld	-7.8752
▁g	-7.88161
▁HERRE	-7.88229
▁sände	-7.88283
▁eld	-7.88365
▁dit	-7.88505
▁heller	-7.89016
▁städer	-7.89703
arna	-7.89905
▁vilka	-7.90681
▁samma	-7.91429
at	-7.91431
tt	-7.9157
▁döda	-7.91655
för	-7.91878
▁både	-7.92089
▁prästen	-7.92221
▁våra	-7.92558
▁broder	-7.92834
▁vilja	-7.92982
▁finnes	-7.93232
▁Aron	-7.93236
▁ville	-7.93393
▁dock	-7.94385
▁o	-7.94624
▁vände	-7.95014
▁Det	-7.95404
▁all	-7.95519
▁blod	-7.95732
▁herre	-7.96654
▁röst	-7.96734
▁kunde	-7.96734
ra	-7.96906
▁sätt	-7.96952
▁gott	-7.97032
▁plats	-7.97681
▁tro	-7.97829
▁själva	-7.9854
.'	-7.99968
p	-8.00325
▁svärd	-8.0055
▁händer	-8.00563
▁bud	-8.01044
▁Kristus	-8.01606
are	-8.01664
▁varit	-8.01834
▁En	-8.0195
▁blevo	-8.02541
▁hör	-8.02641
ja	-8.02885
▁gingo	-8.03225
▁nämligen	-8.03496
▁fäder	-8.03842
▁satte	-8.0394
▁Saul	-8.04472
▁heliga	-8.04869
▁fast	-8.05139
▁framför	-8.05261
▁Detta	-8.05293
▁an	-8.06524
ad	-8.06555
▁födde	-8.06869
▁veta	-8.07333
u	-8.07526
▁havet	-8.07747
▁Jakob	-8.07827
▁mun	-8.08133
▁lag	-8.09124
▁annan	-8.0939
▁s	-8.09924
å	-8.09965
▁huvud	-8.10265
▁själ	-8.10793
▁S	-8.11001
▁giver	-8.11217
▁dotter	-8.11779
▁båda	-8.12125
▁ont	-8.12129
▁sidan	-8.12276
▁dö	-8.12316
▁För	-8.12317
▁bära	-8.13164
▁tiden	-8.13187
▁fått	-8.13324
▁draga	-8.13334
▁föra	-8.13554
us	-8.1361
▁vrede	-8.14085
jämte	-8.14727
▁vet	-8.15484
▁konungens	-8.15632
sk	-8.15677
ens	-8.16259
▁makt	-8.17006
▁stam	-8.17466
▁frågade	-8.17681
am	-8.17729
▁tron	-8.18297
▁mannen	-8.18456
▁ande	-8.18648
▁onda	-8.18675
▁På	-8.19009
▁bröd	-8.19115
▁leva	-8.19639
▁Sebaot	-8.19685
▁undan	-8.19689
▁varandra	-8.20057
▁offra	-8.20872
▁drog	-8.21121
▁H	-8.21849
▁arvedel	-8.21951
▁fem	-8.22326
▁fyra	-8.2281
▁människa	-8.22899
▁rättfärdighet	-8.23011
▁Där	-8.23087
»,	-8.23928
▁lade	-8.24194
▁kraft	-8.24358
▁därefter	-8.24713
▁moder	-8.24771
▁gärningar	-8.25117
▁verk	-8.25629
ma	-8.25774
▁vägen	-8.25923
▁sådant	-8.25978
▁Var	-8.2616
ande	-8.26535
▁öknen	-8.26648
den	-8.26654
▁silver	-8.26894
▁talat	-8.2725
▁slag	-8.27716
▁kläder	-8.27777
Vad	-8.27994
▁berg	-8.28142
▁Salomo	-8.28329
▁vidare	-8.28501
▁prästerna	-8.29609
ig	-8.29781
▁vem	-8.29924
▁hit	-8.29969
▁huset	-8.30215
▁fiender	-8.30451
▁vända	-8.30522
▁filistéerna	-8.31159
ka	-8.31439
▁marken	-8.31441
▁döttrar	-8.31578
▁förbund	-8.31731
▁sätta	-8.31886
ning	-8.31971
▁sådan	-8.32425
▁synd	-8.32487
▁står	-8.32739
▁tillsammans	-8.32942
▁några	-8.33276
▁runt	-8.33276
▁härlighet	-8.33309
Du	-8.33463
▁k	-8.33595
▁hem	-8.33749
▁alnar	-8.34179
▁hjärtan	-8.34336
▁strid	-8.34492
▁mellan	-8.34569
▁A	-8.34657
▁Babel	-8.35004
▁bjudit	-8.35017
▁frukt	-8.35407
▁Davids	-8.35779
▁länge	-8.35879
▁död	-8.36057
▁kallade	-8.36531
ga	-8.36695
▁del	-8.36701
▁döden	-8.36734
▁bodde	-8.36774
▁kött	-8.37016
▁lägga	-8.37227
▁släkte	-8.3747
▁gudar	-8.37765
Se	-8.38216
ken	-8.38347
▁skaffa	-8.38552
▁altaret	-8.38846
va	-8.38888
▁satt	-8.39134
▁barns	-8.39329
!»	-8.39596
▁Josua	-8.40374
▁igen	-8.40778
▁Dessa	-8.40949
ot	-8.41221
rän	-8.41247
▁säd	-8.41298
▁ära	-8.41601
▁gång	-8.41748
▁drag	-8.41878
▁rike	-8.41911
▁ropade	-8.41941
▁släkt	-8.41972
▁tio	-8.42205
▁lik	-8.42348
▁tag	-8.42377
▁äldste	-8.427
▁brännoffer	-8.427
▁kvinna	-8.4309
ns	-8.43209
▁före	-8.43458
un	-8.43512
▁dricka	-8.43739
Så	-8.43939
ligt	-8.43986
▁folken	-8.43993
▁natten	-8.44007
▁sönder	-8.446
▁fötter	-8.44993
▁gått	-8.45372
ing	-8.45586
▁Vad	-8.45895
▁B	-8.47044
iga	-8.47086
liga	-8.47316
▁vin	-8.47386
▁medan	-8.47453
▁fingo	-8.4752
▁därav	-8.47642
▁alltså	-8.48019
▁T	-8.48243
▁f	-8.48348
▁b	-8.48737
▁Farao	-8.48952
▁tjänst	-8.49142
▁kropp	-8.49778
al	-8.50056
▁ären	-8.50075
▁redan	-8.50553
▁därpå	-8.50582
▁månaden	-8.50658
▁låg	-8.50972
▁fråga	-8.5139
▁första	-8.51866
nen	-8.51961
▁glädje	-8.52456
▁hört	-8.52462
▁mån	-8.52748
▁goda	-8.52956
▁konungar	-8.52956
▁Jordan	-8.53105
▁skam	-8.53136
▁därtill	-8.53248
sta	-8.55428
▁sett	-8.55485
in	-8.56087
▁togo	-8.56173
▁tjugu	-8.56289
▁Herre	-8.56363
on	-8.57076
▁for	-8.57206
▁ligger	-8.57373
▁tolv	-8.57373
▁E	-8.57395
▁leviterna	-8.57455
▁alltid	-8.57466
▁därifrån	-8.5753
▁djur	-8.57665
▁falla	-8.57744
▁faders	-8.57809
▁hämta	-8.57849
▁tal	-8.58148
▁slog	-8.58344
▁Nej	-8.58632
▁föll	-8.59094
▁visa	-8.59746
▁lagen	-8.5977
▁ske	-8.59803
▁hög	-8.60092
▁gammal	-8.60135
▁annat	-8.60137
▁ser	-8.60359
▁vart	-8.60366
▁känna	-8.60697
▁Josef	-8.60824
▁ena	-8.60841
▁säg	-8.60868
ste	-8.61061
bland	-8.61143
▁Abraham	-8.61423
▁helig	-8.616
erna	-8.61742
▁P	-8.6184
▁talar	-8.61882
te	-8.61982
▁förut	-8.62129
▁evinnerligen	-8.62402
▁Min	-8.6243
▁besittning	-8.62433
▁tagit	-8.62514
▁morgon	-8.62874
▁sänt	-8.62977
▁världen	-8.63164
▁stodo	-8.63323
▁missgärning	-8.63417
▁sak	-8.63488
▁levande	-8.63633
Det	-8.63697
▁sex	-8.63705
▁G	-8.64052
else	-8.64452
▁högr	-8.6448
▁vägar	-8.6466
▁ligga	-8.64877
▁offer	-8.64883
▁frid	-8.64913
li	-8.64988
▁männen	-8.65015
▁kvinnor	-8.6507
▁ed	-8.65079
▁lever	-8.65901
▁begynte	-8.66023
▁stadgar	-8.66079
▁fara	-8.66296
▁drogo	-8.66666
▁edert	-8.66742
▁kärlek	-8.66832
ur	-8.66865
▁Bet	-8.67016
gen	-8.67721
gav	-8.67809
▁Paulus	-8.68303
▁släkter	-8.68328
▁synder	-8.68494
▁bygga	-8.68533
▁kasta	-8.68557
▁ro	-8.69581
▁arbete	-8.69667
▁Ande	-8.69738
▁Av	-8.7036
▁slut	-8.70454
im	-8.70467
▁rädda	-8.70592
▁Vi	-8.70647
ren	-8.70764
▁övriga	-8.70767
▁frälsning	-8.71411
lä	-8.71995
▁Petrus	-8.72019
▁judarna	-8.72175
äck	-8.72277
▁lärjungar	-8.72399
ut	-8.72601
▁tecken	-8.72675
▁berget	-8.72921
▁följde	-8.73087
▁andre	-8.73289
▁förstånd	-8.73376
▁fanns	-8.73455
▁steg	-8.73931
▁slå	-8.7417
be	-8.74271
▁råd	-8.74286
▁t	-8.74371
▁sk	-8.74391
I	-8.74545
▁våld	-8.74697
▁bor	-8.74831
▁sådana	-8.74836
▁ljus	-8.75043
▁olycka	-8.75099
▁först	-8.75479
▁Nu	-8.7551
▁Kristi	-8.75878
▁hedningarna	-8.75954
▁bär	-8.7619
▁akta	-8.77109
igt	-8.77238
▁dom	-8.77257
▁K	-8.77287
is	-8.77324
▁Jesu	-8.77381
▁finnas	-8.77389
▁stället	-8.77741
▁tredje	-8.7788
▁förnimma	-8.77894
▁däri	-8.78105
▁vandra	-8.78282
lig	-8.78412
▁Jeremia	-8.78536
▁p	-8.7857
▁vattnet	-8.78575
väl	-8.78662
▁profeten	-8.78861
öd	-8.78961
os	-8.79083
▁trettio	-8.79208
▁frukta	-8.79989
▁söka	-8.8
▁femtio	-8.80571
▁aldrig	-8.80577
håller	-8.80828
ne	-8.8101
▁lägra	-8.81266
enbarelsetältet	-8.81269
▁boskap	-8.81288
»	-8.81345
▁varda	-8.81405
▁olja	-8.81643
▁Huru	-8.81663
ul	-8.81809
▁bön	-8.81826
▁koppar	-8.8196
▁m	-8.82201
▁furstar	-8.82354
▁hopp	-8.82677
▁lamm	-8.82693
Om	-8.82697
▁ängel	-8.82945
▁vishet	-8.83069
▁höll	-8.83318
▁vila	-8.83333
▁Samuel	-8.83365
▁Joab	-8.83373
▁sända	-8.83479
▁träd	-8.83508
nas	-8.83785
▁hjälp	-8.83909
▁finna	-8.83948
▁Låt	-8.83972
▁mat	-8.84131
▁tjäna	-8.84543
ng	-8.84579
▁befallning	-8.8465
▁ren	-8.84863
des	-8.8507
▁boning	-8.85083
▁trädde	-8.85273
ika	-8.85324
▁lämna	-8.85696
▁sp	-8.85757
▁fört	-8.85782
▁helgedomen	-8.85881
od	-8.85903
ifrån	-8.86013
ri	-8.86078
▁stort	-8.86171
▁full	-8.86574
▁hette	-8.86962
ter	-8.87463
ll	-8.87594
▁nöd	-8.87633
▁grund	-8.87697
intill	-8.88699
▁hop	-8.88756
▁människorna	-8.88795
▁enda	-8.89238
Vi	-8.89263
'»	-8.89275
▁kvinnan	-8.89313
▁därmed	-8.89358
▁tänkte	-8.89538
▁Fader	-8.89564
▁vore	-8.89619
▁område	-8.89936
Varför	-8.90044
▁ställe	-8.90291
▁vittnesbörd	-8.90345
▁lära	-8.90422
▁far	-8.90423
till	-8.90443
▁byggde	-8.90781
▁Isak	-8.90811
▁given	-8.91172
▁L	-8.9122
pp	-8.91286
▁håll	-8.91438
▁Hiskia	-8.91457
▁sons	-8.9157
▁solen	-8.91638
▁Varför	-8.92218
▁förgås	-8.9223
▁allasammans	-8.9226
▁församlade	-8.9243
▁kommen	-8.92435
▁stannade	-8.92516
▁syn	-8.92643
▁F	-8.92862
▁fyrtio	-8.93001
▁fördärva	-8.93055
▁Har	-8.93111
▁Herrens	-8.9312
▁Må	-8.93213
▁förgöra	-8.93403
▁långt	-8.93443
S	-8.93693
▁egen	-8.93779
▁bjöd	-8.93782
les	-8.93785
▁förkunna	-8.93896
▁evig	-8.94148
▁sten	-8.94206
▁fly	-8.94348
▁oren	-8.94418
▁Manasse	-8.94569
Låt	-8.94683
lar	-8.95392
▁Hon	-8.95402
▁Johannes	-8.9541
▁svara	-8.95438
▁Alla	-8.95529
▁rena	-8.95692
▁sågo	-8.95727
▁förstå	-8.95773
▁gud	-8.96265
▁öppna	-8.96508
▁utgjorde	-8.9697
▁ställde	-8.97148
rna	-8.97346
▁ting	-8.97484
▁länder	-8.97688
▁Jonatan	-8.97783
▁Dock	-8.97785
▁namnet	-8.97831
▁lejon	-8.98324
▁hustrur	-8.98562
▁strax	-8.98606
▁bet	-8.9875
▁jord	-8.99318
▁nära	-8.99338
▁O	-8.99341
▁spisoffer	-8.9943
▁sant	-8.9943
▁porten	-8.9944
▁stammar	-8.99453
▁behag	-8.99527
▁Sion	-8.99529
▁profeterna	-8.9969
▁livet	-8.99866
▁eget	-9.00262
▁känner	-9.00293
▁god	-9.00565
▁gören	-9.00593
▁Fadern	-9.00731
▁Ma	-9.01064
▁sjunde	-9.01287
▁fall	-9.01547
▁akt	-9.01584
▁nästa	-9.01737
▁gåvo	-9.0178
▁inne	-9.01891
kså	-9.01954
ab	-9.02002
▁föda	-9.02059
▁syster	-9.02805
▁likväl	-9.02833
▁gånger	-9.03126
▁vårt	-9.0329
▁krig	-9.03361
▁profeter	-9.03482
▁regera	-9.03667
▁rätta	-9.03737
Var	-9.03852
▁mått	-9.04421
▁byte	-9.04577
▁fot	-9.04577
▁rättfärdig	-9.04592
▁sen	-9.04687
▁Är	-9.04976
av	-9.05213
▁bevara	-9.05421
▁skrivet	-9.05448
▁natt	-9.0563
▁fruktan	-9.05955
▁högt	-9.06275
▁tempel	-9.06297
▁tillhopa	-9.06299
▁läppar	-9.06299
▁floden	-9.06434
kar	-9.06496
▁ark	-9.06598
▁egna	-9.07191
▁främmande	-9.07191
▁levde	-9.07192
▁funnit	-9.07199
med	-9.07437
▁Moses	-9.07504
▁kastade	-9.07735
len	-9.07773
▁bad	-9.07805
▁Vem	-9.07837
lade	-9.07852
▁regeringsår	-9.08092
▁flydde	-9.08099
▁tillhör	-9.08488
▁vän	-9.085
▁döma	-9.08511
▁sida	-9.08688
▁tunga	-9.08693
▁läger	-9.08998
▁altare	-9.09058
▁Be	-9.09139
▁sång	-9.09329
▁nog	-9.09554
▁Jakobs	-9.09643
▁st	-9.09661
▁rättfärdiga	-9.09811
▁dog	-9.09814
▁lägret	-9.09919
▁utmarker	-9.09919
▁bringa	-9.10029
▁sitta	-9.10111
▁allde	-9.10261
▁fasta	-9.10705
var	-9.10782
▁Absalom	-9.10845
▁större	-9.10845
▁stenar	-9.10955
▁invånare	-9.10959
Min	-9.1112
▁inom	-9.11439
▁djup	-9.11555
▁ogudaktiga	-9.11646
▁h	-9.11798
▁orätt	-9.11804
▁älskade	-9.12164
',	-9.12346
▁Jo	-9.12628
▁bergen	-9.12684
▁lön	-9.12723
▁siklar	-9.12723
▁finner	-9.12727
▁platsen	-9.12765
▁vagnar	-9.12777
▁bröto	-9.12844
▁lust	-9.13611
▁människobarn	-9.13675
▁bör	-9.13824
▁morgonen	-9.13845
▁lägg	-9.13882
▁församling	-9.13893
▁arbeta	-9.14541
▁arm	-9.14562
▁ytterligare	-9.14637
▁Ammon	-9.14637
man	-9.15546
▁lögn	-9.15566
▁kunskap	-9.15608
▁försoning	-9.15608
▁höllo	-9.15855
▁samla	-9.16004
ningen	-9.16118
Herre	-9.16171
▁uppstå	-9.16405
▁portar	-9.16441
em	-9.16554
▁lång	-9.16669
Ja	-9.16785
▁rätter	-9.16861
orna	-9.16876
▁Gilead	-9.1699
▁fri	-9.17064
▁stanna	-9.17508
▁jämväl	-9.17578
▁rättfärdige	-9.17578
▁barmhärtighet	-9.17595
▁skåda	-9.1762
ras	-9.1766
▁välsigna	-9.17705
▁styggelse	-9.17802
▁slagna	-9.181
▁penningar	-9.18404
▁skuld	-9.18575
▁drabba	-9.18578
Gå	-9.18598
fall	-9.18861
del	-9.19179
der	-9.19348
▁präster	-9.19542
▁bättre	-9.19588
▁innan	-9.1963
dra	-9.19678
▁aftonen	-9.19858
▁ropa	-9.20372
▁otukt	-9.20609
▁evangelium	-9.2061
▁lov	-9.20837
▁lovat	-9.20976
▁köttet	-9.2099
▁lott	-9.21153
▁kär	-9.21179
▁hästar	-9.2129
▁likna	-9.21609
▁fjärran	-9.21639
▁vilket	-9.21639
▁utrota	-9.21817
Vem	-9.22011
▁kärl	-9.22184
▁avgudar	-9.22428
▁församlingen	-9.22453
▁gamla	-9.22681
▁egyptierna	-9.22773
lighet	-9.22799
▁Sela	-9.22919
sökte	-9.23037
▁tält	-9.23571
▁funnos	-9.23592
▁järn	-9.23735
▁lyfte	-9.23774
▁bryta	-9.23953
▁mätta	-9.24087
ten	-9.24587
▁träda	-9.24646
▁Samaria	-9.24798
▁seger	-9.24802
▁ben	-9.24815
▁ingången	-9.25068
▁slakta	-9.25292
▁bar	-9.25771
▁ände	-9.25858
▁öron	-9.25873
▁Kanaan	-9.25873
▁ändå	-9.25873
▁året	-9.25952
▁led	-9.25982
▁sanning	-9.26009
år	-9.26017
▁räkna	-9.26034
▁fött	-9.26642
▁rop	-9.26675
inna	-9.26763
▁öster	-9.26943
▁Till	-9.27111
▁unga	-9.27226
▁Vid	-9.27263
▁Sa	-9.27304
▁Efraims	-9.27317
▁Ve	-9.274
le	-9.27402
▁domare	-9.27689
▁Sauls	-9.27907
▁lagt	-9.28034
▁litet	-9.28059
▁stilla	-9.28064
▁därvid	-9.28174
▁å	-9.28243
bo	-9.2847
▁lämnade	-9.28603
▁orena	-9.28654
▁handen	-9.29131
▁Je	-9.29159
▁eljest	-9.2917
▁inbyggare	-9.2917
▁tabernaklet	-9.2917
▁hälft	-9.2917
▁stav	-9.29212
▁slogo	-9.29423
▁elden	-9.29597
ställ	-9.29599
▁bliv	-9.29614
▁ställa	-9.29645
▁varder	-9.29825
▁Moab	-9.29859
▁horn	-9.30295
▁rikedom	-9.30306
▁följande	-9.3035
▁skett	-9.30381
▁pris	-9.30457
▁förbi	-9.30482
ai	-9.30498
▁tacka	-9.30502
kor	-9.30581
räckte	-9.30677
▁ute	-9.30982
iternas	-9.31389
».	-9.3141
▁Josafat	-9.3143
▁plåga	-9.3143
▁bedja	-9.3143
▁ogudaktige	-9.31554
iska	-9.31684
▁Icke	-9.317
▁dal	-9.31904
▁stycken	-9.31931
men	-9.32134
▁le	-9.32145
▁striden	-9.3221
▁vakt	-9.32235
▁Son	-9.32281
▁mod	-9.32303
▁allena	-9.32531
▁fördärv	-9.32566
▁kunnen	-9.3271
▁älska	-9.32777
▁Et	-9.3278
▁bevisa	-9.32785
▁bröt	-9.33593
▁hören	-9.3361
▁Levi	-9.33797
▁älskar	-9.33805
▁tage	-9.33806
▁sägen	-9.33811
▁dräpa	-9.33929
▁Frå	-9.33931
▁tänka	-9.33976
▁syndat	-9.34206
▁menigheten	-9.34289
▁ny	-9.34298
▁Efraim	-9.34533
▁Man	-9.34643
▁ondska	-9.34919
ba	-9.34933
▁visste	-9.34968
▁snart	-9.35035
▁gråt	-9.35219
▁stycke	-9.35269
red	-9.35523
▁vingård	-9.3559
ol	-9.35727
▁krossa	-9.35781
▁svar	-9.35892
▁sinne	-9.35966
▁fäders	-9.35977
▁familjer	-9.35981
▁viljen	-9.36109
▁öga	-9.36109
▁skynda	-9.36124
▁upprätta	-9.36127
▁tionde	-9.36233
▁förgården	-9.36269
▁fröjd	-9.36273
låt	-9.3637
yck	-9.36539
Huru	-9.36633
▁Assyrien	-9.37314
▁konungs	-9.37396
▁Ingen	-9.37467
▁följa	-9.37515
▁N	-9.37638
▁resa	-9.3778
tag	-9.37825
träd	-9.37842
▁Me	-9.37848
um	-9.37879
▁red	-9.379
▁profetera	-9.3807
▁Anden	-9.38378
▁därom	-9.38494
mar	-9.3854
▁mörker	-9.38631
iel	-9.38663
▁ung	-9.38668
▁Benjamins	-9.38857
▁församla	-9.3887
▁R	-9.38896
ord	-9.38936
id	-9.39196
▁sorg	-9.39283
▁arken	-9.39365
▁Benjamin	-9.39441
▁fann	-9.39446
▁lida	-9.39717
▁öde	-9.39765
▁längre	-9.39768
▁förvisso	-9.39972
▁port	-9.39991
▁trä	-9.40167
▁främlingar	-9.40179
▁utom	-9.40429
▁hata	-9.40665
▁Med	-9.40969
▁smäda	-9.41018
▁mörkret	-9.4102
▁hast	-9.41147
▁Ell	-9.41178
▁föllo	-9.41385
▁helga	-9.41409
▁faller	-9.41468
▁starka	-9.41536
▁döds	-9.41705
▁prisa	-9.41739
yllen	-9.42279
▁haft	-9.42284
▁blygd	-9.42284
▁syndoffer	-9.42297
▁dräpte	-9.42305
▁orda	-9.42348
ningar	-9.42361
▁sidor	-9.42458
nvid	-9.42459
dan	-9.42783
▁Baal	-9.42908
▁utanför	-9.42928
▁kalla	-9.42956
▁kor	-9.43013
▁förtära	-9.43128
▁slår	-9.43136
ligen	-9.43203
▁offrade	-9.43354
▁fåglar	-9.43369
▁hövding	-9.43475
▁murar	-9.43485
Den	-9.43552
▁smälek	-9.43566
▁fint	-9.43566
▁Alltså	-9.43566
▁utvalt	-9.43567
▁Daniel	-9.4357
▁tåga	-9.43808
▁fångenskap	-9.4389
▁ene	-9.43997
iten	-9.44059
bar	-9.44071
▁lärjungarna	-9.4408
▁blodet	-9.44135
Tag	-9.44185
▁gåvor	-9.4422
nar	-9.44255
▁norr	-9.44267
vis	-9.44473
uk	-9.44526
▁sanningen	-9.44701
▁buro	-9.44864
▁förstfödde	-9.44864
▁ihåg	-9.44864
▁tankar	-9.44864
▁tillbedja	-9.44864
▁stark	-9.44902
▁Gad	-9.44937
▁grav	-9.45176
▁fäkreatur	-9.45418
▁graven	-9.45485
c	-9.45599
▁vandrade	-9.45833
▁veten	-9.45917
▁sjuttio	-9.4618
▁hälsa	-9.4624
▁berättade	-9.46244
De	-9.46302
▁l	-9.46317
▁ringa	-9.46597
▁strida	-9.4661
▁Eftersom	-9.46681
helst	-9.46823
▁svärdet	-9.46897
of	-9.46935
▁Allt	-9.46957
▁predika	-9.47113
▁åker	-9.47155
▁rent	-9.47224
dag	-9.4723
▁bränna	-9.47255
▁bok	-9.47482
▁frälsa	-9.47494
▁evärdlig	-9.47514
▁fursten	-9.47827
▁Moabs	-9.4804
▁Ab	-9.48115
▁vredes	-9.48145
HERREN	-9.48173
Är	-9.48183
För	-9.48184
▁öppnade	-9.48284
▁profet	-9.48843
▁beständigt	-9.48865
▁välsignelse	-9.48865
▁förbliver	-9.48866
▁Eleasar	-9.48897
▁söker	-9.48927
▁redo	-9.4898
▁Faraos	-9.49031
gående	-9.49255
▁präst	-9.49276
▁El	-9.49335
▁stiga	-9.49466
rätt	-9.49535
▁Tag	-9.49615
skap	-9.49786
▁fulla	-9.49947
ud	-9.50086
▁ofta	-9.50235
▁slaktoffer	-9.50236
▁vikt	-9.50265
▁Människosonen	-9.50306
▁äter	-9.50372
▁illa	-9.50438
▁ljuset	-9.50618
▁lyssna	-9.50709
▁Eli	-9.50802
▁tillhöra	-9.50945
▁människan	-9.50972
▁evigt	-9.51223
▁ordet	-9.51407
Han	-9.51476
▁förskräckelse	-9.51624
▁ovänner	-9.51624
▁Simon	-9.51628
▁vingar	-9.51635
▁Aram	-9.51672
ske	-9.52339
▁utföra	-9.52394
▁fruktade	-9.52659
▁huvuden	-9.52729
▁Gen	-9.52762
▁fån	-9.52903
▁Aser	-9.52985
▁ditupp	-9.53032
▁förtörnelse	-9.53032
▁skyldig	-9.53032
▁tillflykt	-9.53032
▁skedde	-9.53048
▁förråd	-9.53077
▁Betel	-9.53127
▁bäcken	-9.5318
▁Job	-9.535
ets	-9.53969
sten	-9.53981
▁fröjda	-9.54265
▁mjöl	-9.54274
▁åto	-9.5441
▁förra	-9.54439
▁föröka	-9.54461
▁Hebron	-9.54461
▁hals	-9.54462
▁trodde	-9.54499
▁myckenhet	-9.54503
ram	-9.54744
▁bak	-9.54788
ek	-9.54843
▁gränsen	-9.54983
▁förgät	-9.55245
▁tagen	-9.55258
▁rökelse	-9.55532
▁styggelser	-9.55583
▁mantel	-9.55597
▁lär	-9.56379
▁Mi	-9.56478
▁helige	-9.56547
A	-9.56616
▁hår	-9.56617
▁Hören	-9.56768
ni	-9.56892
▁träffa	-9.56963
▁städerna	-9.57007
▁visade	-9.57037
▁undervisa	-9.57137
▁skatt	-9.57296
▁(	-9.5738
▁öken	-9.5738
▁dödsriket	-9.57381
▁därinne	-9.57388
▁fjärde	-9.57455
▁tänker	-9.57536
▁lös	-9.57781
▁mark	-9.57865
▁blotta	-9.57931
▁åkalla	-9.58046
▁somliga	-9.58172
Detta	-9.58304
▁göm	-9.58431
▁överlämna	-9.58462
slut	-9.58492
▁Josefs	-9.58535
▁klippa	-9.58677
▁bäva	-9.58775
▁Elia	-9.58819
▁hövdingar	-9.58835
)	-9.58873
▁Sikem	-9.58873
▁hunger	-9.58873
▁öra	-9.58873
▁ödemark	-9.58873
▁Joas	-9.58956
▁havande	-9.5896
▁skatter	-9.5896
▁gäller	-9.5898
▁regn	-9.59032
▁begär	-9.59033
tid	-9.59063
▁berömm	-9.59151
▁välsignade	-9.59334
▁Denne	-9.59403
▁tjurar	-9.59647
▁ropar	-9.59704
let	-9.59766
▁stund	-9.59995
▁Esau	-9.60338
▁Abimelek	-9.60388
▁Libanon	-9.60388
▁drickoffer	-9.6039
▁åsyn	-9.60393
▁herde	-9.60399
▁glädja	-9.60406
▁vinträd	-9.60423
▁skriftlärde	-9.60425
▁Här	-9.60729
kall	-9.60752
▁samman	-9.61056
▁basun	-9.61117
▁helgedom	-9.61129
Din	-9.61263
▁Si	-9.61566
▁stadga	-9.61636
▁v	-9.61655
▁moders	-9.61907
▁Elisa	-9.61914
▁driva	-9.61927
▁vilse	-9.61927
▁jubel	-9.61927
▁skada	-9.61933
▁sändebud	-9.61945
▁därigenom	-9.62036
▁fariséerna	-9.6204
▁glada	-9.6253
▁vänd	-9.62597
▁fäste	-9.62618
▁hållen	-9.63123
▁Hör	-9.63141
▁sky	-9.63162
▁vandrar	-9.63176
▁hjärtat	-9.6335
▁vika	-9.63462
▁Jeriko	-9.63489
▁särskild	-9.63489
▁lycka	-9.63489
▁eldsoffer	-9.6349
?'	-9.6349
▁araméerna	-9.63491
▁Jehu	-9.63496
▁nytt	-9.63529
▁Galileen	-9.63534
▁träl	-9.63657
▁tom	-9.63663
▁lågo	-9.63695
▁född	-9.63748
▁byar	-9.63803
▁frambära	-9.63832
▁tider	-9.63962
utom	-9.64174
▁giv	-9.64366
Stå	-9.64392
▁skara	-9.64592
▁Ar	-9.64645
▁furste	-9.64704
▁hände	-9.64709
far	-9.64932
▁tungomål	-9.65076
▁honung	-9.65078
iterna	-9.65321
▁Edom	-9.65327
M	-9.65352
▁träffade	-9.65532
▁inga	-9.65615
▁kände	-9.65762
▁ok	-9.65984
▁bergsbygd	-9.66078
▁sänder	-9.66104
▁sjön	-9.66124
▁välbehaglig	-9.66264
▁judar	-9.66296
x	-9.66493
▁rör	-9.66555
gång	-9.66579
▁Sidkia	-9.66689
▁psalm	-9.66689
▁heter	-9.66703
▁sjuk	-9.66831
▁storm	-9.66843
▁konungarna	-9.66952
▁ogudaktigas	-9.67185
▁stånd	-9.67192
▁vädurar	-9.67377
▁dödade	-9.67508
▁öva	-9.67894
▁förbanna	-9.67897
▁Abrahams	-9.67933
▁fånga	-9.67934
▁uppteckna	-9.67966
▁förlossa	-9.68003
eln	-9.68101
▁inre	-9.682
val	-9.68223
▁Mika	-9.68225
▁förbarma	-9.68283
▁Abner	-9.6833
▁möda	-9.6833
▁bedrövelse	-9.68332
▁förrätta	-9.68394
▁stig	-9.68542
▁Säg	-9.68721
H	-9.6874
▁gräns	-9.68753
▁översteprästen	-9.68819
▁gången	-9.6883
▁skänker	-9.68831
efter	-9.6902
▁Re	-9.69166
▁varar	-9.69239
▁hjälpa	-9.69307
tal	-9.69528
pen	-9.69796
▁Bileam	-9.69995
▁Damaskus	-9.69995
▁Basan	-9.69996
▁pass	-9.69998
▁garn	-9.69998
▁förbliva	-9.70003
▁Abram	-9.70004
▁begått	-9.7004
▁bord	-9.70115
▁smorde	-9.70151
▁ved	-9.70337
▁dräpt	-9.7065
▁vittnesbördet	-9.70769
▁strömmar	-9.70805
F	-9.70877
väg	-9.70934
▁kroppen	-9.71028
▁höj	-9.71136
ret	-9.71361
▁änglar	-9.7138
▁folks	-9.71537
▁Mordokai	-9.7169
▁belägra	-9.7169
▁sannerligen	-9.7169
▁efa	-9.7169
▁lukt	-9.7169
▁Noa	-9.71693
▁vänner	-9.71694
▁ax	-9.71694
▁trofasthet	-9.71703
▁alltsammans	-9.71737
▁konungars	-9.71741
▁Medan	-9.71784
▁Ahab	-9.71825
▁löfte	-9.71874
▁Hav	-9.72002
▁byggt	-9.72012
▁likt	-9.72032
▁kallas	-9.72068
▁Sannerligen	-9.72108
»;	-9.72383
▁uppenbara	-9.72402
▁högtid	-9.72591
talade	-9.72651
K	-9.72677
verk	-9.72754
▁Efter	-9.73117
▁vittna	-9.73163
äll	-9.73181
översteprästerna	-9.73184
▁sextio	-9.73401
▁bruka	-9.73414
▁ångest	-9.73414
▁tackoffer	-9.73417
▁nödga	-9.73482
▁beder	-9.73524
▁övergivit	-9.73582
▁rov	-9.73623
▁hjord	-9.73625
vänd	-9.73797
▁samt	-9.7381
▁muren	-9.74012
ighet	-9.7423
ub	-9.74243
satt	-9.74246
▁menighet	-9.7455
▁kroppar	-9.74934
▁mur	-9.7498
▁Nebukadnessar	-9.75169
▁sutto	-9.75169
▁växa	-9.75169
▁pest	-9.75172
▁gudsmannen	-9.75175
▁begiv	-9.75176
▁anden	-9.75182
▁gossen	-9.7529
▁Has	-9.75358
▁stött	-9.75376
▁höga	-9.75432
▁lova	-9.75491
▁helt	-9.75532
▁lovade	-9.75553
lå	-9.75576
▁huvudmän	-9.75639
▁tjänares	-9.75657
▁höjden	-9.75917
▁tror	-9.75925
▁fattiga	-9.76156
▁So	-9.76228
▁händerna	-9.76305
▁Ad	-9.76314
▁ställ	-9.76395
▁orent	-9.76441
slag	-9.76544
handa	-9.76676
▁förtryck	-9.76804
▁fruktar	-9.76841
▁dör	-9.76901
▁välde	-9.76953
▁hämnd	-9.76954
▁Allsmäktige	-9.76955
▁babyloni	-9.76955
▁försmäkta	-9.76955
▁rycka	-9.76955
▁sångmästaren	-9.76955
▁spillo	-9.76955
▁fåfänglighet	-9.7696
▁bosatt	-9.76997
▁D	-9.77057
▁ditin	-9.77077
▁synden	-9.77131
▁funno	-9.77202
▁Asa	-9.77237
▁foro	-9.77297
▁månader	-9.77324
▁Sal	-9.77326
▁slagit	-9.77367
▁sabbaten	-9.77452
▁mätte	-9.78066
▁nådig	-9.78098
▁ti	-9.78285
▁lyd	-9.78357
▁rot	-9.78363
▁väsende	-9.78395
▁folkets	-9.78551
▁Pilatus	-9.78773
▁Sadok	-9.78773
▁gästabud	-9.78773
▁Laban	-9.78773
▁glöd	-9.78773
▁Ester	-9.78774
▁liten	-9.78787
▁flykt	-9.78823
▁vind	-9.789
▁Skulle	-9.78969
▁Jerobeam	-9.7904
▁vittne	-9.79045
▁befästa	-9.7911
▁omvänd	-9.79148
▁orter	-9.79192
▁synda	-9.79382
▁huvudet	-9.79525
▁fullt	-9.79545
▁gåva	-9.79569
▁brunn	-9.79761
▁Judas	-9.79876
▁komme	-9.79892
▁pröva	-9.80137
▁Salomos	-9.8033
▁moln	-9.80618
▁högmod	-9.80625
▁slipp	-9.80625
▁vackla	-9.80625
▁Maria	-9.80625
▁upptändes	-9.80652
▁hemlighet	-9.80668
Ha	-9.80723
hörande	-9.80947
ledes	-9.80963
▁vise	-9.81134
ir	-9.81159
dde	-9.81196
▁främling	-9.81278
giva	-9.813
▁förkunnade	-9.81513
▁ängeln	-9.81741
Kom	-9.81863
▁samlade	-9.82141
▁brev	-9.82379
offret	-9.82475
▁Messias	-9.82511
▁ryttare	-9.82511
▁brist	-9.82512
▁brännoffret	-9.82513
▁bittida	-9.82515
▁Tyrus	-9.82515
▁ofärd	-9.82536
▁ovanpå	-9.82597
▁mycken	-9.82635
fi	-9.82668
▁hemsöka	-9.827
▁vinning	-9.82735
▁trolös	-9.82851
mma	-9.82937
▁Kan	-9.82962
▁Din	-9.82988
▁detsamma	-9.83095
▁fiende	-9.83139
▁gån	-9.83148
▁hatar	-9.83222
▁spetälska	-9.83319
▁bred	-9.83366
▁kalk	-9.83391
▁råda	-9.83431
▁syndare	-9.83601
Gud	-9.83759
▁fullborda	-9.83932
▁förbannelse	-9.84001
▁värde	-9.84111
▁spjut	-9.84302
▁förstör	-9.8431
▁främst	-9.84434
▁östra	-9.84434
▁kananéerna	-9.84435
▁våg	-9.84435
▁båge	-9.84436
▁Haman	-9.84472
▁vänta	-9.84565
▁ljud	-9.84597
▁bröderna	-9.84615
▁åtta	-9.84692
▁herres	-9.84961
▁Rubens	-9.85072
på	-9.85178
▁helgat	-9.85303
ack	-9.8542
▁väldig	-9.85523
lag	-9.85583
▁vitt	-9.85704
▁mäktig	-9.85777
▁bered	-9.85818
▁fängelse	-9.85825
▁ve	-9.86067
▁ostrafflig	-9.86332
▁rök	-9.86377
▁ålder	-9.8639
▁Helige	-9.86395
▁Rehabeam	-9.86395
▁betyder	-9.86395
▁drottning	-9.86395
▁åsnor	-9.86395
▁gagn	-9.86396
▁säng	-9.86398
▁reste	-9.86412
▁hörn	-9.8643
▁därutöver	-9.86446
▁bjuder	-9.86585
kast	-9.86635
▁förlåta	-9.86636
▁bästa	-9.86643
låter	-9.86866
▁Beer	-9.87063
▁hin	-9.8725
▁omtala	-9.87261
vid	-9.87366
▁räddade	-9.87426
dom	-9.87532
▁böj	-9.87656
▁sköld	-9.87699
mon	-9.87741
▁frågar	-9.8806
▁ort	-9.88064
▁rik	-9.88237
Gån	-9.88335
▁dröm	-9.88376
▁beslut	-9.88378
▁söder	-9.88379
▁Högste	-9.88395
▁Naftali	-9.88395
▁Simeon	-9.88395
▁brutit	-9.88395
▁bättring	-9.88395
▁eländig	-9.88395
▁ohelga	-9.88395
▁föremål	-9.88395
▁offereld	-9.88396
▁kring	-9.88396
▁nej	-9.88396
▁skugga	-9.88398
▁åsna	-9.88402
▁Joram	-9.88411
D	-9.88425
▁munnen	-9.8853
▁avkomlingar	-9.88554
▁märke	-9.88555
▁vis	-9.88617
▁Ke	-9.88639
▁gift	-9.88693
▁bild	-9.88804
▁fattige	-9.88805
▁förmår	-9.88818
▁missgärningar	-9.88874
▁små	-9.89304
▁kläd	-9.89356
▁vinna	-9.89541
▁förmå	-9.89643
▁vänt	-9.89644
porten	-9.89755
▁ödmjuka	-9.89916
▁bi	-9.90043
▁Na	-9.90295
▁betryck	-9.90413
▁dröj	-9.90436
▁flera	-9.90436
▁mankön	-9.90436
▁rykte	-9.90436
▁Asarja	-9.90436
▁fotstycken	-9.90436
▁plundra	-9.90437
▁halv	-9.90437
▁tjänarinna	-9.90442
▁Sodom	-9.90442
▁tjänade	-9.90492
▁Lot	-9.90499
▁klädnad	-9.90546
▁trälar	-9.90574
▁Åter	-9.90602
▁korn	-9.90648
▁domar	-9.90657
▁upplyft	-9.90658
▁sista	-9.90718
▁dörren	-9.90764
▁givet	-9.90837
▁borta	-9.91078
▁frukten	-9.91208
▁förakta	-9.91225
▁skörd	-9.91326
▁furstarna	-9.91339
▁vinden	-9.91364
▁hämtade	-9.91676
▁falsk	-9.91785
gick	-9.91971
▁stäng	-9.91996
▁ansikten	-9.92278
▁fria	-9.92385
▁andar	-9.92426
▁undfå	-9.92482
▁lösa	-9.92488
▁Ismael	-9.92519
▁bröst	-9.92519
▁iakttaga	-9.92519
▁trampa	-9.92519
▁Natan	-9.92522
▁offergåva	-9.92528
▁Asaf	-9.92605
män	-9.92842
▁rörde	-9.92933
▁fattade	-9.93046
▁överträdelser	-9.93056
▁fåren	-9.93288
▁hav	-9.93334
▁kameler	-9.93343
▁Dina	-9.9342
följde	-9.93603
▁förstår	-9.93683
▁hugg	-9.9369
föll	-9.93864
Giv	-9.93952
Ack	-9.93958
rat	-9.94329
▁antal	-9.94562
lagt	-9.94573
▁köpa	-9.94605
▁Gibea	-9.94647
▁Rakel	-9.94647
▁korsfäst	-9.94647
▁oskyldig	-9.94647
▁särskilt	-9.94647
▁Än	-9.94647
▁ihop	-9.94647
▁utvalda	-9.94647
▁övermod	-9.94648
ker	-9.94732
▁skål	-9.94748
▁antalet	-9.94777
▁orenhet	-9.94832
▁vek	-9.94871
▁Mitt	-9.94874
▁snara	-9.94878
lydande	-9.94918
▁fångar	-9.94952
▁Gör	-9.9507
▁undervisade	-9.95094
▁sker	-9.95185
▁härom	-9.95275
▁bereda	-9.95404
heten	-9.95443
▁evigheter	-9.95537
ick	-9.95552
▁sinnet	-9.95679
▁gripa	-9.95682
land	-9.95779
▁skär	-9.96006
▁förbundet	-9.96021
▁vagn	-9.96086
rade	-9.96414
▁V	-9.96496
▁Jerobeams	-9.96501
En	-9.96535
▁röra	-9.96572
▁aln	-9.96618
▁stoft	-9.96691
▁frimodig	-9.96779
▁heligt	-9.96807
▁riken	-9.96809
▁gärna	-9.96821
▁utgjuta	-9.96821
▁vålla	-9.96821
▁oxar	-9.96823
▁rev	-9.96826
▁vederfar	-9.96829
▁fred	-9.9686
▁ljusstaken	-9.96875
ölj	-9.969
▁stoftet	-9.96951
▁israeliterna	-9.96965
▁fallit	-9.97063
opp	-9.97141
▁vädur	-9.97245
▁himmel	-9.97301
männen	-9.97309
▁riket	-9.97456
▁igenom	-9.97564
▁jungfru	-9.9758
tiden	-9.97657
stod	-9.97841
▁Mo	-9.98029
▁blind	-9.98148
▁He	-9.982
▁blott	-9.98225
▁värdig	-9.98318
▁hungersnöd	-9.98345
▁vingårdar	-9.98378
▁viss	-9.98378
▁frälst	-9.98511
▁barnet	-9.98565
▁föddes	-9.98593
▁gods	-9.98725
▁vittnen	-9.98762
▁Sions	-9.98799
▁häpnad	-9.98906
▁fett	-9.98929
▁Gideon	-9.99043
▁Sebulon	-9.99043
▁blick	-9.99043
▁förvärva	-9.99043
▁sjätte	-9.99043
▁äger	-9.99043
▁hydda	-9.99043
▁övermåttan	-9.99043
▁Tänk	-9.99045
▁krönika	-9.99048
▁Sara	-9.99075
▁verkligen	-9.99089
nu	-9.99101
▁par	-9.99226
▁höjderna	-9.99282
▁dött	-9.99296
▁mjölk	-9.99336
▁ordning	-9.99434
▁tuktan	-9.9949
▁hållit	-9.9957
lopp	-9.99622
▁helgade	-9.99625
▁Gå	-10.0006
lösa	-10.0007
▁nya	-10.0015
▁altaren	-10.0021
gåvo	-10.0041
▁Ne	-10.0044
▁inmönstrades	-10.0047
▁sluta	-10.0059
satte	-10.0067
Seba	-10.0067
Må	-10.0068
▁världens	-10.0068
▁brödet	-10.0083
▁sabbat	-10.0104
▁nät	-10.0129
▁Herodes	-10.0132
▁Isaskar	-10.0132
▁Simei	-10.0132
▁templet	-10.0132
▁förbundsark	-10.0132
▁herrar	-10.0132
▁velat	-10.0132
▁berett	-10.0132
falt	-10.0132
▁mindre	-10.0132
▁blås	-10.0132
▁band	-10.0132
▁konungshuset	-10.0133
▁femte	-10.0141
▁begynnelsen	-10.015
▁svårt	-10.0166
▁vakta	-10.0176
▁högg	-10.0178
▁bestå	-10.0179
▁styrka	-10.0184
▁klippan	-10.0188
▁övergiv	-10.0204
▁främlingen	-10.0206
▁tänder	-10.0216
▁överste	-10.0222
▁voren	-10.0229
▁visar	-10.0234
min	-10.0237
je	-10.0245
▁amoréernas	-10.0267
▁döm	-10.0287
▁Di	-10.0315
▁by	-10.0325
▁störta	-10.0329
▁hjältar	-10.0337
bi	-10.0345
▁res	-10.0354
Mästare	-10.0364
▁Sakarja	-10.0364
▁arv	-10.0364
▁förhärliga	-10.0364
▁tillfälle	-10.0364
▁tjugufem	-10.0364
▁åminnelse	-10.0364
▁Balak	-10.0364
▁utbred	-10.0364
▁Judeen	-10.0364
▁mötes	-10.0366
eser	-10.0368
▁judisk	-10.0369
hål	-10.037
▁orättfärdighet	-10.0376
▁pilar	-10.0379
▁keruberna	-10.038
▁hoppas	-10.0382
▁folkslag	-10.0384
▁bredvid	-10.0398
▁tältet	-10.04
▁givas	-10.041
få	-10.0411
▁förbränna	-10.0413
▁krossade	-10.0429
rar	-10.0436
▁di	-10.0454
▁sköt	-10.0456
▁köp	-10.0458
▁tukta	-10.046
▁Ben	-10.0462
▁råder	-10.0475
▁rikt	-10.0478
▁dårar	-10.0478
▁ond	-10.0486
▁månad	-10.0509
▁U	-10.0526
offer	-10.053
▁skön	-10.0534
▁föras	-10.0556
▁länd	-10.0572
▁förtär	-10.0581
jor	-10.0583
▁barnen	-10.0583
▁borg	-10.0583
unnit	-10.0599
Lehem	-10.0602
▁Jisreel	-10.0602
▁bestämt	-10.0602
▁Benaja	-10.0602
▁alltjämt	-10.0602
▁fastmer	-10.0602
▁mörkblått	-10.0603
▁skona	-10.0603
▁Isai	-10.0604
▁skepp	-10.0611
▁skapat	-10.0628
▁slöt	-10.0656
▁bock	-10.0666
▁sl	-10.0666
Be	-10.0701
▁kärleken	-10.0711
▁stöt	-10.0718
▁ringar	-10.0737
▁sken	-10.0748
▁dödas	-10.0754
▁lotten	-10.0754
ty	-10.0773
▁dryck	-10.0777
Nej	-10.0778
▁lätt	-10.0779
▁afton	-10.078
▁bese	-10.0782
▁ingång	-10.0805
▁dalen	-10.0808
▁invånar	-10.0816
▁förfölja	-10.0841
▁Ahas	-10.0843
▁Amasja	-10.0846
▁Jojakim	-10.0846
▁Kirjat	-10.0846
▁förgjorde	-10.0846
▁tillbehör	-10.0846
▁vakna	-10.0846
▁tända	-10.0846
▁vänstra	-10.0846
▁Semaja	-10.0846
▁Silo	-10.0846
▁undervisning	-10.0846
▁Mispa	-10.0846
Hadad	-10.0847
llenast	-10.0847
▁någonsin	-10.0847
▁jubla	-10.0852
▁utskifta	-10.0854
▁plägade	-10.0872
▁ris	-10.0873
▁förmana	-10.0876
▁begraven	-10.0884
▁uppe	-10.0902
▁leda	-10.0913
▁angrip	-10.0919
▁väldiga	-10.092
▁uppenbarat	-10.0929
▁kallar	-10.093
▁lärt	-10.0941
▁inmönstrade	-10.0943
▁kvinnorna	-10.0947
▁sal	-10.0959
▁Ut	-10.0959
gå	-10.0992
huset	-10.1003
T	-10.1021
isk	-10.1023
▁flytta	-10.1028
▁trösta	-10.1066
▁gräs	-10.1074
▁väster	-10.1095
▁väv	-10.1096
▁Gilgal	-10.1096
▁hyddor	-10.1096
▁myndighet	-10.1096
▁sucka	-10.1096
▁sömn	-10.1096
▁tappra	-10.1096
▁utplåna	-10.1096
▁önska	-10.1096
▁släppa	-10.1096
▁brände	-10.1096
▁krona	-10.1096
▁drabanterna	-10.1096
▁grenar	-10.1097
▁straff	-10.1097
▁överdrag	-10.1098
▁ätit	-10.1104
▁Seir	-10.1105
par	-10.111
▁däremot	-10.1113
▁Gat	-10.1113
ikt	-10.1117
▁träden	-10.1123
▁uppfyll	-10.1128
▁Vänd	-10.1129
▁skilja	-10.1132
▁skickade	-10.1137
ock	-10.1142
▁bestämda	-10.1142
▁dragen	-10.1169
ims	-10.1178
▁Ack	-10.1178
éerna	-10.1194
▁Rama	-10.12
stånd	-10.1201
▁vete	-10.1202
▁behöva	-10.1209
drevo	-10.1225
▁behålla	-10.1227
▁evighet	-10.1268
▁slaktade	-10.1274
▁förkasta	-10.1278
Allt	-10.1284
farit	-10.1285
▁Sem	-10.1288
▁änden	-10.1291
▁Lik	-10.1299
ala	-10.13
▁människo	-10.1308
▁finge	-10.1314
▁hov	-10.1315
▁arbetet	-10.1331
▁utför	-10.1334
▁lovsång	-10.1353
▁Jesaja	-10.1353
▁Midjan	-10.1353
▁Simson	-10.1353
▁burit	-10.1353
▁fläck	-10.1353
▁svek	-10.1353
▁Under	-10.1353
▁skrev	-10.1353
▁Stor	-10.1353
▁talenter	-10.1354
▁föreskrivet	-10.1354
▁Uria	-10.1355
▁tiondedel	-10.1355
▁husfolk	-10.1368
aim	-10.1368
▁behöver	-10.1375
lät	-10.1379
▁skörda	-10.1384
▁ler	-10.139
▁förtorka	-10.1398
▁gensträviga	-10.1402
▁tjuren	-10.1413
▁förlåten	-10.1413
▁armar	-10.1416
▁rätten	-10.1423
▁rättfärdigheten	-10.143
▁vinet	-10.1431
▁härskara	-10.1434
▁uppenbarade	-10.1457
samma	-10.1462
▁Stå	-10.1465
▁kallat	-10.1468
lägga	-10.147
▁begärde	-10.1472
▁brunnen	-10.1474
▁löften	-10.1499
▁själar	-10.1506
▁Ram	-10.1513
▁Ana	-10.1523
▁aktade	-10.1523
ban	-10.1539
bliv	-10.1546
▁bockar	-10.1548
▁förskräckt	-10.1562
▁klädd	-10.1562
▁utgå	-10.1567
▁linne	-10.1598
▁prov	-10.1602
▁förlåt	-10.1613
▁besvär	-10.1616
▁Hesbon	-10.1616
▁anklaga	-10.1616
▁bådo	-10.1616
▁ihjäl	-10.1616
▁ungtjur	-10.1616
▁överallt	-10.1616
▁gudstjänst	-10.1616
▁begjut	-10.1616
▁tvist	-10.1616
▁känt	-10.1616
▁aska	-10.1616
▁röd	-10.1617
▁tredjedel	-10.1621
▁härefter	-10.1626
▁ogudaktighet	-10.1629
▁källa	-10.1634
taga	-10.1634
▁Vår	-10.164
▁Tala	-10.1647
▁höjder	-10.1649
▁dömer	-10.165
▁ädla	-10.1654
▁Konungen	-10.1666
▁ovän	-10.1683
▁fattig	-10.1689
▁hugga	-10.1707
▁riv	-10.1708
▁översten	-10.1711
▁skriften	-10.1715
▁allting	-10.1718
▁färd	-10.172
▁plantera	-10.1722
▁amoréerna	-10.1728
▁Dan	-10.1735
▁stena	-10.1737
▁räknas	-10.1738
▁efterfölj	-10.1751
▁fattas	-10.1759
▁nitälskan	-10.1765
▁Ai	-10.1772
▁grip	-10.1781
▁klaga	-10.1785
▁uppfylla	-10.1792
▁höjd	-10.1799
▁tröst	-10.1809
▁förvandla	-10.1811
▁förvara	-10.1814
▁överträdelse	-10.1818
skild	-10.1818
▁sy	-10.1824
▁tronen	-10.1836
▁frisk	-10.1836
▁envar	-10.1841
▁räck	-10.1846
sätta	-10.185
▁hedningar	-10.1854
▁intog	-10.1881
▁överflöd	-10.1883
▁Kaleb	-10.1886
▁betyga	-10.1886
▁gärd	-10.1886
▁upphöjd	-10.1886
▁äktenskapsbrott	-10.1886
▁även	-10.1886
▁anförare	-10.1886
▁skräck	-10.1886
▁vapen	-10.1886
▁krets	-10.1886
▁femton	-10.1886
▁Satan	-10.1886
▁dy	-10.1887
▁Sinai	-10.1887
▁Hamat	-10.1889
▁Ahasja	-10.189
▁buk	-10.1891
▁anslag	-10.1891
▁trygghet	-10.1892
▁växte	-10.1893
▁apostlarna	-10.1902
▁gälla	-10.1919
▁hel	-10.1922
▁böner	-10.1935
▁besatt	-10.1968
mått	-10.197
▁bota	-10.1971
▁ko	-10.1976
▁visst	-10.1976
▁djuren	-10.2
▁domen	-10.2019
▁drev	-10.2022
väpnade	-10.2045
E	-10.206
▁lyssnade	-10.2068
folk	-10.208
färd	-10.2089
R	-10.2095
Sannerligen	-10.2095
Denne	-10.21
▁fullbordas	-10.2109
▁ungdom	-10.2124
kri	-10.2126
▁palats	-10.2133
hålla	-10.214
▁vred	-10.2146
▁grät	-10.2153
landet	-10.2155
▁beläten	-10.2161
undrade	-10.2163
jär	-10.2163
▁tjuv	-10.2164
▁Assur	-10.2164
▁Gibeon	-10.2164
▁buga	-10.2164
▁efoden	-10.2164
▁förskräcka	-10.2164
▁längd	-10.2164
▁plötslig	-10.2164
▁svärdsegg	-10.2164
▁tjänstekvinna	-10.2164
▁värn	-10.2164
▁Merari	-10.2164
▁blygas	-10.2164
▁lemmar	-10.2164
▁himlar	-10.2164
▁vänster	-10.2164
▁skaror	-10.2164
▁livklädnad	-10.2165
▁lysa	-10.2166
▁rum	-10.217
▁Vidare	-10.2172
▁framgent	-10.2174
▁utgöra	-10.2177
▁tjänaren	-10.2188
▁lustgård	-10.223
abb	-10.2237
▁ovan	-10.226
▁böjde	-10.2268
▁uppstod	-10.2271
▁förakt	-10.2295
▁sjuka	-10.2296
▁kaldéernas	-10.2298
▁tänk	-10.23
▁vista	-10.2302
▁bredd	-10.2313
kam	-10.232
hövitsmännen	-10.2331
▁därjämte	-10.2332
innes	-10.2341
Säg	-10.2381
Icke	-10.2381
När	-10.2382
städer	-10.2382
såg	-10.2384
jud	-10.239
▁tack	-10.2398
▁börda	-10.2401
▁korg	-10.2413
▁stöd	-10.2415
▁följ	-10.2425
▁svär	-10.2425
▁stån	-10.2435
▁skriva	-10.2443
▁budskap	-10.2443
▁gläd	-10.2447
é	-10.2448
▁bitter	-10.2449
▁Sydlandet	-10.2449
▁flickan	-10.2449
▁gräv	-10.2449
▁tabernakel	-10.2449
▁trött	-10.2449
▁yttre	-10.2449
▁åttonde	-10.2449
▁förklara	-10.2449
▁Sihon	-10.245
▁utvalde	-10.245
▁famn	-10.245
▁fromma	-10.245
▁visdom	-10.2451
▁brinnande	-10.2452
▁cederträ	-10.2457
▁fältet	-10.2458
▁Esaus	-10.2459
▁stjärnorna	-10.2459
▁storligen	-10.246
▁märkt	-10.2461
▁tåg	-10.2461
▁söners	-10.2467
▁hemma	-10.2468
▁ryckte	-10.2468
▁måst	-10.2475
▁båten	-10.2489
▁andarna	-10.2496
▁förskräckta	-10.2513
▁djupet	-10.2519
▁flytt	-10.2544
▁skjuta	-10.2552
▁M	-10.257
▁trolösa	-10.2576
▁fötterna	-10.2588
▁glad	-10.2592
▁utrotas	-10.2597
syn	-10.2597
lad	-10.2598
ägg	-10.2605
▁förståndig	-10.261
▁Dans	-10.2621
▁Gileads	-10.2623
▁bygg	-10.2632
igenom	-10.2654
▁alls	-10.2656
▁stänk	-10.2674
▁Sin	-10.2677
▁bund	-10.2684
▁hud	-10.2687
lek	-10.2704
▁skicka	-10.2711
▁pläga	-10.2713
▁Ahabs	-10.272
▁Över	-10.2723
▁lidande	-10.2724
▁orättfärdig	-10.2729
▁trygg	-10.2737
▁åttio	-10.2744
▁rosenrö	-10.2744
▁offergärd	-10.2744
▁Filippus	-10.2744
▁Hilkia	-10.2744
▁förhäv	-10.2744
▁oomskurna	-10.2744
▁vrång	-10.2744
▁ägodelar	-10.2744
▁årsgam	-10.2744
▁tårar	-10.2744
▁ådrag	-10.2744
▁förströ	-10.2744
▁stolpar	-10.2744
▁vandel	-10.2744
▁osyrade	-10.2746
▁avund	-10.2746
▁fordom	-10.2746
▁Abia	-10.2747
▁molnskyn	-10.2752
▁skrivit	-10.2752
▁härpå	-10.2753
▁uppstått	-10.2756
▁förneka	-10.2761
▁yttersta	-10.2762
▁sålde	-10.2765
▁vilddjuret	-10.2767
B	-10.2769
▁handla	-10.2769
▁nå	-10.2772
ödra	-10.2774
▁förtrösta	-10.2776
▁torn	-10.2782
▁Vilk	-10.2789
fat	-10.2792
▁ring	-10.2811
▁Lea	-10.2819
▁tillstädes	-10.2824
▁härliga	-10.2826
▁leder	-10.2831
▁ät	-10.2849
▁fienden	-10.2852
▁väduren	-10.286
▁blinda	-10.2864
▁ensam	-10.2874
Har	-10.2879
▁begrava	-10.288
▁Kis	-10.2886
▁Jojada	-10.2887
under	-10.2887
▁kort	-10.2896
▁drive	-10.2901
sak	-10.2903
▁höger	-10.2903
▁ha	-10.2915
▁fatta	-10.2931
▁ru	-10.294
tjänar	-10.2957
larna	-10.2965
luktande	-10.2966
näst	-10.2978
djur	-10.2978
Här	-10.2978
tåg	-10.2979
Nu	-10.298
▁lämnat	-10.2981
▁gensträvig	-10.2989
▁styr	-10.2991
▁stenen	-10.2998
lyft	-10.3001
▁oxe	-10.3006
rop	-10.3009
▁Ahi	-10.3015
▁gråta	-10.3029
▁barmhärtig	-10.3041
▁fåfäng	-10.3043
▁Johanan	-10.3047
▁Nebukadressar	-10.3047
▁bedjen	-10.3047
▁efterkommande	-10.3047
▁förnämsta	-10.3047
▁förstfött	-10.3047
▁gräshoppor	-10.3047
▁moderlivet	-10.3047
▁nalkas	-10.3047
▁visserligen	-10.3047
▁ägde	-10.3047
▁fresta	-10.3047
▁frivillig	-10.3047
▁Kehat	-10.3047
▁befallde	-10.3047
▁hindra	-10.3048
▁kanhända	-10.3048
▁nionde	-10.3051
▁förmer	-10.3052
▁säll	-10.3054
▁baner	-10.3065
▁grepo	-10.3066
▁måltid	-10.3068
▁rygg	-10.3073
▁härifrån	-10.3073
▁förtröstar	-10.3094
▁mätt	-10.3096
över	-10.31
▁stridsmän	-10.31
▁Sådan	-10.3105
▁huden	-10.311
▁upptecknade	-10.3115
▁Ki	-10.3124
▁bordet	-10.3127
▁brus	-10.3129
samt	-10.314
▁tung	-10.3145
▁tyg	-10.3147
▁sköldar	-10.3154
▁övergiva	-10.3167
▁oförnuftig	-10.3169
▁guldet	-10.3196
▁skor	-10.3215
sätt	-10.3218
▁dyrbara	-10.3222
▁Ba	-10.3223
pi	-10.3226
▁beskär	-10.3228
Sa	-10.3228
son	-10.323
▁Baals	-10.3233
▁bjud	-10.3263
▁övertäck	-10.3263
▁förkunnat	-10.327
▁träng	-10.328
plats	-10.329
det	-10.3292
stycke	-10.3296
▁hopen	-10.3298
▁bestämd	-10.3301
▁rika	-10.3305
stodo	-10.3306
▁överstepräst	-10.3307
▁räddat	-10.3329
▁Herres	-10.3337
▁begrov	-10.3349
▁Hor	-10.3351
dräkt	-10.3358
▁Gedalja	-10.3359
▁Rebecka	-10.3359
▁djävulen	-10.3359
▁fylla	-10.3359
▁gröda	-10.3359
▁örn	-10.3359
▁motståndare	-10.3359
▁ditned	-10.3359
▁stridbara	-10.3359
▁släppt	-10.3359
▁sträng	-10.3359
▁Dag	-10.336
▁uppenbarelse	-10.336
▁sorgdräkt	-10.336
▁fira	-10.336
▁egendom	-10.3361
▁angår	-10.3362
▁lovligt	-10.3366
mak	-10.337
▁Ka	-10.3371
▁beslutit	-10.3374
▁fästa	-10.3379
▁fränder	-10.3379
▁Al	-10.3381
kaka	-10.3385
▁ögonen	-10.3387
uja	-10.3391
▁uträckt	-10.3392
▁möta	-10.3394
▁botade	-10.3395
▁Do	-10.34
▁Ti	-10.3405
▁vedergälla	-10.3407
▁änglarna	-10.3417
▁olyckan	-10.342
▁tränga	-10.3427
▁ändar	-10.343
▁knän	-10.3434
▁bräder	-10.3436
▁frälsta	-10.3445
▁åkern	-10.3445
▁straffas	-10.3476
led	-10.3485
▁dagg	-10.3496
▁dyrbar	-10.3498
▁oljan	-10.3505
▁förgäta	-10.3505
▁näst	-10.3511
▁syndar	-10.3514
▁fånge	-10.3531
▁värd	-10.3541
▁Sonen	-10.3546
▁tjän	-10.355
▁strå	-10.3563
▁liknelse	-10.357
▁förkunnar	-10.3572
▁begå	-10.358
▁spå	-10.3586
▁månen	-10.3595
emot	-10.3609
G	-10.361
bud	-10.3611
▁skriv	-10.3615
▁snö	-10.3621
▁hemsökelse	-10.3624
▁uttala	-10.3635
▁leviternas	-10.3647
▁Ham	-10.3656
▁pryd	-10.3659
▁Edoms	-10.3678
▁döpa	-10.368
▁Ahasveros	-10.3682
▁Ytterligare	-10.3682
▁aderton	-10.3682
▁avfällighet	-10.3682
▁avkomma	-10.3682
▁bägare	-10.3682
▁fullkomlig	-10.3682
▁längta	-10.3682
▁purpurrött	-10.3682
▁påskhögtid	-10.3682
▁sköka	-10.3682
▁stötesten	-10.3682
▁svurit	-10.3682
▁tillbådo	-10.3682
▁tillsyningsmän	-10.3682
▁utväljer	-10.3682
▁västra	-10.3682
▁täckelse	-10.3682
▁darra	-10.3682
▁dyrka	-10.3682
▁fruktansvärd	-10.3682
▁arter	-10.3682
▁Sidon	-10.3682
▁likaså	-10.3682
▁raka	-10.3683
▁beståndande	-10.3683
▁gap	-10.3683
▁grop	-10.3686
▁österut	-10.3687
▁försynda	-10.3687
går	-10.369
▁säck	-10.3703
▁däröver	-10.3704
▁förtälja	-10.3707
▁borde	-10.3708
▁Elias	-10.3713
▁sjunga	-10.3715
▁förhus	-10.3719
▁oför	-10.3724
▁sörja	-10.3731
▁lärjunge	-10.3732
▁kammare	-10.374
ron	-10.3759
▁överträd	-10.3764
▁salt	-10.3765
▁hölj	-10.3773
▁portarna	-10.3777
▁sjö	-10.3797
▁sälja	-10.3801
▁lösen	-10.3815
▁ljuvlig	-10.3819
▁stigar	-10.3841
▁dåre	-10.3842
gör	-10.3845
nne	-10.3851
▁kaldéerna	-10.3861
▁högre	-10.3861
▁dagarna	-10.3862
▁yngling	-10.3863
▁välsignat	-10.3869
▁Seba	-10.3875
bild	-10.3876
▁muns	-10.3918
Drag	-10.3946
kärl	-10.3946
▁färdig	-10.3947
▁sol	-10.3949
▁betala	-10.396
▁vandrat	-10.3961
▁sabbater	-10.3963
▁förskingra	-10.3975
Välan	-10.3982
▁herdar	-10.3985
Hören	-10.3995
▁Ebjatar	-10.4015
▁bekymmer	-10.4015
▁bönhör	-10.4015
▁dödsklagan	-10.4015
▁föräldrar	-10.4015
▁göt	-10.4015
▁hungrig	-10.4015
▁sabbatsdagen	-10.4015
▁samvete	-10.4015
▁ståthållare	-10.4015
▁yngre	-10.4015
▁Jefta	-10.4015
▁Safan	-10.4015
▁betyda	-10.4015
▁fostr	-10.4015
▁vattna	-10.4015
▁Obed	-10.4015
▁tillstadde	-10.4015
▁befallt	-10.4015
▁insikt	-10.4015
▁dåraktig	-10.4017
▁utropa	-10.4017
▁berömmelse	-10.4019
▁orenlighet	-10.4019
▁Saba	-10.4019
▁redliga	-10.4021
▁sångarna	-10.4029
▁lögnaktig	-10.4029
▁oro	-10.4031
▁förstöra	-10.4033
▁sträcka	-10.404
▁dricker	-10.404
▁änkor	-10.4043
▁framgång	-10.4045
▁skapade	-10.4046
▁förordna	-10.405
▁torka	-10.4061
sju	-10.4072
▁förvar	-10.409
▁förkastat	-10.409
▁länderna	-10.41
makt	-10.4107
▁förbida	-10.4108
▁avstånd	-10.4111
▁sökt	-10.4124
▁und	-10.4132
▁hårt	-10.4147
▁vård	-10.4147
▁syner	-10.4149
▁bada	-10.4149
cka	-10.4156
▁norra	-10.4167
▁broders	-10.4169
▁larm	-10.4183
▁högtids	-10.4214
▁kalv	-10.422
visa	-10.422
▁vanlig	-10.4236
▁Jona	-10.4238
▁svarar	-10.4239
▁jungfrur	-10.424
▁eviga	-10.4268
▁beskärm	-10.4272
Gör	-10.4291
▁sörj	-10.4299
▁felfri	-10.4301
▁förste	-10.4325
▁dörrar	-10.4353
▁upptänd	-10.4355
▁Lammet	-10.436
▁brokig	-10.436
▁löv	-10.436
▁räddning	-10.436
▁tacksägelse	-10.436
▁ömka	-10.436
▁öppet	-10.436
▁säker	-10.436
▁brud	-10.436
▁Hananja	-10.436
▁åstunda	-10.436
▁----	-10.436
▁locka	-10.436
▁dårskap	-10.436
▁förjaga	-10.436
▁räkning	-10.436
▁funne	-10.436
▁pant	-10.436
▁tanke	-10.4361
▁döpt	-10.4362
allel	-10.4362
▁änka	-10.4364
▁vaka	-10.4365
▁dråpare	-10.4366
▁Ditt	-10.4366
▁flyter	-10.4367
▁skaka	-10.4367
▁flyga	-10.438
summa	-10.4386
▁Att	-10.4394
▁tillsade	-10.4395
lys	-10.4396
▁svart	-10.4398
▁Rö	-10.4402
▁nio	-10.4407
▁begår	-10.4413
▁småboskapen	-10.4415
▁Skall	-10.4419
▁fågel	-10.4422
▁meddela	-10.4423
▁gjuta	-10.4426
▁handlat	-10.4428
▁gjorda	-10.4429
▁behöv	-10.4435
▁vita	-10.4443
»?	-10.4453
▁prisade	-10.446
▁predikade	-10.4465
▁utrotade	-10.4475
▁tillhörde	-10.4479
▁starkt	-10.4513
▁förstod	-10.4529
▁tjänar	-10.4533
▁stöta	-10.4554
▁boken	-10.4556
▁menar	-10.4585
▁skog	-10.4601
▁benen	-10.4607
▁sjukdom	-10.4615
▁gjut	-10.4629
▁hednafolk	-10.4635
▁skrift	-10.4643
▁röva	-10.4648
höll	-10.4648
▁gärning	-10.4662
▁häpna	-10.4667
▁vilddjur	-10.4689
▁Ur	-10.4692
▁anställ	-10.4692
▁häst	-10.47
▁Barnabas	-10.4717
▁Tarsis	-10.4717
▁akacieträ	-10.4717
▁assyrisk	-10.4717
▁bespeja	-10.4717
▁elände	-10.4717
▁förblev	-10.4717
▁kryddor	-10.4717
▁lyckosam	-10.4717
▁plågor	-10.4717
▁uppsluka	-10.4717
▁växer	-10.4717
▁äkta	-10.4717
▁gamle	-10.4717
▁Baesa	-10.4717
▁jämra	-10.4717
▁himmelriket	-10.4717
▁grönska	-10.4718
▁jebuséerna	-10.4718
anska	-10.4718
▁tak	-10.4719
▁skuldoffer	-10.4719
▁drömmen	-10.4719
▁faderlöse	-10.4719
▁skrivelse	-10.4719
▁mängd	-10.4719
▁Kades	-10.472
▁fördrag	-10.472
▁delaktig	-10.4721
▁lin	-10.4723
▁sekreteraren	-10.4729
▁förtäljde	-10.4731
▁överdrog	-10.4733
▁Hur	-10.4734
▁intaga	-10.4736
▁personer	-10.4741
▁berättat	-10.4741
▁betänk	-10.4741
▁synes	-10.4741
▁söken	-10.475
given	-10.4769
▁Lova	-10.4771
kol	-10.4771
▁Väl	-10.4773
▁synagog	-10.4774
▁Ussia	-10.4775
▁fullbordan	-10.4777
▁finger	-10.4778
▁består	-10.4785
ett	-10.4798
▁sköna	-10.481
▁mäktiga	-10.482
▁Jesua	-10.4861
▁uppehåll	-10.4863
▁Josias	-10.4873
▁klädde	-10.4885
▁köpt	-10.4889
▁profeterade	-10.4905
▁talrika	-10.4906
Hel	-10.4924
▁fisk	-10.4924
▁Josia	-10.4928
▁Sam	-10.4928
▁känd	-10.4928
▁utstå	-10.4939
anför	-10.4951
▁fatt	-10.4954
▁bespottar	-10.4961
▁besök	-10.4967
kommer	-10.4976
▁förtörna	-10.4978
lämna	-10.4991
Kommen	-10.502
▁tjänstgöring	-10.5026
▁mörk	-10.5057
▁Åt	-10.5057
▁gator	-10.5068
ldrig	-10.5087
▁Amalek	-10.5087
▁Amnon	-10.5087
▁Häls	-10.5087
▁Sallum	-10.5087
▁begynna	-10.5087
▁fyrfotadjur	-10.5087
▁hämna	-10.5087
▁kedjor	-10.5087
▁omstörta	-10.5087
▁psaltare	-10.5087
▁upphöja	-10.5087
▁upphöjt	-10.5087
▁ögonblick	-10.5087
▁panna	-10.5087
sinnig	-10.5087
▁anseende	-10.5087
▁pund	-10.5088
▁konst	-10.5088
▁fångna	-10.5088
▁förtörnade	-10.5088
▁framåt	-10.5088
▁naken	-10.5089
▁Soba	-10.509
▁Samma	-10.5092
▁förföljare	-10.5095
ryta	-10.51
▁svår	-10.5103
▁An	-10.5104
▁dörrarna	-10.5112
▁härtill	-10.5119
▁skriver	-10.5123
▁väggen	-10.5123
▁heta	-10.5124
Far	-10.5129
▁andan	-10.5133
▁Upp	-10.5143
▁stått	-10.5149
▁hemsökelsen	-10.5155
▁bott	-10.5156
▁avdelningar	-10.5158
kon	-10.516
▁befallningar	-10.516
Frukta	-10.5161
▁äten	-10.5164
▁spar	-10.5174
▁svag	-10.5178
▁behåll	-10.5179
▁behövde	-10.5186
▁täckes	-10.5188
▁fängelset	-10.5197
▁gravar	-10.5197
▁onde	-10.5232
▁rad	-10.5234
▁van	-10.5248
vikit	-10.5269
▁högtider	-10.5288
▁strömma	-10.529
▁kvarleva	-10.5316
▁sakna	-10.5316
Frukt	-10.5321
ias	-10.5325
▁bryt	-10.5328
gått	-10.5334
▁löpa	-10.5339
träde	-10.5346
▁behaga	-10.5374
▁svaga	-10.5375
O	-10.5396
▁vedergäll	-10.5397
kammare	-10.5404
▁begärelse	-10.5405
sex	-10.5405
▁småboskap	-10.5411
▁sänd	-10.5419
▁räddar	-10.542
▁pil	-10.5448
▁anda	-10.5459
▁Bättre	-10.5472
▁Karmel	-10.5472
▁drucko	-10.5472
▁fördenskull	-10.5472
▁lovsjunga	-10.5472
▁nådastolen	-10.5472
▁ofruktsam	-10.5472
▁stormvind	-10.5472
▁svärfader	-10.5472
▁vattnen	-10.5472
▁vederkvick	-10.5472
▁Baruk	-10.5472
▁betjäna	-10.5472
▁förmörka	-10.5472
▁hellre	-10.5472
▁innersta	-10.5472
▁legat	-10.5472
▁Tamar	-10.5472
▁fördold	-10.5472
▁förstocka	-10.5472
▁Manasses	-10.5472
▁syntes	-10.5472
▁försåt	-10.5473
▁förvilla	-10.5473
▁Esra	-10.5473
▁förlita	-10.5474
▁tjugufyra	-10.5474
▁drömmar	-10.5474
▁västerut	-10.5475
Skaff	-10.5475
▁jämn	-10.5477
Intet	-10.5478
▁form	-10.5479
▁Elam	-10.548
▁budbärare	-10.5481
▁intogo	-10.5487
▁rening	-10.5491
▁godhet	-10.5492
▁Adonia	-10.5494
▁utkräva	-10.5503
▁bedriva	-10.5506
▁herdarna	-10.5507
▁lärare	-10.5508
▁talen	-10.5512
▁följer	-10.5513
▁njuta	-10.5514
▁filistéen	-10.5515
▁kära	-10.5517
▁hjältarna	-10.5517
▁binda	-10.5519
▁bete	-10.5519
▁övergåvo	-10.5522
▁behagade	-10.5524
▁saken	-10.553
▁trumpeter	-10.5535
▁bleve	-10.5537
tligen	-10.5537
▁penningarna	-10.5552
▁mal	-10.5556
▁falskt	-10.5579
▁ljuda	-10.5584
▁fullbordat	-10.5587
▁ordspråk	-10.5588
▁befäst	-10.561
▁hjorden	-10.5624
▁företag	-10.5624
▁begrav	-10.5628
▁högtiden	-10.5629
▁strö	-10.5632
▁visheten	-10.5653
▁hjordar	-10.5668
▁fördärvade	-10.5696
slöto	-10.574
▁kal	-10.5741
▁drick	-10.5762
▁frambär	-10.5784
▁ansiktet	-10.5792
▁avdelning	-10.5797
▁salig	-10.5798
skrift	-10.5803
lust	-10.5806
mannen	-10.5808
▁trakt	-10.5811
Eftersom	-10.5812
▁Gån	-10.5814
▁Asas	-10.5823
må	-10.5826
▁ångra	-10.5828
▁hövdingdöme	-10.584
▁uppståndelse	-10.584
▁fjorton	-10.5841
▁bedrövad	-10.5848
▁styrk	-10.5854
don	-10.5855
▁fikonträd	-10.5859
▁Mesullam	-10.5872
▁Nasaret	-10.5872
▁Pinehas	-10.5872
▁Samarien	-10.5872
▁berättelse	-10.5872
▁bälte	-10.5872
▁helgedomssik	-10.5872
▁kejsaren	-10.5872
▁misskund	-10.5872
▁plundring	-10.5872
▁uträcka	-10.5872
▁äventyr	-10.5872
▁hjälte	-10.5872
▁Arnon	-10.5872
▁Nebat	-10.5872
▁heder	-10.5872
▁pelarna	-10.5872
▁damm	-10.5872
▁Boas	-10.5872
▁skipa	-10.5872
▁betalning	-10.5872
▁förödelse	-10.5872
syssla	-10.5872
▁spisoffret	-10.5872
▁Nåd	-10.5873
▁tackoffret	-10.5873
▁hetta	-10.5873
▁hövitsmannen	-10.5874
▁stolta	-10.5875
▁hetiterna	-10.5875
▁Seraja	-10.5875
▁svärja	-10.5877
aga	-10.5884
▁Fördenskull	-10.5885
▁ståndaktighet	-10.5888
▁församlingarna	-10.5888
▁dörr	-10.5888
▁Förbannad	-10.589
▁närmaste	-10.5893
▁hårda	-10.5895
▁hy	-10.5899
▁stående	-10.5906
▁pelare	-10.5908
▁bortförd	-10.5912
▁underdåniga	-10.5914
▁uppfyllda	-10.5918
▁frälste	-10.592
▁Ahia	-10.5922
▁givna	-10.5923
▁fåglarna	-10.5935
▁like	-10.5951
▁väsendena	-10.5957
▁hednafolken	-10.5965
▁djuret	-10.5984
▁vagnen	-10.5986
▁avgud	-10.5999
▁skogen	-10.6004
▁stång	-10.6008
▁överlämnade	-10.6016
▁uppfylldes	-10.6033
▁hänga	-10.6033
Saliga	-10.6043
▁fräls	-10.6049
▁långa	-10.6116
▁oförnuft	-10.6122
nam	-10.6155
▁hustrun	-10.6159
Hör	-10.6159
▁uppfyllde	-10.6196
▁härlig	-10.6202
▁räknade	-10.6205
▁tjänat	-10.6206
▁gäll	-10.6207
▁svåra	-10.6208
mmel	-10.621
vänt	-10.6213
▁arme	-10.6217
Frå	-10.622
▁sist	-10.6235
▁breda	-10.624
▁föreståndar	-10.6243
▁kerub	-10.6256
mus	-10.6262
▁uppväckt	-10.6263
▁Konung	-10.6264
▁sov	-10.6266
▁israeliter	-10.6267
▁bords	-10.6268
▁fält	-10.6276
▁räd	-10.6283
anhända	-10.6286
▁tavlor	-10.6289
Folket	-10.6289
ngalunda	-10.6289
▁Darejaves	-10.6289
▁Joahas	-10.6289
▁Lakis	-10.6289
▁Serujas	-10.6289
▁Timoteus	-10.6289
▁bröllop	-10.6289
▁drack	-10.6289
▁förgrymmelse	-10.6289
▁förgäves	-10.6289
▁försvinna	-10.6289
▁smädelse	-10.6289
▁söt	-10.6289
▁tecknet	-10.6289
▁tjugutvå	-10.6289
▁trångmål	-10.6289
▁upphäva	-10.6289
▁vandren	-10.6289
▁viftoffer	-10.6289
▁åkrar	-10.6289
▁örter	-10.6289
▁längs	-10.6289
▁tretton	-10.6289
▁Kores	-10.6289
▁fräck	-10.6289
▁Jotam	-10.6289
▁sexton	-10.6289
▁siare	-10.6289
▁kränk	-10.6289
Håll	-10.6289
▁vilda	-10.6289
▁harpor	-10.6289
▁torg	-10.6289
▁feta	-10.6289
▁Jabes	-10.629
▁förmådde	-10.629
▁vinner	-10.629
▁rådslag	-10.6293
Frid	-10.6293
▁skändlighet	-10.6295
▁arma	-10.6297
▁bojor	-10.6297
▁hemfall	-10.6299
▁Abel	-10.6301
▁upphörde	-10.6303
▁timmen	-10.6308
gåva	-10.631
▁fiskarna	-10.6311
▁Först	-10.6312
▁bävan	-10.6316
▁fjortonde	-10.6321
▁himmelska	-10.6322
▁fördärvlig	-10.6326
▁höjde	-10.6326
▁harpa	-10.6329
▁drivit	-10.6335
▁druvor	-10.634
▁Bort	-10.6344
▁ungdoms	-10.6351
▁störtade	-10.6352
▁felfria	-10.636
gent	-10.6365
▁Sera	-10.6367
▁följt	-10.6371
▁aga	-10.6372
▁Drag	-10.6376
▁Lika	-10.6396
▁frälsar	-10.6415
▁begära	-10.6421
▁bedrev	-10.6435
▁hemsökt	-10.6448
▁förskjut	-10.6464
▁Kom	-10.6475
▁älsk	-10.649
▁fäll	-10.6492
▁älskat	-10.6504
▁Jojadas	-10.6514
▁baka	-10.6537
Herren	-10.6537
éernas	-10.6556
▁tände	-10.6563
'?	-10.6563
▁törst	-10.6593
▁ikläd	-10.6633
gjort	-10.6654
▁förstling	-10.6662
lott	-10.6662
▁båt	-10.6663
▁förtal	-10.6668
▁bedraga	-10.6677
▁förgör	-10.6683
dalen	-10.6688
▁begynnelse	-10.6688
▁vårda	-10.6704
▁fikon	-10.6723
Sätt	-10.6723
Träd	-10.6723
▁Ekron	-10.6723
▁Gomorra	-10.6723
▁Jäm	-10.6723
▁Maaseja	-10.6723
▁arbets	-10.6723
▁dörrvaktarna	-10.6723
▁egyptisk	-10.6723
▁förhärja	-10.6723
▁granatäpple	-10.6723
▁hebreisk	-10.6723
▁killing	-10.6723
▁osyrat	-10.6723
▁pelarhuvud	-10.6723
▁saktmod	-10.6723
▁sammalunda	-10.6723
▁tolfte	-10.6723
▁tröskel	-10.6723
▁utgjutit	-10.6723
▁utseende	-10.6723
▁värre	-10.6723
▁ämbete	-10.6723
▁öppning	-10.6723
▁flöda	-10.6723
▁tjock	-10.6723
▁Frälsare	-10.6723
2	-10.6723
▁spetsen	-10.6723
▁förfärdiga	-10.6723
▁Hasael	-10.6723
▁kungjor	-10.6724
▁uppsikt	-10.6724
▁skägg	-10.6726
▁Kain	-10.6726
▁list	-10.6727
▁söderut	-10.6727
▁dans	-10.6728
girig	-10.6729
▁stum	-10.6729
▁hörsamma	-10.6729
▁undfått	-10.6732
▁bedrivit	-10.6733
▁kännen	-10.6736
▁grottan	-10.6737
▁Mång	-10.6739
▁taket	-10.674
▁smörja	-10.674
▁låd	-10.6742
▁skinn	-10.6743
▁sanden	-10.6744
▁fog	-10.6751
▁övermäktiga	-10.6763
▁stänger	-10.6766
▁stranden	-10.6777
▁Given	-10.678
▁ormen	-10.678
▁Vill	-10.678
▁brett	-10.6781
▁torra	-10.6782
▁når	-10.6789
▁bredde	-10.6794
▁tjänstgöringen	-10.6796
▁uppväckte	-10.6804
▁Frukta	-10.6809
▁näpst	-10.6822
▁fästen	-10.6823
Semes	-10.6826
▁förvandlade	-10.6846
▁fördärvet	-10.6853
▁ägare	-10.6865
▁väntade	-10.6878
▁därur	-10.6882
▁gränser	-10.6895
▁kvarlevan	-10.6903
▁lärde	-10.691
ahat	-10.6911
▁hjälper	-10.6916
▁dräp	-10.6919
▁understöd	-10.6919
▁uppstår	-10.6921
▁ynglingar	-10.6927
▁utfärda	-10.6931
▁församlat	-10.6931
▁tillräkna	-10.6942
▁kläderna	-10.6946
tiotvå	-10.6953
▁fälla	-10.6966
▁All	-10.6996
mur	-10.7021
▁torr	-10.706
▁fångenskapen	-10.7062
▁val	-10.707
▁altar	-10.7072
▁dåren	-10.7102
fyra	-10.7108
Lova	-10.7109
gift	-10.711
gingo	-10.711
Vilk	-10.7111
Oc	-10.7111
Skall	-10.7113
▁store	-10.7116
▁bäst	-10.712
▁hasta	-10.7143
nio	-10.7149
▁grep	-10.715
▁offerhöjder	-10.7158
▁ståndaktig	-10.7171
skaffen	-10.7178
▁Esaias	-10.7178
▁Macedonien	-10.7178
▁Makir	-10.7178
▁Nabal	-10.7178
▁allraheligaste	-10.7178
▁anskaffa	-10.7178
▁antända	-10.7178
▁begrunda	-10.7178
▁blodskuld	-10.7178
▁bokrulle	-10.7178
▁hungra	-10.7178
▁näsa	-10.7178
▁omkull	-10.7178
▁perisséerna	-10.7178
▁silvret	-10.7178
▁sysslor	-10.7178
▁sålunda	-10.7178
▁tjänarinnor	-10.7178
▁bakhåll	-10.7178
▁natur	-10.7178
▁glans	-10.7178
▁ammonit	-10.7178
▁tvag	-10.7178
▁försvara	-10.7178
▁Susan	-10.7178
▁klagorop	-10.7178
▁grundvalar	-10.7178
▁log	-10.7178
▁miste	-10.7178
▁Gasa	-10.7178
▁dold	-10.7178
▁elva	-10.7178
▁kind	-10.7179
▁Likaledes	-10.7179
▁svin	-10.7179
tvinna	-10.7179
▁smaka	-10.7179
▁skydd	-10.7179
▁Amos	-10.7179
▁tillbad	-10.718
▁bördig	-10.7181
▁ull	-10.7181
▁rådslut	-10.7183
▁ersättning	-10.7184
▁duvor	-10.7184
▁synagogan	-10.7186
▁Säll	-10.7186
▁olik	-10.7188
▁Hela	-10.7194
▁föder	-10.7198
▁vedergällning	-10.7198
▁Hos	-10.7199
▁ständigt	-10.7201
▁gjutna	-10.7203
▁omskurna	-10.7204
▁leviten	-10.7205
▁upphöra	-10.7207
▁starkare	-10.7209
▁hängde	-10.721
▁Dess	-10.721
▁likadan	-10.7212
▁stadsporten	-10.7212
▁uppmana	-10.7214
▁angripna	-10.7215
▁sjunka	-10.7215
jon	-10.7215
▁konungadömet	-10.7217
lydnad	-10.722
▁kanten	-10.7226
arbete	-10.7229
▁godo	-10.7236
▁frihet	-10.7241
▁Og	-10.7243
▁köpte	-10.7248
bryter	-10.7257
▁begärelser	-10.7264
▁bjuda	-10.7265
inner	-10.7266
▁väldige	-10.7269
▁änkan	-10.7274
▁förbannelser	-10.7283
▁Su	-10.7286
▁påbud	-10.7288
▁hat	-10.7292
▁tjur	-10.7298
▁Amen	-10.7306
▁försyn	-10.7312
▁Koras	-10.7318
▁lejonet	-10.7338
▁skänk	-10.7345
▁bergsbygden	-10.7355
kunniga	-10.7358
löst	-10.736
▁noga	-10.7364
ledning	-10.738
▁kysst	-10.7413
▁åkallan	-10.7439
▁fäkreaturen	-10.745
▁samlat	-10.7454
▁framsida	-10.7454
▁uppbygg	-10.7474
▁nedgjord	-10.7489
▁Ruben	-10.7496
▁konungslig	-10.7497
▁bihustru	-10.7498
▁sköte	-10.7508
▁straffa	-10.7517
▁fiskar	-10.7517
▁regna	-10.7551
▁slakt	-10.7577
▁flod	-10.758
stöt	-10.7585
skilja	-10.7585
Upp	-10.7586
bredvid	-10.7586
samme	-10.7587
Amen	-10.7588
På	-10.7589
▁egyptier	-10.7612
givit	-10.7612
▁uttyd	-10.7622
▁närmast	-10.7629
▁Ju	-10.7641
▁läst	-10.7642
kläder	-10.7642
▁leviter	-10.7645
▁övr	-10.765
▁teg	-10.7651
▁grym	-10.7652
0	-10.7654
▁Gerson	-10.7654
▁Isebel	-10.7654
▁Persien	-10.7654
▁Serubbabel	-10.7654
▁amalekiterna	-10.7654
▁apostel	-10.7654
▁frågen	-10.7654
▁förvirring	-10.7654
▁genomborra	-10.7654
▁häftig	-10.7654
▁häravdelning	-10.7654
▁kunglig	-10.7654
▁middag	-10.7654
▁påskalammet	-10.7654
▁rämna	-10.7654
▁sammankomst	-10.7654
▁skilje	-10.7654
▁smort	-10.7654
▁spärra	-10.7654
▁vanära	-10.7654
▁vapendragare	-10.7654
▁vånda	-10.7654
▁yngste	-10.7654
▁ypperst	-10.7654
▁äldre	-10.7654
▁årsgammal	-10.7654
▁Hiram	-10.7654
▁Nabot	-10.7654
▁arvslott	-10.7654
▁orättrådig	-10.7654
▁Akis	-10.7654
▁Geba	-10.7654
▁Elkana	-10.7654
▁Sisera	-10.7654
▁skända	-10.7654
▁Timna	-10.7654
▁svor	-10.7654
▁Itamar	-10.7654
▁omringa	-10.7654
▁ödelagd	-10.7654
▁bommar	-10.7654
▁kuva	-10.7654
▁Amasa	-10.7654
▁uppdrag	-10.7654
▁framställde	-10.7654
▁underbara	-10.7654
▁sprid	-10.7655
▁vifta	-10.7655
▁rycke	-10.7655
▁hån	-10.7656
▁ström	-10.7657
▁fåfängliga	-10.7658
▁övertäckte	-10.7658
▁keruber	-10.7659
▁Ner	-10.7661
▁profetia	-10.7661
▁rättvisa	-10.7662
▁dånet	-10.7662
▁Adam	-10.7663
bränt	-10.7663
▁tungor	-10.7664
▁spis	-10.7665
▁olivträd	-10.7669
▁nit	-10.7673
▁Joel	-10.7675
▁Eliab	-10.7676
▁Kus	-10.7677
▁lyster	-10.7681
▁tiga	-10.7681
▁Gudens	-10.7682
▁starkhet	-10.7684
▁hövdingdömen	-10.7693
▁uppenbart	-10.7695
trogen	-10.7696
▁gräset	-10.7697
▁slit	-10.77
▁lidanden	-10.7707
▁byggnad	-10.7708
▁planterade	-10.7712
▁torrt	-10.7715
▁förstlingen	-10.7722
▁utförde	-10.7722
▁lagar	-10.7723
▁ödmjukade	-10.773
▁hövdingarna	-10.7733
▁höres	-10.7734
▁föraktade	-10.7734
▁Kommen	-10.7746
▁Giv	-10.7751
▁fattat	-10.7752
▁friska	-10.776
▁följd	-10.776
▁utfört	-10.7765
▁förbannar	-10.7783
▁dödad	-10.7784
▁drycker	-10.7792
▁trädet	-10.7795
ennes	-10.7807
▁vissna	-10.7811
▁löst	-10.7813
▁bespotta	-10.782
▁gives	-10.7826
▁välbehagligt	-10.7828
▁stunden	-10.7852
▁tronar	-10.7855
▁törne	-10.7866
▁barm	-10.7882
▁rådde	-10.789
▁kyss	-10.7901
▁förväg	-10.7911
▁klok	-10.7917
▁helst	-10.7922
▁törnen	-10.7937
▁give	-10.794
▁Le	-10.7961
driver	-10.7975
torka	-10.7999
▁gudlös	-10.8011
▁skjut	-10.8024
▁knä	-10.8034
Till	-10.8086
HERRE	-10.8086
Edom	-10.8087
▁härska	-10.8089
vilja	-10.8089
▁strand	-10.8093
▁topp	-10.8098
▁handfyllning	-10.8114
▁familj	-10.8122
▁orolig	-10.8133
▁fariséer	-10.8136
▁nymånad	-10.8141
▁ceder	-10.8141
▁sova	-10.8145
▁skändlig	-10.8147
Tro	-10.8151
brot	-10.8154
▁hagel	-10.8154
▁äktenskapsbryt	-10.8154
Rätt	-10.8154
▁Ahitofel	-10.8154
▁Netanja	-10.8154
▁Nilfloden	-10.8154
▁Noomi	-10.8154
▁Obadja	-10.8154
▁Själv	-10.8154
▁drucken	-10.8154
▁druckit	-10.8154
▁druckna	-10.8154
▁elfte	-10.8154
▁fönster	-10.8154
▁hedmark	-10.8154
▁jämmer	-10.8154
▁märka	-10.8154
▁plocka	-10.8154
▁stappla	-10.8154
▁surdeg	-10.8154
▁terebint	-10.8154
▁tidsålder	-10.8154
▁tillkommelse	-10.8154
▁tröskplats	-10.8154
▁vedermöda	-10.8154
▁åsninna	-10.8154
▁fängsla	-10.8154
▁mutor	-10.8154
▁Nadab	-10.8154
▁håg	-10.8154
▁nasir	-10.8154
▁omsorg	-10.8154
▁gatan	-10.8154
▁vredgas	-10.8154
▁Maaka	-10.8154
▁lagbok	-10.8154
▁härskri	-10.8154
▁hivéerna	-10.8155
▁ingenting	-10.8155
▁Ahikam	-10.8155
Bliv	-10.8156
▁varelser	-10.8156
rummet	-10.8156
▁livsdagar	-10.8158
seglade	-10.8158
▁tycke	-10.8159
▁skapare	-10.8159
▁inälvorna	-10.8161
▁sörjande	-10.8166
▁härbärge	-10.8167
▁ostrafflighet	-10.8171
▁offerhöjderna	-10.8176
▁ledare	-10.8181
▁gatorna	-10.8181
tänt	-10.8182
▁andliga	-10.8189
▁talrikt	-10.819
▁härmed	-10.8191
▁hjulen	-10.8199
▁köttslig	-10.8203
▁anställde	-10.8205
stängd	-10.8206
▁levitisk	-10.8208
▁bedrag	-10.8209
▁förtröstan	-10.8211
▁förskingrade	-10.8215
▁toppen	-10.8216
▁omgjordade	-10.8223
▁trakten	-10.8232
▁härskarorna	-10.8259
▁kämpar	-10.8259
▁bunden	-10.826
▁avbild	-10.8262
▁färde	-10.828
Men	-10.8282
▁klädda	-10.8283
▁rökelsen	-10.8293
▁borgen	-10.83
▁hungersnöden	-10.8315
▁ljungeldar	-10.8326
▁besinna	-10.8347
▁tukt	-10.8358
körde	-10.8387
▁befäste	-10.8397
▁stycket	-10.8405
▁kalvar	-10.841
▁bevisat	-10.8413
▁spetälsk	-10.8455
▁våd	-10.8467
kommit	-10.8479
▁ungar	-10.8491
▁tillspillogiv	-10.8503
trätt	-10.8505
evad	-10.8508
▁Kora	-10.852
▁härskaror	-10.8572
visso	-10.8593
klädd	-10.8594
Bort	-10.8611
brett	-10.8611
Konung	-10.8612
Vänd	-10.8612
Med	-10.8614
▁skapa	-10.8618
▁invig	-10.8627
▁smord	-10.8631
Av	-10.864
▁omgjorda	-10.8645
torn	-10.8677
▁ogärningsmän	-10.8678
▁hövitsman	-10.8678
saltaret	-10.868
▁Antiokia	-10.868
▁Asdod	-10.868
▁Sammalunda	-10.868
▁Suckot	-10.868
▁benjaminit	-10.868
▁cedrar	-10.868
▁förfäran	-10.868
▁jordbävning	-10.868
▁klagosång	-10.868
▁kraftgärningar	-10.868
▁kruka	-10.868
▁lidit	-10.868
▁livsfrukt	-10.868
▁lugn	-10.868
▁omskära	-10.868
▁orygglig	-10.868
▁palmer	-10.868
▁systrar	-10.868
▁tempelkamrar	-10.868
▁tålamod	-10.868
▁utgöt	-10.868
▁välsigne	-10.868
▁Asien	-10.8681
▁Simri	-10.8681
▁angrep	-10.8681
▁befria	-10.8681
▁hårdnacka	-10.8681
▁hårdhet	-10.8681
▁otrogna	-10.8681
▁trädgård	-10.8681
▁förvissna	-10.8681
▁halm	-10.8681
▁ostraffad	-10.8681
▁lampa	-10.8681
▁lider	-10.8681
▁Peres	-10.8681
▁fyrfat	-10.8681
▁landsmän	-10.8681
▁smörjelse	-10.8681
▁upptagen	-10.8682
▁strömmen	-10.8682
▁rinna	-10.8682
▁mötte	-10.8682
▁emellan	-10.8683
illa	-10.8683
▁släppe	-10.8683
▁hundarna	-10.8684
▁förrådshus	-10.8684
▁spela	-10.8684
▁förlåtelse	-10.8684
▁Abisai	-10.8685
▁miss	-10.8685
Stann	-10.8685
▁snaror	-10.8687
▁norrut	-10.8687
▁lur	-10.8689
▁kallad	-10.8691
▁borgare	-10.8692
▁fäderna	-10.8693
▁skyarna	-10.8694
▁vänligt	-10.8694
▁Hasor	-10.87
▁förlåtet	-10.8708
▁stängerna	-10.8709
▁Eden	-10.8712
erskor	-10.8717
prydnad	-10.8718
▁förtryckare	-10.872
▁uppväcka	-10.8723
▁Haran	-10.8724
▁hurudan	-10.8725
▁fördrivna	-10.8727
▁hänt	-10.8727
▁Följ	-10.8727
▁gröna	-10.873
▁rikligen	-10.8731
▁personen	-10.8733
▁Gera	-10.8733
▁fel	-10.8734
▁Välsigna	-10.8735
▁kungöra	-10.8736
trot	-10.8738
▁fat	-10.8739
▁palatser	-10.874
▁föraktar	-10.874
▁gladde	-10.8756
▁densamme	-10.876
gjorda	-10.876
▁höljd	-10.8762
▁familjerna	-10.8772
▁skäl	-10.8775
▁förlossare	-10.8788
▁kriget	-10.8794
▁planterat	-10.8798
▁manteln	-10.8801
Hav	-10.8808
▁stänkt	-10.881
▁glädjen	-10.8812
▁avskild	-10.8819
▁vittnar	-10.882
▁övar	-10.8824
▁räcka	-10.8825
▁härja	-10.8834
▁slutat	-10.8855
▁löftet	-10.8863
▁spår	-10.8881
▁inbärga	-10.8883
▁hästarna	-10.8891
göra	-10.8895
▁hölja	-10.8895
▁Tre	-10.8984
Sänd	-10.9014
▁besinn	-10.9039
▁vall	-10.904
▁häl	-10.9061
städes	-10.9085
▁tänkt	-10.9125
▁snar	-10.9135
▁våldsam	-10.9161
bröd	-10.9168
Ingen	-10.9168
tjänst	-10.9168
Dessa	-10.9168
▁förståndiga	-10.9168
▁kungör	-10.9177
▁underdånig	-10.9178
▁rygga	-10.9188
▁orenade	-10.9199
▁besitt	-10.9205
▁skådade	-10.9212
▁klipp	-10.9225
▁nittio	-10.9227
▁trofast	-10.9232
blommor	-10.9236
tillrättavisning	-10.9236
utgjuter	-10.9236
▁Kegila	-10.9236
▁Libna	-10.9236
▁Loven	-10.9236
▁Tobia	-10.9236
▁beröva	-10.9236
▁bestämmer	-10.9236
▁bröstskölden	-10.9236
▁fyllde	-10.9236
▁fördriva	-10.9236
▁förhänge	-10.9236
▁förnumm	-10.9236
▁glöm	-10.9236
▁högheligt	-10.9236
▁inbjud	-10.9236
▁infria	-10.9236
▁korteligen	-10.9236
▁kräldjur	-10.9236
▁landshövdingen	-10.9236
▁majestät	-10.9236
▁morgonrodnaden	-10.9236
▁möjligt	-10.9236
▁plöj	-10.9236
▁röj	-10.9236
▁rötter	-10.9236
▁sannfärdig	-10.9236
▁sonhustru	-10.9236
▁svärmoder	-10.9236
▁tillbörligt	-10.9236
▁Tirsa	-10.9236
▁hitupp	-10.9236
▁Hesron	-10.9236
▁försagd	-10.9236
▁högeligen	-10.9236
▁glatt	-10.9236
▁skarp	-10.9236
▁kamrar	-10.9236
▁hetiten	-10.9236
▁ruiner	-10.9236
▁Nahor	-10.9236
▁bekänne	-10.9236
▁kiv	-10.9236
▁spira	-10.9237
▁Manoa	-10.9237
▁utsänd	-10.9237
▁fina	-10.9237
▁fullkomna	-10.9237
▁avkastning	-10.9237
▁lyfta	-10.9237
▁moabiterna	-10.9237
Jearim	-10.9238
▁träldom	-10.9238
▁skrifterna	-10.9239
▁fru	-10.9239
▁otrohet	-10.9239
▁Frat	-10.924
▁koka	-10.9242
▁nätter	-10.9242
▁svaghet	-10.9242
▁doppa	-10.9243
▁Amon	-10.9245
▁frimodighet	-10.9247
▁last	-10.9247
▁Asael	-10.9249
▁gällande	-10.925
▁Rimmon	-10.9254
▁trots	-10.9254
▁begrovo	-10.9255
▁bida	-10.9257
varande	-10.9259
▁fritt	-10.9259
oniten	-10.9262
▁Sif	-10.9264
▁skriade	-10.9266
▁skott	-10.9266
▁tecknade	-10.9266
▁halta	-10.9266
▁dubbelt	-10.9267
▁fettet	-10.927
▁Mikal	-10.9271
▁upphört	-10.9271
▁skeppet	-10.9274
▁bedrövade	-10.9275
▁ugnen	-10.9287
▁håret	-10.9288
▁Omri	-10.9291
▁kunnigt	-10.9293
▁Sarai	-10.9296
▁flyta	-10.9302
▁förkastade	-10.9305
ljudet	-10.9307
▁Am	-10.9315
▁kost	-10.9316
▁brand	-10.9319
▁rövare	-10.9346
▁förtärde	-10.9346
Horon	-10.935
▁Sur	-10.9364
▁förtärt	-10.9372
▁stenarna	-10.939
▁sjung	-10.9395
▁förtörnad	-10.9404
▁rådsherrar	-10.9415
▁bind	-10.9425
▁skyn	-10.9426
▁liknelser	-10.9434
▁stråla	-10.9447
▁klagan	-10.9451
▁bevis	-10.9458
fogdar	-10.9465
▁älskare	-10.9465
▁parti	-10.947
▁kloka	-10.9481
▁åligg	-10.9493
▁nitälska	-10.9494
▁Andr	-10.9513
▁larma	-10.9532
skålar	-10.9571
▁väktare	-10.9622
hållit	-10.9624
▁äga	-10.9635
▁täcke	-10.9677
▁begynt	-10.97
▁hövitsmän	-10.9716
▁bäck	-10.9735
P	-10.9753
kunnen	-10.9756
fråga	-10.9756
▁skria	-10.9798
▁krigsfolk	-10.9804
▁uttydning	-10.9805
▁penning	-10.9808
▁Rab	-10.9815
Sake	-10.9816
rått	-10.9817
▁krigsmän	-10.9822
▁gudsman	-10.9822
▁evangeli	-10.9823
ärtes	-10.9824
▁blomster	-10.9824
▁gasell	-10.9824
▁krukmakar	-10.9824
▁regering	-10.9824
Bär	-10.9824
▁Bergsbygden	-10.9824
▁Cesarea	-10.9824
▁Eljasib	-10.9824
▁Etiopien	-10.9824
▁Hedmarken	-10.9824
▁Låglandet	-10.9824
▁avföda	-10.9824
▁dörrpost	-10.9824
▁exempel	-10.9824
▁förföljer	-10.9824
▁förlorat	-10.9824
▁hankön	-10.9824
▁inföding	-10.9824
▁långmodig	-10.9824
▁misshaga	-10.9824
▁mästare	-10.9824
▁mönstrade	-10.9824
▁omskärelse	-10.9824
▁skonsamhet	-10.9824
▁skördetiden	-10.9824
▁tordön	-10.9824
▁tyckte	-10.9824
▁upphäve	-10.9824
▁uthärda	-10.9824
▁Barak	-10.9824
▁landshövdingar	-10.9824
▁utlova	-10.9824
▁Horeb	-10.9824
▁Teman	-10.9824
▁knapp	-10.9824
▁böljor	-10.9824
▁rytande	-10.9824
▁Likaså	-10.9824
▁frambur	-10.9824
▁Atalja	-10.9824
▁orsak	-10.9824
▁färdades	-10.9824
▁Ahimelek	-10.9824
▁getter	-10.9825
▁närmare	-10.9825
krans	-10.9825
▁avstå	-10.9826
▁försvunn	-10.9826
▁lam	-10.9827
▁Heman	-10.9827
▁uppåt	-10.9828
▁förmaning	-10.9828
aljas	-10.9828
▁tillfalla	-10.983
▁uppror	-10.983
▁Skol	-10.983
▁rusta	-10.983
▁vunnit	-10.983
▁tillrett	-10.983
▁beläte	-10.9831
▁syndoffret	-10.9832
▁uträtta	-10.9833
▁Baalerna	-10.9833
läpp	-10.9834
▁tillreda	-10.9835
▁Elisama	-10.9835
▁bestånd	-10.9835
▁Eder	-10.9837
▁skönhet	-10.9841
▁bras	-10.9842
tiofem	-10.9843
▁mäktigare	-10.9843
▁Naaman	-10.9847
▁Sua	-10.9853
▁nödens	-10.9855
▁förtjäna	-10.9866
▁undergång	-10.9869
▁falskhet	-10.9872
▁törsta	-10.9877
▁läsa	-10.9878
▁tjänarna	-10.9887
▁uttydningen	-10.9888
▁frälsare	-10.9888
▁krok	-10.9889
▁ångrar	-10.9889
▁grannar	-10.99
▁oxen	-10.9905
▁upptaga	-10.9907
▁hovmän	-10.9909
huggna	-10.9919
▁bränn	-10.9924
▁ljuvligt	-10.9929
▁manskap	-10.9937
▁höljde	-10.9939
▁törstig	-10.9953
▁uppbygga	-10.9967
▁bjälk	-10.998
▁vällukt	-10.9985
▁härligt	-10.999
gårdarna	-10.999
▁sjukdomar	-10.9998
▁barnlös	-11.0017
▁bihustrur	-11.0022
▁förståndet	-11.0029
▁greker	-11.0058
▁tröstar	-11.0069
▁våder	-11.0069
▁skicklig	-11.0094
▁förståndige	-11.0094
▁Het	-11.0134
▁kunnig	-11.0143
jungen	-11.0161
▁försök	-11.0169
▁grek	-11.0208
▁häng	-11.0242
▁stann	-11.0256
▁återstod	-11.026
▁ingå	-11.0294
▁person	-11.0345
▁bran	-11.0357
drog	-11.0361
N	-11.0373
byggnad	-11.038
Skulle	-11.0381
hjälp	-11.0381
mätt	-11.0381
Tala	-11.0382
stund	-11.0383
drivit	-11.0383
▁myck	-11.0384
sedan	-11.0385
▁grön	-11.0389
▁avkomling	-11.0399
▁uppfylld	-11.0409
▁apostlar	-11.0412
föllo	-11.0412
skurna	-11.0417
▁stjärnor	-11.0427
▁lampor	-11.0429
▁etiopiern	-11.0446
▁uppenbarad	-11.0446
väsen	-11.0449
▁Nebusa	-11.0449
▁förskräcke	-11.0449
▁Efesus	-11.0449
▁Jefunne	-11.0449
▁Kapernaum	-11.0449
▁Nineve	-11.0449
▁avgrunden	-11.0449
▁beskydd	-11.0449
▁betrakta	-11.0449
▁bädd	-11.0449
▁frestelse	-11.0449
▁förbrutit	-11.0449
▁förföljelse	-11.0449
▁huvudbindel	-11.0449
▁insegel	-11.0449
▁landsflykt	-11.0449
▁lottkastning	-11.0449
▁lyte	-11.0449
▁nalkades	-11.0449
▁offren	-11.0449
▁rubeniterna	-11.0449
▁sikel	-11.0449
▁styggelig	-11.0449
▁tillförsikt	-11.0449
▁utgjuten	-11.0449
▁vuxit	-11.0449
▁värt	-11.0449
▁Åklagaren	-11.0449
▁öppen	-11.0449
▁Amarja	-11.0449
▁bekant	-11.0449
▁förtrampa	-11.0449
▁jubelåret	-11.0449
▁oförgänglig	-11.0449
▁purpur	-11.0449
▁flöde	-11.0449
stift	-11.0449
▁Anatot	-11.0449
▁Kvinn	-11.0449
▁besked	-11.0449
▁boskapsdjur	-11.0449
▁hitned	-11.0449
▁källor	-11.0449
▁närvaro	-11.0449
▁kakor	-11.0449
▁Eber	-11.045
▁omkom	-11.045
▁Hanok	-11.045
läglar	-11.045
▁farbroder	-11.045
▁uppehöll	-11.045
▁sammansvärjning	-11.045
▁tempelsalen	-11.045
▁rand	-11.045
▁läka	-11.0451
▁Mattanja	-11.0451
▁nätverk	-11.0451
▁korset	-11.0451
Församl	-11.0451
▁övrigt	-11.0451
▁stol	-11.0452
▁krigsmännen	-11.0452
▁Ussiel	-11.0452
▁förhud	-11.0453
▁rulle	-11.0453
▁Siba	-11.0453
▁trälinna	-11.0453
▁skölj	-11.0454
▁huvudmannen	-11.0454
skaran	-11.0457
▁Akt	-11.0458
▁oomskuren	-11.0459
▁gömma	-11.0461
▁njurarna	-11.0462
▁undkomma	-11.0466
▁ouppsåtligen	-11.0467
▁lamporna	-11.0469
▁vältra	-11.047
Stig	-11.0472
▁spänna	-11.0474
▁stjäla	-11.0478
▁brinna	-11.0481
▁trängta	-11.0483
▁spjutet	-11.0494
▁brevet	-11.0494
▁sover	-11.0496
▁förfärade	-11.0497
▁störste	-11.0497
▁bäckar	-11.0499
▁utgått	-11.0499
▁uppståndelsen	-11.0501
▁bat	-11.0504
▁Malkia	-11.0512
▁regnet	-11.0519
▁dogo	-11.0523
▁begäran	-11.0524
▁fångarna	-11.0532
▁låna	-11.0551
▁häpnade	-11.0579
▁betesmarker	-11.061
ordnade	-11.0619
▁pröv	-11.0619
ämne	-11.0629
fas	-11.0634
▁profetisk	-11.0634
▁hjälpare	-11.0636
sdagar	-11.0669
▁väktar	-11.0669
▁hund	-11.068
▁sök	-11.0686
vil	-11.071
atiten	-11.073
erska	-11.0799
unno	-11.0852
▁hän	-11.0868
▁spän	-11.0905
sammans	-11.0925
ffa	-11.0955
▁uppenbar	-11.0959
▁bistå	-11.0974
spill	-11.098
fågeln	-11.0999
▁möt	-11.1033
Välsigna	-11.1046
skyn	-11.1047
▁ugn	-11.1054
HERRENS	-11.1055
▁konungadöme	-11.1059
▁frände	-11.1073
▁teckna	-11.108
▁timme	-11.108
växt	-11.1099
jäm	-11.1105
▁tjugutre	-11.1112
▁härhövitsman	-11.1114
framt	-11.1116
▁ogärning	-11.1116
Nego	-11.1116
▁Ahimaas	-11.1116
▁Bilha	-11.1116
▁Eljakim	-11.1116
▁Hasabja	-11.1116
▁Jedutun	-11.1116
▁Mirjam	-11.1116
▁Oljeberget	-11.1116
▁Sanherib	-11.1116
▁Siklag	-11.1116
▁Vatten	-11.1116
▁befann	-11.1116
▁bågar	-11.1116
▁cymbaler	-11.1116
▁enträget	-11.1116
▁fyrkant	-11.1116
▁förbjöd	-11.1116
▁förbrände	-11.1116
▁gemensam	-11.1116
▁gestalt	-11.1116
▁gudsfruktan	-11.1116
▁hugnad	-11.1116
▁myrra	-11.1116
▁nämner	-11.1116
▁rafaéerna	-11.1116
▁rannsakning	-11.1116
▁sammansvur	-11.1116
▁skattkamrar	-11.1116
▁smycken	-11.1116
▁tempelträlar	-11.1116
▁tillbedjen	-11.1116
▁trolova	-11.1116
▁trävirke	-11.1116
▁tvärstänger	-11.1116
▁vallfartssång	-11.1116
▁åsninnor	-11.1116
▁återhållsamhet	-11.1116
▁Jonadab	-11.1116
▁fingrar	-11.1116
▁fördolt	-11.1116
▁förebrå	-11.1116
▁förlossning	-11.1116
▁förvaltare	-11.1116
▁gissla	-11.1116
▁snabba	-11.1116
▁upphängd	-11.1116
▁Ahitub	-11.1116
▁uppegga	-11.1116
▁endräktigt	-11.1116
▁sjutton	-11.1116
▁svans	-11.1116
▁Merib	-11.1116
▁sträcke	-11.1116
▁trettiotvå	-11.1116
▁ädlingar	-11.1116
▁kransar	-11.1116
▁mottagit	-11.1116
▁Gosen	-11.1116
▁romersk	-11.1116
▁Aroer	-11.1116
▁danat	-11.1116
▁oförtänkt	-11.1116
▁landsbygden	-11.1116
▁medbröder	-11.1116
▁barnbarn	-11.1116
▁Hosea	-11.1116
▁vävnad	-11.1116
▁late	-11.1117
▁huggorm	-11.1117
▁Medien	-11.1117
▁brudgummen	-11.1117
▁vass	-11.1117
▁Elifas	-11.1117
▁telning	-11.1117
▁rida	-11.1117
▁Rabba	-11.1117
klätt	-11.1118
▁offerhöjden	-11.1118
▁åkerstycke	-11.1118
▁Mesak	-11.1118
▁synagogorna	-11.1118
▁Elieser	-11.1118
▁Bani	-11.1118
▁lägerplats	-11.1118
▁ogärningsmännen	-11.1119
▁spåmännen	-11.1119
▁bestämma	-11.112
▁troende	-11.1121
▁döparen	-11.1121
▁Geser	-11.1121
▁överflödande	-11.1123
▁havsländerna	-11.1124
▁betryckte	-11.1124
▁lydiga	-11.1124
▁basunerna	-11.1125
Peor	-11.1125
▁smörjelseoljan	-11.1131
▁fordra	-11.1131
▁Mikael	-11.1133
▁fikonträdet	-11.1139
▁gräto	-11.1142
▁provet	-11.115
▁sålt	-11.1151
▁väggar	-11.1152
▁skrivna	-11.1158
▁riklig	-11.1165
▁synas	-11.1169
▁påminn	-11.1182
▁läste	-11.1182
▁Saulus	-11.1182
▁knorrade	-11.1191
▁publikaner	-11.12
▁krigshövitsmän	-11.1215
tog	-11.1225
▁gömme	-11.1308
edda	-11.1309
liggande	-11.1318
▁hemsök	-11.1335
färdas	-11.1366
▁väpn	-11.1412
▁föd	-11.1441
Ve	-11.1456
skjuta	-11.1461
▁lån	-11.1544
▁kamel	-11.1546
salen	-11.1608
▁ogudaktig	-11.1617
▁svik	-11.165
El	-11.1718
▁filisté	-11.1747
höjden	-11.176
klipp	-11.1761
finnas	-11.1763
Vill	-11.1776
▁sjunk	-11.1781
skifta	-11.1806
▁befäl	-11.1817
▁bly	-11.1819
▁fortf	-11.1829
▁krön	-11.1829
▁spåmän	-11.1829
Skynd	-11.183
▁Oholiba	-11.183
▁anbefall	-11.183
▁bergfäste	-11.183
▁björn	-11.183
▁dödsskugga	-11.183
▁medborgar	-11.183
▁olycks	-11.183
▁vandring	-11.183
▁vinpress	-11.183
Präste	-11.183
flöt	-11.183
▁Abigail	-11.183
▁Artasasta	-11.183
▁Efron	-11.183
▁Festus	-11.183
▁Jerubbaal	-11.183
▁Josabad	-11.183
▁Netanel	-11.183
▁Sadrak	-11.183
▁behandla	-11.183
▁drista	-11.183
▁fotapall	-11.183
▁främja	-11.183
▁fyllest	-11.183
▁fyllt	-11.183
▁fönstret	-11.183
▁förlorade	-11.183
▁förött	-11.183
▁glänsa	-11.183
▁hädan	-11.183
▁hänryckning	-11.183
▁klappa	-11.183
▁konstförfar	-11.183
▁kvistar	-11.183
▁luttra	-11.183
▁lystnad	-11.183
▁midjaniterna	-11.183
▁nämna	-11.183
▁oförfärad	-11.183
▁omhängen	-11.183
▁pansar	-11.183
▁pliktig	-11.183
▁silverpenningar	-11.183
▁skrymtare	-11.183
▁slockna	-11.183
▁slätten	-11.183
▁späda	-11.183
▁strängaspel	-11.183
▁svavel	-11.183
▁tahasskinn	-11.183
▁tillkommande	-11.183
▁tillrättavisa	-11.183
▁töcken	-11.183
▁utrannsaka	-11.183
▁utsago	-11.183
▁östanvind	-11.183
▁Eglon	-11.183
▁Husai	-11.183
▁doft	-11.183
▁finnen	-11.183
▁förlidna	-11.183
▁tillsagt	-11.183
bruten	-11.183
▁Någ	-11.183
▁samarit	-11.183
▁bäckenställen	-11.183
▁ledsaga	-11.183
skifte	-11.183
▁inrista	-11.183
▁Jorden	-11.183
▁brännoffersdjur	-11.183
▁gaditerna	-11.183
▁Ussa	-11.183
▁draken	-11.183
▁nederlag	-11.183
▁fyrtiofem	-11.183
▁Peka	-11.183
▁tumm	-11.183
▁förändra	-11.1831
▁vräng	-11.1831
vrigt	-11.1831
▁underbart	-11.1831
▁guldsmed	-11.1831
▁murpelare	-11.1831
▁brott	-11.1831
▁avsked	-11.1831
▁använde	-11.1831
▁Amram	-11.1831
▁hebréerna	-11.1832
▁Gersom	-11.1832
▁bildstod	-11.1832
▁flytning	-11.1832
▁lärdom	-11.1833
▁underrätta	-11.1833
▁timmermän	-11.1835
▁redskap	-11.1835
▁fjärdedel	-11.1836
▁silverfat	-11.1837
▁dörrvaktare	-11.184
▁försvar	-11.1842
▁mantlar	-11.1845
Rabbi	-11.1852
▁faderlösa	-11.1852
▁förbarmande	-11.1854
▁hjälpte	-11.1854
▁krigsfolket	-11.1855
▁försona	-11.1856
▁Sex	-11.1857
▁Aseran	-11.1863
▁Jair	-11.1864
▁budskapet	-11.1864
▁träta	-11.1865
▁Bela	-11.1866
▁Rem	-11.1866
▁klokhet	-11.1871
▁högst	-11.1875
▁fridens	-11.1878
▁linnekläde	-11.1886
▁klövar	-11.1901
▁betog	-11.1902
sidan	-11.1922
▁undersök	-11.1944
▁ormar	-11.1959
▁fullgör	-11.2065
▁silverskål	-11.2114
Kall	-11.2165
▁maktlös	-11.2174
▁innehåll	-11.2185
giver	-11.2214
▁gårdar	-11.2234
▁löp	-11.2234
ogo	-11.2266
▁förgård	-11.2268
▁orm	-11.2366
▁otro	-11.2368
▁grå	-11.2455
ringar	-11.2474
▁gåve	-11.2483
fogade	-11.2498
▁druv	-11.2504
▁knorra	-11.2513
▁fyr	-11.2528
sköt	-11.2528
▁övermäktig	-11.2529
straff	-11.2529
▁hjul	-11.2529
pelare	-11.253
David	-11.2532
Vår	-11.2532
ikris	-11.2534
krä	-11.2542
▁gosse	-11.2545
▁bedriv	-11.2545
▁anse	-11.2546
▁stormän	-11.2551
▁lyste	-11.2558
▁Öv	-11.2569
▁bedröv	-11.259
▁moabit	-11.2598
bringan	-11.2598
muel	-11.2599
▁tär	-11.2599
▁ägo	-11.2599
▁uppskriv	-11.2599
Hjälp	-11.2599
▁Lär	-11.2599
▁Sök	-11.2599
▁sadducéer	-11.2599
▁satraper	-11.2599
▁tvärt	-11.2599
gemenskap	-11.2599
kämpe	-11.2599
▁Abihu	-11.2599
▁Amminadab	-11.2599
▁Askelon	-11.2599
▁Josadak	-11.2599
▁Mahanaim	-11.2599
▁arameisk	-11.2599
▁arvsbesittning	-11.2599
▁barnaföderska	-11.2599
▁begagna	-11.2599
▁bekänna	-11.2599
▁döljer	-11.2599
▁förgänglig	-11.2599
▁föröke	-11.2599
▁höves	-11.2599
▁kehatiterna	-11.2599
▁midjanitisk	-11.2599
▁människohänder	-11.2599
▁mätsnöre	-11.2599
▁oförståndiga	-11.2599
▁ohörsamma	-11.2599
▁oskära	-11.2599
▁paddor	-11.2599
▁planer	-11.2599
▁rankor	-11.2599
▁rannsaka	-11.2599
▁räkenskap	-11.2599
▁rådgivare	-11.2599
▁sidonierna	-11.2599
▁skådebröden	-11.2599
▁slunga	-11.2599
▁syndoffersbock	-11.2599
▁tjuguåtta	-11.2599
▁tjänstgjorde	-11.2599
▁trapp	-11.2599
▁töm	-11.2599
▁vackra	-11.2599
▁vattenkällor	-11.2599
▁ynnest	-11.2599
▁ättföljd	-11.2599
▁öglor	-11.2599
▁Jedaja	-11.2599
▁Kär	-11.2599
▁Rättfärdig	-11.2599
▁Sefatja	-11.2599
▁allestädes	-11.2599
▁begabba	-11.2599
▁bekymr	-11.2599
▁domstol	-11.2599
▁feber	-11.2599
▁mellersta	-11.2599
▁sprang	-11.2599
▁Ofir	-11.2599
▁Rekab	-11.2599
▁betrodd	-11.2599
▁härstamma	-11.2599
▁konungatron	-11.2599
▁köpenskap	-11.2599
▁träldomshuset	-11.2599
▁Andreas	-11.2599
▁byggningsmän	-11.2599
▁mista	-11.2599
▁sänka	-11.2599
▁yppa	-11.2599
▁Hermon	-11.26
▁skrämm	-11.26
▁underhåll	-11.26
Vakna	-11.26
▁Jehiel	-11.26
▁offergåvor	-11.26
▁signetring	-11.26
▁uppkallat	-11.26
▁Titus	-11.26
▁dölja	-11.26
▁släpa	-11.26
▁medarbetare	-11.26
▁Debir	-11.26
▁tillbeder	-11.26
▁fyrtiotvå	-11.26
▁nordlandet	-11.26
▁vaken	-11.26
▁våningen	-11.26
▁avfallit	-11.26
▁ränta	-11.26
▁sanna	-11.26
▁arab	-11.26
▁lerkärl	-11.26
▁utsett	-11.2601
▁hovman	-11.2601
▁smådjur	-11.2601
▁nord	-11.2601
▁födelse	-11.2602
▁ålderdom	-11.2602
▁springa	-11.2602
▁ödelägga	-11.2602
▁fullgjort	-11.2602
▁hovmannen	-11.2603
▁ödelagt	-11.2603
▁Nebo	-11.2603
▁hörnsten	-11.2603
▁mildhet	-11.2603
Två	-11.2603
▁bördeman	-11.2604
▁rund	-11.2605
▁Tera	-11.2605
▁arvinge	-11.2605
▁lastade	-11.2606
▁femtedel	-11.2606
▁hända	-11.2606
▁tegel	-11.2606
▁unna	-11.261
▁Rut	-11.261
▁förläna	-11.2612
▁bönfall	-11.2612
▁stul	-11.2614
▁befälet	-11.2614
▁Hamor	-11.2616
▁Berg	-11.2616
▁israelitisk	-11.2618
▁dömda	-11.2619
▁ansedd	-11.2623
▁företog	-11.2653
akta	-11.2658
▁föröda	-11.2659
▁Red	-11.266
▁rasa	-11.2711
▁skälv	-11.2749
▁leta	-11.2751
▁härskare	-11.2822
▁fruktsam	-11.2841
▁talrik	-11.2939
▁sträckt	-11.2949
lons	-11.2971
▁basunljud	-11.3017
utöver	-11.3022
▁hämt	-11.3032
▁luta	-11.3092
▁fördrev	-11.3143
▁ljungeld	-11.3148
▁gjord	-11.3175
stödja	-11.3176
▁kämpa	-11.3258
▁uppbyggd	-11.3265
▁återstå	-11.3272
▁läs	-11.3313
▁sido	-11.3315
▁förtälj	-11.3331
▁berätta	-11.3335
U	-11.3362
märke	-11.3364
Baal	-11.3364
Mitt	-11.3365
släkt	-11.3365
Israel	-11.3365
berget	-11.3365
Följ	-11.3366
Därför	-11.3368
▁förfärad	-11.3369
▁störst	-11.3369
skepp	-11.3373
▁andlig	-11.3383
nekade	-11.3389
▁tillhåll	-11.3398
▁farisé	-11.34
▁dråp	-11.3418
▁Sisa	-11.342
vkomlingar	-11.3432
▁belägring	-11.3433
▁safir	-11.3433
▁Babylon	-11.3433
▁Maheli	-11.3433
▁cypress	-11.3433
▁förgängelse	-11.3433
▁munskänk	-11.3433
▁späk	-11.3433
▁stentavlor	-11.3433
▁vanvett	-11.3433
▁vilostad	-11.3433
tecknen	-11.3433
uppehälle	-11.3433
▁Abinadab	-11.3433
▁Barsillai	-11.3433
▁Betania	-11.3433
▁Folken	-11.3433
▁Gehasi	-11.3433
▁Gehenna	-11.3433
▁Hadadeser	-11.3433
▁Kidron	-11.3433
▁Lasarus	-11.3433
▁Megiddo	-11.3433
▁Pashur	-11.3433
▁Rädd	-11.3433
▁Salmunna	-11.3433
▁Sebedeus	-11.3433
▁avskaffade	-11.3433
▁bedräglig	-11.3433
▁begynner	-11.3433
▁elfenben	-11.3433
▁fager	-11.3433
▁fettstyckena	-11.3433
▁frossa	-11.3433
▁fängelsegården	-11.3433
▁fördölja	-11.3433
▁förnämste	-11.3433
▁förskräcklig	-11.3433
▁gossebarn	-11.3433
▁gruvlig	-11.3433
▁hedar	-11.3433
▁håvor	-11.3433
▁högheliga	-11.3433
▁ihjälriv	-11.3433
▁instrumenter	-11.3433
▁jordagods	-11.3433
▁konstvävnad	-11.3433
▁lyssnen	-11.3433
▁misshandla	-11.3433
▁mörda	-11.3433
▁otillbörlig	-11.3433
▁prästadöme	-11.3433
▁pärlor	-11.3433
▁sannskyldig	-11.3433
▁släktregister	-11.3433
▁snärja	-11.3433
▁stamfurstar	-11.3433
▁ståthållarna	-11.3433
▁sväng	-11.3433
▁sväva	-11.3433
▁säcktyg	-11.3433
▁tillstädja	-11.3433
▁undfly	-11.3433
▁uppbära	-11.3433
▁utsäde	-11.3433
▁våldsverkare	-11.3433
▁ymnig	-11.3433
▁Simea	-11.3433
▁avsides	-11.3433
▁trappsteg	-11.3433
▁bohag	-11.3433
▁döpelse	-11.3433
▁kulor	-11.3433
▁pukor	-11.3433
▁umgängelse	-11.3433
▁hjärte	-11.3433
▁olje	-11.3433
▁ragla	-11.3433
▁släcka	-11.3433
▁vingårdsmännen	-11.3433
▁Iddo	-11.3433
▁samtalade	-11.3433
▁utvälja	-11.3433
▁Ornan	-11.3433
▁befaller	-11.3433
▁skyndsam	-11.3433
▁sarga	-11.3433
▁fotsid	-11.3433
▁Kedar	-11.3433
▁huvudhår	-11.3433
▁Neko	-11.3433
▁tärnor	-11.3433
▁Silas	-11.3433
▁sammankalla	-11.3433
▁trogna	-11.3433
▁kula	-11.3434
▁isop	-11.3434
▁Baana	-11.3434
▁någonting	-11.3434
▁uppträda	-11.3434
▁Javan	-11.3435
▁Asri	-11.3435
▁tand	-11.3435
▁härhövitsmannen	-11.3436
▁trettiosju	-11.3437
▁hota	-11.3437
▁Lägg	-11.3437
▁ätter	-11.3437
görelse	-11.3437
▁hakar	-11.3438
▁tillsluta	-11.3438
▁tillredde	-11.3438
▁Dagon	-11.3438
▁juble	-11.344
▁Kedes	-11.3441
▁nyttigt	-11.3442
▁förtryckte	-11.3442
▁Tack	-11.3443
▁förstöring	-11.3443
▁fruktsamma	-11.3444
▁Just	-11.3445
▁hemligen	-11.345
▁beblanda	-11.345
▁fastställd	-11.3457
▁dundra	-11.3457
▁sälj	-11.3507
▁Sikri	-11.3508
vaktaren	-11.3513
▁ersätt	-11.352
▁invigning	-11.3534
▁dop	-11.3541
ddai	-11.3567
▁snöre	-11.3596
▁himmelsk	-11.3649
täckta	-11.37
tingen	-11.3785
▁försmå	-11.3826
▁vinge	-11.3905
▁sälje	-11.3926
▁strödd	-11.3948
▁stäm	-11.3964
fattade	-11.4072
▁därovan	-11.4078
stående	-11.4082
▁kraftig	-11.4135
▁uppväck	-11.4181
▁Ussi	-11.4189
▁upphör	-11.4194
gripit	-11.4201
driven	-11.4213
▁grann	-11.4224
▁motsvara	-11.4255
▁välbehag	-11.4256
▁stadsport	-11.4273
form	-11.4279
▁ytterst	-11.4284
▁halt	-11.4292
färgad	-11.4307
▁reslig	-11.4309
ödmjukhet	-11.4335
▁mild	-11.4338
trax	-11.4338
▁from	-11.434
▁frö	-11.4341
Fräls	-11.4342
▁välbehåll	-11.4342
faldig	-11.4342
hägnad	-11.4342
▁Hinnoms	-11.4342
▁bestryk	-11.4342
▁eldslågor	-11.4342
▁fårhjord	-11.4342
▁förblinda	-11.4342
▁gäster	-11.4342
▁huvudgärd	-11.4342
▁klenoder	-11.4342
▁käpp	-11.4342
▁ljuga	-11.4342
▁månadsrening	-11.4342
▁netofatite	-11.4342
▁oliver	-11.4342
▁pluggar	-11.4342
▁skorpion	-11.4342
▁säte	-11.4342
▁vattenbäckar	-11.4342
▁vildåsn	-11.4342
▁väderstreck	-11.4342
▁värm	-11.4342
Profetera	-11.4342
pipor	-11.4342
▁Abiram	-11.4342
▁Agrippa	-11.4342
▁Berekja	-11.4342
▁Haggai	-11.4342
▁Iskariot	-11.4342
▁Jojakin	-11.4342
▁Lemek	-11.4342
▁Lyssna	-11.4342
▁Magdala	-11.4342
▁Mikmas	-11.4342
▁Paddan	-11.4342
▁Rahab	-11.4342
▁Reguel	-11.4342
▁Sakarias	-11.4342
▁Selofhad	-11.4342
▁Söderlandet	-11.4342
▁agnar	-11.4342
▁bedrifter	-11.4342
▁blodshämnaren	-11.4342
▁blomstra	-11.4342
▁dagsresor	-11.4342
▁däromkring	-11.4342
▁erövra	-11.4342
▁fotställning	-11.4342
▁frodig	-11.4342
▁förhärda	-11.4342
▁galenskap	-11.4342
▁grämelse	-11.4342
▁husbonden	-11.4342
▁hädelse	-11.4342
▁hätsk	-11.4342
▁idissla	-11.4342
▁jordkretsen	-11.4342
▁livsmedel	-11.4342
▁ljunga	-11.4342
▁nämnda	-11.4342
▁olyckor	-11.4342
▁omöjligt	-11.4342
▁präktig	-11.4342
▁schakaler	-11.4342
▁skilt	-11.4342
▁stamfader	-11.4342
▁stryk	-11.4342
▁suttit	-11.4342
▁tapper	-11.4342
▁tvinga	-11.4342
▁varnagel	-11.4342
▁viljes	-11.4342
▁överhovmästare	-11.4342
▁Dibon	-11.4342
▁gudabild	-11.4342
▁helgelse	-11.4342
▁pressa	-11.4342
▁stenhop	-11.4342
Boset	-11.4342
▁Milka	-11.4342
▁tistel	-11.4342
▁uppriktig	-11.4342
gissel	-11.4342
▁Hagar	-11.4342
▁förströdda	-11.4342
▁grytan	-11.4342
▁stolthet	-11.4342
▁Ebed	-11.4342
▁förestå	-11.4342
▁uppbränd	-11.4342
▁Tomas	-11.4342
▁hjort	-11.4342
▁jämför	-11.4342
▁skrud	-11.4342
▁hälsning	-11.4342
▁kallelse	-11.4342
▁uppsåt	-11.4342
▁Heber	-11.4342
▁intagit	-11.4342
▁snår	-11.4342
▁Paran	-11.4342
▁sjöngo	-11.4342
▁avsomnade	-11.4342
▁Resin	-11.4342
▁Elihu	-11.4342
▁Gog	-11.4342
▁homer	-11.4342
▁ohelig	-11.4342
▁Marta	-11.4342
▁pung	-11.4342
▁sticka	-11.4342
▁förförelse	-11.4342
▁usla	-11.4343
▁Beria	-11.4343
▁Jafet	-11.4343
▁människoson	-11.4343
▁lans	-11.4344
▁aftontiden	-11.4344
▁syrat	-11.4344
▁straffdom	-11.4344
▁föreläst	-11.4344
▁bitterligen	-11.4345
▁Hanani	-11.4345
▁gödd	-11.4346
▁stock	-11.4346
▁tjugusju	-11.4347
Pil	-11.4348
▁glädjerop	-11.4348
▁medlare	-11.435
▁Kenas	-11.4351
▁Ord	-11.4355
▁blyge	-11.4356
Fall	-11.437
▁reta	-11.4373
▁färg	-11.4377
sträcka	-11.4394
▁danad	-11.4407
bygger	-11.4483
Ammi	-11.4543
▁Edr	-11.4557
V	-11.4592
Leve	-11.4596
söka	-11.4833
veck	-11.4883
källa	-11.4934
▁hopfogad	-11.5004
▁förgrip	-11.5011
lytta	-11.5027
▁lie	-11.5061
▁bräde	-11.5091
ehåll	-11.5095
gudar	-11.5205
svärd	-11.5264
Där	-11.527
▁verksam	-11.5271
broder	-11.5273
måltid	-11.5273
hövding	-11.5273
▁ryckt	-11.5274
Fader	-11.5274
Sua	-11.5278
drivna	-11.5278
▁Adoni	-11.5283
▁dubbel	-11.5284
▁brinn	-11.5287
huggen	-11.5291
▁grotta	-11.531
▁njurar	-11.5322
▁jebusé	-11.534
▁brudgum	-11.5341
▁Gläd	-11.5342
▁gileadit	-11.5342
▁sidokamrar	-11.5342
Barnea	-11.5342
Beltesassar	-11.5342
hjälm	-11.5342
ögtidsförsamling	-11.5342
örnbusken	-11.5342
▁Apollos	-11.5342
▁Barabbas	-11.5342
▁Jeroham	-11.5342
▁Jishar	-11.5342
▁Molok	-11.5342
▁Naheson	-11.5342
▁Ribla	-11.5342
▁Sanballat	-11.5342
▁Sealtiel	-11.5342
▁Sefanja	-11.5342
▁Sekanja	-11.5342
▁Selemja	-11.5342
▁Sippor	-11.5342
▁Vasti	-11.5342
▁anklagelse	-11.5342
▁ankomst	-11.5342
▁arbetspliktig	-11.5342
▁behov	-11.5342
▁bordsgäster	-11.5342
▁flöjt	-11.5342
▁folkhopen	-11.5342
▁fädernesland	-11.5342
▁förbindelse	-11.5342
▁föredöme	-11.5342
▁förskoning	-11.5342
▁förstfödslorätt	-11.5342
▁gudfruktig	-11.5342
▁haglet	-11.5342
▁honkön	-11.5342
▁hyllning	-11.5342
▁häktor	-11.5342
▁högljudd	-11.5342
▁inbjöd	-11.5342
▁keretéerna	-11.5342
▁leverfettet	-11.5342
▁liljor	-11.5342
▁läkedom	-11.5342
▁mulåsnor	-11.5342
▁mygg	-11.5342
▁mönsterbild	-11.5342
▁oavlåtligen	-11.5342
▁ogräs	-11.5342
▁pannor	-11.5342
▁prakt	-11.5342
▁profetlärjungar	-11.5342
▁ridhästar	-11.5342
▁rymlig	-11.5342
▁rymma	-11.5342
▁rökelsealtaret	-11.5342
▁scharlakan	-11.5342
▁skökolön	-11.5342
▁stamfamilj	-11.5342
▁sträva	-11.5342
▁syndofferstjur	-11.5342
▁säkra	-11.5342
▁sänkte	-11.5342
▁sönderkrossa	-11.5342
▁tillfriskna	-11.5342
▁tiotusen	-11.5342
▁tjänstekvinnor	-11.5342
▁trolldom	-11.5342
▁trång	-11.5342
▁turturduvor	-11.5342
▁upprörd	-11.5342
▁utforska	-11.5342
▁utslitna	-11.5342
▁vanartig	-11.5342
▁villebråd	-11.5342
▁Efrat	-11.5342
▁Immer	-11.5342
▁Millo	-11.5342
▁balsam	-11.5342
▁fjäll	-11.5342
▁foster	-11.5342
▁fröjderop	-11.5342
▁höft	-11.5342
▁illfundig	-11.5342
▁skördemännen	-11.5342
▁stjärna	-11.5342
▁strängeligen	-11.5342
▁utbyte	-11.5342
▁Ajalon	-11.5342
▁Akaja	-11.5342
▁Betuel	-11.5342
▁Datan	-11.5342
▁stillhet	-11.5342
▁utspän	-11.5342
▁yxa	-11.5342
▁Debora	-11.5342
▁Joppe	-11.5342
▁kvarblivna	-11.5342
▁löftesoffer	-11.5342
▁vredesdomen	-11.5342
▁efterskörd	-11.5342
▁Mamre	-11.5342
▁fortsatte	-11.5342
▁sunda	-11.5342
▁kansler	-11.5342
▁mödrar	-11.5342
▁Ehud	-11.5342
▁egg	-11.5342
▁sönderriv	-11.5342
▁vintern	-11.5342
▁sönderslå	-11.5342
▁rigla	-11.5342
▁leven	-11.5342
▁stridsman	-11.5342
▁kamp	-11.5342
▁virke	-11.5342
▁förhatlig	-11.5342
▁lyser	-11.5343
▁mest	-11.5343
▁nere	-11.5343
▁veckor	-11.5343
▁bevaka	-11.5343
▁stycka	-11.5343
nacken	-11.5343
▁utsaga	-11.5343
▁förgångna	-11.5343
▁edoméerna	-11.5343
▁förledde	-11.5343
▁Både	-11.5343
▁tillbett	-11.5343
dropp	-11.5343
slarm	-11.5343
▁klipporna	-11.5344
▁fattigdom	-11.5344
▁Kenan	-11.5344
▁molnstod	-11.5345
▁fortfara	-11.5345
▁sadla	-11.5345
▁utåt	-11.5346
▁uppförde	-11.5347
stupa	-11.5347
▁Matti	-11.5349
trogne	-11.5349
Ställ	-11.535
budbärar	-11.536
fristad	-11.5362
Svara	-11.5364
▁Neria	-11.5376
▁ödmjuk	-11.5453
Melek	-11.5472
dugliga	-11.5493
melek	-11.5518
▁undgå	-11.5549
ruset	-11.5601
hängivet	-11.5685
▁spänne	-11.5695
stämma	-11.5771
▁ljuv	-11.5785
▁förelägg	-11.5833
Vore	-11.5871
bärare	-11.5885
▁Fördärv	-11.6084
▁förbränn	-11.6124
ovantill	-11.6151
▁näps	-11.6197
tänkt	-11.6299
komna	-11.6324
▁Malki	-11.6341
▁utkräv	-11.6362
värdighet	-11.6372
▁känne	-11.6378
fjärde	-11.6385
Johannes	-11.6385
Alla	-11.6385
våld	-11.6385
vattnet	-11.6385
Jesus	-11.6385
▁ständig	-11.6396
▁sekreterare	-11.6416
väckte	-11.642
▁tjug	-11.6448
ugga	-11.6451
ilistéerna	-11.6451
▁hebré	-11.6451
ittida	-11.6451
▁klago	-11.6453
Hugg	-11.6453
störtning	-11.6453
▁Astarte	-11.6453
▁Jib	-11.6453
▁Smorde	-11.6453
▁Tubal	-11.6453
▁glup	-11.6453
▁hädar	-11.6453
▁häv	-11.6453
▁misstanke	-11.6453
▁sidovägg	-11.6453
▁stridsvagnar	-11.6453
▁tvivl	-11.6453
▁utpost	-11.6453
▁vinbärg	-11.6453
▁vämj	-11.6453
▁väss	-11.6453
▁överskyl	-11.6453
Köp	-11.6453
brutna	-11.6453
räddmjölk	-11.6453
språng	-11.6453
▁Adullam	-11.6453
▁Ammihud	-11.6453
▁Arpaksad	-11.6453
▁Besalel	-11.6453
▁Cefas	-11.6453
▁Eljoenai	-11.6453
▁Hadareser	-11.6453
▁Höjen	-11.6453
▁Jetro	-11.6453
▁Kaifas	-11.6453
▁Mackeda	-11.6453
▁Sackur	-11.6453
▁Syrien	-11.6453
▁Tekoa	-11.6453
▁andekraft	-11.6453
▁andevärlden	-11.6453
▁angeläg	-11.6453
▁anstiftade	-11.6453
▁avskilt	-11.6453
▁begabberi	-11.6453
▁begrät	-11.6453
▁bekände	-11.6453
▁blodsförvant	-11.6453
▁cypressträ	-11.6453
▁drypa	-11.6453
▁fagra	-11.6453
▁flätverk	-11.6453
▁fädernestam	-11.6453
▁följeslagare	-11.6453
▁fönstren	-11.6453
▁förbittring	-11.6453
▁glädjebudskap	-11.6453
▁granatträd	-11.6453
▁hopsamla	-11.6453
▁inbyggarna	-11.6453
▁kedja	-11.6453
▁kopparaltaret	-11.6453
▁krigshär	-11.6453
▁liksidig	-11.6453
▁luft	-11.6453
▁malört	-11.6453
▁mätstång	-11.6453
▁nämnt	-11.6453
▁obetänksam	-11.6453
▁penningpung	-11.6453
▁rättstjänarna	-11.6453
▁skrymteri	-11.6453
▁slöja	-11.6453
▁smälte	-11.6453
▁sorgesång	-11.6453
▁spenabarn	-11.6453
▁spräcklig	-11.6453
▁utrusta	-11.6453
▁utsläcka	-11.6453
▁vanmäktig	-11.6453
▁ävla	-11.6453
▁åtlöje	-11.6453
▁åtskillnad	-11.6453
▁övermorgon	-11.6453
▁Afek	-11.6453
▁Jegiel	-11.6453
▁genstridig	-11.6453
▁lövhyddohögtid	-11.6453
▁persisk	-11.6453
Geber	-11.6453
▁Sebadja	-11.6453
▁bittra	-11.6453
▁skidan	-11.6453
▁golv	-11.6453
▁oaktat	-11.6453
▁ödeläggelse	-11.6453
▁kviga	-11.6453
▁tull	-11.6453
▁utlänning	-11.6453
▁sjuttiofem	-11.6453
▁trettiofem	-11.6453
▁förfång	-11.6453
▁sjuttiotvå	-11.6453
▁fetma	-11.6453
▁föreskrifter	-11.6453
dubbla	-11.6453
▁Mesek	-11.6453
▁kista	-11.6453
▁skapelse	-11.6453
▁Elisabet	-11.6453
▁Hefer	-11.6453
▁försorg	-11.6453
▁råka	-11.6453
▁besvärjare	-11.6453
▁rådslå	-11.6453
▁skorven	-11.6453
▁Adaja	-11.6453
▁intaget	-11.6453
▁ombord	-11.6453
▁smaklig	-11.6453
▁klart	-11.6453
Glädjens	-11.6453
▁konungamakt	-11.6453
▁därnere	-11.6453
▁Gaal	-11.6453
▁girighet	-11.6453
▁Nahas	-11.6453
▁trätor	-11.6453
▁lovsjungen	-11.6454
Drick	-11.6454
▁Sebna	-11.6454
▁teckentyd	-11.6454
▁händelse	-11.6454
▁kräv	-11.6455
▁tålig	-11.6455
ispa	-11.6455
▁husvill	-11.6455
▁pina	-11.6456
▁amma	-11.6456
▁buske	-11.6456
▁lita	-11.6457
▁allmänn	-11.6459
▁tunn	-11.6466
▁nymånadsdag	-11.6483
våning	-11.6525
▁försmådd	-11.6563
▁beslöt	-11.6575
▁anförd	-11.6682
▁kåpa	-11.6698
Arba	-11.6707
▁mottage	-11.6724
▁planter	-11.6772
▁fäst	-11.6776
löse	-11.6814
▁bane	-11.6822
skänkte	-11.6926
ffergärdsområdet	-11.6959
▁grus	-11.7087
Kunn	-11.7116
hundar	-11.7229
▁kniv	-11.7327
▁betesmark	-11.7379
▁levit	-11.7454
▁hängiv	-11.7485
Förstå	-11.7557
klädnad	-11.7629
Väl	-11.763
skott	-11.7634
skickade	-11.7634
Människosonen	-11.7635
skänker	-11.7635
konungen	-11.7635
blod	-11.7635
huvud	-11.7635
hjärta	-11.7635
▁värld	-11.764
▁sand	-11.7643
meller	-11.7643
▁förnimm	-11.7644
▁stjäl	-11.7644
räknad	-11.7653
▁Naama	-11.7654
▁kaldéer	-11.7682
▁aramé	-11.7701
▁umgänge	-11.7703
▁Döm	-11.7703
▁bebygg	-11.7703
▁rovfåglar	-11.7703
▁Älsk	-11.7703
▁Haggi	-11.7703
▁dövstum	-11.7703
▁eldsglöd	-11.7703
▁krysolit	-11.7703
▁märg	-11.7703
▁regnskur	-11.7703
▁sidolister	-11.7703
▁trög	-11.7703
▁tröskvagn	-11.7703
▁ursäkt	-11.7703
▁vildmark	-11.7703
Kornelius	-11.7703
Tappua	-11.7703
▁Arauna	-11.7703
▁Asmavet	-11.7703
▁Belsassar	-11.7703
▁Betlehem	-11.7703
▁Cilicien	-11.7703
▁Cypern	-11.7703
▁Elifelet	-11.7703
▁Felix	-11.7703
▁Gilboa	-11.7703
▁Jerameel	-11.7703
▁Kadmiel	-11.7703
▁Karmi	-11.7703
▁Markus	-11.7703
▁Melkisedek	-11.7703
▁Misael	-11.7703
▁Nehemja	-11.7703
▁Sabdi	-11.7703
▁Salthavet	-11.7703
▁Serebja	-11.7703
▁Sibeon	-11.7703
▁Svärd	-11.7703
▁Väktar	-11.7703
▁allmosor	-11.7703
▁avbärga	-11.7703
▁avsöndrade	-11.7703
▁axelstycken	-11.7703
▁befunno	-11.7703
▁betydelse	-11.7703
▁bjällr	-11.7703
▁blygsel	-11.7703
▁boningsorter	-11.7703
▁flugsvärmar	-11.7703
▁flög	-11.7703
▁folkmängden	-11.7703
▁förborgat	-11.7703
▁förfäras	-11.7703
▁förhindra	-11.7703
▁förskyllt	-11.7703
▁försvinner	-11.7703
▁förutsagt	-11.7703
▁förödmjuk	-11.7703
▁gethår	-11.7703
▁giller	-11.7703
▁gräsmaskar	-11.7703
▁herradöme	-11.7703
▁inbördes	-11.7703
▁infattning	-11.7703
▁inseglet	-11.7703
▁ismaelite	-11.7703
▁konungasonen	-11.7703
▁krankhet	-11.7703
▁kringspridda	-11.7703
▁ljuger	-11.7703
▁lovsäg	-11.7703
▁lårstycket	-11.7703
▁löje	-11.7703
▁midnattstiden	-11.7703
▁misshandling	-11.7703
▁nyktra	-11.7703
▁ogunst	-11.7703
▁olycklig	-11.7703
▁omvärv	-11.7703
▁oväder	-11.7703
▁påbjudit	-11.7703
▁raseri	-11.7703
▁skiljebrev	-11.7703
▁skillnad	-11.7703
▁skovlarna	-11.7703
▁skördeskri	-11.7703
▁smälta	-11.7703
▁sämre	-11.7703
▁trälinnor	-11.7703
▁tråd	-11.7703
▁uppfostra	-11.7703
▁vaktkamrar	-11.7703
▁äldsta	-11.7703
▁örsnibb	-11.7703
▁Kemos	-11.7703
▁Pisga	-11.7703
▁användas	-11.7703
▁därutanför	-11.7703
▁linneduk	-11.7703
▁störtskur	-11.7703
▁utspy	-11.7703
6	-11.7703
▁Edrei	-11.7703
▁Menahem	-11.7703
▁Sunem	-11.7703
▁högtidsdräkter	-11.7703
▁lup	-11.7703
▁profetissa	-11.7703
▁Aksa	-11.7703
▁Maresa	-11.7703
▁slumra	-11.7703
huggare	-11.7703
▁Ofra	-11.7703
▁hull	-11.7703
▁Ebal	-11.7703
▁Musi	-11.7703
▁Bosra	-11.7703
▁Rehum	-11.7703
▁armband	-11.7703
▁solstoder	-11.7703
▁Vaken	-11.7703
▁Agag	-11.7703
▁löftesord	-11.7703
▁väcka	-11.7703
▁foder	-11.7703
▁insamla	-11.7703
▁Sinear	-11.7703
▁barnsnöd	-11.7703
▁Soko	-11.7703
▁Jakin	-11.7703
▁Ittai	-11.7703
▁idog	-11.7703
▁rustning	-11.7703
▁stamhövdingar	-11.7703
▁döper	-11.7703
▁Jabin	-11.7703
▁Rop	-11.7703
▁Asarel	-11.7704
Driv	-11.7704
Skriv	-11.7704
hållning	-11.7704
▁troget	-11.7704
▁skygd	-11.7704
Vattne	-11.7704
▁dräg	-11.7704
▁täcka	-11.7704
▁karm	-11.7704
▁kräla	-11.7705
▁Vilj	-11.7705
▁flik	-11.7705
▁bördor	-11.7705
uvor	-11.7705
▁grand	-11.7705
▁Mycke	-11.7708
▁klo	-11.771
▁etiopier	-11.771
▁fortsätt	-11.771
▁torde	-11.7712
▁uthållig	-11.7722
gnist	-11.7757
arbetar	-11.7836
sopa	-11.7902
▁Rik	-11.7903
▁baksida	-11.7974
▁saml	-11.7983
▁befatta	-11.7991
föreståndaren	-11.809
Fördärva	-11.8139
löshet	-11.8172
▁vunn	-11.822
▁Sofa	-11.8292
▁vederstygglig	-11.841
▁förtröst	-11.8577
rivit	-11.8622
▁gatite	-11.8657
▁språk	-11.8838
från	-11.8906
▁ädl	-11.8916
▁klöv	-11.8986
aktigt	-11.9007
Förbannad	-11.9062
Abraham	-11.9064
▁smörj	-11.9071
tredje	-11.9074
▁molnsky	-11.9091
▁ljusstake	-11.9094
▁smörjelseolja	-11.9099
▁inmönstra	-11.9099
▁inälvor	-11.9112
▁Abisa	-11.9121
▁Mattan	-11.9128
▁förfäder	-11.9132
▁hjälpkvinn	-11.9132
▁nedtramp	-11.9132
Hämt	-11.9132
stlingsfrukter	-11.9132
österlänningarna	-11.9132
▁Ahinoam	-11.9132
▁Akbor	-11.9132
▁Arjok	-11.9132
▁Aseka	-11.9132
▁Basemat	-11.9132
▁Beelsebul	-11.9132
▁Betsaida	-11.9132
▁Binnui	-11.9132
▁Bucki	-11.9132
▁Dödsriket	-11.9132
▁Eljest	-11.9132
▁Elnatan	-11.9132
▁Flyn	-11.9132
▁Hedningarna	-11.9132
▁Jabbok	-11.9132
▁Jarmut	-11.9132
▁Jekonja	-11.9132
▁Jerimot	-11.9132
▁Jojarib	-11.9132
▁Jordanslätten	-11.9132
▁Laedan	-11.9132
▁Mahalalel	-11.9132
▁Malluk	-11.9132
▁Mispe	-11.9132
▁Märk	-11.9132
▁Otniel	-11.9132
▁Peleg	-11.9132
▁Penuel	-11.9132
▁Refaimsdalen	-11.9132
▁Silpa	-11.9132
▁Stark	-11.9132
▁Stefanus	-11.9132
▁Taanak	-11.9132
▁avgudadyrkare	-11.9132
▁bagaren	-11.9132
▁bebodda	-11.9132
▁boskapshjordar	-11.9132
▁bulnader	-11.9132
▁bågskytt	-11.9132
▁böcker	-11.9132
▁dagakarl	-11.9132
▁efraimit	-11.9132
▁fallgrop	-11.9132
▁fiendskap	-11.9132
▁förbrända	-11.9132
▁förföljt	-11.9132
▁galilé	-11.9132
▁gathörn	-11.9132
▁gersoniterna	-11.9132
▁girgaséerna	-11.9132
▁hammare	-11.9132
▁hovmästare	-11.9132
▁hädisk	-11.9132
▁högtlovad	-11.9132
▁inhysesman	-11.9132
▁jägare	-11.9132
▁kainéerna	-11.9132
▁kastskovel	-11.9132
▁kittéerna	-11.9132
▁klagomål	-11.9132
▁konstnär	-11.9132
▁konungasönerna	-11.9132
▁krubba	-11.9132
▁köld	-11.9132
▁larmsignal	-11.9132
▁levnadsår	-11.9132
▁lilja	-11.9132
▁lösepenning	-11.9132
▁lövhyddor	-11.9132
▁modersskötet	-11.9132
▁mullen	-11.9132
▁mulåsna	-11.9132
▁murpelarna	-11.9132
▁nöj	-11.9132
▁oavlåtligt	-11.9132
▁offerhöjdspräst	-11.9132
▁okunnighet	-11.9132
▁ovärdig	-11.9132
▁palmträd	-11.9132
▁peletéerna	-11.9132
▁pretoriet	-11.9132
▁påträffades	-11.9132
▁rakkniv	-11.9132
▁reskost	-11.9132
▁råmärke	-11.9132
▁röse	-11.9132
▁sabbatsvila	-11.9132
▁skuggorna	-11.9132
▁skäppan	-11.9132
▁smärta	-11.9132
▁strimmig	-11.9132
▁strupe	-11.9132
▁sädesfält	-11.9132
▁söndring	-11.9132
▁tandagnisslan	-11.9132
▁tillsyningsman	-11.9132
▁uppblåst	-11.9132
▁upphöjning	-11.9132
▁uppsyningsmän	-11.9132
▁utrymme	-11.9132
▁uttömm	-11.9132
▁veckodagen	-11.9132
▁vredgades	-11.9132
▁översvinnlig	-11.9132
▁översvämma	-11.9132
▁övlig	-11.9132
länges	-11.9132
▁Estaol	-11.9132
▁Främling	-11.9132
▁bränsle	-11.9132
▁gödsel	-11.9132
▁jaspis	-11.9132
▁magra	-11.9132
▁murbruk	-11.9132
▁nedböjd	-11.9132
▁skinande	-11.9132
▁slagordning	-11.9132
▁utblotta	-11.9132
1	-11.9132
Hogla	-11.9132
▁Blev	-11.9132
▁Gesur	-11.9132
▁Havila	-11.9132
▁Jebus	-11.9132
▁Jeremot	-11.9132
▁avlägse	-11.9132
▁bestyr	-11.9132
▁köpebrev	-11.9132
▁ljöd	-11.9132
▁skåden	-11.9132
▁täckte	-11.9132
▁uppvigla	-11.9132
syndoffersdjuret	-11.9132
▁lönndom	-11.9132
▁älskog	-11.9132
isreel	-11.9132
▁Oreb	-11.9132
▁Seboim	-11.9132
▁villfarelse	-11.9132
▁Sebanja	-11.9132
▁dikta	-11.9132
▁nitton	-11.9132
▁utvidga	-11.9132
▁avsatser	-11.9132
▁avvant	-11.9132
▁övertyga	-11.9132
▁fromme	-11.9132
▁husgudarna	-11.9132
▁vattenrik	-11.9132
blåsar	-11.9132
▁kronor	-11.9132
▁lekamlig	-11.9132
▁stämpla	-11.9132
▁avtvå	-11.9132
▁utkorade	-11.9132
▁slicka	-11.9132
▁Delaja	-11.9132
Bygg	-11.9132
▁strövskar	-11.9132
▁skrapa	-11.9132
▁svalla	-11.9132
▁famla	-11.9132
▁skingra	-11.9132
▁vitmena	-11.9132
attenai	-11.9132
▁stank	-11.9132
vrida	-11.9132
Gråt	-11.9133
▁undandrag	-11.9133
uppim	-11.9133
▁gurk	-11.9134
▁koraiterna	-11.9134
▁stinga	-11.9135
▁mänsklig	-11.9138
▁väcke	-11.9141
Gott	-11.9141
▁umgå	-11.9158
Heres	-11.919
▁emell	-11.9195
Lämn	-11.9206
▁förkläd	-11.9219
▁Hamme	-11.9328
ovanpå	-11.9387
olivplanteringar	-11.9526
knivar	-11.9584
▁lytt	-11.9607
skicklighet	-12.0033
▁förtvina	-12.0109
▁inbärg	-12.0146
▁lämn	-12.0175
jälkar	-12.0347
kåpan	-12.0432
▁beröm	-12.0448
innlägg	-12.0503
▁utsträck	-12.0571
▁publikan	-12.058
Efter	-12.0693
övitsmannen	-12.0698
brännes	-12.0708
samlingen	-12.071
märkt	-12.0729
förråd	-12.073
fruktade	-12.073
tecken	-12.073
Bryt	-12.073
Jerusalem	-12.073
köttet	-12.0737
▁skriftlärd	-12.0755
▁Eleasa	-12.0755
▁havsländer	-12.0778
▁föreskriv	-12.0786
▁mörkblå	-12.0794
▁edomé	-12.0796
▁drabant	-12.0796
▁avgudaoffer	-12.0798
▁Hedmarks	-12.0798
▁Bild	-12.0798
▁svep	-12.0798
▁Upphöj	-12.0798
▁avgudabeläte	-12.0798
▁befrynd	-12.0798
▁hulpen	-12.0798
▁nattväkt	-12.0798
▁stengrund	-12.0798
Förgäves	-12.0798
Gedi	-12.0798
Hosianna	-12.0798
Korsfäst	-12.0798
Y	-12.0798
ó	-12.0798
9	-12.0798
5	-12.2798
3	-12.2798
7	-12.2798
í	-12.5298
]	-13.3632
8	-14.3622
4	-14.3623
C	-14.3624
(	-14.3625
Ö	-14.3626
Å	-14.3627
Ä	-14.3628
L	-14.3629
J	-14.363
ö	-14.3631
á	-14.3632
ä	-14.3632
