<pad>	0
</s>	0
<unk>	0
.	-3.15951
,	-3.72838
▁	-4.22337
▁आहे	-4.22763
▁आणि	-4.40106
च्या	-4.46597
े	-4.85367
ी	-4.85475
ा	-4.90146
ची	-4.97145
चा	-4.99657
त	-5.0559
▁या	-5.12687
चे	-5.27216
ही	-5.30112
ला	-5.30552
मध्ये	-5.30906
-	-5.38612
▁आहेत	-5.40841
▁कोरोना	-5.45854
ील	-5.47462
च	-5.51083
ं	-5.62501
▁नाही	-5.65368
ने	-5.73021
▁हे	-5.75714
▁लस	-5.87229
न	-5.8879
▁ते	-5.89858
)	-5.93266
▁किंवा	-5.95257
ून	-5.95933
्या	-6.00301
▁काही	-6.01533
▁तर	-6.02138
▁(	-6.02457
वर	-6.02603
?	-6.037
साठी	-6.04055
▁"	-6.04063
▁यांनी	-6.04515
▁आरोग्य	-6.07287
▁करण्यात	-6.08022
क	-6.08107
▁की	-6.10462
▁कमी	-6.16519
ित	-6.16702
स	-6.17404
▁एक	-6.19407
ल	-6.19558
▁असं	-6.19777
ात	-6.20244
-19	-6.22687
▁केली	-6.23132
▁ही	-6.25879
▁पण	-6.26421
▁हा	-6.33404
चं	-6.35174
शी	-6.36094
▁विषाणू	-6.40402
र	-6.44203
▁होते	-6.44395
▁व	-6.45642
▁संसर्ग	-6.46562
मुळे	-6.47405
य	-6.47928
'	-6.49678
▁त्या	-6.50079
▁करोना	-6.50702
▁कोव्हिड	-6.50916
▁अ	-6.52021
▁सर्व	-6.52314
▁डॉ	-6.52782
▁सुरू	-6.53116
▁का	-6.54315
▁ज्या	-6.54842
▁माहिती	-6.55212
ाच्या	-6.55427
▁केले	-6.56471
ल्या	-6.58831
▁रुग्ण	-6.60202
▁काम	-6.61201
▁इतर	-6.61827
ू	-6.62294
▁आले	-6.6238
▁अनेक	-6.62426
ली	-6.6491
▁आली	-6.66163
▁होती	-6.66358
▁जास्त	-6.66507
▁बंद	-6.6705
▁असलेल्या	-6.67783
▁'	-6.68753
▁करण्यासाठी	-6.69095
▁न	-6.69275
▁केला	-6.70436
▁लसीकरण	-6.71834
▁वापर	-6.74628
ले	-6.7732
म	-6.78024
▁राज्य	-6.78212
प	-6.78443
▁होता	-6.78994
▁होत	-6.79008
▁ऑक्सिजन	-6.79054
▁करत	-6.79495
▁एका	-6.79604
▁केंद्र	-6.80404
पासून	-6.80438
▁झाली	-6.80571
▁राज्यात	-6.82221
ना	-6.82238
व	-6.82808
▁हात	-6.82943
▁क	-6.83074
▁दोन	-6.83567
▁झाला	-6.8468
▁असे	-6.85536
▁मृत्यू	-6.85854
िक	-6.86933
ड	-6.87191
▁अधिक	-6.87733
▁चाचणी	-6.87988
ाचा	-6.88111
▁COVID	-6.9022
▁असेल	-6.90292
ो	-6.90726
▁झालेल्या	-6.91528
▁काय	-6.9223
▁करण्या	-6.93139
▁च्या	-6.93259
▁संख्या	-6.93664
ट	-6.93719
▁म्हणून	-6.93965
▁लॉकडाऊन	-6.94309
▁करून	-6.94715
▁तयार	-6.95552
▁दिली	-6.95727
ाची	-6.96451
ज	-6.9689
▁आता	-6.97235
ता	-6.98549
▁देण्यात	-6.99401
▁अशा	-6.99608
▁उपचार	-7.00896
▁त्यांना	-7.0133
▁येत	-7.0182
ाला	-7.02215
▁त्यांच्या	-7.02678
्स	-7.02896
ांनी	-7.0345
▁म्हणाले	-7.05182
पर्यंत	-7.05831
ंना	-7.06159
▁त्यामुळे	-7.06986
▁उपलब्ध	-7.07387
:	-7.07849
▁टक्के	-7.08284
ाने	-7.08323
▁करणे	-7.08534
▁परिणाम	-7.08768
▁व्हायरस	-7.09573
▁अशी	-7.0963
▁सरकार	-7.09871
▁मात्र	-7.09924
▁आम्ही	-7.09931
▁एप्रिल	-7.11212
ांना	-7.1122
▁त्यांनी	-7.11518
▁गेल्या	-7.11739
▁आजार	-7.11894
▁आला	-7.12031
ण	-7.12474
▁लशी	-7.12573
▁2020	-7.13932
मधील	-7.14575
▁मोठ्या	-7.15108
▁जे	-7.15832
▁शकतो	-7.16208
▁केलं	-7.16321
▁असल्याचं	-7.16378
▁झाले	-7.176
▁औषध	-7.18103
▁महाराष्ट्रात	-7.18247
▁भारतात	-7.18281
▁सांगतात	-7.18532
▁परिस्थिती	-7.18599
पेक्षा	-7.18694
कडून	-7.18696
▁यांच्या	-7.19045
▁:	-7.19228
▁जात	-7.20192
▁असून	-7.208
▁सध्या	-7.21212
▁होतं	-7.21216
."	-7.21563
▁निर्णय	-7.22922
▁मार्च	-7.22953
▁सरकारने	-7.2299
▁शकतात	-7.23078
▁डोस	-7.23514
▁होऊ	-7.23557
लं	-7.23732
▁शाळा	-7.23805
▁वैद्यकीय	-7.24759
▁येईल	-7.2477
▁म्हणजे	-7.24983
▁-	-7.25408
▁देशात	-7.25499
▁स	-7.25588
्	-7.27904
▁कोविड	-7.28647
▁लोकांना	-7.28668
▁हजार	-7.29239
▁गरज	-7.2943
▁सांगितलं	-7.29996
▁गंभीर	-7.30526
▁नवीन	-7.30555
नी	-7.31623
▁ह्या	-7.32612
ावर	-7.33132
▁म्हटलं	-7.33329
▁प्रसार	-7.33394
▁दुसऱ्या	-7.33497
नंतर	-7.33604
▁मध्ये	-7.33664
▁तरी	-7.3413
▁होणार	-7.34511
▁होतो	-7.34852
▁कारण	-7.35683
▁जर	-7.36333
▁लोक	-7.36443
▁प्रमाण	-7.36522
▁मास्क	-7.36649
▁असा	-7.37177
ब	-7.37267
▁शकते	-7.37937
▁करू	-7.38043
▁प्रकार	-7.38381
▁रुग्णालयात	-7.38593
ु	-7.39281
▁लाख	-7.39588
ासाठी	-7.39725
ाचे	-7.40497
▁नाहीत	-7.4266
"	-7.43068
▁समावेश	-7.43409
▁आपल्या	-7.43413
▁व्यक्ती	-7.43962
▁लक्ष	-7.44025
▁आलं	-7.45154
▁शक्यता	-7.46079
▁मुंबई	-7.46719
▁आपण	-7.47262
▁आलेल्या	-7.47518
▁आज	-7.47632
▁जाहीर	-7.47967
ि	-7.4801
▁चीन	-7.48044
तील	-7.48106
ेश	-7.4815
्य	-7.48287
;	-7.48357
निर्माण	-7.48751
▁निर्बंध	-7.49935
▁जागतिक	-7.49979
कडे	-7.51134
▁परवानगी	-7.51135
▁म्हणतात	-7.51621
▁असते	-7.51951
▁दिले	-7.51975
▁काळात	-7.52348
▁पुढे	-7.52644
▁केलेल्या	-7.52712
▁येणार	-7.52768
▁प्रमाणात	-7.52786
▁स्थिती	-7.53124
फ	-7.53201
▁मदत	-7.53522
▁तुम्हाला	-7.53579
▁जाऊ	-7.53638
▁बदल	-7.53915
▁चाचण्या	-7.5394
▁लागू	-7.53994
▁करण्याची	-7.5401
▁दिवस	-7.54516
▁लक्षणे	-7.5462
▁ने	-7.55375
CoV	-7.55421
▁ठाकरे	-7.5556
▁आवश्यक	-7.55813
▁होण्या	-7.5603
▁केल्या	-7.56182
▁बोलताना	-7.56513
▁दिसून	-7.56573
▁प्रवास	-7.56909
▁प्रयत्न	-7.5779
▁10	-7.58725
▁रोजी	-7.58846
▁दाखल	-7.59118
पणे	-7.59639
▁जाईल	-7.59965
%	-7.59989
ांच्या	-7.60767
▁भारत	-7.61061
▁करणाऱ्या	-7.61742
▁SARS	-7.61868
▁तो	-7.62033
▁कोणत्या	-7.62187
नं	-7.62672
▁रुग्णांची	-7.62959
सीओव्ही	-7.62973
▁मागणी	-7.63101
ीन	-7.63138
सह	-7.63188
ई	-7.63236
▁शिक्षण	-7.6335
२	-7.63505
द	-7.63831
▁भागात	-7.658
▁संसर्गा	-7.65882
▁ती	-7.65919
▁योग्य	-7.66444
▁प्र	-7.66536
▁देखील	-7.66647
▁जाते	-7.6696
2	-7.67016
▁काळजी	-7.67266
बाबत	-7.68272
▁तीन	-7.6906
री	-7.69072
▁मुख्यमंत्री	-7.6922
▁पुन्हा	-7.69675
▁सेवा	-7.69711
ते	-7.70003
▁विचार	-7.70394
▁1	-7.70691
▁मी	-7.71062
▁उद्धव	-7.71117
▁यांना	-7.71292
▁पूर्ण	-7.72274
▁बीबीसी	-7.72598
ग	-7.7346
▁पहिल्या	-7.73673
▁दर	-7.73691
▁कोटी	-7.73825
▁कोरोनाची	-7.73883
▁उत्पादन	-7.74219
▁प्रश्न	-7.74575
▁पंतप्रधान	-7.7464
▁परीक्षा	-7.74655
▁महाराष्ट्र	-7.7477
▁राज	-7.74852
▁असू	-7.74873
/	-7.7515
▁संबंधित	-7.75353
▁याचा	-7.75407
▁संपर्क	-7.76077
▁सार्स	-7.76731
▁विकसित	-7.7721
ांमध्ये	-7.7757
द्वारे	-7.7762
▁ला	-7.77677
▁तेव्हा	-7.78203
▁ज	-7.78931
▁तुम्ही	-7.79345
श	-7.79454
▁लसी	-7.7959
▁मे	-7.80217
▁किती	-7.80375
▁ठिकाणी	-7.80404
वा	-7.80581
मधून	-7.80654
▁रुग्णांना	-7.80665
▁धोका	-7.80908
▁सार्वजनिक	-7.80951
▁करता	-7.80958
▁चा	-7.8099
▁शहरात	-7.81313
▁बाहेर	-7.81434
▁महिन्यात	-7.81487
▁पुरवठा	-7.81498
ेंद्र	-7.81728
▁5	-7.8245
▁डेटा	-7.8256
▁2	-7.83196
▁करतात	-7.83394
▁ऑफ	-7.83661
▁आढळून	-7.83667
ातील	-7.8438
▁झाल्या	-7.84693
▁वाढ	-7.85075
▁भाग	-7.85228
▁असताना	-7.85585
▁आल्या	-7.858
▁नये	-7.85823
▁स्पष्ट	-7.85904
▁होईल	-7.85916
▁श	-7.86329
▁अभ्यास	-7.86365
▁लहान	-7.86489
▁लक्षणं	-7.86654
▁संपूर्ण	-7.87072
▁वेळ	-7.8748
▁टेस्ट	-7.87605
▁प्रत्येक	-7.87625
▁चर्चा	-7.87704
वरील	-7.87933
▁याबाबत	-7.88149
▁विविध	-7.88221
▁तसंच	-7.88282
▁भर	-7.88705
▁डॉक्टर	-7.8887
▁लागण	-7.88897
सोबत	-7.89195
▁गेले	-7.89262
ांची	-7.89276
▁असतात	-7.89321
ीय	-7.89373
▁पॉझिटिव्ह	-7.89416
तून	-7.89726
▁जानेवारी	-7.89872
-2	-7.89946
▁असतो	-7.8999
▁आहोत	-7.90581
▁जगभरात	-7.90581
▁अंदाज	-7.90581
▁सूचना	-7.90686
▁करण्यास	-7.9074
▁नोंद	-7.91279
णाऱ्या	-7.91581
▁दिला	-7.91814
▁उत्तर	-7.92652
या	-7.92657
▁ब	-7.92681
नुसार	-7.93118
▁कंपनी	-7.93282
ंच्या	-7.93482
▁उच्च	-7.93669
ंग	-7.94194
ह	-7.94372
▁असल्याच	-7.94389
पैकी	-7.94391
▁जिल्ह्यात	-7.94757
1	-7.95236
▁19	-7.95609
▁वि	-7.95997
▁घेतला	-7.96409
▁देश	-7.96431
▁साथी	-7.96479
▁करा	-7.96651
▁केसेस	-7.96745
▁मला	-7.96748
▁त्यात	-7.97074
िंग	-7.97516
▁मोदी	-7.97799
▁4	-7.97801
▁एकूण	-7.9931
▁3	-7.99412
▁पर्यंत	-7.99794
▁तुमच्या	-8.00096
ळ	-8.00106
▁त्यानंतर	-8.00256
▁वाढत	-8.0038
▁प्रतिबंध	-8.00393
ांवर	-8.00605
▁दरम्यान	-8.00815
▁खूप	-8.01283
▁दिसत	-8.0131
▁आजारा	-8.01418
▁प्रभावी	-8.01621
▁फक्त	-8.01957
▁लोकां	-8.01985
▁असल्याने	-8.02081
▁झालं	-8.02486
ॅ	-8.02542
▁सरकारी	-8.03287
▁याची	-8.03336
▁बेड्स	-8.03361
▁केंद्रीय	-8.03429
▁म	-8.03591
ांचा	-8.03598
ंड	-8.04026
▁आढळले	-8.04522
▁7	-8.0466
▁त्रास	-8.04662
▁पाहिजे	-8.047
ण्यासाठी	-8.04756
थ	-8.04789
▁घरी	-8.04825
णं	-8.04972
ेवळ	-8.05212
ायला	-8.05224
▁“	-8.05367
▁पाच	-8.05471
अ	-8.05532
▁20	-8.05637
▁प्रतिसाद	-8.06048
▁जेव्हा	-8.06075
▁ग	-8.06175
▁होत्या	-8.06259
▁यासाठी	-8.06375
▁तसेच	-8.06798
▁रुग्णसंख्या	-8.0745
▁खासगी	-8.07451
▁8	-8.0768
▁विशेष	-8.07994
▁चार	-8.08151
▁गर्दी	-8.08158
▁सांगितले	-8.08159
▁असतील	-8.08195
▁ए	-8.08217
▁नियंत्रण	-8.08555
्र	-8.08894
▁त्याच्या	-8.08976
ंची	-8.08976
▁येऊ	-8.09309
▁6	-8.09782
ामध्ये	-8.10202
▁अंतर	-8.10318
▁येणाऱ्या	-8.1032
▁येथ	-8.10336
▁50	-8.11179
▁घेऊन	-8.11185
▁ठेवण्या	-8.11327
दा	-8.11687
▁सु	-8.11745
▁जाणार	-8.11763
▁शिफारस	-8.11782
▁सो	-8.11796
▁व्यक्त	-8.11839
▁शरीरात	-8.12118
▁अजून	-8.12524
▁द	-8.13259
▁लागेल	-8.13269
▁रात्री	-8.13272
▁दोन्ही	-8.1331
▁लशीच्या	-8.13468
बद्दल	-8.13545
8	-8.13703
▁प्रमुख	-8.14028
▁आदेश	-8.14078
▁आ	-8.14159
▁दिल्ली	-8.14427
4	-8.14605
▁सुरुवात	-8.14734
▁कार्यक्रम	-8.14738
▁शोध	-8.15033
▁नाव	-8.15376
ंनी	-8.15397
▁सेंटर	-8.15464
▁कर्मचारी	-8.15542
ंमध्ये	-8.15544
▁करताना	-8.15705
▁अधिकारी	-8.15831
▁फ	-8.16348
व्ह	-8.16407
▁ताप	-8.16489
ंचा	-8.16667
ातून	-8.1686
ण्यात	-8.17034
’	-8.17086
▁सं	-8.17093
▁कालावधी	-8.17482
ास	-8.17567
▁ग्रामीण	-8.17869
▁त्याचा	-8.17902
▁घेतली	-8.17966
▁हॉस्पिटल	-8.18066
▁वेगान	-8.18314
▁आर्थिक	-8.18779
00	-8.18982
6	-8.19009
१	-8.19448
▁आणखी	-8.19449
▁‘	-8.19449
▁करावी	-8.19468
▁स्थानिक	-8.19568
▁तीव्र	-8.19609
▁नव्या	-8.19632
▁रोग	-8.19802
झ	-8.20147
▁विद्यार्थ्यां	-8.21122
▁जिल्हा	-8.21207
ंचे	-8.21265
s	-8.21364
▁होण्याची	-8.21581
▁वा	-8.21764
▁टोपे	-8.21868
▁गेली	-8.2187
9	-8.21906
▁क्षेत्रात	-8.21989
▁फेब्रुवारी	-8.22191
ाय	-8.22218
▁आधी	-8.22306
▁आपल	-8.22457
▁होणाऱ्या	-8.22675
▁पर्याय	-8.22688
▁असणाऱ्या	-8.227
▁पुणे	-8.2275
▁मुंबईत	-8.22927
ष	-8.22973
▁धुण्या	-8.23052
▁लशीं	-8.23094
▁प	-8.23235
सारख्या	-8.23462
▁जी	-8.23512
▁माहितीनुसार	-8.23708
▁लाट	-8.23798
▁घेण्यात	-8.23827
▁राष्ट्रीय	-8.24259
▁जातो	-8.24481
रा	-8.2453
▁नंतर	-8.24635
णे	-8.24713
तात	-8.24794
▁करणार	-8.24906
▁शकत	-8.25059
▁प्रवेश	-8.25128
▁नागपूर	-8.25188
▁परंतु	-8.25188
▁घोषणा	-8.25189
▁अन्य	-8.252
▁प्रमाणावर	-8.25364
▁प्रदेश	-8.25705
▁लॉकडाउन	-8.26105
▁सहा	-8.26204
िया	-8.26308
ेल	-8.26615
ामुळे	-8.2663
▁एचसीओव्ही	-8.26896
▁करणं	-8.26898
▁सर्वाधिक	-8.26922
▁12	-8.27235
▁इ	-8.27368
हून	-8.2752
सा	-8.27552
▁परत	-8.27557
▁पेक्षा	-8.27783
▁शक्य	-8.27787
▁ऑक्सिजनची	-8.2823
▁विभागा	-8.28442
▁येथे	-8.28703
▁कधी	-8.2872
▁यामुळे	-8.28789
▁माग	-8.28898
▁आतापर्यंत	-8.28949
▁14	-8.29115
▁आमच्या	-8.29453
▁सामान्य	-8.29502
▁उपाय	-8.30015
▁गोष्टी	-8.30336
▁सुरु	-8.3041
लेल्या	-8.30478
ध	-8.30672
▁15	-8.31139
▁प्रक्रिया	-8.3128
▁भीती	-8.3129
तः	-8.31312
▁त्यांची	-8.31477
▁30	-8.3153
▁मुख्य	-8.31701
▁वर्षा	-8.32326
ात्मक	-8.32652
िन	-8.32687
▁जो	-8.32851
▁नर	-8.32945
!	-8.33087
▁झाल्यानंतर	-8.33199
▁संशोधन	-8.33458
▁पुण्यात	-8.33519
ंवर	-8.33523
▁मते	-8.33854
से	-8.33881
सी	-8.33891
▁इन्स्टिट्यूट	-8.34007
ेस	-8.34121
▁त्याची	-8.34178
▁आकडेवारी	-8.34895
▁पुष्टी	-8.34965
▁डॉक्टरां	-8.35018
▁निर्मिती	-8.35171
▁नियम	-8.35392
▁बेड	-8.35858
भ	-8.35864
▁तपासणी	-8.35877
▁काळ	-8.35977
▁वर्षी	-8.36014
▁अर्थ	-8.36097
▁लाटे	-8.36118
▁आपल्याला	-8.36185
▁वर्षां	-8.3627
▁9	-8.36412
▁वर	-8.36436
▁तास	-8.367
अत्यावश्यक	-8.36808
▁तुटवडा	-8.36808
ंतर्गत	-8.36819
▁करते	-8.36862
शल	-8.36943
▁ह	-8.37072
▁म्हटलंय	-8.37245
▁लशीचा	-8.3729
पा	-8.37303
▁बस	-8.37437
कर	-8.37728
▁कोणती	-8.37766
▁प्राथमिक	-8.37839
▁आरोग्यमंत्री	-8.37889
▁अत्यं	-8.37926
▁क्षमता	-8.37963
▁यांचा	-8.38567
▁चे	-8.38608
▁घर	-8.38694
▁स्पर्श	-8.38721
▁टप्प्यात	-8.38732
▁रेमडेसिवीर	-8.38801
▁एखाद्या	-8.38857
▁मोठा	-8.38874
▁त्याला	-8.39113
▁बरे	-8.39308
▁चालू	-8.39431
▁अहवाल	-8.39674
▁असल्यास	-8.39816
▁क्वारंटाईन	-8.39831
▁दुसरी	-8.39857
वरून	-8.40293
थेट	-8.40345
▁देण्या	-8.40467
▁सुरक्षित	-8.40576
▁आव्हान	-8.40674
▁पत्रकार	-8.40694
▁करावा	-8.40738
ीत	-8.40749
▁मोठी	-8.40834
स्ट	-8.41303
▁लोकांच्या	-8.41532
▁सा	-8.41563
▁मग	-8.41739
▁नियोजन	-8.41765
▁आम्हाला	-8.41777
णार	-8.41778
7	-8.41873
▁उद्रेका	-8.41999
▁फार	-8.42079
ांसाठी	-8.42136
▁विषाणूच्या	-8.42336
▁यावर	-8.42428
▁तुलनेत	-8.43673
▁जोखीम	-8.43673
▁नोंदणी	-8.43733
▁असलेले	-8.43841
▁देशा	-8.44017
▁लोकांनी	-8.44035
▁करतो	-8.44038
▁नागरिक	-8.44228
णी	-8.44265
▁वय	-8.44371
a	-8.44442
▁सामाजिक	-8.44793
▁भारता	-8.45093
▁पातळी	-8.45117
▁मर्याद	-8.45171
▁संभाव्य	-8.45475
▁घेत	-8.45581
▁समोर	-8.45622
▁साठी	-8.45641
▁जवळपास	-8.45729
▁सुविधा	-8.45897
ंत	-8.45932
▁मराठी	-8.45954
▁WHO	-8.45995
▁सरकारच्या	-8.46069
▁श्वसन	-8.46405
▁इंजेक्शन	-8.46672
▁अवलंब	-8.46766
▁दिलं	-8.46781
▁स्वतः	-8.46792
▁सुरक्षा	-8.46798
▁पालन	-8.46837
▁दिल्या	-8.46843
▁जातं	-8.46861
▁देत	-8.46934
▁प्रति	-8.46943
ंट	-8.47019
▁उ	-8.47231
४	-8.47243
▁त्यासाठी	-8.47441
▁संक्रमण	-8.47509
▁रुग्णांच्या	-8.47542
▁असल्याची	-8.47551
▁यात	-8.47556
▁जीव	-8.47852
▁भारतीय	-8.47912
▁तिथे	-8.4801
र्	-8.48149
▁बाधित	-8.48183
न्स	-8.48202
ताना	-8.48381
▁युके	-8.48501
▁लाटेत	-8.48609
स्त	-8.48859
▁खर्च	-8.48971
▁जनते	-8.49036
▁संस्था	-8.49312
▁रेल्वे	-8.49958
▁आरोप	-8.49961
▁सल्ला	-8.49968
▁डिसेंबर	-8.49999
स्	-8.5002
▁लोकसंख्ये	-8.50062
▁वुहान	-8.50063
▁मुलांना	-8.50111
▁11	-8.50197
वेळी	-8.50203
(	-8.50672
▁24	-8.50872
▁होऊन	-8.50953
र्स	-8.51023
▁श्वास	-8.51045
▁वाहतूक	-8.51046
▁करावं	-8.51048
▁को	-8.51079
▁मुलां	-8.51346
प्रमाणे	-8.51646
▁तयारी	-8.51851
▁दूर	-8.52153
▁बहुतांश	-8.52185
रित्या	-8.52243
ख	-8.52325
▁महिन्या	-8.5246
▁रुग्णालय	-8.52525
▁हॉस्पिटलमध्ये	-8.52846
▁लोकांमध्ये	-8.53104
▁पोलीस	-8.53255
▁विद्यार्थी	-8.53314
▁घेण्यासाठी	-8.53412
▁१	-8.53435
▁मधील	-8.5354
▁उपस्थित	-8.53596
▁प्रकरणां	-8.53716
▁वाट	-8.53718
शा	-8.53757
दरम्यान	-8.54169
▁प्रशासना	-8.5423
▁आजारी	-8.54348
▁फ्लू	-8.54394
▁सौम्य	-8.54455
▁जातात	-8.545
ाचं	-8.54535
0	-8.54577
▁मध्य	-8.54602
▁त्यांचे	-8.54604
▁पूर्व	-8.54754
जसे	-8.5498
▁दिवसात	-8.5499
n	-8.55101
▁सगळ्या	-8.55176
▁मंत्री	-8.55455
▁अध्यक्ष	-8.55518
▁पवार	-8.55527
▁दिलेल	-8.55608
▁सकाळी	-8.55624
▁येण्या	-8.55717
▁नमुने	-8.55907
▁पातळीवर	-8.5637
▁सांगण्या	-8.56594
▁अनुभव	-8.56666
▁अद्याप	-8.56666
▁कोव्हॅक्सिन	-8.56868
▁ची	-8.5689
विषयी	-8.57039
▁संपर्कात	-8.57063
▁झालेली	-8.57188
▁बायोटेक	-8.57353
ण्याची	-8.57383
▁साथ	-8.57452
▁दिव	-8.57555
▁उद्रेक	-8.57667
जन्य	-8.57706
▁नका	-8.57826
”	-8.57827
▁तिसऱ्या	-8.57827
▁रद्द	-8.5783
▁माध्यमातून	-8.57841
▁साठा	-8.57909
▁दुसरा	-8.57989
▁देशांमध्ये	-8.58147
का	-8.58319
ेट	-8.58557
▁मानवी	-8.58566
▁के	-8.587
आ	-8.58772
ांत	-8.58817
▁18	-8.58839
▁दररोज	-8.59083
▁माझ्या	-8.592
िल	-8.59733
▁सरकारला	-8.60043
▁होणे	-8.602
▁मान्यता	-8.60232
▁साबण	-8.60549
▁पासून	-8.60704
ांचे	-8.60792
▁इटली	-8.60892
▁जवळ	-8.61088
▁चाचण्यां	-8.61391
▁व्यवस्था	-8.61398
▁राहतील	-8.61526
▁ओळख	-8.6155
▁केल्यानंतर	-8.61603
▁बैठक	-8.61644
▁नागरिकांना	-8.61809
▁र	-8.62004
▁विलगीकरण	-8.62007
मधल्या	-8.62079
▁रुग्णांचा	-8.62114
5	-8.62344
बल	-8.62481
▁राज्या	-8.62496
▁लशीचे	-8.62508
▁त	-8.62596
▁कडक	-8.6262
▁पद्धती	-8.62666
▁प्रभावित	-8.62767
▁काढ	-8.62887
▁करावे	-8.63215
▁योजना	-8.63425
▁आवश्यकता	-8.63437
▁मिळाली	-8.63853
▁राजकीय	-8.63918
ंद	-8.64041
▁होतात	-8.64295
▁झालेले	-8.64353
▁सोड	-8.64605
▁जाण्या	-8.64753
▁कशी	-8.64952
रे	-8.6497
▁परिणामकारक	-8.65086
▁सुमार	-8.65103
▁लागली	-8.65104
▁संरक्षण	-8.65124
▁पुढ	-8.65154
▁आमच	-8.65281
▁कोरोनाव्हायरस	-8.65495
▁म्हणजेच	-8.65501
▁आठवड्यात	-8.65611
टी	-8.65799
सुद्धा	-8.66171
▁कार्य	-8.66177
वि	-8.66181
▁संनिरीक्षण	-8.66243
▁दक्षिण	-8.66369
▁जिथे	-8.66374
▁ठर	-8.6638
▁बऱ्याच	-8.66452
▁यंत्रणा	-8.66461
▁कर्मचाऱ्यांना	-8.66483
▁सुद्धा	-8.66568
▁मूळ	-8.66658
▁झाल्याचं	-8.66773
▁पुढील	-8.66884
▁साम	-8.67158
▁मत	-8.67199
मान	-8.67485
▁मार्ग	-8.67489
▁आवाहन	-8.67651
▁फोर्स	-8.67658
▁लागणार	-8.67703
▁हवा	-8.67892
▁असणार	-8.67929
▁मिळत	-8.68
▁ख	-8.68114
▁जाण	-8.68216
▁गाव	-8.68372
i	-8.68395
▁ना	-8.68548
▁प्राणवायू	-8.6895
ार	-8.69132
▁त्यांचा	-8.69225
िष्ट	-8.69363
प्र	-8.69389
र्ड	-8.69759
▁महत्त्वाच	-8.69839
जी	-8.69973
सारखी	-8.70121
▁टास्क	-8.70266
▁सप्टेंबर	-8.70296
मी	-8.70353
▁16	-8.7105
▁परिस्थितीत	-8.71098
ानुसार	-8.71105
▁घट	-8.71495
▁बंदी	-8.71547
▁कर्मचाऱ्यां	-8.71583
▁दशलक्ष	-8.71599
▁खरेदी	-8.71601
▁मार्गदर्शक	-8.71612
▁अन्न	-8.71653
नल	-8.71769
▁संसर्गजन्य	-8.71784
▁सर्वां	-8.71795
तो	-8.72097
▁रूग्ण	-8.72232
▁सत	-8.72532
▁आठवड्या	-8.72555
▁केलेली	-8.72724
▁यांची	-8.72807
▁साध	-8.72852
▁करणारे	-8.72881
▁चिकित्सालय	-8.72981
पूर्वी	-8.73126
▁असलेली	-8.73183
▁मोहीम	-8.735
▁C	-8.7363
▁क्षेत्र	-8.73665
▁जागा	-8.73729
▁वेळी	-8.73964
▁रि	-8.74183
इ	-8.74236
▁निदान	-8.74342
▁जगात	-8.74358
▁तज्ज्ञ	-8.74529
▁पर	-8.74595
ानंतर	-8.74626
▁वाढली	-8.74641
▁वाटतं	-8.74778
▁समस्या	-8.7478
▁देशभरात	-8.74917
r	-8.75014
▁तरीही	-8.75045
▁भ	-8.75063
्म	-8.75191
3	-8.75277
टे	-8.75432
▁मानवा	-8.75493
▁तोंड	-8.75503
▁नसेल	-8.7571
▁गेला	-8.75721
▁वितरण	-8.75725
▁डि	-8.75731
▁करुन	-8.75778
▁नागरिकां	-8.75857
▁विशिष्ट	-8.75864
▁पहिला	-8.75975
त्र	-8.76224
७	-8.76352
▁पत्र	-8.76481
▁यावेळी	-8.76486
▁इंडिया	-8.76682
कार	-8.76744
▁संख्ये	-8.76755
▁विरोधी	-8.76929
▁त्याचे	-8.77073
▁आढावा	-8.77117
▁प्रादुर्भाव	-8.77117
▁अगदी	-8.77117
▁फायझर	-8.7712
▁फोन	-8.77132
▁2021	-8.77171
▁देशांनी	-8.7739
▁देण्यासाठी	-8.7744
सं	-8.77442
▁सह	-8.7761
▁असल्याचा	-8.78086
▁100	-8.78122
▁देऊ	-8.78265
ए	-8.78392
्व	-8.78434
पूर	-8.78538
▁सचिव	-8.78544
▁अंमलबजावणी	-8.78546
▁दावा	-8.78548
▁नसलेल्या	-8.78627
▁वेगवेगळ्या	-8.78677
▁प्रणाली	-8.78707
▁होम	-8.78731
▁येते	-8.78746
▁सुरुवातीला	-8.78936
डी	-8.78975
▁शहर	-8.79097
▁आधारित	-8.791
▁दिवसांत	-8.79166
▁स्व	-8.79475
▁कुटुंब	-8.79606
▁घ्या	-8.79725
▁फडणवीस	-8.79995
▁संक्रमित	-8.79995
▁सीरम	-8.79995
▁म्युटेशन	-8.79996
▁गरजेचं	-8.80002
▁उद्योग	-8.80002
के	-8.80016
▁सॅनिटायझर	-8.8005
दर	-8.80058
▁नसल्याचं	-8.80098
▁निश्चित	-8.80137
▁नेते	-8.80186
▁सूच	-8.80255
ापासून	-8.80267
ावी	-8.80386
▁रुग्णांमध्ये	-8.80614
▁घरात	-8.80773
टा	-8.80849
▁घेऊ	-8.8114
▁रिपोर्ट	-8.81449
▁ट्वीट	-8.81466
▁करायला	-8.81477
▁ऑक्सफर्ड	-8.81543
▁सिरम	-8.81544
ती	-8.81569
▁कसं	-8.81588
काली	-8.81673
▁तज्ज्ञां	-8.81752
▁भाजप	-8.8176
▁व्यक्तीला	-8.81977
▁संबंध	-8.8198
▁महाराष्ट्रा	-8.81993
▁टन	-8.82126
ठ	-8.8215
▁लावण्या	-8.82287
▁कि	-8.82785
▁60	-8.82801
A	-8.82838
▁व्हेरियंट	-8.82923
▁आंतर	-8.82959
▁मेडिकल	-8.8296
▁2019	-8.83094
▁अडचणी	-8.83214
▁पद्धतीने	-8.83363
▁ACE	-8.83397
▁रुग्णालया	-8.83584
▁ति	-8.83673
▁रुग्णांवर	-8.8377
▁झाल्याने	-8.83843
▁लवकर	-8.83993
▁200	-8.84
▁वेग	-8.84089
ल्यानंतर	-8.84314
▁झाल्याचे	-8.84349
ः	-8.84375
▁युनायटे	-8.84473
▁कठोर	-8.84478
▁होणं	-8.84483
▁अर्ज	-8.84525
▁म्हणणं	-8.84531
▁रोखण्यासाठी	-8.84583
▁साधारण	-8.84599
▁घटना	-8.84605
कोरोना	-8.84656
ऱ्या	-8.8468
दार	-8.84695
▁असल्या	-8.84809
▁महत्त्वाचं	-8.84922
▁सी	-8.85092
चित	-8.85236
▁पार	-8.8525
▁वाढव	-8.85614
▁अमेरिके	-8.85871
▁समाव	-8.85914
▁ओ	-8.85952
▁उपयोग	-8.86012
▁संचालक	-8.86012
▁टीका	-8.86036
पूर्ण	-8.86067
▁दिवसांपासून	-8.86098
▁बैठकीत	-8.86477
▁व्यक्तींना	-8.86482
t	-8.86645
▁शकतं	-8.8669
▁पा	-8.86798
C	-8.86826
▁येतील	-8.87164
जारी	-8.8718
▁संघटने	-8.8726
ओ	-8.87338
▁ऑनलाईन	-8.87574
▁कमतरता	-8.87574
▁भूमिका	-8.87574
▁दुसरीकडे	-8.87663
▁घेता	-8.87809
▁अमरावती	-8.87827
बरोबर	-8.87972
६	-8.88033
▁प्रशासनाने	-8.88127
▁याविषयी	-8.88391
को	-8.8842
▁अधिकाऱ्यांन	-8.8848
▁पूर्णपण	-8.8852
▁शरीरा	-8.8876
▁नाक	-8.88992
र्ट	-8.89039
▁केअर	-8.89138
▁चिंता	-8.89159
▁रुपये	-8.89162
▁कारवाई	-8.89163
▁रुग्णसंख्ये	-8.89163
u	-8.89172
▁चौकशी	-8.89185
▁म्हटले	-8.8926
c	-8.89328
दीप	-8.89367
▁पडत	-8.89382
▁व्यक्तीं	-8.89614
▁ज्यात	-8.8964
S	-8.89791
व्या	-8.89881
▁मो	-8.89946
▁पूर्वी	-8.89988
िड	-8.90293
दी	-8.90364
▁पुण्या	-8.90411
▁प्रशासन	-8.90428
▁17	-8.90648
▁नव्हती	-8.90775
▁कुठे	-8.90775
▁धुणे	-8.90775
▁आलेला	-8.90791
▁संवाद	-8.90793
▁शै	-8.90799
▁आत	-8.90801
▁महिन्यां	-8.90871
e	-8.90896
▁रेमडेसिव्हिर	-8.90909
समोर	-8.90946
▁तुमच	-8.91319
▁बे	-8.91319
िट	-8.91449
▁देव	-8.91498
▁महत्त्वाची	-8.91861
्यात	-8.92126
नि	-8.92218
▁31	-8.92236
ेशन	-8.92278
५	-8.92385
▁अजित	-8.92416
▁एकत्र	-8.92444
▁घेतल्यानंतर	-8.92483
▁देणार	-8.92514
▁खा	-8.92532
N	-8.92566
▁अमेरिकेत	-8.92578
राष्ट्रीय	-8.92603
▁उभ	-8.92743
▁मु	-8.92952
▁सदस्य	-8.9311
▁दिल्लीत	-8.93244
▁40	-8.93293
▁एकाच	-8.93439
▁घेतले	-8.93461
▁टाक	-8.93503
▁महिला	-8.93598
▁मूळा	-8.93701
RCGP	-8.94081
▁वारंवार	-8.94081
▁आकडा	-8.94081
▁पार्श्वभूमीवर	-8.94081
▁दहा	-8.94096
▁घ्यावी	-8.94096
▁पाणी	-8.94105
िश	-8.94237
ेड	-8.94297
o	-8.94414
▁छाती	-8.94479
▁रोगा	-8.94499
▁घेण्या	-8.94512
▁७	-8.94516
▁व्हायरसच्या	-8.94691
िम	-8.94781
जा	-8.9521
ियन	-8.95251
▁80	-8.95551
▁तपास	-8.95555
मंत्री	-8.95653
▁त्यावर	-8.9573
▁राहणार	-8.95798
▁जण	-8.95809
▁विभाग	-8.9581
▁उदाहरणार्थ	-8.95818
▁रेमडेसिविर	-8.95891
▁संकट	-8.95953
▁कमीत	-8.96042
▁नेमक	-8.9607
▁पुरव	-8.9614
एस	-8.96192
▁निष्कर्ष	-8.96398
▁विकास	-8.96416
▁कोड	-8.96496
▁घटक	-8.96591
▁पाण्या	-8.96592
▁पेशी	-8.96838
▁मार्चला	-8.96891
वे	-8.97061
,000	-8.97134
▁येतात	-8.97249
▁लागल्या	-8.9732
▁व्यवसाय	-8.975
▁व्यावसायिक	-8.975
▁लागला	-8.97501
▁लागले	-8.97505
▁असली	-8.97593
▁स्वच्छता	-8.97593
▁५	-8.97775
गा	-8.97786
▁नव	-8.97801
▁पहिली	-8.97847
▁रक्त	-8.97874
▁चीनमध्ये	-8.9799
▁विमान	-8.981
▁I	-8.98182
लो	-8.98193
▁प्रभाव	-8.98277
▁जून	-8.98291
राव	-8.98429
▁सात	-8.98431
▁शेवट	-8.9845
▁अॅप	-8.9857
▁लागत	-8.99214
I	-8.99229
वी	-8.99234
▁उद्देश	-8.99254
▁प्रोटोकॉल	-8.99254
▁अतिशय	-8.99254
शे	-8.99286
▁खोकला	-8.99382
▁प्रकाशित	-8.99388
संबंधी	-8.99388
▁संशयित	-8.99466
▁घेण्यास	-8.99473
▁कसा	-8.99496
▁सीओव्ही	-8.997
▁एकदा	-8.99752
▁गृह	-8.99782
▁वर्षे	-8.99979
R	-9.0015
▁महाराष्ट्राला	-9.00183
▁वर्ग	-9.00351
D	-9.00425
▁वाढू	-9.00484
▁महा	-9.00495
▁ल	-9.00728
▁त्याच	-9.00754
▁दाखव	-9.00793
▁स्वच्छ	-9.009
▁व्हेंटिलेटर	-9.0095
▁पश्चिम	-9.0104
▁महामारी	-9.0104
▁RSC	-9.0104
▁संघटना	-9.01041
▁आयुक्त	-9.01049
मधल	-9.01057
▁मिळेल	-9.01086
▁जि	-9.0112
▁जाणवत	-9.01223
▁ठिकाण	-9.01236
▁लक्षण	-9.01254
▁आधीच	-9.0128
▁विद्यार्थ्यांना	-9.01307
▁मंत्रालयाने	-9.01329
▁कामगार	-9.01417
▁व्यवस्थापन	-9.01535
▁रा	-9.01597
▁लसीकरणासाठी	-9.01672
तल्या	-9.01729
▁आलंय	-9.01782
▁डे	-9.01805
▁प्रसिद्ध	-9.01816
▁अधिकाऱ्यां	-9.01861
▁मुलांमध्ये	-9.01894
▁पुरेस	-9.01932
८	-9.01981
▁ट	-9.02015
▁रोज	-9.02126
▁25	-9.02179
▁हळू	-9.02273
डा	-9.02544
▁एखाद	-9.02601
▁समज	-9.02616
▁पालक	-9.02688
क्लिनिकल	-9.02721
▁धार्मिक	-9.02858
तिरिक्त	-9.02858
▁सोनू	-9.02861
▁बातमी	-9.02863
▁जैविक	-9.02867
▁ICU	-9.02982
▁जर्मनी	-9.03028
▁नसल्याने	-9.03098
▁त्यावेळी	-9.03115
▁आग	-9.03352
▁गोळ	-9.03478
ीण	-9.0351
िका	-9.03646
१९	-9.03767
▁कंपनीने	-9.03846
▁रूग्णां	-9.04172
करून	-9.04206
िमान	-9.04364
▁महापालिके	-9.04376
▁70	-9.04471
▁विषय	-9.045
▁हॉटेल	-9.04617
T	-9.04621
च्च	-9.04685
▁हेल्थ	-9.0471
▁अपेक्षित	-9.04717
▁पोस्ट	-9.04722
▁प्रदान	-9.04732
▁काँग्रेस	-9.04752
▁पुरवठ्या	-9.04753
▁स्ट्रेन	-9.04839
▁आठवड्यां	-9.04859
ंपैकी	-9.0489
▁वाद	-9.04903
▁मदती	-9.04972
E	-9.0505
भूत	-9.05086
▁दुकाने	-9.05109
▁असलेला	-9.05361
▁28	-9.05405
▁पाळी	-9.05487
▁दु	-9.05578
▁राज्यांना	-9.05637
▁भेट	-9.05745
▁S	-9.05796
कल	-9.05813
▁शिवाय	-9.05891
▁लक्षणां	-9.06173
▁संदर्भात	-9.06324
ज्ञात	-9.06445
▁23	-9.06544
▁इशारा	-9.06597
▁उत्पन्न	-9.06597
▁खात्री	-9.06604
▁तासां	-9.06607
▁जाणाऱ्या	-9.06626
▁रविवार	-9.06725
▁मृत्यूदर	-9.06736
▁महत्वाच	-9.06769
▁कोणताही	-9.06779
▁नि	-9.06835
▁आल्यानंतर	-9.06854
▁यु	-9.06855
▁लोकांची	-9.06889
ंजय	-9.06956
▁सहभागी	-9.06974
०	-9.07141
▁वापरासाठी	-9.07246
व्हा	-9.07265
▁नगर	-9.07296
▁स्वत	-9.07431
▁दिवसा	-9.07459
▁असाल	-9.07725
चिनी	-9.07802
हा	-9.08065
ंसाठी	-9.0809
al	-9.08131
▁ठेवा	-9.08135
▁वेळा	-9.08155
▁संस्थे	-9.08188
▁माज	-9.08276
ांचं	-9.08406
▁नियमावली	-9.08481
▁ज्येष्ठ	-9.0852
▁तथापि	-9.0852
▁असतं	-9.08522
▁चित्र	-9.08522
▁आपत्	-9.08573
▁ई	-9.08741
▁जग	-9.08838
▁मिनिट	-9.08911
▁असण्याची	-9.08918
▁प्रकल्प	-9.08938
▁लागतील	-9.08989
ाल	-9.09027
▁जबाबदारी	-9.09031
▁प्राणी	-9.09066
▁३	-9.09103
▁करोनाबाधित	-9.0912
▁येतो	-9.09165
m	-9.09271
▁आधार	-9.0941
▁जातील	-9.09586
▁पडू	-9.09687
d	-9.09911
▁वर्ष	-9.09912
ेन	-9.09933
▁विरोधात	-9.10047
▁कुठल्या	-9.1048
▁निवडणूक	-9.10484
▁सर्दी	-9.10493
▁आयसोलेशन	-9.10526
▁बहु	-9.10563
▁असले	-9.10792
▁जिम	-9.10979
जवळ	-9.11028
ीकरण	-9.11059
▁नियंत्रणात	-9.11063
्यू	-9.11295
▁पेशीं	-9.11467
▁बोल	-9.11488
▁90	-9.11755
▁महत्त्व	-9.1191
▁कंपन्या	-9.11995
▁वाटत	-9.12228
▁१०	-9.12448
V	-9.12463
▁युनिव्हर्सिटी	-9.12481
▁पाटील	-9.12481
▁नाशिक	-9.12509
▁व्हॅक्सिन	-9.12587
▁त्यांचं	-9.12614
▁आकडे	-9.12625
P	-9.12792
▁प्राप्त	-9.12831
▁कायम	-9.12856
▁पाहता	-9.12923
▁बाबतीत	-9.12939
्ट	-9.13001
▁कोणी	-9.13012
▁घड	-9.13039
▁मनात	-9.13128
▁झाल्यास	-9.13242
एन	-9.1333
▁22	-9.13432
▁थांब	-9.13642
▁फायद	-9.137
▁यांच्याशी	-9.13701
▁गोष्ट	-9.13724
▁गु	-9.13782
▁डॉक्टर्स	-9.13823
▁कोरोनाग्रस्तां	-9.13861
▁साबणा	-9.13913
▁जणां	-9.1409
▁टक्क्यां	-9.14195
▁जंतू	-9.14521
▁महापालिका	-9.14521
▁मानसिक	-9.14522
▁प्रोटीन	-9.14535
▁सादर	-9.14543
▁अधिकृत	-9.14575
▁देताना	-9.14597
क्षणिक	-9.14689
▁सामना	-9.14707
▁दर्शव	-9.14727
▁MERS	-9.14753
▁शक्ती	-9.14785
▁सरकारनं	-9.14911
भर	-9.14961
▁सोबत	-9.1511
देखील	-9.1513
▁मान	-9.15274
बी	-9.15279
▁लागते	-9.15458
▁बाब	-9.15526
▁मानव	-9.15744
▁टाळ	-9.15961
▁आलेले	-9.15981
▁केस	-9.16063
▁सुरुवाती	-9.16089
▁मार	-9.16106
▁वेगळ	-9.16182
M	-9.16471
ांशी	-9.16516
▁क्रमांक	-9.16605
▁सकारात्मक	-9.16605
▁अल्कोहोल	-9.16605
▁रशिया	-9.16605
▁संयुक्त	-9.16617
▁झपाट्यान	-9.16619
▁मर्स	-9.16672
ासह	-9.16714
▁ठ	-9.1674
जे	-9.16765
▁खास	-9.16912
▁सरकारकडून	-9.1721
▁मार्चपर्यंत	-9.17211
H	-9.1723
▁उप	-9.17285
▁जिनोम	-9.17317
▁उपाययोजना	-9.17835
,"	-9.1787
▁राज्याच्या	-9.17992
स्क	-9.18067
▁अधिकार	-9.18172
▁फुफ्फुसां	-9.18318
▁ब्रिटन	-9.18337
▁नाहीये	-9.18422
▁झा	-9.18465
▁टप्प्या	-9.18552
ूर	-9.18618
▁वेळे	-9.18695
▁यशस्वी	-9.18732
▁सिक्वेंसिंग	-9.18732
▁घेणं	-9.18732
▁मोहिमे	-9.18732
▁लागलं	-9.18733
▁घ्यायला	-9.18733
▁यूके	-9.18742
▁लांब	-9.18742
▁कोणते	-9.18764
संख्य	-9.1877
▁आई	-9.18877
ण्यास	-9.18932
▁दुकानं	-9.18944
विरोधात	-9.18967
▁धोरण	-9.18972
▁घेतलेल्या	-9.19008
▁कदा	-9.19063
▁२०	-9.19169
▁रुग्णांसाठी	-9.19198
मागे	-9.19245
▁यासंदर्भात	-9.19252
▁उपचारासाठी	-9.19298
▁२४	-9.19382
▁रूग्णांमध्ये	-9.19396
हळू	-9.19424
▁ठेवण्यासाठी	-9.1944
▁शे	-9.19506
▁श्वसना	-9.19586
▁शिक्षक	-9.19767
३	-9.19981
l	-9.20052
▁कंपन्यां	-9.20235
▁रक्ता	-9.20237
ट्र	-9.20293
▁21	-9.20419
▁लोकल	-9.2064
▁उत्पादक	-9.20755
▁परि	-9.20788
▁नेटवर्क	-9.20906
▁फ्रान्स	-9.20906
▁नव्हते	-9.20906
▁इतक्या	-9.20907
▁सर्वेक्षण	-9.20907
▁देणे	-9.20916
▁ताण	-9.20919
▁इथे	-9.20926
करिता	-9.20928
▁अनिवार्य	-9.20956
▁मिळाला	-9.20972
▁मिळणार	-9.21036
▁अति	-9.21046
▁सि	-9.21079
▁बोर्डा	-9.21244
▁खालील	-9.21246
जन	-9.21401
▁मिळव	-9.21542
गाव	-9.21713
िस	-9.21748
▁आधारे	-9.21808
ळी	-9.21896
न्	-9.21907
▁शेवटी	-9.21917
▁उघड	-9.22129
▁वयाच	-9.22249
▁१५	-9.22269
p	-9.22634
▁निरीक्षण	-9.22648
CDC	-9.22938
▁च	-9.22945
▁A	-9.22954
▁टँकर	-9.23015
एम	-9.23096
▁निवड	-9.23125
▁सोसायटी	-9.23128
▁बंगाल	-9.23129
▁कॉलेज	-9.23129
▁आणण्या	-9.23131
▁घराबाहेर	-9.23139
▁वाजेपर्यंत	-9.23141
▁कृती	-9.23145
▁कोरोनाबाधित	-9.23162
मूद	-9.23195
▁८	-9.23317
▁असल्यामुळे	-9.23337
▁जेणे	-9.23344
ांकडून	-9.23357
▁पोहोच	-9.23422
▁द्या	-9.23503
ल्ड	-9.23621
▁रुग्णालयांमध्ये	-9.2364
▁प्रच	-9.23641
▁याच	-9.24207
ाशी	-9.24376
▁भरती	-9.24407
▁जेवण	-9.24417
▁आव	-9.24761
बो	-9.2479
▁याबद्दल	-9.24947
▁शासना	-9.25078
रो	-9.25092
▁ट्रायल	-9.25311
▁मिळवण्या	-9.2535
००	-9.25358
▁मधुमेह	-9.25401
▁कारणीभूत	-9.25402
▁सहकार्य	-9.25406
▁पेपर	-9.25409
▁दहावी	-9.25419
▁हवी	-9.25434
▁वृद्ध	-9.25488
▁सर्	-9.25491
▁व्ही	-9.25509
▁बारावी	-9.25533
धा	-9.25618
तरी	-9.25712
▁कुमार	-9.25764
घ	-9.25782
ोम	-9.2585
▁विशेषत	-9.25934
ढ	-9.25943
डे	-9.26026
▁वेगळे	-9.26284
▁कार्यालय	-9.26346
▁प्राधान्य	-9.26398
▁स्थितीत	-9.26411
▁महिलां	-9.26427
▁नमुन	-9.26441
▁बैठकी	-9.26555
्युट	-9.26721
▁सर्वांना	-9.26868
▁पट	-9.2688
रण	-9.26963
▁तपासण्या	-9.27015
ाबद्दल	-9.2704
▁N	-9.27129
▁आयोगा	-9.27129
O	-9.27162
▁मंत्रालया	-9.27359
▁आयोज	-9.2736
▁बो	-9.27561
▁प्राण्यां	-9.27572
▁मात	-9.27575
▁प्रवाशां	-9.27599
हे	-9.27631
▁45	-9.27721
▁तुलना	-9.27721
▁ठेवणे	-9.27727
▁निगेटिव्ह	-9.27727
▁ब्राझील	-9.27727
▁मंजुरी	-9.27727
▁विक्री	-9.27727
▁जनरल	-9.27727
▁घेणार	-9.27728
▁करेल	-9.27741
▁अप	-9.27765
▁सक्षम	-9.27765
▁वैयक्तिक	-9.27781
▁मृत्यु	-9.27822
▁प्रवाशांना	-9.27944
▁संख्येत	-9.2795
▁मध्यम	-9.27965
▁वस्तू	-9.28009
▁एकत्रित	-9.28031
▁टोच	-9.28053
▁असता	-9.28082
▁पि	-9.28145
▁केंद्रात	-9.28156
शिवाय	-9.28212
सारखे	-9.28234
▁कठ	-9.28267
▁तालुक्यात	-9.28343
▁1.	-9.28424
▁भो	-9.28485
▁दिवसांचा	-9.28552
लक	-9.28553
▁साधला	-9.28597
ठिकाणी	-9.28632
▁बाजार	-9.28688
▁उद्भव	-9.28889
▁मा	-9.28891
▁आम	-9.28962
▁उपकरण	-9.29006
▁रोख	-9.29132
▁निर्देश	-9.29153
▁मन	-9.29172
▁शकता	-9.29238
▁प्रकरण	-9.29253
ावे	-9.2943
▁उपक्रम	-9.29442
▁४	-9.29488
▁घेतल्या	-9.29509
▁क्षेत्रा	-9.29548
▁कम	-9.29803
▁प्रवासी	-9.29831
▁यापैकी	-9.30021
▁तरुण	-9.30055
▁टाळेबंदी	-9.30108
▁मॉडर्ना	-9.30108
▁विनंती	-9.30108
▁अचानक	-9.30108
▁घेणाऱ्या	-9.30108
▁निधी	-9.30108
▁नव्हता	-9.30108
▁गेलं	-9.30111
▁राहु	-9.30119
▁रिक्त	-9.30122
▁गर्भ	-9.3013
वून	-9.30134
▁अँड	-9.30147
▁ऑक्टोबर	-9.30163
▁खबरदारी	-9.30163
▁PHE	-9.30235
▁सामान्यपणे	-9.30247
▁वाढल्या	-9.30262
▁पुरावा	-9.30271
▁शुक्रवारी	-9.30312
▁जणांना	-9.30342
▁अमेरिक	-9.30365
ुम	-9.30395
▁देण्याच	-9.30419
▁माध्यम	-9.30542
▁संघटनेने	-9.30615
▁बंधन	-9.30695
▁राज्यांमध्ये	-9.30711
▁ऑ	-9.30718
▁वेळेत	-9.30855
▁पॉल	-9.3089
त्व	-9.30957
की	-9.31038
▁पुरेश	-9.311
ावं	-9.31104
▁जिल्ह्या	-9.31181
▁संप	-9.31217
्ड	-9.31321
▁केल्यास	-9.31324
ष्ट	-9.31335
▁एन	-9.31759
िकल	-9.31968
▁२	-9.31974
▁द्वारे	-9.32099
▁गटा	-9.32245
▁मिळू	-9.32257
▁पाठव	-9.32302
ऐवजी	-9.32388
फत	-9.32446
▁प्रॅक्टिस	-9.32452
▁ट्रेन	-9.32528
▁असोसिएशन	-9.32547
▁न्यूमोनिया	-9.32547
मेट्रिक	-9.3255
▁मूल	-9.32561
▁प्रशिक्षण	-9.32568
▁ऑफिस	-9.32592
रोग	-9.32596
RNA	-9.32609
ोप	-9.32701
▁मासिक	-9.3282
▁१८	-9.32826
आधी	-9.32844
ंचं	-9.32894
▁कार्यालया	-9.32939
▁माल	-9.32955
▁जोशी	-9.33024
▁मिळाले	-9.33048
▁बाल	-9.33053
▁असला	-9.33058
नाथ	-9.331
आर	-9.3315
▁शासकीय	-9.33198
▁वयोगटात	-9.33229
▁प्रा	-9.333
▁हजारो	-9.33325
▁13	-9.3342
▁विरोध	-9.33428
▁डॉक्टरांना	-9.33493
▁वाढत्या	-9.33525
▁खाली	-9.33535
▁रेट	-9.33636
▁हवेत	-9.33665
▁प्रक्रिये	-9.33696
संदर्भात	-9.33778
ाबाबत	-9.33842
▁पसरत	-9.33934
▁भारतामध्ये	-9.33949
▁नसल्या	-9.34173
▁६	-9.34399
▁सारख्या	-9.34494
▁शोधण्या	-9.34611
▁जा	-9.34672
▁साठव	-9.34687
ॅक्ट	-9.34754
▁फॉर	-9.34771
▁अँप	-9.34811
▁अस	-9.34875
▁संक्रमणा	-9.34924
▁घालण्या	-9.34939
ाईन	-9.34976
▁त्यांच्यावर	-9.3501
▁गायकवाड	-9.35047
▁देखरेख	-9.35047
▁नेहमी	-9.35047
▁सरासरी	-9.35047
▁इंग्लंड	-9.35047
▁प्रथम	-9.35047
▁ठाणे	-9.35047
▁सहाय्य	-9.35048
▁पुरावे	-9.35053
मेंट	-9.35062
▁एकमेकां	-9.35074
▁पाहाय	-9.35138
▁युरोप	-9.35144
▁समान	-9.35195
▁काल	-9.35244
▁मोठं	-9.35248
▁संनिरीक्षणा	-9.35298
▁कोणाला	-9.35329
▁इतकी	-9.35332
▁कसे	-9.35374
पणा	-9.35462
▁कोरिया	-9.35515
▁मुलांसाठी	-9.35626
▁नमुन्यां	-9.35722
▁देशांत	-9.3573
▁जन	-9.35955
करण	-9.35969
▁होतील	-9.36011
▁चेन	-9.36065
▁बी	-9.36142
▁किंमत	-9.36189
▁निकाल	-9.36271
▁होण्यास	-9.36318
▁पे	-9.36379
▁आठ	-9.3649
वाद	-9.36743
▁मर्यादा	-9.36815
▁जगा	-9.36849
रि	-9.36881
▁प्रयोगशाळेत	-9.36888
▁गोष्टीं	-9.37097
▁माझ	-9.37239
▁आय	-9.37272
▁द्रव	-9.37285
▁रुग्णालयाच्या	-9.374
▁आपला	-9.37444
▁लेख	-9.37455
▁गावात	-9.3748
▁अँटीबॉडी	-9.37513
▁कोव्हिशील्ड	-9.37611
▁खाजगी	-9.37611
▁गुजरात	-9.37611
▁लगेच	-9.37611
▁नोव्हेंबर	-9.37611
▁इराण	-9.37611
▁संधी	-9.37612
▁हवं	-9.37612
▁व्यापक	-9.37612
▁फार्मा	-9.37613
▁कु	-9.37667
ज्या	-9.37675
▁यश	-9.37714
▁दंड	-9.37728
▁कारणं	-9.37811
▁बातम्या	-9.37904
▁स्थाप	-9.37932
उ	-9.38106
▁थ	-9.38146
▁मानले	-9.38173
▁मुले	-9.3822
▁बनव	-9.38226
▁नवा	-9.38275
▁यांचं	-9.38303
िय	-9.38352
▁रे	-9.38558
लेले	-9.38606
▁यादी	-9.38627
ै	-9.38683
▁संकटा	-9.38762
▁सांगत	-9.38799
▁वातावरण	-9.38843
अर	-9.38887
▁शकतील	-9.38939
▁अभ्यासात	-9.39184
▁हाताळ	-9.39276
वान	-9.39331
▁राहण्या	-9.39567
▁झालाय	-9.3959
आय	-9.39681
▁वाढला	-9.39948
▁कॅलिफोर्निया	-9.40242
▁महिने	-9.40242
▁घेणे	-9.40243
▁शकेल	-9.40243
▁कचऱ्या	-9.40243
▁सिंड्रोम	-9.40244
▁फरक	-9.40244
▁अंश	-9.40251
▁सीमा	-9.40252
▁येणं	-9.40252
▁कोविन	-9.40254
▁देणाऱ्या	-9.40258
▁दिल्यानंतर	-9.40418
णारे	-9.40467
▁गो	-9.408
▁नियमित	-9.40854
▁दिवसां	-9.40897
▁त्यानुसार	-9.40906
▁औषधं	-9.40978
▁बोलत	-9.41074
▁नियमां	-9.41217
त्त	-9.41283
क्त	-9.41334
हर	-9.41357
▁कोरोनाग्रस्त	-9.41406
▁नवी	-9.41418
COVID	-9.41472
विरोधी	-9.4148
▁सुधार	-9.41598
▁केलंय	-9.41719
▁साथरोग	-9.41725
▁अमेरिका	-9.41745
▁घरीच	-9.41854
▁एस	-9.42088
▁M	-9.42109
▁शिक	-9.42123
▁राहू	-9.42686
▁पालघर	-9.42945
▁संचारबंदी	-9.42946
▁अश्या	-9.42947
▁वसई	-9.42947
▁एकीकडे	-9.42956
म्बो	-9.4296
▁प्रतिक्रिया	-9.42962
▁गरजेचे	-9.4298
▁म्हणाल्या	-9.42983
▁कोरोनाविषाणू	-9.43072
▁कोरोनावर	-9.43146
▁थांबव	-9.4323
ुक	-9.43239
▁कार्ड	-9.43255
▁फे	-9.43342
▁स्थान	-9.43367
▁नर्स	-9.43484
▁संच	-9.43491
सोबतच	-9.43548
▁अर्थात	-9.43559
L	-9.43695
▁साधन	-9.4378
▁मागो	-9.43849
▁ग्रस्त	-9.44057
▁नातेवाईक	-9.44111
कोव्हिड	-9.44261
▁जोखमी	-9.44375
▁वाचव	-9.44391
▁याला	-9.44432
▁मुख्यमंत्र्यांन	-9.44434
▁जोड	-9.44502
▁बाजारात	-9.44585
▁कॅ	-9.44681
▁निर	-9.44712
▁सातत्यान	-9.44736
▁उपस्थिती	-9.44877
▁शहरा	-9.44894
िस्ट	-9.45048
▁छातीत	-9.45061
ुर	-9.45159
ीक	-9.45162
▁बन	-9.45193
ुन	-9.45244
▁27	-9.453
▁लशीला	-9.45332
▁देशां	-9.45432
▁वेगवेगळ	-9.45467
▁चुकीच	-9.45479
▁प्रकाश	-9.45521
▁गट	-9.45685
▁घोष	-9.45692
▁राजकारण	-9.45697
▁९	-9.45714
▁साखळी	-9.45723
▁इतका	-9.45723
▁जलद	-9.45725
▁रोगजनक	-9.45734
▁मृत्युदर	-9.45741
िओ	-9.45789
▁प्रजाती	-9.45804
▁राहील	-9.45818
▁बाजूला	-9.45859
▁व्हेंटिलेटर्स	-9.45863
▁कोव्हिशिल्ड	-9.45914
▁योजने	-9.45945
▁कशा	-9.46066
in	-9.46137
▁सगळ्यां	-9.46228
▁क्रम	-9.46273
्यावर	-9.46335
▁उपमुख्यमंत्र	-9.46446
▁लि	-9.46475
▁इंडिय	-9.46601
▁प्रकरणे	-9.46677
▁मागच्या	-9.46682
▁शोधून	-9.46695
▁रुग्णां	-9.46779
▁शाळेत	-9.46779
▁विरुद्ध	-9.46809
▁रूग्णालयात	-9.46912
▁तातडीन	-9.46917
▁उपायां	-9.46936
▁वापरले	-9.46949
▁आलेलं	-9.46974
▁येतं	-9.46992
▁यंत्रणे	-9.47118
दिवस	-9.47201
वार	-9.47212
▁वापरण्या	-9.47297
ांमधील	-9.47585
▁रूग्णांच्या	-9.47636
▁वाढले	-9.47936
मो	-9.48077
▁कार्यक्षमत	-9.4812
▁धर	-9.48148
ंडवे	-9.48335
▁भा	-9.48352
▁तापमान	-9.48443
g	-9.48548
▁डिजिटल	-9.4858
▁तुटवड्या	-9.4858
▁नैसर्गिक	-9.4858
▁मूल्यांकन	-9.4858
▁बहुतेक	-9.4858
▁आटोक्यात	-9.48581
▁फटका	-9.48581
▁विजय	-9.48582
▁खरं	-9.48583
▁बरं	-9.48588
▁सभा	-9.48616
ळे	-9.48653
पीपी	-9.48654
य़ा	-9.48665
▁अडथळा	-9.48682
ाऊ	-9.48763
▁त्याशिवाय	-9.48767
ंदा	-9.48852
▁लागतात	-9.48926
▁उपचारांसाठी	-9.49014
▁अखेर	-9.49038
▁बंधनकार	-9.4928
▁त्यापैकी	-9.49292
▁29	-9.49399
▁मरण	-9.49405
▁दिस	-9.49432
▁नॅश	-9.49479
h	-9.49578
विक	-9.49881
थे	-9.49928
क्षण	-9.49944
▁26	-9.50196
▁हवे	-9.50248
▁होताना	-9.50272
▁प्राण	-9.50323
▁फुफ्फुसा	-9.50551
▁2.	-9.50655
▁जय	-9.50737
▁रुग्णालयां	-9.50872
▁संकल	-9.51032
▁मांड	-9.5115
▁समिती	-9.51188
PCR	-9.51515
▁तात्पुरत	-9.51521
▁पूनावाला	-9.51521
▁सक्रिय	-9.51521
▁हर्षवर्धन	-9.51522
▁गाडी	-9.51522
▁कायद्या	-9.51528
तर	-9.51536
▁स्टेट्स	-9.51543
▁कक्ष	-9.51582
▁लक्षणीय	-9.51587
▁विकत	-9.51589
▁ठेवून	-9.51593
▁स्वीकार	-9.51635
▁आणण्यासाठी	-9.51845
▁छ	-9.51892
्टर	-9.52026
वल	-9.52057
▁करतील	-9.5209
▁सर्वसामान्य	-9.52178
▁समूह	-9.52178
▁कुटुंबा	-9.52233
▁याशिवाय	-9.52288
पर	-9.52297
▁लोकांचं	-9.52418
▁१९	-9.52435
▁परिसरात	-9.52437
▁राख	-9.52709
▁विभागाने	-9.52814
▁चेहऱ्या	-9.53183
▁तातडी	-9.53264
टि	-9.53349
▁H	-9.53544
▁पु	-9.53601
▁35	-9.53659
▁जबाबदार	-9.53907
▁पोट	-9.53913
▁इन	-9.54252
▁चाल	-9.54267
▁आयुष्य	-9.54416
▁रुपयां	-9.54436
▁टाळा	-9.54459
▁पोलिसांन	-9.54467
▁सिद्ध	-9.54537
▁व्यायाम	-9.54551
दैनंदिन	-9.54552
▁न्युमोनिया	-9.54552
▁प्रतिनिधी	-9.54552
▁मोबाईल	-9.54552
▁शारीर	-9.54552
▁हॉ	-9.54552
▁कॅनडा	-9.54552
▁स्वतंत्र	-9.54552
▁प्रतिकारशक्ती	-9.54553
▁अॅक्टिव्ह	-9.54554
▁विश्वास	-9.54559
▁द्यावी	-9.5457
▁स्तरावर	-9.54595
▁मार्गदर्शन	-9.546
▁करीत	-9.54616
▁आकार	-9.54617
▁लागतो	-9.54731
▁रोगप्रतिकारक	-9.54734
▁नियमांचं	-9.54792
▁काढले	-9.54795
▁नको	-9.54809
▁मिळ	-9.54842
▁पड	-9.54847
▁छोट्या	-9.54853
▁भास	-9.54863
ायिक	-9.54944
▁मान्य	-9.55023
▁रुग्णालयांना	-9.55076
ायचं	-9.5508
▁कोरडे	-9.55089
▁इन्	-9.55112
▁देऊन	-9.5516
▁अभाव	-9.55252
▁व्हायरल	-9.55366
विषय	-9.55423
गत	-9.5552
▁विभागात	-9.55559
▁वर्षांवर	-9.55619
९	-9.5563
▁आल्यास	-9.55721
▁ठरत	-9.55735
▁पक्षा	-9.55808
▁शहरां	-9.55812
▁झाल्यावर	-9.55899
▁पाठवण्या	-9.56139
▁उड	-9.56233
▁बाबी	-9.56332
▁आलाय	-9.5634
ेअर	-9.5636
▁वाच	-9.56446
▁फेब्रुवारीला	-9.56463
ोज	-9.56536
▁मुखवट	-9.56907
▁नमुन्या	-9.56957
▁T	-9.57027
ांपेक्षा	-9.57072
▁मुख्यमंत्र्यां	-9.57202
▁अॅ	-9.57273
ोन	-9.57332
▁उलट	-9.57413
ठा	-9.57421
▁माध्यमां	-9.57472
▁न्यू	-9.57504
▁याचं	-9.57569
▁बघ	-9.57579
कारक	-9.57607
▁प्रथिन	-9.57652
ल्याचं	-9.57668
▁उदाहरण	-9.57671
▁उल्लेख	-9.57673
▁गोंधळ	-9.57674
▁आघाडी	-9.57677
▁आढळला	-9.57677
▁आणीबाणी	-9.57677
▁गोपनीयत	-9.57677
▁फोटो	-9.57677
▁सिस्टम	-9.57677
▁आपात्काल	-9.57677
▁प्रावस्था	-9.5768
▁लावला	-9.57681
▁कुणी	-9.57704
▁आरोग्यसेवा	-9.57741
▁पोशिंद्या	-9.57793
▁सोप	-9.57836
▁परिणामी	-9.57902
▁ज्यांन	-9.57954
▁सुरक्षितता	-9.57992
▁आदी	-9.58006
▁किट	-9.58015
▁दिवसांपूर्वी	-9.58041
पत्र	-9.58045
▁लग्न	-9.58086
▁पसरला	-9.58114
▁घसा	-9.5813
▁दुखत	-9.5815
▁सरकारकडे	-9.58339
िज	-9.58432
मर	-9.58486
▁ट्र	-9.58544
▁झ	-9.58575
▁आशा	-9.58783
▁उपलब्धता	-9.58875
▁लोकांसाठी	-9.5904
▁यापूर्वी	-9.59093
▁मीडियावर	-9.59226
▁काळा	-9.59247
▁वैज्ञानिक	-9.593
व्यतिरिक्त	-9.59379
19	-9.59447
▁कोटीं	-9.59512
▁लशीमुळे	-9.59537
▁सुरूवात	-9.59799
▁आढळत	-9.59848
▁पद्धत	-9.59907
ालेय	-9.59913
ापर्यंत	-9.5999
▁नियामक	-9.60002
▁संदर्भ	-9.60029
▁म्हणत	-9.60408
ीट	-9.60458
बाहेर	-9.6049
िव	-9.60501
िव्ह	-9.60507
▁सर	-9.60557
▁प्रत्यक्ष	-9.60696
▁फुफ्फुस	-9.60799
▁पाळ	-9.60856
▁पावले	-9.60857
▁एजन्सी	-9.60902
▁अतिदक्षत	-9.60902
▁प्रतिजैविक	-9.60902
▁प्लॅटफॉर्म	-9.60902
▁सगळं	-9.60902
▁अंतिम	-9.60902
▁निधन	-9.60902
▁प्लांट	-9.60902
▁केरळ	-9.60903
▁दिवाळी	-9.60903
▁नक्की	-9.60903
▁गुरुवारी	-9.60903
▁वर्णन	-9.60907
▁राहणाऱ्या	-9.60911
▁जनुकीय	-9.60913
▁आरटी	-9.60917
▁सूद	-9.60921
▁ओळखपत्र	-9.60921
▁देशमुख	-9.60926
▁आपत्ती	-9.60936
▁त्याचप्रमाणे	-9.60941
▁लिहिलं	-9.6097
▁सम	-9.60989
▁घ्यावा	-9.60997
▁करायची	-9.6109
▁ठाकरेंनी	-9.61131
▁डोसेस	-9.6118
गल	-9.61267
था	-9.61395
▁तक्रारी	-9.61449
▁विषाणूमुळे	-9.61493
ीज	-9.61592
▁शी	-9.61715
▁वाढता	-9.61815
▁रो	-9.61892
▁डी	-9.62171
▁प्रदेशात	-9.62204
▁फायदे	-9.62225
ईन	-9.62239
▁घाल	-9.62287
▁वापरता	-9.62331
▁वाटते	-9.62368
▁काढण्या	-9.62382
ाम	-9.62672
पीसीआर	-9.62722
सारखा	-9.62833
43	-9.62998
बळ	-9.63165
गण	-9.63174
▁कोण	-9.63174
ोर	-9.63313
▁स्थगित	-9.63415
▁संबोध	-9.63417
▁प्रारंभ	-9.63422
▁वाढवण्याच	-9.63552
▁धोक्या	-9.63583
ांमुळे	-9.63665
ण्याचा	-9.63679
▁पाळत	-9.63836
▁पाहिजेत	-9.64045
विल्हेवाट	-9.64236
▁जिल्हाधिकारी	-9.64236
▁दबाव	-9.64236
▁रेस्पिरेटर	-9.64236
▁लूकस	-9.64236
▁स्थलांतर	-9.64236
▁नुकसान	-9.64236
▁रोजगार	-9.64236
▁साहित्य	-9.64236
▁हैदराबाद	-9.64236
▁अचूक	-9.64236
▁संकेत	-9.64236
▁मिळालं	-9.64236
▁चांगला	-9.64237
▁शकणार	-9.64239
▁पैसे	-9.64246
▁त्वचा	-9.6425
▁अटक	-9.64251
▁धोकादायक	-9.64277
▁इतिहास	-9.64281
▁गेल्यावर्षी	-9.64285
▁शंका	-9.64289
▁रुग्णवाढ	-9.64295
▁फिर	-9.64298
▁इतकं	-9.64364
▁आकडेवारीनुसार	-9.64369
जिकल	-9.64467
▁विश्लेषण	-9.64514
▁रूग्णांना	-9.64739
▁मोठे	-9.64786
▁संख्येन	-9.64803
▁प्राण्या	-9.64874
▁प्रयोगशाळा	-9.64885
▁देता	-9.64977
ायत	-9.65047
▁करार	-9.65132
B	-9.65191
ोट	-9.65265
▁मोदींन	-9.65299
दायक	-9.65315
▁प्रांत	-9.65355
▁समाज	-9.65497
▁दिसण्या	-9.65534
▁विद्यापीठ	-9.65573
▁देतात	-9.65586
▁घेण्याची	-9.65639
50	-9.6565
ाखाली	-9.65732
शन	-9.65784
▁जमा	-9.65857
▁हानी	-9.66131
▁बदलत	-9.6626
▁भू	-9.663
▁बाळा	-9.66427
▁महत्त्वाचा	-9.66455
ँ	-9.66612
ोल	-9.66628
्ज	-9.66648
▁लिह	-9.66664
▁औषधे	-9.66912
▁लक्ष्य	-9.66924
▁आठवड	-9.66944
▁विषाणूरोध	-9.66955
▁यानंतर	-9.66965
स्थ	-9.6699
▁सेवे	-9.66998
▁अनि	-9.67014
▁पाठवले	-9.67079
▁युरोपिय	-9.67152
▁लॅब	-9.67159
▁वस्तूं	-9.67266
▁नुकत	-9.67424
▁मिळाल्या	-9.67436
ळा	-9.67467
▁तासांत	-9.67491
▁हि	-9.67497
▁मॅ	-9.67623
▁आश्रय	-9.67684
▁किराणा	-9.67684
▁तब्येत	-9.67684
▁ठोस	-9.67684
▁तात्काळ	-9.67685
▁लोकसंख्या	-9.67685
▁जपान	-9.67685
▁नियंत्रित	-9.67685
▁ट्रम्प	-9.67689
▁विज्ञान	-9.67691
▁विद्यमान	-9.67691
▁ट्रेसिंग	-9.67692
▁देणं	-9.67702
▁राजस्थान	-9.67704
▁शेती	-9.67721
▁कोडिंग	-9.67756
▁आख	-9.67775
रोगप्रतिकारशक्ती	-9.67795
▁पडली	-9.67832
▁अमित	-9.67898
जर	-9.6795
▁स्वॅब	-9.67976
▁आयात	-9.67981
डि	-9.68025
▁द्यावे	-9.68026
▁रक्तात	-9.68029
विनाश	-9.68082
▁शि	-9.68119
मन	-9.68134
▁शनिवारी	-9.68184
▁दवाखान्यात	-9.68381
▁जम	-9.6841
▁गेलेल्या	-9.68509
वरुन	-9.68573
▁वाहन	-9.68645
▁झाल्यामुळे	-9.68668
▁पोलिसां	-9.68719
िटी	-9.68727
▁असण्या	-9.68755
▁अमेरिकेमध्ये	-9.68837
▁रु	-9.6889
वेत	-9.68911
▁लो	-9.6897
▁यांच्यावर	-9.69017
प्रमाणेच	-9.69062
▁उपाययोजनां	-9.69166
▁स्वच्छते	-9.69167
ब्	-9.69178
▁११	-9.69195
or	-9.69253
▁थोड	-9.69369
▁कालावधीत	-9.69431
▁वाहतुकी	-9.69526
▁बसला	-9.69567
▁संसर्गित	-9.6965
▁०	-9.69735
▁पुर	-9.69785
मुक्त	-9.69952
▁मिळते	-9.69958
्री	-9.69964
▁यांसारख	-9.70023
▁वापरल्या	-9.7007
्झा	-9.70088
▁टो	-9.70294
▁स्थळ	-9.70377
▁बँक	-9.70412
▁१२	-9.70419
▁पालकमंत्र	-9.70469
▁दुकान	-9.70518
कोव्ह	-9.70526
95	-9.70534
वाल	-9.70601
▁पो	-9.70773
▁ग्राहक	-9.70802
▁ओळखण्या	-9.70862
▁विस्तार	-9.71226
▁कॉल	-9.71255
▁आंदोलन	-9.71255
▁ऑगस्ट	-9.71255
▁जुलै	-9.71255
▁नव्हतं	-9.71255
▁पालिके	-9.71255
▁बांधकाम	-9.71255
▁शिथिल	-9.71255
▁स्पुटनिक	-9.71255
▁टप्पा	-9.71255
▁वक्तव्य	-9.71255
▁इथं	-9.71256
▁डिस्टन्सिंग	-9.71269
▁आमदार	-9.71276
▁पहिल्यांदा	-9.71313
▁औरंगाबाद	-9.71339
▁असलं	-9.71364
▁अम	-9.71378
▁तसा	-9.71379
▁दुपारी	-9.71389
v	-9.7145
राज	-9.71476
▁भार	-9.71478
▁युनिट	-9.71499
वाज	-9.71531
माहीत	-9.71587
▁पसर	-9.71601
▁फेस	-9.71666
प्पी	-9.71682
▁वाढलं	-9.71722
▁वापरणे	-9.71781
▁कॉन्ट	-9.71831
▁रूग्णा	-9.7186
▁संस्थेने	-9.7188
▁0	-9.7217
▁देशांना	-9.72195
▁मुला	-9.72289
▁हृदय	-9.72326
▁आल्याचं	-9.72437
▁यावी	-9.72612
▁उभार	-9.72612
▁केंद्रावर	-9.72695
▁समुदाया	-9.72713
ग्रस्त	-9.73057
▁याकडे	-9.73088
%)	-9.73139
▁अपेक्षा	-9.73148
िष	-9.73194
▁ठरव	-9.73371
▁शकल	-9.7341
▁आल्याने	-9.73428
ांपर्यंत	-9.73673
▁वापरण्यात	-9.73732
▁बिघड	-9.7378
▁नोंदवले	-9.73798
▁रहा	-9.73799
▁सर्वच	-9.73992
▁परदेश	-9.74133
▁खुल	-9.74225
जण	-9.74229
▁म्हणूनच	-9.74265
▁विकासा	-9.74375
▁झोन	-9.7446
▁स्वरूप	-9.74473
▁लॉकडॉऊन	-9.74486
▁वार	-9.74569
▁क्षमते	-9.74628
▁धन	-9.74653
▁खाटा	-9.74687
▁घ	-9.74772
्रॉ	-9.74838
▁ध	-9.74851
ँड	-9.74905
WIN	-9.74959
▁अनावश्यक	-9.74959
▁तणाव	-9.74959
▁पाहिलं	-9.74959
▁वरिष्ठ	-9.74959
▁इच्छा	-9.74959
▁राजधानी	-9.74959
▁चांगली	-9.74959
▁मुंडे	-9.7496
▁बुधवारी	-9.74964
▁कोर्टा	-9.74971
▁वगळता	-9.74977
▁उद्या	-9.7498
▁बीटा	-9.74987
▁घालणे	-9.7499
▁कोल्ड	-9.74994
▁प्रोत्साहन	-9.74997
▁टाळणे	-9.75007
▁टक्केवारी	-9.75015
▁अद्यतन	-9.75027
▁लढण्यासाठी	-9.75058
▁प्रचार	-9.75109
▁दुर्लक्ष	-9.7511
▁फंड	-9.75127
▁पद्धतीं	-9.75152
▁डायरिया	-9.75159
▁बाकी	-9.75159
▁तब्	-9.75164
▁घेतलं	-9.75224
▁क्षमतेने	-9.75293
▁रस्त्यावर	-9.75466
▁आपल्याकडे	-9.75525
ल्याने	-9.75558
▁उद्दिष्ट	-9.75695
▁ज्याला	-9.75965
▁पालकां	-9.75976
er	-9.76026
ंमधील	-9.76028
▁हॅ	-9.76042
▁वर्षांच्या	-9.76078
▁बाळग	-9.76095
▁३०	-9.76433
▁बालकां	-9.76502
▁मुक्त	-9.76564
▁त्याचं	-9.76576
▁क्ल	-9.76754
▁तुमचा	-9.76757
▁यू	-9.76839
सारखं	-9.76914
▁पाव	-9.7696
▁सरकारचा	-9.77128
▁समुदाय	-9.77152
णारी	-9.77169
▁ठेवता	-9.77243
मार्फत	-9.77262
विरुद्ध	-9.77313
किंवा	-9.77334
बे	-9.7735
▁शाळे	-9.77354
▁मुलांची	-9.77481
▁प्रवाश	-9.77576
ल्स	-9.77739
▁लाटेचा	-9.77776
▁ऑस्ट्रेलिया	-9.77804
गे	-9.77908
▁अँ	-9.77962
▁ब्र	-9.78065
▁धुवा	-9.78166
▁केलाय	-9.78316
▁रोगप्रतिकार	-9.7845
शास्त्र	-9.78454
▁तसं	-9.78479
▁व्यवस्थे	-9.78548
रोधक	-9.78776
▁वाढती	-9.78794
▁वृत्त	-9.78798
▁आरएनए	-9.78805
▁उल्लंघन	-9.78805
▁कुठली	-9.78805
▁दुप्पट	-9.78805
▁पुनावाला	-9.78805
▁पॅनगोलिन्स	-9.78805
▁भविष्यात	-9.78805
▁महापौर	-9.78805
▁विश्वविद्यालये	-9.78805
▁सिलिंडर	-9.78805
▁सिलेंडर	-9.78805
▁सुरक्षे	-9.78805
▁सगळे	-9.78805
▁हायड्र	-9.78805
▁चांगलं	-9.78805
▁फ्रंटला	-9.78805
▁चांगले	-9.78806
▁चांगल्या	-9.78806
▁मलिक	-9.78806
▁कचरा	-9.78807
▁कार्यरत	-9.78808
▁नव्हे	-9.78811
▁आनंद	-9.78813
▁दीड	-9.78813
▁झोप	-9.7882
▁फूट	-9.78822
▁पसरतो	-9.78823
▁टी	-9.78832
▁अग्र	-9.789
यर	-9.7901
▁टेस्टिंग	-9.79043
▁RT	-9.79045
▁कच्च	-9.79056
▁पी	-9.79099
▁प्रश्नांची	-9.79103
▁अव	-9.79131
ंसह	-9.79143
ंमुळे	-9.79182
▁मीटर	-9.7923
▁दृष्टीने	-9.79251
▁हॉस्पिटल्स	-9.79257
▁मुलं	-9.79277
▁तीव्रता	-9.79288
▁चाचणीसाठी	-9.79337
▁सेवेत	-9.79372
ार्थ	-9.79384
▁आळ	-9.79418
्ह	-9.7942
▁आयोजन	-9.79439
ांपासून	-9.79559
▁देण्यास	-9.79584
▁सांगा	-9.79792
▁माझा	-9.79805
▁कोव्हॅक्सीन	-9.7988
▁जाणं	-9.79992
▁U	-9.80134
▁प्रतिबंधक	-9.80191
▁ठेवत	-9.80392
▁काढला	-9.80411
तोय	-9.80469
▁पडले	-9.80523
▁भाव	-9.80549
▁दम	-9.80578
▁वर्षभरात	-9.80593
▁होतोय	-9.80631
ाधिक	-9.8069
मिल	-9.80753
▁सुधारण	-9.80791
▁इतरांना	-9.80803
▁मिळालेल	-9.80937
▁पहिल	-9.80972
25	-9.81127
▁दुर्	-9.81178
दान	-9.8133
▁वटवाघळ	-9.81369
सार	-9.81447
▁नोंदवण्या	-9.81456
▁विलगीकरणात	-9.81484
▁आर	-9.81566
▁प्रॅक्टिसेस	-9.81706
▁मृत्यूंच	-9.81919
▁अनु	-9.81986
▁सहभाग	-9.82011
▁य	-9.8209
▁लशीसाठी	-9.82396
▁500	-9.82431
ऊ	-9.82435
▁आलीय	-9.82453
ृत	-9.82482
▁कळ	-9.82572
▁संशय	-9.82593
▁घा	-9.82609
▁पोहच	-9.82667
लेली	-9.82709
▁केंद्राकड	-9.82787
च्छ	-9.8279
मंड	-9.82797
▁वर्तमान	-9.82798
▁चिकित्सा	-9.82805
▁ऑनलाइन	-9.82805
▁कित्येक	-9.82805
▁दृष्टीकोन	-9.82805
▁निदर्शना	-9.82805
▁फैलाव	-9.82805
▁शुद्ध	-9.82805
▁सविस्तर	-9.82805
▁स्पेन	-9.82805
▁हुबेई	-9.82805
▁ह्रदय	-9.82805
▁अर्थव्यवस्थे	-9.82805
▁गांधी	-9.82805
▁महिले	-9.82805
दृष्ट्या	-9.82805
▁मुद्दा	-9.82805
▁सिंगापूर	-9.82805
▁अब्ज	-9.82805
▁जेसिका	-9.82806
▁आहात	-9.82806
▁ठेवावं	-9.82806
शांक	-9.82808
आकृती	-9.82809
▁२०२०	-9.82809
PPE	-9.82809
▁डोळे	-9.8281
▁वाजता	-9.82811
▁योग	-9.82817
▁यंदा	-9.82818
▁ताब	-9.82823
▁विधान	-9.82828
▁दूरस्थ	-9.82829
शोक	-9.8283
▁न्याय	-9.82835
▁सर्वसाधारण	-9.82839
▁एअर	-9.82855
▁टाळण्यासाठी	-9.82866
सिन	-9.82882
▁जिल्ह्यांमध्ये	-9.82885
▁वाढवण्यासाठी	-9.82888
▁रुग्णांपैकी	-9.82944
▁रंग	-9.82946
▁पाहून	-9.82955
▁अँटीबॉडीज	-9.8296
▁ट्रायल्स	-9.82966
▁थांबवण्या	-9.82975
▁मंगळवारी	-9.82989
▁जूनपर्यंत	-9.83012
▁युद्ध	-9.83092
▁करण्यापूर्वी	-9.83104
▁बोलाव	-9.83125
▁गती	-9.83137
▁सामग्री	-9.83146
▁इफेक्ट	-9.83175
▁फि	-9.83181
▁37	-9.8321
▁तिथं	-9.83218
▁क्रिया	-9.83251
▁सोमवारी	-9.83255
▁कं	-9.83359
ाहून	-9.83423
▁इतके	-9.83455
▁मंजूरी	-9.83456
ांनुसार	-9.83463
▁रोखण्या	-9.83501
▁राय	-9.83757
▁घटने	-9.83825
सु	-9.83828
▁मार्गा	-9.83833
▁तोंडा	-9.8411
▁परदेशात	-9.84244
▁येऊन	-9.84427
ँग	-9.84551
▁वर्षात	-9.84803
▁जास्ती	-9.85076
▁संस्थां	-9.85215
▁कुंभमेळ्यात	-9.85332
▁सर्वो	-9.85446
▁घटकां	-9.85562
▁प्रकरणा	-9.85718
▁कृ	-9.85758
▁पक्ष	-9.85766
▁असूनही	-9.85773
▁बार	-9.85787
▁शब्द	-9.85905
▁उपचारां	-9.86023
▁परिषदे	-9.86028
▁राहत	-9.86037
▁बनवण्या	-9.8607
▁भाजपा	-9.86132
▁परिषद	-9.86151
▁प्रयोगशाळां	-9.86165
▁तापमाना	-9.86292
▁आफ्रिकेत	-9.86301
▁निघ	-9.8633
▁राज्याला	-9.86437
▁रोगां	-9.86449
ति	-9.86679
▁राष्ट्र	-9.86704
▁प्रस्ताव	-9.86747
▁प्रतिकार	-9.86797
▁करणारी	-9.86823
▁दिसू	-9.86883
▁मॉडेल	-9.86935
▁प्रतिपिंड	-9.86949
▁तंत्र	-9.86971
▁कर्फ्यू	-9.86972
▁डिस्टंसिंग	-9.86972
▁परीक्षे	-9.86972
▁पाहिले	-9.86972
▁महानगरपालिका	-9.86972
▁रिसर्च	-9.86972
▁विस्तृत	-9.86972
▁व्हीडिओ	-9.86972
▁जिवंत	-9.86972
▁पालिका	-9.86972
▁शकणाऱ्या	-9.86973
▁ICMR	-9.86978
▁कागद	-9.86984
▁पक्षनेत	-9.86992
▁नकारात्मक	-9.86997
▁आजाराचे	-9.87042
▁कृष्ण	-9.8707
बंध	-9.87097
▁जणांच	-9.87111
▁कंट्रोलर	-9.87115
▁आधारावर	-9.87121
▁अनलॉक	-9.87134
▁कुटुंबातील	-9.87176
▁टीम	-9.87186
▁कर्मचाऱ्यांनी	-9.87199
र्ग	-9.87217
▁१३	-9.87226
▁प्रतिमा	-9.87249
▁अॅस्ट्राझेनका	-9.87264
ाद्वारे	-9.87282
ाप	-9.87332
▁जुना	-9.87338
▁उतर	-9.87344
टिंग	-9.87415
राज्यात	-9.87518
▁राज्यांत	-9.87542
▁लढ	-9.8762
▁व्यवहार	-9.87694
▁निती	-9.87797
▁लागतं	-9.87873
त्मक	-9.87922
▁नकार	-9.87942
▁बांध	-9.88025
शीर	-9.88123
रेख	-9.88205
यु	-9.88233
▁लाखो	-9.88291
▁शेख	-9.88491
▁मना	-9.88538
▁अल	-9.88573
एक	-9.88617
▁हु	-9.88856
▁सुर	-9.88863
नगर	-9.88961
▁तिथ	-9.88966
▁मंत्रालय	-9.88976
▁नावाच	-9.89204
▁कर्ज	-9.89301
▁मोह	-9.89307
▁मीडिया	-9.89422
▁तंत्रज्ञान	-9.89631
▁सारखे	-9.89647
▁जाणे	-9.89717
G	-9.8981
U	-9.89814
जिनोम	-9.89833
कोविड	-9.89846
सरकार	-9.89854
▁घाबर	-9.90017
पाठ	-9.90141
▁मृत	-9.90246
▁पाठ	-9.9026
▁तज्ज्ञांन	-9.90303
▁त्वचे	-9.90312
▁मराठ	-9.90344
▁लागण्याच	-9.90376
र्ण	-9.9038
▁लोकांवर	-9.90548
कमी	-9.90659
▁आयसीयू	-9.90802
णारा	-9.90954
वती	-9.90988
ठी	-9.90999
ल्यास	-9.9107
▁अमरावतीत	-9.91105
मागच	-9.91108
▁नियोज	-9.91302
▁विलग	-9.91309
▁स्टोअर	-9.91319
▁आवृत्ती	-9.9132
▁केजरीवाल	-9.9132
▁कोल्हापूर	-9.9132
▁तारीख	-9.9132
▁धक्का	-9.9132
▁रामदेव	-9.9132
▁शेकडो	-9.9132
▁समन्वय	-9.9132
▁हॉटस्पॉट	-9.9132
▁कुठला	-9.9132
▁प्राध्यापक	-9.9132
▁रक्तदाब	-9.9132
▁सल्ल्या	-9.9132
▁थकवा	-9.9132
▁द्यावं	-9.9132
▁आम्ल	-9.91321
▁गेलो	-9.91321
▁अंमल	-9.91321
▁द्यायला	-9.91321
▁वंचित	-9.91322
▁अखेरीस	-9.91322
▁भूषण	-9.91324
दोष	-9.91325
▁पथक	-9.91331
▁राज्यभरात	-9.91332
▁चंद्रपूर	-9.91334
▁मतदान	-9.9134
▁मध्यस्थ	-9.91345
▁किलो	-9.91357
▁पोहोचवण्या	-9.91375
रविंद	-9.91398
▁लावून	-9.91415
▁मानवां	-9.91435
▁विसर	-9.91447
▁समावेशासह	-9.91452
▁द्यायच	-9.91601
गुत	-9.91626
▁घ्यायची	-9.91631
▁नागरिकांन	-9.91653
▁घालून	-9.91673
▁नसल्यास	-9.91696
▁जॉन्सन	-9.91805
र्ज	-9.91865
▁33	-9.91872
▁तिसरी	-9.9188
▁जावे	-9.91956
▁धर्म	-9.92008
▁अर्धा	-9.92065
सम	-9.92084
▁कामगारां	-9.92102
▁जातोय	-9.92172
▁मालक	-9.92211
▁जाण्यासाठी	-9.92256
▁प्रारंभी	-9.92396
▁वाढते	-9.92588
▁जास्तीत	-9.92735
▁दिसतात	-9.92792
▁रुग्णालयं	-9.92793
▁अन	-9.9285
▁वेगळा	-9.92997
शास	-9.93114
▁हस्तक्षेप	-9.93152
भाष	-9.93154
▁कण	-9.93186
हजर	-9.93201
▁इटलीमध्ये	-9.93201
is	-9.93224
▁स्वरुपाच	-9.93269
ूत	-9.93446
नवाब	-9.93509
▁चाचण्यांमध्ये	-9.93531
▁संसर्गामुळे	-9.93582
▁संसाधन	-9.93632
▁इं	-9.93706
कृत	-9.93754
वणार	-9.93777
▁शासन	-9.94032
▁राखण्या	-9.94069
▁उत्तरं	-9.94076
▁ह्यांन	-9.94206
पक्षी	-9.94349
सध्या	-9.944
▁करोनाबाधितांच	-9.94442
▁E	-9.9447
ायचा	-9.94493
▁विद्यापीठा	-9.94523
ल्ट	-9.94644
पास	-9.94737
▁माणसां	-9.94749
िरो	-9.94835
▁महाविद्यालय	-9.95006
▁कोरड	-9.9507
▁ट्विट	-9.95174
▁o	-9.95177
▁वाढण्या	-9.95207
▁दुकानां	-9.95365
कोरोनामुक्त	-9.95403
▁बि	-9.95437
▁सरकारवर	-9.95518
▁प्रौढ	-9.9554
▁EU	-9.95656
क्षम	-9.95665
्लिक	-9.95767
▁कँडीडेट	-9.95773
२२९ई	-9.95865
DCGI	-9.95865
▁अर्थव्यवस्था	-9.95865
▁अल्कोहल	-9.95865
▁आपापल	-9.95865
▁जनजागृती	-9.95865
▁जिल्हाधिकाऱ्यां	-9.95865
▁देखभाल	-9.95865
▁युनेस्को	-9.95865
▁सर्वप्रथम	-9.95865
▁सिस्टिम	-9.95865
▁मजूर	-9.95865
▁राऊत	-9.95865
▁कल्पना	-9.95866
▁राष्ट्राध्यक्ष	-9.95869
▁मोकळ	-9.95873
▁बचाव	-9.95874
▁अवघड	-9.95887
▁सामोर	-9.95894
▁असणे	-9.95917
▁असणं	-9.95928
▁प्रभावीपणा	-9.95929
▁स्पष्टीकरण	-9.95958
▁ठरेल	-9.95966
मंत	-9.96003
▁नऊ	-9.96017
▁ज्यांच	-9.9602
▁पृष्ठभाग	-9.96024
▁दुखण्या	-9.96049
▁पाहणी	-9.96053
▁टक्क्यांपर्यंत	-9.96065
▁संरक्षक	-9.961
म्प	-9.96111
▁बराच	-9.96185
▁टप्प्यां	-9.96208
▁खोलीत	-9.96258
▁राहतात	-9.96395
▁शिल्	-9.96461
▁राहून	-9.96531
▁युरोपात	-9.96602
ाकडे	-9.96635
▁प्रवासावर	-9.96687
▁महापालिकेने	-9.96701
20	-9.9675
र्जी	-9.96802
▁म्हणता	-9.96846
▁झालंय	-9.96962
▁व्हाय	-9.97109
▁१६	-9.97311
ूक	-9.97333
▁स्वरुपात	-9.97366
्यासाठी	-9.97404
▁तिला	-9.97445
हो	-9.97487
▁शहरी	-9.97556
हान	-9.9759
▁परिषदेत	-9.97822
गी	-9.97883
▁B	-9.97919
▁शिक्षणमंत्र	-9.97943
93	-9.97976
▁ज्याचा	-9.98022
▁परतले	-9.98145
थील	-9.98251
▁नागरिकांची	-9.98405
▁पुरवठादार	-9.98553
मुख	-9.98565
ed	-9.98848
▁चौ	-9.98887
10	-9.989
▁मनो	-9.98971
▁अशाच	-9.99008
▁सापडले	-9.99105
गृह	-9.99135
बंदी	-9.99142
लॉकडाऊन	-9.99154
िर	-9.9921
▁वॉर्ड	-9.99238
संबंधित	-9.9925
पती	-9.99346
▁तज्ञ	-9.99493
धार	-9.9955
▁समूहा	-9.99652
र्म	-9.99773
लेलं	-9.9978
▁तक्रार	-9.99819
ॅशन	-9.99981
▁दिवसभरा	-10.0007
▁दि	-10.0021
▁५०	-10.0023
▁संरक्ष	-10.0031
शील	-10.0039
▁अतिसार	-10.004
▁कंट्रोल	-10.0046
▁व्या	-10.0048
तेने	-10.005
▁अधिकाऱ्या	-10.0051
▁पेशंट	-10.0053
▁अद्य	-10.0054
▁सलग	-10.006
▁निर्जंतुक	-10.0062
शहरांमध्ये	-10.0062
▁डोकेदुखी	-10.0063
▁दौर	-10.0063
▁पिंपरी	-10.0063
▁फेटाळ	-10.0063
▁भाजीपाला	-10.0063
▁माणसं	-10.0063
▁हाँगकाँग	-10.0063
▁2019-20	-10.0063
▁आरंभ	-10.0063
▁सुरळीत	-10.0063
▁जिल्ह्य़ात	-10.0063
▁मेसेज	-10.0063
▁सुट्टी	-10.0063
▁स्कूल	-10.0063
▁लंडन	-10.0063
▁संदेश	-10.0063
▁नेपाळ	-10.0063
▁घातली	-10.0063
▁आशिया	-10.0063
▁सर्व्हे	-10.0063
▁चक्र	-10.0063
▁राष्ट्रवादी	-10.0063
▁हॅण्ड	-10.0063
▁घसर	-10.0064
▁पाहा	-10.0064
▁दुखणे	-10.0064
▁सीडीसी	-10.0064
▁इंटरनेट	-10.0064
▁मुल	-10.0065
टर	-10.0065
▁कुटुंबीयां	-10.0066
▁वर्कर्स	-10.0067
▁नर्सेस	-10.0067
▁अंगावर	-10.0068
▁डाय	-10.0068
▁ड्रग	-10.0069
▁संध्याकाळी	-10.0069
▁चायन	-10.007
▁अहवालानुसार	-10.0071
▁पावलं	-10.0072
विन	-10.0072
▁P	-10.0072
▁१४	-10.0072
▁निर्जंतुकीकरण	-10.0075
युक्त	-10.0076
▁४०	-10.0077
▁माणसा	-10.0078
▁कोरोनासंसर्ग	-10.0088
▁समारंभ	-10.0089
▁संशोधकांनी	-10.0089
▁यातील	-10.0092
▁नाका	-10.0095
▁सांगू	-10.0096
it	-10.0111
▁घालण्यासाठी	-10.0115
▁चंद्र	-10.0118
▁औषधांचा	-10.012
▁वेगळ्या	-10.0125
▁बाय	-10.0134
▁सोयी	-10.0137
▁देतो	-10.0139
न्ट	-10.0143
▁बरोबर	-10.0143
गामी	-10.0149
ीकृत	-10.0151
▁धोक्यात	-10.0157
भव	-10.0168
▁थोडी	-10.0175
▁तोड	-10.0178
थवा	-10.0181
▁राहिल	-10.0192
▁पाया	-10.0226
▁२२	-10.0229
▁सांगता	-10.023
▁एसी	-10.0231
▁देण्याचं	-10.0237
क्स	-10.0241
▁लसींच	-10.0242
▁गटात	-10.0244
▁मोठ	-10.0261
गर	-10.0265
17	-10.0276
▁हाय	-10.0279
▁प्रे	-10.0279
ांबाबत	-10.0284
▁खेळ	-10.0293
▁पडण्या	-10.0306
ॅक्स	-10.0307
▁२५	-10.0308
▁संवेदनशील	-10.0314
▁लसीकरणाला	-10.0323
▁वातावरणात	-10.0324
▁कामावर	-10.0328
▁संशोधना	-10.033
ापेक्षा	-10.0336
▁1)	-10.0343
▁ड	-10.0345
▁भासत	-10.0353
वाड	-10.0361
ाबाहेर	-10.0396
ीव्ह	-10.0406
▁डब	-10.0406
कांत	-10.0407
मिळ	-10.0409
▁वापरली	-10.0411
▁हर	-10.0411
ACE	-10.0414
SARS	-10.0415
आम्ही	-10.0415
▁48	-10.0419
▁वयोगटा	-10.0422
▁असतानाच	-10.0426
▁लढाई	-10.0427
▁नातेवाईकां	-10.0427
▁फारस	-10.0431
ंदर	-10.0434
▁शास्त्रज्ञ	-10.0444
▁राहा	-10.0451
▁पाहत	-10.0452
लस	-10.0467
▁मात्रा	-10.0479
▁गाठ	-10.0481
▁मंजूर	-10.0482
लोक	-10.0494
▁आजारां	-10.0528
ीर	-10.0536
▁ओळखले	-10.054
▁स्थापन	-10.054
प्त	-10.0541
▁रेड्डी	-10.0552
▁डॉलर	-10.0554
▁ब्रिट	-10.0558
▁अग्नि	-10.056
द्योग	-10.0561
▁सूक्ष्म	-10.0562
▁स्थिर	-10.0563
://	-10.0563
▁वृत्तसंस्थे	-10.0563
http	-10.0563
▁अजिबात	-10.0563
▁कुठले	-10.0563
▁घरोघर	-10.0563
▁डब्लूएचओ	-10.0563
▁दृष्टिकोन	-10.0563
▁सहकाऱ्यां	-10.0563
▁गैर	-10.0563
▁विधानसभ	-10.0563
▁कृषी	-10.0563
▁गुन्ह	-10.0563
▁विवेक	-10.0563
▁रिकाम	-10.0563
▁निष्क्रिय	-10.0563
▁बरीच	-10.0563
▁बिहार	-10.0563
▁प्रवक्त	-10.0563
▁शेतक	-10.0563
▁RTPCR	-10.0564
▁उपयुक्त	-10.0564
▁निर्यात	-10.0565
▁वाईट	-10.0565
▁ट्रॅकिंग	-10.0565
▁अपयश	-10.0567
▁राखणे	-10.0567
▁स्वस्त	-10.057
▁समर्थन	-10.0575
▁वाढवण्यात	-10.0575
▁अर्ध्या	-10.0579
▁भागांत	-10.058
▁त्याचबरोबर	-10.0581
▁अँप्स	-10.0581
▁संस्थांनी	-10.0585
▁शिंक	-10.0588
ंच	-10.0595
▁शुल्क	-10.0598
▁घडीला	-10.06
▁सहज	-10.0601
▁सद्यस्थितीत	-10.0605
याव	-10.0607
▁स्ट	-10.0609
▁खाटांच	-10.061
▁गुंतागुंती	-10.0611
▁निका	-10.0611
▁नातेवाईकांना	-10.0614
▁सुपर	-10.0619
▁व्यापारी	-10.0624
क्शन	-10.0632
▁सेल	-10.0635
▁उत्परिवर्तन	-10.0639
▁कार्यालयं	-10.0646
▁पडला	-10.0648
▁ठरणार	-10.0649
ुती	-10.0653
फा	-10.0653
▁पृष्ठभागावर	-10.0655
▁राबव	-10.066
▁ड्राय	-10.0669
▁पोहोचला	-10.0677
▁याआधी	-10.069
▁जोर	-10.071
तम	-10.0717
▁G	-10.0739
▁नोंदी	-10.0747
▁लाल	-10.0749
कारी	-10.075
64	-10.0762
दम	-10.0763
ृ	-10.0766
ियो	-10.0782
▁नुसार	-10.0784
-19)	-10.0792
▁महत्व	-10.08
▁उचल	-10.0801
▁रुग्णांच	-10.0847
▁वळ	-10.0877
▁लढा	-10.088
.5	-10.0888
ग्ल	-10.0888
▁संघ	-10.0902
8%)	-10.0908
Co	-10.0937
आधारित	-10.0941
मार्ग	-10.0941
मुंबई	-10.0942
ायक	-10.0945
सायन	-10.0947
▁पत्रात	-10.0951
क्क	-10.0956
गेल्या	-10.0962
स्थाप	-10.0968
▁तिच्या	-10.0972
▁3.	-10.0975
▁केल्याने	-10.0979
▁ड्रायर	-10.098
▁जिल्ह्यत	-10.0989
▁थंड	-10.0992
▁माहित	-10.1006
▁सांग	-10.1023
गो	-10.1033
▁मायक्रो	-10.1044
▁ग्लो	-10.105
▁प्रकारचा	-10.1063
le	-10.1066
▁तसे	-10.1066
▁इंटर	-10.1086
▁कर	-10.1087
स्पाईक	-10.1089
▁आखाड्या	-10.1089
▁खोकताना	-10.1089
▁ठेवणं	-10.1089
▁तालुका	-10.1089
▁पशूजन्	-10.1089
▁प्रामुख्यान	-10.1089
▁रिकव्हरी	-10.1089
▁वॉक	-10.1089
▁व्हॅक्सीन	-10.1089
▁स्रोत	-10.1089
▁हाफकिन	-10.1089
▁टप्पे	-10.1089
▁सल्लागार	-10.1089
▁डिसीज	-10.1089
▁उर्वर	-10.1089
▁पॅकेज	-10.1089
▁सोलापूर	-10.1089
▁तेवढ	-10.1089
▁चिंते	-10.1089
▁बॅट	-10.1089
सेप्ट	-10.1089
▁सुश्रुष	-10.1089
▁कल्याण	-10.1089
▁नसते	-10.1089
▁चिंताजनक	-10.109
▁दुखणं	-10.1091
▁येणे	-10.1091
▁नाईट	-10.1091
▁अपवाद	-10.1091
▁मांस	-10.1091
▁कलम	-10.1091
▁आभार	-10.1092
DA	-10.1094
▁CT	-10.1094
▁बोटां	-10.1094
▁लावले	-10.1094
▁अॅडव्ह	-10.1095
▁मनपा	-10.1095
▁चेहर	-10.1096
▁दर्जा	-10.1096
▁घातल्या	-10.1098
▁कारणांमुळे	-10.1099
▁दल	-10.1101
▁सन	-10.1104
▁जाताना	-10.1106
▁भावना	-10.1107
गरम	-10.1112
▁असावी	-10.1114
रिटी	-10.1115
हाळ	-10.1116
बद्ध	-10.1118
▁ठराव	-10.1121
▁अनाथ	-10.1122
्षिक	-10.1122
▁दुष्परिणाम	-10.1123
▁सोय	-10.1123
▁स्त्राव	-10.1126
▁पोशिंदा	-10.113
न्न	-10.1132
▁पडल्या	-10.1133
▁ज्ञान	-10.1134
▁समितीने	-10.115
▁वाटप	-10.1154
▁अटी	-10.1155
▁लवकरात	-10.1165
▁दिवसभर	-10.1166
ालय	-10.1166
▁मानल	-10.1168
केंद्र	-10.117
▁ग्राम	-10.1175
▁अलिकड	-10.1178
▁प्रत्येकाला	-10.1179
▁खंड	-10.1182
▁मृतदेह	-10.1187
साद	-10.1187
▁जानेवारीपासून	-10.1193
▁समजाव	-10.12
▁4.	-10.12
▁प्रि	-10.1204
काही	-10.1211
▁आठवडा	-10.1211
▁साली	-10.1213
ींग	-10.1219
▁मृतांच	-10.1224
▁पुरवण्या	-10.1249
90	-10.1249
खाली	-10.125
▁अडक	-10.1252
शासकीय	-10.1261
खर	-10.1266
▁फिरत	-10.1276
▁नाहीय	-10.1278
▁वास	-10.1292
▁माती	-10.1297
▁दूतावास	-10.1312
▁65	-10.1315
▁हो	-10.1316
▁अॅपवर	-10.1321
▁(3	-10.1323
▁बरेच	-10.1323
▁जस	-10.1329
ळ्या	-10.133
ोगी	-10.133
अन	-10.1332
धर	-10.1333
▁ठिकाणे	-10.1336
▁गाड्यां	-10.1346
▁मानक	-10.1353
▁काढू	-10.1353
▁एन्	-10.136
▁भारताने	-10.1377
▁गण	-10.1382
▁मंत्रालयाच्या	-10.1385
▁संकटात	-10.1395
▁दुसर	-10.1414
▁आजारासाठी	-10.142
ेश्वर	-10.1421
▁नेत्यां	-10.1439
▁शास्त्रज्ञांन	-10.1455
▁प्राधिकरणा	-10.1455
▁चाचण्यांची	-10.1456
▁घेण्याच्या	-10.1466
▁बाधितांच	-10.1468
कोळ	-10.1469
▁राज्यातल्या	-10.1474
▁ज्यांच्या	-10.1477
▁हृदया	-10.1479
वर्षी	-10.1484
▁प्रयोग	-10.1488
विरार	-10.1494
कोव्हॅक्सीन	-10.1495
WHO	-10.1497
माझ	-10.1497
योग्य	-10.1497
मास्क	-10.1497
कोरोनाव्हायरस	-10.1498
▁पक्षां	-10.1498
व्हायरल	-10.1504
▁सोबतच	-10.1508
53	-10.1529
साऊ	-10.153
▁वटवाघळा	-10.1531
कांनी	-10.1541
▁प्रो	-10.1546
▁किर	-10.1551
60	-10.1551
▁वाचा	-10.1557
▁शनिवार	-10.1564
▁प्रमाणे	-10.1564
ादरम्यान	-10.1565
▁पाय	-10.1575
▁फॅ	-10.1578
▁''	-10.1584
▁केंद्रे	-10.1589
डॅ	-10.1596
▁पुरुषां	-10.1596
प्रकारे	-10.1596
़	-10.1614
▁बदलू	-10.162
▁घालत	-10.1623
▁विकस	-10.1626
▁जाता	-10.1636
▁सगळी	-10.1639
EEA	-10.1645
▁अस्तित्व	-10.1645
▁आढळली	-10.1645
▁आदिवासी	-10.1645
▁कौतुक	-10.1645
▁ठेवलं	-10.1645
▁थायलंड	-10.1645
▁बाजारपेठा	-10.1645
▁भौगोलिक	-10.1645
▁मेडिसिन	-10.1645
▁व्यवस्थित	-10.1645
▁संमेलन	-10.1645
▁सामुदायिक	-10.1645
▁हरिद्वार	-10.1645
▁हायकोर्टा	-10.1645
▁किमती	-10.1645
▁बायडन	-10.1645
▁गरीब	-10.1645
▁कार्यवाही	-10.1645
▁स्वयं	-10.1645
▁पाऊल	-10.1645
▁अलीकडेच	-10.1645
▁कार्यकर्ते	-10.1645
▁ड्रग्ज	-10.1645
▁अहवालात	-10.1645
▁परवाना	-10.1646
▁स्टेशन	-10.1647
▁अनुकूल	-10.1648
कल्प	-10.1649
सारणी	-10.165
▁कामगिरी	-10.165
▁सूज	-10.1651
▁नसतील	-10.1652
▁लावल्या	-10.1652
मिशन	-10.1653
▁गुठळ्या	-10.1653
▁वापरकर्त्या	-10.1655
त्री	-10.166
▁कुणा	-10.1664
पूर्वक	-10.1666
▁पडल्यास	-10.1668
▁संशोधक	-10.1672
▁साडे	-10.1676
ताप	-10.1682
▁जावं	-10.1682
▁वाटलं	-10.1682
▁साताऱ्यात	-10.1689
▁अज्ञात	-10.169
कूल	-10.1693
▁वैशिष्ट्ये	-10.1693
▁कुणाला	-10.1696
▁राबवण्या	-10.17
▁रेड	-10.1703
▁ठरली	-10.1703
वस्थ	-10.1705
ानं	-10.1706
▁व्हायला	-10.1707
दु	-10.1707
कुव	-10.1718
▁W	-10.1718
महाराष्ट्रात	-10.1721
▁काळासाठी	-10.1728
▁विचारलं	-10.1731
▁दिवसांसाठी	-10.1732
▁जातंय	-10.1733
▁महाविद्यालये	-10.1746
ण्याच्या	-10.1754
▁सायन	-10.1756
▁रड	-10.1758
▁तोपर्यंत	-10.1759
नोव	-10.1768
▁खुली	-10.177
▁पसरू	-10.1771
▁लसींचा	-10.1775
▁त्यांच्याकडे	-10.1775
नशील	-10.1777
▁अँटी	-10.1782
▁दिसते	-10.1786
▁वेबसाईटवर	-10.1786
मोहन	-10.1788
▁साथीमुळे	-10.179
▁ठेवण्यास	-10.1812
व्हल	-10.1814
▁वाक	-10.1821
▁नोंदव	-10.1825
▁जातेय	-10.1841
वादी	-10.1842
▁करण्यावर	-10.1847
मला	-10.1855
▁युकेत	-10.1856
जेन	-10.1859
▁प्रधान	-10.186
▁कळवि	-10.1864
▁हातावर	-10.1869
ंबाबत	-10.1871
ur	-10.1873
▁केलीय	-10.1884
▁4)	-10.1893
ce	-10.1904
▁मित्र	-10.1905
▁पीसीआर	-10.1905
▁करु	-10.1909
▁संपत	-10.1912
वारी	-10.1921
▁400	-10.1924
▁बिल	-10.1932
▁मंडळा	-10.1934
सन	-10.194
▁विमानात	-10.1943
हित	-10.1948
▁पक्षी	-10.195
▁तंत्रज्ञाना	-10.195
एल	-10.1961
बरोबरच	-10.1963
▁नोंदवल	-10.1969
▁प्रमाणित	-10.2007
झा	-10.2007
11	-10.2017
रेट	-10.202
भार	-10.2021
▁आजारावर	-10.2024
हॅ	-10.2055
▁४५	-10.2055
▁ठरले	-10.2061
▁कडू	-10.2062
78	-10.2075
बर	-10.208
es	-10.2083
आणि	-10.2086
▁चालव	-10.2095
▁पाड	-10.2095
ंप	-10.2113
▁बाबीं	-10.212
▁गमाव	-10.2121
स्थिती	-10.2122
▁सेकंद	-10.2124
▁अडचण	-10.2131
▁सापडल	-10.2131
▁महिलांन	-10.2139
2)	-10.2139
".	-10.2144
73	-10.2144
▁शरीर	-10.2151
86	-10.2158
▁असतानाही	-10.2175
द्ध	-10.2176
राज्य	-10.2182
▁थोडा	-10.2192
▁गुण	-10.2201
▁आगी	-10.2202
▁विद्यापीठात	-10.2203
र्फे	-10.2204
▁डोन	-10.2208
▁मंत्र्यां	-10.2215
▁गॅ	-10.2216
▁येई	-10.2217
▁बरा	-10.222
▁कोणा	-10.2223
▁त्यांच्यासाठी	-10.2227
णूक	-10.2228
▁मार्केट	-10.2229
▁बद्दल	-10.2232
▁सद्य	-10.2232
▁तृतीय	-10.2233
▁अंत्यसंस्कार	-10.2233
▁आढळणाऱ्या	-10.2233
▁औपचारिक	-10.2233
▁कर्नाटक	-10.2233
▁जावडेकर	-10.2233
▁टिश्यू	-10.2233
▁डेन्मार्क	-10.2233
▁दूषित	-10.2233
▁रेस्टॉरंट	-10.2233
▁व्हेंटीलेटर	-10.2233
▁शिफारशी	-10.2233
▁श्रेणी	-10.2233
▁हायपॉक्सिया	-10.2233
▁आसपास	-10.2233
▁टॅक्सी	-10.2233
▁विभाज	-10.2233
▁उच्चांक	-10.2233
▁स्वागत	-10.2233
ह्यूमन	-10.2233
▁स्कॅन	-10.2233
▁प्रकृती	-10.2233
▁रुमाल	-10.2233
साहेब	-10.2233
▁अहमदनगर	-10.2233
▁नसतो	-10.2233
▁मागितली	-10.2233
▁लावली	-10.2233
▁बजाव	-10.2233
▁निगड	-10.2233
▁दाब	-10.2234
▁हल्ला	-10.2235
लिव्हर	-10.2235
▁US	-10.2235
▁चढ	-10.2237
ममता	-10.2237
▁युएस	-10.2237
▁दरवर्षी	-10.2238
▁श्री	-10.224
▁इथल्या	-10.224
रात्र	-10.2242
▁पार्ट	-10.2243
▁क्लब	-10.2244
▁बळी	-10.2246
लेट	-10.2246
ऊन	-10.2249
▁आं	-10.2249
▁सत्रा	-10.225
▁पाठवलं	-10.2251
▁निकट	-10.2254
CM	-10.2254
▁क्रि	-10.2256
▁राहतो	-10.2258
▁इंटरन	-10.2263
▁(5	-10.2263
▁चिंचवड	-10.2265
▁गुणकार	-10.2266
▁लागणाऱ	-10.2284
▁खाल	-10.2286
खे	-10.2286
▁२००	-10.2291
▁मजुरां	-10.2292
▁तेथे	-10.2293
▁काढण्यासाठी	-10.2294
▁रूप	-10.23
्ती	-10.2302
▁सगळ्यांना	-10.2305
▁सिंह	-10.2305
▁असावा	-10.2307
वडील	-10.2312
80	-10.2312
▁पसरण्या	-10.2313
३८	-10.2315
▁विदर्भात	-10.2317
000	-10.232
▁ब्ल	-10.232
▁यावा	-10.2323
▁आवरण	-10.2324
यल	-10.2327
▁धुव	-10.2334
▁वगळण्या	-10.2347
टन	-10.2348
▁वर्षं	-10.235
▁पीएम	-10.2359
तज्ज्ञ	-10.2365
▁केंद्रांमध्ये	-10.2366
▁तासात	-10.2371
क्व	-10.2375
▁स्थगिती	-10.2381
▁ग्र	-10.2382
▁चि	-10.2387
▁समाजा	-10.2396
९९	-10.2396
▁प्रयोगशाळे	-10.2404
▁वर्गा	-10.2405
▁आत्तापर्यं	-10.241
डो	-10.2411
मंत्र्यांनी	-10.2411
▁95	-10.242
▁शिव	-10.2428
▁आलेख	-10.2429
▁सुचवले	-10.2436
▁पती	-10.2444
▁सातत्य	-10.2449
नाकारण	-10.2451
▁हाताळण्या	-10.246
▁न्यायालय	-10.2466
जो	-10.2475
▁पदार्थ	-10.248
▁न्यायालयान	-10.2488
4%	-10.2489
▁रूग्णांची	-10.2491
कोरोन	-10.2495
रोधी	-10.2496
▁अवयवां	-10.2499
▁बऱ्या	-10.2501
ग्र	-10.2505
ळक	-10.2511
▁पास	-10.2511
63	-10.2516
▁उपकरणां	-10.2518
▁वाढणार	-10.252
84	-10.2524
▁संसर्गाचं	-10.2541
▁जिल्ह्य	-10.2544
ED	-10.2545
▁फळ	-10.2555
▁क्षण	-10.2561
▁सेरोलॉजी	-10.2564
▁दिसतं	-10.2566
-5	-10.2568
▁किंमती	-10.2572
▁खेळत	-10.2575
जीव	-10.258
16	-10.2581
▁अवयव	-10.2582
न्सी	-10.2582
▁CoV	-10.2589
▁मोहीमे	-10.2601
पूर्व	-10.2613
▁असावे	-10.2614
र्न	-10.2626
▁पॅ	-10.2647
13	-10.2647
30	-10.2659
कट	-10.2664
▁निवडणुकी	-10.2665
▁निर्	-10.267
विर	-10.2676
भाव	-10.268
ट्स	-10.2685
▁एम	-10.2705
रुग्ण	-10.2706
18	-10.2707
हार	-10.2708
वापर	-10.272
▁देते	-10.2722
▁व्यक्ति	-10.2738
ांसह	-10.275
▁GP	-10.2757
▁बाबा	-10.2777
करता	-10.2778
ांपैकी	-10.279
▁शिक्ष	-10.2794
▁बायो	-10.2799
▁अध	-10.2802
▁व्हायरसला	-10.2811
ंद्र	-10.2815
▁व्हायरसवर	-10.2817
▁प्रतिरोध	-10.2833
▁चोळ	-10.2835
नात	-10.2844
▁कोव्हॅक्स	-10.285
प्ताह	-10.2853
▁मोज	-10.2854
▁सुरवात	-10.2857
धान	-10.2857
▁टॉ	-10.2858
क्लोरोक्विन	-10.2858
▁अधिवेशन	-10.2858
▁काळाबाजार	-10.2858
▁कुंभमेळा	-10.2858
▁जंतुनाशक	-10.2858
▁ठेवला	-10.2858
▁ध्येय	-10.2858
▁निवडणुका	-10.2858
▁पत्नी	-10.2858
▁प्रवृत्त	-10.2858
▁मुलाखती	-10.2858
▁रहिवासी	-10.2858
▁रिस्पॉन्स	-10.2858
▁सहव्याधी	-10.2858
▁हॅन्ड	-10.2858
▁रायगड	-10.2858
▁समाधान	-10.2858
▁उत्तराखंड	-10.2858
▁जीनोम	-10.2858
▁विलंब	-10.2858
▁हिवाळ	-10.2858
▁पार्सल	-10.2858
▁रूम	-10.2858
▁भागीदार	-10.2858
▁कामकाज	-10.2858
▁दीर्घकाळ	-10.2858
▁राज्यपाल	-10.2858
▁क्रिये	-10.2858
▁विचारणा	-10.2859
ग्राफ	-10.2859
▁गुप्त	-10.2859
▁जीवाणू	-10.2859
▁बालरोग	-10.286
▁सहकारी	-10.286
▁प्रदूषण	-10.2861
ेन्शन	-10.2862
▁रब	-10.2862
▁जन्म	-10.2862
▁ठेवावी	-10.2863
▁गृहमंत्री	-10.2863
▁जयंत	-10.2863
▁तिसर	-10.2863
▁धाव	-10.2863
▁भाविकां	-10.2865
ाध्यक्ष	-10.2865
▁पद	-10.2867
▁यावं	-10.2868
▁वाढवणे	-10.2869
▁खोकल्या	-10.2869
▁नंबर	-10.2869
▁शक्यतो	-10.2871
▁एरोसोल	-10.2873
RA	-10.2874
▁बायोएनटेक	-10.2883
▁दीर्घकाल	-10.2883
▁मिळण्यासाठी	-10.2883
▁परिणामकारकते	-10.2884
वर्ती	-10.2884
▁मंडळी	-10.2885
▁असो	-10.2885
▁अल्प	-10.2886
▁दिसली	-10.2886
▁दिलासा	-10.2887
▁वै	-10.2891
▁साधू	-10.2893
▁पदं	-10.2896
▁जोडले	-10.2897
▁२१	-10.2903
▁थोड्या	-10.2905
▁धडा	-10.2909
▁हेतू	-10.2918
षण	-10.2919
▁ह्यांचा	-10.2919
▁हाल	-10.2927
फॉर्म	-10.2928
्शन	-10.2933
▁एवढा	-10.2934
▁निघाल	-10.2935
रियल	-10.2935
▁सोप्या	-10.2938
वण्यात	-10.2944
▁औषधांची	-10.2945
▁ढ	-10.2946
▁खाण्या	-10.2953
▁आयोगाने	-10.2955
▁होतेय	-10.2957
▁करतोय	-10.296
▁हजारांच्या	-10.2961
ृष्ट	-10.2961
▁घातक	-10.2962
ation	-10.2962
44	-10.2965
▁संकलन	-10.2969
▁साथरोगाच्या	-10.297
▁लवकरच	-10.2972
▁लशीबाबत	-10.2972
▁उभारण्या	-10.298
▁थंडी	-10.2983
▁कंपन्यांना	-10.2985
▁स्थापना	-10.2986
बाबतीत	-10.2988
▁आढळलेल्या	-10.2989
▁झाल्यापासून	-10.299
▁वटवाघळे	-10.299
▁त्याबद्दल	-10.2992
▁पाठवला	-10.2992
▁करण्याबाबत	-10.2993
23	-10.3
▁तत्त्व	-10.3003
▁ठाण्यात	-10.3007
▁तापमानात	-10.3007
▁ब्रिटनमध्ये	-10.3013
▁लॉकडाऊनमध्ये	-10.3016
▁वर्तवल	-10.3024
▁अंग	-10.3025
▁दिवसांनी	-10.3027
▁फेक	-10.3028
▁राम	-10.3031
▁रन	-10.3033
▁लाटेच्या	-10.3033
▁लढाईत	-10.3038
▁मुलग	-10.3047
▁संयोज	-10.3051
दिन	-10.3056
▁१००	-10.3071
▁बाध	-10.3075
▁सुरूवाती	-10.3081
▁नसलेल	-10.3083
▁जीवन	-10.3085
▁बात	-10.3092
▁झाक	-10.3107
डबल	-10.3109
▁बदलण्या	-10.3123
▁कुंभमेळ्या	-10.3127
▁महिन्यांत	-10.3137
▁लढ्या	-10.314
िस्त	-10.3144
▁महत्वाची	-10.3154
▁भेटी	-10.3156
वेळ	-10.3177
▁गांभीर्य	-10.32
▁एवढ	-10.3205
िअर	-10.3212
▁5.	-10.3214
र्थ	-10.3223
▁लावता	-10.3229
▁स्तर	-10.3231
शंक	-10.3233
ईट	-10.3255
▁कामगारांन	-10.3263
▁३१	-10.3266
व्याप	-10.327
▁चाचणीत	-10.3279
रिन	-10.3281
ऑन	-10.3291
▁800	-10.3313
कडील	-10.3319
▁चुक	-10.3323
▁६०	-10.3331
▁मंत्रिमंडळाच	-10.3337
ब्ब	-10.3339
▁दे	-10.3353
ांकडे	-10.3365
▁नागरी	-10.3371
आरोग्य	-10.3377
▁पृष्ठभागा	-10.3378
▁वेबसाईट	-10.338
विकास	-10.3382
▁ले	-10.3385
▁वावर	-10.3397
▁चर्च	-10.3398
▁D	-10.3404
ाईड	-10.3405
▁कार	-10.3413
15	-10.3435
ाइट	-10.344
▁व्यापार	-10.3443
काळी	-10.3447
▁वापरत	-10.3448
▁विश्लेषणा	-10.3468
37	-10.3469
ट्ट	-10.3472
▁सेर	-10.3477
ve	-10.3483
▁/	-10.3488
अप	-10.3491
वाई	-10.3496
▁पत्रक	-10.3498
▁आढळल्या	-10.3503
▁वेळापत्रका	-10.3507
▁85	-10.3513
िण्या	-10.3516
प्प	-10.3517
तीने	-10.3519
▁सायकल	-10.3521
ge	-10.3522
▁एकमे	-10.3523
्फ्ल्युए	-10.3524
ायटीस	-10.3524
▁द्रुत	-10.3524
एचकेयु	-10.3524
▁अध्यक्षतेखाली	-10.3524
▁आंतरप्रजाती	-10.3524
▁आश्चर्य	-10.3524
▁एफडीए	-10.3524
▁चव्हाण	-10.3524
▁जिल्हे	-10.3524
▁झायडस	-10.3524
▁डाऊनलोड	-10.3524
▁डॅशबोर्ड	-10.3524
▁नोकरी	-10.3524
▁महासंचालक	-10.3524
▁मूल्यमापन	-10.3524
▁मॉड्यूल	-10.3524
▁रहिवाशांन	-10.3524
▁विषारी	-10.3524
▁व्यापाऱ्यां	-10.3524
▁सांस्कृतिक	-10.3524
▁सुनावणी	-10.3524
▁स्टोरेज	-10.3524
▁अपघात	-10.3524
▁कॅडिला	-10.3524
▁ठेवले	-10.3524
मूर्ती	-10.3524
▁पांढ	-10.3524
▁प्रतिकृती	-10.3525
▁तिकीट	-10.3525
▁दखल	-10.3525
▁पगार	-10.3525
▁लावणे	-10.3525
▁सतर्क	-10.3525
▁समजातीय	-10.3525
▁गुंतवणूक	-10.3525
▁हालचाली	-10.3525
▁गर्भपात	-10.3525
▁शस्त्रक्रिया	-10.3525
▁अवस्था	-10.3525
▁शिंदे	-10.3525
▁वाहक	-10.3525
▁किलोमीटर	-10.3525
▁पुनर्	-10.3525
▁न्यूयॉर्क	-10.3525
खाद्य	-10.3525
▁वायू	-10.3525
ांत्रिक	-10.3526
▁वेध	-10.3526
▁चित्रपट	-10.3526
▁महाविकास	-10.3526
▁ब्रुक	-10.3526
▁राहणं	-10.3526
▁आणले	-10.3526
गुरू	-10.3526
▁शिंकताना	-10.3527
▁वर्	-10.3527
▁लावाव	-10.3528
▁आराम	-10.3528
▁खोट	-10.3529
▁अभिनेत	-10.3529
निक	-10.3531
▁पट्ट	-10.3531
▁सगळीकडे	-10.3531
▁केव्हा	-10.3532
▁मिळणाऱ्या	-10.3533
▁लढत	-10.3533
▁एम्स	-10.3535
▁अँटीजेन	-10.3536
▁आश्वासन	-10.3536
▁अलीकड	-10.3538
▁भी	-10.3539
▁सवाल	-10.354
▁प्लाझ्मा	-10.3541
▁विकार	-10.3543
▁समुदायातील	-10.3543
▁करायचं	-10.3544
▁होय	-10.3545
▁स्वरूपाचा	-10.3545
▁आढळल्यास	-10.3546
▁लिंग	-10.3551
▁स्फोट	-10.3551
▁एन्फ्ल्युएन्झ	-10.3551
▁यापुढे	-10.3552
▁करोनामुक्त	-10.3554
▁दास	-10.3557
▁चालली	-10.3557
▁नाराजी	-10.3559
▁वाया	-10.356
▁करायचे	-10.3564
▁वीज	-10.3564
क्षमता	-10.3566
▁व्हेरियंट्स	-10.3567
▁नियंत्रणां	-10.3569
▁बाळ	-10.357
▁आढळतात	-10.357
▁आजारात	-10.357
▁पर्यटन	-10.3574
▁येतोय	-10.3582
▁वाढवली	-10.3585
ेकर	-10.3585
रितीने	-10.3585
िकट	-10.359
▁महिन्यापासून	-10.3596
इन	-10.3597
धु	-10.3602
▁जाणारी	-10.3606
▁सेंटर्स	-10.3609
▁मिळवून	-10.3609
▁ह्यांच्या	-10.3609
▁व्यक्तींनी	-10.361
▁झोनमध्ये	-10.3619
▁पायी	-10.3626
कॅन	-10.3626
▁रूग्णांसाठी	-10.363
▁कोम	-10.3634
यान	-10.3639
▁राहिली	-10.3639
▁रोखू	-10.3643
▁म्युकरमायकोसिस	-10.3647
▁ताज	-10.365
▁स्वरूपात	-10.3666
▁मुंबईतल्या	-10.3667
सागर	-10.3675
▁वितर	-10.3675
CO	-10.3684
▁मिळतो	-10.3686
रचनात्मक	-10.3688
▁गेल्यानंतर	-10.3698
▁राहण्याची	-10.3714
▁ट्रॅक	-10.3717
ईल	-10.3717
▁टाकले	-10.3719
▁वर्षभरा	-10.3722
गन	-10.373
▁डॉक्टरांन	-10.373
▁प्रवाशांची	-10.3742
▁विभागां	-10.3763
▁योजनां	-10.3771
▁समाजात	-10.3787
▁ठरला	-10.3803
त्रिम	-10.3807
जनक	-10.3807
्यापी	-10.381
77	-10.3818
ळण	-10.3826
▁केल्याचं	-10.3829
▁करणारं	-10.3839
▁यावे	-10.384
▁शेजार	-10.3843
▁पकड	-10.3845
▁उशीर	-10.3847
▁डो	-10.3848
▁व्यतिरिक्त	-10.3853
ासंदर्भात	-10.3856
▁बाहेरून	-10.387
6%	-10.387
लॅ	-10.3872
▁म्हण	-10.3876
he	-10.388
▁बोलण्या	-10.3891
▁व्यक्तींची	-10.3901
▁प्रक्रियेत	-10.3902
▁L	-10.3902
▁होतंय	-10.3902
▁खान	-10.3908
oc	-10.3909
▁दिन	-10.3913
▁प्रसिद्धी	-10.3926
1%	-10.3931
▁शास्त्रज्ञां	-10.3931
▁अध्ययना	-10.3937
▁कळवण्या	-10.3948
▁वेल	-10.3949
97	-10.3952
▁पसरव	-10.3962
लॉजी	-10.3963
▁घेतात	-10.3966
▁पाकिस्तान	-10.3996
▁वाढी	-10.3997
४८	-10.3997
▁एकच	-10.4007
▁शिर	-10.4007
▁हंगाम	-10.4027
▁व्यवस्थापना	-10.4038
निर्मिती	-10.4049
काळात	-10.4052
▁मुली	-10.4058
▁सुरूच	-10.4072
▁अनुम	-10.4073
70	-10.4083
संपर्क	-10.4091
करोना	-10.4092
RT	-10.4093
अभाव	-10.4094
्यम	-10.4117
▁उंट	-10.4119
▁बोर्ड	-10.4131
ॉक्स	-10.4132
▁उड्डाण	-10.4146
▁प्ले	-10.4148
▁सोमवार	-10.4158
▁सूचनांच	-10.4171
भाग	-10.4185
▁दीप	-10.4202
▁औषधी	-10.4208
▁सामान	-10.421
▁अनुसर	-10.4216
▁समजू	-10.4217
▁पसरण्याच	-10.4218
▁असती	-10.4225
▁पत्रकारां	-10.4233
▁उमेदवार	-10.4235
▁75	-10.4239
▁इच्छित	-10.4239
▁गाईडलाईन्स	-10.4239
▁दक्ष	-10.4239
▁नेतृत्व	-10.4239
▁लर्निंग	-10.4239
aharashtra	-10.4239
बुद्धी	-10.4239
ॅण्टीबॉडी	-10.4239
ॉक्सीक्लोरोक्विन	-10.4239
▁आदित्य	-10.4239
▁इमर्ज	-10.4239
▁कन्टेनमेंट	-10.4239
▁कागदपत्रं	-10.4239
▁केंब्रिज	-10.4239
▁कौशल्य	-10.4239
▁तुपे	-10.4239
▁दुर्दैवी	-10.4239
▁पंजाब	-10.4239
▁पंधरा	-10.4239
▁प्रायोगिक	-10.4239
▁फटाक्यां	-10.4239
▁महानगरपालिके	-10.4239
▁मिश्र	-10.4239
▁मुद्द्यावर	-10.4239
▁रक्कम	-10.4239
▁रणनीती	-10.4239
▁वॉशिंग्टन	-10.4239
▁साळुं	-10.4239
▁अर्थसंकल्प	-10.4239
▁आक्रमक	-10.4239
▁आस्थापना	-10.4239
▁पोषक	-10.4239
▁माणूस	-10.4239
▁2012	-10.4239
▁पातळ्या	-10.4239
▁रॅप	-10.4239
▁एजंट	-10.4239
▁दूध	-10.4239
▁शत्रू	-10.4239
अन्वेष	-10.4239
▁ऑर्डर	-10.4239
▁सातारा	-10.4239
▁सक्ती	-10.4239
▁अल्फा	-10.4239
▁इन्स्टिट्युट	-10.4239
▁राहावं	-10.4239
▁उत्क्रांती	-10.4239
▁उपचाराध	-10.4239
▁तैवान	-10.4239
▁सचिवालया	-10.424
▁वर्षांखाल	-10.424
पकि	-10.424
▁ठेऊ	-10.4241
com	-10.4241
ing	-10.4241
▁गोल्ड	-10.4242
pp	-10.4242
▁जुळ	-10.4243
▁दार	-10.4243
ावाटे	-10.4244
▁इन्फेक्शन	-10.4244
▁चालणार	-10.4244
▁प्रकट	-10.4245
▁तथा	-10.4245
▁साईड	-10.4247
पट	-10.4247
▁असायला	-10.4251
▁हव्या	-10.4251
कायदेशीर	-10.4253
▁द्यावा	-10.4253
▁गैरसमज	-10.4256
▁माफ	-10.4256
▁नाश	-10.4256
▁चॅ	-10.4257
▁कराव्या	-10.4257
▁वेळापत्रक	-10.4257
▁छत्र	-10.4261
्रॉम	-10.4263
ILI	-10.4265
▁नसतात	-10.4266
▁वाढतेय	-10.4267
▁खरी	-10.4269
▁कार्यस्थळ	-10.427
69	-10.4276
▁पाहण्या	-10.4278
▁बाजी	-10.4279
▁निक	-10.4279
▁राहिल्या	-10.428
▁पोहोचली	-10.4281
▁नसल्यामुळे	-10.4286
▁समजले	-10.4287
▁कारणांसाठी	-10.4288
▁शस्त्र	-10.429
▁स्त्रोत	-10.429
▁चौथ	-10.4296
▁पडणार	-10.4297
▁पुरुष	-10.4302
▁आदर	-10.431
▁बीड	-10.4312
▁घेतो	-10.4315
▁घ्यावे	-10.4317
नवजात	-10.4318
III	-10.4318
वळ	-10.4323
▁नोंदविण्या	-10.4325
▁तळ	-10.4326
▁व्हि	-10.4329
▁त्याप्रमाणे	-10.4344
▁पुरे	-10.4347
▁वेळेस	-10.4347
▁दुसरे	-10.4348
▁मार्गाने	-10.4352
नीय	-10.4356
▁सिंग	-10.4363
▁मारण्या	-10.4366
▁हातांवर	-10.4369
▁(4	-10.4373
▁ढकलण्या	-10.438
▁ठेवावे	-10.4381
▁पाळीव	-10.439
▁री	-10.439
ंबर	-10.4395
▁बिग	-10.4395
▁नमुन्यांमध्ये	-10.4397
35	-10.4398
▁तशी	-10.4406
▁यासोबतच	-10.441
▁निवास	-10.4413
▁पर्यटक	-10.4415
▁प्रसारण	-10.4424
▁जगाला	-10.4426
▁मंत्र्यांनी	-10.4431
▁धुण्यास	-10.4434
▁विरार	-10.444
▁मिळालेली	-10.4443
▁मंत्रिमंडळ	-10.4444
▁पॅन	-10.4448
ाडा	-10.4453
▁धुण्यासाठी	-10.4463
▁नाहीयेत	-10.4471
▁सांगते	-10.448
▁पाळण्या	-10.4484
ुनिक	-10.4484
ाशिवाय	-10.4487
▁स्त्रियां	-10.4495
▁यासंबंधी	-10.4499
▁२३	-10.4505
▁राहिला	-10.4508
ोलॉजी	-10.4512
ीटी	-10.4513
क्रम	-10.4515
▁केल्यामुळे	-10.4523
▁घालता	-10.4538
▁पसरलेल	-10.454
ाप्रमाणे	-10.4571
दे	-10.4572
▁चेहऱ्यावर	-10.4576
▁जाग	-10.4583
▁जोखमीवर	-10.4603
▁प्रकरणांमध्ये	-10.4603
▁लसीसाठी	-10.4603
▁ढा	-10.4623
्लम	-10.4635
▁बनत	-10.4641
▁उशीरा	-10.4651
िक्स	-10.4653
▁R	-10.4678
▁देशभर	-10.4682
▁एच	-10.4685
▁केल्यावर	-10.4687
▁सोडण्या	-10.4689
▁प्रकरणात	-10.4692
24	-10.4693
ूट	-10.4697
ल्ल	-10.4702
▁उत्पाद	-10.4712
▁पोहोचत	-10.4715
▁पाळीत	-10.4718
पण	-10.4718
▁आरोग्याच्या	-10.472
▁पोहोचण्या	-10.4721
रद	-10.473
व्हेल	-10.4732
29	-10.4736
▁सरकारचं	-10.4757
▁दाखवत	-10.4763
ायची	-10.4803
▁ट्विटरवर	-10.4804
०००	-10.4813
▁2)	-10.4817
िरी	-10.482
45	-10.4821
▁रूग्णालया	-10.4827
स्थान	-10.4829
▁एक्स	-10.483
▁२६	-10.4843
घर	-10.4852
▁300	-10.4854
खोल	-10.4859
▁रूग्णालय	-10.4859
जिल्हा	-10.4859
वाढ	-10.4861
51	-10.4865
९०	-10.4866
▁विद्यार्थ्या	-10.4869
प्रति	-10.487
केस	-10.4871
ांमधून	-10.4896
काळ	-10.492
▁घास	-10.4926
▁श्वसनमार्गा	-10.4935
▁करतं	-10.4936
▁अपुर	-10.4943
▁धू	-10.4944
▁कोरोनाबाबत	-10.4945
▁सत्य	-10.4948
▁मि	-10.499
▁रचना	-10.4994
NA	-10.4995
▁कोरोनाबाधितांच	-10.4996
▁खोली	-10.5005
▁जवळच्या	-10.5005
▁पथका	-10.5006
▁हर्ष	-10.5008
▁स्त्री	-10.5008
श्लेष	-10.5008
▁आढळलं	-10.5008
▁इंडस्ट्री	-10.5008
▁उस्मानाबाद	-10.5008
▁एंझाइम	-10.5008
▁क्लासेस	-10.5008
▁चिकित्सक	-10.5008
▁टेड्रोस	-10.5008
▁तरतूद	-10.5008
▁तुलनेन	-10.5008
▁थेरपी	-10.5008
▁थोरात	-10.5008
▁पॅटर्न	-10.5008
▁फेडरल	-10.5008
▁फोर्टिस	-10.5008
▁लोकप्रिय	-10.5008
▁व्हेंटिलेशन	-10.5008
▁शिफ्ट	-10.5008
▁सक्रीय	-10.5008
▁सपोर्ट	-10.5008
▁सल्लामसलत	-10.5008
▁सोलापुरात	-10.5008
▁स्टॉर्म	-10.5008
▁हायपोक्सिया	-10.5008
▁अंकित	-10.5008
▁आयएमए	-10.5008
▁किशोर	-10.5008
▁पुनःसंयोज	-10.5008
▁मांजर	-10.5008
▁कंटेनमे	-10.5008
▁तपशील	-10.5008
▁व्याप्ती	-10.5008
▁सज्ज	-10.5008
▁नसतं	-10.5008
▁मुद्दे	-10.5008
▁mRNA	-10.5008
▁निरंजन	-10.5008
▁टीव्ही	-10.5008
▁मजब	-10.5008
▁मुभा	-10.5008
▁सावधगिरी	-10.5008
▁प्रगती	-10.5008
▁अनिश्चित	-10.5008
▁ओसर	-10.5008
▁नोटीस	-10.5008
▁सवलत	-10.5008
▁गंगा	-10.5008
▁देईल	-10.5008
▁शकू	-10.5008
▁आणिबाणी	-10.5009
▁पर्वा	-10.5009
▁दिशेन	-10.5009
▁अकरा	-10.5009
उष्	-10.5009
▁नाकारता	-10.5009
▁संकल्पन	-10.5009
▁कोरोनील	-10.5009
▁दिलासादायक	-10.5009
स्प्रेडर	-10.5009
▁सावं	-10.5009
▁सूत्र	-10.5009
ool	-10.5009
▁राहणे	-10.501
▁थर्म	-10.501
पत्ता	-10.501
▁नियुक्त	-10.501
▁कपात	-10.501
▁परजीव	-10.501
▁इम्युनिटी	-10.501
भोवत	-10.5011
▁राहावे	-10.5011
▁असावं	-10.5012
▁गार्ड	-10.5012
▁२८	-10.5012
▁सादरीकरण	-10.5012
▁श्वसनासंबंधी	-10.5013
▁ओढ	-10.5013
do	-10.5013
▁लाखांहून	-10.5014
ोडल	-10.5016
▁धुता	-10.5018
▁ट्रेनिंग	-10.502
at	-10.502
▁निमित्तान	-10.5021
▁मिळाल्यानंतर	-10.5024
▁कँडीडेट्स	-10.5024
▁दारू	-10.5024
▁कारखाने	-10.5025
▁पहाय	-10.5025
▁पावसाळ	-10.5027
ाईक	-10.5028
▁वाचवण्यासाठी	-10.5031
▁न्यूज	-10.5033
▁नसून	-10.5033
▁साठवण्यासाठी	-10.5033
▁किट्स	-10.5033
▁मोदीं	-10.5035
▁अडथळे	-10.5038
▁अलगीकरण	-10.5039
▁अनुदान	-10.504
▁नजर	-10.5041
▁57	-10.5041
▁पसरतोय	-10.5042
ुंग	-10.5042
▁पुसू	-10.5044
▁दिवसांपर्यंत	-10.5047
▁वाढेल	-10.5048
▁संशोधनात	-10.505
▁(10	-10.505
▁शिवाजी	-10.5051
▁लाभ	-10.5052
▁करायचा	-10.5053
▁पळ	-10.5053
▁विचारला	-10.5054
▁सेट	-10.5059
▁दर्शवली	-10.506
▁प्रत्यक्षात	-10.5061
झो	-10.5062
यलेट	-10.5068
▁ट्रक	-10.5068
▁घेताना	-10.5069
▁पालकांना	-10.5069
▁72	-10.507
▁पदवी	-10.5072
▁४१	-10.5076
▁घरातल्या	-10.5085
▁एक्सप	-10.5085
me	-10.5087
्विक	-10.5088
▁जाव	-10.5089
▁जागे	-10.5097
▁आठवण	-10.5105
▁तपासण्यासाठी	-10.5108
▁तज्ज्ञांचं	-10.5113
▁वापरण्यास	-10.5113
▁यांच्यासोबत	-10.5115
▁वर्धा	-10.5117
▁जिवाणू	-10.512
▁नेम	-10.5121
▁उठव	-10.5122
▁यकृत	-10.5127
▁एकटे	-10.5135
▁गाठी	-10.5139
▁ब्रेक	-10.5139
▁आठव	-10.5139
▁एप	-10.5142
▁२९	-10.5155
▁पब	-10.5158
▁बनला	-10.516
ल्ला	-10.5168
▁गू	-10.5171
▁स्टे	-10.5185
रीत	-10.5185
▁धारावीत	-10.5192
राम	-10.5201
भाजी	-10.522
▁धोरणां	-10.5221
▁सण	-10.5235
तंय	-10.5239
▁चुकीचे	-10.5243
▁हातात	-10.5244
ेक्स	-10.5256
निम	-10.5258
MIS	-10.5266
ण्यापूर्वी	-10.5268
▁काहींनी	-10.5278
▁दिसले	-10.5279
ांश	-10.5292
▁कंपन्यांन	-10.5292
▁नेत्या	-10.5294
▁मिळतील	-10.5299
▁दुर्ग	-10.5313
▁टिक	-10.5334
▁ठरवण्या	-10.5344
नुक्रम	-10.5354
▁निळ	-10.5364
▁हिरा	-10.5365
त्काळ	-10.5367
▁४४	-10.5373
▁सरस	-10.5378
▁सूक्ष्मजीव	-10.5384
▁संघा	-10.5393
▁चालवत	-10.5401
▁असलेल	-10.5418
▁देवी	-10.5422
द्द	-10.5447
▁जहाज	-10.5448
-2)	-10.5455
▁करावेत	-10.5457
▁संयुग	-10.5488
▁उद्	-10.5501
▁धोरणा	-10.5509
ाइड	-10.5512
▁दरात	-10.5526
▁मुलांवर	-10.5538
▁समुद्र	-10.5538
RS	-10.5542
्युल	-10.5548
se	-10.5555
३३	-10.5557
▁जोडण्या	-10.5569
सरा	-10.5587
▁तरूण	-10.5596
▁पोलिस	-10.5613
प्रमाण	-10.5614
▁मास	-10.5616
धान्य	-10.5623
▁मेड	-10.5631
२५	-10.5641
▁बालका	-10.5647
▁पाळल	-10.565
87	-10.5662
संसर्ग	-10.5664
व्हायरस	-10.5664
▁मिनिटां	-10.5668
िए	-10.5668
▁उद्रेकाची	-10.5669
▁अर्ध	-10.567
िन्ह	-10.5672
▁मिळण्या	-10.5675
म्युकरमायकोसिस	-10.5689
क्टिव्ह	-10.569
छ	-10.5692
विलगीकरण	-10.5692
प्राप्त	-10.5693
म्	-10.5693
शक्य	-10.5694
कोव्हॅक्सिन	-10.5694
मोठ्या	-10.5694
आपल्या	-10.5694
आपण	-10.5696
लसीकरण	-10.5696
▁ड्र	-10.5705
▁भरल्या	-10.5706
▁स्वयंसेवकां	-10.5724
▁मंत्र	-10.576
गु	-10.5777
▁परवड	-10.5781
▁गटां	-10.5785
▁म्ह	-10.5787
द्राव	-10.5797
▁देशांमध	-10.5799
क्लो	-10.58
▁साय	-10.5801
सिटी	-10.5805
ाइल	-10.5809
श्च	-10.582
▁सेंट	-10.5825
ॉलि	-10.5833
ांहून	-10.5838
बुधवार	-10.584
▁महिना	-10.584
▁गरोदर	-10.584
▁इत्यादी	-10.5841
▁कोलमड	-10.5841
▁देणगी	-10.5841
▁भोजनालय	-10.5841
▁रक्तवाहिन्या	-10.5841
▁रॉय	-10.5841
ओसी४३	-10.5841
▁MPSC	-10.5841
▁उशिरा	-10.5841
▁काटेकोर	-10.5841
▁किंग्डम	-10.5841
▁क्लोरोक्वीन	-10.5841
▁तडजोड	-10.5841
▁तामिळनाडू	-10.5841
▁द्राक्ष	-10.5841
▁निम्न	-10.5841
▁निसर्ग	-10.5841
▁पतंजली	-10.5841
▁पुरस्कार	-10.5841
▁प्रतीक्षा	-10.5841
▁प्रार्थना	-10.5841
▁यवतमाळ	-10.5841
▁रशियन	-10.5841
▁वयस्कर	-10.5841
▁सफाई	-10.5841
▁उपाध्य	-10.5841
NHS	-10.5841
▁परीक्षण	-10.5841
▁प्रदर्श	-10.5841
▁कपडे	-10.5841
▁जर्नल	-10.5841
▁पुराव्या	-10.5841
▁स्टाफ	-10.5841
▁धूम्रपान	-10.5841
▁मंदाव	-10.5841
▁आणली	-10.5841
▁उन्हाळ्या	-10.5841
▁भेदभाव	-10.5841
▁लातूर	-10.5841
अभूतपूर्व	-10.5841
▁व्यवस्थापक	-10.5842
▁राखीव	-10.5842
▁सचिन	-10.5842
▁निर्यातीवर	-10.5842
▁फेसबुक	-10.5842
▁सवय	-10.5842
▁जाणीव	-10.5842
▁फायर	-10.5842
▁सांगितल्या	-10.5842
▁लेव्हल	-10.5842
▁पोषण	-10.5842
▁विमानसेवा	-10.5842
▁वेस्ट	-10.5843
▁आठवडय़ा	-10.5843
▁आक्षेप	-10.5844
▁क्रू	-10.5844
▁डिग्र	-10.5844
▁यूएस	-10.5844
▁थै	-10.5844
▁MH	-10.5845
▁सेना	-10.5846
▁स्ट्र	-10.5846
▁पै	-10.5846
▁1201	-10.5847
▁नसला	-10.5847
▁वर्गीकरण	-10.5847
▁कापड	-10.5847
▁असामान्य	-10.5847
▁दरेकर	-10.5847
▁एन्टीबॉडीज	-10.5848
▁विकेंद्र	-10.5848
▁०१	-10.5848
▁अधीन	-10.5849
▁स्टॅ	-10.5849
पंचायत	-10.585
▁घोषणे	-10.585
▁पाळणं	-10.585
▁अखिल	-10.5851
▁कुटुंबियां	-10.5852
▁पाहणं	-10.5853
▁प्रपत्र	-10.5855
▁खरे	-10.5855
▁पटींन	-10.5855
▁अशाप्रकारे	-10.5856
▁नाईक	-10.5856
▁सॅनिटा	-10.5856
▁आलो	-10.5857
▁ठरवलं	-10.5859
▁कमिशन	-10.5859
▁लाखांपेक्षा	-10.5859
▁आदेशानुसार	-10.5862
▁स्टिक	-10.5862
▁किरण	-10.5863
▁सांगली	-10.5863
▁उचलली	-10.5864
▁याचिका	-10.5866
समायोज	-10.5868
▁गिल	-10.5869
▁लशीकरण	-10.587
▁सांगायचं	-10.5871
▁55	-10.5871
ध्र	-10.5873
▁पसरली	-10.5873
▁करतायत	-10.5874
▁79	-10.5877
▁सर्वोत्	-10.5879
▁लसीकरणाबाबत	-10.5887
▁उत्तेजन	-10.5887
फेक	-10.5888
▁पाठवली	-10.5889
▁सुरुवातीपासून	-10.589
▁येतंय	-10.5893
▁पाठवि	-10.5898
▁एवढ्या	-10.5899
▁मोड	-10.5901
रेषा	-10.5902
▁व्हिडि	-10.5905
बध	-10.5905
▁दीर्घ	-10.5908
गॅस	-10.5908
▁राहिलं	-10.5908
▁सायं	-10.5909
▁प्रवेशासाठी	-10.5909
▁राहण्यास	-10.5913
▁प्रचारा	-10.5915
वटी	-10.5918
▁शास्त्री	-10.592
▁II	-10.5921
▁बोलव	-10.5922
▁मुद्द्यांवर	-10.5925
▁शाळांमध्ये	-10.5932
उदा	-10.5932
▁प्रथिनां	-10.5933
▁पेशींना	-10.5937
▁आकड्यां	-10.5938
▁उड्डाणे	-10.5938
▁अंतरावर	-10.594
▁चालना	-10.5941
▁पांडे	-10.5943
▁आयसीयूमध्ये	-10.5943
▁स्वास्थ्य	-10.5943
▁हृदयविकार	-10.5946
▁सुरत	-10.5978
▁स्नायू	-10.5981
▁चेक	-10.5983
▁नयेत	-10.599
▁वाढतो	-10.5991
▁प्रव	-10.5991
▁जाण्यास	-10.5995
▁मिळतात	-10.5996
▁अधि	-10.5997
tion	-10.5998
▁येण्यास	-10.6007
▁इमारतीत	-10.6011
▁सू	-10.6011
क्यात	-10.6011
▁Re	-10.6013
रोह	-10.6013
▁तेव्हापासून	-10.6034
▁भाल	-10.6049
▁हजारपेक्षा	-10.6056
▁स्वरुप	-10.6058
▁इमारती	-10.6069
▁कारणाने	-10.6071
▁गति	-10.6072
▁तिथल	-10.6089
▁वापरण्याचा	-10.609
40	-10.6096
लाइन	-10.6099
▁वर्षभर	-10.6099
▁सुन	-10.6119
िअल	-10.6133
विण्यासाठी	-10.6143
ho	-10.6144
▁प्राण्यांवर	-10.6166
▁ये	-10.6193
▁नागरिकांचे	-10.6193
▁उग	-10.6207
▁प्रशासक	-10.6215
▁कार्यक्षम	-10.6218
दावर	-10.6229
महाराष्ट्र	-10.6243
▁सापडलेल	-10.6249
▁आणण	-10.626
▁७०	-10.6272
▁साल	-10.6282
ma	-10.6296
▁असलेल्यांना	-10.6301
रुण	-10.631
स्तरी	-10.6311
शासनाने	-10.633
निश	-10.6366
▁फुफ्फुसांत	-10.6367
▁आरक्षणा	-10.6384
र्नि	-10.6398
गम	-10.6398
गतीन	-10.6405
▁वाढलेल	-10.6413
▁क्लिनिक	-10.6421
▁मनुष्यबळ	-10.6422
▁जागरूकत	-10.6431
ग्रह	-10.6437
▁पसरल्या	-10.6438
रिझ	-10.6439
▁आशादाय	-10.6451
▁निकष	-10.6459
▁अडकले	-10.6472
-10	-10.6473
▁दाखवाव	-10.6477
▁तंत्रज्ञ	-10.6513
देशात	-10.6516
▁Co	-10.6517
▁पर्यटकां	-10.6528
लोड	-10.6532
विषाणू	-10.6559
▁झालीय	-10.6571
▁भरण्या	-10.6582
32	-10.6584
75	-10.6586
ब्रेक	-10.6597
घातक	-10.6599
धर्म	-10.6599
ग्राम	-10.6601
इतके	-10.6601
अखेर	-10.6601
कुमार	-10.6602
पातळीवर	-10.6603
आर्थिक	-10.6603
अनेक	-10.6605
मर्याद	-10.6607
प्रकरण	-10.6608
▁कार्यक्रमात	-10.6614
▁कळव	-10.6615
पेशी	-10.6618
▁टाकण्या	-10.6645
मान्य	-10.6653
▁४२	-10.6659
▁गुंतागुंत	-10.6662
परि	-10.6669
▁शुक्रवार	-10.667
▁सकाळ	-10.668
्यांमध्ये	-10.6688
ानंद	-10.6706
▁नमुन्यात	-10.6709
▁2000	-10.6726
▁आमच्याकड	-10.6726
निमित्त	-10.6735
▁यंत्र	-10.6736
▁सॅन	-10.6743
▁डिस्टन्स	-10.6747
ॉवेल	-10.6749
नियमन	-10.6749
▁आकर्ष	-10.675
▁ऑक्सिमीटर	-10.675
▁कार्यपद्धती	-10.675
▁तुर्क	-10.675
▁निम्म्या	-10.675
▁फ्रेम	-10.675
▁लॉग	-10.675
▁विश्वसनीय	-10.675
▁व्यत्यय	-10.675
▁समस्ये	-10.675
▁हरियाणा	-10.675
एनएल६३	-10.675
मॅटिक	-10.675
▁अवस्थेत	-10.675
▁अॅडमिट	-10.675
▁आजूबाजू	-10.675
▁कंटेन्मेंट	-10.675
▁कमतरते	-10.675
▁केईएम	-10.675
▁खेळाडू	-10.675
▁गडचिरोली	-10.675
▁छाननी	-10.675
▁टेंडर	-10.675
▁डुकराच	-10.675
▁नांदेड	-10.675
▁निशाणा	-10.675
▁पेडणेकर	-10.675
▁बांधिलकी	-10.675
▁भौतिक	-10.675
▁रणनिती	-10.675
▁रणनीति	-10.675
▁व्हिडीओ	-10.675
▁शेंझेन	-10.675
▁सीताराम	-10.675
▁सौर	-10.675
ावस्थेत	-10.675
▁ट्रान्स	-10.675
▁ठेवल्या	-10.675
▁निरनिराळ	-10.675
▁पंडीत	-10.675
▁हजेरी	-10.675
NBA	-10.675
▁मृत्युमुखी	-10.675
▁रेणू	-10.675
▁वार्ता	-10.675
▁2020-21	-10.675
▁रमेश	-10.675
▁तुट	-10.675
▁रूपांतर	-10.675
▁कुंटे	-10.675
▁गाऊन	-10.6751
▁सायटोकीन	-10.6751
▁दशकां	-10.6751
▁मोनो	-10.6751
▁सस्तन	-10.6751
▁ओपन	-10.6751
▁स्त्रीरोगतज्ज्ञ	-10.6751
▁घ्यावं	-10.6751
▁शौचालय	-10.6751
▁तृतीयांश	-10.6751
▁याचिके	-10.6751
▁अकोला	-10.6751
▁पंढरपूर	-10.6751
▁झटक	-10.6751
▁रिक्षा	-10.6751
▁शतका	-10.6751
▁बाह	-10.6751
CMR	-10.6751
▁आखाडा	-10.6751
▁ऑडिट	-10.6751
▁बालरोगतज्ज्ञ	-10.6752
▁आणाव	-10.6752
▁विद्य	-10.6752
▁सभागृह	-10.6752
▁वापरावा	-10.6752
▁असुरक्षित	-10.6753
▁तुलनात्मक	-10.6753
▁एकट्या	-10.6753
▁जेनेटिक	-10.6755
▁हक्क	-10.6755
▁आहार	-10.6755
▁उत्त	-10.6756
▁६५	-10.6756
▁आग्रह	-10.6756
▁Ne	-10.6756
▁वैश	-10.6757
▁चोर	-10.6757
फूड	-10.6757
बीपी	-10.6758
▁भाऊ	-10.6758
▁मॉल्स	-10.6758
संगत	-10.6759
▁देह	-10.676
▁पात्र	-10.6761
▁आद	-10.6761
▁घातलेल्या	-10.6762
विधी	-10.6762
▁निर्म	-10.6764
▁बसतो	-10.6768
▁कळलं	-10.6768
▁वाहत	-10.677
▁प्रमाणपत्र	-10.677
▁प्राद	-10.6771
▁वाजल्या	-10.6772
▁इलेक्ट्रॉनिक	-10.6772
▁रांग	-10.6773
▁करतंय	-10.6773
▁दिवसांनंतर	-10.6775
▁डोळ्यां	-10.6775
विरूद्ध	-10.6777
▁वाढतोय	-10.6778
▁ग्राही	-10.6781
ंकन	-10.6782
▁लशीसंदर्भात	-10.6783
▁अभ्यासांत	-10.6784
▁फेरी	-10.6786
▁संसदे	-10.6787
▁लसनिर्मिती	-10.6789
▁विषयावर	-10.679
▁ढकलल्या	-10.6791
▁सांगतो	-10.6792
▁नसतानाही	-10.6793
▁लु	-10.6793
▁स्थित	-10.6795
▁केल्याप्रमाणे	-10.6798
▁हॉटेल्स	-10.6798
▁59	-10.6799
▁शब्दात	-10.68
▁वापरावे	-10.6803
▁शिकवण्या	-10.6809
टर्स	-10.6809
▁अभ्यासामध्ये	-10.681
▁प्रतिकारक	-10.6811
▁जु	-10.6815
बर्ग	-10.6817
▁फ्लो	-10.682
IV	-10.6824
▁साजरी	-10.6826
▁राहिलेल	-10.6828
▁उत्तम	-10.6831
▁वर्क	-10.6832
▁बिंदू	-10.6832
▁ह्याबद्दल	-10.6838
▁पूर्वज	-10.6839
▁नियंत्रणासाठी	-10.6839
▁पूर्वप	-10.685
▁प्रीत	-10.6861
▁येतेय	-10.6862
▁पोच	-10.6863
▁वैशिष्ट्य	-10.6868
▁टक्क्यांवर	-10.6868
▁३६	-10.6877
ers	-10.6879
शु	-10.6883
▁नळी	-10.6884
▁सिं	-10.6884
▁नाम	-10.689
▁प्ल	-10.6891
धाप	-10.6896
ाणू	-10.6897
▁वाढविण्या	-10.6898
५०	-10.69
▁एवढं	-10.6906
▁रुग्णालयांत	-10.6911
▁जावी	-10.6923
▁तपासल	-10.693
▁कर्मचाऱ्यांसाठी	-10.693
▁कारणासाठी	-10.6935
▁उपक्रमा	-10.6935
युए	-10.6935
as	-10.6939
▁प्रशिक्ष	-10.6943
▁सिटी	-10.695
▁कोरोनाविरोधात	-10.695
▁लॉकडाऊनबाबत	-10.6953
▁संपला	-10.6954
▁घडव	-10.6955
▁ठरविण्या	-10.696
BC	-10.6964
▁जणांमध्ये	-10.6991
ावरुन	-10.7009
▁साध्य	-10.7014
▁रोगनिदान	-10.7019
▁पोहोचले	-10.7024
▁प्रोट	-10.704
0,000	-10.7043
ल्हा	-10.7054
▁बदलली	-10.7063
कोरोनाची	-10.7075
▁संपव	-10.7089
▁घन	-10.7094
शम	-10.7095
▁कार्यालये	-10.7098
▁विचारले	-10.7099
1.7	-10.7108
▁उघडी	-10.7109
ाइम	-10.7124
▁मार्फत	-10.7135
वणी	-10.7137
द्वा	-10.7143
▁देतील	-10.7171
रुप	-10.7178
ल्व्ह	-10.7179
लाईन	-10.7195
४३	-10.7196
▁सांगितलंय	-10.7234
27	-10.7251
▁आगीत	-10.7252
▁गाड्या	-10.7268
▁टाळाव	-10.7276
पेट	-10.7279
िदान	-10.7282
▁मित्रा	-10.729
▁यंत्रणेवर	-10.7302
▁पोर्	-10.732
्लू	-10.7323
म्युनिटी	-10.7332
▁इमारतीं	-10.7334
83	-10.7347
▁नसले	-10.7348
▁अॅड	-10.737
▁54	-10.7377
▁गोष्टींवर	-10.7383
▁देशव	-10.7397
▁बनवत	-10.7402
▁समस्यां	-10.7406
पया	-10.7432
▁पू	-10.7444
▁आत्ता	-10.7451
▁वर्ध	-10.7452
▁वाढीव	-10.7456
▁सां	-10.7457
▁तीव्रतेन	-10.7468
इक	-10.7471
रबा	-10.7475
रूप	-10.7485
▁34	-10.7489
▁संरचना	-10.7526
कालिक	-10.7533
ेट्स	-10.7538
▁99	-10.7544
▁साथरोगा	-10.7553
▁विकल	-10.7565
ांबद्दल	-10.757
▁आफ्रिक	-10.7586
दिव	-10.7592
तंत्रज्ञान	-10.7601
क्वारंटाईन	-10.7603
प्रत्येक	-10.7603
▁विमा	-10.7607
भारतात	-10.7609
▁32	-10.7614
▁धड	-10.7619
▁पहा	-10.762
पुर	-10.7622
▁घेतल्यावर	-10.7624
मते	-10.7629
▁पोशिंद	-10.7634
खंड	-10.7635
▁39	-10.7636
▁वेब	-10.7643
▁मजुरांन	-10.7648
९५	-10.7654
▁वास्तव	-10.7663
▁बाजू	-10.7665
▁टक्क	-10.7666
▁योजनेत	-10.7669
▁साजर	-10.7678
▁96	-10.7699
ia	-10.7702
▁५००	-10.7706
▁आध	-10.7713
प्रकारच	-10.7718
▁नसू	-10.7723
▁न्यु	-10.7723
▁जुन	-10.7731
▁दोघां	-10.7732
▁सुचव	-10.7737
▁तारखे	-10.7741
▁विमानतळ	-10.7743
▁शौच	-10.775
gov	-10.775
▁7,162	-10.775
▁इम्यून	-10.775
▁फॉलो	-10.775
पार्टमेंट	-10.775
▁अपेक्षे	-10.775
▁अभियान	-10.775
▁जीवघेण	-10.775
▁ठेवली	-10.775
▁डिस्चार्ज	-10.775
▁डोमेन	-10.775
▁तन्मय	-10.775
▁नव्हत्या	-10.775
▁नागपुरात	-10.775
▁नोकऱ्या	-10.775
▁नोवाव्हॅक्स	-10.775
▁परराष्ट्र	-10.775
▁पाठिंबा	-10.775
▁पारंपरिक	-10.775
▁पोटदुखी	-10.775
▁बास्केटबॉल	-10.775
▁महसूल	-10.775
▁मॉनिटर	-10.775
▁यंत्रमाग	-10.775
▁वडेट्टीवार	-10.775
▁वीकेंड	-10.775
▁वॉशरूम	-10.775
▁व्यायामशाळा	-10.775
▁व्हॅन्टिलेटर	-10.775
▁सांख्यिकी	-10.775
▁सापडत	-10.775
▁सेल्सिअस	-10.775
▁सेल्सियस	-10.775
▁स्पाइक	-10.775
फेलुदा	-10.775
▁कुठलं	-10.775
▁क्रीडा	-10.775
▁टंचाई	-10.775
▁डिझाइन	-10.775
▁पाहिली	-10.775
▁पाहिल्या	-10.775
▁प्रार्थनास्थळ	-10.775
▁फॉर्म्युल	-10.775
▁विपरीत	-10.775
▁व्याख्या	-10.775
▁संभ्रम	-10.775
▁हिंदू	-10.775
ene	-10.775
अहमदाबाद	-10.775
▁ग्रुप	-10.775
▁जंगलात	-10.775
▁तितकं	-10.775
▁प्रश्नचिन्ह	-10.775
▁रिव्हर्स	-10.775
▁समांतर	-10.775
▁ह्युम	-10.775
भाईंदर	-10.775
▁युनियन	-10.775
▁शिंगणे	-10.775
▁एरवी	-10.775
▁छोटा	-10.775
▁गर्भधारण	-10.775
▁इबोला	-10.775
▁मुळात	-10.775
▁विकृती	-10.775
▁कोसळल	-10.7751
▁सल्ले	-10.7751
▁ओलांड	-10.7751
▁पुढाकार	-10.7751
▁टाईम्स	-10.7751
▁व्हावं	-10.7751
अॅस्ट्र	-10.7751
▁स्नान	-10.7751
▁मल्टी	-10.7751
▁उमट	-10.7751
▁व्हावा	-10.7751
▁ठेवायला	-10.7751
▁दाव्या	-10.7751
▁आणला	-10.7751
▁व्हॅ	-10.7751
▁शोधकार्य	-10.7751
▁मेळाव	-10.7751
▁मुदत	-10.7751
▁मशीन	-10.7751
▁घातला	-10.7752
▁आणल्या	-10.7752
▁भागवत	-10.7752
▁यादव	-10.7752
नुषंग	-10.7752
▁खवखवणं	-10.7752
▁नसली	-10.7752
▁पदव	-10.7752
▁पाहूया	-10.7752
▁गेम	-10.7752
▁वृत्तपत्र	-10.7752
▁प्रॅक्टिशनर्स	-10.7753
▁पशु	-10.7754
▁दाट	-10.7754
▁खरंतर	-10.7754
gen	-10.7754
▁रस्त्यांवर	-10.7754
▁कुल	-10.7754
▁Pr	-10.7754
▁विक्रम	-10.7755
ीएसई	-10.7756
ch	-10.7756
▁2018	-10.7756
▁बहि	-10.7756
▁पोहोचलो	-10.7756
▁मेडीक	-10.7757
▁संपल्यानंतर	-10.7757
LRTI	-10.7757
▁कारखान्यां	-10.7757
▁मिथ	-10.7757
▁चरण	-10.7758
▁विमानतळावर	-10.7758
ाधिकार	-10.776
▁पडेल	-10.776
▁चालेल	-10.7761
▁तै	-10.7761
▁ब्लु	-10.7762
▁वास्तविक	-10.7762
▁त्रि	-10.7762
▁मनसे	-10.7762
▁भांड	-10.7763
▁2005	-10.7764
▁नर्सिंग	-10.7764
▁जायचं	-10.7766
▁हलक	-10.7766
▁सेने	-10.7766
▁उड्डाणा	-10.7766
ाईज	-10.7767
▁नेत्यांनी	-10.7768
▁गरजेचा	-10.7769
2,6	-10.777
▁सायन्स	-10.777
▁मंत्र्यांना	-10.7771
▁दाहक	-10.7772
▁रेड्डीज	-10.7772
हेरी	-10.7773
▁नखां	-10.7774
वहन	-10.7774
▁युवा	-10.7775
▁पोहोचवल	-10.7775
▁एन्फ्लुएन्झा	-10.7775
▁जीनसंचा	-10.7776
डियम	-10.778
▁अभ्यासानुसार	-10.7783
▁बघता	-10.7784
क्कर	-10.7787
▁रुपयांना	-10.779
▁निघालेल	-10.779
▁दुरुस्ती	-10.779
▁एंटेर	-10.7792
▁144	-10.7795
▁प्रतिरोधक	-10.7796
▁क्षेत्रांत	-10.7796
▁पडलेल्या	-10.7797
▁घाई	-10.7799
▁नारा	-10.7805
▁अँजिओटेनसीन	-10.7808
▁प्रती	-10.7812
पूजा	-10.7812
▁केअर्स	-10.7812
ABC	-10.7813
▁सहन	-10.782
▁परवडणार	-10.7824
▁दाखवि	-10.7824
▁स्पेशालिटी	-10.7825
▁वडिलां	-10.7825
पिल	-10.7827
धीर	-10.7832
▁आफ्रिका	-10.7832
▁घेतल्याचं	-10.7839
▁उलट्या	-10.784
▁शाही	-10.7841
▁ऑल	-10.7842
▁झोपडपट्टी	-10.7844
▁विभागाकडून	-10.7847
▁टाळावे	-10.785
▁अँपल	-10.7852
▁घटली	-10.7862
▁टाळत	-10.7867
▁ट्विटमध्ये	-10.787
▁दृश्य	-10.7874
▁एवढे	-10.7883
▁राहता	-10.7893
स्तान	-10.7895
▁खोल	-10.79
▁लाखांच्या	-10.7906
▁भागावर	-10.7909
▁व्हायची	-10.7914
▁स्वयंसेवक	-10.7915
▁उचलाव	-10.7933
II	-10.7934
▁मांडला	-10.7937
▁केंद्रांवर	-10.794
▁वापरणं	-10.7942
▁टाकण	-10.7943
ांस	-10.7944
▁उंटा	-10.7946
नीती	-10.7947
डीसी	-10.7953
▁ठरतील	-10.7955
▁गरजूं	-10.7968
▁फुट	-10.7983
▁जाणवू	-10.7983
डेन	-10.7995
▁बँके	-10.7998
▁आफ्रिके	-10.8005
▁वाढवणार	-10.8007
▁इतिहासा	-10.801
▁राहात	-10.8017
▁टिकव	-10.8019
▁आढळते	-10.8025
▁चालवण्या	-10.8026
▁घाला	-10.8027
▁राहण्याचा	-10.8037
इस	-10.8044
▁मोजाव	-10.8045
▁कळत	-10.8064
▁ट्विटर	-10.8065
▁निवडणुकीत	-10.8073
el	-10.8078
▁बिघडत	-10.8087
▁बर्	-10.8096
वेळा	-10.8106
▁उचलण्या	-10.8118
▁वटवाघळां	-10.8127
निग	-10.8136
▁नवरा	-10.8147
▁नळ	-10.8163
▁बोलू	-10.8211
▁शहरांत	-10.8212
न्ना	-10.8228
▁रसायन	-10.8232
एफ	-10.825
ोडी	-10.8264
▁रहात	-10.8272
▁वाहतुकीवर	-10.8294
▁दिसतो	-10.8294
६०	-10.8302
▁स्थळे	-10.8313
▁शोधले	-10.8318
▁गाय	-10.8349
▁एल	-10.8352
▁प्राधान्यान	-10.8367
▁म्हणण	-10.837
▁पॅक	-10.8386
id	-10.8388
▁दाखवले	-10.8394
50%	-10.8403
१३	-10.8415
प्लिकेशन	-10.8417
ral	-10.8429
▁विना	-10.8431
▁मह	-10.8442
▁चालक	-10.846
▁स्त्रिया	-10.8467
हाय	-10.8467
▁थेंब	-10.848
नियंत्र	-10.8501
▁परिसर	-10.8515
शर	-10.8517
▁सुचवत	-10.8518
▁शकला	-10.8521
▁ढकल	-10.8539
▁रोगनिदाना	-10.854
▁इतिहासात	-10.8564
▁मागण्या	-10.8568
▁निवेदन	-10.8575
▁नियंत्रक	-10.8596
▁उण	-10.8601
▁प्रकल्पां	-10.8622
▁92	-10.8628
६३	-10.8638
स्थित	-10.8656
▁कोरिय	-10.8656
▁श्वसनयंत्र	-10.866
▁62	-10.866
▁निवा	-10.8665
▁पाठवा	-10.8666
नियम	-10.8672
शक्ती	-10.8675
▁रस्त्या	-10.8702
▁दुख	-10.8706
PP	-10.8707
पदार्थ	-10.8709
माध्यम	-10.871
W	-10.871
जिल्ह्या	-10.8712
गंभीर	-10.8714
ऑक्सिजन	-10.8714
अधिक	-10.8714
▁चालत	-10.8725
पक्ष्यां	-10.8733
▁दिवसांपूर्वीच	-10.8735
लग्न	-10.8737
▁तत्व	-10.8744
सेवा	-10.8747
▁जर्मन	-10.8753
कुल	-10.8762
▁जनत	-10.877
▁हँड	-10.8776
▁शाह	-10.8779
▁चिन्ह	-10.878
▁कार्यालयात	-10.878
पूर्त	-10.8785
महा	-10.8789
साथीच	-10.8795
▁कार्यस्थळा	-10.8812
▁नसताना	-10.8817
▁ओक	-10.8818
▁घ्यायच	-10.8828
▁दला	-10.8832
शिय	-10.8832
▁ठेवू	-10.8833
▁सीमे	-10.8836
▁दाह	-10.8839
▁कोणता	-10.8847
▁घातले	-10.8851
▁जॉन	-10.8852
▁मॉल	-10.8852
▁अभिन	-10.8853
▁घशात	-10.8855
▁कायदे	-10.8858
क्षेप	-10.8858
▁समाप्त	-10.886
म्ब्युलन्स	-10.8861
यॉर्क	-10.8861
▁पार्श्वभूम	-10.8861
oronavirus	-10.8861
▁श्रेय	-10.8861
टाईम	-10.8861
▁जाहिर	-10.8862
क्रिप्शन	-10.8862
प्रत्यारोप	-10.8862
सुविधे	-10.8862
▁अक्षर	-10.8862
▁आरोग्यसेवक	-10.8862
▁घेब्रेयेस	-10.8862
▁नॉन	-10.8862
▁पुनरावलोकन	-10.8862
▁बाटली	-10.8862
▁बिघाड	-10.8862
▁मूत्रपिंड	-10.8862
▁विशाखा	-10.8862
▁शुभेच्छा	-10.8862
▁संघर्ष	-10.8862
▁सरपंच	-10.8862
एसओपी	-10.8862
ॉक्सीक्लोरोक्वीन	-10.8862
▁कसोटी	-10.8862
▁कॅबिनेट	-10.8862
▁कॉकेटल	-10.8862
▁खिडकी	-10.8862
▁गुणोत्तर	-10.8862
▁जीवनावश्य	-10.8862
▁टप्प्याटप्प्यान	-10.8862
▁डायरेक्ट	-10.8862
▁डिलीव्हरी	-10.8862
▁दुःख	-10.8862
▁नववर्षाच	-10.8862
▁नारळीकर	-10.8862
▁पासपोर्ट	-10.8862
▁फाउंडेशन	-10.8862
▁फिटनेस	-10.8862
▁भुजबळ	-10.8862
▁वयोवृद्ध	-10.8862
▁वेदना	-10.8862
▁व्हेन्टिलेटर	-10.8862
▁शल्यचिकित्सक	-10.8862
▁शवविच्छेदन	-10.8862
▁शिवजयंती	-10.8862
▁स्पेशल	-10.8862
▁स्वित्झर्लंड	-10.8862
▁हातमोजे	-10.8862
इंटेन्सिव्ह	-10.8862
▁अमिनो	-10.8862
▁आदर्श	-10.8862
▁घेईल	-10.8862
▁डिस्ट्र	-10.8862
▁थ्रू	-10.8862
▁धावपळ	-10.8862
▁नपुंसक	-10.8862
▁पर्यावरण	-10.8862
▁विचित्र	-10.8862
▁सीईओ	-10.8862
▁स्क्रीन	-10.8862
▁हेल्थकेअर	-10.8862
▁ईमेल	-10.8862
▁कॅन्सर	-10.8862
▁खराब	-10.8862
▁छोटे	-10.8862
▁टूथ	-10.8862
▁मध्यभागी	-10.8862
स्पॅ	-10.8862
▁जेवढ	-10.8862
▁धडपड	-10.8862
▁द्रावणा	-10.8862
▁व्याधी	-10.8862
▁सांगितली	-10.8862
मेडिसीन	-10.8862
▁जमिनी	-10.8862
▁श्रम	-10.8862
▁सुलभ	-10.8862
▁पटोले	-10.8862
▁रहावं	-10.8862
▁सत्ताधा	-10.8862
▁हाऊस	-10.8862
▁अनुप्रयोग	-10.8862
▁जनुक	-10.8862
▁लिक्वि	-10.8862
▁कॅनेड	-10.8862
▁प्रतिक्रिये	-10.8862
▁श्वसननलिके	-10.8862
ावधी	-10.8862
▁रिसेप्टर	-10.8862
टॅग	-10.8862
▁अफवा	-10.8862
▁अधिग्रह	-10.8862
IMS	-10.8862
▁कोंडी	-10.8862
▁अडीच	-10.8862
▁ऑपरेशन	-10.8862
▁कुपी	-10.8862
▁लावायच	-10.8863
▁गृहविलगीकरण	-10.8863
▁कॅम्प	-10.8864
▁प्रसारमाध्यमां	-10.8864
ट्यूब	-10.8865
▁कमिटी	-10.8865
▁महानगर	-10.8865
▁इटाल	-10.8865
▁वर्षाखाल	-10.8865
▁दडप	-10.8865
▁व्हे	-10.8866
सत्ता	-10.8866
▁ठाम	-10.8867
▁९८	-10.8867
▁उमेदवारां	-10.8867
▁2015	-10.8867
▁अभ्यासक्रम	-10.8868
▁अग्निसुरक्ष	-10.8868
▁नायर	-10.8868
▁२०१९	-10.8868
स्वामी	-10.8869
▁झालो	-10.8869
OC	-10.8869
▁बोललो	-10.8869
▁तोडण्यासाठी	-10.887
po	-10.887
oo	-10.887
मायन	-10.887
▁सायकलींच	-10.8871
▁स्पर्धा	-10.8871
मापन	-10.8872
मावेश	-10.8872
▁त्वर	-10.8873
▁ढकलले	-10.8874
▁दोघांना	-10.8875
▁जहाजावर	-10.8875
▁मिळवणे	-10.8876
▁कळवले	-10.8877
▁वगळून	-10.8877
▁मै	-10.8878
▁डॉलर्स	-10.8883
5%	-10.8884
▁नाकारल	-10.8884
बुड	-10.8884
▁लिहिलेल	-10.8885
▁दुध	-10.8885
▁सांगायच	-10.8886
़ा	-10.8886
▁घटनांमध्ये	-10.8887
▁जोख	-10.8887
काणी	-10.8887
▁आणून	-10.8888
▁सीटी	-10.8889
यावह	-10.8889
▁यादृच्छिक	-10.889
▁अधान	-10.8891
▁मिनी	-10.8891
▁तशा	-10.8892
▁चव	-10.8893
▁स्मशानभूमीत	-10.8898
▁असल्यानं	-10.8898
▁बाजूने	-10.89
▁रीड	-10.8901
▁ठार	-10.8902
▁तरुणांना	-10.8904
▁आजारपणा	-10.8904
▁शोधणे	-10.8905
▁अनुसरून	-10.8905
▁अनेकजण	-10.8907
▁डाव	-10.8907
▁प्रोनिंग	-10.8908
▁करण्याआधी	-10.891
▁गणित	-10.891
▁टँकर्स	-10.8912
▁वर्षावरील	-10.8915
▁जखमी	-10.8916
▁परब	-10.8919
▁हिम	-10.8919
▁अँड्र	-10.8921
▁पावलेल्या	-10.8922
▁पूर्वीपेक्षा	-10.8922
▁व्यास	-10.8922
राष्ट्रपती	-10.8923
▁(20	-10.8925
▁कवच	-10.8927
(1)	-10.8929
▁मीरा	-10.8929
▁साठे	-10.893
▁नोट	-10.8931
्यूट	-10.8935
▁गुणकारिते	-10.8936
▁भागामध्ये	-10.8937
▁41	-10.8937
▁त्याऐवजी	-10.8938
ीक्ष	-10.8938
▁व्हेक्टर	-10.894
▁ठरल्याच	-10.8943
▁घ्यायचा	-10.8943
▁चिन्हे	-10.8946
▁आयुष्यात	-10.8947
▁नुकत्या	-10.8952
▁हँडल	-10.8956
▁थोपव	-10.8956
▁धडे	-10.896
▁भरण्यासाठी	-10.8961
२०	-10.8961
▁श्वसनमार्गात	-10.8971
▁स्टील	-10.8972
▁पाठवण्यासाठी	-10.8973
▁लसीकरणानंतर	-10.8975
▁अपुरा	-10.8981
▁नाना	-10.8984
▁हजारांवर	-10.8992
्वित	-10.8996
नंदान	-10.8997
वाडा	-10.9001
1.8	-10.9006
▁महाग	-10.9012
कार्यान	-10.9013
▁उत्पादनासाठी	-10.9018
▁वर्गाला	-10.9028
▁लॅबमध्ये	-10.904
▁लावण्यासाठी	-10.9062
▁मोजण	-10.9075
सिस	-10.909
लिज	-10.9097
▁भाषणात	-10.9102
▁दिसल्या	-10.9118
नवाल	-10.9152
▁प्रचारसभां	-10.9157
▁मिळे	-10.9162
▁सोमा	-10.9169
▁चौक	-10.9181
▁सशक्त	-10.9182
▁प्रवर्ध	-10.9183
▁उद्भवणार	-10.9191
▁काढता	-10.9203
नीट	-10.9208
▁हंगामा	-10.9208
▁म्हणाव	-10.9211
▁वाढवत	-10.9226
▁पडतो	-10.9241
▁कायमस्वर	-10.9255
३६	-10.9262
▁बारा	-10.9262
▁शिं	-10.9264
▁बनले	-10.9265
ca	-10.9287
ate	-10.9298
▁पंच	-10.9301
▁कन्	-10.9308
ज्यु	-10.9335
▁आरक्षण	-10.9336
▁स्टेटस	-10.9368
ovid	-10.9369
▁68	-10.9385
▁निर्देशां	-10.9387
कलर	-10.9391
▁घडले	-10.9402
ैस	-10.9402
▁आणत	-10.941
▁36	-10.9432
व्हॅक	-10.9441
▁शिकत	-10.9484
▁धरल	-10.9491
▁जगातल	-10.951
सायटोक	-10.9527
रोगतज्ज्ञ	-10.9528
▁आणता	-10.9532
३०	-10.9536
ध्य	-10.9546
▁उघड्या	-10.9559
ra	-10.9605
२४	-10.9608
▁वाचू	-10.9629
▁निष्कर्षां	-10.9639
67	-10.9645
ब्लि	-10.9662
▁पान	-10.9682
▁फ्ल	-10.9689
ISC	-10.9697
▁कर्मचाऱ्या	-10.9697
क्षेत्र	-10.9698
ांसोबत	-10.9706
▁सोपव	-10.9719
▁प्रभा	-10.9805
Cov	-10.9806
▁लढण्या	-10.9806
▁विष्ठे	-10.9807
गण्य	-10.9828
देशी	-10.9839
१६	-10.9883
▁सातव	-10.9899
्टाईन	-10.9905
▁66	-10.9913
▁साधनांच	-10.9926
ain	-10.9933
ऑ	-10.9942
दृश्य	-10.9957
दीर्घ	-10.9958
पांडे	-10.9959
सिंह	-10.996
बाबा	-10.9961
इफेक्ट	-10.9962
प्रणाली	-10.9962
दृष्टीने	-10.9962
बातम्या	-10.9963
MERS	-10.9963
सुविधा	-10.9963
अमरावती	-10.9963
इतकी	-10.9964
प्रचार	-10.9964
जागतिक	-10.9964
रुग्णालयात	-10.9964
कधी	-10.9967
Ch	-10.9972
जास्त	-10.9981
स्थानिक	-10.9982
वर्धन	-10.9992
▁कुर	-11.0002
▁उतरले	-11.0007
▁बसल्या	-11.0007
▁तुषार	-11.0022
आमच्या	-11.0025
▁जाणकार	-11.0025
जोरा	-11.0029
सुख	-11.0041
▁म्हटल	-11.0047
चंद्र	-11.005
▁गुणकारित	-11.0078
▁जीनसंच	-11.0079
▁समर्थ	-11.0081
▁आणू	-11.0082
▁कक्षात	-11.0085
द्वारा	-11.0096
ँपल	-11.0096
कर्त्या	-11.0098
▁कार्यकर्त्यां	-11.01
बॉडी	-11.01
▁एन्टीबॉडी	-11.0103
ँटी	-11.0103
▁सावध	-11.0106
▁विश्व	-11.0108
रक्षक	-11.0109
ायझर	-11.0109
▁म्हणू	-11.011
▁उद्ध	-11.011
▁प्रदात	-11.0111
ाणिज	-11.0111
काउंसिल	-11.0112
▁अनुवांशिक	-11.0112
▁कोंबड्या	-11.0112
▁निविदा	-11.0112
▁मंदिरा	-11.0112
▁मलेशिया	-11.0112
▁रोगजंतू	-11.0112
▁वगैरे	-11.0112
▁व्हिटॅमिन	-11.0112
▁सांभाळ	-11.0112
▁ह्रदयवाहिक	-11.0112
ARDS	-11.0112
EMA	-11.0112
OSHA	-11.0112
ग्रंथी	-11.0112
निर्वाण	-11.0112
मल्टिमिडीय	-11.0112
▁अंत्यविधी	-11.0112
▁अकाऊंट	-11.0112
▁अभियांत्रिकी	-11.0112
▁असोशिएशन	-11.0112
▁आच्छादित	-11.0112
▁आपोआप	-11.0112
▁आशिष	-11.0112
▁इकॉनॉम	-11.0112
▁इनहिबिटर	-11.0112
▁इन्फ़्लुएन्झा	-11.0112
▁एक्स्प्रेस	-11.0112
▁गव्हर्न	-11.0112
▁गुणवत्ता	-11.0112
▁गॉगल	-11.0112
▁छत्तीसगड	-11.0112
▁जीवनसत्व	-11.0112
▁टिप्पणी	-11.0112
▁ड्रोमेड	-11.0112
▁त्रिसूत्री	-11.0112
▁थुंकी	-11.0112
▁दौऱ्या	-11.0112
▁नियतकालिका	-11.0112
▁नोकरदार	-11.0112
▁पारंपारिक	-11.0112
▁पेट्रोल	-11.0112
▁प्लास्टिक	-11.0112
▁बदनाम	-11.0112
▁बूस्टर	-11.0112
▁भंडारा	-11.0112
▁भ्रष्टाचार	-11.0112
▁मानसोपचार	-11.0112
▁मॅन्युफॅक्चर	-11.0112
▁मोबाइल	-11.0112
▁रक्तस्राव	-11.0112
▁रिसॉर्ट	-11.0112
▁रेकॉर्ड	-11.0112
▁लायब्ररी	-11.0112
▁लॅन्सेट	-11.0112
▁वंशप्रकार	-11.0112
▁वर्णद्वेष	-11.0112
▁व्हॉ	-11.0112
▁संरचने	-11.0112
▁सव्वा	-11.0112
▁सॅम्पल	-11.0112
फ्युज	-11.0112
▁अस्वस्थ	-11.0112
▁अॅसिड	-11.0112
▁ओलसर	-11.0112
▁निष्पत्ती	-11.0112
▁पन्नास	-11.0112
▁माणुसकी	-11.0112
▁म्हणण्यानुसार	-11.0112
▁शिवसेना	-11.0112
▁सगळा	-11.0112
▁होईपर्यंत	-11.0112
▁कन्टेन्	-11.0112
▁कुठून	-11.0112
▁शिवसेने	-11.0112
▁डिस्प	-11.0112
▁प्रशांत	-11.0112
▁संलक्षण	-11.0112
▁उपचारपद्धती	-11.0112
▁जैन	-11.0112
▁the	-11.0112
▁सैनिक	-11.0112
▁टेक्नॉलॉजी	-11.0112
▁मतदारसंघ	-11.0112
▁धुतले	-11.0112
▁इराक	-11.0112
आयव्ही	-11.0112
▁अग्नी	-11.0112
▁पंडित	-11.0112
▁अभिमान	-11.0112
जीएसटी	-11.0112
रुपांतर	-11.0112
र्थचक्र	-11.0112
▁करावया	-11.0112
▁जंतूनाश	-11.0112
▁आणायच	-11.0112
▁साधावा	-11.0112
एसीई२	-11.0112
▁जॅक	-11.0112
▁धारण	-11.0112
▁गुंतलेल	-11.0112
▁न्युक्लिओ	-11.0112
▁लपव	-11.0112
▁बालपणात	-11.0112
▁सिव्हेट	-11.0112
▁संमती	-11.0112
▁जायचे	-11.0112
▁अॅम्ब्युलन्स	-11.0112
▁कारखान्यात	-11.0113
▁HIV	-11.0113
▁प्रोटीज	-11.0113
घोळ	-11.0113
▁ठोक	-11.0113
▁प्राप्तकर्त्या	-11.0113
▁ड्युटी	-11.0113
▁गरजेनुसार	-11.0113
▁विकि	-11.0113
ोल्युशन	-11.0113
ब्रायन	-11.0113
▁वसंत	-11.0113
▁सुरवातीला	-11.0113
▁पोखर	-11.0113
▁सर्व्हिसेस	-11.0113
▁उपजिल्हा	-11.0113
▁योगदान	-11.0113
▁बॅच	-11.0113
▁कोणतं	-11.0114
▁कार्यक्षेत्र	-11.0114
▁सैन्य	-11.0114
▁Ro	-11.0114
▁ससून	-11.0114
▁अलक्षण	-11.0114
ंजली	-11.0114
ण्याचं	-11.0115
▁म्युटे	-11.0115
▁जागरुकता	-11.0115
▁टप्या	-11.0116
▁चूक	-11.0117
▁धुतल्यानंतर	-11.0117
िअस	-11.0118
▁वेगळेपण	-11.0118
ट्रीक	-11.0118
▁पंप	-11.0119
▁टॉवेल्स	-11.012
▁संभव	-11.012
▁सिद्धांत	-11.012
▁५८	-11.0121
▁वायु	-11.0122
▁एकमत	-11.0122
ig	-11.0122
▁तारखेपर्यंत	-11.0123
▁पडणे	-11.0124
▁क्लोर	-11.0124
▁रोगकारक	-11.0124
▁बनवलेल्या	-11.0125
▁घेण्यापूर्वी	-11.0125
▁मिळणं	-11.0126
िशिष्ट	-11.0126
▁राखणं	-11.0127
▁फिरणाऱ्या	-11.0127
▁ढकलली	-11.0128
▁पडणाऱ्या	-11.0128
▁दवाखाने	-11.0129
▁घशा	-11.0129
▁गमावलेल्या	-11.0129
▁दावे	-11.013
प्रवाह	-11.0131
▁गोवा	-11.0134
▁इजा	-11.0134
▁पल्ल्या	-11.0135
प्रीम	-11.0135
▁वीस	-11.0137
▁वर्षापूर्वी	-11.0137
▁खंत	-11.0137
▁विषयांवर	-11.0137
▁रक्तद्रव्य	-11.014
▁दुखापती	-11.014
▁टळ	-11.0141
▁राबवि	-11.0141
▁काढणे	-11.0142
▁इफेक्ट्स	-11.0142
▁ओळखणे	-11.0143
▁त्याचसोबत	-11.0143
ेनिया	-11.0144
▁टास्कफोर्सचे	-11.0145
▁चाललं	-11.0145
▁(27	-11.0146
▁नासा	-11.0147
▁दिसतंय	-11.0149
▁घेऊया	-11.0153
▁(24	-11.0156
ाशया	-11.0157
▁रूपात	-11.016
▁स्टेटमध्ये	-11.0161
१५	-11.0161
▁आरोग्यस्थिती	-11.0166
▁सापडल्या	-11.0172
▁मांडली	-11.0173
▁सराव	-11.0173
▁बनावटीच	-11.0177
▁म्हणायच	-11.0181
▁प्रस्तावित	-11.0182
▁सेवेशी	-11.0182
▁मिळाल्याचं	-11.0183
▁रहातील	-11.019
▁उघडली	-11.0194
▁रिपोर्ट्स	-11.0197
एमडी	-11.0197
▁व्यवस्थेवर	-11.0199
▁घडली	-11.0201
▁नोंदवल्या	-11.0207
▁महिन्यांनी	-11.0207
▁रायन	-11.0208
▁कॅप्	-11.021
▁दाखवली	-11.0213
तोष	-11.0216
▁न्यूक्ल	-11.0216
▁घटकांना	-11.0217
▁करोनाकाळा	-11.0217
▁महाविद्यालयं	-11.0225
▁उपक्रमात	-11.0228
▁स्टॉक	-11.0229
▁इंजेक्शन्स	-11.0232
▁त्यासंबंधी	-11.0232
▁शां	-11.0237
NI	-11.0247
Pa	-11.0251
▁लागल्याचं	-11.0256
▁ऑड	-11.0257
▁सिनेमात	-11.0264
धारकां	-11.0279
▁वर्तनात	-11.034
▁जणीं	-11.0346
मानव	-11.0347
▁सांगणार	-11.0349
काश	-11.0364
▁न्यायालयात	-11.0387
▁पत्रकात	-11.0402
▁तू	-11.0403
ग्न	-11.0403
तायेत	-11.0415
IP	-11.0415
खिल	-11.0417
ण्याचे	-11.0423
▁उद्भवलेल	-11.0427
PT	-11.0428
िपल	-11.0435
▁संबोधले	-11.044
संभाव्यता	-11.0443
गिरी	-11.0465
▁सांगण	-11.0491
▁वॉर्डात	-11.0501
थोडासा	-11.0504
▁साठवण्या	-11.0512
▁निकषां	-11.054
▁पाकिस्तानात	-11.0564
tan	-11.0618
▁पारदर्श	-11.0625
टाइड	-11.0632
▁विमानां	-11.0648
खळ	-11.0654
सोर्स	-11.069
पुट	-11.0707
ुद्द	-11.0709
व्हायर	-11.0743
▁राह	-11.0744
▁सेरोलॉज	-11.0748
जमा	-11.076
▁वैज्ञानिकांन	-11.079
▁चिता	-11.081
▁वाचवण्या	-11.0821
▁वटवाघूळ	-11.0863
▁स्टेट	-11.0877
योजन	-11.0895
स्वरूप	-11.0899
▁साठ	-11.0975
▁शिकवण	-11.098
▁कळविले	-11.0998
ूपी	-11.1001
▁कॉन्	-11.1018
▁अगोदर	-11.1022
acti	-11.1031
▁संक्रामक	-11.1043
▁उठ	-11.1049
▁फिरण्या	-11.1051
▁अध्ययनां	-11.1055
ol	-11.1088
इंग	-11.1089
▁८०	-11.1105
१८	-11.113
फार	-11.1189
▁धारावी	-11.1195
क्रिया	-11.1203
ॅक्शन	-11.1206
६७	-11.1206
▁150	-11.1217
▁ट्रि	-11.1222
्चर	-11.1227
▁करायच	-11.1241
▁प्रांतात	-11.1249
मुख्यमंत्री	-11.126
▁दवाखान्या	-11.1274
▁वर्तन	-11.1284
▁जिवाणूंच	-11.1329
भूमीवर	-11.1337
▁4000	-11.1338
९४	-11.1359
CV	-11.1359
▁त्सुनामी	-11.137
▁विद्यार्थ	-11.1376
निश्चित	-11.1376
पॅक	-11.1385
महाविद्यालय	-11.139
छोट्या	-11.1391
प्रथिन	-11.1392
वुहान	-11.1392
सामाजिक	-11.1392
आम्हाला	-11.1392
सुपर	-11.1392
पुरवठा	-11.1393
पहिल्या	-11.1393
म्हणून	-11.1393
विचार	-11.1394
मासिक	-11.1395
संकट	-11.1397
रंज	-11.1397
▁महाराजांच	-11.14
▁भया	-11.1403
विशिष्ट	-11.1405
मीटर	-11.1407
ोव्हि	-11.141
दोन	-11.1419
▁क्ष	-11.1434
तोंड	-11.1434
आमच	-11.1441
होम	-11.1456
घट	-11.1461
▁संचां	-11.1465
▁बाक	-11.1468
सार्स	-11.147
▁कमाल	-11.1471
▁निर्मित	-11.1489
पुरते	-11.1489
▁संशोधकांच	-11.1499
RE	-11.1508
th	-11.1515
▁टँक	-11.1522
▁झपाट	-11.153
▁टॉवेल	-11.1533
त्यक्ष	-11.1536
मेर	-11.1537
▁स्प्र	-11.1539
ॅण्ड	-11.1539
▁उद्योगां	-11.1539
▁ऑपरे	-11.1539
वैद्यक	-11.154
▁लोपिनावीर	-11.154
▁ईशान्य	-11.154
▁गणेशोत्सव	-11.154
अॅस्ट्राझेन्का	-11.154
आत्मविश्वास	-11.154
कावासाकी	-11.154
खेडकर	-11.154
पॉझिटीव्ह	-11.154
रीटोनावीर	-11.154
वॉर	-11.154
वॉश	-11.154
्युबेशन	-11.154
▁COPD	-11.154
▁अंगदुखी	-11.154
▁अचलपूर	-11.154
▁अॅस्ट्राजेनिका	-11.154
▁आंबेडकर	-11.154
▁आरएटीजी	-11.154
▁आरबीडी	-11.154
▁इंडोनेशिया	-11.154
▁उद्दीष्ट	-11.154
▁उपाहारगृह	-11.154
▁एक्सप्रेस	-11.154
▁ओपीडी	-11.154
▁कॉन्फरन्सिंग	-11.154
▁खंडपीठा	-11.154
▁खरोखर	-11.154
▁गडकरी	-11.154
▁गैरसोय	-11.154
▁चळवळ	-11.154
▁जगभरामध्ये	-11.154
▁जिल्हय़ात	-11.154
▁टाईप	-11.154
▁ट्रान्सपोर्ट	-11.154
▁डायग्नोस्टिक	-11.154
▁दुरूस्त	-11.154
▁दुष्काळ	-11.154
▁निमोनिया	-11.154
▁निष्पन्न	-11.154
▁पुनर्वसन	-11.154
▁प्रतिज्ञापत्र	-11.154
▁फायजर	-11.154
▁फ्ल्यु	-11.154
▁बंदोबस्त	-11.154
▁बक्षी	-11.154
▁बाटल्या	-11.154
▁बिनधास्त	-11.154
▁भयंकर	-11.154
▁मुकाबला	-11.154
▁याउलट	-11.154
▁युमिफेनोवीर	-11.154
▁योजले	-11.154
▁लखनौ	-11.154
▁लष्कर	-11.154
▁वंशावळ	-11.154
▁वंशेतिहासिक	-11.154
▁व्हेरिएंट	-11.154
▁शॉप	-11.154
▁श्वासोच्छवास	-11.154
▁स्लॉट	-11.154
▁स्वातंत्र्य	-11.154
CEPI	-11.154
▁अभिप्राय	-11.154
▁इंटरफेरॉन	-11.154
▁इस्लाम	-11.154
▁उद्घाटन	-11.154
▁ओआरएफ	-11.154
▁कॉकटेल	-11.154
▁कोट्यवधी	-11.154
▁गावकऱ्यां	-11.154
▁ग्रंथालय	-11.154
▁जबाबदाऱ्या	-11.154
▁तितक्या	-11.154
▁थिएटर	-11.154
▁निष्काळजीपणा	-11.154
▁परिचारिका	-11.154
▁प्रसिद्धीपत्रक	-11.154
▁मॅनेजमेंट	-11.154
▁रेमडेसिव्हीर	-11.154
▁लघु	-11.154
▁संचलनालय	-11.154
▁स्मशाना	-11.154
▁हस्तांतर	-11.154
ठ्ठ	-11.154
▁PTI	-11.154
▁एनकोड	-11.154
▁ख्रिसमस	-11.154
▁निषेध	-11.154
▁भूमिके	-11.154
▁मारहाण	-11.154
▁विळख	-11.154
▁लिम्फोसाइट	-11.154
▁संगणक	-11.154
▁हेल्प	-11.154
▁आव्हाड	-11.154
▁अनियमित	-11.154
▁नगराळे	-11.154
▁रॅली	-11.154
▁डोकान	-11.154
▁कूपर	-11.154
▁आसाम	-11.154
ग्रॅम	-11.154
▁पोलाद	-11.154
▁धुणं	-11.154
▁परस्परक्रिया	-11.154
▁ब्राँकायटीस	-11.154
▁शांतता	-11.154
▁डिव्हाई	-11.154
ज्योत	-11.154
▁ओरड	-11.154
▁कोठे	-11.154
▁rh	-11.154
▁खुलासा	-11.154
▁दुर्घटन	-11.154
▁अँटिजेन	-11.154
▁डझन	-11.154
▁शेतकऱ्यांन	-11.154
▁पसंत	-11.154
▁मनोरुग्णां	-11.154
▁हटवण्या	-11.154
▁संस्थापक	-11.1541
▁प्रसंग	-11.1541
▁बॅग	-11.1541
▁वकिला	-11.1541
इंजिन	-11.1541
▁भ्रम	-11.1541
▁उत्पत्ती	-11.1541
ाधिकाऱ्यां	-11.1541
▁तत्पर	-11.1541
orth	-11.1541
लंबित	-11.1541
▁दादर	-11.1541
▁आपात	-11.1541
नियोज	-11.1541
olle	-11.1541
▁डोकं	-11.1541
▁पडताळ	-11.1541
▁कव्हर	-11.1541
▁तुळ	-11.1541
▁युवक	-11.1541
▁SSC	-11.1541
▁मल्टि	-11.1541
▁श्रीमंत	-11.1541
▁ठाक	-11.1542
▁नामकरण	-11.1542
▁द्वि	-11.1542
पुस्तक	-11.1542
▁एकटेपणा	-11.1542
▁संभाव	-11.1542
▁लिंक	-11.1542
▁खवखवणे	-11.1542
▁व्यक्तिगत	-11.1542
▁प्राधान्यक्रम	-11.1542
▁कार्यप्रणाली	-11.1542
▁शिथील	-11.1542
▁पसरणारा	-11.1542
.3%	-11.1543
स्टेम	-11.1543
▁धुवावेत	-11.1543
▁WM	-11.1543
▁बॉक्सिंग	-11.1543
▁संवर्धन	-11.1544
▁रेमडेसीव	-11.1544
▁सेफ	-11.1544
▁फिल्ड	-11.1544
▁एक्झ	-11.1545
▁याव्यात	-11.1545
ॅस्टिक	-11.1545
िरवी	-11.1546
▁औषधोपचार	-11.1546
पलीकडे	-11.1546
▁सूर्य	-11.1546
्फ्ल	-11.1546
▁परराज्यात	-11.1547
▁मृत्युसंख्य	-11.1547
OM	-11.1547
▁दुर्बल	-11.1548
▁इंटे	-11.1548
▁2013	-11.1549
▁लादले	-11.1549
EP	-11.1549
▁गायब	-11.1549
▁मार्केटिंग	-11.155
▁५३	-11.155
▁ट्रेस	-11.155
▁कुत्र	-11.155
▁दोघांनी	-11.1551
▁2017	-11.1551
▁अवास्तव	-11.1551
▁फरेट	-11.1551
▁अॅस्ट्राझेनेका	-11.1551
▁सिव्हि	-11.1552
▁गोरे	-11.1552
▁३५	-11.1552
▁पडताना	-11.1552
▁अवरोधक	-11.1552
2-3	-11.1553
▁नक्षलवाद्यां	-11.1553
▁मॅक्स	-11.1553
▁मॉडेलिंग	-11.1553
▁तक्त	-11.1557
▁मुद्य	-11.1558
▁धर्मात	-11.1558
▁संपेल	-11.1558
▁मतदार	-11.1559
▁फवार	-11.1559
▁Sa	-11.1559
पीआय	-11.1559
▁स्टेज	-11.1559
▁रवी	-11.156
▁बोरि	-11.1561
▁लिंड	-11.1561
▁वाजे	-11.1561
बाद	-11.1561
जेनिक	-11.1563
▁वर्कर	-11.1565
टर्मिन	-11.1565
▁ऑक्सिजननिर्मिती	-11.1566
▁तत्काल	-11.1568
▁सोडणार	-11.1569
दृ	-11.157
▁टँकरमधून	-11.157
▁पेशंट्स	-11.157
▁कितीतरी	-11.1571
▁नियमावलीनुसार	-11.1571
▁प्रमो	-11.1571
▁काढाव	-11.1573
र्म्य	-11.1573
▁निर्मात	-11.1573
▁सीमेवर	-11.1574
▁महाविद्यालयात	-11.1575
ल्यांकन	-11.1576
▁मंत्रालयाकडे	-11.1581
ंशिक	-11.1586
▁लंग	-11.1588
▁मेटा	-11.1589
▁साथीदरम्यान	-11.1591
▁पोहचली	-11.1592
▁रोड	-11.1593
पुढे	-11.1594
▁घडलं	-11.1598
डीपी	-11.1603
▁करण्यासंदर्भात	-11.1604
▁होण्यापूर्वी	-11.1604
▁वाचले	-11.1604
▁शहा	-11.1605
▁लिप	-11.1605
▁पक्षांनी	-11.161
▁अतिसारा	-11.1615
शिक्षित	-11.162
▁सूर	-11.1623
▁फोर	-11.1634
▁0.5	-11.164
लेखन	-11.164
▁शकलेल	-11.1644
▁प्रौढां	-11.1648
▁पटवण्या	-11.1651
▁महाराज	-11.1688
▁चुकव	-11.169
▁बळा	-11.1691
.2%	-11.1692
▁हिर	-11.1694
▁बनवल	-11.1702
▁आयोग	-11.1703
▁सहस	-11.1723
०५	-11.1729
▁पहाव	-11.1734
▁वागण	-11.1753
▁वास्तव्य	-11.1763
▁तत्वां	-11.1768
७३	-11.1775
७५	-11.1776
▁अत्याध	-11.1781
३९	-11.1792
▁गमावले	-11.1808
SL	-11.1818
गंध	-11.1834
▁चह	-11.1845
▁त्वचेवर	-11.1901
ुष्क	-11.1924
४६	-11.1926
▁निवेदनात	-11.1928
▁बसवण्या	-11.1929
▁तज्ञां	-11.1941
▁थांबल	-11.1955
▁नियामकांकड	-11.1973
ste	-11.1983
▁घाबरण्याच	-11.2005
▁प्रयोगशा	-11.2032
50,000	-11.2033
▁शिकण्या	-11.204
SC	-11.2149
ॅप्लिकेशन	-11.2157
पुरता	-11.2175
▁६००	-11.2226
▁उघडण्याच	-11.2243
▁लावत	-11.2261
▁वर्तव	-11.2266
▁वटवाघूळां	-11.2266
▁नसण	-11.2324
▁डॉक्टर्सन	-11.2327
▁PE	-11.2363
▁गांभीर्यान	-11.2367
et	-11.2412
▁टाळण्याच	-11.2458
▁हस्तक्षेपां	-11.2492
ue	-11.2504
▁शिक्षकांच	-11.2545
दर्शक	-11.2545
पॉलिस	-11.2653
▁उल्	-11.2659
क्षि	-11.2661
▁राबवल	-11.2664
९७	-11.2668
कोट	-11.2692
▁बह	-11.272
▁पदार्थांच	-11.2725
▁वाहनां	-11.2733
▁नातेवाईकांन	-11.2751
▁झाकण्या	-11.2758
SI	-11.2845
▁भाषण	-11.2849
लिकडे	-11.2916
▁स्नायूंच	-11.2921
▁छाप	-11.2945
▁उत्परिवर्तना	-11.2954
▁प्रजनन	-11.2958
▁उत्	-11.2985
▁हृदयविकाराच	-11.2991
▁जिल्ह्यांच	-11.3002
▁जमण	-11.3006
▁जॉन्स	-11.3026
▁निरुप	-11.3033
▁मुद्द्यां	-11.3035
साधारण	-11.3046
ज्ञान	-11.3052
बिंदू	-11.3053
▁अल्	-11.3057
सामग्री	-11.3057
स्वॅब	-11.3057
रेमडेसिव्हिर	-11.3059
रेमडेसिवीर	-11.3059
प्राथमिक	-11.3059
दुसरी	-11.3059
लॉकडाउन	-11.3059
तुम्ही	-11.3059
परीक्षा	-11.306
ुखी	-11.306
खर्च	-11.306
मात्र	-11.3062
नवीन	-11.3062
र्पण	-11.3067
उच्च	-11.3068
रुग्णांची	-11.3071
▁130	-11.3073
साइट्स	-11.3079
ांविषयी	-11.3081
प्रांत	-11.3085
व्हेक्टर्	-11.3087
▁सुविधांच	-11.311
▁इमारत	-11.3122
▁जखम	-11.3123
▁मंगळवार	-11.3126
▁नसता	-11.3134
साईट्स	-11.3142
▁नाराज	-11.3148
मांड	-11.3149
LI	-11.3151
▁लिहिल	-11.3151
▁डोळ्या	-11.3161
▁इलेक्ट्रॉन	-11.3166
▁खेळाच	-11.3167
▁गुठळ	-11.318
▁इम्युन	-11.3182
▁टर्म	-11.3183
▁नसती	-11.3186
▁स्विकार	-11.3194
2014	-11.3197
र्भाव	-11.3198
▁प्रदूष	-11.3198
▁पल्ल	-11.32
▁धुतल्या	-11.32
▁आढळण	-11.3202
म्युनिस	-11.3202
पुण्य	-11.3203
India	-11.3205
▁प्रायव्ह	-11.3205
▁युरो	-11.3205
स्टिट्युट	-11.3206
झर्व्ह	-11.3206
▁पृष्ठ	-11.3206
लॉजिस्ट	-11.3207
▁एपिडेमि	-11.3207
Arg	-11.3207
्नॉलॉजी	-11.3207
ञ	-11.3207
पॅसिफिक	-11.3207
सिम्प्ट	-11.3207
हैद्राबाद	-11.3207
▁अभिवादन	-11.3207
▁अल्पाकस	-11.3207
▁अॅम्बुलन्स	-11.3207
▁ऑर्गनायझेशन	-11.3207
▁डिटर्जंट	-11.3207
▁तंत्रिकातंतु	-11.3207
▁विकिमिडिया	-11.3207
▁संप्रेषण	-11.3207
SEIR	-11.3207
Vaccine	-11.3207
illa	-11.3207
कॉमर्स	-11.3207
ट्रान्समेम्ब्रेन	-11.3207
धैर्य	-11.3207
फॉल्	-11.3207
यूपीएससी	-11.3207
विशेषज्ञ	-11.3207
स्टॉप	-11.3207
ास्पद	-11.3207
▁iOS	-11.3207
▁अभियंत	-11.3207
▁अभिव्यक्त	-11.3207
▁आकस्मिक	-11.3207
▁आयसोलेट	-11.3207
▁आर्द्रत	-11.3207
▁इंग्रजी	-11.3207
▁इंजिनिअर	-11.3207
▁इक्विपमेंट	-11.3207
▁इन्फ्लुएन्झा	-11.3207
▁उंदीर	-11.3207
▁ऑस्ट्रिया	-11.3207
▁कॉर्नेल	-11.3207
▁कोविशिल्ड	-11.3207
▁गर्भारपण	-11.3207
▁गौरव	-11.3207
▁जबरदस्त	-11.3207
▁ज्याअर्थी	-11.3207
▁झारखंड	-11.3207
▁टाइम्स	-11.3207
▁टोपणना	-11.3207
▁ठेवेल	-11.3207
▁ड्राईव्ह	-11.3207
▁तहसीलदार	-11.3207
▁ताबडतो	-11.3207
▁तारखा	-11.3207
▁तिकिटे	-11.3207
▁तूर्तास	-11.3207
▁तोडफोड	-11.3207
▁दोघं	-11.3207
▁दोघे	-11.3207
▁पीटीआय	-11.3207
▁पॉलिमरे	-11.3207
▁प्रियंका	-11.3207
▁प्रॉडक्ट	-11.3207
▁फिजीशि	-11.3207
▁फॉर्मुलेशन	-11.3207
▁फ्रान्सिस्को	-11.3207
▁बांगलादेश	-11.3207
▁बॅंके	-11.3207
▁बेरोजगारी	-11.3207
▁मनोरंजन	-11.3207
▁मलेरिया	-11.3207
▁युनिसेफ	-11.3207
▁योद्ध	-11.3207
▁रत्नागिरी	-11.3207
▁रश्मी	-11.3207
▁रिएक्शन	-11.3207
▁रॅमडेसिवीर	-11.3207
▁वसाहती	-11.3207
▁वाईप्स	-11.3207
▁विश्वासार्ह	-11.3207
▁वेन्टिलेशन	-11.3207
▁व्हॉट्सअप	-11.3207
▁श्वसनशोथ	-11.3207
▁संघराज्यीय	-11.3207
▁साहजिक	-11.3207
▁सिक्वेन्स	-11.3207
▁सेक्टर	-11.3207
▁सेरेब्र	-11.3207
▁सेल्शिय	-11.3207
▁स्वीडन	-11.3207
▁हद्दीत	-11.3207
▁हरयाणा	-11.3207
▁हाईड्र	-11.3207
▁हिंगोली	-11.3207
क्लॉ	-11.3207
ॅमिनो	-11.3207
▁अॅलर्जी	-11.3207
▁गळती	-11.3207
▁जळगाव	-11.3207
▁धमकी	-11.3207
▁पत्कर	-11.3207
▁पध्दती	-11.3207
▁पवित्र	-11.3207
▁पाहिला	-11.3207
▁पुरूषां	-11.3207
▁वेन्टिलेटर	-11.3207
▁वॉटर	-11.3207
▁साशंकता	-11.3207
▁हल्ल्या	-11.3207
▁कसरत	-11.3207
▁हंगेर	-11.3207
▁हिंदु	-11.3207
तिनिधि	-11.3207
थ्रोम	-11.3207
ेष्ठ	-11.3207
▁अपडेट	-11.3207
▁आस्थापने	-11.3207
▁एकंदरीत	-11.3207
▁काउंट	-11.3207
▁काल्प	-11.3207
▁पोहोचवणं	-11.3207
▁कोरीया	-11.3207
▁चंद्रपुरात	-11.3207
▁ढेरे	-11.3207
▁प्राध्या	-11.3207
▁फ्रीज	-11.3207
▁बुरशी	-11.3207
▁बोटीवर	-11.3207
▁भरपाई	-11.3207
▁मनगट	-11.3207
▁मशिन	-11.3207
▁मिसळ	-11.3207
▁लोढा	-11.3207
▁विपणन	-11.3207
▁साखरेच	-11.3207
▁सारांश	-11.3207
▁होईना	-11.3207
डीएनए	-11.3207
▁अनुयाय	-11.3207
▁उपायुक्त	-11.3207
▁बसवणे	-11.3207
▁लांबणीवर	-11.3207
▁व्हाईट	-11.3207
झाईम	-11.3207
ॅॅब	-11.3207
▁कैद	-11.3207
▁जुलाब	-11.3207
▁पडद्या	-11.3207
▁चैत	-11.3207
▁गृहमंत्रालया	-11.3207
▁घरकाम	-11.3207
▁टेक्नि	-11.3207
▁फटकारलं	-11.3207
▁मेंदू	-11.3207
IMA	-11.3207
▁अजुन	-11.3207
▁पिढी	-11.3207
▁बलराम	-11.3207
निरीक्षक	-11.3207
▁क्वचित	-11.3207
▁शंभर	-11.3207
▁तितकी	-11.3207
▁बळकट	-11.3207
▁लावणं	-11.3207
कन्व्हर्	-11.3207
क्राळ	-11.3207
टर्की	-11.3207
▁खाल्ल्या	-11.3207
▁भाषेत	-11.3207
ज्ज्	-11.3207
▁कागदपत्रां	-11.3207
▁कामानिमित्त	-11.3207
▁दर्शविले	-11.3207
▁सार्व	-11.3207
▁उदय	-11.3207
▁जालना	-11.3207
▁प्रायम	-11.3207
▁कोचिंग	-11.3207
▁तितका	-11.3207
▁(28	-11.3207
▁डाटा	-11.3207
▁रस्ता	-11.3207
▁रस्ते	-11.3207
▁अन्ननलिके	-11.3207
▁भाष्य	-11.3207
▁उषा	-11.3207
▁सिनेमागृह	-11.3207
▁तितके	-11.3207
ect	-11.3207
फर्स्ट	-11.3207
▁सूचनांनुसार	-11.3207
▁सत्ते	-11.3207
▁तामिळ	-11.3207
-12	-11.3207
▁धुरा	-11.3208
▁लॅट	-11.3208
▁शेलार	-11.3208
्वेलर	-11.3208
▁इंस्टीट्युट	-11.3208
▁जिंक	-11.3208
▁गेटवर	-11.3208
वासीयां	-11.3208
▁प्रतिद्रव्य	-11.3208
▁सेल्युल	-11.3208
विकेंड	-11.3208
▁समीक्ष	-11.3208
▁हार्व	-11.3208
str	-11.3208
▁इलाज	-11.3208
बैद	-11.3208
▁नसावे	-11.3208
,500	-11.3208
▁न्युमो	-11.3208
▁हलवण्या	-11.3208
▁प्रतिक्ष	-11.3208
▁नसलं	-11.3208
Tra	-11.3209
▁मृत्युदारा	-11.3209
▁उल्लेखनीय	-11.3209
▁गरोदरपणा	-11.3209
▁गाफ	-11.3209
▁सुपे	-11.3209
▁महिनाभर	-11.3209
▁रचने	-11.3209
▁मिळतंय	-11.3209
▁भिती	-11.3209
ator	-11.3209
▁भांडवल	-11.321
▁पहाटे	-11.321
▁वर्तमानपत्र	-11.321
▁भक्तां	-11.321
▁धुळ	-11.321
▁पोहोचवता	-11.321
▁बेघर	-11.321
▁दरवाजा	-11.3211
▁तळव्या	-11.3211
▁शिकवत	-11.3211
▁DC	-11.3211
▁PM	-11.3211
▁नोंदविले	-11.3211
▁प्रोटिन	-11.3212
res	-11.3212
▁शिंकल्यानंतर	-11.3212
▁बॉक्स	-11.3213
▁सहायक	-11.3214
नुष्य	-11.3214
▁अर्थतज्ज्ञ	-11.3214
▁वैध	-11.3214
▁गावाकडे	-11.3215
▁नेदरलँड्स	-11.3215
▁तिमाहीत	-11.3215
▁ऑफलाईन	-11.3215
▁होस्ट	-11.3215
▁जाणवणार	-11.3215
▁सेटिंग	-11.3216
▁८३	-11.3216
▁अरब	-11.3216
▁मिळावी	-11.3216
▁६८	-11.3216
▁प्रतिपिंडांच	-11.3217
▁संहित	-11.3217
बुल	-11.3217
▁असलो	-11.3217
मंगल	-11.3217
▁वाचतो	-11.3217
▁८८	-11.3218
रवाना	-11.3218
सबुक	-11.3218
▁उभारणी	-11.3218
▁आयडी	-11.3219
▁स्विकारले	-11.3219
▁अनुरा	-11.322
▁सुचवलं	-11.322
▁भेटलो	-11.322
▁वकील	-11.3221
▁गर्ग	-11.3221
▁विस्तारीत	-11.3222
▁कळवलं	-11.3222
▁पाळणे	-11.3222
▁मॅसे	-11.3223
▁कार्यकर्त्यांना	-11.3223
▁एयर	-11.3223
▁IA	-11.3224
▁मंच	-11.3224
▁साइड	-11.3224
▁दिसेल	-11.3225
▁बाग	-11.3225
▁७७	-11.3225
▁सीडी	-11.3226
▁शून्य	-11.3226
▁2003	-11.3227
▁ब्रश	-11.3228
▁धोरणात्मक	-11.323
▁वाघ	-11.3231
लक्ष्मी	-11.3232
9).	-11.3234
नेटिक	-11.3235
▁गावांत	-11.3236
▁लिलाव	-11.3236
▁छळ	-11.3237
▁वाटचाल	-11.3241
▁उरलेल	-11.3241
▁1.4	-11.3244
▁जिल्ह्यांत	-11.3245
▁निर्धार	-11.3253
▁(22	-11.3258
रकाव	-11.3262
▁संचार	-11.327
▁चोळण्या	-11.3272
▁तोट	-11.3274
▁वाढविल	-11.3274
सर्व	-11.3293
▁द्रावा	-11.33
▁कार्यालयां	-11.3301
▁स्क्	-11.3311
▁हुश	-11.3312
▁co	-11.3312
लासो	-11.3323
ायटिस	-11.3328
▁वेबसाइट	-11.3336
६९	-11.3337
▁चर्चेच	-11.335
▁समर्प	-11.3356
▁पाठवाव	-11.336
ECDC	-11.3362
▁अंध	-11.3392
खात्याच	-11.3409
▁माळ	-11.3416
ोसिस	-11.3439
प्रेरण	-11.3443
1,6	-11.3444
▁उत्पादकांन	-11.3464
▁मायक	-11.3481
▁जाळ	-11.349
▁मालाच	-11.3504
▁जाद	-11.3513
ष्क	-11.3558
▁कार्यक्रमांच	-11.3576
▁म्हणाल	-11.3581
रुस्त	-11.3612
▁पाश्	-11.3656
▁ठरवले	-11.3661
▁ऑस्ट्रेलिय	-11.3683
रकत	-11.3695
मुद	-11.3702
▁सेवक	-11.3773
2.3	-11.3782
CI	-11.3823
▁वगळल	-11.3836
पोटी	-11.3837
▁जागरूक	-11.3845
रिस्क	-11.3921
▁कम्युनि	-11.3971
िकारक	-11.3998
▁मंडळ	-11.4074
▁वगळ	-11.4078
ॅडम	-11.4095
िक्यु	-11.413
ांशिवाय	-11.4195
▁तत्	-11.4199
.7%)	-11.4237
पूल	-11.4253
▁ठरवता	-11.4287
▁देशांकड	-11.4326
०९	-11.4342
आरए	-11.4384
कर्ते	-11.4415
▁पार्क	-11.4427
and	-11.444
▁अत्य	-11.4511
▁निकालां	-11.4547
▁राज्यांकड	-11.4585
▁ठाण्या	-11.4714
▁तत्त्वां	-11.4726
▁सर्वसामान्यां	-11.4733
▁फुटांच	-11.4735
▁वैशिष्ट्यां	-11.4759
▁फुप्फुस	-11.4844
▁विदर्भ	-11.4906
▁स्वास्थ	-11.4952
▁सिनेमा	-11.4959
अंतरा	-11.4962
▁झोपडपट्ट	-11.5013
ith	-11.5015
म्यु	-11.5021
▁सुट्ट्या	-11.5025
2019-	-11.5031
वास्तव	-11.5038
▁संशोधकांन	-11.5042
▁अडथळ	-11.5047
स्पेशालिटी	-11.5052
वडिलां	-11.5052
स्त्रोत	-11.5054
शस्त्र	-11.5055
स्त्राव	-11.5056
शुल्क	-11.5056
घडीला	-11.5056
अॅस्ट्राझेनका	-11.5057
वर्क	-11.5058
कोव्हिशिल्ड	-11.5058
पुरावा	-11.5058
कार्यालय	-11.5059
ICU	-11.5059
स्ट्रेन	-11.5059
संशयित	-11.5059
रेमडेसिविर	-11.5059
युद्ध	-11.5059
सौम्य	-11.5059
दररोज	-11.5059
रविवार	-11.5059
पुढील	-11.5059
शोध	-11.5059
प्रभावी	-11.506
शरीरात	-11.506
पुणे	-11.506
सार्वजनिक	-11.506
दुसऱ्या	-11.506
एप्रिल	-11.506
दाखल	-11.506
माहिती	-11.506
परिस्थिती	-11.5061
पालन	-11.5061
▁वापरायच	-11.5061
▁बनावट	-11.5099
▁संसद	-11.5123
▁दुरुस्त	-11.5125
▁दुपार	-11.5126
▁स्मशानभूमी	-11.5139
▁सद्यस्थिती	-11.5143
▁आयुष	-11.5145
▁टास्कफोर्स	-11.5152
▁लाखोंच	-11.5161
युनिट	-11.5168
▁आश्वास	-11.5168
▁पाहू	-11.5175
▁नक्षलवाद	-11.5188
▁अँटि	-11.5192
▁इथल	-11.5194
द्रवी	-11.5195
▁नेदरलँड	-11.5197
ोपचार	-11.52
▁खवखव	-11.5201
▁अवघ	-11.5202
▁सर्व्हिस	-11.5204
▁पंढरप	-11.5206
▁ड्यु	-11.5206
▁मूत्र	-11.5206
ंड्रोम	-11.5206
टुंब	-11.5206
▁पॉझिटिव	-11.5206
▁परस्पर	-11.5207
्फ्लुए	-11.5207
▁होरपळ	-11.5207
पॉईंट	-11.5207
शॉर्ट	-11.5207
▁अँजिओटेन्सिन	-11.5207
▁आयर्लंड	-11.5207
▁ऐतिहासिक	-11.5207
▁ग्लायकोप्रोट	-11.5207
▁घुसखोरी	-11.5207
▁पोल्ट्री	-11.5207
▁मॉडर	-11.5207
▁मॉस्को	-11.5207
▁रजिस्ट्र	-11.5207
▁रुग्णवाहिके	-11.5207
▁साठवणुकी	-11.5207
▁सोल्यूशन	-11.5207
▁स्वप्न	-11.5207
ssion	-11.5207
कांजुरमार्ग	-11.5207
कॉर्प	-11.5207
जॉर्ज	-11.5207
नंदुरबार	-11.5207
नाट्यगृहे	-11.5207
पॉइंट	-11.5207
फॉस्फेट	-11.5207
बॅक्टेरिया	-11.5207
मुनगंटीवार	-11.5207
मॉर्बिडिटी	-11.5207
सॉफ्ट	-11.5207
ुंबन	-11.5207
ेबाजार	-11.5207
▁Coles	-11.5207
▁Corona	-11.5207
▁MIT	-11.5207
▁UTC	-11.5207
▁अत्यल्प	-11.5207
▁अर्जेंटिना	-11.5207
▁अस्पष्ट	-11.5207
▁आचार्य	-11.5207
▁इशाऱ्या	-11.5207
▁इस्राईल	-11.5207
▁इस्रायल	-11.5207
▁उपविभाग	-11.5207
▁ऑक्सीजन	-11.5207
▁कंबोडिया	-11.5207
▁कपड्या	-11.5207
▁कृतज्ञ	-11.5207
▁कॉम्प्लेक्स	-11.5207
▁कोलंबिया	-11.5207
▁कोलकाता	-11.5207
▁क्वारंटाइन	-11.5207
▁गालगुंड	-11.5207
▁घरमालक	-11.5207
▁चांदवड	-11.5207
▁चिंपाझी	-11.5207
▁छिद्र	-11.5207
▁ट्रीटमेंट	-11.5207
▁ड्रॉपलेट्स	-11.5207
▁ढोबळ	-11.5207
▁तेंडुलकर	-11.5207
▁निष्प्रभ	-11.5207
▁नैराश्य	-11.5207
▁नोएडा	-11.5207
▁परागज्वर	-11.5207
▁पेप्टाइड	-11.5207
▁पॉलीप्रोटीन	-11.5207
▁प्रतिरुपण	-11.5207
▁प्रिमियम	-11.5207
▁फाऊंडेशन	-11.5207
▁बांग्लादेश	-11.5207
▁बायोलॉजिक	-11.5207
▁बीजीआय	-11.5207
▁बुद्रूक	-11.5207
▁बॅनर्जी	-11.5207
▁भिन्न	-11.5207
▁मजुरी	-11.5207
▁मटेरियल	-11.5207
▁मळमळ	-11.5207
▁माघार	-11.5207
▁मालवाहतूक	-11.5207
▁मुस्लीम	-11.5207
▁मेक्सिको	-11.5207
▁मेघालय	-11.5207
▁मेहनत	-11.5207
▁म्युकोरमायकोसिस	-11.5207
▁रीसर्च	-11.5207
▁रेडिओग्राफ	-11.5207
▁रेप्लिकेस	-11.5207
▁रोगप्रतिबंध	-11.5207
▁लायसन्स	-11.5207
▁विक्रेते	-11.5207
▁विक्रेत्यां	-11.5207
▁व्हायरॉलॉज	-11.5207
▁शिबिरा	-11.5207
▁शिरखुर्मा	-11.5207
▁संगोपन	-11.5207
▁संयोग	-11.5207
▁समुपदेशन	-11.5207
▁सर्वसमावेशक	-11.5207
▁साक्षी	-11.5207
▁सान्निध्य	-11.5207
▁सायटोमॅजिलो	-11.5207
▁सीओईपी	-11.5207
▁सुदैवाने	-11.5207
▁सुनावलं	-11.5207
▁सुसज्ज	-11.5207
▁स्टँडर्ड	-11.5207
▁स्टॅटिस्टिक्स	-11.5207
▁स्टेरॉईड्स	-11.5207
▁स्नायूदुखी	-11.5207
▁स्वाभाविक	-11.5207
▁स्वारस्य	-11.5207
चिकित्सेच	-11.5207
निष्ठ	-11.5207
मंगळवेढ	-11.5207
▁आऊट	-11.5207
▁कंपाऊंड	-11.5207
▁किनाऱ्या	-11.5207
▁क्रिसिल	-11.5207
▁खाद्यपदार्थांच	-11.5207
▁ग्राऊंड	-11.5207
▁चेन्नई	-11.5207
▁दुग्ध	-11.5207
▁दूरचित्र	-11.5207
▁धमन्यां	-11.5207
▁धोके	-11.5207
▁परंपरा	-11.5207
▁परभणी	-11.5207
▁पलायन	-11.5207
▁फटाके	-11.5207
▁बारामती	-11.5207
▁वायरिंग	-11.5207
▁विनोद	-11.5207
▁शेतमज	-11.5207
▁समलिंगी	-11.5207
▁सेल्फ	-11.5207
▁स्टॉल	-11.5207
▁स्तनपान	-11.5207
▁स्विंगर्स	-11.5207
▁गमवाव	-11.5207
▁तफावत	-11.5207
▁प्रिव्हेंशन	-11.5207
▁सर्व्हेलन्स	-11.5207
▁सेंट्रल	-11.5207
▁उपाययोजने	-11.5207
▁रिमोट	-11.5207
▁सैफ	-11.5207
▁हायड्रोजन	-11.5207
प्रोडक्ट	-11.5207
ॉइड	-11.5207
▁आउट	-11.5207
▁कर्मचार्	-11.5207
▁दाखवल्याप्रमाणे	-11.5207
▁द्रवरुपात	-11.5207
▁1968	-11.5207
▁डेल्टा	-11.5207
▁मानवजाती	-11.5207
▁कर्करोग	-11.5207
▁काऊंट	-11.5207
▁हलवत	-11.5207
lam	-11.5207
▁इम्युनायझेशन	-11.5207
▁स्ट्रोक	-11.5207
▁पैलू	-11.5207
▁मुद्र	-11.5207
▁कलाकारांन	-11.5207
▁प्रसरण	-11.5207
▁वूहान	-11.5207
▁संज्ञा	-11.5207
▁ताकद	-11.5207
▁झूम	-11.5207
▁लाँच	-11.5207
ध्द	-11.5207
▁शुभ	-11.5207
▁अश्व	-11.5207
▁नोंदविली	-11.5207
▁गॅस्ट्रो	-11.5207
▁मंज	-11.5207
▁आरोग्यसेवे	-11.5207
▁झगड	-11.5207
▁ट्रेंड	-11.5207
▁यूनिट	-11.5207
▁मोजक्या	-11.5207
▁वस्तु	-11.5207
▁ठरवावा	-11.5207
▁रिलीज	-11.5207
▁भोसले	-11.5207
स्नेह	-11.5207
क्लाऊड	-11.5207
▁de	-11.5207
▁दत्ता	-11.5207
▁सर्व्हर	-11.5207
▁भेद	-11.5207
▁महायुद्धा	-11.5207
▁अगेन	-11.5207
▁गॅमा	-11.5207
▁पशुवैद्यक	-11.5207
एनसीई	-11.5207
▁विश्रांती	-11.5207
▁स्लो	-11.5207
▁स्थिराव	-11.5207
फरन्स	-11.5207
▁उन्हाळा	-11.5207
एटल	-11.5207
▁देयक	-11.5207
▁(26	-11.5207
▁कानपूर	-11.5207
▁टेबल	-11.5207
▁संयम	-11.5207
▁महासंघा	-11.5207
ड्रायव्हर	-11.5208
▁कंत्राटदार	-11.5208
▁Tri	-11.5208
▁निवासस्थान	-11.5208
▁व्हावी	-11.5208
▁चटक	-11.5208
▁मूत्राशय	-11.5208
ment	-11.5208
▁हवामानात	-11.5208
▁उपेक्षित	-11.5208
▁जैव	-11.5208
▁गोंधळल्यासारख	-11.5208
▁नेशन्सच	-11.5208
▁लोकमतन	-11.5209
▁किचन	-11.5209
▁बदक	-11.5209
Bat	-11.5209
▁क्षीण	-11.5209
▁स्पर्शभावन	-11.5209
▁नित्य	-11.5209
enta	-11.5209
▁आंतरक्रिया	-11.5209
▁प्रायव्हेट	-11.5209
Indian	-11.5209
▁सहमत	-11.521
▁व्यक्तिमत्	-11.521
iste	-11.521
ent	-11.521
▁गामाल	-11.521
▁विसर्जन	-11.521
lic	-11.521
▁जनहित	-11.5211
▁उठलेल्या	-11.5211
▁लिटर	-11.5211
▁सांगावं	-11.5211
▁सलून	-11.5211
▁भट्ट	-11.5212
▁आढळणार	-11.5213
▁शिंकरल्या	-11.5214
▁निराश	-11.5214
▁आतड्यां	-11.5214
▁जॅन	-11.5214
▁डिस्टं	-11.5215
▁व्हावे	-11.5215
▁मागितले	-11.5217
▁जतन	-11.5218
▁मागवले	-11.5218
▁बॅर	-11.522
▁हलविण्याच	-11.5221
▁पेरि	-11.5224
ब्लास्ट	-11.5225
▁निर्मात्यां	-11.5225
▁लादण्या	-11.5225
▁तर्क	-11.5225
▁अँटिबॉड	-11.5225
आजोबा	-11.5229
▁अनिश्चिततेच	-11.5229
▁ऊत	-11.523
ेन्टिन	-11.5232
पल्मोन	-11.5233
▁टेक	-11.5234
▁न्यूरो	-11.5238
▁आशेच	-11.524
▁बघितल	-11.524
▁संचालन	-11.5241
कथित	-11.5242
्रेलि	-11.5244
2.4%	-11.5256
▁घालावे	-11.5262
नोरि	-11.5268
EUA	-11.5309
NIV	-11.5311
▁कमालीच	-11.5321
▁पनव	-11.5343
▁तुषारां	-11.5358
▁ग्लोव्	-11.5367
▁जाणकारांच	-11.5381
प्रेम	-11.5429
▁चालवल	-11.5452
टूल	-11.5456
प्रिंट	-11.547
▁आरोग्यमंत्र्यां	-11.5503
अद्	-11.5505
▁मुख्यभूमी	-11.5506
RTI	-11.5515
▁स्न	-11.5557
क्रोन	-11.5604
▁गार्	-11.5604
▁सेकंदां	-11.5614
▁सेन्	-11.5644
▁शब्दां	-11.5661
▁pe	-11.567
▁रोहि	-11.5686
▁बनविण्या	-11.5754
▁होण्यामाग	-11.5766
14.5	-11.5774
▁तंत्रज्ञां	-11.578
सर्जन	-11.5817
▁लशींवरच	-11.5862
▁वर्तवण्या	-11.5876
▁पाडाव	-11.5889
▁जसजस	-11.5929
▁प्रॅक्टिसेसन	-11.5933
खातर	-11.5938
▁थेंबां	-11.5968
▁संक्रमणक्षमत	-11.6013
श्वर	-11.6129
▁चाललेल	-11.6178
यंत्रणा	-11.6192
▁जेवणाच	-11.6212
▁धरण्या	-11.6232
क्ला	-11.6244
▁उभाराव	-11.6257
▁सायटो	-11.6262
▁पुरवठादारांन	-11.6273
▁कोरोनामुळ	-11.6327
▁संसाधनांच	-11.6344
संवेदनशीलता	-11.6357
किमी	-11.6425
▁अर्थमंत्र	-11.6498
▁बंधनां	-11.6529
▁लोकांमध	-11.6742
पिण्याच	-11.6908
▁स्थळां	-11.6954
▁अध्ययन	-11.6986
▁5-1	-11.6988
▁प्रचारसभा	-11.7027
▁बांधण्या	-11.7031
लक्षांत	-11.7046
अँटीज	-11.7049
ीएमसी	-11.7148
▁उद्दिष्टां	-11.717
मुलीं	-11.7202
▁ज्यांच्याकड	-11.7219
व्यवहारात	-11.7238
▁क्रो	-11.7242
क्षेत्रां	-11.7246
▁बोलायच	-11.7253
▁परिवर्त	-11.7278
▁परतण्याच	-11.7293
▁यकृताच	-11.7301
घासण्या	-11.7385
बदललेल	-11.7481
▁साताऱ्या	-11.7491
▁दुष्परिणामां	-11.7536
यंत्रणे	-11.7545
अँजिओटेनसीन	-11.7552
आलेख	-11.7554
शिवाजी	-11.7554
व्हॅक्सिन	-11.7555
चिंचवड	-11.7556
बाजी	-11.7556
मायक्रो	-11.7556
सद्यस्थितीत	-11.7556
समारंभ	-11.7557
मीडिया	-11.7557
विद्यापीठ	-11.7557
डायरिया	-11.7557
जबाबदार	-11.7558
▁उत्तेज	-11.7558
PHE	-11.7558
मृत्यु	-11.7558
बारावी	-11.7558
कोणताही	-11.7559
खोकला	-11.7559
ऑक्सफर्ड	-11.7559
रिपोर्ट	-11.7559
सिरम	-11.7559
राजकीय	-11.7559
रूग्ण	-11.7559
दोन्ही	-11.756
तीव्र	-11.756
पंतप्रधान	-11.756
उत्पादन	-11.756
पुन्हा	-11.756
▁थांबाव	-11.7563
पद्धत	-11.7574
▁ग्राह	-11.7577
्फ्ल्युएन्झा	-11.7597
ोनाव्हीर	-11.7609
▁पाहण	-11.761
टॅक	-11.7621
▁प्रजात	-11.7627
▁मार्गदर्श	-11.7637
ंबंधित	-11.7643
▁रक्तद्रव	-11.7647
▁ताश	-11.7649
▁आम्हा	-11.7657
▁पल्म	-11.7674
▁an	-11.7676
▁प्रोत्साह	-11.7679
▁आढळू	-11.7679
▁संक्राम	-11.7682
नुकूल	-11.7694
योगे	-11.7697
किरणा	-11.7698
▁ऑब्झ	-11.7698
▁प्लॅस	-11.7699
्युशन	-11.7704
त्क्रांती	-11.7705
टॅब	-11.7705
सैन	-11.7705
▁उन्हा	-11.7706
▁फिजिशि	-11.7706
▁इंस्टीट	-11.7706
▁निष्क्र	-11.7706
▁Medic	-11.7706
स्ट्राझेनेका	-11.7706
ndro	-11.7706
म्रपान	-11.7707
▁सॅनिटायझरमध	-11.7707
tic	-11.7707
ंटिफिक	-11.7707
▁लिम्फ	-11.7707
ॉम्ब	-11.7707
Pro	-11.7707
ोफार्म	-11.7707
्युअल	-11.7707
अॅमे	-11.7707
imm	-11.7707
▁रेमेडीस	-11.7707
कॉम्म्युनि	-11.7707
लिटिको	-11.7707
स्टेरॉइड	-11.7707
▁ऑथोरायझेशन	-11.7707
▁पुष्प	-11.7707
▁पृथ्वी	-11.7707
▁रिबाविरीन	-11.7707
▁अॅग्रिगेटर	-11.7707
▁आगंतुक	-11.7707
▁कनेक्ट	-11.7707
▁कोलोरॅडो	-11.7707
▁गैरवर्तना	-11.7707
▁चिघळ	-11.7707
▁टिचिंग	-11.7707
▁टोसिलीझुम	-11.7707
▁बंगळुरू	-11.7707
▁बायोइझी	-11.7707
▁मॅकबेथ	-11.7707
▁रिसेप्शन	-11.7707
▁लॅबोरेटरी	-11.7707
▁विशाखापट्टणम	-11.7707
▁विश्वविद्यालया	-11.7707
▁विषाक्तत	-11.7707
▁व्हाल्व	-11.7707
▁व्हिरोलॉजी	-11.7707
▁सर्वधर्मीयां	-11.7707
(1-7)	-11.7707
BioNTech	-11.7707
HRCT	-11.7707
IGIB	-11.7707
Multi	-11.7707
OSHO	-11.7707
RdRp	-11.7707
ndi	-11.7707
आयुर्वेद	-11.7707
एआरडीएस	-11.7707
एमआरएनए	-11.7707
काष्ठ	-11.7707
कोवॅक्सिन	-11.7707
च्युस	-11.7707
ड्ब्ल्युएचओ	-11.7707
दूरध्वनी	-11.7707
फुफ्फसाच	-11.7707
ऱ्हायनो	-11.7707
संवेदना	-11.7707
ायऑक्साईड	-11.7707
िनोफोबिया	-11.7707
▁1,388	-11.7707
▁अँटीबायोटीक	-11.7707
▁अँब्युलन्स	-11.7707
▁अकार्यक्षम	-11.7707
▁अनुपस्थिती	-11.7707
▁अफेअर्स	-11.7707
▁अर्भका	-11.7707
▁अल्ट्रा	-11.7707
▁अॅकेडमी	-11.7707
▁अॅडेनोव्हायर	-11.7707
▁आच्छादन	-11.7707
▁आढाव्या	-11.7707
▁आनुवांशिक	-11.7707
▁आराखड्या	-11.7707
▁इंजिनियरिंग	-11.7707
▁इंफ्लूए	-11.7707
▁इन्शुरन्स	-11.7707
▁इपिडेमिओलॉजी	-11.7707
▁उत्सुक	-11.7707
▁उद्योगधंद्या	-11.7707
▁उद्योजक	-11.7707
▁एअरपोर्ट	-11.7707
▁एअरोसोल	-11.7707
▁एज्युकेशन	-11.7707
▁एनएसपी	-11.7707
▁ऑस्ट्रीया	-11.7707
▁कंटाळ	-11.7707
▁कर्मचारीवृंद	-11.7707
▁कऱण्याच	-11.7707
▁कळंबोली	-11.7707
▁काऊन्सिल	-11.7707
▁कॉंग्रेस	-11.7707
▁कॉन्सट्रेटर	-11.7707
▁कोव्हीड	-11.7707
▁क्युअरव्हॅक	-11.7707
▁क्युबेक	-11.7707
▁क्रियाकलाप	-11.7707
▁क्वीन्सलँड	-11.7707
▁खेडेगाव	-11.7707
▁गाइडलाइन्स	-11.7707
▁ग्राउंड	-11.7707
▁ग्लिसरीन	-11.7707
▁जलपर्यटन	-11.7707
▁जळजळ	-11.7707
▁जिंदगी	-11.7707
▁जिल्ह्य़ांत	-11.7707
▁जीवनशैली	-11.7707
▁झायकॉव	-11.7707
▁ट्रायक्लो	-11.7707
▁डायनॅमिक	-11.7707
▁डिप्लोम	-11.7707
▁डॅमेज	-11.7707
▁तरणतलाव	-11.7707
▁तांदूळ	-11.7707
▁त्याउलट	-11.7707
▁थेरॅप्युटीक	-11.7707
▁दशकभरा	-11.7707
▁दुर्दैवान	-11.7707
▁दूरसंचार	-11.7707
▁नातेवाइकां	-11.7707
▁नॅसोफार	-11.7707
▁परिमाण	-11.7707
▁पुतण्या	-11.7707
▁पुनरावृत्ती	-11.7707
▁पुनरुत्पादन	-11.7707
▁पॅरामेडिक	-11.7707
▁पॅरासिटेमॉल	-11.7707
▁पेट्रोलियम	-11.7707
▁पेप्टीडे	-11.7707
▁पॉजीट	-11.7707
▁पॉलीमरेझ	-11.7707
▁पोचपावती	-11.7707
▁फिजिओथेरपी	-11.7707
▁फिलिपिन्स	-11.7707
▁फुफुसां	-11.7707
▁फ्रेबुवारी	-11.7707
▁बाथर	-11.7707
▁बुद्धिमत्त	-11.7707
▁बॉलिव	-11.7707
▁भिवंडी	-11.7707
▁मतभेद	-11.7707
▁मल्टिप्लेक्स	-11.7707
▁मिशिगन	-11.7707
▁मैदानावर	-11.7707
▁रायबाव्हीरीन	-11.7707
▁रुग्णवाहिका	-11.7707
▁रेमेडीसिव्हीर	-11.7707
▁रोमानिया	-11.7707
▁लाभार्थ्यां	-11.7707
▁लोकप्रतिनिधी	-11.7707
▁लोपिनाव्हीर	-11.7707
▁वटवाघुळां	-11.7707
▁वर्तुळात	-11.7707
▁विरघळ	-11.7707
▁व्यावहारिक	-11.7707
▁व्यासपीठ	-11.7707
▁शारिरीक	-11.7707
▁शाश्वत	-11.7707
▁शॉर्टसर्किट	-11.7707
▁श्रुंखले	-11.7707
▁श्रुती	-11.7707
▁श्वसनतंत्र	-11.7707
▁सणासुदीच	-11.7707
▁सिंधुदुर्ग	-11.7707
▁सीरिंज	-11.7707
▁सुपरमार्केट	-11.7707
▁सॅनिटायझेशन	-11.7707
▁स्क्रिनिंग	-11.7707
▁स्थूल	-11.7707
▁हाणामारी	-11.7707
▁हिवताप	-11.7707
▁हिशोब	-11.7707
2,692	-11.7707
TMPRSS	-11.7707
कर्तृत्	-11.7707
डोंबिवली	-11.7707
▁अनौपचारिक	-11.7707
▁अप्रत्यक्ष	-11.7707
▁अभिकारकाच	-11.7707
▁अमिरात	-11.7707
▁इथाका	-11.7707
▁किंगडम	-11.7707
▁खिडक्या	-11.7707
▁घरबसल्या	-11.7707
▁जथ्थे	-11.7707
▁डिस्टंन्सिंग	-11.7707
▁दागिन	-11.7707
▁दिनदर्शिक	-11.7707
▁न्यूझीलंडमध	-11.7707
▁पुतळ्या	-11.7707
▁पॅरासिटाम	-11.7707
▁प्रचारसभेत	-11.7707
▁मध्यमवर्गीय	-11.7707
▁मापदंड	-11.7707
▁मायक्रोबायोलॉज	-11.7707
▁मेरीलँड	-11.7707
▁युनिर्व्हसिटी	-11.7707
▁लॅाकडाऊन	-11.7707
▁वन्यजीव	-11.7707
▁विषाणु	-11.7707
▁व्हायरोलॉजी	-11.7707
▁शिजवण्या	-11.7707
▁शेडगे	-11.7707
▁श्वसनिकाशोथ	-11.7707
▁स्मरणपत्र	-11.7707
इन्फ्लेमेशन	-11.7707
▁अतुल	-11.7707
▁अरेबियामध	-11.7707
▁आंतरक्रिये	-11.7707
▁उन्नाव	-11.7707
▁एन्डोथेल	-11.7707
▁कार्बो	-11.7707
▁कालमर्यादे	-11.7707
▁कुटुंबनियोजनाच	-11.7707
▁खोकण	-11.7707
▁जीएसडीपी	-11.7707
▁टेलि	-11.7707
▁डोलवी	-11.7707
▁तांडव	-11.7707
▁तृण	-11.7707
▁दाटीवाटी	-11.7707
▁बोकारो	-11.7707
▁मिरवण	-11.7707
▁रजिस्टर	-11.7707
▁ऱ्हि	-11.7707
▁वर्षपूर्ती	-11.7707
▁शवागृह	-11.7707
▁शिजवि	-11.7707
▁शीर्ष	-11.7707
▁शेतमालाच	-11.7707
▁श्रीलंका	-11.7707
▁सिंगापुर	-11.7707
▁सेमेलव	-11.7707
▁पेटन्ट	-11.7707
IBO	-11.7707
क्रिस्पर	-11.7707
▁एन्झाय	-11.7707
▁चिंतन	-11.7707
▁जोडप्यांन	-11.7707
▁पिढ्यां	-11.7707
▁लढवय्य	-11.7707
▁शवगृह	-11.7707
तृप्त	-11.7707
▁und	-11.7707
▁केबिन	-11.7707
▁पंकज	-11.7707
▁बायोफार्मा	-11.7707
▁राजपूत	-11.7707
▁वानखेडकर	-11.7707
▁शेट्टी	-11.7707
▁संतुल	-11.7707
▁स्टुड	-11.7707
▁इंधन	-11.7707
▁इंपिरि	-11.7707
▁जैवसुरक्षा	-11.7707
▁वाढविणे	-11.7707
▁साधेपणान	-11.7707
NPI	-11.7707
TCN	-11.7707
▁आयटेम	-11.7707
▁कोलेस्ट	-11.7707
▁खडसे	-11.7707
▁खालावलेल	-11.7707
▁दुबई	-11.7707
▁रुग्णसेवे	-11.7707
▁शरिरा	-11.7707
▁महसुल	-11.7707
NCE	-11.7707
eeds	-11.7707
▁उत्सव	-11.7707
▁ओढवली	-11.7707
▁जंतु	-11.7707
▁दुपटी	-11.7707
▁नुसत	-11.7707
▁पाऊस	-11.7707
▁व्यथा	-11.7707
▁स्वीकृती	-11.7707
▁बिछान	-11.7707
▁अवलंबित्व	-11.7707
▁सापडू	-11.7707
▁सिविकसच	-11.7707
एआरआय	-11.7707
▁गप्पा	-11.7707
▁लगावला	-11.7707
▁पोलंड	-11.7707
▁समाकल	-11.7707
खेडय़ा	-11.7707
▁हताश	-11.7707
▁कोपरापर्यं	-11.7707
▁वाऱ्यावर	-11.7707
उंदरामध्ये	-11.7707
▁डेटाबेस	-11.7707
▁सर्जरी	-11.7707
▁आशयाच	-11.7707
रोगप्रसार	-11.7707
▁टूल्स	-11.7707
▁उसळ	-11.7707
▁आकलन	-11.7707
▁चाळीस	-11.7707
▁लावणाऱ्या	-11.7707
ndrome	-11.7707
▁संगीत	-11.7707
▁इथून	-11.7707
▁उजाड	-11.7707
▁एजें	-11.7707
▁चॅनेल	-11.7707
▁मिळावा	-11.7707
▁स्ट्रीप	-11.7707
▁गल्ली	-11.7707
▁सावट	-11.7707
▁अंगिकार	-11.7707
▁अन्नपदार्थांच	-11.7707
▁भाडं	-11.7707
▁तांब	-11.7707
कंप्युट	-11.7707
▁नामांक	-11.7707
▁स्टोअरेज	-11.7707
▁टर्मिनस	-11.7707
▁उत्साह	-11.7708
▁हॅाट	-11.7708
381	-11.7708
थरीन	-11.7708
▁मारोत	-11.7708
▁फिजिशियन	-11.7708
1.61	-11.7708
▁सुट्या	-11.7708
▁सूत्रीकरणा	-11.7708
▁स्थानांतर	-11.7708
▁गाणी	-11.7708
▁भारतभरात	-11.7709
▁नाईलाज	-11.7709
▁आयुक्तालया	-11.7709
▁बसवलेल	-11.7709
▁मोसमा	-11.7709
▁बेन्झ	-11.7709
▁शालि	-11.7709
“	-12.5895
ऐ	-13.6035
‘	-13.6036
ौ	-13.6037
औ	-13.6038
ऱ	-13.6039
ॉ	-13.604
