<pad>	0
</s>	0
<unk>	0
¦	-1.31025
▁¦	-1.31026
ܐ	-2.53379
ܘ	-4.15778
ܘܢ	-4.45738
ܕ	-4.64256
ܗܘ	-4.75312
ܗ	-4.83459
ܠܐ	-4.86874
ܡܢ	-4.91961
ܠܗ	-4.94351
ܢ	-5.00037
ܝܢ	-5.01652
ܝ	-5.09223
ܕܝܢ	-5.19629
ܠ	-5.29312
ܘܗܝ	-5.62
ܒ	-5.62818
ܐܢܐ	-5.68212
ܥܠ	-5.77548
ܬ	-5.81263
ܟܘܢ	-5.85995
ܫܘܥ	-5.88255
ܓܝܪ	-5.90249
ܐܡܪ	-5.97241
ܬܐ	-6.06579
ܘܐܡܪ	-6.1728
ܗܘܢ	-6.19187
ܠܟ	-6.20073
ܐܝܟ	-6.22844
ܗܘܘ	-6.2476
ܟܕ	-6.26064
ܘܠܐ	-6.26275
ܕܠܐ	-6.26575
ܐܝܬ	-6.3105
ܢܬܘܢ	-6.31752
ܠܝ	-6.36383
ܡܛܠ	-6.38206
ܐܦ	-6.38453
ܗܢ	-6.3934
ܚܕ	-6.41626
ܟܠ	-6.4167
ܢܘܢ	-6.43683
ܐܢܬ	-6.47351
ܡ	-6.47843
ܗܝ	-6.49212
ܝܠܝܢ	-6.51515
ܕܐܠܗ	-6.51879
ܠܝܢ	-6.52396
ܡܐ	-6.55106
ܒܗ	-6.56212
ܘܤ	-6.57866
ܡܕܡ	-6.63244
ܡܫܝܚ	-6.76052
ܐܢܫ	-6.78648
ܟ	-6.82175
ܟܠܗ	-6.84147
ܥܡ	-6.84529
ܘܟܕ	-6.88178
ܥܒܕ	-6.92082
ܢܐ	-6.92611
ܠܘܬ	-6.94484
ܫܐ	-6.96977
ܐܢ	-6.97098
ܕܐ	-6.99023
ܘܬܐ	-7.05329
ܐܠܗ	-7.09499
ܕܐܝܬ	-7.12348
ܠܡ	-7.13136
ܠܢ	-7.1441
ܡܪܢ	-7.15053
ܘܠ	-7.19195
ܥܕ	-7.2032
ܘܡܢ	-7.21839
ܪܘܚ	-7.23484
ܗܕ	-7.23515
ܟܝܠ	-7.23887
ܕܢ	-7.24726
ܐܝܟܢ	-7.2701
ܕܡܢ	-7.27274
ܗܘܝܬ	-7.2853
ܤܓܝܐ	-7.306
ܫܠܡ	-7.32038
ܚܝ	-7.33102
ܗܘܬ	-7.33305
ܘܒ	-7.33547
ܕܝ	-7.34048
ܩܕܡ	-7.35473
ܢܗܘ	-7.35502
ܓܒܪ	-7.36938
ܐܡܪܝܢ	-7.38026
ܙܒܢ	-7.38802
ܗܟܢ	-7.39556
ܒܝܬ	-7.40208
ܒܢܝ	-7.4118
ܝܕܥ	-7.44912
ܢܫܐ	-7.49228
ܚܢܢ	-7.50944
ܒܪ	-7.51871
ܐܬܐ	-7.52211
ܘܐܢ	-7.52393
ܡܪܝ	-7.53015
ܢܝ	-7.56161
ܐܪܥ	-7.56555
ܥܡܗ	-7.57848
ܡܬ	-7.61065
ܒܪܗ	-7.61129
ܤ	-7.62895
ܬܠܡܝܕ	-7.63536
ܡܢܗ	-7.64152
ܐܚܪܢ	-7.66341
ܬܡܢ	-7.67012
ܛ	-7.68772
ܒܝ	-7.68889
ܕܒ	-7.69756
ܬܘܒ	-7.72549
ܫܡܥܘܢ	-7.73904
ܝܗܝ	-7.7605
ܠܐܠܗ	-7.7679
ܫܡܝ	-7.76877
ܠܥܠܡ	-7.77354
ܡܝܬ	-7.7893
ܡܠܬ	-7.80586
ܝܕܥܝܢ	-7.82239
ܝܘܡ	-7.85346
ܐܡܝܢ	-7.85605
ܚܙܐ	-7.87136
ܦ	-7.88221
ܟܢܫ	-7.89469
ܠܝܬ	-7.91967
ܕܐܦ	-7.92438
ܝܗܘܕܝ	-7.92633
ܛܒ	-7.92637
ܝܬܝܪ	-7.93505
ܕܐܡܪ	-7.93813
ܘܥܠ	-7.94321
ܥܢ	-7.94361
ܡܫܟܚ	-7.94789
ܡܠܟ	-7.94806
ܟܐܦ	-7.954
ܠܒܪ	-7.96186
ܕܡ	-7.98842
ܒܟܠ	-8.0013
ܠܘܬܗ	-8.01116
ܘܚܢܢ	-8.01504
ܡܠܐܟ	-8.01582
ܐܙܠ	-8.02119
ܘܗ	-8.02306
ܕܐܢ	-8.02933
ܨܒܐ	-8.03071
ܢܦܫܗ	-8.03987
ܕܬ	-8.04335
ܕܗܘ	-8.0475
ܪܐ	-8.04809
ܚܐ	-8.0515
ܦܘܠ	-8.06039
ܢܡܘܤ	-8.06309
ܘܡ	-8.08146
ܬܪܝܢ	-8.09922
ܕܥܒܕ	-8.09931
ܪܒܐ	-8.10251
ܒܥܐ	-8.10369
ܬܗ	-8.10958
ܕܡܐ	-8.13485
ܘܕ	-8.13887
ܕܐܢܫ	-8.14308
ܟܗܢ	-8.14407
ܐܢܬܬ	-8.1483
ܘܟܠ	-8.16983
ܐܚܝ	-8.17893
ܬܗܘ	-8.17958
ܪܒ	-8.18066
ܒܬܪ	-8.18203
ܥܠܡ	-8.18311
ܬܘܢ	-8.18317
ܠܚܡ	-8.19027
ܕܟܠ	-8.19508
ܘܗܘ	-8.20368
ܒܟܘܢ	-8.20738
ܟܬܒ	-8.2107
ܐܝܕ	-8.21349
ܡܕܝܢܬ	-8.22392
ܒܠܚܘܕ	-8.22418
ܥܠܝܗ	-8.23206
ܡܗܝܡܢ	-8.23327
ܥ	-8.2343
ܢܒܝ	-8.24935
ܝܬܐ	-8.25694
ܘܐܝܬ	-8.25821
ܫܥܬ	-8.25836
ܝܗܒ	-8.26819
ܒܪܘܚ	-8.27491
ܩܕܡܝ	-8.28146
ܕܩܘ	-8.28381
ܩܕܝܫ	-8.28742
ܢܫ	-8.28986
ܕܢܗܘ	-8.29981
ܚܠܦ	-8.30365
ܕܚܝ	-8.3046
ܩܠܐ	-8.30614
ܕܡܫܝܚ	-8.3128
ܕܗ	-8.31518
ܗܘܝ	-8.31958
ܐܒܐ	-8.32995
ܘܐܦ	-8.33392
ܡܠܐ	-8.33418
ܐܝܬܝܗ	-8.33622
ܪܒܝ	-8.34437
ܛܝܒܘܬ	-8.34673
ܕܫܐ	-8.35075
ܥܡܡ	-8.35804
ܒܐ	-8.36107
ܤܒܪ	-8.37339
ܒܢ	-8.37441
ܬܪܥ	-8.37729
ܫ	-8.38916
ܕܡܪܝ	-8.39602
ܒܗܝܡܢܘܬ	-8.3994
ܦܪܝܫ	-8.40048
ܫܡܥ	-8.40908
ܦܓܪ	-8.41368
ܡܡܠܠ	-8.41525
ܗܝܡܢܘܬ	-8.41726
ܫܦܝܪ	-8.42259
ܚܙܘ	-8.42377
ܒܝܕ	-8.43451
ܓ	-8.43612
ܥܠܝ	-8.4441
ܕܠܡܐ	-8.44507
ܤܓܝ	-8.44597
ܫܒܥ	-8.45104
ܘܬ	-8.45276
ܘܐܙܠ	-8.45993
ܡܘܫ	-8.46027
ܠܡܢ	-8.46749
ܩܪܒ	-8.47327
ܪ	-8.4742
ܕܒܗ	-8.48205
ܠܚܕ	-8.48231
ܥܘܠ	-8.486
ܗܘܝܢ	-8.48846
ܢܦܩ	-8.49865
ܢܦܫ	-8.50517
ܪܚܡ	-8.51533
ܪܫ	-8.51847
ܩܐ	-8.5226
ܐܤܝܪ	-8.53274
ܕܐܬܐ	-8.53318
ܝܠ	-8.5347
ܥܝܢ	-8.53929
ܦܐܪ	-8.53939
ܩܡ	-8.53956
ܢܘܪ	-8.54045
ܚܛܝܬ	-8.5503
ܚܝܬ	-8.55042
ܒܫܡܝ	-8.55355
ܨܒܝܢ	-8.55723
ܕܥܠ	-8.55983
ܬܠܬ	-8.56177
ܝܘܡܬ	-8.58248
ܥܡܐ	-8.58652
ܡܘܬ	-8.58756
ܦܘܩܕܢ	-8.58822
ܠܒܝܬ	-8.59021
ܘܐܬܐ	-8.5914
ܟܡܐ	-8.59189
ܠܡܐ	-8.5937
ܥܠܝܟ	-8.5943
ܫܕܪ	-8.59546
ܡܝ	-8.60279
ܐܬܪ	-8.60622
ܒܪܢܫ	-8.61038
ܒܝܫܬ	-8.61051
ܡܢܘ	-8.6168
ܫܒܩ	-8.62091
ܩܘܒ	-8.62483
ܝܡܐ	-8.63083
ܕܠ	-8.63144
ܐܚܘܗܝ	-8.63718
ܥܒܪ	-8.63854
ܕܥܠܡ	-8.64618
ܙܪܥ	-8.66543
ܡܫܟܚܝܢ	-8.67079
ܦܝܠ	-8.67209
ܢܤܒ	-8.68094
ܝܡܝܢ	-8.68346
ܝܬܘܢ	-8.68501
ܩܠܝܠ	-8.69082
ܘܝܗܒ	-8.69254
ܒܬܪܗ	-8.69801
ܩܪܐ	-8.69951
ܩܝܡܝܢ	-8.70218
ܒܥܝܢ	-8.7025
ܕܐܬ	-8.70287
ܛܒܬ	-8.70353
ܡܠܠ	-8.70394
ܚܘܒ	-8.70632
ܕܒܢܝ	-8.70944
ܘܝ	-8.7137
ܐܒܝ	-8.71597
ܒܝܫܐ	-8.7205
ܐܬܘ	-8.72741
ܒܟܠܗ	-8.72756
ܡܬܝ	-8.73105
ܨ	-8.73209
ܕܪܘܚ	-8.73333
ܡܠܟܘܬ	-8.7344
ܬܝ	-8.74029
ܕܟܬܝܒ	-8.74148
ܥܒܕܝܢ	-8.7435
ܫܘ	-8.74585
ܪܡܐ	-8.74993
ܫܘܠܛܢ	-8.75074
ܘܩܕܡ	-8.75961
ܡܪ	-8.7704
ܘܪ	-8.7706
ܢܚܬ	-8.77122
ܤܦܪ	-8.78865
ܫܡܥܘ	-8.79273
ܕܝܠܝ	-8.79552
ܥܤܪ	-8.79701
ܚܡܫ	-8.79785
ܕܥܡ	-8.7989
ܢܦܫܟ	-8.79956
ܕܐܝܬܝܗ	-8.80239
ܕܒܪ	-8.80364
ܕܫܡܝ	-8.80772
ܗܢܘ	-8.80962
ܫܠܝܛ	-8.81402
ܝܗ	-8.81498
ܒܝܘܡ	-8.81633
ܠܒܢܝ	-8.81717
ܐܪܒܥ	-8.82033
ܢܦܠ	-8.82329
ܚܪܝܢ	-8.83823
ܬܬ	-8.83966
ܘܝܕ	-8.84286
ܢܘܗܪ	-8.84487
ܕܝܠܟ	-8.8465
ܤܗܕ	-8.84904
ܕܡܝ	-8.84916
ܠܐܘܪ	-8.85015
ܒܤܪ	-8.85493
ܘܐܬܘ	-8.85632
ܕܝܠܗ	-8.8576
ܫܪܪ	-8.86055
ܘܢܦܩ	-8.86177
ܕܚܕ	-8.8636
ܓܠܝ	-8.86629
ܕܝܗܘܕܝ	-8.87244
ܚܛܗ	-8.8748
ܠܓܒܪ	-8.87515
ܫܪܐ	-8.87943
ܬܪܬ	-8.88113
ܫܪܝܪ	-8.88401
ܫܠܝܚ	-8.88894
ܐܝܤܪ	-8.90091
ܠܬܠܡܝܕ	-8.90191
ܒܫܠܡ	-8.90275
ܕܐܪܥ	-8.90294
ܪܓܠ	-8.9072
ܪܒܬ	-8.90997
ܡܟܝܠ	-8.91752
ܘܤܦ	-8.91798
ܙܥܘܪ	-8.92214
ܕܓܠ	-8.92678
ܕܫܡܗ	-8.92697
ܕܠܝܬ	-8.93016
ܐܡܪܬ	-8.93224
ܤܡ	-8.9366
ܥܡܝ	-8.93701
ܒܐܦ	-8.93894
ܫܡܗ	-8.93948
ܠܚܝ	-8.94268
ܩܫܝܫ	-8.94275
ܘܐܬ	-8.94466
ܟܬܝܒ	-8.94581
ܐܘܪܚ	-8.95069
ܛܠܝ	-8.952
ܘܩܡ	-8.95299
ܕܡܘܬ	-8.95324
ܟܝ	-8.9611
ܚܕܬܐ	-8.96503
ܘܟܠܗ	-8.97278
ܐܦܝ	-8.97414
ܠܘܩܒܠ	-8.97458
ܕܚܠܬ	-8.9762
ܕܥܬܝܕ	-8.97669
ܠܟܠ	-8.97744
ܒܥܠ	-8.97924
ܚܫܘܟ	-8.98461
ܨܒܝܢܗ	-8.98539
ܬܫܒܘܚܬ	-8.99783
ܒܝܡ	-9.00253
ܘܒܪ	-9.00436
ܬܪܥܤܪ	-9.00889
ܙܠ	-9.00933
ܤܠܩ	-9.0095
ܒܐܝܕܗ	-9.01152
ܐܬܝܢ	-9.01421
ܚܪܬ	-9.01468
ܫܪܒܬ	-9.01638
ܡܠܝ	-9.01699
ܟܤ	-9.01922
ܕܝܗܒ	-9.01943
ܕܟܕ	-9.02222
ܕܬܗܘ	-9.02391
ܐܝܕܝ	-9.02519
ܠܘܬܟ	-9.02885
ܤܓܝܐܬ	-9.03023
ܠܠܝ	-9.03549
ܒܝܢܬ	-9.04129
ܦܠܚ	-9.04538
ܫܢܝܢ	-9.06258
ܐܝܕܗ	-9.06318
ܡܪܝܡ	-9.0637
ܠܥܡ	-9.06383
ܕܝܬܒ	-9.06485
ܠܟܠܗ	-9.0653
ܗܪܟ	-9.06968
ܤܝܡ	-9.0698
ܩܘܡ	-9.07136
ܩܥ	-9.07278
ܐܘܪ	-9.07367
ܒܟ	-9.07684
ܥܡܟ	-9.0793
ܐܝܬܝ	-9.07984
ܥܬܝܕ	-9.0807
ܡܦܩ	-9.08192
ܐܠܘ	-9.09311
ܘܡܐ	-9.09415
ܝܟ	-9.0969
ܚܘܪ	-9.09692
ܘܫܪܝ	-9.09988
ܡܩܒܠ	-9.10365
ܐܘܠܨܢ	-9.10412
ܕܒܝܬ	-9.11318
ܙ	-9.11546
ܠܡܕܝܢܬ	-9.119
ܩܕܝ	-9.11903
ܕܡܬܩܪ	-9.12104
ܩܪܒܘ	-9.12692
ܝܬ	-9.12859
ܠܝܘܡ	-9.13003
ܩ	-9.13257
ܪܝܫ	-9.13311
ܒܚܕ	-9.13788
ܡܠܦ	-9.13857
ܫܡܥܝܢ	-9.14037
ܤܛ	-9.14178
ܫܬܐ	-9.14188
ܕܐܝܟ	-9.14257
ܡܠܦܢ	-9.14531
ܡܡܠܠܝܢ	-9.14577
ܕܗܒ	-9.14607
ܐܘܠܕ	-9.15054
ܝܬܒ	-9.151
ܐܬܝܬ	-9.15209
ܘܫ	-9.15224
ܥܓܠ	-9.15615
ܒܫܡܗ	-9.15754
ܝܘܠܦܢ	-9.15947
ܕܫܡܥ	-9.16446
ܡܠܟܘܬܗ	-9.16913
ܐܠܦ	-9.17141
ܚܡܪ	-9.17244
ܚܙܝܢ	-9.17508
ܒܗܝܟܠ	-9.17594
ܠܥܠ	-9.17742
ܒܐܘܪܚ	-9.1783
ܠܐܢܫ	-9.1796
ܫܩܠ	-9.18123
ܘܬܘܒ	-9.18588
ܚܒܝܒ	-9.18828
ܠܥܒܕ	-9.19141
ܦܬܚ	-9.19238
ܫܪܟ	-9.19378
ܕܥ	-9.1951
ܫܒܘܩ	-9.19549
ܫܪܝ	-9.19866
ܢܝܢ	-9.20138
ܢܐܡܪ	-9.20322
ܡܚܕ	-9.20333
ܟܘܪܤܝ	-9.205
ܕܪܒ	-9.20679
ܒܥ	-9.20689
ܦܩܕ	-9.20703
ܕܒܫܡܝ	-9.21022
ܐܒܘܗܝ	-9.21063
ܪܥܝܢ	-9.21085
ܚܙܝ	-9.21155
ܚܘܝ	-9.2135
ܓܢܒ	-9.21384
ܦܝܠܝܦ	-9.21483
ܠܡܐܡܪ	-9.21526
ܢܬ	-9.21717
ܪܡ	-9.21871
ܐܚܝܢ	-9.2213
ܚܪ	-9.22254
ܕܢܐܬ	-9.22674
ܚܝܠ	-9.23125
ܒܡܠܬ	-9.23273
ܢܚ	-9.23511
ܫܘܒܚ	-9.23577
ܠܦܘܠ	-9.23616
ܒܩ	-9.23723
ܘܐܚܪܢ	-9.23725
ܥܕܬ	-9.23781
ܒܐܝܕܝ	-9.23824
ܛܪ	-9.23832
v	-9.23965
𐋇	-9.23965
ܪܫܗ	-9.24067
ܗܝܡܢܘ	-9.24178
ܘܒܗ	-9.24344
ܘܐܝܟ	-9.244
ܟܪܝܗ	-9.25356
ܫܐܠܘ	-9.25715
ܩܪܝܬ	-9.25766
ܕܒܚ	-9.25852
ܚܟܡܬ	-9.25899
ܘܗܢ	-9.2598
ܒܝܬܗ	-9.2636
ܘܫܕܪ	-9.26393
ܚܤ	-9.26583
ܒܪܐ	-9.26959
ܕܡܬ	-9.27666
ܐܡܪܘ	-9.27981
ܘܬܗ	-9.28075
ܘܦܩܕ	-9.28177
ܤܥܪ	-9.28218
ܡܟܐ	-9.28412
ܟܦܢ	-9.2852
ܕܬܠܬ	-9.29001
ܒܒܝܬ	-9.29188
ܤܪܝܩ	-9.29281
ܤܗܕܘܬ	-9.29325
ܕܗܢ	-9.29435
ܝܥ	-9.29512
ܦܘܩ	-9.29601
ܕܚܠ	-9.29922
ܢܬܠ	-9.30116
ܠܡܥܒܕ	-9.30279
ܒܠ	-9.30365
ܘܚܕ	-9.30463
ܕܒܝܫ	-9.30508
ܕܨܒ	-9.30774
ܕܪ	-9.31235
ܘܫܐܠ	-9.31441
ܐܓܪ	-9.31468
ܩܪܨ	-9.31889
ܘܩܪܐ	-9.3192
ܘܡܛܠ	-9.31973
ܛܘܪ	-9.32725
ܒܢܡܘܤ	-9.32861
ܒܫܒ	-9.32882
ܒܥܘ	-9.3333
ܒܪܡ	-9.33681
ܘܥܡ	-9.33696
ܪܘ	-9.33932
ܩܝܡ	-9.33996
ܫܒ	-9.3403
ܒܬܪܝ	-9.34118
ܒܒܤܪ	-9.34609
ܩܒܘܪ	-9.347
ܢܗܪ	-9.34763
ܦܪܩ	-9.3477
ܢܛܪ	-9.34875
ܡܘܗܒܬ	-9.34989
ܘܩܪܒ	-9.35599
ܘܩܥ	-9.35888
ܒܢܦܫܗ	-9.36044
ܚܠ	-9.36341
ܗܪܘܕ	-9.36961
ܒܐܘܪ	-9.36967
ܤܦܝܢܬ	-9.37508
ܐܡܗ	-9.37938
ܡܗܠܟܝܢ	-9.38023
ܕܢܡܘܤ	-9.38072
ܠܡܪܝ	-9.38171
ܤܝܐ	-9.385
ܘܚܙܐ	-9.3859
ܕܫܕܪ	-9.38822
ܪܟ	-9.38922
ܤܡܝ	-9.38923
ܡܟܤ	-9.38999
ܕܟܠܗ	-9.39077
ܡܗܝܡܢܝܢ	-9.3917
ܠܟܢܫ	-9.39543
ܚܫ	-9.39748
ܡܟ	-9.40266
ܕܢܒܝ	-9.40323
ܕܢܚ	-9.40461
ܗܝܟܠ	-9.40574
ܡܫܡܫܢ	-9.40804
ܠܦܝܢ	-9.40818
ܒܪܝ	-9.41101
ܕܠܘܬ	-9.4121
ܫܡܫ	-9.41528
ܘܒܬܪ	-9.41724
ܒܢܝܢ	-9.41784
ܦܘܡܗ	-9.41854
ܐܝܩܪ	-9.42064
ܛܢܦ	-9.42271
ܡܥܡܕ	-9.42527
ܚܛ	-9.42766
ܫܥܝ	-9.42898
ܕܪܚܡ	-9.42945
ܐܚܪܝ	-9.4302
ܕܗܝܡܢܘܬ	-9.43182
ܝܗܘܕܐ	-9.43323
ܒܥܠܕܒܒ	-9.4344
ܕܒܪܗ	-9.43656
ܠܥܤ	-9.4389
ܥܡܪ	-9.4392
ܫܐܠ	-9.44272
ܕܐܢܬ	-9.44435
ܪܝܢ	-9.44594
ܕܙܒܢ	-9.44635
ܙܠܘ	-9.44688
ܡܢܟ	-9.44713
ܟܘܬ	-9.45009
ܘܚܙܝܬ	-9.45158
ܕܒܤܪ	-9.45388
ܟܘܡܪ	-9.45456
ܩܒܪ	-9.46052
ܤܒܪܬ	-9.46139
ܠܢܫ	-9.46228
ܟܦܪ	-9.46315
ܘܥܒܕ	-9.46329
ܡܬܚܙ	-9.46359
ܕܩܪ	-9.46393
ܟܤܦ	-9.46505
ܚܙܝܬ	-9.46913
ܐܙܠܘ	-9.4694
ܕܦ	-9.47049
ܙܕܩ	-9.4738
ܕܗܟܢ	-9.47645
ܝܗܒܬ	-9.47686
ܠܐܬܪ	-9.47885
ܐܬܚܙܝ	-9.48079
ܐܦܩ	-9.48102
ܡܘܠܟܢ	-9.4829
ܘܠܝܬ	-9.48671
ܘܚܪ	-9.48814
ܠܘ	-9.49104
ܕܡܗܝܡܢ	-9.49174
ܘܠܝܘܡ	-9.49437
ܠܗܘ	-9.49494
ܕܢܤܒ	-9.49502
ܩܘܪܒܢ	-9.50233
ܬܕܚܠ	-9.50236
ܢܝܚ	-9.50268
ܠܒܘܬ	-9.50395
ܢܒܐ	-9.5058
ܪܗܛ	-9.50621
ܒܟܢܘܫܬ	-9.50686
ܕܢܐܙܠ	-9.50796
ܤܓܕ	-9.50832
ܘܥ	-9.512
ܬܐܡܪ	-9.51218
ܢܦܩܬ	-9.51334
ܫܪܝܪܐ	-9.51695
ܫܠܝ	-9.51797
ܠܡܘܬ	-9.51892
ܒܕܡܘܬ	-9.52042
ܕܡܟ	-9.52045
ܓܠ	-9.52149
ܡܠܬܗ	-9.52456
ܕܝܘ	-9.52628
ܘܚ	-9.53109
ܕܝܬܩ	-9.53165
ܐܝܡܡ	-9.53181
ܕܡܝܬ	-9.53197
ܘܥܢ	-9.53218
ܕܩܐ	-9.53269
ܗܝܡܢ	-9.53354
ܦܨܚ	-9.53489
ܫܢ	-9.53508
ܙܕܝܩܐ	-9.53661
ܘܒܥܝܢ	-9.53679
ܘܫܠܡ	-9.53836
ܦܤܩ	-9.53849
ܟܪ	-9.5385
ܐܫܟܚ	-9.54056
ܡܬܠ	-9.54212
ܨܦܪ	-9.54239
ܐܒܘܟ	-9.55351
ܘܤܠܩ	-9.55846
ܠܒܫ	-9.5601
ܥܩܪ	-9.56081
ܥܡܕ	-9.56271
ܥܬܝܪܐ	-9.565
ܓܡܝܪ	-9.56604
ܘܤܡ	-9.56609
ܒܩܠ	-9.56639
ܬܪܝ	-9.56966
ܥܝܢܝܗ	-9.57075
ܠܛܘܪ	-9.57252
ܒܦܓܪ	-9.57333
ܕܢܬ	-9.57352
ܫܬ	-9.57522
ܫܥ	-9.57617
ܒܤܡ	-9.57686
ܡܪܗ	-9.57804
ܓܒ	-9.58292
ܕܐܟܠ	-9.58399
ܒܛܠ	-9.58555
ܕܩܕܡ	-9.58694
ܘܡܬ	-9.58726
ܫܒܚ	-9.58813
ܘܗܘܝܬ	-9.58822
ܬܟ	-9.58957
ܕܢܬܠ	-9.59181
ܬܟܢܫܘ	-9.59194
ܒܗܝ	-9.59198
ܟܢܘܫܬ	-9.59283
ܡܫܬ	-9.5929
ܡܤܗܕ	-9.59359
ܕܐܒ	-9.59724
ܝܩ	-9.5973
ܫܦܪ	-9.59845
ܕܡܡܠܠ	-9.59907
ܟܘܟܒ	-9.60198
ܫܩܘܠ	-9.60777
ܒܟܝ	-9.60899
ܝܪܬ	-9.60995
ܬܟܘܢ	-9.61037
ܐܝܠ	-9.61315
ܚܘܪܒ	-9.61319
ܦܪܫ	-9.61885
ܕܦܓܪ	-9.61956
ܘܤܦܪ	-9.62623
ܕܡܠܟ	-9.6265
ܩܒܠ	-9.62665
ܓܙܘܪܬ	-9.62825
ܠܥܕܬ	-9.62887
ܙܩܝܦ	-9.62903
ܒܚܝܠ	-9.62928
ܤܢܝܐ	-9.63771
ܚܘ	-9.63785
ܘܢܦܠ	-9.63785
ܦܬܓܡ	-9.63877
ܦܩܚ	-9.63877
ܐܪܙ	-9.6388
ܐܪܡܠܬ	-9.63956
ܡܗܠܟ	-9.63985
ܨܒܘܬ	-9.64022
ܟܐܢܘܬ	-9.64145
ܚܒܝܒܝ	-9.64189
ܐܟܘܠ	-9.64338
ܤܩ	-9.64338
ܙܕܗܪܘ	-9.64343
ܓܒܝ	-9.64452
ܠܦܐ	-9.64532
ܚܛܝ	-9.64641
ܥܒܕܘ	-9.64727
ܘܒܟܠ	-9.64881
ܥܝ	-9.64922
ܕܤ	-9.6498
ܝܕܥܬ	-9.6528
ܡܩܘ	-9.65317
ܡܐܢ	-9.65549
ܐܙܠܝܢ	-9.65845
ܡܛܝ	-9.66142
ܐܬܬ	-9.66173
ܒܤ	-9.66252
ܕܫܪܪ	-9.66253
ܤܐܡ	-9.66254
ܢܥܒܕ	-9.66682
ܡܤܒܪ	-9.66683
ܕܫܡܥܘ	-9.66707
ܡܥ	-9.6704
ܢܦܫܢ	-9.67178
ܘܫܩܠ	-9.67224
ܩܘ	-9.6726
ܒܘܢ	-9.67301
ܡܨܠ	-9.67346
ܚܨܕ	-9.67618
ܡܐܟܘܠܬ	-9.67772
ܠܓܘ	-9.67929
ܒܥܒܕ	-9.67943
ܕܗܘܝ	-9.68062
ܦܬܟ	-9.68248
ܒܠܒܗ	-9.68254
ܪܝܐ	-9.68385
ܠܒܝܬܗ	-9.68389
ܚܐܪ	-9.684
ܛܐ	-9.68425
ܬܢܢ	-9.68763
ܒܨܠܘܬ	-9.68796
ܠܟܝ	-9.6892
ܤܝܡܬ	-9.68925
ܦܘܡ	-9.68933
ܐܫܟܚܘ	-9.69024
ܙܒ	-9.69035
ܕܐܡܪܝܢ	-9.69134
ܢܩܘܡ	-9.69221
ܒܟܬܒ	-9.6997
ܠܫܢ	-9.7013
ܕܪܡ	-9.70221
ܕܒܝ	-9.70348
ܘܝܬܒ	-9.70581
ܘܥܕ	-9.7062
ܘܩܫܝܫ	-9.70965
ܢܚܙܘܢ	-9.71077
ܝܘܤ	-9.71103
ܦܪܨܘܦ	-9.71355
ܘܡܚ	-9.71368
ܙܕܝܩܘܬ	-9.71678
ܪܥܝ	-9.71707
ܩܢܛܪܘܢ	-9.71727
ܕܝܘܡ	-9.71746
ܒܡ	-9.71751
ܕܬܬ	-9.71849
ܐܬܪܚܡ	-9.71941
ܐܟܚܕ	-9.71959
ܒܡܕܝܢܬ	-9.72013
ܐܬܝܠܕ	-9.72304
ܢܦܩܘ	-9.72508
ܥܪܒ	-9.72682
ܐܝܠܢ	-9.72719
ܥܪܩ	-9.7278
ܒܠܫܢ	-9.72873
ܡܫܚ	-9.72969
ܘܫܬܐ	-9.73066
ܕܘܟ	-9.7319
ܕܢܐܡܪ	-9.73313
ܕܚܙܝܢ	-9.7336
ܘܐܩܝܡ	-9.73382
ܒܛܝܒܘܬ	-9.73469
ܕܚܙܐ	-9.73599
ܕܥܡܗ	-9.73615
ܘܫܡܥܬ	-9.73647
ܥܒܕܗ	-9.73984
ܢܡܠܠ	-9.74232
ܫܡܥܬܘܢ	-9.74275
ܐܩܝܡ	-9.74404
ܩܢܝܢ	-9.74466
ܡܛܪ	-9.74475
ܐܦܢ	-9.74531
ܡܥܡܘܕܝܬ	-9.74926
ܕܩܕܝܫ	-9.75066
ܩܪܝ	-9.75155
ܚܩ	-9.75224
ܘܢܤܒ	-9.75231
ܢܨܪ	-9.75606
ܗܪ	-9.75673
ܤܟܠ	-9.75676
ܒܝܫ	-9.75798
ܘܢܦܩܘ	-9.75809
ܠܒܝܫ	-9.75862
ܫܘܒܗܪ	-9.75906
ܒܕܚܠܬ	-9.75982
ܪܕܦ	-9.76068
ܬܥܒܕܘܢ	-9.7619
ܒܚܘܒ	-9.76305
ܘܟܐ	-9.76327
ܪܫܝܬ	-9.76511
ܩܕܡܝܬ	-9.76575
ܕܡܗ	-9.76816
ܠܐܢܬܬ	-9.76848
ܫܒܬ	-9.77093
ܘܚܝ	-9.771
ܪܫܝܢ	-9.77699
ܕܥܘ	-9.77702
ܙܢܝ	-9.78057
ܠܒ	-9.78083
ܕܐܒܪܗ	-9.78151
ܩܪ	-9.78199
ܠܗܝܟܠ	-9.78277
ܘܤܓܝܐ	-9.78464
ܚܘܬ	-9.78517
ܕܬܪܬ	-9.78562
ܚܤܡ	-9.78581
ܐܒܗܬ	-9.78703
ܥܡܢ	-9.78779
ܫܕܪܬ	-9.78916
ܡܘܕܐ	-9.78993
ܒܐܝܕ	-9.7912
ܤܒܪܝܢ	-9.79316
ܥܒܕܝ	-9.79543
ܫܐܠܝܢ	-9.79634
ܒܓܠ	-9.79883
ܚܬ	-9.79901
ܐܟܠܝܢ	-9.80021
ܦܘܪܩܢ	-9.8024
ܡܬܒܥ	-9.80249
ܬܝܒܘܬ	-9.80253
ܪܚܝܩ	-9.80283
ܕܥܡܪ	-9.80295
ܡܬܚܫܒ	-9.80302
ܡܚܫܒܬ	-9.80344
ܚܕܘܬ	-9.8039
ܡܤܟܢ	-9.80404
ܩܢ	-9.80457
ܘܟ	-9.80541
ܕܢܦܩ	-9.80741
ܚܟܝܡܐ	-9.80774
ܩܘܪܝ	-9.8082
ܒܘܝܐ	-9.8085
ܕܬܕܥ	-9.80887
ܘܬܗܘ	-9.80945
ܤܪ	-9.80974
ܚܡܬ	-9.81332
ܓܠܝܠ	-9.81375
ܩܛܠ	-9.81473
ܥܝܪ	-9.8224
ܚܒܠ	-9.82279
ܐܒܕܢ	-9.82401
ܓܘ	-9.82403
ܡܫܪܝ	-9.82409
ܘܩ	-9.82489
ܒܬܪܟ	-9.82554
ܫܬܝܢ	-9.82576
ܛܝܒ	-9.82705
ܡܐܬܝܬ	-9.83004
ܕܢܚܬ	-9.83046
ܬܐܪܬ	-9.83168
ܕܝܕܥ	-9.83252
ܢܫܡܥ	-9.83454
ܒܪܝܬ	-9.83862
ܓܪ	-9.83994
ܩܠܗ	-9.84109
ܕܐܙܠ	-9.84137
ܛܡܐ	-9.84206
ܐܫܕ	-9.84631
ܛܘܒܝܗ	-9.84886
ܕܫܘ	-9.84942
ܡܫܒܚ	-9.84946
ܘܡܕܡ	-9.85104
ܕܚܢܢ	-9.85191
ܚܝܒ	-9.85692
ܦܪ	-9.85826
ܬܫܒܘܚܬܗ	-9.86268
ܗܝܡܢܘܬܟ	-9.86494
ܕܐܬܝܗܒ	-9.86508
ܬܫܥ	-9.86533
ܚܝܒܝܢ	-9.86576
ܘܒܪܟ	-9.86635
ܚܘܢ	-9.86679
ܡܠܝܢ	-9.8687
ܗܦܟ	-9.86982
ܕܒܟܠ	-9.87005
ܐܫܟܚܬ	-9.87457
ܦܪܥ	-9.87566
ܒܙܒܢ	-9.87594
ܫܡܐ	-9.8775
ܟܬܒܬ	-9.87797
ܪܘܓܙ	-9.87867
ܬܢܝܢ	-9.87961
ܕܝܕܥܝܢ	-9.88079
ܨܝܕ	-9.88112
ܩܨ	-9.88119
ܕܢܚܙ	-9.88309
ܕܕܚܠ	-9.88317
ܕܨ	-9.88348
ܘܫܒܩ	-9.88548
ܕܟܝܢ	-9.88667
ܫܡܪܝ	-9.88704
ܤܝ	-9.88956
ܤܘܤ	-9.89088
ܥܒܝܕ	-9.8911
ܝܕܥܘ	-9.89423
ܬܗܝܡܢܘܢ	-9.89582
ܤܘܓܐ	-9.89607
ܤܦܩ	-9.89637
ܕܓܠܝ	-9.89745
ܢܘܟܪܝ	-9.89787
ܘܐܚܕ	-9.89794
ܕܡܕܝܢܬ	-9.89831
ܚܪܫ	-9.9003
ܚܠܝܡ	-9.90154
ܝܪܚ	-9.90375
ܒܛܝܠ	-9.90394
ܕܝܡ	-9.90452
ܛܘܒ	-9.90659
ܥܘܬܪ	-9.90713
ܫܘܝ	-9.90732
ܡܘܕܝܢ	-9.90911
ܚ	-9.91099
ܦܨ	-9.91198
ܘܐܬܝܗܒ	-9.91314
ܡܕܝܢ	-9.91609
ܓܡܪ	-9.91688
ܡܚܒ	-9.91743
ܩܪܢ	-9.91984
ܒܒܝܬܗ	-9.92036
ܪܕܝܢ	-9.92118
ܕܢܦܠ	-9.92277
ܡܫ	-9.92327
ܘܠܝ	-9.92512
ܨܠܘܬ	-9.9257
ܡܓܕܦ	-9.92663
ܘܒܢܝ	-9.93092
ܘܐܝܬܝ	-9.93213
ܒܡܝ	-9.93231
ܕܢܫܬ	-9.93327
ܪܘܪܒ	-9.9333
ܒܬܐ	-9.93358
ܘܐܦܩ	-9.93687
ܐܚܝܕ	-9.93714
ܡܦܤ	-9.93952
ܫܘܒܚܗ	-9.93969
ܢܐܙܠ	-9.94101
ܥܪܤ	-9.94173
ܓܐ	-9.94316
ܝܒܫ	-9.94338
ܡܬܛܦܝܤ	-9.94538
ܐܤܛܪܛܝܘܛ	-9.94546
ܥܙܪ	-9.94566
ܡܝܬܝܢ	-9.94683
ܘܡܠܦ	-9.94794
ܚܝܠܬܢ	-9.94799
ܘܠܡ	-9.94838
ܐܚܘܟ	-9.94887
ܪܗܘܡܝ	-9.95015
ܟܦܘܪ	-9.95034
ܕܡܬܩܪܝ	-9.95054
ܟܘܒ	-9.95147
ܥܢܢ	-9.95373
ܡܪܬ	-9.95508
ܡܒܪܟ	-9.95582
ܟܠܢ	-9.95916
ܨܠܘ	-9.96087
ܝܪܟ	-9.96501
ܪܒܢ	-9.96554
ܨܪܬ	-9.96625
ܕܝܬܝܪ	-9.96626
ܒܪܟ	-9.96717
ܕܛܒ	-9.9675
ܐܓܪܬ	-9.96993
ܠܡܠܟܘܬ	-9.97086
ܓܕ	-9.97302
ܕܐܝܤܪ	-9.97318
ܠܡܫܡܥ	-9.97612
ܫܡܟ	-9.97787
ܛܝܒܘ	-9.97927
ܩܕܡܝܟ	-9.98139
ܠܢܦܫܗ	-9.98328
ܫܪܝܢ	-9.98404
ܝܩܪ	-9.98597
ܐܪܡܝ	-9.98617
ܫܡܥܬ	-9.98702
ܡܚܐ	-9.98902
ܠܡܠܬ	-9.98968
ܕܚܙܘ	-9.9897
ܐܫܬܟܚ	-9.99005
ܕܫ	-9.99304
ܕܫܦܝܪ	-9.9944
ܤܡܝܟ	-9.99621
ܕܡܠܠ	-9.99751
ܕܐܩܝܡ	-9.99776
ܓܘܕܦ	-9.9983
ܥܢܝ	-9.99909
ܦܬܘܪ	-10.0007
ܫܪܒܬܗ	-10.0011
ܫܠܚ	-10.0018
ܝܕܝܥ	-10.0023
ܕܟܝܐ	-10.0029
ܐܠܨ	-10.0044
ܪܢ	-10.0046
ܫܢܝ	-10.0046
ܒܥܕܬ	-10.0068
ܐܬܓܠܝ	-10.0089
ܫܒܩܬ	-10.0093
ܛܒܥ	-10.0103
ܬܪܡܝ	-10.016
ܕܤܥܪ	-10.0176
ܡܫܕܪ	-10.0188
ܘܫܡܥ	-10.022
ܤܝܒܪܬ	-10.0225
ܘܐܪܡܝ	-10.0233
ܕܤܒܪ	-10.0239
ܠܝܥ	-10.0268
ܢܤܒܬ	-10.0283
ܐܤܘܪ	-10.0289
ܬܘܪ	-10.0292
ܢܦܠܬ	-10.0324
ܘܐܬܚܙܝ	-10.0326
ܢܫܟܚ	-10.033
ܬܘ	-10.0339
ܕܠܝ	-10.0351
ܕܢܥܒܕ	-10.0369
ܡܚܝܢ	-10.0373
ܚܝܠܗ	-10.0381
ܥܒܕܝܟ	-10.0389
ܘܡܝܬ	-10.0393
ܡܚܘܬ	-10.0397
ܟܐܢܐ	-10.041
ܕܫܠܡ	-10.0412
ܬܬܐ	-10.0418
ܡܐܬ	-10.0424
ܕܫܒ	-10.0425
ܫܘܬܦ	-10.0431
ܒܫܪܪ	-10.0443
ܐܬܡܠܝ	-10.0448
ܬܝܗܒ	-10.0468
ܡܨ	-10.048
ܛܥܝ	-10.0489
ܘܐܪܒܥ	-10.0492
ܘܐܫܟܚ	-10.0497
ܬܚܙܘܢ	-10.0508
ܩܪܝܒ	-10.0509
ܕܚܫ	-10.0521
ܠܬܐ	-10.0542
ܠܦ	-10.0544
ܠܡܩܛܠ	-10.0548
ܤܝܦ	-10.0572
ܠܓܠܝ	-10.0587
ܕܚܙܝܬ	-10.0587
ܤܢܐ	-10.0587
ܐܒܪܗ	-10.0595
ܠܩܤܪ	-10.0597
ܨܒܘ	-10.0608
ܥܪܛܠ	-10.0611
ܐܫܬܠܡ	-10.0613
ܪܛܢ	-10.0638
ܪܓ	-10.0659
ܤܡܟ	-10.0688
ܛܛ	-10.069
ܕܚ	-10.0692
ܬܚ	-10.0699
ܪܓܬ	-10.0722
ܪܝ	-10.0734
ܘܕܒܪ	-10.0754
ܓܡܘܢ	-10.0758
ܕܦܩܕ	-10.0762
ܟܝܢ	-10.0779
ܕܤܠܩ	-10.0808
ܘܠܘܤ	-10.081
ܫܝ	-10.0815
ܙܢܝܘܬ	-10.082
ܡܡܬܘ	-10.0839
ܕܫܠܝܚ	-10.0846
ܕܡܗܝܡܢܝܢ	-10.0851
ܘܐܬܬ	-10.0908
ܕܘܟܬ	-10.0911
ܩܕܘܢ	-10.0988
ܢܦܫܬ	-10.0991
ܩܪܒܬ	-10.1001
ܥܒܕܬ	-10.101
ܘܚܝܠ	-10.101
ܘܩܛܠ	-10.1016
ܪܝܡ	-10.1035
ܘܐܢܬ	-10.1039
ܝܗܘܕ	-10.1071
ܡܢܝ	-10.1094
ܡܤܒܪܝܢ	-10.1096
ܦܪܚ	-10.1096
ܙܝܥ	-10.1098
ܛܢ	-10.1111
ܒܝܘܠܦܢ	-10.1121
ܬܟܪܙ	-10.1125
ܬܢܝ	-10.1125
ܡܫܟܢ	-10.1126
ܐܦܤ	-10.1129
ܝܕ	-10.1135
ܚܬܢ	-10.1148
ܢܩܦ	-10.1148
ܠܡܡܠܠܘ	-10.1151
ܒܗܘ	-10.1154
ܠܡܫܝܚ	-10.1173
ܘܦܐ	-10.1186
ܛܢܢ	-10.1188
ܕܟܪ	-10.119
ܒܫ	-10.1205
ܘܚܘܒ	-10.1216
ܡܫܒܚܝܢ	-10.1217
ܝܨܦ	-10.1236
ܢܟܦ	-10.1248
ܡܠܚ	-10.1248
ܢܛܪܝܢ	-10.1252
ܚܘܡ	-10.1255
ܬܫܬ	-10.1271
ܦܤ	-10.1282
ܫܪܘ	-10.1283
ܕܡܪ	-10.1289
ܕܢܦܫܗ	-10.1289
ܟܪܝ	-10.1297
ܒܪܬ	-10.1303
ܝܘܛ	-10.1314
ܢܤܒܝ	-10.1316
ܝܪܬܘܬ	-10.1321
ܕܐܒܝ	-10.1329
ܕܟܐܢܘܬ	-10.1333
ܠܡܕܥ	-10.1333
ܡܟܝܟ	-10.135
ܟܪܡ	-10.1358
ܦܓܪܝ	-10.136
ܟܠܝܠ	-10.1369
ܒܡܕܒ	-10.1372
ܩܡܬ	-10.1392
ܚܪܒ	-10.1433
ܝܠܕ	-10.1437
ܒܝܘܡܬ	-10.1446
ܒܝܕܥܬ	-10.1457
ܠܪܘܚ	-10.1498
ܡܘܡ	-10.15
ܤܘܪܝ	-10.1505
ܤܗܕܝܢ	-10.1524
ܩܢܝ	-10.1531
ܘܡܫܐܠ	-10.1562
ܠܡܦܩ	-10.1564
ܡܫܠܡ	-10.1568
ܒܫܡ	-10.1595
ܐܬܕܟܪ	-10.1603
ܡܫܬܡܥ	-10.1625
ܗܝܡܢܘܬܗ	-10.163
ܠܚܛܝ	-10.1653
ܢܫܠܡ	-10.1655
ܐܬܝܐ	-10.1668
ܐܬܠ	-10.1689
ܩܛܘܠ	-10.1689
ܕܛܝܒܘܬ	-10.1698
ܡܤ	-10.1709
ܢܒܗܬ	-10.1711
ܤܟܪ	-10.1716
ܟܘܪܗܢ	-10.1723
ܥܕܢ	-10.1726
ܠܡܤܒ	-10.1742
ܙܕܘܩ	-10.175
ܡܓܕܠ	-10.1755
ܡܬܟܪܟ	-10.1763
ܡܛܝܒ	-10.1764
ܩܤܪ	-10.1768
ܡܨܝܕܬ	-10.1768
ܡܝܬܬ	-10.1777
ܝܘܪ	-10.1782
ܒܡܠܟܘܬ	-10.1783
ܪܓܙ	-10.179
ܘܠܡܢ	-10.1794
ܪܓܠܝܗ	-10.1794
ܕܢܛܪ	-10.1812
ܚܕܝ	-10.1817
ܘܐܬܦܢܝ	-10.1817
ܡܫܬܥܒܕ	-10.1818
ܪܡܝ	-10.183
ܩܝܤ	-10.1834
ܪܩ	-10.1836
ܒܝܢܝ	-10.1838
ܫܪܓ	-10.1847
ܕܩܤܪ	-10.185
ܫܘܬܦܘܬ	-10.187
ܢܤܒܘ	-10.1872
ܫܬܐܤܬ	-10.1874
ܘܐܪܥ	-10.1901
ܠܐܒܘܗܝ	-10.1914
ܡܟܫ	-10.192
ܫܡ	-10.1948
ܡܩܒܠܝܢ	-10.1954
ܘܟܢܫ	-10.1959
ܘܢܚܬ	-10.1963
ܢܡܘܬ	-10.1967
ܕܝܥ	-10.197
ܡܤܟܝܢ	-10.1981
ܕܢܫܠܡ	-10.1984
ܤܦ	-10.2008
ܐܟܪܙ	-10.2022
ܕܗܝ	-10.2033
ܕܩ	-10.2037
ܘܪܘܚ	-10.204
ܕܚܠܘ	-10.2054
ܩܝ	-10.2054
ܚܒܪ	-10.2055
ܕܚܝܠ	-10.2075
ܕܡܝܬܪ	-10.2082
ܦܠܓܘܬ	-10.2108
ܬܒܘ	-10.2114
ܕܥܕܬ	-10.2122
ܤܝܒܪ	-10.2124
ܫܘܠܡ	-10.2139
ܢܚܫ	-10.2157
ܐܚܪܝܬ	-10.217
ܕܢܫܪ	-10.2173
ܒܐܬܪ	-10.2174
ܒܗܬ	-10.2189
ܥܘܪܠܘܬ	-10.219
ܤܘܩ	-10.22
ܪܚܡܝ	-10.2207
ܡܬܝܗܒ	-10.2216
ܘܝܕܥ	-10.2217
ܝܩܝܪ	-10.2233
ܕܩܡ	-10.2248
ܕܤܓܝܐ	-10.2315
ܕܥܠܝ	-10.2316
ܩܠ	-10.233
ܡܨܥܬ	-10.2331
ܥܗܕ	-10.2385
ܗܦܟܘ	-10.2387
ܥܠܝܡ	-10.2396
ܕܦܪܝܫ	-10.2404
ܨܦ	-10.2412
ܟܢܝܫܝܢ	-10.2416
ܬܪܢܓ	-10.2416
ܚܡ	-10.242
ܙܡܪ	-10.2431
ܬܕܡܪܬ	-10.244
ܚܨ	-10.244
ܕܡܠܐ	-10.2447
ܢܬܩܪ	-10.2451
ܠܡܩܡ	-10.2462
ܕܝܕܥܬ	-10.2464
ܢܕܥ	-10.2477
ܠܕܘܟܬ	-10.248
ܒܫܘܩ	-10.2497
ܡܫܬܠܡ	-10.2516
ܠܟܢܘܫܬ	-10.2518
ܐܪܟܘܢ	-10.2528
ܝܠܦ	-10.2543
ܠܡܬܠ	-10.2555
ܕܛܠܝ	-10.2569
ܐܚܘܕ	-10.2577
ܢܩܘ	-10.2581
ܤܗܕܘܬܗ	-10.2585
ܬܟܝܠ	-10.259
ܩܕ	-10.2594
ܠܩܪܝܬ	-10.2595
ܗܒܘ	-10.2606
ܒܪܝܐ	-10.2611
ܠܘܛ	-10.2618
ܤܓܕܘ	-10.2623
ܕܫܡܥܬ	-10.2628
ܬܥܒܕ	-10.2628
ܕܡܠܐܟ	-10.2634
ܪܫܝ	-10.2639
ܡܚܒܠ	-10.2649
ܘܐܫܠܡ	-10.2649
ܡܚܝܒ	-10.2653
ܡܤܝܒܪܢܘܬ	-10.2657
ܙܝܬ	-10.2659
ܕܗܪܘܕ	-10.266
ܝܠܘܕ	-10.2676
ܘܚܙܘ	-10.2689
ܪܘܪܒܐ	-10.2691
ܒܚܕܘܬ	-10.2699
ܪܓܠܝܟ	-10.2716
ܚܫܡܝܬ	-10.2718
ܕܟܪܝܗ	-10.2721
ܒܢܦܫܟ	-10.2722
ܪܝܚ	-10.2733
ܙܝܢ	-10.2751
ܕܡܠܟܘܬ	-10.2756
ܐܘܕܥ	-10.276
ܬܪܥܝܬ	-10.2766
ܟܪܤ	-10.277
ܕܡܫܟܚ	-10.278
ܪܓܝܓܬ	-10.281
ܠܤܛ	-10.2811
ܥܝܢܟ	-10.2815
ܘܕܚܠ	-10.2844
ܒܟܝܢ	-10.2864
ܩܝܦܐ	-10.2869
ܝܪܐ	-10.2874
ܘܐܠܗ	-10.2888
ܘܐܤܝ	-10.2892
ܘܬܡܢ	-10.2921
ܕܢܩܪ	-10.2925
ܡܕܒܚ	-10.2939
ܕܥܒܪ	-10.2947
ܦܪܘܩ	-10.2966
ܤܘܟ	-10.2969
ܛܝܡܬܐ	-10.297
ܐܚܝܕܝܢ	-10.2971
ܐܬܦܬܚ	-10.2973
ܘܦ	-10.2998
ܝܤ	-10.3041
ܘܪܚܡ	-10.3041
ܫܩ	-10.3045
ܡܠܘ	-10.3046
ܦܠܚܝܢ	-10.3063
ܩܒܠܘ	-10.3067
ܤܝܡܝܢ	-10.3068
ܫܘܒܩܢ	-10.3089
ܘܓܒܪ	-10.309
ܘܕܐ	-10.3092
ܗܝܡܢܬܘܢ	-10.3099
ܪܟܒ	-10.3101
ܤܟܠܘܬ	-10.3109
ܓܪܒ	-10.3119
ܦܗܤܛ	-10.3131
ܫܓܘܫ	-10.3132
ܕܐܚ	-10.3134
ܬܪܝܨ	-10.3135
ܐܓܪܦ	-10.3142
ܕܐܬܘ	-10.3144
ܙܘܥ	-10.3144
ܘܐܪܝܡ	-10.3145
ܒܤܝܡ	-10.3165
ܡܫܠܡܢ	-10.3174
ܙܒܘܪ	-10.3174
ܚܘܐ	-10.3178
ܠܡܤܟ	-10.3182
ܘܗܘܝ	-10.3197
ܕܝܗܘܕ	-10.3203
ܕܢܫܡܥ	-10.3207
ܕܢܬܡܠ	-10.3232
ܡܩܕܫ	-10.3238
ܡܛܥܝܢ	-10.3238
ܓܙܪܬ	-10.324
ܬܕܥ	-10.3246
ܘܪܩ	-10.3255
ܘܥܒܪ	-10.3258
ܐܬܩܪܒ	-10.3259
ܕܩܪܝܒ	-10.3261
ܪܦ	-10.3262
ܠܐܒܪܗ	-10.3264
ܒܡܨܥܬ	-10.3276
ܕܚܙܝܬܘܢ	-10.3291
ܚܙܝܪ	-10.3296
ܘܝܬܝܪ	-10.3302
ܝܩܕ	-10.3321
ܐܬܬܥܝܪ	-10.333
ܥܢܘ	-10.3337
ܕܒܢ	-10.337
ܕܫܪܝܪ	-10.3381
ܒܘܪܟܬ	-10.3385
ܠܝܛ	-10.3404
ܤܡܬ	-10.3415
ܡܢܗܪ	-10.3428
ܛܢܦܘܬ	-10.343
ܢܥܒܪ	-10.3433
ܚܤܪ	-10.3446
ܡܚܘ	-10.3446
ܒܡܕܡ	-10.3459
ܕܤܛ	-10.3469
ܡܚ	-10.3471
ܡܟܪܙܝܢ	-10.3474
ܠܡܪܗ	-10.3483
ܒܥܝ	-10.3489
ܢܬܓܠ	-10.3497
ܦܠܘܚ	-10.3511
ܡܬܕܡܪ	-10.3526
ܢܛܪܬ	-10.3529
ܒܫܘܒܚ	-10.3533
ܦܝܤ	-10.3565
ܒܩܢ	-10.3571
ܓܪܬ	-10.3577
ܒܕܡ	-10.3579
ܬܡܗ	-10.3589
ܕܙܟ	-10.359
ܪܡܝܢ	-10.3623
ܠܢܡܘܤ	-10.3632
ܕܙܪܥ	-10.3638
ܠܐܒܝ	-10.366
ܩܒܠܬܘܢ	-10.3665
ܡܝܬܪ	-10.3687
ܒܐܘܠܨܢ	-10.3693
ܕܥܐܠ	-10.3699
ܕܝܘܢ	-10.3713
ܘܐܢܫ	-10.3719
ܡܤܝܒ	-10.372
ܘܝܘܚܢ	-10.3725
ܠܘܝ	-10.3726
ܡܛܐ	-10.3732
ܢܚܘ	-10.3741
ܕܬܘܒ	-10.3742
ܕܡܝܢ	-10.3751
ܟܪܝܬ	-10.3761
ܕܐܝܬܝ	-10.377
ܘܗܦܟ	-10.377
ܤܢܝܩ	-10.3772
ܚܠܦܝ	-10.3779
ܘܙܒܢ	-10.3788
ܥܕܪ	-10.3792
ܕܚܛܝ	-10.3793
ܨܒܝܬ	-10.3799
ܡܬܚܒܠ	-10.3814
ܒܡܠܐ	-10.3816
ܚܤܝܪ	-10.3817
ܕܟܐ	-10.3829
ܐܬܝܗܒ	-10.3837
ܕܚܘܒ	-10.3846
ܒܢܝܗ	-10.3855
ܚܡܝܪ	-10.3861
ܕܟܬܒ	-10.3865
ܐܝܤ	-10.3876
ܥܪܘܩ	-10.39
ܥܬܝܩ	-10.39
ܡܫܘܚܬ	-10.39
ܘܬܠܡܝܕ	-10.3901
ܚܛܘܦ	-10.3905
ܢܛܥ	-10.3907
ܫܘܘܕܝ	-10.3908
ܐܬܟܪܟ	-10.3915
ܙܥܩ	-10.3916
ܡܝܩܪ	-10.3938
ܠܬܚܬ	-10.3938
ܫܠܝܡ	-10.394
ܐܫܬܡܥܬ	-10.3941
ܒܕܘܟܬ	-10.3952
ܐܠܝܨ	-10.3952
ܘܐܤ	-10.3964
ܠܩ	-10.3966
ܘܪܕ	-10.3969
ܟܐܒ	-10.3976
ܚܛܦ	-10.3977
ܘܐܪܡܝܘ	-10.3995
ܟܒܪ	-10.3997
ܘܫܕܪܘ	-10.4006
ܡܬܗܦܟ	-10.4023
ܘܡܠܟ	-10.4029
ܠܡܚܙ	-10.4043
ܦܠܓ	-10.4047
ܕܡܟܝܢ	-10.4075
ܘܠܐܡܗ	-10.4079
ܠܤܗܕܘܬ	-10.4085
ܕܐܡܪܬ	-10.4088
ܠܥܒܪ	-10.4092
ܕܠܒ	-10.4093
ܕܨܒܝܢ	-10.4103
ܦܪܥܘܢ	-10.4106
ܡܛܠܬܗ	-10.4129
ܠܥ	-10.413
ܠܡܥܠ	-10.413
ܕܥܡܝ	-10.4158
ܠܛܠܝ	-10.4161
ܙܕܩܬ	-10.4164
ܡܚܝ	-10.4164
ܩܘܫ	-10.4167
ܘܙ	-10.4171
ܠܒܪܢܫ	-10.4174
ܕܚܛܗ	-10.4193
ܡܫܡܠܝ	-10.4202
ܢܫܬܒܩ	-10.4224
ܒܓܠܝ	-10.4237
ܒܓܠܝܢ	-10.4242
ܒܬܫܡܫܬ	-10.4248
ܕܐܬܩܪܝ	-10.4268
ܦܚ	-10.4271
ܡܚܪ	-10.4276
ܘܪܗܛ	-10.4285
ܩܛܝܪ	-10.429
ܕܡܙ	-10.4318
ܕܩܒܠܬ	-10.4337
ܪܓܠܝ	-10.4353
ܫܠܬܐ	-10.4369
ܕܢܢ	-10.4374
ܫܘܪܝ	-10.438
ܟܟܪ	-10.4388
ܠܬܠܬ	-10.4394
ܬܩܘܡ	-10.4396
ܘܝܥ	-10.4405
ܠܒܗ	-10.4443
ܬܥܠ	-10.447
ܘܡܡܠܠ	-10.4472
ܚܠܦܝܟ	-10.4477
ܕܒܥܝܢ	-10.4477
ܡܬܪܥ	-10.4493
ܘܤܒܪ	-10.4494
ܚܠܦܝܢ	-10.4507
ܗܢܝܢ	-10.4512
ܥܐܠܝܢ	-10.4518
ܢܓܕ	-10.4546
ܬܕܒܪ	-10.4567
ܡܫܡܫ	-10.457
ܢܤܒܝܢ	-10.4579
ܕܪܥ	-10.4582
ܓܗܢ	-10.4593
ܨܥܪ	-10.4595
ܒܬܘܠܬ	-10.4613
ܪܥ	-10.4654
ܐܫܟܚܢ	-10.4656
ܠܢܒܝ	-10.4666
ܚܝܝܢ	-10.4671
ܠܒܘܫ	-10.4687
ܓܙܪ	-10.4692
ܗܠܟܘ	-10.4694
ܡܠܠܘ	-10.4696
ܘܫܡܥܘ	-10.4696
ܘܐܚ	-10.47
ܘܐܢܬܬ	-10.4713
ܥܒܕܬܘܢ	-10.4722
ܘܡܟܪܙ	-10.4727
ܚܛܗܝܗ	-10.4732
ܡܙܕܕܩ	-10.4733
ܬܘܩܠܬ	-10.4733
ܝܘܬܪܢ	-10.4734
ܫܡܥܢ	-10.4738
ܚܢܦ	-10.4738
ܡܩܝܡ	-10.474
ܢܩܒܠ	-10.4741
ܙܩܦ	-10.4749
ܕܫܒܥ	-10.4762
ܠܐܡܗ	-10.4763
ܢܬܒܛܠ	-10.4773
ܡܫܚܠܦ	-10.4778
ܛܥܢ	-10.4778
ܘܐܤܪ	-10.4778
ܡܤܝܒܪܝܢ	-10.4778
ܘܡܪ	-10.4787
ܚܙܬ	-10.4793
ܕܐܤܗܕ	-10.4825
ܤܒ	-10.4835
ܟܬ	-10.4843
ܡܤܒ	-10.4845
ܠܩܕܝܫ	-10.485
ܤܓܘܕ	-10.4851
ܢܗܠܟ	-10.4851
ܠܐܝܟ	-10.4866
ܤܪܐ	-10.4868
ܨܐ	-10.4869
ܡܬܪܥܝܢ	-10.487
ܡܕܒܪܢ	-10.4872
ܒܦܘܡ	-10.4909
ܥܬܝܕܝܢ	-10.4917
ܨܗܝ	-10.4928
ܥܒܕܝܗ	-10.4931
ܩܝܡܬ	-10.4938
ܛܦ	-10.4938
ܡܥܕܪܢ	-10.4957
ܠܩܪܝܒ	-10.496
ܠܬܪܥܤܪ	-10.496
ܨܝܕܢ	-10.4982
ܢܗܝܪܐ	-10.499
ܢܐܒܕ	-10.5004
ܒܠܒ	-10.5007
ܕܩܪܝܢ	-10.5025
ܙܟ	-10.5065
ܡܫܥܒܕ	-10.5076
ܡܩܪܒ	-10.5097
ܘܬܫܒܘܚܬ	-10.5113
ܩܘܡܘ	-10.5135
ܫܬܪܪ	-10.5237
ܕܗܝܟܠ	-10.5242
ܨܠ	-10.5243
ܡܩܕ	-10.5252
ܕܙ	-10.5303
ܝܗܝܒ	-10.5311
ܓܘܢ	-10.5319
ܘܐܟܠ	-10.5331
ܕܪܫ	-10.5331
ܩܝܢ	-10.5335
ܝܩܐ	-10.5338
ܡܦܩܕ	-10.534
ܢܕܪܐ	-10.5367
ܓܒܝܬ	-10.5386
ܐܬܩܪܝ	-10.5391
ܬܦܠ	-10.5399
ܢܫܡܫ	-10.54
ܕܐܠܦ	-10.54
ܘܡܪܝܡ	-10.541
ܩܪܝܢ	-10.5414
ܙܥܘܪܝ	-10.5421
ܕܢܚܫ	-10.5441
ܛܪܦ	-10.5448
ܘܫܝ	-10.548
ܕܬܠܡܝܕ	-10.5509
ܕܬܫܡܫܬ	-10.552
ܒܡܪܝ	-10.5536
ܬܘܕܝܬ	-10.5537
ܫܪܝܘ	-10.5551
ܘܩܕܝܫ	-10.56
ܒܡܪ	-10.5626
ܙܕܩܦ	-10.5635
ܦܫܛ	-10.5641
ܒܦ	-10.5645
ܡܘܕܥ	-10.565
ܪܓܡ	-10.5651
ܦܬܝܚ	-10.5651
ܡܢܤܝܢ	-10.5659
ܓܦ	-10.5668
ܫܩܝܠ	-10.5674
ܡܤܬܟܠܝܢ	-10.5681
ܡܫܬܒܗܪܝܢ	-10.5681
ܢܛܝܟ	-10.5689
ܡܦܝܤ	-10.5709
ܢܫܟܚܘܢ	-10.571
ܤܩܘܒܠ	-10.5711
ܬܩܒܠܘܢ	-10.5717
ܫܒܝܩ	-10.573
ܘܡܠܐܟ	-10.5732
ܡܤܟ	-10.5745
ܙܟܝ	-10.5748
ܤܥܘܪ	-10.575
ܡܡܪܚ	-10.5765
ܫܠ	-10.5765
ܒܥܕ	-10.5773
ܕܢܩܘ	-10.5782
ܕܐܚܝܕ	-10.5798
ܚܒܘ	-10.5799
ܟܤܝܐ	-10.5804
ܢܦܠܘ	-10.5819
ܬܛܥ	-10.582
ܕܢܚܘ	-10.5846
ܕܤܢܐ	-10.585
ܘܫܒ	-10.5853
ܐܒܕ	-10.587
ܘܐܝܬܝܗ	-10.5872
ܐܦܠܘ	-10.588
ܟܫܠ	-10.5881
ܕܐܬܝܬ	-10.5888
ܐܒܗܝܟ	-10.5899
ܢܥܒܕܘܢ	-10.5901
ܒܝܢ	-10.5902
ܘܫܩܠܘ	-10.5904
ܘܩܪܝܒ	-10.5914
ܘܐܬܡܠܝ	-10.592
ܠܫܠܝܚ	-10.5924
ܚܙ	-10.5935
ܡܫܬܥ	-10.594
ܝܦ	-10.5946
ܕܬܡܢ	-10.5963
ܢܦܩܝܢ	-10.5965
ܕܢܡܠܠ	-10.5966
ܠܟܦܪ	-10.5968
ܕܡܥ	-10.5969
ܕܙܕܝܩܘܬ	-10.597
ܟܘܬܝܢ	-10.598
ܛܥ	-10.5983
ܤܒܘ	-10.6016
ܕܒܢܡܘܤ	-10.6046
ܠܡܠܐܟ	-10.6053
ܘܟܒܪ	-10.6056
ܕܘܡ	-10.6077
ܓܙ	-10.6079
ܝܩܝܪܬ	-10.6108
ܚܢ	-10.6109
ܬܦܪܫ	-10.6118
ܡܫܐܠ	-10.6119
ܒܚܛܗܝ	-10.6126
ܒܟܐܢܘܬ	-10.6147
ܡܬܓܠ	-10.6153
ܙܟܐ	-10.6158
ܡܤܢ	-10.6177
ܕܠܘ	-10.6185
ܒܗܬܬ	-10.6194
ܒܘܪܟ	-10.6231
ܘܕܝܘ	-10.6245
ܗܪܘ	-10.6261
ܐܢܬܝ	-10.6263
ܒܠܒܘܬ	-10.6265
ܦܟ	-10.6286
ܘܫܘ	-10.6326
ܚܫܟ	-10.6336
ܡܤܗܕܝܢ	-10.6345
ܒܡܘܬ	-10.6351
ܚܬܡ	-10.6369
ܒܢܒܝ	-10.6369
ܘܒܥܘ	-10.6377
ܫܝܢ	-10.6417
ܥܙ	-10.6444
ܕܡܛܝܒ	-10.6445
ܘܐܬܠ	-10.6478
ܘܕܡܐ	-10.6483
ܒܠܚܘܕܝ	-10.649
ܒܙܚ	-10.6496
ܒܚ	-10.6505
ܡܟܪܙ	-10.6512
ܠܢܦܫ	-10.6523
ܥܗܕܝܢ	-10.6533
ܐܫܬܝ	-10.6547
ܘܥܒܕܘ	-10.6559
ܚܛܗܝܟ	-10.6588
ܥܐܠ	-10.6597
ܒܝܠ	-10.6616
ܕܤܓܝ	-10.6633
ܪܬ	-10.6636
ܐܢܛܝܘܟܝ	-10.6642
ܩܪܩܦܬ	-10.6642
ܡܤܬܒܪ	-10.6642
ܐܤܛܦܢ	-10.6642
ܐܫܝܓ	-10.6643
ܦܪܘܥ	-10.6644
ܒܨܝܪ	-10.6644
ܢܫܬܒܗܪ	-10.6649
ܚܪܝܦ	-10.665
ܡܓܢ	-10.665
ܡܛܬ	-10.6651
ܦܪܝܩ	-10.6652
ܒܘܟܪ	-10.6653
ܬܘܟܠܢ	-10.6657
ܫܢܬ	-10.667
ܒܡܘܡܬ	-10.6673
ܥܬܝܪ	-10.6673
ܗܦܘܟ	-10.6678
ܒܛܢ	-10.6679
ܕܢܩܛܠܘܢ	-10.6679
ܐܤܬܟܠܘ	-10.6681
ܒܪܝܟ	-10.6683
ܥܘܡܩ	-10.6687
ܠܒܢ	-10.6708
ܡܚܒܝܢ	-10.6715
ܘܐܫܬܥܝ	-10.672
ܕܗܝܡܢܘ	-10.6725
ܒܨܒܝܢ	-10.673
ܡܦܫܩ	-10.6733
ܬܩܘ	-10.6734
ܢܥܠܘܢ	-10.6734
ܒܦܪܨܘܦ	-10.6738
ܫܒܩܘ	-10.6746
ܕܢܗܝܡܢ	-10.6756
ܕܢܤܝܡ	-10.6764
ܕܚܪ	-10.6771
ܢܨܒ	-10.6781
ܘܐܚܪܝ	-10.6787
ܟܪܙܘ	-10.6788
ܕܡܩܪܒ	-10.679
ܕܒܪܢܫ	-10.6795
ܠܡܫܪܝ	-10.6803
ܕܒܪܘܚ	-10.6805
ܥܝܢܝܟ	-10.6812
ܟܤܝܬ	-10.6821
ܘܐܘܕܝ	-10.6825
ܚܟܝܡ	-10.6826
ܒܝܫܘܬ	-10.6826
ܐܬܝܕܥܬ	-10.683
ܩܫܝܐ	-10.6835
ܠܡܐܚܕ	-10.6836
ܘܠܫܢ	-10.6839
ܕܡܫܬ	-10.684
ܘܓܒ	-10.6842
ܟܪܝܘܬ	-10.6846
ܡܨܪܝ	-10.6847
ܠܩܘܒܠ	-10.6849
ܛܥܝܘܬ	-10.6859
ܕܢܕܥ	-10.6862
ܕܤܡܝܟ	-10.6871
ܪܥܝܢܗ	-10.6875
ܘܛܝܡܬܐ	-10.6875
ܚܐܪܘܬ	-10.6879
ܕܫܘܒܚ	-10.688
ܘܨܒܝܢ	-10.6889
ܡܠ	-10.689
ܠܡܫܬܐ	-10.6905
ܡܢܪܬ	-10.6916
ܕܡܢܗ	-10.692
ܒܥܝܬ	-10.693
ܘܠܡܠܐܟ	-10.693
ܕܗܢܘ	-10.6937
ܘܒܝܬ	-10.6938
ܕܚܛ	-10.6939
ܤܦܤ	-10.6951
ܚܪܬܗ	-10.6962
ܟܪܝܗܘܬ	-10.6975
ܡܕܢܚ	-10.6977
ܕܡܛܠ	-10.6987
ܫܥܒܕ	-10.6996
ܕܐܫܪ	-10.6999
ܤܪܝ	-10.7007
ܕܦܛ	-10.7011
ܘܡܢܘ	-10.7028
ܘܤܡܘ	-10.7031
ܕܢܦܩܘܢ	-10.7032
ܠܛ	-10.7039
ܚܒܪܝ	-10.7049
ܠܒܟ	-10.7057
ܚܐܝܢ	-10.7062
ܬܚܝܒ	-10.707
ܘܐܝܬܝܘ	-10.7073
ܠܪܫ	-10.7073
ܐܫܬܐܠ	-10.7075
ܝܪ	-10.7077
ܒܛܘܪ	-10.7093
ܛܥܝܢ	-10.7096
ܢܤܓ	-10.71
ܘܢܩܝܡ	-10.7107
ܘܠܟܠܗ	-10.7108
ܕܟܤ	-10.7121
ܘܐܡܝܢ	-10.7135
ܕܝܗܘܕܐ	-10.7137
ܒܚܟܡܬ	-10.7153
ܡܘܒܠ	-10.7171
ܘܚܙܝ	-10.7173
ܕܤܝܡ	-10.7179
ܡܛܝܢ	-10.7225
ܕܢܘܒܕ	-10.7239
ܥܬܪ	-10.7242
ܪܢܐ	-10.7244
ܦܘܠܚܢ	-10.7245
ܬܬܪܝܡ	-10.7264
ܒܓܘ	-10.7272
ܚܕܘ	-10.728
ܠܦܓܪ	-10.7289
ܝܘܢܐ	-10.7297
ܠܟܬܒ	-10.7307
ܢܘܚ	-10.7308
ܩܘܤ	-10.7314
ܘܡܠܝ	-10.733
ܨܐܕܝ	-10.733
ܡܕܥ	-10.7336
ܨܪ	-10.7346
ܒܐܫ	-10.7352
ܘܡܫܡܫܢ	-10.736
ܬܪܡ	-10.7369
ܠܝܗܘܕ	-10.7383
ܘܫܩ	-10.7402
ܘܙܠ	-10.7418
ܒܨ	-10.7424
ܡܐܢܝ	-10.7428
ܘܐܠܦ	-10.743
ܛܘܗܡ	-10.7433
ܘܚܙܝܢ	-10.7449
ܨܒܝ	-10.7463
ܘܐܫܟܚܘ	-10.7491
ܚܘܤ	-10.7504
ܢܨܝ	-10.7512
ܦܠܚܝ	-10.7514
ܕܡܤܒܪ	-10.7521
ܠܡܚܝ	-10.7547
ܕܐܬܝ	-10.7551
ܫܬܡܥܘ	-10.7579
ܚܪܡ	-10.7582
ܡܬܡܠܠ	-10.7593
ܒܪܩ	-10.7602
ܙܕܗܪ	-10.761
ܘܫܠܝܚ	-10.7626
ܫܪ	-10.7643
ܕܤܒܪܬ	-10.766
ܕܫܐܕ	-10.7672
ܕܟܝܘܬ	-10.7683
ܐܬܩܪܝܬ	-10.7684
ܫܬܒܩ	-10.7708
ܤܘܥܪܢ	-10.7713
ܛܝܪ	-10.7719
ܠܚ	-10.7721
ܐܙܕܕܩ	-10.7753
ܐܠܟܤܢܕܪ	-10.7753
ܬܤܠܘܢܝܩ	-10.7753
ܡܪܓܢܝܬ	-10.7753
ܩܘܪܢܠܝ	-10.7753
ܦܫܝܩ	-10.7754
ܩܘܪܢܬ	-10.7755
ܐܬܠܒܒ	-10.7755
ܙܡܘܪ	-10.7757
ܬܬܙܝܥܘ	-10.7758
ܓܐܪ	-10.776
ܐܪܤܛ	-10.7768
ܚܨܘܕ	-10.777
ܐܬܓ	-10.7784
ܛܘܒܝܟ	-10.7786
ܠܚܘ	-10.7793
ܠܡܨܠ	-10.78
ܚܙܩ	-10.7806
ܦܢܛ	-10.7807
ܐܫܬܪܝ	-10.7813
ܬܘܬܒ	-10.7814
ܒܚܪܬ	-10.7817
ܠܬܫܒܘܚܬ	-10.7824
ܘܢܩܛܠܘܢ	-10.7825
ܤܟ	-10.7831
ܛܠܡ	-10.7834
ܕܩܛܠ	-10.7839
ܐܬܕܟܝ	-10.7848
ܚܦܝܛܘܬ	-10.7852
ܫܛܝܘܬ	-10.7854
ܚܡܤܢ	-10.7869
ܢܫܬܩܠ	-10.788
ܢܘܒܕ	-10.7881
ܢܩܝܦ	-10.7899
ܘܓܠ	-10.7899
ܢܩܒܠܘܢ	-10.79
ܕܡܚܒ	-10.79
ܕܫܪ	-10.7902
ܙܟܘܬ	-10.7903
ܕܡܛܠܬܗ	-10.7905
ܒܓܢ	-10.7907
ܨܘ	-10.791
ܐܓܪܗ	-10.7913
ܤܘܦ	-10.7914
ܕܠܥܠ	-10.792
ܡܒܙܚ	-10.7921
ܚܢܩ	-10.7921
ܡܨܥܪ	-10.7925
ܘܪܒܝ	-10.7926
ܬܬܝܬܪ	-10.7934
ܠܐܒܘܟ	-10.7938
ܕܟܝܬ	-10.7945
ܐܪܡܝܬ	-10.7947
ܦܪܛܘ	-10.7949
ܒܪܥܝܢܝ	-10.7951
ܐܬܒܛܠ	-10.7954
ܘܨܠܝ	-10.7958
ܪܘܓܙܗ	-10.7962
ܒܪܥܝܢ	-10.7963
ܤܢܝܢ	-10.797
ܪܕܘ	-10.7975
ܕܒܟܠܗ	-10.7999
ܘܡܬܕܡܪ	-10.8009
ܒܢܘܗܪ	-10.8011
ܪܓܘܢ	-10.8017
ܩܥܬ	-10.803
ܪܥܘܬ	-10.8035
ܨܘܪ	-10.8039
ܬܫܡܫܬ	-10.8039
ܘܢܛܪ	-10.8045
ܘܐܒܝ	-10.8067
ܘܬܠܬ	-10.8093
ܘܡܠܠ	-10.8104
ܠܒܘܫܗ	-10.8114
ܩܕܫ	-10.8117
ܠܡܚ	-10.8153
ܪܒܘܬ	-10.8158
ܒܬܪܥ	-10.816
ܥܪܩܘ	-10.8161
ܡܚܤ	-10.817
ܐܬܦܠܓ	-10.818
ܬܪܝܡ	-10.8182
ܕܒܐܘܪ	-10.8189
ܕܡܠܬ	-10.82
ܕܒܒܤܪ	-10.8207
ܕܫܩܠ	-10.8223
ܕܟܘܪܤܝ	-10.8234
ܐܬܝܕܥ	-10.824
ܕܩܝܡܬ	-10.8242
ܚܤܝܢ	-10.8248
ܘܕܥܘ	-10.8256
ܒܡܤܝܒܪܢܘܬ	-10.826
ܘܒܚܘܒ	-10.8267
ܠܤ	-10.8277
ܦܓ	-10.8288
ܕܢܒܝܘܬ	-10.8308
ܠܫܒܥ	-10.8309
ܤܤ	-10.8312
ܠܐܘܪܚ	-10.8324
ܕܥܬܝܕܝܢ	-10.8332
ܠܡܨܪܝ	-10.8346
ܡܛܝܒܝܢ	-10.835
ܬܚܘܡ	-10.8364
ܒܙܒܢܗ	-10.8368
ܬܝܬܪ	-10.8374
ܕܐܠܘ	-10.8374
ܘܗܒ	-10.8375
ܕܐܬܪ	-10.8376
ܒܪܫ	-10.8385
ܛܫܝ	-10.8391
ܠܝܩܝ	-10.8398
ܠܪܒܝ	-10.8405
ܒܠܥ	-10.8405
ܢܟܤ	-10.8409
ܘܡܠܬܗ	-10.8416
ܒܦܘܩܕܢ	-10.844
ܢܤܝܡ	-10.8456
ܠܡܠܦ	-10.8467
ܕܓܠܘܬ	-10.8477
ܥܡܘܪ	-10.8558
ܡܘܠܝ	-10.857
ܥܡܕܬ	-10.8588
ܘܝܕܥܝܢ	-10.8588
ܬܘܠܬ	-10.8596
ܒܠܚܘܕܝܗ	-10.8605
ܛܝܐ	-10.8621
ܬܩܕܫ	-10.8658
ܕܠܐܢܫ	-10.8672
ܘܐܫܬ	-10.8696
ܤܬܘ	-10.8703
ܡܪܝܪ	-10.8709
ܐܤܬܟܠ	-10.8713
ܫܩܠܬ	-10.8715
ܫܒܚܘ	-10.8721
ܬܡܠܠ	-10.8739
ܛܪܘ	-10.8754
ܢܒܝܘܬ	-10.8755
ܘܠܡܕܝܢܬ	-10.8757
ܕܐܤܝܪ	-10.8763
ܒܕܪ	-10.8776
ܢܦܩܘܢ	-10.879
ܘܢܦܩܬ	-10.8792
ܒܥܡܐ	-10.8792
ܕܥܟ	-10.8804
ܦܪܤ	-10.8842
ܡܥܗܕ	-10.8892
ܚܦܝܛ	-10.8893
ܢܤܝܘܢ	-10.8894
ܐܫܬܒܗܪ	-10.89
ܪܚ	-10.8906
ܫܛܝ	-10.8908
ܒܪܚܡ	-10.892
ܤܛܪ	-10.8938
ܚܤܝܪܝ	-10.8949
ܡܥܤܪ	-10.8957
ܘܒܗܕ	-10.8966
ܡܟܝܟܘܬ	-10.8976
ܢܬܟ	-10.8984
ܩܛܪܓ	-10.8985
ܓܝܤ	-10.8986
ܙܝܙ	-10.8987
ܘܗܝܡܢܘ	-10.8989
ܦܘܡܝ	-10.8996
ܫܝܦܘܪ	-10.9003
ܪܕܘܦܝ	-10.9003
ܦܘܪܥܢ	-10.9003
ܡܬܟܬܫ	-10.9003
ܟܘܪܤܘܬ	-10.9003
ܐܙܕܪܥ	-10.9004
ܡܬܬܙܝܥ	-10.9004
ܬܐܓܘܪܬ	-10.9004
ܐܨܛܒܝ	-10.9004
ܡܫܬܢܩ	-10.9009
ܦܪܝܤ	-10.9012
ܘܗܠܟ	-10.9014
ܝܚܝܕܝ	-10.9015
ܬܫܒܩܘܢ	-10.9015
ܡܫܬܒܩ	-10.9026
ܕܡܫ	-10.9034
ܝܪܝܢ	-10.9036
ܘܫܘܠܛܢ	-10.9039
ܕܢܩܝܡ	-10.9042
ܠܢܤܝܘܢ	-10.9057
ܘܒܥܝ	-10.9063
ܕܐܫܬܕܪ	-10.9078
ܦܛܪ	-10.9079
ܒܟܘܪܗܢ	-10.9081
ܘܐܘܚܕ	-10.9091
ܩܒܠܢ	-10.9093
ܡܬܩܪܒܝܢ	-10.9094
ܬܫܟܚܘܢ	-10.9095
ܘܩܪ	-10.9097
ܒܥܪܤ	-10.9101
ܘܡܫܡܫ	-10.9101
ܪܥܡ	-10.9118
ܬܓܘܪ	-10.912
ܚܕܥܤܪ	-10.9121
ܚܒܫ	-10.9127
ܦܓܪܟ	-10.9127
ܕܐܤܝܡ	-10.9142
ܬܩܝܡ	-10.9143
ܬܕܟܝܬ	-10.9144
ܘܡܨܠܝܢ	-10.9161
ܒܩܝܡܬ	-10.9162
ܬܓܪ	-10.9171
ܡܫܬܘܬ	-10.9173
ܡܫܠܡܢܘܬ	-10.9174
ܫܘܛ	-10.9181
ܐܬܢܒܝ	-10.9185
ܠܨܠܡ	-10.9199
ܠܒܥܠ	-10.9199
ܢܓܕܘܢ	-10.9201
ܬܚܘܝܬ	-10.9209
ܘܡܠܦܝܢ	-10.9215
ܕܚܝܒ	-10.9215
ܥܝܪܝܢ	-10.922
ܩܢܘܡ	-10.9223
ܥܘܝܪ	-10.9223
ܡܠܬܟ	-10.9236
ܨܘܡ	-10.9241
ܬܟܝܠܝܢ	-10.9241
ܕܪܘܓܙ	-10.9242
ܚܫܚܬ	-10.9251
ܒܦܠ	-10.9254
ܕܝܩܕ	-10.9254
ܩܒܠܬ	-10.9256
ܫܘܪ	-10.9263
ܤܘܤܝ	-10.9267
ܐܬܚܝܠ	-10.927
ܫܚܩ	-10.9278
ܐܪܡܝܘ	-10.9282
ܕܐܬܬ	-10.9284
ܕܥܒܝܕ	-10.9294
ܕܓܕ	-10.9319
ܫܒܝ	-10.9328
ܬܥܒܪ	-10.9341
ܘܐܬܕܟܪ	-10.9351
ܒܘܩܝ	-10.9353
ܘܦܠܚ	-10.9355
ܡܬܕܒܪ	-10.9359
ܕܐܒܗܬ	-10.9362
ܬܒܕܪܘ	-10.9363
ܘܤܛܪ	-10.9382
ܓܠܝܢ	-10.9391
ܚܫܒ	-10.94
ܘܩܘܝ	-10.9412
ܠܥܝܢ	-10.9418
ܕܙܕܩ	-10.9426
ܠܓܒܝ	-10.9454
ܕܩܪܒ	-10.9458
ܓܫܘ	-10.9475
ܥܒܪܝ	-10.9482
ܢܬܒ	-10.9492
ܠܡܕܒܚ	-10.9505
ܢܩܫ	-10.9513
ܡܨܠܝܢ	-10.9519
ܕܥܒܕܬ	-10.9521
ܢܗܝܡܢ	-10.9529
ܡܬܝܕܥ	-10.953
ܘܫܢܝ	-10.9535
ܘܪܝܗ	-10.9536
ܡܫܬܪ	-10.9538
ܠܡܚܤ	-10.9544
ܤܒܥܘ	-10.9545
ܙܠܝ	-10.9571
ܕܡܨܪܝ	-10.9578
ܐܬܚܫܒ	-10.9579
ܕܡܫܠܡ	-10.9579
ܬܒܥܬ	-10.958
ܕܩܒܠ	-10.9589
ܓܘܫܡ	-10.9594
ܕܐܤܝ	-10.96
ܛܠܝܘܬ	-10.9603
ܡܘܬܪ	-10.9605
ܩܪܛ	-10.9605
ܘܦܪܫ	-10.9609
ܠܓܠܝܢ	-10.9611
ܨܦܬ	-10.9614
ܢܬܩܪܒ	-10.9614
ܕܐܫܠܡ	-10.9621
ܒܝܘܡܬܗ	-10.9632
ܕܟܢܫ	-10.9651
ܘܢܦܠܘ	-10.9653
ܘܙܕܝܩ	-10.9659
ܩܛ	-10.9679
ܘܡܗܝܡܢ	-10.9691
ܐܘܒܕ	-10.9723
ܕܩܝܡ	-10.9731
ܘܛܝܒܘܬ	-10.9738
ܨܠܝ	-10.9741
ܢܚܒ	-10.9747
ܥܩ	-10.9755
ܕܡܨ	-10.9767
ܓܘܪ	-10.9771
ܚܬܗ	-10.9793
ܬܘܠܬܗ	-10.9815
ܕܓܢ	-10.9818
ܕܕܝܠܗ	-10.9821
ܠܫܐ	-10.9824
ܘܫܒܥ	-10.983
ܠܫܝ	-10.9837
ܕܩܝ	-10.9869
ܕܦܪ	-10.987
ܥܝܝ	-10.9875
ܡܤܝܒܪ	-10.9879
ܠܗܝܡܢܘܬ	-10.9882
ܡܕܟ	-10.9886
ܐܠܗܟ	-10.9889
ܘܚܘܝ	-10.9916
ܠܩܕܡܝ	-10.9921
ܕܝܠܝܕ	-10.993
ܘܦܬܚ	-10.9943
ܕܒܝܗܘܕ	-10.9984
ܕܬܐܡܪ	-10.9988
ܩܘܝ	-11.0012
ܘܐܚܕܘ	-11.0018
ܕܦܘܩܕܢ	-11.0044
ܕܡܪܗ	-11.005
ܐܬܒܪܝ	-11.0053
ܬܟܠܘܢ	-11.0087
ܕܟܘ	-11.009
ܢܚܬܬ	-11.0115
ܕܪܓ	-11.0128
ܡܤܠܝ	-11.0137
ܚܟܡ	-11.0146
ܕܟܝ	-11.0154
ܕܝܩܝ	-11.016
ܚܫܚ	-11.0177
ܡܪܚ	-11.0186
ܤܬܡܟܘ	-11.0186
ܨܒܥ	-11.0195
ܕܡܛܝ	-11.0206
ܬܪܚܡ	-11.0216
ܕܕܝܘ	-11.0241
ܒܫܘܠܛܢ	-11.025
ܥܤܒ	-11.0263
ܫܘܩ	-11.0274
ܒܥܠܕܒܒܝܟ	-11.028
ܕܩܫܝܫ	-11.0289
ܝܘܢܝ	-11.0289
ܬܡܝܗ	-11.0291
ܕܦܠܚ	-11.0318
ܒܤܝܡܘܬ	-11.0327
ܒܕܩ	-11.0328
ܪܥܝܢܟ	-11.0338
ܕܙܢܝ	-11.0345
ܫܚܢ	-11.0348
ܡܫܪܪ	-11.0368
ܥܘܪ	-11.039
ܠܦܘܢ	-11.041
ܕܓܒ	-11.0418
ܘܡܤܗܕ	-11.0419
ܠܡܪ	-11.0428
ܛܥܘ	-11.0428
ܢܙܕܕܩ	-11.0432
ܡܤܪܗܒ	-11.0432
ܢܫܬܟܚ	-11.0432
ܙܪܘܥ	-11.0432
ܡܫܝܓ	-11.0432
ܚܘܫܒܢ	-11.0432
ܒܡܕܥܝ	-11.0432
ܡܨܒܬ	-11.0433
ܚܒܘܫܝ	-11.0433
ܙܘܓ	-11.0433
ܡܫܬܡܥܢܘܬ	-11.0433
ܬܫܢܝܩ	-11.0434
ܒܩܢܘܡܗ	-11.0434
ܡܓܠܬ	-11.0435
ܫܬܝܩ	-11.0436
ܦܓܥ	-11.0436
ܤܦܝܪ	-11.0436
ܕܪܟܫ	-11.0438
ܚܘܛܪ	-11.0438
ܡܙܕܪܥ	-11.0441
ܒܐܕܢܝ	-11.0442
ܡܪܚܡܢ	-11.0447
ܠܢܝܚܬ	-11.0454
ܕܢܫܬܒܚ	-11.0456
ܡܪܥܝܬ	-11.0461
ܩܫܝܘܬ	-11.0463
ܢܛܥܡ	-11.0465
ܕܢܤܩ	-11.0465
ܬܐܙܠ	-11.0466
ܘܐܘܒܠ	-11.0468
ܠܒܤܬܪܗ	-11.0469
ܐܤܛܕܘ	-11.0472
ܟܪܘܙܘܬ	-11.0474
ܐܬܦܢܝ	-11.0483
ܙܘܝܬ	-11.0485
ܘܢܫܠܡܘܢ	-11.0497
ܡܘܡܬ	-11.0508
ܘܢܬܠ	-11.0512
ܐܪܒܥܬ	-11.0524
ܩܤܛ	-11.0526
ܡܪܕܘܬ	-11.0528
ܩܘܦܪ	-11.0534
ܝܠܦܬܘܢ	-11.0545
ܓܠܝܬ	-11.0545
ܒܐܤܝ	-11.0548
ܚܒܨ	-11.0559
ܤܢܝܩܝܢ	-11.0572
ܕܗܝܡܢܬ	-11.0577
ܐܚܝܬܟ	-11.0593
ܦܘܠܓ	-11.0593
ܕܒܚܕ	-11.0599
ܘܬܡܝܗ	-11.0599
ܪܘܫܡ	-11.0605
ܟܘܬܝ	-11.0605
ܘܚܛܝ	-11.0609
ܒܡܟܝܟܘܬ	-11.0629
ܡܬܦܠܓ	-11.0631
ܕܒܝܚ	-11.0632
ܐܫܬܘܕܝ	-11.0635
ܡܬܚܦܛ	-11.0636
ܝܕܝܥܝܢ	-11.0644
ܕܬܫ	-11.0647
ܕܡܝܗ	-11.0651
ܐܫܬܥܒܕ	-11.0653
ܩܠܝܕ	-11.0656
ܘܟܢܫܘ	-11.0664
ܬܥܡܕܘ	-11.0666
ܢܛܝܪ	-11.0668
ܓܘܓ	-11.067
ܐܫܬܥ	-11.0675
ܕܡܚܒܝܢ	-11.0677
ܒܩܪܝܬ	-11.0684
ܦܢܝ	-11.069
ܐܟܘܬܗ	-11.0692
ܪܕܦܝܢ	-11.0697
ܬܐܠܕ	-11.0698
ܡܥܕܪ	-11.0701
ܩܘܕ	-11.0702
ܐܫܬܡܥ	-11.0718
ܕܬܬܠ	-11.0724
ܒܕܡܥ	-11.0726
ܡܩܘܝܢ	-11.0726
ܘܚܙܬ	-11.0729
ܘܬܒܥ	-11.0747
ܨܠܝܒ	-11.0776
ܕܦܪܚ	-11.0786
ܒܡܥܡܘܕܝܬ	-11.0788
ܒܐܤܟ	-11.0788
ܘܐܬܦܬܚ	-11.079
ܐܬܕܡܪ	-11.0794
ܬܫܡܫܬܗ	-11.0808
ܢܠܦ	-11.0809
ܕܡܚܐ	-11.0815
ܐܝܛܠܝ	-11.0838
ܫܬܩܠ	-11.0844
ܟܘܪ	-11.0847
ܪܚܡܬ	-11.0848
ܘܬܡܗ	-11.0852
ܚܕܝܘ	-11.0858
ܕܪܫܝ	-11.0864
ܕܐܫܟܚܬ	-11.0871
ܘܨܐ	-11.0872
ܠܥܕ	-11.088
ܒܠܥܕ	-11.0891
ܡܚܘܢ	-11.0895
ܕܢܫܟܚ	-11.0895
ܘܥܐܠ	-11.0902
ܕܤܡܝ	-11.0918
ܕܟܤܦ	-11.0929
ܘܩܪܘ	-11.0946
ܐܚܘܝܟ	-11.0963
ܡܫܬܒܗܪ	-11.0965
ܐܤܬܠ	-11.097
ܕܫܡܫ	-11.0976
ܕܢܩܪܒ	-11.098
ܬܗܦܟ	-11.0981
ܦܤܘܩ	-11.099
ܠܐܘܪܥ	-11.0995
ܕܟܬܒܬ	-11.1006
ܘܡܫܚ	-11.1007
ܠܟܐܢܘܬ	-11.1021
ܗܦܟܬ	-11.1031
ܕܡܩܘ	-11.1036
ܪܩܘܤ	-11.1046
ܕܫܐܠܝܢ	-11.1051
ܝܠܕܬ	-11.1053
ܩܘܘ	-11.1056
ܡܦܪܫ	-11.1064
ܠܩܛ	-11.1096
ܐܬܗܝܡܢ	-11.1106
ܠܬܫܡܫܬ	-11.1109
ܒܪܬܝ	-11.1129
ܠܩܘܪܝ	-11.114
ܡܟܤܝ	-11.1146
ܓܪܡ	-11.1152
ܕܢܩܘܡ	-11.1162
ܘܡܤܟܢ	-11.1174
ܒܡܘܠܟܢ	-11.1186
ܬܤܒ	-11.12
ܘܡܚܝܢ	-11.1201
ܡܬܢܛܪ	-11.1206
ܠܡܤܒܪ	-11.1235
ܕܐܝܤ	-11.1237
ܢܬܝܕܥ	-11.1242
ܘܐܬܕܡܪ	-11.1284
ܙܢܝܘܬܗ	-11.1288
ܢܫܬܘ	-11.1299
ܤܕܘ	-11.1304
ܬܐܟܠܘ	-11.1304
ܢܫܒܚ	-11.1304
ܘܚܕܘܬ	-11.1317
ܘܫܡܫ	-11.1317
ܬܕܡܪܘ	-11.1329
ܬܩܪ	-11.134
ܘܚܡܬ	-11.1351
ܕܚܕܘܬ	-11.1354
ܦܠܓܘ	-11.1362
ܡܬܝܬܪ	-11.1389
ܘܕܪ	-11.139
ܒܡܕܝܢܬܗ	-11.1474
ܘܕܒܚ	-11.1484
ܐܬܟܬܒ	-11.1488
ܕܐܤܬ	-11.149
ܒܨܘ	-11.1494
ܡܛܥ	-11.1507
ܡܤܬܟܠ	-11.1515
ܫܢܝܗ	-11.1517
ܙܕܝܩ	-11.1537
ܬܫܐܠܘܢ	-11.1538
ܕܛܥ	-11.1541
ܢܓܢ	-11.1549
ܠܡܫܐܠ	-11.1553
ܕܚܟܝܡ	-11.1583
ܬܛܦܝܤܘ	-11.1583
ܕܒܪܟ	-11.1603
ܐܚܙܝܟ	-11.1629
ܒܚܠܡ	-11.1629
ܕܡܫܡܫ	-11.1632
ܐܚܒ	-11.1647
ܝܬܪ	-11.165
ܡܐܤ	-11.1662
ܘܡܤܟ	-11.167
ܢܤܝܒܪ	-11.168
ܕܡܬܚܙ	-11.1702
ܬܩܒܠ	-11.1703
ܩܘܪ	-11.1707
ܩܪܢܬ	-11.1709
ܨܠܡ	-11.1719
ܘܬܫܡܫܬ	-11.1741
ܠܟܐܢܘ	-11.175
ܡܨܚ	-11.1762
ܐܤܟܡ	-11.1775
ܤܘܛ	-11.1792
ܝܠܝܕ	-11.1793
ܢܫܬܪ	-11.1812
ܘܫܘܪ	-11.1814
ܙܩ	-11.1827
ܕܡܨܠ	-11.1833
ܘܒܫ	-11.185
ܡܥܪ	-11.1859
ܘܡܫܘ	-11.1863
ܐܤܬܒܪ	-11.1867
ܟܝܤ	-11.1881
ܕܡܟܪܙ	-11.1889
ܕܥܝܢ	-11.1893
ܐܕܪܟ	-11.1896
ܡܦܢ	-11.1922
ܡܟܟ	-11.1929
ܕܢܫܩ	-11.1945
ܒܐܬܘ	-11.1949
ܒܐܤܘܪ	-11.1982
ܕܐܫܟܚ	-11.1994
ܐܫܬܕܪ	-11.2
ܬܫܟܚ	-11.2001
ܐܡܝܪ	-11.2002
ܪܗܘܡ	-11.2024
ܫܬܐܤ	-11.2057
ܠܡܐܤܝܘ	-11.2092
ܠܕܘܟܪܢ	-11.2099
ܐܤܛܘܟܤ	-11.2099
ܦܫܝܛܐ	-11.2099
ܦܘܪܫܢ	-11.2099
ܒܛܘܫܝ	-11.2099
ܥܛܝܦ	-11.2099
ܠܡܘܒܕܘ	-11.2099
ܓܚܟ	-11.2099
ܤܚܦ	-11.2099
ܛܘܦܤ	-11.2099
ܡܫܬܒܚ	-11.21
ܡܫܬܘܕܥ	-11.21
ܙܗܝܪ	-11.21
ܛܘܦܢ	-11.21
ܐܟܐܝ	-11.2101
ܚܫܝܒ	-11.2101
ܡܓܥܠ	-11.2101
ܥܒܘܕ	-11.2101
ܩܘܦܝ	-11.2102
ܬܚܦܝ	-11.2102
ܘܫܥ	-11.2103
ܬܓܕܦ	-11.2104
ܕܬܚܒ	-11.2104
ܥܪܘܒ	-11.2107
ܫܟܒ	-11.2108
ܤܬܪܩ	-11.2108
ܐܤܛܪܛ	-11.211
ܪܡܙ	-11.211
ܥܦܪ	-11.211
ܕܐܬܦܩܕ	-11.2112
ܘܦܛ	-11.2113
ܩܨܝ	-11.2113
ܐܫܬܒܚ	-11.2115
ܚܨܝܟ	-11.2117
ܗܪܛ	-11.212
ܬܚܠܡ	-11.212
ܡܥܪܒ	-11.2121
ܢܤܬܟܠܘܢ	-11.2121
ܕܩܒܠܘ	-11.2125
ܐܪܛܡ	-11.2128
ܚܬܝܪ	-11.2128
ܐܬܐܤܝ	-11.2128
ܒܙܩ	-11.2129
ܙܗܪ	-11.2134
ܕܐܙܕܩܦ	-11.2135
ܥܘܦ	-11.2137
ܚܓܝܪ	-11.2142
ܕܐܬܡܠܠ	-11.2147
ܘܚܕܪ	-11.2153
ܩܝܬܪ	-11.2164
ܕܢܐܚܕܘܢ	-11.2164
ܘܐܤܩ	-11.2164
ܕܡܚܝܠ	-11.2166
ܐܤܛܠ	-11.2167
ܕܢܕܘܢ	-11.2168
ܒܝܗܘܕ	-11.2188
ܕܡܛܫܝ	-11.2195
ܡܬܕܒܪܝܢ	-11.2196
ܠܡܩܒܠܘ	-11.2199
ܕܐܡܝܪ	-11.2201
ܡܬܕܟܪ	-11.2202
ܩܠܝ	-11.2206
ܝܫܝ	-11.2209
ܕܢܫܕܪ	-11.2215
ܕܢܫܐܠܘܢ	-11.2215
ܤܦܘܬ	-11.2215
ܡܬܬܩܠ	-11.2218
ܝܠܦܬ	-11.2221
ܒܘܪܟܝ	-11.223
ܠܪܓܝܓܬ	-11.2237
ܕܐܟܐܝ	-11.2238
ܢܟܪܙ	-11.2251
ܠܫܘܩ	-11.2254
ܒܢܤܝܘܢ	-11.2255
ܘܟܪܟ	-11.2258
ܡܠܟܝܗ	-11.2259
ܕܩܨܝ	-11.2265
ܡܒܕܪ	-11.227
ܕܠܩܘܒܠ	-11.2274
ܫܩܝܠܝܢ	-11.2277
ܒܬܝܗ	-11.2279
ܕܢܨܒ	-11.2284
ܦܪܕ	-11.2292
ܢܫܬܡܥ	-11.2292
ܕܢܥܠܘܢ	-11.2294
ܐܬܚܫܚ	-11.23
ܒܬܘܕܝܬ	-11.2315
ܕܝܗܝܒ	-11.2319
ܘܢܫܩ	-11.232
ܥܘܗܕܢ	-11.2322
ܐܬܬܓܪ	-11.2324
ܬܪܓܡ	-11.2327
ܪܕܝܤ	-11.2329
ܩܛܠܬ	-11.2333
ܕܡܥܕ	-11.2335
ܡܚܘܝܢ	-11.2337
ܘܡܐܤ	-11.2338
ܕܝܫ	-11.2339
ܕܡܬܚܒܠ	-11.234
ܡܦܤܝܢ	-11.2364
ܓܠܝܘܬ	-11.2378
ܕܒܟܝܢ	-11.2386
ܗܕܡܝܟ	-11.2389
ܒܟܪܤ	-11.2404
ܦܪܗ	-11.2404
ܬܬܠ	-11.2415
ܒܠܒܟ	-11.2427
ܒܦܠܓ	-11.2444
ܠܟܪܤ	-11.2444
ܠܦܠܚ	-11.2449
ܠܤܒܪܬ	-11.2455
ܘܐܬܚܫܒ	-11.2456
ܕܐܝܬܝܟ	-11.2462
ܠܒܥܠܝ	-11.2498
ܬܢܤ	-11.2498
ܘܪܓܡ	-11.25
ܕܐܚܝܕܝܢ	-11.2515
ܘܦܪܘܩ	-11.2519
ܕܚܒܠ	-11.252
ܚܕܪܘܗ	-11.2524
ܢܫܬܐ	-11.2524
ܘܡܤܝܒܪܢܘܬ	-11.2532
ܕܢܥܒܪ	-11.2532
ܫܬܩܘ	-11.2536
ܠܛܪ	-11.2537
ܬܒܝܐܘ	-11.2543
ܩܒܘ	-11.2547
ܒܤܝܡܘܬܗ	-11.2552
ܫܬܩ	-11.2553
ܐܕܢܗ	-11.2555
ܬܚܒܠ	-11.2578
ܐܬܐܤܝܬ	-11.2586
ܢܬܚܙ	-11.2596
ܩܘܪܝܢ	-11.2602
ܕܠܒܢܝܢ	-11.2604
ܕܙܩܝܦ	-11.2604
ܕܫܦܪ	-11.2617
ܒܓܙܘܪܬ	-11.262
ܩܕܝܫܘܬ	-11.2623
ܪܘܚܢܝ	-11.2625
ܩܫܝ	-11.2626
ܘܫܕ	-11.2631
ܘܬܚܙܘܢ	-11.2634
ܕܐܫܬ	-11.2635
ܠܢܦܫܟ	-11.2638
ܢܫܝܟ	-11.2652
ܘܬܫܬ	-11.2656
ܘܒܝܘܠܦܢ	-11.2669
ܕܐܬܟܢ	-11.2669
ܬܦܩ	-11.2675
ܛܘܗܡܗ	-11.268
ܪܬܝܬ	-11.2684
ܛܘܠ	-11.2686
ܐܩܝܡܟ	-11.2686
ܕܡܘܪ	-11.2689
ܢܟܤܬ	-11.2691
ܪܥܝܢܝ	-11.2703
ܒܤܒܪܬ	-11.2709
ܕܐܘܪ	-11.2713
ܠܚܪ	-11.2723
ܠܡܠܟ	-11.2744
ܟܢܘܫ	-11.275
ܠܐܝܤ	-11.2757
ܠܓܐ	-11.2763
ܒܪܓܝܓܬ	-11.2781
ܒܩܛ	-11.2814
ܦܘܡܟ	-11.2848
ܠܩܝܡܬ	-11.2851
ܘܦܠ	-11.2854
ܫܬܥܒܕܘ	-11.287
ܟܘܡܪܘܬ	-11.2877
ܒܬܐܪܬ	-11.2877
ܢܬܦܢ	-11.2881
ܕܚܩ	-11.2933
ܥܪܩܬ	-11.2933
ܕܒܚܝ	-11.2944
ܕܢܕܒܪ	-11.2953
ܪܚܝ	-11.2972
ܟܪܟ	-11.2998
ܢܓܕܗ	-11.2999
ܕܫܕܪܬ	-11.3
ܕܡܘܗܒܬ	-11.3001
ܝܬܝܪܘܬ	-11.305
ܕܐܡܗ	-11.3055
ܬܛܥܡ	-11.3088
ܝܘܩܪ	-11.3088
ܠܫܘܒܚ	-11.3101
ܡܥܩܡ	-11.3109
ܗܘܦܟܝ	-11.3114
ܡܬܩܪܝ	-11.312
ܕܬܫܐܠ	-11.3137
ܥܛܠ	-11.3179
ܬܒܩܘ	-11.3185
ܬܓܢ	-11.3191
ܐܬܩܛܠ	-11.3213
ܕܢܫܐܠ	-11.3218
ܬܩܛܠܘ	-11.3232
ܒܒܥܠ	-11.3245
ܘܚܡ	-11.3254
ܬܬܩܪ	-11.3265
ܘܩܡܬ	-11.3333
ܕܚܕܪܝ	-11.3335
ܡܫܬܘܬܦ	-11.3385
ܫܒܝܠ	-11.3389
ܡܟܬܪ	-11.3407
ܕܚܕܪܝܗ	-11.3418
ܡܨܥ	-11.3502
ܡܬܚܪ	-11.3508
ܦܪܓ	-11.352
ܢܤܐ	-11.353
ܐܬܬܢܝܚ	-11.3553
ܢܘܒܕܝ	-11.3565
ܙܕܒܢ	-11.3578
ܙܘܪ	-11.3582
ܐܫܬܘ	-11.3587
ܪܘܝܘ	-11.3616
ܢܗܝܪ	-11.3629
ܘܓܪ	-11.3655
ܒܐܓܪܬ	-11.3683
ܩܛܠܝ	-11.3688
ܕܙܕܝܩ	-11.3689
ܒܥܢ	-11.3697
ܒܚܫ	-11.3704
ܠܦܝܠ	-11.3708
ܘܡܬܩܪ	-11.3718
ܨܚ	-11.3723
ܕܐܬܐܤܝ	-11.3748
ܤܒܠ	-11.375
ܐܬܬܤܝܡ	-11.3775
ܒܢܬ	-11.3812
ܕܢܬܚܙ	-11.3848
ܢܡܝܬܘܢ	-11.3851
ܒܤܒܪ	-11.3855
ܬܠܡܕ	-11.3881
ܠܙܢܝ	-11.3903
ܬܥܤܪ	-11.3922
ܒܩܪ	-11.3934
ܚܦܛ	-11.3979
ܘܪܤ	-11.3982
ܫܐܠܬ	-11.3988
ܬܓܙܪ	-11.4009
ܐܫܬܥܝ	-11.4032
ܒܤܬܪܗ	-11.4045
ܬܛܝܒ	-11.4046
ܡܩ	-11.405
ܚܕܪܝ	-11.4071
ܥܛ	-11.4079
ܐܚܒܢ	-11.4084
ܐܨܛܪܝ	-11.4099
ܦܪܘܓܝ	-11.4099
ܓܡܘܪ	-11.4099
ܘܐܫܬܓܫ	-11.4099
ܬܦܫܚ	-11.4099
ܛܠܢܝܬ	-11.41
ܬܥܛܦ	-11.41
ܡܬܛܦܝܤܢܘܬ	-11.4102
ܐܬܟܤܝ	-11.4102
ܙܩܘܦ	-11.4103
ܬܪܓܪܓܘ	-11.4104
ܟܪܤܛܝ	-11.4107
ܡܫܠܛ	-11.4113
ܢܬܟܫܠ	-11.4113
ܪܘܙ	-11.4114
ܪܩܕܬ	-11.4116
ܪܒܝܥܝ	-11.4118
ܐܢܢܩ	-11.412
ܦܪܘܫ	-11.4123
ܢܩܒܬ	-11.4125
ܥܘܩܤ	-11.4126
ܬܬܕܡܪ	-11.4127
ܕܢܩܛܘܠ	-11.4129
ܚܓܝܤ	-11.4135
ܢܓܗ	-11.4136
ܡܥܒܕܢ	-11.4136
ܬܬܒܥ	-11.4137
ܐܫܬܘܕܥܘ	-11.4141
ܠܡܦܕܝ	-11.4148
ܐܤܦܪܝܕ	-11.4149
ܚܡܝܡ	-11.4153
ܪܚܒ	-11.4158
ܒܫܝܘ	-11.416
ܡܫܓ	-11.4161
ܢܙܩܦܘܢ	-11.4165
ܕܢܦܪܩ	-11.4166
ܢܐܪܬ	-11.417
ܬܩܢܘ	-11.4171
ܕܐܪܝܘ	-11.4172
ܒܨܘܪ	-11.4175
ܬܐܚܕܘܢ	-11.4181
ܢܓܕܦ	-11.4189
ܐܦܦܪ	-11.4192
ܡܬܙܝܥ	-11.4198
ܒܚܤܝܪܘܬ	-11.4202
ܕܘܒܪܝ	-11.4208
ܡܬܝܠܕ	-11.4211
ܕܢܐܟܠ	-11.4222
ܕܢܝܬܘܢ	-11.4231
ܒܚܨ	-11.4231
ܡܙܓ	-11.4232
ܕܡܬܟܢܫ	-11.4232
ܕܝܠܕܬ	-11.4247
ܕܬܬܡܠ	-11.4257
ܤܢܝܩܘܬ	-11.4257
ܠܠܘܝ	-11.426
ܠܫܘܒܩܢ	-11.4266
ܡܦܝܤܝܢ	-11.427
ܕܐܫܬܒܗܪ	-11.4272
ܘܪܘܙ	-11.4273
ܡܬܢܤ	-11.4278
ܕܢܒܥ	-11.4289
ܕܟܐܢ	-11.429
ܕܨܘܪ	-11.4294
ܕܢܩܒܠܘܢ	-11.4295
ܕܛܠܡ	-11.4296
ܘܐܤܗܕ	-11.4302
ܐܬܐܠܨ	-11.4302
ܘܡܙܒܢ	-11.4307
ܤܘܟܠ	-11.4313
ܘܐܩܦ	-11.4343
ܢܬܩܛܠ	-11.4351
ܢܟܤܝ	-11.4357
ܠܥܢܝ	-11.4358
ܬܚܛ	-11.4365
ܕܡܘܒܠ	-11.4367
ܬܘܠܡ	-11.4391
ܘܐܫܬܘܕܥܘ	-11.4397
ܢܘܕܥ	-11.4397
ܕܡܛܐ	-11.4429
ܐܫܬܟܚܬ	-11.4434
ܠܡܕܟܝܘ	-11.4435
ܕܐܟܪܙ	-11.4447
ܐܬܩܒܪ	-11.4464
ܒܫܢܬ	-11.4471
ܢܩܪܒܘܢ	-11.4479
ܕܡܤܝܒ	-11.4481
ܘܫܕܝܗ	-11.4497
ܒܒܥܘܬ	-11.4508
ܒܩܪܝܢ	-11.451
ܬܘܬܪ	-11.4514
ܬܤܗܕ	-11.4525
ܦܬܝ	-11.453
ܟܬܪ	-11.4541
ܕܡܫܬܡ	-11.4542
ܘܐܤܬܡܟ	-11.4586
ܘܕܐܪܒܥ	-11.4593
ܤܟܠܘܬܗ	-11.4598
ܡܬܩ	-11.4606
ܐܬܕܟ	-11.4634
ܚܝܒܘܬ	-11.4655
ܒܡܩܕ	-11.4666
ܙܘܙ	-11.469
ܡܙܕܒܢ	-11.4696
ܢܬܦܬܚ	-11.4707
ܢܠܒܫ	-11.4733
ܛܘܟ	-11.4737
ܨܪܝܢ	-11.4741
ܐܬܛܦܝܤ	-11.4751
ܕܐܚܒܢ	-11.4755
ܘܠܡܫܪ	-11.4807
ܡܬܟܢܫ	-11.4811
ܕܡܐܬ	-11.4818
ܒܥܘܪܠܘܬ	-11.4878
ܢܪܓ	-11.4925
ܡܬܢܒܝܢ	-11.4929
ܘܩܦ	-11.4933
ܒܐܤܛ	-11.4964
ܤܝܢܝ	-11.4974
ܡܥܠܢ	-11.4979
ܒܢܝܟܝ	-11.4981
ܒܩܕܝܫܘ	-11.4983
ܕܦܠܓ	-11.499
ܕܐܫܠܡܬ	-11.5005
ܒܡܘܗܒܬ	-11.503
ܘܐܟܠܬ	-11.5067
ܠܢܦܫܬ	-11.5113
ܠܐܚܝܟ	-11.513
ܒܪܝܫ	-11.519
ܘܡܥܩ	-11.525
ܦܫ	-11.5254
ܬܪܗܒ	-11.5268
ܢܝܩܪ	-11.5277
ܠܬܚܘ	-11.5287
ܒܥܘܬ	-11.5307
ܘܒܚܝ	-11.5349
ܢܥܒܪܢ	-11.5398
ܠܡܟܝܟ	-11.5429
ܠܡܚܙܝ	-11.5479
ܥܪܦ	-11.5493
ܘܐܚܬ	-11.5561
ܬܠܘ	-11.5565
ܠܡܒܥ	-11.559
ܠܤܦܪ	-11.559
ܢܬܡܠ	-11.5607
ܤܟܠܬ	-11.5657
ܡܬܟܫܠ	-11.5683
ܘܡܦ	-11.5706
ܤܠܘܢ	-11.5907
ܕܢܪܕ	-11.5963
ܬܩܫ	-11.5967
ܕܢܪܡ	-11.597
ܠܟܪܡ	-11.597
ܒܡܚܙ	-11.6002
ܫܒܘܩܝ	-11.6034
ܬܬܚܝܒ	-11.6129
ܐܫܬܘܕܥ	-11.6177
ܟܢܘܬܗ	-11.6251
ܓܢܬ	-11.6303
ܬܦܠܓ	-11.6325
ܢܩܛܠܘܢ	-11.6344
ܡܬܪ	-11.635
ܐܬܓܡܪ	-11.6359
ܬܚܦܛ	-11.6382
ܬܬܩܠ	-11.6441
ܬܩܦ	-11.6464
ܓܢܤ	-11.6491
ܡܬܐܤܝ	-11.6499
ܪܪܟ	-11.6519
ܢܐܚܕܘܢ	-11.6537
ܐܘܡܢܘܬܗ	-11.6539
ܟܪܘܙ	-11.6542
ܬܗܝܪ	-11.6564
ܚܒܬ	-11.6566
ܫܦܝ	-11.6581
ܐܝܙܓܕ	-11.6599
ܕܙܪܝܥ	-11.6599
ܬܟܫܦ	-11.6599
ܓܪܝܨ	-11.6599
ܡܫܬܟܚ	-11.6599
ܦܫܝܓ	-11.6599
ܡܬܪܓܪܓ	-11.6599
ܕܦܩܝܕ	-11.6599
ܬܬܥܝܩ	-11.6599
ܩܐܪܤ	-11.6599
ܩܦܚܝܢ	-11.6599
ܩܛܓܪܢ	-11.6599
ܠܓܝܘܢ	-11.6599
ܛܝܡܝ	-11.6599
ܒܛܟܤ	-11.66
ܕܐܤܠܝܘ	-11.66
ܡܬܐܠܨܝܢ	-11.66
ܢܬܬܤܝܡ	-11.66
ܡܬܬܢܝܚ	-11.66
ܙܕܘܓ	-11.66
ܟܘܠܬܢ	-11.6601
ܦܠܝܓ	-11.6601
ܐܬܟܪܗ	-11.6602
ܫܡܘܥ	-11.6603
ܡܪܥܬ	-11.6603
ܕܢܬܩܢ	-11.6606
ܬܪܘܨ	-11.6606
ܬܚܠܛ	-11.6606
ܚܒܢܢ	-11.6607
ܡܬܬܢܚ	-11.6607
ܕܢܬܢܛܪ	-11.6607
ܘܢܚܝܒܘܢ	-11.6609
ܢܫܩܠܘܢ	-11.6609
ܢܬܡܟܟ	-11.6609
ܥܩܒܬ	-11.6609
ܐܓܘܪܤ	-11.6611
ܘܐܬܪܥܝ	-11.6611
ܫܘܚܢ	-11.6612
ܦܟܝܗ	-11.6612
ܐܬܚܪܪܬ	-11.6613
ܤܠܡܘܢ	-11.6617
ܥܨܝܢ	-11.6618
ܡܤܬܥܪ	-11.6618
ܬܚܬܪ	-11.662
ܐܬܕܡܝܬ	-11.6624
ܐܫܩܝܬ	-11.6625
ܬܘܠܥ	-11.6627
ܓܙܝܪ	-11.663
ܢܬܚܠܦ	-11.6636
ܬܫܬܘܬܦ	-11.6637
ܕܐܚܒܬ	-11.6642
ܦܠܫ	-11.6648
ܩܝܛ	-11.6652
ܡܬܬܘܤܦ	-11.6653
ܠܚܤܝܪܘܬ	-11.6654
ܢܩܛܪܓܘܢ	-11.6659
ܚܠܨ	-11.6665
ܠܕܪܬ	-11.6667
ܕܢܫܬܥܒܕ	-11.6668
ܒܗܕܡܝ	-11.667
ܢܫܬܘܬܦ	-11.6676
ܐܘܩܝܢ	-11.6678
ܘܬܩܢܬ	-11.6682
ܠܡܫܠܡܘ	-11.6682
ܬܦܨܝ	-11.6683
ܕܫܝܠ	-11.6688
ܕܢܓܠ	-11.669
ܬܬܟܤ	-11.6694
ܒܤܘܥܪܢ	-11.6696
ܢܦܨܝܢ	-11.6698
ܥܫܝܢ	-11.6702
ܠܡܦܬܚ	-11.6706
ܐܤܪܘܢ	-11.6718
ܠܡܫܬܘܬ	-11.672
ܒܪܒܘܬ	-11.6725
ܡܚܪܪ	-11.6727
ܘܠܕܝܬܒ	-11.6727
ܡܬܪܤ	-11.6728
ܓܪܓ	-11.6728
▁	-11.9684
1	-12.4932
5	-13.4932
)	-13.4932
4	-13.4932
9	-13.4932
:	-13.4932
