<pad>	0
</s>	0
<unk>	0
▁¦	-0
er	-1
no	-2
▁d	-3
re	-4
▁s	-5
▁c	-6
to	-7
an	-8
el	-9
la	-10
▁p	-11
li	-12
▁i	-13
▁𐋇	-14
ti	-15
on	-16
▁a	-17
te	-18
ra	-19
ri	-20
ro	-21
▁e	-22
▁di	-23
di	-24
ta	-25
en	-26
le	-27
lo	-28
▁m	-29
ch	-30
gli	-31
es	-32
ia	-33
io	-34
▁,	-35
▁f	-36
qu	-37
tu	-38
co	-39
al	-40
un	-41
in	-42
▁v	-43
se	-44
si	-45
▁il	-46
ar	-47
po	-48
do	-49
uo	-50
sa	-51
va	-52
▁la	-53
▁ch	-54
gno	-55
▁del	-56
▁in	-57
da	-58
ca	-59
▁S	-60
▁per	-61
ci	-62
me	-63
mo	-64
de	-65
▁co	-66
so	-67
non	-68
▁g	-69
▁n	-70
gnore	-71
▁tu	-72
▁che	-73
il	-74
▁al	-75
▁qu	-76
tto	-77
▁con	-78
vi	-79
ma	-80
per	-81
che	-82
mi	-83
ce	-84
st	-85
▁o	-86
za	-87
vo	-88
▁Si	-89
▁«	-90
con	-91
era	-92
▁le	-93
ve	-94
▁lo	-95
▁un	-96
▁l	-97
▁I	-98
▁po	-99
tti	-100
▁non	-101
gi	-102
ere	-103
igli	-104
ché	-105
pa	-106
▁D	-107
▁si	-108
▁Signore	-109
▁su	-110
del	-111
pi	-112
▁ri	-113
▁G	-114
anno	-115
na	-116
tro	-117
▁so	-118
▁se	-119
ter	-120
su	-121
▁A	-122
one	-123
▁pa	-124
▁de	-125
zi	-126
▁'	-127
ne	-128
tà	-129
▁da	-130
▁re	-131
▁h	-132
ui	-133
ni	-134
▁ca	-135
sse	-136
▁ma	-137
▁b	-138
ero	-139
▁vi	-140
▁vo	-141
▁E	-142
▁nel	-143
▁è	-144
rono	-145
tra	-146
▁loro	-147
▁te	-148
or	-149
bb	-150
▁:	-151
▁an	-152
ac	-153
tte	-154
ando	-155
sto	-156
▁suo	-157
▁M	-158
bi	-159
▁figli	-160
▁gli	-161
chi	-162
▁ci	-163
▁C	-164
▁Dio	-165
sc	-166
ele	-167
▁mi	-168
pre	-169
min	-170
fa	-171
fi	-172
gg	-173
▁pre	-174
sra	-175
▁P	-176
men	-177
signore	-178
▁fa	-179
tta	-180
iu	-181
▁ha	-182
anti	-183
tre	-184
▁no	-185
vano	-186
eri	-187
▁dal	-188
ior	-189
ss	-190
▁me	-191
ani	-192
▁della	-193
sti	-194
ven	-195
▁pi	-196
erà	-197
▁perché	-198
cco	-199
▁ques	-200
▁come	-201
▁pro	-202
sta	-203
ssi	-204
nel	-205
▁dei	-206
go	-207
ba	-208
loro	-209
▁tuo	-210
elli	-211
▁u	-212
pe	-213
▁;	-214
rà	-215
ese	-216
sso	-217
zione	-218
oni	-219
anto	-220
sraele	-221
gu	-222
du	-223
arà	-224
que	-225
ver	-226
tri	-227
▁una	-228
cia	-229
▁sono	-230
ga	-231
polo	-232
zo	-233
ru	-234
▁li	-235
ran	-236
ene	-237
enza	-238
▁era	-239
ssa	-240
▁N	-241
cca	-242
▁do	-243
▁ne	-244
sco	-245
figli	-246
man	-247
mp	-248
dio	-249
lla	-250
lora	-251
▁ave	-252
▁sa	-253
sì	-254
▁.	-255
zia	-256
erò	-257
▁L	-258
gni	-259
zza	-260
▁mo	-261
▁ti	-262
ff	-263
suo	-264
sci	-265
▁io	-266
eli	-267
terra	-268
ha	-269
dre	-270
uomo	-271
▁disse	-272
▁sta	-273
▁alla	-274
fe	-275
▁sua	-276
esti	-277
cen	-278
▁mio	-279
ggi	-280
tor	-281
dei	-282
▁tutti	-283
una	-284
Qu	-285
▁figlio	-286
ttà	-287
ria	-288
iorno	-289
elo	-290
ten	-291
rai	-292
▁Il	-293
pp	-294
▁»	-295
▁fu	-296
ello	-297
usa	-298
▁par	-299
▁ven	-300
▁B	-301
▁voi	-302
perché	-303
mini	-304
spo	-305
dal	-306
rta	-307
chia	-308
giu	-309
vanti	-310
▁Qu	-311
▁suoi	-312
zzo	-313
lta	-314
pro	-315
vide	-316
ron	-317
come	-318
▁T	-319
della	-320
gna	-321
▁sac	-322
▁av	-323
▁Ma	-324
ente	-325
oi	-326
stro	-327
▁popolo	-328
▁lui	-329
rò	-330
▁man	-331
bo	-332
stri	-333
▁ai	-334
▁giu	-335
mme	-336
ques	-337
enti	-338
fu	-339
ini	-340
stra	-341
mpo	-342
▁nella	-343
cu	-344
ser	-345
iamo	-346
ed	-347
pri	-348
condo	-349
bbe	-350
uomini	-351
rat	-352
▁questo	-353
▁Al	-354
▁F	-355
cchi	-356
ste	-357
par	-358
cor	-359
esù	-360
qua	-361
unque	-362
▁chi	-363
erai	-364
▁tra	-365
sono	-366
▁Giu	-367
uto	-368
▁più	-369
ave	-370
▁terra	-371
▁fe	-372
gia	-373
ei	-374
anza	-375
lui	-376
ai	-377
dò	-378
gge	-379
gh	-380
▁Da	-381
erdo	-382
ab	-383
▁sarà	-384
rito	-385
▁dell	-386
egli	-387
▁contro	-388
».	-389
eranno	-390
▁com	-391
▁ser	-392
cri	-393
ranno	-394
▁Israele	-395
▁aveva	-396
▁ver	-397
▁egli	-398
▁paese	-399
▁tua	-400
▁ra	-401
▁fi	-402
lto	-403
▁Sa	-404
ato	-405
▁città	-406
▁ho	-407
▁sul	-408
lemme	-409
▁R	-410
▁quel	-411
uni	-412
sè	-413
▁tutto	-414
▁for	-415
▁casa	-416
sero	-417
▁-	-418
▁pri	-419
dere	-420
▁qua	-421
mento	-422
mpio	-423
▁O	-424
mon	-425
esso	-426
▁mia	-427
▁giorno	-428
rio	-429
cio	-430
ciò	-431
▁paro	-432
erusa	-433
erusalemme	-434
disse	-435
ul	-436
ad	-437
anta	-438
alla	-439
▁ad	-440
▁anche	-441
figlio	-442
tt	-443
endo	-444
fatti	-445
mpa	-446
▁degli	-447
sce	-448
eliti	-449
▁poi	-450
tua	-451
▁du	-452
uore	-453
▁pe	-454
sraeliti	-455
▁tro	-456
glie	-457
▁Per	-458
▁Mo	-459
▁davanti	-460
spose	-461
dia	-462
▁quando	-463
tutti	-464
sua	-465
tare	-466
glia	-467
alle	-468
▁delle	-469
▁Davide	-470
zioni	-471
▁Io	-472
▁Non	-473
▁all	-474
▁abb	-475
▁gran	-476
mio	-477
tuo	-478
uno	-479
ge	-480
▁Co	-481
lti	-482
ze	-483
voi	-484
▁dalla	-485
▁mon	-486
mia	-487
cin	-488
av	-489
sp	-490
▁Allora	-491
▁?	-492
cci	-493
▁hai	-494
mpi	-495
▁uomini	-496
▁col	-497
▁ogni	-498
▁mor	-499
poi	-500
ssero	-501
gen	-502
gio	-503
iorni	-504
▁Gesù	-505
▁fatto	-506
▁des	-507
zio	-508
▁Se	-509
▁ba	-510
▁ac	-511
cora	-512
▁tuoi	-513
▁pie	-514
mb	-515
dato	-516
for	-517
don	-518
▁così	-519
▁noi	-520
ine	-521
▁gu	-522
aranno	-523
▁Ch	-524
▁sacerdo	-525
essi	-526
▁mezzo	-527
▁frat	-528
mpre	-529
▁né	-530
ho	-531
gui	-532
gitto	-533
contro	-534
▁nu	-535
quando	-536
israele	-537
▁secondo	-538
rete	-539
essa	-540
!»	-541
gn	-542
pra	-543
suoi	-544
▁bene	-545
qui	-546
▁ed	-547
▁due	-548
▁gio	-549
▁dice	-550
▁erano	-551
poli	-552
questo	-553
rifi	-554
anche	-555
arò	-556
▁sal	-557
sac	-558
▁ar	-559
nella	-560
tan	-561
mente	-562
▁Giuda	-563
sie	-564
popolo	-565
▁V	-566
▁Di	-567
▁Mosè	-568
▁tutte	-569
▁Poi	-570
▁chia	-571
erto	-572
scolta	-573
▁gra	-574
rato	-575
▁porta	-576
▁alle	-577
glio	-578
▁Gerusalemme	-579
erete	-580
▁mano	-581
▁por	-582
▁pu	-583
▁abi	-584
scia	-585
▁hanno	-586
▁La	-587
▁ste	-588
sia	-589
▁In	-590
rdi	-591
pirito	-592
▁fo	-593
pie	-594
essu	-595
esta	-596
tò	-597
▁na	-598
tura	-599
▁cor	-600
ess	-601
stru	-602
ina	-603
▁mani	-604
▁sulla	-605
essuno	-606
gue	-607
▁fino	-608
▁sia	-609
allora	-610
ccato	-611
▁padre	-612
sul	-613
guar	-614
▁fuo	-615
▁essi	-616
giorno	-617
▁ta	-618
▁Israeliti	-619
aveva	-620
tutto	-621
mor	-622
dice	-623
▁servi	-624
▁sue	-625
menti	-626
ena	-627
▁tre	-628
abb	-629
così	-630
▁vita	-631
mina	-632
▁san	-633
ggio	-634
più	-635
stre	-636
all	-637
▁Tu	-638
tter	-639
▁ciò	-640
▁tor	-641
▁nome	-642
▁cuore	-643
dri	-644
sarà	-645
anni	-646
str	-647
car	-648
trib	-649
ora	-650
stizia	-651
be	-652
ane	-653
sca	-654
cento	-655
dell	-656
vol	-657
▁occhi	-658
uogo	-659
nu	-660
paro	-661
▁questa	-662
▁ve	-663
ggia	-664
▁cui	-665
nd	-666
chio	-667
onne	-668
▁tempio	-669
quel	-670
por	-671
▁tutta	-672
▁uno	-673
lato	-674
paese	-675
▁grande	-676
via	-677
▁sei	-678
▁nelle	-679
▁agli	-680
mò	-681
entre	-682
▁Egli	-683
▁Quando	-684
▁parola	-685
dici	-686
▁senza	-687
▁giorni	-688
oro	-689
tten	-690
città	-691
▁ter	-692
mano	-693
tato	-694
▁spa	-695
casa	-696
ccia	-697
amo	-698
porta	-699
▁Pa	-700
▁verso	-701
▁cosa	-702
▁dunque	-703
eni	-704
abi	-705
ura	-706
ona	-707
des	-708
ffer	-709
▁quelli	-710
tanto	-711
col	-712
sei	-713
im	-714
▁miei	-715
mici	-716
vato	-717
due	-718
nato	-719
▁car	-720
cre	-721
die	-722
cato	-723
cono	-724
▁cre	-725
▁quanto	-726
▁ess	-727
senza	-728
tevi	-729
fatto	-730
hai	-731
?»	-732
▁Chi	-733
▁ten	-734
gran	-735
▁fra	-736
erano	-737
am	-738
gra	-739
fo	-740
▁Z	-741
▁en	-742
mone	-743
ecco	-744
san	-745
▁dove	-746
ogni	-747
mila	-748
dare	-749
▁profe	-750
degli	-751
▁Ora	-752
pu	-753
▁die	-754
▁capi	-755
▁cose	-756
▁va	-757
sieme	-758
▁vol	-759
sal	-760
▁U	-761
▁fece	-762
▁diven	-763
mato	-764
▁capo	-765
loria	-766
▁usci	-767
davanti	-768
esse	-769
ren	-770
feri	-771
▁Gio	-772
cendo	-773
ante	-774
mani	-775
accia	-776
cobbe	-777
sen	-778
▁tempo	-779
▁ro	-780
▁infatti	-781
▁lib	-782
tribù	-783
delle	-784
bra	-785
davide	-786
ppe	-787
moni	-788
▁male	-789
▁parole	-790
▁Ri	-791
▁rispose	-792
▁uomo	-793
dano	-794
tano	-795
dalla	-796
vece	-797
olo	-798
pere	-799
cc	-800
▁ancora	-801
▁gen	-802
▁parte	-803
end	-804
dito	-805
▁Cri	-806
ghi	-807
▁nostro	-808
ttro	-809
detto	-810
tr	-811
bili	-812
▁to	-813
▁Cristo	-814
noi	-815
▁fratelli	-816
mora	-817
▁cielo	-818
ang	-819
▁cu	-820
▁sc	-821
sser	-822
vere	-823
▁vostro	-824
ete	-825
padre	-826
▁sotto	-827
▁saranno	-828
▁poiché	-829
ghe	-830
▁quale	-831
▁mentre	-832
ffri	-833
▁sacrifi	-834
altare	-835
▁sempre	-836
bene	-837
▁quello	-838
▁sopra	-839
onia	-840
gre	-841
gesù	-842
mu	-843
▁cono	-844
lu	-845
▁detto	-846
ana	-847
▁sp	-848
▁im	-849
sper	-850
▁ordi	-851
▁allora	-852
▁fuoco	-853
▁vostri	-854
vita	-855
sor	-856
▁tue	-857
▁scri	-858
secondo	-859
tuoi	-860
▁Così	-861
▁Le	-862
citi	-863
▁Gli	-864
▁via	-865
segui	-866
frat	-867
tui	-868
fino	-869
▁dopo	-870
dine	-871
strui	-872
▁gi	-873
▁stato	-874
▁dall	-875
cchio	-876
hanno	-877
▁sacerdote	-878
spe	-879
tanti	-880
▁cam	-881
▁nei	-882
▁cin	-883
▁bo	-884
este	-885
▁avete	-886
▁mangia	-887
sacerdo	-888
né	-889
gento	-890
mezzo	-891
▁essa	-892
▁luogo	-893
erca	-894
▁qual	-895
▁Gia	-896
terà	-897
ilonia	-898
▁An	-899
▁legge	-900
▁ecco	-901
lomone	-902
▁anni	-903
Israele	-904
▁Mi	-905
▁peccato	-906
mare	-907
▁Ecco	-908
gua	-909
▁Figli	-910
▁forse	-911
altro	-912
Egitto	-913
▁fin	-914
ella	-915
▁servo	-916
cau	-917
more	-918
nun	-919
ure	-920
▁app	-921
▁altri	-922
indi	-923
estia	-924
▁queste	-925
mino	-926
▁giustizia	-927
tutte	-928
▁dai	-929
▁stra	-930
ono	-931
▁ucci	-932
verso	-933
liste	-934
mero	-935
scri	-936
ziani	-937
▁ora	-938
date	-939
▁morte	-940
usci	-941
ppa	-942
▁Eli	-943
▁sangue	-944
▁ascolta	-945
ggiun	-946
▁mie	-947
giuda	-948
bile	-949
▁Ba	-950
▁gri	-951
nò	-952
arca	-953
com	-954
▁questi	-955
fer	-956
zzi	-957
ltre	-958
stato	-959
▁!	-960
▁sor	-961
mosè	-962
viti	-963
acqua	-964
erità	-965
ppure	-966
▁solo	-967
▁essere	-968
questa	-969
esa	-970
male	-971
▁padri	-972
lare	-973
onna	-974
▁dato	-975
bu	-976
▁bu	-977
dire	-978
raone	-979
sione	-980
darono	-981
poiché	-982
gione	-983
fra	-984
▁alc	-985
▁spada	-986
▁Be	-987
torno	-988
segna	-989
▁nell	-990
zze	-991
ela	-992
▁nessuno	-993
esto	-994
▁presso	-995
elle	-996
acca	-997
▁ved	-998
gerusalemme	-999
ffi	-1000
tere	-1001
▁Saul	-1002
▁sacerdoti	-1003
pera	-1004
uovo	-1005
servi	-1006
fuo	-1007
▁ge	-1008
▁là	-1009
sue	-1010
colo	-1011
▁sette	-1012
▁eser	-1013
▁guar	-1014
ie	-1015
▁voce	-1016
argento	-1017
sulla	-1018
cò	-1019
cosa	-1020
versa	-1021
▁regno	-1022
uta	-1023
tenza	-1024
▁stesso	-1025
messo	-1026
▁fare	-1027
duto	-1028
▁fratello	-1029
▁lu	-1030
▁far	-1031
seppe	-1032
ire	-1033
lio	-1034
mar	-1035
dità	-1036
miglia	-1037
pren	-1038
▁avevano	-1039
▁gia	-1040
rire	-1041
pia	-1042
care	-1043
▁passa	-1044
▁insieme	-1045
▁prima	-1046
derà	-1047
tutta	-1048
cero	-1049
▁H	-1050
▁molti	-1051
dono	-1052
guardo	-1053
israeliti	-1054
▁schia	-1055
ronte	-1056
altra	-1057
quità	-1058
▁cen	-1059
▁coman	-1060
derò	-1061
andon	-1062
posto	-1063
▁Fi	-1064
ontan	-1065
esi	-1066
▁dov	-1067
▁Giacobbe	-1068
suè	-1069
Non	-1070
▁furono	-1071
rre	-1072
mondo	-1073
quanto	-1074
eser	-1075
zò	-1076
parola	-1077
▁Perché	-1078
nelle	-1079
rispose	-1080
dove	-1081
▁tribù	-1082
val	-1083
angelo	-1084
▁sca	-1085
quelli	-1086
▁bocca	-1087
▁dalle	-1088
èl	-1089
der	-1090
▁donna	-1091
▁gloria	-1092
ppo	-1093
listei	-1094
deva	-1095
scend	-1096
là	-1097
nome	-1098
cuore	-1099
tori	-1100
rsi	-1101
▁dire	-1102
lazione	-1103
scepoli	-1104
▁mai	-1105
gri	-1106
ronne	-1107
volta	-1108
▁giun	-1109
▁moglie	-1110
agli	-1111
dete	-1112
▁vesti	-1113
uti	-1114
cui	-1115
occhi	-1116
▁lavo	-1117
▁prese	-1118
▁trova	-1119
rlo	-1120
grande	-1121
erra	-1122
▁quella	-1123
dai	-1124
▁acco	-1125
▁Aronne	-1126
▁deserto	-1127
▁Do	-1128
▁primo	-1129
arti	-1130
fece	-1131
▁dicendo	-1132
spa	-1133
alleanza	-1134
gono	-1135
tempio	-1136
gne	-1137
ssimo	-1138
lea	-1139
▁giudi	-1140
spon	-1141
▁quali	-1142
ram	-1143
nci	-1144
▁pia	-1145
dopo	-1146
lle	-1147
dati	-1148
mentre	-1149
para	-1150
rcon	-1151
▁oggi	-1152
▁siete	-1153
▁invece	-1154
mmo	-1155
dr	-1156
▁mare	-1157
biti	-1158
giorni	-1159
infatti	-1160
dunque	-1161
ttere	-1162
vesti	-1163
bito	-1164
▁popoli	-1165
▁K	-1166
ari	-1167
▁mondo	-1168
▁piedi	-1169
eso	-1170
▁distru	-1171
ben	-1172
prio	-1173
vole	-1174
scuno	-1175
▁abbiamo	-1176
seri	-1177
alza	-1178
▁tenda	-1179
fferta	-1180
▁entra	-1181
▁posto	-1182
▁pren	-1183
▁causa	-1184
▁monte	-1185
▁Ti	-1186
▁sulle	-1187
ster	-1188
miei	-1189
vero	-1190
lib	-1191
questi	-1192
▁faccia	-1193
Ch	-1194
anzi	-1195
tene	-1196
vicin	-1197
▁Abra	-1198
dizione	-1199
▁Bab	-1200
as	-1201
cito	-1202
uoi	-1203
▁notte	-1204
▁nulla	-1205
ira	-1206
ccio	-1207
▁colui	-1208
capi	-1209
egitto	-1210
estiame	-1211
mai	-1212
profe	-1213
scere	-1214
▁carne	-1215
▁Babilonia	-1216
?».	-1217
▁?»	-1218
venti	-1219
zie	-1220
cinque	-1221
parte	-1222
▁giov	-1223
▁dissero	-1224
▁!»	-1225
▁».	-1226
alva	-1227
stimoni	-1228
cam	-1229
▁Salomone	-1230
cuno	-1231
▁fru	-1232
▁pen	-1233
▁gente	-1234
▁madre	-1235
▁profeti	-1236
▁eserciti	-1237
▁spe	-1238
▁nostri	-1239
terno	-1240
asse	-1241
fica	-1242
sette	-1243
iordano	-1244
at	-1245
▁st	-1246
vò	-1247
cose	-1248
▁figlia	-1249
pol	-1250
ccati	-1251
presso	-1252
▁comuni	-1253
mati	-1254
zz	-1255
ttino	-1256
nunzia	-1257
▁osser	-1258
eredità	-1259
▁quanti	-1260
▁spirito	-1261
capo	-1262
diven	-1263
▁nemici	-1264
frai	-1265
▁fer	-1266
▁Poiché	-1267
mmi	-1268
▁fede	-1269
▁vostra	-1270
▁sacrificio	-1271
dov	-1272
mba	-1273
dente	-1274
tempo	-1275
app	-1276
rì	-1277
rei	-1278
gere	-1279
▁Gi	-1280
tale	-1281
▁parti	-1282
▁numero	-1283
minio	-1284
ancora	-1285
tuario	-1286
▁senti	-1287
▁abitanti	-1288
ascolta	-1289
▁farò	-1290
▁lascia	-1291
rore	-1292
torna	-1293
▁bru	-1294
▁offri	-1295
cla	-1296
parole	-1297
▁segui	-1298
ontano	-1299
▁pane	-1300
▁faraone	-1301
rare	-1302
fraim	-1303
sacri	-1304
▁vostre	-1305
nero	-1306
▁molto	-1307
fratelli	-1308
quale	-1309
▁condu	-1310
ati	-1311
▁andò	-1312
rati	-1313
avete	-1314
forse	-1315
▁finché	-1316
tì	-1317
▁Lo	-1318
ucci	-1319
▁lun	-1320
cristo	-1321
gnuno	-1322
vezza	-1323
essere	-1324
cche	-1325
▁coloro	-1326
giustizia	-1327
scon	-1328
sotto	-1329
▁Ben	-1330
prese	-1331
▁acca	-1332
▁avrà	-1333
saranno	-1334
ture	-1335
nostro	-1336
sericor	-1337
▁visto	-1338
quello	-1339
tue	-1340
cielo	-1341
gnel	-1342
bbero	-1343
▁grazia	-1344
spirito	-1345
causto	-1346
qual	-1347
fon	-1348
▁Gà	-1349
bato	-1350
▁be	-1351
▁venti	-1352
ore	-1353
▁Su	-1354
▁qui	-1355
▁Padre	-1356
▁leviti	-1357
vostro	-1358
▁Con	-1359
▁pace	-1360
▁compi	-1361
nessuno	-1362
▁genera	-1363
sopra	-1364
trà	-1365
▁Bet	-1366
▁cio	-1367
vanni	-1368
▁aver	-1369
▁poss	-1370
stitui	-1371
illa	-1372
▁t	-1373
▁verità	-1374
anna	-1375
mico	-1376
queste	-1377
sempre	-1378
▁Vi	-1379
▁fuori	-1380
accampa	-1381
▁sco	-1382
▁cioè	-1383
▁rice	-1384
▁altro	-1385
▁nuovo	-1386
▁quattro	-1387
ppi	-1388
vare	-1389
veri	-1390
tente	-1391
▁acque	-1392
doli	-1393
▁deci	-1394
miglie	-1395
teranno	-1396
▁Giudei	-1397
mili	-1398
telli	-1399
gente	-1400
▁Giosuè	-1401
dà	-1402
▁ru	-1403
vina	-1404
▁Abramo	-1405
drone	-1406
▁fronte	-1407
età	-1408
nei	-1409
cino	-1410
ttato	-1411
fuoco	-1412
maria	-1413
vostri	-1414
▁Giuseppe	-1415
dall	-1416
▁dis	-1417
▁parla	-1418
Ecco	-1419
ordi	-1420
▁gre	-1421
▁Essi	-1422
sacrifi	-1423
passa	-1424
fin	-1425
▁sto	-1426
▁presen	-1427
▁profeta	-1428
nell	-1429
▁sui	-1430
legge	-1431
▁farà	-1432
▁Filistei	-1433
mandò	-1434
▁sol	-1435
bre	-1436
mangia	-1437
▁può	-1438
altri	-1439
▁gioia	-1440
arsi	-1441
fare	-1442
scono	-1443
sacerdote	-1444
gnò	-1445
nata	-1446
▁cia	-1447
▁Come	-1448
▁dico	-1449
▁viene	-1450
quattro	-1451
▁agi	-1452
▁rima	-1453
▁cerca	-1454
▁siamo	-1455
sulta	-1456
iamino	-1457
minato	-1458
pienza	-1459
cer	-1460
▁Am	-1461
▁discepoli	-1462
spi	-1463
▁go	-1464
▁esp	-1465
▁consi	-1466
▁Spirito	-1467
sericordia	-1468
giun	-1469
aca	-1470
geni	-1471
▁mese	-1472
▁nazioni	-1473
rità	-1474
lò	-1475
ali	-1476
▁ricor	-1477
gato	-1478
vati	-1479
vegno	-1480
▁volta	-1481
▁chiama	-1482
drà	-1483
schia	-1484
nta	-1485
▁bi	-1486
▁bra	-1487
luogo	-1488
▁abbandon	-1489
bbra	-1490
riente	-1491
offerta	-1492
empi	-1493
sacco	-1494
▁diede	-1495
core	-1496
cherà	-1497
dava	-1498
▁ini	-1499
cchia	-1500
▁forte	-1501
solo	-1502
scu	-1503
avevano	-1504
servo	-1505
Per	-1506
▁Ie	-1507
fine	-1508
▁cal	-1509
rebbe	-1510
ssal	-1511
nanzi	-1512
resti	-1513
▁fedel	-1514
▁Figlio	-1515
▁giusto	-1516
▁discend	-1517
peccato	-1518
▁rad	-1519
▁racco	-1520
alc	-1521
cce	-1522
telo	-1523
terò	-1524
▁opere	-1525
▁cinque	-1526
▁guerra	-1527
rti	-1528
scì	-1529
trò	-1530
▁Ed	-1531
fini	-1532
ngua	-1533
▁comp	-1534
edi	-1535
far	-1536
▁spo	-1537
▁ster	-1538
▁prend	-1539
▁stati	-1540
verà	-1541
boamo	-1542
parti	-1543
▁acc	-1544
▁lei	-1545
senti	-1546
cro	-1547
gerà	-1548
can	-1549
mbra	-1550
condu	-1551
▁figlie	-1552
lte	-1553
eb	-1554
iate	-1555
▁arri	-1556
quanta	-1557
▁condo	-1558
▁corpo	-1559
▁santi	-1560
dica	-1561
dite	-1562
▁Ca	-1563
▁sé	-1564
▁super	-1565
diamo	-1566
gioni	-1567
▁sali	-1568
▁forza	-1569
▁signore	-1570
mie	-1571
morte	-1572
stimonianza	-1573
▁can	-1574
▁quar	-1575
vin	-1576
fan	-1577
▁sull	-1578
valli	-1579
sangue	-1580
▁circon	-1581
estro	-1582
▁sti	-1583
viene	-1584
▁luce	-1585
▁inter	-1586
▁Perciò	-1587
▁uscire	-1588
▁Li	-1589
spada	-1590
▁alza	-1591
molti	-1592
muele	-1593
tando	-1594
mpagna	-1595
iniquità	-1596
!».	-1597
mbi	-1598
mile	-1599
padri	-1600
▁colpi	-1601
abbiamo	-1602
ìa	-1603
mità	-1604
▁cer	-1605
messa	-1606
ghezza	-1607
▁cubiti	-1608
▁famiglia	-1609
ritto	-1610
▁costrui	-1611
▁stabili	-1612
sone	-1613
tello	-1614
bab	-1615
▁aff	-1616
▁scon	-1617
▁dieci	-1618
▁torna	-1619
entra	-1620
fedel	-1621
pli	-1622
bano	-1623
▁Giò	-1624
▁donne	-1625
cal	-1626
pio	-1627
ordine	-1628
▁cieli	-1629
saul	-1630
tali	-1631
ttentri	-1632
cli	-1633
▁Abi	-1634
prima	-1635
▁pasco	-1636
▁bestiame	-1637
▁mangiare	-1638
sacerdoti	-1639
▁Na	-1640
▁ren	-1641
enaro	-1642
storo	-1643
▁divo	-1644
▁vino	-1645
dietro	-1646
len	-1647
pen	-1648
▁or	-1649
iato	-1650
laad	-1651
olio	-1652
stui	-1653
tati	-1654
▁fecero	-1655
and	-1656
voce	-1657
▁pass	-1658
zechia	-1659
▁appar	-1660
▁riferi	-1661
ama	-1662
bocca	-1663
▁testa	-1664
olocausto	-1665
tudine	-1666
ritorio	-1667
tarono	-1668
▁campo	-1669
▁Giordano	-1670
ell	-1671
oggi	-1672
remo	-1673
regno	-1674
ontà	-1675
▁pio	-1676
devano	-1677
stesso	-1678
▁Anche	-1679
▁alcuni	-1680
▁ciascuno	-1681
sposero	-1682
▁mandò	-1683
▁generò	-1684
▁anziani	-1685
rante	-1686
spetto	-1687
insieme	-1688
fratello	-1689
▁Ab	-1690
▁Man	-1691
▁fac	-1692
cerca	-1693
▁strada	-1694
accampamento	-1695
dor	-1696
gloria	-1697
▁am	-1698
àsse	-1699
▁desi	-1700
▁mini	-1701
furono	-1702
▁riman	-1703
▁dimora	-1704
▁vio	-1705
trani	-1706
▁veni	-1707
▁cento	-1708
lati	-1709
rerà	-1710
ssione	-1711
▁Un	-1712
▁strani	-1713
colui	-1714
ob	-1715
▁proprio	-1716
dero	-1717
grazia	-1718
àn	-1719
▁Ne	-1720
▁mu	-1721
terna	-1722
▁Dopo	-1723
▁però	-1724
▁abita	-1725
▁morti	-1726
▁princi	-1727
giacobbe	-1728
ille	-1729
voca	-1730
dalle	-1731
riti	-1732
▁Rispose	-1733
▁scritto	-1734
▁santuario	-1735
deranno	-1736
▁Gh	-1737
gare	-1738
donna	-1739
lascia	-1740
▁messo	-1741
▁grandi	-1742
▁nostra	-1743
▁allontan	-1744
▁servizio	-1745
ub	-1746
▁ani	-1747
▁Re	-1748
quali	-1749
gresso	-1750
quella	-1751
ttanta	-1752
esercito	-1753
mer	-1754
costrui	-1755
dar	-1756
▁fon	-1757
▁destra	-1758
dis	-1759
coli	-1760
tinu	-1761
coman	-1762
▁Eb	-1763
▁olo	-1764
▁modo	-1765
▁Efraim	-1766
▁Questo	-1767
▁consac	-1768
tenda	-1769
iuto	-1770
▁fre	-1771
▁ono	-1772
zzato	-1773
invece	-1774
▁Tutti	-1775
▁malva	-1776
▁Questi	-1777
▁intorno	-1778
rano	-1779
Se	-1780
àb	-1781
desi	-1782
▁stata	-1783
▁metter	-1784
▁presenza	-1785
opera	-1786
verrà	-1787
volto	-1788
▁Ci	-1789
▁tene	-1790
ccu	-1791
ceva	-1792
comp	-1793
vuto	-1794
Che	-1795
ango	-1796
▁pron	-1797
▁scel	-1798
▁rispon	-1799
▁lontano	-1800
▁potenza	-1801
▁riguardo	-1802
quar	-1803
sten	-1804
dicendo	-1805
lavo	-1806
aronne	-1807
moglie	-1808
èle	-1809
cere	-1810
causti	-1811
▁imp	-1812
▁uni	-1813
primo	-1814
▁stava	-1815
dissero	-1816
osser	-1817
siete	-1818
vento	-1819
ingresso	-1820
mei	-1821
schi	-1822
ttimo	-1823
▁sper	-1824
▁vide	-1825
▁andare	-1826
▁potere	-1827
veni	-1828
▁Pie	-1829
▁Voi	-1830
degno	-1831
▁alzò	-1832
quanti	-1833
▁genti	-1834
▁divenne	-1835
anda	-1836
dera	-1837
gano	-1838
estie	-1839
notte	-1840
deserto	-1841
ttaglia	-1842
festa	-1843
▁fari	-1844
▁trono	-1845
▁avvicin	-1846
perciò	-1847
dom	-1848
uono	-1849
▁fine	-1850
▁Paolo	-1851
▁abbia	-1852
▁oltre	-1853
▁chiamò	-1854
▁libera	-1855
nulla	-1856
▁rib	-1857
▁fosse	-1858
▁libro	-1859
pace	-1860
rente	-1861
aniele	-1862
ssiria	-1863
lore	-1864
▁Aca	-1865
offri	-1866
stitu	-1867
▁ebbe	-1868
▁peccati	-1869
▁sacrifici	-1870
ttò	-1871
unto	-1872
Il	-1873
rvi	-1874
enne	-1875
sali	-1876
vendo	-1877
▁pian	-1878
▁scen	-1879
▁quelle	-1880
zer	-1881
però	-1882
▁Che	-1883
distru	-1884
▁vedere	-1885
▁ordinato	-1886
▁possesso	-1887
▁salvezza	-1888
cesso	-1889
ach	-1890
den	-1891
▁off	-1892
▁sen	-1893
▁compa	-1894
▁santo	-1895
▁famiglie	-1896
aff	-1897
rmi	-1898
censo	-1899
stare	-1900
vola	-1901
cherò	-1902
mblea	-1903
ssalonne	-1904
trova	-1905
popoli	-1906
sulle	-1907
lun	-1908
venne	-1909
faccia	-1910
ghiera	-1911
estre	-1912
▁comin	-1913
▁porte	-1914
fru	-1915
moniti	-1916
iore	-1917
piedi	-1918
prend	-1919
▁asco	-1920
▁Egitto	-1921
▁lavoro	-1922
▁mandato	-1923
▁padrone	-1924
▁comunità	-1925
anima	-1926
stati	-1927
mere	-1928
▁ang	-1929
genti	-1930
rella	-1931
ventura	-1932
▁disper	-1933
▁venire	-1934
▁venuto	-1935
▁parlare	-1936
▁Giovanni	-1937
santo	-1938
ggiunse	-1939
tore	-1940
▁ama	-1941
▁allo	-1942
▁esso	-1943
▁mise	-1944
▁monti	-1945
farò	-1946
monte	-1947
rifica	-1948
ggeri	-1949
▁sole	-1950
ccelli	-1951
▁messa	-1952
▁Pietro	-1953
gò	-1954
sol	-1955
causa	-1956
▁Sion	-1957
▁risu	-1958
▁Mentre	-1959
perto	-1960
ttentrione	-1961
cie	-1962
ttra	-1963
amore	-1964
parla	-1965
▁picco	-1966
▁verrà	-1967
▁morire	-1968
▁Beniamino	-1969
fiu	-1970
seo	-1971
scen	-1972
profeti	-1973
pria	-1974
gogna	-1975
▁venne	-1976
▁pietra	-1977
▁annunzia	-1978
carne	-1979
▁teso	-1980
▁Santo	-1981
▁potrà	-1982
gà	-1983
gine	-1984
▁sap	-1985
▁quei	-1986
▁folla	-1987
▁sorte	-1988
intorno	-1989
▁dodici	-1990
▁chiamato	-1991
▁convegno	-1992
ede	-1993
rima	-1994
dendo	-1995
vate	-1996
bbene	-1997
▁Moab	-1998
▁mori	-1999
▁rend	-2000
genito	-2001
▁preso	-2002
▁sapienza	-2003
▁misericordia	-2004
fat	-2005
verti	-2006
tata	-2007
▁fal	-2008
▁spi	-2009
▁empi	-2010
▁atten	-2011
▁prodi	-2012
▁giusti	-2013
strati	-2014
ate	-2015
rov	-2016
cher	-2017
▁vuo	-2018
empio	-2019
dimora	-2020
babilonia	-2021
sioni	-2022
mbe	-2023
mbo	-2024
deci	-2025
into	-2026
essun	-2027
ronzo	-2028
tagne	-2029
▁schi	-2030
salomone	-2031
dico	-2032
giov	-2033
▁?».	-2034
dando	-2035
figlia	-2036
Si	-2037
▁abo	-2038
madre	-2039
▁asse	-2040
▁ognuno	-2041
imp	-2042
ramo	-2043
vino	-2044
stabili	-2045
eserciti	-2046
▁men	-2047
nostri	-2048
▁dagli	-2049
▁iniquità	-2050
dan	-2051
▁ce	-2052
vore	-2053
▁Sono	-2054
▁alcun	-2055
▁comba	-2056
▁lingua	-2057
▁cammina	-2058
rica	-2059
agi	-2060
pora	-2061
▁fiu	-2062
inter	-2063
ricor	-2064
▁Elia	-2065
▁Gere	-2066
▁acqua	-2067
▁terzo	-2068
▁gioven	-2069
▁Geremia	-2070
ffa	-2071
rona	-2072
rie	-2073
▁rin	-2074
letto	-2075
▁Ioab	-2076
▁ripo	-2077
comuni	-2078
▁udito	-2079
assemblea	-2080
fuori	-2081
fede	-2082
rgli	-2083
sura	-2084
▁Dice	-2085
nemici	-2086
eroboamo	-2087
▁eredità	-2088
menta	-2089
aver	-2090
spar	-2091
▁cuo	-2092
compi	-2093
vostra	-2094
▁fatti	-2095
▁getta	-2096
potente	-2097
▁rivolta	-2098
sacrificio	-2099
giò	-2100
andò	-2101
dita	-2102
son	-2103
fumo	-2104
ppia	-2105
▁ira	-2106
▁pote	-2107
Perché	-2108
▁custo	-2109
▁frutto	-2110
▁timore	-2111
▁generazione	-2112
cuo	-2113
lei	-2114
giudi	-2115
dranno	-2116
ìm	-2117
rli	-2118
ppli	-2119
▁Pre	-2120
acque	-2121
▁resto	-2122
▁dispre	-2123
coloro	-2124
numero	-2125
▁Gu	-2126
sino	-2127
▁impo	-2128
finché	-2129
▁fuggi	-2130
▁siano	-2131
▁brucia	-2132
abitanti	-2133
bru	-2134
tuto	-2135
ond	-2136
avrà	-2137
tico	-2138
▁ore	-2139
▁bere	-2140
bbiamo	-2141
presen	-2142
▁lungo	-2143
▁nasco	-2144
pane	-2145
molto	-2146
sterà	-2147
sà	-2148
bero	-2149
genza	-2150
visto	-2151
▁mura	-2152
▁ogge	-2153
sciuto	-2154
▁volte	-2155
faraone	-2156
giziani	-2157
▁pietre	-2158
▁rovina	-2159
▁vicino	-2160
▁Samuele	-2161
▁ministri	-2162
ssu	-2163
acco	-2164
tica	-2165
▁pure	-2166
vostre	-2167
▁conce	-2168
▁consu	-2169
tamente	-2170
▁ben	-2171
▁scu	-2172
▁Achi	-2173
▁darò	-2174
▁sera	-2175
▁stan	-2176
▁morto	-2177
▁prati	-2178
▁sarai	-2179
▁distrugg	-2180
▁testimonianza	-2181
cura	-2182
anaan	-2183
vente	-2184
terete	-2185
famiglia	-2186
▁condotta	-2187
▁incontro	-2188
vio	-2189
safat	-2190
Co	-2191
pì	-2192
are	-2193
anco	-2194
▁altre	-2195
▁valle	-2196
▁denaro	-2197
▁sabato	-2198
▁diritto	-2199
▁discendenza	-2200
tù	-2201
sogno	-2202
illaggi	-2203
rno	-2204
siamo	-2205
▁doman	-2206
▁quell	-2207
▁vento	-2208
▁Isacco	-2209
▁voglio	-2210
▁cavalli	-2211
▁circonci	-2212
arlo	-2213
espia	-2214
genera	-2215
varono	-2216
arri	-2217
ttina	-2218
▁anno	-2219
▁uscì	-2220
chiama	-2221
gnello	-2222
▁Ezechia	-2223
dì	-2224
allo	-2225
abbandon	-2226
farà	-2227
▁pol	-2228
▁dare	-2229
leviti	-2230
▁Gàlaad	-2231
▁marito	-2232
▁perciò	-2233
▁chiunque	-2234
▁territorio	-2235
bet	-2236
duti	-2237
segn	-2238
denti	-2239
verità	-2240
oriente	-2241
Io	-2242
▁fini	-2243
▁peri	-2244
▁decre	-2245
▁farai	-2246
▁simile	-2247
▁immondo	-2248
sò	-2249
rad	-2250
orecchio	-2251
stò	-2252
▁Ho	-2253
codò	-2254
▁muo	-2255
colpi	-2256
nosor	-2257
▁anch	-2258
▁mang	-2259
▁sepol	-2260
▁diceva	-2261
▁quegli	-2262
▁subito	-2263
▁mattino	-2264
▁regione	-2265
codònosor	-2266
poss	-2267
rate	-2268
▁cro	-2269
▁mar	-2270
stata	-2271
giusto	-2272
▁idoli	-2273
▁possa	-2274
▁quest	-2275
▁Manàsse	-2276
▁espiato	-2277
▁neppure	-2278
▁qualche	-2279
torn	-2280
torì	-2281
ancia	-2282
mbino	-2283
èlech	-2284
ppelli	-2285
gistrati	-2286
può	-2287
▁Fe	-2288
▁Ro	-2289
cioè	-2290
mine	-2291
consi	-2292
▁sape	-2293
▁gover	-2294
▁pecore	-2295
▁insegna	-2296
sole	-2297
▁Nab	-2298
▁Sal	-2299
super	-2300
▁tale	-2301
scritto	-2302
gro	-2303
nuovo	-2304
metter	-2305
ania	-2306
rice	-2307
▁Asa	-2308
anchi	-2309
resta	-2310
▁morì	-2311
▁conta	-2312
▁pietà	-2313
▁risca	-2314
▁quindi	-2315
▁ricche	-2316
▁schiavi	-2317
sui	-2318
alto	-2319
ciul	-2320
sato	-2321
ranqu	-2322
terai	-2323
giudei	-2324
gnelli	-2325
bà	-2326
acc	-2327
▁dà	-2328
arla	-2329
▁riv	-2330
▁tri	-2331
forte	-2332
ttura	-2333
abramo	-2334
▁dietro	-2335
▁accampa	-2336
▁andarono	-2337
illo	-2338
giosuè	-2339
mà	-2340
prì	-2341
▁er	-2342
tari	-2343
tivo	-2344
arono	-2345
diede	-2346
noltre	-2347
▁volto	-2348
▁conosc	-2349
giuseppe	-2350
▁trovato	-2351
▁prendere	-2352
mese	-2353
cessa	-2354
fronte	-2355
trenta	-2356
dea	-2357
temi	-2358
▁ele	-2359
▁lar	-2360
forza	-2361
▁carri	-2362
▁festa	-2363
▁opera	-2364
▁giudizio	-2365
▁qualcuno	-2366
data	-2367
mali	-2368
detta	-2369
verete	-2370
Tu	-2371
sola	-2372
profeta	-2373
▁parlato	-2374
fuggi	-2375
filistei	-2376
armi	-2377
gani	-2378
gore	-2379
ppor	-2380
▁Can	-2381
iglio	-2382
▁cibo	-2383
▁resta	-2384
▁propri	-2385
▁Samaria	-2386
▁pascoli	-2387
▁vennero	-2388
▁espiatorio	-2389
beri	-2390
gioia	-2391
venire	-2392
cinquanta	-2393
▁No	-2394
squa	-2395
dette	-2396
dieci	-2397
▁cada	-2398
▁spar	-2399
discepoli	-2400
ccon	-2401
diti	-2402
stone	-2403
▁fan	-2404
▁esse	-2405
▁rifu	-2406
uscire	-2407
venuto	-2408
▁comme	-2409
▁pasto	-2410
▁raduna	-2411
rri	-2412
vera	-2413
gliere	-2414
nazioni	-2415
ardo	-2416
gnato	-2417
testa	-2418
▁abba	-2419
▁invi	-2420
▁lato	-2421
ttorno	-2422
▁onore	-2423
▁Quanto	-2424
▁Giònata	-2425
▁Oracolo	-2426
▁olocausti	-2427
rin	-2428
mise	-2429
mèlech	-2430
mori	-2431
▁Baal	-2432
▁Ioia	-2433
▁olio	-2434
▁Tutto	-2435
▁dello	-2436
▁dimenti	-2437
▁alleanza	-2438
strò	-2439
preso	-2440
simento	-2441
ger	-2442
racco	-2443
▁chiu	-2444
▁fate	-2445
circon	-2446
▁Questa	-2447
▁bestie	-2448
▁gregge	-2449
▁stessa	-2450
▁continu	-2451
▁polvere	-2452
▁dicevano	-2453
▁battaglia	-2454
piega	-2455
riferi	-2456
ccò	-2457
cini	-2458
itti	-2459
▁esi	-2460
bbedi	-2461
comin	-2462
▁case	-2463
▁soff	-2464
▁nemico	-2465
▁nostre	-2466
▁stavano	-2467
▁speranza	-2468
vata	-2469
santi	-2470
▁Bala	-2471
▁collo	-2472
▁potre	-2473
discend	-2474
▁sarete	-2475
▁entrare	-2476
▁giovani	-2477
▁malvagi	-2478
▁campagna	-2479
▁soltanto	-2480
ner	-2481
chem	-2482
zaro	-2483
abbia	-2484
abita	-2485
alcuni	-2486
rispon	-2487
tenti	-2488
▁fame	-2489
quindi	-2490
▁eterna	-2491
▁comandi	-2492
▁giovane	-2493
ale	-2494
pass	-2495
derai	-2496
opere	-2497
guerra	-2498
▁pes	-2499
nocen	-2500
trerà	-2501
fecero	-2502
figlie	-2503
▁legno	-2504
▁rivol	-2505
tio	-2506
valle	-2507
asa	-2508
fac	-2509
▁So	-2510
mate	-2511
sull	-2512
▁son	-2513
corpo	-2514
▁metà	-2515
▁avevo	-2516
▁paura	-2517
▁sicli	-2518
▁Dimora	-2519
prendere	-2520
posi	-2521
rane	-2522
schio	-2523
inistra	-2524
rrà	-2525
▁Essa	-2526
▁assi	-2527
▁impa	-2528
▁Daniele	-2529
▁tenebre	-2530
▁prossimo	-2531
▁Assalonne	-2532
sé	-2533
ara	-2534
mma	-2535
rca	-2536
alzò	-2537
bbli	-2538
tana	-2539
eravi	-2540
▁indi	-2541
▁dovrà	-2542
▁sapere	-2543
bar	-2544
bil	-2545
Chi	-2546
fre	-2547
llo	-2548
▁vie	-2549
dosso	-2550
ronti	-2551
stava	-2552
▁ango	-2553
▁attra	-2554
▁colpa	-2555
▁grano	-2556
proprio	-2557
▁perdon	-2558
▁ricono	-2559
ciascuno	-2560
▁settimo	-2561
sma	-2562
ute	-2563
cando	-2564
mbini	-2565
annunzia	-2566
nati	-2567
▁teme	-2568
▁colpe	-2569
▁sorella	-2570
▁Ammoniti	-2571
elia	-2572
luce	-2573
insegna	-2574
allontan	-2575
rrò	-2576
▁Go	-2577
cerà	-2578
cipi	-2579
divo	-2580
trio	-2581
▁glo	-2582
▁ing	-2583
▁tal	-2584
appar	-2585
ccupa	-2586
vegli	-2587
viato	-2588
▁divi	-2589
▁avrai	-2590
▁menzo	-2591
▁prece	-2592
▁misero	-2593
▁uccelli	-2594
telligenza	-2595
▁settentrione	-2596
▁!».	-2597
oracolo	-2598
ccidente	-2599
erlo	-2600
▁Ara	-2601
▁esa	-2602
esero	-2603
messi	-2604
▁piena	-2605
▁umili	-2606
▁labbra	-2607
▁dinanzi	-2608
▁sventura	-2609
▁preghiera	-2610
ant	-2611
rpe	-2612
duta	-2613
lità	-2614
sare	-2615
tate	-2616
ggior	-2617
cubiti	-2618
davano	-2619
fferte	-2620
sona	-2621
ulti	-2622
▁Ama	-2623
entro	-2624
▁Fece	-2625
▁anzi	-2626
▁sarò	-2627
▁tras	-2628
▁batte	-2629
▁leggi	-2630
▁mille	-2631
▁cammino	-2632
▁propria	-2633
cari	-2634
donne	-2635
estremità	-2636
An	-2637
▁Fa	-2638
▁Ru	-2639
sciò	-2640
scor	-2641
▁Nabu	-2642
morrei	-2643
quegli	-2644
▁aiuto	-2645
▁buona	-2646
▁tanto	-2647
▁procla	-2648
▁sconfi	-2649
▁orecchi	-2650
cieli	-2651
riman	-2652
mangiare	-2653
aia	-2654
merà	-2655
▁Esa	-2656
▁gua	-2657
▁tur	-2658
danna	-2659
pasco	-2660
▁amore	-2661
▁confi	-2662
▁tornò	-2663
bestiame	-2664
▁Infatti	-2665
gina	-2666
lerà	-2667
orse	-2668
nalza	-2669
oltre	-2670
tezza	-2671
ggezza	-2672
ttosto	-2673
và	-2674
▁Me	-2675
▁Pi	-2676
▁min	-2677
campo	-2678
▁beni	-2679
▁dono	-2680
▁lasc	-2681
▁catti	-2682
▁vigna	-2683
▁bronzo	-2684
▁sdegno	-2685
▁stessi	-2686
▁presero	-2687
▁montagne	-2688
voli	-2689
bia	-2690
rla	-2691
tur	-2692
bbro	-2693
ebbe	-2694
geva	-2695
lera	-2696
tile	-2697
▁dar	-2698
erico	-2699
inago	-2700
lenza	-2701
struì	-2702
verai	-2703
▁affi	-2704
▁grido	-2705
▁liber	-2706
▁passi	-2707
▁primi	-2708
▁pronun	-2709
▁rimase	-2710
▁trenta	-2711
▁oriente	-2712
▁passare	-2713
uova	-2714
rdino	-2715
destra	-2716
dodici	-2717
princi	-2718
anziani	-2719
àr	-2720
▁Nel	-2721
▁fia	-2722
▁sel	-2723
▁viv	-2724
atrio	-2725
farai	-2726
tendo	-2727
▁darà	-2728
▁deso	-2729
▁poco	-2730
▁vivo	-2731
▁ferro	-2732
▁Quelli	-2733
chiunque	-2734
giordano	-2735
▁costoro	-2736
▁momento	-2737
▁comunione	-2738
cano	-2739
scel	-2740
teso	-2741
getta	-2742
zzare	-2743
parato	-2744
tterai	-2745
▁gui	-2746
morti	-2747
▁Esaù	-2748
generò	-2749
rarono	-2750
▁campi	-2751
▁Quindi	-2752
▁scelto	-2753
▁potente	-2754
lag	-2755
strada	-2756
potenza	-2757
oblazione	-2758
ing	-2759
▁Ga	-2760
▁Ia	-2761
▁Là	-2762
▁as	-2763
saia	-2764
serà	-2765
▁para	-2766
cherai	-2767
fficia	-2768
▁canto	-2769
incenso	-2770
▁costui	-2771
▁frutti	-2772
▁conosce	-2773
▁Geroboamo	-2774
rib	-2775
cava	-2776
impo	-2777
grandi	-2778
nostra	-2779
strani	-2780
mandato	-2781
dec	-2782
tani	-2783
▁dia	-2784
▁meno	-2785
consac	-2786
▁Disse	-2787
▁accor	-2788
▁posso	-2789
Signore	-2790
▁favore	-2791
▁comando	-2792
▁primogenito	-2793
bole	-2794
dirà	-2795
lata	-2796
mura	-2797
ccare	-2798
dotto	-2799
eremo	-2800
lendo	-2801
ttero	-2802
avvicin	-2803
essanta	-2804
nocente	-2805
ondanza	-2806
duce	-2807
tera	-2808
▁ado	-2809
▁ali	-2810
▁atti	-2811
essero	-2812
▁entrò	-2813
▁state	-2814
riguardo	-2815
▁porpora	-2816
▁seguito	-2817
▁cinquanta	-2818
ber	-2819
off	-2820
mando	-2821
minare	-2822
Di	-2823
▁Po	-2824
▁ob	-2825
ogge	-2826
tizia	-2827
sposto	-2828
stante	-2829
▁parlò	-2830
▁povero	-2831
▁suppli	-2832
restiero	-2833
santuario	-2834
▁comandato	-2835
▁risposero	-2836
peri	-2837
accor	-2838
vedere	-2839
servizio	-2840
au	-2841
▁Ki	-2842
modo	-2843
▁oro	-2844
mette	-2845
▁scor	-2846
libera	-2847
▁grida	-2848
geranno	-2849
angoscia	-2850
▁durante	-2851
▁consegna	-2852
moli	-2853
redi	-2854
reno	-2855
decìa	-2856
ducia	-2857
ubini	-2858
efraim	-2859
abo	-2860
▁Fu	-2861
segu	-2862
▁All	-2863
sposi	-2864
tterà	-2865
udito	-2866
▁cari	-2867
▁deva	-2868
▁deve	-2869
▁immo	-2870
▁vole	-2871
guarda	-2872
▁certo	-2873
▁preda	-2874
▁prova	-2875
▁angeli	-2876
▁ordine	-2877
▁ordinò	-2878
▁comanda	-2879
▁raggiun	-2880
▁Egiziani	-2881
▁vergogna	-2882
▁mezzogiorno	-2883
malva	-2884
giusti	-2885
lontano	-2886
cheo	-2887
enze	-2888
erba	-2889
sera	-2890
▁Cal	-2891
elice	-2892
nunzi	-2893
siano	-2894
▁alto	-2895
▁sten	-2896
essuna	-2897
▁acqui	-2898
▁mette	-2899
versari	-2900
▁Canaan	-2901
▁nessun	-2902
▁Nessuno	-2903
▁risusci	-2904
meno	-2905
tornò	-2906
ognuno	-2907
divenne	-2908
presenza	-2909
dde	-2910
gerai	-2911
▁Acab	-2912
▁Gàba	-2913
▁dirà	-2914
▁riti	-2915
▁possi	-2916
▁segno	-2917
▁prezio	-2918
▁ucciso	-2919
▁offerta	-2920
▁ricevuto	-2921
▁verranno	-2922
dul	-2923
dini	-2924
sabe	-2925
ttri	-2926
fetto	-2927
andare	-2928
goglio	-2929
postoli	-2930
veranno	-2931
ur	-2932
▁Zi	-2933
▁ni	-2934
asco	-2935
diano	-2936
trono	-2937
▁peso	-2938
▁reso	-2939
marono	-2940
▁forti	-2941
▁mogli	-2942
▁venga	-2943
tazione	-2944
▁meglio	-2945
▁reggia	-2946
▁avranno	-2947
▁pratica	-2948
▁prostra	-2949
▁chiamava	-2950
▁commesso	-2951
▁sterminio	-2952
arco	-2953
compa	-2954
chiamò	-2955
dra	-2956
vocò	-2957
dempi	-2958
onale	-2959
▁Edom	-2960
▁buoi	-2961
▁cher	-2962
▁ossa	-2963
▁rito	-2964
potere	-2965
▁buono	-2966
▁fiume	-2967
▁retti	-2968
lendore	-2969
▁bestia	-2970
cheranno	-2971
▁deporta	-2972
▁persone	-2973
▁portato	-2974
▁prodigi	-2975
▁salvato	-2976
▁quaranta	-2977
▁villaggi	-2978
▁ascoltato	-2979
alz	-2980
clu	-2981
udi	-2982
deri	-2983
fari	-2984
fosse	-2985
porte	-2986
ordinato	-2987
bon	-2988
▁Ge	-2989
libro	-2990
state	-2991
volte	-2992
▁Ogni	-2993
▁lode	-2994
▁mali	-2995
▁rica	-2996
▁stri	-2997
mostra	-2998
quelle	-2999
▁azioni	-3000
▁braccio	-3001
▁farisei	-3002
▁interro	-3003
▁perenne	-3004
▁prepara	-3005
▁scaccia	-3006
▁schiava	-3007
▁vangelo	-3008
▁Giòsafat	-3009
▁giovenco	-3010
▁indietro	-3011
▁nascosto	-3012
▁messaggeri	-3013
▁Nabucodònosor	-3014
pes	-3015
anch	-3016
dova	-3017
iano	-3018
ppre	-3019
conda	-3020
masco	-3021
monio	-3022
paolo	-3023
uoghi	-3024
gnifica	-3025
▁Ha	-3026
pian	-3027
uote	-3028
atten	-3029
▁data	-3030
▁dura	-3031
▁resi	-3032
▁sola	-3033
▁esser	-3034
▁radun	-3035
▁sommo	-3036
▁alture	-3037
▁nascon	-3038
▁saggio	-3039
▁tavola	-3040
giovanni	-3041
▁colonne	-3042
▁vivente	-3043
▁prostitu	-3044
mogli	-3045
perta	-3046
albero	-3047
peccati	-3048
sacrifici	-3049
»,	-3050
▁De	-3051
fano	-3052
tela	-3053
▁ced	-3054
▁pal	-3055
monti	-3056
▁cura	-3057
▁nube	-3058
▁puni	-3059
elebra	-3060
spetta	-3061
▁affer	-3062
▁casti	-3063
▁fanno	-3064
▁immon	-3065
▁pensa	-3066
▁pieno	-3067
▁tende	-3068
ciarono	-3069
lazioni	-3070
reranno	-3071
▁dentro	-3072
salvezza	-3073
▁Ascolta	-3074
▁facendo	-3075
▁partorì	-3076
▁ritorna	-3077
nipotente	-3078
▁moltipli	-3079
sap	-3080
sion	-3081
vamo	-3082
potrà	-3083
segno	-3084
scienza	-3085
possesso	-3086
dro	-3087
chiu	-3088
rend	-3089
▁dif	-3090
▁ere	-3091
▁ero	-3092
cinto	-3093
pelli	-3094
▁segu	-3095
disper	-3096
▁ascol	-3097
▁pelle	-3098
▁predi	-3099
▁testi	-3100
▁temere	-3101
▁tranqu	-3102
famiglie	-3103
▁agnelli	-3104
▁fanciul	-3105
▁mattina	-3106
▁conoscere	-3107
▁stranieri	-3108
fod	-3109
lie	-3110
ande	-3111
cifi	-3112
ppri	-3113
edero	-3114
stere	-3115
dormen	-3116
volenza	-3117
ves	-3118
pote	-3119
▁Noi	-3120
▁acce	-3121
▁assa	-3122
▁avrò	-3123
▁dite	-3124
▁puro	-3125
occhio	-3126
▁Tutta	-3127
▁conto	-3128
padrone	-3129
▁esegui	-3130
▁grazie	-3131
▁venuti	-3132
▁insegui	-3133
▁schiavo	-3134
▁purifica	-3135
▁seppelli	-3136
muo	-3137
iori	-3138
moab	-3139
uscì	-3140
certo	-3141
stanza	-3142
fedeltà	-3143
fia	-3144
ggu	-3145
gura	-3146
mper	-3147
pend	-3148
sciu	-3149
stan	-3150
vete	-3151
▁Sei	-3152
dagli	-3153
metti	-3154
rendi	-3155
sarai	-3156
stero	-3157
▁pose	-3158
lavoro	-3159
▁compo	-3160
▁giura	-3161
▁migli	-3162
▁regnò	-3163
▁dichia	-3164
▁pianta	-3165
▁riempi	-3166
comunità	-3167
▁bambino	-3168
▁profumo	-3169
▁sarebbe	-3170
▁sepolcro	-3171
▁torrente	-3172
▁discendenti	-3173
rme	-3174
doni	-3175
risu	-3176
dello	-3177
parlare	-3178
rien	-3179
ombra	-3180
▁gioi	-3181
▁meri	-3182
diceva	-3183
pietro	-3184
▁letto	-3185
▁mente	-3186
▁pensi	-3187
▁vista	-3188
interno	-3189
▁casati	-3190
▁stolto	-3191
▁maestro	-3192
▁pioggia	-3193
▁ribelli	-3194
▁prigioni	-3195
▁stabilito	-3196
▁abbandonato	-3197
kìm	-3198
lice	-3199
quei	-3200
stin	-3201
drete	-3202
droni	-3203
natore	-3204
voglio	-3205
testimonianza	-3206
fà	-3207
lga	-3208
mes	-3209
pose	-3210
▁cie	-3211
▁impe	-3212
pietra	-3213
▁avere	-3214
▁molte	-3215
▁negli	-3216
meranno	-3217
▁appena	-3218
▁partire	-3219
▁costitui	-3220
▁qualunque	-3221
var	-3222
giura	-3223
messe	-3224
morto	-3225
picco	-3226
sorte	-3227
morire	-3228
sapienza	-3229
beniamino	-3230
La	-3231
èf	-3232
dòk	-3233
▁To	-3234
anei	-3235
erri	-3236
gete	-3237
▁Ieu	-3238
▁lie	-3239
torio	-3240
▁atta	-3241
▁scio	-3242
▁torn	-3243
▁trib	-3244
▁velo	-3245
cevano	-3246
diante	-3247
▁forma	-3248
▁guari	-3249
▁solle	-3250
▁tempi	-3251
rebbero	-3252
▁faceva	-3253
▁scribi	-3254
▁bastone	-3255
▁concesso	-3256
misericordia	-3257
ano	-3258
gate	-3259
vono	-3260
estra	-3261
conosc	-3262
ata	-3263
sin	-3264
ttu	-3265
vani	-3266
▁App	-3267
▁Gad	-3268
▁dio	-3269
dotti	-3270
folla	-3271
melli	-3272
▁Gali	-3273
▁buon	-3274
▁avuto	-3275
▁fatta	-3276
▁parto	-3277
▁porti	-3278
▁vitti	-3279
presero	-3280
▁grasso	-3281
chiamato	-3282
convegno	-3283
▁confini	-3284
▁censimento	-3285
ki	-3286
delab	-3287
prodi	-3288
rando	-3289
stiti	-3290
terzo	-3291
ttono	-3292
ccherà	-3293
èftali	-3294
artiene	-3295
quaranta	-3296
bere	-3297
meri	-3298
▁dor	-3299
aiuto	-3300
onore	-3301
quell	-3302
tterò	-3303
Figlio	-3304
▁Ebron	-3305
▁leone	-3306
▁salva	-3307
▁suolo	-3308
aspetto	-3309
▁fedele	-3310
▁animali	-3311
▁fedeltà	-3312
▁tornare	-3313
lar	-3314
alcun	-3315
terni	-3316
vvero	-3317
ppiamo	-3318
stavano	-3319
Và	-3320
lia	-3321
▁Ai	-3322
rere	-3323
▁Bar	-3324
custo	-3325
fiume	-3326
meone	-3327
ccesso	-3328
ggiore	-3329
gliato	-3330
glierà	-3331
ontani	-3332
▁confu	-3333
▁lutto	-3334
▁posse	-3335
immondo	-3336
ppresso	-3337
▁Eliseo	-3338
▁Quegli	-3339
▁farina	-3340
▁misura	-3341
▁vivere	-3342
rontiera	-3343
▁confine	-3344
▁volontà	-3345
comba	-3346
subito	-3347
▁Te	-3348
conce	-3349
▁Paro	-3350
▁appa	-3351
▁basi	-3352
▁insi	-3353
▁salì	-3354
compre	-3355
derete	-3356
vennero	-3357
▁giurato	-3358
▁oggetto	-3359
▁consiglio	-3360
▁larghezza	-3361
sài	-3362
dirò	-3363
gini	-3364
ioab	-3365
minò	-3366
sape	-3367
trai	-3368
zati	-3369
fetti	-3370
forma	-3371
perti	-3372
renti	-3373
risca	-3374
ttera	-3375
zaria	-3376
critte	-3377
gioven	-3378
lingua	-3379
sporta	-3380
ttrina	-3381
damenta	-3382
circonci	-3383
aià	-3384
doma	-3385
efod	-3386
fate	-3387
gali	-3388
mana	-3389
tosi	-3390
ulon	-3391
▁sci	-3392
ttare	-3393
▁Levi	-3394
▁coro	-3395
▁vero	-3396
ariete	-3397
▁Forse	-3398
▁Ruben	-3399
▁portò	-3400
geremia	-3401
▁alberi	-3402
▁stanno	-3403
▁attorno	-3404
▁decreti	-3405
▁sinistra	-3406
tar	-3407
ciato	-3408
immon	-3409
prete	-3410
resto	-3411
appena	-3412
generazione	-3413
▁fà	-3414
achi	-3415
dian	-3416
mmia	-3417
pron	-3418
simo	-3419
verò	-3420
▁fai	-3421
avevo	-3422
pietre	-3423
àbulon	-3424
▁copri	-3425
▁legna	-3426
▁sogno	-3427
▁veste	-3428
▁tromba	-3429
anchetto	-3430
▁abitare	-3431
▁lamento	-3432
▁parlava	-3433
▁portare	-3434
▁terrore	-3435
▁visione	-3436
bal	-3437
darò	-3438
consu	-3439
ssato	-3440
timore	-3441
rivolta	-3442
samuele	-3443
Al	-3444
Do	-3445
ava	-3446
gar	-3447
▁En	-3448
ensa	-3449
invi	-3450
▁ber	-3451
▁eli	-3452
rezza	-3453
segni	-3454
serva	-3455
▁tali	-3456
dispre	-3457
frutto	-3458
garono	-3459
guardi	-3460
prendi	-3461
▁presi	-3462
▁Caldei	-3463
▁Libano	-3464
▁alcuno	-3465
▁altare	-3466
▁meravi	-3467
▁pagani	-3468
▁bambini	-3469
▁oracolo	-3470
▁rifugio	-3471
▁viaggio	-3472
▁condusse	-3473
▁mantello	-3474
▁benedetto	-3475
▁consacrato	-3476
fal	-3477
lse	-3478
vuo	-3479
cati	-3480
ripo	-3481
canti	-3482
lungo	-3483
merai	-3484
sabea	-3485
carono	-3486
inezza	-3487
almente	-3488
andarono	-3489
distrugg	-3490
fficiali	-3491
àm	-3492
▁và	-3493
abba	-3494
▁Una	-3495
portò	-3496
possa	-3497
▁Nell	-3498
▁muro	-3499
▁nomi	-3500
▁sicu	-3501
misero	-3502
▁Betel	-3503
▁sommi	-3504
▁vanta	-3505
▁alcuna	-3506
▁ebbero	-3507
▁greggi	-3508
▁rimane	-3509
▁spalle	-3510
▁nazione	-3511
▁piccolo	-3512
▁settanta	-3513
▁manifesta	-3514
▁ricchezze	-3515
cate	-3516
impa	-3517
altre	-3518
nasco	-3519
quest	-3520
vicino	-3521
dicevano	-3522
ministri	-3523
alti	-3524
baal	-3525
mòni	-3526
rava	-3527
rerò	-3528
spin	-3529
tolo	-3530
▁edi	-3531
lieri	-3532
▁Ioas	-3533
▁liba	-3534
▁misu	-3535
▁nato	-3536
ficato	-3537
minerà	-3538
rovina	-3539
smaele	-3540
ttordi	-3541
▁Colui	-3542
▁angelo	-3543
▁farete	-3544
▁mostra	-3545
▁profon	-3546
▁sapete	-3547
▁specie	-3548
▁troppo	-3549
incontro	-3550
rrezione	-3551
▁addosso	-3552
▁guardie	-3553
▁incenso	-3554
▁principe	-3555
▁portarono	-3556
gliare	-3557
entrare	-3558
In	-3559
fes	-3560
▁Za	-3561
bbia	-3562
rode	-3563
volo	-3564
▁Hai	-3565
▁Pro	-3566
abiti	-3567
idoli	-3568
▁camb	-3569
▁vede	-3570
▁crede	-3571
▁fossa	-3572
▁gettò	-3573
▁inten	-3574
cammina	-3575
cavalli	-3576
neppure	-3577
▁Aramei	-3578
▁argento	-3579
▁fianchi	-3580
▁giudice	-3581
▁offerte	-3582
tam	-3583
bilì	-3584
fran	-3585
late	-3586
lori	-3587
venga	-3588
utorità	-3589
condotta	-3590
soltanto	-3591
bri	-3592
▁Dan	-3593
▁alz	-3594
▁esc	-3595
▁piu	-3596
▁stu	-3597
acqui	-3598
pietà	-3599
sente	-3600
vando	-3601
▁apri	-3602
denaro	-3603
isacco	-3604
sabato	-3605
▁Maria	-3606
▁cessa	-3607
▁petto	-3608
▁regni	-3609
▁sugli	-3610
diritto	-3611
▁riposo	-3612
▁secoli	-3613
▁stirpe	-3614
▁videro	-3615
▁vedendo	-3616
▁cominciò	-3617
▁promessa	-3618
▁saggezza	-3619
discendenza	-3620
▁accamparono	-3621
elk	-3622
assi	-3623
vanta	-3624
costui	-3625
occupa	-3626
costoro	-3627
trovato	-3628
stu	-3629
▁Ar	-3630
cciò	-3631
ferì	-3632
▁ari	-3633
▁sai	-3634
carsi	-3635
gnerà	-3636
polto	-3637
trodu	-3638
▁diri	-3639
▁vera	-3640
marito	-3641
minerò	-3642
raduna	-3643
▁affli	-3644
▁santa	-3645
▁siate	-3646
▁tocca	-3647
▁trovò	-3648
ezechia	-3649
▁Eppure	-3650
▁Parola	-3651
▁Sichem	-3652
▁avendo	-3653
▁catene	-3654
▁guarda	-3655
▁motivo	-3656
▁purifi	-3657
▁sinago	-3658
▁tavole	-3659
▁venuta	-3660
▁Amorrei	-3661
▁manderò	-3662
▁osserva	-3663
▁persona	-3664
▁trovava	-3665
▁vecchio	-3666
▁condanna	-3667
▁esercito	-3668
vve	-3669
atti	-3670
cera	-3671
ffon	-3672
pure	-3673
rata	-3674
collo	-3675
disce	-3676
pesta	-3677
gàlaad	-3678
unzione	-3679
verranno	-3680
territorio	-3681
como	-3682
▁Ven	-3683
▁gro	-3684
▁sig	-3685
▁sin	-3686
asino	-3687
decre	-3688
▁deli	-3689
▁pani	-3690
pecore	-3691
simile	-3692
▁cuori	-3693
▁ralle	-3694
▁riuni	-3695
▁scher	-3696
▁scudi	-3697
Assiria	-3698
gettato	-3699
qualche	-3700
regione	-3701
▁Appena	-3702
▁Balaam	-3703
▁andava	-3704
▁decimo	-3705
▁Galilea	-3706
▁bisogno	-3707
▁faranno	-3708
▁scienza	-3709
▁duecento	-3710
▁proprietà	-3711
▁benedizione	-3712
oz	-3713
vvi	-3714
drai	-3715
teli	-3716
conta	-3717
raneo	-3718
sepol	-3719
seria	-3720
azione	-3721
lorosi	-3722
perato	-3723
ssacar	-3724
mattino	-3725
portato	-3726
ccasione	-3727
Ma	-3728
▁sì	-3729
grano	-3730
udire	-3731
▁Guai	-3732
▁scia	-3733
▁vuoi	-3734
▁saggi	-3735
▁sposa	-3736
conosce	-3737
manàsse	-3738
▁Giudea	-3739
▁avrete	-3740
▁presto	-3741
▁riusci	-3742
▁tesori	-3743
▁uscito	-3744
▁veniva	-3745
▁collera	-3746
▁oggetti	-3747
▁giardino	-3748
▁mangiato	-3749
▁Abimèlech	-3750
▁olocausto	-3751
▁piuttosto	-3752
morì	-3753
avrai	-3754
gover	-3755
monto	-3756
andate	-3757
portare	-3758
schiavi	-3759
duecento	-3760
qualcuno	-3761
Vi	-3762
dic	-3763
zre	-3764
alli	-3765
atta	-3766
canto	-3767
gazzo	-3768
gherò	-3769
retti	-3770
▁Alla	-3771
▁Guar	-3772
▁rami	-3773
▁seno	-3774
▁metti	-3775
▁piede	-3776
▁vegli	-3777
▁vitto	-3778
cheggia	-3779
▁Gerico	-3780
▁giunse	-3781
▁lavori	-3782
▁provin	-3783
▁quarto	-3784
▁sappia	-3785
▁uccise	-3786
rientale	-3787
▁sguardo	-3788
▁moltitudine	-3789
potre	-3790
scano	-3791
ricche	-3792
dimenti	-3793
maestro	-3794
struzione	-3795
tal	-3796
une	-3797
Sono	-3798
adàb	-3799
cada	-3800
turi	-3801
▁aiu	-3802
▁ger	-3803
▁mal	-3804
▁Aram	-3805
▁Scri	-3806
▁cima	-3807
▁cora	-3808
▁flag	-3809
▁gelo	-3810
▁parl	-3811
▁scar	-3812
▁Isaia	-3813
▁circa	-3814
▁colli	-3815
▁dissi	-3816
▁poter	-3817
▁rimar	-3818
▁altari	-3819
▁dicono	-3820
▁fedeli	-3821
▁poveri	-3822
▁raccon	-3823
vergogna	-3824
▁domandò	-3825
▁passato	-3826
▁servire	-3827
▁cadaveri	-3828
▁violenza	-3829
▁forestiero	-3830
ala	-3831
tun	-3832
altà	-3833
scio	-3834
derio	-3835
detti	-3836
gendo	-3837
gherà	-3838
vieni	-3839
ziano	-3840
gliati	-3841
errieri	-3842
settanta	-3843
ttordici	-3844
risposero	-3845
▁El	-3846
affi	-3847
ersi	-3848
pito	-3849
▁sop	-3850
carri	-3851
▁Elea	-3852
▁asso	-3853
▁invo	-3854
▁nubi	-3855
▁vidi	-3856
▁Abner	-3857
▁Abram	-3858
▁Farai	-3859
▁caval	-3860
▁conso	-3861
▁desti	-3862
▁miele	-3863
▁partì	-3864
▁perco	-3865
▁pezzi	-3866
▁scese	-3867
▁segre	-3868
▁cadere	-3869
▁eterno	-3870
▁finito	-3871
▁inferi	-3872
▁lasciò	-3873
▁seduto	-3874
▁spiega	-3875
▁tratta	-3876
giudizio	-3877
▁Sedecìa	-3878
▁diranno	-3879
▁maschio	-3880
▁Chiunque	-3881
▁uscirono	-3882
▁cherubini	-3883
▁straniero	-3884
ado	-3885
clo	-3886
cub	-3887
deo	-3888
rifu	-3889
lento	-3890
pasto	-3891
continu	-3892
parlato	-3893
▁Ni	-3894
cibo	-3895
gata	-3896
gino	-3897
doman	-3898
donia	-3899
gando	-3900
zzati	-3901
▁atte	-3902
▁indu	-3903
▁inte	-3904
▁rame	-3905
▁soli	-3906
contra	-3907
gguato	-3908
micida	-3909
propri	-3910
▁amici	-3911
▁passò	-3912
pascoli	-3913
samaria	-3914
▁andate	-3915
▁fiducia	-3916
▁fossero	-3917
▁macchia	-3918
▁prescri	-3919
▁renderò	-3920
▁schiere	-3921
espiatorio	-3922
▁avversari	-3923
▁lunghezza	-3924
▁registrati	-3925
immo	-3926
piti	-3927
fedele	-3928
oggetto	-3929
bba	-3930
cque	-3931
ngue	-3932
paci	-3933
▁Ghe	-3934
▁sov	-3935
attra	-3936
comme	-3937
▁Bene	-3938
▁cava	-3939
▁date	-3940
▁stru	-3941
perdon	-3942
vevano	-3943
▁Mardo	-3944
▁estre	-3945
▁giogo	-3946
▁udire	-3947
▁aggiun	-3948
▁avanza	-3949
▁lancia	-3950
▁profan	-3951
▁Intanto	-3952
▁accanto	-3953
▁selvati	-3954
▁abominio	-3955
▁apostoli	-3956
▁fortezze	-3957
▁lasciato	-3958
▁prigione	-3959
▁combattere	-3960
▁conoscenza	-3961
▁maledizione	-3962
mal	-3963
rne	-3964
tàn	-3965
bati	-3966
beni	-3967
brio	-3968
divi	-3969
cenda	-3970
erari	-3971
lgala	-3972
segnò	-3973
siasi	-3974
ssima	-3975
tende	-3976
listeo	-3977
sterna	-3978
giònata	-3979
olocausti	-3980
bala	-3981
ioia	-3982
▁Car	-3983
▁Mes	-3984
▁bue	-3985
▁mer	-3986
▁pur	-3987
derlo	-3988
▁rico	-3989
fedeli	-3990
gregge	-3991
sarete	-3992
scende	-3993
sposta	-3994
▁Ricor	-3995
▁Salmo	-3996
▁Zacca	-3997
▁fiumi	-3998
▁vieni	-3999
interro	-4000
▁compia	-4001
▁dolore	-4002
▁prendi	-4003
▁strade	-4004
orgoglio	-4005
▁porterà	-4006
▁persegui	-4007
▁Mardocheo	-4008
▁abitavano	-4009
▁principio	-4010
fle	-4011
nòn	-4012
acaz	-4013
fame	-4014
illi	-4015
soff	-4016
confi	-4017
torni	-4018
bestie	-4019
stessa	-4020
polvere	-4021
battaglia	-4022
dad	-4023
viv	-4024
atte	-4025
case	-4026
gerò	-4027
mpar	-4028
nica	-4029
pper	-4030
temp	-4031
▁Por	-4032
▁bal	-4033
affli	-4034
atore	-4035
lario	-4036
rovvi	-4037
ttavo	-4038
viati	-4039
zreèl	-4040
▁Tiro	-4041
▁arie	-4042
▁entr	-4043
▁feri	-4044
▁vedi	-4045
gevano	-4046
minati	-4047
nemico	-4048
nostre	-4049
tranno	-4050
▁danno	-4051
▁profu	-4052
▁trafi	-4053
agnello	-4054
delabro	-4055
malvagi	-4056
ronache	-4057
▁Giosia	-4058
▁Queste	-4059
▁contra	-4060
▁faccio	-4061
▁fretta	-4062
▁furore	-4063
▁ripara	-4064
▁vedova	-4065
dormentò	-4066
speranza	-4067
▁Damasco	-4068
▁apparve	-4069
▁bottino	-4070
▁essendo	-4071
▁innalza	-4072
▁prostrò	-4073
▁chiamare	-4074
▁menzogna	-4075
▁possiamo	-4076
▁promesso	-4077
▁scendere	-4078
▁considera	-4079
▁costruito	-4080
▁preparato	-4081
▁splendore	-4082
▁tornarono	-4083
▁conosciuto	-4084
intelligenza	-4085
sel	-4086
spor	-4087
batte	-4088
andosi	-4089
ppiate	-4090
assiria	-4091
comandi	-4092
daniele	-4093
durante	-4094
giovani	-4095
campagna	-4096
▁z	-4097
▁Av	-4098
▁Ke	-4099
▁Vo	-4100
Come	-4101
mpie	-4102
▁Ana	-4103
▁Sin	-4104
dovrà	-4105
entrò	-4106
prece	-4107
volti	-4108
▁irri	-4109
▁mesi	-4110
▁pala	-4111
▁vani	-4112
eterna	-4113
ribile	-4114
▁Parti	-4115
▁carro	-4116
▁corre	-4117
▁gesta	-4118
▁ricco	-4119
▁sacco	-4120
giovane	-4121
intanto	-4122
▁Giobbe	-4123
▁Pilato	-4124
▁arieti	-4125
▁caccia	-4126
▁luoghi	-4127
▁morirà	-4128
▁roccia	-4129
▁chiamati	-4130
▁prenderà	-4131
▁ascoltare	-4132
tè	-4133
leb	-4134
tin	-4135
erti	-4136
ervi	-4137
gati	-4138
riat	-4139
sarò	-4140
crime	-4141
elato	-4142
ggero	-4143
legno	-4144
primi	-4145
testi	-4146
versi	-4147
zzimi	-4148
minata	-4149
insegui	-4150
passare	-4151
cessario	-4152
espiazione	-4153
az	-4154
ke	-4155
▁"	-4156
▁zo	-4157
metà	-4158
▁udi	-4159
cella	-4160
colpa	-4161
paura	-4162
rendo	-4163
sicli	-4164
umili	-4165
▁affa	-4166
▁amma	-4167
▁base	-4168
▁fior	-4169
▁odia	-4170
▁stre	-4171
procla	-4172
▁canta	-4173
▁chied	-4174
▁gridò	-4175
▁ormai	-4176
▁stare	-4177
▁vigne	-4178
▁Làbano	-4179
▁carità	-4180
▁demoli	-4181
▁giunto	-4182
▁custodi	-4183
▁rivesti	-4184
assalonne	-4185
▁compiuto	-4186
▁oblazione	-4187
▁testimoni	-4188
cinquecento	-4189
▁condussero	-4190
assa	-4191
dore	-4192
affer	-4193
chele	-4194
esser	-4195
tenebre	-4196
prossimo	-4197
preghiera	-4198
Ri	-4199
lce	-4200
rma	-4201
unu	-4202
zzò	-4203
àch	-4204
ades	-4205
ddis	-4206
gheb	-4207
iare	-4208
mari	-4209
miti	-4210
▁cla	-4211
giada	-4212
lippo	-4213
pente	-4214
ssimi	-4215
▁anti	-4216
▁impu	-4217
chiamo	-4218
decimo	-4219
ltezza	-4220
minate	-4221
sapere	-4222
▁citta	-4223
▁peste	-4224
▁vuole	-4225
orecchi	-4226
settimo	-4227
uccelli	-4228
▁arredi	-4229
▁avanti	-4230
▁fianco	-4231
▁occhio	-4232
▁ordini	-4233
▁gettato	-4234
▁offrire	-4235
▁schiera	-4236
▁Eleazaro	-4237
▁Zaccaria	-4238
▁presenta	-4239
▁peccatori	-4240
▁giuramento	-4241
vie	-4242
edom	-4243
gava	-4244
teme	-4245
moria	-4246
presi	-4247
vista	-4248
sorella	-4249
ammoniti	-4250
rim	-4251
cina	-4252
guai	-4253
lasc	-4254
mane	-4255
mite	-4256
sara	-4257
tola	-4258
▁Noè	-4259
▁sce	-4260
colpe	-4261
mille	-4262
rivol	-4263
▁mari	-4264
▁ulti	-4265
▁canti	-4266
▁dirai	-4267
▁lampa	-4268
▁pieni	-4269
▁retto	-4270
▁sazia	-4271
▁togli	-4272
tornare	-4273
▁Simone	-4274
▁disono	-4275
▁domani	-4276
▁obbedi	-4277
▁vicini	-4278
sventura	-4279
▁conosci	-4280
▁intanto	-4281
▁pastori	-4282
▁piccoli	-4283
▁potenti	-4284
▁vestito	-4285
▁malvagio	-4286
▁occidente	-4287
▁ricchezza	-4288
▁consegnato	-4289
ddo	-4290
nai	-4291
done	-4292
erla	-4293
mono	-4294
tuti	-4295
buona	-4296
fetta	-4297
latti	-4298
leggi	-4299
menzo	-4300
trice	-4301
ziona	-4302
dulter	-4303
posito	-4304
ratore	-4305
rimase	-4306
zienza	-4307
samente	-4308
sessanta	-4309
benedetto	-4310
settentrione	-4311
Ho	-4312
efa	-4313
gad	-4314
sai	-4315
▁au	-4316
acce	-4317
poco	-4318
scal	-4319
▁Dei	-4320
▁inf	-4321
▁lan	-4322
piena	-4323
posso	-4324
▁mira	-4325
▁visi	-4326
indici	-4327
labbra	-4328
meglio	-4329
sconfi	-4330
venuti	-4331
▁Ester	-4332
▁Natan	-4333
▁Zadòk	-4334
▁abiti	-4335
▁coppa	-4336
▁perse	-4337
▁piang	-4338
▁presa	-4339
▁prote	-4340
▁rifiu	-4341
▁segni	-4342
dinanzi	-4343
sultare	-4344
▁albero	-4345
▁aperto	-4346
▁medesi	-4347
▁pianto	-4348
tteranno	-4349
▁Cananei	-4350
▁ardente	-4351
▁mettere	-4352
▁Betlemme	-4353
▁alzarono	-4354
▁apparten	-4355
▁mediante	-4356
▁numerosi	-4357
▁uccidere	-4358
▁benevolenza	-4359
▁governatore	-4360
▁risuscitato	-4361
lì	-4362
àd	-4363
diate	-4364
passi	-4365
angeli	-4366
cammino	-4367
propria	-4368
ggì	-4369
ssù	-4370
ammi	-4371
arvi	-4372
cata	-4373
ccor	-4374
darà	-4375
fron	-4376
impu	-4377
nabu	-4378
pare	-4379
tras	-4380
ulla	-4381
vedi	-4382
▁Ber	-4383
▁Gat	-4384
catti	-4385
cesse	-4386
esare	-4387
pieno	-4388
tagna	-4389
▁doni	-4390
▁ripu	-4391
▁viva	-4392
caccia	-4393
dicato	-4394
ggiare	-4395
▁cedro	-4396
▁uscirà	-4397
compensa	-4398
pendenze	-4399
▁Nèftali	-4400
▁Roboamo	-4401
▁braccia	-4402
▁compren	-4403
▁entrerà	-4404
▁inviato	-4405
▁resterà	-4406
▁seconda	-4407
▁viscere	-4408
▁angoscia	-4409
▁spavento	-4410
▁benedisse	-4411
▁appartiene	-4412
▁comandamenti	-4413
pà	-4414
lli	-4415
arci	-4416
tina	-4417
canta	-4418
grida	-4419
stano	-4420
brucia	-4421
scendo	-4422
ucciso	-4423
prepara	-4424
occidente	-4425
▁r	-4426
uso	-4427
coro	-4428
impe	-4429
melo	-4430
▁Mac	-4431
▁pla	-4432
erach	-4433
fatta	-4434
liber	-4435
tante	-4436
vigna	-4437
▁Amàn	-4438
▁devi	-4439
▁esal	-4440
▁lino	-4441
▁obbe	-4442
▁ridu	-4443
▁sale	-4444
bronzo	-4445
finito	-4446
nessun	-4447
pronun	-4448
scelto	-4449
sdegno	-4450
stessi	-4451
▁Gàbaa	-4452
▁Ioram	-4453
▁bontà	-4454
▁farlo	-4455
▁latte	-4456
▁nello	-4457
▁nuova	-4458
▁piaga	-4459
omicida	-4460
seguito	-4461
▁adempi	-4462
▁avesse	-4463
▁dirgli	-4464
▁perire	-4465
▁regina	-4466
▁tesoro	-4467
montagne	-4468
seicento	-4469
▁Simeone	-4470
▁celebra	-4471
▁precipi	-4472
▁sentito	-4473
▁viventi	-4474
▁comporta	-4475
▁dispersi	-4476
▁dobbiamo	-4477
▁presentò	-4478
▁trecento	-4479
▁vendetta	-4480
abbondanza	-4481
▁colpevole	-4482
▁distrutto	-4483
▁frontiera	-4484
▁mangerete	-4485
▁significa	-4486
ffe	-4487
riv	-4488
trè	-4489
dali	-4490
deso	-4491
esaù	-4492
està	-4493
vito	-4494
aniti	-4495
dezze	-4496
ffici	-4497
forti	-4498
grido	-4499
legna	-4500
quila	-4501
stito	-4502
eppure	-4503
ghiere	-4504
teneva	-4505
compren	-4506
innocente	-4507
▁Or	-4508
▁Pe	-4509
▁Sò	-4510
appa	-4511
tava	-4512
▁Era	-4513
▁San	-4514
▁bre	-4515
▁pon	-4516
▁pun	-4517
ferro	-4518
riamo	-4519
▁indo	-4520
▁pare	-4521
▁rimp	-4522
▁vite	-4523
favore	-4524
scorsi	-4525
▁Certo	-4526
▁capro	-4527
▁infer	-4528
▁messi	-4529
▁mieti	-4530
▁punto	-4531
▁tribo	-4532
▁vanno	-4533
comanda	-4534
duemila	-4535
momento	-4536
pratica	-4537
▁Chiesa	-4538
▁Ioiadà	-4539
▁percor	-4540
▁salire	-4541
▁scarla	-4542
indietro	-4543
▁abomini	-4544
▁consegn	-4545
▁diedero	-4546
▁lettera	-4547
▁nessuna	-4548
▁ricordo	-4549
▁vengono	-4550
comunione	-4551
▁cadranno	-4552
▁compiere	-4553
▁dottrina	-4554
▁descritte	-4555
▁disprezza	-4556
▁fondamenta	-4557
▁compassione	-4558
àt	-4559
cas	-4560
dimi	-4561
gioi	-4562
nate	-4563
ossa	-4564
campi	-4565
scese	-4566
dicono	-4567
frutti	-4568
uccise	-4569
conoscere	-4570
stabilito	-4571
cinquemila	-4572
òn	-4573
emi	-4574
fàn	-4575
mòn	-4576
pon	-4577
ardi	-4578
eleb	-4579
giti	-4580
ssen	-4581
▁Ciò	-4582
▁Cor	-4583
▁Ver	-4584
▁bri	-4585
becca	-4586
mperà	-4587
strib	-4588
sulti	-4589
▁Assu	-4590
▁arro	-4591
▁devo	-4592
Andate	-4593
datevi	-4594
ratori	-4595
venuta	-4596
vivere	-4597
▁Amale	-4598
▁agito	-4599
▁sacro	-4600
▁viola	-4601
tterete	-4602
▁prezzo	-4603
▁ritorn	-4604
▁scanda	-4605
▁stelle	-4606
▁trombe	-4607
consegna	-4608
▁Assiria	-4609
▁Zàbulon	-4610
▁ascolto	-4611
▁ricondu	-4612
▁strappa	-4613
geroboamo	-4614
▁principi	-4615
▁banchetto	-4616
▁ricostrui	-4617
▁schiavitù	-4618
▁intelligenza	-4619
bbi	-4620
glo	-4621
lon	-4622
pal	-4623
teo	-4624
bran	-4625
devo	-4626
nare	-4627
oniti	-4628
parlò	-4629
siate	-4630
sorta	-4631
alzati	-4632
azioni	-4633
ttenti	-4634
comando	-4635
ssibile	-4636
primogenito	-4637
quattromila	-4638
quattrocento	-4639
mpe	-4640
oli	-4641
▁As	-4642
nove	-4643
▁Miz	-4644
manda	-4645
pensa	-4646
salva	-4647
seguì	-4648
solle	-4649
▁Rach	-4650
▁fran	-4651
▁otto	-4652
▁suon	-4653
▁vive	-4654
abisso	-4655
suppli	-4656
▁Basan	-4657
▁belle	-4658
▁bisso	-4659
▁pecca	-4660
▁piano	-4661
▁prele	-4662
▁rende	-4663
▁suono	-4664
avranno	-4665
mattina	-4666
porpora	-4667
▁Azaria	-4668
▁Madian	-4669
▁cammin	-4670
▁prende	-4671
▁satana	-4672
▁scriba	-4673
▁Rachele	-4674
▁caresti	-4675
▁notizia	-4676
▁offrirà	-4677
▁possono	-4678
▁cammelli	-4679
▁riscatto	-4680
▁diventato	-4681
▁ufficiali	-4682
▁altrimenti	-4683
▁giovinezza	-4684
èa	-4685
est	-4686
reo	-4687
ttè	-4688
bola	-4689
deve	-4690
dòne	-4691
avere	-4692
buono	-4693
cessi	-4694
elici	-4695
elkia	-4696
ggere	-4697
gnori	-4698
mmeno	-4699
quero	-4700
strin	-4701
trisa	-4702
tuale	-4703
enetra	-4704
orfano	-4705
povero	-4706
stribui	-4707
estemmia	-4708
comandato	-4709
Ara	-4710
rle	-4711
▁Bi	-4712
▁Bo	-4713
▁lì	-4714
▁on	-4715
acab	-4716
peso	-4717
▁eri	-4718
edifi	-4719
prova	-4720
▁alta	-4721
▁caso	-4722
▁riva	-4723
▁voto	-4724
ordinò	-4725
ottavo	-4726
scorso	-4727
▁Iesse	-4728
▁colpì	-4729
▁espia	-4730
▁guada	-4731
▁impre	-4732
▁infor	-4733
▁tolto	-4734
raggiun	-4735
▁Sòdoma	-4736
▁andato	-4737
▁chiese	-4738
▁deciso	-4739
▁demòni	-4740
▁lebbra	-4741
▁niente	-4742
▁quinto	-4743
▁temete	-4744
egiziani	-4745
▁crocifi	-4746
▁giudizi	-4747
▁pastore	-4748
▁recinto	-4749
▁ribella	-4750
▁talenti	-4751
partirono	-4752
▁chiamata	-4753
▁generato	-4754
▁allontanò	-4755
▁diventerà	-4756
▁passarono	-4757
▁attraversa	-4758
▁desolazione	-4759
▁prigionieri	-4760
▁presentarono	-4761
▁risurrezione	-4762
lode	-4763
ascol	-4764
ddero	-4765
dersi	-4766
preda	-4767
viamo	-4768
pianta	-4769
dettero	-4770
risusci	-4771
cominciò	-4772
qualunque	-4773
mezzogiorno	-4774
ll	-4775
fel	-4776
gon	-4777
quo	-4778
rci	-4779
maia	-4780
mito	-4781
rale	-4782
salì	-4783
vidi	-4784
▁Ief	-4785
Parla	-4786
cilla	-4787
rerai	-4788
scina	-4789
▁Aser	-4790
▁armi	-4791
▁inni	-4792
▁lapi	-4793
▁luna	-4794
▁sazi	-4795
▁spie	-4796
canaan	-4797
ebbero	-4798
magine	-4799
natori	-4800
prezio	-4801
profon	-4802
riempi	-4803
strerò	-4804
tiopia	-4805
▁Nella	-4806
▁barca	-4807
▁coper	-4808
▁denti	-4809
▁oppri	-4810
▁soave	-4811
prostra	-4812
▁andati	-4813
▁corona	-4814
▁fiamme	-4815
▁potrai	-4816
▁soffio	-4817
▁statua	-4818
▁vanità	-4819
▁voglia	-4820
bbrobrio	-4821
dulterio	-4822
▁Ismaele	-4823
▁giudici	-4824
▁maggior	-4825
▁metterà	-4826
▁partori	-4827
▁ritorno	-4828
portarono	-4829
▁aggiunse	-4830
▁pensieri	-4831
▁qualcosa	-4832
▁seicento	-4833
▁successo	-4834
▁venivano	-4835
▁cavalieri	-4836
▁innocente	-4837
▁pronunzia	-4838
▁scarlatto	-4839
▁commettere	-4840
▁radunarono	-4841
..	-4842
ann	-4843
gàba	-4844
muro	-4845
naba	-4846
gnati	-4847
molte	-4848
radun	-4849
dichia	-4850
diranno	-4851
scaccia	-4852
vedendo	-4853
moltipli	-4854
ricevuto	-4855
villaggi	-4856
ascoltate	-4857
On	-4858
bed	-4859
Dice	-4860
erib	-4861
inti	-4862
puni	-4863
reso	-4864
▁aro	-4865
conto	-4866
desti	-4867
retta	-4868
torto	-4869
▁Gher	-4870
▁aprì	-4871
domani	-4872
reggia	-4873
ultimo	-4874
▁bella	-4875
▁capri	-4876
▁offrì	-4877
▁volle	-4878
facendo	-4879
mettere	-4880
partire	-4881
persone	-4882
salvato	-4883
▁debole	-4884
▁istrui	-4885
▁nudità	-4886
▁pasqua	-4887
▁pubbli	-4888
▁radunò	-4889
▁rivela	-4890
▁stanze	-4891
chiamava	-4892
commesso	-4893
▁annunzi	-4894
▁guardia	-4895
▁portico	-4896
▁ragione	-4897
▁salvare	-4898
▁sepolto	-4899
▁terreno	-4900
sterminio	-4901
▁carestia	-4902
▁potevano	-4903
▁costruire	-4904
▁entrarono	-4905
▁trovarono	-4906
Onnipotente	-4907
▁circoncisi	-4908
▁superstiti	-4909
▁disprezzato	-4910
▁distruggere	-4911
chì	-4912
fai	-4913
làm	-4914
buoi	-4915
dolo	-4916
ffor	-4917
lino	-4918
pore	-4919
veva	-4920
casti	-4921
dezza	-4922
ferma	-4923
pelle	-4924
steso	-4925
ttuto	-4926
bestia	-4927
ccello	-4928
ciulla	-4929
dentro	-4930
esegui	-4931
gerete	-4932
grazie	-4933
ittita	-4934
ittiti	-4935
stenza	-4936
tavano	-4937
conosci	-4938
prodigi	-4939
ministra	-4940
ascoltato	-4941
ficazione	-4942
ttentrionale	-4943
Voi	-4944
▁Pu	-4945
Alti	-4946
aria	-4947
resi	-4948
▁Tra	-4949
▁nuo	-4950
regnò	-4951
▁Asaf	-4952
▁Sara	-4953
▁accu	-4954
▁colo	-4955
▁fama	-4956
▁igno	-4957
▁seme	-4958
▁sino	-4959
▁spun	-4960
▁turb	-4961
▁vuol	-4962
cciden	-4963
edeone	-4964
nascon	-4965
saggio	-4966
stolto	-4967
▁Balak	-4968
▁amico	-4969
▁asini	-4970
▁cadde	-4971
▁discu	-4972
▁edifi	-4973
▁mando	-4974
▁piene	-4975
▁provo	-4976
▁resti	-4977
▁vedrà	-4978
braccio	-4979
farisei	-4980
giurato	-4981
perenne	-4982
schiava	-4983
vangelo	-4984
vivente	-4985
▁Benaià	-4986
▁libero	-4987
giovenco	-4988
giòsafat	-4989
nascosto	-4990
purifica	-4991
▁agnello	-4992
▁antichi	-4993
▁avrebbe	-4994
▁castigo	-4995
▁costruì	-4996
▁innanzi	-4997
▁inoltre	-4998
▁miseria	-4999
▁rimasto	-5000
▁soldati	-5001
▁trasgre	-5002
Altissimo	-5003
sultarono	-5004
▁cadavere	-5005
▁coraggio	-5006
▁sinagoga	-5007
▁valorosi	-5008
messaggeri	-5009
▁Partirono	-5010
▁malvagità	-5011
▁partirono	-5012
▁trovavano	-5013
▁abbondanza	-5014
▁generazioni	-5015
nabucodònosor	-5016
dif	-5017
elu	-5018
entr	-5019
igno	-5020
sene	-5021
compo	-5022
copri	-5023
giona	-5024
pensi	-5025
sommo	-5026
vestì	-5027
alture	-5028
ficati	-5029
tavola	-5030
colonne	-5031
partorì	-5032
sarebbe	-5033
vengono	-5034
prostitu	-5035
dicazione	-5036
Su	-5037
inn	-5038
mòt	-5039
tia	-5040
▁dò	-5041
▁»,	-5042
alta	-5043
avrò	-5044
bino	-5045
boli	-5046
cani	-5047
chea	-5048
diri	-5049
inte	-5050
nube	-5051
rirà	-5052
ssia	-5053
velo	-5054
vivo	-5055
▁Mar	-5056
diato	-5057
dolia	-5058
fanno	-5059
porti	-5060
stoni	-5061
▁Fino	-5062
▁cori	-5063
▁feci	-5064
▁nati	-5065
▁sete	-5066
▁temp	-5067
Quando	-5068
Questo	-5069
andolo	-5070
faceva	-5071
geniti	-5072
rattri	-5073
temere	-5074
tratta	-5075
▁Erode	-5076
▁abbat	-5077
▁andrà	-5078
▁corna	-5079
▁falso	-5080
▁mosse	-5081
▁regna	-5082
▁Ebbene	-5083
▁conser	-5084
▁difesa	-5085
▁distin	-5086
▁esseri	-5087
▁rispar	-5088
▁voluto	-5089
costitui	-5090
oppresso	-5091
seppelli	-5092
versario	-5093
▁Gedeone	-5094
▁Giacomo	-5095
▁decreto	-5096
▁diletto	-5097
▁ragazzo	-5098
▁vergine	-5099
stranieri	-5100
▁desidera	-5101
▁facevano	-5102
▁migliaia	-5103
▁raccolto	-5104
▁sappiamo	-5105
ccidentale	-5106
▁ascoltate	-5107
▁orientale	-5108
mos	-5109
adàd	-5110
dino	-5111
misu	-5112
orzo	-5113
puro	-5114
teri	-5115
vine	-5116
dirai	-5117
splen	-5118
grasso	-5119
tranqu	-5120
agnelli	-5121
fanciul	-5122
glierai	-5123
osserva	-5124
schiavo	-5125
abominio	-5126
No	-5127
uc	-5128
bria	-5129
onta	-5130
▁Cam	-5131
▁Sia	-5132
▁Uno	-5133
▁tru	-5134
esbon	-5135
▁Acaz	-5136
▁Nilo	-5137
▁navi	-5138
▁recò	-5139
▁vado	-5140
▁vivi	-5141
ciglio	-5142
troppo	-5143
veglia	-5144
▁Tutte	-5145
▁cambi	-5146
▁culto	-5147
▁escla	-5148
▁scudo	-5149
inoltre	-5150
stretto	-5151
▁anelli	-5152
▁ariete	-5153
▁conclu	-5154
▁grosso	-5155
▁maschi	-5156
▁minuto	-5157
▁riceve	-5158
▁simili	-5159
▁spaven	-5160
▁abitano	-5161
▁avverrà	-5162
▁cintura	-5163
▁convocò	-5164
▁manifes	-5165
▁vittima	-5166
▁condotto	-5167
▁fortezza	-5168
▁giunsero	-5169
▁maggiore	-5170
▁precetti	-5171
▁sessanta	-5172
▁vedranno	-5173
▁deportati	-5174
discendenti	-5175
▁annunziato	-5176
▁attenzione	-5177
▁profetizza	-5178
▁quattordici	-5179
▁quattrocento	-5180
mpò	-5181
affa	-5182
anne	-5183
apri	-5184
bolo	-5185
cola	-5186
daia	-5187
dura	-5188
gliò	-5189
insi	-5190
lero	-5191
rami	-5192
cerai	-5193
giuno	-5194
lsero	-5195
ncipi	-5196
negli	-5197
posta	-5198
rioso	-5199
sogna	-5200
verse	-5201
zzerà	-5202
alcuno	-5203
ciotto	-5204
gliete	-5205
obbedi	-5206
bambino	-5207
cherete	-5208
dizioni	-5209
pioggia	-5210
profumo	-5211
sepolcro	-5212
torrente	-5213
abbandonato	-5214
Bà	-5215
bot	-5216
mri	-5217
ssò	-5218
▁Ze	-5219
anze	-5220
cali	-5221
chis	-5222
invo	-5223
soli	-5224
zare	-5225
▁Dov	-5226
▁Ela	-5227
▁Sul	-5228
▁bev	-5229
▁fil	-5230
▁vin	-5231
animo	-5232
dissi	-5233
penti	-5234
piano	-5235
▁Gebu	-5236
▁Rama	-5237
▁dici	-5238
▁fumo	-5239
▁osti	-5240
▁rete	-5241
Prendi	-5242
avendo	-5243
caldei	-5244
casati	-5245
stanze	-5246
veniva	-5247
▁Osser	-5248
▁ciasc	-5249
▁dallo	-5250
▁fermò	-5251
▁grave	-5252
▁inviò	-5253
▁leoni	-5254
▁monto	-5255
▁pesci	-5256
▁pozzo	-5257
▁senno	-5258
▁siclo	-5259
attorno	-5260
guardia	-5261
manderò	-5262
ribelli	-5263
terrore	-5264
visione	-5265
▁concub	-5266
▁fatica	-5267
prigioni	-5268
trecento	-5269
tuttavia	-5270
▁Issacar	-5271
▁mangerà	-5272
▁stabilì	-5273
▁Tuttavia	-5274
▁commette	-5275
▁converti	-5276
▁tuttavia	-5277
▁camminare	-5278
▁desiderio	-5279
▁diecimila	-5280
▁guerrieri	-5281
▁salvatore	-5282
▁trasporta	-5283
▁costituito	-5284
ieu	-5285
sur	-5286
ceri	-5287
avuto	-5288
getti	-5289
alberi	-5290
avrete	-5291
chiese	-5292
innalza	-5293
nazione	-5294
razione	-5295
rificato	-5296
conosciuto	-5297
Mi	-5298
ùm	-5299
bor	-5300
cur	-5301
rot	-5302
uià	-5303
▁dì	-5304
Bàal	-5305
fana	-5306
fico	-5307
levi	-5308
merò	-5309
tele	-5310
tili	-5311
vuoi	-5312
▁Iab	-5313
▁bac	-5314
▁bar	-5315
allùm	-5316
atevi	-5317
cinta	-5318
denza	-5319
famia	-5320
inten	-5321
morra	-5322
ssuto	-5323
ubino	-5324
verna	-5325
veste	-5326
▁Amen	-5327
▁cade	-5328
▁gino	-5329
▁illu	-5330
▁liti	-5331
dovini	-5332
ellato	-5333
inizio	-5334
lorare	-5335
misura	-5336
rranno	-5337
scribi	-5338
ttendo	-5339
▁Hanno	-5340
▁Molti	-5341
▁cieco	-5342
▁croce	-5343
▁dormi	-5344
▁otten	-5345
▁pezzo	-5346
▁sacra	-5347
▁sacri	-5348
bastone	-5349
costruì	-5350
dionale	-5351
fattori	-5352
scurità	-5353
starono	-5354
▁Gàbaon	-5355
▁Merari	-5356
▁accusa	-5357
▁doveva	-5358
▁lingue	-5359
▁percuo	-5360
▁riferì	-5361
▁rumore	-5362
▁sicuro	-5363
▁stolti	-5364
concesso	-5365
steranno	-5366
▁Inoltre	-5367
▁avvenne	-5368
▁cantori	-5369
▁capelli	-5370
▁creduto	-5371
▁ricerca	-5372
▁spiriti	-5373
▁trovare	-5374
▁calpesta	-5375
▁rispetto	-5376
▁schiaccia	-5377
▁attraverso	-5378
▁seppellirono	-5379
aiu	-5380
zab	-5381
allu	-5382
aram	-5383
arro	-5384
buon	-5385
esor	-5386
cenza	-5387
chino	-5388
leone	-5389
parto	-5390
vitti	-5391
confini	-5392
ritorna	-5393
censimento	-5394
Ar	-5395
dè	-5396
ka	-5397
esu	-5398
mil	-5399
tàr	-5400
▁Sì	-5401
▁za	-5402
arli	-5403
liti	-5404
▁Lot	-5405
▁div	-5406
▁ese	-5407
ebron	-5408
impre	-5409
mosse	-5410
suolo	-5411
▁Seir	-5412
▁Silo	-5413
▁Uria	-5414
▁cuor	-5415
▁inca	-5416
▁irre	-5417
▁popo	-5418
▁rese	-5419
eliseo	-5420
lancia	-5421
sapete	-5422
uscito	-5423
▁Sinai	-5424
▁anima	-5425
▁corse	-5426
▁inari	-5427
▁sorta	-5428
▁spera	-5429
▁suona	-5430
▁susci	-5431
animali	-5432
lamento	-5433
▁Anania	-5434
▁Izreèl	-5435
▁annien	-5436
▁caduta	-5437
▁conqui	-5438
▁cubito	-5439
▁sedere	-5440
▁usciti	-5441
▁volete	-5442
▁Gàlgala	-5443
▁Sansone	-5444
▁insulta	-5445
▁malizia	-5446
▁salario	-5447
▁scompar	-5448
▁termine	-5449
▁desideri	-5450
▁liberato	-5451
▁minaccia	-5452
▁primizie	-5453
▁restitui	-5454
▁sapranno	-5455
settecento	-5456
▁libazioni	-5457
▁superiore	-5458
▁addormentò	-5459
▁candelabro	-5460
▁sacerdozio	-5461
▁selvatiche	-5462
rtù	-5463
cerò	-5464
ghio	-5465
parò	-5466
ciamo	-5467
confu	-5468
dremo	-5469
eleno	-5470
lutto	-5471
pocri	-5472
posse	-5473
ralle	-5474
rende	-5475
sando	-5476
santa	-5477
stite	-5478
ullàm	-5479
altura	-5480
farina	-5481
ggente	-5482
glierò	-5483
ravano	-5484
abitare	-5485
altezza	-5486
confine	-5487
volontà	-5488
occasione	-5489
Dio	-5490
alo	-5491
eno	-5492
▁Az	-5493
▁Cu	-5494
▁Ra	-5495
basi	-5496
eria	-5497
etto	-5498
livi	-5499
onda	-5500
orlo	-5501
stia	-5502
tese	-5503
▁Lib	-5504
▁sud	-5505
enite	-5506
gettò	-5507
stese	-5508
trovò	-5509
▁Core	-5510
▁Farò	-5511
▁Sarà	-5512
▁fabb	-5513
▁ineb	-5514
▁pena	-5515
▁scru	-5516
▁vada	-5517
farete	-5518
rimane	-5519
tabili	-5520
▁degno	-5521
▁entri	-5522
▁germo	-5523
▁incia	-5524
▁oppre	-5525
▁produ	-5526
▁rinne	-5527
▁setti	-5528
▁sonno	-5529
▁soste	-5530
▁stese	-5531
▁toccò	-5532
assedio	-5533
▁Kiriat	-5534
▁calice	-5535
▁conten	-5536
▁glielo	-5537
▁grembo	-5538
▁invano	-5539
▁pecora	-5540
▁piazze	-5541
▁prostr	-5542
▁semina	-5543
▁abbiate	-5544
▁accesso	-5545
▁aspetto	-5546
▁cercate	-5547
▁cortile	-5548
▁gradito	-5549
▁lacrime	-5550
▁passerà	-5551
▁saprete	-5552
▁stanghe	-5553
▁troverà	-5554
consiglio	-5555
larghezza	-5556
▁autorità	-5557
▁avvicinò	-5558
▁dovunque	-5559
▁grandine	-5560
▁quantità	-5561
▁spezzato	-5562
▁uccisero	-5563
▁consumato	-5564
▁estremità	-5565
▁giovenchi	-5566
▁qualsiasi	-5567
▁condizione	-5568
▁necessario	-5569
odio	-5570
rrai	-5571
spia	-5572
amare	-5573
archi	-5574
petto	-5575
ruben	-5576
scerà	-5577
tamar	-5578
volge	-5579
giunse	-5580
pasqua	-5581
stanno	-5582
decreti	-5583
parlava	-5584
condusse	-5585
improvvi	-5586
sinistra	-5587
uscirono	-5588
milacinquecento	-5589
Ba	-5590
gie	-5591
inf	-5592
sea	-5593
▁Ad	-5594
camb	-5595
ggiù	-5596
gnor	-5597
mica	-5598
parl	-5599
pone	-5600
ppio	-5601
riva	-5602
silo	-5603
tria	-5604
turo	-5605
vità	-5606
zaèl	-5607
zion	-5608
èzer	-5609
▁Par	-5610
▁cap	-5611
▁dra	-5612
▁pru	-5613
▁usa	-5614
Vieni	-5615
cacce	-5616
giuna	-5617
iatàr	-5618
tture	-5619
viare	-5620
▁Amat	-5621
▁appo	-5622
▁cess	-5623
▁disc	-5624
▁rego	-5625
▁vaso	-5626
ggiato	-5627
giunto	-5628
meravi	-5629
ordina	-5630
tromba	-5631
venite	-5632
▁amare	-5633
▁buone	-5634
▁capre	-5635
▁fissa	-5636
▁forze	-5637
▁massa	-5638
▁muore	-5639
▁nutri	-5640
▁paesi	-5641
▁retta	-5642
▁vivrà	-5643
passato	-5644
rifugio	-5645
▁Acazia	-5646
▁arrivò	-5647
▁ciechi	-5648
▁dolori	-5649
▁genero	-5650
▁piomba	-5651
▁poteva	-5652
▁rovine	-5653
▁soddis	-5654
▁triste	-5655
▁uccisi	-5656
▁ventre	-5657
minevoli	-5658
scendere	-5659
▁Filippo	-5660
▁armenti	-5661
▁colpito	-5662
▁disposi	-5663
▁metterò	-5664
▁paterni	-5665
▁perfino	-5666
▁potrete	-5667
▁rivolto	-5668
▁rugiada	-5669
▁segreto	-5670
▁seguire	-5671
▁vittime	-5672
manifesta	-5673
▁potranno	-5674
▁riguardi	-5675
▁risposta	-5676
▁risposto	-5677
▁Ascoltate	-5678
▁grandezza	-5679
▁mandarono	-5680
▁osservato	-5681
▁prenderai	-5682
▁resistere	-5683
▁riferisci	-5684
▁sconfisse	-5685
▁stoltezza	-5686
▁dimenticato	-5687
ud	-5688
gor	-5689
unì	-5690
deli	-5691
indu	-5692
sicu	-5693
betel	-5694
clama	-5695
gnata	-5696
presa	-5697
sugli	-5698
tiene	-5699
ttori	-5700
libano	-5701
pagani	-5702
quarto	-5703
bambini	-5704
domandò	-5705
entrerà	-5706
renderò	-5707
viaggio	-5708
mantello	-5709
consacrato	-5710
Ti	-5711
lan	-5712
piu	-5713
ermi	-5714
ezer	-5715
nomi	-5716
vede	-5717
▁han	-5718
▁imi	-5719
▁inn	-5720
corre	-5721
gridò	-5722
partì	-5723
sommi	-5724
speri	-5725
tempi	-5726
▁Giun	-5727
▁chie	-5728
▁odio	-5729
▁rupe	-5730
▁vasi	-5731
alcuna	-5732
carico	-5733
gavano	-5734
greggi	-5735
inferi	-5736
lasciò	-5737
presto	-5738
spalle	-5739
▁Caleb	-5740
▁Kades	-5741
▁colle	-5742
▁corni	-5743
▁disce	-5744
▁fatte	-5745
▁ferma	-5746
▁manda	-5747
▁pochi	-5748
▁richi	-5749
▁risor	-5750
▁rossa	-5751
▁spine	-5752
▁tomba	-5753
Maestro	-5754
faranno	-5755
guardie	-5756
piccolo	-5757
porterà	-5758
vestito	-5759
▁Amazia	-5760
▁Negheb	-5761
▁creato	-5762
▁frecce	-5763
▁invoca	-5764
▁levita	-5765
▁marcia	-5766
▁pronto	-5767
▁scampa	-5768
▁sembra	-5769
▁taglia	-5770
▁venite	-5771
▁vigore	-5772
principe	-5773
▁brucerà	-5774
▁consola	-5775
▁convoca	-5776
▁gelosia	-5777
▁immondi	-5778
▁malatti	-5779
▁maniera	-5780
▁passava	-5781
▁quarant	-5782
▁regioni	-5783
▁vedrete	-5784
ricchezze	-5785
▁Cronache	-5786
▁condotti	-5787
▁menzogne	-5788
▁potrebbe	-5789
▁sentieri	-5790
▁fanciullo	-5791
▁offrirete	-5792
▁strumenti	-5793
▁testimone	-5794
▁meraviglie	-5795
▁prostituta	-5796
▁rispondere	-5797
▁saccheggia	-5798
▁rettitudine	-5799
▁spiegazione	-5800
aro	-5801
drò	-5802
lci	-5803
lgo	-5804
sop	-5805
van	-5806
vid	-5807
vil	-5808
cché	-5809
gelo	-5810
ioas	-5811
liba	-5812
rora	-5813
ufra	-5814
amico	-5815
darti	-5816
esimo	-5817
inità	-5818
mmina	-5819
perai	-5820
regni	-5821
sultò	-5822
zzerò	-5823
aquila	-5824
aramei	-5825
ebbene	-5826
eleste	-5827
ontane	-5828
prensi	-5829
specie	-5830
stituì	-5831
unuchi	-5832
addosso	-5833
ceranno	-5834
esterno	-5835
fianchi	-5836
trovava	-5837
vecchio	-5838
Gu	-5839
eti	-5840
ulo	-5841
uva	-5842
▁Zo	-5843
cili	-5844
rame	-5845
▁Ele	-5846
▁Ghi	-5847
▁Lia	-5848
▁Sua	-5849
▁Tor	-5850
▁fun	-5851
fossa	-5852
gilla	-5853
nello	-5854
pieni	-5855
riuni	-5856
tocca	-5857
▁Obed	-5858
▁Peri	-5859
▁ante	-5860
▁dirò	-5861
▁inse	-5862
▁stai	-5863
▁voti	-5864
adempi	-5865
andava	-5866
stirpe	-5867
▁basso	-5868
▁buoni	-5869
▁cadrà	-5870
▁mangi	-5871
▁molta	-5872
▁riser	-5873
▁saldo	-5874
▁stele	-5875
▁ubria	-5876
▁vende	-5877
▁vergo	-5878
▁verrò	-5879
accanto	-5880
amorrei	-5881
giudice	-5882
offerte	-5883
offrirà	-5884
▁andrai	-5885
▁assali	-5886
▁avessi	-5887
▁divora	-5888
▁dovete	-5889
▁dovrai	-5890
▁liberi	-5891
▁occupa	-5892
▁pronti	-5893
▁realtà	-5894
▁stanza	-5895
▁Costoro	-5896
▁Ioiakìm	-5897
▁carcere	-5898
▁cattivo	-5899
▁cavallo	-5900
▁davvero	-5901
▁diavolo	-5902
▁difetto	-5903
▁introdu	-5904
▁rifugia	-5905
▁rimarrà	-5906
▁sentire	-5907
▁visioni	-5908
▁Bersabea	-5909
▁cisterna	-5910
▁compagni	-5911
▁consigli	-5912
▁divorerà	-5913
▁dovranno	-5914
▁montagna	-5915
▁presente	-5916
▁rimasero	-5917
▁serpente	-5918
▁supplica	-5919
▁conoscono	-5920
▁fuggirono	-5921
▁insegnare	-5922
▁partorito	-5923
▁portavano	-5924
▁prostitui	-5925
▁vantaggio	-5926
▁annunziare	-5927
▁dipendenze	-5928
▁mangeranno	-5929
▁cominciarono	-5930
uel	-5931
asso	-5932
sale	-5933
citta	-5934
infer	-5935
passò	-5936
scher	-5937
angolo	-5938
avanza	-5939
eterno	-5940
iamini	-5941
miglio	-5942
motivo	-5943
rerete	-5944
riposo	-5945
salire	-5946
sappia	-5947
secoli	-5948
sichem	-5949
spiega	-5950
videro	-5951
investi	-5952
istante	-5953
oggetti	-5954
chiamati	-5955
condanna	-5956
promessa	-5957
saggezza	-5958
considera	-5959
piuttosto	-5960
accamparono	-5961
Con	-5962
rco	-5963
ròn	-5964
▁Du	-5965
▁Es	-5966
Così	-5967
alba	-5968
ento	-5969
mbro	-5970
nace	-5971
viva	-5972
▁Dal	-5973
▁Gre	-5974
▁adi	-5975
bileo	-5976
cello	-5977
ciuto	-5978
edrio	-5979
eluia	-5980
inato	-5981
mendo	-5982
mòteo	-5983
possi	-5984
ppero	-5985
rimar	-5986
utate	-5987
varsi	-5988
▁esce	-5989
▁fico	-5990
▁sapi	-5991
▁tutt	-5992
amente	-5993
balaam	-5994
catene	-5995
estate	-5996
giudea	-5997
nunzio	-5998
pporti	-5999
raccon	-6000
rovera	-6001
sfatti	-6002
sinago	-6003
tavole	-6004
teremo	-6005
▁Simei	-6006
▁amano	-6007
▁dolce	-6008
▁roves	-6009
▁ruote	-6010
▁sesto	-6011
Ascolta	-6012
cedonia	-6013
damente	-6014
elagran	-6015
giziano	-6016
offrire	-6017
persona	-6018
turione	-6019
▁Contro	-6020
▁accese	-6021
▁acceso	-6022
▁confor	-6023
▁domina	-6024
▁laccio	-6025
▁peggio	-6026
▁sosten	-6027
▁ultimi	-6028
▁valore	-6029
prenderà	-6030
▁agguato	-6031
▁colpiti	-6032
▁confusi	-6033
▁diventa	-6034
▁entrati	-6035
▁offerto	-6036
▁pianura	-6037
▁produce	-6038
▁sapendo	-6039
▁schiave	-6040
▁tratten	-6041
▁vitello	-6042
▁Filisteo	-6043
▁compagno	-6044
▁frumento	-6045
▁mangerai	-6046
▁pazienza	-6047
▁presenti	-6048
▁quindici	-6049
▁sorvegli	-6050
▁vittoria	-6051
▁Scrittura	-6052
▁direzione	-6053
▁osservare	-6054
▁provincia	-6055
▁soggiunse	-6056
benedizione	-6057
▁ricompensa	-6058
▁riferirono	-6059
▁circoncisione	-6060
sad	-6061
pani	-6062
asciu	-6063
circa	-6064
cuori	-6065
eniti	-6066
scudi	-6067
sposa	-6068
lastri	-6069
prende	-6070
tesori	-6071
annunzi	-6072
bisogno	-6073
deporta	-6074
essendo	-6075
galilea	-6076
alzarono	-6077
giardino	-6078
uccisero	-6079
violenza	-6080
proprietà	-6081
annunziato	-6082
Pa	-6083
ài	-6084
mul	-6085
pur	-6086
ton	-6087
mmer	-6088
▁Fra	-6089
▁Zer	-6090
▁est	-6091
▁ove	-6092
▁sde	-6093
amici	-6094
caval	-6095
morta	-6096
piede	-6097
posti	-6098
saggi	-6099
sazia	-6100
terrà	-6101
volse	-6102
▁Alza	-6103
▁Mica	-6104
▁Però	-6105
▁cana	-6106
▁cani	-6107
▁conf	-6108
▁dati	-6109
▁deri	-6110
▁mili	-6111
▁nono	-6112
▁puoi	-6113
▁ripe	-6114
▁scuo	-6115
Alzati	-6116
aggiun	-6117
aperto	-6118
cadere	-6119
cavano	-6120
intera	-6121
roccia	-6122
tenuto	-6123
▁Avete	-6124
▁Sicon	-6125
▁accen	-6126
▁carni	-6127
▁darai	-6128
▁falsi	-6129
▁fiori	-6130
▁incen	-6131
▁norme	-6132
▁parli	-6133
▁reali	-6134
▁sceso	-6135
▁sentì	-6136
▁stima	-6137
▁torni	-6138
▁visse	-6139
collera	-6140
infamia	-6141
metterà	-6142
▁Lascia	-6143
▁caduti	-6144
▁diffon	-6145
▁eserci	-6146
▁giunge	-6147
▁giunta	-6148
▁insegn	-6149
▁membra	-6150
▁oppure	-6151
▁sabati	-6152
▁spazio	-6153
▁vedono	-6154
mangiato	-6155
venivano	-6156
▁Rebecca	-6157
▁conosco	-6158
▁entrato	-6159
▁mossero	-6160
▁operato	-6161
▁parteci	-6162
▁pascolo	-6163
▁rivolse	-6164
▁scherno	-6165
abimèlech	-6166
lunghezza	-6167
▁credenti	-6168
▁crescere	-6169
▁discende	-6170
▁perfetta	-6171
▁coscienza	-6172
▁giudicare	-6173
▁gridarono	-6174
▁mietitura	-6175
▁profanato	-6176
▁terribile	-6177
▁arrivarono	-6178
▁comprendere	-6179
▁riparazione	-6180
dab	-6181
fet	-6182
nea	-6183
rra	-6184
sar	-6185
udì	-6186
unn	-6187
use	-6188
amma	-6189
anca	-6190
seno	-6191
tane	-6192
tiro	-6193
uolo	-6194
carmi	-6195
danno	-6196
dotta	-6197
ggono	-6198
oppre	-6199
perco	-6200
plicò	-6201
scura	-6202
talia	-6203
vitto	-6204
àzaro	-6205
aurora	-6206
gerico	-6207
lavori	-6208
provin	-6209
seduto	-6210
ufrate	-6211
fiducia	-6212
postolo	-6213
sguardo	-6214
glieranno	-6215
moltitudine	-6216
Le	-6217
▁ga	-6218
cima	-6219
devi	-6220
estì	-6221
flag	-6222
indo	-6223
lici	-6224
nubi	-6225
abner	-6226
bello	-6227
isaia	-6228
mensa	-6229
vinto	-6230
▁Abia	-6231
▁Anch	-6232
▁arco	-6233
▁arti	-6234
▁dimo	-6235
▁leon	-6236
▁nove	-6237
altari	-6238
babele	-6239
colare	-6240
faccio	-6241
ficate	-6242
poveri	-6243
▁Giona	-6244
▁avevi	-6245
▁corro	-6246
▁entro	-6247
▁eredi	-6248
▁ester	-6249
▁fichi	-6250
▁insor	-6251
▁manca	-6252
▁messe	-6253
▁porrò	-6254
▁sante	-6255
▁seppe	-6256
▁splen	-6257
▁sposo	-6258
▁strin	-6259
▁torre	-6260
Agnello	-6261
cercate	-6262
servire	-6263
▁Alzati	-6264
▁Sidòne	-6265
▁arriva	-6266
▁conver	-6267
▁destro	-6268
▁fiamma	-6269
▁malato	-6270
▁potete	-6271
▁respin	-6272
▁rotolo	-6273
▁saputo	-6274
cadaveri	-6275
▁Chelkia	-6276
▁abitava	-6277
▁appunto	-6278
▁ascolti	-6279
▁aspetta	-6280
▁cercano	-6281
▁chiesto	-6282
▁conduce	-6283
▁contare	-6284
▁credete	-6285
▁intrisa	-6286
▁lampade	-6287
▁lascerà	-6288
▁lontani	-6289
▁piccola	-6290
▁profumi	-6291
▁proprie	-6292
▁sigillo	-6293
▁vestiti	-6294
ascoltare	-6295
straniero	-6296
▁bruciato	-6297
▁consegnò	-6298
▁dimostra	-6299
▁flagello	-6300
▁metterai	-6301
▁parabola	-6302
▁percosse	-6303
▁seminato	-6304
▁trattato	-6305
forestiero	-6306
improvviso	-6307
▁devastato	-6308
▁distribui	-6309
▁diventati	-6310
▁preghiere	-6311
▁preoccupa	-6312
▁mangiarono	-6313
▁messaggero	-6314
▁avvicinarono	-6315
base	-6316
otto	-6317
tono	-6318
abram	-6319
bisso	-6320
giuro	-6321
miele	-6322
pezzi	-6323
predi	-6324
salmo	-6325
segre	-6326
unico	-6327
accusa	-6328
alzerà	-6329
fossero	-6330
maschio	-6331
rendete	-6332
sedecìa	-6333
autorità	-6334
cherubini	-6335
costruito	-6336
prenderai	-6337
principio	-6338
tornarono	-6339
rd	-6340
òt	-6341
...	-6342
ino	-6343
sov	-6344
ziò	-6345
▁Is	-6346
chir	-6347
cuni	-6348
domo	-6349
gale	-6350
occu	-6351
rici	-6352
rupe	-6353
vaso	-6354
▁Nun	-6355
▁Sen	-6356
▁flu	-6357
▁rap	-6358
▁sfo	-6359
▁udì	-6360
▁val	-6361
Araba	-6362
colli	-6363
digli	-6364
estri	-6365
ggerà	-6366
guari	-6367
guono	-6368
poter	-6369
relle	-6370
ruppo	-6371
tario	-6372
ttene	-6373
▁Anzi	-6374
▁Booz	-6375
▁Keat	-6376
▁Mare	-6377
▁Qual	-6378
▁Uzzi	-6379
▁diva	-6380
▁occu	-6381
▁ripa	-6382
▁tren	-6383
▁ugua	-6384
ggiano	-6385
ontana	-6386
posero	-6387
ppiere	-6388
sterai	-6389
tenere	-6390
uscirà	-6391
zabele	-6392
▁Canto	-6393
▁Maaca	-6394
▁Safàn	-6395
▁altra	-6396
▁andar	-6397
▁canna	-6398
▁esten	-6399
▁palme	-6400
▁piace	-6401
▁ricer	-6402
▁rifle	-6403
▁verde	-6404
macchia	-6405
nessuna	-6406
prescri	-6407
ramente	-6408
schiere	-6409
▁Chiese	-6410
▁Persia	-6411
▁azzimi	-6412
▁cenere	-6413
▁comple	-6414
▁condan	-6415
▁esiste	-6416
▁felice	-6417
▁limite	-6418
▁potuto	-6419
▁sabbia	-6420
▁scompa	-6421
▁scopri	-6422
▁sfuggi	-6423
▁spezza	-6424
chiamare	-6425
dobbiamo	-6426
prigione	-6427
restieri	-6428
▁Abbiamo	-6429
▁altezza	-6430
▁cercare	-6431
▁colonna	-6432
▁dominio	-6433
▁giurare	-6434
▁lascerò	-6435
▁memoria	-6436
▁neanche	-6437
▁palazzi	-6438
▁passati	-6439
▁portano	-6440
▁portate	-6441
▁rendere	-6442
abitavano	-6443
altissimo	-6444
avversari	-6445
struzioni	-6446
▁Pertanto	-6447
▁divenuto	-6448
▁liberati	-6449
▁miracoli	-6450
▁oppresso	-6451
▁portando	-6452
▁province	-6453
▁trafitti	-6454
conoscenza	-6455
registrati	-6456
▁Risposero	-6457
▁accessori	-6458
▁bestemmia	-6459
▁discepolo	-6460
▁diventare	-6461
▁gettarono	-6462
▁seguirono	-6463
▁crocifisso	-6464
▁metteranno	-6465
▁prostrarono	-6466
▁tribolazione	-6467
mpì	-6468
nan	-6469
irri	-6470
lava	-6471
mene	-6472
odia	-6473
rabb	-6474
ridu	-6475
avver	-6476
chied	-6477
colpì	-6478
fiumi	-6479
giogo	-6480
incia	-6481
mardo	-6482
serai	-6483
tarlo	-6484
tiche	-6485
ttano	-6486
avesse	-6487
profan	-6488
potenti	-6489
rituale	-6490
selvati	-6491
sentito	-6492
apostoli	-6493
fortezze	-6494
lasciato	-6495
persegui	-6496
ginocchia	-6497
combattere	-6498
maledizione	-6499
Sì	-6500
Dov	-6501
bue	-6502
ddi	-6503
stà	-6504
zar	-6505
▁Ta	-6506
Bene	-6507
amot	-6508
diva	-6509
elea	-6510
lano	-6511
muto	-6512
reca	-6513
tito	-6514
visi	-6515
▁Eno	-6516
▁bor	-6517
▁sii	-6518
asina	-6519
cacia	-6520
celle	-6521
credi	-6522
ester	-6523
incen	-6524
sanna	-6525
trafi	-6526
unito	-6527
zacca	-6528
▁Bara	-6529
▁Cari	-6530
▁Tale	-6531
▁fuga	-6532
▁lati	-6533
▁rifi	-6534
compia	-6535
dolore	-6536
luoghi	-6537
simone	-6538
strade	-6539
▁Erano	-6540
▁Iefte	-6541
▁Legge	-6542
▁agire	-6543
▁attin	-6544
▁averi	-6545
▁barba	-6546
▁farti	-6547
▁fondo	-6548
▁fuggì	-6549
▁muoia	-6550
▁prego	-6551
▁salvo	-6552
▁scacc	-6553
▁serve	-6554
▁svani	-6555
▁terza	-6556
▁versa	-6557
antichi	-6558
ardente	-6559
entrato	-6560
giudica	-6561
versato	-6562
▁Dodici	-6563
▁Pasqua	-6564
▁Semaia	-6565
▁bevuto	-6566
▁eppure	-6567
▁invita	-6568
▁miglio	-6569
▁ordina	-6570
▁raffor	-6571
▁soffri	-6572
▁soglia	-6573
▁vicina	-6574
possiamo	-6575
▁Barnaba	-6576
▁Hittiti	-6577
▁caddero	-6578
▁cattivi	-6579
▁difetti	-6580
▁duemila	-6581
▁eravamo	-6582
▁fragore	-6583
▁libertà	-6584
▁pregare	-6585
▁rimasti	-6586
▁rivestì	-6587
▁toccato	-6588
▁versato	-6589
mardocheo	-6590
splendore	-6591
▁accaduto	-6592
▁accoglie	-6593
▁bruciare	-6594
▁custodia	-6595
▁migliore	-6596
▁preziose	-6597
▁prodotti	-6598
▁sepolcri	-6599
▁tramonto	-6600
▁vogliono	-6601
▁coperchio	-6602
▁libazione	-6603
▁periranno	-6604
▁prescrizioni	-6605
▁settentrionale	-6606
kk	-6607
ged	-6608
rza	-6609
sig	-6610
ccot	-6611
erre	-6612
faim	-6613
feso	-6614
gazz	-6615
lend	-6616
mira	-6617
nità	-6618
rori	-6619
rrei	-6620
zzia	-6621
elita	-6622
esima	-6623
ganti	-6624
garlo	-6625
profu	-6626
spiro	-6627
tanza	-6628
tenze	-6629
zziti	-6630
avanti	-6631
demoli	-6632
enealo	-6633
fretta	-6634
furore	-6635
gherai	-6636
giobbe	-6637
giosia	-6638
ntorni	-6639
ordini	-6640
ricati	-6641
ripara	-6642
ritorn	-6643
vedova	-6644
apparve	-6645
bottino	-6646
damasco	-6647
ondante	-6648
prostrò	-6649
sperità	-6650
uccello	-6651
illaggio	-6652
menzogna	-6653
promesso	-6654
gualmente	-6655
preparato	-6656
condussero	-6657
sericordio	-6658
▁Q	-6659
mas	-6660
▁Ac	-6661
aman	-6662
arma	-6663
erli	-6664
mele	-6665
mesi	-6666
pala	-6667
▁Ada	-6668
▁Cai	-6669
▁Idu	-6670
▁Mor	-6671
▁Tam	-6672
▁Tre	-6673
carro	-6674
farlo	-6675
gesta	-6676
ormai	-6677
prote	-6678
retto	-6679
ricco	-6680
rutti	-6681
vedrà	-6682
▁Dove	-6683
▁Male	-6684
▁ador	-6685
▁appi	-6686
▁beve	-6687
▁diff	-6688
▁dito	-6689
▁geni	-6690
▁nave	-6691
▁pari	-6692
▁scal	-6693
arieti	-6694
datelo	-6695
dirgli	-6696
ferito	-6697
giunti	-6698
morirà	-6699
pilato	-6700
vicini	-6701
▁Amnòn	-6702
▁Baasa	-6703
▁Beato	-6704
▁Prend	-6705
▁Siano	-6706
▁amato	-6707
▁darti	-6708
▁lasci	-6709
▁lunga	-6710
▁menti	-6711
▁ombra	-6712
▁pelli	-6713
▁proce	-6714
▁reden	-6715
▁serva	-6716
▁steso	-6717
▁trovi	-6718
▁vanto	-6719
celebra	-6720
▁Alcuni	-6721
▁Cesare	-6722
▁Giudeo	-6723
▁alzerà	-6724
▁bracci	-6725
▁cambio	-6726
▁casato	-6727
▁comune	-6728
▁darete	-6729
▁decima	-6730
▁esilio	-6731
▁inebri	-6732
▁pianse	-6733
▁piazza	-6734
▁radici	-6735
▁rattri	-6736
▁separa	-6737
▁sottra	-6738
▁steppa	-6739
▁strage	-6740
▁tratto	-6741
▁usciva	-6742
accaduto	-6743
▁Godolia	-6744
▁inganno	-6745
▁lievito	-6746
▁piacere	-6747
▁servito	-6748
▁tremila	-6749
▁vacilla	-6750
▁vergini	-6751
passarono	-6752
testimoni	-6753
veramente	-6754
▁numeroso	-6755
▁obbedito	-6756
▁portieri	-6757
▁sappiate	-6758
▁sciagura	-6759
altrimenti	-6760
▁adulterio	-6761
▁fermarono	-6762
▁ministero	-6763
▁perdonato	-6764
ingiustizia	-6765
investitura	-6766
onnipotente	-6767
▁tranquillo	-6768
▁allontanato	-6769
▁manifestato	-6770
▁occidentale	-6771
▁prigioniero	-6772
▁primogeniti	-6773
▁comandamento	-6774
▁purificazione	-6775
ir	-6776
esp	-6777
gat	-6778
pla	-6779
dron	-6780
fior	-6781
tino	-6782
disci	-6783
nuova	-6784
sulto	-6785
vigne	-6786
vuole	-6787
carità	-6788
larono	-6789
làbano	-6790
regina	-6791
ccarono	-6792
minerai	-6793
schiera	-6794
compiuto	-6795
uccidere	-6796
trovarono	-6797
benevolenza	-6798
Da	-6799
èo	-6800
bac	-6801
kàm	-6802
usi	-6803
aneo	-6804
cell	-6805
dema	-6806
illu	-6807
nore	-6808
▁Maa	-6809
▁Mal	-6810
▁Ter	-6811
▁oli	-6812
▁prì	-6813
assal	-6814
cante	-6815
carti	-6816
carvi	-6817
crede	-6818
dante	-6819
diata	-6820
ercia	-6821
getto	-6822
guere	-6823
incas	-6824
lampa	-6825
lando	-6826
multo	-6827
norme	-6828
perse	-6829
peste	-6830
scita	-6831
ssoio	-6832
steri	-6833
tarsi	-6834
tòfel	-6835
unale	-6836
vanno	-6837
▁Ozia	-6838
▁dica	-6839
▁pelo	-6840
▁smar	-6841
▁veda	-6842
▁zelo	-6843
Lascia	-6844
Questa	-6845
arredi	-6846
conqui	-6847
corona	-6848
eserci	-6849
ffatto	-6850
fianco	-6851
ggiava	-6852
morreo	-6853
satana	-6854
▁asten	-6855
▁avrei	-6856
▁celeb	-6857
▁cetra	-6858
▁corno	-6859
▁isole	-6860
▁lassù	-6861
▁pregò	-6862
▁procu	-6863
▁saldi	-6864
▁terre	-6865
▁teste	-6866
Hittita	-6867
agguato	-6868
cessità	-6869
cessori	-6870
dianiti	-6871
introdu	-6872
minando	-6873
pastori	-6874
▁Adonia	-6875
▁Invece	-6876
▁Ognuno	-6877
▁bruciò	-6878
▁caduto	-6879
▁chiuso	-6880
▁faremo	-6881
▁frantu	-6882
▁paglia	-6883
▁piatto	-6884
▁posero	-6885
▁scelti	-6886
▁scorre	-6887
▁stesse	-6888
▁vedove	-6889
▁vedrai	-6890
condotto	-6891
dicatore	-6892
eleazaro	-6893
fferenze	-6894
gheranno	-6895
oscurità	-6896
pertanto	-6897
rmamento	-6898
vallette	-6899
zaccaria	-6900
▁Gherson	-6901
▁avvolto	-6902
▁credere	-6903
▁imposto	-6904
▁inviati	-6905
▁mormora	-6906
▁penetra	-6907
▁sebbene	-6908
▁signori	-6909
▁superbi	-6910
▁vollero	-6911
mangerete	-6912
peccatori	-6913
▁chiesero	-6914
▁offrirai	-6915
▁orecchio	-6916
▁porzione	-6917
▁prìncipi	-6918
▁riferito	-6919
▁scandali	-6920
▁tempesta	-6921
giuramento	-6922
▁cercavano	-6923
▁divennero	-6924
▁fanciulla	-6925
▁giaciglio	-6926
▁occasione	-6927
▁offrirono	-6928
▁governatori	-6929
cà	-6930
bro	-6931
fun	-6932
noè	-6933
pun	-6934
sàn	-6935
cess	-6936
pari	-6937
ripu	-6938
dermi	-6939
inari	-6940
reste	-6941
riate	-6942
ttati	-6943
udite	-6944
disono	-6945
pianto	-6946
voglia	-6947
animale	-6948
cendono	-6949
consegn	-6950
empietà	-6951
piccoli	-6952
ricordo	-6953
cadranno	-6954
chiamata	-6955
comporta	-6956
coraggio	-6957
malvagio	-6958
numerosi	-6959
costruire	-6960
ricchezza	-6961
attenzione	-6962
consegnato	-6963
risuscitato	-6964
Ci	-6965
Poi	-6966
bàd	-6967
dàn	-6968
meo	-6969
reb	-6970
▁..	-6971
▁Og	-6972
▁at	-6973
Ezer	-6974
amen	-6975
bare	-6976
erub	-6977
▁Neb	-6978
▁Sam	-6979
▁Ved	-6980
Anche	-6981
bontà	-6982
coppa	-6983
lenti	-6984
natan	-6985
piang	-6986
rifiu	-6987
sacro	-6988
tolto	-6989
zabàd	-6990
zadòk	-6991
▁Mana	-6992
▁Medi	-6993
▁alte	-6994
▁alti	-6995
▁esul	-6996
▁fiss	-6997
▁inci	-6998
▁palo	-6999
▁pesa	-7000
▁salu	-7001
▁vent	-7002
Poiché	-7003
andati	-7004
chiesa	-7005
endosi	-7006
medesi	-7007
melech	-7008
▁Dalla	-7009
▁Dario	-7010
▁Passa	-7011
▁Ramot	-7012
▁Rosso	-7013
▁Sarai	-7014
▁allar	-7015
▁archi	-7016
▁coppe	-7017
▁corda	-7018
▁depre	-7019
▁detta	-7020
▁dimor	-7021
▁fiore	-7022
▁ladro	-7023
▁obbli	-7024
▁sanno	-7025
▁vendi	-7026
▁vorrà	-7027
cananei	-7028
diedero	-7029
inviato	-7030
metterò	-7031
portate	-7032
resterà	-7033
▁Abisài	-7034
▁Amalek	-7035
▁Prendi	-7036
▁Zeruià	-7037
▁acacia	-7038
▁alzati	-7039
▁bianco	-7040
▁capaci	-7041
▁divina	-7042
▁felici	-7043
▁giusta	-7044
▁legato	-7045
▁maestà	-7046
▁radice	-7047
▁riposa	-7048
▁sacche	-7049
▁saliva	-7050
▁votato	-7051
aggiunse	-7052
betlemme	-7053
mediante	-7054
missione	-7055
▁Assuero	-7056
▁Chesbon	-7057
▁Moabiti	-7058
▁andiamo	-7059
▁apparso	-7060
▁caverna	-7061
▁confida	-7062
▁digiuno	-7063
▁inganna	-7064
▁mistero	-7065
▁nemmeno	-7066
▁peccare	-7067
▁provoca	-7068
▁sandali	-7069
▁scrisse	-7070
▁trovano	-7071
▁venduto	-7072
obbrobrio	-7073
▁affidato	-7074
▁bellezza	-7075
▁benedica	-7076
▁comincia	-7077
▁discorso	-7078
▁dovevano	-7079
▁migliori	-7080
▁morirono	-7081
▁riguarda	-7082
▁salirono	-7083
▁scudiero	-7084
▁sentiero	-7085
▁sorgenti	-7086
▁toccherà	-7087
avversario	-7088
▁avrebbero	-7089
▁cherubino	-7090
▁contrario	-7091
▁distrutti	-7092
▁messaggio	-7093
▁ritornare	-7094
▁straniere	-7095
governatore	-7096
▁circonciso	-7097
insegnamento	-7098
▁cinquecento	-7099
▁meridionale	-7100
▁stabilirono	-7101
ùl	-7102
ùr	-7103
▁(	-7104
cat	-7105
lfo	-7106
vei	-7107
arèa	-7108
inta	-7109
lapi	-7110
obbe	-7111
rani	-7112
atiti	-7113
calli	-7114
canza	-7115
carlo	-7116
cedro	-7117
ggine	-7118
infor	-7119
inive	-7120
ioram	-7121
llano	-7122
mbali	-7123
miamo	-7124
prele	-7125
riosa	-7126
ssime	-7127
tiope	-7128
tizie	-7129
ttoni	-7130
vella	-7131
viola	-7132
catori	-7133
ditore	-7134
eccomi	-7135
ellera	-7136
esarèa	-7137
merete	-7138
purifi	-7139
ritori	-7140
ssioni	-7141
zareno	-7142
braccia	-7143
fezione	-7144
giudici	-7145
nèftali	-7146
precipi	-7147
rivesti	-7148
roboamo	-7149
ruzione	-7150
seconda	-7151
seranno	-7152
stabilì	-7153
strappa	-7154
tributo	-7155
vazione	-7156
viscere	-7157
ggiavano	-7158
presentò	-7159
spavento	-7160
benedisse	-7161
appartiene	-7162
telligente	-7163
comandamenti	-7164
ol	-7165
tru	-7166
▁Và	-7167
Guar	-7168
amàn	-7169
bara	-7170
naia	-7171
nerà	-7172
rico	-7173
scol	-7174
scuo	-7175
turb	-7176
▁Mik	-7177
▁Sta	-7178
▁Zeb	-7179
▁sgo	-7180
Hadàd	-7181
desse	-7182
edete	-7183
gàbaa	-7184
latte	-7185
letti	-7186
mante	-7187
piaga	-7188
sentì	-7189
testo	-7190
tribo	-7191
versò	-7192
▁Ciro	-7193
▁Vedi	-7194
▁Zoro	-7195
▁arre	-7196
▁diso	-7197
▁lega	-7198
▁pone	-7199
▁sbar	-7200
▁teli	-7201
perire	-7202
quinto	-7203
tesoro	-7204
▁Cerca	-7205
▁Ebrei	-7206
▁Esdra	-7207
▁Nebàt	-7208
▁Testi	-7209
▁andrò	-7210
▁aromi	-7211
▁asino	-7212
▁cetre	-7213
▁giurò	-7214
▁guida	-7215
▁morta	-7216
▁oppor	-7217
▁perfi	-7218
▁restò	-7219
▁ricev	-7220
▁sbran	-7221
▁segue	-7222
▁selva	-7223
▁umana	-7224
▁unico	-7225
▁virtù	-7226
avverrà	-7227
conosco	-7228
crocifi	-7229
simeone	-7230
tremila	-7231
viventi	-7232
▁Chiram	-7233
▁Michea	-7234
▁Sallùm	-7235
▁ammoni	-7236
▁deposi	-7237
▁devono	-7238
▁esulta	-7239
▁giunti	-7240
▁lebbro	-7241
▁misurò	-7242
▁ricchi	-7243
▁sapeva	-7244
▁saremo	-7245
▁scelta	-7246
▁spetta	-7247
▁vecchi	-7248
dispersi	-7249
immagine	-7250
sappiamo	-7251
vendetta	-7252
▁Riprese	-7253
▁colpire	-7254
▁coperta	-7255
▁fissato	-7256
▁foresta	-7257
▁immonda	-7258
▁interno	-7259
▁legname	-7260
▁lettere	-7261
▁montone	-7262
▁perdona	-7263
▁procura	-7264
▁scherni	-7265
▁vicenda	-7266
colpevole	-7267
entrarono	-7268
frontiera	-7269
significa	-7270
▁Mesullàm	-7271
▁indovini	-7272
▁predetto	-7273
▁preziosi	-7274
▁rallegra	-7275
▁riferire	-7276
▁scendono	-7277
▁seguente	-7278
circoncisi	-7279
immondezza	-7280
▁Ricordati	-7281
▁vestibolo	-7282
▁consultare	-7283
▁magistrati	-7284
▁malfattori	-7285
▁passeranno	-7286
cominciarono	-7287
▁distruzione	-7288
▁venticinque	-7289
us	-7290
miz	-7291
sii	-7292
gher	-7293
medi	-7294
osti	-7295
rimp	-7296
ripa	-7297
vite	-7298
vive	-7299
amale	-7300
beato	-7301
bella	-7302
capro	-7303
gnare	-7304
manti	-7305
mieti	-7306
oppri	-7307
punto	-7308
ziato	-7309
zzano	-7310
andato	-7311
attesa	-7312
azaria	-7313
cquero	-7314
endolo	-7315
esilio	-7316
ioiadà	-7317
istrui	-7318
lmente	-7319
scarla	-7320
stiamo	-7321
temete	-7322
uscita	-7323
abomini	-7324
ascolto	-7325
lettera	-7326
possono	-7327
compiere	-7328
dottrina	-7329
giunsero	-7330
descritte	-7331
diventerà	-7332
infedeltà	-7333
fondamenta	-7334
compassione	-7335
bel	-7336
fni	-7337
idu	-7338
mài	-7339
nao	-7340
tòt	-7341
▁Ek	-7342
Dove	-7343
accu	-7344
appo	-7345
bach	-7346
bilo	-7347
cazi	-7348
ccel	-7349
ellò	-7350
fani	-7351
imna	-7352
ioli	-7353
iono	-7354
nàch	-7355
rrea	-7356
scru	-7357
seia	-7358
spun	-7359
stai	-7360
èlet	-7361
▁amo	-7362
▁efa	-7363
▁giù	-7364
▁sie	-7365
agito	-7366
belle	-7367
cadde	-7368
cerna	-7369
ciata	-7370
conso	-7371
gante	-7372
llabo	-7373
luvio	-7374
massa	-7375
niche	-7376
offrì	-7377
stumi	-7378
tallo	-7379
ttete	-7380
utile	-7381
zzaro	-7382
▁Usci	-7383
▁abbi	-7384
▁dava	-7385
▁erba	-7386
▁into	-7387
▁orna	-7388
▁quad	-7389
▁stor	-7390
▁vedo	-7391
cutori	-7392
ditori	-7393
farnao	-7394
onadàb	-7395
prezzo	-7396
scanda	-7397
stelle	-7398
trombe	-7399
ttando	-7400
▁Iotam	-7401
▁Venne	-7402
▁assal	-7403
▁avven	-7404
▁cedri	-7405
▁centi	-7406
▁corde	-7407
▁deser	-7408
▁fonte	-7409
▁manto	-7410
▁mosto	-7411
▁pegno	-7412
▁prode	-7413
▁seguì	-7414
▁steri	-7415
▁succe	-7416
▁udite	-7417
▁vengo	-7418
cchiaia	-7419
cchiere	-7420
innanzi	-7421
leranno	-7422
pastore	-7423
ricondu	-7424
seguire	-7425
vimento	-7426
zàbulon	-7427
▁Ioacaz	-7428
▁Lachis	-7429
▁benché	-7430
▁eletti	-7431
▁esorta	-7432
▁intero	-7433
▁lecito	-7434
▁natura	-7435
▁punirò	-7436
▁relati	-7437
▁riparo	-7438
▁ritirò	-7439
▁seduti	-7440
▁soccor	-7441
▁teneva	-7442
▁tunica	-7443
▁vedete	-7444
▁veleno	-7445
▁viveri	-7446
▁volere	-7447
▁voleva	-7448
converti	-7449
elagrane	-7450
fandezze	-7451
nàcherib	-7452
principi	-7453
riscatto	-7454
▁Dissero	-7455
▁Gebusei	-7456
▁concepì	-7457
▁digiuna	-7458
▁esterno	-7459
▁focacce	-7460
▁fuggire	-7461
▁fuggito	-7462
▁gridare	-7463
▁indossa	-7464
▁materno	-7465
▁palazzo	-7466
▁parlerò	-7467
▁passate	-7468
▁scesero	-7469
▁sedette	-7470
▁seguiva	-7471
banchetto	-7472
distrutto	-7473
schiavitù	-7474
▁andranno	-7475
▁genitori	-7476
▁germogli	-7477
▁liberare	-7478
▁permesso	-7479
▁perversa	-7480
▁possiede	-7481
▁rivelato	-7482
▁sostegno	-7483
▁superbia	-7484
▁Testimoni	-7485
▁conoscete	-7486
▁fanciulli	-7487
▁pascolare	-7488
▁pettorale	-7489
▁proposito	-7490
▁risparmia	-7491
▁veramente	-7492
▁centoventi	-7493
▁entreranno	-7494
▁porteranno	-7495
▁testimonio	-7496
▁abominevoli	-7497
▁costruzione	-7498
▁distruggerò	-7499
lot	-7500
sbi	-7501
uri	-7502
aprì	-7503
inni	-7504
inse	-7505
lito	-7506
nice	-7507
suon	-7508
basan	-7509
cambi	-7510
minia	-7511
serse	-7512
siede	-7513
suono	-7514
deciso	-7515
madian	-7516
niente	-7517
oppure	-7518
percor	-7519
potrai	-7520
remoto	-7521
scriba	-7522
ssegna	-7523
tevano	-7524
vanità	-7525
affanno	-7526
notizia	-7527
rachele	-7528
riprese	-7529
apparten	-7530
cammelli	-7531
gliarono	-7532
prendete	-7533
allontanò	-7534
diventato	-7535
ufficiali	-7536
giovinezza	-7537
desolazione	-7538
presentarono	-7539
Noi	-7540
adi	-7541
mel	-7542
vai	-7543
▁Ah	-7544
▁gh	-7545
attu	-7546
caso	-7547
enso	-7548
fama	-7549
ilen	-7550
nego	-7551
orna	-7552
pidi	-7553
seme	-7554
vado	-7555
vela	-7556
voto	-7557
▁Mil	-7558
▁Mio	-7559
▁Sor	-7560
▁uva	-7561
asper	-7562
ciare	-7563
darvi	-7564
entri	-7565
forni	-7566
guada	-7567
iesse	-7568
piene	-7569
sterò	-7570
suona	-7571
tuono	-7572
verne	-7573
zzata	-7574
▁Eber	-7575
▁Esso	-7576
▁Gaza	-7577
▁favo	-7578
▁gior	-7579
▁impi	-7580
▁udii	-7581
▁vale	-7582
demòni	-7583
erebbe	-7584
lebbra	-7585
radunò	-7586
rivela	-7587
sòdoma	-7588
usciti	-7589
▁Altri	-7590
▁Noemi	-7591
▁Siate	-7592
▁ancor	-7593
▁animo	-7594
▁asciu	-7595
▁basta	-7596
▁diedi	-7597
▁esper	-7598
▁fango	-7599
▁farvi	-7600
▁forni	-7601
▁fossi	-7602
▁largo	-7603
▁parlo	-7604
▁passo	-7605
▁quand	-7606
▁siede	-7607
▁tanti	-7608
▁torto	-7609
▁trion	-7610
▁valli	-7611
cazione	-7612
giudizi	-7613
ilenzio	-7614
inganno	-7615
ismaele	-7616
recinto	-7617
ribella	-7618
talenti	-7619
versare	-7620
▁angoli	-7621
▁benefi	-7622
▁decime	-7623
▁doppio	-7624
▁dovrei	-7625
▁eresse	-7626
▁inghio	-7627
▁liberò	-7628
▁ralleg	-7629
▁render	-7630
▁scolpi	-7631
▁svegli	-7632
generato	-7633
minarono	-7634
▁Ebiatàr	-7635
▁Gomorra	-7636
▁animale	-7637
▁ascoltò	-7638
▁celeste	-7639
▁eunuchi	-7640
▁femmina	-7641
▁giudica	-7642
▁lamenti	-7643
▁morirai	-7644
▁mortale	-7645
▁predica	-7646
▁restare	-7647
▁ritornò	-7648
▁servile	-7649
▁soggior	-7650
▁statuti	-7651
▁suocero	-7652
▁vitelli	-7653
maledetto	-7654
riferisci	-7655
▁andavano	-7656
▁battenti	-7657
▁ciascuna	-7658
▁conviene	-7659
▁discorsi	-7660
▁divinità	-7661
▁facciano	-7662
▁libererà	-7663
▁medesimo	-7664
▁metterlo	-7665
▁pensiero	-7666
▁pertanto	-7667
▁prenderò	-7668
▁ricadere	-7669
▁ricevere	-7670
▁risponde	-7671
▁sorgente	-7672
▁testimon	-7673
▁umiliato	-7674
▁Maledetto	-7675
▁battesimo	-7676
▁benessere	-7677
▁concubina	-7678
▁fanciulle	-7679
▁ginocchia	-7680
▁impadroni	-7681
▁moriranno	-7682
▁possibile	-7683
▁raccoglie	-7684
▁usciranno	-7685
prigionieri	-7686
▁avvicinare	-7687
▁consacrati	-7688
▁espiazione	-7689
▁irreprensi	-7690
▁superstite	-7691
risurrezione	-7692
▁Testimonianza	-7693
kò	-7694
èr	-7695
ìt	-7696
ada	-7697
ggh	-7698
lam	-7699
arpa	-7700
aser	-7701
dute	-7702
eber	-7703
eila	-7704
esci	-7705
feci	-7706
gedò	-7707
ghia	-7708
luna	-7709
mpia	-7710
recò	-7711
runi	-7712
spie	-7713
tren	-7714
trui	-7715
tuno	-7716
andrà	-7717
barca	-7718
chièl	-7719
coper	-7720
credu	-7721
discu	-7722
ederà	-7723
ganza	-7724
gnifi	-7725
idolo	-7726
llerà	-7727
marsi	-7728
noach	-7729
pecca	-7730
ranto	-7731
sceso	-7732
smato	-7733
soave	-7734
uniti	-7735
verno	-7736
volle	-7737
ziale	-7738
bilità	-7739
chiuso	-7740
ciasse	-7741
conser	-7742
dènego	-7743
fiamme	-7744
glielo	-7745
gnarsi	-7746
invano	-7747
soffio	-7748
spetti	-7749
statua	-7750
ttania	-7751
volete	-7752
aspetta	-7753
maggior	-7754
ontaria	-7755
partori	-7756
pocriti	-7757
ritorno	-7758
tterono	-7759
zionari	-7760
ggeranno	-7761
pensieri	-7762
potevano	-7763
qualcosa	-7764
sapranno	-7765
successo	-7766
cavalieri	-7767
scarlatto	-7768
scensioni	-7769
seguirono	-7770
amministra	-7771
commettere	-7772
radunarono	-7773
disprezzato	-7774
Por	-7775
avo	-7776
fir	-7777
Baal	-7778
dile	-7779
endi	-7780
esul	-7781
sede	-7782
▁Abb	-7783
▁Ari	-7784
▁Aro	-7785
▁Elk	-7786
▁Tob	-7787
▁cri	-7788
▁fla	-7789
▁hin	-7790
▁nac	-7791
▁nar	-7792
▁tar	-7793
acche	-7794
agire	-7795
balak	-7796
capri	-7797
germo	-7798
iglia	-7799
inché	-7800
omini	-7801
sorto	-7802
▁Ammi	-7803
▁Solo	-7804
▁Susa	-7805
▁atto	-7806
▁esci	-7807
▁guai	-7808
▁imma	-7809
▁ispi	-7810
▁neve	-7811
▁onde	-7812
▁pali	-7813
▁spre	-7814
arrivò	-7815
creato	-7816
debole	-7817
ferite	-7818
nudità	-7819
percuo	-7820
pubbli	-7821
▁Achia	-7822
▁Beati	-7823
▁Mizpa	-7824
▁Prima	-7825
▁Simon	-7826
▁Timna	-7827
▁bello	-7828
▁cella	-7829
▁fammi	-7830
▁palma	-7831
▁prime	-7832
▁rocce	-7833
▁tolse	-7834
▁versò	-7835
abbiate	-7836
avrebbe	-7837
dimento	-7838
gnarono	-7839
perfino	-7840
portico	-7841
ragione	-7842
ratelli	-7843
salvare	-7844
sepolto	-7845
terreno	-7846
▁Cazaèl	-7847
▁Quanti	-7848
▁agisce	-7849
▁averlo	-7850
▁carico	-7851
▁classi	-7852
▁compie	-7853
▁costru	-7854
▁maltra	-7855
▁mangiò	-7856
▁minore	-7857
▁miseri	-7858
▁odiano	-7859
▁rimpro	-7860
▁salita	-7861
▁sedici	-7862
▁sparso	-7863
amarezza	-7864
asciutto	-7865
carestia	-7866
facevano	-7867
restitui	-7868
▁Davanti	-7869
▁Proprio	-7870
▁Timòteo	-7871
▁avverti	-7872
▁bevanda	-7873
▁cattiva	-7874
▁cattura	-7875
▁cessare	-7876
▁domanda	-7877
▁eravate	-7878
▁istante	-7879
▁opprime	-7880
▁parenti	-7881
▁prender	-7882
▁riprese	-7883
▁salvami	-7884
▁santità	-7885
▁scettro	-7886
▁stabile	-7887
▁stretto	-7888
▁vengano	-7889
portavano	-7890
ricordati	-7891
scrittura	-7892
▁compiuti	-7893
▁diciotto	-7894
▁divorato	-7895
▁giubileo	-7896
▁gridando	-7897
▁guardare	-7898
▁lasciare	-7899
▁misfatti	-7900
▁mostrerò	-7901
▁nacquero	-7902
▁piangere	-7903
▁progetti	-7904
▁rimanere	-7905
▁scoperto	-7906
▁sinedrio	-7907
▁torrenti	-7908
▁veggente	-7909
afflizione	-7910
superstiti	-7911
▁Macedonia	-7912
▁abbattuto	-7913
▁ascoltano	-7914
▁centinaia	-7915
▁	-7916
¦	-7917
e	-7918
i	-7919
a	-7920
o	-7921
r	-7922
n	-7923
l	-7924
t	-7925
s	-7926
c	-7927
d	-7928
u	-7929
p	-7930
m	-7931
g	-7932
v	-7933
,	-7934
h	-7935
f	-7936
𐋇	-7937
b	-7938
z	-7939
q	-7940
à	-7941
'	-7942
ò	-7943
:	-7944
S	-7945
è	-7946
é	-7947
I	-7948
.	-7949
;	-7950
»	-7951
«	-7952
D	-7953
A	-7954
G	-7955
E	-7956
ì	-7957
C	-7958
ù	-7959
M	-7960
P	-7961
?	-7962
N	-7963
L	-7964
!	-7965
B	-7966
Q	-7967
T	-7968
-	-7969
F	-7970
R	-7971
O	-7972
k	-7973
V	-7974
U	-7975
Z	-7976
H	-7977
K	-7978
"	-7979
1	-7980
6	-7981
(	-7982
2	-7983
)	-7984
3	-7985
4	-7986
5	-7987
7	-7988
8	-7989
0	-7990
9	-7991
’	-7992
J	-7993
j	-7994
]	-7995
}	-7996
