<pad>	0
</s>	0
<unk>	0
¦	-1.38469
▁¦	-1.56875
a	-3.67272
▁	-3.68282
𐋇	-4.32925
an	-4.35441
s	-4.43922
r	-4.51937
i	-4.56913
ar	-4.60462
e	-4.67919
d	-4.69109
▁.	-4.70508
▁,	-4.76832
n	-4.82561
t	-4.93269
í	-4.98317
is	-4.9976
agus	-5.00265
le	-5.01994
na	-5.0307
o	-5.11845
c	-5.1663
f	-5.18376
l	-5.23911
ú	-5.24438
g	-5.24792
in	-5.27465
m	-5.29325
dh	-5.32839
bh	-5.38453
ch	-5.42598
ta	-5.43911
mh	-5.44208
go	-5.45498
il	-5.48405
p	-5.51045
u	-5.52964
ó	-5.64786
ag	-5.68892
do	-5.7079
é	-5.72508
á	-5.72666
-	-5.75357
th	-5.80626
b	-5.82623
h	-5.85996
ir	-5.88071
la	-5.98207
ach	-6.00387
ithe	-6.02984
de	-6.06545
ra	-6.07695
tá	-6.12765
aí	-6.17997
nó	-6.1809
2	-6.20691
1	-6.21986
air	-6.2203
covid	-6.25222
sa	-6.30748
-19¦	-6.31719
iú	-6.32077
igh	-6.34025
im	-6.3718
anna	-6.37239
mar	-6.382
al	-6.41352
as	-6.41396
ol	-6.45427
seo	-6.45646
tú	-6.46181
ann	-6.47474
te	-6.53119
3	-6.55346
os	-6.56176
adh	-6.56874
fh	-6.56991
ath	-6.59371
ní	-6.6051
aoine	-6.61059
id	-6.61814
chun	-6.63228
eann	-6.63954
má	-6.6429
sh	-6.64528
eile	-6.65929
gh	-6.6736
0	-6.68618
eas	-6.70824
4	-6.71578
lá	-6.7158
5	-6.73364
nío	-6.73941
bhfuil	-6.74863
ba	-6.75942
ná	-6.76108
tar	-6.76845
aon	-6.79844
íonn	-6.80082
,	-6.83225
ic	-6.83667
acht	-6.83762
cás	-6.85103
sé	-6.85153
▁)	-6.85347
co	-6.8597
.	-6.8665
it	-6.87526
áin	-6.88203
ort	-6.8829
faoi	-6.89681
aigh	-6.91982
cu	-6.92003
atá	-6.92615
nach	-6.95792
ion	-6.99077
iad	-7.00487
eacht	-7.00998
6	-7.01079
8	-7.01615
idh	-7.02322
ce	-7.03207
án	-7.04093
uair	-7.06168
víreas	-7.06435
féid	-7.0659
éad	-7.07428
tha	-7.07551
oir	-7.08174
áil	-7.08798
aithe	-7.09106
7	-7.09254
9	-7.11561
cov	-7.12241
sin	-7.13299
int	-7.13373
eith	-7.13848
ma	-7.14365
déan	-7.14471
eadh	-7.14855
hu	-7.16552
each	-7.17341
ón	-7.17625
to	-7.17736
tr	-7.17876
sláinte	-7.20297
se	-7.21228
duine	-7.22483
ph	-7.22978
ig	-7.24692
on	-7.24713
irt	-7.25423
vacsaín	-7.26772
úsáid	-7.29106
bás	-7.29498
re	-7.29966
acha	-7.30161
mó	-7.31073
chur	-7.31291
thar	-7.31351
mb	-7.32271
leis	-7.32343
aibh	-7.35831
gc	-7.35958
tear	-7.37464
íocht	-7.38248
eo	-7.39262
w	-7.4034
bhí	-7.4207
éis	-7.42524
dhéana	-7.43395
cé	-7.43577
inne	-7.43592
sars	-7.46057
dí	-7.46317
ne	-7.48072
idir	-7.50192
eacha	-7.50893
sca	-7.52688
gach	-7.55738
cho	-7.55817
aghaidh	-7.5666
lú	-7.5732
rud	-7.57362
ith	-7.58147
v	-7.58429
có	-7.5883
ró	-7.60516
tuairiscío	-7.61359
cr	-7.61467
tu	-7.6224
me	-7.63198
féin	-7.63436
chomh	-7.6423
ard	-7.64478
bu	-7.6482
fre	-7.64825
éir	-7.64825
gur	-7.65142
odh	-7.65397
chóir	-7.67502
sín	-7.67722
comharthaí	-7.6784
eamh	-7.67928
fhéadfa	-7.69594
rial	-7.70005
rian	-7.70006
rá	-7.70054
lé	-7.70442
fu	-7.71048
roinnt	-7.71458
▁¦2020¦	-7.7174
duit	-7.71748
árta	-7.71955
líon	-7.72221
che	-7.73792
thug	-7.76199
ul	-7.76526
ála	-7.769
y	-7.77318
oibr	-7.78087
áit	-7.79418
den	-7.79666
nua	-7.79699
teagmhá	-7.80032
trí	-7.8022
don	-7.80722
eanna	-7.8076
dói	-7.81085
ocht	-7.82088
aíonn	-7.82341
gal	-7.82996
tástáil	-7.83226
aire	-7.83282
bei	-7.87735
isteach	-7.87825
amach	-7.88455
chuir	-7.8866
ina	-7.88869
cuir	-7.89129
ráig	-7.89363
leat	-7.89934
aip	-7.90806
roimh	-7.93021
bhain	-7.95727
sonra	-7.95759
mór	-7.96178
comh	-7.96329
ionfhabht	-7.9704
liú	-7.98222
ige	-7.98855
íoch	-7.99532
▁¦20	-8.00818
isin	-8.01324
oc	-8.01336
anacht	-8.01852
artha	-8.02415
all	-8.03589
for	-8.0442
-2¦	-8.05386
mí	-8.06205
ainn	-8.06762
mháin	-8.06833
tástála	-8.07443
chás	-8.07488
fáil	-8.07934
vír	-8.08362
ionfhabhtaithe	-8.09098
coronavirus	-8.09522
neamh	-8.10827
tinn	-8.11279
gheall	-8.11657
chuig	-8.12224
eabhra	-8.12743
aonta	-8.13751
tuga	-8.14172
lacha	-8.14621
áirí	-8.14813
linn	-8.15089
tír	-8.1525
eoir	-8.15823
laghd	-8.16096
chéi	-8.16249
eola	-8.16562
scoile	-8.17197
teaghla	-8.17198
leor	-8.17943
aois	-8.18789
lámha	-8.18994
stái	-8.21845
íortha	-8.22122
measc	-8.22477
scaipea	-8.22488
k	-8.23064
náisiún	-8.23064
réir	-8.2314
óga	-8.2365
paindéim	-8.2428
bhaile	-8.24285
clúda	-8.24292
chuid	-8.24292
fháil	-8.2474
oibl	-8.25512
▁¦10	-8.25575
fad	-8.26136
uas	-8.26178
▁"	-8.28496
iom	-8.28644
mura	-8.28677
dtí	-8.29051
z	-8.29297
ospidé	-8.29297
léir	-8.29311
gcás	-8.29608
con	-8.30112
fógra	-8.30591
iúl	-8.3108
coinn	-8.32618
iomlán	-8.33235
faid	-8.33465
aghaidhe	-8.34582
cinn	-8.34874
leith	-8.35885
“	-8.35944
ionad	-8.3651
caith	-8.37137
chéad	-8.37549
maidi	-8.37751
éifeacht	-8.38027
othair	-8.3806
blia	-8.38113
eanái	-8.40058
pháist	-8.40875
hiomláin	-8.43064
;	-8.43805
riospráid	-8.43805
cúram	-8.43808
thabha	-8.43948
óirí	-8.44467
eolaíoch	-8.44718
scoil	-8.48396
bearta	-8.49165
bhfeidhm	-8.49326
fear	-8.49412
hcov	-8.49483
'	-8.50731
maith	-8.50801
thástá	-8.51532
ord	-8.53971
agat	-8.54221
seirbhís	-8.54796
chaithea	-8.56178
oscailt	-8.56471
bia	-8.5715
aer	-8.57346
leighis	-8.58216
aibreá	-8.59904
shampla	-8.60781
leibhé	-8.61666
ceart	-8.61801
dhochtúir	-8.62559
riosca	-8.64369
riachtana	-8.64371
srianta	-8.64387
oifig	-8.65286
ghala	-8.65433
glao	-8.66583
háir	-8.67236
comhairle	-8.68093
cuairt	-8.6817
▁¦14	-8.68397
dearfach	-8.69043
omhain	-8.69184
beal	-8.69233
aill	-8.72704
thuairisc	-8.73945
óstach	-8.73947
rialtas	-8.73964
gníomh	-8.75993
cosú	-8.76046
seachtain	-8.77008
orthaí	-8.7768
sóisial	-8.78048
fhógraío	-8.78049
mhór	-8.78251
▁¦19	-8.78276
líne	-8.7902
coróin	-8.79103
casacht	-8.79109
cuirea	-8.8004
bhféadfa	-8.80165
iodáil	-8.80165
beag	-8.8029
mbea	-8.80957
fhógair	-8.82329
gartheagmhá	-8.8233
chomhartha	-8.8244
éine	-8.83683
frith	-8.8456
roinn	-8.8552
staidé	-8.85664
amhail	-8.85672
mers	-8.85711
coraintín	-8.86797
minic	-8.86821
dearbha	-8.86827
bhás	-8.86922
j	-8.87946
ghnáth	-8.87951
tioncha	-8.87967
milliú	-8.89115
ialtóg	-8.90286
chosaint	-8.90287
rogh	-8.90347
géar	-8.90417
sábháilte	-8.91476
eipidéim	-8.91476
éagsúla	-8.92681
cheart	-8.92738
cabhr	-8.93944
dochtúir	-8.95135
smuig	-8.95277
fhéid	-8.95771
obair	-8.96443
iompar	-8.97691
príomh	-8.98933
taisteal	-8.98933
oideacha	-9.00241
láthair	-9.00429
próitéin	-9.01547
cóireá	-9.02883
poba	-9.02912
choinneá	-9.02935
choróinvír	-9.04233
masc	-9.04326
fiabhra	-9.06991
laghad	-9.06992
soláth	-9.08188
x	-9.08399
▁¦2019	-9.084
cleachta	-9.08438
pháirt	-9.11284
éigeandála	-9.12748
deimhn	-9.12817
sampla	-9.15756
deirea	-9.16075
bunúsach	-9.17294
láithreach	-9.20444
dáileog	-9.22057
imdhíonacht	-9.22057
)	-9.22859
díreach	-9.23708
áirith	-9.25241
druga	-9.25363
"	-9.93009
q	-10.0624
$	-10.1825
[	-10.226
]	-10.2715
&	-10.3191
€	-10.8136
+	-11.0879
≥	-11.199
#	-11.8335
×	-12.0835
@	-12.4168
α	-12.4168
β	-12.4168
武	-12.9168
肺	-12.9168
|	-12.9168
£	-12.9168
°	-12.9168
ã	-12.9168
ç	-12.9168
γ	-12.9168
—	-12.9168
~	-13.9159
‘	-13.916
?	-13.9161
–	-13.9162
”	-13.9163
/	-13.9164
%	-13.9165
:	-13.9166
(	-13.9167
=	-13.9168
_	-13.9168
­	-13.9168
å	-13.9168
′	-13.9168
汉	-13.9168
漢	-13.9168
炎	-13.9168
à	-13.9168
’	-13.9168
