<pad>	0
</s>	0
<unk>	0
▁t	-0
▁th	-1
▁a	-2
in	-3
▁the	-4
re	-5
on	-6
at	-7
en	-8
is	-9
▁o	-10
er	-11
▁w	-12
▁s	-13
it	-14
▁c	-15
ion	-16
or	-17
an	-18
▁p	-19
es	-20
▁of	-21
▁in	-22
▁to	-23
▁an	-24
▁f	-25
▁b	-26
ro	-27
al	-28
▁and	-29
ed	-30
ing	-31
▁m	-32
ar	-33
ent	-34
ou	-35
ic	-36
▁h	-37
▁re	-38
▁d	-39
le	-40
om	-41
ve	-42
▁n	-43
st	-44
▁be	-45
▁I	-46
▁is	-47
ct	-48
▁that	-49
il	-50
▁e	-51
ation	-52
pe	-53
as	-54
ly	-55
▁E	-56
ment	-57
▁for	-58
▁on	-59
ot	-60
▁T	-61
im	-62
▁wh	-63
ut	-64
▁we	-65
id	-66
▁l	-67
▁pro	-68
ur	-69
se	-70
ort	-71
▁C	-72
▁g	-73
▁M	-74
▁Th	-75
ol	-76
ce	-77
uro	-78
▁con	-79
▁al	-80
▁Euro	-81
un	-82
et	-83
▁it	-84
▁Europe	-85
ver	-86
port	-87
res	-88
▁this	-89
ul	-90
ra	-91
▁are	-92
ig	-93
▁as	-94
ld	-95
▁P	-96
▁ha	-97
▁de	-98
ith	-99
ow	-100
omm	-101
ch	-102
▁st	-103
ies	-104
▁with	-105
ate	-106
▁S	-107
ill	-108
▁European	-109
ould	-110
▁have	-111
▁su	-112
▁not	-113
ir	-114
▁The	-115
▁ne	-116
em	-117
ity	-118
sion	-119
op	-120
oun	-121
ive	-122
ay	-123
th	-124
ad	-125
us	-126
ers	-127
ble	-128
ke	-129
▁A	-130
ci	-131
ich	-132
ore	-133
▁im	-134
▁ex	-135
▁will	-136
ant	-137
os	-138
ust	-139
▁which	-140
ect	-141
ess	-142
▁v	-143
ter	-144
▁y	-145
▁Comm	-146
ia	-147
▁en	-148
igh	-149
▁by	-150
ain	-151
▁sh	-152
▁W	-153
▁r	-154
if	-155
qu	-156
ission	-157
▁ag	-158
est	-159
ge	-160
ber	-161
ere	-162
iv	-163
▁res	-164
▁has	-165
am	-166
▁-	-167
▁at	-168
our	-169
tr	-170
▁com	-171
ure	-172
art	-173
um	-174
▁U	-175
▁Commission	-176
▁le	-177
so	-178
▁all	-179
ions	-180
ight	-181
▁or	-182
und	-183
ident	-184
▁se	-185
▁Mr	-186
pp	-187
▁also	-188
ff	-189
▁wor	-190
rom	-191
od	-192
▁so	-193
▁Pres	-194
▁(	-195
ie	-196
ist	-197
el	-198
cial	-199
▁EU	-200
▁int	-201
▁Un	-202
ard	-203
and	-204
ates	-205
▁would	-206
▁reg	-207
▁me	-208
▁pol	-209
end	-210
▁do	-211
pport	-212
ud	-213
▁Mem	-214
▁St	-215
▁our	-216
▁from	-217
▁part	-218
▁fa	-219
▁can	-220
up	-221
very	-222
▁there	-223
▁ta	-224
▁President	-225
▁ad	-226
▁F	-227
▁should	-228
con	-229
▁We	-230
vel	-231
ree	-232
ations	-233
▁ch	-234
▁coun	-235
▁2	-236
▁must	-237
▁In	-238
use	-239
ult	-240
arl	-241
▁G	-242
ans	-243
▁H	-244
▁but	-245
▁am	-246
▁need	-247
▁Member	-248
cc	-249
▁B	-250
▁countr	-251
▁Union	-252
arlia	-253
arliament	-254
du	-255
▁go	-256
▁ab	-257
ue	-258
reat	-259
ally	-260
▁It	-261
ments	-262
ren	-263
all	-264
▁ma	-265
▁R	-266
▁inc	-267
ous	-268
pl	-269
out	-270
oc	-271
ome	-272
▁been	-273
▁report	-274
ance	-275
▁States	-276
ab	-277
ire	-278
ish	-279
▁import	-280
▁imp	-281
▁li	-282
▁tr	-283
▁Parliament	-284
▁co	-285
▁you	-286
king	-287
▁more	-288
ther	-289
▁dis	-290
▁j	-291
▁their	-292
ary	-293
▁fin	-294
ac	-295
▁right	-296
▁us	-297
si	-298
ast	-299
able	-300
▁cont	-301
▁un	-302
▁comm	-303
▁its	-304
gh	-305
▁like	-306
▁was	-307
ction	-308
▁20	-309
ical	-310
ose	-311
▁L	-312
ens	-313
conom	-314
ime	-315
▁This	-316
gy	-317
▁very	-318
cil	-319
▁cr	-320
▁pl	-321
▁prop	-322
ong	-323
▁app	-324
▁qu	-325
iti	-326
▁pr	-327
▁cons	-328
▁bec	-329
ational	-330
cy	-331
▁polic	-332
ear	-333
▁who	-334
▁pe	-335
tern	-336
▁D	-337
▁these	-338
fore	-339
▁econom	-340
pt	-341
ition	-342
▁support	-343
ial	-344
▁important	-345
ities	-346
ause	-347
ark	-348
▁pos	-349
ress	-350
▁eff	-351
▁1	-352
▁they	-353
velop	-354
▁O	-355
▁str	-356
▁countries	-357
ution	-358
▁comp	-359
▁man	-360
ated	-361
▁bet	-362
her	-363
▁work	-364
▁Coun	-365
▁conc	-366
ople	-367
▁acc	-368
▁Council	-369
for	-370
▁one	-371
ise	-372
get	-373
ces	-374
itt	-375
ence	-376
ll	-377
▁pre	-378
age	-379
ject	-380
▁new	-381
▁than	-382
pect	-383
▁out	-384
▁he	-385
▁about	-386
ide	-387
▁po	-388
▁cl	-389
ign	-390
bl	-391
▁vot	-392
▁other	-393
▁ind	-394
▁people	-395
▁develop	-396
ob	-397
▁propos	-398
ility	-399
ms	-400
ced	-401
int	-402
▁agree	-403
▁my	-404
ever	-405
▁und	-406
▁N	-407
▁spe	-408
▁sa	-409
ice	-410
are	-411
▁partic	-412
ag	-413
▁act	-414
▁year	-415
▁ra	-416
▁because	-417
one	-418
ep	-419
▁time	-420
▁tra	-421
ular	-422
▁up	-423
▁again	-424
arket	-425
ase	-426
cess	-427
▁policy	-428
▁only	-429
ieve	-430
▁leg	-431
▁what	-432
▁trans	-433
▁dec	-434
▁iss	-435
▁rec	-436
▁prov	-437
ern	-438
ord	-439
▁em	-440
▁under	-441
owever	-442
str	-443
ative	-444
ures	-445
ious	-446
ost	-447
ap	-448
ach	-449
og	-450
we	-451
▁ev	-452
fic	-453
▁market	-454
▁rights	-455
lear	-456
ip	-457
ib	-458
▁economic	-459
▁k	-460
▁dem	-461
▁rel	-462
me	-463
▁finan	-464
▁op	-465
erv	-466
form	-467
▁inv	-468
▁gro	-469
ine	-470
▁particular	-471
ention	-472
▁such	-473
ween	-474
▁produ	-475
▁between	-476
ame	-477
▁prot	-478
▁them	-479
ating	-480
▁bel	-481
pon	-482
ack	-483
ert	-484
uman	-485
▁into	-486
ink	-487
resent	-488
eren	-489
▁no	-490
▁now	-491
itiz	-492
lud	-493
▁if	-494
▁exp	-495
▁polit	-496
▁proposal	-497
irect	-498
▁fund	-499
ues	-500
▁sy	-501
ugh	-502
ian	-503
▁ob	-504
irst	-505
▁citiz	-506
xt	-507
ubl	-508
▁make	-509
sible	-510
act	-511
▁200	-512
▁ter	-513
▁take	-514
▁dif	-515
▁some	-516
▁ro	-517
ergy	-518
der	-519
▁protect	-520
ives	-521
ency	-522
▁respon	-523
eration	-524
ee	-525
▁those	-526
▁'	-527
▁any	-528
▁per	-529
stem	-530
▁citizens	-531
ace	-532
ards	-533
ade	-534
ict	-535
▁deb	-536
feren	-537
▁intern	-538
▁when	-539
ri	-540
▁proble	-541
vern	-542
lement	-543
▁therefore	-544
ural	-545
▁financial	-546
now	-547
▁fact	-548
stit	-549
▁human	-550
ov	-551
▁sub	-552
▁say	-553
▁ens	-554
eg	-555
day	-556
ks	-557
▁just	-558
▁clear	-559
ors	-560
▁concern	-561
ublic	-562
▁te	-563
▁sit	-564
▁appro	-565
▁incre	-566
▁over	-567
▁social	-568
ple	-569
▁meas	-570
▁being	-571
▁system	-572
▁against	-573
▁believe	-574
▁prog	-575
rent	-576
▁way	-577
▁cris	-578
▁energy	-579
rit	-580
▁point	-581
uation	-582
▁chan	-583
▁As	-584
unity	-585
rough	-586
▁political	-587
olution	-588
▁see	-589
ific	-590
▁bas	-591
de	-592
▁want	-593
ak	-594
ric	-595
▁many	-596
▁add	-597
▁rem	-598
▁disc	-599
rat	-600
sel	-601
▁crisis	-602
oy	-603
▁think	-604
▁were	-605
▁effect	-606
ual	-607
▁well	-608
▁requ	-609
▁However	-610
▁made	-611
▁know	-612
▁good	-613
▁quest	-614
▁great	-615
▁level	-616
▁There	-617
▁first	-618
▁la	-619
stru	-620
ision	-621
low	-622
iew	-623
▁includ	-624
mental	-625
ind	-626
▁att	-627
▁development	-628
lect	-629
ulation	-630
ices	-631
ised	-632
ful	-633
opt	-634
▁country	-635
▁Commissioner	-636
▁ent	-637
▁high	-638
ving	-639
▁order	-640
▁situation	-641
▁measures	-642
▁adopt	-643
isation	-644
▁ass	-645
udget	-646
▁cur	-647
ough	-648
▁use	-649
pet	-650
▁Wh	-651
ved	-652
uch	-653
ild	-654
▁Ch	-655
ism	-656
▁years	-657
uture	-658
uc	-659
▁implement	-660
ood	-661
▁sec	-662
▁direct	-663
▁ext	-664
▁mat	-665
▁future	-666
▁where	-667
iven	-668
▁national	-669
▁contin	-670
▁issue	-671
▁aut	-672
ety	-673
cept	-674
not	-675
▁coop	-676
wn	-677
read	-678
▁ensure	-679
utions	-680
ied	-681
▁J	-682
ry	-683
▁agreement	-684
▁through	-685
▁cre	-686
oth	-687
▁regard	-688
▁most	-689
▁debate	-690
▁sect	-691
▁result	-692
isl	-693
▁fe	-694
▁even	-695
ite	-696
▁today	-697
▁ac	-698
imate	-699
▁budget	-700
▁public	-701
▁same	-702
ittee	-703
ount	-704
ploy	-705
▁Mad	-706
ality	-707
▁every	-708
▁inform	-709
bers	-710
▁world	-711
wor	-712
iron	-713
urity	-714
▁rep	-715
▁compet	-716
ings	-717
▁tw	-718
ove	-719
arm	-720
▁here	-721
ertain	-722
ory	-723
uring	-724
▁legisl	-725
eur	-726
▁ach	-727
▁Madam	-728
alth	-729
ope	-730
viron	-731
cing	-732
▁call	-733
ram	-734
ass	-735
▁sign	-736
▁gen	-737
▁current	-738
▁neg	-739
▁strate	-740
▁possible	-741
reaty	-742
▁cannot	-743
▁sp	-744
▁impro	-745
▁hel	-746
▁area	-747
▁That	-748
▁exam	-749
▁long	-750
abl	-751
▁too	-752
▁consid	-753
erest	-754
▁govern	-755
▁respect	-756
▁democ	-757
▁protection	-758
men	-759
▁help	-760
ici	-761
ile	-762
▁ar	-763
▁could	-764
▁cooperation	-765
▁two	-766
▁beh	-767
▁cour	-768
omen	-769
▁end	-770
▁question	-771
orities	-772
ited	-773
reed	-774
▁law	-775
▁much	-776
▁does	-777
hip	-778
▁ful	-779
▁interest	-780
pporteur	-781
sib	-782
▁international	-783
ph	-784
▁how	-785
uss	-786
▁common	-787
ute	-788
▁fav	-789
ority	-790
▁vote	-791
▁prom	-792
▁gl	-793
▁rapporteur	-794
ready	-795
▁environ	-796
▁mon	-797
▁already	-798
▁auth	-799
▁set	-800
ail	-801
▁gu	-802
▁serv	-803
▁process	-804
ract	-805
▁voted	-806
trib	-807
▁said	-808
bon	-809
▁instit	-810
▁had	-811
▁certain	-812
▁both	-813
▁prev	-814
▁num	-815
▁redu	-816
▁your	-817
work	-818
▁view	-819
eral	-820
▁sol	-821
▁within	-822
itions	-823
▁tak	-824
▁put	-825
▁still	-826
▁On	-827
▁Treaty	-828
ges	-829
obal	-830
▁favour	-831
▁Gro	-832
▁own	-833
▁resolution	-834
▁writ	-835
▁consum	-836
ays	-837
come	-838
▁def	-839
▁conf	-840
▁region	-841
00	-842
ince	-843
▁necess	-844
▁ref	-845
▁car	-846
▁stand	-847
▁off	-848
▁saf	-849
▁security	-850
▁state	-851
ason	-852
▁sim	-853
▁change	-854
▁col	-855
▁K	-856
alf	-857
▁wel	-858
▁fra	-859
▁est	-860
▁differen	-861
▁invest	-862
▁writing	-863
▁cond	-864
▁amend	-865
▁main	-866
▁Committee	-867
▁dra	-868
▁hope	-869
▁health	-870
▁ser	-871
inci	-872
▁why	-873
cond	-874
▁sector	-875
oti	-876
▁course	-877
▁princi	-878
ene	-879
ential	-880
lu	-881
▁maj	-882
▁able	-883
▁reason	-884
▁opport	-885
entle	-886
▁min	-887
gan	-888
▁gentle	-889
urther	-890
▁information	-891
▁allow	-892
▁object	-893
▁case	-894
adies	-895
illion	-896
▁gentlemen	-897
▁negoti	-898
▁ke	-899
▁place	-900
ination	-901
oo	-902
te	-903
▁product	-904
arge	-905
▁group	-906
eth	-907
▁br	-908
▁last	-909
▁inter	-910
ec	-911
▁pers	-912
▁increas	-913
ration	-914
▁program	-915
▁Group	-916
ability	-917
▁Con	-918
▁women	-919
▁initi	-920
ty	-921
▁particularly	-922
itive	-923
▁V	-924
▁present	-925
▁global	-926
chn	-927
ules	-928
▁role	-929
▁problem	-930
▁necessary	-931
ablish	-932
▁des	-933
▁Mrs	-934
▁example	-935
▁effective	-936
▁indust	-937
▁action	-938
ources	-939
▁av	-940
ricult	-941
▁without	-942
▁issues	-943
▁trade	-944
▁equ	-945
▁appl	-946
▁provid	-947
arch	-948
ollow	-949
▁represent	-950
air	-951
▁needs	-952
▁thank	-953
▁taken	-954
isbon	-955
▁number	-956
▁lead	-957
mework	-958
▁establish	-959
▁real	-960
▁contrib	-961
▁require	-962
man	-963
ines	-964
▁means	-965
ft	-966
▁problems	-967
oura	-968
fter	-969
ves	-970
▁med	-971
▁areas	-972
▁invol	-973
▁Lisbon	-974
▁aim	-975
▁promot	-976
▁climate	-977
▁may	-978
red	-979
▁201	-980
iver	-981
pa	-982
▁sm	-983
cific	-984
ising	-985
ently	-986
ang	-987
▁pow	-988
▁better	-989
▁account	-990
▁techn	-991
own	-992
▁val	-993
▁grow	-994
▁ask	-995
▁rev	-996
pr	-997
▁aw	-998
▁strategy	-999
▁behalf	-1000
ning	-1001
sibility	-1002
▁det	-1003
ployment	-1004
▁effort	-1005
▁access	-1006
rodu	-1007
▁legal	-1008
ether	-1009
▁since	-1010
▁follow	-1011
reedom	-1012
▁pri	-1013
▁his	-1014
▁then	-1015
▁aff	-1016
▁deal	-1017
▁elect	-1018
▁inf	-1019
ficult	-1020
ird	-1021
▁If	-1022
▁difficult	-1023
ening	-1024
old	-1025
▁rules	-1026
▁For	-1027
▁child	-1028
▁consider	-1029
▁ladies	-1030
ound	-1031
ital	-1032
▁agricult	-1033
ouse	-1034
▁specific	-1035
▁form	-1036
fit	-1037
▁job	-1038
idency	-1039
gth	-1040
▁meet	-1041
DE	-1042
▁different	-1043
iness	-1044
amental	-1045
▁give	-1046
▁approach	-1047
ners	-1048
▁however	-1049
▁imm	-1050
▁project	-1051
20	-1052
▁institutions	-1053
stain	-1054
▁strong	-1055
ank	-1056
ell	-1057
▁serious	-1058
▁including	-1059
▁legislation	-1060
▁freedom	-1061
ession	-1062
▁terms	-1063
▁proced	-1064
ward	-1065
▁improve	-1066
land	-1067
▁welcome	-1068
▁3	-1069
▁organ	-1070
▁next	-1071
▁Min	-1072
▁framework	-1073
ately	-1074
wards	-1075
▁bene	-1076
ents	-1077
▁food	-1078
▁given	-1079
▁further	-1080
▁services	-1081
▁es	-1082
▁continue	-1083
arant	-1084
▁step	-1085
ug	-1086
▁So	-1087
▁loo	-1088
arity	-1089
▁directive	-1090
ting	-1091
racy	-1092
▁far	-1093
▁Members	-1094
▁sc	-1095
pecial	-1096
ss	-1097
▁opin	-1098
isions	-1099
▁whether	-1100
ered	-1101
▁before	-1102
imes	-1103
▁come	-1104
▁tax	-1105
▁progress	-1106
▁find	-1107
iol	-1108
▁guarant	-1109
▁increase	-1110
▁tal	-1111
▁instru	-1112
allen	-1113
▁economy	-1114
▁bus	-1115
▁cap	-1116
▁transport	-1117
▁cost	-1118
rength	-1119
oint	-1120
▁adopted	-1121
chan	-1122
▁fore	-1123
▁provide	-1124
ises	-1125
leg	-1126
ratic	-1127
▁decision	-1128
▁Se	-1129
self	-1130
▁fish	-1131
▁strength	-1132
▁pract	-1133
▁pay	-1134
iving	-1135
▁comple	-1136
▁after	-1137
ication	-1138
▁Presidency	-1139
▁hand	-1140
▁ess	-1141
▁resources	-1142
▁mention	-1143
▁matter	-1144
▁products	-1145
▁State	-1146
▁integ	-1147
▁Ag	-1148
▁crit	-1149
▁mod	-1150
▁ur	-1151
▁happ	-1152
▁achieve	-1153
min	-1154
▁contro	-1155
▁De	-1156
stand	-1157
pecially	-1158
▁rat	-1159
▁soci	-1160
▁exist	-1161
▁regulation	-1162
▁authorities	-1163
▁policies	-1164
▁challen	-1165
als	-1166
▁position	-1167
ran	-1168
ese	-1169
▁wish	-1170
▁ris	-1171
▁especially	-1172
ner	-1173
led	-1174
lusion	-1175
▁introdu	-1176
▁Pro	-1177
▁conditions	-1178
▁regul	-1179
ne	-1180
tain	-1181
▁plan	-1182
he	-1183
gether	-1184
▁towards	-1185
▁business	-1186
▁som	-1187
ten	-1188
ccess	-1189
▁small	-1190
▁basis	-1191
▁person	-1192
▁opportunity	-1193
▁start	-1194
▁proposals	-1195
▁commit	-1196
▁rese	-1197
▁fundamental	-1198
▁remain	-1199
▁importance	-1200
rant	-1201
▁done	-1202
ross	-1203
▁mem	-1204
▁working	-1205
▁get	-1206
▁sustain	-1207
ually	-1208
▁activ	-1209
▁compan	-1210
▁cor	-1211
▁going	-1212
▁forward	-1213
▁during	-1214
▁word	-1215
▁ed	-1216
▁viol	-1217
▁opinion	-1218
▁relations	-1219
▁signific	-1220
▁play	-1221
osed	-1222
▁back	-1223
▁An	-1224
▁aid	-1225
▁At	-1226
▁EUR	-1227
utes	-1228
▁Community	-1229
▁What	-1230
▁third	-1231
ared	-1232
▁success	-1233
▁few	-1234
▁used	-1235
▁United	-1236
▁implementation	-1237
▁addition	-1238
▁million	-1239
atives	-1240
▁effici	-1241
▁bu	-1242
ified	-1243
▁together	-1244
▁Fund	-1245
▁adv	-1246
▁safety	-1247
▁workers	-1248
▁subject	-1249
▁negotiations	-1250
ify	-1251
other	-1252
ily	-1253
▁pur	-1254
▁free	-1255
▁expl	-1256
▁supp	-1257
▁greater	-1258
▁lif	-1259
ata	-1260
▁three	-1261
ased	-1262
▁educ	-1263
mit	-1264
▁research	-1265
▁second	-1266
▁Af	-1267
▁transpa	-1268
▁Rom	-1269
ath	-1270
▁comb	-1271
▁essential	-1272
▁lab	-1273
ret	-1274
▁del	-1275
▁enc	-1276
▁show	-1277
▁whole	-1278
▁impact	-1279
▁funds	-1280
▁nat	-1281
av	-1282
selves	-1283
ogn	-1284
▁move	-1285
ivil	-1286
iod	-1287
▁based	-1288
arian	-1289
▁growth	-1290
▁really	-1291
▁House	-1292
imin	-1293
▁var	-1294
▁express	-1295
ases	-1296
sequ	-1297
ences	-1298
ivers	-1299
▁suff	-1300
▁efforts	-1301
▁attention	-1302
▁5	-1303
▁text	-1304
▁benefit	-1305
struct	-1306
overn	-1307
▁industry	-1308
▁fight	-1309
▁children	-1310
nov	-1311
ways	-1312
▁large	-1313
▁partners	-1314
▁accept	-1315
urn	-1316
▁reach	-1317
▁less	-1318
▁ins	-1319
▁oper	-1320
▁ide	-1321
▁recogn	-1322
▁responsibility	-1323
▁data	-1324
▁bring	-1325
▁discuss	-1326
▁power	-1327
▁major	-1328
▁tar	-1329
tic	-1330
▁democracy	-1331
▁colle	-1332
▁did	-1333
ists	-1334
▁significant	-1335
ivid	-1336
▁coh	-1337
▁while	-1338
ium	-1339
▁vis	-1340
▁achie	-1341
ension	-1342
▁become	-1343
▁speak	-1344
uct	-1345
les	-1346
▁environmental	-1347
▁clearly	-1348
ification	-1349
▁environment	-1350
▁ban	-1351
▁understand	-1352
▁creat	-1353
pri	-1354
▁Fin	-1355
▁control	-1356
▁Intern	-1357
ingle	-1358
▁commun	-1359
▁extre	-1360
▁making	-1361
▁These	-1362
▁prevent	-1363
▁society	-1364
▁standards	-1365
ick	-1366
▁principle	-1367
▁democratic	-1368
▁manage	-1369
ule	-1370
▁down	-1371
ened	-1372
▁another	-1373
rency	-1374
eri	-1375
▁address	-1376
ussia	-1377
▁consumers	-1378
oney	-1379
ething	-1380
▁interests	-1381
▁internal	-1382
▁ca	-1383
▁They	-1384
ged	-1385
▁cult	-1386
▁increasing	-1387
▁prep	-1388
▁pass	-1389
ible	-1390
▁Pol	-1391
▁regions	-1392
ror	-1393
▁ple	-1394
▁euro	-1395
▁air	-1396
▁positive	-1397
▁affect	-1398
idarity	-1399
ussion	-1400
ples	-1401
ral	-1402
▁look	-1403
ances	-1404
▁taking	-1405
▁pop	-1406
▁something	-1407
▁4	-1408
istr	-1409
▁encoura	-1410
▁assist	-1411
▁bl	-1412
▁loc	-1413
▁money	-1414
ness	-1415
▁coord	-1416
▁cent	-1417
▁least	-1418
▁proposed	-1419
ically	-1420
cies	-1421
ech	-1422
▁Am	-1423
▁expect	-1424
▁education	-1425
▁Direct	-1426
olog	-1427
▁agricultural	-1428
▁programme	-1429
▁general	-1430
▁dep	-1431
gest	-1432
▁among	-1433
▁opp	-1434
ics	-1435
ina	-1436
▁care	-1437
▁always	-1438
▁fail	-1439
▁pres	-1440
▁civil	-1441
▁read	-1442
▁abs	-1443
▁Russia	-1444
▁Ar	-1445
bour	-1446
▁force	-1447
▁employment	-1448
▁rece	-1449
ialog	-1450
▁demand	-1451
▁agreements	-1452
▁companies	-1453
▁Al	-1454
ining	-1455
ext	-1456
ater	-1457
ocus	-1458
▁month	-1459
▁once	-1460
▁Is	-1461
▁Tur	-1462
▁quality	-1463
▁innov	-1464
▁target	-1465
▁key	-1466
▁jobs	-1467
▁fully	-1468
aly	-1469
▁recent	-1470
▁short	-1471
▁enter	-1472
▁concerned	-1473
▁discussion	-1474
▁appropri	-1475
▁bord	-1476
ined	-1477
▁production	-1478
▁lim	-1479
▁focus	-1480
▁bal	-1481
com	-1482
▁emph	-1483
▁various	-1484
▁each	-1485
▁objectives	-1486
▁full	-1487
▁her	-1488
▁period	-1489
▁individ	-1490
▁19	-1491
ages	-1492
▁treat	-1493
light	-1494
fort	-1495
▁best	-1496
▁wee	-1497
▁Therefore	-1498
▁non	-1499
▁itself	-1500
▁extreme	-1501
▁ap	-1502
▁Govern	-1503
igration	-1504
▁things	-1505
▁fam	-1506
ialogue	-1507
▁colleag	-1508
aking	-1509
▁pack	-1510
'.	-1511
gin	-1512
▁life	-1513
▁solution	-1514
issions	-1515
iveness	-1516
ference	-1517
▁concerns	-1518
▁close	-1519
ging	-1520
▁Rep	-1521
▁assess	-1522
▁sustainable	-1523
airs	-1524
▁let	-1525
▁farm	-1526
esion	-1527
ister	-1528
▁inst	-1529
▁el	-1530
eed	-1531
▁amendments	-1532
▁Reg	-1533
▁emphas	-1534
▁risk	-1535
▁individual	-1536
▁developing	-1537
▁aspect	-1538
▁open	-1539
eng	-1540
▁create	-1541
▁context	-1542
uge	-1543
itted	-1544
▁guarantee	-1545
▁mil	-1546
▁press	-1547
▁groups	-1548
▁2009	-1549
ensive	-1550
▁Str	-1551
▁words	-1552
▁yet	-1553
epend	-1554
▁sch	-1555
ung	-1556
ck	-1557
▁ph	-1558
▁government	-1559
▁avail	-1560
irm	-1561
vention	-1562
▁often	-1563
▁markets	-1564
ield	-1565
ators	-1566
▁systems	-1567
ron	-1568
cu	-1569
▁sur	-1570
round	-1571
ending	-1572
▁having	-1573
▁experi	-1574
verty	-1575
fortun	-1576
▁regional	-1577
aps	-1578
▁currently	-1579
▁Afric	-1580
▁single	-1581
though	-1582
▁members	-1583
raph	-1584
▁results	-1585
▁solidarity	-1586
▁All	-1587
▁programm	-1588
▁fel	-1589
most	-1590
▁draft	-1591
▁Government	-1592
▁initiative	-1593
▁mechan	-1594
▁rather	-1595
ering	-1596
▁cred	-1597
▁Bar	-1598
▁accord	-1599
▁priv	-1600
ulate	-1601
ts	-1602
▁comprom	-1603
oung	-1604
▁consequ	-1605
row	-1606
itor	-1607
▁build	-1608
▁involved	-1609
▁following	-1610
▁amb	-1611
▁management	-1612
▁states	-1613
ier	-1614
▁Directive	-1615
▁actually	-1616
▁occ	-1617
▁request	-1618
▁package	-1619
▁dialogue	-1620
▁cong	-1621
▁terror	-1622
▁With	-1623
▁though	-1624
▁compl	-1625
thing	-1626
▁try	-1627
▁resol	-1628
ended	-1629
ania	-1630
▁ann	-1631
▁parliament	-1632
ably	-1633
▁harm	-1634
0%	-1635
▁young	-1636
▁congrat	-1637
▁points	-1638
▁name	-1639
▁labour	-1640
▁mot	-1641
▁sum	-1642
▁challenges	-1643
▁poverty	-1644
▁competition	-1645
▁transparency	-1646
▁exce	-1647
ave	-1648
▁funding	-1649
ourt	-1650
uclear	-1651
ministr	-1652
cise	-1653
sw	-1654
▁recomm	-1655
▁legislative	-1656
▁costs	-1657
▁majority	-1658
▁Let	-1659
▁independ	-1660
▁To	-1661
▁struct	-1662
ply	-1663
▁ret	-1664
▁docu	-1665
▁Part	-1666
▁mentioned	-1667
▁objective	-1668
▁available	-1669
▁ago	-1670
▁cohesion	-1671
▁Court	-1672
empt	-1673
▁procedure	-1674
ternal	-1675
▁peace	-1676
▁extremely	-1677
▁complete	-1678
▁needed	-1679
ead	-1680
orth	-1681
▁answ	-1682
▁reform	-1683
road	-1684
▁US	-1685
▁particip	-1686
▁En	-1687
▁cases	-1688
▁stat	-1689
▁found	-1690
▁local	-1691
▁concerning	-1692
▁projects	-1693
▁pot	-1694
▁principles	-1695
▁commitment	-1696
ees	-1697
▁strateg	-1698
lict	-1699
▁programmes	-1700
ling	-1701
▁First	-1702
ims	-1703
▁low	-1704
▁caus	-1705
equ	-1706
fortunately	-1707
▁feel	-1708
▁conclusion	-1709
▁proper	-1710
▁stress	-1711
▁2008	-1712
▁rele	-1713
▁mar	-1714
its	-1715
▁sure	-1716
▁vict	-1717
ock	-1718
line	-1719
▁field	-1720
▁emissions	-1721
▁responsible	-1722
▁obl	-1723
atory	-1724
▁simply	-1725
▁mob	-1726
▁mean	-1727
orm	-1728
▁seem	-1729
▁apply	-1730
▁list	-1731
▁joint	-1732
idence	-1733
mber	-1734
▁lack	-1735
▁oblig	-1736
▁priority	-1737
▁assistance	-1738
▁sever	-1739
oub	-1740
▁investment	-1741
▁quite	-1742
▁2020	-1743
▁decisions	-1744
▁activities	-1745
▁6	-1746
▁conv	-1747
▁monitor	-1748
▁regarding	-1749
▁months	-1750
▁China	-1751
▁facil	-1752
▁threat	-1753
▁promote	-1754
▁nuclear	-1755
▁draw	-1756
▁fl	-1757
▁Gree	-1758
ake	-1759
▁response	-1760
▁appropriate	-1761
▁begin	-1762
▁due	-1763
▁instruments	-1764
emoc	-1765
term	-1766
▁Finally	-1767
ibility	-1768
FR	-1769
▁cru	-1770
▁administr	-1771
▁several	-1772
▁aware	-1773
imination	-1774
ix	-1775
▁review	-1776
▁compromise	-1777
ters	-1778
thers	-1779
urd	-1780
▁Bel	-1781
over	-1782
ived	-1783
▁pat	-1784
▁kind	-1785
▁subst	-1786
▁keep	-1787
ense	-1788
▁questions	-1789
▁fle	-1790
▁recommend	-1791
▁values	-1792
ogy	-1793
▁conflict	-1794
▁constit	-1795
iter	-1796
reen	-1797
▁reduce	-1798
▁population	-1799
▁appe	-1800
▁demon	-1801
hing	-1802
ub	-1803
▁shall	-1804
▁fellow	-1805
▁times	-1806
▁war	-1807
igin	-1808
erman	-1809
▁certainly	-1810
▁trad	-1811
ption	-1812
▁urg	-1813
illeg	-1814
▁road	-1815
▁special	-1816
▁integration	-1817
▁Sch	-1818
▁ident	-1819
▁thing	-1820
atic	-1821
▁meeting	-1822
haps	-1823
▁par	-1824
▁illeg	-1825
ights	-1826
anced	-1827
ond	-1828
enda	-1829
less	-1830
oid	-1831
key	-1832
▁disp	-1833
▁fair	-1834
▁provided	-1835
ology	-1836
▁Hung	-1837
PL	-1838
sp	-1839
kes	-1840
000	-1841
ides	-1842
▁demonstr	-1843
▁origin	-1844
▁parties	-1845
▁achieved	-1846
ression	-1847
▁excell	-1848
vious	-1849
▁doing	-1850
mb	-1851
utional	-1852
▁true	-1853
wh	-1854
▁8	-1855
▁pleased	-1856
vant	-1857
ection	-1858
▁others	-1859
▁entire	-1860
▁enough	-1861
▁exc	-1862
▁7	-1863
▁sup	-1864
ighbour	-1865
▁disast	-1866
▁But	-1867
▁farmers	-1868
▁Aff	-1869
itting	-1870
▁Affairs	-1871
▁foreign	-1872
▁include	-1873
edi	-1874
unities	-1875
▁prices	-1876
▁eas	-1877
▁day	-1878
encies	-1879
▁maintain	-1880
▁creation	-1881
eria	-1882
erous	-1883
▁stud	-1884
▁Turkey	-1885
▁potential	-1886
▁consumer	-1887
olute	-1888
▁Social	-1889
▁tot	-1890
▁actions	-1891
▁themselves	-1892
aged	-1893
▁amendment	-1894
ceed	-1895
▁billion	-1896
▁sug	-1897
▁never	-1898
▁2010	-1899
▁crucial	-1900
io	-1901
side	-1902
▁violence	-1903
▁indeed	-1904
ale	-1905
▁fisher	-1906
itarian	-1907
▁mult	-1908
▁absolute	-1909
▁increased	-1910
ted	-1911
▁final	-1912
ctions	-1913
▁changes	-1914
▁matters	-1915
▁hist	-1916
▁German	-1917
▁stability	-1918
▁consequences	-1919
IT	-1920
imum	-1921
▁reasons	-1922
▁enterpr	-1923
▁contain	-1924
eless	-1925
ilities	-1926
▁innovation	-1927
▁2007	-1928
▁ear	-1929
▁cut	-1930
ither	-1931
▁cross	-1932
▁rest	-1933
▁existing	-1934
▁000	-1935
ants	-1936
▁mom	-1937
new	-1938
sid	-1939
ried	-1940
▁Rights	-1941
▁conclud	-1942
▁net	-1943
▁industr	-1944
▁pa	-1945
▁quick	-1946
fully	-1947
▁discr	-1948
▁Democ	-1949
▁highlight	-1950
▁10	-1951
▁efficiency	-1952
por	-1953
▁regards	-1954
ru	-1955
▁depend	-1956
▁avoid	-1957
istan	-1958
▁Re	-1959
▁broad	-1960
▁link	-1961
ticle	-1962
isations	-1963
▁Second	-1964
ember	-1965
▁idea	-1966
▁comes	-1967
by	-1968
▁above	-1969
ean	-1970
▁medium	-1971
▁requirements	-1972
▁dr	-1973
ians	-1974
osition	-1975
▁past	-1976
▁territ	-1977
▁governments	-1978
▁ele	-1979
▁Republic	-1980
▁soon	-1981
▁ve	-1982
▁relation	-1983
▁seen	-1984
▁congratulate	-1985
▁longer	-1986
▁bod	-1987
▁contribution	-1988
▁Minutes	-1989
▁Bal	-1990
▁moment	-1991
▁elections	-1992
uel	-1993
strict	-1994
▁excellent	-1995
▁gas	-1996
▁cho	-1997
▁amount	-1998
▁hon	-1999
orrow	-2000
▁procedures	-2001
▁opportunities	-2002
▁refer	-2003
▁jud	-2004
▁previous	-2005
aring	-2006
▁gener	-2007
unction	-2008
▁instrument	-2009
ison	-2010
▁emer	-2011
iting	-2012
▁sci	-2013
ateral	-2014
▁aspects	-2015
▁everyone	-2016
▁voting	-2017
▁application	-2018
▁regulations	-2019
▁decl	-2020
▁competit	-2021
iance	-2022
▁mind	-2023
ledge	-2024
▁ensuring	-2025
▁reports	-2026
▁One	-2027
▁value	-2028
▁integr	-2029
▁active	-2030
til	-2031
▁talk	-2032
▁East	-2033
▁face	-2034
▁Sw	-2035
▁agreed	-2036
▁priorities	-2037
▁restrict	-2038
▁My	-2039
▁Minister	-2040
▁provisions	-2041
▁tas	-2042
outh	-2043
▁wast	-2044
▁share	-2045
▁Sp	-2046
ring	-2047
reland	-2048
rist	-2049
▁equal	-2050
▁Ireland	-2051
iz	-2052
▁prof	-2053
▁encourage	-2054
▁criteria	-2055
▁using	-2056
ilateral	-2057
conomic	-2058
▁across	-2059
▁businesses	-2060
▁victims	-2061
▁governance	-2062
pite	-2063
▁illegal	-2064
▁external	-2065
▁might	-2066
▁employ	-2067
▁renew	-2068
▁enterprises	-2069
▁ty	-2070
▁around	-2071
ned	-2072
iation	-2073
▁Our	-2074
ffic	-2075
fer	-2076
▁grant	-2077
▁line	-2078
▁He	-2079
▁technolog	-2080
ittle	-2081
▁term	-2082
▁Develop	-2083
▁rule	-2084
irc	-2085
▁continu	-2086
▁meth	-2087
▁partnership	-2088
▁offic	-2089
▁week	-2090
itary	-2091
soci	-2092
▁makes	-2093
▁simpl	-2094
beral	-2095
▁capital	-2096
▁9	-2097
▁little	-2098
▁item	-2099
▁supported	-2100
▁living	-2101
vere	-2102
▁Wor	-2103
▁organisations	-2104
▁suggest	-2105
▁circ	-2106
▁dist	-2107
▁tack	-2108
▁indic	-2109
▁Thank	-2110
▁wr	-2111
▁practice	-2112
▁hard	-2113
▁method	-2114
▁harmon	-2115
▁agenda	-2116
▁immedi	-2117
▁stop	-2118
▁obvious	-2119
cr	-2120
uly	-2121
ires	-2122
▁purp	-2123
▁strengthen	-2124
▁neighbour	-2125
▁adoption	-2126
',	-2127
▁relating	-2128
▁competitiveness	-2129
▁doub	-2130
▁colleagues	-2131
▁lear	-2132
▁required	-2133
reh	-2134
ief	-2135
fact	-2136
▁Article	-2137
▁bo	-2138
kra	-2139
▁solutions	-2140
▁along	-2141
▁natural	-2142
icient	-2143
▁deter	-2144
▁Development	-2145
▁UN	-2146
▁dang	-2147
▁carried	-2148
▁private	-2149
▁vital	-2150
▁corre	-2151
▁perhaps	-2152
▁flex	-2153
force	-2154
▁mess	-2155
▁speech	-2156
▁him	-2157
▁Agree	-2158
▁respond	-2159
▁four	-2160
▁thus	-2161
▁reduction	-2162
▁14	-2163
▁additional	-2164
ffice	-2165
▁supply	-2166
▁talking	-2167
▁agriculture	-2168
▁nothing	-2169
▁reject	-2170
▁defin	-2171
▁borders	-2172
▁turn	-2173
▁technical	-2174
▁post	-2175
▁balance	-2176
▁tom	-2177
▁Africa	-2178
rastruct	-2179
▁enable	-2180
▁mis	-2181
▁More	-2182
▁obs	-2183
▁Mon	-2184
▁detail	-2185
▁initiatives	-2186
angu	-2187
▁anim	-2188
▁basic	-2189
iversity	-2190
▁strategic	-2191
▁throughout	-2192
▁Ukra	-2193
▁death	-2194
▁quickly	-2195
itious	-2196
▁levels	-2197
▁tomorrow	-2198
erb	-2199
igrant	-2200
▁infrastruct	-2201
▁When	-2202
▁training	-2203
lov	-2204
ols	-2205
ided	-2206
▁model	-2207
▁jo	-2208
rup	-2209
),	-2210
▁unem	-2211
aced	-2212
rats	-2213
yl	-2214
just	-2215
▁char	-2216
▁cultural	-2217
▁hold	-2218
ven	-2219
▁Secondly	-2220
▁answer	-2221
▁coordin	-2222
▁repe	-2223
apt	-2224
▁although	-2225
▁Greece	-2226
az	-2227
▁financing	-2228
▁top	-2229
▁committee	-2230
▁absolutely	-2231
▁live	-2232
▁goods	-2233
▁community	-2234
istic	-2235
▁accession	-2236
).	-2237
▁dut	-2238
▁huge	-2239
▁coming	-2240
▁discrimination	-2241
▁saying	-2242
▁vol	-2243
▁she	-2244
▁monitoring	-2245
▁contribute	-2246
atis	-2247
▁effects	-2248
▁dire	-2249
▁tell	-2250
▁waste	-2251
▁immigration	-2252
▁traffic	-2253
▁until	-2254
▁International	-2255
▁Ind	-2256
▁implemented	-2257
▁namely	-2258
▁everything	-2259
EP	-2260
▁ambitious	-2261
ti	-2262
▁dest	-2263
▁author	-2264
▁service	-2265
▁sitting	-2266
▁powers	-2267
▁conn	-2268
▁precise	-2269
EC	-2270
▁Roma	-2271
▁ever	-2272
▁analy	-2273
▁affected	-2274
forms	-2275
▁clos	-2276
▁mand	-2277
▁thanks	-2278
▁carry	-2279
▁superv	-2280
hold	-2281
▁leaders	-2282
▁langu	-2283
▁aimed	-2284
▁Agreement	-2285
▁coordination	-2286
▁big	-2287
▁subsid	-2288
erial	-2289
▁fishing	-2290
▁creating	-2291
reg	-2292
▁seems	-2293
▁No	-2294
▁pressure	-2295
▁Slov	-2296
▁red	-2297
oh	-2298
▁military	-2299
▁Port	-2300
siz	-2301
▁Just	-2302
▁facilit	-2303
▁consult	-2304
▁treatment	-2305
▁reached	-2306
▁12	-2307
▁price	-2308
TO	-2309
▁relig	-2310
▁consist	-2311
▁providing	-2312
eric	-2313
▁humanitarian	-2314
rael	-2315
▁crimin	-2316
▁asked	-2317
▁eng	-2318
▁Med	-2319
▁Cent	-2320
▁los	-2321
ends	-2322
▁communication	-2323
▁attempt	-2324
rench	-2325
▁lot	-2326
▁tabl	-2327
la	-2328
▁document	-2329
acy	-2330
▁capac	-2331
▁direction	-2332
▁Fr	-2333
▁reflect	-2334
▁sectors	-2335
vers	-2336
▁terrorism	-2337
▁involve	-2338
▁assessment	-2339
uine	-2340
200	-2341
▁regret	-2342
▁Iran	-2343
▁influ	-2344
aration	-2345
order	-2346
▁held	-2347
▁Strate	-2348
sized	-2349
▁outside	-2350
▁improving	-2351
▁ourselves	-2352
▁pen	-2353
▁Or	-2354
▁media	-2355
une	-2356
▁water	-2357
▁test	-2358
ender	-2359
▁Americ	-2360
▁ground	-2361
▁dam	-2362
▁Israel	-2363
▁fall	-2364
▁Portug	-2365
▁hear	-2366
▁wa	-2367
ilar	-2368
▁old	-2369
ME	-2370
▁passeng	-2371
▁closed	-2372
▁gr	-2373
ograph	-2374
PT	-2375
▁exchan	-2376
ator	-2377
▁called	-2378
▁And	-2379
▁Barro	-2380
▁included	-2381
▁summit	-2382
▁compreh	-2383
▁correct	-2384
▁sense	-2385
▁relevant	-2386
▁mechanism	-2387
▁cam	-2388
more	-2389
▁export	-2390
▁bre	-2391
▁opt	-2392
▁recently	-2393
pid	-2394
▁Le	-2395
▁promoting	-2396
ES	-2397
▁eval	-2398
▁offer	-2399
▁French	-2400
itten	-2401
▁effectively	-2402
rought	-2403
▁Tr	-2404
unch	-2405
▁Sec	-2406
▁movement	-2407
ished	-2408
▁function	-2409
▁attack	-2410
▁Tra	-2411
▁men	-2412
▁efficient	-2413
sels	-2414
▁15	-2415
cember	-2416
ote	-2417
▁five	-2418
▁er	-2419
▁lives	-2420
▁measure	-2421
▁experience	-2422
▁dom	-2423
▁travel	-2424
▁December	-2425
▁dev	-2426
▁justice	-2427
▁possibility	-2428
isms	-2429
▁remind	-2430
▁budgetary	-2431
The	-2432
▁scient	-2433
▁nature	-2434
estic	-2435
▁Democrats	-2436
oday	-2437
▁benefits	-2438
▁reality	-2439
▁challenge	-2440
▁Today	-2441
overy	-2442
▁Prog	-2443
▁completely	-2444
▁associ	-2445
border	-2446
▁Further	-2447
▁return	-2448
▁Ge	-2449
▁total	-2450
▁Can	-2451
▁almost	-2452
▁Now	-2453
▁according	-2454
▁burd	-2455
▁light	-2456
▁combat	-2457
▁fisheries	-2458
ylum	-2459
ars	-2460
mitted	-2461
RO	-2462
aper	-2463
▁Regulation	-2464
rupt	-2465
▁reforms	-2466
▁visa	-2467
▁becom	-2468
duct	-2469
egu	-2470
▁provides	-2471
iterran	-2472
▁presented	-2473
▁remains	-2474
iterranean	-2475
▁family	-2476
▁message	-2477
▁strengthening	-2478
▁infrastructure	-2479
▁Cz	-2480
arus	-2481
▁decided	-2482
▁agencies	-2483
▁Strategy	-2484
▁supporting	-2485
iable	-2486
▁except	-2487
▁produc	-2488
hic	-2489
▁penal	-2490
▁targets	-2491
ications	-2492
▁Romania	-2493
▁Ex	-2494
▁Of	-2495
▁established	-2496
omp	-2497
▁safegu	-2498
▁alloc	-2499
▁calls	-2500
▁whose	-2501
▁applied	-2502
▁Belarus	-2503
▁purs	-2504
▁developed	-2505
▁reducing	-2506
▁age	-2507
▁head	-2508
theless	-2509
▁received	-2510
▁administrative	-2511
▁land	-2512
▁met	-2513
sibilities	-2514
▁comprehensive	-2515
▁Ukraine	-2516
▁left	-2517
igrants	-2518
▁regime	-2519
Office	-2520
▁Czech	-2521
▁Ad	-2522
▁industrial	-2523
▁adapt	-2524
▁pati	-2525
▁motion	-2526
▁MEP	-2527
pective	-2528
▁heard	-2529
ional	-2530
▁firm	-2531
▁combating	-2532
▁Internet	-2533
▁vehic	-2534
▁undert	-2535
org	-2536
arily	-2537
▁statement	-2538
▁green	-2539
▁committed	-2540
▁Pe	-2541
accept	-2542
ys	-2543
▁Man	-2544
▁arg	-2545
▁mor	-2546
▁deep	-2547
▁prepared	-2548
▁statements	-2549
▁satis	-2550
▁guid	-2551
itional	-2552
▁task	-2553
▁steps	-2554
▁collect	-2555
▁either	-2556
▁rate	-2557
▁technology	-2558
▁Europeans	-2559
▁leave	-2560
▁cla	-2561
▁circum	-2562
▁brought	-2563
▁implementing	-2564
dict	-2565
▁days	-2566
▁explo	-2567
▁events	-2568
▁finally	-2569
app	-2570
▁liberal	-2571
▁weak	-2572
▁doubt	-2573
▁credit	-2574
▁unaccept	-2575
▁run	-2576
ially	-2577
▁crime	-2578
▁capacity	-2579
lf	-2580
▁personal	-2581
▁six	-2582
▁Firstly	-2583
▁equality	-2584
▁Swed	-2585
▁knowledge	-2586
af	-2587
▁san	-2588
▁SME	-2589
▁mut	-2590
▁self	-2591
▁modern	-2592
auc	-2593
▁facing	-2594
▁independent	-2595
inking	-2596
▁stage	-2597
▁shown	-2598
▁obtain	-2599
▁Convention	-2600
▁Furthermore	-2601
▁giving	-2602
▁counter	-2603
ourable	-2604
▁unacceptable	-2605
▁successful	-2606
▁May	-2607
Euro	-2608
▁behind	-2609
▁analys	-2610
▁deleg	-2611
▁adequ	-2612
ash	-2613
▁unemployment	-2614
▁enh	-2615
▁requires	-2616
rete	-2617
▁provision	-2618
▁famil	-2619
▁raised	-2620
▁parliamentary	-2621
▁oil	-2622
▁conduct	-2623
aff	-2624
▁rural	-2625
▁tabled	-2626
ppl	-2627
ulg	-2628
▁gra	-2629
▁rapporteurs	-2630
▁Li	-2631
▁cause	-2632
▁Bank	-2633
▁referen	-2634
▁27	-2635
▁created	-2636
▁genuine	-2637
entions	-2638
▁expressed	-2639
▁represents	-2640
▁sent	-2641
▁altern	-2642
ange	-2643
to	-2644
▁representatives	-2645
▁rein	-2646
imately	-2647
▁concrete	-2648
uted	-2649
alled	-2650
▁Unfortunately	-2651
▁took	-2652
▁investig	-2653
▁technologies	-2654
▁minimum	-2655
▁emphasise	-2656
▁profession	-2657
▁dise	-2658
▁Br	-2659
uth	-2660
▁bar	-2661
▁Brit	-2662
▁poor	-2663
▁critic	-2664
yond	-2665
Europe	-2666
erve	-2667
etary	-2668
▁contract	-2669
▁spo	-2670
▁discussions	-2671
▁Human	-2672
▁caused	-2673
▁material	-2674
▁border	-2675
▁upon	-2676
▁Barroso	-2677
▁economies	-2678
ons	-2679
arter	-2680
▁sources	-2681
▁introduction	-2682
▁2006	-2683
▁exchange	-2684
▁similar	-2685
▁banks	-2686
▁receive	-2687
▁asylum	-2688
▁away	-2689
▁culture	-2690
itation	-2691
▁takes	-2692
▁criminal	-2693
know	-2694
▁prim	-2695
▁commitments	-2696
hood	-2697
▁scho	-2698
▁event	-2699
▁EC	-2700
▁competitive	-2701
sec	-2702
▁circumst	-2703
▁recovery	-2704
erate	-2705
▁activity	-2706
▁fig	-2707
▁scope	-2708
▁Pr	-2709
istics	-2710
▁Party	-2711
▁closely	-2712
go	-2713
▁11	-2714
▁confidence	-2715
▁Ne	-2716
▁Bulg	-2717
▁Georg	-2718
pplause	-2719
Applause	-2720
▁producers	-2721
▁aims	-2722
▁rail	-2723
▁rise	-2724
▁Mediterranean	-2725
▁higher	-2726
▁difficulties	-2727
▁June	-2728
ton	-2729
▁France	-2730
▁condem	-2731
▁extent	-2732
▁mobility	-2733
ying	-2734
engen	-2735
▁const	-2736
▁schem	-2737
▁Ir	-2738
▁vo	-2739
▁side	-2740
▁trying	-2741
▁official	-2742
action	-2743
▁transparent	-2744
mp	-2745
ousand	-2746
agraph	-2747
way	-2748
▁Italy	-2749
▁instead	-2750
▁pension	-2751
▁mass	-2752
▁beyond	-2753
▁Economic	-2754
▁mechanisms	-2755
▁Prot	-2756
▁advant	-2757
▁negative	-2758
▁Christ	-2759
▁expert	-2760
olid	-2761
resident	-2762
ex	-2763
▁achieving	-2764
ufact	-2765
▁scientific	-2766
▁ver	-2767
▁unfortunately	-2768
▁colleague	-2769
▁design	-2770
▁Schengen	-2771
▁Be	-2772
▁cover	-2773
▁SMEs	-2774
▁construct	-2775
▁circumstances	-2776
▁plans	-2777
▁despite	-2778
▁ir	-2779
▁Nations	-2780
▁South	-2781
▁Central	-2782
▁2011	-2783
▁Vice	-2784
itime	-2785
aria	-2786
ource	-2787
▁precisely	-2788
▁convin	-2789
▁Hungarian	-2790
▁discussed	-2791
▁establishing	-2792
▁practices	-2793
open	-2794
▁note	-2795
▁rapid	-2796
▁weeks	-2797
NL	-2798
▁else	-2799
▁shows	-2800
▁Amend	-2801
val	-2802
▁Germany	-2803
▁Agency	-2804
▁increasingly	-2805
wise	-2806
▁worth	-2807
udit	-2808
ively	-2809
▁Sea	-2810
portion	-2811
201	-2812
▁CO	-2813
▁thousand	-2814
▁Irish	-2815
imension	-2816
President	-2817
▁duty	-2818
▁awa	-2819
▁forces	-2820
▁history	-2821
▁Moreover	-2822
▁trust	-2823
▁People	-2824
▁anti	-2825
▁defence	-2826
▁fulf	-2827
▁Justice	-2828
▁launch	-2829
elines	-2830
▁opposition	-2831
agen	-2832
▁fri	-2833
▁Cons	-2834
struction	-2835
▁accordance	-2836
▁calling	-2837
▁yes	-2838
▁home	-2839
▁paid	-2840
ban	-2841
▁manufact	-2842
▁considered	-2843
▁cod	-2844
▁wrong	-2845
estern	-2846
▁recon	-2847
▁status	-2848
▁half	-2849
▁complex	-2850
▁standard	-2851
▁wanted	-2852
▁strongly	-2853
▁proceed	-2854
▁recommendations	-2855
▁remember	-2856
▁substant	-2857
▁renewable	-2858
▁properly	-2859
▁Poland	-2860
sian	-2861
roat	-2862
▁allowed	-2863
▁Last	-2864
▁forget	-2865
▁integrated	-2866
▁seek	-2867
▁happen	-2868
▁qual	-2869
▁early	-2870
▁beginning	-2871
▁chec	-2872
▁central	-2873
▁Serb	-2874
▁highly	-2875
▁prison	-2876
▁purpose	-2877
▁lat	-2878
lines	-2879
acc	-2880
▁quot	-2881
▁participation	-2882
▁Ladies	-2883
▁produce	-2884
idd	-2885
▁199	-2886
▁Jan	-2887
uations	-2888
▁balanced	-2889
▁risks	-2890
▁improved	-2891
▁relationship	-2892
▁impos	-2893
▁explain	-2894
▁loss	-2895
ifying	-2896
European	-2897
▁safeguard	-2898
hagen	-2899
ercial	-2900
▁clar	-2901
▁World	-2902
openhagen	-2903
▁recognise	-2904
lus	-2905
inding	-2906
▁territor	-2907
▁nor	-2908
ulner	-2909
sman	-2910
▁legit	-2911
▁directly	-2912
▁overall	-2913
▁Copenhagen	-2914
▁eth	-2915
dum	-2916
▁extra	-2917
▁decide	-2918
▁sufficient	-2919
▁sens	-2920
▁migration	-2921
▁cle	-2922
▁looking	-2923
▁conclusions	-2924
▁independence	-2925
▁Market	-2926
▁Croat	-2927
▁bodies	-2928
▁forms	-2929
▁specifically	-2930
idents	-2931
▁sanctions	-2932
▁Ha	-2933
▁Kos	-2934
▁ways	-2935
▁urgent	-2936
▁vulner	-2937
illions	-2938
ties	-2939
▁MEPs	-2940
▁disaster	-2941
▁defend	-2942
paign	-2943
▁concept	-2944
▁mandate	-2945
▁paragraph	-2946
▁ge	-2947
endit	-2948
▁limit	-2949
ush	-2950
▁content	-2951
ensus	-2952
▁How	-2953
▁disch	-2954
▁approved	-2955
▁discussing	-2956
▁mov	-2957
▁transfer	-2958
▁Kosov	-2959
ustom	-2960
▁Although	-2961
▁growing	-2962
▁introduce	-2963
▁25	-2964
▁Trans	-2965
▁distrib	-2966
unt	-2967
▁Action	-2968
▁refuge	-2969
▁dimension	-2970
▁di	-2971
ously	-2972
vereign	-2973
▁argu	-2974
par	-2975
▁profit	-2976
isters	-2977
▁campaign	-2978
▁sovereign	-2979
ured	-2980
▁sk	-2981
▁intended	-2982
ude	-2983
▁exer	-2984
▁reading	-2985
▁conclude	-2986
▁seriously	-2987
▁includes	-2988
li	-2989
ught	-2990
▁repl	-2991
ussels	-2992
▁March	-2993
coming	-2994
▁Res	-2995
▁manner	-2996
▁rad	-2997
anish	-2998
▁Acc	-2999
▁bilateral	-3000
▁Pal	-3001
▁confirm	-3002
▁minorities	-3003
rest	-3004
▁gives	-3005
▁setting	-3006
care	-3007
▁fre	-3008
▁practical	-3009
▁debt	-3010
▁elements	-3011
fin	-3012
▁fuel	-3013
▁Brussels	-3014
cal	-3015
▁led	-3016
▁added	-3017
▁useful	-3018
▁building	-3019
▁Program	-3020
inary	-3021
▁exact	-3022
▁influence	-3023
▁burden	-3024
▁alternative	-3025
head	-3026
▁goes	-3027
▁consideration	-3028
spect	-3029
amber	-3030
▁perspective	-3031
▁cat	-3032
▁gender	-3033
▁perform	-3034
▁tour	-3035
▁poll	-3036
▁member	-3037
▁expression	-3038
ody	-3039
▁ce	-3040
▁alone	-3041
▁obligations	-3042
▁guidelines	-3043
▁Kosovo	-3044
▁connection	-3045
eneral	-3046
▁leading	-3047
▁convinced	-3048
xual	-3049
etimes	-3050
▁reduced	-3051
nam	-3052
▁party	-3053
▁laws	-3054
▁Trade	-3055
▁referendum	-3056
▁discharge	-3057
▁propose	-3058
▁families	-3059
▁lar	-3060
▁language	-3061
▁spir	-3062
uary	-3063
▁coll	-3064
▁occur	-3065
▁rightly	-3066
▁recognition	-3067
be	-3068
▁Rus	-3069
▁vehicles	-3070
▁tackle	-3071
▁date	-3072
▁differences	-3073
▁passengers	-3074
▁13	-3075
called	-3076
▁adequate	-3077
arks	-3078
▁Afgh	-3079
rop	-3080
▁documents	-3081
▁Fore	-3082
ureauc	-3083
▁den	-3084
▁annual	-3085
▁ill	-3086
▁gain	-3087
ulations	-3088
▁commercial	-3089
▁introduced	-3090
▁January	-3091
▁raise	-3092
▁stated	-3093
▁maritime	-3094
▁institutional	-3095
▁18	-3096
ored	-3097
▁finance	-3098
▁mere	-3099
▁comments	-3100
▁Serv	-3101
ober	-3102
▁African	-3103
▁dealing	-3104
▁Co	-3105
▁join	-3106
▁Charter	-3107
▁structural	-3108
▁views	-3109
▁fear	-3110
▁limited	-3111
▁defic	-3112
▁medic	-3113
▁suc	-3114
▁acts	-3115
▁Since	-3116
ai	-3117
▁After	-3118
▁heart	-3119
▁speaker	-3120
▁deg	-3121
ustr	-3122
▁regulatory	-3123
▁vulnerable	-3124
▁urge	-3125
rep	-3126
▁mutual	-3127
▁establishment	-3128
▁bad	-3129
▁managed	-3130
uff	-3131
where	-3132
abil	-3133
▁Prime	-3134
▁z	-3135
▁enl	-3136
▁Some	-3137
▁Afghan	-3138
ream	-3139
▁goal	-3140
▁known	-3141
▁succeed	-3142
▁Do	-3143
▁Inde	-3144
▁wants	-3145
works	-3146
▁acknow	-3147
▁bureauc	-3148
▁protecting	-3149
▁High	-3150
▁asking	-3151
▁binding	-3152
▁obviously	-3153
PE	-3154
▁UK	-3155
▁safe	-3156
▁unf	-3157
▁ship	-3158
aging	-3159
▁type	-3160
▁Georgia	-3161
▁related	-3162
▁Bulgaria	-3163
▁announ	-3164
▁becoming	-3165
▁Programme	-3166
▁damage	-3167
▁observ	-3168
▁Balk	-3169
▁goals	-3170
ury	-3171
set	-3172
▁enabl	-3173
icy	-3174
▁developments	-3175
▁linked	-3176
▁Palest	-3177
▁consensus	-3178
▁Indeed	-3179
▁Security	-3180
▁Amendment	-3181
▁animal	-3182
▁Croatia	-3183
▁investments	-3184
▁prevention	-3185
▁former	-3186
ports	-3187
▁guarantees	-3188
aries	-3189
▁whom	-3190
crib	-3191
▁police	-3192
ired	-3193
▁prob	-3194
▁record	-3195
▁persons	-3196
▁patients	-3197
▁North	-3198
▁situations	-3199
▁ut	-3200
▁parts	-3201
ovember	-3202
▁constant	-3203
▁happened	-3204
▁consolid	-3205
▁dangerous	-3206
riers	-3207
▁treaty	-3208
EL	-3209
▁entry	-3210
▁satisf	-3211
▁Energy	-3212
▁reference	-3213
used	-3214
▁expendit	-3215
▁contra	-3216
▁improvement	-3217
▁ult	-3218
▁histor	-3219
▁secure	-3220
▁November	-3221
▁perman	-3222
▁payments	-3223
▁Foreign	-3224
▁enforce	-3225
▁domestic	-3226
▁send	-3227
▁contact	-3228
lant	-3229
▁inclusion	-3230
DP	-3231
▁Never	-3232
▁occas	-3233
▁univers	-3234
ued	-3235
adow	-3236
▁Ash	-3237
▁emerg	-3238
▁truly	-3239
▁excess	-3240
▁stake	-3241
ient	-3242
enary	-3243
▁determ	-3244
▁Many	-3245
wide	-3246
▁outcome	-3247
..	-3248
terday	-3249
▁react	-3250
▁comply	-3251
▁involvement	-3252
▁lo	-3253
▁religious	-3254
▁cand	-3255
▁thousands	-3256
▁spirit	-3257
▁partner	-3258
reci	-3259
itable	-3260
▁custom	-3261
▁ahead	-3262
▁mobil	-3263
▁study	-3264
▁strict	-3265
▁Represent	-3266
▁closer	-3267
ruption	-3268
▁network	-3269
▁experien	-3270
nership	-3271
▁produced	-3272
joy	-3273
▁regular	-3274
▁expenditure	-3275
▁candid	-3276
▁demands	-3277
▁learn	-3278
▁concent	-3279
nic	-3280
▁adver	-3281
▁choice	-3282
▁susp	-3283
▁income	-3284
▁later	-3285
▁interp	-3286
▁supervision	-3287
▁immediate	-3288
▁Partnership	-3289
▁institution	-3290
▁Russian	-3291
▁analysis	-3292
▁promotion	-3293
erity	-3294
▁enjoy	-3295
▁ready	-3296
▁voice	-3297
▁chance	-3298
▁Western	-3299
▁sometimes	-3300
uditors	-3301
▁trafficking	-3302
▁failure	-3303
▁opening	-3304
▁organisation	-3305
▁Lat	-3306
▁failed	-3307
▁company	-3308
ya	-3309
itude	-3310
▁welcom	-3311
▁Nevertheless	-3312
ger	-3313
akistan	-3314
▁appeal	-3315
ler	-3316
▁Policy	-3317
▁Chamber	-3318
▁thinking	-3319
▁territory	-3320
▁ign	-3321
▁consumption	-3322
▁critical	-3323
urs	-3324
▁path	-3325
▁ones	-3326
▁assum	-3327
▁acqu	-3328
▁Pakistan	-3329
▁plenary	-3330
▁won	-3331
▁near	-3332
▁Hungary	-3333
trary	-3334
▁lost	-3335
ctober	-3336
▁delay	-3337
ological	-3338
▁immediately	-3339
iddle	-3340
▁firstly	-3341
▁By	-3342
ront	-3343
▁tem	-3344
▁putting	-3345
▁constructive	-3346
▁intervention	-3347
rs	-3348
▁speed	-3349
▁organised	-3350
▁saving	-3351
▁October	-3352
▁milk	-3353
▁separ	-3354
▁British	-3355
▁Eastern	-3356
▁considerable	-3357
▁appreci	-3358
▁Third	-3359
▁freedoms	-3360
▁Spain	-3361
ours	-3362
▁shadow	-3363
▁liberalisation	-3364
▁Bl	-3365
▁easy	-3366
▁PPE	-3367
▁enorm	-3368
▁Fra	-3369
▁earl	-3370
▁fraud	-3371
▁dead	-3372
▁While	-3373
▁facilitate	-3374
▁benefic	-3375
pay	-3376
lantic	-3377
▁Ob	-3378
▁exactly	-3379
...	-3380
▁tool	-3381
illed	-3382
▁speaking	-3383
▁30	-3384
▁warm	-3385
▁Spanish	-3386
▁coheren	-3387
▁operation	-3388
ployed	-3389
▁incor	-3390
▁probably	-3391
of	-3392
plom	-3393
uses	-3394
▁addressed	-3395
▁recognised	-3396
inese	-3397
▁Organ	-3398
AP	-3399
▁body	-3400
▁staff	-3401
▁sensitive	-3402
▁communities	-3403
dom	-3404
▁port	-3405
ulated	-3406
▁submitted	-3407
▁flexibility	-3408
▁Why	-3409
▁resolve	-3410
▁session	-3411
▁anything	-3412
ritten	-3413
urance	-3414
▁Chinese	-3415
▁globalisation	-3416
▁wide	-3417
▁Serbia	-3418
oses	-3419
▁happy	-3420
▁instance	-3421
▁carbon	-3422
▁informed	-3423
ken	-3424
▁diplom	-3425
▁brief	-3426
▁contains	-3427
▁ec	-3428
▁publ	-3429
▁mainly	-3430
mbud	-3431
▁max	-3432
▁proportion	-3433
▁hy	-3434
▁Accord	-3435
▁election	-3436
▁conference	-3437
ah	-3438
▁faced	-3439
▁minority	-3440
▁Representative	-3441
inian	-3442
▁enlarge	-3443
▁trading	-3444
going	-3445
▁methods	-3446
▁continues	-3447
ira	-3448
▁21	-3449
▁plac	-3450
▁ideas	-3451
▁Portugal	-3452
▁sw	-3453
based	-3454
▁worked	-3455
▁suffering	-3456
▁causes	-3457
▁thought	-3458
▁16	-3459
bate	-3460
▁disasters	-3461
▁functioning	-3462
▁shared	-3463
▁signed	-3464
HU	-3465
▁unc	-3466
icated	-3467
▁rates	-3468
▁contrary	-3469
▁spec	-3470
▁Auditors	-3471
▁obst	-3472
▁17	-3473
▁Sy	-3474
▁Gl	-3475
▁signal	-3476
▁advantage	-3477
▁healthcare	-3478
▁crimes	-3479
▁understanding	-3480
ivity	-3481
▁via	-3482
▁arm	-3483
▁Slovak	-3484
▁debates	-3485
▁sound	-3486
▁taxpay	-3487
▁willing	-3488
ev	-3489
▁supports	-3490
▁forest	-3491
▁authority	-3492
▁positions	-3493
▁Ashton	-3494
▁Belg	-3495
apan	-3496
onia	-3497
▁jour	-3498
▁helping	-3499
▁mist	-3500
▁referred	-3501
▁happening	-3502
▁evaluation	-3503
urm	-3504
pro	-3505
bourg	-3506
icians	-3507
▁Ital	-3508
▁obstac	-3509
▁1.	-3510
vest	-3511
▁Sum	-3512
elling	-3513
▁table	-3514
▁div	-3515
ills	-3516
▁forced	-3517
▁Written	-3518
▁element	-3519
▁continuing	-3520
els	-3521
▁starting	-3522
▁India	-3523
▁immigrants	-3524
▁remov	-3525
▁millions	-3526
bal	-3527
▁2009.	-3528
▁According	-3529
mbudsman	-3530
▁ability	-3531
▁NA	-3532
▁bringing	-3533
▁complain	-3534
-201	-3535
▁log	-3536
▁Alliance	-3537
▁Framework	-3538
▁delegation	-3539
▁professional	-3540
▁elimin	-3541
▁says	-3542
▁permanent	-3543
▁thereby	-3544
▁100	-3545
urally	-3546
▁Summit	-3547
▁effectiveness	-3548
▁easier	-3549
▁refugees	-3550
▁interpret	-3551
stitutional	-3552
▁coordinated	-3553
dra	-3554
▁figures	-3555
▁numerous	-3556
▁Budget	-3557
▁incent	-3558
▁earlier	-3559
verage	-3560
▁consistent	-3561
▁enormous	-3562
gypt	-3563
▁compens	-3564
Ch	-3565
▁serve	-3566
▁networks	-3567
▁inh	-3568
reness	-3569
▁Sol	-3570
debate	-3571
acter	-3572
▁bear	-3573
sk	-3574
▁II	-3575
ruit	-3576
▁Lib	-3577
▁myself	-3578
ugg	-3579
▁condemn	-3580
▁greatest	-3581
▁Pl	-3582
undred	-3583
▁Global	-3584
▁applies	-3585
▁stronger	-3586
▁accepted	-3587
▁honourable	-3588
ift	-3589
▁Egypt	-3590
CS	-3591
▁rating	-3592
▁competence	-3593
mission	-3594
▁unable	-3595
ats	-3596
icial	-3597
▁talks	-3598
▁bank	-3599
▁norm	-3600
▁advoc	-3601
▁exercise	-3602
raz	-3603
▁af	-3604
▁summ	-3605
▁elected	-3606
uting	-3607
▁tele	-3608
▁definite	-3609
▁came	-3610
▁scheme	-3611
▁America	-3612
▁Japan	-3613
au	-3614
SV	-3615
▁abol	-3616
▁administration	-3617
ancing	-3618
▁sexual	-3619
▁fo	-3620
▁Mal	-3621
▁Swedish	-3622
▁tourism	-3623
▁pun	-3624
▁Even	-3625
▁lower	-3626
▁adopting	-3627
▁territorial	-3628
▁harmonisation	-3629
▁deliver	-3630
▁character	-3631
▁sustainability	-3632
▁fulfil	-3633
▁manufacture	-3634
erc	-3635
▁simple	-3636
▁Italian	-3637
▁awareness	-3638
▁Afghanistan	-3639
iet	-3640
ptember	-3641
▁comment	-3642
▁consultation	-3643
raq	-3644
ival	-3645
▁oral	-3646
▁accounts	-3647
▁enlargement	-3648
icro	-3649
▁Green	-3650
▁merely	-3651
ighted	-3652
▁Ombudsman	-3653
amp	-3654
making	-3655
▁improvements	-3656
▁entirely	-3657
▁statistics	-3658
orn	-3659
rel	-3660
▁cy	-3661
▁wat	-3662
porary	-3663
▁Des	-3664
▁Iraq	-3665
▁attacks	-3666
▁September	-3667
oph	-3668
▁factor	-3669
▁propert	-3670
Rule	-3671
▁stim	-3672
▁option	-3673
▁sides	-3674
▁structure	-3675
▁yesterday	-3676
▁tim	-3677
▁proc	-3678
range	-3679
▁interv	-3680
▁hom	-3681
ature	-3682
▁abstain	-3683
▁compliance	-3684
▁spent	-3685
▁Turk	-3686
▁electric	-3687
▁directives	-3688
▁ethnic	-3689
▁don	-3690
▁source	-3691
ets	-3692
ilst	-3693
ronic	-3694
▁getting	-3695
▁significantly	-3696
fare	-3697
▁2009,	-3698
▁Rules	-3699
▁construction	-3700
ik	-3701
▁sort	-3702
▁insist	-3703
▁subsidi	-3704
▁Fundamental	-3705
nes	-3706
▁innovative	-3707
▁overcome	-3708
oration	-3709
▁expected	-3710
▁obligation	-3711
▁controls	-3712
▁20%	-3713
▁dict	-3714
lam	-3715
▁exec	-3716
5%	-3717
▁2005	-3718
▁Health	-3719
▁school	-3720
▁mission	-3721
▁membership	-3722
fe	-3723
▁WTO	-3724
▁animals	-3725
▁surve	-3726
▁feed	-3727
▁hundred	-3728
▁revision	-3729
▁politicians	-3730
ateg	-3731
▁sett	-3732
eb	-3733
the	-3734
▁Saf	-3735
▁withdra	-3736
▁conflicts	-3737
▁emb	-3738
▁equip	-3739
▁Protection	-3740
▁granted	-3741
▁planning	-3742
▁encouraging	-3743
▁occup	-3744
SE	-3745
ancial	-3746
▁class	-3747
▁parliaments	-3748
▁recommendation	-3749
lands	-3750
▁flow	-3751
▁resolutions	-3752
▁reserv	-3753
▁diversity	-3754
▁collective	-3755
▁operations	-3756
ades	-3757
ourage	-3758
entially	-3759
▁violations	-3760
▁ey	-3761
▁forth	-3762
▁engage	-3763
▁protected	-3764
▁interesting	-3765
▁fis	-3766
▁barriers	-3767
▁imports	-3768
▁evidence	-3769
▁prospect	-3770
▁rejected	-3771
rate	-3772
▁credibility	-3773
aw	-3774
▁prosp	-3775
▁fighting	-3776
▁decis	-3777
▁pointed	-3778
▁restrictions	-3779
ked	-3780
▁Baltic	-3781
▁corruption	-3782
▁negotiating	-3783
ze	-3784
oples	-3785
▁Cl	-3786
▁allowing	-3787
▁Sloven	-3788
razil	-3789
▁2013	-3790
▁Balkans	-3791
▁sea	-3792
▁drawn	-3793
ensible	-3794
▁payment	-3795
▁autom	-3796
▁compar	-3797
▁CAP	-3798
▁heav	-3799
▁Environ	-3800
att	-3801
▁extend	-3802
ize	-3803
anim	-3804
▁fast	-3805
▁votes	-3806
▁maximum	-3807
▁explan	-3808
▁started	-3809
mined	-3810
▁changed	-3811
▁materials	-3812
▁arr	-3813
0.	-3814
▁Pact	-3815
▁emergency	-3816
sh	-3817
respon	-3818
▁intend	-3819
▁substances	-3820
▁NATO	-3821
▁disease	-3822
ifications	-3823
▁King	-3824
oldov	-3825
ompan	-3826
▁fiscal	-3827
▁repeat	-3828
▁factors	-3829
▁associated	-3830
arations	-3831
▁largest	-3832
▁emphasis	-3833
▁followed	-3834
▁acceptable	-3835
ather	-3836
▁claim	-3837
▁peoples	-3838
▁strategies	-3839
gn	-3840
▁infring	-3841
▁welfare	-3842
▁involving	-3843
▁ought	-3844
pping	-3845
▁union	-3846
▁Polish	-3847
▁aviation	-3848
▁substantial	-3849
▁Liber	-3850
▁volunt	-3851
sc	-3852
oor	-3853
cast	-3854
fect	-3855
▁Tun	-3856
▁range	-3857
▁Gu	-3858
▁dign	-3859
▁Ab	-3860
ocol	-3861
▁ord	-3862
ulating	-3863
▁describ	-3864
▁urgently	-3865
pes	-3866
▁Monetary	-3867
▁2012	-3868
▁solve	-3869
▁Proced	-3870
▁appoint	-3871
ocks	-3872
outher	-3873
▁Safety	-3874
▁Given	-3875
▁penalty	-3876
▁allows	-3877
▁incorpor	-3878
ithu	-3879
▁operators	-3880
▁sal	-3881
ressive	-3882
▁wonder	-3883
▁spending	-3884
▁Organisation	-3885
▁Gaz	-3886
▁lies	-3887
outhern	-3888
ots	-3889
▁cal	-3890
ittees	-3891
▁Lithu	-3892
▁Moldov	-3893
▁continent	-3894
▁ultimately	-3895
hern	-3896
▁cars	-3897
▁Thirdly	-3898
▁arrange	-3899
▁exploitation	-3900
▁seeking	-3901
▁requirement	-3902
ins	-3903
▁suppl	-3904
▁office	-3905
▁unanim	-3906
▁pi	-3907
▁gradu	-3908
▁enforcement	-3909
vered	-3910
▁Such	-3911
▁prior	-3912
▁property	-3913
▁intention	-3914
rol	-3915
▁opposed	-3916
▁Portugues	-3917
▁employees	-3918
▁ton	-3919
▁citizen	-3920
▁arrest	-3921
gra	-3922
▁lay	-3923
▁Every	-3924
▁vision	-3925
▁individuals	-3926
justment	-3927
▁	-3928
e	-3929
t	-3930
o	-3931
i	-3932
a	-3933
n	-3934
s	-3935
r	-3936
h	-3937
l	-3938
d	-3939
c	-3940
u	-3941
m	-3942
p	-3943
f	-3944
g	-3945
w	-3946
y	-3947
b	-3948
v	-3949
,	-3950
.	-3951
k	-3952
I	-3953
E	-3954
T	-3955
C	-3956
M	-3957
P	-3958
-	-3959
S	-3960
x	-3961
U	-3962
A	-3963
0	-3964
'	-3965
j	-3966
W	-3967
q	-3968
2	-3969
F	-3970
R	-3971
(	-3972
)	-3973
1	-3974
G	-3975
B	-3976
H	-3977
L	-3978
D	-3979
z	-3980
O	-3981
N	-3982
:	-3983
9	-3984
?	-3985
5	-3986
3	-3987
;	-3988
7	-3989
8	-3990
4	-3991
J	-3992
K	-3993
%	-3994
V	-3995
6	-3996
