<pad>	0
</s>	0
<unk>	0
▁t	-0
▁a	-1
in	-2
he	-3
re	-4
▁c	-5
on	-6
▁s	-7
▁o	-8
▁the	-9
at	-10
er	-11
ou	-12
es	-13
▁w	-14
ed	-15
nd	-16
or	-17
▁p	-18
en	-19
▁f	-20
it	-21
al	-22
▁d	-23
is	-24
ing	-25
▁in	-26
▁to	-27
▁m	-28
▁b	-29
▁of	-30
an	-31
as	-32
▁and	-33
▁h	-34
ar	-35
ic	-36
ion	-37
om	-38
▁re	-39
ov	-40
▁y	-41
▁n	-42
id	-43
le	-44
▁you	-45
ct	-46
ent	-47
ve	-48
il	-49
us	-50
ir	-51
▁e	-52
▁th	-53
os	-54
▁be	-55
ot	-56
ac	-57
ly	-58
▁T	-59
ol	-60
▁g	-61
▁v	-62
▁ha	-63
▁for	-64
▁l	-65
▁de	-66
ay	-67
ation	-68
▁cov	-69
19	-70
▁on	-71
ur	-72
op	-73
▁or	-74
im	-75
▁con	-76
▁is	-77
ith	-78
tr	-79
▁your	-80
▁2	-81
ow	-82
▁with	-83
ect	-84
if	-85
ut	-86
▁we	-87
-19	-88
ch	-89
▁as	-90
▁covid	-91
▁The	-92
her	-93
ce	-94
▁st	-95
▁pr	-96
est	-97
ig	-98
th	-99
ill	-100
▁an	-101
▁are	-102
ers	-103
▁u	-104
▁cas	-105
ort	-106
▁I	-107
▁that	-108
▁r	-109
et	-110
▁1	-111
irus	-112
▁fr	-113
▁have	-114
▁wh	-115
se	-116
ment	-117
▁ch	-118
▁not	-119
ive	-120
▁cases	-121
▁tr	-122
mp	-123
▁al	-124
ies	-125
▁he	-126
ul	-127
ad	-128
▁A	-129
▁res	-130
▁from	-131
ther	-132
ta	-133
fect	-134
ld	-135
port	-136
▁(	-137
st	-138
um	-139
▁se	-140
ver	-141
▁sh	-142
▁were	-143
ome	-144
ess	-145
ate	-146
ter	-147
cov	-148
▁cou	-149
▁dis	-150
▁it	-151
ab	-152
od	-153
ath	-154
▁at	-155
ak	-156
am	-157
res	-158
pp	-159
ial	-160
▁ne	-161
ore	-162
and	-163
em	-164
ary	-165
oc	-166
▁su	-167
ople	-168
ity	-169
ine	-170
iv	-171
▁can	-172
▁20	-173
▁sy	-174
el	-175
▁test	-176
are	-177
ud	-178
eople	-179
▁cl	-180
alth	-181
▁ex	-182
▁will	-183
▁by	-184
ions	-185
▁virus	-186
▁wor	-187
▁was	-188
▁health	-189
▁people	-190
▁S	-191
un	-192
▁us	-193
▁death	-194
▁un	-195
qu	-196
▁sp	-197
▁com	-198
▁other	-199
ans	-200
ated	-201
▁C	-202
ical	-203
▁report	-204
ge	-205
ars	-206
ose	-207
mpt	-208
▁ad	-209
ain	-210
igh	-211
▁inc	-212
acc	-213
av	-214
vel	-215
eas	-216
▁out	-217
▁pre	-218
▁if	-219
ant	-220
ber	-221
▁infect	-222
og	-223
▁conta	-224
ub	-225
mptom	-226
▁has	-227
▁le	-228
▁coun	-229
▁who	-230
▁vacc	-231
ib	-232
▁j	-233
▁app	-234
▁k	-235
▁im	-236
ents	-237
ould	-238
▁been	-239
▁deaths	-240
▁fe	-241
ild	-242
oron	-243
▁reported	-244
▁O	-245
▁do	-246
▁may	-247
ied	-248
ost	-249
▁If	-250
▁symptom	-251
ous	-252
▁ab	-253
end	-254
ace	-255
▁W	-256
ia	-257
out	-258
art	-259
▁af	-260
hen	-261
oronav	-262
act	-263
our	-264
▁symptoms	-265
oronavirus	-266
ap	-267
one	-268
med	-269
ire	-270
▁4	-271
ide	-272
▁Y	-273
gh	-274
▁3	-275
▁countr	-276
ice	-277
arch	-278
ines	-279
all	-280
▁contact	-281
▁202	-282
lud	-283
ec	-284
ren	-285
ult	-286
▁sars	-287
ory	-288
ist	-289
ubl	-290
ified	-291
able	-292
▁Th	-293
▁diseas	-294
als	-295
▁D	-296
▁num	-297
rou	-298
low	-299
ure	-300
uary	-301
▁more	-302
ack	-303
▁coronavirus	-304
▁P	-305
read	-306
▁prot	-307
▁child	-308
own	-309
▁includ	-310
▁should	-311
ious	-312
▁pos	-313
▁2020	-314
▁this	-315
▁their	-316
▁br	-317
emic	-318
▁day	-319
ast	-320
▁pl	-321
▁resp	-322
▁march	-323
ight	-324
▁You	-325
▁hand	-326
▁work	-327
▁ac	-328
iz	-329
ue	-330
▁prev	-331
▁ser	-332
▁some	-333
so	-334
▁number	-335
▁M	-336
ool	-337
▁also	-338
▁disease	-339
▁5	-340
ern	-341
▁In	-342
ance	-343
ip	-344
reak	-345
ati	-346
▁sa	-347
▁rec	-348
atory	-349
▁H	-350
▁trans	-351
aus	-352
ations	-353
▁B	-354
ict	-355
ong	-356
▁On	-357
00	-358
▁vaccine	-359
ures	-360
▁F	-361
▁It	-362
chool	-363
▁had	-364
▁they	-365
iss	-366
break	-367
ard	-368
-2	-369
urther	-370
▁than	-371
▁outbreak	-372
ates	-373
▁tim	-374
ich	-375
▁med	-376
▁about	-377
▁countries	-378
▁te	-379
ep	-380
▁conf	-381
▁further	-382
▁spread	-383
ail	-384
▁comm	-385
isk	-386
orm	-387
▁ind	-388
erson	-389
pr	-390
reat	-391
▁all	-392
▁ev	-393
trict	-394
▁This	-395
▁need	-396
▁publ	-397
ll	-398
▁"	-399
red	-400
▁dr	-401
▁pati	-402
enc	-403
lo	-404
uc	-405
ake	-406
▁ph	-407
▁tot	-408
▁when	-409
▁which	-410
▁school	-411
▁person	-412
▁av	-413
▁ef	-414
ign	-415
▁ag	-416
▁one	-417
▁R	-418
▁face	-419
andemic	-420
▁confir	-421
▁cr	-422
ens	-423
▁new	-424
ness	-425
▁over	-426
▁pandemic	-427
ata	-428
▁after	-429
ke	-430
▁und	-431
▁cent	-432
fe	-433
mer	-434
irst	-435
vice	-436
▁int	-437
▁per	-438
▁risk	-439
ities	-440
fic	-441
ina	-442
olog	-443
▁patients	-444
pt	-445
▁inf	-446
ag	-447
br	-448
▁exp	-449
▁restrict	-450
ks	-451
avel	-452
▁gov	-453
▁home	-454
ence	-455
▁public	-456
▁me	-457
▁get	-458
▁them	-459
▁time	-460
▁such	-461
▁first	-462
ational	-463
▁confirmed	-464
not	-465
▁inter	-466
pit	-467
▁stud	-468
con	-469
ors	-470
▁any	-471
▁hum	-472
▁govern	-473
ile	-474
▁mas	-475
▁travel	-476
▁man	-477
▁care	-478
▁infection	-479
ased	-480
▁col	-481
▁data	-482
▁china	-483
ord	-484
▁sur	-485
▁use	-486
ating	-487
ments	-488
ollow	-489
▁comp	-490
ase	-491
▁hands	-492
ie	-493
▁rel	-494
ove	-495
▁qu	-496
ally	-497
▁clos	-498
ission	-499
▁up	-500
land	-501
▁tw	-502
▁bring	-503
age	-504
ited	-505
ress	-506
▁under	-507
▁including	-508
ne	-509
we	-510
▁but	-511
ospit	-512
▁transm	-513
▁caus	-514
oun	-515
▁hospit	-516
ert	-517
▁gen	-518
▁protect	-519
ell	-520
ike	-521
▁ill	-522
bruary	-523
dit	-524
▁prov	-525
▁2020,	-526
▁result	-527
ang	-528
▁high	-529
▁others	-530
ame	-531
▁sc	-532
ific	-533
▁6	-534
ach	-535
sib	-536
▁due	-537
▁rece	-538
▁february	-539
▁no	-540
velop	-541
▁case	-542
▁days	-543
▁contr	-544
arly	-545
▁stay	-546
▁bringing	-547
ood	-548
way	-549
▁hel	-550
ident	-551
▁these	-552
▁world	-553
▁ar	-554
itive	-555
lu	-556
▁rem	-557
▁previous	-558
▁E	-559
▁close	-560
▁en	-561
ever	-562
▁help	-563
▁-	-564
outh	-565
▁two	-566
▁part	-567
▁effect	-568
▁bet	-569
▁government	-570
▁cover	-571
▁follow	-572
▁/	-573
omm	-574
uring	-575
anuary	-576
illion	-577
▁loc	-578
▁possib	-579
ass	-580
▁those	-581
ob	-582
▁how	-583
▁avail	-584
iratory	-585
▁totals	-586
▁january	-587
ices	-588
▁positive	-589
ust	-590
-19.	-591
fore	-592
▁mon	-593
▁call	-594
▁L	-595
anc	-596
ian	-597
▁ant	-598
▁reg	-599
gn	-600
ind	-601
une	-602
▁treat	-603
▁hospital	-604
uct	-605
▁gp	-606
▁dec	-607
▁most	-608
▁previously	-609
lf	-610
▁N	-611
ick	-612
iate	-613
▁bec	-614
ocial	-615
▁there	-616
▁develop	-617
▁available	-618
cc	-619
te	-620
▁ass	-621
▁imp	-622
▁sign	-623
▁7	-624
▁kn	-625
ative	-626
rent	-627
very	-628
▁dif	-629
▁respon	-630
▁wee	-631
▁tested	-632
▁medical	-633
▁infected	-634
▁respiratory	-635
hed	-636
ater	-637
here	-638
▁notified	-639
).	-640
▁9	-641
▁so	-642
lect	-643
▁bre	-644
▁hcov	-645
aly	-646
▁syst	-647
isit	-648
▁am	-649
▁acc	-650
▁ann	-651
ced	-652
han	-653
▁10	-654
ween	-655
ected	-656
int	-657
▁its	-658
ended	-659
▁host	-660
▁track	-661
▁would	-662
▁during	-663
notified	-664
▁between	-665
▁illness	-666
▁transmission	-667
▁8	-668
▁go	-669
merg	-670
▁str	-671
▁possible	-672
000	-673
▁op	-674
▁att	-675
▁meas	-676
▁advice	-677
▁system	-678
ough	-679
pril	-680
unity	-681
▁cons	-682
▁spec	-683
ok	-684
▁–	-685
ings	-686
▁april	-687
),	-688
ise	-689
les	-690
ency	-691
▁che	-692
ential	-693
▁incre	-694
ear	-695
▁bat	-696
rough	-697
▁wear	-698
▁again	-699
▁united	-700
▁children	-701
,000	-702
▁recomm	-703
cr	-704
su	-705
▁emerg	-706
▁states	-707
▁million	-708
ctor	-709
vere	-710
▁act	-711
▁vir	-712
ility	-713
ology	-714
▁announ	-715
day	-716
ree	-717
▁only	-718
▁could	-719
ro	-720
ts	-721
gan	-722
▁14	-723
▁As	-724
care	-725
▁requ	-726
▁restrictions	-727
mediate	-728
▁severe	-729
inis	-730
▁est	-731
arant	-732
▁country	-733
▁G	-734
eep	-735
▁social	-736
oid	-737
▁Do	-738
▁ire	-739
▁pres	-740
▁visit	-741
▁ireland	-742
▁prevent	-743
▁into	-744
▁long	-745
▁announced	-746
▁4,	-747
▁How	-748
oth	-749
oint	-750
ting	-751
▁cle	-752
▁grou	-753
▁affect	-754
▁control	-755
▁through	-756
ins	-757
ound	-758
▁well	-759
▁level	-760
▁while	-761
▁measures	-762
▁ent	-763
▁many	-764
▁being	-765
▁inform	-766
ared	-767
ised	-768
▁like	-769
▁move	-770
▁human	-771
▁response	-772
▁sus	-773
▁clin	-774
▁quarant	-775
ope	-776
ual	-777
▁ed	-778
ning	-779
▁red	-780
▁condit	-781
▁testing	-782
▁vaccines	-783
▁away	-784
ry	-785
aces	-786
▁sup	-787
▁serv	-788
▁before	-789
▁19	-790
▁sm	-791
cond	-792
▁They	-793
▁food	-794
▁issu	-795
pl	-796
ug	-797
pec	-798
tain	-799
▁low	-800
▁var	-801
ening	-802
▁dist	-803
▁There	-804
▁every	-805
▁treatment	-806
af	-807
▁dep	-808
▁cough	-809
▁group	-810
▁someone	-811
▁information	-812
ily	-813
ered	-814
mple	-815
round	-816
▁same	-817
▁U	-818
ead	-819
tin	-820
uhan	-821
▁mask	-822
▁where	-823
az	-824
na	-825
ark	-826
ery	-827
ink	-828
ute	-829
▁imm	-830
▁pol	-831
ially	-832
▁take	-833
▁used	-834
▁offic	-835
▁community	-836
▁import	-837
▁national	-838
▁lim	-839
▁wash	-840
ination	-841
▁against	-842
▁schools	-843
pid	-844
▁cur	-845
▁det	-846
▁dire	-847
▁emergency	-848
▁eur	-849
inese	-850
▁ident	-851
▁wuhan	-852
▁second	-853
▁V	-854
arm	-855
▁24	-856
ouse	-857
▁lar	-858
▁educ	-859
▁show	-860
▁services	-861
amm	-862
ety	-863
▁11	-864
▁ma	-865
▁early	-866
▁prote	-867
▁intern	-868
▁include	-869
▁An	-870
▁di	-871
▁gu	-872
▁When	-873
▁make	-874
▁susp	-875
▁students	-876
ody	-877
old	-878
the	-879
▁fam	-880
▁flu	-881
▁ord	-882
ours	-883
▁inv	-884
▁conc	-885
▁fever	-886
▁europe	-887
▁humans	-888
▁conditions	-889
wide	-890
▁hig	-891
▁non	-892
other	-893
▁epid	-894
▁nose	-895
▁italy	-896
▁surve	-897
▁total	-898
ulation	-899
▁provid	-900
▁require	-901
▁support	-902
ted	-903
▁12	-904
▁15	-905
▁St	-906
ange	-907
ince	-908
▁adv	-909
▁sub	-910
▁june	-911
▁prop	-912
▁clean	-913
▁found	-914
▁without	-915
▁infections	-916
of	-917
ish	-918
par	-919
▁We	-920
▁gr	-921
▁arr	-922
ality	-923
▁mers	-924
▁areas	-925
▁gener	-926
illance	-927
▁issued	-928
yp	-929
-19,	-930
ivid	-931
▁ext	-932
▁least	-933
acy	-934
ade	-935
lob	-936
ogr	-937
uch	-938
ears	-939
▁met	-940
▁house	-941
▁known	-942
▁state	-943
▁trial	-944
▁contin	-945
▁important	-946
ez	-947
ten	-948
uce	-949
ause	-950
osed	-951
▁age	-952
▁del	-953
▁hse	-954
▁occ	-955
▁pop	-956
▁crit	-957
▁keep	-958
▁what	-959
▁These	-960
▁diffe	-961
▁short	-962
▁service	-963
▁clinical	-964
▁surveillance	-965
alk	-966
any	-967
erv	-968
▁des	-969
▁don	-970
▁down	-971
▁self	-972
▁temp	-973
▁chest	-974
▁pract	-975
▁movements	-976
oss	-977
til	-978
▁ob	-979
down	-980
line	-981
omes	-982
▁off	-983
aking	-984
lying	-985
▁2019	-986
▁week	-987
ording	-988
▁estim	-989
▁south	-990
▁using	-991
▁healthcare	-992
arr	-993
▁23	-994
ling	-995
▁aut	-996
iving	-997
▁inst	-998
▁isol	-999
▁pain	-1000
▁supp	-1001
▁medic	-1002
▁organ	-1003
▁around	-1004
▁breath	-1005
▁chinese	-1006
▁contain	-1007
▁z	-1008
▁Wh	-1009
less	-1010
ural	-1011
▁able	-1012
▁anim	-1013
▁much	-1014
inated	-1015
▁avoid	-1016
▁phone	-1017
▁sever	-1018
▁until	-1019
▁years	-1020
▁appoint	-1021
▁workers	-1022
essential	-1023
▁immediate	-1024
erm	-1025
opp	-1026
ized	-1027
▁Cov	-1028
ually	-1029
ublin	-1030
▁open	-1031
▁affected	-1032
ty	-1033
oci	-1034
neez	-1035
kdown	-1036
▁bats	-1037
▁drug	-1038
ically	-1039
▁masks	-1040
▁pregn	-1041
▁start	-1042
▁remain	-1043
▁closures	-1044
▁education	-1045
▁i	-1046
▁’	-1047
ave	-1048
ics	-1049
ork	-1050
▁cy	-1051
gest	-1052
▁Your	-1053
▁cell	-1054
▁main	-1055
▁allow	-1056
▁cance	-1057
▁attend	-1058
▁common	-1059
▁collect	-1060
▁viruses	-1061
▁following	-1062
els	-1063
ful	-1064
ned	-1065
▁13	-1066
ived	-1067
ving	-1068
▁glob	-1069
dition	-1070
▁centre	-1071
▁closed	-1072
▁population	-1073
▁ro	-1074
erly	-1075
iagn	-1076
tail	-1077
▁Con	-1078
▁ask	-1079
▁lab	-1080
▁nov	-1081
ently	-1082
▁lear	-1083
▁However	-1084
▁individ	-1085
1,	-1086
ash	-1087
cem	-1088
ogen	-1089
▁For	-1090
▁air	-1091
▁mod	-1092
▁sim	-1093
▁sit	-1094
▁feel	-1095
▁orig	-1096
▁pass	-1097
▁prod	-1098
cember	-1099
idence	-1100
▁doctor	-1101
▁effective	-1102
oh	-1103
led	-1104
▁18	-1105
▁22	-1106
▁Pr	-1107
▁ir	-1108
ages	-1109
atic	-1110
ined	-1111
side	-1112
▁200	-1113
ember	-1114
ition	-1115
ivers	-1116
▁Read	-1117
▁decl	-1118
▁hours	-1119
▁mouth	-1120
▁study	-1121
inister	-1122
▁dublin	-1123
▁receive	-1124
▁results	-1125
▁international	-1126
hor	-1127
bers	-1128
fort	-1129
self	-1130
▁add	-1131
▁fac	-1132
▁our	-1133
ution	-1134
▁plan	-1135
▁safe	-1136
▁vari	-1137
▁share	-1138
▁december	-1139
erc	-1140
jor	-1141
▁mid	-1142
iting	-1143
gative	-1144
▁among	-1145
▁cause	-1146
▁large	-1147
▁occur	-1148
▁place	-1149
▁recov	-1150
▁sneez	-1151
▁weeks	-1152
▁caused	-1153
▁because	-1154
▁tracking	-1155
▁underlying	-1156
▁recommended	-1157
oor	-1158
▁es	-1159
lood	-1160
▁way	-1161
▁even	-1162
▁last	-1163
infect	-1164
▁alert	-1165
▁major	-1166
▁often	-1167
▁viral	-1168
▁author	-1169
▁partic	-1170
▁current	-1171
▁appointment	-1172
▁30	-1173
▁sw	-1174
oved	-1175
ular	-1176
▁end	-1177
▁exa	-1178
▁min	-1179
▁both	-1180
▁know	-1181
pecially	-1182
▁example	-1183
▁epidemic	-1184
▁quarantine	-1185
ys	-1186
fer	-1187
ica	-1188
▁16	-1189
isol	-1190
iven	-1191
▁adm	-1192
▁body	-1193
▁2020.	-1194
▁activ	-1195
▁blood	-1196
▁separ	-1197
▁direct	-1198
▁another	-1199
ces	-1200
ants	-1201
omic	-1202
uced	-1203
▁tou	-1204
ather	-1205
▁Some	-1206
▁fact	-1207
▁find	-1208
▁must	-1209
▁proc	-1210
▁samp	-1211
▁great	-1212
▁might	-1213
▁meters	-1214
▁within	-1215
▁cancell	-1216
▁negative	-1217
▁transport	-1218
.3	-1219
ix	-1220
ief	-1221
▁By	-1222
▁Ch	-1223
term	-1224
ature	-1225
▁appr	-1226
▁cold	-1227
▁less	-1228
▁live	-1229
▁made	-1230
▁norm	-1231
▁prim	-1232
ficult	-1233
▁antib	-1234
▁tests	-1235
▁three	-1236
▁depart	-1237
▁higher	-1238
▁immune	-1239
▁different	-1240
▁especially	-1241
ene	-1242
hes	-1243
its	-1244
ook	-1245
ung	-1246
ven	-1247
▁2,	-1248
▁He	-1249
ason	-1250
cept	-1251
▁cod	-1252
▁econ	-1253
▁surf	-1254
▁diagn	-1255
▁month	-1256
▁events	-1257
▁family	-1258
▁organiz	-1259
▁protein	-1260
▁univers	-1261
ns	-1262
eng	-1263
str	-1264
arda	-1265
ilar	-1266
itis	-1267
neum	-1268
▁saf	-1269
▁typ	-1270
ished	-1271
▁form	-1272
▁path	-1273
▁very	-1274
▁Covid	-1275
▁acute	-1276
▁labor	-1277
▁cannot	-1278
▁impact	-1279
▁addition	-1280
▁diseases	-1281
▁lockdown	-1282
▁difficult	-1283
▁recommend	-1284
ird	-1285
tur	-1286
xim	-1287
▁26	-1288
▁does	-1289
▁four	-1290
▁rese	-1291
▁then	-1292
▁associ	-1293
ological	-1294
ck	-1295
hy	-1296
yg	-1297
aff	-1298
ior	-1299
loy	-1300
onia	-1301
osis	-1302
▁But	-1303
▁influ	-1304
▁local	-1305
▁since	-1306
▁safety	-1307
▁european	-1308
▁yourself	-1309
0%	-1310
ets	-1311
und	-1312
▁25	-1313
▁el	-1314
form	-1315
itor	-1316
uals	-1317
▁equ	-1318
▁rna	-1319
▁kore	-1320
▁pneum	-1321
▁staff	-1322
▁still	-1323
▁touch	-1324
▁water	-1325
▁infectious	-1326
dc	-1327
wn	-1328
xt	-1329
att	-1330
iod	-1331
oon	-1332
▁1,	-1333
apid	-1334
itiz	-1335
▁eas	-1336
▁fat	-1337
mploy	-1338
▁covs	-1339
▁each	-1340
▁mark	-1341
▁step	-1342
ymptom	-1343
▁fines	-1344
▁hcovs	-1345
▁retur	-1346
▁assess	-1347
▁having	-1348
▁reduce	-1349
▁similar	-1350
▁worldwide	-1351
▁department	-1352
up	-1353
chn	-1354
▁fl	-1355
▁la	-1356
ards	-1357
ject	-1358
ustr	-1359
▁bab	-1360
▁dem	-1361
▁see	-1362
iness	-1363
▁back	-1364
▁team	-1365
▁center	-1366
▁global	-1367
▁period	-1368
▁provide	-1369
▁detected	-1370
▁required	-1371
za	-1372
ids	-1373
ite	-1374
ndr	-1375
urs	-1376
▁17	-1377
▁ey	-1378
enec	-1379
▁afr	-1380
▁car	-1381
▁hub	-1382
▁city	-1383
▁rate	-1384
ancing	-1385
ipment	-1386
opping	-1387
▁based	-1388
▁cyber	-1389
▁indic	-1390
▁right	-1391
▁times	-1392
▁comple	-1393
▁likely	-1394
▁concern	-1395
▁healthy	-1396
▁outside	-1397
▁washing	-1398
▁official	-1399
▁pneumonia	-1400
▁identified	-1401
▁individuals	-1402
ph	-1403
sc	-1404
▁'	-1405
lic	-1406
▁28	-1407
▁3,	-1408
▁wa	-1409
oses	-1410
traz	-1411
▁acr	-1412
▁sug	-1413
▁wom	-1414
eneca	-1415
▁list	-1416
▁rele	-1417
▁reop	-1418
▁said	-1419
▁order	-1420
▁rapid	-1421
▁county	-1422
▁trials	-1423
▁however	-1424
trazeneca	-1425
▁received	-1426
▁laboratory	-1427
inc	-1428
▁To	-1429
▁uk	-1430
enza	-1431
▁cal	-1432
ardaí	-1433
odies	-1434
▁Stay	-1435
▁come	-1436
▁done	-1437
▁guid	-1438
▁mild	-1439
▁appro	-1440
▁signs	-1441
▁across	-1442
▁origin	-1443
▁samples	-1444
▁personal	-1445
▁developed	-1446
▁disinfect	-1447
▁equipment	-1448
3,	-1449
ru	-1450
ife	-1451
uss	-1452
▁21	-1453
▁Sh	-1454
aily	-1455
ives	-1456
▁Res	-1457
▁bas	-1458
▁cap	-1459
ately	-1460
▁init	-1461
▁scre	-1462
▁sick	-1463
▁sure	-1464
ensive	-1465
inistr	-1466
uction	-1467
ularly	-1468
▁syndr	-1469
▁techn	-1470
▁online	-1471
▁suggest	-1472
▁tracker	-1473
▁increased	-1474
ym	-1475
eri	-1476
ged	-1477
▁eu	-1478
eral	-1479
▁old	-1480
ising	-1481
▁Wash	-1482
▁amer	-1483
▁baby	-1484
▁iran	-1485
▁post	-1486
▁prob	-1487
▁daily	-1488
▁enter	-1489
▁lower	-1490
▁needs	-1491
▁record	-1492
otential	-1493
▁several	-1494
▁relating	-1495
▁syndrome	-1496
▁influenza	-1497
▁associated	-1498
▁vaccinated	-1499
ays	-1500
set	-1501
▁Op	-1502
aren	-1503
ides	-1504
▁par	-1505
▁rep	-1506
▁set	-1507
osure	-1508
▁adap	-1509
▁five	-1510
▁meet	-1511
▁mult	-1512
▁year	-1513
▁chang	-1514
▁later	-1515
▁places	-1516
▁related	-1517
▁increase	-1518
▁learning	-1519
▁properly	-1520
▁research	-1521
▁development	-1522
29	-1523
to	-1524
get	-1525
ify	-1526
ism	-1527
ner	-1528
ues	-1529
ient	-1530
rest	-1531
tact	-1532
▁bus	-1533
▁cho	-1534
▁mem	-1535
▁nat	-1536
▁own	-1537
▁sec	-1538
entil	-1539
▁happ	-1540
attack	-1541
lement	-1542
▁invol	-1543
▁novel	-1544
▁small	-1545
ability	-1546
▁detail	-1547
▁normal	-1548
▁stated	-1549
▁evidence	-1550
▁specific	-1551
▁distancing	-1552
▁cyberattack	-1553
dr	-1554
ale	-1555
ron	-1556
▁bu	-1557
cent	-1558
cess	-1559
iral	-1560
ucle	-1561
▁few	-1562
▁fun	-1563
▁hot	-1564
▁mob	-1565
▁put	-1566
covid	-1567
itted	-1568
ption	-1569
▁Open	-1570
▁ther	-1571
▁exerc	-1572
▁korea	-1573
▁women	-1574
▁access	-1575
▁called	-1576
▁groups	-1577
▁effects	-1578
▁economic	-1579
▁sneezing	-1580
▁suspected	-1581
▁prevention	-1582
▁separation	-1583
▁astrazeneca	-1584
▁organization	-1585
ogn	-1586
sis	-1587
▁50	-1588
▁Al	-1589
▁Be	-1590
ises	-1591
ults	-1592
▁All	-1593
▁And	-1594
▁ful	-1595
▁now	-1596
ances	-1597
ental	-1598
ograp	-1599
▁hist	-1600
▁sent	-1601
▁sour	-1602
aching	-1603
▁analy	-1604
▁doses	-1605
erature	-1606
▁animal	-1607
▁months	-1608
▁greater	-1609
▁present	-1610
▁potential	-1611
1.	-1612
iqu	-1613
ock	-1614
orn	-1615
ret	-1616
ved	-1617
ves	-1618
ygi	-1619
▁ur	-1620
ator	-1621
crip	-1622
ists	-1623
▁cam	-1624
▁enc	-1625
▁too	-1626
angol	-1627
ready	-1628
▁Many	-1629
▁date	-1630
▁lung	-1631
▁outd	-1632
▁sing	-1633
action	-1634
though	-1635
▁progr	-1636
ificant	-1637
▁People	-1638
▁employ	-1639
▁experi	-1640
▁levels	-1641
▁ventil	-1642
▁already	-1643
▁history	-1644
▁monitor	-1645
▁antibodies	-1646
▁intermediate	-1647
".	-1648
."	-1649
abl	-1650
for	-1651
▁gl	-1652
covs	-1653
etic	-1654
hold	-1655
▁100	-1656
▁his	-1657
▁tow	-1658
atest	-1659
cript	-1660
rence	-1661
▁anti	-1662
▁area	-1663
▁give	-1664
▁hygi	-1665
▁mand	-1666
▁mort	-1667
▁nurs	-1668
▁priv	-1669
hether	-1670
▁coron	-1671
▁pharm	-1672
▁press	-1673
▁become	-1674
▁establ	-1675
▁guidel	-1676
▁instit	-1677
▁showed	-1678
▁centres	-1679
▁increas	-1680
▁numbers	-1681
▁primary	-1682
▁usually	-1683
▁continue	-1684
▁essential	-1685
▁estimated	-1686
▁spreading	-1687
▁authorities	-1688
▁significant	-1689
2,	-1690
cg	-1691
ft	-1692
me	-1693
.30	-1694
ize	-1695
owd	-1696
▁27	-1697
▁29	-1698
▁Tr	-1699
▁co	-1700
▁ve	-1701
ateg	-1702
hers	-1703
tand	-1704
▁rev	-1705
utive	-1706
▁cour	-1707
igures	-1708
▁colle	-1709
▁rates	-1710
ilities	-1711
▁effort	-1712
▁genome	-1713
▁pangol	-1714
▁therap	-1715
▁details	-1716
▁general	-1717
▁getting	-1718
▁process	-1719
▁variant	-1720
▁declared	-1721
▁pregnant	-1722
▁practices	-1723
▁protection	-1724
▁protective	-1725
▁temperature	-1726
▁vaccination	-1727
.5	-1728
cgp	-1729
omb	-1730
rel	-1731
tle	-1732
ump	-1733
aken	-1734
ancy	-1735
azil	-1736
like	-1737
thod	-1738
▁Acc	-1739
▁def	-1740
▁far	-1741
aging	-1742
aring	-1743
ators	-1744
▁aged	-1745
▁best	-1746
▁cris	-1747
▁disc	-1748
▁just	-1749
▁phys	-1750
▁slow	-1751
▁alone	-1752
▁given	-1753
▁limit	-1754
▁means	-1755
▁phase	-1756
▁prior	-1757
▁gather	-1758
▁necess	-1759
▁workpl	-1760
▁Contact	-1761
▁hygiene	-1762
▁serious	-1763
▁systems	-1764
▁whether	-1765
▁distance	-1766
▁exposure	-1767
▁shopping	-1768
ymptomatic	-1769
▁according	-1770
▁breathing	-1771
▁implement	-1772
▁immediately	-1773
ei	-1774
go	-1775
kn	-1776
li	-1777
ote	-1778
▁fo	-1779
ably	-1780
crib	-1781
ense	-1782
hest	-1783
orth	-1784
otic	-1785
▁cre	-1786
▁Call	-1787
▁Most	-1788
▁dose	-1789
▁free	-1790
▁news	-1791
▁sequ	-1792
ertain	-1793
utions	-1794
▁added	-1795
▁effic	-1796
▁hosts	-1797
▁onset	-1798
▁Follow	-1799
▁causes	-1800
▁detect	-1801
▁flight	-1802
▁mobile	-1803
▁reserv	-1804
▁animals	-1805
▁natural	-1806
▁special	-1807
▁coronary	-1808
▁provided	-1809
▁According	-1810
▁cancelled	-1811
▁household	-1812
▁secondary	-1813
▁coronaviruses	-1814
7,	-1815
iew	-1816
ond	-1817
ops	-1818
utr	-1819
ians	-1820
lamm	-1821
ount	-1822
risk	-1823
trib	-1824
▁rsc	-1825
▁war	-1826
thing	-1827
▁comb	-1828
▁exec	-1829
▁eyes	-1830
▁good	-1831
▁oper	-1832
idents	-1833
▁crowd	-1834
▁paren	-1835
▁worse	-1836
▁adults	-1837
▁commun	-1838
▁method	-1839
▁sample	-1840
▁season	-1841
▁tempor	-1842
▁factors	-1843
▁limited	-1844
▁persons	-1845
lications	-1846
▁contacts	-1847
▁critical	-1848
▁pathogen	-1849
▁executive	-1850
▁intensive	-1851
▁pregnancy	-1852
▁president	-1853
.2	-1854
13	-1855
ef	-1856
use	-1857
iday	-1858
imed	-1859
iple	-1860
ofen	-1861
oors	-1862
serv	-1863
▁Don	-1864
▁ens	-1865
▁sat	-1866
▁upd	-1867
ading	-1868
▁intr	-1869
▁prep	-1870
▁repl	-1871
▁room	-1872
▁send	-1873
▁side	-1874
▁talk	-1875
▁tell	-1876
▁Other	-1877
▁leave	-1878
igation	-1879
▁attack	-1880
▁brazil	-1881
▁crisis	-1882
▁depend	-1883
▁gardaí	-1884
▁longer	-1885
▁monday	-1886
▁unless	-1887
▁business	-1888
▁controls	-1889
▁director	-1890
▁minister	-1891
▁programm	-1892
▁proteins	-1893
▁surfaces	-1894
▁necessary	-1895
▁published	-1896
▁screening	-1897
.4	-1898
18	-1899
ao	-1900
ho	-1901
ng	-1902
amp	-1903
nel	-1904
▁pe	-1905
ible	-1906
irth	-1907
izer	-1908
ring	-1909
▁san	-1910
▁sol	-1911
▁tre	-1912
known	-1913
▁Wear	-1914
▁cert	-1915
▁fore	-1916
▁left	-1917
▁link	-1918
▁near	-1919
▁prom	-1920
▁zoon	-1921
ention	-1922
▁asked	-1923
▁cells	-1924
▁citiz	-1925
▁hubei	-1926
▁nucle	-1927
▁third	-1928
▁breast	-1929
▁mental	-1930
▁nation	-1931
▁observ	-1932
▁recept	-1933
▁though	-1934
ulations	-1935
isolation	-1936
▁Minister	-1937
▁analysis	-1938
▁coughing	-1939
▁extended	-1940
▁hospitals	-1941
▁mortality	-1942
",	-1943
,8	-1944
20	-1945
ea	-1946
ex	-1947
cul	-1948
dom	-1949
gen	-1950
ims	-1951
oir	-1952
oke	-1953
oly	-1954
oph	-1955
opr	-1956
▁Ad	-1957
aper	-1958
ison	-1959
part	-1960
▁ban	-1961
▁cdc	-1962
▁dry	-1963
▁fut	-1964
▁her	-1965
▁net	-1966
▁pro	-1967
▁try	-1968
alian	-1969
▁That	-1970
▁What	-1971
▁died	-1972
▁germ	-1973
▁rcgp	-1974
▁soap	-1975
▁stat	-1976
uation	-1977
▁began	-1978
▁diarr	-1979
▁polic	-1980
▁stand	-1981
▁tract	-1982
related	-1983
▁critic	-1984
▁invest	-1985
▁taking	-1986
ximately	-1987
▁advised	-1988
▁figures	-1989
▁nursing	-1990
▁started	-1991
▁wearing	-1992
▁activity	-1993
▁citizens	-1994
▁everyone	-1995
▁severity	-1996
▁reservoir	-1997
▁guidelines	-1998
▁asymptomatic	-1999
%)	-2000
43	-2001
ku	-2002
pm	-2003
uf	-2004
▁0	-2005
app	-2006
ble	-2007
dle	-2008
emi	-2009
hea	-2010
ral	-2011
▁31	-2012
-229	-2013
hydr	-2014
ican	-2015
ital	-2016
iver	-2017
lies	-2018
roat	-2019
taur	-2020
utes	-2021
▁Ant	-2022
▁Use	-2023
▁hol	-2024
▁joh	-2025
▁leg	-2026
▁let	-2027
▁mic	-2028
▁mit	-2029
▁mut	-2030
▁ref	-2031
▁six	-2032
▁tur	-2033
asses	-2034
aving	-2035
based	-2036
ences	-2037
▁disp	-2038
▁east	-2039
▁feet	-2040
▁grad	-2041
▁late	-2042
▁life	-2043
▁mess	-2044
▁stop	-2045
idered	-2046
ograph	-2047
▁hotel	-2048
▁older	-2049
▁usual	-2050
▁Health	-2051
▁cities	-2052
▁design	-2053
▁enough	-2054
▁billion	-2055
▁patient	-2056
▁recover	-2057
▁restaur	-2058
▁studies	-2059
▁certific	-2060
▁multiple	-2061
▁pressure	-2062
▁attending	-2063
▁mandatory	-2064
▁considered	-2065
▁increasing	-2066
▁technology	-2067
▁university	-2068
63	-2069
air	-2070
▁Ex	-2071
aced	-2072
ches	-2073
uted	-2074
▁bel	-2075
▁mil	-2076
fizer	-2077
ittle	-2078
ronic	-2079
ublic	-2080
uster	-2081
▁char	-2082
▁cond	-2083
▁term	-2084
aining	-2085
struct	-2086
▁austr	-2087
▁check	-2088
▁disru	-2089
▁drink	-2090
▁heart	-2091
▁homes	-2092
▁refer	-2093
▁satur	-2094
▁sport	-2095
▁taken	-2096
▁toile	-2097
ression	-2098
▁africa	-2099
▁change	-2100
▁future	-2101
▁middle	-2102
▁single	-2103
▁source	-2104
▁strain	-2105
▁throat	-2106
▁america	-2107
▁arrange	-2108
▁cluster	-2109
▁officer	-2110
▁perform	-2111
▁protest	-2112
▁rapidly	-2113
▁species	-2114
▁strateg	-2115
▁working	-2116
lammatory	-2117
▁complete	-2118
▁isolated	-2119
▁practice	-2120
▁zoonotic	-2121
▁diagnosis	-2122
0,	-2123
be	-2124
ca	-2125
io	-2126
pe	-2127
gre	-2128
ols	-2129
sel	-2130
▁em	-2131
abet	-2132
apan	-2133
ider	-2134
imes	-2135
ique	-2136
nect	-2137
omet	-2138
sars	-2139
▁beg	-2140
▁eat	-2141
▁fre	-2142
▁phe	-2143
▁Sars	-2144
▁expl	-2145
▁fall	-2146
▁foot	-2147
▁head	-2148
▁mass	-2149
▁outc	-2150
▁prog	-2151
▁rout	-2152
▁soon	-2153
abetes	-2154
ildren	-2155
iviral	-2156
oplets	-2157
ressed	-2158
▁cloth	-2159
▁drugs	-2160
▁going	-2161
▁johns	-2162
▁media	-2163
▁paper	-2164
▁young	-2165
olution	-2166
▁camels	-2167
▁france	-2168
▁introd	-2169
▁market	-2170
▁office	-2171
▁region	-2172
▁return	-2173
▁allowed	-2174
▁changes	-2175
▁unknown	-2176
▁Children	-2177
▁fatality	-2178
▁virology	-2179
▁administr	-2180
▁childcare	-2181
▁reopening	-2182
▁Coronavirus	-2183
▁governments	-2184
▁approximately	-2185
8,	-2186
gr	-2187
alf	-2188
cer	-2189
cle	-2190
hse	-2191
ime	-2192
ipp	-2193
rom	-2194
upr	-2195
▁Af	-2196
▁No	-2197
▁Un	-2198
akes	-2199
ched	-2200
erts	-2201
ired	-2202
onym	-2203
sequ	-2204
▁Get	-2205
▁cir	-2206
▁eld	-2207
▁hom	-2208
▁nam	-2209
▁pat	-2210
▁vul	-2211
acist	-2212
aoise	-2213
ering	-2214
ision	-2215
ither	-2216
pread	-2217
▁beta	-2218
▁exam	-2219
▁extr	-2220
▁line	-2221
▁succ	-2222
▁swab	-2223
▁teac	-2224
▁tiss	-2225
▁walk	-2226
ension	-2227
▁chain	-2228
▁chief	-2229
▁funct	-2230
▁seven	-2231
▁demand	-2232
▁ensure	-2233
▁living	-2234
▁replic	-2235
▁supply	-2236
▁toilet	-2237
▁vulner	-2238
▁certain	-2239
▁continu	-2240
▁describ	-2241
▁elderly	-2242
▁foreign	-2243
▁highest	-2244
▁minutes	-2245
▁reduced	-2246
▁removed	-2247
▁droplets	-2248
▁efficacy	-2249
▁exercise	-2250
▁included	-2251
▁includes	-2252
▁outbreaks	-2253
▁residents	-2254
coronavirus	-2255
▁assessment	-2256
▁difficulty	-2257
▁experience	-2258
▁pathogenic	-2259
▁containment	-2260
5,	-2261
50	-2262
9,	-2263
▁x	-2264
coh	-2265
iot	-2266
ott	-2267
▁my	-2268
▁ok	-2269
▁ox	-2270
ases	-2271
enty	-2272
lean	-2273
ners	-2274
ware	-2275
ways	-2276
▁201	-2277
▁cla	-2278
▁eng	-2279
▁mus	-2280
▁she	-2281
cohol	-2282
going	-2283
▁card	-2284
▁else	-2285
▁fail	-2286
▁impr	-2287
▁nutr	-2288
▁perm	-2289
▁sund	-2290
▁text	-2291
▁unit	-2292
▁uses	-2293
▁want	-2294
pecies	-2295
rested	-2296
tained	-2297
▁After	-2298
▁Clean	-2299
▁elect	-2300
▁india	-2301
▁japan	-2302
▁quick	-2303
▁Before	-2304
▁Social	-2305
▁choose	-2306
▁determ	-2307
▁discov	-2308
▁little	-2309
▁reason	-2310
▁things	-2311
▁confirm	-2312
▁connect	-2313
▁efforts	-2314
▁ordered	-2315
▁outdoor	-2316
▁parents	-2317
▁success	-2318
▁surface	-2319
▁waiting	-2320
ification	-2321
▁diarrhea	-2322
▁occurred	-2323
▁saturday	-2324
▁supplies	-2325
▁antiviral	-2326
▁medicines	-2327
▁commission	-2328
▁nationwide	-2329
▁certificate	-2330
94	-2331
95	-2332
ael	-2333
ges	-2334
▁40	-2335
▁Av	-2336
▁Pl	-2337
oard	-2338
onch	-2339
oves	-2340
tech	-2341
▁Try	-2342
▁beh	-2343
▁cat	-2344
▁dam	-2345
▁did	-2346
▁exc	-2347
▁fed	-2348
▁nas	-2349
▁via	-2350
aight	-2351
erous	-2352
iforn	-2353
ilies	-2354
ively	-2355
▁Make	-2356
▁Vacc	-2357
▁evac	-2358
▁half	-2359
▁port	-2360
▁sect	-2361
▁seen	-2362
▁sept	-2363
▁type	-2364
▁vers	-2365
▁worr	-2366
▁crown	-2367
▁decre	-2368
▁entry	-2369
▁event	-2370
▁polit	-2371
▁trump	-2372
▁better	-2373
▁bronch	-2374
▁clinic	-2375
▁friday	-2376
▁making	-2377
▁manage	-2378
▁pfizer	-2379
▁recogn	-2380
▁scient	-2381
ometimes	-2382
▁centers	-2383
▁epidemi	-2384
▁italian	-2385
▁leaving	-2386
▁members	-2387
▁passeng	-2388
▁percent	-2389
▁regions	-2390
▁stephen	-2391
hydration	-2392
▁approved	-2393
▁arrested	-2394
▁diabetes	-2395
▁families	-2396
▁findings	-2397
▁november	-2398
▁sequence	-2399
▁straight	-2400
▁generally	-2401
▁workplace	-2402
▁vulnerable	-2403
▁restaurants	-2404
.,	-2405
.8	-2406
65	-2407
ps	-2408
-2.	-2409
inf	-2410
val	-2411
▁At	-2412
▁Cl	-2413
▁ju	-2414
astr	-2415
high	-2416
inal	-2417
load	-2418
most	-2419
uman	-2420
▁4,9	-2421
▁ear	-2422
▁eea	-2423
▁inh	-2424
▁law	-2425
▁rad	-2426
▁run	-2427
▁wed	-2428
acter	-2429
aying	-2430
▁Only	-2431
▁full	-2432
▁king	-2433
▁poly	-2434
▁shut	-2435
▁wide	-2436
encies	-2437
selves	-2438
▁birth	-2439
▁plans	-2440
▁sched	-2441
actions	-2442
iontech	-2443
uprofen	-2444
▁amount	-2445
▁anyone	-2446
▁coming	-2447
▁encour	-2448
▁entire	-2449
▁protoc	-2450
▁recent	-2451
▁regard	-2452
▁reopen	-2453
▁retail	-2454
▁review	-2455
▁tissue	-2456
▁weight	-2457
▁worker	-2458
aoiseach	-2459
▁appropr	-2460
▁initial	-2461
▁kingdom	-2462
▁product	-2463
▁californ	-2464
▁cleaning	-2465
▁receptor	-2466
▁released	-2467
▁resident	-2468
▁training	-2469
▁estimates	-2470
▁recovered	-2471
▁activities	-2472
▁quarantined	-2473
▁particularly	-2474
▁universities	-2475
60	-2476
bs	-2477
cm	-2478
co	-2479
erg	-2480
ier	-2481
lem	-2482
ubs	-2483
who	-2484
ych	-2485
▁(3	-2486
▁60	-2487
▁Co	-2488
▁ib	-2489
acet	-2490
alia	-2491
erna	-2492
erse	-2493
pted	-2494
work	-2495
▁4,8	-2496
▁One	-2497
▁cor	-2498
▁dig	-2499
▁job	-2500
▁sle	-2501
▁ten	-2502
▁yet	-2503
artin	-2504
eding	-2505
epend	-2506
inary	-2507
▁With	-2508
▁easy	-2509
▁grow	-2510
▁read	-2511
▁reli	-2512
▁russ	-2513
▁smok	-2514
acetam	-2515
ession	-2516
▁above	-2517
▁adapt	-2518
▁build	-2519
▁delay	-2520
▁drive	-2521
▁fight	-2522
▁frequ	-2523
▁immun	-2524
▁think	-2525
erstand	-2526
ibility	-2527
▁appear	-2528
▁assist	-2529
▁became	-2530
▁course	-2531
▁covers	-2532
▁except	-2533
▁inters	-2534
▁martin	-2535
▁recomb	-2536
▁remove	-2537
▁unique	-2538
▁vector	-2539
▁visits	-2540
cription	-2541
inations	-2542
▁address	-2543
▁becomes	-2544
▁careful	-2545
▁closing	-2546
▁closure	-2547
▁conduct	-2548
▁discuss	-2549
▁distrib	-2550
▁genetic	-2551
▁germany	-2552
▁johnson	-2553
▁largest	-2554
▁ongoing	-2555
▁problem	-2556
▁quickly	-2557
▁travell	-2558
▁various	-2559
idespread	-2560
▁biontech	-2561
▁consider	-2562
▁contract	-2563
▁handling	-2564
▁internet	-2565
▁involved	-2566
▁physical	-2567
▁prepared	-2568
▁recently	-2569
▁recorded	-2570
▁relative	-2571
▁resulted	-2572
▁teachers	-2573
▁breaching	-2574
▁indicated	-2575
▁isolation	-2576
▁receiving	-2577
▁shortness	-2578
▁facilities	-2579
▁gatherings	-2580
▁recommends	-2581
▁themselves	-2582
▁regulations	-2583
▁ventilation	-2584
.7	-2585
6,	-2586
ai	-2587
eg	-2588
ik	-2589
ane	-2590
com	-2591
err	-2592
ift	-2593
ips	-2594
lor	-2595
lus	-2596
ont	-2597
ony	-2598
▁(2	-2599
▁37	-2600
▁et	-2601
aged	-2602
ford	-2603
gent	-2604
head	-2605
ocus	-2606
oids	-2607
stay	-2608
tern	-2609
umul	-2610
▁Pre	-2611
▁Rem	-2612
▁aid	-2613
▁dom	-2614
▁ins	-2615
▁opt	-2616
▁sal	-2617
▁sex	-2618
ached	-2619
anded	-2620
andid	-2621
andom	-2622
lands	-2623
luded	-2624
nelly	-2625
ories	-2626
▁More	-2627
▁Prot	-2628
▁code	-2629
▁cost	-2630
▁deli	-2631
▁fund	-2632
▁lack	-2633
▁lead	-2634
▁play	-2635
▁surg	-2636
▁wait	-2637
gether	-2638
luding	-2639
osable	-2640
▁Avoid	-2641
▁begin	-2642
▁mater	-2643
▁miche	-2644
▁north	-2645
▁range	-2646
▁serve	-2647
▁spain	-2648
ference	-2649
onymous	-2650
▁Latest	-2651
▁cancer	-2652
▁candid	-2653
▁eating	-2654
▁either	-2655
▁gloves	-2656
▁happen	-2657
▁highly	-2658
▁indoor	-2659
▁needed	-2660
▁notice	-2661
▁proced	-2662
▁shared	-2663
acetamol	-2664
▁alcohol	-2665
▁central	-2666
▁crowded	-2667
▁envelop	-2668
▁failure	-2669
▁flights	-2670
▁industr	-2671
▁moderna	-2672
▁privacy	-2673
▁reports	-2674
▁worried	-2675
▁Although	-2676
▁although	-2677
▁concerns	-2678
▁donnelly	-2679
▁globally	-2680
▁together	-2681
▁condition	-2682
▁currently	-2683
▁described	-2684
▁officials	-2685
▁pangolins	-2686
▁suspended	-2687
▁additional	-2688
▁individual	-2689
▁throughout	-2690
▁treatments	-2691
▁understand	-2692
▁widespread	-2693
▁appropriate	-2694
▁established	-2695
▁medications	-2696
▁transmitted	-2697
▁interspecies	-2698
%.	-2699
.1	-2700
4,	-2701
48	-2702
66	-2703
ee	-2704
ma	-2705
nl	-2706
rs	-2707
sh	-2708
bor	-2709
eal	-2710
nes	-2711
rna	-2712
ros	-2713
▁48	-2714
▁ge	-2715
▁lo	-2716
▁ra	-2717
▁rt	-2718
ands	-2719
heck	-2720
icip	-2721
igen	-2722
ones	-2723
urch	-2724
vent	-2725
▁Any	-2726
▁Not	-2727
▁ace	-2728
▁pcr	-2729
▁pil	-2730
▁suf	-2731
▁thr	-2732
▁vis	-2733
▁vol	-2734
acity	-2735
arily	-2736
cular	-2737
erate	-2738
irect	-2739
ledge	-2740
stant	-2741
table	-2742
▁From	-2743
▁Thus	-2744
▁bord	-2745
▁came	-2746
▁gets	-2747
▁kill	-2748
▁peak	-2749
▁poll	-2750
▁prof	-2751
▁real	-2752
▁thus	-2753
atures	-2754
everal	-2755
istics	-2756
undred	-2757
▁2019,	-2758
▁2021,	-2759
▁Every	-2760
▁Visit	-2761
▁basis	-2762
▁canad	-2763
▁clear	-2764
▁codes	-2765
▁focus	-2766
▁fully	-2767
▁minim	-2768
▁quest	-2769
▁spend	-2770
▁stage	-2771
▁thous	-2772
isation	-2773
ubation	-2774
▁active	-2775
▁commit	-2776
▁latest	-2777
▁preval	-2778
▁resour	-2779
▁Several	-2780
▁adapted	-2781
▁chronic	-2782
▁federal	-2783
▁instead	-2784
▁isolate	-2785
▁private	-2786
▁release	-2787
▁staying	-2788
▁Restrict	-2789
▁material	-2790
▁observed	-2791
▁republic	-2792
▁visitors	-2793
▁anonymous	-2794
▁collected	-2795
▁establish	-2796
▁reporting	-2797
▁september	-2798
▁situation	-2799
▁temporary	-2800
▁developing	-2801
▁introduced	-2802
▁mitigation	-2803
▁passengers	-2804
inflammatory	-2805
07	-2806
37	-2807
68	-2808
ax	-2809
sw	-2810
hku	-2811
ibr	-2812
iol	-2813
lev	-2814
nds	-2815
ocy	-2816
omp	-2817
pha	-2818
ule	-2819
ume	-2820
vir	-2821
▁38	-2822
▁Go	-2823
▁Ph	-2824
▁Us	-2825
▁ce	-2826
▁ic	-2827
pite	-2828
pper	-2829
ured	-2830
▁amp	-2831
▁mat	-2832
▁mor	-2833
acing	-2834
astic	-2835
ctors	-2836
erest	-2837
ients	-2838
iring	-2839
ivity	-2840
otide	-2841
viron	-2842
ximum	-2843
▁2021	-2844
▁Comm	-2845
▁acid	-2846
▁cult	-2847
▁dang	-2848
▁hard	-2849
▁item	-2850
▁july	-2851
▁rest	-2852
▁role	-2853
▁stre	-2854
▁ways	-2855
iotics	-2856
▁apart	-2857
▁chall	-2858
▁cumul	-2859
▁evacu	-2860
▁exist	-2861
▁extra	-2862
▁smell	-2863
▁smoke	-2864
▁types	-2865
▁upper	-2866
▁almost	-2867
▁plenty	-2868
▁policy	-2869
▁rather	-2870
▁stages	-2871
▁widely	-2872
▁Protect	-2873
▁claimed	-2874
▁digital	-2875
▁environ	-2876
▁happens	-2877
▁imposed	-2878
▁indoors	-2879
▁markets	-2880
▁message	-2881
▁methods	-2882
▁reached	-2883
▁showing	-2884
▁subject	-2885
▁therapy	-2886
▁capacity	-2887
▁delivery	-2888
▁directly	-2889
▁features	-2890
▁followed	-2891
▁homology	-2892
▁immunity	-2893
▁location	-2894
▁pangolin	-2895
▁progress	-2896
▁evolution	-2897
▁suggested	-2898
▁businesses	-2899
▁collection	-2900
▁cumulative	-2901
▁disruption	-2902
▁medication	-2903
▁monitoring	-2904
▁particular	-2905
▁procedures	-2906
▁travellers	-2907
▁dehydration	-2908
▁educational	-2909
▁implemented	-2910
▁institutions	-2911
36	-2912
47	-2913
5%	-2914
58	-2915
mb	-2916
ny	-2917
aps	-2918
den	-2919
ium	-2920
ius	-2921
lam	-2922
mph	-2923
ole	-2924
oll	-2925
omy	-2926
▁70	-2927
▁De	-2928
▁Dr	-2929
▁Me	-2930
ideo	-2931
ieve	-2932
ooth	-2933
▁Med	-2934
▁Out	-2935
▁abs	-2936
▁bal	-2937
▁buy	-2938
▁fit	-2939
▁haz	-2940
▁ids	-2941
▁lat	-2942
▁led	-2943
▁tar	-2944
arity	-2945
grees	-2946
ining	-2947
opped	-2948
ucing	-2949
ufact	-2950
▁Data	-2951
▁Face	-2952
▁Take	-2953
▁brit	-2954
▁carr	-2955
▁cive	-2956
▁fast	-2957
▁mamm	-2958
▁miss	-2959
▁name	-2960
▁told	-2961
▁york	-2962
istent	-2963
mption	-2964
nesday	-2965
pected	-2966
▁Antib	-2967
▁Where	-2968
▁count	-2969
▁guide	-2970
▁helps	-2971
▁irish	-2972
▁named	-2973
▁preca	-2974
▁shops	-2975
▁shown	-2976
▁steps	-2977
▁table	-2978
▁union	-2979
inistry	-2980
isolate	-2981
istered	-2982
iveness	-2983
ockdown	-2984
▁Infect	-2985
▁School	-2986
▁coding	-2987
▁compar	-2988
▁phased	-2989
▁random	-2990
▁secret	-2991
▁weekly	-2992
▁100,000	-2993
▁Symptom	-2994
▁african	-2995
▁causing	-2996
▁degrees	-2997
▁doctors	-2998
▁improve	-2999
▁maximum	-3000
▁nations	-3001
▁request	-3002
▁respect	-3003
▁respond	-3004
▁subsequ	-3005
▁towards	-3006
▁estimate	-3007
▁learners	-3008
▁maintain	-3009
▁ministry	-3010
▁outcomes	-3011
▁reliable	-3012
▁touching	-3013
▁australia	-3014
▁continued	-3015
▁diagnosed	-3016
▁gradually	-3017
▁institute	-3018
▁knowledge	-3019
▁programme	-3020
▁questions	-3021
▁regularly	-3022
▁thousands	-3023
▁discovered	-3024
▁pharmacist	-3025
▁programmes	-3026
▁successful	-3027
▁combination	-3028
▁restricting	-3029
▁effectiveness	-3030
10	-3031
14	-3032
25	-3033
57	-3034
6%	-3035
ey	-3036
rt	-3037
-2,	-3038
ept	-3039
fig	-3040
gal	-3041
ipl	-3042
let	-3043
lex	-3044
nal	-3045
ses	-3046
tee	-3047
▁Ne	-3048
▁Re	-3049
▁ca	-3050
▁ii	-3051
▁il	-3052
-19)	-3053
alls	-3054
dict	-3055
eria	-3056
ival	-3057
luet	-3058
omed	-3059
pect	-3060
rist	-3061
time	-3062
tric	-3063
uise	-3064
ules	-3065
year	-3066
ygen	-3067
▁Due	-3068
▁Our	-3069
▁Sim	-3070
▁aer	-3071
▁bed	-3072
▁cyt	-3073
▁eye	-3074
▁orf	-3075
▁val	-3076
▁ven	-3077
anged	-3078
aries	-3079
gious	-3080
ieved	-3081
indow	-3082
logen	-3083
oving	-3084
sense	-3085
tings	-3086
urity	-3087
▁Pati	-3088
▁Talk	-3089
▁bind	-3090
▁here	-3091
▁lost	-3092
▁mean	-3093
▁next	-3094
▁okay	-3095
▁radi	-3096
▁road	-3097
▁ship	-3098
▁soci	-3099
▁wall	-3100
ending	-3101
itions	-3102
quired	-3103
weight	-3104
▁Based	-3105
▁accur	-3106
▁along	-3107
▁alpha	-3108
▁break	-3109
▁calls	-3110
▁cardi	-3111
▁conte	-3112
▁cross	-3113
▁earli	-3114
▁fewer	-3115
▁light	-3116
▁lungs	-3117
▁postp	-3118
▁regis	-3119
▁sites	-3120
alities	-3121
umption	-3122
▁Gardaí	-3123
▁accept	-3124
▁constr	-3125
▁domest	-3126
▁fluids	-3127
▁issues	-3128
▁mainly	-3129
▁nearly	-3130
▁saying	-3131
▁select	-3132
▁strong	-3133
▁unable	-3134
ependent	-3135
luetooth	-3136
▁classes	-3137
▁closely	-3138
▁college	-3139
▁created	-3140
▁hundred	-3141
▁origins	-3142
▁planned	-3143
▁produce	-3144
▁signals	-3145
▁sitting	-3146
▁student	-3147
including	-3148
▁Symptoms	-3149
▁Vaccines	-3150
▁agencies	-3151
▁anything	-3152
▁building	-3153
▁communic	-3154
▁contrast	-3155
▁employer	-3156
▁facility	-3157
▁function	-3158
▁instruct	-3159
▁majority	-3160
▁manufact	-3161
▁mutation	-3162
▁outdoors	-3163
▁provides	-3164
▁province	-3165
▁starting	-3166
▁transmit	-3167
▁authority	-3168
▁exercises	-3169
▁expressed	-3170
▁initially	-3171
▁locations	-3172
▁requiring	-3173
▁resources	-3174
▁transmiss	-3175
▁typically	-3176
▁wednesday	-3177
▁california	-3178
▁difference	-3179
▁disposable	-3180
▁nucleotide	-3181
▁scientific	-3182
▁strategies	-3183
▁environment	-3184
▁potentially	-3185
▁disinfectant	-3186
▁hospitalized	-3187
▁preparedness	-3188
▁Coronaviruses	-3189
▁complications	-3190
▁recombination	-3191
▁administration	-3192
'.	-3193
.0	-3194
16	-3195
17	-3196
27	-3197
53	-3198
92	-3199
aw	-3200
ox	-3201
sp	-3202
cdc	-3203
ken	-3204
lim	-3205
man	-3206
urp	-3207
▁Le	-3208
▁Of	-3209
▁bi	-3210
▁pa	-3211
▁ps	-3212
▁sk	-3213
▁wr	-3214
ache	-3215
ades	-3216
ames	-3217
ball	-3218
esco	-3219
ield	-3220
iend	-3221
ilit	-3222
inks	-3223
oned	-3224
ored	-3225
oval	-3226
prom	-3227
reng	-3228
▁4,7	-3229
▁Spe	-3230
▁Who	-3231
▁bin	-3232
▁dev	-3233
▁dur	-3234
▁hit	-3235
▁pan	-3236
▁pay	-3237
▁why	-3238
aster	-3239
borne	-3240
chers	-3241
erick	-3242
eries	-3243
ester	-3244
human	-3245
iplom	-3246
light	-3247
onstr	-3248
ophob	-3249
ument	-3250
▁Priv	-3251
▁arab	-3252
▁bott	-3253
▁camp	-3254
▁circ	-3255
▁clot	-3256
▁cook	-3257
▁deal	-3258
▁exce	-3259
▁jobs	-3260
▁kong	-3261
▁laun	-3262
▁look	-3263
▁pack	-3264
▁pers	-3265
▁pubs	-3266
▁repr	-3267
▁seek	-3268
▁took	-3269
▁tour	-3270
▁user	-3271
formed	-3272
ionate	-3273
merase	-3274
▁Cough	-3275
▁Short	-3276
▁Since	-3277
▁Using	-3278
▁ahead	-3279
▁aware	-3280
▁basic	-3281
▁clust	-3282
▁coord	-3283
▁diver	-3284
▁items	-3285
▁lives	-3286
▁night	-3287
▁prime	-3288
▁psych	-3289
▁scale	-3290
▁spike	-3291
▁terms	-3292
▁video	-3293
▁worry	-3294
idarity	-3295
ization	-3296
▁Travel	-3297
▁agency	-3298
▁always	-3299
▁christ	-3300
▁compan	-3301
▁contam	-3302
▁cruise	-3303
▁decide	-3304
▁inside	-3305
▁linked	-3306
▁orders	-3307
▁oxygen	-3308
▁russia	-3309
▁sneeze	-3310
▁specim	-3311
▁streng	-3312
▁warned	-3313
▁window	-3314
acquired	-3315
ibraries	-3316
lockdown	-3317
▁ability	-3318
▁comfort	-3319
▁explain	-3320
▁exposed	-3321
▁routine	-3322
▁sharing	-3323
▁smoking	-3324
▁strains	-3325
▁sundays	-3326
▁version	-3327
logenetic	-3328
▁Everyone	-3329
▁Patients	-3330
▁antibody	-3331
▁avoiding	-3332
▁challeng	-3333
▁compared	-3334
▁demonstr	-3335
▁identify	-3336
▁impacted	-3337
▁investig	-3338
▁products	-3339
▁reaction	-3340
▁recovery	-3341
▁serology	-3342
▁settings	-3343
▁surgical	-3344
▁affecting	-3345
▁committee	-3346
▁conducted	-3347
▁contacted	-3348
▁experienc	-3349
▁incidence	-3350
▁lockdowns	-3351
▁performed	-3352
▁returning	-3353
▁statement	-3354
▁frequently	-3355
▁relatively	-3356
▁statistics	-3357
▁communities	-3358
▁quarantines	-3359
12	-3360
bd	-3361
oy	-3362
tt	-3363
▁.	-3364
-2-	-3365
500	-3366
agh	-3367
ask	-3368
cil	-3369
des	-3370
elf	-3371
eut	-3372
ger	-3373
pcr	-3374
pre	-3375
ton	-3376
▁33	-3377
▁43	-3378
▁Am	-3379
▁Ir	-3380
▁ct	-3381
▁eg	-3382
▁ut	-3383
▁zh	-3384
avir	-3385
bour	-3386
chan	-3387
door	-3388
ened	-3389
ergy	-3390
iers	-3391
miss	-3392
ohan	-3393
oles	-3394
ores	-3395
pass	-3396
reed	-3397
reme	-3398
stit	-3399
then	-3400
umst	-3401
used	-3402
vers	-3403
▁80%	-3404
▁aff	-3405
▁bag	-3406
▁fil	-3407
▁hyp	-3408
▁icu	-3409
▁key	-3410
▁mal	-3411
▁pow	-3412
▁sum	-3413
▁une	-3414
▁wet	-3415
▁wip	-3416
▁xen	-3417
ables	-3418
agues	-3419
ching	-3420
fered	-3421
force	-3422
inate	-3423
istan	-3424
istic	-3425
itary	-3426
ivals	-3427
otein	-3428
tempt	-3429
where	-3430
▁9.30	-3431
▁Part	-3432
▁Pres	-3433
▁Test	-3434
▁Work	-3435
▁attr	-3436
▁book	-3437
▁cels	-3438
▁cork	-3439
▁jour	-3440
▁kind	-3441
▁kits	-3442
▁mrna	-3443
▁park	-3444
▁patr	-3445
▁plat	-3446
▁rati	-3447
▁sche	-3448
▁seat	-3449
▁tend	-3450
▁terr	-3451
▁tony	-3452
▁trad	-3453
▁vary	-3454
▁whom	-3455
icians	-3456
igious	-3457
urrent	-3458
▁Exerc	-3459
▁Stand	-3460
▁carry	-3461
▁cytok	-3462
▁gastr	-3463
▁index	-3464
▁latin	-3465
▁manag	-3466
▁meals	-3467
▁membr	-3468
▁nasal	-3469
▁point	-3470
▁shows	-3471
▁sleep	-3472
▁throw	-3473
▁today	-3474
▁twice	-3475
▁units	-3476
▁users	-3477
itional	-3478
ophobia	-3479
▁Contin	-3480
▁chance	-3481
▁damage	-3482
▁hazard	-3483
▁letter	-3484
▁mother	-3485
▁muscle	-3486
▁pollen	-3487
▁prelim	-3488
▁prepar	-3489
▁prison	-3490
▁relief	-3491
▁signed	-3492
▁target	-3493
▁threat	-3494
▁trends	-3495
▁update	-3496
promised	-3497
▁Outdoor	-3498
▁antigen	-3499
▁attempt	-3500
▁celsius	-3501
▁consult	-3502
▁facilit	-3503
▁follows	-3504
▁holohan	-3505
▁imaging	-3506
▁iranian	-3507
▁mammals	-3508
▁missing	-3509
▁parties	-3510
▁thought	-3511
▁treated	-3512
▁accurate	-3513
▁approach	-3514
▁circumst	-3515
▁clusters	-3516
▁contains	-3517
▁cultural	-3518
▁distress	-3519
▁domestic	-3520
▁envelope	-3521
▁excluded	-3522
▁expected	-3523
▁industry	-3524
▁launched	-3525
▁mainland	-3526
▁military	-3527
▁pharmacy	-3528
▁platform	-3529
▁problems	-3530
▁provider	-3531
▁shortage	-3532
▁sporting	-3533
▁Shortness	-3534
▁bluetooth	-3535
▁character	-3536
▁companies	-3537
▁determine	-3538
▁gathering	-3539
▁ibuprofen	-3540
▁nutrients	-3541
▁postponed	-3542
▁reference	-3543
▁regarding	-3544
▁shortages	-3545
▁sometimes	-3546
▁therapeut	-3547
▁assistance	-3548
▁bronchitis	-3549
▁candidates	-3550
▁completely	-3551
▁contagious	-3552
▁criticised	-3553
▁disability	-3554
▁indicating	-3555
▁management	-3556
▁polymerase	-3557
▁prevalence	-3558
▁strengthen	-3559
▁workplaces	-3560
▁preliminary	-3561
▁residential	-3562
▁restriction	-3563
▁symptomatic	-3564
▁cancellation	-3565
▁instructions	-3566
▁organizations	-3567
30	-3568
45	-3569
74	-3570
91	-3571
by	-3572
da	-3573
hs	-3574
yn	-3575
▁q	-3576
.4%	-3577
100	-3578
aiw	-3579
cre	-3580
ese	-3581
lia	-3582
mon	-3583
oad	-3584
oqu	-3585
orp	-3586
pac	-3587
upp	-3588
xic	-3589
▁39	-3590
▁99	-3591
▁Im	-3592
▁Or	-3593
▁km	-3594
▁ly	-3595
aste	-3596
atal	-3597
hens	-3598
hern	-3599
ocyt	-3600
osol	-3601
over	-3602
urse	-3603
uter	-3604
wise	-3605
▁Com	-3606
▁Dis	-3607
▁Ind	-3608
▁art	-3609
▁bar	-3610
▁bow	-3611
▁bul	-3612
▁bur	-3613
▁cop	-3614
▁dir	-3615
▁dys	-3616
▁fav	-3617
▁fin	-3618
▁hay	-3619
▁hku	-3620
▁lot	-3621
▁men	-3622
▁rbd	-3623
▁sad	-3624
▁tcm	-3625
aches	-3626
afood	-3627
aiwan	-3628
ength	-3629
iated	-3630
icans	-3631
lease	-3632
ormed	-3633
phone	-3634
ports	-3635
▁Find	-3636
▁Over	-3637
▁amin	-3638
▁ampl	-3639
▁bene	-3640
▁drop	-3641
▁harm	-3642
▁hong	-3643
▁hour	-3644
▁loss	-3645
▁midw	-3646
▁nort	-3647
▁once	-3648
▁rang	-3649
▁rise	-3650
▁scan	-3651
▁size	-3652
▁tele	-3653
▁toll	-3654
▁true	-3655
▁west	-3656
▁wild	-3657
esides	-3658
ifying	-3659
loroqu	-3660
▁2021.	-3661
▁South	-3662
▁Trans	-3663
▁Viral	-3664
▁admin	-3665
▁alarm	-3666
▁apply	-3667
▁asian	-3668
▁below	-3669
▁chair	-3670
▁doors	-3671
▁front	-3672
▁inhib	-3673
▁liver	-3674
▁makes	-3675
▁party	-3676
▁ratio	-3677
▁stock	-3678
▁store	-3679
▁works	-3680
▁worst	-3681
▁youth	-3682
fective	-3683
feeding	-3684
general	-3685
itories	-3686
omedary	-3687
omiting	-3688
▁annual	-3689
▁attrib	-3690
▁border	-3691
▁calcul	-3692
▁choice	-3693
▁circul	-3694
▁counts	-3695
▁create	-3696
▁expert	-3697
▁extent	-3698
▁growth	-3699
▁mechan	-3700
▁member	-3701
▁mostly	-3702
▁nether	-3703
▁passed	-3704
▁placed	-3705
▁police	-3706
▁proper	-3707
▁repres	-3708
▁reprod	-3709
▁respir	-3710
▁screen	-3711
▁series	-3712
▁unesco	-3713
▁upload	-3714
arantine	-3715
ographic	-3716
piratory	-3717
ventions	-3718
▁Healthy	-3719
▁Privacy	-3720
▁affects	-3721
▁changed	-3722
▁complex	-3723
▁economy	-3724
▁enforce	-3725
▁england	-3726
▁experts	-3727
▁funeral	-3728
▁glasses	-3729
▁hosting	-3730
▁network	-3731
▁overall	-3732
▁predict	-3733
▁project	-3734
▁reading	-3735
▁regular	-3736
▁seafood	-3737
▁seconds	-3738
▁sectors	-3739
▁sources	-3740
▁tracing	-3741
▁updated	-3742
▁variety	-3743
assionate	-3744
loroquine	-3745
▁Addition	-3746
▁Speaking	-3747
▁allowing	-3748
▁approval	-3749
▁believed	-3750
▁compound	-3751
▁covering	-3752
▁duration	-3753
▁entering	-3754
▁informed	-3755
▁interest	-3756
▁limiting	-3757
▁membrane	-3758
▁moderate	-3759
▁movement	-3760
▁numerous	-3761
▁particip	-3762
▁possibly	-3763
▁presence	-3764
▁probably	-3765
▁returned	-3766
▁sampling	-3767
▁standard	-3768
▁unemploy	-3769
▁Exercises	-3770
▁Taoiseach	-3771
▁admission	-3772
▁dromedary	-3773
▁permitted	-3774
▁presented	-3775
▁protocols	-3776
▁providers	-3777
▁providing	-3778
▁religious	-3779
▁remaining	-3780
▁resulting	-3781
▁secretary	-3782
▁something	-3783
▁colleagues	-3784
▁collecting	-3785
▁comparison	-3786
▁incubation	-3787
▁officially	-3788
▁overweight	-3789
▁production	-3790
▁profession	-3791
▁solidarity	-3792
▁xenophobia	-3793
▁Antibiotics	-3794
▁attractions	-3795
▁netherlands	-3796
▁replication	-3797
▁administered	-3798
▁appointments	-3799
▁construction	-3800
▁demonstrated	-3801
▁distribution	-3802
▁implications	-3803
▁prescription	-3804
▁circumstances	-3805
▁interventions	-3806
▁investigation	-3807
▁transportation	-3808
▁recommendations	-3809
15	-3810
39	-3811
64	-3812
69	-3813
70	-3814
84	-3815
ah	-3816
ra	-3817
43,	-3818
ald	-3819
amb	-3820
arp	-3821
ban	-3822
bid	-3823
cop	-3824
cto	-3825
ees	-3826
ney	-3827
ric	-3828
ude	-3829
udi	-3830
ums	-3831
▁(5	-3832
▁7,	-3833
▁80	-3834
▁Up	-3835
▁fa	-3836
▁hu	-3837
▁sn	-3838
▁ul	-3839
ague	-3840
aled	-3841
anta	-3842
ding	-3843
gans	-3844
greg	-3845
idge	-3846
onal	-3847
rect	-3848
ters	-3849
uled	-3850
unct	-3851
▁1,0	-3852
▁120	-3853
▁Des	-3854
▁Why	-3855
▁anx	-3856
▁den	-3857
▁fif	-3858
▁har	-3859
▁hop	-3860
▁kit	-3861
▁pen	-3862
▁pet	-3863
▁ppe	-3864
▁rat	-3865
▁rib	-3866
▁syn	-3867
alway	-3868
apore	-3869
board	-3870
eline	-3871
erary	-3872
ifest	-3873
inces	-3874
irmed	-3875
ostic	-3876
ulate	-3877
▁Even	-3878
▁Iran	-3879
▁Sign	-3880
▁Tell	-3881
▁answ	-3882
▁aver	-3883
▁bans	-3884
▁barr	-3885
▁dead	-3886
▁eval	-3887
▁fest	-3888
▁hung	-3889
▁mich	-3890
▁phil	-3891
▁pool	-3892
▁puts	-3893
▁sore	-3894
▁ster	-3895
▁swit	-3896
▁task	-3897
▁tick	-3898
▁viol	-3899
▁webs	-3900
▁worn	-3901
ancial	-3902
ctober	-3903
ground	-3904
inical	-3905
ucture	-3906
useums	-3907
▁Among	-3908
▁Check	-3909
▁Pract	-3910
▁While	-3911
▁advis	-3912
▁alpac	-3913
▁aside	-3914
▁brand	-3915
▁broad	-3916
▁class	-3917
▁colds	-3918
▁force	-3919
▁image	-3920
▁joint	-3921
▁lymph	-3922
▁mitig	-3923
▁model	-3924
▁never	-3925
▁noted	-3926
▁nurse	-3927
▁occup	-3928
▁panic	-3929
▁parts	-3930
▁plane	-3931
▁progn	-3932
▁purch	-3933
▁stret	-3934
▁swabs	-3935
▁taste	-3936
▁urine	-3937
▁volun	-3938
▁whole	-3939
ascular	-3940
chinese	-3941
erating	-3942
liament	-3943
ocument	-3944
tration	-3945
▁During	-3946
▁agreed	-3947
▁applic	-3948
▁arabia	-3949
▁behind	-3950
▁caring	-3951
▁civets	-3952
▁compon	-3953
▁danger	-3954
▁delays	-3955
▁diplom	-3956
▁disapp	-3957
▁easing	-3958
▁energy	-3959
▁factor	-3960
▁faster	-3961
▁friend	-3962
▁object	-3963
▁occurs	-3964
▁opened	-3965
▁opport	-3966
▁organs	-3967
▁phones	-3968
▁rights	-3969
▁slowly	-3970
▁sports	-3971
▁status	-3972
▁stores	-3973
▁stress	-3974
▁sunday	-3975
▁venues	-3976
▁Current	-3977
▁actions	-3978
▁advance	-3979
▁aerosol	-3980
▁average	-3981
▁balance	-3982
▁council	-3983
▁extreme	-3984
▁feeling	-3985
▁funding	-3986
▁genomes	-3987
▁infants	-3988
▁leading	-3989
▁measure	-3990
▁mission	-3991
▁offered	-3992
▁options	-3993
▁outcome	-3994
▁partner	-3995
▁patrick	-3996
▁quality	-3997
▁society	-3998
▁spreads	-3999
▁surpass	-4000
▁talking	-4001
▁whereas	-4002
abilities	-4003
▁american	-4004
▁arriving	-4005
▁coverage	-4006
▁decision	-4007
▁manifest	-4008
▁medicine	-4009
▁northern	-4010
▁policies	-4011
▁probable	-4012
▁prompted	-4013
▁protocol	-4014
▁regional	-4015
▁severely	-4016
▁strategy	-4017
▁visiting	-4018
▁vomiting	-4019
quarantine	-4020
▁Sometimes	-4021
▁depending	-4022
▁emergence	-4023
▁employees	-4024
▁extension	-4025
▁financial	-4026
▁functions	-4027
▁particles	-4028
▁platforms	-4029
▁provinces	-4030
▁represent	-4031
▁standards	-4032
▁taoiseach	-4033
▁therefore	-4034
▁adaptation	-4035
▁attributed	-4036
▁cancelling	-4037
▁connection	-4038
▁operations	-4039
▁parliament	-4040
▁restricted	-4041
▁suggesting	-4042
▁association	-4043
▁interaction	-4044
▁paracetamol	-4045
▁possibility	-4046
▁territories	-4047
▁Additionally	-4048
▁confirmation	-4049
▁difficulties	-4050
▁respectively	-4051
▁unemployment	-4052
▁breastfeeding	-4053
▁compassionate	-4054
▁epidemiological	-4055
..	-4056
21	-4057
32	-4058
35	-4059
38	-4060
4)	-4061
40	-4062
75	-4063
99	-4064
ae	-4065
fr	-4066
nn	-4067
ws	-4068
%),	-4069
300	-4070
adv	-4071
cal	-4072
equ	-4073
hic	-4074
ley	-4075
nge	-4076
ola	-4077
ons	-4078
ppe	-4079
rol	-4080
ury	-4081
▁34	-4082
▁45	-4083
▁6,	-4084
▁85	-4085
▁Ab	-4086
▁Di	-4087
▁Se	-4088
▁Sm	-4089
▁nb	-4090
▁oc	-4091
abor	-4092
coun	-4093
emas	-4094
emed	-4095
etal	-4096
face	-4097
iary	-4098
irds	-4099
ivir	-4100
kins	-4101
lete	-4102
lock	-4103
ming	-4104
more	-4105
norm	-4106
ocks	-4107
ogle	-4108
spec	-4109
thal	-4110
▁112	-4111
▁300	-4112
▁90%	-4113
▁95%	-4114
▁Air	-4115
▁Eat	-4116
▁Par	-4117
▁Sec	-4118
▁ang	-4119
▁caf	-4120
▁die	-4121
▁exh	-4122
▁fda	-4123
▁gas	-4124
▁gly	-4125
▁iii	-4126
▁lic	-4127
▁lun	-4128
▁mar	-4129
▁mis	-4130
▁mun	-4131
▁nor	-4132
asive	-4133
being	-4134
birth	-4135
edros	-4136
igare	-4137
itize	-4138
izing	-4139
mical	-4140
ngeal	-4141
sible	-4142
taken	-4143
worth	-4144
▁Have	-4145
▁Like	-4146
▁Mers	-4147
▁Self	-4148
▁aims	-4149
▁apps	-4150
▁clar	-4151
▁fine	-4152
▁heav	-4153
▁held	-4154
▁hubs	-4155
▁meal	-4156
▁milk	-4157
▁mole	-4158
▁past	-4159
▁ratg	-4160
▁sell	-4161
▁sens	-4162
▁sold	-4163
▁surv	-4164
▁turn	-4165
▁upon	-4166
▁virt	-4167
▁warm	-4168
▁wave	-4169
▁weak	-4170
▁went	-4171
▁wors	-4172
▁zeal	-4173
atives	-4174
elling	-4175
iently	-4176
isions	-4177
itizer	-4178
onatal	-4179
ophary	-4180
ovirus	-4181
rehens	-4182
rences	-4183
school	-4184
ursday	-4185
▁Drink	-4186
▁First	-4187
▁Those	-4188
▁Track	-4189
▁Virus	-4190
▁catch	-4191
▁chart	-4192
▁confe	-4193
▁curfe	-4194
▁delta	-4195
▁dirty	-4196
▁encod	-4197
▁fluid	-4198
▁garda	-4199
▁newly	-4200
▁pilgr	-4201
▁relax	-4202
▁route	-4203
▁runny	-4204
▁sharp	-4205
▁theat	-4206
▁towel	-4207
▁trade	-4208
archers	-4209
estinal	-4210
ficient	-4211
itation	-4212
ography	-4213
ologies	-4214
porting	-4215
ulatory	-4216
▁Eating	-4217
▁accomp	-4218
▁action	-4219
▁advise	-4220
▁altern	-4221
▁appeal	-4222
▁banned	-4223
▁campus	-4224
▁crowds	-4225
▁donald	-4226
▁former	-4227
▁google	-4228
▁ground	-4229
▁handle	-4230
▁indian	-4231
▁median	-4232
▁moving	-4233
▁nature	-4234
▁parent	-4235
▁portal	-4236
▁racist	-4237
▁remark	-4238
▁safely	-4239
▁scheme	-4240
▁spaces	-4241
▁superm	-4242
▁traced	-4243
▁unions	-4244
▁wholes	-4245
atically	-4246
ineering	-4247
isolated	-4248
▁Besides	-4249
▁Despite	-4250
▁adverse	-4251
▁arrived	-4252
▁bottles	-4253
▁british	-4254
▁calling	-4255
▁chances	-4256
▁comment	-4257
▁contrib	-4258
▁delayed	-4259
▁genomic	-4260
▁holiday	-4261
▁journal	-4262
▁meeting	-4263
▁michael	-4264
▁morning	-4265
▁municip	-4266
▁october	-4267
▁philipp	-4268
▁plastic	-4269
▁reflect	-4270
▁remains	-4271
▁reverse	-4272
▁stopped	-4273
▁suscept	-4274
▁website	-4275
▁younger	-4276
▁zealand	-4277
formation	-4278
ocumented	-4279
▁Continue	-4280
▁arranged	-4281
▁colleges	-4282
▁concerts	-4283
▁cytokine	-4284
▁defences	-4285
▁designed	-4286
▁existing	-4287
▁geograph	-4288
▁headache	-4289
▁instance	-4290
▁limerick	-4291
▁produced	-4292
▁proposed	-4293
▁schedule	-4294
▁security	-4295
▁separate	-4296
▁steroids	-4297
▁thursday	-4298
▁whenever	-4299
▁Therefore	-4300
▁beginning	-4301
▁carefully	-4302
▁decreased	-4303
▁evacuated	-4304
▁identical	-4305
▁increases	-4306
▁involving	-4307
▁libraries	-4308
▁political	-4309
▁preparing	-4310
▁responses	-4311
▁sanitizer	-4312
▁solutions	-4313
▁telephone	-4314
▁traveling	-4315
opharyngeal	-4316
▁consistent	-4317
▁criticized	-4318
▁facilitate	-4319
▁precaution	-4320
▁preventing	-4321
▁protecting	-4322
▁washington	-4323
acoronavirus	-4324
▁Paracetamol	-4325
▁Respiratory	-4326
▁application	-4327
▁researchers	-4328
▁serological	-4329
▁temporarily	-4330
▁therapeutic	-4331
▁traditional	-4332
▁contaminated	-4333
▁examinations	-4334
▁geographical	-4335
▁inflammatory	-4336
▁notification	-4337
▁occupational	-4338
▁quarantining	-4339
▁registration	-4340
▁subsequently	-4341
▁participating	-4342
▁significantly	-4343
▁transcription	-4344
%,	-4345
);	-4346
.9	-4347
4.	-4348
61	-4349
80	-4350
90	-4351
cl	-4352
ds	-4353
ni	-4354
%).	-4355
600	-4356
eat	-4357
ema	-4358
gov	-4359
hin	-4360
isl	-4361
key	-4362
nea	-4363
orr	-4364
phe	-4365
pir	-4366
ple	-4367
ram	-4368
rox	-4369
sec	-4370
sue	-4371
ued	-4372
uff	-4373
ugg	-4374
uit	-4375
ula	-4376
ups	-4377
uty	-4378
wor	-4379
zym	-4380
▁(1	-4381
▁(6	-4382
▁(7	-4383
▁1.	-4384
▁35	-4385
▁42	-4386
▁47	-4387
▁65	-4388
▁Ar	-4389
▁En	-4390
▁Te	-4391
▁hy	-4392
▁ig	-4393
▁wm	-4394
abin	-4395
alse	-4396
anan	-4397
ares	-4398
asma	-4399
case	-4400
char	-4401
comm	-4402
crim	-4403
eded	-4404
efin	-4405
iety	-4406
iste	-4407
just	-4408
mers	-4409
nder	-4410
ohib	-4411
olit	-4412
oose	-4413
oted	-4414
ovel	-4415
plan	-4416
pnea	-4417
rael	-4418
thma	-4419
trol	-4420
ttps	-4421
uces	-4422
utum	-4423
vacc	-4424
wash	-4425
▁14,	-4426
▁14-	-4427
▁500	-4428
▁Are	-4429
▁Car	-4430
▁Gen	-4431
▁Imm	-4432
▁Let	-4433
▁Now	-4434
▁Phy	-4435
▁Put	-4436
▁Rep	-4437
▁Str	-4438
▁ach	-4439
▁amb	-4440
▁anc	-4441
▁aug	-4442
▁big	-4443
▁doz	-4444
▁enh	-4445
▁eth	-4446
▁gps	-4447
▁gre	-4448
▁inj	-4449
▁log	-4450
▁mac	-4451
▁mad	-4452
▁mom	-4453
▁nig	-4454
▁phy	-4455
▁pra	-4456
▁pul	-4457
▁rac	-4458
▁sud	-4459
▁urg	-4460
▁web	-4461
▁yel	-4462
acies	-4463
akers	-4464
alled	-4465
aming	-4466
arent	-4467
check	-4468
enter	-4469
hours	-4470
ience	-4471
level	-4472
lines	-4473
organ	-4474
osing	-4475
ouble	-4476
rench	-4477
tered	-4478
terns	-4479
utral	-4480
vales	-4481
works	-4482
▁2009	-4483
▁4.30	-4484
▁Anot	-4485
▁Epid	-4486
▁Give	-4487
▁Good	-4488
▁Long	-4489
▁Meas	-4490
▁Meet	-4491
▁Well	-4492
▁acad	-4493
▁adop	-4494
▁appe	-4495
▁asia	-4496
▁beds	-4497
▁cere	-4498
▁clim	-4499
▁coll	-4500
▁cure	-4501
▁cust	-4502
▁dest	-4503
▁elev	-4504
▁fing	-4505
▁fire	-4506
▁gain	-4507
▁gard	-4508
▁gene	-4509
▁kept	-4510
▁leis	-4511
▁meat	-4512
▁moon	-4513
▁paid	-4514
▁prem	-4515
▁reve	-4516
▁shed	-4517
▁shit	-4518
▁situ	-4519
▁skin	-4520
▁slee	-4521
▁stim	-4522
▁trig	-4523
▁unex	-4524
▁view	-4525
▁wool	-4526
active	-4527
ailand	-4528
akened	-4529
bridge	-4530
ceived	-4531
ctions	-4532
firmed	-4533
ilarly	-4534
inemas	-4535
itable	-4536
ivided	-4537
monary	-4538
naiste	-4539
ospect	-4540
ulates	-4541
urches	-4542
▁2019.	-4543
▁2020)	-4544
▁Emerg	-4545
▁Fever	-4546
▁Human	-4547
▁Never	-4548
▁Place	-4549
▁Signs	-4550
▁Sneez	-4551
▁Treat	-4552
▁adequ	-4553
▁apple	-4554
▁benef	-4555
▁bowel	-4556
▁carer	-4557
▁comes	-4558
▁court	-4559
▁creat	-4560
▁enzym	-4561
▁final	-4562
▁forms	-4563
▁goods	-4564
▁guest	-4565
▁issue	-4566
▁names	-4567
▁offer	-4568
▁optim	-4569
▁pains	-4570
▁pilot	-4571
▁plate	-4572
▁princ	-4573
▁rooms	-4574
▁saudi	-4575
▁sense	-4576
▁space	-4577
▁spill	-4578
▁storm	-4579
▁stuff	-4580
▁takes	-4581
▁toxic	-4582
▁trace	-4583
▁urged	-4584
▁vehic	-4585
advanta	-4586
athogen	-4587
atories	-4588
certain	-4589
desivir	-4590
efinite	-4591
ertiary	-4592
inating	-4593
protein	-4594
taining	-4595
▁Around	-4596
▁Choose	-4597
▁Common	-4598
▁Direct	-4599
▁Person	-4600
▁Second	-4601
▁arrive	-4602
▁asking	-4603
▁august	-4604
▁canada	-4605
▁church	-4606
▁coughs	-4607
▁declar	-4608
▁delete	-4609
▁disord	-4610
▁enable	-4611
▁frames	-4612
▁french	-4613
▁galway	-4614
▁huanan	-4615
▁itself	-4616
▁korean	-4617
▁legisl	-4618
▁lethal	-4619
▁oxford	-4620
▁prices	-4621
▁prohib	-4622
▁rising	-4623
▁search	-4624
▁sector	-4625
▁secure	-4626
▁spring	-4627
▁street	-4628
▁strict	-4629
▁summer	-4630
▁suppli	-4631
▁taiwan	-4632
▁tedros	-4633
▁trying	-4634
▁useful	-4635
ifically	-4636
ipperary	-4637
ologists	-4638
specific	-4639
▁Another	-4640
▁anticip	-4641
▁anxiety	-4642
▁coronav	-4643
▁correct	-4644
▁deliver	-4645
▁devices	-4646
▁dismiss	-4647
▁falling	-4648
▁fingers	-4649
▁fitness	-4650
▁friends	-4651
▁keeping	-4652
▁largely	-4653
▁manager	-4654
▁meaning	-4655
▁prepare	-4656
▁sneezes	-4657
▁suspend	-4658
▁trouble	-4659
▁updates	-4660
▁visited	-4661
infection	-4662
ovascular	-4663
rehensive	-4664
valescent	-4665
▁National	-4666
▁Practice	-4667
▁Shopping	-4668
▁advisory	-4669
▁airborne	-4670
▁arrivals	-4671
▁canadian	-4672
▁carrying	-4673
▁clothing	-4674
▁combined	-4675
▁constant	-4676
▁decrease	-4677
▁drinking	-4678
▁earliest	-4679
▁elevated	-4680
▁governor	-4681
▁guidance	-4682
▁mitigate	-4683
▁neonatal	-4684
▁normally	-4685
▁obtained	-4686
▁pilgrims	-4687
▁protests	-4688
▁remained	-4689
▁substant	-4690
▁teaching	-4691
▁theatres	-4692
▁theories	-4693
▁underway	-4694
▁weakened	-4695
generating	-4696
lexibility	-4697
structural	-4698
▁Community	-4699
▁Following	-4700
▁attention	-4701
▁detection	-4702
▁detention	-4703
▁discovery	-4704
▁encourage	-4705
▁extensive	-4706
▁gastroint	-4707
▁guideline	-4708
▁illnesses	-4709
▁impacting	-4710
▁nutrition	-4711
▁operating	-4712
▁otherwise	-4713
▁prognosis	-4714
▁promising	-4715
▁protected	-4716
▁reduction	-4717
▁retailers	-4718
▁sanctions	-4719
▁singapore	-4720
▁specimens	-4721
▁supermark	-4722
▁surpassed	-4723
▁wholesale	-4724
information	-4725
▁amplifying	-4726
▁calculated	-4727
▁components	-4728
▁containing	-4729
▁contracted	-4730
▁determined	-4731
▁disadvanta	-4732
▁fatalities	-4733
▁households	-4734
▁importance	-4735
▁maintained	-4736
▁physically	-4737
▁preventive	-4738
▁reportedly	-4739
▁resumption	-4740
▁situations	-4741
▁travelling	-4742
▁unexpected	-4743
▁ventilator	-4744
▁alternative	-4745
▁anonymously	-4746
▁independent	-4747
▁manufacture	-4748
▁philippines	-4749
▁politicians	-4750
▁respirators	-4751
▁virological	-4752
▁consultation	-4753
▁convalescent	-4754
▁disabilities	-4755
▁laboratories	-4756
▁reproduction	-4757
▁successfully	-4758
▁comprehensive	-4759
▁manifestations	-4760
▁nasopharyngeal	-4761
,3	-4762
-4	-4763
08	-4764
24	-4765
44	-4766
67	-4767
79	-4768
aa	-4769
au	-4770
ij	-4771
sa	-4772
.5%	-4773
adk	-4774
aro	-4775
aur	-4776
bow	-4777
cel	-4778
cun	-4779
eed	-4780
hel	-4781
iat	-4782
ils	-4783
joy	-4784
ker	-4785
ket	-4786
och	-4787
ona	-4788
oul	-4789
pic	-4790
sol	-4791
tim	-4792
wed	-4793
yms	-4794
▁4.	-4795
▁41	-4796
▁44	-4797
▁55	-4798
▁59	-4799
▁8,	-4800
▁90	-4801
▁Fe	-4802
▁So	-4803
▁Sp	-4804
▁da	-4805
▁ec	-4806
▁lt	-4807
▁mo	-4808
▁py	-4809
-19-	-4810
.8%)	-4811
acks	-4812
adic	-4813
angl	-4814
appr	-4815
ardy	-4816
bing	-4817
bola	-4818
ease	-4819
erve	-4820
hoea	-4821
home	-4822
hood	-4823
iage	-4824
inty	-4825
iton	-4826
lied	-4827
loor	-4828
ncov	-4829
ocom	-4830
oget	-4831
olic	-4832
open	-4833
pond	-4834
resh	-4835
road	-4836
semb	-4837
ship	-4838
such	-4839
uate	-4840
uing	-4841
vant	-4842
ward	-4843
when	-4844
ying	-4845
▁(1)	-4846
▁(2)	-4847
▁(3)	-4848
▁-19	-4849
▁20,	-4850
▁28,	-4851
▁30%	-4852
▁60%	-4853
▁999	-4854
▁App	-4855
▁Ask	-4856
▁Det	-4857
▁Dif	-4858
▁Dry	-4859
▁Ens	-4860
▁Eur	-4861
▁Fin	-4862
▁Ire	-4863
▁Nap	-4864
▁Old	-4865
▁Sur	-4866
▁arm	-4867
▁bad	-4868
▁bil	-4869
▁cut	-4870
▁dic	-4871
▁fer	-4872
▁gap	-4873
▁gel	-4874
▁got	-4875
▁hen	-4876
▁hur	-4877
▁jud	-4878
▁lay	-4879
▁leo	-4880
▁mel	-4881
▁nba	-4882
▁nhs	-4883
▁pal	-4884
▁rod	-4885
▁sen	-4886
▁squ	-4887
▁ver	-4888
▁wat	-4889
▁wiv	-4890
▁yog	-4891
-19),	-4892
-19).	-4893
aceut	-4894
adesh	-4895
adkar	-4896
aghan	-4897
anced	-4898
anied	-4899
apsid	-4900
chief	-4901
estor	-4902
gnant	-4903
idays	-4904
iding	-4905
itage	-4906
itude	-4907
lobal	-4908
ocoon	-4909
ogens	-4910
omach	-4911
omers	-4912
ondon	-4913
orona	-4914
overs	-4915
ovine	-4916
ramid	-4917
rastr	-4918
redit	-4919
wards	-4920
▁2002	-4921
▁Four	-4922
▁Hand	-4923
▁Here	-4924
▁High	-4925
▁Prep	-4926
▁Scre	-4927
▁Then	-4928
▁alle	-4929
▁bank	-4930
▁cill	-4931
▁diet	-4932
▁farm	-4933
▁fear	-4934
▁fell	-4935
▁frag	-4936
▁gone	-4937
▁kild	-4938
▁lomb	-4939
▁neur	-4940
▁nine	-4941
▁ones	-4942
▁rare	-4943
▁retr	-4944
▁rhin	-4945
▁roll	-4946
▁rome	-4947
▁site	-4948
▁swed	-4949
▁trim	-4950
▁wipe	-4951
ecause	-4952
ficial	-4953
icklow	-4954
igence	-4955
imedia	-4956
likely	-4957
lusion	-4958
lusive	-4959
ocytes	-4960
person	-4961
piracy	-4962
tainty	-4963
urofen	-4964
worths	-4965
▁1,000	-4966
▁Bring	-4967
▁Cover	-4968
▁Going	-4969
▁Later	-4970
▁Medic	-4971
▁Third	-4972
▁Three	-4973
▁Under	-4974
▁aimed	-4975
▁amino	-4976
▁behav	-4977
▁binds	-4978
▁breat	-4979
▁cabin	-4980
▁costs	-4981
▁dates	-4982
▁defin	-4983
▁doing	-4984
▁dozen	-4985
▁elbow	-4986
▁exams	-4987
▁exhib	-4988
▁faced	-4989
▁fears	-4990
▁floor	-4991
▁foley	-4992
▁fruit	-4993
▁gives	-4994
▁heavy	-4995
▁learn	-4996
▁lines	-4997
▁norma	-4998
▁pools	-4999
▁power	-5000
▁quant	-5001
▁rules	-5002
▁shock	-5003
▁tight	-5004
▁tired	-5005
▁tools	-5006
▁white	-5007
▁whose	-5008
▁woman	-5009
▁zhang	-5010
akistan	-5011
grounds	-5012
iolitis	-5013
irdress	-5014
mission	-5015
ocapsid	-5016
ogether	-5017
ographs	-5018
ologist	-5019
respond	-5020
theless	-5021
urposed	-5022
vention	-5023
▁Advice	-5024
▁Dublin	-5025
▁Global	-5026
▁Public	-5027
▁Repeat	-5028
▁Unless	-5029
▁abroad	-5030
▁adhere	-5031
▁allows	-5032
▁assemb	-5033
▁asthma	-5034
▁bacter	-5035
▁basket	-5036
▁bodies	-5037
▁buying	-5038
▁carers	-5039
▁chains	-5040
▁cigare	-5041
▁credit	-5042
▁discon	-5043
▁easily	-5044
▁enters	-5045
▁expect	-5046
▁formal	-5047
▁gascun	-5048
▁giving	-5049
▁israel	-5050
▁labour	-5051
▁length	-5052
▁london	-5053
▁lowest	-5054
▁metric	-5055
▁moment	-5056
▁option	-5057
▁plasma	-5058
▁please	-5059
▁raised	-5060
▁sleeve	-5061
▁struct	-5062
▁suffer	-5063
▁timely	-5064
▁turkey	-5065
▁turned	-5066
▁urgent	-5067
▁varies	-5068
▁versus	-5069
▁volume	-5070
▁yellow	-5071
itioners	-5072
izations	-5073
kerchief	-5074
pathogen	-5075
stranded	-5076
tainment	-5077
▁Finally	-5078
▁Ireland	-5079
▁Medical	-5080
▁Wearing	-5081
▁account	-5082
▁airways	-5083
▁alerted	-5084
▁applied	-5085
▁arrival	-5086
▁britain	-5087
▁cillian	-5088
▁cleaned	-5089
▁company	-5090
▁constit	-5091
▁cooking	-5092
▁declare	-5093
▁despite	-5094
▁dischar	-5095
▁donegal	-5096
▁dropped	-5097
▁dyspnea	-5098
▁earlier	-5099
▁emerged	-5100
▁homolog	-5101
▁hopkins	-5102
▁inhibit	-5103
▁interru	-5104
▁islands	-5105
▁justice	-5106
▁kildare	-5107
▁leisure	-5108
▁museums	-5109
▁objects	-5110
▁pathway	-5111
▁program	-5112
▁pyramid	-5113
▁sequenc	-5114
▁visitor	-5115
▁worship	-5116
aceutical	-5117
angladesh	-5118
confirmed	-5119
criptions	-5120
▁Clinical	-5121
▁Remember	-5122
▁Tracking	-5123
▁ancestor	-5124
▁appeared	-5125
▁canceled	-5126
▁commonly	-5127
▁computer	-5128
▁contrace	-5129
▁criteria	-5130
▁electron	-5131
▁exceeded	-5132
▁festival	-5133
▁heritage	-5134
▁holidays	-5135
▁hundreds	-5136
▁identity	-5137
▁indirect	-5138
▁intended	-5139
▁involves	-5140
▁lombardy	-5141
▁managing	-5142
▁offences	-5143
▁offering	-5144
▁original	-5145
▁parental	-5146
▁passport	-5147
▁patterns	-5148
▁prescrib	-5149
▁relevant	-5150
▁seasonal	-5151
▁sleeping	-5152
▁suppress	-5153
▁systemic	-5154
▁treating	-5155
▁varadkar	-5156
pathogenic	-5157
uppression	-5158
▁President	-5159
▁cambridge	-5160
▁candidate	-5161
▁christian	-5162
▁concerned	-5163
▁concluded	-5164
▁criticism	-5165
▁disappear	-5166
▁enteritis	-5167
▁indicates	-5168
▁materials	-5169
▁modelling	-5170
▁mutations	-5171
▁occurring	-5172
▁pandemics	-5173
▁pathogens	-5174
▁perceived	-5175
▁personnel	-5176
▁primarily	-5177
▁receptors	-5178
▁scheduled	-5179
▁selection	-5180
▁seriously	-5181
▁spillover	-5182
▁therapies	-5183
▁universal	-5184
crimination	-5185
rastructure	-5186
▁Protecting	-5187
▁adequately	-5188
▁challenges	-5189
▁conspiracy	-5190
▁continuous	-5191
▁correspond	-5192
▁designated	-5193
▁documented	-5194
▁electronic	-5195
▁encouraged	-5196
▁foundation	-5197
▁nationally	-5198
▁originally	-5199
▁percentage	-5200
▁pharmacies	-5201
▁prioritize	-5202
▁regulatory	-5203
▁retrospect	-5204
▁scientists	-5205
▁subsequent	-5206
▁undertaken	-5207
▁woolworths	-5208
▁accompanied	-5209
▁anticipated	-5210
▁circulating	-5211
▁experienced	-5212
▁limitations	-5213
▁maintaining	-5214
▁populations	-5215
▁precautions	-5216
▁progression	-5217
▁susceptible	-5218
▁Nevertheless	-5219
▁Phylogenetic	-5220
▁applications	-5221
▁availability	-5222
▁californians	-5223
▁epidemiology	-5224
▁evolutionary	-5225
▁experiencing	-5226
▁handkerchief	-5227
▁immunisation	-5228
▁nucleocapsid	-5229
▁performances	-5230
▁phylogenetic	-5231
▁professional	-5232
▁requirements	-5233
▁specifically	-5234
▁vaccinations	-5235
▁bronchiolitis	-5236
▁manufacturing	-5237
▁practitioners	-5238
▁understanding	-5239
▁cardiovascular	-5240
▁establishments	-5241
▁identification	-5242
▁implementation	-5243
▁hospitalization	-5244
23	-5245
54	-5246
62	-5247
93	-5248
bi	-5249
de	-5250
ek	-5251
ev	-5252
gl	-5253
gs	-5254
ji	-5255
mo	-5256
mr	-5257
wa	-5258
wh	-5259
wo	-5260
zh	-5261
...	-5262
.3%	-5263
162	-5264
653	-5265
ads	-5266
ama	-5267
ape	-5268
ari	-5269
bat	-5270
bon	-5271
col	-5272
dis	-5273
erb	-5274
fen	-5275
hip	-5276
ico	-5277
idy	-5278
ilt	-5279
inv	-5280
mes	-5281
nas	-5282
nec	-5283
oks	-5284
pos	-5285
put	-5286
ray	-5287
reg	-5288
rti	-5289
ste	-5290
sus	-5291
try	-5292
tte	-5293
uba	-5294
uck	-5295
uel	-5296
uls	-5297
yan	-5298
ypt	-5299
▁00	-5300
▁1%	-5301
▁2-	-5302
▁32	-5303
▁49	-5304
▁51	-5305
▁52	-5306
▁57	-5307
▁68	-5308
▁77	-5309
▁79	-5310
▁97	-5311
▁Bu	-5312
▁Ef	-5313
▁Sa	-5314
▁ip	-5315
▁mc	-5316
▁pi	-5317
▁pm	-5318
▁ww	-5319
airs	-5320
ania	-5321
asks	-5322
athe	-5323
avan	-5324
aves	-5325
back	-5326
bits	-5327
body	-5328
cast	-5329
cing	-5330
cles	-5331
copy	-5332
drox	-5333
eces	-5334
entr	-5335
erim	-5336
erty	-5337
esus	-5338
from	-5339
ghan	-5340
grad	-5341
gree	-5342
hani	-5343
ills	-5344
imer	-5345
isen	-5346
itus	-5347
ixed	-5348
izes	-5349
lebr	-5350
life	-5351
many	-5352
mark	-5353
niac	-5354
ocal	-5355
okes	-5356
onan	-5357
opre	-5358
rell	-5359
sure	-5360
tary	-5361
whel	-5362
wing	-5363
ynam	-5364
yond	-5365
▁(20	-5366
▁(38	-5367
▁1).	-5368
▁1.4	-5369
▁11,	-5370
▁4,3	-5371
▁400	-5372
▁50%	-5373
▁96%	-5374
▁Bre	-5375
▁Can	-5376
▁Fac	-5377
▁Iob	-5378
▁Lim	-5379
▁Mon	-5380
▁Non	-5381
▁Num	-5382
▁Per	-5383
▁Red	-5384
▁Sit	-5385
▁Sub	-5386
▁Two	-5387
▁abc	-5388
▁aim	-5389
▁bce	-5390
▁cow	-5391
▁der	-5392
▁fen	-5393
▁gaa	-5394
▁gar	-5395
▁hip	-5396
▁ifn	-5397
▁lif	-5398
▁lou	-5399
▁map	-5400
▁oil	-5401
▁pov	-5402
▁rob	-5403
▁rot	-5404
▁rou	-5405
▁row	-5406
▁sin	-5407
▁swe	-5408
▁tom	-5409
▁ves	-5410
▁win	-5411
▁won	-5412
▁www	-5413
▁zim	-5414
acent	-5415
acted	-5416
ament	-5417
amond	-5418
apers	-5419
aused	-5420
clear	-5421
funct	-5422
hanom	-5423
ijing	-5424
ilize	-5425
imary	-5426
inant	-5427
itial	-5428
lated	-5429
march	-5430
night	-5431
ocyte	-5432
olson	-5433
oming	-5434
ommod	-5435
oring	-5436
ortic	-5437
place	-5438
pting	-5439
scale	-5440
trans	-5441
ulent	-5442
urine	-5443
usion	-5444
uting	-5445
venth	-5446
▁2018	-5447
▁8.30	-5448
▁Cold	-5449
▁Comp	-5450
▁Covs	-5451
▁Plan	-5452
▁Spec	-5453
▁acqu	-5454
▁ages	-5455
▁amid	-5456
▁cups	-5457
▁curb	-5458
▁dash	-5459
▁ecdc	-5460
▁eggs	-5461
▁elim	-5462
▁emer	-5463
▁evol	-5464
▁gael	-5465
▁game	-5466
▁gamm	-5467
▁gown	-5468
▁groc	-5469
▁hold	-5470
▁hope	-5471
▁hous	-5472
▁mach	-5473
▁mell	-5474
▁neck	-5475
▁paul	-5476
▁pray	-5477
▁purp	-5478
▁rely	-5479
▁scen	-5480
▁sera	-5481
▁shif	-5482
▁swim	-5483
▁town	-5484
▁tues	-5485
▁unus	-5486
20,000	-5487
acting	-5488
anging	-5489
cedent	-5490
ellect	-5491
ensity	-5492
ferred	-5493
figure	-5494
ieving	-5495
illing	-5496
incial	-5497
income	-5498
isting	-5499
itness	-5500
losure	-5501
necess	-5502
normal	-5503
oenter	-5504
onucle	-5505
ortion	-5506
rought	-5507
second	-5508
thirds	-5509
threat	-5510
urance	-5511
ximity	-5512
▁2012,	-5513
▁7,162	-5514
▁Cases	-5515
▁Diagn	-5516
▁Early	-5517
▁Leave	-5518
▁North	-5519
▁Novel	-5520
▁Organ	-5521
▁Shops	-5522
▁Water	-5523
▁accel	-5524
▁agent	-5525
▁alloc	-5526
▁artic	-5527
▁autom	-5528
▁banks	-5529
▁board	-5530
▁bulbs	-5531
▁civet	-5532
▁curve	-5533
▁doesn	-5534
▁dynam	-5535
▁enrol	-5536
▁false	-5537
▁fatal	-5538
▁fecal	-5539
▁field	-5540
▁fifth	-5541
▁frame	-5542
▁fresh	-5543
▁germs	-5544
▁glynn	-5545
▁green	-5546
▁guang	-5547
▁halls	-5548
▁imper	-5549
▁incon	-5550
▁lunch	-5551
▁malls	-5552
▁meets	-5553
▁minor	-5554
▁mouse	-5555
▁multi	-5556
▁overl	-5557
▁polar	-5558
▁proof	-5559
▁prove	-5560
▁ready	-5561
▁risen	-5562
▁ronan	-5563
▁spent	-5564
▁stain	-5565
▁stick	-5566
▁ultim	-5567
▁uncer	-5568
▁uncom	-5569
▁upset	-5570
▁valve	-5571
contact	-5572
droxych	-5573
eration	-5574
erestim	-5575
issions	-5576
loading	-5577
opreval	-5578
planned	-5579
sequent	-5580
teroids	-5581
uctions	-5582
washing	-5583
▁Corona	-5584
▁Europe	-5585
▁Facial	-5586
▁Online	-5587
▁Partic	-5588
▁Remove	-5589
▁Taking	-5590
▁Things	-5591
▁Within	-5592
▁alerts	-5593
▁alpaca	-5594
▁append	-5595
▁babies	-5596
▁behavi	-5597
▁breach	-5598
▁burden	-5599
▁celebr	-5600
▁cocoon	-5601
▁counse	-5602
▁deemed	-5603
▁degree	-5604
▁driven	-5605
▁engage	-5606
▁enzyme	-5607
▁excess	-5608
▁facing	-5609
▁height	-5610
▁helped	-5611
▁hypert	-5612
▁inject	-5613
▁killed	-5614
▁league	-5615
▁metres	-5616
▁models	-5617
▁nurses	-5618
▁offaly	-5619
▁racism	-5620
▁ranges	-5621
▁refers	-5622
▁remind	-5623
▁remote	-5624
▁resume	-5625
▁shield	-5626
▁snacks	-5627
▁sputum	-5628
▁stuffy	-5629
▁sudden	-5630
▁ticket	-5631
▁towels	-5632
▁twenty	-5633
▁unsure	-5634
▁winter	-5635
▁worked	-5636
criptase	-5637
ertility	-5638
esterday	-5639
etically	-5640
fortable	-5641
infected	-5642
isations	-5643
olitical	-5644
olsonaro	-5645
▁Antigen	-5646
▁Because	-5647
▁Chinese	-5648
▁Further	-5649
▁Getting	-5650
▁Nurofen	-5651
▁Prepare	-5652
▁Schools	-5653
▁Whereas	-5654
▁Without	-5655
▁achieve	-5656
▁adhanom	-5657
▁airline	-5658
▁airport	-5659
▁answers	-5660
▁austria	-5661
▁beijing	-5662
▁borders	-5663
▁breathe	-5664
▁brought	-5665
▁capable	-5666
▁capital	-5667
▁carried	-5668
▁charged	-5669
▁clothes	-5670
▁compare	-5671
▁concept	-5672
▁courses	-5673
▁curfews	-5674
▁decline	-5675
▁depends	-5676
▁detects	-5677
▁diamond	-5678
▁divided	-5679
▁enables	-5680
▁examine	-5681
▁experim	-5682
▁express	-5683
▁formula	-5684
▁gradual	-5685
▁inflamm	-5686
▁install	-5687
▁involve	-5688
▁lessons	-5689
▁located	-5690
▁massive	-5691
▁measles	-5692
▁minimal	-5693
▁neutral	-5694
▁nucleic	-5695
▁package	-5696
▁placent	-5697
▁putting	-5698
▁ranging	-5699
▁reasons	-5700
▁records	-5701
▁reduces	-5702
▁refused	-5703
▁relaxed	-5704
▁relieve	-5705
▁reserve	-5706
▁rouhani	-5707
▁russian	-5708
▁sending	-5709
▁serving	-5710
▁substit	-5711
▁suspect	-5712
▁sustain	-5713
▁tuesday	-5714
▁undergo	-5715
▁varying	-5716
▁warning	-5717
▁wedding	-5718
dependent	-5719
ellectual	-5720
reporting	-5721
secondary	-5722
▁Numerous	-5723
▁Visitors	-5724
▁academic	-5725
▁accommod	-5726
▁airlines	-5727
▁announce	-5728
▁anywhere	-5729
▁apparent	-5730
▁attended	-5731
▁barriers	-5732
▁benefits	-5733
▁calories	-5734
▁cellular	-5735
▁changing	-5736
▁churches	-5737
▁concentr	-5738
▁develops	-5739
▁diagnose	-5740
▁disorder	-5741
▁diverged	-5742
▁emerging	-5743
▁frequent	-5744
▁generate	-5745
▁imported	-5746
▁interval	-5747
▁lineages	-5748
▁mellitus	-5749
▁messages	-5750
▁networks	-5751
▁opportun	-5752
▁position	-5753
▁princess	-5754
▁purchase	-5755
▁referred	-5756
▁reflects	-5757
▁remember	-5758
▁reopened	-5759
▁specimen	-5760
▁suggests	-5761
▁suitable	-5762
▁swimming	-5763
▁temporal	-5764
▁tertiary	-5765
▁unlikely	-5766
▁unnecess	-5767
▁variable	-5768
▁violence	-5769
irdressers	-5770
oenteritis	-5771
▁Infection	-5772
▁Screening	-5773
▁accessory	-5774
▁addressed	-5775
▁americans	-5776
▁compounds	-5777
▁consulate	-5778
▁coverings	-5779
▁customers	-5780
▁dangerous	-5781
▁decisions	-5782
▁diarrhoea	-5783
▁disrupted	-5784
▁fragments	-5785
▁generated	-5786
▁highlight	-5787
▁incidents	-5788
▁insurance	-5789
▁introduce	-5790
▁mechanism	-5791
▁municipal	-5792
▁operators	-5793
▁organised	-5794
▁partially	-5795
▁preschool	-5796
▁prevalent	-5797
▁processed	-5798
▁producing	-5799
▁reactions	-5800
▁recession	-5801
▁replicase	-5802
▁replicate	-5803
▁residence	-5804
▁responsib	-5805
▁sensitive	-5806
▁separated	-5807
▁streaming	-5808
▁suppliers	-5809
▁travelled	-5810
▁unplanned	-5811
▁voluntary	-5812
oprevalence	-5813
threatening	-5814
▁appearance	-5815
▁basketball	-5816
▁controlled	-5817
▁diagnostic	-5818
▁disclosure	-5819
▁homologous	-5820
▁indefinite	-5821
▁indirectly	-5822
▁mechanical	-5823
▁originated	-5824
▁provincial	-5825
▁recognized	-5826
▁recoveries	-5827
▁remdesivir	-5828
▁repurposed	-5829
▁reservoirs	-5830
▁restaurant	-5831
▁stillbirth	-5832
▁stimulates	-5833
▁structural	-5834
▁sufficient	-5835
▁underestim	-5836
armaceutical	-5837
ocompromised	-5838
▁Astrazeneca	-5839
▁antibiotics	-5840
▁challenging	-5841
▁comfortable	-5842
▁compromised	-5843
▁connections	-5844
▁contracting	-5845
▁controlling	-5846
▁declaration	-5847
▁demographic	-5848
▁encouraging	-5849
▁enforcement	-5850
▁engineering	-5851
▁hospitality	-5852
▁legislation	-5853
▁playgrounds	-5854
▁polyprotein	-5855
▁suppression	-5856
▁uncertainty	-5857
▁ventilators	-5858
▁Particularly	-5859
▁Transmission	-5860
▁commentators	-5861
▁hospitalised	-5862
▁hypertension	-5863
▁nonessential	-5864
▁organisation	-5865
▁technologies	-5866
▁accommodation	-5867
▁administrator	-5868
▁communication	-5869
▁disadvantaged	-5870
▁disinfectants	-5871
▁environmental	-5872
▁nonstructural	-5873
▁precautionary	-5874
▁psychological	-5875
▁transmissible	-5876
▁uncomfortable	-5877
▁discrimination	-5878
▁infrastructure	-5879
droxychloroquine	-5880
-7	-5881
2)	-5882
72	-5883
77	-5884
88	-5885
96	-5886
bc	-5887
bo	-5888
cu	-5889
cy	-5890
di	-5891
ha	-5892
hi	-5893
ii	-5894
lr	-5895
yc	-5896
yo	-5897
-20	-5898
.1.	-5899
.2%	-5900
.7%	-5901
19-	-5902
405	-5903
566	-5904
63.	-5905
700	-5906
ago	-5907
aid	-5908
ank	-5909
ara	-5910
asm	-5911
atr	-5912
ats	-5913
bia	-5914
chy	-5915
cor	-5916
der	-5917
drp	-5918
ech	-5919
eez	-5920
efa	-5921
egu	-5922
eli	-5923
eph	-5924
gia	-5925
igr	-5926
ita	-5927
izz	-5928
lan	-5929
lel	-5930
lin	-5931
mat	-5932
min	-5933
mit	-5934
nam	-5935
non	-5936
ocl	-5937
ode	-5938
ogg	-5939
ots	-5940
oub	-5941
pox	-5942
pro	-5943
rid	-5944
rrt	-5945
san	-5946
sen	-5947
sha	-5948
sts	-5949
tab	-5950
tam	-5951
tar	-5952
tic	-5953
urd	-5954
urn	-5955
ush	-5956
wid	-5957
zer	-5958
▁(0	-5959
▁36	-5960
▁5,	-5961
▁63	-5962
▁71	-5963
▁73	-5964
▁86	-5965
▁Ag	-5966
▁Cv	-5967
▁Ib	-5968
▁Ra	-5969
▁Sw	-5970
▁Wa	-5971
▁bs	-5972
▁cd	-5973
▁gi	-5974
▁jo	-5975
▁lu	-5976
▁mh	-5977
-19:	-5978
-2).	-5979
07.1	-5980
ador	-5981
aign	-5982
ails	-5983
aint	-5984
ales	-5985
anol	-5986
aria	-5987
athy	-5988
book	-5989
born	-5990
bott	-5991
ceed	-5992
cour	-5993
date	-5994
each	-5995
eech	-5996
egro	-5997
enge	-5998
esis	-5999
gium	-6000
henz	-6001
heon	-6002
hour	-6003
iche	-6004
igue	-6005
iles	-6006
ilob	-6007
imal	-6008
inel	-6009
ires	-6010
lets	-6011
lude	-6012
lymp	-6013
made	-6014
oche	-6015
olar	-6016
oman	-6017
onel	-6018
oops	-6019
opin	-6020
oral	-6021
orib	-6022
osal	-6023
otes	-6024
otyp	-6025
pres	-6026
prop	-6027
rain	-6028
rets	-6029
room	-6030
seud	-6031
this	-6032
uish	-6033
umed	-6034
wait	-6035
week	-6036
with	-6037
zhou	-6038
▁(27	-6039
▁(4)	-6040
▁10,	-6041
▁13,	-6042
▁16.	-6043
▁2,3	-6044
▁2,4	-6045
▁229	-6046
▁24-	-6047
▁250	-6048
▁290	-6049
▁3,1	-6050
▁3.8	-6051
▁30-	-6052
▁40%	-6053
▁60,	-6054
▁70%	-6055
▁Bel	-6056
▁Bus	-6057
▁Cor	-6058
▁Cut	-6059
▁Dep	-6060
▁Flu	-6061
▁Hot	-6062
▁Its	-6063
▁New	-6064
▁Rec	-6065
▁Reg	-6066
▁Ret	-6067
▁Rub	-6068
▁See	-6069
▁Sup	-6070
▁Vir	-6071
▁ago	-6072
▁alt	-6073
▁bit	-6074
▁bot	-6075
▁dog	-6076
▁emb	-6077
▁etc	-6078
▁fig	-6079
▁fog	-6080
▁gol	-6081
▁hep	-6082
▁hiv	-6083
▁ign	-6084
▁ili	-6085
▁ing	-6086
▁isp	-6087
▁jae	-6088
▁mot	-6089
▁nce	-6090
▁nsp	-6091
▁pac	-6092
▁pun	-6093
▁qom	-6094
▁que	-6095
▁rub	-6096
▁rum	-6097
▁shr	-6098
▁ter	-6099
▁tex	-6100
▁unw	-6101
▁vit	-6102
▁wik	-6103
2,000	-6104
2,653	-6105
acerb	-6106
activ	-6107
afety	-6108
affic	-6109
after	-6110
allel	-6111
anish	-6112
ansom	-6113
ashed	-6114
aters	-6115
bound	-6116
cules	-6117
earch	-6118
endit	-6119
erals	-6120
erian	-6121
gered	-6122
heral	-6123
https	-6124
icion	-6125
icken	-6126
iency	-6127
iftly	-6128
inity	-6129
iques	-6130
irina	-6131
isced	-6132
junct	-6133
kenny	-6134
lamed	-6135
legal	-6136
mphas	-6137
nings	-6138
oking	-6139
overe	-6140
stown	-6141
tocks	-6142
uated	-6143
under	-6144
width	-6145
wuhan	-6146
▁1930	-6147
▁2003	-6148
▁2012	-6149
▁269,	-6150
▁4,90	-6151
▁Anti	-6152
▁Each	-6153
▁Form	-6154
▁Hcov	-6155
▁Hold	-6156
▁Intr	-6157
▁Lack	-6158
▁Last	-6159
▁Less	-6160
▁Mand	-6161
▁Mild	-6162
▁Move	-6163
▁Mult	-6164
▁Reop	-6165
▁Stud	-6166
▁Such	-6167
▁Will	-6168
▁anal	-6169
▁anat	-6170
▁arts	-6171
▁assa	-6172
▁bars	-6173
▁base	-6174
▁bath	-6175
▁busy	-6176
▁caps	-6177
▁capt	-6178
▁cash	-6179
▁cats	-6180
▁chol	-6181
▁corn	-6182
▁cruc	-6183
▁deep	-6184
▁dioc	-6185
▁door	-6186
▁doub	-6187
▁dram	-6188
▁empt	-6189
▁feed	-6190
▁fish	-6191
▁gall	-6192
▁geor	-6193
▁gogg	-6194
▁gyms	-6195
▁heel	-6196
▁herd	-6197
▁holy	-6198
▁inte	-6199
▁jans	-6200
▁jump	-6201
▁lift	-6202
▁liqu	-6203
▁mice	-6204
▁migr	-6205
▁mill	-6206
▁nato	-6207
▁none	-6208
▁opac	-6209
▁opin	-6210
▁pets	-6211
▁phot	-6212
▁poor	-6213
▁quit	-6214
▁reid	-6215
▁rule	-6216
▁save	-6217
▁shel	-6218
▁soft	-6219
▁stag	-6220
▁subs	-6221
▁summ	-6222
▁symp	-6223
▁thor	-6224
▁tree	-6225
▁trop	-6226
▁uefa	-6227
▁wake	-6228
▁wife	-6229
▁writ	-6230
apping	-6231
atitis	-6232
atured	-6233
bourne	-6234
called	-6235
change	-6236
common	-6237
entral	-6238
ephone	-6239
erally	-6240
ercial	-6241
ernity	-6242
erving	-6243
estone	-6244
hengen	-6245
heonji	-6246
iatric	-6247
itored	-6248
ivered	-6249
jected	-6250
justed	-6251
length	-6252
letion	-6253
makers	-6254
tering	-6255
urally	-6256
useppe	-6257
veolar	-6258
ypical	-6259
ysical	-6260
▁2,000	-6261
▁2003,	-6262
▁4,000	-6263
▁5,000	-6264
▁About	-6265
▁Click	-6266
▁Diarr	-6267
▁Level	-6268
▁Local	-6269
▁Phase	-6270
▁Plans	-6271
▁Which	-6272
▁aches	-6273
▁allev	-6274
▁avian	-6275
▁block	-6276
▁brief	-6277
▁broke	-6278
▁champ	-6279
▁chlor	-6280
▁crime	-6281
▁daegu	-6282
▁deter	-6283
▁displ	-6284
▁eased	-6285
▁ebola	-6286
▁edges	-6287
▁egypt	-6288
▁eight	-6289
▁ended	-6290
▁exact	-6291
▁facts	-6292
▁falls	-6293
▁fetal	-6294
▁foods	-6295
▁games	-6296
▁gamma	-6297
▁glass	-6298
▁haven	-6299
▁hotsp	-6300
▁hurts	-6301
▁inhab	-6302
▁insec	-6303
▁islam	-6304
▁lonel	-6305
▁looks	-6306
▁lopin	-6307
▁moist	-6308
▁moved	-6309
▁music	-6310
▁newsp	-6311
▁occas	-6312
▁olymp	-6313
▁param	-6314
▁parks	-6315
▁perip	-6316
▁print	-6317
▁pseud	-6318
▁renal	-6319
▁risks	-6320
▁riton	-6321
▁rural	-6322
▁sales	-6323
▁scope	-6324
▁seats	-6325
▁serum	-6326
▁shake	-6327
▁shall	-6328
▁shenz	-6329
▁ships	-6330
▁sides	-6331
▁spray	-6332
▁stays	-6333
▁suits	-6334
▁swine	-6335
▁telev	-6336
▁thing	-6337
▁train	-6338
▁trend	-6339
▁vital	-6340
▁voted	-6341
▁watch	-6342
▁worth	-6343
ategies	-6344
atering	-6345
collect	-6346
control	-6347
istical	-6348
lusions	-6349
oclonal	-6350
orticos	-6351
ossible	-6352
tenegro	-6353
whelmed	-6354
zerland	-6355
▁(2019-	-6356
▁(5.8%)	-6357
▁10,000	-6358
▁50,000	-6359
▁Compar	-6360
▁Hotels	-6361
▁Intern	-6362
▁Others	-6363
▁Visits	-6364
▁absent	-6365
▁agents	-6366
▁begins	-6367
▁belong	-6368
▁beyond	-6369
▁bovine	-6370
▁bright	-6371
▁calend	-6372
▁casual	-6373
▁charge	-6374
▁citing	-6375
▁claims	-6376
▁combat	-6377
▁conver	-6378
▁decree	-6379
▁dehydr	-6380
▁divers	-6381
▁drinks	-6382
▁easier	-6383
▁easter	-6384
▁econom	-6385
▁emerge	-6386
▁emphas	-6387
▁encoun	-6388
▁exorib	-6389
▁extend	-6390
▁favour	-6391
▁forced	-6392
▁fourth	-6393
▁garden	-6394
▁grades	-6395
▁habits	-6396
▁hassan	-6397
▁hotels	-6398
▁ingred	-6399
▁injury	-6400
▁intell	-6401
▁intend	-6402
▁island	-6403
▁larger	-6404
▁lifted	-6405
▁madrid	-6406
▁micros	-6407
▁morbid	-6408
▁norway	-6409
▁obtain	-6410
▁perman	-6411
▁permit	-6412
▁planes	-6413
▁points	-6414
▁poland	-6415
▁posted	-6416
▁powers	-6417
▁ransom	-6418
▁rarely	-6419
▁rating	-6420
▁repatr	-6421
▁robust	-6422
▁salads	-6423
▁segreg	-6424
▁senior	-6425
▁sexual	-6426
▁shares	-6427
▁slight	-6428
▁sovere	-6429
▁speech	-6430
▁spokes	-6431
▁squeez	-6432
▁strugg	-6433
▁subgen	-6434
▁survey	-6435
▁synthe	-6436
▁termed	-6437
▁tester	-6438
▁thinks	-6439
▁toward	-6440
▁triage	-6441
▁troops	-6442
cedented	-6443
chnology	-6444
enditure	-6445
enovirus	-6446
getables	-6447
graduate	-6448
iagnosed	-6449
lessness	-6450
onymized	-6451
rounding	-6452
ulmonary	-6453
▁122,653	-6454
▁200,000	-6455
▁Alcohol	-6456
▁Epidemi	-6457
▁Initial	-6458
▁Meeting	-6459
▁Reports	-6460
▁Similar	-6461
▁Staying	-6462
▁Testing	-6463
▁Through	-6464
▁Waiting	-6465
▁Washing	-6466
▁accused	-6467
▁adopted	-6468
▁alleged	-6469
▁alpacas	-6470
▁attacks	-6471
▁avoided	-6472
▁banning	-6473
▁believe	-6474
▁binding	-6475
▁cabinet	-6476
▁cardiac	-6477
▁cinemas	-6478
▁cleared	-6479
▁clinics	-6480
▁consist	-6481
▁context	-6482
▁counter	-6483
▁critics	-6484
▁crossed	-6485
▁culture	-6486
▁damaged	-6487
▁decides	-6488
▁defined	-6489
▁denmark	-6490
▁descent	-6491
▁donated	-6492
▁driving	-6493
▁edition	-6494
▁elastic	-6495
▁encoded	-6496
▁enhance	-6497
▁entered	-6498
▁enteric	-6499
▁exacerb	-6500
▁explore	-6501
▁famines	-6502
▁fatigue	-6503
▁focused	-6504
▁goggles	-6505
▁harbour	-6506
▁hearing	-6507
▁illegal	-6508
▁immunos	-6509
▁indexes	-6510
▁infects	-6511
▁interfe	-6512
▁issuing	-6513
▁janssen	-6514
▁matches	-6515
▁midwife	-6516
▁mothers	-6517
▁muscles	-6518
▁nigeria	-6519
▁pacific	-6520
▁payment	-6521
▁poverty	-6522
▁praised	-6523
▁prayers	-6524
▁rodents	-6525
▁secured	-6526
▁seeking	-6527
▁setting	-6528
▁seventh	-6529
▁shorter	-6530
▁shrines	-6531
▁stomach	-6532
▁stretch	-6533
▁studied	-6534
▁surgery	-6535
▁survive	-6536
▁swiftly	-6537
▁tablets	-6538
▁tickets	-6539
▁touches	-6540
▁traffic	-6541
▁trigger	-6542
▁unclear	-6543
▁unusual	-6544
▁virions	-6545
▁virtual	-6546
▁volunte	-6547
▁wicklow	-6548
▁windows	-6549
▁witness	-6550
aboration	-6551
effective	-6552
incheonji	-6553
isolating	-6554
onuclease	-6555
▁Airborne	-6556
▁Business	-6557
▁Limerick	-6558
▁Measures	-6559
▁Monaghan	-6560
▁Personal	-6561
▁Research	-6562
▁Sneezing	-6563
▁accident	-6564
▁adaptive	-6565
▁africans	-6566
▁alarming	-6567
▁appendix	-6568
▁assessed	-6569
▁attacked	-6570
▁breaches	-6571
▁buttocks	-6572
▁campaign	-6573
▁chemical	-6574
▁counties	-6575
▁creating	-6576
▁deletion	-6577
▁descript	-6578
▁detailed	-6579
▁district	-6580
▁dysfunct	-6581
▁enrolled	-6582
▁entities	-6583
▁evacuate	-6584
▁featured	-6585
▁feelings	-6586
▁football	-6587
▁giuseppe	-6588
▁harmless	-6589
▁indicate	-6590
▁interfer	-6591
▁invasive	-6592
▁managers	-6593
▁mandated	-6594
▁meetings	-6595
▁midwives	-6596
▁modified	-6597
▁mortuary	-6598
▁officers	-6599
▁pakistan	-6600
▁parallel	-6601
▁planning	-6602
▁protease	-6603
▁protects	-6604
▁reducing	-6605
▁referral	-6606
▁register	-6607
▁requires	-6608
▁revealed	-6609
▁schengen	-6610
▁selected	-6611
▁sentence	-6612
▁sentinel	-6613
▁sexually	-6614
▁shenzhen	-6615
▁shutting	-6616
▁stations	-6617
▁stopping	-6618
▁stranded	-6619
▁suddenly	-6620
▁supports	-6621
▁targeted	-6622
▁thailand	-6623
▁thorough	-6624
▁toxicity	-6625
▁trillion	-6626
▁urgently	-6627
▁vehicles	-6628
▁virulent	-6629
▁warnings	-6630
▁worsened	-6631
ifications	-6632
ologically	-6633
vaccinated	-6634
▁Currently	-6635
▁Emergency	-6636
▁Generally	-6637
▁Ibuprofen	-6638
▁Libraries	-6639
▁Mandatory	-6640
▁Reopening	-6641
▁Similarly	-6642
▁alleviate	-6643
▁assessing	-6644
▁bacterial	-6645
▁bolsonaro	-6646
▁brazilian	-6647
▁champions	-6648
▁chartered	-6649
▁cigarette	-6650
▁communist	-6651
▁continent	-6652
▁continues	-6653
▁correctly	-6654
▁decreases	-6655
▁delivered	-6656
▁detergent	-6657
▁discontin	-6658
▁emissions	-6659
▁employers	-6660
▁enveloped	-6661
▁exceeding	-6662
▁explained	-6663
▁extending	-6664
▁galleries	-6665
▁guangzhou	-6666
▁happening	-6667
▁healthily	-6668
▁inclusion	-6669
▁influence	-6670
▁initiated	-6671
▁isolating	-6672
▁localised	-6673
▁lopinavir	-6674
▁messaging	-6675
▁milestone	-6676
▁molecular	-6677
▁molecules	-6678
▁monitored	-6679
▁opacities	-6680
▁operation	-6681
▁passenger	-6682
▁petitions	-6683
▁prescribe	-6684
▁provision	-6685
▁proximity	-6686
▁purchases	-6687
▁reception	-6688
▁recognize	-6689
▁recording	-6690
▁referring	-6691
▁relations	-6692
▁relatives	-6693
▁responded	-6694
▁ritonavir	-6695
▁saturdays	-6696
▁schedules	-6697
▁sovereign	-6698
▁stability	-6699
▁stretched	-6700
▁supported	-6701
▁suspicion	-6702
▁targeting	-6703
▁tipperary	-6704
▁trimester	-6705
▁vaccinate	-6706
▁virtually	-6707
▁yesterday	-6708
precedented	-6709
▁Healthcare	-6710
▁Resumption	-6711
▁Strategies	-6712
▁afterwards	-6713
▁altogether	-6714
▁australian	-6715
▁bangladesh	-6716
▁commercial	-6717
▁complement	-6718
▁constantly	-6719
▁controvers	-6720
▁counseling	-6721
▁dependency	-6722
▁depression	-6723
▁diplomatic	-6724
▁discharged	-6725
▁ecological	-6726
▁evacuation	-6727
▁evaluation	-6728
▁exceptions	-6729
▁foreigners	-6730
▁industrial	-6731
▁inhibition	-6732
▁insecurity	-6733
▁instituted	-6734
▁loneliness	-6735
▁lymphocyte	-6736
▁monoclonal	-6737
▁montenegro	-6738
▁negatively	-6739
▁performing	-6740
▁peripheral	-6741
▁persistent	-6742
▁prohibited	-6743
▁protestors	-6744
▁ransomware	-6745
▁regardless	-6746
▁registered	-6747
▁sequencing	-6748
▁supportive	-6749
▁suspension	-6750
▁systematic	-6751
▁techniques	-6752
▁television	-6753
▁tomography	-6754
▁Dehydration	-6755
▁Furthermore	-6756
▁Suppression	-6757
▁breastcheck	-6758
▁chloroquine	-6759
▁comparisons	-6760
▁conclusions	-6761
▁conferences	-6762
▁departments	-6763
▁differences	-6764
▁discussions	-6765
▁disinfected	-6766
▁distributed	-6767
▁effectively	-6768
▁efficiently	-6769
▁emergencies	-6770
▁enforceable	-6771
▁expenditure	-6772
▁flexibility	-6773
▁genetically	-6774
▁handwashing	-6775
▁ingredients	-6776
▁journalists	-6777
▁methodology	-6778
▁opportunity	-6779
▁overlapping	-6780
▁overwhelmed	-6781
▁performance	-6782
▁radiographs	-6783
▁repatriated	-6784
▁restrictive	-6785
▁segregation	-6786
▁statistical	-6787
▁substantial	-6788
▁surrounding	-6789
▁switzerland	-6790
▁announcement	-6791
▁arrangements	-6792
▁certificates	-6793
▁considerably	-6794
▁coordinating	-6795
▁disinfecting	-6796
▁disinfection	-6797
▁dramatically	-6798
▁hairdressers	-6799
▁indefinitely	-6800
▁intellectual	-6801
▁intelligence	-6802
▁interactions	-6803
▁intervention	-6804
▁pathogenesis	-6805
▁periodically	-6806
▁supermarkets	-6807
orticosteroids	-6808
pharmaceutical	-6809
▁International	-6810
▁collaboration	-6811
▁contamination	-6812
▁contraception	-6813
▁corresponding	-6814
▁manufacturers	-6815
▁opportunities	-6816
▁pathogenicity	-6817
▁prescriptions	-6818
▁pseudonymized	-6819
▁characteristic	-6820
▁communications	-6821
▁investigations	-6822
▁representative	-6823
▁responsibility	-6824
▁seroprevalence	-6825
▁betacoronavirus	-6826
▁epidemiologists	-6827
▁exoribonuclease	-6828
▁gastroenteritis	-6829
):	-6830
.6	-6831
0)	-6832
2%	-6833
2-	-6834
34	-6835
4%	-6836
41	-6837
73	-6838
8.	-6839
82	-6840
85	-6841
89	-6842
98	-6843
bt	-6844
do	-6845
hl	-6846
mh	-6847
.1%	-6848
.2)	-6849
057	-6850
078	-6851
1,8	-6852
1.8	-6853
191	-6854
3,5	-6855
4,8	-6856
5%)	-6857
5,8	-6858
534	-6859
6,8	-6860
63,	-6861
67,	-6862
687	-6863
7,6	-6864
9,3	-6865
9,7	-6866
948	-6867
95%	-6868
abs	-6869
ada	-6870
ady	-6871
ana	-6872
apy	-6873
awn	-6874
azz	-6875
def	-6876
eel	-6877
elt	-6878
ero	-6879
fam	-6880
fat	-6881
gev	-6882
gin	-6883
hig	-6884
hoe	-6885
hsa	-6886
hyl	-6887
icu	-6888
iet	-6889
iff	-6890
igs	-6891
ino	-6892
inp	-6893
iny	-6894
isf	-6895
lac	-6896
lad	-6897
law	-6898
mal	-6899
sl	-6900
cks	-6901
ibl	-6902
lig	-6903
mas	-6904
men	-6905
nob	-6906
oma	-6907
oni	-6908
orb	-6909
orc	-6910
otr	-6911
ows	-6912
pis	-6913
ply	-6914
pop	-6915
rea	-6916
rec	-6917
rem	-6918
rew	-6919
roc	-6920
row	-6921
sem	-6922
six	-6923
ugh	-6924
unc	-6925
urt	-6926
usc	-6927
uts	-6928
yal	-6929
▁1-	-6930
▁4)	-6931
▁56	-6932
▁6.	-6933
▁78	-6934
▁95	-6935
▁Ac	-6936
▁Ev	-6937
▁Is	-6938
▁Wr	-6939
▁ci	-6940
▁er	-6941
▁ku	-6942
▁li	-6943
▁mr	-6944
▁ni	-6945
▁pu	-6946
▁sl	-6947
▁sr	-6948
▁tu	-6949
▁xi	-6950
▁zo	-6951
,336	-6952
,866	-6953
-2),	-6954
.5%.	-6955
acht	-6956
acon	-6957
acts	-6958
aids	-6959
aism	-6960
alid	-6961
anda	-6962
anka	-6963
apse	-6964
ario	-6965
beit	-6966
copr	-6967
ecca	-6968
ecdc	-6969
econ	-6970
ells	-6971
elve	-6972
flam	-6973
fold	-6974
gets	-6975
ging	-6976
hing	-6977
hips	-6978
host	-6979
ibly	-6980
iced	-6981
icus	-6982
idae	-6983
ikes	-6984
imir	-6985
indu	-6986
itar	-6987
iter	-6988
know	-6989
lasm	-6990
morr	-6991
ocol	-6992
olio	-6993
ovir	-6994
ower	-6995
sess	-6996
tery	-6997
test	-6998
tive	-6999
-17	-7000
aba	-7001
eps	-7002
imp	-7003
nia	-7004
wet	-7005
▁".	-7006
▁3%	-7007
▁5%	-7008
▁Ma	-7009
▁cz	-7010
▁tv	-7011
asti	-7012
mult	-7013
olia	-7014
sell	-7015
took	-7016
tral	-7017
ttes	-7018
ubai	-7019
ucia	-7020
ufen	-7021
umes	-7022
uous	-7023
upro	-7024
uris	-7025
vert	-7026
view	-7027
west	-7028
ymme	-7029
▁(13	-7030
▁0.2	-7031
▁1,2	-7032
▁1.1	-7033
▁1.7	-7034
▁10-	-7035
▁10.	-7036
▁2.4	-7037
▁3,3	-7038
▁31.	-7039
▁358	-7040
▁5.7	-7041
▁69,	-7042
▁Bat	-7043
▁Bet	-7044
▁Buy	-7045
▁Cdc	-7046
▁Col	-7047
▁Cre	-7048
▁Exp	-7049
▁Fer	-7050
▁Inc	-7051
▁Ing	-7052
▁Int	-7053
▁May	-7054
▁Nas	-7055
▁Off	-7056
▁Ser	-7057
▁Sus	-7058
▁Vol	-7059
▁asp	-7060
▁atl	-7061
▁ble	-7062
▁bor	-7063
▁bub	-7064
▁bup	-7065
▁cmr	-7066
▁cnn	-7067
▁dip	-7068
▁dos	-7069
▁dow	-7070
▁ema	-7071
▁emp	-7072
▁err	-7073
▁eti	-7074
▁fly	-7075
▁hon	-7076
▁hsa	-7077
▁ide	-7078
▁ifr	-7079
▁igg	-7080
▁igm	-7081
▁ios	-7082
▁ken	-7083
▁kid	-7084
▁lao	-7085
▁lik	-7086
▁liv	-7087
▁mix	-7088
▁mos	-7089
▁opp	-7090
▁ped	-7091
▁pps	-7092
▁pup	-7093
▁rig	-7094
▁sac	-7095
▁say	-7096
▁sil	-7097
▁spe	-7098
▁spl	-7099
108	-7100
576	-7101
ivo	-7102
▁72	-7103
▁8:	-7104
arct	-7105
ette	-7106
free	-7107
gins	-7108
ipro	-7109
nees	-7110
oked	-7111
pack	-7112
teen	-7113
ucid	-7114
▁2,2	-7115
▁lav	-7116
▁sri	-7117
▁tob	-7118
▁wen	-7119
▁yes	-7120
aflet	-7121
allow	-7122
althy	-7123
ancet	-7124
anger	-7125
annel	-7126
anted	-7127
apsed	-7128
asing	-7129
astle	-7130
aysia	-7131
bania	-7132
banon	-7133
borns	-7134
bride	-7135
china	-7136
eadow	-7137
easef	-7138
effic	-7139
elfen	-7140
emned	-7141
enced	-7142
ender	-7143
enous	-7144
ensin	-7145
eptid	-7146
ergic	-7147
eshoe	-7148
eters	-7149
forts	-7150
gence	-7151
gment	-7152
hange	-7153
hoids	-7154
lates	-7155
meath	-7156
newed	-7157
ogene	-7158
ollen	-7159
oloph	-7160
opine	-7161
orbid	-7162
oreal	-7163
ought	-7164
ountr	-7165
point	-7166
pport	-7167
raine	-7168
razil	-7169
rosyn	-7170
tarol	-7171
uleve	-7172
undry	-7173
using	-7174
utely	-7175
▁(6.5	-7176
▁(95%	-7177
▁0.1%	-7178
▁10%.	-7179
▁1860	-7180
▁1890	-7181
▁1918	-7182
▁1968	-7183
▁2004	-7184
▁2010	-7185
▁238,	-7186
▁240,	-7187
▁242,	-7188
▁251,	-7189
▁3.89	-7190
▁4,13	-7191
▁4,58	-7192
▁6.30	-7193
▁Also	-7194
▁Bend	-7195
▁Case	-7196
▁Caus	-7197
▁Conc	-7198
▁Disp	-7199
8%	-7200
cep	-7201
scr	-7202
suf	-7203
▁94	-7204
iece	-7205
ilty	-7206
inda	-7207
roid	-7208
ugal	-7209
ugel	-7210
▁14%	-7211
▁15%	-7212
▁18,	-7213
▁19,	-7214
▁23,	-7215
▁Age	-7216
▁Pro	-7217
▁Rna	-7218
▁Var	-7219
▁dna	-7220
▁ple	-7221
ausea	-7222
azard	-7223
glass	-7224
icles	-7225
ixian	-7226
unged	-7227
while	-7228
▁221,	-7229
▁231,	-7230
▁243,	-7231
▁247,	-7232
▁Both	-7233
▁Does	-7234
▁Done	-7235
▁Down	-7236
▁Food	-7237
▁Head	-7238
▁Live	-7239
▁Mill	-7240
▁Mrna	-7241
▁Prov	-7242
▁Pubs	-7243
▁Rcgp	-7244
▁Rest	-7245
▁Safe	-7246
▁Side	-7247
▁Sing	-7248
▁Sore	-7249
▁Sour	-7250
▁Text	-7251
▁Tour	-7252
▁Walk	-7253
▁acts	-7254
▁aids	-7255
▁aldi	-7256
▁anth	-7257
▁ards	-7258
▁bend	-7259
▁bent	-7260
▁bona	-7261
▁born	-7262
▁bulb	-7263
▁cast	-7264
▁cata	-7265
▁chem	-7266
▁club	-7267
▁colm	-7268
▁copd	-7269
▁copy	-7270
▁core	-7271
▁crew	-7272
▁deaf	-7273
▁doll	-7274
▁ease	-7275
▁emot	-7276
▁encl	-7277
▁epic	-7278
▁ever	-7279
▁exit	-7280
▁fake	-7281
▁fash	-7282
▁flat	-7283
▁fort	-7284
▁gang	-7285
▁gave	-7286
▁gift	-7287
▁golf	-7288
▁grip	-7289
▁hips	-7290
▁hors	-7291
▁ifrs	-7292
▁itin	-7293
▁jazz	-7294
▁jian	-7295
▁jinp	-7296
▁jose	-7297
▁kids	-7298
▁kiss	-7299
mony	-7300
▁2,8	-7301
▁labs	-7302
▁land	-7303
▁legs	-7304
▁lots	-7305
▁loud	-7306
▁lrti	-7307
▁mayo	-7308
▁mood	-7309
▁mour	-7310
▁note	-7311
▁oral	-7312
▁pace	-7313
▁page	-7314
▁pair	-7315
▁palm	-7316
▁pict	-7317
▁prec	-7318
▁qual	-7319
▁rail	-7320
▁rbds	-7321
▁rich	-7322
▁riot	-7323
▁scam	-7324
▁seem	-7325
▁shan	-7326
▁shop	-7327
▁spat	-7328
▁spor	-7329
▁stad	-7330
▁stem	-7331
▁subd	-7332
▁subm	-7333
▁suic	-7334
▁tame	-7335
▁tens	-7336
▁tiny	-7337
▁trip	-7338
▁ultr	-7339
▁vast	-7340
▁vivo	-7341
▁vlad	-7342
▁wage	-7343
▁warr	-7344
▁wish	-7345
▁yoga	-7346
▁zhou	-7347
00,000	-7348
amples	-7349
aneous	-7350
ansfer	-7351
atever	-7352
athing	-7353
batcov	-7354
boards	-7355
caused	-7356
conded	-7357
county	-7358
during	-7359
ensing	-7360
erties	-7361
ferent	-7362
friend	-7363
gering	-7364
hering	-7365
hylact	-7366
ickens	-7367
igions	-7368
iguing	-7369
iridae	-7370
irinae	-7371
isters	-7372
itiser	-7373
lector	-7374
lowing	-7375
merman	-7376
nsaids	-7377
ologic	-7378
openia	-7379
oplasm	-7380
oppers	-7381
orcine	-7382
orkers	-7383
orknob	-7384
orpain	-7385
oteins	-7386
otypes	-7387
partum	-7388
phones	-7389
renton	-7390
ricult	-7391
series	-7392
social	-7393
ubator	-7394
ulance	-7395
umably	-7396
urizer	-7397
usable	-7398
ussell	-7399
▁2008,	-7400
▁2019-	-7401
▁3,000	-7402
▁4,534	-7403
▁4,906	-7404
▁4,921	-7405
▁8,000	-7406
▁8,866	-7407
▁Acute	-7408
▁Appro	-7409
▁Chest	-7410
▁Chief	-7411
▁Conta	-7412
▁Death	-7413
▁Given	-7414
▁Immun	-7415
▁Itchy	-7416
▁Labor	-7417
▁Masks	-7418
▁Phone	-7419
▁Pneum	-7420
▁Prior	-7421
▁Rapid	-7422
▁Small	-7423
▁Stret	-7424
▁Their	-7425
▁Think	-7426
▁Throw	-7427
▁Write	-7428
▁aband	-7429
▁abdom	-7430
▁abuse	-7431
▁adopt	-7432
▁adult	-7433
▁advil	-7434
▁ances	-7435
▁birds	-7436
▁built	-7437
▁buses	-7438
▁cafes	-7439
▁cards	-7440
▁cared	-7441
▁categ	-7442
▁choir	-7443
▁click	-7444
▁clots	-7445
▁coded	-7446
▁coinc	-7447
▁coles	-7448
▁color	-7449
▁compr	-7450
▁crude	-7451
▁cycle	-7452
▁czech	-7453
▁diclo	-7454
▁drawn	-7455
▁email	-7456
▁enjoy	-7457
▁etiqu	-7458
▁evict	-7459
▁faces	-7460
▁farms	-7461
▁fined	-7462
▁fixed	-7463
▁gaelt	-7464
▁gates	-7465
▁gathe	-7466
▁gowns	-7467
▁grand	-7468
▁grass	-7469
▁grief	-7470
▁hence	-7471
▁henry	-7472
▁hoard	-7473
▁humid	-7474
▁hypox	-7475
▁incur	-7476
▁initi	-7477
▁input	-7478
▁insuf	-7479
▁jesus	-7480
▁juris	-7481
▁juven	-7482
▁kilob	-7483
▁knees	-7484
▁lanka	-7485
▁lasts	-7486
▁latex	-7487
▁legal	-7488
▁lists	-7489
▁loose	-7490
▁lucia	-7491
▁maybe	-7492
▁meant	-7493
▁mecca	-7494
▁metab	-7495
▁mount	-7496
▁mrnas	-7497
▁niche	-7498
▁obese	-7499
▁obste	-7500
▁overs	-7501
▁paris	-7502
▁peers	-7503
▁price	-7504
▁putin	-7505
▁quite	-7506
▁radio	-7507
▁raise	-7508
▁reach	-7509
▁resid	-7510
▁reven	-7511
▁royal	-7512
▁saint	-7513
▁salon	-7514
▁scare	-7515
▁seoul	-7516
▁solar	-7517
▁sound	-7518
▁speed	-7519
▁spice	-7520
▁steel	-7521
▁super	-7522
▁teams	-7523
▁tears	-7524
▁texas	-7525
▁theme	-7526
▁topic	-7527
▁tours	-7528
▁trips	-7529
▁undet	-7530
▁value	-7531
▁wider	-7532
▁wings	-7533
▁words	-7534
▁wrong	-7535
amental	-7536
arctica	-7537
assador	-7538
aurants	-7539
avenous	-7540
clusive	-7541
covered	-7542
esterol	-7543
figures	-7544
gentina	-7545
highest	-7546
inantly	-7547
induced	-7548
induism	-7549
iprofen	-7550
ishment	-7551
itarian	-7552
itivity	-7553
january	-7554
ministr	-7555
olences	-7556
olophus	-7557
ongolia	-7558
ormonal	-7559
osition	-7560
ositive	-7561
ospital	-7562
pective	-7563
primary	-7564
reading	-7565
redient	-7566
rencing	-7567
ruption	-7568
support	-7569
through	-7570
trician	-7571
undreds	-7572
uppress	-7573
vaccine	-7574
venient	-7575
wearing	-7576
▁80,000	-7577
▁97,000	-7578
▁Adhere	-7579
▁Anyone	-7580
▁Brazil	-7581
▁Canada	-7582
▁Carlow	-7583
▁Castle	-7584
▁Change	-7585
▁Countr	-7586
▁Create	-7587
▁Deputy	-7588
▁Ensure	-7589
▁Ferret	-7590
▁Indeed	-7591
▁Living	-7592
▁Meadow	-7593
▁Nearly	-7594
▁Please	-7595
▁Random	-7596
▁Reduce	-7597
▁Resear	-7598
▁Safety	-7599
▁Severe	-7600
▁Taiwan	-7601
▁Unlike	-7602
▁Ventil	-7603
▁abbott	-7604
▁aboard	-7605
▁acknow	-7606
▁aggreg	-7607
▁analys	-7608
▁angiot	-7609
▁answer	-7610
▁aspect	-7611
▁asymme	-7612
▁autism	-7613
▁behave	-7614
▁bottle	-7615
▁breaks	-7616
▁brufen	-7617
▁brupro	-7618
▁buplex	-7619
▁cancel	-7620
▁castle	-7621
▁ceasef	-7622
▁checks	-7623
▁cheese	-7624
▁compli	-7625
▁consec	-7626
▁corona	-7627
▁curfew	-7628
▁dental	-7629
▁deputy	-7630
▁devast	-7631
▁diclac	-7632
▁difene	-7633
▁dissem	-7634
▁driver	-7635
▁elucid	-7636
▁embass	-7637
▁encode	-7638
▁eradic	-7639
▁exists	-7640
▁feline	-7641
▁fevers	-7642
▁filter	-7643
▁fitted	-7644
▁formed	-7645
▁genera	-7646
▁guests	-7647
▁guilty	-7648
▁harder	-7649
▁hunger	-7650
▁ibugel	-7651
▁ignore	-7652
▁infant	-7653
▁insert	-7654
▁integr	-7655
▁jixian	-7656
▁kuwait	-7657
▁lancet	-7658
▁limits	-7659
▁liquid	-7660
▁livest	-7661
▁mammal	-7662
▁marked	-7663
▁medics	-7664
▁medina	-7665
▁melfen	-7666
▁milder	-7667
▁minute	-7668
▁mouths	-7669
▁murine	-7670
▁nausea	-7671
▁papers	-7672
▁parade	-7673
▁physic	-7674
▁pieces	-7675
▁planet	-7676
▁predom	-7677
▁produc	-7678
▁propag	-7679
▁pupils	-7680
▁ranged	-7681
▁resusc	-7682
▁reveal	-7683
▁satisf	-7684
▁seemed	-7685
▁sentim	-7686
▁septic	-7687
▁serves	-7688
▁signal	-7689
▁simple	-7690
▁simply	-7691
▁spikes	-7692
▁strand	-7693
▁strike	-7694
▁stroke	-7695
▁suffic	-7696
▁superi	-7697
▁sweden	-7698
▁theory	-7699
▁timing	-7700
▁transp	-7701
▁twelve	-7702
▁vessel	-7703
▁washed	-7704
approved	-7705
catering	-7706
changing	-7707
clinical	-7708
counting	-7709
dictions	-7710
eachment	-7711
entioned	-7712
epending	-7713
eptidase	-7714
february	-7715
friendly	-7716
idential	-7717
invasive	-7718
ividuals	-7719
izziness	-7720
missible	-7721
ocytosis	-7722
ognitive	-7723
orporeal	-7724
otherapy	-7725
oviruses	-7726
pregnant	-7727
reaching	-7728
reactive	-7729
stricken	-7730
tinguish	-7731
▁Cinemas	-7732
▁Details	-7733
▁Develop	-7734
▁Donegal	-7735
▁Figures	-7736
▁Measles	-7737
▁Museums	-7738
▁Notably	-7739
▁Partial	-7740
▁Results	-7741
▁Sharing	-7742
▁Someone	-7743
▁Storing	-7744
▁Support	-7745
▁Univers	-7746
▁Vaccine	-7747
▁Various	-7748
▁affairs	-7749
▁aminotr	-7750
▁android	-7751
▁appears	-7752
▁article	-7753
▁artists	-7754
▁barbers	-7755
▁bilater	-7756
▁blocked	-7757
▁booking	-7758
▁broader	-7759
▁capture	-7760
▁carrier	-7761
▁caution	-7762
▁choices	-7763
▁clarify	-7764
▁climate	-7765
▁closest	-7766
▁compuls	-7767
▁consent	-7768
▁consequ	-7769
▁convers	-7770
▁cornell	-7771
▁crucial	-7772
▁dealing	-7773
▁decades	-7774
▁defence	-7775
▁defense	-7776
▁designs	-7777
▁discour	-7778
▁dispers	-7779
▁dollars	-7780
▁doubled	-7781
▁dynamic	-7782
▁easofen	-7783
▁enacted	-7784
▁evening	-7785
▁exactly	-7786
▁existed	-7787
▁factory	-7788
▁fallout	-7789
▁fashion	-7790
▁feeding	-7791
▁ferrets	-7792
▁filling	-7793
▁flector	-7794
▁gardens	-7795
▁georgia	-7796
▁glycopr	-7797
▁grounds	-7798
▁helpful	-7799
▁hostels	-7800
▁housing	-7801
▁hungary	-7802
▁ibuleve	-7803
▁identif	-7804
▁impacts	-7805
▁inactiv	-7806
▁inhaled	-7807
▁insight	-7808
▁interim	-7809
▁jinping	-7810
▁journey	-7811
▁judaism	-7812
▁koreans	-7813
▁leaders	-7814
▁leaflet	-7815
▁lebanon	-7816
▁letters	-7817
▁locally	-7818
▁looking	-7819
▁lowered	-7820
▁machine	-7821
▁mcbride	-7822
▁minimum	-7823
▁nothing	-7824
▁offices	-7825
▁onboard	-7826
▁passing	-7827
▁pattern	-7828
▁perfect	-7829
▁periods	-7830
▁persian	-7831
▁plunged	-7832
▁premier	-7833
▁proceed	-7834
▁proport	-7835
▁publish	-7836
▁purpose	-7837
▁radical	-7838
▁raising	-7839
▁readily	-7840
▁renewed	-7841
▁replace	-7842
▁revised	-7843
▁rollout	-7844
▁rubbing	-7845
▁rumours	-7846
▁running	-7847
▁schemes	-7848
▁science	-7849
▁selling	-7850
▁servers	-7851
▁sharply	-7852
▁slowing	-7853
▁smokers	-7854
▁spanish	-7855
▁stating	-7856
▁targets	-7857
▁teacher	-7858
▁tightly	-7859
▁tissues	-7860
▁tourist	-7861
▁trenton	-7862
▁ukraine	-7863
▁vehicle	-7864
▁violent	-7865
▁visible	-7866
▁weights	-7867
▁western	-7868
▁worries	-7869
▁written	-7870
ansferase	-7871
evolution	-7872
iplomatic	-7873
lementary	-7874
morrhoids	-7875
ochemical	-7876
structive	-7877
suspected	-7878
veillance	-7879
▁Antibody	-7880
▁Cleaning	-7881
▁Diabetes	-7882
▁Diarrhea	-7883
▁Download	-7884
▁Epidemic	-7885
▁European	-7886
▁Headache	-7887
▁Hospital	-7888
▁Hundreds	-7889
▁Immunity	-7890
▁Naprosyn	-7891
▁Outbreak	-7892
▁Physical	-7893
▁Pregnant	-7894
▁Thailand	-7895
▁Visiting	-7896
▁Voltarol	-7897
▁abnormal	-7898
▁adapting	-7899
▁admitted	-7900
▁affinity	-7901
▁agricult	-7902
▁allergic	-7903
▁analysts	-7904
▁appealed	-7905
▁applying	-7906
▁assembly	-7907
▁attitude	-7908
▁bathroom	-7909
▁becoming	-7910
▁calendar	-7911
▁capsules	-7912
▁carriers	-7913
▁cataflam	-7914
▁ceremony	-7915
▁checking	-7916
▁chickens	-7917
▁conclude	-7918
▁conjunct	-7919
▁consists	-7920
▁declares	-7921
▁declined	-7922
▁detained	-7923
▁	-7924
e	-7925
t	-7926
a	-7927
o	-7928
i	-7929
n	-7930
s	-7931
r	-7932
h	-7933
c	-7934
d	-7935
l	-7936
u	-7937
m	-7938
p	-7939
f	-7940
y	-7941
g	-7942
v	-7943
w	-7944
b	-7945
.	-7946
,	-7947
k	-7948
-	-7949
1	-7950
2	-7951
0	-7952
9	-7953
T	-7954
I	-7955
x	-7956
3	-7957
4	-7958
A	-7959
5	-7960
)	-7961
(	-7962
z	-7963
j	-7964
6	-7965
8	-7966
7	-7967
S	-7968
q	-7969
C	-7970
'	-7971
"	-7972
O	-7973
W	-7974
:	-7975
Y	-7976
D	-7977
P	-7978
M	-7979
H	-7980
%	-7981
B	-7982
F	-7983
R	-7984
E	-7985
/	-7986
;	-7987
L	-7988
N	-7989
–	-7990
G	-7991
U	-7992
V	-7993
?	-7994
’	-7995
í	-7996
