<pad>	0
</s>	0
<unk>	0
▁¦	-0
▁𐋇	-1
▁,	-2
st	-3
ho	-4
▁.	-5
je	-6
po	-7
ne	-8
li	-9
ch	-10
te	-11
na	-12
se	-13
ro	-14
ov	-15
ní	-16
by	-17
ou	-18
ra	-19
to	-20
al	-21
ak	-22
ře	-23
ti	-24
ni	-25
sv	-26
de	-27
še	-28
do	-29
le	-30
di	-31
že	-32
ně	-33
ce	-34
bo	-35
la	-36
mu	-37
ři	-38
ji	-39
sk	-40
mi	-41
za	-42
kte	-43
rá	-44
ří	-45
▁:	-46
pro	-47
ze	-48
bu	-49
ve	-50
ko	-51
ého	-52
no	-53
od	-54
vy	-55
spo	-56
ví	-57
lo	-58
me	-59
hospo	-60
hospodi	-61
ná	-62
vi	-63
sl	-64
mě	-65
vá	-66
ka	-67
dy	-68
při	-69
jí	-70
vě	-71
jest	-72
dě	-73
či	-74
sy	-75
vše	-76
va	-77
ých	-78
hospodin	-79
ob	-80
ma	-81
jeho	-82
tě	-83
da	-84
▁;	-85
ru	-86
sta	-87
kter	-88
mo	-89
aby	-90
tak	-91
pak	-92
pře	-93
du	-94
be	-95
bude	-96
js	-97
vo	-98
ží	-99
pra	-100
ci	-101
syn	-102
nebo	-103
ta	-104
jak	-105
sti	-106
sem	-107
če	-108
řek	-109
ku	-110
krá	-111
tí	-112
lu	-113
pa	-114
ži	-115
tv	-116
jsem	-117
dí	-118
ova	-119
ky	-120
ale	-121
▁?	-122
el	-123
kdy	-124
cí	-125
své	-126
ha	-127
né	-128
lé	-129
nu	-130
ým	-131
jich	-132
byl	-133
řekl	-134
ši	-135
ší	-136
iz	-137
dá	-138
když	-139
ty	-140
sa	-141
ovi	-142
ny	-143
ové	-144
cho	-145
roz	-146
jako	-147
před	-148
izra	-149
obě	-150
který	-151
všec	-152
má	-153
kterýž	-154
sí	-155
kteří	-156
ný	-157
mí	-158
mé	-159
já	-160
lá	-161
lov	-162
ká	-163
jejich	-164
ste	-165
kteříž	-166
co	-167
lí	-168
dou	-169
zá	-170
ůj	-171
ům	-172
izrael	-173
zal	-174
il	-175
tu	-176
éž	-177
den	-178
tedy	-179
jsou	-180
bě	-181
proto	-182
pá	-183
nou	-184
mlu	-185
dl	-186
bra	-187
kdo	-188
ten	-189
slu	-190
mne	-191
uči	-192
ani	-193
ské	-194
ke	-195
dce	-196
svého	-197
ství	-198
stu	-199
toho	-200
děl	-201
cha	-202
ry	-203
tá	-204
ním	-205
hla	-206
tr	-207
pe	-208
šel	-209
proti	-210
bů	-211
pří	-212
rou	-213
zi	-214
sto	-215
pu	-216
sá	-217
jo	-218
ri	-219
on	-220
dob	-221
kteréž	-222
jsi	-223
jim	-224
nad	-225
bi	-226
pod	-227
bůh	-228
ot	-229
jemu	-230
země	-231
kou	-232
mno	-233
žíš	-234
také	-235
budou	-236
až	-237
re	-238
zemi	-239
stá	-240
hu	-241
dne	-242
jed	-243
vil	-244
lid	-245
protož	-246
áš	-247
nil	-248
ště	-249
byli	-250
ného	-251
praví	-252
což	-253
dal	-254
sly	-255
sr	-256
svě	-257
tobě	-258
té	-259
pr	-260
su	-261
si	-262
mou	-263
tom	-264
vám	-265
alo	-266
jej	-267
ští	-268
pě	-269
kaž	-270
tvé	-271
izraelsk	-272
lik	-273
vý	-274
král	-275
stí	-276
aj	-277
ník	-278
zí	-279
bylo	-280
dli	-281
ba	-282
sou	-283
žeb	-284
he	-285
služeb	-286
odpo	-287
vu	-288
poko	-289
pí	-290
davi	-291
nov	-292
svou	-293
chá	-294
bý	-295
domu	-296
hl	-297
my	-298
každ	-299
žá	-300
kni	-301
boha	-302
zd	-303
hle	-304
val	-305
jmé	-306
svých	-307
ju	-308
boží	-309
jte	-310
čí	-311
sva	-312
něm	-313
tvá	-314
dali	-315
vás	-316
všech	-317
ja	-318
vé	-319
koli	-320
dil	-321
synové	-322
kně	-323
vz	-324
david	-325
ovo	-326
šli	-327
synů	-328
sobě	-329
sm	-330
lově	-331
obět	-332
ův	-333
ráž	-334
člově	-335
vši	-336
stou	-337
vod	-338
stě	-339
so	-340
ných	-341
pl	-342
mezi	-343
zu	-344
lou	-345
nem	-346
vedl	-347
stře	-348
fa	-349
lidu	-350
muž	-351
mně	-352
ly	-353
jste	-354
spra	-355
tří	-356
oval	-357
všecky	-358
che	-359
pů	-360
zná	-361
stří	-362
pi	-363
neb	-364
náro	-365
těch	-366
moj	-367
syna	-368
bez	-369
jící	-370
zalé	-371
můj	-372
vr	-373
nej	-374
sté	-375
jeru	-376
jeruzalé	-377
chu	-378
ckni	-379
všickni	-380
ovati	-381
eg	-382
mluvil	-383
ča	-384
hro	-385
ct	-386
ými	-387
skr	-388
hospodinu	-389
králov	-390
sil	-391
dva	-392
krále	-393
bá	-394
ských	-395
oči	-396
vrá	-397
um	-398
byla	-399
nich	-400
kteráž	-401
sed	-402
aniž	-403
bou	-404
yp	-405
hy	-406
žád	-407
ského	-408
sla	-409
kra	-410
egyp	-411
slou	-412
řka	-413
její	-414
kdož	-415
všecko	-416
jeden	-417
velik	-418
mojžíš	-419
lení	-420
jsme	-421
tři	-422
nost	-423
skrze	-424
jud	-425
stra	-426
nás	-427
bí	-428
nebude	-429
jde	-430
srdce	-431
vš	-432
potom	-433
kní	-434
ruh	-435
jedno	-436
není	-437
kla	-438
jisté	-439
kázal	-440
odpově	-441
proro	-442
vů	-443
zů	-444
zna	-445
hospodina	-446
služební	-447
zajisté	-448
hří	-449
budu	-450
tam	-451
ků	-452
nebe	-453
kr	-454
něho	-455
stalo	-456
zdali	-457
▁(	-458
eli	-459
pou	-460
však	-461
jakž	-462
ježíš	-463
než	-464
tvůj	-465
nech	-466
učinil	-467
sedm	-468
nosti	-469
an	-470
dž	-471
jen	-472
ský	-473
milo	-474
chi	-475
cháze	-476
tel	-477
tek	-478
věci	-479
ode	-480
dům	-481
men	-482
nám	-483
kterou	-484
ovali	-485
pět	-486
měl	-487
tebe	-488
svým	-489
kri	-490
jíce	-491
usta	-492
tře	-493
tý	-494
jméno	-495
há	-496
svému	-497
nepo	-498
živo	-499
ctví	-500
otce	-501
více	-502
již	-503
města	-504
druh	-505
nyní	-506
kterouž	-507
ať	-508
zla	-509
tisí	-510
každý	-511
ová	-512
hospodinov	-513
prostře	-514
řá	-515
sli	-516
ců	-517
hně	-518
naše	-519
prav	-520
vali	-521
ele	-522
králi	-523
něj	-524
bratří	-525
prostřed	-526
pal	-527
shro	-528
mod	-529
ote	-530
vedli	-531
budeš	-532
nili	-533
zo	-534
pil	-535
pla	-536
vaše	-537
mého	-538
tím	-539
vol	-540
dr	-541
til	-542
lil	-543
žil	-544
ol	-545
tomu	-546
jestli	-547
jakož	-548
vel	-549
vati	-550
novi	-551
záko	-552
přišel	-553
zl	-554
hne	-555
aneb	-556
dobr	-557
toto	-558
egypt	-559
jestliže	-560
muži	-561
bohu	-562
desá	-563
pusti	-564
dní	-565
pokolení	-566
ská	-567
moc	-568
dědi	-569
řkou	-570
stal	-571
jenž	-572
fi	-573
nů	-574
vsta	-575
ža	-576
uje	-577
abych	-578
bil	-579
oni	-580
zástu	-581
svo	-582
ještě	-583
hou	-584
posl	-585
budete	-586
tvých	-587
takto	-588
máž	-589
sku	-590
čty	-591
shromáž	-592
řel	-593
posta	-594
man	-595
podlé	-596
ným	-597
živ	-598
prá	-599
spa	-600
němu	-601
slovo	-602
tra	-603
vili	-604
nic	-605
ken	-606
vaši	-607
řekli	-608
buď	-609
kem	-610
hr	-611
vra	-612
děla	-613
obrá	-614
tého	-615
všecken	-616
sau	-617
svá	-618
mnou	-619
kníža	-620
poč	-621
oltá	-622
býti	-623
hli	-624
mil	-625
pos	-626
tebou	-627
tku	-628
odpověděl	-629
zem	-630
kde	-631
nale	-632
ruku	-633
navrá	-634
voj	-635
služebník	-636
uče	-637
dění	-638
set	-639
svůj	-640
br	-641
hospodinova	-642
děli	-643
hřích	-644
nepra	-645
nimi	-646
ostří	-647
království	-648
vez	-649
kol	-650
slova	-651
svobo	-652
vší	-653
syny	-654
poš	-655
též	-656
místo	-657
pravím	-658
neu	-659
zdaliž	-660
spravedl	-661
smr	-662
čele	-663
národ	-664
liž	-665
poslal	-666
aro	-667
hospodine	-668
svém	-669
tvého	-670
slá	-671
žel	-672
dili	-673
ruce	-674
bož	-675
pově	-676
tky	-677
spravedli	-678
ješ	-679
zase	-680
zy	-681
brá	-682
cích	-683
vost	-684
pole	-685
abyste	-686
sty	-687
synu	-688
neči	-689
oby	-690
mr	-691
kněží	-692
abys	-693
ga	-694
zdvi	-695
jáko	-696
bydli	-697
let	-698
přá	-699
všecka	-700
izraelský	-701
šť	-702
dceti	-703
skému	-704
muže	-705
měsí	-706
vní	-707
viděl	-708
člověka	-709
áb	-710
▁)	-711
člověk	-712
uz	-713
žeh	-714
panov	-715
synům	-716
oh	-717
sám	-718
tvr	-719
věky	-720
chle	-721
roze	-722
činí	-723
kři	-724
niti	-725
oběti	-726
dem	-727
slyše	-728
tento	-729
dro	-730
áše	-731
slov	-732
žení	-733
pán	-734
čně	-735
fili	-736
zp	-737
lon	-738
neboť	-739
čtyři	-740
vyš	-741
svými	-742
všelik	-743
vadž	-744
duše	-745
star	-746
veli	-747
bezbož	-748
velmi	-749
stro	-750
nice	-751
alá	-752
dej	-753
dlé	-754
jem	-755
požeh	-756
mž	-757
dám	-758
čas	-759
přikázal	-760
izraelských	-761
mých	-762
izraele	-763
sebe	-764
viti	-765
ským	-766
tř	-767
vza	-768
vosti	-769
as	-770
sob	-771
čež	-772
sko	-773
dělal	-774
jednoho	-775
ano	-776
saul	-777
nství	-778
poně	-779
chvá	-780
pome	-781
vají	-782
měli	-783
ozná	-784
které	-785
rukou	-786
im	-787
loval	-788
dvě	-789
šed	-790
jdou	-791
množ	-792
otec	-793
veliké	-794
bývá	-795
vidí	-796
vysvobo	-797
poněvadž	-798
pení	-799
smlou	-800
šle	-801
pokoj	-802
vůkol	-803
mnoh	-804
dědictví	-805
pána	-806
přišli	-807
jíti	-808
níci	-809
vzal	-810
zvě	-811
dělá	-812
izraelští	-813
kdež	-814
stech	-815
vou	-816
abra	-817
baby	-818
domě	-819
žádného	-820
rodi	-821
vody	-822
ložil	-823
nechť	-824
nepřá	-825
stane	-826
doby	-827
ových	-828
pročež	-829
tů	-830
nemo	-831
žíše	-832
stoupi	-833
slyš	-834
jísti	-835
očima	-836
tohoto	-837
slyšel	-838
nác	-839
zlo	-840
bych	-841
stin	-842
sal	-843
šalo	-844
milosr	-845
šalomou	-846
ruky	-847
svět	-848
nce	-849
nim	-850
řkouce	-851
vese	-852
ženy	-853
přiká	-854
kterého	-855
filistin	-856
mor	-857
stý	-858
chom	-859
podob	-860
zápal	-861
hře	-862
leví	-863
napl	-864
proč	-865
chází	-866
zástupů	-867
mojžíšovi	-868
vámi	-869
tru	-870
vím	-871
fara	-872
žena	-873
činil	-874
jdi	-875
těm	-876
tele	-877
nější	-878
učedl	-879
množství	-880
kudž	-881
chli	-882
dobré	-883
vedlé	-884
obyva	-885
brž	-886
nevě	-887
otc	-888
pane	-889
denství	-890
milosrdenství	-891
abi	-892
psá	-893
zlé	-894
mužů	-895
nevy	-896
tiž	-897
ef	-898
plé	-899
syr	-900
hned	-901
noci	-902
ování	-903
hospodinem	-904
ami	-905
dov	-906
iáš	-907
vola	-908
jákob	-909
zdra	-910
žádný	-911
knížata	-912
opět	-913
zplo	-914
tež	-915
hlas	-916
město	-917
posvě	-918
manžel	-919
hor	-920
soud	-921
tisíc	-922
aza	-923
dím	-924
mení	-925
jehož	-926
ab	-927
nal	-928
mar	-929
žili	-930
každého	-931
dnů	-932
kněz	-933
moci	-934
nému	-935
panovník	-936
byly	-937
léta	-938
pakli	-939
umřel	-940
han	-941
moře	-942
ních	-943
rozu	-944
kníže	-945
dé	-946
mů	-947
míti	-948
am	-949
půj	-950
bože	-951
milu	-952
kteréhož	-953
ač	-954
váš	-955
věč	-956
duch	-957
jeruzaléma	-958
kvr	-959
chem	-960
joze	-961
první	-962
přijde	-963
rak	-964
tvo	-965
posle	-966
ustanov	-967
nes	-968
tma	-969
svěde	-970
bys	-971
šla	-972
děti	-973
abraha	-974
blá	-975
všeho	-976
děv	-977
měsíce	-978
života	-979
meče	-980
naši	-981
vání	-982
působ	-983
ge	-984
py	-985
hů	-986
kro	-987
liko	-988
nežli	-989
jeruzalémě	-990
naz	-991
sím	-992
vla	-993
žen	-994
kové	-995
totiž	-996
všeli	-997
obra	-998
řeči	-999
každé	-1000
kristu	-1001
toliko	-1002
tých	-1003
trá	-1004
ven	-1005
vlá	-1006
diti	-1007
dnes	-1008
stán	-1009
zabi	-1010
mnoho	-1011
tvoji	-1012
boj	-1013
nách	-1014
kal	-1015
ska	-1016
tili	-1017
táhl	-1018
ducha	-1019
jeruzalém	-1020
kry	-1021
teh	-1022
řil	-1023
beni	-1024
tělo	-1025
nebylo	-1026
egyptské	-1027
bro	-1028
jal	-1029
lem	-1030
slyší	-1031
ona	-1032
vej	-1033
času	-1034
nul	-1035
srd	-1036
chrá	-1037
hoře	-1038
volal	-1039
hospodinovo	-1040
dla	-1041
hra	-1042
mluví	-1043
dech	-1044
našeho	-1045
pozdvi	-1046
šti	-1047
nové	-1048
mám	-1049
vět	-1050
této	-1051
stavě	-1052
bet	-1053
věc	-1054
otci	-1055
moudro	-1056
prchli	-1057
podle	-1058
spolu	-1059
tváři	-1060
čer	-1061
mají	-1062
vašich	-1063
hej	-1064
lej	-1065
zaní	-1066
tou	-1067
nená	-1068
druhé	-1069
zue	-1070
řeč	-1071
jozue	-1072
stoupil	-1073
eze	-1074
ďte	-1075
slav	-1076
kraji	-1077
krista	-1078
hem	-1079
ješto	-1080
desáte	-1081
služebníci	-1082
dra	-1083
chet	-1084
jozef	-1085
pustil	-1086
mluviti	-1087
svědectví	-1088
příby	-1089
náš	-1090
půl	-1091
šil	-1092
přes	-1093
těla	-1094
us	-1095
čeho	-1096
spase	-1097
dokudž	-1098
poškvr	-1099
kří	-1100
tato	-1101
věcí	-1102
výcho	-1103
ustanove	-1104
vede	-1105
dří	-1106
tem	-1107
tvář	-1108
šení	-1109
díl	-1110
mla	-1111
ního	-1112
rovi	-1113
tvou	-1114
zení	-1115
dcery	-1116
šlechet	-1117
řekla	-1118
hospodinův	-1119
mat	-1120
dobře	-1121
pohle	-1122
zplodil	-1123
shromáždění	-1124
ké	-1125
nese	-1126
prorok	-1127
babylon	-1128
davidovi	-1129
nutí	-1130
otev	-1131
prvo	-1132
všechněm	-1133
cen	-1134
dni	-1135
šest	-1136
smrti	-1137
izraelského	-1138
místě	-1139
příči	-1140
zlého	-1141
▁),	-1142
poha	-1143
pomí	-1144
kterak	-1145
starší	-1146
em	-1147
dar	-1148
acha	-1149
telé	-1150
ježíše	-1151
způsob	-1152
heň	-1153
jor	-1154
lak	-1155
oheň	-1156
seme	-1157
dobro	-1158
přede	-1159
učiní	-1160
poušti	-1161
prosím	-1162
chy	-1163
chová	-1164
jordá	-1165
nepři	-1166
nácte	-1167
efra	-1168
sebou	-1169
svaty	-1170
nešlechet	-1171
izraelským	-1172
zje	-1173
zko	-1174
jménu	-1175
učině	-1176
kre	-1177
ýma	-1178
modli	-1179
národy	-1180
abraham	-1181
kraloval	-1182
ovu	-1183
sky	-1184
táh	-1185
říka	-1186
chiáš	-1187
abychom	-1188
dlo	-1189
klá	-1190
odí	-1191
pánu	-1192
dosti	-1193
vyšší	-1194
nepravost	-1195
měst	-1196
polo	-1197
pol	-1198
služ	-1199
srdci	-1200
obětovati	-1201
nedo	-1202
odě	-1203
duši	-1204
hova	-1205
nání	-1206
veliký	-1207
blí	-1208
rci	-1209
dává	-1210
umře	-1211
anděl	-1212
oha	-1213
vni	-1214
poto	-1215
lidem	-1216
nichž	-1217
puště	-1218
silný	-1219
gá	-1220
dle	-1221
jsa	-1222
nade	-1223
život	-1224
stánku	-1225
hoj	-1226
mal	-1227
zka	-1228
přední	-1229
oko	-1230
zen	-1231
berá	-1232
hory	-1233
mana	-1234
moáb	-1235
otců	-1236
vyšel	-1237
zákona	-1238
ostříha	-1239
všeliké	-1240
doko	-1241
dlí	-1242
tud	-1243
osta	-1244
chodí	-1245
vnitř	-1246
vyhla	-1247
ovy	-1248
bliž	-1249
neza	-1250
vedu	-1251
psáno	-1252
osm	-1253
sví	-1254
cizí	-1255
jazy	-1256
krev	-1257
vého	-1258
hlasu	-1259
třetí	-1260
slí	-1261
prvé	-1262
pustí	-1263
těl	-1264
nými	-1265
pora	-1266
stup	-1267
lek	-1268
němž	-1269
oblí	-1270
robo	-1271
brány	-1272
svaté	-1273
odpoví	-1274
dve	-1275
vně	-1276
amen	-1277
poma	-1278
vyvo	-1279
ústa	-1280
ar	-1281
meč	-1282
ohav	-1283
svěd	-1284
přikázaní	-1285
hal	-1286
ket	-1287
ují	-1288
níků	-1289
nění	-1290
cesty	-1291
loket	-1292
beniami	-1293
nejvyšší	-1294
spravedlnost	-1295
rej	-1296
moji	-1297
nýbrž	-1298
božího	-1299
učinili	-1300
klo	-1301
ždy	-1302
řeče	-1303
hlavu	-1304
hleda	-1305
ačkoli	-1306
učiním	-1307
mohl	-1308
mord	-1309
necha	-1310
slunce	-1311
odtud	-1312
národů	-1313
druhého	-1314
or	-1315
dny	-1316
hlu	-1317
žal	-1318
vyso	-1319
milost	-1320
řkoucí	-1321
nebudeš	-1322
lič	-1323
achi	-1324
mluv	-1325
námi	-1326
pokr	-1327
sama	-1328
městě	-1329
bratra	-1330
straně	-1331
dů	-1332
zpě	-1333
ání	-1334
ňte	-1335
tvým	-1336
smlouvu	-1337
ční	-1338
jiné	-1339
vždy	-1340
mlá	-1341
levít	-1342
nouti	-1343
egypta	-1344
spravedlnosti	-1345
str	-1346
úst	-1347
žeť	-1348
skut	-1349
vení	-1350
deset	-1351
navra	-1352
počal	-1353
dom	-1354
lep	-1355
pan	-1356
údo	-1357
psal	-1358
jména	-1359
pozna	-1360
zůsta	-1361
činiti	-1362
sse	-1363
nadě	-1364
stupu	-1365
šalomoun	-1366
služebníka	-1367
iza	-1368
nez	-1369
▁.)	-1370
jere	-1371
vytr	-1372
bratr	-1373
postavil	-1374
diž	-1375
bláz	-1376
nádob	-1377
kterýžto	-1378
liti	-1379
tech	-1380
vyko	-1381
berán	-1382
bohem	-1383
oltáře	-1384
izraelské	-1385
ám	-1386
mon	-1387
chlé	-1388
trou	-1389
potře	-1390
údolí	-1391
tisíců	-1392
bel	-1393
dře	-1394
neod	-1395
cestě	-1396
ovoce	-1397
spasení	-1398
mem	-1399
mým	-1400
aron	-1401
cizo	-1402
tito	-1403
izraeli	-1404
prvoroze	-1405
níka	-1406
tuto	-1407
jistě	-1408
poslou	-1409
jdě	-1410
smil	-1411
říká	-1412
nalez	-1413
oblíče	-1414
hel	-1415
ole	-1416
vin	-1417
kana	-1418
ruka	-1419
byste	-1420
takov	-1421
všemu	-1422
efraim	-1423
vyvedl	-1424
lů	-1425
hnu	-1426
bral	-1427
nemá	-1428
náše	-1429
sami	-1430
zahy	-1431
faraon	-1432
jeremi	-1433
viděli	-1434
ustanovení	-1435
tre	-1436
dnech	-1437
dříví	-1438
nebyl	-1439
oltář	-1440
pravi	-1441
zlata	-1442
cestou	-1443
roucho	-1444
bé	-1445
jme	-1446
kost	-1447
nohy	-1448
sobo	-1449
volá	-1450
roucha	-1451
udělal	-1452
manasse	-1453
nepravosti	-1454
hospodinovy	-1455
neo	-1456
kazu	-1457
krát	-1458
rách	-1459
samu	-1460
místa	-1461
ustavi	-1462
slyšeli	-1463
mému	-1464
podo	-1465
chléb	-1466
kosti	-1467
mluvy	-1468
vycháze	-1469
zil	-1470
šlo	-1471
bili	-1472
skou	-1473
řili	-1474
ženi	-1475
moudr	-1476
úmluvy	-1477
pouště	-1478
strany	-1479
zůstal	-1480
kterých	-1481
nepřátel	-1482
plá	-1483
pom	-1484
stál	-1485
vydal	-1486
národové	-1487
páně	-1488
upří	-1489
vydá	-1490
skými	-1491
stoli	-1492
jícího	-1493
ben	-1494
riáš	-1495
skry	-1496
cestu	-1497
odšel	-1498
davida	-1499
rodila	-1500
řa	-1501
jona	-1502
náct	-1503
nára	-1504
sili	-1505
všel	-1506
zali	-1507
ností	-1508
půjde	-1509
vstal	-1510
vojska	-1511
kananej	-1512
opa	-1513
galá	-1514
oblak	-1515
stojí	-1516
větší	-1517
fe	-1518
jez	-1519
hroz	-1520
nesl	-1521
vodí	-1522
mečem	-1523
zákon	-1524
čtyřidceti	-1525
hospodinovu	-1526
hlé	-1527
nila	-1528
ohni	-1529
tyto	-1530
galád	-1531
mnozí	-1532
odpla	-1533
tváří	-1534
pravil	-1535
výše	-1536
niž	-1537
věz	-1538
zra	-1539
jících	-1540
ukázal	-1541
▁!	-1542
dáš	-1543
čte	-1544
blou	-1545
cení	-1546
lidé	-1547
nici	-1548
těmi	-1549
zání	-1550
uzdra	-1551
služebníky	-1552
kon	-1553
onť	-1554
toť	-1555
cího	-1556
níky	-1557
žiti	-1558
nesli	-1559
znamení	-1560
stoupili	-1561
zpí	-1562
čet	-1563
hodi	-1564
mění	-1565
vaší	-1566
mluvili	-1567
někteří	-1568
izá	-1569
kru	-1570
pru	-1571
dílo	-1572
mecí	-1573
padl	-1574
ráno	-1575
všem	-1576
budeme	-1577
jsouce	-1578
kristus	-1579
cíti	-1580
dlou	-1581
může	-1582
skop	-1583
výso	-1584
jedna	-1585
klaně	-1586
bydlil	-1587
milosti	-1588
jáť	-1589
lož	-1590
klad	-1591
moři	-1592
víte	-1593
budiž	-1594
něhož	-1595
vejte	-1596
modlit	-1597
bla	-1598
kví	-1599
očí	-1600
spá	-1601
utí	-1602
chce	-1603
poli	-1604
mnohé	-1605
přebý	-1606
zůstá	-1607
odpoči	-1608
pomezí	-1609
rozkázal	-1610
div	-1611
símě	-1612
čeká	-1613
chleba	-1614
jaké	-1615
vším	-1616
naproti	-1617
navrátí	-1618
kterýchž	-1619
porodila	-1620
bor	-1621
cel	-1622
dan	-1623
svr	-1624
daje	-1625
potě	-1626
vala	-1627
ziáš	-1628
jemuž	-1629
ohněm	-1630
králem	-1631
povsta	-1632
činili	-1633
oznámil	-1634
manasses	-1635
ím	-1636
níž	-1637
tně	-1638
ssou	-1639
zhře	-1640
ženu	-1641
dejte	-1642
stráž	-1643
kamení	-1644
přišed	-1645
fí	-1646
jdu	-1647
nav	-1648
těž	-1649
boji	-1650
přísa	-1651
vezme	-1652
národu	-1653
vcháze	-1654
bar	-1655
nec	-1656
noc	-1657
osla	-1658
zemí	-1659
dveří	-1660
jděte	-1661
uvedl	-1662
velikým	-1663
obětoval	-1664
sť	-1665
dáž	-1666
víš	-1667
dost	-1668
krve	-1669
lili	-1670
oble	-1671
petr	-1672
svatý	-1673
samuel	-1674
světlo	-1675
tehdáž	-1676
svatyně	-1677
ustanovi	-1678
izraelskému	-1679
tal	-1680
zav	-1681
ško	-1682
chud	-1683
lidí	-1684
uzře	-1685
vých	-1686
dcíti	-1687
mláden	-1688
otcové	-1689
nebudou	-1690
pad	-1691
tka	-1692
joáb	-1693
juda	-1694
nemů	-1695
poru	-1696
utek	-1697
hledá	-1698
všemi	-1699
čehož	-1700
knížat	-1701
jeremiáš	-1702
třidceti	-1703
učedlníci	-1704
díš	-1705
myš	-1706
zej	-1707
joza	-1708
kame	-1709
věří	-1710
žele	-1711
assyr	-1712
dědičně	-1713
go	-1714
amo	-1715
hod	-1716
uda	-1717
zku	-1718
jali	-1719
píti	-1720
uzří	-1721
dnové	-1722
jedli	-1723
loupe	-1724
tvému	-1725
nikoli	-1726
oltáři	-1727
cožkoli	-1728
kl	-1729
čím	-1730
biti	-1731
maje	-1732
tolik	-1733
všecku	-1734
mrtvých	-1735
moudrost	-1736
prostředku	-1737
bře	-1738
tní	-1739
plak	-1740
šili	-1741
kterémž	-1742
rmou	-1743
mysli	-1744
udělá	-1745
nalezl	-1746
bydliti	-1747
dvanácte	-1748
kli	-1749
máš	-1750
úro	-1751
jedl	-1752
jete	-1753
nebi	-1754
stvo	-1755
vzav	-1756
dcera	-1757
matky	-1758
nadto	-1759
nepří	-1760
odvrá	-1761
zabil	-1762
zlořeče	-1763
očeká	-1764
soudu	-1765
zahan	-1766
roboám	-1767
vidění	-1768
velikou	-1769
navrátil	-1770
prchlivost	-1771
rem	-1772
koho	-1773
pohr	-1774
rozp	-1775
stem	-1776
bydlí	-1777
městí	-1778
táhli	-1779
stoupí	-1780
svatých	-1781
ezechiáš	-1782
izraelem	-1783
spravedlivý	-1784
cím	-1785
jší	-1786
zvu	-1787
žím	-1788
krist	-1789
vzali	-1790
letech	-1791
rozhně	-1792
benství	-1793
bydlili	-1794
proroka	-1795
přicháze	-1796
cky	-1797
ria	-1798
čil	-1799
mele	-1800
tvém	-1801
tehdy	-1802
tosti	-1803
mecítma	-1804
smlouvy	-1805
tolikéž	-1806
služebníků	-1807
nek	-1808
van	-1809
abso	-1810
běda	-1811
drže	-1812
dítě	-1813
jaký	-1814
obře	-1815
prve	-1816
ření	-1817
pocho	-1818
počtu	-1819
pravé	-1820
sláva	-1821
světa	-1822
čiště	-1823
nenávi	-1824
stříbr	-1825
dvadceti	-1826
čeledech	-1827
mej	-1828
tan	-1829
tro	-1830
vyh	-1831
gaba	-1832
horu	-1833
pros	-1834
budeť	-1835
stříbra	-1836
ala	-1837
pta	-1838
zda	-1839
cech	-1840
dvou	-1841
dáno	-1842
jiní	-1843
kali	-1844
nasy	-1845
niáš	-1846
radu	-1847
veče	-1848
kněze	-1849
níkům	-1850
tisíce	-1851
proroku	-1852
nebudete	-1853
podobenství	-1854
fat	-1855
poj	-1856
ptá	-1857
uká	-1858
uši	-1859
vce	-1860
bole	-1861
kadi	-1862
mlad	-1863
mysl	-1864
stav	-1865
tomto	-1866
čeled	-1867
pokoje	-1868
rozmno	-1869
vyprav	-1870
kř	-1871
nit	-1872
ově	-1873
balá	-1874
domí	-1875
jezu	-1876
lodí	-1877
čili	-1878
obětí	-1879
pastý	-1880
rozdě	-1881
vezmi	-1882
vyplé	-1883
přikry	-1884
skutky	-1885
městech	-1886
požehna	-1887
manželku	-1888
ama	-1889
mém	-1890
ném	-1891
trů	-1892
▁,)	-1893
dati	-1894
ovce	-1895
tely	-1896
truh	-1897
bezpe	-1898
kromě	-1899
malič	-1900
slých	-1901
uzřel	-1902
vstav	-1903
zaslí	-1904
jiných	-1905
aronovi	-1906
přivedl	-1907
ada	-1908
tej	-1909
věr	-1910
geli	-1911
trpě	-1912
blaho	-1913
pavel	-1914
přisá	-1915
zname	-1916
desáti	-1917
vající	-1918
blahosla	-1919
judského	-1920
douce	-1921
vejde	-1922
zlato	-1923
přícho	-1924
mojžíše	-1925
pověděl	-1926
lím	-1927
božím	-1928
chana	-1929
hlavy	-1930
anobrž	-1931
chodil	-1932
truhlu	-1933
zástup	-1934
vždycky	-1935
fá	-1936
jím	-1937
kle	-1938
zau	-1939
evan	-1940
lidi	-1941
takž	-1942
utvr	-1943
vína	-1944
poušť	-1945
beniamin	-1946
evangeli	-1947
ezau	-1948
síla	-1949
čist	-1950
slávu	-1951
vrchu	-1952
vojsko	-1953
dobrého	-1954
pravili	-1955
judských	-1956
příbytku	-1957
hospodinově	-1958
ms	-1959
uvr	-1960
cuje	-1961
dale	-1962
fari	-1963
konči	-1964
lepší	-1965
roztr	-1966
dělali	-1967
poslech	-1968
východu	-1969
zachová	-1970
člověčí	-1971
izraelovi	-1972
evangelium	-1973
pís	-1974
tné	-1975
izák	-1976
jedi	-1977
rost	-1978
chtěl	-1979
jedné	-1980
bychom	-1981
hejtma	-1982
lování	-1983
nádoby	-1984
pokoji	-1985
přislu	-1986
králové	-1987
odpovídaje	-1988
ram	-1989
tým	-1990
sion	-1991
snad	-1992
druhý	-1993
farao	-1994
nácti	-1995
stupo	-1996
babylo	-1997
nebesa	-1998
rychle	-1999
čeledi	-2000
přijdou	-2001
svatého	-2002
ustavičně	-2003
oz	-2004
kání	-2005
něco	-2006
čtvr	-2007
židé	-2008
hněvu	-2009
násle	-2010
vyšli	-2011
výbor	-2012
vašeho	-2013
vyvolil	-2014
zůstane	-2015
požehnání	-2016
jezukrista	-2017
bál	-2018
dvé	-2019
bohy	-2020
dají	-2021
něni	-2022
buďte	-2023
okolo	-2024
učení	-2025
mnosti	-2026
převrá	-2027
těchto	-2028
davidův	-2029
levítové	-2030
pev	-2031
uli	-2032
sedí	-2033
vele	-2034
knize	-2035
medle	-2036
zacho	-2037
našich	-2038
stavěl	-2039
obrátil	-2040
stolici	-2041
uslyšel	-2042
sloužiti	-2043
předměstí	-2044
hé	-2045
sé	-2046
▁[	-2047
▁]	-2048
obi	-2049
uži	-2050
vze	-2051
zor	-2052
bení	-2053
ceni	-2054
lože	-2055
sprá	-2056
vida	-2057
cheru	-2058
nesou	-2059
nemůže	-2060
polovi	-2061
skutků	-2062
příčiny	-2063
přichází	-2064
nepřátely	-2065
ber	-2066
leč	-2067
obe	-2068
sní	-2069
zle	-2070
vstá	-2071
víry	-2072
zaja	-2073
zápa	-2074
bráně	-2075
někdo	-2076
táhne	-2077
umění	-2078
vyšed	-2079
navští	-2080
nechať	-2081
služebníku	-2082
bal	-2083
cír	-2084
liť	-2085
zdá	-2086
chodo	-2087
sucho	-2088
žádné	-2089
chrámu	-2090
lovati	-2091
peníze	-2092
samaří	-2093
věcech	-2094
položili	-2095
oblíčejem	-2096
bit	-2097
sen	-2098
hněv	-2099
máme	-2100
vodou	-2101
zemře	-2102
dlouho	-2103
farize	-2104
kaldej	-2105
přišla	-2106
chodono	-2107
náramně	-2108
sedmého	-2109
stříbro	-2110
padesáte	-2111
obětovali	-2112
prchlivosti	-2113
spravedlivého	-2114
ký	-2115
uj	-2116
nabu	-2117
pili	-2118
radě	-2119
titi	-2120
konce	-2121
židov	-2122
vzdělá	-2123
cherubí	-2124
chodili	-2125
miloval	-2126
prvního	-2127
ach	-2128
chý	-2129
seč	-2130
apoš	-2131
dani	-2132
posa	-2133
sklá	-2134
tova	-2135
vaje	-2136
řeky	-2137
knězi	-2138
známo	-2139
apošto	-2140
oznámi	-2141
rozptý	-2142
povolal	-2143
sloužili	-2144
ssoužení	-2145
královské	-2146
nabuchodono	-2147
řů	-2148
lam	-2149
drží	-2150
lotů	-2151
měla	-2152
těle	-2153
vzbu	-2154
zavr	-2155
brali	-2156
kámen	-2157
noční	-2158
pošli	-2159
jménem	-2160
kterým	-2161
miluje	-2162
bratřím	-2163
nebeské	-2164
třetího	-2165
moudrosti	-2166
obyvatele	-2167
obyvatelé	-2168
ustanovil	-2169
odpověděli	-2170
idu	-2171
kam	-2172
teď	-2173
zdi	-2174
zte	-2175
ammo	-2176
nali	-2177
ohně	-2178
pusť	-2179
rame	-2180
víno	-2181
mohou	-2182
půlnoci	-2183
ml	-2184
síň	-2185
dále	-2186
jiný	-2187
jtež	-2188
počá	-2189
stud	-2190
teli	-2191
vuje	-2192
živi	-2193
otcům	-2194
věčné	-2195
hříchy	-2196
navrať	-2197
nových	-2198
pravdě	-2199
pustili	-2200
člověku	-2201
lah	-2202
moř	-2203
pot	-2204
sle	-2205
nuli	-2206
ovým	-2207
poho	-2208
smrt	-2209
síti	-2210
zvlá	-2211
čtyř	-2212
bohat	-2213
obětu	-2214
pokla	-2215
naději	-2216
pozdra	-2217
slyšte	-2218
mnohých	-2219
jákobovi	-2220
kralovati	-2221
odpočinutí	-2222
rů	-2223
klí	-2224
tiv	-2225
změ	-2226
chlu	-2227
dneš	-2228
leží	-2229
lích	-2230
vítr	-2231
počet	-2232
téhož	-2233
idumej	-2234
přestou	-2235
přisluho	-2236
ostříhati	-2237
filistinští	-2238
služebníkům	-2239
vl	-2240
des	-2241
hům	-2242
jda	-2243
uvě	-2244
zan	-2245
zdr	-2246
gali	-2247
krví	-2248
obli	-2249
pořá	-2250
desát	-2251
pokrm	-2252
posla	-2253
amorej	-2254
náctého	-2255
podstav	-2256
učiniti	-2257
nenávidí	-2258
převráce	-2259
hř	-2260
uč	-2261
ana	-2262
dné	-2263
prv	-2264
rov	-2265
ývá	-2266
hlad	-2267
máte	-2268
ocho	-2269
zeni	-2270
širo	-2271
ších	-2272
matka	-2273
stáda	-2274
hovada	-2275
otevře	-2276
viděti	-2277
ammonit	-2278
některé	-2279
přisáhl	-2280
trápení	-2281
kteřížto	-2282
kům	-2283
mot	-2284
zky	-2285
zří	-2286
pahr	-2287
valo	-2288
veno	-2289
vrch	-2290
bohům	-2291
eliáš	-2292
kdyby	-2293
vyjde	-2294
zahla	-2295
bývají	-2296
duchem	-2297
hlasem	-2298
modlil	-2299
tomuto	-2300
ostříhá	-2301
přijíti	-2302
bližního	-2303
příchozí	-2304
posloucha	-2305
přestoupení	-2306
job	-2307
maž	-2308
zpu	-2309
chtě	-2310
loží	-2311
rána	-2312
such	-2313
takť	-2314
žalá	-2315
žíši	-2316
seděl	-2317
uvedu	-2318
vzkří	-2319
učiněn	-2320
přísahou	-2321
faraonovi	-2322
odpověděv	-2323
mý	-2324
noé	-2325
opo	-2326
ple	-2327
jimž	-2328
koru	-2329
novu	-2330
ozna	-2331
síně	-2332
hebro	-2333
naklo	-2334
obyče	-2335
opatr	-2336
pozná	-2337
vešli	-2338
jednou	-2339
jordán	-2340
nebyli	-2341
obrátí	-2342
polední	-2343
nenávisti	-2344
hi	-2345
byť	-2346
smě	-2347
vem	-2348
čka	-2349
cové	-2350
mocí	-2351
sede	-2352
tali	-2353
tila	-2354
vodu	-2355
ňuje	-2356
jichž	-2357
judst	-2358
pilně	-2359
posil	-2360
přijí	-2361
rozko	-2362
rozum	-2363
slávy	-2364
stáli	-2365
večer	-2366
řství	-2367
jiného	-2368
vyzdvi	-2369
kterýmž	-2370
příčinou	-2371
přistoupi	-2372
ok	-2373
čá	-2374
bem	-2375
hot	-2376
kud	-2377
liv	-2378
miž	-2379
otá	-2380
ral	-2381
taj	-2382
zel	-2383
děve	-2384
nalé	-2385
rato	-2386
udat	-2387
vyuč	-2388
čení	-2389
cestá	-2390
dával	-2391
staro	-2392
svýma	-2393
čeledí	-2394
jozafat	-2395
rozpome	-2396
shromaž	-2397
žádosti	-2398
mas	-2399
poz	-2400
uží	-2401
dcer	-2402
hříš	-2403
léví	-2404
maso	-2405
tkem	-2406
zuje	-2407
žalm	-2408
králů	-2409
padli	-2410
strom	-2411
eleaza	-2412
hledal	-2413
horách	-2414
jdouce	-2415
majíce	-2416
očiště	-2417
ratole	-2418
suchou	-2419
nečistý	-2420
obyvatel	-2421
vstoupil	-2422
bův	-2423
lok	-2424
neš	-2425
noh	-2426
von	-2427
zví	-2428
houf	-2429
jeri	-2430
libá	-2431
mědě	-2432
pamě	-2433
slit	-2434
tana	-2435
achab	-2436
měsíc	-2437
vlast	-2438
zmord	-2439
ježíši	-2440
nazval	-2441
nejsou	-2442
olejem	-2443
semene	-2444
skopce	-2445
uděláš	-2446
veselí	-2447
přebývá	-2448
zápalné	-2449
poslední	-2450
všelikou	-2451
požehnaný	-2452
gi	-2453
jan	-2454
nai	-2455
béře	-2456
jaká	-2457
kněž	-2458
leže	-2459
malo	-2460
nati	-2461
palá	-2462
stej	-2463
síly	-2464
tiny	-2465
úzko	-2466
chovi	-2467
pahrb	-2468
polní	-2469
nemohl	-2470
pustím	-2471
veliká	-2472
každému	-2473
národům	-2474
půlnoční	-2475
východní	-2476
přikázání	-2477
gád	-2478
rce	-2479
umy	-2480
dílu	-2481
musí	-2482
dceru	-2483
hrobu	-2484
nechá	-2485
pomoc	-2486
sélah	-2487
proroky	-2488
studnice	-2489
velikého	-2490
zápalnou	-2491
filistinských	-2492
ran	-2493
sbí	-2494
mimo	-2495
mělo	-2496
pose	-2497
učiň	-2498
vený	-2499
věků	-2500
čině	-2501
živé	-2502
oleje	-2503
utekl	-2504
velice	-2505
jordánu	-2506
nemohli	-2507
položil	-2508
pozdvih	-2509
zhřešil	-2510
ďá	-2511
krás	-2512
madi	-2513
meze	-2514
píse	-2515
sest	-2516
živť	-2517
duchu	-2518
jazyk	-2519
mohli	-2520
ostro	-2521
prázd	-2522
rozká	-2523
volka	-2524
vypra	-2525
zlaté	-2526
ďábel	-2527
domích	-2528
oznámí	-2529
spolek	-2530
vajíce	-2531
choditi	-2532
hledali	-2533
myšlení	-2534
pravici	-2535
silného	-2536
jednostej	-2537
ša	-2538
něn	-2539
ono	-2540
umí	-2541
čné	-2542
komu	-2543
náší	-2544
ován	-2545
potu	-2546
počí	-2547
ýval	-2548
řečí	-2549
jednu	-2550
nemoc	-2551
vykou	-2552
zvěst	-2553
nádobí	-2554
strach	-2555
poledne	-2556
souditi	-2557
babylona	-2558
neposlou	-2559
ohavnosti	-2560
všelikého	-2561
mel	-2562
dáti	-2563
kati	-2564
luje	-2565
poní	-2566
doufa	-2567
přive	-2568
stinu	-2569
bethel	-2570
hříchu	-2571
judské	-2572
madian	-2573
nebudu	-2574
pouští	-2575
beránka	-2576
jakožto	-2577
nalezli	-2578
protože	-2579
všeliký	-2580
davidova	-2581
nepřátelé	-2582
pohostinu	-2583
joi	-2584
kup	-2585
nuz	-2586
oba	-2587
rim	-2588
zed	-2589
čem	-2590
bojí	-2591
jetí	-2592
vdov	-2593
cesta	-2594
jitra	-2595
neboj	-2596
nepro	-2597
padne	-2598
socho	-2599
stala	-2600
odešli	-2601
psalms	-2602
raději	-2603
samého	-2604
takové	-2605
abimele	-2606
marnost	-2607
posvěce	-2608
puštění	-2609
jeroboám	-2610
kteréžto	-2611
vespolek	-2612
hý	-2613
jel	-2614
rab	-2615
rad	-2616
sam	-2617
zak	-2618
ách	-2619
éhu	-2620
čky	-2621
hati	-2622
hové	-2623
sime	-2624
ujte	-2625
coval	-2626
dobrý	-2627
domem	-2628
hubil	-2629
odšed	-2630
osvěd	-2631
státi	-2632
vláda	-2633
zboží	-2634
bratru	-2635
jonata	-2636
prozpě	-2637
hledati	-2638
nechtěl	-2639
sstoupil	-2640
všelijak	-2641
dot	-2642
nen	-2643
utr	-2644
vak	-2645
vál	-2646
zro	-2647
bohů	-2648
char	-2649
dama	-2650
hada	-2651
křik	-2652
oddě	-2653
pěti	-2654
skrý	-2655
ster	-2656
sích	-2657
vypl	-2658
vojsk	-2659
vstaň	-2660
dělati	-2661
judský	-2662
přišlo	-2663
radost	-2664
soudil	-2665
uslyše	-2666
vytáhl	-2667
cizozem	-2668
porazil	-2669
vystavěl	-2670
vysvobodil	-2671
cti	-2672
ner	-2673
sve	-2674
zar	-2675
zží	-2676
šťa	-2677
bití	-2678
díla	-2679
hejt	-2680
lena	-2681
plod	-2682
pozo	-2683
řeme	-2684
ženě	-2685
dílem	-2686
kamen	-2687
místu	-2688
neměl	-2689
nepře	-2690
nezná	-2691
přepá	-2692
smrtí	-2693
daniel	-2694
naděje	-2695
večera	-2696
zajetí	-2697
cestách	-2698
hejtman	-2699
ostatek	-2700
poznali	-2701
proroci	-2702
saulovi	-2703
svatyni	-2704
vidouce	-2705
vzdělal	-2706
ostříhal	-2707
ad	-2708
mz	-2709
ali	-2710
ban	-2711
báz	-2712
don	-2713
hoř	-2714
nef	-2715
úře	-2716
pové	-2717
slep	-2718
dostí	-2719
menší	-2720
neníť	-2721
ptact	-2722
zoval	-2723
zpěvá	-2724
kdežto	-2725
volali	-2726
maličko	-2727
zůstali	-2728
bezbožných	-2729
izraelskými	-2730
královského	-2731
hospodinovýma	-2732
ir	-2733
ati	-2734
sna	-2735
vet	-2736
vým	-2737
cest	-2738
jede	-2739
kopí	-2740
koře	-2741
koři	-2742
list	-2743
peně	-2744
tisk	-2745
třil	-2746
anebo	-2747
buďto	-2748
cedro	-2749
darmo	-2750
loktů	-2751
sluší	-2752
vostí	-2753
vztáh	-2754
blízko	-2755
levítů	-2756
obliče	-2757
sichem	-2758
trouby	-2759
vinice	-2760
dokonal	-2761
hledají	-2762
přikazu	-2763
přivedu	-2764
pohanění	-2765
bohatství	-2766
kananejské	-2767
čt	-2768
dně	-2769
gal	-2770
hat	-2771
san	-2772
slo	-2773
zbo	-2774
andě	-2775
bilo	-2776
chal	-2777
hvěz	-2778
hůru	-2779
jéhu	-2780
nada	-2781
nami	-2782
nete	-2783
sluš	-2784
učil	-2785
víme	-2786
víra	-2787
vůle	-2788
říti	-2789
ostat	-2790
posly	-2791
právě	-2792
srdcem	-2793
vyvýše	-2794
zapome	-2795
počátku	-2796
velblou	-2797
zemřeli	-2798
zůstává	-2799
dvadcíti	-2800
dvanácti	-2801
án	-2802
dbá	-2803
lát	-2804
nak	-2805
psa	-2806
ssu	-2807
zeň	-2808
hali	-2809
něna	-2810
rady	-2811
siro	-2812
tové	-2813
všed	-2814
bázan	-2815
doche	-2816
dvěma	-2817
elize	-2818
konec	-2819
nezna	-2820
prach	-2821
promě	-2822
vakrá	-2823
zacha	-2824
chrámě	-2825
dávali	-2826
hříchů	-2827
mající	-2828
poznal	-2829
pravdu	-2830
rozumí	-2831
zlatem	-2832
živého	-2833
bojoval	-2834
lučiště	-2835
nečisto	-2836
proroků	-2837
mardoche	-2838
svatosti	-2839
navrátili	-2840
jeruzalému	-2841
sedmdesáte	-2842
kan	-2843
osí	-2844
tuk	-2845
uji	-2846
buje	-2847
círk	-2848
dary	-2849
izai	-2850
izma	-2851
kamž	-2852
naší	-2853
noha	-2854
pomi	-2855
taže	-2856
vila	-2857
zmoc	-2858
zvuk	-2859
chali	-2860
dvéře	-2861
jisto	-2862
nikdy	-2863
pacho	-2864
posti	-2865
sedmi	-2866
uslyš	-2867
šťast	-2868
absolo	-2869
desíti	-2870
dvakrá	-2871
nejsem	-2872
pokání	-2873
službu	-2874
svatým	-2875
říkají	-2876
krajině	-2877
pochová	-2878
pokojné	-2879
požehnal	-2880
všemohou	-2881
říkajíce	-2882
nejvyššího	-2883
šalomounovi	-2884
babylonského	-2885
nešlechetnost	-2886
hni	-2887
per	-2888
poď	-2889
báli	-2890
dala	-2891
douf	-2892
hání	-2893
sema	-2894
tenť	-2895
volů	-2896
vozy	-2897
zati	-2898
zeno	-2899
ženo	-2900
bojov	-2901
jakou	-2902
otcov	-2903
ováni	-2904
poklo	-2905
slávě	-2906
zahra	-2907
kněžím	-2908
pohany	-2909
volati	-2910
dvakrát	-2911
shromáždil	-2912
jž	-2913
hůl	-2914
kým	-2915
osa	-2916
sně	-2917
vsi	-2918
zde	-2919
žíz	-2920
dána	-2921
málo	-2922
neob	-2923
siti	-2924
strá	-2925
damaš	-2926
mouky	-2927
očišť	-2928
posmě	-2929
práce	-2930
saule	-2931
soudy	-2932
suché	-2933
takže	-2934
totoť	-2935
vraže	-2936
egyptě	-2937
jejího	-2938
nechal	-2939
nečist	-2940
přijal	-2941
sstupu	-2942
zvěstu	-2943
přináše	-2944
výsosti	-2945
manželka	-2946
pozůstal	-2947
poškvrny	-2948
přednímu	-2949
obličejem	-2950
abrahamovi	-2951
bon	-2952
ger	-2953
rok	-2954
domy	-2955
hlou	-2956
lsti	-2957
mera	-2958
mlou	-2959
sádo	-2960
ukři	-2961
vena	-2962
voda	-2963
zena	-2964
zili	-2965
čemž	-2966
jedni	-2967
městu	-2968
popou	-2969
rozpá	-2970
stran	-2971
světě	-2972
uvede	-2973
anděla	-2974
jediné	-2975
našemu	-2976
očistí	-2977
pravdy	-2978
přitáhl	-2979
zevnitř	-2980
ňů	-2981
ata	-2982
sar	-2983
ter	-2984
ude	-2985
šar	-2986
bera	-2987
jámy	-2988
mene	-2989
movi	-2990
spal	-2991
zhou	-2992
zpur	-2993
žila	-2994
chceš	-2995
gabaa	-2996
hlubo	-2997
mužům	-2998
prova	-2999
píseň	-3000
připo	-3001
řečil	-3002
jednom	-3003
moudrý	-3004
povolá	-3005
předce	-3006
přiblí	-3007
uslyší	-3008
zamord	-3009
zákoně	-3010
dobytek	-3011
jejichž	-3012
nebudeť	-3013
slyšeti	-3014
přivedli	-3015
jil	-3016
lat	-3017
lot	-3018
ďáb	-3019
žol	-3020
boje	-3021
kých	-3022
lépe	-3023
olej	-3024
poro	-3025
rova	-3026
zdaž	-3027
četi	-3028
šíří	-3029
betlé	-3030
cizím	-3031
dítky	-3032
oznam	-3033
pojal	-3034
pořád	-3035
práci	-3036
rozsí	-3037
ukřiž	-3038
vyzná	-3039
čiňte	-3040
neftal	-3041
odkudž	-3042
stánek	-3043
druhému	-3044
jednomu	-3045
krajiny	-3046
otevřel	-3047
přivede	-3048
kterážto	-3049
manželky	-3050
příbytek	-3051
shromažď	-3052
babylonský	-3053
učedlníkům	-3054
nabuchodonozor	-3055
dc	-3056
pat	-3057
sce	-3058
zru	-3059
úto	-3060
řku	-3061
doma	-3062
domů	-3063
dové	-3064
hubí	-3065
kmen	-3066
kudy	-3067
nohá	-3068
past	-3069
poku	-3070
ském	-3071
víře	-3072
vůli	-3073
horli	-3074
peněz	-3075
posmí	-3076
ruben	-3077
ující	-3078
vysta	-3079
nebyla	-3080
plakal	-3081
pozoru	-3082
službě	-3083
takový	-3084
trpěli	-3085
žaláře	-3086
žoldné	-3087
zaslíbil	-3088
nepřítele	-3089
ospravedl	-3090
shromáždili	-3091
az	-3092
iť	-3093
dvo	-3094
for	-3095
jav	-3096
lev	-3097
los	-3098
pyš	-3099
rna	-3100
stů	-3101
udy	-3102
věl	-3103
šem	-3104
žeš	-3105
déšť	-3106
děje	-3107
huje	-3108
naří	-3109
obou	-3110
popa	-3111
rají	-3112
zabu	-3113
amale	-3114
arona	-3115
chrám	-3116
hroma	-3117
jejím	-3118
pobil	-3119
pokou	-3120
přikr	-3121
příbu	-3122
slove	-3123
stany	-3124
volav	-3125
všudy	-3126
jestiť	-3127
každém	-3128
mistře	-3129
nemají	-3130
pověst	-3131
žádost	-3132
absolon	-3133
naplnil	-3134
poslali	-3135
vražedl	-3136
bratřími	-3137
ježíšovi	-3138
neftalím	-3139
obrátili	-3140
širokost	-3141
farizeové	-3142
přikazuji	-3143
lý	-3144
har	-3145
jef	-3146
lám	-3147
mrá	-3148
oví	-3149
res	-3150
ser	-3151
vzá	-3152
řte	-3153
aleš	-3154
azaf	-3155
duší	-3156
dání	-3157
gede	-3158
leni	-3159
měte	-3160
polí	-3161
zámu	-3162
aleka	-3163
chové	-3164
faleš	-3165
oprav	-3166
pilát	-3167
potra	-3168
vujte	-3169
zkazí	-3170
zlost	-3171
zvláš	-3172
dávati	-3173
galile	-3174
křídla	-3175
loupež	-3176
napomí	-3177
padnou	-3178
pakliť	-3179
svrchu	-3180
západu	-3181
podobné	-3182
zdaleka	-3183
znameni	-3184
zůstalo	-3185
dnešního	-3186
postavili	-3187
rozhněval	-3188
jeremiášovi	-3189
běl	-3190
dcá	-3191
pec	-3192
sio	-3193
čtr	-3194
jdeš	-3195
jeli	-3196
joas	-3197
modr	-3198
nímu	-3199
pavé	-3200
zpro	-3201
berou	-3202
důsto	-3203
jezre	-3204
pohla	-3205
předě	-3206
riáše	-3207
stříc	-3208
uzřev	-3209
vezma	-3210
činím	-3211
končin	-3212
mluvím	-3213
pravda	-3214
vstříc	-3215
vytrhl	-3216
místech	-3217
obrátím	-3218
podobný	-3219
pravého	-3220
jistotně	-3221
oznámili	-3222
jestližeť	-3223
pochovali	-3224
kva	-3225
leh	-3226
tla	-3227
vlo	-3228
cena	-3229
kiáš	-3230
kova	-3231
milý	-3232
polá	-3233
skal	-3234
tský	-3235
ukru	-3236
vzác	-3237
šeni	-3238
hraze	-3239
padlo	-3240
plésa	-3241
soudí	-3242
stanů	-3243
zítra	-3244
blázni	-3245
drželi	-3246
rozkoš	-3247
složil	-3248
statek	-3249
uslyša	-3250
řemesl	-3251
cenství	-3252
judstvu	-3253
následu	-3254
podobně	-3255
očištění	-3256
shromáždě	-3257
zaslíbení	-3258
otcovských	-3259
poslouchati	-3260
blahoslavený	-3261
bři	-3262
dru	-3263
hrů	-3264
jab	-3265
lež	-3266
pen	-3267
peč	-3268
ron	-3269
smí	-3270
učí	-3271
zač	-3272
dila	-3273
mali	-3274
matu	-3275
rali	-3276
trní	-3277
títi	-3278
vyvr	-3279
víru	-3280
jiným	-3281
myslí	-3282
otcem	-3283
pošla	-3284
trůnu	-3285
vjíti	-3286
věrný	-3287
zvědí	-3288
bohové	-3289
jejích	-3290
judští	-3291
příbuz	-3292
rozumě	-3293
simeon	-3294
slouží	-3295
sobotu	-3296
tovary	-3297
uložil	-3298
vchází	-3299
vykoná	-3300
bláznov	-3301
nadělal	-3302
vojskem	-3303
dobrovol	-3304
jozefovi	-3305
kdožkoli	-3306
mladosti	-3307
polovice	-3308
jeruzalémské	-3309
sů	-3310
hly	-3311
hlí	-3312
maa	-3313
mlé	-3314
okr	-3315
plo	-3316
smu	-3317
báti	-3318
jdiž	-3319
jímž	-3320
lého	-3321
nilo	-3322
otče	-3323
rati	-3324
sabé	-3325
sara	-3326
tekl	-3327
zabí	-3328
římě	-3329
chova	-3330
kahat	-3331
knihy	-3332
měste	-3333
nazvá	-3334
ozdob	-3335
patří	-3336
pokry	-3337
půjdu	-3338
slovy	-3339
věděl	-3340
želez	-3341
chiáše	-3342
důstoj	-3343
judovi	-3344
mnohem	-3345
prospě	-3346
soudce	-3347
učiníš	-3348
vložil	-3349
vovati	-3350
vězení	-3351
jezreel	-3352
moábské	-3353
přijali	-3354
strachu	-3355
vyslých	-3356
čistého	-3357
bezbožní	-3358
mládenci	-3359
ohavnost	-3360
pozdvihl	-3361
smilství	-3362
přednější	-3363
vládařství	-3364
bláznovství	-3365
manassesova	-3366
služebníkem	-3367
hospodinovým	-3368
hlo	-3369
lži	-3370
rám	-3371
uky	-3372
ute	-3373
viz	-3374
řům	-3375
dosá	-3376
hají	-3377
jebu	-3378
nalo	-3379
naro	-3380
naza	-3381
panu	-3382
poča	-3383
roku	-3384
sílu	-3385
trpí	-3386
veře	-3387
zalo	-3388
zdrá	-3389
zeli	-3390
chval	-3391
držel	-3392
jesky	-3393
lidmi	-3394
mráko	-3395
nevin	-3396
oslav	-3397
spatř	-3398
stanu	-3399
úrody	-3400
daleko	-3401
neobře	-3402
nevěst	-3403
pohanů	-3404
pokrmu	-3405
vztáhl	-3406
zejtří	-3407
nečisté	-3408
pohlaví	-3409
sloužil	-3410
šťastně	-3411
egyptští	-3412
způsobím	-3413
připravil	-3414
učedlníků	-3415
vysvobodí	-3416
všelijaké	-3417
:1	-3418
dlu	-3419
kai	-3420
niv	-3421
obo	-3422
oli	-3423
ryb	-3424
sež	-3425
tiť	-3426
ček	-3427
gala	-3428
hero	-3429
jiná	-3430
koni	-3431
peče	-3432
plná	-3433
plné	-3434
zapá	-3435
škli	-3436
avšak	-3437
dřevo	-3438
hedbá	-3439
potří	-3440
pánem	-3441
spasi	-3442
stádo	-3443
stání	-3444
ukyda	-3445
usnul	-3446
ziáše	-3447
centné	-3448
izaiáš	-3449
jákoba	-3450
levíty	-3451
malomo	-3452
mladší	-3453
osvědč	-3454
vodách	-3455
vysoké	-3456
stavěti	-3457
uvěřili	-3458
všeliká	-3459
nebesích	-3460
přišedše	-3461
sedechiáš	-3462
prvorozeného	-3463
malomocenství	-3464
žť	-3465
liš	-3466
son	-3467
sua	-3468
svi	-3469
tíš	-3470
zhy	-3471
díti	-3472
jeze	-3473
koně	-3474
kůži	-3475
nocí	-3476
osli	-3477
posí	-3478
veni	-3479
vozů	-3480
výší	-3481
znám	-3482
zích	-3483
ammon	-3484
bělné	-3485
břímě	-3486
děvky	-3487
ester	-3488
hetej	-3489
hledí	-3490
maria	-3491
masfa	-3492
obilé	-3493
ovšem	-3494
pavla	-3495
pokor	-3496
sešli	-3497
sloví	-3498
soudů	-3499
ulože	-3500
vašim	-3501
zatvr	-3502
zšíří	-3503
žádal	-3504
božímu	-3505
odejme	-3506
odpočí	-3507
poslav	-3508
potoku	-3509
prosil	-3510
přemyš	-3511
ráchel	-3512
veného	-3513
řeknou	-3514
beránků	-3515
králích	-3516
levítům	-3517
prosili	-3518
učiněni	-3519
vstoupi	-3520
vyhledá	-3521
ostříhej	-3522
poslechl	-3523
šedesáte	-3524
ostříhali	-3525
pohledění	-3526
propustil	-3527
přistoupili	-3528
spravedliví	-3529
hospodinových	-3530
ado	-3531
líš	-3532
mak	-3533
pel	-3534
teč	-3535
trž	-3536
týž	-3537
vna	-3538
čku	-3539
šly	-3540
boju	-3541
cela	-3542
chví	-3543
címu	-3544
dejž	-3545
hlaš	-3546
jaku	-3547
kách	-3548
nula	-3549
oděv	-3550
okla	-3551
slal	-3552
stil	-3553
ucho	-3554
vidě	-3555
vyli	-3556
vzdá	-3557
zdrž	-3558
čeli	-3559
hlava	-3560
hovad	-3561
jimiž	-3562
odpor	-3563
pamět	-3564
smilu	-3565
ujíce	-3566
vázal	-3567
vésti	-3568
věcmi	-3569
zázra	-3570
chanan	-3571
kadidl	-3572
obleče	-3573
obyčej	-3574
pomaza	-3575
přitáh	-3576
sestry	-3577
statku	-3578
vezmou	-3579
ústech	-3580
dobroti	-3581
kterakž	-3582
bojovali	-3583
mládence	-3584
mužského	-3585
třidcíti	-3586
ohavností	-3587
přisluhování	-3588
er	-3589
flí	-3590
len	-3591
spi	-3592
dlem	-3593
dáte	-3594
jezd	-3595
lené	-3596
líbo	-3597
líbí	-3598
nena	-3599
okra	-3600
piti	-3601
pomá	-3602
prac	-3603
pých	-3604
přij	-3605
seir	-3606
seti	-3607
stůl	-3608
trvá	-3609
záno	-3610
šimo	-3611
žené	-3612
býval	-3613
břehu	-3614
hejte	-3615
koflí	-3616
kostí	-3617
lejší	-3618
libán	-3619
mnost	-3620
odkud	-3621
pohan	-3622
poďte	-3623
přisa	-3624
rcete	-3625
sečte	-3626
spoko	-3627
synem	-3628
vyhlá	-3629
vypla	-3630
zasta	-3631
zvele	-3632
ývati	-3633
řkuci	-3634
gedeon	-3635
naříká	-3636
pokryt	-3637
potoka	-3638
sestra	-3639
utekli	-3640
východ	-3641
úřední	-3642
chudého	-3643
damašku	-3644
hedbáví	-3645
klaněti	-3646
nadarmo	-3647
oblíčej	-3648
radostí	-3649
rozkazu	-3650
vezměte	-3651
zavolal	-3652
padesáti	-3653
veseliti	-3654
vyslyšel	-3655
zachariáš	-3656
prvorozený	-3657
vypravoval	-3658
filistinské	-3659
spravedlivých	-3660
ela	-3661
hai	-3662
ima	-3663
kar	-3664
leb	-3665
sur	-3666
úča	-3667
hují	-3668
jižť	-3669
kále	-3670
pamá	-3671
pojď	-3672
písa	-3673
rání	-3674
slib	-3675
snaž	-3676
ssuž	-3677
síle	-3678
voly	-3679
vují	-3680
dcero	-3681
kohož	-3682
mordu	-3683
poslu	-3684
pospí	-3685
potvr	-3686
příto	-3687
roboá	-3688
ženou	-3689
židům	-3690
bolest	-3691
chlebů	-3692
dotekl	-3693
dělané	-3694
judova	-3695
letých	-3696
merari	-3697
nevěří	-3698
ováním	-3699
povstá	-3700
prachu	-3701
přítel	-3702
služby	-3703
truhla	-3704
vezmeš	-3705
vinici	-3706
zabije	-3707
zabili	-3708
životu	-3709
dcátého	-3710
herodes	-3711
hojnost	-3712
knížaty	-3713
poklady	-3714
požehná	-3715
přinese	-3716
ustavič	-3717
vychází	-3718
bezpečně	-3719
dlouhost	-3720
jordánem	-3721
knížatům	-3722
nepřítel	-3723
posvětil	-3724
kralování	-3725
zlořečení	-3726
egyptských	-3727
ble	-3728
oso	-3729
pyt	-3730
sai	-3731
zlá	-3732
éře	-3733
úřa	-3734
▁).	-3735
blíz	-3736
hody	-3737
modl	-3738
mokr	-3739
nají	-3740
posk	-3741
povo	-3742
rada	-3743
sech	-3744
ucha	-3745
uchý	-3746
vylé	-3747
jinak	-3748
každá	-3749
mohla	-3750
obrať	-3751
sinai	-3752
stěho	-3753
tímto	-3754
vizte	-3755
zatím	-3756
činíš	-3757
řekne	-3758
žalmy	-3759
držeti	-3760
izmael	-3761
nástro	-3762
půjdeš	-3763
rukama	-3764
světla	-3765
vzhůru	-3766
zachvá	-3767
bolesti	-3768
cizolož	-3769
jazykem	-3770
klaněli	-3771
modrého	-3772
postaví	-3773
stavěli	-3774
udělali	-3775
ulicích	-3776
západní	-3777
judskému	-3778
modlitbu	-3779
opustili	-3780
starších	-3781
zhřešili	-3782
zákoníci	-3783
čtvrtého	-3784
odpověděla	-3785
pětmecítma	-3786
stříbrných	-3787
del	-3788
ret	-3789
tes	-3790
třá	-3791
uža	-3792
važ	-3793
voz	-3794
vsa	-3795
zán	-3796
dadí	-3797
dnem	-3798
dosa	-3799
dsky	-3800
emat	-3801
jích	-3802
krou	-3803
mace	-3804
obec	-3805
osob	-3806
pode	-3807
rové	-3808
tesa	-3809
vymí	-3810
zvěř	-3811
ústy	-3812
bázeň	-3813
chudý	-3814
dobyt	-3815
domní	-3816
dávám	-3817
hoden	-3818
hojně	-3819
jícím	-3820
knihu	-3821
matku	-3822
nebem	-3823
obilí	-3824
písmo	-3825
sionu	-3826
tivše	-3827
vesel	-3828
chválu	-3829
chvály	-3830
ezebon	-3831
hnuvše	-3832
hodinu	-3833
nechtě	-3834
pohané	-3835
pohleď	-3836
hebronu	-3837
pustiti	-3838
přijímá	-3839
rouchem	-3840
slaviti	-3841
starodá	-3842
třikrát	-3843
zpívati	-3844
kterémuž	-3845
nazejtří	-3846
odvrátil	-3847
rovinách	-3848
způsobil	-3849
žoldnéři	-3850
nešlechetnosti	-3851
bed	-3852
běh	-3853
ječ	-3854
led	-3855
lis	-3856
níš	-3857
něž	-3858
ony	-3859
roč	-3860
šen	-3861
bila	-3862
dome	-3863
dove	-3864
drah	-3865
hrob	-3866
joak	-3867
níku	-3868
rube	-3869
sílo	-3870
vové	-3871
vůni	-3872
zbro	-3873
čtve	-3874
část	-3875
šiti	-3876
asser	-3877
devět	-3878
hněte	-3879
horší	-3880
láska	-3881
obklí	-3882
odsou	-3883
pochy	-3884
pokro	-3885
pověz	-3886
slovu	-3887
stává	-3888
vydám	-3889
čistý	-3890
šimon	-3891
cházel	-3892
divili	-3893
hvězdy	-3894
joziáš	-3895
lidské	-3896
neuzří	-3897
opuště	-3898
postav	-3899
pravíš	-3900
semeni	-3901
sečten	-3902
svatém	-3903
zavrhl	-3904
základ	-3905
říkáte	-3906
dobytka	-3907
eleazar	-3908
galgala	-3909
nepozna	-3910
ohnivou	-3911
poledni	-3912
poručil	-3913
povstal	-3914
přepása	-3915
přinesl	-3916
přivodí	-3917
rozpomí	-3918
správce	-3919
stupuje	-3920
známost	-3921
zástupu	-3922
silnější	-3923
slavnost	-3924
poslouche	-3925
zlořečený	-3926
cům	-3927
efi	-3928
elí	-3929
kám	-3930
nun	-3931
nán	-3932
spí	-3933
uti	-3934
veď	-3935
vře	-3936
zlý	-3937
óre	-3938
bana	-3939
celi	-3940
císa	-3941
devá	-3942
divy	-3943
díte	-3944
nedá	-3945
novy	-3946
odtr	-3947
pele	-3948
ráma	-3949
sehl	-3950
snou	-3951
stva	-3952
tinu	-3953
věže	-3954
úrod	-3955
řech	-3956
škvr	-3957
abner	-3958
abram	-3959
balák	-3960
bitvě	-3961
divné	-3962
kanto	-3963
karia	-3964
mnohý	-3965
mocný	-3966
modly	-3967
náctý	-3968
odpou	-3969
ovice	-3970
posel	-3971
přivo	-3972
stati	-3973
stínu	-3974
svrch	-3975
vinen	-3976
vůdce	-3977
zlodě	-3978
milují	-3979
ničeho	-3980
násled	-3981
paláce	-3982
pamatu	-3983
pomsty	-3984
počala	-3985
přijda	-3986
připra	-3987
zastře	-3988
živých	-3989
apoštol	-3990
elizeus	-3991
opustil	-3992
přestal	-3993
zabulon	-3994
zkormou	-3995
žádnému	-3996
abrahama	-3997
bezbožný	-3998
bližnímu	-3999
lidských	-4000
panovati	-4001
polovici	-4002
postavce	-4003
přinesli	-4004
přísloví	-4005
takového	-4006
nečistého	-4007
assyrského	-4008
ec	-4009
aga	-4010
dku	-4011
mrt	-4012
pše	-4013
zai	-4014
zdé	-4015
čel	-4016
dobu	-4017
drob	-4018
jana	-4019
káže	-4020
masa	-4021
nevz	-4022
otví	-4023
ovcí	-4024
shlé	-4025
vejž	-4026
vich	-4027
vinu	-4028
zálo	-4029
časy	-4030
chóre	-4031
komor	-4032
korou	-4033
kádes	-4034
nedal	-4035
odkry	-4036
odvra	-4037
potok	-4038
skryl	-4039
skála	-4040
ukáže	-4041
uvodí	-4042
vidím	-4043
věčný	-4044
zdélí	-4045
účast	-4046
čemuž	-4047
čisté	-4048
šesti	-4049
achito	-4050
blázen	-4051
domlou	-4052
druhým	-4053
gabaon	-4054
hnouti	-4055
mořské	-4056
nevíte	-4057
nového	-4058
oznáme	-4059
pomoci	-4060
rození	-4061
rozlič	-4062
skopců	-4063
slyším	-4064
tských	-4065
vstana	-4066
vydali	-4067
vzavše	-4068
živoči	-4069
desátky	-4070
hřešili	-4071
jeroboá	-4072
jákobův	-4073
kvílení	-4074
lítosti	-4075
mouření	-4076
nalezen	-4077
pomazal	-4078
připrav	-4079
vlastní	-4080
zapsáno	-4081
hledejte	-4082
milovati	-4083
prorokuj	-4084
skutkové	-4085
uslyšeli	-4086
nebeskému	-4087
zahanbeni	-4088
zástupové	-4089
spravedlivé	-4090
blahoslavení	-4091
byv	-4092
dán	-4093
eno	-4094
gát	-4095
hin	-4096
jho	-4097
lně	-4098
meť	-4099
naň	-4100
piš	-4101
tuť	-4102
udě	-4103
beze	-4104
biáš	-4105
cele	-4106
deva	-4107
hnal	-4108
hyne	-4109
kají	-4110
leno	-4111
míry	-4112
mědi	-4113
nově	-4114
oblo	-4115
odsu	-4116
rolí	-4117
rány	-4118
strý	-4119
vlád	-4120
vyle	-4121
váte	-4122
řiti	-4123
židy	-4124
balám	-4125
hněvě	-4126
kládá	-4127
kozla	-4128
nejte	-4129
nemám	-4130
novým	-4131
někdy	-4132
ovala	-4133
provo	-4134
rtové	-4135
semei	-4136
silné	-4137
skále	-4138
vlada	-4139
volám	-4140
vyšla	-4141
zvířa	-4142
hebron	-4143
hladem	-4144
kormou	-4145
nalézá	-4146
napsal	-4147
nebývá	-4148
nesnad	-4149
otázal	-4150
povědí	-4151
přijdu	-4152
saulov	-4153
slouti	-4154
spálil	-4155
studni	-4156
střely	-4157
užitek	-4158
zajaté	-4159
změřil	-4160
činíte	-4161
bersabé	-4162
branách	-4163
cházejí	-4164
jemství	-4165
kamením	-4166
kořisti	-4167
mrtvého	-4168
obrátiv	-4169
odpuště	-4170
pastýři	-4171
podobná	-4172
posadil	-4173
ptactvo	-4174
sstoupí	-4175
stvořil	-4176
uslyšev	-4177
učinila	-4178
zlatých	-4179
čtyřech	-4180
assyrský	-4181
nejmenší	-4182
nepoškvr	-4183
pochován	-4184
zahynutí	-4185
zlořečil	-4186
zvláštně	-4187
útočiště	-4188
abimelech	-4189
učedlníky	-4190
ďábelství	-4191
obyvatelům	-4192
pozdvižení	-4193
nabuchodonozo	-4194
šl	-4195
ari	-4196
chí	-4197
fra	-4198
hna	-4199
hrn	-4200
meš	-4201
obc	-4202
pěš	-4203
smý	-4204
sne	-4205
tar	-4206
umě	-4207
utě	-4208
zim	-4209
zlů	-4210
způ	-4211
zře	-4212
bova	-4213
celý	-4214
kami	-4215
korá	-4216
lubi	-4217
lách	-4218
rama	-4219
rebe	-4220
skot	-4221
síni	-4222
tská	-4223
tání	-4224
uješ	-4225
uměl	-4226
vypá	-4227
věku	-4228
četl	-4229
živa	-4230
chudé	-4231
kozel	-4232
lejte	-4233
lokte	-4234
lában	-4235
našim	-4236
padla	-4237
podro	-4238
prost	-4239
rozpl	-4240
setim	-4241
silou	-4242
svatí	-4243
ukrut	-4244
vylil	-4245
vyšlo	-4246
zlému	-4247
bývali	-4248
chleby	-4249
chtěli	-4250
docela	-4251
dělají	-4252
honili	-4253
jinému	-4254
líbilo	-4255
metali	-4256
poklad	-4257
pomstu	-4258
povede	-4259
prokla	-4260
příbyt	-4261
působí	-4262
rozdíl	-4263
slitov	-4264
vrátil	-4265
cházeti	-4266
izákovi	-4267
judským	-4268
kvíliti	-4269
loupeže	-4270
pachole	-4271
padesát	-4272
předsta	-4273
roztrhl	-4274
semaiáš	-4275
sluncem	-4276
vstoupí	-4277
nepřišel	-4278
vyhlazen	-4279
zachoval	-4280
posvěcení	-4281
tajemství	-4282
vzkříšení	-4283
nepřátelům	-4284
přistoupil	-4285
shromáždím	-4286
amorejského	-4287
ej	-4288
fu	-4289
oc	-4290
cem	-4291
hři	-4292
noč	-4293
sné	-4294
sši	-4295
zbi	-4296
beta	-4297
boze	-4298
diáš	-4299
doli	-4300
díme	-4301
hneš	-4302
holi	-4303
hoří	-4304
iáše	-4305
jimi	-4306
jmen	-4307
křtě	-4308
nedu	-4309
oblé	-4310
odej	-4311
odmě	-4312
pali	-4313
peci	-4314
scho	-4315
vici	-4316
zrna	-4317
zují	-4318
čemu	-4319
čest	-4320
žalo	-4321
židů	-4322
dobyl	-4323
děláš	-4324
krupo	-4325
kálef	-4326
ležel	-4327
lásce	-4328
mějte	-4329
ohlaš	-4330
ováno	-4331
počte	-4332
propa	-4333
pásti	-4334
rostl	-4335
samař	-4336
sedmý	-4337
tvýma	-4338
třese	-4339
vidíš	-4340
výmlu	-4341
výšil	-4342
šarla	-4343
dajíce	-4344
druhou	-4345
hlavou	-4346
jakého	-4347
korunu	-4348
myslil	-4349
neměli	-4350
opusti	-4351
ponese	-4352
smiluj	-4353
svátek	-4354
syrské	-4355
těmito	-4356
veliko	-4357
veselé	-4358
vojště	-4359
zápaly	-4360
neviděl	-4361
náramen	-4362
obložil	-4363
pravice	-4364
saulova	-4365
soužení	-4366
venství	-4367
zanechá	-4368
centnéřů	-4369
nasyceni	-4370
navrátím	-4371
netoliko	-4372
potěšení	-4373
vykoupil	-4374
izraelská	-4375
ostříhají	-4376
kteřížkoli	-4377
prvorozené	-4378
vysvobození	-4379
neposlouchali	-4380
gu	-4381
ara	-4382
azi	-4383
dab	-4384
kej	-4385
mož	-4386
měj	-4387
non	-4388
obu	-4389
rie	-4390
sic	-4391
ému	-4392
aspo	-4393
asve	-4394
ceny	-4395
chat	-4396
chci	-4397
dolů	-4398
ezer	-4399
hora	-4400
kadí	-4401
mson	-4402
mudr	-4403
mzdu	-4404
neví	-4405
obtí	-4406
obži	-4407
orli	-4408
ovec	-4409
plat	-4410
robá	-4411
safa	-4412
sklo	-4413
stín	-4414
tými	-4415
uhlí	-4416
vina	-4417
vymě	-4418
zalí	-4419
achas	-4420
aspoň	-4421
bedra	-4422
dlení	-4423
hlavě	-4424
hřeší	-4425
modlí	-4426
násob	-4427
obraz	-4428
odjal	-4429
pojav	-4430
poplé	-4431
pravě	-4432
prosí	-4433
sallu	-4434
setře	-4435
sidon	-4436
svola	-4437
síňce	-4438
temno	-4439
umřeš	-4440
učiti	-4441
vážil	-4442
zlých	-4443
zpéře	-4444
zžíře	-4445
bílého	-4446
dveřím	-4447
nátisk	-4448
nějaký	-4449
obrazu	-4450
odstup	-4451
samson	-4452
seděti	-4453
slovem	-4454
smrtel	-4455
stanou	-4456
taniáš	-4457
tisíci	-4458
vojsku	-4459
vztaže	-4460
zvěděl	-4461
amaziáš	-4462
azariáš	-4463
chvalte	-4464
galilee	-4465
galilej	-4466
mnohými	-4467
narodil	-4468
nazváno	-4469
nebojte	-4470
obyčeje	-4471
pastýře	-4472
potřebí	-4473
povolav	-4474
přítele	-4475
rozmnož	-4476
sobotní	-4477
starším	-4478
svědomí	-4479
utíkali	-4480
úzkosti	-4481
hejtmané	-4482
kterýmiž	-4483
oznámeno	-4484
vycházel	-4485
zadělané	-4486
zpívejte	-4487
bezbožného	-4488
mardocheus	-4489
obzvláštně	-4490
jeruzalémských	-4491
os	-4492
pé	-4493
čů	-4494
bce	-4495
dly	-4496
her	-4497
hlá	-4498
nan	-4499
opl	-4500
rty	-4501
spu	-4502
tin	-4503
tlu	-4504
ulo	-4505
zam	-4506
zer	-4507
zjí	-4508
aman	-4509
bena	-4510
bíti	-4511
dově	-4512
dáni	-4513
elův	-4514
form	-4515
hrad	-4516
kůže	-4517
mati	-4518
ohlé	-4519
oliv	-4520
povr	-4521
tilo	-4522
ztra	-4523
čímž	-4524
řetě	-4525
šíji	-4526
divše	-4527
elovi	-4528
jefte	-4529
jesua	-4530
kobyl	-4531
kraje	-4532
matce	-4533
mnohá	-4534
rozrá	-4535
snáše	-4536
svatá	-4537
tajně	-4538
tvými	-4539
třech	-4540
vdovy	-4541
vytáh	-4542
váleč	-4543
zboře	-4544
zlatý	-4545
způso	-4546
často	-4547
abiata	-4548
buďtež	-4549
chválí	-4550
církve	-4551
hřešil	-4552
králům	-4553
měsíců	-4554
odešla	-4555
počali	-4556
pátého	-4557
skláně	-4558
skutku	-4559
stezky	-4560
svědek	-4561
udeřil	-4562
umříti	-4563
uzřeli	-4564
vašemu	-4565
věděli	-4566
zahyne	-4567
cházeli	-4568
doufání	-4569
helkiáš	-4570
jebuzej	-4571
modliti	-4572
naučení	-4573
nevejde	-4574
pozdrav	-4575
přibliž	-4576
stolice	-4577
svrchku	-4578
veselil	-4579
vonných	-4580
vytáhli	-4581
vyšedše	-4582
výsostí	-4583
zavázal	-4584
zeměpla	-4585
ývající	-4586
modlitba	-4587
naříkání	-4588
ochoziáš	-4589
pomazání	-4590
rozuměli	-4591
udatných	-4592
vyplénil	-4593
vzkřísil	-4594
kaldejské	-4595
poslechli	-4596
egyptského	-4597
ustanoveních	-4598
ose	-4599
rtů	-4600
tok	-4601
vad	-4602
zbě	-4603
zou	-4604
bran	-4605
cožť	-4606
doka	-4607
dova	-4608
hale	-4609
jití	-4610
judu	-4611
krvi	-4612
nebť	-4613
padá	-4614
přel	-4615
rámě	-4616
samo	-4617
sila	-4618
tají	-4619
trem	-4620
trůn	-4621
tuje	-4622
viny	-4623
zbil	-4624
znáš	-4625
barna	-4626
ducho	-4627
kozlů	-4628
mrtvé	-4629
mrtví	-4630
nebes	-4631
nesla	-4632
neste	-4633
provi	-4634
rozka	-4635
rozse	-4636
silní	-4637
toval	-4638
učili	-4639
voval	-4640
vyvyš	-4641
vzetí	-4642
zvíte	-4643
chíram	-4644
godoli	-4645
hovado	-4646
libánu	-4647
miluji	-4648
měděné	-4649
nečiní	-4650
obrace	-4651
odejde	-4652
osmého	-4653
poskvr	-4654
páliti	-4655
příhod	-4656
příjem	-4657
rozhoj	-4658
seděli	-4659
sloupy	-4660
stupňů	-4661
syrští	-4662
taková	-4663
vydává	-4664
vyslyš	-4665
zarmou	-4666
zápalu	-4667
plakali	-4668
plavili	-4669
pokouše	-4670
staních	-4671
takovou	-4672
bojovati	-4673
desátého	-4674
dobrořeč	-4675
moudrého	-4676
nevěřili	-4677
stranách	-4678
vcházeti	-4679
vyhladil	-4680
všelikém	-4681
zpuštění	-4682
egyptskou	-4683
idumejské	-4684
jeremiáše	-4685
jeroboáma	-4686
kteroužto	-4687
obyvateli	-4688
shromáždí	-4689
stupovali	-4690
vládnouti	-4691
oslavovati	-4692
poškvrnili	-4693
prorokoval	-4694
rozhněvání	-4695
všemohoucí	-4696
spravedlivě	-4697
bó	-4698
bes	-4699
cvi	-4700
dým	-4701
fal	-4702
fík	-4703
heb	-4704
hev	-4705
hru	-4706
kne	-4707
kot	-4708
koz	-4709
lai	-4710
lví	-4711
mec	-4712
obé	-4713
sum	-4714
sží	-4715
uzi	-4716
vůd	-4717
zat	-4718
zmí	-4719
zub	-4720
zvo	-4721
amno	-4722
choď	-4723
lako	-4724
létě	-4725
mzdy	-4726
něno	-4727
odja	-4728
rohů	-4729
sare	-4730
sata	-4731
sefa	-4732
stůj	-4733
svíc	-4734
timo	-4735
tost	-4736
tudy	-4737
tští	-4738
vodě	-4739
vými	-4740
vůně	-4741
zlou	-4742
zpět	-4743
ňují	-4744
řece	-4745
šuje	-4746
bráti	-4747
bydle	-4748
celým	-4749
dobrá	-4750
dokud	-4751
doufá	-4752
hladu	-4753
hrobě	-4754
izáka	-4755
jejíž	-4756
kejte	-4757
mluvě	-4758
násil	-4759
satan	-4760
skály	-4761
uriáš	-4762
věrou	-4763
větru	-4764
zavře	-4765
zbili	-4766
zvýší	-4767
šitel	-4768
bohatý	-4769
chlubí	-4770
holubi	-4771
kalich	-4772
ležení	-4773
napřed	-4774
nejprv	-4775
obrací	-4776
ohnivé	-4777
posvěc	-4778
protiv	-4779
rových	-4780
stranu	-4781
udatní	-4782
výmluv	-4783
zjevně	-4784
zovati	-4785
činíce	-4786
říkaje	-4787
životí	-4788
dobrému	-4789
děvečka	-4790
faraona	-4791
jehožto	-4792
judstva	-4793
nemocen	-4794
odplatu	-4795
panovní	-4796
plésati	-4797
posměva	-4798
pošlapá	-4799
ročních	-4800
svatému	-4801
truhlou	-4802
učiněno	-4803
vyvedli	-4804
davidově	-4805
korouhev	-4806
nemluvil	-4807
protivní	-4808
přestěho	-4809
sedmkrát	-4810
studnici	-4811
vypléním	-4812
zastření	-4813
známosti	-4814
bezživotí	-4815
obyvatelů	-4816
proroctví	-4817
ratolesti	-4818
slavnosti	-4819
šalomouna	-4820
ostříhejte	-4821
ustanovili	-4822
královských	-4823
protivenství	-4824
ag	-4825
pý	-4826
bat	-4827
dlá	-4828
dný	-4829
dův	-4830
joá	-4831
kor	-4832
kul	-4833
mag	-4834
nev	-4835
osl	-4836
rád	-4837
sch	-4838
zdě	-4839
úpě	-4840
čal	-4841
žid	-4842
žky	-4843
abne	-4844
mate	-4845
nulo	-4846
pije	-4847
pohř	-4848
poje	-4849
ptal	-4850
rala	-4851
ránu	-4852
skla	-4853
sára	-4854
týru	-4855
valy	-4856
vené	-4857
závi	-4858
závo	-4859
říci	-4860
žený	-4861
žily	-4862
brána	-4863
byvše	-4864
dřevě	-4865
hynou	-4866
kupci	-4867
křiku	-4868
lásku	-4869
maase	-4870
nevím	-4871
nátan	-4872
odění	-4873
onoho	-4874
pevně	-4875
poniž	-4876
popel	-4877
pošle	-4878
pravo	-4879
ranil	-4880
skotů	-4881
správ	-4882
svíce	-4883
toběť	-4884
třili	-4885
ukáži	-4886
vstup	-4887
zatra	-4888
zmuži	-4889
šedše	-4890
andělé	-4891
bývalo	-4892
chcete	-4893
halelu	-4894
hebrej	-4895
knězem	-4896
koupil	-4897
moudří	-4898
městům	-4899
nastro	-4900
nemoci	-4901
náleže	-4902
obětmi	-4903
odpusť	-4904
otevří	-4905
pláště	-4906
pobral	-4907
pokojí	-4908
potupu	-4909
přišly	-4910
půjdou	-4911
rostlo	-4912
sloupů	-4913
tentýž	-4914
timote	-4915
trpěti	-4916
tského	-4917
věčným	-4918
věřili	-4919
červce	-4920
beránek	-4921
bezpeče	-4922
hřešení	-4923
kantorů	-4924
nazvala	-4925
nemohou	-4926
pustinu	-4927
připomí	-4928
půjdeme	-4929
rouhání	-4930
sochory	-4931
stavení	-4932
utvrdil	-4933
vzbudil	-4934
výborné	-4935
většího	-4936
neučinil	-4937
nečinili	-4938
porazili	-4939
povědíno	-4940
prorokům	-4941
prvotiny	-4942
stříbrné	-4943
velikých	-4944
cherubíny	-4945
navštívím	-4946
pozůstali	-4947
pronárodu	-4948
uprostřed	-4949
absolonovi	-4950
dobrovolně	-4951
očišťování	-4952
upřímnosti	-4953
at	-4954
eu	-4955
bad	-4956
báš	-4957
kře	-4958
lal	-4959
lka	-4960
mer	-4961
nům	-4962
pek	-4963
pry	-4964
pěk	-4965
sim	-4966
sná	-4967
sul	-4968
usa	-4969
viv	-4970
vno	-4971
vnu	-4972
vzí	-4973
vůz	-4974
zba	-4975
řím	-4976
ším	-4977
ťte	-4978
anti	-4979
báru	-4980
ceno	-4981
dané	-4982
dích	-4983
díky	-4984
díle	-4985
hleď	-4986
hách	-4987
květ	-4988
malé	-4989
meči	-4990
nova	-4991
něné	-4992
peka	-4993
prud	-4994
pátý	-4995
slad	-4996
tama	-4997
trub	-4998
ušel	-4999
zadu	-5000
zara	-5001
zele	-5002
zkři	-5003
zlým	-5004
čila	-5005
celou	-5006
drahé	-5007
druhá	-5008
hanbu	-5009
ihned	-5010
kladu	-5011
která	-5012
lásky	-5013
mesul	-5014
mláde	-5015
mužem	-5016
naklá	-5017
neroz	-5018
plésá	-5019
pohnu	-5020
roste	-5021
rovně	-5022
roční	-5023
rámot	-5024
sarvi	-5025
sform	-5026
stoje	-5027
střel	-5028
ukazu	-5029
vaším	-5030
vinný	-5031
vlasy	-5032
vzíti	-5033
vývod	-5034
zabit	-5035
zbiti	-5036
časem	-5037
čteno	-5038
šením	-5039
školy	-5040
benada	-5041
blázna	-5042
celého	-5043
daleké	-5044
desátý	-5045
gerson	-5046
hubili	-5047
jozefa	-5048
kolena	-5049
mnohým	-5050
nevidí	-5051
oblaku	-5052
poblou	-5053
předse	-5054
uvěřil	-5055
uzříte	-5056
vejdou	-5057
vidělo	-5058
vysoko	-5059
výklad	-5060
věčnou	-5061
zkazil	-5062
činění	-5063
čtvrtý	-5064
železo	-5065
bydlení	-5066
dobrých	-5067
dobytče	-5068
izachar	-5069
kadidla	-5070
mluvila	-5071
napořád	-5072
obětuje	-5073
otázali	-5074
pahrbku	-5075
památku	-5076
vnitřní	-5077
věčného	-5078
zázraky	-5079
amalechi	-5080
dopustil	-5081
jákobova	-5082
milování	-5083
městečka	-5084
naplněni	-5085
pohleděl	-5086
povstane	-5087
propasti	-5088
předních	-5089
přestane	-5090
takových	-5091
trestati	-5092
krupobití	-5093
nebeského	-5094
podobného	-5095
přebývání	-5096
stupovati	-5097
uslyšavše	-5098
zevnitřní	-5099
zmordoval	-5100
předměstím	-5101
přistoupiv	-5102
rozumnosti	-5103
sedmdesáti	-5104
ezechiášovi	-5105
předsevzetí	-5106
vypravovali	-5107
babylonskému	-5108
poslouchejte	-5109
cy	-5110
ur	-5111
asi	-5112
bli	-5113
blu	-5114
dor	-5115
fel	-5116
met	-5117
pis	-5118
roh	-5119
růz	-5120
sci	-5121
usi	-5122
ves	-5123
vůl	-5124
zpy	-5125
čiň	-5126
žer	-5127
beto	-5128
fích	-5129
hnul	-5130
holí	-5131
jedí	-5132
jímá	-5133
levo	-5134
lost	-5135
lotu	-5136
léka	-5137
líky	-5138
milé	-5139
něch	-5140
němi	-5141
silí	-5142
tovi	-5143
tuji	-5144
zůři	-5145
útrž	-5146
čiti	-5147
šené	-5148
šlek	-5149
arnon	-5150
blesk	-5151
darem	-5152
dceři	-5153
deště	-5154
ezdrá	-5155
honil	-5156
hrdlo	-5157
kulha	-5158
milov	-5159
mladi	-5160
mrzko	-5161
můžeš	-5162
napsa	-5163
nejsi	-5164
nohám	-5165
nouce	-5166
novou	-5167
oškli	-5168
pohor	-5169
práva	-5170
stolu	-5171
stých	-5172
teční	-5173
támar	-5174
učini	-5175
ušima	-5176
vzala	-5177
zapsá	-5178
řekou	-5179
živou	-5180
abizai	-5181
andělu	-5182
anděly	-5183
chtěje	-5184
dokoná	-5185
hodina	-5186
jedním	-5187
joacha	-5188
joakim	-5189
kariat	-5190
koních	-5191
nemohu	-5192
nohách	-5193
pokřtě	-5194
potkal	-5195
rodiny	-5196
sarvie	-5197
spasen	-5198
svícen	-5199
sádoch	-5200
truhly	-5201
vichři	-5202
vidíte	-5203
zapeče	-5204
zavřel	-5205
zemdle	-5206
zorobá	-5207
zpuště	-5208
zvolal	-5209
říkati	-5210
životě	-5211
houfích	-5212
ječmene	-5213
králova	-5214
nižádný	-5215
nostech	-5216
nějšího	-5217
okršlek	-5218
pohledí	-5219
potravy	-5220
pozoruj	-5221
rozuměl	-5222
sebrali	-5223
učiníte	-5224
vytrhni	-5225
vědouce	-5226
železné	-5227
chváliti	-5228
jochanan	-5229
knížetem	-5230
naplnila	-5231
navraťte	-5232
nejlepší	-5233
nepřijde	-5234
národech	-5235
odpouště	-5236
pohleděv	-5237
přitáhne	-5238
rozdělil	-5239
stříbrná	-5240
vajících	-5241
chananiáš	-5242
egyptským	-5243
jednomysl	-5244
krajinách	-5245
moábských	-5246
navštívil	-5247
opravoval	-5248
panovníče	-5249
promluvil	-5250
bezbožnost	-5251
nejvyššímu	-5252
propustiti	-5253
prorokovali	-5254
čtyřmecítma	-5255
cý	-5256
dek	-5257
efe	-5258
koš	-5259
myť	-5260
měř	-5261
oku	-5262
oré	-5263
rek	-5264
sno	-5265
spl	-5266
tmy	-5267
ziž	-5268
braň	-5269
celé	-5270
chis	-5271
době	-5272
dská	-5273
kého	-5274
lide	-5275
lují	-5276
mými	-5277
nejs	-5278
novo	-5279
nápr	-5280
obří	-5281
ohra	-5282
poví	-5283
prut	-5284
pryč	-5285
rohy	-5286
ryby	-5287
stři	-5288
vyči	-5289
zavě	-5290
zleh	-5291
úřad	-5292
žíti	-5293
bravů	-5294
dědič	-5295
jábes	-5296
nejmi	-5297
nepod	-5298
právo	-5299
skálu	-5300
slepý	-5301
sloul	-5302
starý	-5303
sukni	-5304
teprv	-5305
tukem	-5306
tázal	-5307
vních	-5308
vojnu	-5309
vyjdi	-5310
známé	-5311
zpust	-5312
ývají	-5313
čalou	-5314
šestý	-5315
bezpeč	-5316
bálovi	-5317
dobrou	-5318
domové	-5319
hodilo	-5320
každým	-5321
korábu	-5322
lachis	-5323
městem	-5324
napome	-5325
natana	-5326
orlice	-5327
oznamu	-5328
posled	-5329
prodal	-5330
prohlé	-5331
prospí	-5332
převra	-5333
veřeje	-5334
volové	-5335
vzdále	-5336
větrem	-5337
zloděj	-5338
zákonu	-5339
řečeno	-5340
šimona	-5341
bolestí	-5342
knížeti	-5343
kobylky	-5344
panoval	-5345
příčinu	-5346
pšenice	-5347
silných	-5348
spokoju	-5349
vstavše	-5350
zmužile	-5351
zvláště	-5352
zákonem	-5353
šarlatu	-5354
dokavadž	-5355
egyptský	-5356
nalezeno	-5357
naplněna	-5358
nenalezl	-5359
obráceni	-5360
panovali	-5361
pověděli	-5362
svědkové	-5363
zanechal	-5364
zvěstuje	-5365
židovský	-5366
barveného	-5367
podstavky	-5368
provinění	-5369
přebývati	-5370
přinášeli	-5371
spasitele	-5372
vstoupili	-5373
výsostech	-5374
nejmilejší	-5375
vypravovati	-5376
nabuchodonozora	-5377
ai	-5378
ctí	-5379
jah	-5380
med	-5381
máť	-5382
ntu	-5383
tai	-5384
try	-5385
tyr	-5386
zek	-5387
řem	-5388
šiž	-5389
žrá	-5390
adam	-5391
běhl	-5392
chva	-5393
dětí	-5394
edom	-5395
ezro	-5396
fere	-5397
haza	-5398
hnou	-5399
háje	-5400
jist	-5401
kola	-5402
komů	-5403
lati	-5404
lovi	-5405
manu	-5406
nesa	-5407
obvi	-5408
oslá	-5409
osvě	-5410
plný	-5411
popu	-5412
prsy	-5413
rodí	-5414
sedl	-5415
seon	-5416
sovi	-5417
svár	-5418
varu	-5419
vozu	-5420
vítě	-5421
zeba	-5422
zejí	-5423
záva	-5424
čini	-5425
šího	-5426
boval	-5427
chlou	-5428
dveře	-5429
hanby	-5430
hrnčí	-5431
jezte	-5432
jinou	-5433
jonáš	-5434
kudyž	-5435
machi	-5436
našel	-5437
nesty	-5438
noémi	-5439
náhle	-5440
panny	-5441
plášť	-5442
potěš	-5443
probo	-5444
sloup	-5445
směle	-5446
spomo	-5447
tečné	-5448
tečně	-5449
trápe	-5450
třiti	-5451
uvrhl	-5452
vejdi	-5453
válka	-5454
výpla	-5455
zavří	-5456
znáti	-5457
ášovi	-5458
červe	-5459
andělů	-5460
aronem	-5461
bloudí	-5462
božích	-5463
dobrým	-5464
ezdráš	-5465
hněvem	-5466
hodiny	-5467
joiada	-5468
kameni	-5469
klásti	-5470
mluvíš	-5471
modlám	-5472
naplní	-5473
nohama	-5474
nádobu	-5475
náleží	-5476
obdrží	-5477
plamen	-5478
posilň	-5479
právem	-5480
předlo	-5481
přátel	-5482
spatří	-5483
syrský	-5484
umřela	-5485
vyhnal	-5486
vyjdou	-5487
vynáše	-5488
vystří	-5489
vyvedu	-5490
vývoda	-5491
adoniáš	-5492
betléma	-5493
chlebem	-5494
jericha	-5495
jerichu	-5496
joábovi	-5497
líbosti	-5498
mladého	-5499
nejprve	-5500
oznámím	-5501
podobni	-5502
rozchvá	-5503
rozsívá	-5504
sečteni	-5505
smlouva	-5506
spatřil	-5507
učiníme	-5508
veselím	-5509
vyjděte	-5510
zahynul	-5511
zámutek	-5512
hejtmany	-5513
hříchové	-5514
kněžství	-5515
královna	-5516
pojednou	-5517
pokušení	-5518
protivil	-5519
trestání	-5520
uzdravil	-5521
vysvoboď	-5522
zahanben	-5523
cizozemců	-5524
halelujah	-5525
končinách	-5526
moudrostí	-5527
obětování	-5528
odpuštění	-5529
podstavků	-5530
prorokují	-5531
přebývají	-5532
rozmnožím	-5533
slitování	-5534
dvamecítma	-5535
kadidlnice	-5536
pokoleních	-5537
zmordovali	-5538
hospodinovou	-5539
jeruzalémští	-5540
ňá	-5541
asa	-5542
bóz	-5543
had	-5544
hní	-5545
jar	-5546
jmí	-5547
jíž	-5548
náz	-5549
ohy	-5550
rot	-5551
rus	-5552
tuč	-5553
ztí	-5554
bílé	-5555
cují	-5556
dách	-5557
dámť	-5558
hluk	-5559
hony	-5560
jeda	-5561
jezá	-5562
jitř	-5563
kyně	-5564
křiv	-5565
lest	-5566
levé	-5567
lila	-5568
lout	-5569
malý	-5570
mání	-5571
míst	-5572
mýma	-5573
naho	-5574
nábo	-5575
pavl	-5576
plní	-5577
rami	-5578
razí	-5579
sečt	-5580
svla	-5581
tati	-5582
vrát	-5583
věti	-5584
věži	-5585
zpod	-5586
čích	-5587
řeno	-5588
řích	-5589
žená	-5590
anato	-5591
bránu	-5592
chodě	-5593
eufra	-5594
filip	-5595
jakýž	-5596
judou	-5597
klady	-5598
komuž	-5599
miche	-5600
musil	-5601
neseš	-5602
neuži	-5603
nimiž	-5604
nésti	-5605
oceli	-5606
odsud	-5607
povin	-5608
ptáci	-5609
pusté	-5610
písni	-5611
přivá	-5612
recha	-5613
rouše	-5614
skání	-5615
sobot	-5616
strdí	-5617
tější	-5618
ulici	-5619
ustal	-5620
vezmu	-5621
zbroj	-5622
zpořá	-5623
úpění	-5624
žízni	-5625
bylinu	-5626
chvíle	-5627
draban	-5628
druhém	-5629
hrozný	-5630
jícímu	-5631
mateři	-5632
mlékem	-5633
moudře	-5634
nazpět	-5635
našimi	-5636
nejste	-5637
obydlí	-5638
pohrdá	-5639
příliš	-5640
rodech	-5641
rozply	-5642
skutek	-5643
služte	-5644
soboty	-5645
střeva	-5646
světle	-5647
volání	-5648
výpově	-5649
zjevil	-5650
banaiáš	-5651
davidem	-5652
jezábel	-5653
kadidlo	-5654
kazoval	-5655
končiny	-5656
nalezne	-5657
nebuduť	-5658
nechažť	-5659
nevěděl	-5660
nečistá	-5661
oltářem	-5662
pravíte	-5663
provazy	-5664
přistup	-5665
přísahu	-5666
soudové	-5667
vyhlásí	-5668
vyprázd	-5669
zůstala	-5670
modlitby	-5671
moudrých	-5672
mouřenín	-5673
nalezena	-5674
nařízení	-5675
neobřeza	-5676
neviděli	-5677
skutcích	-5678
vysokost	-5679
královský	-5680
nebezpeče	-5681
nezemřeli	-5682
ostatkové	-5683
rozkázaní	-5684
samuelovi	-5685
všelikému	-5686
zvěstoval	-5687
dvadcátého	-5688
egyptskému	-5689
královském	-5690
posledních	-5691
rozpomenul	-5692
shromažďte	-5693
filistinská	-5694
přítomnosti	-5695
spokojující	-5696
ustanovením	-5697
vyhledávati	-5698
zamordovali	-5699
filistinskými	-5700
dvadcítiletých	-5701
nebezpečenství	-5702
en	-5703
ré	-5704
blý	-5705
dai	-5706
jsu	-5707
kev	-5708
lva	-5709
mit	-5710
nku	-5711
pas	-5712
rky	-5713
smy	-5714
vle	-5715
váž	-5716
špe	-5717
bích	-5718
bída	-5719
běže	-5720
dotý	-5721
dálo	-5722
jení	-5723
kvěl	-5724
lůže	-5725
milí	-5726
míru	-5727
napí	-5728
oblá	-5729
obna	-5730
okol	-5731
opil	-5732
patr	-5733
posi	-5734
pádu	-5735
půjč	-5736
rodu	-5737
salo	-5738
shla	-5739
svad	-5740
vrat	-5741
zbož	-5742
zrak	-5743
úřed	-5744
šena	-5745
bodlá	-5746
bázni	-5747
běžel	-5748
dotkl	-5749
dávno	-5750
hevej	-5751
hodné	-5752
hrůza	-5753
kořen	-5754
lampy	-5755
losem	-5756
menem	-5757
mokré	-5758
mrtvá	-5759
mýšle	-5760
našem	-5761
němuž	-5762
okršl	-5763
petra	-5764
pláče	-5765
ptali	-5766
pustá	-5767
rozvá	-5768
siona	-5769
snách	-5770
susan	-5771
trovi	-5772
uzříš	-5773
vejdu	-5774
vloží	-5775
volků	-5776
úhony	-5777
čerst	-5778
šetří	-5779
akaron	-5780
břicho	-5781
cizích	-5782
hotovi	-5783
hrozné	-5784
judská	-5785
karmel	-5786
každou	-5787
melchi	-5788
nemluv	-5789
nemělo	-5790
neobří	-5791
nezahy	-5792
nosili	-5793
někoho	-5794
pastýř	-5795
prokle	-5796
přesta	-5797
přešli	-5798
přijme	-5799
rozvod	-5800
sprost	-5801
svolav	-5802
udatný	-5803
upevně	-5804
učiňte	-5805
vzýval	-5806
výsost	-5807
zabití	-5808
zdraví	-5809
zdělal	-5810
zemské	-5811
zálohy	-5812
čister	-5813
částky	-5814
benadad	-5815
druhých	-5816
hledáte	-5817
jeskyně	-5818
kristův	-5819
milostí	-5820
modlili	-5821
naposle	-5822
načteno	-5823
neznají	-5824
obětova	-5825
pohanům	-5826
potření	-5827
pouštěj	-5828
ptactva	-5829
předním	-5830
přikryl	-5831
přívěti	-5832
rozmlou	-5833
rozumný	-5834
samuele	-5835
skonání	-5836
srdcích	-5837
uslyšav	-5838
utíkati	-5839
vzbudím	-5840
zjevení	-5841
zpěváku	-5842
kristova	-5843
mesullam	-5844
mládenec	-5845
nechtěli	-5846
nevěděli	-5847
oblíčeje	-5848
rozpomeň	-5849
slýchali	-5850
stvoření	-5851
uposlech	-5852
vstupuje	-5853
vyzdvihl	-5854
zabitého	-5855
dobrořeči	-5856
ezechiáše	-5857
kterékoli	-5858
naposledy	-5859
osmdesáte	-5860
pokojných	-5861
poškvrnil	-5862
dobrořečte	-5863
nedopustil	-5864
nedostatku	-5865
nepravostí	-5866
příchozímu	-5867
služebnice	-5868
neuposlechl	-5869
prozpěvovati	-5870
přistoupivše	-5871
všemohoucího	-5872
zlořečenství	-5873
dý	-5874
oč	-5875
cej	-5876
coť	-5877
dav	-5878
ddo	-5879
drž	-5880
díž	-5881
děj	-5882
feg	-5883
gru	-5884
mai	-5885
méd	-5886
měr	-5887
nli	-5888
rii	-5889
rod	-5890
tvý	-5891
áni	-5892
číš	-5893
ška	-5894
azor	-5895
bedr	-5896
beru	-5897
boku	-5898
boru	-5899
chtí	-5900
chří	-5901
darů	-5902
dilo	-5903
dily	-5904
divo	-5905
doni	-5906
elká	-5907
fáze	-5908
kanc	-5909
kopy	-5910
kraj	-5911
kusy	-5912
láme	-5913
meli	-5914
míra	-5915
nebu	-5916
neli	-5917
nini	-5918
nosí	-5919
pláč	-5920
pojí	-5921
prst	-5922
refa	-5923
sejí	-5924
sena	-5925
stez	-5926
sšik	-5927
ulek	-5928
upev	-5929
vysu	-5930
¦	-5931
▁	-5932
o	-5933
e	-5934
a	-5935
i	-5936
n	-5937
t	-5938
s	-5939
l	-5940
v	-5941
d	-5942
m	-5943
k	-5944
𐋇	-5945
u	-5946
,	-5947
p	-5948
h	-5949
j	-5950
r	-5951
í	-5952
b	-5953
c	-5954
y	-5955
z	-5956
á	-5957
ž	-5958
ě	-5959
ř	-5960
é	-5961
š	-5962
.	-5963
ý	-5964
č	-5965
ů	-5966
:	-5967
ť	-5968
;	-5969
?	-5970
f	-5971
g	-5972
ú	-5973
ň	-5974
ď	-5975
-	-5976
(	-5977
)	-5978
ó	-5979
!	-5980
[	-5981
]	-5982
1	-5983
x	-5984
3	-5985
2	-5986
4	-5987
5	-5988
8	-5989
0	-5990
9	-5991
6	-5992
7	-5993
𐊣	-5994
𐊼	-5995
#	-5996
