<pad>	0
</s>	0
<unk>	0
▁the	-3.04777
.	-3.1674
,	-3.32328
▁of	-3.683
▁to	-3.85898
▁in	-3.94714
▁and	-4.15743
s	-4.16621
▁a	-4.37645
▁	-4.4631
▁is	-4.54575
▁The	-4.8104
ing	-4.83809
▁for	-4.89461
▁be	-4.911
-	-5.04242
ed	-5.08081
▁are	-5.10496
▁that	-5.1346
▁has	-5.14373
▁have	-5.22884
▁on	-5.23298
▁with	-5.29137
'	-5.34367
▁will	-5.44513
▁from	-5.46704
▁corona	-5.53532
▁was	-5.56378
▁not	-5.58169
▁by	-5.62877
▁been	-5.65598
▁patients	-5.69262
▁as	-5.7152
▁vaccine	-5.73926
▁this	-5.74452
▁at	-5.75847
y	-5.83235
▁or	-5.83455
▁said	-5.84014
▁it	-5.87806
ly	-5.88434
▁"	-5.9038
e	-5.92014
▁people	-5.92778
▁government	-5.95134
t	-5.9807
▁also	-5.98366
▁A	-5.98497
▁(	-6.01927
▁In	-6.06399
▁state	-6.06726
▁were	-6.09338
?	-6.09365
▁number	-6.11874
al	-6.2013
▁virus	-6.202
out	-6.2062
▁can	-6.22396
d	-6.23547
▁Corona	-6.27483
▁should	-6.29851
▁an	-6.30928
▁Minister	-6.33984
▁w	-6.34982
▁had	-6.36067
▁there	-6.38982
-19	-6.41924
ir	-6.421
▁health	-6.4449
▁other	-6.44633
)	-6.47524
▁Maharashtra	-6.49061
▁oxygen	-6.4919
▁India	-6.50517
▁COVID	-6.50519
:	-6.50877
▁after	-6.52197
▁who	-6.5229
▁you	-6.55122
▁ab	-6.55687
▁all	-6.59519
▁more	-6.6065
▁Dr	-6.62476
▁C	-6.62869
▁This	-6.63531
▁time	-6.65145
if	-6.67381
▁But	-6.67469
▁lockdown	-6.68742
▁no	-6.68917
▁S	-6.70075
▁than	-6.7066
▁infection	-6.71505
▁It	-6.72981
▁disease	-6.74008
▁vaccination	-6.74386
▁we	-6.77145
▁one	-6.7724
▁I	-6.77457
▁days	-6.77658
▁country	-6.7812
▁Health	-6.7963
▁vaccines	-6.8076
▁being	-6.81064
hich	-6.82116
▁these	-6.82276
▁new	-6.83189
▁some	-6.83915
n	-6.84304
▁per	-6.84326
▁but	-6.85917
▁He	-6.87603
▁first	-6.89218
l	-6.89463
▁many	-6.90516
▁found	-6.94443
▁'	-6.94518
CoV	-6.94579
▁may	-6.95082
▁two	-6.97275
a	-6.98184
▁get	-6.98187
▁last	-6.98667
▁he	-6.98891
▁cases	-6.99871
▁day	-7.00034
▁such	-7.00523
▁M	-7.01257
▁On	-7.02918
▁March	-7.02946
▁Mumbai	-7.03613
▁symptoms	-7.03677
▁they	-7.03793
▁SARS	-7.03928
▁second	-7.0404
in	-7.04334
▁According	-7.05814
▁do	-7.05833
▁test	-7.06353
▁says	-7.06789
▁district	-7.07099
due	-7.078
▁given	-7.08333
▁hospital	-7.08549
▁so	-7.08618
▁use	-7.0871
▁situation	-7.08812
▁hand	-7.09033
▁out	-7.09931
▁children	-7.11132
▁wave	-7.1218
▁There	-7.13089
hief	-7.13852
▁under	-7.14199
▁P	-7.14788
er	-7.16803
▁However	-7.17042
▁Covid	-7.1737
▁only	-7.17867
▁treatment	-7.1805
▁We	-7.182
se	-7.2002
▁countries	-7.2013
▁available	-7.20994
▁take	-7.2117
▁up	-7.22296
▁spread	-7.22858
▁over	-7.2303
▁infected	-7.23132
▁your	-7.23452
▁April	-7.23484
▁work	-7.23897
▁If	-7.24066
▁2020	-7.25668
▁any	-7.26767
▁during	-7.26917
▁need	-7.28183
▁against	-7.28253
r	-7.29096
▁What	-7.29423
▁when	-7.30711
▁used	-7.31397
▁while	-7.31615
es	-7.3202
▁risk	-7.32102
▁cent	-7.32142
▁now	-7.32612
▁year	-7.32897
▁Pune	-7.32911
▁B	-7.3354
▁those	-7.33545
▁system	-7.33673
;	-7.33868
▁vaccinated	-7.33911
▁home	-7.34688
▁As	-7.35257
m	-7.36652
▁taken	-7.36987
."	-7.37479
▁medical	-7.37591
▁Thackeray	-7.38222
▁his	-7.38904
▁hospitals	-7.39591
▁reported	-7.39615
▁coronavirus	-7.39937
▁through	-7.39986
sh	-7.41179
▁-	-7.41893
▁10	-7.42522
o	-7.42628
th	-7.42766
▁large	-7.43134
▁made	-7.43912
▁restrictions	-7.44634
▁public	-7.44882
▁how	-7.44976
ould	-7.45654
▁China	-7.46437
c	-7.46439
▁world	-7.46771
▁care	-7.48151
▁beds	-7.48657
▁them	-7.49012
▁lakh	-7.49041
▁patient	-7.49429
▁workers	-7.50008
▁current	-7.5137
ther	-7.52364
▁like	-7.52495
▁including	-7.5255
▁announced	-7.53356
▁areas	-7.54003
▁outbreak	-7.54204
▁its	-7.5447
▁So	-7.54531
fter	-7.54543
▁covid	-7.5544
ic	-7.55736
▁important	-7.55737
-2	-7.55817
▁started	-7.5687
▁information	-7.57383
▁most	-7.58011
▁come	-7.58388
▁Hospital	-7.58785
▁even	-7.58873
▁well	-7.59097
▁what	-7.60331
u	-7.60553
▁same	-7.60748
▁increased	-7.60935
▁go	-7.62092
▁years	-7.62347
▁closed	-7.62578
▁did	-7.62916
▁1	-7.62998
"	-7.63322
▁testing	-7.6343
i	-7.6367
▁high	-7.63716
b	-7.64032
▁our	-7.64236
▁doctors	-7.6466
▁positive	-7.65148
▁tests	-7.65174
▁r	-7.65175
▁age	-7.65265
▁rate	-7.65873
▁supply	-7.66024
▁increase	-7.66107
▁few	-7.66476
▁increasing	-7.66476
▁city	-7.67408
▁body	-7.67448
or	-7.67817
2	-7.67823
▁crore	-7.67846
▁administration	-7.67848
▁F	-7.6826
▁case	-7.68703
/	-7.68769
▁hands	-7.69023
▁between	-7.69703
▁where	-7.70196
▁contact	-7.70376
▁states	-7.70376
g	-7.70856
▁Center	-7.71017
▁Uddhav	-7.71117
▁effective	-7.71359
▁respirator	-7.7152
▁prevent	-7.72031
very	-7.72058
▁person	-7.72301
▁students	-7.72751
▁drug	-7.72974
ting	-7.73013
▁Modi	-7.73062
▁deaths	-7.73495
▁data	-7.745
▁died	-7.74541
an	-7.74795
▁help	-7.74893
▁into	-7.75478
▁Delhi	-7.75496
▁could	-7.76505
▁does	-7.7713
▁then	-7.77305
▁central	-7.77442
▁three	-7.77999
▁around	-7.78147
▁travel	-7.78181
▁before	-7.7851
▁citizens	-7.78666
▁school	-7.79042
▁2	-7.79491
▁BBC	-7.79538
▁decision	-7.79563
▁death	-7.79566
▁dose	-7.79733
▁T	-7.79954
▁period	-7.80575
▁5	-7.80627
▁Prim	-7.8068
▁million	-7.81149
1	-7.8121
▁UK	-7.82161
▁meeting	-7.82369
▁At	-7.8244
ion	-7.82772
▁say	-7.83049
▁severe	-7.83366
▁doses	-7.83734
ndra	-7.83887
The	-7.84208
S	-7.84272
▁social	-7.84342
ce	-7.85403
▁include	-7.8574
▁study	-7.8594
▁different	-7.85941
▁private	-7.85942
st	-7.86188
▁hours	-7.86321
▁Wh	-7.8644
▁Unit	-7.86494
▁every	-7.86541
▁present	-7.87061
ation	-7.882
▁12	-7.88641
▁education	-7.88744
▁January	-7.88816
▁allowed	-7.88965
ive	-7.90054
▁tested	-7.90153
▁possible	-7.90524
▁Institute	-7.91032
▁rules	-7.91219
▁working	-7.92
▁local	-7.92203
A	-7.92274
▁Rs	-7.92331
▁3	-7.93307
▁For	-7.93408
▁report	-7.93969
▁washing	-7.94408
),	-7.94639
▁mask	-7.94849
▁7	-7.95021
).	-7.95702
▁far	-7.95722
p	-7.95739
▁schools	-7.96975
unicipal	-7.96988
▁make	-7.97205
▁campaign	-7.97318
▁cause	-7.97434
▁control	-7.9783
on	-7.97858
▁center	-7.9813
▁Raje	-7.98659
▁E	-7.98674
ural	-7.98766
▁develop	-7.98878
▁Government	-7.98916
▁whe	-7.99207
▁February	-7.99538
▁shortage	-7.99862
▁open	-8.00179
▁Some	-8.0021
▁6	-8.00254
▁States	-8.00724
▁20	-8.00923
▁Many	-8.00946
▁May	-8.01459
re	-8.01535
▁area	-8.0158
▁19	-8.01848
▁level	-8.01936
▁company	-8.02046
▁week	-8.02218
▁called	-8.02339
▁thousand	-8.02466
▁set	-8.02655
le	-8.03198
▁developed	-8.03343
peaking	-8.0399
cross	-8.04172
▁affected	-8.0439
▁pandemic	-8.04669
refore	-8.05124
▁Union	-8.05339
▁using	-8.05825
▁regard	-8.06007
▁held	-8.06008
▁reach	-8.06012
▁total	-8.07157
▁become	-8.07365
▁because	-8.0738
▁masks	-8.07726
▁low	-8.07959
▁demand	-8.08113
▁seen	-8.08118
▁both	-8.08325
▁still	-8.08755
▁R	-8.08872
▁re	-8.09028
▁measures	-8.09064
▁since	-8.09435
ar	-8.09936
▁result	-8.10007
▁blood	-8.10131
▁much	-8.10131
▁transmission	-8.10132
▁provide	-8.10302
▁months	-8.10533
▁human	-8.10885
C	-8.11051
▁done	-8.11089
▁15	-8.11167
ers	-8.11408
ten	-8.11617
▁heart	-8.12286
▁clinical	-8.12324
▁24	-8.12732
▁14	-8.12795
▁place	-8.1296
▁percent	-8.12964
taking	-8.13032
till	-8.13098
▁among	-8.13148
ment	-8.1337
▁show	-8.13511
▁today	-8.13615
▁down	-8.13774
▁Kovid	-8.14455
E	-8.14572
▁production	-8.15176
▁D	-8.15483
▁11	-8.15564
▁Ministry	-8.15915
▁population	-8.15942
▁places	-8.15996
▁p	-8.16138
▁going	-8.16529
▁Nagpur	-8.16655
▁emergency	-8.16703
▁third	-8.17482
▁less	-8.17705
▁WHO	-8.17711
▁8	-8.17854
▁four	-8.18101
▁next	-8.18165
▁surveillance	-8.18187
▁media	-8.18262
▁higher	-8.18299
I	-8.18501
▁process	-8.18861
▁samples	-8.19459
▁When	-8.19845
▁known	-8.19848
▁World	-8.20473
▁N	-8.20483
▁doctor	-8.20505
▁asked	-8.20553
▁imposed	-8.20555
▁issued	-8.20615
▁50	-8.20875
▁reduce	-8.21184
▁U	-8.21236
ies	-8.21273
▁response	-8.21273
▁State	-8.2132
f	-8.21478
▁research	-8.21927
▁30	-8.21932
▁Tope	-8.22046
▁How	-8.22053
▁five	-8.22061
ur	-8.22609
▁fight	-8.22867
▁support	-8.22877
▁18	-8.23034
▁conditions	-8.23403
▁va	-8.23742
▁long	-8.23763
▁another	-8.23866
▁start	-8.23912
▁experts	-8.23916
though	-8.24092
▁stay	-8.24464
▁Al	-8.25777
▁crisis	-8.26074
▁keep	-8.26074
▁told	-8.26095
rious	-8.26099
▁All	-8.26685
▁Indian	-8.2685
▁further	-8.26901
▁fever	-8.26903
▁approved	-8.26993
▁9	-8.27129
▁4	-8.27287
▁likely	-8.27491
▁sent	-8.27741
▁phase	-8.27882
▁me	-8.28561
▁un	-8.28574
▁early	-8.28574
▁services	-8.28823
▁end	-8.29129
▁according	-8.29185
▁trials	-8.29396
▁protect	-8.29396
▁continue	-8.29416
▁staff	-8.29422
▁Serum	-8.29422
▁small	-8.29423
▁fire	-8.29434
▁police	-8.29437
▁family	-8.29447
▁addition	-8.29887
6	-8.2991
4	-8.30238
▁yet	-8.30276
▁Organization	-8.30277
▁least	-8.3028
▁rapidly	-8.30391
▁soap	-8.30466
▁don	-8.30962
▁again	-8.31096
▁Corporation	-8.31139
en	-8.31166
▁water	-8.31235
▁face	-8.31297
▁coronary	-8.31299
▁Chinese	-8.32135
te	-8.32222
▁admitted	-8.32886
▁distance	-8.32985
▁essential	-8.3304
▁group	-8.33121
▁University	-8.33785
▁department	-8.34018
▁condition	-8.34043
▁b	-8.34201
▁difficult	-8.34635
▁touch	-8.34664
▁non	-8.35495
▁centers	-8.36061
▁closures	-8.36064
▁know	-8.36365
▁him	-8.36474
▁avoid	-8.36758
▁app	-8.37014
ve	-8.37066
▁question	-8.37155
▁No	-8.37813
based	-8.38093
▁similar	-8.38316
▁People	-8.38517
-19.	-8.38686
▁infections	-8.38896
▁each	-8.39255
▁US	-8.3926
▁epidemic	-8.39268
not	-8.39523
ile	-8.39716
h	-8.40138
▁Pradesh	-8.40195
▁weeks	-8.40529
▁lack	-8.4115
▁six	-8.4115
▁To	-8.41161
▁Nare	-8.41224
▁wear	-8.41304
w	-8.41437
▁Medic	-8.41657
at	-8.42015
▁am	-8.42079
▁women	-8.42108
▁critical	-8.42148
▁my	-8.42185
▁based	-8.42357
▁coming	-8.42441
▁month	-8.42579
▁order	-8.4287
▁pain	-8.43079
▁community	-8.43081
▁June	-8.43101
▁immune	-8.43108
▁V	-8.43157
▁And	-8.4329
lying	-8.43801
▁Wuhan	-8.44157
▁village	-8.44501
7	-8.44549
0	-8.44588
▁quarantine	-8.45029
▁back	-8.45074
▁decided	-8.45152
▁parents	-8.45226
able	-8.45414
▁sever	-8.45765
▁capacity	-8.4605
▁highest	-8.4609
▁give	-8.46139
▁development	-8.46275
▁required	-8.46337
▁good	-8.46536
▁Also	-8.47061
▁house	-8.47112
▁general	-8.47129
ity	-8.47139
▁Even	-8.4722
▁16	-8.47345
▁relat	-8.47403
um	-8.47466
▁companies	-8.4808
▁antibodies	-8.48126
▁young	-8.48162
▁expected	-8.48167
N	-8.487
▁chest	-8.49111
▁daily	-8.49121
▁BJP	-8.49142
▁cold	-8.49143
k	-8.492
▁effects	-8.49241
▁received	-8.49259
▁conducted	-8.4938
▁evidence	-8.50153
▁safety	-8.50161
▁You	-8.50358
am	-8.50366
▁confirmed	-8.50424
▁serious	-8.50906
cute	-8.51207
▁clear	-8.51249
il	-8.51805
▁able	-8.51923
▁global	-8.51981
▁caus	-8.52031
▁Marathi	-8.52269
▁ICU	-8.5235
▁MERS	-8.524
▁half	-8.52438
▁growing	-8.52583
▁reason	-8.52779
▁viruses	-8.52987
▁lives	-8.53172
▁action	-8.53201
8	-8.53338
▁Pawar	-8.53348
▁Amravati	-8.53376
▁night	-8.53389
▁results	-8.53539
▁here	-8.53757
▁K	-8.53778
▁provided	-8.53869
▁relatives	-8.53897
▁flu	-8.54429
▁Bharat	-8.54451
▁Europe	-8.54464
▁her	-8.54654
ially	-8.55042
▁New	-8.55087
▁want	-8.55138
▁see	-8.55249
▁us	-8.55282
▁ventilators	-8.55327
▁air	-8.55405
▁why	-8.55531
▁cities	-8.55538
▁South	-8.55588
▁cost	-8.55634
▁humans	-8.5571
▁came	-8.56282
▁way	-8.56313
▁Biotech	-8.56641
▁Meanwhile	-8.56641
▁look	-8.56641
▁Italy	-8.56647
▁active	-8.56652
▁main	-8.56661
▁online	-8.56881
it	-8.57438
▁outside	-8.57766
v	-8.57841
▁shops	-8.57985
▁treat	-8.58246
espec	-8.58526
▁safe	-8.58892
▁facilities	-8.58901
▁National	-8.58902
▁full	-8.59011
ch	-8.59161
▁registered	-8.5917
▁diseases	-8.59353
M	-8.59565
▁common	-8.59765
▁W	-8.60015
▁1.	-8.60045
▁everyone	-8.60072
▁persons	-8.60246
We	-8.60333
▁close	-8.6075
R	-8.60819
▁strain	-8.60885
▁spreading	-8.60892
▁name	-8.60934
▁immediately	-8.61327
▁others	-8.61458
▁took	-8.61732
▁2019	-8.62004
▁service	-8.62042
▁problems	-8.62136
▁she	-8.62231
▁right	-8.6239
▁away	-8.62391
▁districts	-8.62456
9	-8.62489
▁needs	-8.63466
▁remain	-8.63621
▁December	-8.63741
▁considered	-8.6408
▁follow	-8.64185
▁HCoV	-8.64533
▁officials	-8.64712
▁major	-8.64765
▁part	-8.65178
est	-8.65288
▁following	-8.65587
▁necessary	-8.66005
▁negative	-8.66005
▁needed	-8.66009
▁enter	-8.6601
▁contain	-8.66026
▁anti	-8.66072
▁viral	-8.66098
▁released	-8.66116
▁Dur	-8.66177
▁find	-8.66409
P	-8.6647
,000	-8.66517
▁affect	-8.66617
▁Do	-8.66712
,"	-8.66897
▁Pfizer	-8.67239
▁pneumonia	-8.67239
ublic	-8.67351
▁L	-8.67519
ent	-8.67861
▁force	-8.68067
▁letter	-8.68166
▁host	-8.68212
▁influenza	-8.68489
▁big	-8.68512
and	-8.68615
▁recommend	-8.6909
▁100	-8.6942
▁enough	-8.69755
▁market	-8.70016
ary	-8.70129
▁head	-8.70287
▁O	-8.70355
▁An	-8.70377
▁recommended	-8.70384
3	-8.70559
▁issue	-8.70606
▁change	-8.70658
▁stop	-8.71034
▁mortality	-8.71039
▁having	-8.7104
ical	-8.71046
▁experience	-8.71047
▁suspect	-8.71075
▁unti	-8.71788
▁national	-8.72166
us	-8.72285
▁declining	-8.72336
▁mild	-8.72336
▁genome	-8.72497
▁guidelines	-8.72509
▁informed	-8.72566
▁pm	-8.72604
▁own	-8.73225
▁strict	-8.73432
▁lead	-8.73565
▁task	-8.73653
▁G	-8.73689
▁Remedesivir	-8.73706
pite	-8.73716
▁learning	-8.74134
ate	-8.7428
▁check	-8.74345
▁means	-8.74388
▁taluka	-8.74755
▁produce	-8.75084
▁Now	-8.75088
B	-8.75155
▁times	-8.75188
▁ACE	-8.75299
▁free	-8.75485
ness	-8.75811
▁effect	-8.76129
▁type	-8.76161
▁covacin	-8.76341
▁later	-8.764
▁food	-8.76431
▁22	-8.76567
▁One	-8.7659
▁undergo	-8.77002
▁cells	-8.77112
▁questions	-8.7724
kar	-8.77248
ance	-8.77366
▁senior	-8.77708
to	-8.77744
▁implemented	-8.78013
▁levels	-8.78209
▁cough	-8.78288
▁visit	-8.7891
▁room	-8.78929
▁examination	-8.78984
▁lot	-8.79096
▁impact	-8.79107
▁Oxford	-8.79136
▁September	-8.79185
▁require	-8.79486
▁passengers	-8.79543
%	-8.79812
▁post	-8.80107
▁Centr	-8.80231
▁lung	-8.80388
▁survey	-8.80504
▁above	-8.80504
▁District	-8.80504
▁example	-8.80505
▁Vaccination	-8.80547
▁began	-8.80613
▁drugs	-8.8071
▁side	-8.8072
▁al	-8.81276
▁co	-8.81691
tic	-8.81774
old	-8.81777
▁illness	-8.81873
▁short	-8.81918
▁already	-8.81932
▁might	-8.81932
▁just	-8.81946
▁political	-8.81991
▁healthcare	-8.81999
▁31	-8.82305
vel	-8.82316
▁statement	-8.82393
age	-8.82902
▁leaders	-8.82973
▁demanded	-8.83243
▁appear	-8.83267
▁alcohol	-8.83382
▁sick	-8.83384
▁mus	-8.83398
▁c	-8.8341
un	-8.83584
▁shown	-8.836
▁completely	-8.8361
▁23	-8.84186
▁con	-8.84601
▁45	-8.84752
▁near	-8.84849
▁Department	-8.84852
▁single	-8.84852
▁worldwide	-8.84892
▁published	-8.84913
▁Is	-8.84935
▁17	-8.84937
▁isolation	-8.85038
▁21	-8.8512
▁man	-8.85233
the	-8.85362
▁consider	-8.8568
▁proper	-8.86141
▁40	-8.86233
▁office	-8.86247
▁wash	-8.86249
▁fear	-8.86284
▁minister	-8.86311
▁RNA	-8.86345
▁Research	-8.86345
▁More	-8.86354
▁form	-8.86675
uty	-8.86723
ll	-8.87301
▁run	-8.87791
▁e	-8.87856
▁Fadnavis	-8.8786
▁underway	-8.8786
▁planning	-8.87861
▁President	-8.87864
▁allow	-8.8796
▁soon	-8.88065
▁put	-8.88145
▁trying	-8.88247
▁produced	-8.88301
▁pay	-8.88305
▁toll	-8.8842
▁reduced	-8.88442
-19,	-8.88789
▁things	-8.88851
▁25	-8.88945
▁bats	-8.88947
▁practices	-8.88947
▁syndrome	-8.89398
▁attend	-8.894
▁past	-8.89402
▁genetic	-8.89404
▁Dep	-8.89454
▁Lockdown	-8.8948
▁General	-8.89498
▁date	-8.89565
▁Patients	-8.89614
H	-8.89751
▁leader	-8.89962
▁Co	-8.90222
▁laboratory	-8.90961
▁life	-8.90962
▁Home	-8.90963
▁once	-8.90965
▁trial	-8.91141
▁board	-8.91177
▁instructions	-8.91189
▁statistics	-8.91268
▁reasons	-8.91629
T	-8.9174
▁transport	-8.91861
00	-8.91879
▁review	-8.91913
la	-8.92362
▁curfew	-8.92548
▁industry	-8.92548
▁exposure	-8.92548
▁chain	-8.92552
▁offices	-8.92579
▁economic	-8.92597
▁victims	-8.92611
▁special	-8.92679
▁Aji	-8.92688
▁lower	-8.92871
▁discussed	-8.92876
year	-8.93005
▁waste	-8.93055
▁13	-8.93123
▁rates	-8.93156
▁individuals	-8.93365
▁think	-8.93385
▁H	-8.93401
▁60	-8.93476
▁exams	-8.93915
▁vaccinate	-8.93963
▁Commission	-8.93981
▁late	-8.94132
RCGP	-8.94161
▁immunity	-8.94161
▁financial	-8.94183
▁d	-8.94208
▁variant	-8.94248
▁view	-8.94285
▁official	-8.94288
▁animal	-8.94371
▁ill	-8.9445
▁changes	-8.94473
D	-8.94629
rom	-8.95442
ig	-8.95473
li	-8.95492
▁incidence	-8.958
▁left	-8.958
▁municipal	-8.95807
▁role	-8.95808
▁That	-8.95816
▁challenge	-8.9592
▁directly	-8.95995
▁Du	-8.96093
▁coronaviruses	-8.96136
▁employees	-8.96149
▁went	-8.96204
▁limited	-8.96333
▁f	-8.96557
ri	-8.96795
▁Kumbh	-8.97467
▁Uttar	-8.97467
▁entire	-8.97467
▁Thane	-8.97467
▁stopped	-8.97467
▁permission	-8.9747
▁pre	-8.97512
▁Sunday	-8.97519
▁sector	-8.97602
▁discussion	-8.97607
▁Vaccine	-8.97611
▁breathing	-8.97934
▁nose	-8.98281
▁causes	-8.98404
▁2021	-8.98647
▁call	-8.98704
▁potential	-8.9888
▁Secretary	-8.99162
▁Mela	-8.99162
▁equipment	-8.99162
▁president	-8.99164
▁Friday	-8.99192
▁Police	-8.99192
▁usual	-8.99234
na	-8.99467
▁created	-8.99561
came	-8.9973
▁Raj	-8.9981
ous	-8.99887
ter	-9.00003
▁reports	-9.00113
▁news	-9.00244
▁injections	-9.00543
id	-9.00642
▁off	-9.00783
▁class	-9.00862
▁too	-9.00867
▁Congress	-9.00886
▁video	-9.00886
▁families	-9.00887
▁onset	-9.00895
▁RSC	-9.00958
▁expressed	-9.00979
▁Care	-9.00984
▁project	-9.01094
▁ensur	-9.01402
▁followed	-9.01788
ol	-9.02257
▁Disease	-9.0264
▁pressure	-9.02641
▁Kumar	-9.02641
▁matter	-9.02641
▁With	-9.02672
▁effectiveness	-9.02699
▁Commissioner	-9.0282
im	-9.03091
5	-9.03194
ay	-9.0333
▁28	-9.03886
▁complete	-9.04047
▁infectious	-9.04411
▁contract	-9.0442
▁occasion	-9.04426
▁authorities	-9.04426
▁together	-9.04427
▁studies	-9.04427
▁plan	-9.04458
▁Ab	-9.04529
▁exam	-9.04607
up	-9.04628
▁CDC	-9.04654
▁temperature	-9.04669
▁specific	-9.04682
ad	-9.04785
▁kits	-9.0523
▁200	-9.05521
▁She	-9.05578
▁car	-9.05791
▁crowd	-9.05924
▁High	-9.06244
▁future	-9.06244
▁Of	-9.06246
▁Patil	-9.06247
▁mandatory	-9.06248
▁Control	-9.06277
▁Other	-9.06315
▁raised	-9.06409
▁2020.	-9.06504
▁de	-9.06513
▁protein	-9.06602
▁parts	-9.06737
like	-9.06958
▁Nashik	-9.08096
▁Association	-9.08097
▁leave	-9.08099
▁Will	-9.08102
▁Education	-9.0813
▁Covishield	-9.08151
▁ago	-9.08417
▁ventilator	-9.08442
▁figures	-9.08461
▁events	-9.08728
ne	-9.09106
▁international	-9.09316
▁rise	-9.09902
▁access	-9.09983
▁bring	-9.09985
▁Sonu	-9.10017
▁standard	-9.10018
▁hygiene	-9.10022
▁PPE	-9.10106
▁containment	-9.10175
ide	-9.10188
▁recovered	-9.1027
▁nurses	-9.10326
▁injection	-9.10367
▁medicine	-9.10406
ac	-9.10751
▁train	-9.10837
In	-9.11025
▁Sa	-9.11104
▁ordered	-9.11209
▁groups	-9.11388
led	-9.1141
▁feel	-9.11451
▁limit	-9.11664
▁animals	-9.11794
▁inter	-9.11803
▁Office	-9.11837
▁90	-9.11878
▁amount	-9.11906
▁Since	-9.11906
▁College	-9.11929
▁antiviral	-9.11946
▁attention	-9.11955
▁declared	-9.11999
▁front	-9.12045
▁Oxygen	-9.12054
▁Mos	-9.12095
▁ready	-9.121
▁gone	-9.1214
▁extended	-9.12169
▁quarantined	-9.12298
▁26	-9.12303
▁problem	-9.12325
tric	-9.12437
▁though	-9.12488
".	-9.1277
▁controls	-9.12802
▁got	-9.13043
▁concern	-9.13666
tensive	-9.13865
▁tell	-9.13871
▁hit	-9.13879
▁live	-9.14153
▁issues	-9.14255
▁l	-9.14273
▁tweeted	-9.14291
▁factors	-9.14385
▁School	-9.14394
▁numbers	-9.14444
▁Don	-9.14486
ta	-9.14493
▁personal	-9.14574
▁70	-9.14706
ish	-9.14838
▁80	-9.15432
▁prevalen	-9.1567
▁child	-9.15859
▁diarrhea	-9.15867
▁policy	-9.15867
▁sequencing	-9.15867
▁Court	-9.15867
▁average	-9.15867
▁diabetes	-9.15868
▁seven	-9.15871
▁society	-9.15876
▁send	-9.1588
▁alone	-9.15881
▁identified	-9.15958
▁exist	-9.15977
▁primary	-9.16045
▁AstraZeneca	-9.16258
▁claimed	-9.1626
▁Drug	-9.1635
▁included	-9.16604
April	-9.16753
▁saying	-9.1686
▁systems	-9.17177
▁ten	-9.17221
▁CoVs	-9.17423
▁writ	-9.17616
ized	-9.17633
▁season	-9.17692
▁save	-9.17712
ally	-9.17846
▁Vasai	-9.17908
▁Director	-9.17919
▁fund	-9.17979
▁Officer	-9.17981
▁added	-9.18003
▁asymptomatic	-9.18082
▁appealed	-9.18109
▁self	-9.18185
▁point	-9.18397
▁team	-9.18423
▁monitor	-9.18544
▁fac	-9.18557
▁Re	-9.19201
▁detect	-9.19367
▁rapid	-9.19711
ro	-9.1981
▁gave	-9.19992
▁little	-9.19992
▁morning	-9.19992
▁Collector	-9.19994
▁director	-9.20028
▁scientists	-9.2021
▁types	-9.20263
▁killed	-9.20408
av	-9.20482
as	-9.20515
▁suggested	-9.20555
▁application	-9.20558
▁mutation	-9.2057
▁along	-9.20591
nt	-9.20874
wide	-9.20917
▁seems	-9.21198
ng	-9.21803
▁account	-9.22115
▁Bengal	-9.22119
▁particular	-9.22119
▁beginning	-9.22119
▁skin	-9.22122
▁distribution	-9.22126
▁compared	-9.22266
▁observed	-9.22332
▁changed	-9.22454
▁West	-9.22481
ut	-9.2251
▁m	-9.22621
ul	-9.22671
▁bat	-9.22717
▁practice	-9.22752
▁Man	-9.22783
▁dry	-9.22809
▁learn	-9.23771
ry	-9.23857
▁medicines	-9.23865
de	-9.23916
▁sit	-9.23984
▁release	-9.24093
▁Palghar	-9.24293
▁advice	-9.24293
▁lost	-9.24293
▁Singh	-9.24306
▁adults	-9.24345
▁schedule	-9.24409
▁estimated	-9.24454
▁diagnosed	-9.24459
▁create	-9.24464
▁HCoVs	-9.24893
▁stage	-9.24971
▁sample	-9.24978
▁hour	-9.25155
most	-9.2536
▁treated	-9.25508
▁stages	-9.2583
O	-9.25919
▁Bo	-9.26059
▁Britain	-9.26515
▁MLA	-9.26515
▁scheme	-9.26515
▁court	-9.26515
▁natural	-9.26515
▁tracing	-9.26515
▁stress	-9.26517
▁announcement	-9.26526
▁possibility	-9.26526
▁Pra	-9.26532
▁nation	-9.26548
▁however	-9.26549
▁Saturday	-9.26555
▁hospitalized	-9.26608
▁1,	-9.26666
mbo	-9.26695
▁lungs	-9.26701
▁associated	-9.26803
▁Ju	-9.26845
▁list	-9.26919
▁fact	-9.26952
▁ra	-9.27003
▁bacteria	-9.27004
▁talking	-9.2716
▁officer	-9.2734
▁steps	-9.27343
▁men	-9.27489
▁depend	-9.27554
PCR	-9.27603
less	-9.2764
▁aim	-9.28148
▁Not	-9.28171
F	-9.28183
ory	-9.28245
▁initial	-9.28368
▁29	-9.28507
▁Varsha	-9.28788
▁certain	-9.28788
▁mobile	-9.28788
▁religious	-9.28788
▁living	-9.28788
▁mouth	-9.28788
▁France	-9.28788
▁remedivir	-9.28788
▁throat	-9.28788
▁Rahu	-9.28794
▁history	-9.28818
▁normal	-9.28831
▁making	-9.28886
▁Germany	-9.28928
ated	-9.2896
▁status	-9.28986
part	-9.29149
▁antibody	-9.29155
▁efforts	-9.29533
iv	-9.29791
▁flights	-9.29816
om	-9.29827
chief	-9.30442
▁suggest	-9.30479
▁maintain	-9.3048
▁separate	-9.30857
▁Korea	-9.31001
▁great	-9.31035
▁hard	-9.31099
▁behind	-9.31113
▁economy	-9.31113
▁supplied	-9.31113
▁Joshi	-9.31114
▁successful	-9.31118
▁RTPCR	-9.31123
▁former	-9.31241
▁launched	-9.31284
▁recently	-9.31342
It	-9.31397
▁findings	-9.31537
▁minutes	-9.31833
ty	-9.31846
▁answer	-9.31925
▁paper	-9.31988
▁thing	-9.32011
▁direct	-9.32572
ra	-9.32574
▁mutations	-9.32836
▁conduct	-9.33036
▁Africa	-9.33382
▁business	-9.33414
day	-9.33457
▁Expert	-9.33494
▁course	-9.33494
▁focus	-9.33494
▁physical	-9.33494
▁remedicivir	-9.33494
▁request	-9.33494
▁turn	-9.33494
kept	-9.33496
▁awareness	-9.33501
▁press	-9.33528
▁huge	-9.33548
▁PHE	-9.33649
▁delivery	-9.33659
▁completed	-9.33985
▁location	-9.34348
▁organization	-9.34389
▁training	-9.34501
pur	-9.35557
▁governments	-9.35579
ho	-9.35583
L	-9.35593
▁previous	-9.35648
ia	-9.35682
▁notice	-9.35743
▁Russia	-9.35822
▁Gujarat	-9.35933
▁Thursday	-9.35933
▁picture	-9.35933
▁conference	-9.35934
▁criticized	-9.36081
▁g	-9.36132
▁researchers	-9.36242
▁scale	-9.36384
line	-9.36386
▁colleges	-9.36728
ful	-9.36882
ial	-9.36988
ash	-9.37078
▁card	-9.3709
There	-9.37428
▁tri	-9.37476
▁des	-9.37811
▁proteins	-9.38017
▁Gaikwad	-9.38433
▁Satara	-9.38433
▁backdrop	-9.38433
▁bodies	-9.38433
▁contagious	-9.38433
▁responsibility	-9.38433
▁environment	-9.38433
▁phone	-9.38435
▁priority	-9.38445
▁exactly	-9.38524
▁Today	-9.38532
▁virology	-9.38534
▁recovery	-9.38612
▁Last	-9.38643
▁27	-9.38789
29	-9.3886
▁die	-9.38881
▁RT	-9.38919
▁passed	-9.38922
▁markets	-9.38937
▁suffering	-9.38977
▁species	-9.38985
▁whole	-9.38988
▁vaccinations	-9.39184
▁monitoring	-9.39415
▁hotel	-9.39435
▁stock	-9.39448
di	-9.3954
▁move	-9.39571
▁stocks	-9.39968
ist	-9.40085
el	-9.4018
▁play	-9.40529
ip	-9.40571
▁happen	-9.40586
▁projects	-9.40688
▁PM	-9.40909
▁Brazil	-9.40992
▁black	-9.40997
▁Guardian	-9.40997
▁laboratories	-9.40997
▁manufacturing	-9.40997
▁sudden	-9.40997
▁Trump	-9.40998
▁Information	-9.41003
▁growth	-9.41055
▁Monday	-9.41074
▁swab	-9.41106
▁Coronavirus	-9.41107
▁running	-9.41113
▁protection	-9.41121
▁Force	-9.41174
▁Pha	-9.4123
▁returned	-9.41535
▁2.	-9.41707
▁Ma	-9.41933
▁terms	-9.42008
▁program	-9.42017
▁option	-9.42071
▁elections	-9.42204
rought	-9.42349
▁pro	-9.42432
he	-9.4259
▁collect	-9.42823
▁register	-9.43005
ank	-9.43235
▁presen	-9.43275
▁decide	-9.43506
me	-9.4355
▁cur	-9.43622
▁Opposition	-9.43629
▁Solapur	-9.43629
▁responsible	-9.43629
▁scientific	-9.43629
▁session	-9.43629
▁distancing	-9.43629
▁paid	-9.43629
▁woman	-9.43629
▁acid	-9.4363
▁final	-9.43639
▁anyone	-9.43877
▁Emergenc	-9.43904
▁Currently	-9.43959
ak	-9.43966
▁2,	-9.44044
▁crowded	-9.44542
▁tankers	-9.44665
▁protocol	-9.4476
▁sanitizer	-9.44782
▁cell	-9.44788
▁region	-9.44815
▁difference	-9.4482
ant	-9.44941
▁seem	-9.44945
ood	-9.45025
K	-9.45131
COVID	-9.45178
▁bed	-9.45186
▁Des	-9.45221
vi	-9.45311
▁Ra	-9.45411
▁grow	-9.45472
▁significant	-9.46049
man	-9.46119
▁Additional	-9.46332
▁Aurangabad	-9.46332
▁appropriate	-9.46332
▁tonnes	-9.46332
▁Two	-9.46332
▁digital	-9.46333
▁better	-9.46334
▁break	-9.46344
▁ministers	-9.46393
▁unit	-9.46396
▁transportation	-9.46397
▁Adar	-9.46443
▁Z	-9.4646
▁decreased	-9.46468
▁isolated	-9.46502
▁technology	-9.46549
▁longer	-9.466
▁involved	-9.46603
▁procedures	-9.46743
▁doing	-9.46955
▁concerned	-9.47252
▁closure	-9.47569
▁additional	-9.47586
▁Are	-9.47604
esh	-9.47605
ya	-9.4768
▁sanitizers	-9.47908
▁mean	-9.47917
▁comes	-9.48093
▁talk	-9.4831
▁old	-9.48484
20	-9.48485
▁sub	-9.4859
▁address	-9.48631
▁origin	-9.48682
▁plans	-9.48708
▁approach	-9.49036
▁Poonawala	-9.49109
▁strong	-9.49109
▁studied	-9.49109
▁universities	-9.49109
▁rush	-9.49109
▁space	-9.4911
▁never	-9.4911
▁Prevention	-9.49113
▁storage	-9.49114
▁dead	-9.49124
▁East	-9.49127
▁interest	-9.49137
▁Deve	-9.49165
▁management	-9.49166
▁severity	-9.49169
▁Citizens	-9.49193
▁Wednesday	-9.49226
▁chron	-9.49226
▁November	-9.49259
▁admission	-9.49273
▁Su	-9.49292
▁share	-9.49317
▁Sever	-9.4935
▁thought	-9.49487
▁rest	-9.49555
▁availability	-9.49659
vas	-9.49696
▁ban	-9.49892
▁detected	-9.50108
ud	-9.50257
▁mind	-9.5039
▁benefit	-9.50409
end	-9.50463
▁regulator	-9.50466
ti	-9.50644
▁door	-9.50725
▁homes	-9.50804
WHO	-9.5081
ted	-9.50975
▁officers	-9.51045
▁sign	-9.51101
▁meet	-9.51173
han	-9.5122
▁breath	-9.51254
▁carri	-9.51554
ship	-9.51583
▁real	-9.5159
▁recent	-9.51685
▁mental	-9.5169
▁immediate	-9.51738
95	-9.51789
▁drive	-9.51907
▁sell	-9.51945
▁Passenger	-9.51966
▁Tuesday	-9.51966
▁money	-9.51967
▁planned	-9.51967
▁security	-9.51969
▁Let	-9.5197
▁Task	-9.51977
▁capital	-9.51977
▁feet	-9.51996
▁fall	-9.52005
▁Hyderabad	-9.52018
▁J	-9.5213
▁approval	-9.52131
▁October	-9.52223
G	-9.52383
▁teachers	-9.52406
▁read	-9.52489
▁properly	-9.52513
lve	-9.52516
▁Centers	-9.5258
▁Doctors	-9.52668
▁tweet	-9.52669
▁cured	-9.52735
▁thousands	-9.52994
▁i	-9.5304
advised	-9.53104
▁gym	-9.53294
▁organizations	-9.53821
If	-9.53854
▁buy	-9.5406
▁via	-9.54067
▁48	-9.54085
▁ca	-9.5422
one	-9.54255
ab	-9.54321
is	-9.54329
▁Vaccines	-9.54653
ma	-9.54664
va	-9.54807
▁fast	-9.54832
▁Bhondwe	-9.54908
▁Diwali	-9.54908
▁investigation	-9.54908
▁simple	-9.54908
▁tract	-9.54908
▁Baba	-9.54908
▁subject	-9.54908
▁speed	-9.54908
▁ongoing	-9.54909
▁therapy	-9.5491
▁Nagar	-9.54914
▁dangerous	-9.54915
▁efficacy	-9.5493
▁percentage	-9.54969
▁assess	-9.54975
▁banned	-9.55031
▁committee	-9.55034
▁antigen	-9.55076
▁resources	-9.55166
▁performed	-9.55519
ternational	-9.55962
▁De	-9.56191
▁ages	-9.562
▁field	-9.56313
▁solution	-9.56372
▁journalist	-9.56397
▁return	-9.56496
▁organ	-9.56506
▁relative	-9.56509
ake	-9.56535
▁500	-9.56555
relat	-9.568
▁wide	-9.5688
▁discuss	-9.57057
▁track	-9.57139
V	-9.57169
▁met	-9.57193
▁na	-9.57235
▁implement	-9.57275
▁agricultur	-9.57664
25	-9.5792
▁Committee	-9.57938
▁agencies	-9.57938
▁activity	-9.57938
▁failure	-9.57938
▁Vijay	-9.57939
▁peak	-9.5794
▁intermedia	-9.57942
▁assistance	-9.57942
▁Council	-9.57952
▁toilet	-9.57955
▁Kong	-9.57957
▁etc	-9.5796
▁entry	-9.57988
▁suspend	-9.58009
▁someone	-9.58057
▁classes	-9.58064
▁urban	-9.58097
▁interact	-9.58097
▁provid	-9.58137
▁distributed	-9.58138
▁missing	-9.58175
▁canceled	-9.58182
ily	-9.58188
▁prevention	-9.58199
▁eight	-9.58305
▁recorded	-9.58386
▁cleaning	-9.5856
▁happened	-9.58686
▁News	-9.59186
ji	-9.59253
▁members	-9.59469
▁occur	-9.59493
▁store	-9.59506
▁member	-9.59512
▁4.	-9.5974
▁dis	-9.59743
free	-9.59902
▁departments	-9.60183
▁walk	-9.60339
▁la	-9.60415
▁try	-9.60419
▁kill	-9.61013
▁Ka	-9.61035
▁starting	-9.61056
▁Sputnik	-9.61063
▁sequence	-9.61063
▁Earlier	-9.61063
▁closing	-9.61065
▁Chandrapur	-9.61068
▁hope	-9.61072
ha	-9.61082
▁older	-9.61156
▁Consider	-9.61157
▁billion	-9.61176
▁spike	-9.61195
▁St	-9.61357
▁light	-9.61457
▁established	-9.61492
▁allegations	-9.61551
▁prepared	-9.61677
▁provides	-9.6169
▁contacted	-9.62103
▁claim	-9.62167
▁candidates	-9.62391
▁weekly	-9.62451
▁incident	-9.62689
▁villages	-9.6283
ase	-9.62887
▁ward	-9.62989
SARS	-9.63134
63	-9.63136
▁35	-9.63393
ions	-9.63713
ack	-9.63767
19	-9.64076
▁pass	-9.641
▁variants	-9.64114
▁progress	-9.64205
▁adapt	-9.64249
▁import	-9.64265
▁multi	-9.64287
▁England	-9.64289
▁Kerala	-9.64289
▁Krishna	-9.64289
▁Railway	-9.64289
▁adequate	-9.64289
▁extent	-9.64289
▁link	-9.64289
▁widespread	-9.64289
▁Malik	-9.64289
▁poor	-9.64289
▁exposed	-9.64289
▁understand	-9.64289
▁clarified	-9.64291
▁overall	-9.64291
▁unknown	-9.64294
▁item	-9.64296
▁carry	-9.64307
▁Fund	-9.64312
▁Medicine	-9.64314
▁elderly	-9.64331
▁enzyme	-9.64348
▁parties	-9.64364
▁mentioned	-9.64403
▁Amit	-9.64407
▁pregnant	-9.64466
▁rising	-9.64467
tal	-9.64558
▁offer	-9.64576
▁significantly	-9.64628
▁sore	-9.64703
eal	-9.64921
▁eyes	-9.64933
x	-9.65049
▁directed	-9.65159
▁vehicles	-9.65194
▁Ar	-9.65322
▁cylinders	-9.65349
com	-9.65525
▁shut	-9.65531
▁zone	-9.65996
▁export	-9.66017
▁price	-9.66031
▁traveling	-9.66189
▁original	-9.66209
▁election	-9.6624
▁building	-9.66445
Corona	-9.66467
▁mov	-9.66825
▁outbreaks	-9.66912
▁perform	-9.66997
▁giv	-9.66999
▁Shiv	-9.67025
njay	-9.67275
coming	-9.6736
▁damage	-9.67409
▁except	-9.67499
▁plant	-9.67539
▁August	-9.67622
▁Deshmukh	-9.67622
▁Japan	-9.67622
▁Rajasthan	-9.67622
▁Singapore	-9.67622
▁Twitter	-9.67622
▁earlier	-9.67622
▁segregation	-9.67622
▁ventilation	-9.67622
▁toward	-9.67626
▁Nawa	-9.67636
▁strategies	-9.67642
▁analysis	-9.67683
▁constantly	-9.67694
▁Children	-9.67723
▁San	-9.67764
lu	-9.67879
▁arrested	-9.6789
▁approximate	-9.67907
▁programmes	-9.67916
▁eating	-9.67939
▁examinations	-9.67972
▁hy	-9.68022
▁CT	-9.68131
▁ability	-9.68787
▁...	-9.69022
▁surfaces	-9.69102
▁bio	-9.69184
▁war	-9.69252
Co	-9.69277
▁stores	-9.69335
ological	-9.6936
▁network	-9.69444
▁website	-9.69471
▁receptor	-9.69473
z	-9.69518
▁flight	-9.69525
▁kit	-9.69526
▁orders	-9.69602
care	-9.69673
▁cover	-9.69805
term	-9.70034
▁threat	-9.70078
▁cross	-9.70228
▁Schools	-9.70287
▁fine	-9.70408
use	-9.70586
pe	-9.70793
▁decline	-9.70861
▁decisions	-9.70903
▁multiple	-9.71067
▁Kejriwal	-9.7107
▁Lucas	-9.7107
▁colleagues	-9.7107
▁gradually	-9.7107
▁guidance	-9.7107
▁initiative	-9.7107
▁cabinet	-9.7107
▁Reddy	-9.7107
▁personnel	-9.7107
▁chance	-9.71071
▁facility	-9.71074
▁key	-9.71074
▁coding	-9.71074
▁Covin	-9.71084
▁describ	-9.71088
▁mass	-9.71088
▁Iran	-9.7109
▁Where	-9.71091
▁implementation	-9.71114
▁greater	-9.71188
▁Sood	-9.71278
▁power	-9.71298
▁involve	-9.71319
▁July	-9.71512
ga	-9.71581
▁inform	-9.71837
wa	-9.71938
U	-9.72223
▁Who	-9.72324
▁drying	-9.72386
▁jobs	-9.72597
▁methods	-9.72598
II	-9.7265
▁lab	-9.72696
ied	-9.72721
▁measure	-9.72914
▁infect	-9.72947
▁benefits	-9.72989
▁Can	-9.73055
▁material	-9.73079
▁job	-9.73083
▁surface	-9.73109
▁coughing	-9.73124
▁attack	-9.73159
hi	-9.73286
▁h	-9.7332
▁experienc	-9.734
▁method	-9.73615
j	-9.74008
▁worker	-9.74058
raw	-9.74069
▁meetings	-9.74194
be	-9.74223
ine	-9.74238
▁careful	-9.74434
vin	-9.74523
▁Australia	-9.74526
▁foreign	-9.74616
droxychloroquine	-9.74642
▁Gandhi	-9.74642
▁Hubei	-9.74642
▁Karona	-9.74642
▁Vidarbha	-9.74642
▁alternative	-9.74642
▁clots	-9.74642
▁funeral	-9.74642
▁privacy	-9.74642
▁wedding	-9.74642
▁communities	-9.74643
▁confusion	-9.74643
▁domestic	-9.74644
▁Development	-9.74644
▁reduction	-9.74645
▁Administration	-9.74647
▁hospitalization	-9.74653
▁remedesivir	-9.74666
▁ministry	-9.74669
▁liquid	-9.74708
▁manufactured	-9.74712
▁agent	-9.74731
▁faster	-9.74738
▁range	-9.74806
▁FDA	-9.74806
▁ICMR	-9.74864
▁His	-9.74866
▁postponed	-9.74912
▁Shash	-9.74931
▁adverse	-9.74995
▁serve	-9.75065
▁stored	-9.75074
▁handle	-9.75233
▁tons	-9.75246
▁hosts	-9.75474
▁collected	-9.75511
▁returning	-9.75612
ach	-9.75674
30	-9.76168
▁line	-9.7637
▁Ga	-9.76433
▁Act	-9.76531
▁mother	-9.76756
▁detail	-9.76764
▁candidate	-9.76789
▁options	-9.76806
▁student	-9.76807
ram	-9.76847
tra	-9.76847
▁fill	-9.76976
Y	-9.77094
corona	-9.77192
said	-9.77195
land	-9.77385
cal	-9.77498
▁suffer	-9.77508
▁Give	-9.77531
▁continues	-9.77643
ke	-9.77669
▁Na	-9.77686
▁Or	-9.77706
co	-9.77734
▁crowds	-9.77746
▁respond	-9.77801
cy	-9.77829
▁wait	-9.77866
▁learner	-9.77873
amp	-9.77979
▁tend	-9.7815
▁worse	-9.78233
▁loss	-9.78271
WIN	-9.78345
▁Before	-9.78345
▁basis	-9.78345
▁participating	-9.78345
▁reservoir	-9.78345
▁sneezing	-9.78345
▁Paul	-9.78345
▁household	-9.78345
▁Munde	-9.78346
▁Human	-9.7835
▁section	-9.78353
▁Johnson	-9.78362
60	-9.78525
alian	-9.78541
▁Such	-9.78587
da	-9.78598
▁slowly	-9.78601
▁changing	-9.78772
4%	-9.78858
▁disinfect	-9.78874
▁outcomes	-9.78912
▁speaking	-9.7893
▁manufacturers	-9.79091
▁vegetables	-9.7927
▁strains	-9.79567
▁3.	-9.79769
ros	-9.79786
50	-9.79828
ni	-9.79848
▁Ou	-9.79881
▁youth	-9.79903
ever	-9.79931
ari	-9.80217
har	-9.80252
hal	-9.80411
▁reaction	-9.80682
▁EU	-9.80854
▁CoV	-9.81396
air	-9.81551
ern	-9.81856
war	-9.81907
ade	-9.8195
qu	-9.81992
▁receive	-9.82148
▁hold	-9.82176
▁California	-9.8219
▁British	-9.82192
▁Kolhapur	-9.82192
▁institutions	-9.82192
▁politics	-9.82192
▁tissue	-9.82192
▁husband	-9.82192
▁remote	-9.82192
▁Strict	-9.82192
▁Sena	-9.82194
▁menstruation	-9.82196
▁Ramde	-9.82196
▁preliminary	-9.82199
▁ground	-9.822
▁importance	-9.8221
▁true	-9.82228
▁Hand	-9.82236
worth	-9.82237
▁businesses	-9.82308
▁typical	-9.82401
▁Hon	-9.82416
ond	-9.82483
▁relaxed	-9.82578
▁Then	-9.82633
▁Bha	-9.82722
ities	-9.82825
▁shared	-9.82838
▁potentially	-9.8285
▁waiting	-9.83041
ction	-9.83405
▁party	-9.83556
▁codes	-9.83656
▁clean	-9.83698
ge	-9.83747
▁extra	-9.83854
▁makes	-9.83854
time	-9.84054
▁decrease	-9.84372
▁station	-9.84596
▁tanker	-9.84672
▁Cha	-9.8469
▁apps	-9.84894
March	-9.85037
▁term	-9.85047
▁aid	-9.85145
▁fatalit	-9.85225
10	-9.85234
2)	-9.8566
▁rul	-9.85752
▁millions	-9.85819
Table	-9.85834
andeep	-9.85961
▁abroad	-9.86192
▁activities	-9.86192
▁cluster	-9.86192
▁devotees	-9.86192
▁diagnosis	-9.86192
▁droplets	-9.86192
▁feature	-9.86192
▁resort	-9.86192
▁territories	-9.86192
▁themselves	-9.86192
▁Follow	-9.86192
adhya	-9.86192
▁zoono	-9.86192
▁trouble	-9.86192
▁warned	-9.86192
▁distress	-9.86193
▁middle	-9.86199
▁everything	-9.862
▁cut	-9.86228
▁municipality	-9.86244
io	-9.86262
▁moderate	-9.8628
▁connection	-9.8628
▁50,000	-9.86297
ught	-9.86321
▁Sure	-9.86328
ble	-9.86368
▁Over	-9.86376
▁aerosol	-9.86376
▁super	-9.86422
▁Does	-9.86427
▁act	-9.86573
5%	-9.86576
▁regulations	-9.86612
▁seek	-9.86652
▁degrees	-9.86676
▁designed	-9.86684
▁mid	-9.86726
▁delivered	-9.86786
▁remove	-9.86884
veryone	-9.86973
▁Pro	-9.87049
OC	-9.87057
▁sure	-9.87072
▁settings	-9.87194
vind	-9.87396
▁estimates	-9.8759
▁beta	-9.87703
▁materials	-9.87975
ver	-9.87976
13	-9.88142
▁campaigns	-9.8817
CoVs	-9.88173
▁best	-9.88286
▁Dat	-9.88381
7%	-9.88404
-19)	-9.88467
▁slow	-9.88567
▁code	-9.88608
▁recover	-9.88616
▁ser	-9.88709
▁platform	-9.88784
▁step	-9.88809
ious	-9.89003
▁65	-9.89091
district	-9.89203
covid	-9.89209
▁facilitate	-9.89255
▁trains	-9.89531
ani	-9.89618
▁challenges	-9.90079
▁violat	-9.90284
W	-9.90332
cular	-9.90358
▁Bhushan	-9.90358
▁Bihar	-9.90358
▁Election	-9.90358
▁Jessica	-9.90358
▁Pimpri	-9.90358
▁UNESCO	-9.90358
▁York	-9.90358
▁identify	-9.90358
▁inquiry	-9.90358
▁search	-9.90358
▁twice	-9.90358
▁wrong	-9.90358
▁Biden	-9.90358
▁controversy	-9.90359
▁false	-9.90359
▁supplies	-9.90359
▁opposition	-9.9036
▁bind	-9.90361
▁excluded	-9.90361
saw	-9.90365
▁thus	-9.90365
▁something	-9.90369
▁moment	-9.90375
▁moder	-9.90379
▁majority	-9.90433
▁Di	-9.90448
▁joint	-9.90495
▁useful	-9.90503
▁Ko	-9.90513
ell	-9.90516
▁ei	-9.9053
▁below	-9.90559
▁establishments	-9.90595
▁position	-9.90613
▁Covacin	-9.90636
▁II	-9.90653
▁farmers	-9.90753
▁Bank	-9.90825
100	-9.90975
▁birds	-9.90999
▁handl	-9.91027
▁stated	-9.9109
gainst	-9.91107
olar	-9.91265
of	-9.91274
▁precautions	-9.9134
▁Virar	-9.91413
▁products	-9.91541
▁won	-9.91561
hose	-9.91611
▁record	-9.91622
▁continued	-9.91722
▁Ro	-9.91889
▁300	-9.92117
▁owner	-9.92177
round	-9.92229
▁My	-9.92256
▁Use	-9.92397
▁claims	-9.92436
od	-9.92448
▁requir	-9.92545
▁PCR	-9.92573
▁units	-9.92801
▁bo	-9.92836
▁function	-9.92887
▁hotels	-9.92971
43	-9.92979
ka	-9.92996
ors	-9.93059
▁ambulance	-9.93116
▁expert	-9.93162
▁creat	-9.93298
▁prepar	-9.93322
▁avoided	-9.93333
▁Every	-9.93336
▁applications	-9.9352
nother	-9.9353
human	-9.93553
0%	-9.93683
▁Nit	-9.94208
▁spoke	-9.94495
▁determine	-9.94593
▁ju	-9.94672
▁App	-9.94676
▁success	-9.94697
▁Management	-9.94706
▁accused	-9.94706
▁combination	-9.94706
▁compound	-9.94706
▁empty	-9.94706
▁extreme	-9.94706
▁institute	-9.94706
▁plasma	-9.94706
▁vacancies	-9.94706
▁forward	-9.94708
▁proposal	-9.94708
▁nature	-9.94711
▁camels	-9.94713
▁secretary	-9.94717
▁himself	-9.94718
▁frontline	-9.94728
▁micro	-9.94755
▁bad	-9.94762
gaon	-9.94772
▁Anil	-9.94777
▁instead	-9.94787
▁discharg	-9.94795
▁Kovacin	-9.94796
▁interaction	-9.94901
▁transmitted	-9.94939
▁double	-9.94947
▁obtained	-9.95032
▁41	-9.95047
▁Sanj	-9.95189
▁suppliers	-9.95305
▁400	-9.95333
▁intend	-9.95348
▁tender	-9.95412
▁deliver	-9.95533
▁ever	-9.95798
▁maintained	-9.95915
▁generat	-9.96041
ian	-9.96071
▁produc	-9.96202
▁refer	-9.96209
long	-9.96336
▁treatments	-9.96462
tion	-9.96721
▁33	-9.96846
▁organs	-9.96966
▁target	-9.96974
ard	-9.97034
▁manag	-9.97054
tin	-9.97261
▁estimate	-9.97486
▁exercise	-9.97643
▁message	-9.97656
▁border	-9.97661
▁model	-9.97664
▁count	-9.97697
ang	-9.98108
▁extend	-9.98625
▁surg	-9.98834
▁apply	-9.9885
▁sectors	-9.98879
▁generate	-9.98908
▁regular	-9.98965
▁believe	-9.99053
▁prior	-9.99073
con	-9.99169
estrictions	-9.99203
3,000	-9.99215
relevant	-9.99252
▁Haridwar	-9.99252
▁Punawala	-9.99252
▁Similar	-9.99252
▁Tamil	-9.99252
▁afraid	-9.99252
▁bicycle	-9.99252
▁chloroquine	-9.99252
▁demonstrat	-9.99252
▁everywhere	-9.99252
▁policies	-9.99252
▁quality	-9.99252
▁therapeutic	-9.99252
▁tomorrow	-9.99252
▁father	-9.99253
▁Order	-9.99253
▁Canada	-9.99254
▁identity	-9.99255
mant	-9.99256
▁wipe	-9.99256
▁impose	-9.99258
▁serology	-9.99258
▁anything	-9.99259
▁Ex	-9.99263
▁image	-9.99266
▁Raut	-9.99274
▁nine	-9.99298
▁overcome	-9.9931
▁investigated	-9.99323
▁collection	-9.99323
▁Pakistan	-9.99336
▁revealed	-9.99356
▁heav	-9.99451
▁attempt	-9.99464
▁pathogenic	-9.99551
▁:	-9.9957
▁complaints	-9.9966
▁1)	-9.99685
▁deal	-9.99776
▁presented	-9.99883
ecause	-9.99937
hana	-10.0005
▁Centre	-10.0015
▁secondary	-10.0016
tory	-10.0018
▁germs	-10.0019
ED	-10.0028
itially	-10.0045
▁hundreds	-10.0047
▁tracking	-10.0049
▁event	-10.0052
▁ship	-10.0096
tan	-10.013
▁im	-10.0133
structed	-10.0135
▁War	-10.0164
▁journalists	-10.0167
pt	-10.0173
▁regions	-10.0197
ok	-10.0211
RO	-10.0215
▁accept	-10.0233
.5	-10.0234
▁photo	-10.0241
▁cylinder	-10.0246
▁effort	-10.0246
▁individual	-10.0247
▁passenger	-10.0247
▁symptom	-10.0247
▁college	-10.0255
art	-10.0264
▁probabl	-10.0266
▁0	-10.0266
▁law	-10.0281
ence	-10.0281
Virar	-10.0284
risk	-10.0287
▁plane	-10.0294
ified	-10.0297
bo	-10.0316
▁rule	-10.0321
▁spend	-10.0333
▁starts	-10.0357
▁calls	-10.0358
▁German	-10.0372
▁enforce	-10.0381
lt	-10.0383
erous	-10.0401
▁menstrua	-10.0401
▁Pharma	-10.0401
▁Harshvardhan	-10.0401
▁Haryana	-10.0401
▁Raigad	-10.0401
▁atmosphere	-10.0401
▁Leader	-10.0401
▁Spain	-10.0401
▁corporation	-10.0401
▁leaving	-10.0401
▁muscle	-10.0401
▁Nepal	-10.0401
Figure	-10.0401
▁Controller	-10.0401
▁applied	-10.0401
▁install	-10.0401
▁Authority	-10.0401
▁North	-10.0401
▁discovered	-10.0401
▁complications	-10.0402
▁construction	-10.0402
▁tourists	-10.0402
▁alert	-10.0402
crete	-10.0402
▁manner	-10.0402
▁Zhang	-10.0402
▁blow	-10.0402
▁Board	-10.0402
▁located	-10.0403
▁urgent	-10.0403
▁consistent	-10.0403
▁performance	-10.0404
▁factories	-10.0404
▁movement	-10.0407
▁introduced	-10.0408
▁hazard	-10.041
▁engineer	-10.041
▁updated	-10.0411
▁Ba	-10.0419
positivity	-10.042
▁purchase	-10.0424
▁cancelled	-10.0432
▁membrane	-10.0433
▁angiotensin	-10.0436
▁pharmaceutical	-10.0439
▁explained	-10.044
▁streets	-10.0444
▁works	-10.0445
▁agriculture	-10.0445
▁Out	-10.0447
▁previously	-10.0458
▁screening	-10.0463
▁City	-10.0466
▁MP	-10.047
▁arrived	-10.0475
24	-10.0477
▁removed	-10.0478
▁gatherings	-10.0491
NL	-10.0492
▁recovering	-10.0496
▁42	-10.0502
▁7,	-10.0503
▁healthy	-10.0512
▁son	-10.0554
▁thank	-10.0562
▁AC	-10.0575
ix	-10.0576
ran	-10.0579
▁shortages	-10.0609
▁formed	-10.0616
▁1.5	-10.0625
▁solutions	-10.0655
cr	-10.0659
ants	-10.069
▁happens	-10.0698
▁Ye	-10.0703
▁remaining	-10.0736
▁shift	-10.074
▁minute	-10.0746
▁Mar	-10.0753
▁reduc	-10.0763
▁seat	-10.0779
ACE	-10.0785
No	-10.0787
▁concerns	-10.0792
▁en	-10.0818
▁Jai	-10.0828
▁Test	-10.0836
hu	-10.084
ex	-10.0867
▁rare	-10.0883
▁postpone	-10.0889
▁idea	-10.089
knowledge	-10.0896
▁Maha	-10.09
▁danger	-10.09
http	-10.0901
://	-10.0901
▁Dharavi	-10.0901
▁Local	-10.0901
▁London	-10.0901
▁Maratha	-10.0901
▁budget	-10.0901
▁circulating	-10.0901
▁discovery	-10.0901
▁federal	-10.0901
▁petition	-10.0901
▁pregnancy	-10.0901
▁relief	-10.0901
▁traffic	-10.0901
▁Infection	-10.0901
▁Treatment	-10.0901
▁routine	-10.0901
▁Harsh	-10.0901
▁panic	-10.0901
▁upper	-10.0901
▁grant	-10.0901
▁reverse	-10.0901
▁mechanism	-10.0901
▁drop	-10.0901
▁kind	-10.0902
▁interview	-10.0902
hra	-10.0902
▁professor	-10.0903
▁wife	-10.0903
▁otherwise	-10.0906
pa	-10.0908
▁biggest	-10.0911
▁serv	-10.0911
▁alleged	-10.0913
▁cardio	-10.0914
▁sometime	-10.0916
▁fil	-10.0916
▁Four	-10.0917
▁5,000	-10.0918
▁itself	-10.0918
▁graph	-10.0923
▁Mayor	-10.0939
reak	-10.095
hok	-10.0962
▁prevalent	-10.0967
▁controlled	-10.0971
▁ma	-10.0973
een	-10.0977
▁filled	-10.1
▁conv	-10.1021
▁commonly	-10.1029
▁walking	-10.1034
▁seriously	-10.1041
▁remains	-10.1052
▁Services	-10.1053
▁storm	-10.1086
▁reporting	-10.1094
▁design	-10.111
▁occurs	-10.116
▁37	-10.1161
▁love	-10.1178
▁cons	-10.1183
▁4)	-10.1204
we	-10.1218
mi	-10.1228
kant	-10.1233
tu	-10.1256
▁road	-10.1269
▁Service	-10.1271
▁friend	-10.1292
▁boy	-10.1302
▁arriv	-10.1308
bacteria	-10.1311
People	-10.1312
op	-10.1321
species	-10.1324
▁tr	-10.136
▁establish	-10.1361
▁predict	-10.14
▁America	-10.1416
▁Modern	-10.1418
▁dispos	-10.142
▁deploy	-10.1424
▁gas	-10.1425
EEA	-10.1428
▁Canadian	-10.1428
▁Kingdom	-10.1428
▁NCP	-10.1428
▁Sawant	-10.1428
▁airport	-10.1428
▁duration	-10.1428
▁polymerase	-10.1428
▁vaccinating	-10.1428
▁yesterday	-10.1428
▁battle	-10.1428
▁worship	-10.1428
lescent	-10.1428
▁Clinic	-10.1428
▁occurred	-10.1428
▁Besides	-10.1428
▁basic	-10.1428
▁cocktail	-10.1428
▁sleep	-10.1428
▁coordinat	-10.1428
▁Pandit	-10.1428
▁let	-10.1428
Class	-10.1429
intestin	-10.1429
▁serum	-10.1431
▁Year	-10.1431
▁Mahavikas	-10.1431
▁vary	-10.1435
▁GP	-10.1435
▁surgery	-10.1436
▁weekend	-10.1436
▁tools	-10.1437
▁strategy	-10.1437
▁Chandra	-10.1438
▁story	-10.1444
▁difficulties	-10.1445
▁chemical	-10.145
▁sufficient	-10.1457
▁Well	-10.1458
▁teaching	-10.1461
▁Hop	-10.1465
▁shows	-10.1492
▁rely	-10.1494
▁prepare	-10.1496
▁aware	-10.15
▁Par	-10.15
ap	-10.1502
ara	-10.1512
▁devices	-10.1518
▁asking	-10.1519
▁Pre	-10.1526
▁filling	-10.1546
kins	-10.1549
▁t	-10.1567
▁banks	-10.1572
▁sites	-10.1596
▁Das	-10.1603
atic	-10.1606
▁2021.	-10.1615
sure	-10.1617
▁Ya	-10.1631
▁5.	-10.1632
▁Vi	-10.1632
▁license	-10.1655
▁vi	-10.1658
rao	-10.1662
▁800	-10.1664
ald	-10.1681
▁buildings	-10.1683
mong	-10.1686
nd	-10.1691
▁o	-10.1715
▁55	-10.1717
over	-10.175
▁Ja	-10.1772
▁600	-10.1784
▁answers	-10.1789
▁advis	-10.1791
▁vehicle	-10.1827
▁charge	-10.1836
▁product	-10.1855
washing	-10.1859
IV	-10.1865
On	-10.1866
▁Mo	-10.1868
This	-10.1868
▁minim	-10.1883
pat	-10.1883
hav	-10.1888
deep	-10.1897
▁site	-10.1898
ative	-10.1946
▁frequent	-10.1955
▁birth	-10.1982
▁consist	-10.1983
▁Cambridge	-10.1983
▁Family	-10.1983
▁Global	-10.1983
▁Group	-10.1983
▁Upadhyay	-10.1983
▁artery	-10.1983
▁contrast	-10.1983
▁insurance	-10.1983
▁operating	-10.1983
▁sampling	-10.1983
▁summer	-10.1983
▁technique	-10.1983
▁Agency	-10.1983
▁headache	-10.1983
▁loan	-10.1983
▁Awate	-10.1983
▁cruise	-10.1983
▁game	-10.1983
▁begun	-10.1983
▁lockout	-10.1983
▁subsequent	-10.1983
▁kg	-10.1983
▁trade	-10.1984
▁temporary	-10.1984
▁villagers	-10.1984
▁package	-10.1984
soph	-10.1984
▁partner	-10.1984
▁reliable	-10.1985
referred	-10.1986
▁ex	-10.1986
▁Aghadi	-10.1987
▁hypoxia	-10.1987
▁Talk	-10.1988
40	-10.1989
▁providers	-10.199
▁Google	-10.1994
▁registration	-10.1994
▁Women	-10.2
▁Am	-10.2003
▁liver	-10.2004
▁num	-10.2008
▁Russian	-10.2009
▁10,000	-10.2014
▁Chinchwad	-10.2014
▁Student	-10.2014
▁fees	-10.2015
▁frequently	-10.2022
▁unlock	-10.2025
inary	-10.2026
87	-10.2032
mp	-10.2033
▁recommendations	-10.2034
▁organized	-10.204
▁restaurants	-10.2042
▁8,	-10.2044
▁load	-10.2048
▁Form	-10.205
▁spreads	-10.2061
app	-10.2066
▁150	-10.2068
▁risen	-10.2073
nath	-10.2081
▁CI	-10.2084
▁residents	-10.2097
▁covering	-10.2118
▁closely	-10.2124
▁begins	-10.2134
▁recogniz	-10.2135
▁Va	-10.2159
▁monitored	-10.216
▁realiz	-10.2168
▁dryer	-10.2179
▁variet	-10.2205
35	-10.2208
▁36	-10.2222
▁Did	-10.2223
ca	-10.2234
▁whom	-10.2234
▁goods	-10.2292
▁apart	-10.2315
▁protocols	-10.2319
▁promote	-10.2331
-2.	-10.2342
gen	-10.2348
▁remov	-10.2377
▁factor	-10.2395
are	-10.2399
ise	-10.2405
▁hotspot	-10.2411
▁begin	-10.2415
▁hundred	-10.2415
▁teams	-10.2422
▁bank	-10.2427
RT	-10.2437
▁source	-10.2439
infected	-10.2443
▁soaps	-10.2448
▁limits	-10.2453
AstraZeneca	-10.2455
Covid	-10.2456
ath	-10.2466
level	-10.247
▁phases	-10.2476
▁methodolog	-10.2482
▁gather	-10.2489
▁Indians	-10.2496
47	-10.2501
shield	-10.2506
AS	-10.2515
▁celebrat	-10.2526
▁evening	-10.2533
▁note	-10.2533
aj	-10.2537
▁improve	-10.2548
▁Air	-10.2551
ability	-10.2558
mar	-10.2558
isaster	-10.257
oreign	-10.257
iddle	-10.257
▁Akola	-10.2571
▁Avoid	-10.2571
▁Contact	-10.2571
▁Demand	-10.2571
▁Express	-10.2571
▁Facebook	-10.2571
▁Foundation	-10.2571
▁Halfkin	-10.2571
▁Javadekar	-10.2571
▁Karnataka	-10.2571
▁Pandharpur	-10.2571
▁Thorat	-10.2571
▁Vardhan	-10.2571
▁Welfare	-10.2571
▁Yojana	-10.2571
▁academic	-10.2571
▁always	-10.2571
▁background	-10.2571
▁behavior	-10.2571
▁burden	-10.2571
▁cemetery	-10.2571
▁documents	-10.2571
▁gloves	-10.2571
▁milk	-10.2571
▁pattern	-10.2571
▁promising	-10.2571
▁repeated	-10.2571
▁reservation	-10.2571
▁window	-10.2571
▁Social	-10.2571
▁Aditya	-10.2571
▁text	-10.2571
▁Ahmednagar	-10.2571
▁dropped	-10.2571
▁electric	-10.2571
▁Store	-10.2572
▁First	-10.2572
▁Shops	-10.2572
▁cycle	-10.2572
▁microorganisms	-10.2572
ission	-10.2572
aheb	-10.2572
▁agitation	-10.2573
▁laborers	-10.2573
▁agreed	-10.2573
▁cancellation	-10.2574
▁box	-10.2574
▁reserved	-10.2575
▁Thus	-10.2576
▁capab	-10.2577
aryng	-10.2578
▁duty	-10.2578
▁2009	-10.2579
▁sold	-10.2579
ite	-10.2581
▁generation	-10.2582
▁operate	-10.2582
▁Party	-10.2583
▁Chain	-10.2585
▁compli	-10.259
▁sp	-10.2592
▁scan	-10.2595
▁components	-10.2596
▁internet	-10.2602
▁unfortunate	-10.2604
▁annual	-10.2607
ze	-10.2608
▁Report	-10.2611
▁counter	-10.2613
▁customers	-10.2615
yn	-10.2618
▁regularly	-10.262
ep	-10.2622
▁coronation	-10.263
▁coroners	-10.2636
▁standing	-10.2645
53	-10.2649
▁independent	-10.2653
▁enhance	-10.2653
▁announce	-10.2656
▁acquir	-10.2664
▁Here	-10.2668
▁34	-10.2674
tide	-10.2678
▁interventions	-10.2678
▁towels	-10.2683
▁ask	-10.2698
▁pangolins	-10.2702
▁Bas	-10.2705
▁medications	-10.2712
▁sources	-10.2732
80	-10.2743
onal	-10.2744
▁land	-10.2768
▁arise	-10.278
alk	-10.278
▁platforms	-10.28
▁reviewed	-10.2817
▁feeling	-10.283
▁Be	-10.2862
6%	-10.2877
75	-10.2885
▁Mu	-10.2941
▁59	-10.2967
▁speak	-10.2979
ill	-10.3001
gi	-10.3004
▁vegetable	-10.304
▁purpose	-10.3047
▁arrive	-10.3048
ead	-10.3077
men	-10.3078
confirmed	-10.3081
quarantine	-10.3081
scale	-10.3081
pass	-10.3083
▁setting	-10.3087
made	-10.3094
▁screen	-10.3115
▁Multi	-10.3131
▁relax	-10.3133
▁Li	-10.3139
▁appeal	-10.3139
▁km	-10.315
▁uses	-10.3163
▁prompt	-10.3166
▁breathe	-10.3177
▁tax	-10.3188
▁complex	-10.3188
fforts	-10.3195
▁industrial	-10.3196
ubation	-10.3196
▁dire	-10.3196
▁alpha	-10.3196
cumulati	-10.3196
▁AIIMS	-10.3196
▁Affairs	-10.3196
▁Celsius	-10.3196
▁Darekar	-10.3196
▁Second	-10.3196
▁Survey	-10.3196
▁Uttarakhand	-10.3196
▁anywhere	-10.3196
▁comprehensive	-10.3196
▁criteria	-10.3196
▁criticism	-10.3196
▁fatigue	-10.3196
▁maxim	-10.3196
▁parcel	-10.3196
▁Company	-10.3196
▁baby	-10.3196
▁wrote	-10.3196
▁IMA	-10.3196
▁felt	-10.3196
▁amino	-10.3196
▁winter	-10.3197
▁migrant	-10.3197
▁Kamal	-10.3197
▁liter	-10.3197
▁Chavan	-10.3197
▁traders	-10.3197
▁comparison	-10.3197
▁warning	-10.3197
▁contaminated	-10.3197
▁agreement	-10.3197
▁influence	-10.3197
▁chairman	-10.3198
▁download	-10.3198
▁groceries	-10.3199
▁extensive	-10.3199
▁mutated	-10.32
▁disruption	-10.32
▁nothing	-10.32
▁proposed	-10.3201
▁circumstances	-10.3202
▁traditional	-10.3203
▁Final	-10.3206
▁Goa	-10.3206
▁inside	-10.3207
▁Under	-10.3208
▁Post	-10.3208
▁Thre	-10.3211
par	-10.3214
▁happy	-10.3216
▁exception	-10.322
▁collector	-10.3229
▁Ask	-10.3243
My	-10.3243
▁appears	-10.3251
▁98	-10.3252
▁ho	-10.3252
▁pediatricians	-10.3253
▁farm	-10.326
ised	-10.3261
▁really	-10.3272
▁upon	-10.3274
▁32	-10.3286
▁targeted	-10.3287
▁cure	-10.3303
▁preparations	-10.3305
33	-10.3311
▁users	-10.3325
▁shield	-10.3325
no	-10.3329
▁Khan	-10.3337
73	-10.3343
▁words	-10.3347
▁meals	-10.3347
▁festival	-10.3349
4)	-10.3351
▁Sun	-10.3354
▁urg	-10.3365
▁Gil	-10.3375
ong	-10.3379
90	-10.3382
▁friends	-10.3388
lock	-10.3394
dar	-10.3417
dal	-10.3432
▁writing	-10.3459
▁cov	-10.346
▁4,	-10.3466
▁labs	-10.3484
essential	-10.3486
▁select	-10.3488
▁plants	-10.3501
shi	-10.3507
inal	-10.3511
ool	-10.3513
kh	-10.3518
anand	-10.3528
▁85	-10.3538
und	-10.3543
▁minds	-10.3557
by	-10.3561
size	-10.3567
▁66	-10.3606
hat	-10.3608
▁su	-10.361
▁stand	-10.3617
erti	-10.3626
▁Go	-10.3637
58	-10.3645
▁Hu	-10.3647
▁refus	-10.3653
pati	-10.3657
India	-10.3659
▁53	-10.3692
▁shar	-10.37
▁holiday	-10.3702
▁Science	-10.3704
▁medication	-10.3705
▁word	-10.3706
▁precaution	-10.3707
put	-10.3719
▁44	-10.3722
11	-10.3726
▁Sit	-10.3727
HKU	-10.3741
mm	-10.3742
generat	-10.3747
tri	-10.3756
▁advise	-10.3764
▁complet	-10.3773
▁receiv	-10.3773
ki	-10.3785
▁build	-10.3801
che	-10.381
erg	-10.3813
15	-10.3819
93	-10.3823
▁mo	-10.3827
▁envelope	-10.3841
may	-10.3848
▁Shara	-10.3853
▁boost	-10.3855
▁administrati	-10.386
rivate	-10.3861
▁Akhada	-10.3863
▁Hypoxia	-10.3863
▁Infectious	-10.3863
▁Israel	-10.3863
▁Parishad	-10.3863
▁Right	-10.3863
▁Society	-10.3863
▁Surveillance	-10.3863
▁advance	-10.3863
▁challenging	-10.3863
▁congestion	-10.3863
▁cultural	-10.3863
▁disadvantage	-10.3863
▁industries	-10.3863
▁injury	-10.3863
▁protease	-10.3863
▁rallies	-10.3863
▁remember	-10.3863
▁vomiting	-10.3863
▁Policy	-10.3863
▁Vivek	-10.3863
▁interval	-10.3863
▁mRNA	-10.3863
uestion	-10.3863
▁Kadu	-10.3863
▁Nadu	-10.3863
▁2012	-10.3863
▁Surat	-10.3863
▁implications	-10.3863
▁Fortis	-10.3863
▁spokesperson	-10.3863
▁stomach	-10.3863
▁Shinde	-10.3864
▁cytokine	-10.3864
▁manpower	-10.3864
▁shopping	-10.3864
▁liquor	-10.3864
▁invest	-10.3864
▁discrimination	-10.3864
▁geographical	-10.3865
▁Nik	-10.3866
ength	-10.3866
▁aches	-10.3866
▁specifically	-10.3868
▁bus	-10.387
9%	-10.3871
▁Young	-10.3871
▁disinfectant	-10.3872
▁Asia	-10.3872
▁homology	-10.3875
▁cowardly	-10.3876
▁warm	-10.3876
▁opportunity	-10.3877
▁nucleo	-10.3878
rmal	-10.3879
▁meal	-10.3879
▁Nath	-10.388
▁flow	-10.3886
▁Super	-10.3886
▁2,000	-10.3888
▁alarming	-10.3889
▁arrival	-10.389
▁secret	-10.3891
▁weak	-10.3903
frastructure	-10.3912
ition	-10.3921
▁purchased	-10.3921
▁dependent	-10.3923
▁doubts	-10.3924
▁volunteers	-10.3924
▁Rep	-10.3926
▁touris	-10.3933
▁book	-10.3934
▁indicate	-10.3943
▁Work	-10.395
▁operations	-10.3957
▁updates	-10.3969
MS	-10.3972
▁sense	-10.3975
▁specimens	-10.398
▁50%	-10.3981
umb	-10.4005
▁signed	-10.4018
▁addressed	-10.4022
aram	-10.4035
▁round	-10.4054
ans	-10.4067
ah	-10.4072
▁Rea	-10.4088
▁72	-10.4089
▁experienced	-10.4097
▁(3	-10.4101
▁records	-10.4117
▁24,	-10.4122
dem	-10.4125
▁increases	-10.4126
▁fl	-10.4128
▁95	-10.4139
▁details	-10.4159
45	-10.4165
ray	-10.4191
-5	-10.4201
ati	-10.4221
07	-10.4223
ctually	-10.4224
17	-10.4229
▁nas	-10.4232
▁extract	-10.4272
▁62	-10.4282
ize	-10.4293
illa	-10.4303
▁varie	-10.4305
lic	-10.4315
162	-10.4331
tive	-10.435
acted	-10.4355
▁inc	-10.4378
▁railway	-10.4413
▁ticket	-10.4416
oral	-10.4417
▁sale	-10.4417
▁pangolin	-10.442
▁Doctor	-10.4422
▁employee	-10.4423
J	-10.4459
Happ	-10.4459
Even	-10.4461
Many	-10.4462
coronavirus	-10.4462
sense	-10.4465
half	-10.4466
▁connect	-10.4472
medical	-10.4475
more	-10.4478
▁temperatures	-10.4478
▁(5	-10.4481
▁consult	-10.4507
▁250	-10.4511
▁expect	-10.4515
▁absen	-10.4522
▁7.	-10.4539
▁sharp	-10.4551
teen	-10.4552
▁thinks	-10.4554
▁buil	-10.4557
▁(2	-10.4568
slam	-10.4573
▁employ	-10.4574
▁harm	-10.4576
cientists	-10.4576
organisms	-10.4577
▁mark	-10.4577
▁Brook	-10.4577
vector	-10.4577
▁Privacy	-10.4577
▁lopinavir	-10.4577
ARDS	-10.4577
investigating	-10.4577
▁Alcohol	-10.4577
▁Denmark	-10.4577
▁Guidelines	-10.4577
▁MPSC	-10.4577
▁Network	-10.4577
▁Punjab	-10.4577
▁Sheikh	-10.4577
▁Washington	-10.4577
▁Yavatmal	-10.4577
▁administer	-10.4577
▁ailments	-10.4577
▁bronchitis	-10.4577
▁dispute	-10.4577
▁easily	-10.4577
▁floor	-10.4577
▁gynecologist	-10.4577
▁vitamin	-10.4577
▁fixed	-10.4577
▁PTI	-10.4577
▁domain	-10.4577
▁exceed	-10.4577
▁Tupe	-10.4577
▁Taiwan	-10.4577
▁asthma	-10.4577
▁Rules	-10.4577
▁Thailand	-10.4578
▁attach	-10.4578
▁Market	-10.4578
▁Maharaj	-10.4578
▁limitations	-10.4578
▁sensitive	-10.4578
▁else	-10.4578
▁Novavax	-10.4578
▁Shah	-10.4578
▁audit	-10.4578
▁submitted	-10.4578
▁instance	-10.4578
▁sealed	-10.4578
▁Naik	-10.4578
▁Ramesh	-10.4578
▁spen	-10.4578
▁correspondent	-10.4579
▁observe	-10.4579
▁Economic	-10.4579
▁childcare	-10.458
▁enable	-10.4581
▁1201	-10.4581
▁consultation	-10.4581
▁route	-10.4582
▁mission	-10.4582
▁Symptoms	-10.4582
▁Thousands	-10.4582
▁commissioner	-10.4584
▁assembly	-10.4588
▁virolog	-10.4588
84	-10.459
▁traced	-10.4592
▁quickly	-10.4593
▁American	-10.4598
▁actor	-10.4599
▁Statistics	-10.46
▁Beds	-10.46
▁heard	-10.4603
▁inspected	-10.4604
▁Ban	-10.4605
▁III	-10.4607
▁morbidity	-10.4609
▁believed	-10.461
▁disposal	-10.4611
▁African	-10.4612
▁pulmon	-10.4617
▁Bioentech	-10.4618
▁particles	-10.4619
▁isolate	-10.4622
▁Times	-10.4631
▁delayed	-10.4638
wake	-10.4642
▁disorders	-10.4643
▁saved	-10.4652
▁girls	-10.4655
▁73	-10.4655
▁Beed	-10.4657
▁controll	-10.4659
▁formula	-10.4669
log	-10.4672
▁Th	-10.4673
▁rubb	-10.4678
▁convert	-10.4681
▁seconds	-10.4683
ture	-10.4695
▁activists	-10.4727
drawn	-10.4742
▁bar	-10.4752
▁globally	-10.4779
audi	-10.4794
▁Kes	-10.4794
▁See	-10.4802
94	-10.4805
▁Us	-10.4806
▁happening	-10.4814
▁Ch	-10.4819
%)	-10.4823
ssential	-10.4864
▁ways	-10.4877
As	-10.4891
▁cor	-10.4896
go	-10.4906
ntibody	-10.4907
▁checked	-10.4939
▁examin	-10.4941
▁actual	-10.496
▁meter	-10.4963
▁Bir	-10.4972
▁continu	-10.4983
▁57	-10.4993
▁43	-10.5008
ock	-10.5024
▁Hospitals	-10.5058
▁marketing	-10.5062
ja	-10.5063
▁survive	-10.5074
ency	-10.5078
▁dies	-10.5082
38	-10.5105
▁questioned	-10.5105
▁delay	-10.5121
▁reli	-10.5127
▁Vir	-10.513
▁red	-10.513
ony	-10.5132
▁indicat	-10.5138
uri	-10.514
23	-10.5164
▁La	-10.5178
▁province	-10.5182
▁brother	-10.5182
gra	-10.5184
▁accident	-10.5184
az	-10.5187
▁activist	-10.5188
ik	-10.519
▁eye	-10.5192
▁figure	-10.5192
▁statistic	-10.5192
▁shop	-10.5192
▁Prav	-10.5196
▁manufacturer	-10.5196
65	-10.521
▁rain	-10.5219
▁resident	-10.5223
Chinese	-10.5231
January	-10.5231
specific	-10.5231
You	-10.5232
When	-10.5236
▁cancel	-10.5272
yl	-10.5274
▁confirm	-10.528
▁comment	-10.5281
▁explain	-10.5283
▁Medi	-10.5284
▁arrest	-10.5284
▁82	-10.5293
▁cho	-10.5315
For	-10.5315
▁CM	-10.5317
▁exact	-10.5318
▁respective	-10.532
▁join	-10.5321
▁needy	-10.5328
▁Tri	-10.5329
▁broke	-10.5335
▁Covax	-10.5337
easures	-10.5339
▁cloth	-10.5339
dan	-10.5343
▁grocer	-10.5344
uarantine	-10.5346
▁arrange	-10.5347
▁spark	-10.5347
ritonavir	-10.5347
▁Agarwal	-10.5347
▁Answer	-10.5347
▁Bajirao	-10.5347
▁Bhagwat	-10.5347
▁Cabinet	-10.5347
▁Ebola	-10.5347
▁Gadchiroli	-10.5347
▁Netherlands	-10.5347
▁Osmanabad	-10.5347
▁Patanjali	-10.5347
▁Pharmaceutical	-10.5347
▁Remdesivir	-10.5347
▁Shenzhen	-10.5347
▁Zydus	-10.5347
▁club	-10.5347
▁concept	-10.5347
▁dashboard	-10.5347
▁decreasing	-10.5347
▁foot	-10.5347
▁journey	-10.5347
▁module	-10.5347
▁pilot	-10.5347
▁reflect	-10.5347
▁remdesivir	-10.5347
▁remind	-10.5347
▁smell	-10.5347
▁speech	-10.5347
▁stuck	-10.5347
▁thorough	-10.5347
▁CEO	-10.5347
▁Kishor	-10.5347
▁afternoon	-10.5347
▁conferencing	-10.5347
▁fresh	-10.5347
▁easy	-10.5347
▁white	-10.5347
▁Level	-10.5347
▁fortnight	-10.5347
▁recombination	-10.5347
▁Arabia	-10.5347
▁ahead	-10.5347
▁Nanded	-10.5347
▁Wardha	-10.5347
▁forget	-10.5347
▁collaboration	-10.5347
▁river	-10.5347
▁fifth	-10.5347
▁Sangli	-10.5347
▁simply	-10.5347
▁lessons	-10.5347
▁lethal	-10.5347
▁Death	-10.5348
ients	-10.5348
▁dying	-10.5348
▁disaster	-10.5349
▁pace	-10.5349
▁Parliament	-10.5349
▁pool	-10.535
▁Gore	-10.5351
▁ven	-10.5352
▁gain	-10.5352
▁Western	-10.5352
▁Apple	-10.5353
▁antibiotic	-10.5353
▁28,	-10.5353
▁rail	-10.5354
▁rejected	-10.5355
▁Gold	-10.5356
▁fish	-10.5356
▁Mask	-10.5357
▁edition	-10.5357
hen	-10.5358
▁bath	-10.5358
▁70%	-10.5359
▁Try	-10.5362
▁Pr	-10.5363
RE	-10.5363
ping	-10.5365
▁meat	-10.5368
▁worsen	-10.5371
▁Johns	-10.5376
▁fears	-10.5379
▁enforced	-10.5381
▁accurate	-10.5381
▁Sach	-10.5382
hile	-10.5384
▁weakened	-10.5386
jay	-10.5389
▁Prasa	-10.5392
▁Genom	-10.5394
▁reference	-10.5395
01	-10.5395
▁science	-10.5399
▁forms	-10.5406
300	-10.5406
▁soil	-10.5411
▁union	-10.5418
ect	-10.5419
▁selected	-10.5424
tap	-10.5429
▁posts	-10.5431
▁Sudh	-10.5435
▁Un	-10.5438
▁income	-10.544
▁rooms	-10.5442
▁pathogens	-10.5443
▁hall	-10.5447
▁cardi	-10.5452
mit	-10.5453
q	-10.5454
▁professionals	-10.5457
▁representatives	-10.5457
▁ID	-10.5458
▁97	-10.5462
▁Testing	-10.5477
▁spending	-10.5484
▁Shri	-10.5492
▁ratio	-10.5495
▁noon	-10.5511
▁respirators	-10.5513
▁et	-10.5517
3)	-10.5518
▁strictly	-10.5523
▁nationally	-10.5529
▁Sciences	-10.5535
▁contacts	-10.5541
activ	-10.5546
▁arises	-10.5551
▁donat	-10.5579
▁follows	-10.5585
▁roads	-10.5587
▁Tan	-10.5599
▁trained	-10.5617
▁carrier	-10.5621
▁borders	-10.5626
▁ambulances	-10.5639
▁92	-10.564
▁reactions	-10.5679
▁Pu	-10.5694
▁smoke	-10.5727
▁goal	-10.5743
▁sc	-10.5844
▁Ke	-10.585
▁cards	-10.5865
ISC	-10.5867
▁39	-10.5876
▁locations	-10.5878
▁partial	-10.5878
▁Ki	-10.5885
▁3)	-10.5894
▁19,	-10.5895
MC	-10.5905
▁Say	-10.5922
ama	-10.5953
▁recognize	-10.5955
▁write	-10.5958
▁rub	-10.5961
reate	-10.5962
▁blam	-10.5963
▁68	-10.6
▁bottle	-10.6015
▁sneeze	-10.6017
▁finger	-10.6017
▁machine	-10.6018
▁germ	-10.6023
▁nurse	-10.6025
body	-10.6026
self	-10.6026
▁towel	-10.6038
▁Has	-10.605
ox	-10.6054
preserv	-10.6057
convert	-10.6061
intend	-10.6062
December	-10.6064
board	-10.6064
▁2)	-10.6065
effective	-10.6065
force	-10.6066
says	-10.6078
▁struggl	-10.608
▁observ	-10.6088
au	-10.6099
acquir	-10.6109
▁eat	-10.6115
▁obtain	-10.6117
▁launch	-10.6117
hus	-10.6134
▁gathering	-10.6141
▁Roy	-10.6151
▁complain	-10.6153
▁Ho	-10.6159
▁responses	-10.6159
▁Ta	-10.6162
1.8	-10.6166
hil	-10.6169
▁commission	-10.6172
▁persisten	-10.6175
▁inhibit	-10.6175
▁Direct	-10.6175
▁suppress	-10.6175
▁Jayant	-10.6176
▁proportion	-10.6179
▁oppos	-10.618
▁pharma	-10.618
▁Industri	-10.618
▁Through	-10.618
efficienc	-10.618
▁Adhanom	-10.618
▁Bhujbal	-10.618
▁Chhattisgarh	-10.618
▁Kunte	-10.618
▁Niranjan	-10.618
▁Secretariat	-10.618
▁Short	-10.618
▁Surgeon	-10.618
▁beneficial	-10.618
▁ceremony	-10.618
▁concentrator	-10.618
▁constituency	-10.618
▁context	-10.618
▁deteriorating	-10.618
▁dwellers	-10.618
▁enemy	-10.618
▁hypertension	-10.618
▁mistake	-10.618
▁opinion	-10.618
▁quantities	-10.618
▁quarter	-10.618
▁recognition	-10.618
▁repair	-10.618
▁replication	-10.618
▁revenue	-10.618
▁temple	-10.618
▁transaction	-10.618
▁unnecessary	-10.618
▁washroom	-10.618
▁yoga	-10.618
▁army	-10.618
▁endanger	-10.618
▁weapon	-10.618
▁slum	-10.618
▁witness	-10.618
▁Blood	-10.618
▁Finance	-10.618
▁Lancet	-10.618
▁valid	-10.618
▁Further	-10.618
▁Pandey	-10.618
▁transcription	-10.618
▁Chha	-10.618
▁truck	-10.618
▁autopsy	-10.618
▁Pvt	-10.618
sterile	-10.618
▁mucormycosis	-10.618
▁debate	-10.618
▁requirements	-10.618
▁tired	-10.618
▁Californians	-10.618
▁consulate	-10.618
▁provision	-10.618
▁Keep	-10.618
▁Safety	-10.618
▁firecrackers	-10.618
▁award	-10.6181
▁match	-10.6181
▁conclusion	-10.6181
▁bench	-10.6181
▁libraries	-10.6181
▁antiseptic	-10.6181
▁strengthen	-10.6181
▁Like	-10.6182
▁slight	-10.6182
▁airborne	-10.6182
▁Latur	-10.6182
▁Compar	-10.6182
▁suggestions	-10.6183
▁sex	-10.6183
▁tighten	-10.6184
▁employment	-10.6184
▁conven	-10.6184
▁observation	-10.6184
▁specialist	-10.6185
▁preparedness	-10.6185
achch	-10.6187
▁opened	-10.6189
▁assessment	-10.6189
▁buses	-10.6189
▁Fever	-10.6191
▁TV	-10.6192
▁taxi	-10.6192
▁encouraged	-10.6193
▁operational	-10.6196
▁dynamic	-10.6196
▁division	-10.6196
▁Shivaji	-10.6197
▁antimicrobial	-10.6197
▁makeup	-10.6197
▁abortion	-10.6198
▁anxiety	-10.6198
▁page	-10.6198
▁2019-20	-10.6199
▁sun	-10.6204
▁Instead	-10.6206
▁75	-10.6207
▁watch	-10.6207
▁artificial	-10.6209
▁improved	-10.621
▁respectively	-10.6212
▁Plan	-10.6213
▁hot	-10.6216
▁1,000	-10.6217
▁ILI	-10.6218
▁Korean	-10.6222
▁sla	-10.6222
▁lifted	-10.6222
▁fluids	-10.6229
▁acknowledg	-10.623
▁strand	-10.6238
▁determined	-10.6246
▁DCGI	-10.6249
▁carefully	-10.625
mall	-10.625
▁symptomatic	-10.625
▁electronic	-10.6254
▁desire	-10.6258
▁emergenc	-10.626
▁diet	-10.6269
▁cl	-10.627
▁Lab	-10.6273
▁indicated	-10.6278
08	-10.6279
▁struggle	-10.6281
▁structure	-10.6288
▁54	-10.629
raka	-10.6297
▁accepted	-10.6298
▁inflammat	-10.6302
▁(1	-10.6309
▁pr	-10.6313
▁slowed	-10.6315
▁abdom	-10.6318
▁log	-10.6319
▁Happ	-10.6325
▁communications	-10.6328
▁swin	-10.6337
▁rubs	-10.6343
▁rains	-10.6357
▁Ha	-10.6371
▁helped	-10.6434
▁producer	-10.6444
laid	-10.6445
aking	-10.6451
3%	-10.6465
▁pack	-10.6469
▁names	-10.6472
▁lying	-10.6482
▁counts	-10.6484
▁surviv	-10.6485
▁messages	-10.6485
Trace	-10.6489
▁functions	-10.65
.8%)	-10.6508
her	-10.6518
▁withdraw	-10.6523
▁commerc	-10.6534
▁38	-10.6538
please	-10.6557
bal	-10.6562
▁prices	-10.6601
anks	-10.661
▁finding	-10.6618
▁journal	-10.662
▁144	-10.6632
▁thinking	-10.6634
22	-10.6647
?"	-10.6655
preme	-10.6675
▁origins	-10.6681
69	-10.6684
▁differences	-10.6702
▁gene	-10.6736
riya	-10.6793
bility	-10.6826
CDC	-10.6835
infection	-10.6842
vir	-10.6851
▁rais	-10.6861
bing	-10.6889
▁Ravi	-10.6927
▁faces	-10.6928
▁trend	-10.6928
▁certificate	-10.693
700	-10.693
▁specimen	-10.6931
media	-10.6935
sis	-10.6937
▁restriction	-10.6939
▁device	-10.6949
ber	-10.6953
light	-10.6953
mid	-10.6955
▁preparation	-10.6968
▁communication	-10.697
secondary	-10.6972
associated	-10.6973
organ	-10.6973
MERS	-10.6973
Some	-10.6973
through	-10.6974
isolation	-10.6974
even	-10.6976
direct	-10.6977
availability	-10.6977
how	-10.6981
ita	-10.6992
▁56	-10.6993
ware	-10.7041
▁31.	-10.7051
▁cry	-10.7061
pm	-10.7069
64	-10.7072
ntil	-10.7074
▁cit	-10.7076
▁Pass	-10.7084
▁formal	-10.7087
inancial	-10.7088
ecutive	-10.7088
clusive	-10.7089
▁technic	-10.7089
▁plastic	-10.7089
▁twenty	-10.7089
▁Assembly	-10.7089
▁Bangladesh	-10.7089
▁Bhalke	-10.7089
▁Bluetooth	-10.7089
▁Governor	-10.7089
▁KEM	-10.7089
▁Konkan	-10.7089
▁Kovishield	-10.7089
▁Lanka	-10.7089
▁Lucknow	-10.7089
▁MHRA	-10.7089
▁Muslim	-10.7089
▁Pednekar	-10.7089
▁Physician	-10.7089
▁Telangana	-10.7089
▁affidavit	-10.7089
▁anonymity	-10.7089
▁capture	-10.7089
▁cleave	-10.7089
▁conclude	-10.7089
▁consequences	-10.7089
▁earliest	-10.7089
▁epidemiological	-10.7089
▁female	-10.7089
▁garden	-10.7089
▁honor	-10.7089
▁modify	-10.7089
▁paracetamol	-10.7089
▁participate	-10.7089
▁premises	-10.7089
▁smooth	-10.7089
▁steel	-10.7089
▁succeed	-10.7089
▁university	-10.7089
▁Hebber	-10.7089
▁Look	-10.7089
▁diverge	-10.7089
▁migrat	-10.7089
▁pulse	-10.7089
▁value	-10.7089
▁protest	-10.7089
▁salary	-10.7089
▁welcome	-10.7089
▁entities	-10.7089
▁highway	-10.7089
▁arrangements	-10.7089
▁compare	-10.7089
▁agency	-10.7089
▁displeasure	-10.7089
▁row	-10.7089
edicated	-10.7089
▁century	-10.7089
▁combined	-10.7089
▁sports	-10.7089
▁worst	-10.7089
▁executive	-10.7089
▁soldier	-10.7089
▁permitted	-10.709
▁Chhatra	-10.709
▁inhibitors	-10.709
▁coronaries	-10.709
▁Siram	-10.709
▁hint	-10.709
▁revis	-10.709
▁Ganga	-10.709
▁easier	-10.709
▁virologist	-10.709
▁catch	-10.709
▁theaters	-10.7091
▁appointment	-10.7091
▁gap	-10.7091
peptid	-10.7091
▁suitable	-10.7091
-2)	-10.7091
▁medium	-10.7091
▁mitigation	-10.7091
▁HIV	-10.7091
▁malls	-10.7092
▁mandat	-10.7092
▁chair	-10.7093
▁Stay	-10.7093
▁vigilant	-10.7095
▁Sample	-10.7096
▁table	-10.7096
▁yourself	-10.7097
▁version	-10.7098
correct	-10.7099
▁denie	-10.7099
▁metre	-10.71
▁tank	-10.7101
▁elevated	-10.7105
▁CEPI	-10.7107
▁Fear	-10.7107
▁lu	-10.7109
▁mammals	-10.7113
▁Trial	-10.7115
▁UN	-10.7115
▁30%	-10.7116
▁waiv	-10.7116
▁Division	-10.7118
▁Asian	-10.712
▁scared	-10.7122
▁God	-10.7123
▁indication	-10.7123
▁experimental	-10.7124
▁shocking	-10.7126
▁Coronil	-10.713
wan	-10.7131
▁prioritize	-10.7132
▁Case	-10.7133
▁da	-10.7135
lder	-10.7136
atya	-10.7136
▁illnesses	-10.7138
▁restricted	-10.7142
▁5)	-10.7142
▁Head	-10.7144
▁factory	-10.7144
aries	-10.7149
▁swing	-10.7151
▁emerged	-10.7155
▁0.5	-10.7156
▁fruits	-10.7158
dra	-10.7162
▁minimiz	-10.7167
▁(6	-10.7167
▁crying	-10.7173
▁tribals	-10.7174
▁96	-10.7178
▁insufficient	-10.7179
▁Initially	-10.718
▁Inter	-10.7181
▁bound	-10.7182
▁Wear	-10.7198
▁adds	-10.7201
1%	-10.7223
▁imp	-10.7228
▁contribute	-10.7232
fined	-10.7248
▁Ji	-10.7254
▁talukas	-10.7254
▁Shiva	-10.7259
▁Var	-10.7267
▁user	-10.7267
▁delays	-10.7285
TG	-10.729
minus	-10.7293
▁sales	-10.7299
14	-10.7299
ali	-10.7305
ery	-10.7306
▁raise	-10.7307
BP	-10.7308
▁stands	-10.732
86	-10.7334
▁79	-10.7338
gov	-10.7345
bed	-10.7347
threaten	-10.7362
▁therefore	-10.7397
▁30.	-10.7399
▁photos	-10.7409
ism	-10.7423
FI	-10.7425
gan	-10.743
▁refuse	-10.7447
▁88	-10.746
▁stations	-10.7473
▁formulat	-10.7482
▁transported	-10.7484
▁Gr	-10.7495
▁52	-10.7504
78	-10.7507
graduate	-10.7516
ection	-10.7518
▁Ru	-10.7519
▁Ram	-10.7521
▁infects	-10.7523
possible	-10.7526
▁actions	-10.7534
▁wants	-10.7536
▁websites	-10.7536
▁receptors	-10.7536
▁trans	-10.7537
Win	-10.755
▁77	-10.7562
▁manager	-10.7578
▁lockdowns	-10.7593
▁incidents	-10.76
▁Special	-10.7602
lla	-10.7608
hip	-10.7615
▁impos	-10.7619
▁mis	-10.762
▁faced	-10.7625
ayan	-10.7643
bra	-10.7643
eight	-10.7647
26	-10.7655
97	-10.7691
▁Sha	-10.7708
▁Sama	-10.7721
dary	-10.7736
▁helping	-10.774
05	-10.7761
gging	-10.7781
68	-10.7823
ether	-10.7827
hall	-10.7827
▁points	-10.7843
▁Increas	-10.7852
roduction	-10.7854
▁Drugs	-10.786
gli	-10.7875
erial	-10.7875
uti	-10.7883
dividuals	-10.7892
▁feels	-10.7899
▁update	-10.791
▁bill	-10.7918
▁orphan	-10.7924
.3%	-10.7933
▁bird	-10.7933
▁outcome	-10.7933
▁parent	-10.7935
▁procedure	-10.7938
▁teacher	-10.794
▁18-	-10.7947
que	-10.7949
load	-10.7953
▁sta	-10.7962
Mamata	-10.7965
income	-10.7969
Currently	-10.7973
distance	-10.7973
changing	-10.7974
water	-10.7978
▁questioning	-10.7985
flamma	-10.7992
▁worry	-10.8005
case	-10.8008
cardi	-10.8011
44	-10.8016
▁criticiz	-10.8026
▁vot	-10.8034
▁cancell	-10.8036
▁quot	-10.8055
▁manufacture	-10.8062
▁Si	-10.8062
▁prove	-10.8066
▁trace	-10.8069
▁Any	-10.8069
▁15-	-10.807
▁exp	-10.8079
77	-10.808
elatives	-10.8084
▁psychiatri	-10.8085
,500	-10.8085
▁correspond	-10.8087
▁popular	-10.8088
exclud	-10.8088
▁clarif	-10.8088
▁Visakha	-10.8089
kumar	-10.8089
telligence	-10.8089
▁Austria	-10.8089
▁Concern	-10.8089
▁Legislat	-10.8089
▁Mungantiwar	-10.8089
▁Panchayat	-10.8089
▁Recent	-10.8089
▁Restaurants	-10.8089
▁Shaila	-10.8089
▁Switzerland	-10.8089
▁System	-10.8089
▁accompan	-10.8089
▁adopted	-10.8089
▁advantage	-10.8089
▁attitude	-10.8089
▁couple	-10.8089
▁deceased	-10.8089
▁email	-10.8089
▁feedback	-10.8089
▁imaging	-10.8089
▁improving	-10.8089
▁inadequate	-10.8089
▁kidney	-10.8089
▁mellitus	-10.8089
▁modified	-10.8089
▁nursing	-10.8089
▁pathway	-10.8089
▁physician	-10.8089
▁rupees	-10.8089
▁smoking	-10.8089
▁substance	-10.8089
▁substantial	-10.8089
▁swelling	-10.8089
▁temporarily	-10.8089
▁tsunami	-10.8089
▁unique	-10.8089
▁worried	-10.8089
▁2018	-10.8089
▁Agricultur	-10.8089
▁Proper	-10.8089
▁behaviour	-10.8089
▁diminish	-10.8089
▁fecal	-10.8089
▁pork	-10.8089
▁sugar	-10.8089
▁Laborator	-10.8089
▁devastat	-10.8089
▁technicians	-10.8089
convenient	-10.8089
▁push	-10.8089
molecular	-10.8089
▁hurt	-10.8089
▁altered	-10.8089
▁2020-21	-10.8089
▁equal	-10.8089
▁identification	-10.8089
▁Vyas	-10.8089
▁Mild	-10.8089
▁Number	-10.8089
▁mice	-10.8089
▁Virology	-10.8089
▁misinformation	-10.8089
▁lawyer	-10.809
▁authority	-10.809
▁suit	-10.809
▁formulations	-10.809
▁ancest	-10.809
▁gown	-10.809
▁assist	-10.809
▁reliev	-10.809
▁objective	-10.809
▁energy	-10.809
▁Step	-10.809
▁pure	-10.8091
▁affordable	-10.8091
▁Karan	-10.8091
▁prais	-10.8091
▁racis	-10.8091
▁nutrition	-10.8091
▁Wada	-10.8091
▁separation	-10.8091
▁Common	-10.8091
▁classified	-10.8092
rench	-10.8092
▁reopen	-10.8092
▁theories	-10.8092
▁fell	-10.8092
▁anticipated	-10.8092
▁emergencies	-10.8093
▁pollution	-10.8093
ABC	-10.8093
▁fake	-10.8093
▁Join	-10.8094
▁oil	-10.8094
▁lip	-10.8094
▁2015	-10.8094
▁Mohan	-10.8095
▁diff	-10.8095
▁Virus	-10.8095
▁Nar	-10.8095
▁topic	-10.8096
▁Solidarity	-10.8096
▁Personal	-10.8097
▁gree	-10.8098
onym	-10.8098
▁sufferers	-10.8098
▁clothes	-10.8099
▁Wash	-10.8099
▁cool	-10.81
▁2005	-10.81
▁adaptation	-10.8102
ww	-10.8102
▁Politic	-10.8102
▁handwashing	-10.8105
print	-10.8106
definitely	-10.8106
reach	-10.8106
▁dates	-10.8107
▁Sah	-10.8107
▁Day	-10.8108
▁Moderna	-10.8108
ilip	-10.8109
aff	-10.8109
▁unwa	-10.811
▁Call	-10.8112
▁Jaya	-10.8113
▁heat	-10.8114
▁failed	-10.8114
▁attract	-10.8116
▁Said	-10.8116
▁approaches	-10.8117
▁enroll	-10.8117
▁(1)	-10.8121
▁Subha	-10.8121
▁color	-10.8121
▁emerge	-10.8124
▁invit	-10.8125
▁Live	-10.8127
▁cremated	-10.8127
▁Take	-10.8127
▁series	-10.8129
▁47	-10.8129
serv	-10.813
drome	-10.8138
▁doubled	-10.8139
▁Securit	-10.8142
preclinical	-10.8146
▁reporters	-10.8147
▁hearing	-10.8147
▁barriers	-10.8149
▁authoriz	-10.815
this	-10.815
▁bear	-10.815
▁Red	-10.8152
▁publicity	-10.8152
▁myo	-10.8155
▁travelers	-10.8157
ically	-10.816
▁Car	-10.8163
▁donation	-10.8163
▁civets	-10.8167
▁Sri	-10.8168
▁miss	-10.8176
▁compromised	-10.8178
▁Five	-10.8179
▁4,000	-10.8182
▁towns	-10.8184
▁processes	-10.819
▁Prad	-10.819
▁declare	-10.8193
▁Sai	-10.8196
▁east	-10.8209
mmed	-10.8211
▁15,	-10.8216
emed	-10.8223
▁visits	-10.8225
agar	-10.8232
thi	-10.8238
▁94	-10.8245
▁cleaned	-10.8262
ken	-10.8262
▁player	-10.8281
▁machines	-10.8288
era	-10.8304
dge	-10.8307
▁9,	-10.8311
▁tickets	-10.8322
rincipal	-10.8332
▁holidays	-10.834
▁Sion	-10.8352
▁purposes	-10.8357
▁arrives	-10.8372
▁hotspots	-10.8375
OS	-10.8378
48	-10.8391
▁ha	-10.8392
eam	-10.84
▁patholog	-10.8403
ible	-10.8404
iological	-10.8421
▁laws	-10.8445
king	-10.8449
defined	-10.8458
▁exercises	-10.8463
▁models	-10.8463
▁64	-10.8473
▁ones	-10.8479
CO	-10.8497
activated	-10.8498
▁Non	-10.8505
▁Gar	-10.8514
borne	-10.8522
Fig	-10.8541
AN	-10.8545
▁MIS	-10.8554
ross	-10.8554
▁attacks	-10.8569
▁accelerate	-10.8575
▁designat	-10.8603
ax	-10.8607
92	-10.861
nation	-10.8658
▁Again	-10.866
▁61	-10.8661
▁tweets	-10.868
ule	-10.8704
▁("	-10.8719
▁rena	-10.8733
▁En	-10.874
▁programs	-10.8748
43,	-10.8819
▁papers	-10.8821
72	-10.8821
-2-	-10.883
▁46	-10.8837
▁risks	-10.8843
▁map	-10.8849
MD	-10.8864
own	-10.8866
▁path	-10.8887
▁gu	-10.889
duced	-10.889
.2%	-10.8891
grade	-10.891
east	-10.8923
▁plu	-10.8925
imm	-10.8929
▁ri	-10.8931
DP	-10.8945
▁Rai	-10.8949
▁announc	-10.8954
dav	-10.8958
▁Dan	-10.8969
ick	-10.8972
TO	-10.8974
▁69	-10.8982
ace	-10.9008
▁operation	-10.902
diti	-10.9023
▁trip	-10.9034
▁representative	-10.9041
▁supplier	-10.9043
▁readi	-10.9046
▁allegation	-10.9046
▁guideline	-10.9047
▁professional	-10.9047
▁Ran	-10.9048
tant	-10.9058
▁Lat	-10.9062
▁stor	-10.9066
▁adjust	-10.9071
work	-10.9082
book	-10.9082
Wuhan	-10.9084
Maharashtra	-10.9085
with	-10.9085
third	-10.9086
home	-10.9088
double	-10.9088
8%)	-10.9089
pack	-10.9092
16	-10.9093
▁distribut	-10.9104
down	-10.9106
Don	-10.9109
▁drink	-10.9116
open	-10.9116
▁accord	-10.912
ology	-10.9129
abilit	-10.913
▁restrict	-10.9132
ium	-10.9139
spira	-10.9145
Vac	-10.9157
▁express	-10.9169
ij	-10.917
▁prim	-10.9176
DA	-10.9183
OM	-10.9184
▁petrol	-10.9189
▁base	-10.9189
▁achieve	-10.919
▁parame	-10.9193
▁edit	-10.9194
▁monoc	-10.9196
▁retail	-10.9197
rofessor	-10.9197
etween	-10.9198
ortality	-10.9199
▁tempora	-10.9199
▁admit	-10.92
▁strange	-10.92
usceptible	-10.92
▁ORF	-10.92
▁encounter	-10.92
▁favor	-10.92
bronchiolitis	-10.92
iarrhoea	-10.92
ibavirin	-10.92
▁Bhandara	-10.92
▁Consumer	-10.92
▁Dahanu	-10.92
▁Deepika	-10.92
▁Engineer	-10.92
▁Jalna	-10.92
▁Kakani	-10.92
▁Karjat	-10.92
▁Kolkata	-10.92
▁Lahane	-10.92
▁Nandurbar	-10.92
▁OPD	-10.92
▁Operation	-10.92
▁Protocol	-10.92
▁RBD	-10.92
▁Religious	-10.92
▁Response	-10.92
▁Runwal	-10.92
▁Shingane	-10.92
▁Vadettiwar	-10.92
▁WhatsApp	-10.92
▁afterwards	-10.92
▁alpaca	-10.92
▁analyzed	-10.92
▁caution	-10.92
▁ceremonies	-10.92
▁characteristic	-10.92
▁climate	-10.92
▁confused	-10.92
▁defeat	-10.92
▁destination	-10.92
▁discomfort	-10.92
▁elbow	-10.92
▁encouraging	-10.92
▁exacerbat	-10.92
▁explore	-10.92
▁guarantee	-10.92
▁immunization	-10.92
▁initiated	-10.92
▁injured	-10.92
▁lunch	-10.92
▁mortuar	-10.92
▁mumps	-10.92
▁pillow	-10.92
▁prognosis	-10.92
▁quantity	-10.92
▁quarantining	-10.92
▁reassuring	-10.92
▁rickshaw	-10.92
▁saliva	-10.92
▁sanitation	-10.92
▁surrounding	-10.92
▁ultimate	-10.92
ggage	-10.92
▁Important	-10.92
▁Jaishankar	-10.92
▁NBA	-10.92
▁encod	-10.92
▁understood	-10.92
▁MNS	-10.92
▁scene	-10.92
▁Turkey	-10.92
▁unlikely	-10.92
▁Third	-10.92
▁properties	-10.92
▁loom	-10.92
▁Technology	-10.92
sputum	-10.92
▁stead	-10.92
▁brain	-10.92
▁Ashish	-10.92
legal	-10.92
▁kne	-10.92
▁modelling	-10.92
▁Tehsildar	-10.92
▁Span	-10.92
▁Life	-10.9201
▁wild	-10.9201
▁commitment	-10.9201
▁justice	-10.9201
▁military	-10.9201
▁skeptic	-10.9201
▁tube	-10.9201
▁Journalist	-10.9201
▁interferon	-10.9201
-12	-10.9201
eshwar	-10.9201
▁internal	-10.9201
▁tree	-10.9201
▁cancer	-10.9201
COV	-10.9201
▁attractions	-10.9201
eviate	-10.9201
▁guide	-10.9201
▁intubation	-10.9201
▁childhood	-10.9201
▁radi	-10.9201
▁Fire	-10.9201
▁Parab	-10.9202
▁Protect	-10.9202
▁reception	-10.9202
▁travellers	-10.9203
▁governor	-10.9203
▁scam	-10.9203
▁nearby	-10.9203
▁Shaile	-10.9203
ARI	-10.9203
▁Long	-10.9204
▁bought	-10.9204
▁cellul	-10.9205
▁visitors	-10.9205
▁Workers	-10.9206
▁inflammation	-10.9206
▁2017	-10.9206
,400	-10.9206
▁assum	-10.9207
▁Jayanti	-10.9207
▁Bala	-10.9208
▁Gene	-10.9208
hule	-10.921
▁Emp	-10.921
▁Later	-10.9211
▁valve	-10.9211
hood	-10.9211
▁sad	-10.9211
▁Salunke	-10.9212
▁emphasiz	-10.9212
ranging	-10.9213
▁labor	-10.9213
▁listen	-10.9214
▁RTI	-10.9214
▁80,000	-10.9214
▁Mira	-10.9215
▁dismissal	-10.9217
▁Flu	-10.9217
▁60,000	-10.9217
▁collapsed	-10.9219
▁Civi	-10.922
▁deprived	-10.922
▁efficient	-10.922
▁60%	-10.9221
▁Bio	-10.9221
▁Transport	-10.9222
▁evaluated	-10.9222
▁epidemiology	-10.9222
▁Mutation	-10.9222
▁practical	-10.9222
▁Imp	-10.9225
itation	-10.9226
Find	-10.9228
2,6	-10.923
▁2020)	-10.9233
▁evolution	-10.9235
▁evacuated	-10.9235
▁homeless	-10.9235
▁Aadha	-10.9238
▁20%	-10.9241
party	-10.9242
▁Dal	-10.9243
▁disrupted	-10.9243
ple	-10.9249
▁batch	-10.9249
▁volume	-10.9251
▁lymphocyte	-10.9255
tosh	-10.9258
▁(7	-10.926
▁sin	-10.926
▁Nair	-10.9265
▁10%	-10.9265
▁airlines	-10.9268
ask	-10.9268
▁MT	-10.9271
▁declined	-10.9271
▁Kir	-10.9272
▁adding	-10.9273
▁organiz	-10.9274
▁20,000	-10.9277
▁Bori	-10.9279
▁ease	-10.9279
▁expensive	-10.928
▁DNA	-10.928
▁filters	-10.9287
ryan	-10.929
dium	-10.9293
▁worrying	-10.9295
▁commented	-10.9298
▁ignor	-10.9299
ility	-10.9306
▁cinemas	-10.9307
▁clinics	-10.9307
▁adviser	-10.9312
▁therapi	-10.9312
▁mentally	-10.9321
▁Dai	-10.9329
▁Wals	-10.9332
▁Working	-10.9343
connected	-10.9345
▁camps	-10.9349
▁era	-10.9355
ada	-10.9359
▁seasonal	-10.9361
being	-10.9366
▁Vin	-10.9369
moha	-10.9383
▁trends	-10.9404
Effective	-10.9411
▁HKU	-10.9412
▁nor	-10.9419
▁prescribe	-10.9433
cin	-10.9441
ado	-10.9463
itis	-10.9467
special	-10.9481
▁4.5	-10.9482
0,000	-10.9486
750	-10.9487
oyal	-10.9487
▁letters	-10.951
char	-10.9519
PP	-10.952
eya	-10.9521
▁fatal	-10.9528
▁hug	-10.953
▁2-	-10.9535
fect	-10.9539
▁fat	-10.9545
▁forces	-10.955
▁wasted	-10.9558
ose	-10.956
▁boys	-10.9562
risen	-10.957
▁seats	-10.958
▁shifts	-10.9581
tructural	-10.9587
▁Mur	-10.9608
▁3.5	-10.9609
▁Im	-10.9611
plan	-10.9612
▁accordingly	-10.9616
▁arena	-10.9619
EUA	-10.9624
▁transmitt	-10.9656
▁ash	-10.9664
▁Bah	-10.9671
▁promot	-10.9674
▁draw	-10.9676
▁decreases	-10.9682
ole	-10.9705
ought	-10.9714
▁mothers	-10.9721
loo	-10.9724
verge	-10.9736
liance	-10.9753
▁comfort	-10.9763
▁900	-10.9765
pad	-10.9782
37	-10.979
▁wards	-10.9802
▁dr	-10.9833
▁gyms	-10.9862
▁regulators	-10.9882
Source	-10.9885
▁bans	-10.9891
▁transmit	-10.9892
llow	-10.9905
tention	-10.9907
▁comfortabl	-10.992
ner	-10.9924
▁81	-10.9928
▁replace	-10.9928
85	-10.9933
▁effectively	-10.9955
PT	-10.9956
▁Press	-10.9979
ature	-11.0007
eet	-11.0042
▁Y	-11.0066
31	-11.0097
▁urge	-11.0107
▁emerg	-11.0144
28	-11.0153
▁none	-11.0154
▁spreader	-11.0161
▁camp	-11.0181
handra	-11.0185
▁carrie	-11.0203
▁Pand	-11.0236
▁stick	-11.0259
jwa	-11.0279
▁sw	-11.0279
▁association	-11.0285
▁newspaper	-11.0286
▁rh	-11.0289
▁degree	-11.0294
▁pathogen	-11.0295
▁workplace	-11.0298
ND	-11.0301
dverse	-11.0326
cott	-11.0326
hr	-11.0328
bound	-11.0331
door	-11.0331
October	-11.0333
Government	-11.0335
appointed	-11.0336
face	-11.0338
▁pose	-11.0339
▁ignore	-11.0339
called	-11.0339
wait	-11.0341
▁driver	-11.0345
also	-11.0347
kin	-11.0348
alls	-11.0357
▁teach	-11.0358
▁compar	-11.0359
▁approv	-11.0368
isation	-11.0374
▁inject	-11.0376
▁genom	-11.0381
▁lift	-11.0387
▁weaken	-11.0391
▁78	-11.0397
▁Organi	-11.0399
▁quick	-11.0421
▁constant	-11.0422
▁hygien	-11.0423
▁top	-11.0427
▁collapse	-11.0429
▁encourage	-11.043
▁investigate	-11.043
▁manage	-11.043
locked	-11.0431
promised	-11.0433
▁chart	-11.0442
▁strategi	-11.0443
▁Hind	-11.0443
▁vers	-11.0444
ollution	-11.0447
▁Comp	-11.0448
▁Less	-11.0448
▁primar	-11.0448
▁remedi	-11.0448
enior	-11.0448
ccupational	-11.0449
▁possibl	-11.0449
ifferent	-11.0449
▁broad	-11.0449
▁identi	-11.045
▁Shir	-11.045
satisf	-11.045
▁mechani	-11.045
▁ascertain	-11.045
▁compensat	-11.045
▁infarction	-11.045
FEMA	-11.045
xpenditure	-11.045
▁Chaudhary	-11.045
▁Christmas	-11.045
▁Crowd	-11.045
▁Dattatraya	-11.045
▁Dokania	-11.045
▁Eight	-11.045
▁English	-11.045
▁Festival	-11.045
▁Francisco	-11.045
▁Hinduism	-11.045
▁Integrat	-11.045
▁Iraq	-11.045
▁Isolation	-11.045
▁Loksatta	-11.045
▁Low	-11.045
▁Malaysia	-11.045
▁Mukherjee	-11.045
▁Nalasopara	-11.045
▁Philippines	-11.045
▁Rapid	-11.045
▁Ratnagiri	-11.045
▁Sassoon	-11.045
▁Spring	-11.045
▁Squad	-11.045
▁Syndrome	-11.045
▁Tendulkar	-11.045
▁Zealand	-11.045
▁accuracy	-11.045
▁aggressive	-11.045
▁appetite	-11.045
▁applicable	-11.045
▁article	-11.045
▁assign	-11.045
▁brief	-11.045
▁coaches	-11.045
▁constitute	-11.045
▁contagion	-11.045
▁counsel	-11.045
▁eligible	-11.045
▁elsewhere	-11.045
▁explanation	-11.045
▁explosion	-11.045
▁fingernails	-11.045
▁havoc	-11.045
▁hyper	-11.045
▁institutional	-11.045
▁language	-11.045
▁malaria	-11.045
▁neglect	-11.045
▁negligence	-11.045
▁oximeter	-11.045
▁passport	-11.045
▁preschool	-11.045
▁replicate	-11.045
▁robust	-11.045
▁sanctions	-11.045
▁saturation	-11.045
▁subunit	-11.045
▁tremendous	-11.045
▁vendors	-11.045
▁voice	-11.045
▁worrisome	-11.045
▁xenophobia	-11.045
▁Large	-11.045
▁Mhetre	-11.045
▁Mishra	-11.045
▁Shenoy	-11.045
▁WHERE	-11.045
▁affix	-11.045
▁combat	-11.045
▁concert	-11.045
▁cyclone	-11.045
▁neighbor	-11.045
▁permanent	-11.045
▁unprecedented	-11.045
▁vacant	-11.045
▁vitro	-11.045
▁Dadar	-11.045
▁NCE	-11.045
▁aspect	-11.045
▁channel	-11.045
▁vaccinators	-11.045
Teacher	-11.045
▁consumer	-11.045
▁dollar	-11.045
▁grape	-11.045
▁plent	-11.045
Remov	-11.045
▁Child	-11.045
▁emo	-11.045
▁balance	-11.045
▁sister	-11.045
▁firm	-11.045
▁wonder	-11.045
▁ANI	-11.045
▁Member	-11.045
▁relationship	-11.045
▁Patole	-11.045
▁99.9	-11.045
▁gear	-11.045
▁Devanand	-11.045
▁Train	-11.045
▁Wikimedia	-11.045
▁satisfy	-11.0451
▁automatically	-11.0451
▁expedit	-11.0451
▁Wadi	-11.0451
▁reply	-11.0451
▁tablets	-11.0451
▁necessities	-11.0451
nirvan	-11.0451
yush	-11.0451
▁Executive	-11.0451
▁gastro	-11.0451
Treat	-11.0451
▁convention	-11.0451
▁irrita	-11.0451
▁inactive	-11.0451
▁prison	-11.0451
▁hotelier	-11.0451
▁Registration	-11.0452
▁Amandeep	-11.0452
▁worksite	-11.0452
▁clash	-11.0452
▁Feder	-11.0452
▁disability	-11.0452
▁harmless	-11.0452
▁Raikar	-11.0452
▁blocked	-11.0453
▁Sarpanch	-11.0453
▁meantime	-11.0453
andatory	-11.0453
▁Biotechnology	-11.0453
▁Lokma	-11.0453
▁truth	-11.0453
▁pick	-11.0454
▁Road	-11.0454
▁Aadhaar	-11.0454
▁stall	-11.0454
▁overlap	-11.0454
▁procured	-11.0454
▁psychiatrist	-11.0456
▁Ankita	-11.0456
▁inputs	-11.0456
▁pipe	-11.0457
▁improvement	-11.0457
▁Oak	-11.0458
▁gate	-11.0459
▁?;	-11.0461
▁Nana	-11.0463
khar	-11.0463
▁chat	-11.0463
▁blue	-11.0464
▁continuously	-11.0464
▁Manufacturer	-11.0465
▁proven	-11.0465
▁2003	-11.0465
▁yes	-11.0466
▁portal	-11.0467
▁film	-11.0467
▁repurposing	-11.0468
▁hospitalised	-11.0469
▁Anand	-11.0469
▁broken	-11.0469
▁40,000	-11.047
▁Though	-11.047
▁seriousness	-11.0471
pari	-11.0472
▁expir	-11.0472
▁Wiki	-11.0475
▁Countries	-11.0475
▁guards	-11.0475
▁amplify	-11.0475
▁Ahmedabad	-11.0475
▁Unlock	-11.0476
▁losses	-11.0477
▁Tul	-11.0477
▁Bhar	-11.0477
profil	-11.0478
▁CRT	-11.0481
▁contribut	-11.0481
▁interrupted	-11.0481
▁eliminated	-11.0482
▁transfer	-11.0483
▁steroids	-11.0484
▁2002	-11.0486
▁cash	-11.0488
▁shocked	-11.049
▁credit	-11.0492
▁86	-11.0492
▁TCM	-11.0492
▁Nile	-11.0494
▁Healthcare	-11.0496
▁outline	-11.0499
▁Jain	-11.0502
▁add	-11.0505
▁palms	-11.0506
▁objects	-11.0506
▁stream	-11.0507
▁erupted	-11.0508
▁LRTI	-11.0508
▁OSHA	-11.0508
▁glass	-11.0508
▁Sara	-11.051
▁abuse	-11.0511
▁Coronation	-11.0512
▁Earl	-11.0516
42	-11.0517
▁divide	-11.0521
istic	-11.0524
▁buri	-11.0527
▁infants	-11.0528
acked	-11.0528
fin	-11.0534
inel	-11.0537
▁Jiten	-11.0539
iagnostic	-11.0543
▁Fre	-11.0543
▁gur	-11.0545
▁strik	-11.0547
▁8,000	-11.0555
GDP	-11.0556
▁north	-11.0558
ukh	-11.0562
aining	-11.0562
▁fourth	-11.0563
▁file	-11.0565
▁coron	-11.057
▁intrav	-11.057
▁consulted	-11.057
▁noticed	-11.0574
omic	-11.0583
88	-11.0592
▁reaches	-11.0598
▁Lashi	-11.0604
Bat	-11.0606
▁terri	-11.0611
▁inhibition	-11.0613
▁Pol	-11.0613
▁workplaces	-11.0616
▁drivers	-11.0616
▁fitt	-11.0617
▁separately	-11.062
▁cleanse	-11.0627
Arg	-11.0629
raj	-11.0632
▁preserv	-11.0643
▁sticker	-11.0645
▁bills	-11.0661
homa	-11.0662
lend	-11.0677
▁certificates	-11.0685
▁responded	-11.0687
NT	-11.0692
arding	-11.0694
▁sneezes	-11.0705
▁fingers	-11.0706
▁bi	-11.0713
▁recording	-11.0714
▁accidents	-11.0726
kari	-11.075
mor	-11.076
nown	-11.078
▁0.2	-11.0781
▁handled	-11.0807
▁web	-11.0817
▁Ku	-11.0822
▁buying	-11.0838
▁meaning	-11.0859
RS	-11.0869
weigh	-11.0873
AT	-11.0901
▁17)	-11.0927
▁targets	-11.0935
▁remarkabl	-11.0947
▁dep	-11.0963
▁lea	-11.0973
54	-11.1012
▁fi	-11.1015
▁mon	-11.1039
▁Chi	-11.1077
600	-11.1079
owing	-11.108
▁networks	-11.1093
▁Pi	-11.1096
▁exports	-11.1107
▁zones	-11.1116
▁fields	-11.1186
idden	-11.1197
06	-11.1198
ologist	-11.1228
aki	-11.1228
SI	-11.1229
▁examine	-11.1234
000	-11.1288
98	-11.1318
2%	-11.1326
▁remark	-11.1335
IG	-11.1345
mini	-11.1363
▁citizen	-11.142
▁Swi	-11.1427
▁Dha	-11.1432
nstitution	-11.1469
CMR	-11.1486
low	-11.1554
dependent	-11.1556
pecialty	-11.1558
▁Jam	-11.1578
▁Per	-11.1598
▁Effect	-11.1609
atory	-11.162
▁involv	-11.1622
symptomatic	-11.163
▁Shr	-11.1642
had	-11.1667
clinical	-11.168
▁purchas	-11.1682
66	-11.1686
virus	-11.1709
96	-11.1709
▁girl	-11.172
▁intervention	-11.1721
▁restaurant	-11.1721
▁scientist	-11.1724
▁Pen	-11.1729
▁coroner	-11.173
▁Prit	-11.1739
▁Mah	-11.1742
pproximate	-11.175
ast	-11.1754
view	-11.1757
DCGI	-11.1759
count	-11.176
pharmaceutical	-11.1761
front	-11.1762
Oxygen	-11.1762
ICU	-11.1763
known	-11.1763
February	-11.1763
Last	-11.1763
affected	-11.1763
social	-11.1763
vaccine	-11.1763
China	-11.1763
Pro	-11.1763
such	-11.1764
nagar	-11.1765
cology	-11.1766
containment	-11.1767
bh	-11.1771
hour	-11.1777
law	-11.1781
under	-11.1783
some	-11.1786
▁burn	-11.1798
▁49	-11.1804
sides	-11.1806
▁regulation	-11.181
viral	-11.1811
▁erupt	-11.1814
▁publish	-11.1816
▁experiment	-11.1823
▁fun	-11.1842
illions	-11.1845
SL	-11.1847
▁opportunit	-11.1848
▁technolog	-11.1849
▁coward	-11.185
▁spor	-11.1851
▁dismiss	-11.1857
▁introduce	-11.1859
▁star	-11.186
▁eliminate	-11.1864
▁throw	-11.1867
arms	-11.1867
itya	-11.1872
▁2.4	-11.1874
▁obstruct	-11.1874
hylogenetic	-11.1875
▁respect	-11.1876
reliminary	-11.1876
▁strength	-11.1876
▁afford	-11.1876
septic	-11.1877
▁drastic	-11.1878
▁uncertain	-11.1878
▁Journal	-11.1878
▁represent	-11.1878
▁bann	-11.1878
▁extensi	-11.1878
▁immuno	-11.1879
▁chlor	-11.1879
precedent	-11.1879
Pacific	-11.1879
UPSC	-11.1879
cademy	-11.1879
educated	-11.1879
hunger	-11.1879
responsibilities	-11.1879
▁Achalpur	-11.1879
▁Ambedkar	-11.1879
▁Aquarius	-11.1879
▁Assistant	-11.1879
▁Cooper	-11.1879
▁Deshpande	-11.1879
▁Diarrhea	-11.1879
▁ERV	-11.1879
▁Extreme	-11.1879
▁Ganeshotsav	-11.1879
▁Gangakhedkar	-11.1879
▁Grocery	-11.1879
▁Guidance	-11.1879
▁Harvard	-11.1879
▁Himachal	-11.1879
▁Hotels	-11.1879
▁Indonesia	-11.1879
▁Jharkhand	-11.1879
▁Jyoti	-11.1879
▁Kanjurmarg	-11.1879
▁Marathwada	-11.1879
▁Narlikar	-11.1879
▁Naxalites	-11.1879
▁Particularly	-11.1879
▁Priyanka	-11.1879
▁Ramdesivir	-11.1879
▁Relief	-11.1879
▁Remedivir	-11.1879
▁Revenue	-11.1879
▁Scientific	-11.1879
▁Sindhudurg	-11.1879
▁Talasari	-11.1879
▁Territories	-11.1879
▁calendar	-11.1879
▁capsules	-11.1879
▁cellphone	-11.1879
▁congregation	-11.1879
▁definition	-11.1879
▁diabetic	-11.1879
▁discontinu	-11.1879
▁explode	-11.1879
▁favipiravir	-11.1879
▁fungus	-11.1879
▁goggles	-11.1879
▁grief	-11.1879
▁integrate	-11.1879
▁manifestations	-11.1879
▁operators	-11.1879
▁parallel	-11.1879
▁participation	-11.1879
▁polyprotein	-11.1879
▁pumps	-11.1879
▁reconsider	-11.1879
▁rumors	-11.1879
▁scenario	-11.1879
▁slot	-11.1879
▁speculat	-11.1879
▁spillover	-11.1879
▁stimulate	-11.1879
▁substitut	-11.1879
▁surprise	-11.1879
▁switch	-11.1879
▁undertaken	-11.1879
▁unemployment	-11.1879
▁universal	-11.1879
▁virtual	-11.1879
▁virulent	-11.1879
▁Gadkari	-11.1879
▁Jalgaon	-11.1879
▁affiliat	-11.1879
▁akhada	-11.1879
▁cheap	-11.1879
▁circuit	-11.1879
▁corpse	-11.1879
▁crew	-11.1879
▁disappear	-11.1879
▁forgotten	-11.1879
▁imagine	-11.1879
▁prescription	-11.1879
▁somewhat	-11.1879
▁suspicion	-11.1879
density	-11.1879
▁1,200	-11.1879
▁Khare	-11.1879
▁Megh	-11.1879
▁Vacanc	-11.1879
▁festive	-11.1879
▁foam	-11.1879
▁freedom	-11.1879
▁umifenovir	-11.1879
▁Practice	-11.1879
▁minor	-11.1879
▁sentiment	-11.1879
▁artist	-11.1879
▁bleeding	-11.1879
▁contamination	-11.1879
▁Somani	-11.1879
▁accumulat	-11.1879
▁dozen	-11.1879
▁grand	-11.1879
▁plate	-11.1879
▁Type	-11.1879
▁Balram	-11.1879
▁Water	-11.1879
▁Deore	-11.1879
▁Blue	-11.1879
▁Hazar	-11.1879
▁Present	-11.1879
ogue	-11.1879
▁Giri	-11.1879
▁SSC	-11.1879
▁debt	-11.1879
▁idol	-11.1879
▁norms	-11.1879
▁Justice	-11.1879
▁angry	-11.1879
▁Swami	-11.1879
▁Ryan	-11.1879
▁click	-11.1879
▁confidence	-11.1879
▁cytomegalovirus	-11.1879
▁deny	-11.1879
▁Ign	-11.1879
▁pets	-11.1879
NBC	-11.1879
▁Ltd	-11.1879
▁societies	-11.1879
▁Serious	-11.1879
▁comorbidities	-11.188
IFN	-11.188
▁sheet	-11.188
▁exclusive	-11.188
▁eventual	-11.188
▁upset	-11.188
▁fitness	-11.188
▁threatened	-11.188
▁je	-11.188
▁jump	-11.188
▁Shekhar	-11.188
▁Assam	-11.188
▁stable	-11.188
▁anger	-11.188
▁evaluation	-11.1881
transmissibility	-11.1881
hairman	-11.1881
nergy	-11.1881
▁readiness	-11.1881
▁Akhil	-11.1881
▁hence	-11.1881
▁blast	-11.1881
▁recruitment	-11.1881
▁Brazilian	-11.1882
transmissible	-11.1882
mphasi	-11.1882
▁rich	-11.1882
▁Room	-11.1882
▁cruci	-11.1882
▁Jha	-11.1882
▁fet	-11.1882
▁mix	-11.1882
▁consol	-11.1882
▁Sangh	-11.1883
▁Jack	-11.1883
▁Lesson	-11.1883
▁overnight	-11.1883
▁obstruction	-11.1883
▁Practitioner	-11.1883
▁sporting	-11.1884
▁defend	-11.1884
▁Ghat	-11.1884
▁seeds	-11.1884
▁expression	-11.1884
orium	-11.1885
▁residence	-11.1885
▁Gupta	-11.1886
▁Kap	-11.1886
▁Iranian	-11.1886
▁confirmation	-11.1887
▁gel	-11.1887
Sometimes	-11.1887
▁Begin	-11.1887
▁preferred	-11.1887
▁sentence	-11.1887
▁Gram	-11.1889
▁reput	-11.1889
▁Immunization	-11.189
▁Kawasaki	-11.189
▁Official	-11.189
▁Remedacivir	-11.189
▁utiliz	-11.189
▁upload	-11.189
▁specialty	-11.1891
▁2013	-11.1891
▁fifty	-11.1891
▁reality	-11.1891
▁cooperate	-11.1891
▁Vice	-11.1891
hankar	-11.1891
▁holders	-11.1892
▁neo	-11.1893
▁promotion	-11.1893
▁foreigners	-11.1893
▁Adv	-11.1893
▁inspection	-11.1894
EP	-11.1894
▁destroyed	-11.1894
▁Kale	-11.1895
▁02	-11.1895
▁booster	-11.1897
▁spot	-11.1898
terminal	-11.1898
▁Jana	-11.1898
▁inaugurat	-11.1898
▁sound	-11.1899
▁permit	-11.19
▁Islam	-11.1904
▁WM	-11.1906
▁microscop	-11.1907
▁COPD	-11.1908
▁GST	-11.1908
spector	-11.191
▁Just	-11.191
▁resumed	-11.1913
▁ice	-11.1916
▁interst	-11.1916
▁violation	-11.1918
poly	-11.1918
▁dri	-11.1918
▁consideration	-11.192
▁Six	-11.192
▁Critical	-11.1921
▁6,000	-11.1923
▁staggering	-11.1925
▁prohibited	-11.1925
▁7,000	-11.1926
▁failing	-11.1926
▁neck	-11.1927
▁SOP	-11.1927
▁humanity	-11.1928
▁Australian	-11.1928
▁committe	-11.1932
▁Cap	-11.1934
▁15%	-11.1934
▁alive	-11.1934
▁recruited	-11.1936
tably	-11.1938
▁USA	-11.1942
▁cheetahs	-11.1943
▁decades	-11.1943
▁reserves	-11.1943
▁shipp	-11.1944
▁Bak	-11.1946
▁bit	-11.1947
ctic	-11.195
ket	-11.195
▁feeding	-11.1952
▁rid	-11.1956
▁vote	-11.196
▁hear	-11.1963
▁timeline	-11.1964
scope	-11.1965
▁NHS	-11.1966
▁rent	-11.1969
▁religions	-11.1972
▁Sale	-11.1972
▁damaged	-11.1976
last	-11.1976
▁fan	-11.1978
▁Bri	-11.198
MR	-11.1985
▁exempt	-11.1987
gon	-11.1992
▁drinking	-11.1992
▁skills	-11.1995
▁measured	-11.1996
lka	-11.1999
▁ph	-11.2002
▁PE	-11.2005
▁cleaners	-11.2007
▁71	-11.2008
▁Cold	-11.2032
▁direction	-11.2033
▁minimis	-11.2033
▁benz	-11.2036
▁Sush	-11.2051
▁IT	-11.2055
ommunity	-11.2057
▁react	-11.2058
▁Comm	-11.206
▁Mamata	-11.2063
▁Joe	-11.2066
▁associations	-11.2072
▁newspapers	-11.2072
gone	-11.2075
cine	-11.2076
▁10)	-11.2077
clusion	-11.2079
tton	-11.2084
garet	-11.2084
wadi	-11.2096
ECDC	-11.2107
▁meta	-11.2118
▁orphans	-11.2124
▁triple	-11.2127
urine	-11.2142
388	-11.2144
▁belong	-11.2153
09	-11.2156
oj	-11.2168
▁Star	-11.2174
verything	-11.2176
▁bottles	-11.2177
▁slowing	-11.2197
win	-11.2198
▁brothers	-11.2203
▁provinces	-11.2203
▁deep	-11.2222
▁74	-11.2227
▁railways	-11.2229
▁covered	-11.2247
mph	-11.2272
▁blame	-11.2274
▁1.7	-11.2276
▁IV	-11.2278
▁5-1	-11.2283
▁gener	-11.2329
▁inquire	-11.2349
2019-	-11.2375
▁Rob	-11.2383
▁charg	-11.2392
-19"	-11.2397
ier	-11.2417
dha	-11.2441
onia	-11.247
IL	-11.2472
nted	-11.2526
ube	-11.2552
▁Arm	-11.2572
usable	-11.2602
dhar	-11.2605
subsid	-11.2612
▁(9	-11.2631
mine	-11.2632
CC	-11.2652
ulation	-11.27
▁Ventilator	-11.2706
atter	-11.2713
▁8)	-11.2717
ovine	-11.2726
▁Ches	-11.2743
▁frames	-11.2743
▁Ak	-11.2745
mel	-11.2768
ovi	-11.277
▁Gavi	-11.2827
commerce	-11.2845
▁Rama	-11.2855
inj	-11.2901
▁mol	-11.2918
▁avia	-11.2965
hant	-11.297
MP	-11.3004
▁Pat	-11.3006
avan	-11.301
▁Kat	-11.3014
▁Park	-11.3023
name	-11.3025
100,000	-11.3043
▁subsidi	-11.3062
▁Om	-11.3085
▁Sea	-11.3098
▁Lal	-11.3099
lov	-11.3124
▁endo	-11.3131
ample	-11.3133
▁Kut	-11.3136
▁princip	-11.314
▁pe	-11.3141
▁port	-11.3141
tial	-11.3153
trick	-11.3158
CT	-11.3161
1,6	-11.3175
25%	-11.3209
▁Abh	-11.3212
▁Sub	-11.3233
▁ti	-11.3234
▁Pri	-11.3264
▁enhanc	-11.3305
form	-11.3306
hibition	-11.3323
reading	-11.3323
▁130	-11.3333
GM	-11.3346
▁psych	-11.3347
raction	-11.3349
▁clinic	-11.3357
▁recip	-11.3363
itial	-11.3367
rubb	-11.3374
▁isolat	-11.3379
▁cinema	-11.3383
ID	-11.3384
hield	-11.3385
▁disorder	-11.3387
▁tribal	-11.3387
▁doubt	-11.3387
▁volunteer	-11.3387
▁pediatrician	-11.3388
▁street	-11.3388
▁town	-11.339
▁Patient	-11.3391
▁statu	-11.3391
▁resource	-11.3392
▁electron	-11.3393
03	-11.3394
charge	-11.3394
▁programme	-11.3397
vailability	-11.3408
▁farmer	-11.3412
ngiotensin	-11.3417
DNA	-11.3424
expensive	-11.3424
strand	-11.3425
science	-11.3427
power	-11.3427
Report	-11.3427
membrane	-11.3427
▁inspect	-11.3428
pathogenic	-11.3428
Covacin	-11.3428
PHE	-11.3429
diagnosed	-11.3429
primary	-11.3429
General	-11.3429
genome	-11.3429
September	-11.3429
week	-11.343
approved	-11.343
(	-11.343
lockdown	-11.3431
develop	-11.3431
What	-11.3432
nimal	-11.3432
PPE	-11.3434
closed	-11.3436
rais	-11.3437
▁politici	-11.3439
▁eradicate	-11.3441
▁complaint	-11.3444
▁recommendation	-11.3445
food	-11.3448
cost	-11.3453
▁postpon	-11.3455
Dur	-11.3459
▁plac	-11.3462
LIC	-11.3465
▁disrupt	-11.3471
All	-11.3475
▁recruit	-11.3476
▁cremat	-11.3476
▁feed	-11.3476
stern	-11.3488
▁mention	-11.3493
okh	-11.3498
▁categor	-11.3514
▁homolog	-11.3515
▁Universit	-11.3516
teria	-11.3522
ography	-11.3523
iya	-11.3523
▁deteriorate	-11.3524
▁diagnose	-11.3525
definite	-11.3526
for	-11.3529
tma	-11.3529
▁emphasi	-11.3529
One	-11.3531
9).	-11.3538
▁nucle	-11.354
esults	-11.3541
▁elect	-11.3541
▁potent	-11.3543
ermission	-11.3543
▁Ghebreyes	-11.3543
stimates	-11.3544
armers	-11.3544
▁Safe	-11.3545
astro	-11.3545
▁Shin	-11.3545
neutral	-11.3545
▁Turk	-11.3545
transcript	-11.3545
▁synthe	-11.3545
▁Evidence	-11.3545
▁ORDER	-11.3545
▁caregiver	-11.3545
▁companion	-11.3545
▁fragment	-11.3545
▁hypoth	-11.3545
▁inhabit	-11.3545
▁surpass	-11.3545
BioNTech	-11.3545
Positive	-11.3545
SEIR	-11.3545
fertility	-11.3545
ooja	-11.3545
piece	-11.3545
privilege	-11.3545
rogya	-11.3545
▁Acharya	-11.3545
▁Android	-11.3545
▁Approv	-11.3545
▁Argentina	-11.3545
▁Bollywood	-11.3545
▁Buddhiraja	-11.3545
▁Build	-11.3545
▁CBSE	-11.3545
▁Cornell	-11.3545
▁Crisil	-11.3545
▁Economy	-11.3545
▁Exercise	-11.3545
▁Fertilizer	-11.3545
▁Hingoli	-11.3545
▁Industry	-11.3545
▁Jazz	-11.3545
▁Judaism	-11.3545
▁Kakkar	-11.3545
▁Kapoor	-11.3545
▁Lodha	-11.3545
▁Odisha	-11.3545
▁Parbhani	-11.3545
▁Pranjal	-11.3545
▁Princess	-11.3545
▁Province	-11.3545
▁Rashmi	-11.3545
▁Record	-11.3545
▁Relations	-11.3545
▁Sanitizer	-11.3545
▁Traders	-11.3545
▁UNICEF	-11.3545
▁Unnao	-11.3545
▁Varanasi	-11.3545
▁Yoga	-11.3545
▁Zindagi	-11.3545
▁administrator	-11.3545
▁allocated	-11.3545
▁clarity	-11.3545
▁cloud	-11.3545
▁confident	-11.3545
▁connectivity	-11.3545
▁conversation	-11.3545
▁daughter	-11.3545
▁dinner	-11.3545
▁doorknob	-11.3545
▁dyspnea	-11.3545
▁element	-11.3545
▁episode	-11.3545
▁ethanol	-11.3545
▁excess	-11.3545
▁exudates	-11.3545
▁fertilizer	-11.3545
▁fuel	-11.3545
▁halved	-11.3545
▁horrifi	-11.3545
▁impotence	-11.3545
▁ingredients	-11.3545
▁kilos	-11.3545
▁monsoon	-11.3545
▁nucleocapsid	-11.3545
▁optimal	-11.3545
▁participants	-11.3545
▁peripheral	-11.3545
▁polling	-11.3545
▁poultry	-11.3545
▁poverty	-11.3545
▁queues	-11.3545
▁remedicavir	-11.3545
▁reproduction	-11.3545
▁resolution	-11.3545
▁retrospective	-11.3545
▁sanitiser	-11.3545
▁scarcity	-11.3545
▁square	-11.3545
▁stringent	-11.3545
▁vivo	-11.3545
▁yield	-11.3545
Tocilizumab	-11.3545
sensitivity	-11.3545
▁Access	-11.3545
▁Awareness	-11.3545
▁Awhad	-11.3545
▁Dolvi	-11.3545
▁HERE	-11.3545
▁acquaint	-11.3545
▁cerebr	-11.3545
▁concessions	-11.3545
▁engage	-11.3545
▁epicent	-11.3545
▁hashtag	-11.3545
▁neurologic	-11.3545
▁pursu	-11.3545
▁Mahamand	-11.3545
▁Sabha	-11.3545
▁crop	-11.3545
▁dirty	-11.3545
▁intensity	-11.3545
▁legs	-11.3545
▁organisations	-11.3545
▁taste	-11.3545
▁televis	-11.3545
▁tough	-11.3545
▁IgG	-11.3545
▁Noida	-11.3545
▁choice	-11.3545
conscious	-11.3545
▁Satav	-11.3545
▁Shelar	-11.3545
▁illegal	-11.3545
▁obligations	-11.3545
▁zero	-11.3545
▁dermatitis	-11.3545
▁vacation	-11.3545
▁Anura	-11.3545
▁Kalyan	-11.3545
▁coaching	-11.3545
▁earn	-11.3545
▁innovati	-11.3545
▁Hungar	-11.3545
▁housing	-11.3546
▁itinerar	-11.3546
▁Color	-11.3546
▁Regulation	-11.3546
▁Should	-11.3546
▁Tourist	-11.3546
▁dense	-11.3546
▁Surg	-11.3546
▁contraceptive	-11.3546
▁Christian	-11.3546
Together	-11.3546
▁corrupt	-11.3546
▁Gym	-11.3546
▁park	-11.3546
▁Award	-11.3546
▁solid	-11.3546
▁cafe	-11.3546
▁Pediatrician	-11.3546
▁assured	-11.3546
▁civilian	-11.3546
▁Help	-11.3546
▁occurring	-11.3546
▁salarie	-11.3546
▁Nagarale	-11.3546
▁Explain	-11.3546
tress	-11.3546
▁Discuss	-11.3546
▁stem	-11.3546
▁Outside	-11.3546
▁directives	-11.3546
▁shopkeepers	-11.3546
▁Great	-11.3546
▁correctly	-11.3546
▁decentralized	-11.3546
▁harbour	-11.3546
▁Limit	-11.3546
▁kid	-11.3546
▁tele	-11.3546
▁vulnerable	-11.3546
Voter	-11.3546
▁Get	-11.3546
▁Gamal	-11.3547
▁virion	-11.3547
▁Otherwise	-11.3547
▁uncertainty	-11.3547
▁unnecessarily	-11.3547
▁drastically	-11.3547
▁Navratri	-11.3547
roadcast	-11.3547
▁reproductiv	-11.3547
▁submit	-11.3547
▁Nations	-11.3547
▁payments	-11.3547
▁basketball	-11.3547
▁pathologist	-11.3547
▁objections	-11.3547
▁Seema	-11.3547
▁Usha	-11.3547
▁bloodstream	-11.3548
▁Bharatiya	-11.3548
▁harmful	-11.3548
▁House	-11.3548
▁Occupational	-11.3548
▁bias	-11.3548
▁Deep	-11.3548
▁visa	-11.3548
DAD	-11.3548
▁coast	-11.3548
▁Hindus	-11.3548
▁harassment	-11.3548
▁evolutionary	-11.3548
pplies	-11.3548
▁enteritis	-11.3548
▁Lok	-11.3548
▁Rohi	-11.3549
▁injectable	-11.3549
▁Shahid	-11.3549
▁tension	-11.3549
▁proof	-11.3549
nyway	-11.355
▁cremation	-11.355
▁unclear	-11.355
▁brush	-11.3551
▁covidosis	-11.3551
▁Parent	-11.3551
▁dark	-11.3551
▁Liqu	-11.3551
.7%)	-11.3552
▁Lind	-11.3552
▁2014	-11.3552
▁overcrowded	-11.3552
▁Hindi	-11.3553
wheeler	-11.3553
▁travell	-11.3553
▁Garg	-11.3553
ctant	-11.3555
HRCT	-11.3555
▁offline	-11.3556
▁deployment	-11.3556
484	-11.3556
▁placebo	-11.3556
urang	-11.3557
▁abundan	-11.3557
▁Except	-11.3557
▁transferr	-11.3557
▁charter	-11.3557
▁competition	-11.3557
▁Chaur	-11.3558
theless	-11.3558
▁unexpected	-11.3558
▁shout	-11.3558
▁HR	-11.3558
▁Good	-11.3559
▁Maint	-11.3559
▁healing	-11.3559
erology	-11.356
▁Sathe	-11.356
▁exhibit	-11.356
nathan	-11.356
▁hardest	-11.356
▁stain	-11.3562
▁2010	-11.3562
▁cup	-11.3562
▁Reg	-11.3562
▁infectiousness	-11.3563
operati	-11.3563
▁curve	-11.3563
▁escaped	-11.3563
ajor	-11.3563
▁Uj	-11.3564
▁calculated	-11.3564
▁wiring	-11.3566
▁repurposed	-11.3567
▁Covaxin	-11.3567
▁Inform	-11.3567
▁radiograph	-11.3568
▁progressive	-11.3568
▁promise	-11.3568
▁visible	-11.3569
▁shedd	-11.3569
▁progression	-11.357
▁breastfeeding	-11.357
▁distribute	-11.357
cient	-11.3572
▁Baj	-11.3572
▁2004	-11.3572
▁290	-11.3575
▁40%	-11.3577
▁category	-11.3577
trust	-11.3577
▁Often	-11.3578
▁fault	-11.358
▁measles	-11.358
fold	-11.3581
▁researcher	-11.3582
▁proved	-11.3583
▁Eid	-11.3584
▁chickens	-11.3592
▁detergents	-11.3592
▁jurisdictions	-11.3592
▁newborns	-11.3592
▁pneumocytes	-11.3592
▁solu	-11.3594
▁scann	-11.3596
▁followers	-11.3596
▁Jan	-11.3599
▁runn	-11.3604
▁ideal	-11.3605
▁quota	-11.3605
atish	-11.3606
▁operated	-11.361
▁2000	-11.3615
Stop	-11.3618
▁sharply	-11.362
▁resistan	-11.3622
▁achieved	-11.3622
▁vessels	-11.3623
▁misconceptions	-11.3623
ohol	-11.3626
espirator	-11.3626
▁Feluda	-11.3626
▁DC	-11.3627
ension	-11.3628
▁Up	-11.363
▁promptly	-11.3631
▁preferabl	-11.3632
▁scrub	-11.3632
▁11)	-11.3636
▁functional	-11.3638
▁symbolic	-11.3638
▁injected	-11.3638
▁coded	-11.3641
▁Mann	-11.3643
▁surge	-11.3648
▁burning	-11.3649
▁cove	-11.3651
▁eradicat	-11.3651
▁disclos	-11.3652
▁expenses	-11.3653
▁rarely	-11.3653
rink	-11.3662
fuse	-11.3678
▁presentation	-11.3679
▁celebrate	-11.3682
▁Ranj	-11.3686
▁signal	-11.3686
toxicity	-11.3699
▁appoint	-11.37
mod	-11.37
campus	-11.3701
▁authoris	-11.371
cleansing	-11.3715
▁recipe	-11.3731
▁entr	-11.3735
▁publication	-11.3749
▁lesser	-11.375
▁Em	-11.3753
2-3	-11.377
eeti	-11.377
▁IL	-11.3774
▁psycho	-11.3784
▁CD	-11.3787
▁wall	-11.3806
▁Part	-11.3815
djustment	-11.3827
usted	-11.3837
▁dog	-11.3881
▁scar	-11.3887
99%	-11.3887
▁para	-11.3889
▁shed	-11.3898
nyone	-11.3905
▁Biologic	-11.3922
▁distan	-11.3932
Decreased	-11.3936
acceptable	-11.3939
Anti	-11.3944
portion	-11.3946
Increase	-11.3968
▁Ren	-11.3984
▁Lu	-11.3985
tag	-11.3992
▁stabilize	-11.3999
position	-11.4013
eev	-11.4028
osis	-11.4042
▁instruct	-11.4056
chand	-11.4067
▁Ben	-11.4082
8,9	-11.4118
▁Gree	-11.4121
hij	-11.414
▁ray	-11.419
4,000	-11.4228
ike	-11.4232
Huo	-11.4236
technology	-11.4241
835	-11.4242
IMS	-11.4258
ova	-11.4294
orti	-11.43
▁replac	-11.4307
▁procla	-11.4335
▁mini	-11.4347
beat	-11.4401
100%	-11.4416
boli	-11.4481
▁appreciat	-11.4535
nya	-11.4539
ael	-11.454
Yan	-11.4541
450	-11.455
cket	-11.4558
▁1,0	-11.4597
▁structur	-11.4603
reference	-11.4643
▁Sau	-11.4646
communica	-11.4647
▁transit	-11.465
▁accommodate	-11.4667
▁stockpile	-11.4698
Whe	-11.4699
amji	-11.4727
arkar	-11.481
▁Jo	-11.482
rab	-11.4829
39	-11.4881
79	-11.4976
hyl	-11.5031
▁1000	-11.5107
▁prescrib	-11.5122
sks	-11.5127
2.5	-11.5176
llen	-11.5192
▁Trac	-11.5215
sufficient	-11.5221
via	-11.5222
▁declar	-11.5224
turba	-11.5231
▁Diagnosi	-11.5295
adam	-11.5299
posed	-11.5306
mber	-11.5338
▁fit	-11.5345
▁lev	-11.5351
structions	-11.5352
▁toxicit	-11.5361
cca	-11.5369
produc	-11.5381
▁skill	-11.5381
var	-11.5381
▁civet	-11.5384
▁fruit	-11.5386
▁Time	-11.5388
▁customer	-11.5388
▁filter	-11.5389
FR	-11.5396
▁shock	-11.5396
nnual	-11.5416
ddress	-11.5418
dmission	-11.5418
▁240	-11.542
regulation	-11.5421
NHS	-11.5422
spreader	-11.5426
compromised	-11.5426
pulmon	-11.5426
Bioentech	-11.5426
Student	-11.5427
Chinchwad	-11.5427
operate	-11.5427
▁cleaner	-11.5428
typical	-11.5428
antigen	-11.5428
Z	-11.5429
November	-11.5429
detected	-11.5429
schedule	-11.5429
▁decid	-11.5429
post	-11.5429
super	-11.5429
Lockdown	-11.5429
Patients	-11.5429
month	-11.5429
proper	-11.5429
change	-11.543
high	-11.543
Modi	-11.543
positive	-11.543
including	-11.543
Mumbai	-11.543
According	-11.543
Pune	-11.543
pregnant	-11.5431
jan	-11.5431
ICMR	-11.5433
exist	-11.5433
inflammat	-11.5434
▁determin	-11.5434
house	-11.5436
Now	-11.544
His	-11.5445
rising	-11.5451
Sever	-11.5454
wise	-11.5457
ceived	-11.5458
Give	-11.546
▁alarm	-11.5463
ordinat	-11.5471
▁overcom	-11.5475
▁evacuat	-11.5476
went	-11.5476
esponding	-11.5477
strict	-11.5478
▁prohibit	-11.5479
▁compromis	-11.548
▁(27	-11.5486
▁separat	-11.5503
▁abnormal	-11.5506
▁110	-11.5507
To	-11.5515
▁assembl	-11.5515
▁visibl	-11.5516
▁elder	-11.5522
▁escape	-11.5524
▁Travel	-11.5535
▁Vita	-11.5535
▁Ankit	-11.5535
▁Gupt	-11.5535
▁issu	-11.5537
▁originate	-11.5537
▁mode	-11.5538
▁puni	-11.5539
contaminat	-11.5539
▁bru	-11.554
▁height	-11.5541
▁mitigat	-11.5541
cogniz	-11.5542
▁uncle	-11.5542
▁harass	-11.5542
▁tight	-11.5543
▁Supe	-11.5544
▁embass	-11.5544
upply	-11.5544
ytokine	-11.5544
irecrackers	-11.5544
ilitary	-11.5544
ocation	-11.5544
ransmission	-11.5545
▁pediatric	-11.5545
▁registra	-11.5545
ogenic	-11.5545
itigation	-11.5545
▁Jawahar	-11.5545
▁jewel	-11.5545
▁premium	-11.5545
▁rhinovirus	-11.5545
Chloroquine	-11.5545
Nimbalkar	-11.5545
deposit	-11.5545
norrhea	-11.5545
propyl	-11.5545
telephone	-11.5545
ueensland	-11.5545
▁Airport	-11.5545
▁Alibag	-11.5545
▁Amazon	-11.5545
▁Baramati	-11.5545
▁Bhayandar	-11.5545
▁Bhosale	-11.5545
▁Bolsonaro	-11.5545
▁Budruk	-11.5545
▁Cambodia	-11.5545
▁Campaign	-11.5545
▁Chandwad	-11.5545
▁Chennai	-11.5545
▁Consultant	-11.5545
▁Curfew	-11.5545
▁Diploma	-11.5545
▁Epidemic	-11.5545
▁Gallagher	-11.5545
▁Goddess	-11.5545
▁Gulhane	-11.5545
▁Headache	-11.5545
▁Janssen	-11.5545
▁Khaw	-11.5545
▁Kshirsagar	-11.5545
▁MUMBAI	-11.5545
▁Meghalaya	-11.5545
▁Mexico	-11.5545
▁Moscow	-11.5545
▁Naxals	-11.5545
▁Opinion	-11.5545
▁Premnath	-11.5545
▁Remember	-11.5545
▁Retail	-11.5545
▁Reuters	-11.5545
▁Romania	-11.5545
▁Sachchidanand	-11.5545
▁Savita	-11.5545
▁Scheme	-11.5545
▁Seattle	-11.5545
▁Shanghai	-11.5545
▁Siddharth	-11.5545
▁Surekha	-11.5545
▁Sweden	-11.5545
▁Taloja	-11.5545
▁Thakur	-11.5545
▁Urban	-11.5545
▁Zykov	-11.5545
▁adenovirus	-11.5545
▁aircraft	-11.5545
▁anniversary	-11.5545
▁argument	-11.5545
▁assurance	-11.5545
▁bathroom	-11.5545
▁belief	-11.5545
▁breakfast	-11.5545
▁chemist	-11.5545
▁cleanliness	-11.5545
▁complement	-11.5545
▁concentration	-11.5545
▁coworkers	-11.5545
▁crime	-11.5545
▁deficiency	-11.5545
▁disabilities	-11.5545
▁discourag	-11.5545
▁display	-11.5545
▁elicit	-11.5545
▁epidemiologist	-11.5545
▁equipped	-11.5545
▁exercising	-11.5545
▁facemask	-11.5545
▁freight	-11.5545
▁gamma	-11.5545
▁gastroenteritis	-11.5545
▁glycoprotein	-11.5545
▁goddess	-11.5545
▁griev	-11.5545
▁hepatitis	-11.5545
▁hometowns	-11.5545
▁hurry	-11.5545
▁layoffs	-11.5545
▁legislat	-11.5545
▁loneliness	-11.5545
▁loud	-11.5545
▁meanwhile	-11.5545
▁microchip	-11.5545
▁mislead	-11.5545
▁mucomycosis	-11.5545
▁paralyze	-11.5545
▁penalized	-11.5545
▁penetrate	-11.5545
▁pharmacies	-11.5545
▁plague	-11.5545
▁poison	-11.5545
▁polio	-11.5545
▁replicase	-11.5545
▁rescue	-11.5545
▁resembl	-11.5545
▁simultaneously	-11.5545
▁somewhere	-11.5545
▁stroke	-11.5545
▁susceptibility	-11.5545
▁withdrew	-11.5545
▁zinc	-11.5545
ntertainment	-11.5545
umbrella	-11.5545
▁BGI	-11.5545
▁Beijing	-11.5545
▁COEP	-11.5545
▁Epidemiolog	-11.5545
▁Jammu	-11.5545
▁Kanpur	-11.5545
▁Kumta	-11.5545
▁Wakle	-11.5545
▁circular	-11.5545
▁consequent	-11.5545
▁database	-11.5545
▁fellow	-11.5545
▁historical	-11.5545
▁landlord	-11.5545
▁pilgrim	-11.5545
▁reagent	-11.5545
▁vandal	-11.5545
▁Claim	-11.5545
▁Highway	-11.5545
▁Ireland	-11.5545
▁Observat	-11.5545
▁Open	-11.5545
▁Parcel	-11.5545
▁ambula	-11.5545
▁bread	-11.5545
▁chlorhexidine	-11.5545
▁distinct	-11.5545
▁mourn	-11.5545
▁warrior	-11.5545
▁wound	-11.5545
ildlife	-11.5545
sepsis	-11.5545
symmetr	-11.5545
▁1918	-11.5545
▁Vikas	-11.5545
▁eleven	-11.5545
acetam	-11.5545
▁Paper	-11.5545
▁opacit	-11.5545
CSE	-11.5545
culture	-11.5545
orph	-11.5545
▁UTC	-11.5545
▁airway	-11.5545
▁pour	-11.5545
▁score	-11.5545
burg	-11.5545
▁Wedding	-11.5545
▁freezer	-11.5545
▁frighten	-11.5545
▁monks	-11.5545
flict	-11.5545
▁Airlines	-11.5545
▁BCE	-11.5545
▁Click	-11.5545
▁Daman	-11.5545
▁shelter	-11.5545
▁wrapp	-11.5545
▁taught	-11.5545
▁Diagnostics	-11.5545
▁immers	-11.5545
▁okay	-11.5545
kov	-11.5546
▁framework	-11.5546
▁compil	-11.5546
▁irregular	-11.5546
▁transparen	-11.5546
▁Kalam	-11.5546
▁Overall	-11.5546
uddin	-11.5546
▁lineages	-11.5546
▁bridge	-11.5546
▁timing	-11.5546
▁tackl	-11.5546
peroxide	-11.5546
SOL	-11.5546
▁Naval	-11.5546
▁corticosteroid	-11.5546
▁Jamnagar	-11.5546
▁Planning	-11.5546
▁proceed	-11.5546
▁Provid	-11.5546
▁hub	-11.5546
▁vol	-11.5546
famous	-11.5546
▁wander	-11.5546
▁sympath	-11.5546
njali	-11.5546
▁Louis	-11.5546
▁Few	-11.5546
▁beneficiaries	-11.5546
▁refund	-11.5546
▁mangal	-11.5546
▁inspire	-11.5546
▁mobilize	-11.5546
▁demograph	-11.5546
▁dispel	-11.5546
▁thick	-11.5546
▁dust	-11.5546
▁Mich	-11.5546
▁depression	-11.5546
▁midnight	-11.5546
Karna	-11.5546
▁Clean	-11.5546
▁Meh	-11.5546
erjee	-11.5546
HSC	-11.5546
▁chimpanzees	-11.5546
▁immunosuppress	-11.5546
▁Angel	-11.5546
▁nei	-11.5546
▁weather	-11.5546
▁Commerc	-11.5546
▁manual	-11.5546
▁Parner	-11.5546
▁neutraliz	-11.5546
▁dramatically	-11.5546
▁worn	-11.5546
▁stamp	-11.5547
Investigat	-11.5547
sutri	-11.5547
▁spray	-11.5547
▁comme	-11.5547
▁Adam	-11.5547
▁suppose	-11.5547
▁Cure	-11.5547
ventilat	-11.5547
▁Coles	-11.5547
▁Construction	-11.5547
▁economist	-11.5547
encing	-11.5547
CPR	-11.5547
▁oppress	-11.5547
▁Pradhan	-11.5547
▁domin	-11.5547
▁physiotherap	-11.5547
▁Rawat	-11.5547
▁meaningful	-11.5547
▁baseless	-11.5547
▁mouse	-11.5547
▁Waste	-11.5548
▁dosage	-11.5548
plain	-11.5548
mpact	-11.5548
▁Vihar	-11.5548
▁cardboard	-11.5548
▁cooperation	-11.5548
▁(16.	-11.5548
▁lose	-11.5548
▁controversial	-11.5548
▁strip	-11.5548
pper	-11.5549
▁burst	-11.5549
▁centres	-11.5549
ontrary	-11.5549
omba	-11.5549
▁multiplex	-11.555
▁declaration	-11.555
▁churches	-11.555
▁housework	-11.555
▁verifi	-11.555
▁Cadillac	-11.555
▁Rekh	-11.555
erior	-11.5551
▁Baid	-11.5551
▁Have	-11.5551
▁indoors	-11.5551
SIR	-11.5551
▁gram	-11.5551
▁maid	-11.5551
▁Nigerian	-11.5552
RSS	-11.5552
▁remediation	-11.5552
IgM	-11.5552
▁Chand	-11.5552
ocytes	-11.5553
▁2016	-11.5553
▁Roll	-11.5553
▁contractors	-11.5553
▁1968	-11.5553
▁swingers	-11.5553
▁consent	-11.5554
▁overwhelmed	-11.5554
▁Baat	-11.5555
▁rice	-11.5556
▁passage	-11.5556
▁insert	-11.5556
▁Pawa	-11.5557
▁highlight	-11.5558
sistent	-11.5558
▁1,500	-11.5558
▁Politico	-11.5559
▁Hari	-11.5559
▁peer	-11.5559
mpho	-11.5561
▁hospitalisation	-11.5561
▁donors	-11.5562
▁relations	-11.5562
▁thrown	-11.5563
▁directorate	-11.5563
▁Liu	-11.5564
▁1700	-11.5565
▁creation	-11.5568
▁hampered	-11.5569
▁spo	-11.5569
ouch	-11.5571
▁memory	-11.5571
▁Angu	-11.5571
▁Irani	-11.5572
▁deteriorated	-11.5572
▁eve	-11.5573
▁Region	-11.5574
▁Sagar	-11.5575
▁Mande	-11.5575
▁originated	-11.5575
▁dance	-11.5576
▁grat	-11.5576
▁gases	-11.5577
▁spinn	-11.5578
▁Whole	-11.558
▁allergi	-11.558
soft	-11.5581
▁2008	-11.5581
▁Taxi	-11.5581
▁insist	-11.5582
rabh	-11.5582
bnormalities	-11.5585
▁Sharan	-11.5585
▁Kent	-11.5585
iwal	-11.5586
▁dil	-11.5587
▁surger	-11.5589
▁Swab	-11.5589
▁Rao	-11.5596
▁Gate	-11.5597
cycl	-11.5603
▁115	-11.5604
▁efficiently	-11.5604
▁rally	-11.5607
▁Kang	-11.5608
▁Rane	-11.5611
▁Num	-11.5613
▁Swa	-11.5613
▁enveloped	-11.5616
▁interfere	-11.5621
▁Lad	-11.5625
▁Andre	-11.5627
objection	-11.5631
proxim	-11.564
▁Eat	-11.5643
amon	-11.5654
▁Administrati	-11.5655
YC	-11.5666
▁Coin	-11.5686
2.4%	-11.5686
▁spokesm	-11.5695
Indian	-11.5721
▁vial	-11.5723
anan	-11.5733
ricin	-11.5734
▁swo	-11.5739
617	-11.5743
urban	-11.5752
▁ecolog	-11.5755
gav	-11.5781
kat	-11.579
fortunately	-11.585
flat	-11.586
place	-11.5892
▁Suj	-11.5918
▁Chait	-11.5932
▁Valla	-11.5964
▁stabiliz	-11.5965
MIT	-11.6019
cope	-11.6025
▁speaker	-11.6029
rap	-11.604
ria	-11.6043
▁sea	-11.6045
ultiple	-11.6064
▁poster	-11.6065
dict	-11.6079
▁Lea	-11.61
▁computer	-11.6112
helpful	-11.6115
▁Defin	-11.6135
▁facilitat	-11.614
.51	-11.6144
admi	-11.6204
▁User	-11.6218
▁Giv	-11.6246
atche	-11.6255
▁continual	-11.6319
▁Parti	-11.632
▁Jame	-11.6333
rupt	-11.6379
14.5	-11.6399
8,000	-11.643
83	-11.6446
▁content	-11.6479
election	-11.6498
▁commun	-11.6527
▁Pet	-11.6563
Antibod	-11.6577
ailing	-11.6581
lop	-11.6619
iant	-11.6677
cry	-11.6691
chi	-11.6741
▁Whit	-11.6749
abh	-11.679
▁Dev	-11.6814
Pha	-11.6846
1500	-11.6888
▁licens	-11.6929
inning	-11.7018
▁shutt	-11.703
adma	-11.7064
▁Tru	-11.707
founder	-11.7108
formal	-11.7134
▁Til	-11.715
▁Comfort	-11.7151
mulate	-11.7175
urd	-11.7182
jo	-11.727
GA	-11.7306
CD	-11.7436
▁alleg	-11.7441
losing	-11.7461
racing	-11.755
▁Priorit	-11.7571
hereafter	-11.7599
domina	-11.7603
zo	-11.7679
▁Bel	-11.7684
Multi	-11.7689
imply	-11.7727
▁Pub	-11.7746
▁Emergen	-11.7757
▁tro	-11.7793
store	-11.7815
▁fee	-11.7831
terventions	-11.7845
▁stri	-11.7851
MIS	-11.7861
2020	-11.7877
▁expense	-11.7879
▁refu	-11.788
▁religion	-11.7881
▁infant	-11.7883
▁barrier	-11.7885
▁particle	-11.7887
▁fail	-11.7895
▁instruction	-11.7898
upportive	-11.7899
▁establishment	-11.7907
▁airline	-11.7911
cknowledg	-11.7913
resident	-11.7915
ttempt	-11.7917
erosol	-11.7918
covered	-11.7918
▁prioritiz	-11.7919
Feluda	-11.792
resistan	-11.792
▁fluid	-11.7921
night	-11.7921
source	-11.7922
LRTI	-11.7923
OSHA	-11.7923
glass	-11.7923
efficient	-11.7924
volume	-11.7924
Coronil	-11.7925
clear	-11.7925
secret	-11.7926
adjust	-11.7926
Work	-11.7926
accurate	-11.7926
chemical	-11.7927
contain	-11.7927
friend	-11.7927
morbidity	-11.7928
graph	-11.7928
paper	-11.7928
Such	-11.7928
spike	-11.7929
chron	-11.7929
approval	-11.7929
Wednesday	-11.7929
School	-11.7929
2021	-11.793
political	-11.793
Remedesivir	-11.793
usual	-11.793
swab	-11.793
critical	-11.793
market	-11.793
system	-11.793
center	-11.793
government	-11.793
number	-11.793
trans	-11.793
first	-11.7931
FDA	-11.7931
fight	-11.7931
organized	-11.7931
ILI	-11.7931
communication	-11.7932
Initially	-11.7933
population	-11.7933
ntibodies	-11.7933
SF	-11.7935
Over	-11.7935
RSC	-11.7936
stream	-11.7943
▁achiev	-11.795
making	-11.7953
measures	-11.7955
▁stagger	-11.796
VA	-11.7962
hru	-11.7966
▁Critic	-11.7967
▁bur	-11.7968
ltan	-11.798
▁interrupt	-11.7981
▁discre	-11.7982
▁reveal	-11.7982
ization	-11.7988
tolera	-11.8
lish	-11.8002
▁Tax	-11.8015
▁Salunk	-11.8017
▁Current	-11.8017
▁memor	-11.8019
▁continuous	-11.8021
▁dock	-11.8021
ception	-11.8024
▁Person	-11.8024
▁propose	-11.8025
eetings	-11.803
▁financ	-11.8031
ouncil	-11.8032
▁crow	-11.8033
▁Macro	-11.8034
ekend	-11.8034
▁capita	-11.8035
▁nin	-11.8036
arliament	-11.8037
▁Business	-11.8037
restle	-11.8038
ontainment	-11.8038
▁Economi	-11.8039
ommunication	-11.8039
▁Cadilla	-11.8039
▁Meth	-11.804
▁specif	-11.804
▁blu	-11.804
eligions	-11.804
▁infiltrat	-11.8041
▁discriminat	-11.8041
▁Vaccinat	-11.8041
▁Prevent	-11.8041
anine	-11.8042
reparedness	-11.8042
▁librar	-11.8043
asketball	-11.8043
▁covac	-11.8043
mbass	-11.8044
trategies	-11.8044
onnect	-11.8044
ocktail	-11.8044
heck	-11.8044
omestic	-11.8044
▁dramatic	-11.8044
morbidities	-11.8044
isinformation	-11.8044
laces	-11.8044
▁Invest	-11.8044
igital	-11.8045
undreds	-11.8045
▁Thai	-11.8045
▁Pediatric	-11.8045
aluka	-11.8045
▁hydro	-11.8045
tudies	-11.8045
▁Ahmed	-11.8045
utrition	-11.8045
orrow	-11.8045
▁oblig	-11.8045
▁Techn	-11.8045
▁feces	-11.8045
▁marginalis	-11.8045
▁Metro	-11.8045
▁Spread	-11.8045
▁cabin	-11.8045
▁coincid	-11.8045
▁contemplat	-11.8045
▁hierarch	-11.8045
▁neuro	-11.8045
AYUSH	-11.8045
Bhayander	-11.8045
Enough	-11.8045
IGIB	-11.8045
RdRp	-11.8045
cruz	-11.8045
disproportionate	-11.8045
escript	-11.8045
iosafety	-11.8045
kilometer	-11.8045
ocytosis	-11.8045
opathy	-11.8045
resolved	-11.8045
resumably	-11.8045
uebec	-11.8045
ymnastics	-11.8045
ysfunction	-11.8045
▁5,143	-11.8045
▁ALDI	-11.8045
▁Authorities	-11.8045
▁Bangalore	-11.8045
▁Belgium	-11.8045
▁Betacoronavirus	-11.8045
▁Bharadwaj	-11.8045
▁Bhiwandi	-11.8045
▁Blinken	-11.8045
▁Challenge	-11.8045
▁Chemical	-11.8045
▁Columbia	-11.8045
▁Companies	-11.8045
▁Computer	-11.8045
▁Condition	-11.8045
▁Cough	-11.8045
▁County	-11.8045
▁Cyanoform	-11.8045
▁Decision	-11.8045
▁Defense	-11.8045
▁Dubai	-11.8045
▁Establishment	-11.8045
▁Extension	-11.8045
▁Fatigue	-11.8045
▁GSDP	-11.8045
▁Gondia	-11.8045
▁Guangzhou	-11.8045
▁Immunity	-11.8045
▁Intensivist	-11.8045
▁Ithaca	-11.8045
▁Jagtap	-11.8045
▁Kashmir	-11.8045
▁Katherine	-11.8045
▁Kathmandu	-11.8045
▁Keenan	-11.8045
▁Khadse	-11.8045
▁MRNA	-11.8045
▁MSEDCL	-11.8045
▁Macbeth	-11.8045
▁Menstruation	-11.8045
▁Michigan	-11.8045
▁Mokhada	-11.8045
▁Monitor	-11.8045
▁Nirmal	-11.8045
▁Nottingham	-11.8045
▁Nowadays	-11.8045
▁Pankaj	-11.8045
▁Pittsburgh	-11.8045
▁Pneumonia	-11.8045
▁Problem	-11.8045
▁Remedicivir	-11.8045
▁Responsibility	-11.8045
▁Rishikesh	-11.8045
▁Safura	-11.8045
▁Saifai	-11.8045
▁Samiti	-11.8045
▁Sammelan	-11.8045
▁Screening	-11.8045
▁Seoul	-11.8045
▁Snehalaya	-11.8045
▁Srivastava	-11.8045
▁Standard	-11.8045
▁Vaxart	-11.8045
▁Vikramgad	-11.8045
▁Vishwa	-11.8045
▁Waghmare	-11.8045
▁Wankhedkar	-11.8045
▁Yoge	-11.8045
▁YouTube	-11.8045
▁adoption	-11.8045
▁aggravate	-11.8045
▁aggregator	-11.8045
▁bilateral	-11.8045
▁bubble	-11.8045
▁celebrities	-11.8045
▁cemeteries	-11.8045
▁characterize	-11.8045
▁chills	-11.8045
▁cholesterol	-11.8045
▁circulate	-11.8045
▁clause	-11.8045
▁commodities	-11.8045
▁commotion	-11.8045
▁compassion	-11.8045
▁compris	-11.8045
▁confiscat	-11.8045
▁crazy	-11.8045
▁decentralis	-11.8045
▁defecation	-11.8045
▁defective	-11.8045
▁deletion	-11.8045
▁denominator	-11.8045
▁descriptive	-11.8045
▁destructi	-11.8045
▁detrimental	-11.8045
▁dilemma	-11.8045
▁diplomas	-11.8045
▁disseminat	-11.8045
▁dissolve	-11.8045
▁ducks	-11.8045
▁eggs	-11.8045
▁enzymatic	-11.8045
▁epitheli	-11.8045
▁etiquette	-11.8045
▁exhausted	-11.8045
▁exoribonuclease	-11.8045
▁favour	-11.8045
▁guilty	-11.8045
▁habit	-11.8045
▁headquarters	-11.8045
▁hormone	-11.8045
▁horrible	-11.8045
▁horses	-11.8045
▁humectant	-11.8045
▁humidity	-11.8045
▁hungry	-11.8045
▁imperative	-11.8045
▁instrument	-11.8045
▁kitchen	-11.8045
▁lobby	-11.8045
▁messaging	-11.8045
▁metropoli	-11.8045
▁molecules	-11.8045
▁mucorrhoea	-11.8045
▁nappies	-11.8045
▁nephew	-11.8045
▁oedema	-11.8045
▁optimize	-11.8045
▁parlance	-11.8045
▁powder	-11.8045
▁proliferation	-11.8045
▁qualif	-11.8045
▁quantify	-11.8045
▁refill	-11.8045
▁repatriated	-11.8045
▁rodents	-11.8045
▁rubella	-11.8045
▁saints	-11.8045
▁salons	-11.8045
▁silence	-11.8045
▁slogan	-11.8045
▁snacks	-11.8045
▁stakeholders	-11.8045
▁stretch	-11.8045
▁suffocat	-11.8045
▁supplement	-11.8045
▁surprising	-11.8045
▁sustainable	-11.8045
▁template	-11.8045
▁thrombosis	-11.8045
▁tireless	-11.8045
▁tournament	-11.8045
▁triclosan	-11.8045
▁trigger	-11.8045
▁trimester	-11.8045
▁veterinar	-11.8045
NPIs	-11.8045
disciplin	-11.8045
myxo	-11.8045
▁1957	-11.8045
▁1999	-11.8045
▁Advisor	-11.8045
▁Announc	-11.8045
▁Bazar	-11.8045
▁Bioeasy	-11.8045
▁Bokaro	-11.8045
▁Chowk	-11.8045
▁Frequent	-11.8045
▁Khop	-11.8045
▁Sangram	-11.8045
▁Sharma	-11.8045
▁cannula	-11.8045
▁corporate	-11.8045
▁dispens	-11.8045
▁emotional	-11.8045
▁ferri	-11.8045
▁legislature	-11.8045
▁lodge	-11.8045
▁onwards	-11.8045
▁panel	-11.8045
▁parallelizab	-11.8045
▁pneumo	-11.8045
▁resign	-11.8045
▁vertical	-11.8045
(1-7)	-11.8045
estimation	-11.8045
▁DGCI	-11.8045
▁Fateh	-11.8045
▁Garden	-11.8045
▁IATA	-11.8045
▁Learn	-11.8045
▁Maryland	-11.8045
▁Medicago	-11.8045
▁Sector	-11.8045
▁bulk	-11.8045
▁courage	-11.8045
▁delta	-11.8045
▁engrain	-11.8045
▁supermarkets	-11.8045
▁toxins	-11.8045
▁variation	-11.8045
cogniti	-11.8045
▁1967	-11.8045
▁advertisements	-11.8045
▁remedivis	-11.8045
convenience	-11.8045
▁Estate	-11.8045
▁absorb	-11.8045
▁apparent	-11.8045
▁basin	-11.8045
▁flag	-11.8045
▁incredibl	-11.8045
▁niche	-11.8045
▁persists	-11.8045
▁plazas	-11.8045
compulsive	-11.8045
oronavirida	-11.8045
▁Desai	-11.8045
▁Dhere	-11.8045
▁Shetty	-11.8045
▁UAE	-11.8045
▁retard	-11.8045
▁tipp	-11.8045
37.6%)	-11.8045
▁Audit	-11.8045
▁Extend	-11.8045
▁Fisher	-11.8045
▁Vetal	-11.8045
▁monster	-11.8045
▁render	-11.8045
▁Highlights	-11.8045
▁bleach	-11.8045
▁heparin	-11.8045
Village	-11.8045
▁Micro	-11.8045
▁Vasant	-11.8045
▁averted	-11.8045
▁nowhere	-11.8045
▁swift	-11.8045
▁nsp	-11.8046
▁832	-11.8046
▁Norw	-11.8046
▁liais	-11.8046
oomi	-11.8046
▁Feel	-11.8046
▁Kapale	-11.8046
▁grass	-11.8046
burse	-11.8046
ncement	-11.8046
▁Cause	-11.8046
▁lamented	-11.8046
▁mount	-11.8046
▁wishes	-11.8046
▁9-10	-11.8046
▁pills	-11.8046
▁expectations	-11.8046
▁metaboli	-11.8046
▁randomised	-11.8046
pedia	-11.8046
▁1,037	-11.8046
▁Housing	-11.8046
▁intru	-11.8046
▁nails	-11.8046
▁audio	-11.8046
▁glyc	-11.8046
phylaxis	-11.8046
teroperab	-11.8046
▁Change	-11.8046
▁roam	-11.8046
Skill	-11.8046
▁grain	-11.8046
▁Know	-11.8046
▁peace	-11.8046
▁satisfactory	-11.8046
▁Immuno	-11.8046
▁estate	-11.8046
▁Dharm	-11.8046
▁auction	-11.8046
▁fuss	-11.8046
EIU	-11.8046
▁Gange	-11.8046
2,692	-11.8046
▁8665	-11.8046
▁pulmonologist	-11.8046
▁affini	-11.8046
▁Tele	-11.8046
▁Proning	-11.8046
AIDS	-11.8046
▁randomized	-11.8046
▁clinician	-11.8046
erret	-11.8046
▁clotting	-11.8046
▁dengue	-11.8046
mmunological	-11.8046
copies	-11.8046
▁Siddh	-11.8046
IBO	-11.8047
▁lawns	-11.8047
▁arteri	-11.8047
▁Ops	-11.8047
baba	-11.8047
▁governance	-11.8047
FBC	-11.8047
▁discount	-11.8047
gamb	-11.8047
TCN	-11.8047
▁Scrub	-11.8047
▁Puran	-11.8047
flaws	-11.8047
▁radical	-11.8047
▁frustration	-11.8047
▁odor	-11.8047
▁communicate	-11.8047
▁streamline	-11.8048
518	-11.8048
leuk	-11.8048
▁Review	-11.8048
▁Los	-11.8048
susc	-11.8048
▁insecurity	-11.8048
▁ashram	-11.8048
▁index	-11.8048
CMO	-11.8048
▁entrance	-11.8048
▁songs	-11.8048
teering	-11.8048
xcellen	-11.8048
▁Ghebreyesus	-11.8048
▁Notice	-11.8048
▁JJ	-11.8049
hino	-11.8049
,191	-11.8049
▁Shedge	-11.8049
▁Premi	-11.8049
▁machinery	-11.8049
▁Shali	-11.8049
▁defense	-11.8049
▁embassies	-11.8049
▁industrialist	-11.8049
▁subgen	-11.805
▁Zhan	-11.805
▁Giu	-11.805
▁infiltration	-11.805
▁civil	-11.805
loba	-11.805
▁twe	-11.805
▁birthday	-11.805
inoph	-11.8051
▁accountability	-11.8051
▁proportionate	-11.8051
▁evacuation	-11.8051
▁phylogenetic	-11.8051
▁acre	-11.8051
utops	-11.8052
▁popularity	-11.8052
▁underestimated	-11.8052
Tech	-11.8052
odia	-11.8052
ATE	-11.8052
▁scarce	-11.8052
▁resistance	-11.8052
▁priorities	-11.8053
▁recontaminate	-11.8053
▁emergent	-11.8053
▁stopping	-11.8053
▁Businesses	-11.8053
▁arteries	-11.8053
▁Datta	-11.8054
fibrosis	-11.8054
Ox	-11.8054
▁translat	-11.8054
▁retailers	-11.8054
▁inauguration	-11.8054
▁punish	-11.8054
▁Zone	-11.8054
▁abdomen	-11.8054
▁1,27	-11.8055
▁deadline	-11.8055
▁sanitized	-11.8055
▁businessman	-11.8056
▁exit	-11.8056
wada	-11.8056
▁fair	-11.8057
▁Milk	-11.8057
geshwar	-11.8057
▁periodically	-11.8058
▁4-5	-11.8058
ompuls	-11.8059
▁error	-11.8059
bidde	-11.8059
▁mood	-11.806
hanging	-11.806
▁pathogenicity	-11.806
▁moistur	-11.806
ightening	-11.8061
leep	-11.8061
ecide	-11.8061
▁Flight	-11.8061
mmel	-11.8061
ogene	-11.8062
▁suppression	-11.8062
▁rinse	-11.8062
▁ov	-11.8062
▁remedies	-11.8062
olutions	-11.8063
Variant	-11.8063
abad	-11.8063
▁Sarda	-11.8063
athon	-11.8064
ators	-11.8064
tius	-11.8064
▁drought	-11.8064
▁Lake	-11.8065
28,72	-11.8065
ractitioner	-11.8065
▁spare	-11.8066
strain	-11.8067
▁dealers	-11.8067
▁differ	-11.8067
▁workload	-11.8068
▁-44	-11.807
▁Raw	-11.8071
▁hum	-11.8072
▁cave	-11.8072
▁purifie	-11.8073
weeping	-11.8073
urma	-11.8073
▁Commissionerate	-11.8073
gift	-11.8074
71%)	-11.8074
▁Was	-11.8075
▁1,5	-11.8075
etroleum	-11.8076
▁barr	-11.8077
▁Kanh	-11.8077
▁Bill	-11.8079
kla	-11.8079
▁appearance	-11.8079
▁sellers	-11.808
▁complexes	-11.8081
theli	-11.8084
▁419	-11.8085
enna	-11.8088
gade	-11.809
▁sero	-11.8092
▁215	-11.8092
▁Nim	-11.8096
▁Tai	-11.8098
.82	-11.8098
▁sort	-11.8102
ET	-11.8104
ambha	-11.8106
HC	-11.8107
▁Rins	-11.811
▁shr	-11.8116
▁auto	-11.812
range	-11.8123
azi	-11.8125
▁hom	-11.8129
orning	-11.8136
ainagar	-11.8139
wealth	-11.8142
▁recurr	-11.8148
▁Bhu	-11.815
▁populat	-11.8161
nitai	-11.8174
▁flock	-11.8176
CEN	-11.8179
▁Interact	-11.8179
▁Mem	-11.8179
3-4	-11.8181
▁qui	-11.8185
sword	-11.8189
▁chose	-11.8191
▁Trib	-11.8196
▁prediction	-11.8196
▁utili	-11.8249
hani	-11.8263
▁choos	-11.8265
27%)	-11.8313
centralized	-11.833
reasonabl	-11.834
label	-11.8355
381	-11.8358
azha	-11.8365
▁bri	-11.842
HO	-11.8427
zoo	-11.8428
ailed	-11.8445
CFR	-11.848
370	-11.8521
efrigerators	-11.855
weet	-11.856
1.61	-11.8643
introduc	-11.87
maker	-11.8719
42%	-11.8739
▁Natur	-11.8765
▁Ham	-11.8769
microbial	-11.8818
▁cow	-11.8831
probable	-11.8874
0.1%	-11.8894
rogramme	-11.8902
leagu	-11.8903
▁exo	-11.9065
UR	-11.9073
rontline	-11.9119
▁dai	-11.9348
ference	-11.9387
SW	-11.94
▁Ti	-11.9443
▁Fift	-11.9464
▁Manj	-11.9498
75%	-11.9517
▁journalis	-11.9564
ossible	-11.9572
stha	-11.9618
▁dependenc	-11.9685
▁accelerat	-11.9737
170	-11.9755
1,3	-11.9761
iotechnology	-11.98
▁tru	-11.9878
▁born	-11.9895
deliveries	-11.9915
▁evaluat	-12.0007
quired	-12.0055
nox	-12.0077
PM	-12.0085
eferr	-12.0094
erie	-12.0122
raged	-12.0133
pecialist	-12.0204
▁degrad	-12.029
▁Program	-12.0293
eague	-12.0295
ette	-12.0333
isunderstandings	-12.0333
payment	-12.0349
IT	-12.0353
20,000	-12.0369
orkplace	-12.057
BV	-12.0572
▁hemo	-12.062
cause	-12.0649
killer	-12.0685
▁refrigerat	-12.0716
▁south	-12.0762
mokers	-12.0789
inder	-12.0834
▁author	-12.0836
▁Communi	-12.0929
rogen	-12.0966
▁Mobil	-12.0968
controlled	-12.0992
bris	-12.0995
ream	-12.1005
nzal	-12.1046
▁object	-12.1057
▁conduc	-12.1111
▁cha	-12.1114
▁Geno	-12.1158
Grant	-12.1167
ecurity	-12.1176
Administrat	-12.118
ternet	-12.1184
▁reserve	-12.1194
▁lymphocyt	-12.12
▁popul	-12.1205
▁misconception	-12.1213
▁vessel	-12.1213
▁cheetah	-12.1215
▁decade	-12.1215
▁palm	-12.1217
▁John	-12.122
▁regulat	-12.1221
▁component	-12.1222
▁victim	-12.1225
rained	-12.1234
rtificial	-12.1248
isolat	-12.125
estimated	-12.1254
neck	-12.1255
SOP	-12.1255
transfer	-12.1257
TCM	-12.1257
express	-12.1257
evolution	-12.1257
seasonal	-12.1258
preparation	-12.1259
Division	-12.1259
color	-12.1259
Instead	-12.1259
watch	-12.1259
Statistics	-12.126
happy	-12.1261
Women	-12.1261
Four	-12.1261
Super	-12.1262
micro	-12.1262
Children	-12.1262
second	-12.1262
Consider	-12.1262
difference	-12.1262
Citizens	-12.1263
Doctors	-12.1263
Monday	-12.1263
protein	-12.1263
identified	-12.1263
Covishield	-12.1263
class	-12.1263
economic	-12.1263
Sunday	-12.1263
Vaccination	-12.1263
Oxford	-12.1263
suspect	-12.1263
Europe	-12.1264
Amravati	-12.1264
BJP	-12.1264
immune	-12.1264
family	-12.1264
surveillance	-12.1264
emergency	-12.1264
parents	-12.1264
Kovid	-12.1264
Health	-12.1264
large	-12.1264
Today	-12.1265
Coronavirus	-12.1265
Prim	-12.1265
compli	-12.1266
See	-12.1266
prevalen	-12.1267
flow	-12.1268
series	-12.1269
▁measur	-12.1279
corpor	-12.1306
rule	-12.131
▁depriv	-12.1313
▁elevat	-12.1314
ttack	-12.1316
▁identifi	-12.1318
ortunately	-12.133
▁practi	-12.1334
▁comput	-12.1335
▁surfac	-12.1345
▁medicin	-12.1345
credit	-12.1345
cession	-12.1345
▁cooperat	-12.1347
iolators	-12.1348
▁ministr	-12.1349
▁efficac	-12.1349
▁Ministr	-12.135
▁vigilan	-12.1353
ghadi	-12.1353
solut	-12.1353
▁profession	-12.1357
▁mutate	-12.1358
▁associate	-12.1359
▁suspen	-12.1359
▁govern	-12.1365
▁Nigeria	-12.1367
coagula	-12.1367
recei	-12.1369
▁agitat	-12.137
▁Kovac	-12.137
▁church	-12.1371
▁boun	-12.1371
regnant	-12.1372
▁cru	-12.1372
opulation	-12.1373
▁Collect	-12.1374
etically	-12.1374
▁Auto	-12.1374
▁pollut	-12.1375
▁Petrol	-12.1375
▁Registr	-12.1375
hysiotherap	-12.1376
morbid	-12.1376
recautions	-12.1376
otential	-12.1376
necessarily	-12.1376
uppression	-12.1377
▁secur	-12.1377
uppose	-12.1377
pecifically	-12.1377
pokesperson	-12.1377
ubsequent	-12.1377
rison	-12.1377
hocking	-12.1377
xaminations	-12.1377
▁random	-12.1377
iabetes	-12.1377
omplaints	-12.1377
omplications	-12.1377
xactly	-12.1377
▁Develop	-12.1377
actories	-12.1377
▁lymph	-12.1377
amilies	-12.1377
madesivir	-12.1378
tomach	-12.1378
▁automatic	-12.1378
ucormycosis	-12.1378
ngue	-12.1378
ouble	-12.1378
mmediately	-12.1378
▁implicat	-12.1378
ydrogen	-12.1378
otspot	-12.1378
▁prophyla	-12.1378
ygiene	-12.1378
▁Christ	-12.1378
▁emb	-12.1378
▁Euro	-12.1378
fusion	-12.1378
capacit	-12.1378
▁advertise	-12.1379
erythro	-12.1379
▁advoca	-12.1379
▁blockade	-12.1379
▁socio	-12.1379
▁steriliz	-12.1379
▁stigma	-12.1379
▁toothbrush	-12.1379
153,822	-12.1379
2,240,191	-12.1379
ALT	-12.1379
Accelerat	-12.1379
Ayurveda	-12.1379
CVST	-12.1379
Defender	-12.1379
Discovery	-12.1379
Exclud	-12.1379
IndiaNeedsOxygen	-12.1379
Mangalvedha	-12.1379
Menstrua	-12.1379
NCEs	-12.1379
Supplementa	-12.1379
VIN	-12.1379
WeCantBreathe	-12.1379
anesthesiologist	-12.1379
athematic	-12.1379
champa	-12.1379
embolism	-12.1379
incomprehensible	-12.1379
krishna	-12.1379
nuclea	-12.1379
odilator	-12.1379
orizon	-12.1379
peplomer	-12.1379
phlegm	-12.1379
tinguishing	-12.1379
▁Abbott	-12.1379
▁Adarshgaon	-12.1379
▁Admitted	-12.1379
▁Aligarh	-12.1379
▁Allahabad	-12.1379
▁Ambulance	-12.1379
▁Approach	-12.1379
▁Authorization	-12.1379
▁Bhagyalakshmi	-12.1379
▁Biopharma	-12.1379
▁Buxar	-12.1379
▁CCTV	-12.1379
▁Challawad	-12.1379
▁Chhindwara	-12.1379
▁Circle	-12.1379
▁Civicus	-12.1379
▁Corruption	-12.1379
▁Demrais	-12.1379
▁Enterprise	-12.1379
▁Eventually	-12.1379
▁Experienc	-12.1379
▁Farooqi	-12.1379
▁Fauchi	-12.1379
▁Gehlot	-12.1379
▁Ghatanji	-12.1379
▁Ghazi	-12.1379
▁Gilchrist	-12.1379
▁Goswami	-12.1379
▁Govandi	-12.1379
▁Guleria	-12.1379
▁Gunjayal	-12.1379
▁Gurjar	-12.1379
▁Hancock	-12.1379
▁Herschel	-12.1379
▁Hivrebazar	-12.1379
▁Husbandry	-12.1379
▁Implement	-12.1379
▁Innovation	-12.1379
▁Insurance	-12.1379
▁Istanbul	-12.1379
▁JDU	-12.1379
▁Karguppikar	-12.1379
▁Khodde	-12.1379
▁Kollam	-12.1379
▁Kulkarni	-12.1379
▁Lombardy	-12.1379
▁Mandavia	-12.1379
▁Microbiologist	-12.1379
▁Minorities	-12.1379
▁Mourinho	-12.1379
▁Mundada	-12.1379
▁Naturiste	-12.1379
▁Night	-12.1379
▁Nilekani	-12.1379
▁NovaVax	-12.1379
▁Pasteur	-12.1379
▁Pathak	-12.1379
▁Percentage	-12.1379
▁Portugal	-12.1379
▁Preferably	-12.1379
▁Project	-12.1379
▁Psychiatri	-12.1379
▁Recombina	-12.1379
▁Riteish	-12.1379
▁Saloni	-12.1379
▁Sanofi	-12.1379
▁Select	-12.1379
▁Sethia	-12.1379
▁Shukla	-12.1379
▁Southampton	-12.1379
▁Stanley	-12.1379
▁Steroids	-12.1379
▁Swaroop	-12.1379
▁Telgote	-12.1379
▁Telugu	-12.1379
▁Tharoor	-12.1379
▁Tikku	-12.1379
▁Tissue	-12.1379
▁Tomorrow	-12.1379
▁Trenton	-12.1379
▁Vaijapur	-12.1379
▁Vietnam	-12.1379
▁Viswanathan	-12.1379
▁Wagle	-12.1379
▁Warriors	-12.1379
▁Yogi	-12.1379
▁Zhong	-12.1379
▁Zimmerman	-12.1379
▁adenoviral	-12.1379
▁adolescents	-12.1379
▁aggregate	-12.1379
▁apologize	-12.1379
▁arthritis	-12.1379
▁bacterium	-12.1379
▁battlefield	-12.1379
▁catheter	-12.1379
▁circulation	-12.1379
▁coalesce	-12.1379
▁coffers	-12.1379
▁concentrated	-12.1379
▁conjuncti	-12.1379
▁covishield	-12.1379
▁culprits	-12.1379
▁deliberately	-12.1379
▁depleted	-12.1379
▁depletion	-12.1379
▁dialysis	-12.1379
▁diverse	-12.1379
▁elucidat	-12.1379
▁empower	-12.1379
▁enormous	-12.1379
▁enthusias	-12.1379
▁evolve	-12.1379
▁exploring	-12.1379
▁external	-12.1379
▁extinction	-12.1379
▁famine	-12.1379
▁forecast	-12.1379
▁frequency	-12.1379
▁fridge	-12.1379
▁garbage	-12.1379
▁garlic	-12.1379
▁gluconate	-12.1379
▁grandchildren	-12.1379
▁grandmother	-12.1379
▁guardian	-12.1379
▁handkerchief	-12.1379
▁humanitarian	-12.1379
▁hypochlorite	-12.1379
▁hypoxemia	-12.1379
▁immunogenicity	-12.1379
▁immunoglobulin	-12.1379
▁impotent	-12.1379
▁inadvertently	-12.1379
▁inevitable	-12.1379
▁infectivity	-12.1379
▁isopropanol	-12.1379
▁jerry	-12.1379
▁kilobases	-12.1379
▁kindergartens	-12.1379
▁leakage	-12.1379
▁luxury	-12.1379
▁married	-12.1379
▁modification	-12.1379
▁multiplie	-12.1379
▁obstacle	-12.1379
▁ourselves	-12.1379
▁panchayat	-12.1379
▁perspective	-12.1379
▁phagocytosis	-12.1379
▁plausibl	-12.1379
▁polls	-12.1379
▁pregnancies	-12.1379
▁productivity	-12.1379
▁prosecuted	-12.1379
▁quietly	-12.1379
▁recombine	-12.1379
▁regret	-12.1379
▁revenge	-12.1379
▁saddened	-12.1379
▁sanitizing	-12.1379
▁secretariat	-12.1379
▁sequelae	-12.1379
▁shadow	-12.1379
▁smartphone	-12.1379
▁squad	-12.1379
▁stipend	-12.1379
▁stipulate	-12.1379
▁substantive	-12.1379
▁threshold	-12.1379
▁tocilizumab	-12.1379
▁treason	-12.1379
▁tropism	-12.1379
▁turmeric	-12.1379
▁unanswered	-12.1379
▁unemployed	-12.1379
▁verification	-12.1379
▁worries	-12.1379
▁Breath	-12.1379
▁Chemist	-12.1379
▁Crisis	-12.1379
▁Environment	-12.1379
▁Manohar	-12.1379
▁Recovery	-12.1379
▁Regulator	-12.1379
▁Shubhan	-12.1379
▁Terminus	-12.1379
▁heritage	-12.1379
▁joke	-12.1379
▁profit	-12.1379
▁teeth	-12.1379
▁yacht	-12.1379
laza	-12.1379
triguing	-12.1379
▁Antigen	-12.1379
▁Biology	-12.1379
▁Conference	-12.1379
▁Confusion	-12.1379
▁Lashkar	-12.1379
▁Macau	-12.1379
▁Parekh	-12.1379
▁Philip	-12.1379
▁Shelke	-12.1379
▁Zhou	-12.1379
▁auditoriums	-12.1379
▁confess	-12.1379
▁divert	-12.1379
▁faith	-12.1379
▁flour	-12.1379
▁folk	-12.1379
▁fulfilled	-12.1379
▁pierce	-12.1379
▁restraint	-12.1379
▁sensation	-12.1379
▁shoppers	-12.1379
▁stadiums	-12.1379
▁underscore	-12.1379
▁Jesus	-12.1379
▁Serbia	-12.1379
▁exhausti	-12.1379
▁ferrets	-12.1379
▁labour	-12.1379
▁laundering	-12.1379
▁maintenance	-12.1379
▁sweat	-12.1379
▁Ganesh	-12.1379
▁Video	-12.1379
▁commute	-12.1379
▁decent	-12.1379
▁papad	-12.1379
▁residu	-12.1379
▁strat	-12.1379
iodine	-12.1379
ittle	-12.1379
▁Dahi	-12.1379
▁corporator	-12.1379
▁escalat	-12.1379
▁apprehen	-12.1379
etiology	-12.1379
▁Mandvi	-12.1379
▁condom	-12.1379
▁Gopal	-12.1379
▁Next	-12.1379
▁courier	-12.1379
▁recede	-12.1379
▁socioeconomic	-12.1379
Significan	-12.1379
▁accompli	-12.1379
pstick	-12.1379
ddlers	-12.1379
physiolog	-12.1379
▁crash	-12.1379
▁rinsing	-12.1379
▁theatres	-12.1379
▁ultra	-12.1379
▁Veter	-12.1379
▁Sinha	-12.1379
▁agenda	-12.1379
awangi	-12.1379
▁Aviation	-12.1379
▁abandon	-12.1379
▁roof	-12.1379
▁Brooklyn	-12.1379
ightclub	-12.1379
lecha	-12.1379
▁derive	-12.1379
▁phosphate	-12.1379
pocket	-12.1379
hopping	-12.1379
▁Aarti	-12.1379
▁tiger	-12.1379
▁Borle	-12.1379
▁Postpon	-12.1379
▁Statu	-12.1379
▁transfusion	-12.1379
float	-12.1379
▁rope	-12.1379
▁reward	-12.1379
▁scream	-12.1379
▁Sign	-12.1379
▁shortcomings	-12.1379
▁Malvi	-12.1379
▁curtail	-12.1379
▁tomography	-12.1379
▁tips	-12.1379
▁Moments	-12.1379
▁Nishank	-12.1379
lwad	-12.1379
▁Perform	-12.1379
▁strangers	-12.1379
▁wrist	-12.1379
Enrol	-12.1379
▁entrepreneur	-12.1379
Stand	-12.1379
▁Solid	-12.1379
▁Bioscience	-12.1379
▁Vimal	-12.1379
MHV	-12.1379
Korona	-12.1379
embark	-12.1379
▁Akole	-12.1379
▁Tek	-12.1379
▁inquiries	-12.1379
▁cameras	-12.1379
epurposed	-12.1379
▁unused	-12.1379
▁Shivajinagar	-12.1379
▁Manjari	-12.138
▁semi	-12.138
spirit	-12.138
mendment	-12.138
▁Mini	-12.138
PHEIC	-12.138
glob	-12.138
▁99.4	-12.138
egative	-12.138
▁Remadesivir	-12.138
▁opportunist	-12.138
dimer	-12.138
usett	-12.138
▁hydrogen	-12.138
▁stability	-12.138
▁capability	-12.138
▁Ramanand	-12.138
lapse	-12.138
▁Basically	-12.138
▁Jameel	-12.138
copy	-12.138
awah	-12.1381
▁Jagan	-12.1381
,337	-12.1381
▁Prabha	-12.1381
▁Resource	-12.1381
▁Nucle	-12.1381
▁Haveli	-12.1381
▁Davi	-12.1381
▁25,8	-12.1381
▁Shirdi	-12.1382
▁clever	-12.1382
carbon	-12.1382
3,93	-12.1382
▁8,09	-12.1382
ureau	-12.1382
▁wastage	-12.1382
▁expertise	-12.1382
▁(50%	-12.1382
▁Materi	-12.1382
▁Sanstha	-12.1383
irresponsibility	-12.1383
unrise	-12.1383
Brother	-12.1383
▁correlate	-12.1383
▁Analy	-12.1384
torage	-12.1384
▁subtracti	-12.1384
hroat	-12.1384
▁Grap	-12.1384
▁retire	-12.1385
▁Moti	-12.1385
13-14	-12.1385
rected	-12.1386
Ainagar	-12.1386
terrori	-12.1387
PAC	-12.1387
