<pad>	0
</s>	0
<unk>	0
▁¦	-0
▁、	-1
なた	-2
あなた	-3
って	-4
たし	-5
わたし	-6
▁。	-7
その	-8
った	-9
であ	-10
ない	-11
して	-12
から	-13
こと	-14
われ	-15
である	-16
彼ら	-17
あなたが	-18
たち	-19
よう	-20
あなたがた	-21
また	-22
した	-23
られ	-24
」。	-25
なら	-26
わたしは	-27
エル	-28
これ	-29
いる	-30
あなたの	-31
それ	-32
ように	-33
さい	-34
言った	-35
ため	-36
この	-37
の子	-38
いた	-39
する	-40
、「	-41
され	-42
べて	-43
ので	-44
わたしの	-45
いて	-46
ならない	-47
ろう	-48
すべて	-49
なる	-50
イス	-51
ラエル	-52
イスラエル	-53
ある	-54
ために	-55
れば	-56
主は	-57
かし	-58
人々	-59
びと	-60
あなたは	-61
には	-62
彼らは	-63
であろう	-64
主の	-65
もの	-66
言われ	-67
ことを	-68
者は	-69
すべての	-70
そこ	-71
なさい	-72
エス	-73
イスラエルの	-74
をも	-75
によ	-76
イエス	-77
彼は	-78
うち	-79
られた	-80
ければ	-81
なければ	-82
こう	-83
自分	-84
しかし	-85
られる	-86
ます	-87
かった	-88
そして	-89
これを	-90
くだ	-91
あなたがたの	-92
もろ	-93
しい	-94
なければならない	-95
ことが	-96
んで	-97
▁、「	-98
あなたがたは	-99
われわれ	-100
なわ	-101
えて	-102
れる	-103
なかった	-104
んだ	-105
れた	-106
わが	-107
のために	-108
わたしを	-109
▁」。	-110
わたしが	-111
わたしたち	-112
れて	-113
によって	-114
すなわ	-115
すなわち	-116
どう	-117
させ	-118
人の	-119
をもって	-120
ンの	-121
からである	-122
わたしに	-123
きて	-124
ょう	-125
およ	-126
ください	-127
言葉	-128
を見	-129
える	-130
ユダ	-131
された	-132
とり	-133
のうち	-134
では	-135
言われた	-136
および	-137
でき	-138
につ	-139
そこで	-140
もし	-141
神の	-142
ころ	-143
なく	-144
のように	-145
っている	-146
前に	-147
に言った	-148
共に	-149
のか	-150
ダビ	-151
ダビデ	-152
それを	-153
彼らの	-154
はならない	-155
えた	-156
まで	-157
らせ	-158
とを	-159
とな	-160
きた	-161
▁その	-162
彼らを	-163
ました	-164
であった	-165
とき	-166
主が	-167
のである	-168
とに	-169
自分の	-170
ささ	-171
祭司	-172
これは	-173
人を	-174
あなたを	-175
そう	-176
神は	-177
ひとり	-178
つか	-179
ことは	-180
しょう	-181
ゆえ	-182
人は	-183
たちは	-184
リヤ	-185
ところ	-186
主に	-187
アブ	-188
上に	-189
あなたに	-190
ことができ	-191
です	-192
があ	-193
べき	-194
として	-195
おの	-196
ささげ	-197
らの	-198
モー	-199
モーセ	-200
ませ	-201
される	-202
者の	-203
と共に	-204
にな	-205
物を	-206
だれ	-207
の中	-208
おり	-209
レム	-210
サレム	-211
事を	-212
エルサレム	-213
兄弟	-214
者を	-215
みな	-216
▁また	-217
かって	-218
行って	-219
もろの	-220
シャ	-221
と言	-222
彼を	-223
彼らに	-224
のです	-225
もろもろの	-226
める	-227
はその	-228
▁「	-229
受け	-230
エジ	-231
地に	-232
言われる	-233
出て	-234
プト	-235
エジプト	-236
人々は	-237
めた	-238
つの	-239
ならば	-240
めて	-241
のは	-242
とい	-243
▁わたしは	-244
の王	-245
にある	-246
人が	-247
かに	-248
彼女	-249
イエスは	-250
それは	-251
彼に	-252
者が	-253
取り	-254
命じ	-255
見よ	-256
預言	-257
キリ	-258
滅ぼ	-259
とその	-260
彼の	-261
ロン	-262
にも	-263
行った	-264
▁しかし	-265
しも	-266
▁そこで	-267
の家	-268
スト	-269
多く	-270
らは	-271
あなたがたに	-272
の子孫	-273
であって	-274
しく	-275
けて	-276
にあ	-277
ごと	-278
しもべ	-279
キリスト	-280
ただ	-281
わせ	-282
について	-283
こうして	-284
、『	-285
ている	-286
でしょう	-287
しみ	-288
にお	-289
たちの	-290
与え	-291
サウ	-292
王の	-293
▁主は	-294
地の	-295
所に	-296
ません	-297
▁そして	-298
ごとく	-299
りを	-300
主よ	-301
言葉を	-302
ける	-303
びとの	-304
行き	-305
るであろう	-306
▁それ	-307
りの	-308
ルの	-309
ムの	-310
わざ	-311
食べ	-312
をあ	-313
いつ	-314
いに	-315
したが	-316
彼らが	-317
言う	-318
告げ	-319
とし	-320
とは	-321
あなたがたが	-322
ことごとく	-323
とおり	-324
ような	-325
の間	-326
これらの	-327
かの	-328
います	-329
人に	-330
民は	-331
立って	-332
王は	-333
いを	-334
さば	-335
罪を	-336
かな	-337
行く	-338
主を	-339
モン	-340
イスラエルの人々	-341
もとに	-342
来る	-343
▁」	-344
シュ	-345
ヤコ	-346
者に	-347
ヤコブ	-348
よい	-349
に住	-350
われわれの	-351
かた	-352
彼が	-353
捨て	-354
祭壇	-355
けた	-356
名を	-357
を受け	-358
手に	-359
聞き	-360
われわれは	-361
すると	-362
▁彼らは	-363
民を	-364
より	-365
ではない	-366
でも	-367
らない	-368
手を	-369
たちを	-370
あなたがたを	-371
▁あなたは	-372
わたしたちは	-373
を得	-374
エリ	-375
▁』	-376
るぎ	-377
のうちに	-378
立ち	-379
たちが	-380
となる	-381
多くの	-382
日に	-383
主なる	-384
のだ	-385
律法	-386
とする	-387
の上に	-388
▁彼は	-389
いなる	-390
つかわ	-391
している	-392
っていた	-393
いだ	-394
かつ	-395
あり	-396
身を	-397
地を	-398
とが	-399
先祖	-400
心を	-401
しる	-402
ニヤ	-403
その子	-404
ルは	-405
立て	-406
むかって	-407
たちに	-408
あが	-409
つるぎ	-410
民の	-411
いの	-412
と言った	-413
レビ	-414
一緒	-415
すれば	-416
いなさい	-417
聖なる	-418
まえ	-419
なが	-420
聞いて	-421
大いなる	-422
しき	-423
定め	-424
しま	-425
正しい	-426
をお	-427
を行	-428
つかさ	-429
かせ	-430
神に	-431
という	-432
となり	-433
にいる	-434
ぶどう	-435
ふた	-436
パン	-437
部族	-438
んな	-439
ここ	-440
ものは	-441
かわ	-442
のに	-443
がある	-444
建て	-445
対して	-446
ラム	-447
ユダヤ	-448
なお	-449
呼ば	-450
▁この	-451
ゆる	-452
ものを	-453
は言った	-454
知恵	-455
時に	-456
にはい	-457
どうして	-458
ども	-459
る者は	-460
リシ	-461
のを	-462
いは	-463
のですか	-464
わたしたちの	-465
ると	-466
引き	-467
預言者	-468
さて	-469
にしたが	-470
になった	-471
はい	-472
弟子	-473
のを見	-474
ソロ	-475
であり	-476
を守	-477
のない	-478
契約	-479
よりも	-480
あなたの神	-481
軍の	-482
らに	-483
生き	-484
ダビデは	-485
喜び	-486
ためである	-487
町々	-488
アロン	-489
る者	-490
幕屋	-491
に従	-492
追い	-493
恵み	-494
そこに	-495
るように	-496
とど	-497
打ち	-498
氏族	-499
ないで	-500
ユダの	-501
おのおの	-502
いで	-503
ビト	-504
栄光	-505
一緒に	-506
キュ	-507
キュビト	-508
神を	-509
取って	-510
バビ	-511
なり	-512
ヨセ	-513
からだ	-514
連れて	-515
ものである	-516
神が	-517
ゆえに	-518
げて	-519
キヤ	-520
パロ	-521
信じ	-522
恐れ	-523
ヨセフ	-524
ひとりの	-525
これに	-526
ペリシ	-527
ペリシテ	-528
なぜ	-529
燔祭	-530
荒野	-531
となった	-532
ることができ	-533
同じ	-534
祝福	-535
があり	-536
ンは	-537
一つ	-538
なった	-539
ること	-540
▁、『	-541
いと	-542
りに	-543
レア	-544
他の	-545
シュア	-546
にしたがって	-547
らを	-548
ラハ	-549
の中に	-550
信仰	-551
とした	-552
一つの	-553
ことはない	-554
との	-555
大き	-556
万軍の	-557
向かって	-558
エジプトの	-559
道を	-560
そうすれば	-561
アビ	-562
こう言われる	-563
てください	-564
に言われた	-565
人の子	-566
よく	-567
を造	-568
心に	-569
おまえ	-570
ほかの	-571
スリヤ	-572
まず	-573
ライ	-574
ロンの	-575
帰って	-576
しえ	-577
もまた	-578
と言う	-579
罪を犯	-580
さばき	-581
ではないか	-582
エフ	-583
日の	-584
前で	-585
良い	-586
をささげ	-587
アル	-588
十二	-589
だけ	-590
入れ	-591
思い	-592
われた	-593
われる	-594
があった	-595
ましょう	-596
ケル	-597
宮の	-598
アブラハ	-599
られて	-600
とも	-601
家に	-602
尋ね	-603
ことを知	-604
をつ	-605
アハ	-606
ソロモン	-607
供え	-608
うちに	-609
ってはならない	-610
だから	-611
しなさい	-612
びとは	-613
主なる神は	-614
主の前に	-615
の木	-616
子を	-617
どこ	-618
悪しき	-619
の前に	-620
かり	-621
のが	-622
民に	-623
▁もし	-624
出して	-625
んでいる	-626
のある	-627
上って	-628
かえ	-629
ながら	-630
むべき	-631
二十	-632
かれた	-633
どうぞ	-634
▁あなたがたは	-635
の上	-636
死んだ	-637
聞いた	-638
サム	-639
きょう	-640
滅び	-641
マリヤ	-642
ところが	-643
所で	-644
だれが	-645
どうか	-646
答えて	-647
ところに	-648
たちよ	-649
なん	-650
嗣業	-651
主は言われる	-652
を取り	-653
とおりである	-654
▁こうして	-655
せよ	-656
がよい	-657
されて	-658
ヨシュア	-659
ムは	-660
しない	-661
と一緒に	-662
モーセは	-663
▁あなたの	-664
人々が	-665
出た	-666
るべき	-667
殺した	-668
イエスの	-669
とこ	-670
仰せ	-671
助け	-672
とこしえ	-673
者である	-674
ってお	-675
まだ	-676
それゆえ	-677
町の	-678
オン	-679
のでは	-680
または	-681
国の	-682
その時	-683
アン	-684
下さ	-685
パウ	-686
常に	-687
パウロ	-688
与える	-689
はや	-690
投げ	-691
愛する	-692
してはならない	-693
と思	-694
のよう	-695
ルダ	-696
必ず	-697
ろうか	-698
あわれ	-699
ベア	-700
次の	-701
犠牲	-702
持って	-703
の方	-704
撃ち	-705
者も	-706
いつく	-707
あら	-708
満ち	-709
えられた	-710
ことがない	-711
』。	-712
▁さて	-713
ことに	-714
になって	-715
そむ	-716
悪い	-717
とどま	-718
▁すなわち	-719
あかし	-720
アシ	-721
国々	-722
導き	-723
集ま	-724
おお	-725
に至	-726
の長	-727
を知	-728
攻め	-729
してください	-730
の一	-731
会衆	-732
あった	-733
▁それゆえ	-734
りは	-735
呼び	-736
小羊	-737
水を	-738
ようか	-739
サウル	-740
モアブ	-741
生きて	-742
あるいは	-743
あの	-744
らず	-745
死ぬ	-746
安息	-747
を建て	-748
イエスを	-749
このように	-750
それに	-751
再び	-752
周囲	-753
救い	-754
ずから	-755
とって	-756
またその	-757
テロ	-758
彼女は	-759
すぐ	-760
のうちから	-761
のろ	-762
ベテ	-763
地は	-764
させた	-765
携えて	-766
▁イエスは	-767
近づ	-768
をする	-769
ダビデの	-770
をか	-771
ヨルダ	-772
なし	-773
戒め	-774
父の	-775
それで	-776
からです	-777
名は	-778
群れ	-779
いない	-780
させる	-781
与えた	-782
カル	-783
わなければならない	-784
カナ	-785
目に	-786
びとを	-787
もない	-788
いつくしみ	-789
のすべての	-790
タン	-791
感謝	-792
手から	-793
いや	-794
など	-795
れている	-796
▁・	-797
群衆	-798
金の	-799
わせて	-800
ありません	-801
命じられた	-802
エルサレムに	-803
ヨハ	-804
かれ	-805
つく	-806
をし	-807
神よ	-808
わった	-809
わたしはあなたの	-810
まさ	-811
ザル	-812
ミヤ	-813
来て	-814
油を	-815
ニヤミ	-816
下って	-817
恐れる	-818
これらは	-819
エフライ	-820
らなければならない	-821
わず	-822
宿営	-823
らせた	-824
すで	-825
互に	-826
出し	-827
言い	-828
ユダの王	-829
ヨナ	-830
神々	-831
かれる	-832
ついに	-833
を見て	-834
の子らは	-835
ベニヤミ	-836
主である	-837
あげ	-838
異邦	-839
主の言葉	-840
はず	-841
がその	-842
できない	-843
にあって	-844
▁すると	-845
いま	-846
命を	-847
聖所	-848
自身	-849
血を	-850
高き	-851
おきて	-852
ペテロ	-853
与えて	-854
ではなく	-855
▁『	-856
捕え	-857
聞く	-858
求める	-859
あなたと	-860
きなさい	-861
ないように	-862
マナ	-863
中に	-864
求め	-865
滅ぼす	-866
しろ	-867
の下	-868
者と	-869
になる	-870
を行う	-871
ることを	-872
逃げ	-873
みが	-874
人々に	-875
語り	-876
答えた	-877
しめ	-878
レク	-879
王に	-880
に住む	-881
ほめた	-882
みを	-883
ここに	-884
すでに	-885
とこしえに	-886
バビロンの	-887
おう	-888
イエスが	-889
エルサレムの	-890
わた	-891
目を	-892
していた	-893
ほめたた	-894
長老	-895
みずから	-896
言いなさい	-897
▁その時	-898
じて	-899
切り	-900
時は	-901
してお	-902
せて	-903
まま	-904
エレ	-905
天幕	-906
しるし	-907
られます	-908
その日	-909
祭の	-910
どんな	-911
二つの	-912
りなさい	-913
イスラエルの人々は	-914
とめ	-915
サイ	-916
不義	-917
離れ	-918
であろうか	-919
すみ	-920
モンの	-921
から出て	-922
されている	-923
アッ	-924
カイ	-925
仕え	-926
真実	-927
雄羊	-928
を見た	-929
ほど	-930
怒り	-931
たちと	-932
臨んだ	-933
を結	-934
アヒ	-935
エホ	-936
永遠	-937
あなたがたの神	-938
三十	-939
がない	-940
を与え	-941
命じて	-942
レビびと	-943
ことができる	-944
アマ	-945
バル	-946
貧しい	-947
▁これは	-948
るために	-949
アブラハム	-950
しよう	-951
にか	-952
物は	-953
による	-954
おこ	-955
もう	-956
やぎ	-957
一頭	-958
初め	-959
奴隷	-960
子供	-961
ったので	-962
に従って	-963
らなかった	-964
キリストの	-965
のぼ	-966
エド	-967
テの	-968
デヤ	-969
入口	-970
国を	-971
家の	-972
ヨアブ	-973
出す	-974
道に	-975
もはや	-976
マナセ	-977
と言って	-978
サムエル	-979
きを	-980
たく	-981
ヨハネ	-982
呼ばわ	-983
サウルは	-984
主にささげ	-985
焼き	-986
ゼル	-987
の幕屋	-988
こう仰せ	-989
エレミヤ	-990
▁わたしの	-991
ろば	-992
心は	-993
約束	-994
われらの	-995
雄牛	-996
青銅	-997
出した	-998
いている	-999
イサ	-1000
偶像	-1001
これが	-1002
ったが	-1003
愚かな	-1004
のほ	-1005
むす	-1006
めぐ	-1007
わし	-1008
ジヤ	-1009
ッパ	-1010
強く	-1011
殺し	-1012
の中で	-1013
イサク	-1014
レアデ	-1015
主の宮	-1016
仕える	-1017
大きな	-1018
があって	-1019
ユダヤ人	-1020
と言われた	-1021
にむかって	-1022
アッスリヤ	-1023
かが	-1024
声を	-1025
御使	-1026
軍勢	-1027
顔を	-1028
勇士	-1029
喜ば	-1030
持ち	-1031
苦しみ	-1032
にはいって	-1033
を生	-1034
会見	-1035
悩み	-1036
落ち	-1037
前から	-1038
かい	-1039
五十	-1040
住む	-1041
命じた	-1042
自分を	-1043
ギレアデ	-1044
モーセに言われた	-1045
セラ	-1046
者よ	-1047
と言い	-1048
パンを	-1049
汚れた	-1050
イスラエルの王	-1051
▁見よ	-1052
その人は	-1053
の門	-1054
ごとに	-1055
により	-1056
るまで	-1057
わない	-1058
滅ぼし	-1059
につかわ	-1060
われわれを	-1061
知っている	-1062
さき	-1063
らい	-1064
シメ	-1065
国に	-1066
女は	-1067
離れて	-1068
わい	-1069
もなく	-1070
人々の	-1071
人々を	-1072
地から	-1073
わたしたちが	-1074
彼らに言った	-1075
えを	-1076
さない	-1077
産んだ	-1078
イスラエルを	-1079
▁主よ	-1080
くる	-1081
アサ	-1082
若い	-1083
およびその	-1084
彼に言った	-1085
▁わたしが	-1086
よろ	-1087
城壁	-1088
悪を	-1089
王が	-1090
属する	-1091
ヒゼ	-1092
割礼	-1093
家畜	-1094
心の	-1095
集め	-1096
はまた	-1097
らかに	-1098
生れた	-1099
ヒゼキヤ	-1100
つかわして	-1101
のではない	-1102
衣服	-1103
たちも	-1104
たとい	-1105
だれも	-1106
のような	-1107
サマリヤ	-1108
合わせて	-1109
次のとおりである	-1110
ああ	-1111
えよ	-1112
すわ	-1113
事は	-1114
来た	-1115
見て	-1116
あって	-1117
のかた	-1118
かす	-1119
しし	-1120
書き	-1121
ルの子	-1122
分の一	-1123
したので	-1124
のゆえに	-1125
って言った	-1126
会見の幕屋	-1127
ことはできない	-1128
▁わが	-1129
行う	-1130
にいた	-1131
ようと	-1132
知らせ	-1133
食べて	-1134
られない	-1135
わたしと	-1136
イスラエルの神	-1137
に帰	-1138
リブ	-1139
出る	-1140
のを見て	-1141
だからである	-1142
世の	-1143
人と	-1144
知識	-1145
いった	-1146
おられる	-1147
へ行って	-1148
バビロン	-1149
われわれに	-1150
天の	-1151
女の	-1152
荒れ	-1153
見た	-1154
いのち	-1155
ことである	-1156
▁神は	-1157
さま	-1158
もと	-1159
カデ	-1160
叫び	-1161
んでいた	-1162
の日	-1163
の時	-1164
ヘブ	-1165
四十	-1166
強い	-1167
戦車	-1168
所を	-1169
において	-1170
をあげて	-1171
エリシャ	-1172
ないでください	-1173
サロ	-1174
天に	-1175
死に	-1176
語る	-1177
身に	-1178
高ぶ	-1179
ただし	-1180
の前で	-1181
ほかに	-1182
むすこ	-1183
非常に	-1184
のうちの	-1185
知らない	-1186
答えて言った	-1187
堅く	-1188
供え物	-1189
取った	-1190
あがない	-1191
むな	-1192
上の	-1193
山に	-1194
望み	-1195
町を	-1196
行い	-1197
』」。	-1198
すべき	-1199
エリヤ	-1200
大いに	-1201
それから	-1202
ふたりの	-1203
こう仰せられる	-1204
ナイ	-1205
手の	-1206
かない	-1207
怒りを	-1208
ことのない	-1209
年の	-1210
ラッパ	-1211
聞き従	-1212
はずかし	-1213
▁ところが	-1214
ことができない	-1215
されるであろう	-1216
かも	-1217
福音	-1218
耳を	-1219
びとが	-1220
新しい	-1221
のもとに	-1222
わたしたちを	-1223
さは	-1224
たび	-1225
に乗	-1226
ベル	-1227
何を	-1228
分け	-1229
れない	-1230
彼らはその	-1231
平安	-1232
素祭	-1233
遠く	-1234
かつて	-1235
なって	-1236
シケル	-1237
かなければならない	-1238
さん	-1239
しば	-1240
まわ	-1241
めと	-1242
ラン	-1243
過ぎ	-1244
食い	-1245
あいだ	-1246
くださ	-1247
たので	-1248
わざを	-1249
をその	-1250
天から	-1251
立てて	-1252
ぶどう酒	-1253
憎むべき	-1254
このような	-1255
いう	-1256
と同じ	-1257
去って	-1258
悲しみ	-1259
えている	-1260
のかたわ	-1261
に向かって	-1262
いな	-1263
らん	-1264
宣べ	-1265
教会	-1266
しえた	-1267
オンの	-1268
を取って	-1269
あなたの子	-1270
の子である	-1271
彼はその	-1272
シマ	-1273
ラバ	-1274
事が	-1275
命令	-1276
国民	-1277
所有	-1278
なんの	-1279
えられる	-1280
アブサロ	-1281
それが	-1282
うた	-1283
ひと	-1284
びる	-1285
れを	-1286
マル	-1287
全く	-1288
地で	-1289
散ら	-1290
飲み	-1291
になり	-1292
去った	-1293
対する	-1294
▁それで	-1295
められる	-1296
ペリシテびとの	-1297
と戦	-1298
高く	-1299
となって	-1300
人であった	-1301
おのおのその	-1302
わたしたちに	-1303
▁ア	-1304
くじ	-1305
の娘	-1306
立つ	-1307
聞け	-1308
進み	-1309
の間に	-1310
手に渡	-1311
イスラエルは	-1312
――	-1313
ほふ	-1314
までも	-1315
恐れて	-1316
かえって	-1317
主の言葉が	-1318
れるであろう	-1319
となるであろう	-1320
せず	-1321
ねて	-1322
救う	-1323
町に	-1324
絶え	-1325
の子孫は	-1326
でしょうか	-1327
イスラエルの人々の	-1328
をた	-1329
パテ	-1330
国は	-1331
目は	-1332
霊が	-1333
さらに	-1334
に告げ	-1335
の入口	-1336
バアル	-1337
あわれみ	-1338
の中から	-1339
イスラエルに	-1340
かけ	-1341
ヤラ	-1342
去り	-1343
待ち	-1344
放牧	-1345
物の	-1346
言え	-1347
かしら	-1348
エホヤ	-1349
代って	-1350
宣べ伝	-1351
▁それから	-1352
くち	-1353
のち	-1354
れの	-1355
書に	-1356
とその子	-1357
主なる神はこう言われる	-1358
さあ	-1359
シバ	-1360
スマ	-1361
ネブ	-1362
ンを	-1363
女を	-1364
最も	-1365
月の	-1366
にして	-1367
ふたり	-1368
造った	-1369
人たちは	-1370
としている	-1371
しむ	-1372
せた	-1373
プテ	-1374
後に	-1375
聖別	-1376
高い	-1377
だれか	-1378
激しい	-1379
モーセと	-1380
兄弟たちよ	-1381
しなければならない	-1382
わたしはあなたを	-1383
きき	-1384
さえ	-1385
を治	-1386
を着	-1387
父は	-1388
ほしい	-1389
メレク	-1390
言葉は	-1391
しえたげ	-1392
ヤラベア	-1393
られている	-1394
ることができる	-1395
わたしのために	-1396
あざ	-1397
かる	-1398
所へ	-1399
羊の	-1400
いたが	-1401
わせた	-1402
ひとりも	-1403
イエスに	-1404
人である	-1405
兄弟たち	-1406
その家	-1407
▁』。	-1408
と名	-1409
を開	-1410
殺す	-1411
注ぎ	-1412
間に	-1413
えさせ	-1414
ごらん	-1415
書いて	-1416
とをもって	-1417
ヨルダンの	-1418
アモ	-1419
シケ	-1420
シヤ	-1421
右の	-1422
年に	-1423
願い	-1424
けない	-1425
のでき	-1426
の子を	-1427
エサウ	-1428
者たちは	-1429
生きている	-1430
さし	-1431
らく	-1432
ハマ	-1433
七日	-1434
ニエル	-1435
向こう	-1436
王となった	-1437
ても	-1438
どり	-1439
やみ	-1440
上げ	-1441
置き	-1442
金を	-1443
と名づ	-1444
のため	-1445
の子ら	-1446
の家に	-1447
リサイ	-1448
あだ	-1449
つけ	-1450
バラ	-1451
何も	-1452
答え	-1453
します	-1454
を得る	-1455
祭司は	-1456
食物を	-1457
さいわい	-1458
とおりに	-1459
パリサイ	-1460
ヨセフは	-1461
出された	-1462
して言った	-1463
られました	-1464
アナ	-1465
この事を	-1466
とお	-1467
立た	-1468
バプテ	-1469
くちびる	-1470
だろうか	-1471
なぜなら	-1472
のうちで	-1473
言ってお	-1474
びとの氏族	-1475
バプテスマ	-1476
なかったので	-1477
いっ	-1478
せる	-1479
の者	-1480
ふさ	-1481
れ伏	-1482
わる	-1483
をま	-1484
ノア	-1485
ルベ	-1486
吹き	-1487
正義	-1488
からは	-1489
と呼ば	-1490
をあげ	-1491
を行い	-1492
アハブ	-1493
契約を	-1494
捨てて	-1495
から出た	-1496
にはいる	-1497
殺された	-1498
名によって	-1499
に及	-1500
使徒	-1501
民が	-1502
さばく	-1503
におる	-1504
ものが	-1505
小さい	-1506
放牧地	-1507
永遠の	-1508
その上に	-1509
のを見た	-1510
ヤコブは	-1511
そのように	-1512
のう	-1513
びに	-1514
を持	-1515
ラヤ	-1516
寄留	-1517
踏み	-1518
食物	-1519
を見る	-1520
年の間	-1521
けれ	-1522
ねた	-1523
エヒ	-1524
ムに	-1525
憎む	-1526
日が	-1527
その中	-1528
ままに	-1529
をした	-1530
求めて	-1531
けれども	-1532
のだから	-1533
カルデヤ	-1534
下さった	-1535
人の子よ	-1536
▁それは	-1537
そば	-1538
ダン	-1539
ミカ	-1540
三日	-1541
罪祭	-1542
肉を	-1543
の部族	-1544
進んで	-1545
食べる	-1546
まことに	-1547
ようとする	-1548
行きなさい	-1549
いてはならない	-1550
としなければならない	-1551
子は	-1552
わたしはあなたに	-1553
そのすべての	-1554
のみ	-1555
入り	-1556
死体	-1557
臨む	-1558
にあり	-1559
彼女を	-1560
死んで	-1561
置いた	-1562
そこから	-1563
彼と共に	-1564
に対して	-1565
いち	-1566
モテ	-1567
妻を	-1568
海の	-1569
満た	-1570
真理	-1571
連れ	-1572
もので	-1573
を造り	-1574
ヨシャ	-1575
ンびと	-1576
主のみ	-1577
しまった	-1578
ネブカデ	-1579
集まって	-1580
▁ダビデは	-1581
あなたの前に	-1582
をことごとく	-1583
彼らに言われた	-1584
さなければならない	-1585
▁あなたが	-1586
上が	-1587
女が	-1588
平和	-1589
災を	-1590
聖徒	-1591
霊を	-1592
ですか	-1593
安息日	-1594
耳を傾	-1595
のひとり	-1596
するであろう	-1597
ってください	-1598
エルサレムで	-1599
ベニヤミンの	-1600
イスラエルの人々に	-1601
家来	-1602
こそ	-1603
テル	-1604
今日	-1605
外に	-1606
歩み	-1607
深い	-1608
言を	-1609
おのの	-1610
がなく	-1611
ひれ伏	-1612
シオン	-1613
所から	-1614
正しく	-1615
決して	-1616
賜わった	-1617
ヨシュアは	-1618
犠牲をささげ	-1619
あなたがたのうち	-1620
イスラエルのすべての	-1621
きよ	-1622
なす	-1623
らが	-1624
を通	-1625
ハテ	-1626
断ち	-1627
の上で	-1628
エレア	-1629
ラムは	-1630
モアブの	-1631
アッスリヤの王	-1632
▁時に	-1633
▁その日	-1634
マア	-1635
働き	-1636
だろう	-1637
ていた	-1638
まれる	-1639
よみが	-1640
ことなく	-1641
にあった	-1642
たちと共に	-1643
と主は言われる	-1644
いく	-1645
に当	-1646
の声	-1647
はな	-1648
まい	-1649
をう	-1650
報い	-1651
飲む	-1652
らせる	-1653
偽りを	-1654
契約の	-1655
ささげる	-1656
主の宮の	-1657
造られた	-1658
しなかった	-1659
言っておく	-1660
とその放牧地	-1661
われわれの神	-1662
くな	-1663
たが	-1664
を築	-1665
人も	-1666
奪い	-1667
村々	-1668
見る	-1669
造り	-1670
選ば	-1671
野の	-1672
飲ませ	-1673
弟子たちは	-1674
いれ	-1675
かを	-1676
ぶん	-1677
同様	-1678
泣き	-1679
流れ	-1680
物に	-1681
しても	-1682
むしろ	-1683
をおお	-1684
呼んで	-1685
国から	-1686
語った	-1687
あらゆる	-1688
だれでも	-1689
つるぎを	-1690
ヤコブの	-1691
わたしはこの	-1692
あなたはわたしの	-1693
を出	-1694
んじ	-1695
ガリ	-1696
何か	-1697
場合	-1698
教え	-1699
父が	-1700
銀の	-1701
ききん	-1702
までは	-1703
みんな	-1704
らせて	-1705
ならびに	-1706
のほとり	-1707
については	-1708
主なる神は言われる	-1709
▁第	-1710
アモリ	-1711
その子は	-1712
ふる	-1713
ほめ	-1714
ムと	-1715
力を	-1716
寄り	-1717
尊い	-1718
水の	-1719
ことも	-1720
全会衆	-1721
満たし	-1722
行かせ	-1723
カナンの	-1724
モーセに	-1725
にはいった	-1726
与えられた	-1727
主はこう言われる	-1728
たる	-1729
に座	-1730
ねば	-1731
エズ	-1732
スコ	-1733
手は	-1734
ついて	-1735
に投げ	-1736
やかに	-1737
わざわ	-1738
追い払	-1739
▁すべて	-1740
しました	-1741
のことを	-1742
へ行った	-1743
ダニエル	-1744
主はその	-1745
主イエス	-1746
ではありません	-1747
イスラエルの家	-1748
をは	-1749
ゼデ	-1750
タル	-1751
ヤは	-1752
ヨアシ	-1753
入れた	-1754
ぶどう畑	-1755
を受ける	-1756
なのである	-1757
われわれが	-1758
ソロモンは	-1759
書いてある	-1760
あなたがたも	-1761
わたしはその	-1762
あなたのしもべ	-1763
しるされている	-1764
あなたがたのために	-1765
さず	-1766
つえ	-1767
とう	-1768
キシ	-1769
バア	-1770
ペル	-1771
事の	-1772
全き	-1773
水は	-1774
につけ	-1775
の小羊	-1776
七つの	-1777
入れて	-1778
激しく	-1779
者ども	-1780
集めて	-1781
わたしも	-1782
ダビデに	-1783
供え物を	-1784
立ちあが	-1785
ヨシャパテ	-1786
生きながら	-1787
エフライムの	-1788
▁主の	-1789
それぞ	-1790
あなたのために	-1791
おも	-1792
やめ	-1793
らわ	-1794
わき	-1795
ガド	-1796
ルデ	-1797
口に	-1798
嘆き	-1799
地と	-1800
王を	-1801
送り	-1802
過越	-1803
さきに	-1804
っても	-1805
はみな	-1806
ばかり	-1807
サムソ	-1808
ヤの子	-1809
手を伸	-1810
着物を	-1811
きたので	-1812
ささげた	-1813
ガリラヤ	-1814
はずかしめ	-1815
るようになる	-1816
させてください	-1817
▁モーセは	-1818
くび	-1819
ダデ	-1820
ピラ	-1821
レバ	-1822
二百	-1823
人間	-1824
先に	-1825
喜ぶ	-1826
器を	-1827
地方	-1828
こころ	-1829
エドム	-1830
エヒウ	-1831
帰った	-1832
青銅の	-1833
モーセが	-1834
もろもろの国	-1835
られるであろう	-1836
アム	-1837
メル	-1838
七十	-1839
授け	-1840
日は	-1841
注が	-1842
解き	-1843
さして	-1844
つまず	-1845
の家の	-1846
テびと	-1847
時には	-1848
神のみ	-1849
祭司の	-1850
すであろう	-1851
わなかった	-1852
ユダヤ人の	-1853
数えられた	-1854
わたしの前に	-1855
おく	-1856
らし	-1857
わけ	-1858
一同	-1859
水が	-1860
の下に	-1861
パロの	-1862
四つの	-1863
引いて	-1864
祭壇の	-1865
立てた	-1866
▁だから	-1867
ませんで	-1868
モーセの	-1869
あなたがたのうちに	-1870
主はこう仰せられる	-1871
ほか	-1872
らう	-1873
わな	-1874
を作	-1875
を負	-1876
ベツ	-1877
二千	-1878
思う	-1879
敵の	-1880
深く	-1881
火で	-1882
聖霊	-1883
設け	-1884
起き	-1885
足を	-1886
隣り	-1887
世を治	-1888
人たち	-1889
倒れる	-1890
彼女の	-1891
従って	-1892
死人の	-1893
殺そう	-1894
見ると	-1895
起きて	-1896
サウルの	-1897
ヨナタン	-1898
ようになる	-1899
あなたと共に	-1900
ことができようか	-1901
その兄弟	-1902
じく	-1903
偽り	-1904
多い	-1905
帰り	-1906
所の	-1907
手で	-1908
酒を	-1909
長く	-1910
いって	-1911
すぐに	-1912
ときは	-1913
ともに	-1914
アハズ	-1915
ザリヤ	-1916
ンの子	-1917
者には	-1918
聞かせ	-1919
行こう	-1920
いたので	-1921
に聞き従	-1922
るならば	-1923
シオンの	-1924
されたので	-1925
されました	-1926
中から	-1927
じめ	-1928
ハナ	-1929
ラテ	-1930
宮に	-1931
御霊	-1932
愛し	-1933
携え	-1934
物と	-1935
石を	-1936
罪の	-1937
いつも	-1938
ピラト	-1939
楽しみ	-1940
残りの	-1941
祭司長	-1942
その所で	-1943
はいって	-1944
ダビデが	-1945
そのとき	-1946
そし	-1947
の神	-1948
ひき	-1949
ブの	-1950
歩む	-1951
清い	-1952
礼拝	-1953
国々の	-1954
実を結	-1955
求めた	-1956
▁彼らが	-1957
を造った	-1958
安らかに	-1959
語られた	-1960
ことがある	-1961
のではなく	-1962
ソロモンの	-1963
▁このように	-1964
ませんでした	-1965
自分のために	-1966
▁そのとき	-1967
ンに	-1968
去る	-1969
民と	-1970
義と	-1971
の言葉	-1972
ラント	-1973
レバノ	-1974
偽りの	-1975
者たち	-1976
血を流	-1977
雄やぎ	-1978
っています	-1979
つかわされた	-1980
主をほめたた	-1981
わたしに言われた	-1982
▁彼が	-1983
その氏族	-1984
まち	-1985
ルに	-1986
悲し	-1987
町は	-1988
▁王は	-1989
かけて	-1990
かれて	-1991
しまう	-1992
ユダと	-1993
喜んで	-1994
彼らと	-1995
律法学	-1996
の言葉を	-1997
立っている	-1998
人をつかわして	-1999
あなたがたの先祖	-2000
二つ	-2001
勝利	-2002
実を	-2003
断食	-2004
足の	-2005
いても	-2006
そのみ	-2007
その父	-2008
ともし	-2009
オリブ	-2010
シモン	-2011
生ける	-2012
荒野で	-2013
重ねて	-2014
食事を	-2015
おこない	-2016
よみがえ	-2017
ゼデキヤ	-2018
タラント	-2019
出てきた	-2020
アンモンの	-2021
あなたがたと	-2022
モーセとアロン	-2023
▁彼らの	-2024
すぎ	-2025
そそ	-2026
まり	-2027
ギデ	-2028
ゼブ	-2029
一万	-2030
他国	-2031
大声	-2032
恥じ	-2033
病気	-2034
頭に	-2035
したら	-2036
の日に	-2037
ケルビ	-2038
シャン	-2039
力ある	-2040
誓いを	-2041
する者は	-2042
むなしい	-2043
目の前に	-2044
ようとして	-2045
アビメレク	-2046
定められた	-2047
自分たちの	-2048
さいわいである	-2049
アズ	-2050
この世	-2051
ごろ	-2052
ラの	-2053
下の	-2054
火を	-2055
生れ	-2056
者で	-2057
見え	-2058
計り	-2059
近く	-2060
に住み	-2061
らい病	-2062
カリヤ	-2063
人には	-2064
命じる	-2065
絶える	-2066
荒野に	-2067
その名を	-2068
ヘブロン	-2069
なりません	-2070
はいけない	-2071
悪しき者の	-2072
てはならない	-2073
と言ったので	-2074
主の言葉を	-2075
々の	-2076
いご	-2077
かさ	-2078
にし	-2079
に着	-2080
を張	-2081
ダマ	-2082
二万	-2083
今は	-2084
四方	-2085
女に	-2086
死な	-2087
清く	-2088
頭を	-2089
まさる	-2090
ります	-2091
をつく	-2092
捕えて	-2093
立った	-2094
いちじく	-2095
いったい	-2096
せられる	-2097
パウロは	-2098
ましょうか	-2099
彼のために	-2100
はだ	-2101
むち	-2102
めい	-2103
ツロ	-2104
使う	-2105
六十	-2106
獲た	-2107
買い	-2108
身の	-2109
おおい	-2110
くれた	-2111
にした	-2112
のがれ	-2113
はない	-2114
周囲に	-2115
残った	-2116
集める	-2117
つかわし	-2118
に臨んだ	-2119
のようだ	-2120
ましたが	-2121
ますます	-2122
ラッパを	-2123
と名づけた	-2124
ベニヤミン	-2125
聞きなさい	-2126
のかたわらに	-2127
つるぎをもって	-2128
▁あなたがたの	-2129
が起	-2130
っと	-2131
に向	-2132
の柱	-2133
りと	-2134
んの	-2135
ミデ	-2136
メン	-2137
レハ	-2138
ロデ	-2139
取る	-2140
心が	-2141
消え	-2142
近寄	-2143
頼み	-2144
ゆるし	-2145
をして	-2146
アブネ	-2147
エリコ	-2148
タンは	-2149
ハダデ	-2150
バラク	-2151
パロは	-2152
人の長	-2153
仕えた	-2154
ところへ	-2155
十分の一	-2156
者たちを	-2157
エフライム	-2158
エレアザル	-2159
びとの氏族が	-2160
バビロンの王	-2161
主にささげる	-2162
▁主は言われる	-2163
代って王となった	-2164
ささげなければならない	-2165
くつ	-2166
の父	-2167
ひろ	-2168
エパ	-2169
ベデ	-2170
メラ	-2171
山の	-2172
知り	-2173
臨み	-2174
選び	-2175
ときに	-2176
にまで	-2177
ばしい	-2178
ものと	-2179
らくだ	-2180
モルデ	-2181
ヨシヤ	-2182
告げた	-2183
告げて	-2184
周囲の	-2185
恵みを	-2186
攻めて	-2187
神から	-2188
衣服を	-2189
▁』」。	-2190
いと高き	-2191
があれば	-2192
ってきて	-2193
はこれを	-2194
ダマスコ	-2195
サムエルは	-2196
モルデカイ	-2197
エジプトから	-2198
ペリシテびと	-2199
ったからである	-2200
家を	-2201
まれ	-2202
めを	-2203
ダブ	-2204
忘れ	-2205
戦い	-2206
望む	-2207
頭の	-2208
あがな	-2209
こさせ	-2210
の子は	-2211
イシマ	-2212
受ける	-2213
見える	-2214
しばらく	-2215
家を建て	-2216
▁これらの	-2217
はあなたの	-2218
世を治めた	-2219
罪を犯した	-2220
彼に言われた	-2221
ことのないように	-2222
わたしが主である	-2223
わたしはまた	-2224
あす	-2225
う者	-2226
おろ	-2227
なさ	-2228
に下	-2229
の祭	-2230
ロテ	-2231
一千	-2232
主君	-2233
先生	-2234
敵を	-2235
母の	-2236
清め	-2237
置く	-2238
まれた	-2239
下さい	-2240
大祭司	-2241
彼女に	-2242
犯した	-2243
かたくな	-2244
それぞれ	-2245
ペテロは	-2246
わたしをお	-2247
残っている	-2248
滅ぼされる	-2249
ことによって	-2250
ねばならない	-2251
彼らのために	-2252
ではありませんか	-2253
その他の	-2254
いろ	-2255
アテ	-2256
イザ	-2257
イル	-2258
バテ	-2259
レブ	-2260
公平	-2261
六百	-2262
大ぜ	-2263
得た	-2264
手が	-2265
歳の	-2266
火祭	-2267
示す	-2268
空の	-2269
終り	-2270
▁主が	-2271
おもて	-2272
さんび	-2273
その後	-2274
の家来	-2275
まった	-2276
をあが	-2277
をつけ	-2278
信じる	-2279
去らせ	-2280
大きい	-2281
聖所の	-2282
あなたも	-2283
おまえは	-2284
に住んだ	-2285
ダビデを	-2286
恐るべき	-2287
さなかった	-2288
のうちでは	-2289
彼は言った	-2290
立っていた	-2291
言うことを	-2292
アブラハムは	-2293
答えて言われた	-2294
かず	-2295
くず	-2296
なき	-2297
な子	-2298
のし	-2299
もど	-2300
シロ	-2301
ビヤ	-2302
ヨブ	-2303
ロス	-2304
不思	-2305
会う	-2306
前の	-2307
石が	-2308
示し	-2309
金で	-2310
たれた	-2311
でない	-2312
る者の	-2313
んでも	-2314
アビヤ	-2315
不思議	-2316
倒れた	-2317
選んだ	-2318
いっさい	-2319
われらは	-2320
を生んだ	-2321
契約を結	-2322
異邦人の	-2323
目の前で	-2324
神である	-2325
見ている	-2326
イシマエル	-2327
ネブカデネ	-2328
持っている	-2329
祭司はその	-2330
わたしに臨んだ	-2331
あと	-2332
いば	-2333
な者	-2334
へや	-2335
アダ	-2336
一度	-2337
何事	-2338
名の	-2339
守り	-2340
宮殿	-2341
悪霊	-2342
時が	-2343
王よ	-2344
自ら	-2345
裂き	-2346
こない	-2347
させて	-2348
と思う	-2349
の書に	-2350
ものの	-2351
ゼブル	-2352
十二人	-2353
恐れた	-2354
教えて	-2355
殺され	-2356
生きる	-2357
絶えず	-2358
賜わる	-2359
願いを	-2360
つかさど	-2361
とすれば	-2362
▁	-2363
の	-2364
¦	-2365
、	-2366
た	-2367
に	-2368
は	-2369
な	-2370
を	-2371
し	-2372
。	-2373
て	-2374
い	-2375
と	-2376
る	-2377
あ	-2378
れ	-2379
ら	-2380
が	-2381
わ	-2382
で	-2383
っ	-2384
か	-2385
そ	-2386
こ	-2387
う	-2388
も	-2389
ま	-2390
す	-2391
よ	-2392
さ	-2393
き	-2394
り	-2395
彼	-2396
ち	-2397
く	-2398
え	-2399
言	-2400
エ	-2401
め	-2402
人	-2403
ル	-2404
主	-2405
者	-2406
お	-2407
だ	-2408
つ	-2409
ろ	-2410
け	-2411
イ	-2412
ス	-2413
ア	-2414
せ	-2415
び	-2416
み	-2417
「	-2418
」	-2419
ラ	-2420
べ	-2421
ば	-2422
子	-2423
ン	-2424
神	-2425
ん	-2426
ヤ	-2427
行	-2428
シ	-2429
ム	-2430
リ	-2431
ど	-2432
々	-2433
ダ	-2434
王	-2435
見	-2436
地	-2437
む	-2438
げ	-2439
サ	-2440
レ	-2441
ロ	-2442
ビ	-2443
出	-2444
デ	-2445
ず	-2446
民	-2447
ブ	-2448
じ	-2449
テ	-2450
一	-2451
祭	-2452
分	-2453
や	-2454
日	-2455
上	-2456
時	-2457
ト	-2458
自	-2459
物	-2460
モ	-2461
知	-2462
家	-2463
所	-2464
手	-2465
ヨ	-2466
セ	-2467
前	-2468
事	-2469
ひ	-2470
マ	-2471
ハ	-2472
立	-2473
バ	-2474
十	-2475
国	-2476
パ	-2477
女	-2478
ナ	-2479
聞	-2480
キ	-2481
ご	-2482
ほ	-2483
心	-2484
ベ	-2485
大	-2486
中	-2487
取	-2488
ゆ	-2489
生	-2490
食	-2491
二	-2492
葉	-2493
ぎ	-2494
町	-2495
ょ	-2496
ユ	-2497
『	-2498
』	-2499
カ	-2500
悪	-2501
命	-2502
父	-2503
ぶ	-2504
死	-2505
名	-2506
弟	-2507
罪	-2508
与	-2509
ウ	-2510
下	-2511
共	-2512
ジ	-2513
聖	-2514
来	-2515
タ	-2516
へ	-2517
長	-2518
目	-2519
ふ	-2520
ク	-2521
間	-2522
ぼ	-2523
司	-2524
族	-2525
ざ	-2526
殺	-2527
身	-2528
ね	-2529
全	-2530
滅	-2531
天	-2532
プ	-2533
オ	-2534
ミ	-2535
ー	-2536
三	-2537
会	-2538
住	-2539
兄	-2540
コ	-2541
思	-2542
帰	-2543
フ	-2544
ペ	-2545
ネ	-2546
入	-2547
信	-2548
道	-2549
恐	-2550
ザ	-2551
従	-2552
ャ	-2553
語	-2554
受	-2555
宮	-2556
孫	-2557
メ	-2558
年	-2559
水	-2560
ュ	-2561
多	-2562
救	-2563
今	-2564
呼	-2565
ニ	-2566
羊	-2567
ゼ	-2568
先	-2569
喜	-2570
造	-2571
ケ	-2572
高	-2573
口	-2574
恵	-2575
去	-2576
万	-2577
山	-2578
七	-2579
四	-2580
得	-2581
ド	-2582
正	-2583
預	-2584
守	-2585
愛	-2586
答	-2587
頭	-2588
使	-2589
義	-2590
霊	-2591
力	-2592
戦	-2593
起	-2594
書	-2595
荒	-2596
ぐ	-2597
何	-2598
声	-2599
方	-2600
向	-2601
告	-2602
金	-2603
実	-2604
部	-2605
五	-2606
持	-2607
光	-2608
軍	-2609
火	-2610
ヒ	-2611
同	-2612
世	-2613
後	-2614
百	-2615
野	-2616
ッ	-2617
集	-2618
幕	-2619
・	-2620
木	-2621
ヘ	-2622
御	-2623
ホ	-2624
仰	-2625
仕	-2626
定	-2627
怒	-2628
教	-2629
着	-2630
求	-2631
供	-2632
娘	-2633
ソ	-2634
不	-2635
妻	-2636
足	-2637
法	-2638
栄	-2639
対	-2640
安	-2641
石	-2642
数	-2643
残	-2644
汚	-2645
ガ	-2646
づ	-2647
皆	-2648
約	-2649
追	-2650
牛	-2651
雄	-2652
門	-2653
引	-2654
打	-2655
敵	-2656
歩	-2657
祖	-2658
離	-2659
ギ	-2660
衆	-2661
海	-2662
福	-2663
血	-2664
渡	-2665
ぜ	-2666
小	-2667
壇	-2668
捨	-2669
連	-2670
他	-2671
近	-2672
ぬ	-2673
良	-2674
合	-2675
置	-2676
撃	-2677
産	-2678
ぞ	-2679
場	-2680
捕	-2681
満	-2682
屋	-2683
臨	-2684
千	-2685
律	-2686
苦	-2687
代	-2688
群	-2689
飲	-2690
第	-2691
犯	-2692
肉	-2693
男	-2694
緒	-2695
建	-2696
寄	-2697
誓	-2698
夜	-2699
強	-2700
香	-2701
望	-2702
次	-2703
銀	-2704
助	-2705
焼	-2706
倒	-2707
願	-2708
遠	-2709
顔	-2710
平	-2711
座	-2712
月	-2713
油	-2714
切	-2715
真	-2716
祈	-2717
ズ	-2718
若	-2719
酒	-2720
六	-2721
導	-2722
ノ	-2723
器	-2724
攻	-2725
祝	-2726
母	-2727
憎	-2728
契	-2729
囲	-2730
流	-2731
示	-2732
進	-2733
息	-2734
氏	-2735
偽	-2736
終	-2737
結	-2738
ピ	-2739
注	-2740
報	-2741
川	-2742
内	-2743
外	-2744
像	-2745
君	-2746
悩	-2747
老	-2748
獣	-2749
宿	-2750
燔	-2751
断	-2752
叫	-2753
耳	-2754
病	-2755
至	-2756
畑	-2757
過	-2758
重	-2759
ゲ	-2760
伏	-2761
常	-2762
清	-2763
治	-2764
携	-2765
気	-2766
選	-2767
歌	-2768
必	-2769
明	-2770
衣	-2771
伝	-2772
拝	-2773
種	-2774
異	-2775
ボ	-2776
服	-2777
放	-2778
尋	-2779
災	-2780
箱	-2781
青	-2782
当	-2783
業	-2784
落	-2785
営	-2786
戒	-2787
破	-2788
初	-2789
賜	-2790
送	-2791
絶	-2792
悲	-2793
及	-2794
投	-2795
牧	-2796
柱	-2797
通	-2798
開	-2799
嗣	-2800
現	-2801
礼	-2802
隠	-2803
負	-2804
感	-2805
用	-2806
歳	-2807
互	-2808
悟	-2809
愚	-2810
逃	-2811
楽	-2812
意	-2813
争	-2814
作	-2815
永	-2816
恥	-2817
返	-2818
理	-2819
―	-2820
働	-2821
別	-2822
風	-2823
土	-2824
勇	-2825
体	-2826
夫	-2827
車	-2828
牲	-2829
犠	-2830
ツ	-2831
解	-2832
再	-2833
右	-2834
徒	-2835
話	-2836
以	-2837
度	-2838
東	-2839
奪	-2840
待	-2841
馬	-2842
朝	-2843
罰	-2844
備	-2845
証	-2846
音	-2847
グ	-2848
堅	-2849
周	-2850
最	-2851
激	-2852
貧	-2853
富	-2854
士	-2855
加	-2856
壁	-2857
深	-2858
頼	-2859
麦	-2860
八	-2861
謝	-2862
害	-2863
泣	-2864
無	-2865
獲	-2866
諸	-2867
谷	-2868
勢	-2869
城	-2870
宣	-2871
新	-2872
動	-2873
工	-2874
束	-2875
邦	-2876
成	-2877
兵	-2878
庭	-2879
ポ	-2880
利	-2881
穴	-2882
乗	-2883
台	-2884
伸	-2885
砕	-2886
北	-2887
糸	-2888
雲	-2889
権	-2890
除	-2891
属	-2892
寝	-2893
布	-2894
淫	-2895
魂	-2896
境	-2897
暗	-2898
乳	-2899
親	-2900
少	-2901
広	-2902
戸	-2903
洗	-2904
非	-2905
側	-2906
嘆	-2907
畜	-2908
和	-2909
務	-2910
勝	-2911
吹	-2912
払	-2913
空	-2914
変	-2915
夕	-2916
殿	-2917
移	-2918
隷	-2919
岩	-2920
様	-2921
奴	-2922
銅	-2923
裂	-2924
僕	-2925
官	-2926
決	-2927
留	-2928
偶	-2929
割	-2930
皮	-2931
買	-2932
ヅ	-2933
墓	-2934
宝	-2935
散	-2936
有	-2937
誇	-2938
燃	-2939
葬	-2940
議	-2941
召	-2942
驚	-2943
売	-2944
計	-2945
設	-2946
半	-2947
学	-2948
訴	-2949
善	-2950
果	-2951
降	-2952
令	-2953
消	-2954
隣	-2955
張	-2956
憤	-2957
授	-2958
位	-2959
尊	-2960
隊	-2961
確	-2962
労	-2963
角	-2964
踏	-2965
ゴ	-2966
傾	-2967
役	-2968
眠	-2969
築	-2970
素	-2971
相	-2972
鳥	-2973
傷	-2974
枝	-2975
花	-2976
識	-2977
公	-2978
南	-2979
好	-2980
難	-2981
復	-2982
指	-2983
納	-2984
領	-2985
骨	-2986
村	-2987
迎	-2988
妹	-2989
首	-2990
問	-2991
舟	-2992
越	-2993
込	-2994
保	-2995
忘	-2996
