<pad>	0
</s>	0
<unk>	0
ም	-3.02964
ን	-3.46097
፥	-3.72764
▁	-3.7335
።	-3.91129
ና	-4.1468
፤	-4.4506
▁በ	-4.57959
▁የ	-4.60084
ት	-4.71445
ስ	-4.76381
ል	-4.84961
▁ወደ	-4.85297
▁ሁሉ	-4.95153
ው	-4.96187
▁አ	-4.96253
▁ከ	-5.03279
ር	-5.06707
▁ይ	-5.08234
ለ	-5.19511
▁እንደ	-5.27263
ህ	-5.28017
ንም	-5.30731
ድ	-5.32088
ብ	-5.38204
▁ለ	-5.39471
▁ላይ	-5.40445
ረ	-5.41227
▁ዘንድ	-5.42202
▁እግዚአብሔር	-5.50394
ራ	-5.52701
▁ተ	-5.5278
?	-5.56191
▁ግን	-5.56419
በ	-5.58667
ባ	-5.5935
▁እ	-5.60969
ግ	-5.62908
▁መ	-5.65839
▁የሚ	-5.69115
ላ	-5.70019
መ	-5.70919
ደ	-5.7219
ታ	-5.73069
▁ያ	-5.73652
ገ	-5.74051
ያ	-5.76719
ጥ	-5.78621
ሰ	-5.79421
ማ	-5.80508
▁ነገር	-5.81881
ዋ	-5.82591
▁ስለ	-5.85252
▁ጊዜ	-5.87271
ቀ	-5.87806
▁ት	-5.88869
▁ጋር	-5.89771
ነ	-5.91317
ቅ	-5.92643
ፍ	-5.94446
▁ልጆች	-5.95603
ይ	-5.95765
ሳ	-5.96196
ተ	-5.99109
▁ልጅ	-6.00469
ከ	-6.01512
▁ሰው	-6.01699
ች	-6.04496
ጠ	-6.05282
ዳ	-6.08789
ውን	-6.09095
ፈ	-6.11649
በት	-6.13505
▁እኔ	-6.15806
ክ	-6.18518
ሩ	-6.2423
ቃ	-6.24846
ሽ	-6.25135
ጋ	-6.27926
▁ቀን	-6.2888
▁የተ	-6.29024
▁እንዲህ	-6.29046
ዝ	-6.30272
▁ቤት	-6.32499
▁አይ	-6.33319
ፋ	-6.34413
▁ፊት	-6.36548
ጣ	-6.38448
ወ	-6.38634
▁ሆይ፥	-6.41383
ኑ	-6.41516
ካ	-6.43393
ቱ	-6.44828
ሁ	-6.45291
▁አል	-6.46414
ሉ	-6.46664
▁ቃል	-6.50666
▁ሰዎች	-6.51126
ዱ	-6.51878
ሮ	-6.52216
▁ታ	-6.54058
▁ደግሞ	-6.55382
ዘ	-6.56004
▁ምድር	-6.57214
ቁ	-6.57302
ዓ	-6.57807
ሙ	-6.59238
▁አንተ	-6.59727
▁ነው	-6.59797
ቶ	-6.59978
▁እርሱ	-6.60372
▁ድረስ	-6.60693
ዎች	-6.61472
▁ንጉሥ	-6.65016
▁አንድ	-6.65776
▁አት	-6.67521
▁እስከ	-6.67528
▁በእግዚአብሔር	-6.69351
ንና	-6.7052
ዛ	-6.70959
▁አለው።	-6.71055
ውም	-6.71543
ሱ	-6.71671
ኝ	-6.71712
ሎ	-6.72907
▁ጌታ	-6.73519
▁ይህ	-6.73891
▁ነው።	-6.75974
▁ውስጥ	-6.76129
▁ብሎ	-6.76972
▁በአ	-6.77468
ህን	-6.77547
ቡ	-6.79516
▁ሰ	-6.79521
▁ነበር።	-6.79701
▁አለ።	-6.82169
ትን	-6.82496
▁የእግዚአብሔር	-6.8256
ጡ	-6.84994
▁በኋላ	-6.85006
▁ቢ	-6.85781
ሞ	-6.85979
ቤ	-6.8613
▁አስ	-6.8771
ሬ	-6.88844
ሸ	-6.8993
▁ሲ	-6.90307
▁ይህን	-6.91229
ቆ	-6.9127
▁በመ	-6.92863
▁ሊ	-6.93122
▁የአ	-6.9383
▁ወ	-6.94488
▁እግዚአብሔርም	-6.94542
▁እን	-6.94693
▁እነሆ፥	-6.9577
▁እናንተ	-6.95774
▁ማ	-6.9611
▁አምላክ	-6.96295
▁እጅ	-6.96986
▁ቀ	-6.97463
ሕ	-6.97871
▁ባ	-6.98188
▁እርሱም	-6.98746
ፉ	-6.99466
ጸ	-6.99639
▁መካከል	-6.99998
ሌ	-7.00275
አ	-7.00991
ዶ	-7.02012
▁ወይም	-7.02295
ቴ	-7.03074
▁እንዲ	-7.03596
▁ዓመት	-7.04095
ሪ	-7.04112
▁ሕዝብ	-7.0488
▁የእስራኤል	-7.0496
ቸው	-7.05516
ኖ	-7.0657
ጽ	-7.07235
▁የሚያ	-7.07797
▁ከእርሱ	-7.09598
ችሁ	-7.1043
▁ምን	-7.108
ነት	-7.1202
▁ከአ	-7.12049
▁ስለዚህ	-7.12219
▁ነው፤	-7.12568
ላችሁ	-7.1391
▁ሁለት	-7.13976
▁ለመ	-7.16354
ህም	-7.16657
ለት	-7.16674
ሻ	-7.16756
ጨ	-7.16867
ለው	-7.18446
ባት	-7.191
ላቸው	-7.19257
ጉ	-7.19325
▁በተ	-7.20246
ሥ	-7.20898
ሆን	-7.21167
ዕ	-7.2141
▁ያለ	-7.21612
▁ሥራ	-7.22424
▁አላ	-7.22557
ሶ	-7.23377
ሴ	-7.2365
የ	-7.24133
▁ጠ	-7.24965
▁ስፍራ	-7.25131
ኛ	-7.25353
ዩ	-7.25646
▁መሥዋዕት	-7.25806
ወጣ	-7.2669
▁ስ	-7.26748
▁እንጂ	-7.27221
▁ሆነ	-7.27876
▁ለእግዚአብሔር	-7.28037
▁እግዚአብሔርን	-7.28421
ዙ	-7.28652
▁ደ	-7.29614
▁ክፉ	-7.29763
▁መቶ	-7.30089
ተው	-7.31689
▁እንዳ	-7.31697
▁በዚያ	-7.31947
▁አለ	-7.32081
▁የመ	-7.32551
▁አሳ	-7.34382
▁ከፍ	-7.3441
▁ደስ	-7.34673
▁እንዲሁ	-7.34717
▁በዚህ	-7.36705
▁በምድር	-7.37259
▁አላቸው።	-7.37276
▁እጅግ	-7.37602
▁ብዙ	-7.37893
▁የእግዚአብሔርን	-7.37963
ውንም	-7.37989
ባቸው	-7.38831
▁ይላል	-7.3962
ሜ	-7.39685
▁ማን	-7.39739
መጣ	-7.39879
ቦ	-7.3994
▁ነበረ።	-7.40327
ዬ	-7.40477
ገባ	-7.4062
ጭ	-7.40885
ና።	-7.41662
▁እነርሱም	-7.41724
▁እነዚህ	-7.42
ፊ	-7.42569
ዮ	-7.4264
▁በዚያም	-7.42864
ጎ	-7.43108
ቢ	-7.43194
ቱን	-7.44055
ቶች	-7.44295
ሉ።	-7.44575
▁እኔም	-7.44577
ኩ	-7.45134
▁ነበር፤	-7.45209
ጫ	-7.46569
▁በእስራኤል	-7.46585
ሆኑ	-7.46602
▁ከተማ	-7.46627
▁ሺህ	-7.46991
አቸው	-7.47512
▁መልካም	-7.48017
ጕ	-7.48196
▁መንገድ	-7.48203
▁እንዳይ	-7.48524
ኮ	-7.48738
▁የምት	-7.49408
▁በእርሱ	-7.49423
ራቸው	-7.49438
▁ስም	-7.4956
▁አቤቱ	-7.49836
ሆ	-7.49933
ሠ	-7.51435
▁አለቆች	-7.5257
▁ዓ	-7.52698
▁ውኃ	-7.53433
▁ዘመን	-7.54063
ወጡ	-7.54153
ቻቸው	-7.54484
▁ኢየሱስ	-7.54844
▁ግ	-7.54944
▁ይላል።	-7.55303
▁ከዚያ	-7.55351
▁ዘ	-7.55867
ተኛ	-7.56754
▁ገ	-7.56765
ዊ	-7.57024
▁በሚ	-7.57079
▁የማ	-7.57802
▁ጥ	-7.5809
ጦ	-7.58883
▁አለቃ	-7.59624
▁አገር	-7.59859
▁ከመ	-7.59991
ችን	-7.60104
ዴ	-7.60262
▁ካ	-7.60399
▁ከእነርሱ	-7.60726
▁ል	-7.6225
ደር	-7.62306
▁ዛሬ	-7.62826
▁ለሚ	-7.62951
▁አሕዛብ	-7.63055
ኤል	-7.63175
▁ፈ	-7.63254
▁ነ	-7.63553
ቼ	-7.63641
ጅ	-7.64348
▁ታላቅ	-7.6472
▁ሳ	-7.64762
እ	-7.65401
▁እነርሱ	-7.65423
▁እንደሚ	-7.65727
▁ጊዜ፥	-7.66274
ጐ	-7.66471
ኔ	-7.66741
▁በዳ	-7.66938
ሠራ	-7.66982
▁ወገን	-7.67534
ነሣ	-7.67688
ውያን	-7.6781
▁ለዘላለም	-7.67881
ኪ	-7.68323
▁ሌላ	-7.68458
ሣ	-7.68762
ታቸው	-7.69202
ቱም	-7.69677
ሉ፤	-7.69858
ል፥	-7.69984
▁ለአ	-7.70025
ለሁ	-7.70509
በላ	-7.70625
ጃ	-7.70626
ሐ	-7.70775
▁በእ	-7.71004
ነው	-7.71185
ው።	-7.71928
አልና	-7.72268
▁ጀምሮ	-7.72978
▁በማ	-7.73254
▁እርሱም።	-7.741
ናገር	-7.74446
ሃ	-7.74826
▁ኃጢአት	-7.7483
▁እየ	-7.74836
ሞት	-7.75523
ጠፋ	-7.76051
▁እስኪ	-7.76147
▁ከእኔ	-7.76169
▁ነበረ፤	-7.76317
▁አያ	-7.76423
ቍ	-7.76654
▁ነበሩ።	-7.76671
▁አሁን	-7.76755
▁እንግዲህ	-7.76931
▁ሰባት	-7.77194
▁ከእ	-7.77196
▁የሆነ	-7.77698
ገረ	-7.7781
ሉት	-7.78052
ችው	-7.78064
ኞች	-7.78318
▁ወር	-7.78635
▁ድምፅ	-7.78844
ሉ፥	-7.79021
▁ያስ	-7.79614
▁ክርስቶስ	-7.79953
ሊ	-7.8005
ታችሁ	-7.80398
ገዛ	-7.80667
▁ብት	-7.80738
ባል	-7.81426
▁ሥጋ	-7.81707
▁ሦስት	-7.81925
▁እንጀራ	-7.8221
▁እንዲህም	-7.82601
▁የእ	-7.82727
▁መንፈስ	-7.82784
ሰማ	-7.82826
▁ከሚ	-7.82872
ሄድ	-7.8294
ጢ	-7.8307
▁ንጉሡም	-7.83348
▁የሰ	-7.83424
ኖር	-7.83631
▁እኛ	-7.8374
ጻ	-7.84087
▁ከተ	-7.8424
▁ተራራ	-7.84471
▁ይሰ	-7.84865
ለሁ።	-7.84894
ፈሩ	-7.85061
ቈ	-7.85124
ገቡ	-7.85189
▁ሁሉ፥	-7.85356
ርያ	-7.85457
ል።	-7.85585
ለሁ፤	-7.86043
ጌ	-7.86075
ት።	-7.86663
▁ዕቃ	-7.86732
ሄ	-7.86779
▁ከተሞች	-7.869
▁ይልቅ	-7.87277
▁አጠገብ	-7.87482
▁ክንድ	-7.87497
▁እነሆም	-7.87834
▁የሰው	-7.88032
▁በየ	-7.8842
▁ባለ	-7.88504
▁ነው፥	-7.88725
▁በወ	-7.88807
▁ሴት	-7.8921
▁ሴቶች	-7.89364
▁ለማ	-7.89378
ሚ	-7.89649
▁ከአንተ	-7.89935
▁አን	-7.90068
▁እንዴት	-7.90227
▁ልብ	-7.90229
▁በታች	-7.90871
ፌ	-7.9147
▁ያለውን	-7.91489
ሰሙ	-7.92266
▁ብለው	-7.92379
▁ብ	-7.92491
ኤ	-7.92509
ፈር	-7.9251
ሮች	-7.92586
▁ስሙ	-7.92755
▁ብቻ	-7.92756
▁በደ	-7.92911
ልኝ	-7.93038
ዖ	-7.93044
▁ከእግዚአብሔር	-7.93048
ቂ	-7.93258
ቻ	-7.93451
▁በኩል	-7.93699
▁ዳዊትም	-7.93794
▁በግ	-7.93861
▁ከዚህ	-7.94334
ቸውም	-7.94422
▁ንጉሡ	-7.94667
ዞ	-7.94668
ጠላ	-7.95257
▁አምስት	-7.95306
ዋን	-7.95621
▁አሁንም	-7.9595
▁እና	-7.96606
▁የተነሣ	-7.97191
▁ማንም	-7.97192
▁ይሆናል።	-7.97594
ጠራ	-7.97758
ዚ	-7.982
ቸዋለሁ	-7.98295
▁አሥራ	-7.98314
ቀር	-7.98362
ዊው	-7.98378
ራችሁ	-7.98392
▁አሉት።	-7.9865
▁ዳዊት	-7.99019
▁አደ	-7.99026
▁ሕግ	-7.99303
ቹ	-7.99364
ኃ	-7.99559
▁ቍርባን	-7.99618
▁ኢየሩሳሌም	-8.003
▁ልጁ	-8.00364
ል፤	-8.00628
▁ከእስራኤል	-8.00642
▁ክ	-8.00717
ፈራ	-8.01225
▁ክብር	-8.01356
▁ሄደ	-8.01441
ት፥	-8.01552
▁መጣ	-8.01605
▁ከእናንተ	-8.02024
▁ሰማ	-8.02079
ጀ	-8.02237
▁አልተ	-8.02362
▁ገና	-8.02468
▁ፍሬ	-8.02477
▁ዘንድ፥	-8.02551
▁ሠራ	-8.02939
▁ራስ	-8.02968
ገድ	-8.03147
▁አታ	-8.03244
▁የማይ	-8.03605
በሩ	-8.03792
▁ላ	-8.04224
▁ሐ	-8.04287
ሪያ	-8.04298
ቸ	-8.04302
አት	-8.04691
ኸው	-8.04709
▁ኢየሱስም	-8.05321
ኒ	-8.05564
ህንም	-8.05766
ኛው	-8.0584
▁በር	-8.05865
▁እስራኤል	-8.06002
ለሁ፥	-8.06324
መሰ	-8.06773
ጁ	-8.06878
▁ነገድ	-8.07013
▁አይደለም	-8.07116
▁በል	-8.07215
ልህ	-8.07343
▁ቅ	-8.07573
ሁት	-8.07805
▁ሆኖ	-8.08039
ኖሩ	-8.08061
▁ለእስራኤል	-8.08119
▁ይበ	-8.08259
ለን	-8.08289
ዎቹ	-8.0871
▁ናቸው።	-8.08836
በር	-8.08958
▁በይሁዳ	-8.09609
▁ነውና	-8.10012
ዳን	-8.10022
▁ድ	-8.1034
▁እውነት	-8.10369
▁በእኔ	-8.10432
▁አብ	-8.10604
▁ሙሴን	-8.10647
ጓ	-8.10735
ነገ	-8.10812
ፍር	-8.11194
ሄዱ	-8.11306
▁ይሆን	-8.11564
ሠሩ	-8.11777
▁አንዱ	-8.11795
ሁ።	-8.11852
!	-8.11886
▁በቀ	-8.12008
ሃለሁ	-8.12342
▁በኢየሩሳሌም	-8.12427
ሰጥ	-8.13396
ተኞች	-8.13398
ቄ	-8.13433
ቶቹ	-8.13523
ሰው	-8.13678
ግባ	-8.13966
ፀ	-8.14216
▁አፍ	-8.14573
መለስ	-8.14722
▁ነገሥታት	-8.14933
▁ሰጠ	-8.15202
▁የይሁዳ	-8.15402
▁ነበርና	-8.15665
▁አራት	-8.15742
▁ሳይ	-8.15803
ጆ	-8.16255
▁ኤ	-8.16443
ላት	-8.16665
ገደ	-8.16725
▁ያለው	-8.16833
▁አባት	-8.16893
ቋ	-8.17005
▁ቅዱስ	-8.17006
▁የሠራዊት	-8.1741
▁ቍጣ	-8.17416
▁ዘር	-8.17451
ማል	-8.17538
▁ወንድ	-8.17554
ድን	-8.17777
▁ይሁዳ	-8.17828
ቶቻቸው	-8.18071
▁በሰ	-8.18193
ደረግ	-8.18446
በዛ	-8.19033
▁ትእዛዝ	-8.19046
▁የበ	-8.19507
▁ነበር፥	-8.19559
ወድ	-8.19709
መረ	-8.20323
▁ው	-8.20712
▁ሀያ	-8.20713
ት፤	-8.20817
▁ሙሴም	-8.21037
▁ነህ	-8.21205
ረው	-8.21369
▁አድርጎ	-8.21552
▁ፍ	-8.21733
▁በዚያን	-8.21764
▁ሕዝቡም	-8.2185
▁ወይስ	-8.21983
ልክ	-8.2209
▁ደግሞም	-8.22161
▁እሳት	-8.2226
ላል	-8.22305
ተዋል	-8.22526
ኝ።	-8.23015
▁መሠዊያ	-8.23688
▁ባሪያዎች	-8.23809
ኝ፤	-8.23826
ኝ፥	-8.23868
▁ነበረ	-8.24053
▁ደም	-8.24194
▁አሉ።	-8.24342
ራት	-8.24618
ፍራ	-8.24961
ቀው	-8.2509
ሹ	-8.25204
▁እንድት	-8.25407
▁ኪዳን	-8.25432
ዲ	-8.25556
▁ብር	-8.25641
ደው	-8.25672
▁አምላክህ	-8.26816
ኋቸው	-8.26983
▁አየ	-8.27241
▁ልብስ	-8.27557
ቸውን	-8.27874
ናቸው	-8.27955
ዔ	-8.27967
ሲ	-8.27975
▁እርስዋም	-8.28023
ች።	-8.28271
ሁ፥	-8.28327
መጡ	-8.28604
▁ይሆናል፤	-8.28701
▁ተቀ	-8.28784
ቹን	-8.28921
▁ተስፋ	-8.29035
ምድረ	-8.29315
▁ባል	-8.29347
▁በእውነት	-8.29468
▁ተናገረ	-8.2953
▁አውራ	-8.29545
ጠው	-8.30053
ይቱ	-8.3016
▁እግዚአብሔር።	-8.30822
ጠጣ	-8.30864
▁ሊያ	-8.30994
ባችሁ	-8.31021
▁ሚስት	-8.31323
ችኋለሁ	-8.31353
▁ምንድር	-8.31377
ልፎ	-8.31422
▁ወዳ	-8.31427
▁ጭ	-8.31576
ንግሥ	-8.31808
▁ይመ	-8.32236
ኸ	-8.32248
መለሱ	-8.32407
ኖች	-8.32488
ፃ	-8.32723
▁ድንኳን	-8.32724
▁ናቸው፤	-8.32766
▁እንዲያ	-8.32911
▁ሸ	-8.33114
ቀመጥ	-8.33293
ቸዋል	-8.33385
ጣል	-8.33536
▁ፍርድ	-8.33918
▁እንድ	-8.3403
▁ሞተ	-8.34127
▁አድ	-8.34151
▁ባሪያ	-8.3426
ቢያ	-8.34528
ዳቸው	-8.34691
መልስ	-8.35072
▁ዝ	-8.35143
▁ተሰ	-8.35178
ለት።	-8.35238
▁አሮን	-8.35426
▁የወ	-8.35492
▁ከሰ	-8.35534
ላችሁ።	-8.35639
ናችሁ	-8.3578
ሶች	-8.35944
▁እያ	-8.36086
ሞላ	-8.3612
ዎ	-8.36228
ወር	-8.36357
ጊ	-8.36578
▁ሰሎሞን	-8.3658
ቀመጡ	-8.3671
ገኙ	-8.36923
ዋም	-8.37003
▁መንግሥት	-8.37076
▁ሆነ፤	-8.37097
ፈረ	-8.37279
▁ሙሴ	-8.37313
▁በቀር	-8.37503
▁ምንም	-8.37715
ሞን	-8.37815
ሁ፤	-8.37829
▁በእናንተ	-8.38065
▁ሕዝቡን	-8.38399
▁ደቀ	-8.38502
ብኝ	-8.38572
▁በእሳት	-8.38604
▁አደረገ	-8.38895
▁በሕይወት	-8.39073
ዋለሁ	-8.39132
▁ጣ	-8.3936
▁ይሆናል	-8.39424
ጠብ	-8.39461
ልቅ	-8.39694
ጠብቅ	-8.3992
▁ባሕር	-8.40082
▁በፊቱ	-8.40089
▁ርስት	-8.40108
▁የእስራኤልን	-8.4028
▁ተመ	-8.40452
ሾ	-8.4086
ኦ	-8.41101
▁ጽድቅ	-8.41104
ዘው	-8.41592
ሦ	-8.42128
▁ሁለቱ	-8.42277
ቹም	-8.42278
ገኝ	-8.42468
ሁም	-8.42538
▁በአንተ	-8.42698
ቀድ	-8.42823
ሎች	-8.42956
ዶች	-8.42983
▁አሰ	-8.43091
ላቸው።	-8.43248
▁በቅ	-8.43334
ደርግ	-8.43342
ጆች	-8.43438
▁ወንድሞች	-8.43562
▁ስድስት	-8.43707
▁በውኑ	-8.43764
▁ቢሆን	-8.43764
ሰብ	-8.43775
▁እነሆ	-8.43853
ፎ	-8.43855
ናገሩ	-8.43931
ጮ	-8.44233
አቸው።	-8.44316
▁እንኳ	-8.4433
ጠብቁ	-8.44441
▁ሰይፍ	-8.44772
ለች።	-8.44923
▁ስላ	-8.45011
▁አንተም	-8.45253
ያደርጉ	-8.45375
ሳችሁ	-8.4556
▁በአንድ	-8.45839
▁ኃይል	-8.45841
ጣት	-8.45902
▁የምታ	-8.45979
▁እርስ	-8.45987
▁ድንጋይ	-8.46381
ራራ	-8.46535
▁ሰላም	-8.4669
▁መዛሙርቱ	-8.46924
▁የወይን	-8.46935
ሩት	-8.47798
ጄ	-8.47884
▁ዳርቻ	-8.48006
▁ወርቅ	-8.48081
▁መጣ።	-8.48126
▁ሲል	-8.48285
▁ለምን	-8.48298
▁እርስዋ	-8.48524
ታል።	-8.48603
▁የምድር	-8.48615
▁ሕዝቡ	-8.4892
▁ነበር	-8.49378
▁መከራ	-8.49639
ኢ	-8.49644
ሺ	-8.49671
▁ለአንተ	-8.49705
▁ጠጅ	-8.49868
▁የቀ	-8.4987
▁ቆ	-8.49968
ታችን	-8.5001
▁ሳለ	-8.50117
▁ነበሩ፤	-8.50121
▁በጎች	-8.50206
ዜ	-8.50248
▁ሞ	-8.50373
▁ተከ	-8.50601
▁ጠራ	-8.50613
ሻል	-8.50759
▁ይፈ	-8.50931
▁ባለው	-8.51007
▁ጌ	-8.51139
▁ነበረ፥	-8.51167
▁መለሰ	-8.51274
▁ቤተ	-8.51728
▁ያል	-8.5183
▁አንቺ	-8.51969
▁በላይ	-8.52012
▁ሚ	-8.5205
▁ይጠ	-8.52693
▁ይወ	-8.52788
▁ነኝ	-8.5298
▁ልጆች፥	-8.53018
▁ነፍስ	-8.53096
▁ወንዶች	-8.5311
▁ቤቱ	-8.53207
ብረ	-8.53292
▁እንዳለ	-8.53339
ኰ	-8.53684
▁ዛፍ	-8.53727
ሳቸው	-8.53758
ለህ	-8.53911
ቸው።	-8.53985
ወደ	-8.54243
ኬ	-8.5427
መለከት	-8.54801
▁አምሳ	-8.5485
ጩ	-8.54861
▁አማልክት	-8.54861
▁ጥበብ	-8.54867
▁አስተ	-8.5544
▁መጽሐፍ	-8.55452
▁ቤቶች	-8.5546
ዘረጋ	-8.55589
▁ያዘ	-8.55664
▁ሰማይ	-8.56005
▁ልጆቹ	-8.56048
▁ነገ	-8.56166
ብር	-8.56263
በትን	-8.56276
▁በጎ	-8.56497
▁ሁልጊዜ	-8.56646
▁እንዲሆን	-8.56998
▁አመጣ	-8.57262
▁ነፍ	-8.5768
ጣሉ	-8.5778
▁ለእኔ	-8.57855
▁ብርሃን	-8.57857
▁ስለዚህም	-8.58013
ታው	-8.58355
▁ዮሴፍ	-8.58465
▁በሰይፍ	-8.58466
▁አድርግ	-8.5847
▁እንዳት	-8.58667
ርስ	-8.58884
ኳ	-8.58966
▁ጆሮ	-8.59104
▁ገባ	-8.59141
ነበ	-8.5934
ወቅ	-8.59514
▁ይህም	-8.5959
▁ይዞ	-8.5966
▁ሥርዓት	-8.59696
▁አሥር	-8.59713
▁የለም	-8.59766
ቴን	-8.5994
▁መታ	-8.60209
▁ሕያው	-8.60317
▁ሆንሁ	-8.60364
▁የጌታ	-8.60424
ገር	-8.60554
ረዱ	-8.60927
▁ለእርሱ	-8.60942
▁ትንቢት	-8.60942
▁ሂድ	-8.60949
▁ከብ	-8.60967
▁ይመጣል	-8.61659
ው፤	-8.61665
ቻችሁ	-8.61673
▁ዕጣ	-8.61741
▁የሚያስ	-8.61955
ዋል።	-8.61965
▁ላከ	-8.62425
ኸኝ	-8.62452
ማት	-8.62487
▁ረ	-8.62645
▁በፊትህ	-8.6272
▁አወጣ	-8.6279
▁ሕይወት	-8.62865
▁ዓይን	-8.62868
▁ልት	-8.63135
▁በንጉሡ	-8.63481
▁ምርኮ	-8.63484
▁ክፋት	-8.63489
ዋልና	-8.63641
▁በጌታ	-8.63651
▁ጨ	-8.63999
▁ሌሊት	-8.64126
▁ካህናቱ	-8.64127
▁ከሰማይ	-8.64153
▁አባቱ	-8.64259
▁ምድረ	-8.64287
▁ተነሣ	-8.64542
▁ተቀመጠ	-8.64777
▁ወሰደ	-8.64791
▁ከምድር	-8.64808
▁ባይ	-8.64984
ኛል	-8.6507
ዋንም	-8.65146
አል።	-8.65214
▁እጁን	-8.65473
▁ሽማግሌዎች	-8.65477
▁አድርገ	-8.65511
ድል	-8.65547
▁ናት	-8.65676
▁እንዳል	-8.6574
ሚያ	-8.65763
ነቱ	-8.6606
▁በእነርሱ	-8.66087
▁ወዲህ	-8.66088
ዬን	-8.66243
ሳት	-8.66341
▁ነበሩ	-8.66452
▁መልአክ	-8.6675
▁ሠላሳ	-8.6675
▁አይሁድ	-8.66759
▁ዓለም	-8.66838
ታቸውን	-8.6705
▁ይሁን	-8.67066
አል፤	-8.67396
▁ጴጥሮስ	-8.67416
ሉም	-8.67429
▁ያደረገ	-8.67533
ኙ	-8.67619
▁ሽ	-8.67623
ሳል	-8.67653
ለኝ	-8.67703
ዋል፤	-8.68013
ሽን	-8.68052
▁ፋንታ	-8.6809
▁ይሁን።	-8.68107
ቀበል	-8.68162
▁ልጄ	-8.68171
▁ወጥቶ	-8.68204
▁ወራት	-8.68266
▁ይቀ	-8.68322
▁ነበረች	-8.68809
አል	-8.68954
ሔ	-8.6944
▁ታቦት	-8.69449
▁ነፋስ	-8.6946
ሽም	-8.69597
ረዳ	-8.70011
▁ምሳሌ	-8.7013
▁ምልክት	-8.70131
▁መጥቶ	-8.7044
ኛልና	-8.70461
▁እንዲሁም	-8.7054
▁ካህናት	-8.70819
▁ዕ	-8.71065
▁ይነ	-8.71301
▁እርሻ	-8.716
ላቸውም	-8.71698
ኝም	-8.72025
ሰጠ	-8.72043
▁ለእናንተ	-8.72212
ኋችሁ	-8.72249
▁ጥቂት	-8.72258
ለች፤	-8.72282
▁እር	-8.72307
▁አለኝ።	-8.72351
▁ተናገር	-8.72596
በሉ	-8.72605
▁ነገሩ	-8.72743
መታ	-8.72928
▁ሆነ፥	-8.73278
▁አርባ	-8.7334
▁ይገባ	-8.73382
ጠፉ	-8.73559
ሃል	-8.73644
▁አዳ	-8.73729
▁ከእኛ	-8.73811
ቻችን	-8.73812
▁ካህኑም	-8.73985
ጠረ	-8.73994
▁ጳውሎስ	-8.74
ታል፤	-8.7403
▁ከንቱ	-8.74044
ሞች	-8.74059
ዘዝ	-8.74533
ሰጠው	-8.74954
ሀ	-8.75001
▁ሆነው	-8.75003
▁መስ	-8.75017
▁እያንዳንዱ	-8.75059
▁ከእንግዲህ	-8.75059
▁በታላቅ	-8.75059
▁ርኩስ	-8.75059
▁ሌሎች	-8.75062
ች፥	-8.75235
▁በሰማይ	-8.75309
▁እስራኤልን	-8.7534
▁መር	-8.75384
▁አስቀድሞ	-8.75784
አችሁ	-8.758
▁የደ	-8.75846
▁መልሶ።	-8.76216
▁ባየ	-8.76482
ጤ	-8.76513
▁በአሕዛብ	-8.76513
▁የንጉሡ	-8.76513
ራቱ	-8.76534
ፈው	-8.76759
▁ታስ	-8.76762
ሮስ	-8.77197
▁ንጹሕ	-8.77249
▁ዙሪያ	-8.77252
▁ብዛት	-8.77252
▁ቢያ	-8.77266
▁አሉ	-8.77397
▁እላችኋለሁ	-8.77403
▁ጌታዬ	-8.77424
▁ሳኦል	-8.77576
▁ወዮ	-8.77635
▁እርሱን	-8.77725
▁በጥ	-8.77875
▁ብል	-8.78082
▁ተገ	-8.78271
ሃልና	-8.78287
▁ካህኑ	-8.78362
▁ራሱን	-8.78498
▁ስማ	-8.78524
▁ብላ	-8.78559
ላችሁ፤	-8.78578
▁ፊ	-8.78666
▁ፈጽሞ	-8.78736
▁ወስዶ	-8.78741
▁ስት	-8.78761
▁ሴ	-8.78882
▁የዓ	-8.78963
ለህ።	-8.79039
▁ያዕቆብ	-8.79139
ቻለሁ	-8.79375
▁በግብፅ	-8.79488
▁ጉባኤ	-8.79488
▁ምስክር	-8.79488
▁አንዳች	-8.79547
▁ትወ	-8.79557
መካ	-8.79597
ጠጡ	-8.79773
ከፍ	-8.79876
▁ብለህ	-8.79883
ጹ	-8.8024
ች፤	-8.80333
▁መጠን	-8.80423
ድር	-8.80495
▁ጎ	-8.80496
ሞቱ	-8.80563
▁ይከ	-8.80767
▁አምላኬ	-8.80946
▁እንደዚህ	-8.81018
▁ሞት	-8.81161
▁ይህች	-8.81313
ወቀ	-8.8132
▁ከማ	-8.81478
▁ቈ	-8.81756
▁የተቀደሰ	-8.81778
▁መቅደስ	-8.81778
▁እንጨት	-8.81784
▁የወርቅ	-8.81806
▁ተነሥቶ	-8.8186
▁ያህል	-8.81873
▁በእጁ	-8.81874
ፍረ	-8.819
ቀበሉ	-8.81962
▁ብዬ	-8.81976
▁እስራኤልም	-8.82086
▁እናንተም	-8.82115
▁ብታ	-8.82127
▁ቅን	-8.82419
▁አብርሃም	-8.82553
▁ወለደ፤	-8.82553
▁አደረገ።	-8.82561
ዋለህ	-8.82781
ማቸው	-8.83145
▁ኢያሱ	-8.83167
▁ያደርጋል	-8.83334
▁ፈርዖን	-8.83336
▁ወዴት	-8.83337
▁አልነበረም	-8.83339
▁አደረጉ	-8.83351
▁ውጭ	-8.83515
ላክ	-8.8395
▁ምክንያት	-8.84122
▁አምላካችን	-8.84122
ደርገው	-8.84157
ረግ	-8.84207
ማይ	-8.84247
ሁህ	-8.8434
▁የለም።	-8.84362
ቸዋል።	-8.84494
ያውቅ	-8.84652
▁ሆኑ	-8.84683
▁ጻድቅ	-8.84694
▁ሳሙኤል	-8.84915
▁በውኃ	-8.84933
▁ሰቅል	-8.84937
▁የነበረውን	-8.85447
በታ	-8.85614
▁መጥተው	-8.8572
▁ዘይት	-8.85729
▁ወጥ	-8.86051
▁ሳኦልም	-8.86165
▁ተወ	-8.86277
▁ያሳ	-8.86341
ብህ	-8.86503
▁አደባባይ	-8.86522
▁በነ	-8.86739
▁በራ	-8.86888
ለህ፤	-8.86945
በል	-8.8723
ኞቹ	-8.87335
▁በእርስዋ	-8.87335
▁ትውልድ	-8.87335
ገኛ	-8.87501
▁ሰባ	-8.87624
▁ዮ	-8.87631
ደድ	-8.87816
▁ጐ	-8.87944
▁ክፍል	-8.88161
▁በመንገድ	-8.88162
ላችሁ፥	-8.88421
ህና	-8.88484
ማረ	-8.88762
▁በገ	-8.88892
▁ሕዝቤ	-8.88981
▁አምላካችሁ	-8.88991
ችኋ	-8.89433
ማር	-8.89434
▁ኤርምያስ	-8.89562
▁የኢ	-8.8965
▁የዘ	-8.89691
▁አር	-8.89705
▁የሚኖሩ	-8.8976
▁ዳር	-8.89774
▁ከግብፅ	-8.89814
ወለደች	-8.89851
▁ያወጣ	-8.89858
▁ሁለተኛው	-8.89873
ቀረቡ	-8.89881
▁በፊት	-8.90014
▁ይታ	-8.90218
ገዙ	-8.90318
ዋጋ	-8.90457
▁ከቶ	-8.90502
ትንም	-8.9053
▁አደርጋለሁ	-8.90655
▁ተቀምጦ	-8.90659
▁ይኖራል	-8.90664
▁ሠር	-8.90715
▁ከተማይቱ	-8.9077
▁ዝም	-8.91215
▁ደስታ	-8.91484
ተህ	-8.91486
▁ሸለቆ	-8.91505
▁አዘዘ	-8.91527
ቦች	-8.91696
▁የሆነውን	-8.91707
ድያ	-8.91828
▁ይሁን፤	-8.92156
▁ባሪያህ	-8.92296
ሕይወ	-8.92297
▁በክርስቶስ	-8.92357
▁ፍልስጥኤማውያን	-8.92357
▁ሆነ።	-8.92451
▁በሰው	-8.92483
▁አለ፤	-8.92537
▁ነፍሴ	-8.92664
▁ልጅ፥	-8.92728
▁ይቅር	-8.92849
ብላ	-8.93029
▁ሠራዊት	-8.9322
▁አድርጉ	-8.93222
ያውቁ	-8.93252
▁በቤቱ	-8.93255
ፈልጉ	-8.93431
ጠቅ	-8.93531
ሃል።	-8.9363
ለች፥	-8.93869
ነቀ	-8.94022
▁ነቢያት	-8.9409
▁ባድማ	-8.941
▁ተብሎ	-8.94105
▁ወንዝ	-8.94132
▁የሠራ	-8.94554
▁በሌሊት	-8.94965
▁ፈቃድ	-8.94969
▁በሰማ	-8.95043
▁በደል	-8.95425
ጠሩ	-8.95506
መለከ	-8.95543
▁ያን	-8.95699
▁የዳዊት	-8.95851
▁ቅጥር	-8.95891
▁ወይን	-8.9594
▁በመሠዊያው	-8.96028
▁ቆሞ	-8.96037
ነጻ	-8.96207
ችንን	-8.96382
▁ጽ	-8.96565
▁ማደሪያ	-8.96744
▁ጸጋ	-8.96775
ዘጋጀ	-8.9678
▁በአንድነት	-8.96883
▁ነገሠ።	-8.97056
▁አላት።	-8.9711
ላቸዋል	-8.97114
ላሉ	-8.97179
ታል	-8.97215
የው	-8.97253
▁እመ	-8.97327
ዳችሁ	-8.97371
▁ሄደ።	-8.9742
ብሩ	-8.97489
▁የዘላለም	-8.97644
▁በሆነ	-8.97709
ቃጥ	-8.97784
ዮች	-8.97806
ናል።	-8.98055
ጠር	-8.98134
ሖ	-8.98553
▁መስፈሪያ	-8.98553
▁በፊቴ	-8.98558
ቀረበ	-8.986
▁በዙሪያ	-8.98687
ዘጋ	-8.98754
▁ነውና።	-8.9896
▁ሆና	-8.99254
ታል፥	-8.99341
ለጠ	-8.99374
▁ኋላ	-8.99616
ራሳቸው	-8.99699
▁አመጡ	-9.0001
▁ቢሆን፥	-9.00027
ክር	-9.00133
ላችኋል	-9.0024
መው	-9.0031
▁ትሰ	-9.00335
መጣው	-9.00343
▁ሌዋውያን	-9.00397
▁ስንኳ	-9.00401
በረታ	-9.00735
ቤተ	-9.01039
ቆች	-9.01262
▁ዋጋ	-9.01296
▁ለንጉሡ	-9.01331
▁በብዙ	-9.01358
▁ተናገረው።	-9.01456
ርቅ	-9.01487
▁አሳብ	-9.01552
▁ይዘው	-9.01553
▁ፈጥ	-9.01661
▁ወደሚ	-9.01895
▁ሰብ	-9.01939
▁እነዚህን	-9.01963
▁ማዶ	-9.02066
ሃቸው	-9.02081
ልያ	-9.02104
ዳል	-9.02197
▁ፀሐይ	-9.02275
ጥር	-9.02368
በው	-9.02406
ትም።	-9.02439
▁ከደ	-9.02452
ለህ፥	-9.02636
▁በኢየሩሳሌምም	-9.02839
▁ኢዮአብ	-9.03227
▁ቍጥር	-9.03228
▁ወገኖች	-9.03245
▁ሰልፍ	-9.03247
▁ኢ	-9.03346
ቈጣ	-9.03642
በራ	-9.03807
▁አድርገው	-9.04085
▁በባሕር	-9.04189
▁አንዲት	-9.0419
በኣል	-9.04246
▁ገብ	-9.04308
ፈርድ	-9.04391
አቸውም	-9.04516
ቲ	-9.04523
▁ዳዊትን	-9.04607
ራል።	-9.04638
▁ፈራ	-9.04785
▁ያሉትን	-9.04831
ሂ	-9.05144
ደኅንነት	-9.05159
▁በሕዝቡ	-9.05159
▁ከይሁዳ	-9.05159
▁ወደዚህ	-9.05174
▁የሚቃጠለውን	-9.05183
ማድረግ	-9.05198
ቸዋለህ	-9.05206
▁በቤት	-9.05243
▁እየተ	-9.05309
ነበረው	-9.05662
▁ቀኝ	-9.05713
ረጋ	-9.06017
▁ሕዝቅያስ	-9.0614
▁በኢየሱስ	-9.0614
ጮኹ	-9.06143
▁ወንድም	-9.06731
ከር	-9.06767
አል፥	-9.06965
ሁትን	-9.07045
▁የብር	-9.07071
▁አባቴ	-9.07168
▁ሰጡ	-9.07227
▁አወ	-9.07315
▁ወጣ።	-9.0745
ባቸውን	-9.07516
▁በልብ	-9.07611
ላው	-9.07711
▁ሰጣቸው	-9.07959
ታለሁ	-9.08018
▁የኤ	-9.08124
ዑ	-9.08129
▁በመካከላቸው	-9.0813
▁ፈቀቅ	-9.08133
▁ልብሱን	-9.08153
▁ደመና	-9.08165
▁ከሆነ	-9.08184
ቃችሁ	-9.08234
▁ቦታ	-9.08267
▁ኑ	-9.08412
▁አደረገ፤	-9.0847
ፈታ	-9.08554
▁እያሉ	-9.0862
▁ያሉ	-9.08715
▁የነበሩትን	-9.08789
▁የነበሩ	-9.08984
▁ሲያ	-9.09097
▁ለሕዝቡ	-9.0914
▁ጨለማ	-9.09143
ጋድ	-9.09154
▁ወረደ	-9.09206
▁እግር	-9.09213
ስቱ	-9.09254
▁አደርግ	-9.09523
▁ልቡ	-9.09823
▁እውቀት	-9.09853
ማል።	-9.09874
▁ተናገሩ	-9.09923
▁ዮሐንስ	-9.09977
▁ለዳዊት	-9.1016
▁ምስጋና	-9.10161
በቃ	-9.10169
▁ፍቅር	-9.10192
▁መብል	-9.10281
▁ነበርና።	-9.10403
ረጥ	-9.10526
ጠሉ	-9.1056
ኤል፥	-9.10634
▁ነውር	-9.10768
▁ዳ	-9.10879
▁ያሉት	-9.11052
▁የባቢሎን	-9.11191
▁ይሆናሉ	-9.11243
▁በሬ	-9.1128
ነሡ	-9.11295
ቃቸው	-9.11519
በቱ	-9.1154
ጽናና	-9.11545
▁ሹ	-9.11659
▁ይሠራ	-9.117
▁ብዙዎች	-9.11958
ኛል።	-9.12022
መልካ	-9.12173
▁የሐ	-9.12224
ጾ	-9.12233
▁ጠርቶ	-9.12243
▁ጋሻ	-9.12264
▁ይዘ	-9.1228
▁ወዲያ	-9.1235
ራሴ	-9.12404
▁ያጠፋ	-9.12497
▁ዲ	-9.12685
ነቅ	-9.12755
▁ሁለቱን	-9.13
▁በዙሪያው	-9.13134
▁ወዲያው	-9.13169
▁የያዕቆብ	-9.13286
▁ታውቃላችሁ	-9.13286
▁ቃሉን	-9.13289
▁ሰዓት	-9.13299
ከነዓን	-9.13301
ፈጸመ	-9.13303
ያዩ	-9.1343
ቶቻችሁ	-9.13449
▁መቼ	-9.13825
ታልና	-9.1385
ጣችሁ	-9.13901
ራውያን	-9.14138
ጥፋት	-9.14172
ናል፤	-9.14313
▁ታላቁ	-9.14356
ሠራዊቱ	-9.14398
▁የቀረው	-9.1446
▁ነኝ፤	-9.14525
▁ለሰው	-9.14709
▁ይደ	-9.14861
▁የነበሩት	-9.14897
▁የሴ	-9.14952
▁ልቤ	-9.15024
▁በአሥራ	-9.1534
▁በምት	-9.15353
▁በዳዊት	-9.15427
▁ሴቲቱ	-9.15441
ሽንም	-9.15752
ጋት	-9.15795
▁ወጣ፥	-9.15843
ናልና	-9.15873
▁ራሱ	-9.15878
▁ስሜ	-9.1595
ችኋልና	-9.16009
▁ጽዋ	-9.16035
ሾች	-9.1609
▁አለው	-9.16159
▁ዮናታን	-9.16237
መለከቱ	-9.16372
▁በፍጹም	-9.16512
▁ከእርስዋ	-9.16512
ተደረገ	-9.16519
ችሁን	-9.16571
▁በርሳቸው	-9.1659
▁በእኛ	-9.16817
▁ዔ	-9.16834
▁አለው፤	-9.16848
▁በልቡ	-9.16945
▁ያደርግ	-9.16953
▁ያዕቆብም	-9.17019
▁ካህን	-9.1726
ዘሩ	-9.17501
▁ገንዘብ	-9.17611
▁ወንድሞቹ	-9.17612
▁በእጅህ	-9.17612
▁በከንቱ	-9.17612
▁ሰማያት	-9.17629
ለየ	-9.1805
ቀርብ	-9.18132
ሸሽ	-9.18144
▁ነኝ።	-9.18308
ሻለሁ	-9.18535
ድሩ	-9.18544
▁ወሬ	-9.18606
▁በብር	-9.18718
▁እነዚያ	-9.18722
▁ተጠ	-9.18833
ልሃል	-9.18884
▁ገደለ	-9.18925
▁ናችሁ	-9.18944
▁ከቀ	-9.19299
▁ወንጌል	-9.19313
▁ፍርድን	-9.19316
▁በትር	-9.19649
▁እኛም	-9.19759
▁ንጉሡን	-9.19825
▁አድርጌ	-9.19845
▁ጕድጓድ	-9.19845
▁በመንፈስ	-9.19846
▁በፊታቸው	-9.19848
▁ስጦታ	-9.19851
ሴቶች	-9.19854
▁ያላ	-9.20016
▁በመጣ	-9.20018
ላቸውን	-9.20064
▁በራሱ	-9.20071
▁አይሆን	-9.2014
አሥራ	-9.20171
▁ማር	-9.20179
▁ሰዎቹ	-9.20197
ዳለህ	-9.20274
▁አይደለም።	-9.20438
▁አገኘ	-9.20662
▁ኃጢአትን	-9.20806
▁በሥጋ	-9.20941
ደረጉ	-9.20946
▁ቅዱሳን	-9.20982
▁ባቢሎን	-9.20982
▁የአሕዛብ	-9.20982
▁ነቢዩ	-9.20982
▁ተራሮች	-9.20988
▁ወደዚያ	-9.2099
▁ሚስቱ	-9.21028
ታመን	-9.21056
▁በድን	-9.2109
▁ናቸው	-9.21552
ቀኝ	-9.21594
ያልፍ	-9.21841
ከተል	-9.21911
▁በገባ	-9.22013
▁ናት፤	-9.22036
▁ሂዱ	-9.22135
▁አንበሳ	-9.22137
▁አለችው።	-9.22138
▁ይሁኑ	-9.22147
▁ሰደደ	-9.22157
▁ምክር	-9.22293
▁ነን	-9.22297
▁የሚገባ	-9.223
▁በምን	-9.22321
▁የተናገረ	-9.22511
▁ነገረ	-9.22512
▁ጉ	-9.22523
ቅርብ	-9.2278
▁ነፍሴን	-9.23017
▁ደረ	-9.23223
▁ሥልጣን	-9.23294
▁ርኵሰት	-9.23294
▁ኤልያስ	-9.23294
▁ወሰዱ	-9.23298
▁እንስሳ	-9.23325
ለን፤	-9.23398
▁በዓል	-9.2343
▁ስምንት	-9.23523
▁ኢያሱም	-9.23544
ረሱ	-9.23657
▁ልዩ	-9.23791
▁ፈር	-9.23807
ተገለጠ	-9.23999
ቲቱ	-9.24045
▁ማታ	-9.2424
ሃት	-9.243
▁መልክ	-9.24356
▁አጠፋ	-9.24375
▁አንዱን	-9.24466
ፅ	-9.24468
ጳ	-9.2447
ናቡከደነፆር	-9.2447
ጪ	-9.2447
▁በዮርዳኖስ	-9.2447
▁ኃያላን	-9.2447
▁የዚያን	-9.24471
▁ደዌ	-9.24545
▁ደረሰ	-9.24964
ቻለ	-9.24973
▁አለች።	-9.2504
ዘር	-9.25041
በት።	-9.25119
ተዉ	-9.25254
▁ይህችን	-9.25371
▁ቆመ	-9.25654
▁ከሰው	-9.25656
አባቶቻችሁ	-9.25736
▁ዕለት	-9.2582
ነፋ	-9.25826
▁ይወጣል	-9.25827
▁ተሸ	-9.25857
▁ተመለሰ	-9.26021
▁ቢኖር	-9.26112
ሡ	-9.2627
ፈጸም	-9.26286
ወርድ	-9.26389
ደቀ	-9.26488
▁የነበረ	-9.26508
ሠራው	-9.26524
▁የኃጢአ	-9.26548
ዌ	-9.26789
▁ከሕዝቡ	-9.26866
▁ልጆቻቸው	-9.26866
▁ፍጻሜ	-9.26866
▁አራዊት	-9.26866
▁ዓይኖች	-9.26866
▁ነቢይ	-9.26869
ጮኽ	-9.26869
▁የተጻፈ	-9.2687
▁ወደቀ	-9.26887
ባሪያህ	-9.2692
ገለጥ	-9.2701
ልሃለሁ	-9.27577
ታይ	-9.27915
ደርስ	-9.27982
▁ዮርዳኖስ	-9.28085
▁አውቃለሁ	-9.28086
▁ሞገስ	-9.28092
▁ድሀ	-9.28157
ነገር	-9.28276
▁መንጋ	-9.28311
▁ደጅ	-9.28479
▁ካለው	-9.28543
ጉት	-9.28603
▁የነበረው	-9.28626
▁ገደሉ	-9.28649
▁አልሁ።	-9.28666
▁የሰማ	-9.28714
▁ስብ	-9.28808
▁በሰባተኛው	-9.2932
▁ዙፋን	-9.29321
ዘወትር	-9.29321
▁ግብጽ	-9.29322
ዘጋጅ	-9.29389
▁ወፎች	-9.29412
▁ወጣ፤	-9.29553
▁በስተ	-9.2956
▁የሰማይ	-9.29666
ታለች	-9.29747
ኛለህ	-9.29867
▁አላቸው	-9.3009
ኛል፤	-9.30105
▁ምድሪቱን	-9.30134
▁እንዳያ	-9.30377
▁በሚያ	-9.3041
▁ለእነርሱ	-9.3057
ፈረሰ	-9.30616
▁ስለሚ	-9.30648
▁ሥር	-9.30691
▁ነኝና	-9.30712
▁ወዳለው	-9.30786
ፈልግ	-9.30804
▁አይደለም፤	-9.30844
ሚችል	-9.30854
▁ምድሪቱ	-9.31008
ዎቹንም	-9.31029
▁መልሶ	-9.31104
▁ጥሩ	-9.31113
▁አደረጉ።	-9.31314
▁አቤሴሎም	-9.31485
ተባለ	-9.31518
▁ፈንታ	-9.31813
▁መቅደሱ	-9.31835
▁መጋረጃ	-9.31835
▁ቃሌን	-9.31838
ወንድሙ	-9.31975
ኪያ	-9.31979
▁ለጌታ	-9.31979
ታውቁ	-9.31986
▁እምነት	-9.32002
▁እህል	-9.32007
▁ያልተ	-9.32044
▁ነውና፤	-9.32279
ሃል፤	-9.32407
ሳለሁ	-9.32565
▁ልባቸው	-9.32846
▁ተነሥ	-9.32905
ዘራ	-9.33189
▁አይቶ	-9.33302
ሰነፍ	-9.33431
▁የሚሆን	-9.3344
ገኘው	-9.3348
▁ባሉ	-9.33733
▁ባዩ	-9.33942
▁ይሰማ	-9.34283
▁የለም፤	-9.34324
▁ከግብጽ	-9.34416
▁የኢየሩሳሌም	-9.34416
▁የኢየሱስ	-9.34416
▁ቀድሞ	-9.34429
▁በከተማይቱ	-9.34435
▁ቸርነት	-9.34477
ዋል፥	-9.34726
▁ናት።	-9.34765
▁ዳሩ	-9.34791
▁ማናቸው	-9.34829
ሰጣቸው	-9.34844
▁ባሪያዎቹ	-9.34986
▁ሆነች	-9.35191
ነበረ	-9.35277
ደቡ	-9.35499
አቸው፤	-9.35528
▁እናት	-9.35687
▁አልዓዛር	-9.35732
▁ዕድሜ	-9.35733
▁በረከት	-9.35734
▁ጠቦት	-9.35741
▁የዚህ	-9.35827
▁አገባ	-9.36416
ጠመ	-9.36506
▁አኖረ	-9.36583
▁ለኃጢአት	-9.37065
▁መጀመሪያ	-9.37065
▁መቃብር	-9.37067
▁ስምዖን	-9.37078
ጸሎት	-9.37079
▁ለፊት	-9.37097
ያደርግ	-9.37325
▁እንደሚያ	-9.37361
▁ናቸው፥	-9.37407
ሰኝ	-9.37598
ቅር	-9.37678
ናገረው	-9.37902
▁ጥላ	-9.38243
ሑ	-9.38417
▁ራእይ	-9.38417
▁ትሆናለች	-9.38417
▁መንገዱ	-9.38417
▁የቀሩት	-9.38487
▁ጭፍራ	-9.38502
▁ብለ	-9.38516
▁ይሰጣል	-9.38556
▁ሄዱ።	-9.38589
▁መጡ።	-9.38654
▁ጽኑ	-9.38704
በዙ	-9.3876
▁በሁለተኛው	-9.38807
ፎች	-9.38968
መለሰ	-9.39183
▁ቆመው	-9.39369
▁ወገ	-9.39419
▁ይቈ	-9.39755
▁ባልንጀራ	-9.39787
▁አሳልፌ	-9.39789
▁በደቡብ	-9.39794
▁በሙሴ	-9.39799
ቈጠሩ	-9.39935
▁ከጌታ	-9.3995
▁ገብቶ	-9.39987
▁ጥፋት	-9.40138
▁ልኮ	-9.40252
ችኋል።	-9.40487
ፈቱ	-9.40522
▁አልሰማ	-9.40615
▁ዳግመኛ	-9.41175
▁መግቢያ	-9.41179
▁ናቸውና	-9.41354
ወድድ	-9.4166
▁ይበሉ	-9.42176
▁ይሆናሉ።	-9.42514
▁የበግ	-9.42571
▁ምሕረቱ	-9.42584
▁የሕዝቡ	-9.42584
▁እባክህ	-9.42584
▁የታመነ	-9.42585
▁ደጃፍ	-9.42585
▁በግብጽ	-9.42586
▁ጠጕር	-9.42587
▁ውሰድ	-9.42592
አምላኩ	-9.42604
▁ሎሌ	-9.42616
▁ሁላችሁ	-9.42682
ክብሩ	-9.42704
▁ተቀመጡ።	-9.42941
ታውቅ	-9.43075
▁እንዳዘዘው	-9.43227
▁የተሠራ	-9.43459
▁ነበሩት	-9.43735
▁በአንቺ	-9.44015
▁ቅሬታ	-9.4402
▁አዲስ	-9.44032
▁በእምነት	-9.44036
▁ዝናብ	-9.44038
ዳይ	-9.44064
▁ጀም	-9.44345
▁ይስሐቅ	-9.45462
▁ልቅሶ	-9.45468
▁ስድሳ	-9.45476
▁ሜዳ	-9.4551
ለችና	-9.45532
▁ተነሥተው	-9.45541
ወስደው	-9.45552
ያችሁ	-9.45824
ቂያ	-9.45898
▁ተነሡ	-9.46037
▁እንዳደረገ	-9.46932
▁መድኃኒት	-9.46932
▁ምናልባት	-9.46932
▁በጽድቅ	-9.46933
▁ያውቃሉ	-9.46934
▁ሰጥቶ	-9.46951
▁አሳልፈ	-9.47045
▁ያመጣ	-9.47157
▁እያለ	-9.4731
ወስድ	-9.47682
▁የሰጠ	-9.47779
ኋት	-9.47785
ዳሉ	-9.47846
▁ነገሠ	-9.48043
ኖረው	-9.48172
ዪ	-9.48425
▁ነፍሱን	-9.4844
▁ከሁሉ	-9.48453
▁በሁሉ	-9.48477
ማል፤	-9.48514
▁የአሮን	-9.48549
ጠበቅ	-9.48606
▁በሬዎች	-9.48641
▁ራብ	-9.48995
▁የሚያደርግ	-9.49054
▁ብርቱ	-9.49126
ችኋል፤	-9.49393
▁በመገናኛው	-9.4994
▁በምሥራቅ	-9.4994
▁በሦስተኛው	-9.4994
▁ከኢየሩሳሌም	-9.4994
▁ዱቄት	-9.4994
▁መልካሙን	-9.4994
▁ፍርሃት	-9.49941
▁ዳንኤል	-9.49951
▁ሰፈሩ።	-9.49953
▁ለሚቃጠል	-9.49982
▁ወጥተው	-9.50076
▁አህያ	-9.50087
▁ተሰበሰቡ	-9.50274
▁እስክ	-9.50659
ዒ	-9.51478
▁በባቢሎን	-9.51478
▁ኃጢአተኞች	-9.51478
▁ጣፋጭ	-9.51479
▁እሰጣለሁ	-9.5148
▁ተጻፈ	-9.5149
አንደኛው	-9.51505
▁የሚሆነውን	-9.51509
▁በደስታ	-9.51526
ያቸው	-9.51557
▁ሰምቶ	-9.51585
▁እላለሁ	-9.51777
ታዩ	-9.51904
▁ወርዱ	-9.52343
▁ኃጢአተኛ	-9.526
▁ስላል	-9.52803
ሌዋውያኑ	-9.53041
▁ጀመር	-9.53041
▁በሰሜን	-9.53054
▁ከክፉ	-9.53058
▁አባቶች	-9.53062
▁በሰንበት	-9.53071
▁ምስል	-9.53147
▁ጠላት	-9.53533
▁ሰላምታ	-9.53987
በታል።	-9.54234
ኀ	-9.54628
ገናኘ	-9.54628
ጵ	-9.54628
▁ርዝመቱ	-9.54628
▁እሄዳለሁ	-9.54628
▁እውነተኛ	-9.54628
▁ወይፈን	-9.54629
▁ዛፎች	-9.54632
▁ድንበር	-9.54638
ላደረገ	-9.54638
▁በሜዳ	-9.54648
▁ከእነዚህ	-9.54664
▁ልብህ	-9.54718
▁አሜን	-9.54816
▁የአንድ	-9.54838
▁ሆኖአል	-9.54989
ነቴ	-9.55143
▁በመጀመሪያው	-9.55299
▁እንቢ	-9.55535
▁የከበረ	-9.55565
▁ይለዋል	-9.55639
ባለች	-9.5564
አብራም	-9.55722
▁ጦር	-9.55956
ግብፃውያን	-9.56241
▁መክሊት	-9.56241
▁መጨረሻ	-9.56241
▁ማኅበር	-9.56241
▁አገልግሎት	-9.56241
▁ኤፍሬም	-9.56241
▁በሕዝብ	-9.56242
ጠላቶቼ	-9.56242
ሜሌክ	-9.56242
▁ሦስቱ	-9.56243
▁ተመልሶ	-9.56243
▁ፍጹም	-9.56245
▁ፍየል	-9.56247
ከፈተ	-9.56254
▁ለዚህ	-9.56261
▁በመልካም	-9.56321
▁በልባቸው	-9.56604
▁ለወንድ	-9.5661
መልከ	-9.56757
▁ኢዮሣፍጥ	-9.56863
▁እንዳዘዘ	-9.57139
▁ተቀመጡ	-9.57141
ላለች	-9.5723
▁ሦስተኛው	-9.57378
▁እንድታ	-9.57698
ነታችሁ	-9.57857
a	-9.57881
▁በየወገናቸው	-9.57881
▁አመስግኑ	-9.57881
▁ክርስቲያን	-9.57881
▁የክርስቶስ	-9.57881
▁አራተኛው	-9.57881
▁ለእኛ	-9.57883
ሕያዋን	-9.57884
▁ይላሉ።	-9.57923
▁በላዩ	-9.57927
ቀደሱ	-9.58005
▁ሰባቱ	-9.58052
ቃጠለ	-9.58106
▁የሚቃጠል	-9.58195
ሰጠኝ	-9.58384
▁ሰፈር	-9.58534
▁እጅህን	-9.59489
ሒ	-9.59547
▁በእርግጥ	-9.59547
▁በኵር	-9.59547
▁ተጽፎአል	-9.59547
▁ጩኸት	-9.59547
▁የሳኦል	-9.59547
▁ጠባቂ	-9.59549
▁የአሦር	-9.59549
▁በላያቸው	-9.59553
▁ብላቴናው	-9.59561
▁መሬት	-9.59602
▁በወርቅ	-9.59637
▁የእሳት	-9.59668
▁በሌላ	-9.59668
▁ሙሉ	-9.59703
▁አይተው	-9.59712
ጠየቀ	-9.59789
▁ሁለተኛ	-9.59894
ታላችሁ	-9.60007
▁በዚያች	-9.60188
▁ባሪያዬ	-9.60208
▁አስነሣ	-9.60304
▁ሳሉ	-9.60483
ወድቅ	-9.60824
▁አቀረበ	-9.60843
ሳለች	-9.61032
ነታቸው	-9.61116
መርዶክዮስ	-9.61242
▁ፈሪሳውያን	-9.61242
▁ፋሲካ	-9.61242
▁ጠቦቶች	-9.61242
▁ወለደ።	-9.61243
▁በቍጣ	-9.61253
ዓይኔ	-9.6127
ጸልይ	-9.6127
ወልድ	-9.61276
▁ኖሮ	-9.61287
▁ማርያም	-9.61296
▁በፍታ	-9.61374
▁ዘወር	-9.61448
ወርሱ	-9.61917
▁ያየ	-9.62101
ራለህ	-9.6236
▁ተቀመጥ	-9.6272
▁ሰረገሎች	-9.62966
▁ለልጆቹ	-9.62966
▁በጨለማ	-9.62966
▁በኃይል	-9.62967
▁በእጃቸው	-9.62967
▁ዘላለም	-9.62967
▁ፈረሶች	-9.62969
▁ይችላል	-9.62973
▁ለልጅ	-9.62993
▁በእነዚህ	-9.63007
▁በሰማርያ	-9.63052
ወለዱ	-9.63125
አባታችን	-9.63171
▁ይመጣሉ	-9.63187
ከበረ	-9.63208
▁ራሳቸውን	-9.63222
▁ሳይሆን	-9.63302
ሰጣችሁ	-9.63417
▁ምንጭ	-9.63766
▁ያመጡ	-9.64293
ተወለደ	-9.6471
▁ከአሕዛብ	-9.64721
▁ልጆቻችሁ	-9.64721
▁ይወድቃሉ	-9.64721
▁ሞዓብ	-9.64723
▁ሄዶ	-9.64733
▁ሚዛን	-9.64736
▁በፍርድ	-9.64746
▁ሁኑ	-9.64816
▁ይጠፋል	-9.64842
▁ኤሊ	-9.64886
▁ፊቱን	-9.64901
▁ከብዙ	-9.64951
▁ልባችሁ	-9.64992
▁የእኔ	-9.65016
ጣለች	-9.65094
▁ሬሳ	-9.65166
▁ነፍስህ	-9.65492
▁በመከራ	-9.65493
▁እስክት	-9.65766
▁ሆይ	-9.65939
▁ብላቴና	-9.65964
ቃጠል	-9.66192
▁ጠላቶች	-9.662
ላችኋለሁ	-9.66261
ጂ	-9.66398
▁በከተማ	-9.66481
▁ለአሕዛብ	-9.66506
▁ኃጢአታቸው	-9.66506
ኢዮስያስ	-9.66507
▁ሐሤት	-9.66507
▁ይናገራል	-9.66507
▁ታሪክ	-9.66511
▁ተቀምጠው	-9.66512
▁መምህር	-9.66515
▁በቤቴ	-9.66522
▁መንግሥቱ	-9.66522
▁ግምጃ	-9.66527
ቅረብ	-9.66637
ባርክ	-9.66654
▁አጸና	-9.66687
መልሱ	-9.6728
▁በሥራ	-9.67881
▁ሽማግሌ	-9.6819
▁ሥራቸው	-9.68316
▁ቸር	-9.68318
ሼ	-9.68325
▁ለያዕቆብ	-9.68325
▁ታደርጋለህ	-9.68325
▁የካህናት	-9.68325
▁በመካከል	-9.68325
▁ታውቃለህ	-9.68325
▁አይደለሁም	-9.68325
▁ከሙታን	-9.68327
▁ጠቢብ	-9.68328
▁ዘጠኝ	-9.68328
▁ሙታን	-9.68332
▁የአገሩ	-9.68334
ሳዶቅ	-9.68383
በደል	-9.68385
ታመኑ	-9.6844
▁በርሳችሁ	-9.68461
▁እልል	-9.68682
ገደሉ	-9.68727
▁የአሞን	-9.68814
ለዋል	-9.69018
ጨምር	-9.69027
▁የለውም	-9.6906
▁አትፍራ	-9.69255
▁ትቢያ	-9.69492
▁አጠፋለሁ	-9.69633
ሰበሰቡ	-9.69769
ያምኑ	-9.69814
ሾመ	-9.69895
▁መልእክተኞች	-9.70176
▁ይሄዳል	-9.70177
▁ከአንቺ	-9.70179
▁አይችልም	-9.70179
▁ጽዮን	-9.70182
▁በክፉ	-9.70209
▁ለራሱ	-9.70214
▁ቤቴ	-9.7022
▁መስገጃዎች	-9.70249
▁ሣር	-9.70297
▁ኢዩ	-9.70322
ዎቻቸው	-9.70381
ነግር	-9.70384
ፈስስ	-9.70569
▁ሽቱ	-9.70918
ወለድ	-9.71189
ባቸዋል	-9.71731
አባታቸው	-9.71813
ንፍታሌም	-9.72063
▁ምሥራቅ	-9.72063
▁ተአምራት	-9.72063
▁ከንጉሡ	-9.72063
▁ጲላጦስ	-9.72063
▁ጻድቃን	-9.72063
▁ያውቃል	-9.72065
▁መውጫ	-9.7209
▁በአባቱ	-9.72095
▁የሕይወት	-9.72107
▁በውጭ	-9.7214
▁ታናሽ	-9.7215
መሰክር	-9.72151
▁ሸሹ	-9.72181
ናወጥ	-9.72201
አታል	-9.72368
▁ላሉት	-9.72404
ወንድምህ	-9.72409
▁ውጣ	-9.73293
ነዚህ	-9.7356
ተቀመጡት	-9.73665
▁ኖረ	-9.7378
▁ለእያንዳንዱ	-9.73986
▁መላእክት	-9.73986
▁አለቆቹ	-9.7399
▁በለዓም	-9.73993
▁አትፍሩ	-9.73998
▁መሐላ	-9.73998
አንዲቱ	-9.74032
▁እጄን	-9.74065
▁ድንቅ	-9.74079
▁ሰንበት	-9.7421
▁ዋይ	-9.74297
▁ሸሸ	-9.74449
▁ያደረ	-9.74914
▁ብላችሁ	-9.74955
▁ይናገራሉ	-9.75947
▁ደብዳቤ	-9.75947
▁ኃያል	-9.75948
▁ግብፅ	-9.75948
▁አንሥቶ	-9.75948
▁ከአባቶቹ	-9.75949
▁ማስተዋል	-9.75951
▁ንስሐ	-9.75952
▁እግሮች	-9.75955
▁ዔሳው	-9.75962
▁ደሙን	-9.76076
ጠይቅ	-9.76119
▁የሞተ	-9.76261
▁መጡ፥	-9.76363
▁አምጡ	-9.76565
▁ኢዮ	-9.77063
ዣ	-9.77946
▁መዛሙርት	-9.77947
▁ሴዴቅያስ	-9.77947
▁ኢዮርብዓም	-9.77947
▁እለምንሃለሁ	-9.77947
▁ዕረፍት	-9.77947
▁ድንጋዮች	-9.77947
▁ጕልማሳ	-9.77947
▁በሐሰት	-9.77947
▁ትምህርት	-9.77947
▁በጽዮን	-9.77947
▁ተናግሮ	-9.77948
▁አይደሉም	-9.7795
ስምንተኛው	-9.7795
▁ፈሳሽ	-9.77952
▁ሸክም	-9.77994
▁ፊቴን	-9.78016
▁ሰምተው	-9.78018
▁ይሞታል	-9.78038
▁ብረት	-9.78111
▁መጡ፤	-9.78153
▁ሰጠው።	-9.784
▁ኢዮብ	-9.78413
▁እስካ	-9.78439
ሸከም	-9.78731
ፈረሱ	-9.7997
▁ለአብርሃም	-9.79988
▁አእምሮ	-9.79988
▁በውስጥ	-9.79992
▁ሕጉ	-9.80018
▁ስድብ	-9.80024
▁መሰምርያዋን፥	-9.80048
▁ከጥሩ	-9.80059
▁በሰላም	-9.80079
▁ወንድሙን	-9.80285
ከተሉ	-9.80349
ኢዮራም	-9.80534
መስል	-9.80877
ላከኝ	-9.81065
ኣ	-9.81946
ከነዓናውያን	-9.82071
▁መቅሠፍት	-9.82071
▁የአብርሃም	-9.82071
▁መዝሙር	-9.82071
▁በመቅደስ	-9.82071
▁ኤልሳዕ	-9.82071
▁ከዳዊት	-9.82071
▁አክዓብ	-9.82071
▁መንደሮች	-9.82071
▁ትሆናለህ	-9.82071
▁እጃቸውን	-9.82072
▁አንጻር	-9.82074
መላለስ	-9.82077
▁በጆሮ	-9.82079
ቤዠ	-9.82084
▁የእህል	-9.82103
▁ራሳችሁ	-9.8211
▁አየሁ፥	-9.82212
▁የቤቱ	-9.82267
▁ዓሣ	-9.82558
ሐዋርያት	-9.82772
ሰዶም	-9.83269
ቺ	-9.84134
▁ቋንቋ	-9.84199
▁ከወዴት	-9.84199
ኋለኛው	-9.84199
ጋለሞታ	-9.84199
▁በፈርዖን	-9.84199
▁መሠረት	-9.84199
▁ወንድሞቼ	-9.84199
▁በድንጋይ	-9.842
▁እንግዶች	-9.842
ጸልዩ	-9.84208
▁ተመልከት	-9.84213
▁ሕልም	-9.84215
ሻገሩ	-9.84215
▁ከወሩ	-9.8424
▁አዎን	-9.84305
ዘዛቸው	-9.84357
▁ገበታ	-9.84377
▁በእጄ	-9.84378
▁የሚመስል	-9.84556
▁ጸሐፊ	-9.84915
ለታል	-9.85016
ወሰድ	-9.85241
ኋ	-9.85334
ጣለሁ	-9.85372
ስተውል	-9.85479
▁እኵሌታ	-9.86373
▁ያገለግሉ	-9.86373
▁ለይሁዳ	-9.86373
▁የሞዓብ	-9.86373
▁ጮኸ።	-9.86373
ግልሙትና	-9.86373
▁ውኆች	-9.86373
▁የፈርዖን	-9.86373
▁የግብጽ	-9.86373
▁ለሰልፍ	-9.86373
▁በዘይት	-9.86373
▁ተመልሰው	-9.86374
▁መኖሪያ	-9.86375
▁ዓይነት	-9.86375
▁ስንፍና	-9.86376
▁በእርሻ	-9.86377
▁በዓለም	-9.8638
▁ምናሴ	-9.86398
አችኋል	-9.86434
▁ጫማ	-9.86452
▁አምስቱ	-9.86487
▁አበባ	-9.86559
ማረኩ	-9.86929
ቼአለሁ	-9.87117
▁ቀርቦ	-9.87196
ጥቂት	-9.88504
አርጤክስስ	-9.88595
ዢ	-9.88595
▁ሕፃኑ	-9.88595
▁እያንዳንዳቸው	-9.88595
▁የአይሁድ	-9.88595
▁የዮሴፍ	-9.88595
▁እግሮቹ	-9.88595
▁ሰይጣን	-9.88596
▁ሆኜ	-9.88596
▁ይሻላል	-9.88598
▁የእርሱ	-9.88601
እስማኤል	-9.88601
▁ልሔም	-9.88606
▁ይባላል	-9.88612
ኢዮአስ	-9.88617
ሚሆነው	-9.88622
▁አደረግሁ	-9.88656
▁ይጠፋሉ	-9.88738
ፈጽም	-9.89492
ወረደ	-9.89807
▁ሰረገላ	-9.90825
ሤ	-9.90867
ዓመፀኞች	-9.90868
▁መጠጊያ	-9.90868
▁ተናገራቸው።	-9.90868
▁ተጠንቀቁ	-9.90868
▁ታላላቆች	-9.90868
▁ከፍልስጥኤማውያን	-9.90868
▁የግብፅ	-9.90868
▁ማዕዘን	-9.90868
▁በሞዓብ	-9.90868
▁እናውቃለን	-9.90868
▁እናገራለሁ	-9.90868
▁በተቀደሰ	-9.90868
▁መንገሥ	-9.90868
▁በሁለቱ	-9.90868
▁ፍላጻ	-9.90869
▁ቁርበት	-9.90869
ይሳኮር	-9.90869
▁ሚስቶች	-9.9087
ፈልገው	-9.90875
▁በስውር	-9.90876
ሰነፎች	-9.90887
▁መልሰው	-9.90888
▁አምላካቸው	-9.90901
▁የውኃ	-9.90918
▁ሐሰት	-9.90928
▁ከሩቅ	-9.90937
ቈረጠ	-9.91043
ጠበቁ	-9.91064
▁ግብር	-9.9114
▁በሚኖሩ	-9.91204
▁ደጆች	-9.91206
ተወደደ	-9.91283
▁አውሬ	-9.91352
ማየት	-9.91824
እህሉ	-9.92268
መስማት	-9.92671
▁ከከተማ	-9.93168
ኜ	-9.93192
ኻ	-9.93193
ጴ	-9.93193
▁መናፍስት	-9.93193
▁ተግሣጽ	-9.93193
▁የከተማይቱ	-9.93193
▁አትክልት	-9.93194
▁የብንያም	-9.93194
▁እሆናለሁ	-9.93194
ጌልገላ	-9.93194
▁ተመልከቱ	-9.93195
▁አቅርቡ	-9.93195
▁ከብንያም	-9.93195
▁የአባቶቻቸው	-9.93195
▁በዓይን	-9.93196
▁ሲኦል	-9.93197
▁ቀርበው	-9.93199
ሠዉ	-9.93201
▁ጽኑዓን	-9.93202
▁የምናሴ	-9.93205
▁በሰልፍ	-9.93206
▁አድነኝ	-9.93213
ግሪክ	-9.93237
▁አቆመ	-9.93267
▁የተባለው	-9.93276
ላካቸው	-9.93284
ሸክላ	-9.93298
ጊዜው	-9.93419
▁አዘነ	-9.93469
▁በጎቹ	-9.94846
ብሃል	-9.95421
▁ቀለበቶች	-9.95574
▁በመቅደሱ	-9.95574
▁በኤፍሬም	-9.95574
▁የፍልስጥኤማውያን	-9.95574
▁ፈጽመው	-9.95574
▁ሙሽራ	-9.95575
▁እሰጥሃለሁ	-9.95575
▁ሚዛኑ	-9.95575
▁ሐሰተኛ	-9.95575
▁ክርክር	-9.95576
▁ብንያም	-9.95579
እያንዳንዳች	-9.95582
▁ሰገዱ	-9.95586
ተንኰል	-9.95589
▁በነጋው	-9.95591
▁ባረከ	-9.95598
▁ወድቆ	-9.95599
▁በሁለት	-9.95603
▁ስንዴ	-9.95604
▁ጓዳ	-9.95609
▁በደመና	-9.95617
▁ወተት	-9.95632
ቆሙት	-9.95652
▁ይወጣሉ	-9.95891
▁የቃል	-9.96028
መስሉ	-9.96163
▁ልመና	-9.97368
▁ምኞት	-9.98013
▁ሮብዓም	-9.98013
▁ትዕቢት	-9.98013
▁እኩሌታ	-9.98013
▁መገናኛው	-9.98013
▁አምስተኛው	-9.98013
▁የተለወሰ	-9.98013
▁ልጆቼ	-9.98013
▁ይወድቃል	-9.98014
▁የሌለበት	-9.98014
▁ጻፎች	-9.98015
▁በጀመረ	-9.98015
▁የተቈጠሩት	-9.98017
▁ጠማማ	-9.98028
▁ተነሥተህ	-9.98042
▁ተመለሱ።	-9.98056
▁በሕግ	-9.98089
▁ለአሮን	-9.98119
▁አየሁ፤	-9.98155
▁ይነሣል	-9.98165
▁ነገሮች	-9.98171
ባረክ	-9.98182
ገልግ	-9.98209
▁ፈጥኖ	-9.98242
▁አብረው	-9.98267
ተከተሉ	-9.98669
ቈጠር	-9.98916
ሰናክ	-9.99857
ኚ	-10.0051
▁በየአባቶቻቸው	-10.0051
▁ከፀሐይ	-10.0051
▁ዓይኖቹ	-10.0051
▁ዘካርያስ	-10.0051
▁ድንኳኑ	-10.0051
አሜስያስ	-10.0051
▁አታድርጉ	-10.0051
▁አክሊል	-10.0051
▁መዝገብ	-10.0051
▁ኀዘን	-10.0051
▁ወንድሞቻቸው	-10.0051
▁ደርሶአል	-10.0051
▁ይሄዳሉ	-10.0051
መልአኩ	-10.0051
▁አቤሜሌክ	-10.0051
▁ሰባተኛው	-10.0052
▁አስቀድመ	-10.0052
▁በማለዳ	-10.0053
▁እፍረት	-10.0053
▁አሦር	-10.0055
▁ቅድስ	-10.0055
ተሰወረ	-10.0055
▁እረኛ	-10.0057
▁በላዬ	-10.0057
▁በመካከላችሁ	-10.006
▁ጻፈ	-10.0062
ወገኑ	-10.0143
ተቀበለ	-10.0143
▁መጥቶአል	-10.0194
ቀበለው	-10.0262
▁መሰምርያዋ	-10.03
መወርወሪያ	-10.0308
ጼ	-10.0308
▁መጋረጆች	-10.0308
▁ማኅበሩ	-10.0308
▁ሶርያውያን	-10.0308
▁ተሰብስበው	-10.0308
▁ትእዛዙን	-10.0308
▁አባቶቻችን	-10.0308
▁ኢሳይያስ	-10.0308
▁ድንጋጤ	-10.0308
▁ሁላችን	-10.0308
▁ገለዓድ	-10.0308
ዓዛርያስ	-10.0308
▁አልቻሉም	-10.0308
▁መታሰቢያ	-10.0308
▁በሦስት	-10.0308
ታላቂቱ	-10.0308
▁ይመለሳል	-10.0308
▁የተመረጡ	-10.0308
▁ያድርግ	-10.0308
▁በናያስ	-10.0309
ነጋገር	-10.0309
▁አባቶቻቸው	-10.0309
▁እንደሆነ	-10.0309
▁በደረሰ	-10.031
▁ደቡብ	-10.0311
▁እጥፍ	-10.0314
▁ክንፍ	-10.0315
▁በረዶ	-10.0317
▁ነገዶች	-10.0318
ገልጥ	-10.0325
▁ሆንህ	-10.0329
ሚቃጠለው	-10.0329
አምላኬ	-10.033
▁ይበላሉ	-10.0333
ውረድ	-10.0373
▁በመጀመሪያ	-10.046
ረዋል	-10.0478
ባችኋል	-10.0554
ላካችሁ	-10.0569
▁ምሥጢር	-10.0571
▁በምዕራብ	-10.0571
▁በተራራማው	-10.0571
▁በኵራት	-10.0571
ጺ	-10.0571
▁ሰበሰበ	-10.0571
▁በዙፋኑ	-10.0571
▁አይደለችም	-10.0571
▁ያደርጋሉ	-10.0571
▁እመልሳለሁ	-10.0571
▁ከነበሩት	-10.0571
ወንድሞቻችሁ	-10.0571
▁ጀመረ	-10.0571
▁በፍቅር	-10.0572
▁የሶርያ	-10.0572
▁በሰማያት	-10.0572
▁ተመለከተ	-10.0572
▁ተቀበረ	-10.0572
▁አለቀሰ	-10.0572
▁አዘዛቸው።	-10.0573
▁ገመድ	-10.0573
▁ቃሎች	-10.0573
▁ቀበሩት	-10.0574
▁ጻፍ	-10.0577
▁ገዥ	-10.0577
▁የእህሉን	-10.0579
▁ጫፍ	-10.0579
▁አውቆ	-10.0582
▁ወዳጆች	-10.0584
▁በስሜ	-10.0584
ከለክ	-10.0589
▁ሄዱ፤	-10.0591
▁አይሁን	-10.0592
▁አጥብ	-10.0594
▁ርጉ	-10.0597
ቆሙ።	-10.0625
▁ብሩን	-10.0633
ፈለገ	-10.0633
ይደለ	-10.0645
ድርጋችሁ	-10.0674
ዥ	-10.0835
▁በሕዝቤ	-10.0841
▁ከኢየሱስ	-10.0841
▁ኮረብታ	-10.0841
ኢዮአቄም	-10.0841
ቅዱሳኑ	-10.0841
▁ራሔል	-10.0841
▁የሮቤል	-10.0841
▁ሕፃን	-10.0841
▁መጻተኛ	-10.0841
▁ያልሆነ	-10.0841
▁የሚበልጥ	-10.0842
▁የአባቶች	-10.0842
▁ሞልቶ	-10.0842
▁በፊታችሁ	-10.0842
ተቀረጸ	-10.0842
▁ገለባ	-10.0844
▁አታውቁም	-10.0849
ከማቹ	-10.085
ካሌብ	-10.0851
▁ሰሜን	-10.0852
ጠይቁ	-10.0858
▁ሰጥቼ	-10.087
ሌለባቸው	-10.0925
▁ምስክሮች	-10.1119
▁በአምላካችን	-10.1119
▁ከዘላለም	-10.1119
▁ኪሩቤል	-10.1119
▁ሶምሶን	-10.1119
▁በአምላክህ	-10.1119
▁ወንዞች	-10.1119
▁የጽድቅ	-10.1119
▁ዓመፅ	-10.1119
▁የንጉሥ	-10.1119
▁የጽዮን	-10.1119
ተላለፍ	-10.1119
▁ፈረሰኞች	-10.1119
▁ያቀርቡ	-10.1119
▁ምስሎች	-10.1119
ጨነቁ	-10.112
ከተሞቻቸው	-10.112
▁ተቈጥ	-10.112
▁ከሁለት	-10.1121
▁እወቁ	-10.1121
▁ለነበሩ	-10.1123
▁አይገኝም	-10.1124
▁የአባትህ	-10.1124
▁የተስፋ	-10.1126
▁ለምድር	-10.1129
▁ርስቱ	-10.1132
▁ይለኛል	-10.1157
ጠላቶችህ	-10.1169
▁ተከተለ	-10.1258
▁ሐዋርያ	-10.1309
▁ምዕራብ	-10.1405
▁አደርገዋለሁ	-10.1405
▁ከኤፍሬም	-10.1405
▁ዓይኖቼ	-10.1405
▁ታቀርባላችሁ	-10.1405
▁ነበልባል	-10.1405
▁መንገዳቸው	-10.1405
▁በንጉሥ	-10.1405
▁ሀብት	-10.1405
▁የተቀመጠ	-10.1405
▁ይወስዳል	-10.1405
▁ቁመቱ	-10.1405
▁ኃፍረ	-10.1405
▁በተራራው	-10.1405
▁የክብር	-10.1406
▁በክብር	-10.1406
▁አጥንት	-10.1407
▁ቂጣ	-10.1408
▁ንገሩ	-10.1408
▁ምግብ	-10.141
▁አካዝ	-10.141
▁ድካም	-10.1413
▁ትላለህ	-10.1417
▁ዋሻ	-10.1419
ሥጋዬ	-10.1421
▁ያጸና	-10.145
ዮሐንስ	-10.1457
ነገሥታት	-10.1457
▁ቃላ	-10.1465
ሚባለው	-10.1568
ከማች	-10.1617
▁ሄሮድስ	-10.1699
▁ብፁዓን	-10.1699
▁አንዳንዶቹ	-10.1699
▁ኬብሮን	-10.1699
▁የኤፍሬም	-10.1699
▁ለፈርዖን	-10.1699
▁ራእዩ	-10.1699
▁ለእህል	-10.1699
▁ወስደህ	-10.1699
▁ለሌሎች	-10.1699
▁በተራሮች	-10.1699
▁ድሆች	-10.1699
እንቅልፍ	-10.1699
▁በነገሠ	-10.1699
▁ከሀያ	-10.17
▁ከሰሜን	-10.1701
▁ከከተማይቱ	-10.1702
▁ትበላላችሁ	-10.1702
መስለው	-10.1704
▁በአልጋ	-10.1704
በተኑ	-10.171
ስተሰር	-10.1715
አብያተ	-10.1715
ዋለች	-10.1778
ደዋል	-10.1857
▁ቀርቦአል	-10.189
▁እንደሌለ	-10.1941
▁መጐናጸፊያ	-10.2002
▁ቍርባናቸው	-10.2002
ኢይዝራኤል	-10.2002
▁መልእክተኛ	-10.2002
ማገልገል	-10.2002
▁አንዳንዶች	-10.2002
▁በነቢዩ	-10.2002
▁የተባረከ	-10.2002
▁ግብዣ	-10.2002
ያመሰግኑ	-10.2002
▁በስፍራው	-10.2002
ቀጠቀጠ	-10.2002
▁ይኖራሉ	-10.2002
▁መሣሪያ	-10.2002
▁እንሂድ	-10.2002
▁ቍስል	-10.2002
▁ፊተኛው	-10.2002
▁ውሰዱ	-10.2002
ያመልኩ	-10.2002
▁ዕንቍ	-10.2002
▁ከአሥር	-10.2003
ሽንገላ	-10.2003
▁በጥበብ	-10.2003
▁በሀያ	-10.2003
▁ልብሳቸውን	-10.2003
ጭንቀት	-10.2004
▁ለሰማይ	-10.2004
▁ምስጉ	-10.2004
▁የሌለው	-10.2004
▁ዕውር	-10.2004
▁ተከተሉት	-10.2012
▁ናታን	-10.202
ወስዱ	-10.2068
ያለሽ	-10.2247
▁የሥጋ	-10.2251
መንደሮቻቸው	-10.2314
ጎዶልያስ	-10.2314
ጬ	-10.2314
▁መዝጊያ	-10.2314
▁ርዝመት	-10.2314
▁ሰልፈኞች	-10.2314
▁በገለዓድ	-10.2314
▁ባለጠግነት	-10.2314
▁ክርስቲያናት	-10.2314
▁ድምፃቸው	-10.2314
▁ፈጽመህ	-10.2314
▁ፊልጶስ	-10.2314
▁ተለይቶ	-10.2314
▁አዕማድ	-10.2314
▁አዘጋጁ	-10.2314
መቅረዙ	-10.2315
▁ዓመታት	-10.2315
▁ምድራቸው	-10.2315
▁አህዮች	-10.2316
▁ከጥንት	-10.2316
▁ታናሹ	-10.2316
▁ድንበሩ	-10.2316
ኤፉዱ	-10.2317
ዘመናት	-10.2318
▁ርስታቸው	-10.2318
ሰበስብ	-10.232
▁ለሁሉ	-10.233
ያስተውሉ	-10.2338
▁ለሌላ	-10.238
ዮናታን	-10.2395
ብላቴናይቱ	-10.2409
ነዋል	-10.2453
▁መዛግብት	-10.2637
▁ማኅፀን	-10.2637
▁በማደሪያው	-10.2637
▁በሸለቆው	-10.2637
▁በየወገኖቻቸው	-10.2637
▁ትእዛዜን	-10.2637
▁ቸነፈር	-10.2637
▁ችግረኛ	-10.2637
▁ኃጢአቱ	-10.2637
▁ኤዶምያስ	-10.2637
▁እናደርጋለን	-10.2637
▁ንገራቸው።	-10.2637
ነጋገሩ	-10.2637
▁ባደረገ	-10.2637
▁በእጃችሁ	-10.2637
▁የእናንተ	-10.2637
መላለሱ	-10.2637
ስርየት	-10.2637
▁በግዞት	-10.2637
▁አድርጌአለሁ	-10.2637
▁ጨረቃ	-10.2637
▁አላወቁ	-10.2637
▁ይቀበላል	-10.2638
▁ጸለየ	-10.2638
▁አለቀሱ	-10.2638
▁ዓይኑ	-10.2638
▁ርግብ	-10.2638
▁ይቀመጣል	-10.2638
▁አንበጣ	-10.2638
መንፈሴ	-10.2639
መንጎች	-10.2639
▁ያልፋል	-10.2639
▁ግርማ	-10.264
▁በዕጣ	-10.2641
▁ታያለህ	-10.2641
▁ስጠኝ	-10.2644
ያለቅሱ	-10.2651
አቤሴሎም	-10.2728
ጻድቅ	-10.273
እግሬ	-10.2737
ኃጢአተኛ	-10.2816
▁አድርጋ	-10.2842
ካለችው	-10.2916
▁ለሌዋውያን	-10.297
▁በኢያሪኮ	-10.297
▁ትእዛዛት	-10.297
▁ከመጀመሪያ	-10.297
▁ከምሥራቅ	-10.297
▁የገለዓድ	-10.297
▁ድምፁን	-10.297
ኬጢያዊ	-10.297
▁ሥርዓቴን	-10.297
▁የአምላካችን	-10.297
▁ምናምንቴ	-10.297
▁ከለዳውያን	-10.297
▁የፊተኛው	-10.297
▁አፈሰሰ	-10.297
▁አኖራለሁ	-10.297
▁ገሊላ	-10.297
▁ባሕሩ	-10.2971
▁የለበሰ	-10.2971
▁ቅንዓት	-10.2971
▁እጆቹ	-10.2971
▁ነደደ	-10.2972
▁አገሮች	-10.2973
▁ምድሩን	-10.2973
▁የሙሴ	-10.2973
▁አደረግህ	-10.2973
▁አባታችሁ	-10.2973
▁ይገባዋል	-10.2975
▁ሠሪ	-10.2987
▁ትላላችሁ	-10.2992
ደረቀ	-10.3067
ኤርምያስ	-10.3073
እውቀት	-10.3076
ወንድሞች	-10.3244
▁መስገጃ	-10.3302
ዮፍታሔ	-10.3315
▁መሎጊያዎቹ	-10.3315
▁ቅርንጫፎች	-10.3315
▁ተናግሬአለሁ	-10.3315
▁ከባቢሎን	-10.3315
▁የኮረብታ	-10.3315
ጲ	-10.3315
▁በሳኦል	-10.3315
▁በአይሁድ	-10.3315
▁በአራተኛው	-10.3315
▁ኃይሉ	-10.3315
▁ጠቢባን	-10.3315
▁ቡቃያ	-10.3315
▁በብንያም	-10.3315
▁አይደላችሁም	-10.3315
አብያታር	-10.3315
▁ያድርጉ	-10.3315
▁ታደርጉ	-10.3315
▁ሴኬም	-10.3316
▁የራሱን	-10.3316
▁ሸማያ	-10.3316
▁ዘመኑ	-10.3316
▁ለድሀ	-10.3316
▁የመጠጥ	-10.3317
▁መብራት	-10.3317
▁እንደዚሁ	-10.3317
▁በአገሩ	-10.3317
▁አዋጅ	-10.3318
▁አሥሩ	-10.3318
▁በእግር	-10.3318
ሰበሰባ	-10.3324
ዲያብሎስ	-10.3672
▁በኃጢአት	-10.3672
▁እስትንፋስ	-10.3672
▁ኮረብቶች	-10.3672
▁ሊባኖስ	-10.3672
▁በድንኳኑ	-10.3672
▁ተጠንቀቅ	-10.3672
▁ትንሣኤ	-10.3672
▁ለካህኑ	-10.3672
▁መርከቦች	-10.3672
▁መቀመጫ	-10.3672
ኢያቢስ	-10.3672
▁በላያችን	-10.3672
▁ዮዳሄ	-10.3672
▁ብዝበዛ	-10.3672
▁በነቢያት	-10.3672
▁ዕውሮች	-10.3672
▁ሐናንያ	-10.3672
▁ያቀርባል	-10.3672
▁ድንገት	-10.3672
▁መያዣ	-10.3672
▁ራሳችን	-10.3672
▁አላውቅም	-10.3672
▁ተከትለው	-10.3673
▁መርከብ	-10.3673
▁ይቀመጣሉ	-10.3673
▁ከፊቴ	-10.3673
▁ከምናሴ	-10.3673
▁በአባቴ	-10.3673
▁ተኝቶ	-10.3674
▁የተነገረ	-10.3675
▁እሾህ	-10.3676
መሰከረ	-10.3676
▁ይሰጠዋል	-10.3677
▁አካሄ	-10.3682
ሁለተኛው	-10.3693
ጦርነት	-10.3761
▁ሦስተኛ	-10.3784
ወገኔ	-10.389
መሥዋዕቱ	-10.4043
መቄዶንያ	-10.4043
መጻሕፍት	-10.4043
ፍልስጥኤም	-10.4043
▁በፍልስጥኤማውያን	-10.4043
▁አመሰግንሃለሁ	-10.4043
▁እንግዲያስ	-10.4043
▁ከመስፈሪያው	-10.4043
▁ከኃጢአት	-10.4043
▁ጣዖታት	-10.4043
▁የድንጋይ	-10.4043
▁ይመለሳሉ	-10.4043
▁እርግማን	-10.4043
▁የዔሳው	-10.4043
▁ፈጽሜ	-10.4043
ጫፎቹ	-10.4043
▁ድንግል	-10.4043
ኤርትራ	-10.4043
▁የወይኑ	-10.4043
▁የእውነት	-10.4043
▁ከአባቴ	-10.4043
▁ሰማያዊ	-10.4044
▁ለአባቱ	-10.4045
ሰረገላው	-10.405
▁አወቅሁ	-10.4051
▁ይገድሉ	-10.4051
ተቀበላችሁ	-10.4067
መከራዬ	-10.4425
ከማቸ	-10.4427
ኆ	-10.4427
▁በባልንጀራ	-10.4427
▁በኮረብታ	-10.4427
▁ቤርሳቤህ	-10.4427
▁ቦዔዝ	-10.4427
▁ነጋዴዎች	-10.4427
▁አገልጋይ	-10.4427
▁ከሌዋውያን	-10.4427
▁ከወንድሞቹ	-10.4427
▁የመቅደሱ	-10.4427
▁መሳፍንት	-10.4427
▁ቍጥራቸው	-10.4427
▁ፍልስጥኤማዊ	-10.4427
▁ለሳኦል	-10.4427
▁ለአምላክህ	-10.4427
▁ከፈርዖን	-10.4427
▁የዘበኞቹ	-10.4427
▁ለሕዝብ	-10.4427
▁ጥቂቶች	-10.4427
▁ከሁለቱ	-10.4427
▁የነቢያት	-10.4427
▁መክደኛ	-10.4427
▁የባሕር	-10.4427
▁በሕያው	-10.4427
▁አይደለህም	-10.4427
▁ይሞታሉ	-10.4427
▁ሕሊና	-10.4427
▁አውድማ	-10.4427
▁አሞራውያን	-10.4427
▁እንኪያስ	-10.4427
▁ሄዳችሁ	-10.4428
▁ፈቃዱ	-10.4428
▁ባለጠጋ	-10.4428
▁ቅጥሩ	-10.4428
ሌሎቹ	-10.4428
ቀረጹ	-10.4429
አንበሶች	-10.4431
ማንሣት	-10.4434
ቀደመው	-10.4436
የስማቸው	-10.4444
ተረፈው	-10.4503
▁ሌሊቱን	-10.4827
▁በኬብሮን	-10.4827
▁አላገኘሁ	-10.4827
▁አገልጋዮች	-10.4827
▁እሰጣቸዋለሁ	-10.4827
▁ከያዕቆብ	-10.4827
ሚያገለግሉ	-10.4827
▁ሚክያስ	-10.4827
▁በዕድሜ	-10.4827
▁ከሳኦል	-10.4827
▁አቁማዳ	-10.4827
▁ኦርዮ	-10.4827
▁ጻድቁ	-10.4827
▁ለንጉሥ	-10.4827
▁በዘመኑ	-10.4827
▁የዘንባባ	-10.4827
መጥመቂያ	-10.4827
አስጨናቂ	-10.4827
▁በመንገዱ	-10.4827
▁የሕዝብ	-10.4827
ኢዮአታም	-10.4827
▁ሕልሙ	-10.4827
▁አውጥቶ	-10.4827
▁መንፈሱ	-10.4827
▁ለአባቶቻቸው	-10.4827
ፊንሐስ	-10.4827
▁በውስጡ	-10.4827
▁ብድራት	-10.4827
ባሪያዎቼ	-10.4827
▁አካዝያስ	-10.4828
ዕብራውያን	-10.4828
▁ጕልላ	-10.4828
▁አትሥሩ	-10.4828
ራፋይም	-10.4828
ሰንሰለት	-10.4828
ሰሜኢ	-10.4829
ልመናዬ	-10.4962
አውሬው	-10.5179
ማስተስረያ	-10.5244
ንቀጠቀጡ	-10.5244
ዤ	-10.5244
▁ለአምላካችን	-10.5244
▁ቈነጃጅት	-10.5244
▁በአደባባይ	-10.5244
▁በደማስቆ	-10.5244
▁ኃጢአታችሁ	-10.5244
▁ንጹሐን	-10.5244
▁እሰጣችኋለሁ	-10.5244
▁ወይፈኖች	-10.5244
▁የይስሐቅ	-10.5244
▁የጻድቃን	-10.5244
▁ፀነሰች	-10.5244
ትዕቢተኞች	-10.5244
▁ተባባሉ።	-10.5244
▁ታደርጋላችሁ	-10.5244
▁አማካሪ	-10.5244
▁ድንጋዩ	-10.5244
▁ገንዘቡ	-10.5244
ሢ	-10.5679
ቾ	-10.6133
ሓ	-10.6609
ፄ	-10.7636
ጶ	-10.8779
ኹ	-11.0069
ኽ	-11.0783
ጰ	-11.1555
ጱ	-11.1555
ቧ	-11.2388
ፕ	-11.2388
ኺ	-11.4297
*	-11.6658
1	-11.6658
ፆ	-11.6658
v	-11.8087
ዉ	-11.8618
ዠ	-11.9743
"	-11.9753
l	-11.9753
ፓ	-11.9753
ፐ	-11.9753
2	-12.1753
s	-12.1753
D	-12.4253
3	-12.7587
]	-12.7587
o	-12.7587
e	-13.2587
ዷ	-13.2587
)	-13.2587
-	-13.2587
A	-13.2587
ቊ	-13.2587
5	-13.2587
ፂ	-13.2587
(	-14.2564
ፒ	-14.2565
ፑ	-14.2566
[	-14.2567
ሷ	-14.2568
d	-14.2569
T	-14.257
ፔ	-14.2571
k	-14.2572
ኾ	-14.2573
r	-14.2574
ኄ	-14.2575
g	-14.2576
K	-14.2577
ዡ	-14.2578
ዦ	-14.2579
ኡ	-14.258
W	-14.2581
ፁ	-14.2582
ዐ	-14.2583
ኘ	-14.2584
ኵ	-14.2585
ኅ	-14.2586
b	-14.2587
0	-14.2587
4	-14.2587
@	-14.2587
m	-14.2587
u	-14.2587
ሏ	-14.2587
ቷ	-14.2587
ቿ	-14.2587
ኗ	-14.2587
ኞ	-14.2587
ኟ	-14.2587
ኲ	-14.2587
ኼ	-14.2587
ጒ	-14.2587
ጧ	-14.2587
ፏ	-14.2587
