<pad>	0
</s>	0
<unk>	0
▁ا	-0
▁ال	-1
▁و	-2
▁م	-3
▁ف	-4
▁ل	-5
▁ي	-6
▁ب	-7
ان	-8
ال	-9
▁ع	-10
ين	-11
▁ك	-12
▁في	-13
ون	-14
وا	-15
▁ت	-16
▁من	-17
رب	-18
ما	-19
لا	-20
▁ان	-21
▁ق	-22
▁ه	-23
را	-24
ها	-25
هم	-26
▁وا	-27
نا	-28
▁الم	-29
لك	-30
ذا	-31
▁ح	-32
يا	-33
▁س	-34
▁عل	-35
▁الى	-36
ار	-37
▁الرب	-38
▁ج	-39
▁وال	-40
كم	-41
يل	-42
▁ن	-43
لم	-44
▁لا	-45
يم	-46
▁اس	-47
دا	-48
▁ر	-49
يت	-50
▁الذ	-51
▁الا	-52
▁ش	-53
▁على	-54
ير	-55
▁كل	-56
▁لان	-57
ول	-58
ني	-59
▁خ	-60
▁اب	-61
تي	-62
ور	-63
له	-64
مي	-65
يد	-66
ائ	-67
قال	-68
▁ص	-69
▁الس	-70
عل	-71
اب	-72
ري	-73
ئيل	-74
▁وك	-75
رج	-76
▁عن	-77
▁لي	-78
مع	-79
▁الذي	-80
اء	-81
▁الش	-82
عب	-83
▁الي	-84
ود	-85
▁قد	-86
عد	-87
وم	-88
▁.	-89
▁مع	-90
▁وي	-91
وت	-92
رائيل	-93
ذه	-94
مل	-95
▁بن	-96
▁اسرائيل	-97
وب	-98
▁ث	-99
ية	-100
▁وم	-101
قد	-102
وس	-103
▁الب	-104
حد	-105
▁وت	-106
▁لل	-107
▁الج	-108
▁ار	-109
ام	-110
كون	-111
▁اي	-112
▁ول	-113
▁بال	-114
▁اخ	-115
▁وب	-116
▁الك	-117
▁ولا	-118
▁الله	-119
▁يس	-120
ضا	-121
ته	-122
▁الار	-123
جل	-124
▁هو	-125
▁يا	-126
تم	-127
▁ما	-128
هو	-129
ميع	-130
▁كان	-131
▁آ	-132
▁لم	-133
▁فا	-134
▁له	-135
مر	-136
▁علي	-137
▁هذا	-138
وع	-139
▁أ	-140
▁الح	-141
▁وس	-142
▁فقال	-143
كن	-144
لب	-145
▁وج	-146
▁الارض	-147
كل	-148
▁د	-149
▁التي	-150
▁ذ	-151
▁اله	-152
▁بيت	-153
فس	-154
▁اع	-155
عة	-156
نة	-157
عا	-158
▁اما	-159
دي	-160
▁يق	-161
▁ط	-162
بي	-163
رة	-164
با	-165
▁غ	-166
رف	-167
لام	-168
بر	-169
▁وان	-170
▁ايضا	-171
▁ملك	-172
▁الع	-173
خل	-174
▁وقال	-175
▁الف	-176
▁يع	-177
تك	-178
▁وع	-179
▁وق	-180
▁انا	-181
تى	-182
▁قائ	-183
▁الملك	-184
▁جميع	-185
▁لك	-186
سل	-187
سي	-188
ست	-189
صر	-190
سب	-191
▁الذين	-192
وح	-193
▁او	-194
نع	-195
في	-196
مة	-197
▁يد	-198
▁قال	-199
▁وكان	-200
بل	-201
وه	-202
رق	-203
▁دا	-204
يس	-205
اه	-206
جد	-207
▁به	-208
كر	-209
▁ثم	-210
▁الق	-211
يام	-212
▁لانه	-213
ذهب	-214
خذ	-215
▁الخ	-216
مس	-217
سان	-218
▁عند	-219
حا	-220
دين	-221
▁بني	-222
▁بل	-223
ليم	-224
▁ابن	-225
هر	-226
شر	-227
▁امام	-228
كذا	-229
فر	-230
▁ام	-231
وق	-232
▁يهو	-233
▁فت	-234
▁واحد	-235
ضع	-236
▁اق	-237
▁اليوم	-238
يين	-239
▁با	-240
▁هكذا	-241
بع	-242
▁ارض	-243
▁الن	-244
طي	-245
▁ومن	-246
ماء	-247
سا	-248
▁لهم	-249
▁داود	-250
خر	-251
▁الشعب	-252
▁هنا	-253
▁فان	-254
رك	-255
▁انت	-256
رع	-257
▁ون	-258
▁فل	-259
اد	-260
فت	-261
▁اح	-262
▁يسوع	-263
▁كما	-264
▁ز	-265
▁رب	-266
▁هذه	-267
▁الآ	-268
▁وكل	-269
تل	-270
▁ولك	-271
▁قائلا	-272
رت	-273
مه	-274
كان	-275
ذب	-276
وسى	-277
▁بعد	-278
▁الص	-279
▁حتى	-280
▁وص	-281
ورش	-282
▁تع	-283
▁اذ	-284
▁وح	-285
قل	-286
▁ذلك	-287
دينة	-288
به	-289
▁يكون	-290
ورشليم	-291
▁كث	-292
▁الر	-293
▁تح	-294
▁يهوذا	-295
▁نفس	-296
▁واما	-297
▁اج	-298
قط	-299
▁يقول	-300
خرج	-301
▁وفي	-302
ظر	-303
▁ين	-304
▁رج	-305
دم	-306
ساء	-307
▁ولم	-308
بت	-309
▁موسى	-310
▁اورشليم	-311
▁يح	-312
▁عب	-313
▁هناك	-314
فا	-315
▁را	-316
▁الت	-317
يه	-318
▁ولكن	-319
▁ليس	-320
▁بين	-321
فع	-322
▁الام	-323
وك	-324
يمة	-325
▁انه	-326
▁هي	-327
▁الغ	-328
يرة	-329
نت	-330
يق	-331
▁اش	-332
▁حسب	-333
حم	-334
▁وه	-335
ات	-336
▁شي	-337
▁امر	-338
زل	-339
▁عين	-340
لاث	-341
▁النا	-342
سم	-343
دن	-344
▁لكي	-345
▁بنو	-346
رون	-347
ضرب	-348
كلم	-349
ئة	-350
لق	-351
مال	-352
▁نح	-353
▁اليه	-354
▁يت	-355
▁لكم	-356
يف	-357
يب	-358
▁سب	-359
▁شعب	-360
طر	-361
ذلك	-362
يون	-363
▁الان	-364
ريق	-365
▁عليه	-366
كت	-367
وج	-368
حة	-369
▁بع	-370
▁قلب	-371
▁حين	-372
سيح	-373
▁مصر	-374
من	-375
▁عظ	-376
▁الث	-377
ينا	-378
▁عش	-379
▁اص	-380
▁رأ	-381
▁شا	-382
راء	-383
▁نا	-384
▁رجل	-385
فعل	-386
▁الرج	-387
▁باب	-388
▁قل	-389
▁ايام	-390
▁اذا	-391
▁وش	-392
طا	-393
▁يش	-394
▁سمع	-395
وف	-396
▁لت	-397
بة	-398
وات	-399
▁وخ	-400
أة	-401
▁لما	-402
▁المدينة	-403
▁يم	-404
آب	-405
▁مح	-406
▁اجل	-407
وة	-408
ثل	-409
ذبح	-410
▁تق	-411
ضة	-412
دخل	-413
▁يو	-414
▁الاب	-415
▁وجه	-416
اني	-417
▁اني	-418
قدس	-419
ياء	-420
▁المسيح	-421
▁اث	-422
حر	-423
▁بها	-424
▁وعل	-425
▁للرب	-426
خا	-427
▁وسط	-428
تها	-429
▁يوم	-430
▁احد	-431
يرا	-432
شا	-433
▁	-434
ا	-435
ل	-436
ي	-437
و	-438
م	-439
ن	-440
ر	-441
ب	-442
ه	-443
ع	-444
ت	-445
ك	-446
ف	-447
س	-448
د	-449
.	-450
ق	-451
ح	-452
ج	-453
ة	-454
ذ	-455
ش	-456
خ	-457
ى	-458
ص	-459
ط	-460
ض	-461
ئ	-462
ث	-463
ّ	-464
ز	-465
أ	-466
ء	-467
غ	-468
آ	-469
ظ	-470
ؤ	-471
إ	-472
*	-473
ـ	-474
-	-475
ً	-476
(	-477
)	-478
I	-479
:	-480
1	-481
2	-482
[	-483
]	-484
h	-485
o	-486
5	-487
6	-488
J	-489
T	-490
i	-491
m	-492
n	-493
t	-494
y	-495
ٍ	-496
