<pad>	0
</s>	0
<unk>	0
▁t	-0
▁a	-1
in	-2
he	-3
re	-4
▁c	-5
on	-6
▁s	-7
▁o	-8
▁the	-9
at	-10
er	-11
ou	-12
es	-13
▁w	-14
ed	-15
nd	-16
or	-17
▁p	-18
en	-19
▁f	-20
it	-21
al	-22
▁d	-23
is	-24
ing	-25
▁in	-26
▁to	-27
▁m	-28
▁b	-29
▁of	-30
an	-31
as	-32
▁and	-33
▁h	-34
ar	-35
ic	-36
ion	-37
om	-38
▁re	-39
ov	-40
▁y	-41
▁n	-42
id	-43
le	-44
▁you	-45
ct	-46
ent	-47
ve	-48
il	-49
us	-50
ir	-51
▁e	-52
▁th	-53
os	-54
▁be	-55
ot	-56
ac	-57
ly	-58
▁T	-59
ol	-60
▁g	-61
▁v	-62
▁ha	-63
▁for	-64
▁l	-65
▁de	-66
ay	-67
ation	-68
▁cov	-69
19	-70
▁on	-71
ur	-72
op	-73
▁or	-74
im	-75
▁con	-76
▁is	-77
ith	-78
tr	-79
▁your	-80
▁2	-81
ow	-82
▁with	-83
ect	-84
if	-85
ut	-86
▁we	-87
-19	-88
ch	-89
▁as	-90
▁covid	-91
▁The	-92
her	-93
ce	-94
▁st	-95
▁pr	-96
est	-97
ig	-98
th	-99
ill	-100
▁an	-101
▁are	-102
ers	-103
▁u	-104
▁cas	-105
ort	-106
▁I	-107
▁that	-108
▁r	-109
et	-110
▁1	-111
irus	-112
▁fr	-113
▁have	-114
▁wh	-115
se	-116
ment	-117
▁ch	-118
▁not	-119
ive	-120
▁cases	-121
▁tr	-122
mp	-123
▁al	-124
ies	-125
▁he	-126
ul	-127
ad	-128
▁A	-129
▁res	-130
▁from	-131
ther	-132
ta	-133
fect	-134
ld	-135
port	-136
▁(	-137
st	-138
um	-139
▁se	-140
ver	-141
▁sh	-142
▁were	-143
ome	-144
ess	-145
ate	-146
ter	-147
cov	-148
▁cou	-149
▁dis	-150
▁it	-151
ab	-152
od	-153
ath	-154
▁at	-155
ak	-156
am	-157
res	-158
pp	-159
ial	-160
▁ne	-161
ore	-162
and	-163
em	-164
ary	-165
oc	-166
▁su	-167
ople	-168
ity	-169
ine	-170
iv	-171
▁can	-172
▁20	-173
▁sy	-174
el	-175
▁test	-176
are	-177
ud	-178
eople	-179
▁cl	-180
alth	-181
▁ex	-182
▁will	-183
▁by	-184
ions	-185
▁virus	-186
▁wor	-187
▁was	-188
▁health	-189
▁people	-190
▁S	-191
un	-192
▁us	-193
▁death	-194
▁un	-195
qu	-196
▁sp	-197
▁com	-198
▁other	-199
ans	-200
ated	-201
▁C	-202
ical	-203
▁report	-204
ge	-205
ars	-206
ose	-207
mpt	-208
▁ad	-209
ain	-210
igh	-211
▁inc	-212
acc	-213
av	-214
vel	-215
eas	-216
▁out	-217
▁pre	-218
▁if	-219
ant	-220
ber	-221
▁infect	-222
og	-223
▁conta	-224
ub	-225
mptom	-226
▁has	-227
▁le	-228
▁coun	-229
▁who	-230
▁vacc	-231
ib	-232
▁j	-233
▁app	-234
▁k	-235
▁im	-236
ents	-237
ould	-238
▁been	-239
▁deaths	-240
▁fe	-241
ild	-242
oron	-243
▁reported	-244
▁O	-245
▁do	-246
▁may	-247
ied	-248
ost	-249
▁If	-250
▁symptom	-251
ous	-252
▁ab	-253
end	-254
ace	-255
▁W	-256
ia	-257
out	-258
art	-259
▁af	-260
hen	-261
oronav	-262
act	-263
our	-264
▁symptoms	-265
oronavirus	-266
ap	-267
one	-268
med	-269
ire	-270
▁4	-271
ide	-272
▁Y	-273
gh	-274
▁3	-275
▁countr	-276
ice	-277
arch	-278
ines	-279
all	-280
▁contact	-281
▁202	-282
lud	-283
ec	-284
ren	-285
ult	-286
▁sars	-287
ory	-288
ist	-289
ubl	-290
ified	-291
able	-292
▁Th	-293
▁diseas	-294
als	-295
▁D	-296
▁num	-297
rou	-298
low	-299
ure	-300
uary	-301
▁more	-302
ack	-303
▁coronavirus	-304
▁P	-305
read	-306
▁prot	-307
▁child	-308
own	-309
▁includ	-310
▁should	-311
ious	-312
▁pos	-313
▁2020	-314
▁this	-315
▁their	-316
▁br	-317
emic	-318
▁day	-319
ast	-320
▁pl	-321
▁resp	-322
▁march	-323
ight	-324
▁You	-325
▁hand	-326
▁work	-327
▁ac	-328
iz	-329
ue	-330
▁prev	-331
▁ser	-332
▁some	-333
so	-334
▁number	-335
▁M	-336
ool	-337
▁also	-338
▁disease	-339
▁5	-340
ern	-341
▁In	-342
ance	-343
ip	-344
reak	-345
ati	-346
▁sa	-347
▁rec	-348
atory	-349
▁H	-350
▁trans	-351
aus	-352
ations	-353
▁B	-354
ict	-355
ong	-356
▁On	-357
00	-358
▁vaccine	-359
ures	-360
▁F	-361
▁It	-362
chool	-363
▁had	-364
▁they	-365
iss	-366
break	-367
ard	-368
-2	-369
urther	-370
▁than	-371
▁outbreak	-372
ates	-373
▁tim	-374
ich	-375
▁med	-376
▁about	-377
▁countries	-378
▁te	-379
ep	-380
▁conf	-381
▁further	-382
▁spread	-383
ail	-384
▁comm	-385
isk	-386
orm	-387
▁ind	-388
erson	-389
pr	-390
reat	-391
▁all	-392
▁ev	-393
trict	-394
▁This	-395
▁need	-396
▁publ	-397
ll	-398
▁"	-399
red	-400
▁dr	-401
▁pati	-402
enc	-403
lo	-404
uc	-405
ake	-406
▁ph	-407
▁tot	-408
▁when	-409
▁which	-410
▁school	-411
▁person	-412
▁av	-413
▁ef	-414
ign	-415
▁ag	-416
▁one	-417
▁R	-418
▁face	-419
andemic	-420
▁confir	-421
▁cr	-422
ens	-423
▁new	-424
ness	-425
▁over	-426
▁pandemic	-427
ata	-428
▁after	-429
ke	-430
▁und	-431
▁cent	-432
fe	-433
mer	-434
irst	-435
vice	-436
▁int	-437
▁per	-438
▁risk	-439
ities	-440
fic	-441
ina	-442
olog	-443
▁patients	-444
pt	-445
▁inf	-446
ag	-447
br	-448
▁exp	-449
▁restrict	-450
ks	-451
avel	-452
▁gov	-453
▁home	-454
ence	-455
▁public	-456
▁me	-457
▁get	-458
▁them	-459
▁time	-460
▁such	-461
▁first	-462
ational	-463
▁confirmed	-464
not	-465
▁inter	-466
pit	-467
▁stud	-468
con	-469
ors	-470
▁any	-471
▁hum	-472
▁govern	-473
ile	-474
▁mas	-475
▁travel	-476
▁man	-477
▁care	-478
▁infection	-479
ased	-480
▁col	-481
▁data	-482
▁china	-483
ord	-484
▁sur	-485
▁use	-486
ating	-487
ments	-488
ollow	-489
▁comp	-490
ase	-491
▁hands	-492
ie	-493
▁rel	-494
ove	-495
▁qu	-496
ally	-497
▁clos	-498
ission	-499
▁up	-500
land	-501
▁tw	-502
▁bring	-503
age	-504
ited	-505
ress	-506
▁under	-507
▁including	-508
ne	-509
we	-510
▁but	-511
ospit	-512
▁transm	-513
▁caus	-514
oun	-515
▁hospit	-516
ert	-517
▁gen	-518
▁protect	-519
ell	-520
ike	-521
▁ill	-522
bruary	-523
dit	-524
▁prov	-525
▁2020,	-526
▁result	-527
ang	-528
▁high	-529
▁others	-530
ame	-531
▁sc	-532
ific	-533
▁6	-534
ach	-535
sib	-536
▁due	-537
▁rece	-538
▁february	-539
▁no	-540
velop	-541
▁case	-542
▁days	-543
▁contr	-544
arly	-545
▁stay	-546
▁bringing	-547
ood	-548
way	-549
▁hel	-550
ident	-551
▁these	-552
▁world	-553
▁ar	-554
itive	-555
lu	-556
▁rem	-557
▁previous	-558
▁E	-559
▁close	-560
▁en	-561
ever	-562
▁help	-563
▁-	-564
outh	-565
▁two	-566
▁part	-567
▁effect	-568
▁bet	-569
▁government	-570
▁cover	-571
▁follow	-572
▁/	-573
omm	-574
uring	-575
anuary	-576
illion	-577
▁loc	-578
▁possib	-579
ass	-580
▁those	-581
ob	-582
▁how	-583
▁avail	-584
iratory	-585
▁totals	-586
▁january	-587
ices	-588
▁positive	-589
ust	-590
-19.	-591
fore	-592
▁mon	-593
▁call	-594
▁L	-595
anc	-596
ian	-597
▁ant	-598
▁reg	-599
gn	-600
ind	-601
une	-602
▁treat	-603
▁hospital	-604
uct	-605
▁gp	-606
▁dec	-607
▁most	-608
▁previously	-609
lf	-610
▁N	-611
ick	-612
iate	-613
▁bec	-614
ocial	-615
▁there	-616
▁develop	-617
▁available	-618
cc	-619
te	-620
▁ass	-621
▁imp	-622
▁sign	-623
▁7	-624
▁kn	-625
ative	-626
rent	-627
very	-628
▁dif	-629
▁respon	-630
▁wee	-631
▁tested	-632
▁medical	-633
▁infected	-634
▁respiratory	-635
hed	-636
ater	-637
here	-638
▁notified	-639
).	-640
▁9	-641
▁so	-642
lect	-643
▁bre	-644
▁hcov	-645
aly	-646
▁syst	-647
isit	-648
▁am	-649
▁acc	-650
▁ann	-651
ced	-652
han	-653
▁10	-654
ween	-655
ected	-656
int	-657
▁its	-658
ended	-659
▁host	-660
▁track	-661
▁would	-662
▁during	-663
notified	-664
▁between	-665
▁illness	-666
▁transmission	-667
▁8	-668
▁go	-669
merg	-670
▁str	-671
▁possible	-672
000	-673
▁op	-674
▁att	-675
▁meas	-676
▁advice	-677
▁system	-678
ough	-679
pril	-680
unity	-681
▁cons	-682
▁spec	-683
ok	-684
▁–	-685
ings	-686
▁april	-687
),	-688
ise	-689
les	-690
ency	-691
▁che	-692
ential	-693
▁incre	-694
ear	-695
▁bat	-696
rough	-697
▁wear	-698
▁again	-699
▁united	-700
▁children	-701
,000	-702
▁recomm	-703
cr	-704
su	-705
▁emerg	-706
▁states	-707
▁million	-708
ctor	-709
vere	-710
▁act	-711
▁vir	-712
ility	-713
ology	-714
▁announ	-715
day	-716
ree	-717
▁only	-718
▁could	-719
ro	-720
ts	-721
gan	-722
▁14	-723
▁As	-724
care	-725
▁requ	-726
▁restrictions	-727
mediate	-728
▁severe	-729
inis	-730
▁est	-731
arant	-732
▁country	-733
▁G	-734
eep	-735
▁social	-736
oid	-737
▁Do	-738
▁ire	-739
▁pres	-740
▁visit	-741
▁ireland	-742
▁prevent	-743
▁into	-744
▁long	-745
▁announced	-746
▁4,	-747
▁How	-748
oth	-749
oint	-750
ting	-751
▁cle	-752
▁grou	-753
▁affect	-754
▁control	-755
▁through	-756
ins	-757
ound	-758
▁well	-759
▁level	-760
▁while	-761
▁measures	-762
▁ent	-763
▁many	-764
▁being	-765
▁inform	-766
ared	-767
ised	-768
▁like	-769
▁move	-770
▁human	-771
▁response	-772
▁sus	-773
▁clin	-774
▁quarant	-775
ope	-776
ual	-777
▁ed	-778
ning	-779
▁red	-780
▁condit	-781
▁testing	-782
▁vaccines	-783
▁away	-784
ry	-785
aces	-786
▁sup	-787
▁serv	-788
▁before	-789
▁19	-790
▁sm	-791
cond	-792
▁They	-793
▁food	-794
▁issu	-795
pl	-796
ug	-797
pec	-798
tain	-799
▁low	-800
▁var	-801
ening	-802
▁dist	-803
▁There	-804
▁every	-805
▁treatment	-806
af	-807
▁dep	-808
▁cough	-809
▁group	-810
▁someone	-811
▁information	-812
ily	-813
ered	-814
mple	-815
round	-816
▁same	-817
▁U	-818
ead	-819
tin	-820
uhan	-821
▁mask	-822
▁where	-823
az	-824
na	-825
ark	-826
ery	-827
ink	-828
ute	-829
▁imm	-830
▁pol	-831
ially	-832
▁take	-833
▁used	-834
▁offic	-835
▁community	-836
▁import	-837
▁national	-838
▁lim	-839
▁wash	-840
ination	-841
▁against	-842
▁schools	-843
pid	-844
▁cur	-845
▁det	-846
▁dire	-847
▁emergency	-848
▁eur	-849
inese	-850
▁ident	-851
▁wuhan	-852
▁second	-853
▁V	-854
arm	-855
▁24	-856
ouse	-857
▁lar	-858
▁educ	-859
▁show	-860
▁services	-861
amm	-862
ety	-863
▁11	-864
▁ma	-865
▁early	-866
▁prote	-867
▁intern	-868
▁include	-869
▁An	-870
▁di	-871
▁gu	-872
▁When	-873
▁make	-874
▁susp	-875
▁students	-876
ody	-877
old	-878
the	-879
▁fam	-880
▁flu	-881
▁ord	-882
ours	-883
▁inv	-884
▁conc	-885
▁fever	-886
▁europe	-887
▁humans	-888
▁conditions	-889
wide	-890
▁hig	-891
▁non	-892
other	-893
▁epid	-894
▁nose	-895
▁italy	-896
▁surve	-897
▁total	-898
ulation	-899
▁provid	-900
▁require	-901
▁support	-902
ted	-903
▁12	-904
▁15	-905
▁St	-906
ange	-907
ince	-908
▁adv	-909
▁sub	-910
▁june	-911
▁prop	-912
▁clean	-913
▁found	-914
▁without	-915
▁infections	-916
of	-917
ish	-918
par	-919
▁We	-920
▁gr	-921
▁arr	-922
ality	-923
▁	-924
e	-925
t	-926
a	-927
o	-928
i	-929
n	-930
s	-931
r	-932
h	-933
c	-934
d	-935
l	-936
u	-937
m	-938
p	-939
f	-940
y	-941
g	-942
v	-943
w	-944
b	-945
.	-946
,	-947
k	-948
-	-949
1	-950
2	-951
0	-952
9	-953
T	-954
I	-955
x	-956
3	-957
4	-958
A	-959
5	-960
)	-961
(	-962
z	-963
j	-964
6	-965
8	-966
7	-967
S	-968
q	-969
C	-970
'	-971
"	-972
O	-973
W	-974
:	-975
Y	-976
D	-977
P	-978
M	-979
H	-980
%	-981
B	-982
F	-983
R	-984
E	-985
/	-986
;	-987
L	-988
N	-989
–	-990
G	-991
U	-992
V	-993
?	-994
’	-995
í	-996
