<pad>	0
</s>	0
<unk>	0
ို	-0
င်	-1
ော	-2
ည်	-3
ား	-4
ို့	-5
ကို	-6
က်	-7
င်း	-8
▁အ	-9
သည်	-10
သော	-11
▁သ	-12
န်	-13
ကြ	-14
တို့	-15
ရှ	-16
▁မ	-17
ော်	-18
င့်	-19
ပြ	-20
တော်	-21
တ်	-22
၏။	-23
▁ထ	-24
စ်	-25
နှ	-26
ယ်	-27
ုရ	-28
ပ်	-29
မျ	-30
မှ	-31
▁လ	-32
မ်	-33
▁င	-34
ည်း	-35
ဘုရ	-36
ောက်	-37
ဖြ	-38
မူ	-39
▁တ	-40
ခြ	-41
ိုး	-42
ီး	-43
▁ငါ	-44
ေး	-45
နှင့်	-46
ဘုရား	-47
မည်	-48
ကျ	-49
သို့	-50
ရှိ	-51
တော်မူ	-52
တို့သည်	-53
မြ	-54
သူ	-55
ခြင်း	-56
လျ	-57
▁ထို	-58
▁ယ	-59
▁သူ	-60
ုံ	-61
ိမ်	-62
▁စ	-63
ရာ	-64
ဟု	-65
ပါ	-66
ောင်	-67
ချ	-68
▁သင်	-69
ောင်း	-70
▁ပ	-71
ေါ	-72
တို့ကို	-73
▁န	-74
ွန်	-75
သား	-76
ဖြစ်	-77
ကား	-78
၍၊	-79
စေ	-80
မည်။	-81
ာဝ	-82
ာဝရ	-83
ုပ်	-84
▁ရ	-85
▁ပြ	-86
မျိုး	-87
ေ့	-88
ာဝရဘုရား	-89
လည်း	-90
ိုင်	-91
ိန်	-92
▁ဆ	-93
??	-94
▁ကို	-95
▁က	-96
▁ခ	-97
ကြ၏။	-98
ောင့်	-99
▁ထာဝရဘုရား	-100
သောသူ	-101
ပေါ	-102
ုံး	-103
အား	-104
ွား	-105
ခင်	-106
လျှ	-107
▁မြ	-108
လော	-109
မ်း	-110
သောအ	-111
ကျွန်	-112
ေလ	-113
ိမ့်	-114
မြို့	-115
ုန်	-116
ိတ်	-117
၎င်း	-118
တွ	-119
▁ကြ	-120
ခါ	-121
လျှင်	-122
ဲ့	-123
ိုက်	-124
▁ရှ	-125
မှာ	-126
▁ကိုယ်	-127
ဖြင့်	-128
အမျိုး	-129
လျက်	-130
သခင်	-131
▁ဘုရား	-132
လိမ့်	-133
ိမ	-134
များ	-135
ဉ်	-136
ကား၊	-137
ုတ်	-138
▁လူ	-139
ငှ	-140
▁အဘ	-141
ပြု	-142
ကြောင်း	-143
မျှ	-144
ကြီး	-145
ိုင်း	-146
▁ငါ့	-147
ပြည်	-148
၎င်း၊	-149
ငှါ	-150
လော့	-151
တော်မူ၏။	-152
လေ	-153
▁ကျ	-154
လျှင်၊	-155
သရ	-156
နေ	-157
ကြောင့်	-158
ွှ	-159
ကျွန်ုပ်	-160
လိမ့်မည်။	-161
ူး	-162
သက်	-163
ပြီ	-164
ခံ	-165
ိန့်	-166
▁ဣ	-167
ည်း။	-168
▁ဘုရားသခင်	-169
လူ	-170
????	-171
မှု	-172
ခြင်းငှါ	-173
သွား	-174
▁ဝ	-175
ဆို	-176
တွင်	-177
တော်ကို	-178
နှစ်	-179
▁အဘယ်	-180
ပေါင်း	-181
▁အကျွန်ုပ်	-182
ထား	-183
ွာ	-184
ိမိ	-185
▁သင်တို့	-186
ည့်	-187
▁ဗ	-188
▁ချ	-189
ရှင်	-190
လော့။	-191
လာ	-192
ရပ်	-193
လည်း၊	-194
အတ	-195
သရေလ	-196
ျက်	-197
▁မိမိ	-198
္တ	-199
ေရ	-200
ွက်	-201
▁သူတို့	-202
▁အာ	-203
ရား	-204
သော်	-205
လေ၏။	-206
ပေါ်	-207
▁ဣသရေလ	-208
တတ်	-209
လုံး	-210
▁ဒ	-211
တ္တ	-212
ဇ်	-213
ွေး	-214
▁ဘ	-215
ပါး	-216
န်း	-217
▁ဤ	-218
ပြီ။	-219
ပြစ်	-220
▁ဟ	-221
ပြီး	-222
ဲ့သို့	-223
ာလ	-224
ပေး	-225
သာ	-226
▁ထိုအ	-227
ဘုရင်	-228
နာ	-229
ံ့	-230
န့်	-231
ကဲ့သို့	-232
▁မိန့်	-233
နိုင်	-234
သောအခါ	-235
▁ကိုယ်တော်	-236
လင်	-237
ရှု	-238
▁ရှိ	-239
အပေါင်း	-240
မူကား၊	-241
▁ဖ	-242
သမျှ	-243
စာ	-244
စွာ	-245
▁သို့	-246
ထဲ	-247
ယောက်	-248
သဖြင့်	-249
ဝိ	-250
အမျိုးသား	-251
▁ကောင်း	-252
ခြင်းကို	-253
▁သည်	-254
ဘို့	-255
▁ဖြစ်	-256
ွေ	-257
▁နှ	-258
လျက်၊	-259
ခု	-260
ဟူ	-261
ဖန်	-262
ပြော	-263
ဒ်	-264
ွယ်	-265
က၊	-266
တိုင်	-267
▁မှ	-268
▁သား	-269
ွဲ	-270
▁ငါသည်	-271
▁ဧ	-272
▁ထိုသူ	-273
ညာ	-274
▁ပြု	-275
မည်ဟု	-276
နေ့	-277
လက်	-278
▁နေ	-279
ရှေ့	-280
▁ယဇ်	-281
မင်း	-282
စား	-283
အတိုင်း	-284
▁အလ	-285
ရင်	-286
သေ	-287
▁သော	-288
စ္	-289
ဘက်	-290
သိ	-291
စုံ	-292
သန	-293
ပင်	-294
▁သင့်	-295
ိန်း	-296
တည်း။	-297
တရား	-298
ထံ	-299
ရှင်း	-300
စဉ်	-301
▁သင်သည်	-302
▁သင်၏	-303
▁ည	-304
ရိ	-305
ရမည်။	-306
ထောင်	-307
▁အကြောင်း	-308
စကား	-309
ယူ	-310
▁သင်တို့သည်	-311
အောင်	-312
ပေါ်မှာ	-313
ုဒ	-314
ဘဲ	-315
▁မြေ	-316
▁သူတို့သည်	-317
စေခြင်းငှါ	-318
တော်မူသည်	-319
မြင်	-320
ိမ်း	-321
မရှိ	-322
▁လက်	-323
▁ခံ	-324
▁ထိုသို့	-325
▁ရောက်	-326
ကင်	-327
▁ယဇ်ပ	-328
▁အသက်	-329
သီး	-330
▁ဂ	-331
ွှတ်	-332
အကြောင်း	-333
သောအခါ၊	-334
ကြလော့။	-335
အားဖြင့်	-336
ေါ်	-337
▁မြို့	-338
မျက်	-339
တည်း	-340
ချင်း	-341
ငါ	-342
ျား	-343
ီရင်	-344
တော်မူသော	-345
ရှိ၏။	-346
င်္	-347
▁ထာဝရဘုရားသည်	-348
▁ယေ	-349
▁သူ၏	-350
ွင့်	-351
သဖြင့်၊	-352
ွင်း	-353
ပါ၏။	-354
ဦး	-355
ဆယ်	-356
ရှိသော	-357
ရဲ	-358
▁ယော	-359
▁အပြစ်	-360
▁အမ	-361
ဟုတ်	-362
▁လျ	-363
▁မီး	-364
ကြောင့်၊	-365
ရောက်	-366
များကို	-367
▁ယုဒ	-368
တို့အား	-369
နား	-370
ကလည်း၊	-371
လှ	-372
ကြလိမ့်မည်။	-373
ငယ်	-374
ရသော	-375
????????	-376
ပျ	-377
ပါ။	-378
ွတ်	-379
ရော	-380
▁နား	-381
အရာ	-382
ဇော်	-383
ဆောင်	-384
တော်၌	-385
▁ငါတို့	-386
▁ယေရ	-387
န့်ရှင်း	-388
ူဇော်	-389
ိန်းမ	-390
က္	-391
▁တဖန်	-392
ရှေ	-393
တိ	-394
ိပ်	-395
▁ကျွန်	-396
တပါး	-397
▁ဆို	-398
စ္စာ	-399
▁စိတ်	-400
ောဟ	-401
ထက်	-402
ါဝိ	-403
လော။	-404
ါဝိဒ်	-405
▁ပေး	-406
▁လျှ	-407
▁ကောင်းကင်	-408
▁ရှင်	-409
အလ	-410
▁မော	-411
တို့၏	-412
▁ထာဝရဘုရား၏	-413
ပြီးမှ	-414
မီး	-415
အရပ်	-416
အမှု	-417
▁ဖြ	-418
တော်သည်	-419
ပတ်	-420
ရ။	-421
▁သွား	-422
▁ထိုအခါ	-423
နည်း	-424
▁ပြန်	-425
သောသူသည်	-426
▁ဇ	-427
မိ	-428
မာ	-429
လိ	-430
ာန်	-431
တင်	-432
▁ရှင်ဘုရင်	-433
▁အမျိုး	-434
▁အို	-435
တို့နှင့်	-436
ညာဉ်	-437
▁အမှု	-438
ကာ	-439
ရက်	-440
နှင့်။	-441
စရာ	-442
ရေ	-443
ွန်း	-444
▁သူ့	-445
ုန်း	-446
▁တရား	-447
သည်ကို	-448
တိုင်အောင်	-449
နောက်	-450
ကောင်း	-451
လု	-452
ဏ်	-453
▁ငါ့ကို	-454
ောဟိတ်	-455
▁ဥ	-456
▁သေ	-457
ုရောဟိတ်	-458
▁မိန့်တော်မူ၏။	-459
ခြင်း၊	-460
ခြား	-461
အဘို့	-462
▁သန့်ရှင်း	-463
ခဲ့	-464
ဝေး	-465
ဖြစ်၏။	-466
ေးဇ	-467
▁သူသည်	-468
သည်ဟု	-469
ေးဇူး	-470
ဂု	-471
▁သိ	-472
ခြေ	-473
ရှိသမျှ	-474
မတ်	-475
▁အကြောင်းမူကား၊	-476
ရကြ	-477
လိုက်	-478
ဖြစ်၍၊	-479
▁ဒါဝိဒ်	-480
ထာဝရဘုရား	-481
ဘုရားသခင်	-482
မြောက်	-483
သတ်	-484
သံ	-485
▁စစ်	-486
မဟုတ်	-487
ုရှ	-488
▁ရေ	-489
တို့၌	-490
▁ယေရှု	-491
▁ဆောင်	-492
▁အဘယ်သူ	-493
အဘ	-494
ကြား	-495
တက	-496
သတည်း။	-497
စကားကို	-498
▁သခင်	-499
စ်ကို	-500
တိုင်း	-501
မည်အကြောင်း	-502
ပြန်	-503
ာမ	-504
ရှင်ဘုရင်	-505
ဝတ်	-506
▁????????	-507
ွမ်း	-508
ခါး	-509
သော်လည်း၊	-510
▁စား	-511
▁ဘုရားသခင်၏	-512
▁ယဇ်ပုရောဟိတ်	-513
▁လေ	-514
▁ပြော	-515
ကို၎င်း၊	-516
▁ငါ၏	-517
ကာလ	-518
▁ဣသရေလအမျိုး	-519
▁စကား	-520
လင်မြို့	-521
ခွင့်	-522
ော့	-523
တ္တု	-524
▁နှုတ်	-525
မှီ	-526
စိတ်	-527
ချိန်	-528
ညီ	-529
ဃ်	-530
ကြံ	-531
ဃ်း	-532
ွေ့	-533
ိုဃ်း	-534
ဝင်	-535
▁အိမ်	-536
အပေါင်းတို့သည်	-537
ပြင်	-538
နှာ	-539
စု	-540
မုန်	-541
▁မျက်	-542
ဲဂု	-543
▁လှ	-544
တတ်၏။	-545
ထွက်	-546
တောင်	-547
▁သိုး	-548
▁နောက်	-549
လ္	-550
ဉ်း	-551
ဲဂုတ္တု	-552
တန်	-553
သင်	-554
ံခါး	-555
အိမ်	-556
▁ယခု	-557
သည်အတိုင်း	-558
▁မောရှေ	-559
▁အဲဂုတ္တု	-560
▁အား	-561
ရစ်	-562
သနည်း။	-563
လည်	-564
▁သူတို့ကို	-565
အတူ	-566
တယောက်	-567
ငံ	-568
ဟူသော	-569
ိုလ	-570
▁ထား	-571
▁ယေရုရှ	-572
▁ပြည်	-573
▁ကြား	-574
သော်၊	-575
တိုက်	-576
မှစ	-577
ပါစေ	-578
ထံသို့	-579
▁မိုဃ်း	-580
ျာ	-581
င်္ဂ	-582
▁မိ	-583
လ္လင်	-584
▁လုပ်	-585
ဖက်	-586
▁အဘယ်သို့	-587
▁ပူဇော်	-588
ထဲက	-589
▁လာ	-590
ဆင်း	-591
ပြား	-592
▁မည်	-593
▁ကယ်	-594
တ္တိ	-595
▁ထွက်	-596
လုပ်	-597
▁တည်	-598
▁နှစ်	-599
စင်	-600
▁မူ	-601
ရှား	-602
▁ဣသရေလအမျိုးသား	-603
ဆီး	-604
မန်	-605
▁ရွှ	-606
▁စီရင်	-607
ဝါ	-608
▁အလွန်	-609
ဘေး	-610
▁သင့်ကို	-611
သောကြောင့်၊	-612
▁ဆင်း	-613
▁ယေရုရှလင်မြို့	-614
ရှာ	-615
ရှေ့မှာ	-616
စိုး	-617
▁လျှောက်	-618
ုလ	-619
ဘော	-620
သကဲ့သို့	-621
ကိုလည်း	-622
ောင့်မတ်	-623
တူ	-624
စီး	-625
▁ထာဝရ	-626
သမီး	-627
▁ရှော	-628
ေါင်း	-629
▁မင်း	-630
ရောဖက်	-631
▁မြင်	-632
ပြီးမှ၊	-633
လမ်း	-634
သုံး	-635
တော်မူပါ။	-636
တကွ	-637
နှုတ်	-638
အသက်	-639
ိုလ်	-640
▁ကျေးဇူး	-641
တွင်း	-642
ဆုံး	-643
မိန့်	-644
▁မြေကြီး	-645
ဘက်၌	-646
စီရင်	-647
ိညာဉ်	-648
ဆက်	-649
ရှို့	-650
▁ငါတို့သည်	-651
ကောင်	-652
လော့ဟု	-653
ာန	-654
တွင်၊	-655
နစ်	-656
▁မိန်းမ	-657
ာရ	-658
ညတ်	-659
ပြီးလျှင်၊	-660
တည်	-661
တောင်း	-662
ကျင့်	-663
ယဇ်	-664
▁ဒု	-665
ခိုး	-666
သောအရာ	-667
မ္	-668
အံ့	-669
▁ရန်	-670
တော်သို့	-671
▁အစဉ်	-672
င်္ဂလာ	-673
၏သား	-674
အပြစ်	-675
ကြည်	-676
ဏာ	-677
နက်	-678
ချက်	-679
တွက်	-680
မှစ၍	-681
▁တောင်	-682
ခြင်းသို့	-683
လွှတ်	-684
▁များ	-685
▁အရှင်	-686
ထဲသို့	-687
▁အခြား	-688
ကြောင်းကို	-689
▁ငြ	-690
သောသူ၊	-691
မှန်	-692
▁မေး	-693
တည်းဟူသော	-694
▁ရှေ့	-695
ရ၏။	-696
▁ကိုယ်တော်သည်	-697
▁လိုက်	-698
▁သက်	-699
တို့၊	-700
သိမ်း	-701
အစ်ကို	-702
ရု	-703
ရိုက်	-704
သောအမှု	-705
မြို့၊	-706
တွေ့	-707
▁စောင့်	-708
▁ဖြောင့်မတ်	-709
ိရ	-710
သည်လည်း	-711
▁အရာ	-712
စစ်	-713
ာက	-714
ဖြစ်စေ	-715
▁ခေါ်	-716
ာဗ	-717
ဆွေ	-718
မှတ်	-719
မှား	-720
သော်လည်း	-721
လေး	-722
▁ကြီး	-723
▁အရပ်	-724
နှလုံး	-725
လိမ့်မည်ဟု	-726
▁ပရောဖက်	-727
▁မီးရှို့	-728
က္ခ	-729
တော်မ	-730
▁သတ်	-731
ိမာန်	-732
ဆဲ	-733
ပျစ်	-734
အမြ	-735
ဘွယ်	-736
▁ဟော	-737
ုံကြည်	-738
ပြည်၌	-739
▁ချီး	-740
ဇာ	-741
▁နားထောင်	-742
စွာသော	-743
နှင့်အတူ	-744
▁ခံရ	-745
ည့်ရှု	-746
ပြီဟု	-747
မင်းကြီး	-748
ောက်မ	-749
တို့တွင်	-750
ျက်ဆီး	-751
▁မိန့်တော်မူသည်	-752
နည်း။	-753
မြို့သို့	-754
နိုင်ငံ	-755
တတ်သော	-756
နေရာ	-757
▁ဝမ်း	-758
စောင့်	-759
▁လူများ	-760
▁သင်တို့ကို	-761
ဆာ	-762
ဖြစ်၍	-763
ယား	-764
ကပ်	-765
▁အာရ	-766
ရည်	-767
ကျိုး	-768
▁မိမိတို့	-769
စရိုက်	-770
နှင့်တကွ	-771
▁တော	-772
▁ကျောက်	-773
ပျက်	-774
မွမ်း	-775
ကိုယ်	-776
▁အသီး	-777
မိန်းမ	-778
▁ကိုယ်တော်ကို	-779
ေဒ	-780
▁ယူ	-781
သလော။	-782
▁ညီ	-783
▁လမ်း	-784
ခေါ်	-785
သားတို့သည်	-786
သောသူတို့သည်	-787
တု	-788
အလို	-789
င်ရှား	-790
▁စေ	-791
က္ကာ	-792
ဆို၏။	-793
▁ဘုရားသခင်သည်	-794
မြို့၌	-795
▁တန်	-796
▁အသ	-797
နှင့်အ	-798
လျှောက်	-799
င်လ	-800
ရမည်	-801
အမှုကို	-802
▁တပါး	-803
ရွ	-804
ကုန်	-805
ကြ။	-806
▁တယောက်	-807
တံခါး	-808
ာကုပ်	-809
ဟူမူကား၊	-810
ခြောက်	-811
မည်အကြောင်း၊	-812
ငါး	-813
သည်ကား၊	-814
▁ဝင်	-815
သနည်း	-816
▁ကိုယ်တော်၏	-817
နေ့၌	-818
ွဲ့	-819
▁မတရား	-820
တော်မမူ	-821
▁ထာဝရဘုရားကို	-822
ိလ	-823
▁ကာလ	-824
▁ပညာ	-825
ဝပ်	-826
ကြယ်	-827
ရိုး	-828
▁ဆုံး	-829
စည်း	-830
အသီး	-831
ဗြ	-832
ပည့်	-833
ရိမ်	-834
▁ပညတ်	-835
စေခြင်းငှါ၊	-836
ုန့်	-837
ခံရ	-838
ဆိုင်	-839
▁ပြည့်	-840
လူတို့သည်	-841
▁ဗိမာန်	-842
နိ	-843
▁ရွှေ	-844
▁ရန်သူ	-845
▁အသက်ရှင်	-846
သက္ကာ	-847
တော်မူပြီ။	-848
သောကြောင့်	-849
▁အဘယ်ကြောင့်	-850
ကိုမ	-851
ဆိုး	-852
တဖန်	-853
သွား၍	-854
▁သင်္	-855
၏ဟု	-856
အုပ်	-857
သား၊	-858
▁စပျစ်	-859
ပယ်	-860
ထုတ်	-861
အရှင်	-862
တ္တာ	-863
ဆင်	-864
▁ခါ	-865
▁ဟေ	-866
သည်၊	-867
▁ကြောက်	-868
▁လော	-869
လို	-870
ွန့်	-871
ဟူ၍	-872
▁အလို	-873
ကယ်	-874
▁အဲဂုတ္တုပြည်	-875
▁သိမ်း	-876
▁ကယ်တင်	-877
တော်နှင့်	-878
ွင်	-879
လွတ်	-880
▁နေ့	-881
မျက်နှာ	-882
▁ဆင်းရဲ	-883
မြေ	-884
▁မည်။	-885
▁သုံး	-886
▁တပ်	-887
▁မှာ	-888
▁အခွင့်	-889
အပ်	-890
▁တဲ	-891
ပြု၍	-892
▁ဒုစရိုက်	-893
တမန်	-894
▁အမျက်	-895
လွှ	-896
မည်း	-897
ရိသတ်	-898
အတွက်	-899
ပတ်လုံး	-900
ဟာ	-901
ပါဟု	-902
နားမှာ	-903
▁အပ်	-904
များ၊	-905
မှတပါး	-906
▁အချင်း	-907
▁နွား	-908
ေလွှတ်	-909
▁သူ့ကို	-910
▁တိုက်	-911
ပွဲ	-912
ပြည့်	-913
▁ယာကုပ်	-914
ဥစ္စာ	-915
သနည်းဟု	-916
ိုလ်ခြေ	-917
သရေ	-918
ကွယ်	-919
▁အပေါင်း	-920
မြတ်	-921
ရှက်	-922
▁စေလွှတ်	-923
ကြပြီ။	-924
▁ယနေ့	-925
▁တို့ကို	-926
ဘူး	-927
▁သို့ရာ	-928
▁သင်တို့၏	-929
▁ခု	-930
▁အကျွန်ုပ်ကို	-931
စိ	-932
ကြွင်း	-933
▁တိုင်	-934
▁ရှောလု	-935
▁နောက်တဖန်	-936
တခု	-937
စေ့	-938
▁၏။	-939
ှဉ်း	-940
▁မျက်နှာ	-941
ချို့	-942
▁နန်း	-943
▁အကျွန်ုပ်သည်	-944
▁ရာ	-945
မ္မ	-946
နေသော	-947
အန	-948
▁အန	-949
▁လည်း	-950
ငြ	-951
ှဉ်းဆဲ	-952
အချိန်	-953
မရှိ။	-954
▁အာမ	-955
▁အမိန့်	-956
ဟော	-957
▁ပယ်	-958
▁ရှာ	-959
▁ခရစ်	-960
ရွာ	-961
မြစ်	-962
ရွက်	-963
ရာသို့	-964
▁ဘုန်း	-965
ဖွဲ့	-966
▁ဖိ	-967
ပါစေသော	-968
▁သစ္စာ	-969
▁ယုံကြည်	-970
ာဗုလ	-971
▁ကြည့်ရှု	-972
အပေါင်းတို့ကို	-973
▁ပေါ	-974
သည်အတိုင်း၊	-975
▁ငွေ	-976
ဝိညာဉ်	-977
တရားကို	-978
ာဗုလုန်	-979
စ္ဆ	-980
▁ပြင်	-981
ပြုသော	-982
▁သာ	-983
▁လေဝိ	-984
▁ကျိန်	-985
▁နှင့်	-986
သေး	-987
လောဟု	-988
ုတောင်း	-989
ဆွေအမျိုး	-990
မြှ	-991
အမည်	-992
▁ပရိသတ်	-993
ခြင်းနှင့်	-994
ပါပြီ။	-995
▁ဝတ်	-996
ရှောက်	-997
စ္ဆာန်	-998
ဖြစ်သော	-999
သည်ဖြစ်၍၊	-1000
▁ရွေး	-1001
အတိုင်း၊	-1002
သေခံ	-1003
▁ညီအစ်ကို	-1004
လတ	-1005
▁နိုင်	-1006
▁လိမ့်	-1007
စံ	-1008
▁ယောက်	-1009
▁အိပ်	-1010
ပ်သိမ်း	-1011
▁ပြည့်စုံ	-1012
▁ဝမ်းမြောက်	-1013
လဲ	-1014
▁ဟု	-1015
▁ထိုသူသည်	-1016
ိုးဘေး	-1017
▁တွေ့	-1018
▁တောင်း	-1019
ပည့်တော်	-1020
▁ယဇ်ပလ္လင်	-1021
သပ်	-1022
▁လု	-1023
ဘော်	-1024
▁ဝိညာဉ်	-1025
▁ကိုယ်ကို	-1026
▁မိန့်တော်မူ	-1027
မက်	-1028
▁မေ	-1029
န့်ထား	-1030
ပေါ်သို့	-1031
ကပတ်	-1032
▁ဤသူ	-1033
ောက်မေ့	-1034
▁ထိုသူတို့သည်	-1035
ယော	-1036
▁လူမျိုး	-1037
တကား	-1038
▁အာရုန်	-1039
▁သူတို့၏	-1040
▁ဆောင်ခဲ့	-1041
ခရ	-1042
ုရိ	-1043
▁နာ	-1044
ရှိကြ၏။	-1045
ရွံ့	-1046
ကြောက်	-1047
▁လွှတ်	-1048
ဆီ	-1049
▁ချီးမွမ်း	-1050
လျက်နေ	-1051
တင်း	-1052
ရင်း	-1053
▁ငြိမ်	-1054
▁အမျိုးသား	-1055
လင့်	-1056
▁ခုနစ်	-1057
▁ထင်ရှား	-1058
▁ဖိလိ	-1059
အပေါ်မှာ	-1060
▁မုန့်	-1061
ဝတ်ကို	-1062
▁တံခါး	-1063
▁ကျင့်	-1064
သောငှါ	-1065
ဖြစ်စေ၊	-1066
▁စည်း	-1067
▁တို့သည်	-1068
မျှမ	-1069
မ်းသာ	-1070
ရာယဇ်	-1071
▁ထိုနောက်	-1072
တံ	-1073
အရာ၌	-1074
တန်ဆာ	-1075
တော်၏	-1076
ကောင်းကင်	-1077
သငယ်	-1078
▁နာမ	-1079
▁ဧလိ	-1080
▁ဖျက်ဆီး	-1081
ထဲမှာ	-1082
ခေါင်း	-1083
ဉ့်	-1084
▁ဇိ	-1085
ချစ်	-1086
သံကို	-1087
▁ပြစ်	-1088
▁ပြေး	-1089
ပန်	-1090
ယူ၍	-1091
ရှဲ	-1092
▁သံ	-1093
▁မင်္ဂလာ	-1094
▁အတိုင်း	-1095
ပစ်	-1096
သောက်	-1097
သောသူတို့ကို	-1098
▁ပူဇော်သက္ကာ	-1099
ခတ်	-1100
ရပ်၌	-1101
လတံ့	-1102
▁သူတပါး	-1103
ုပ်တု	-1104
▁ခပ်သိမ်း	-1105
▁အထ	-1106
▁နေရာ	-1107
မဲ့	-1108
ပေ	-1109
▁အလျ	-1110
▁ကြောင့်	-1111
▁ထိုကြောင့်	-1112
▁သန့်ရှင်းသော	-1113
စေ။	-1114
ရလိမ့်မည်။	-1115
ဏ္	-1116
သူရဲ	-1117
▁အာဗြ	-1118
ရံ	-1119
ဖြေ	-1120
▁ပါ	-1121
ခြင်းငှါ၊	-1122
▁ဗာဗုလုန်	-1123
နယ်	-1124
သည်မဟုတ်	-1125
▁ဟောပြော	-1126
▁စစ်တိုက်	-1127
▁တပည့်တော်	-1128
မပြ	-1129
▁ပြစ်မှား	-1130
▁ဩ	-1131
▁မထ	-1132
ကာလ၌	-1133
▁ခြေ	-1134
ခုနစ်	-1135
▁ပျက်	-1136
▁မဟုတ်	-1137
ရကြမည်။	-1138
သောသူကို	-1139
▁သို့ဖြစ်၍	-1140
ဟံ	-1141
ဆိတ်	-1142
▁ဘုရားသခင်ကို	-1143
ကန်	-1144
ပါစေသော။	-1145
▁အခြားသော	-1146
▁နားမ	-1147
▁ခြ	-1148
ကြွေး	-1149
အသက်ကို	-1150
ရှေ့တော်၌	-1151
▁နှုတ်ကပတ်	-1152
သင့်	-1153
သောင်း	-1154
လူမျိုး	-1155
▁တပါးအမျိုးသား	-1156
▁အထက်	-1157
▁ခမည်း	-1158
သမျှသော	-1159
စပ်	-1160
▁တတ်	-1161
▁ဘေး	-1162
ီချင်း	-1163
ယေ	-1164
▁စု	-1165
▁ပျ	-1166
ခြင်းရှိ	-1167
▁ဆုတောင်း	-1168
▁ယောက်ျား	-1169
▁ချစ်	-1170
တမ်း	-1171
▁တိရ	-1172
လမုန်	-1173
ကြပါ၏။	-1174
▁ငါမ	-1175
ကို၎င်း	-1176
လုံးစုံ	-1177
ဗိုလ်ခြေ	-1178
ဘဲနေ	-1179
အရပ်၌	-1180
ပူဇော်	-1181
ကျေးဇူး	-1182
▁ရှေ့တော်၌	-1183
▁စိတ်နှလုံး	-1184
သာ၍	-1185
▁တံ	-1186
▁နေရ	-1187
ကြည့်	-1188
းကွယ်	-1189
▁အမွေ	-1190
သောစိတ်	-1191
ရဲ့	-1192
ာဏ်	-1193
ှက်	-1194
▁ကောင်းကြီး	-1195
အာ	-1196
ပေါ်၌	-1197
မြင့်	-1198
▁လေး	-1199
▁လိမ့်မည်။	-1200
ျာဒ	-1201
ခန်း	-1202
ော့။	-1203
ဲ့ရဲ့	-1204
ော်လင့်	-1205
▁မျ	-1206
ဘွား	-1207
အောက်	-1208
▁တစုံ	-1209
▁အုပ်	-1210
ကြနှင့်။	-1211
တော်မူမည်။	-1212
ျာဒိတ်	-1213
မြှောက်	-1214
တပ်	-1215
ရန်	-1216
▁ဆက်	-1217
▁ဥစ္စာ	-1218
သကဲ့သို့၊	-1219
▁ပြန်ပြော	-1220
▁ဆီ	-1221
ခရစ်	-1222
နည်းဟု	-1223
နာမ	-1224
▁စကားကို	-1225
လူတို့ကို	-1226
ပြည်သို့	-1227
တဘက်၌	-1228
နှင့်အညီ	-1229
▁ကျွန်တော်	-1230
လာ၍၊	-1231
ော်ဒ	-1232
လူတို့	-1233
စေလွှတ်	-1234
အခါ	-1235
▁စုံ	-1236
▁ဝန်	-1237
သားကို	-1238
▁အသေ	-1239
▁အကျိုး	-1240
တော်မူ၍၊	-1241
ထာဝရဘုရား၊	-1242
▁ထာဝရဘုရားအား	-1243
အစ	-1244
လာ၍	-1245
ရုဏာ	-1246
ကြော်	-1247
▁လှည့်	-1248
▁ကျွန်ုပ်	-1249
▁တိရစ္ဆာန်	-1250
▁သို့ရာတွင်	-1251
▁တော်	-1252
▁ကျမ်း	-1253
မှာ၊	-1254
▁အကယ်	-1255
▁ညှဉ်းဆဲ	-1256
ပု	-1257
စွဲ	-1258
▁ရှေ	-1259
▁တန်ခိုး	-1260
▁ပဌ	-1261
▁ဆုံးမ	-1262
ငှာ	-1263
ဘဲ၊	-1264
ဖြတ်	-1265
ပြည်ကို	-1266
▁စင်	-1267
င်လယ်	-1268
▁ပင်လယ်	-1269
▁မှာထား	-1270
▁????????????	-1271
ိုကြွေး	-1272
ပြည့်စုံ	-1273
▁ပြောဆို	-1274
မယား	-1275
▁နက်	-1276
မိုက်	-1277
▁ဘိုးဘေး	-1278
▁နံ	-1279
▁ယောသပ်	-1280
▁သို့သော်လည်း	-1281
▁အရှင်ထာဝရဘုရား	-1282
ဌာန	-1283
▁ပေ	-1284
သဘော	-1285
▁မရှိ	-1286
င့်ဆို	-1287
အပေါင်းတို့	-1288
ကြွ	-1289
ထိုင်	-1290
▁လျက်	-1291
▁ဖိလိတ္တိ	-1292
အမြဲ	-1293
▁သူငယ်	-1294
▁ကောင်းကင်တမန်	-1295
ယာ	-1296
▁တင်	-1297
န္	-1298
▁ဗာလ	-1299
ချုပ်	-1300
▁မြင်း	-1301
သားတို့ကို	-1302
▁ကြွ	-1303
ပိုင်	-1304
သွား၍၊	-1305
လျက်ရှိ	-1306
နှစ်ယောက်	-1307
ကဲ	-1308
ဂါ	-1309
ကျောက်	-1310
လိမ့်မည်	-1311
စီ	-1312
ဟစ်	-1313
ထံတော်သို့	-1314
ကျင်	-1315
ခံရသော	-1316
???	-1317
▁စာရ	-1318
▁မြစ်	-1319
သောသူ၏	-1320
▁ထိုင်	-1321
ဖြစ်ကြ၏။	-1322
▁လောက	-1323
နည်းတူ	-1324
ပလ္လင်	-1325
ကြီးသော	-1326
▁နိုင်ငံ	-1327
▁အဘယ်သူမျှ	-1328
▁အကျွန်ုပ်၏	-1329
▁ဧဖ	-1330
▁လွှ	-1331
အနွယ်	-1332
စရာဘို့	-1333
▁ငါတို့ကို	-1334
▁ရပ်	-1335
▁အခါ	-1336
▁ယေရှုသည်	-1337
ယျာ	-1338
▁မု	-1339
ယျာဉ်	-1340
တတ်ကြ၏။	-1341
လျက်ရှိ၏။	-1342
▁အောက်မေ့	-1343
ဝန်	-1344
လွန်	-1345
အသရေ	-1346
▁ကြ၏။	-1347
▁ဆိတ်	-1348
▁ခန့်ထား	-1349
ရကြ၏။	-1350
ရှောင်	-1351
မှူး	-1352
▁ဒဏ်	-1353
▁သာ၍	-1354
▁အဝတ်	-1355
ထားသော	-1356
▁ယောရှု	-1357
မြို့သား	-1358
▁ဖာ	-1359
စမ်း	-1360
▁ငါပေး	-1361
▁ဗျာဒိတ်	-1362
▁ကြောက်ရွံ့	-1363
▁၌	-1364
ရာ၊	-1365
လူ၊	-1366
အဘယ်	-1367
▁အနာ	-1368
နှံ	-1369
▁ဟာ	-1370
▁သတိ	-1371
လျော့	-1372
အံ့သောငှါ	-1373
▁ရှောလမုန်	-1374
▁ကိုယ်တိုင်	-1375
▁ချီ	-1376
▁အစာ	-1377
▁အရေ	-1378
လက်မှ	-1379
▁သက်သေခံ	-1380
ုဗ	-1381
ယ်၌	-1382
ပါမည်။	-1383
▁စွန့်	-1384
မြို့နှင့်	-1385
▁ဣသရေလအမျိုး၏	-1386
ချင်	-1387
▁လူအ	-1388
▁စုဝေး	-1389
မြို့ကို	-1390
စ်ည	-1391
တရု	-1392
ပန်း	-1393
▁မူ၏။	-1394
▁ကရုဏာ	-1395
▁ဒါဝိဒ်သည်	-1396
ဇိ	-1397
မေး	-1398
သနား	-1399
▁ငါး	-1400
▁သစ်	-1401
တို့က၊	-1402
ပိုင်း	-1403
▁ထောင်	-1404
ကြော	-1405
တကား။	-1406
▁အာရှ	-1407
စေမည်။	-1408
▁အာဗြဟံ	-1409
▁မင်းကြီး	-1410
ရှိသမျှတို့ကို	-1411
တော	-1412
အစဉ်	-1413
င်ထုတ်	-1414
▁မျက်စိ	-1415
သမ	-1416
▁ရေး	-1417
▁အကြံ	-1418
▁နားမထောင်	-1419
▁ထာဝရဘုရားမိန့်	-1420
▁မိုဃ်းကောင်းကင်	-1421
▁ပတ်	-1422
▁အံ့	-1423
▁ကင်း	-1424
▁မှတ်	-1425
▁ပျက်စီး	-1426
▁ရှိသမျှ	-1427
▁သခင်ဘုရား	-1428
▁ထိုကြောင့်၊	-1429
▁ပေါ်	-1430
ော်ဟစ်	-1431
▁၏	-1432
တကောင်	-1433
▁အသွေး	-1434
▁ငါ့အား	-1435
▁တဲတော်	-1436
▁အကယ်စင်	-1437
▁အိုထာဝရဘုရား၊	-1438
ေသ	-1439
ဒုံ	-1440
▁အစ	-1441
စင်ကြယ်	-1442
▁ကဲ့ရဲ့	-1443
▁ဖြစ်၏။	-1444
ခြင်းငှာ	-1445
ရှိရာသို့	-1446
လင်း	-1447
▁တက်	-1448
▁အကြ	-1449
▁လွန်	-1450
ကိုမျှ	-1451
တန်ခိုး	-1452
တော်ရှိ	-1453
တော်မူလျှင်၊	-1454
ခွက်	-1455
မူကား	-1456
သန်	-1457
သွေး	-1458
ုလား	-1459
စ်ညူး	-1460
ည်တမ်း	-1461
ယေရှု	-1462
▁ငိုကြွေး	-1463
▁မြော်လင့်	-1464
▁မယား	-1465
▁သင်၌	-1466
▁ပေါလု	-1467
▁မိုက်	-1468
အမျိုး၊	-1469
▁စပျစ်ရည်	-1470
များတို့သည်	-1471
▁အကယ်စင်စစ်	-1472
ကြပါ	-1473
ဖျား	-1474
ရှေ့၌	-1475
ိုင့်	-1476
▁နံနက်	-1477
▁ကျွန်မ	-1478
အမျိုးမျိုး	-1479
▁ဦး	-1480
ချီး	-1481
ကျိပ်	-1482
စည်းဝေး	-1483
နှစ်ဆယ်	-1484
▁မရ	-1485
စေ၍၊	-1486
ံ့သာ	-1487
န်ကြွင်း	-1488
အပြစ်ကို	-1489
သောအခွင့်	-1490
ကောက်	-1491
ဆောက်	-1492
▁ဗင်္	-1493
▁သို့မဟုတ်	-1494
ွေလ	-1495
ွန်အား	-1496
▁ကြွေး	-1497
သန့်ရှင်း	-1498
▁မာ	-1499
ပိုး	-1500
ပွန်း	-1501
လောက်	-1502
▁လော့။	-1503
▁အပြစ်ဖြေ	-1504
ခင့်	-1505
မွေး	-1506
ဝမ်း	-1507
ကြိုး	-1508
င်လန်း	-1509
▁ဆင့်ဆို	-1510
▁သင်၏ဘုရားသခင်	-1511
ထဲ၌	-1512
ဒေါ	-1513
▁စာ	-1514
▁ဟူ	-1515
▁ဘွား	-1516
▁ခိုင်	-1517
မင်းသည်	-1518
ဗောင်	-1519
▁ထုတ်	-1520
▁သေတ္တာ	-1521
တိယ	-1522
ရေး	-1523
ဟန်	-1524
▁ခရ	-1525
▁တမန်	-1526
လုံးကို	-1527
ကြလော့ဟု	-1528
ဆိုင်သော	-1529
▁သီချင်း	-1530
▁အကျွန်ုပ်တို့	-1531
▁မောဘ	-1532
▁အရင်	-1533
▁ဥာဏ်	-1534
ိမ့်ချ	-1535
ော်ဒန်	-1536
နီး	-1537
ွပ်	-1538
▁ဂိလ	-1539
ထိုက်	-1540
ဖျက်ဆီး	-1541
နိုင်သော	-1542
▁ထိုအမှု	-1543
သောအမှုကို	-1544
▁ထိုမိန်းမ	-1545
▁ဂု	-1546
တစုံ	-1547
ပျို	-1548
ပြုရ	-1549
မရှိ၊	-1550
ဘွယ်သော	-1551
▁အစဉ်အမြဲ	-1552
▁အဆွေအမျိုး	-1553
တော်မူသည်ကား၊	-1554
▁ဂိ	-1555
▁ဖန်	-1556
▁လယ်	-1557
မပြတ်	-1558
▁ရုပ်တု	-1559
▁သမ	-1560
ပြေး	-1561
ပြည်၊	-1562
▁အောင်	-1563
▁ဧဖရိမ်	-1564
တို့သည်၊	-1565
▁ချမ်းသာ	-1566
▁စင်ကြယ်	-1567
ငွေ	-1568
ဖျက်	-1569
မှတပါး၊	-1570
တော်မူသဖြင့်၊	-1571
ခဲ	-1572
၏အ	-1573
ခို	-1574
စော	-1575
လှုပ်	-1576
ာမိန်	-1577
▁ထမ်း	-1578
▁ပေတရု	-1579
▁ပြင်း	-1580
▁ငြိမ်ဝပ်	-1581
▁သင်တို့အား	-1582
တော်အားဖြင့်	-1583
▁မီးရှို့ရာယဇ်	-1584
▁၍	-1585
တား	-1586
▁ငါအ	-1587
▁မသိ	-1588
▁တည်း	-1589
▁ရှိ၏။	-1590
ိမင်း	-1591
▁ယော်ဒန်	-1592
ငါ့	-1593
▁ဂါ	-1594
▁မခံ	-1595
ပေါက်	-1596
▁သဘော	-1597
ဉ်းကပ်	-1598
▁ဖန်ဆင်း	-1599
များနှင့်	-1600
ကိ	-1601
ရာ၌	-1602
မပြု	-1603
▁ဂုဏ်	-1604
အရာကို	-1605
▁အကြင်	-1606
▁အချိန်	-1607
▁ပြင်ဆင်	-1608
ချီ	-1609
သိုး	-1610
▁????	-1611
▁ကြိုး	-1612
▁သွန်း	-1613
▁သွား၍	-1614
▁တော်မူ၏။	-1615
ခြင်းအားဖြင့်	-1616
ဗိုလ်ခြေအရှင်	-1617
ွါ	-1618
တဘက်	-1619
ချည်း	-1620
သခင့်	-1621
ခရိုင်	-1622
ရာအရပ်	-1623
▁လုပ်ကြံ	-1624
▁ထွက်သွား	-1625
ဒု	-1626
မိုး	-1627
▁ခရီး	-1628
▁ဆိုး	-1629
ပျောက်	-1630
ယာမိန်	-1631
▁မတရားသော	-1632
လုံ	-1633
▁ဆယ်	-1634
▁စပါး	-1635
ပါသည်ဟု	-1636
▁ကျိန်ဆို	-1637
▁ဗိမာန်တော်	-1638
▁ခပ်သိမ်းသော	-1639
မြဲ	-1640
ောဇ	-1641
▁ဇာ	-1642
ဆော်	-1643
▁သောက်	-1644
▁အစိုး	-1645
ပြည်သား	-1646
▁ရှိသော	-1647
▁အချင်းချင်း	-1648
လား	-1649
ပညတ်	-1650
လေပြီ။	-1651
▁မြောက်	-1652
မည်နည်း။	-1653
▁ယုဒရှင်ဘုရင်	-1654
▁ကောင်းကြီးပေး	-1655
▁လွတ်	-1656
▁နောင်	-1657
▁အသက်ကြီး	-1658
ဝဲ	-1659
ပုံ	-1660
ကိုင်	-1661
မှာထား	-1662
▁လောကီ	-1663
▁သို့သော်လည်း၊	-1664
ကွဲ	-1665
ရွှ	-1666
ရကြ။	-1667
နေ့ရက်	-1668
၌၎င်း၊	-1669
လက်သို့	-1670
ပြစ်မှား	-1671
▁သူတို့အား	-1672
▁ထိုသို့သော	-1673
ဘုံ	-1674
▁ဗာ	-1675
ထွက်၍	-1676
ပါစေ။	-1677
▁မှန်	-1678
▁စည်းဝေး	-1679
▁သင်္ဘော	-1680
▁အသံ	-1681
ပါသော	-1682
▁ရှောက်	-1683
▁မကောင်း	-1684
တို့ကို၎င်း၊	-1685
သ်	-1686
ဟာယ	-1687
တိမ်	-1688
ေးဝါ	-1689
▁ရော	-1690
ကြသည်	-1691
နှင့်၊	-1692
▁နံ့သာ	-1693
▁ဝန်ခံ	-1694
ိုးဆော်	-1695
ောင်မိုက်	-1696
▁ချီးမြှောက်	-1697
ဆေး	-1698
မသိ	-1699
ကို၊	-1700
မြန်း	-1701
နိုင်။	-1702
▁ဗိုလ်	-1703
သောအရပ်	-1704
▁ခေါင်း	-1705
▁သင်တို့၌	-1706
ပညာ	-1707
နွား	-1708
ပုသ်	-1709
▁စိုး	-1710
သေ့	-1711
ခြင်	-1712
ပွား	-1713
အုန်	-1714
သွင်း	-1715
ဣသရေလ	-1716
င်္သေ့	-1717
ဒါဝိဒ်	-1718
▁မြင့်	-1719
▁မြည်း	-1720
သောသူတို့	-1721
▁ခမည်းတော်	-1722
မှီတိုင်အောင်	-1723
လက်၌	-1724
▁အမိ	-1725
က္ခဏာ	-1726
မုန့်	-1727
▁ကုလား	-1728
ပြီးလျှင်	-1729
သောသူဖြစ်	-1730
▁ထိုသူကို	-1731
▁ဗင်္ယာမိန်	-1732
▁များစွာသော	-1733
လှုံ	-1734
ကြကုန်	-1735
အတွင်း	-1736
ဆုံးသော	-1737
ရောဘုရင်	-1738
ဗာ	-1739
ခံ့	-1740
▁အလျင်	-1741
▁ခွန်အား	-1742
သောအရာကို	-1743
▁မစင်ကြယ်	-1744
▁ဆောင်ရွက်	-1745
▁သို့ဖြစ်၍၊	-1746
ညှ	-1747
င်၊	-1748
ံရှာ	-1749
▁ငါ့အ	-1750
▁အချို့	-1751
▁အမှုကို	-1752
▁မောရှေသည်	-1753
▁ကြွေးကြော်	-1754
ရကြလိမ့်မည်။	-1755
ဗု	-1756
မာရိ	-1757
သို့ရောက်	-1758
▁အိမ်တော်	-1759
▁အုပ်စိုး	-1760
ရှိသမျှကို	-1761
▁မောရှေအား	-1762
ပ္	-1763
လွှဲ	-1764
လှည့်	-1765
ရမည်ဟု	-1766
▁မိမိအ	-1767
▁အရှေ့	-1768
▁ညစ်ညူး	-1769
▁တော်မူ	-1770
ကြွား	-1771
ရှုံး	-1772
လုံးအ	-1773
▁မပြု	-1774
▁တော်ကို	-1775
▁ကိုးကွယ်	-1776
စက်	-1777
ဆရာ	-1778
တက်	-1779
▁လဲ	-1780
စိမ်	-1781
ရှိ၍၊	-1782
▁ချက်	-1783
▁ညဉ့်	-1784
▁ပြုရ	-1785
▁ဘော်	-1786
▁ရှေး	-1787
လောင်း	-1788
ချိုင်း	-1789
▁သိတင်း	-1790
▁သိုးသငယ်	-1791
▁အသီးအသီး	-1792
စေတော်မူ၏။	-1793
ဆိုသည်ကား၊	-1794
ထောက်	-1795
▁ခြင်း	-1796
မြို့မှ	-1797
ကဲ့သို့၎င်း၊	-1798
လုံးစုံတို့ကို	-1799
ဟ်	-1800
ပါရ	-1801
စေ၏။	-1802
▁ပိတ်	-1803
▁လုယူ	-1804
▁သတ္တ	-1805
▁သနား	-1806
သလောဟု	-1807
ယုံကြည်	-1808
တော်တို့ကို	-1809
သစ်	-1810
▁အကျ	-1811
က်စား	-1812
▁ဆို၏။	-1813
သွားကြ၏။	-1814
▁စောင့်ရှောက်	-1815
▁ရဲ	-1816
▁ငါ၌	-1817
ယွင်း	-1818
▁လေ၏။	-1819
▁သမီး	-1820
အချို့	-1821
၌ရှိသော	-1822
ကြကုန်အံ့	-1823
ဆံ	-1824
ြို	-1825
စေသော	-1826
စွန့်	-1827
ြိုဟ်	-1828
မျက်စိ	-1829
▁သွင်း	-1830
▁ကြေးဝါ	-1831
▁အကျင့်	-1832
ဆောင်ခဲ့	-1833
တို့သည်လည်း	-1834
▁သင်တို့တွင်	-1835
၍မ	-1836
▁အတူ	-1837
အခွင့်	-1838
▁သိုးထ	-1839
ကြည့်ရှု	-1840
▁အဲဂုတ္တုပြည်မှ	-1841
တာ	-1842
ပျော်	-1843
ပြု၍၊	-1844
္မုန်	-1845
▁လူသည်	-1846
▁ဇိအုန်	-1847
▁ကျမ်းစာ	-1848
▁အော်ဟစ်	-1849
▁ကျန်ကြွင်း	-1850
ဟိ	-1851
ေလ၊	-1852
▁ထ၍	-1853
▁အခ	-1854
နင်း	-1855
လျောက်	-1856
သူကြီး	-1857
ွန်သင်	-1858
▁ဤသို့	-1859
တော်မမူ။	-1860
▁နှစ်သက်	-1861
▁ယုဒပြည်	-1862
▁တောင်းပန်	-1863
ယ၊	-1864
ခုံ	-1865
ခေါ	-1866
▁မုသာ	-1867
ဘုရား၊	-1868
ကင်း	-1869
လန့်	-1870
▁မှီ	-1871
▁တွင်	-1872
▁ကြည့်	-1873
တို့နှင့်တကွ	-1874
စေဟု	-1875
ညဉ့်	-1876
မြေး	-1877
▁ထူး	-1878
▁ပစ်	-1879
▁မနာ	-1880
ကြိမ်	-1881
▁ရှက်	-1882
▁ပေါင်း	-1883
ညီအစ်ကို	-1884
▁ရောက်လာ	-1885
▁ခြင်္သေ့	-1886
ဝေ	-1887
ထပ်	-1888
▁အဗ	-1889
သူသည်	-1890
အလယ်၌	-1891
ိမိတ်	-1892
▁ရှုရိ	-1893
ချောင်း	-1894
မင်္ဂလာ	-1895
▁နေ့ရက်	-1896
▁သိမ်းယူ	-1897
▁မှောင်မိုက်	-1898
▁ကိုယ်တော်ကျွန်	-1899
ရဟု	-1900
နေ၏။	-1901
ရိပ်	-1902
ကျမ်း	-1903
လောင်	-1904
ုတ်သင်	-1905
သည်လည်း၊	-1906
▁ယေရှုခရစ်	-1907
္ဒ	-1908
မော	-1909
ံကို	-1910
အမြန်	-1911
▁ကား၊	-1912
မှောက်	-1913
▁နေကြ၏။	-1914
သောအပြစ်	-1915
နှင့်အညီ၊	-1916
သောသူတို့၏	-1917
▁ယော်ဒန်မြစ်	-1918
ေလိ	-1919
ဖုံး	-1920
▁တော၌	-1921
▁ဧဒုံ	-1922
သားသည်	-1923
ပြီးသော	-1924
▁ကြွင်း	-1925
ယောက်ျား	-1926
▁သိမ်းသွား	-1927
▁ဒုစရိုက်ကို	-1928
▁ကောင်းကင်ဘုံ	-1929
ထ၍	-1930
ဒဏ်	-1931
ရပါ	-1932
ဝါး	-1933
▁ဣသ	-1934
အကြီး	-1935
▁ဂိလဒ်	-1936
နှင့်ဟု	-1937
အချိန်၌	-1938
စဉ်တွင်၊	-1939
▁ရွှင်လန်း	-1940
▁ဘုရားသခင့်	-1941
▁နတ်	-1942
▁သဖြင့်	-1943
ကောင်ကို	-1944
ခင်ပွန်း	-1945
ပယ်ရှင်း	-1946
ပါနှင့်။	-1947
ဟူ၍၎င်း၊	-1948
▁ထိုအရပ်	-1949
▁အမင်္ဂလာ	-1950
စဉ်၊	-1951
နှီး	-1952
▁ဘမ်း	-1953
▁မြွက်	-1954
▁ဖြစ်၍၊	-1955
▁ယောဟန်	-1956
ဥစ္စာကို	-1957
▁ပညတ်တရား	-1958
ဖြစ်သတည်း။	-1959
▁ဣသရေလရှင်ဘုရင်	-1960
▁ယေရုရှလင်မြို့၌	-1961
နဲ	-1962
ဘာ	-1963
ထည်	-1964
▁ဟေဇ	-1965
ရာဌာန	-1966
လျှင်း	-1967
▁၎င်း၊	-1968
▁ထမြောက်	-1969
▁ကြောင့်၊	-1970
▁ထိုအရပ်၌	-1971
▁ငါ့စကားကို	-1972
ဖတ်	-1973
မခံ	-1974
ကျူး	-1975
မွေလ	-1976
ပွင့်	-1977
သားကား	-1978
အကျိုး	-1979
▁အထက်က	-1980
▁မနာရှေ	-1981
စည်းဝေးရာ	-1982
တော်မူပါဟု	-1983
တို့နှင့်အတူ	-1984
▁ယေရှုကလည်း၊	-1985
တုံ	-1986
▁ဖါ	-1987
▁ဂတိ	-1988
▁စီး	-1989
▁တို့	-1990
ဆင်းရဲ	-1991
အလိုက်	-1992
▁တန်ဆာ	-1993
▁ထောက်	-1994
▁အရပ်ရပ်	-1995
လုံးအရင်း	-1996
သော်၎င်း၊	-1997
▁ယဇ်ပူဇော်	-1998
အကြောင်းကို	-1999
စည်	-2000
▁ရွ	-2001
တွား	-2002
အဆက်	-2003
▁နည်း	-2004
▁ပြီး	-2005
▁ရထား	-2006
နှောင်	-2007
▁ရိုက်	-2008
▁ခံရသော	-2009
▁လေဝိသား	-2010
အပေါ်သို့	-2011
▁နှင်ထုတ်	-2012
အမျိုးသား၊	-2013
တို့ကိုလည်း	-2014
ဝံ	-2015
ထုံး	-2016
ဖြန်	-2017
သမား	-2018
▁ပွဲ	-2019
▁အမှီ	-2020
▁အလင်း	-2021
အဆွေအမျိုး	-2022
ဥပ	-2023
▁ဝါ	-2024
နုန်	-2025
▁ဆီး	-2026
မြွက်	-2027
နောက်၊	-2028
▁သင်္ဂ	-2029
နှင့်တူ	-2030
▁ပလ္လင်	-2031
အိမ်သို့	-2032
သည်မဟုတ်။	-2033
မြင်လျှင်၊	-2034
တော်မူခြင်း	-2035
▁ကြီးစွာသော	-2036
ွာဘ	-2037
လှီး	-2038
▁လည်	-2039
ထွန်း	-2040
ဥယျာဉ်	-2041
သုံးဆယ်	-2042
တို့သမီး	-2043
ောင့်ရှက်	-2044
▁ကြားပြော	-2045
▁အလျင်အမြန်	-2046
တဲ	-2047
▁ဆင်	-2048
▁ကိုင်	-2049
▁ရှင်း	-2050
▁နက်ဖြန်	-2051
▁သားတော်	-2052
စိတ်နှလုံး	-2053
▁ထိုမှတပါး၊	-2054
▁ကျေးဇူးတော်ကို	-2055
ဒိ	-2056
က်၊	-2057
▁ညဦး	-2058
▁ခါနာ	-2059
▁ဆန့်	-2060
ထက်သာ၍	-2061
▁ဥပုသ်	-2062
▁ရေးထား	-2063
▁အချည်း	-2064
▁အရေဖျား	-2065
နောက်သို့	-2066
▁ချဉ်းကပ်	-2067
▁အကြောင်း၊	-2068
▁တိုင်အောင်	-2069
▁ထာဝရဘုရား၊	-2070
တော်မူလိမ့်မည်။	-2071
▁ငှ	-2072
ထမ်း	-2073
နန်း	-2074
▁ခြောက်	-2075
▁ဆိုကြ၏။	-2076
▁သားသမီး	-2077
တယောက်သည်	-2078
▁လူတို့သည်	-2079
▁ကာ	-2080
▁စက်	-2081
စာကို	-2082
▁မှား	-2083
▁ငြင်း	-2084
▁ယေရမိ	-2085
▁စာရင်း	-2086
▁တံပိုး	-2087
▁နှလုံး	-2088
▁ဘော်ပြ	-2089
▁ဣသရေလအမျိုးကို	-2090
ခွဲ	-2091
လယ်	-2092
ဝါဒ	-2093
ရွေး	-2094
▁မိဘ	-2095
ဘုန်း	-2096
▁ကောက်	-2097
▁ဆိုင်	-2098
▁အမ္မုန်	-2099
▁ဖြစ်ကြ၏။	-2100
▁မြေပေါ်မှာ	-2101
▁သင်္ဂြိုဟ်	-2102
▁လူများတို့သည်	-2103
စေခြင်းငှါ၎င်း၊	-2104
ရှစ်	-2105
▁ဗက်	-2106
▁ယူ၍	-2107
▁ပို့	-2108
▁ယောန	-2109
▁အမည်	-2110
▁မျိုး	-2111
အလိုငှါ	-2112
▁ပညာရှိ	-2113
စေနှင့်။	-2114
▁တစုံတခု	-2115
▁အာရှုရိ	-2116
▁ကြိုးစား	-2117
▁သင်နှင့်	-2118
▁အားဖြင့်	-2119
ဖြစ်တော်မူ၏။	-2120
▁အထံတော်သို့	-2121
▁ထာဝရဘုရားကလည်း၊	-2122
မွေ	-2123
ုတ်ချ	-2124
ိတ်ဆိတ်	-2125
▁ခါနာန်	-2126
▁ထိုသခင်	-2127
▁ပယ်ရှင်း	-2128
▁မိုဃ်းတိမ်	-2129
▁ထာဝရဘုရားက၊	-2130
မေ	-2131
▁ယာ	-2132
ဆုပ်	-2133
ရိတ်	-2134
မှုတ်	-2135
မဟုတ်။	-2136
ုန်ကန်	-2137
မ်းမိုး	-2138
မြင်သော	-2139
▁ဆင်းသက်	-2140
▁ခိုင်ခံ့	-2141
▁ရှင်ဘုရင်သည်	-2142
▁မြေကြီးပေါ်မှာ	-2143
ထင်	-2144
ေလေ	-2145
တဆယ်	-2146
ထာဝရ	-2147
ရင့်	-2148
ကလည်း	-2149
သတ္တိ	-2150
ွင်ပြင်	-2151
▁တိုင်း	-2152
▁သီချင်းဆို	-2153
▁ပရိသတ်စည်းဝေးရာ	-2154
ဆွဲ	-2155
နတ်	-2156
ဝံဂ	-2157
သော၊	-2158
▁ပင်	-2159
▁ဘဏ္	-2160
ချိုး	-2161
▁ချိုး	-2162
▁အသေသတ်	-2163
ကြလျှင်၊	-2164
ုန်လှုပ်	-2165
ဆိုလျှင်၊	-2166
▁မဟုတ်လော။	-2167
ကတိ	-2168
န္တ	-2169
▁၍၊	-2170
မွေ့	-2171
ရှိ၍	-2172
ပ်ဝပ်	-2173
▁ဘောဇ	-2174
▁ဟေဗြ	-2175
▁ငါနှင့်	-2176
▁စစ်သူရဲ	-2177
▁ထိုမြို့	-2178
▁မေးမြန်း	-2179
▁ငှါ	-2180
▁သမ္	-2181
ကျွေး	-2182
တည်းဟု	-2183
လက္ခဏာ	-2184
▁ဖွင့်	-2185
▁ဤအမှု	-2186
ည်းတွား	-2187
▁ဘောဇဉ်	-2188
▁ရှမာရိ	-2189
ခြင်းအမှု	-2190
▁ထိုနောက်မှ	-2191
လည်၌	-2192
ီမဲ့	-2193
ွှေး	-2194
▁ပဌမ	-2195
လာသော	-2196
▁ဖုံး	-2197
ဆီသို့	-2198
▁ဝိုင်း	-2199
▁ရှိကြ၏။	-2200
▁ဘုရားသည်	-2201
ပူဇော်သက္ကာ	-2202
▁နာမတော်ကို	-2203
ပွါ	-2204
▁ရေလ	-2205
▁ဝေး	-2206
▁တဆယ်	-2207
▁အသရေ	-2208
ဟောပြော	-2209
▁ဘုရား၏	-2210
နားထောင်	-2211
ချီးမွမ်း	-2212
ခြင်းမရှိ	-2213
▁တိတ်ဆိတ်	-2214
▁အပြစ်တင်	-2215
ရသောအခွင့်	-2216
▁ကျေးဇူးပြု	-2217
ခိ	-2218
ဖူး	-2219
းစား	-2220
ဖွင့်	-2221
ဘူးသော	-2222
▁အနှစ်	-2223
▁အတွင်း	-2224
ရမည်မှာ၊	-2225
▁ဝါကြွား	-2226
▁တည်ဆောက်	-2227
▁နှိမ့်ချ	-2228
▁ထိုနည်းတူ	-2229
ကြလိမ့်မည်ဟု	-2230
တရာ	-2231
▁ဗေ	-2232
ဆိပ်	-2233
ယ်သော	-2234
အခြား	-2235
▁ပဌနာ	-2236
လက်ကို	-2237
ဝံဂေလိ	-2238
▁ဒုတိယ	-2239
သွားသော	-2240
▁လျှင်၊	-2241
▁သုတ်သင်	-2242
▁ငြိမ်သက်	-2243
▁နှိုးဆော်	-2244
▁မြို့ရိုး	-2245
ေရု	-2246
▁ကြံ	-2247
▁ခို	-2248
အိမ်၌	-2249
▁ကွယ်	-2250
▁ချည်	-2251
▁ငါသိ	-2252
▁အခါ၊	-2253
ညှဉ်းဆဲ	-2254
သားတို့	-2255
ခြင်းသည်	-2256
▁ကင်းလွတ်	-2257
▁နန်းတော်	-2258
▁များပြား	-2259
▁ငါ့ထံသို့	-2260
▁တစုံတယောက်	-2261
▁အသက်ကြီးသူ	-2262
▁သင်္ချိုင်း	-2263
▁အရေဖျားလှီး	-2264
▁မစ	-2265
ရွေ့	-2266
▁သူ၌	-2267
ီမဲ့မြင်	-2268
▁ထိုကာလ၌	-2269
▁ခုနစ်ရက်	-2270
▁ချက်ခြင်း	-2271
▁ငြိမ်ဝပ်စွာ	-2272
▁သို့ရာတွင်၊	-2273
ညံ	-2274
ထို	-2275
ယူ၍၊	-2276
ာလက်	-2277
▁ခါး	-2278
▁အဘိ	-2279
▁သူရဲ	-2280
▁သက်သေ	-2281
▁အမှန်	-2282
ထင်ရှား	-2283
အမည်ရှိသော	-2284
▁အဘယ်သူသည်	-2285
အမျိုးအနွယ်	-2286
မိန့်တော်မူ၏။	-2287
ခြင်းသို့ရောက်	-2288
ညစ်	-2289
ထံ၌	-2290
းခံ	-2291
ကြဟု	-2292
အိပ်	-2293
▁ထင်	-2294
▁အာဇ	-2295
တ္တိဇ	-2296
▁အံ့ဩ	-2297
▁ယုဒလူ	-2298
▁လူကို	-2299
ချမ်းသာ	-2300
▁မရောက်	-2301
▁အဘယ်မျှ	-2302
များတို့ကို	-2303
န်၊	-2304
ဝန်း	-2305
ာကို	-2306
▁မုတ်	-2307
တို့မှ	-2308
နှင့်မ	-2309
မှုန့်	-2310
▁လည်း၊	-2311
▁အတောင်	-2312
▁စစ်ကြော	-2313
▁သူတို့အ	-2314
▁အချည်းနှီး	-2315
သောအရာတို့ကို	-2316
ကြဲ	-2317
ပွါး	-2318
▁လင်	-2319
▁ဟစ်	-2320
▁အထံ	-2321
ကွင်း	-2322
ရှိရာ	-2323
▁မစား	-2324
▁ဧလိယ	-2325
▁အောက်	-2326
မြည်တမ်း	-2327
▁ခြင်းငှါ	-2328
ဝမ်းမြောက်	-2329
▁တရားစီရင်	-2330
▁အမိန့်တော်	-2331
ရှိသမျှတို့သည်	-2332
ဘိုး	-2333
▁လာ၍	-2334
ကျိန်	-2335
ပါ၏ဟု	-2336
ရာကို	-2337
▁မှူး	-2338
တံခါးဝ	-2339
▁တပြည်	-2340
စဉ်တွင်	-2341
နှစ်ပါး	-2342
ပြောင်း	-2343
▁ရှမွေလ	-2344
▁အချင်းလူ	-2345
ဘုရားသခင်၊	-2346
▁သန့်ရှင်းရာဌာန	-2347
▁ဖြောင့်မတ်ခြင်း	-2348
က္က	-2349
တနာ	-2350
လေ့	-2351
▁တာ	-2352
ဆန်း	-2353
▁ဆွဲ	-2354
ပြန်၍	-2355
လတံ့။	-2356
မည်ကို	-2357
▁ကျွေး	-2358
▁စာရေး	-2359
▁သမ္မာ	-2360
ပရောဖက်	-2361
သောနေ့၌	-2362
▁ဖြစ်စေ	-2363
▁ဗိုလ်ခြေ	-2364
တော်မူသည်ကို	-2365
▁တိတ်ဆိတ်စွာ	-2366
အမျိုးသားတို့သည်	-2367
ဒဲ	-2368
မေလ	-2369
တိုး	-2370
ပေ၏။	-2371
အနှံ	-2372
ွယ်ဝ	-2373
▁ပုံ	-2374
▁မာန	-2375
စွန်း	-2376
နေကြ၏။	-2377
▁ငါပြု	-2378
▁အကုန်	-2379
ချိုင့်	-2380
ပါမည်ဟု	-2381
▁ငါမြင်	-2382
ကိုးကွယ်	-2383
သောအားဖြင့်	-2384
▁နံ့သာပေါင်း	-2385
▁ညှ	-2386
ရှည်	-2387
ေရုဗ	-2388
ရိရှဲ	-2389
လက်ထက်	-2390
▁အဘိုး	-2391
အစရှိသော	-2392
▁ပြုပြင်	-2393
▁စိုးရိမ်	-2394
▁ခရစ်တော်၏	-2395
▁မင်္ဂလာရှိ	-2396
▁မေးလျှောက်	-2397
သောစိတ်နှင့်	-2398
▁သွန်းလောင်း	-2399
▁အမိန့်တော်ကို	-2400
တေ	-2401
မဲ	-2402
ဝက်	-2403
ဟပ်	-2404
ကန်း	-2405
ခရီး	-2406
ညွတ်	-2407
ပင်း	-2408
ပင်၊	-2409
▁ဒေါ	-2410
▁ဣဇာ	-2411
ငြိမ်း	-2412
▁မည်ဟု	-2413
▁အကြီး	-2414
လတံ့သော	-2415
▁ဒဏ်ခတ်	-2416
▁ဧဝံဂေလိ	-2417
▁မိန့်တော်	-2418
▁မထီမဲ့မြင်	-2419
▁ဧလ	-2420
အစင်	-2421
သက်သေ	-2422
အမျက်	-2423
တကားဟု	-2424
တထောင်	-2425
▁အသင်း	-2426
▁စက်ဆုပ်	-2427
▁သူတို့၌	-2428
နှင့်တကွ၊	-2429
ကဲ့သို့၎င်း	-2430
မင်းကြီးသည်	-2431
▁အဲဂုတ္တုပြည်၌	-2432
ယုံ	-2433
ဝင်၍	-2434
အဝေး	-2435
မှစ၍၊	-2436
ေလေ၏။	-2437
▁ယွာဘ	-2438
ပြည်မှ	-2439
ရှိသည်	-2440
အောက်၌	-2441
တစုံတခု	-2442
မည်လော။	-2443
သောအထည်	-2444
▁ငါပြော	-2445
▁နားလည်	-2446
▁သေခြင်း	-2447
▁သွန်သင်	-2448
▁မှားယွင်း	-2449
▁အကြင်သူသည်	-2450
သောသူတို့အား	-2451
ပါသည်	-2452
▁မမြင်	-2453
▁သခင်၊	-2454
လုပ်သော	-2455
▁ဆီးတား	-2456
ဆိုသော်၊	-2457
အမျိုးကို	-2458
▁ကယ်နှုတ်	-2459
▁လွန်ကျူး	-2460
မျက်နှာကို	-2461
▁?????????	-2462
▁ထိုသူတို့	-2463
▁အမျက်တော်	-2464
▁အမှုတော်ကို	-2465
ဘိ	-2466
ယုဒ	-2467
ရှော	-2468
လာ၏။	-2469
▁စပ်	-2470
ရေကို	-2471
▁ထို့	-2472
▁အိုး	-2473
ကျွန်း	-2474
ခေါ်၍၊	-2475
သိတင်း	-2476
▁ကြွလာ	-2477
▁မုန်း	-2478
▁အရှက်	-2479
ကြသနည်း။	-2480
ပေးတော်မူ	-2481
▁ကောင်းသော	-2482
▁နန်းထိုင်	-2483
▁အမျက်ထွက်	-2484
စရာအကြောင်း	-2485
▁တရားသဖြင့်	-2486
▁အပေါင်းတို့သည်	-2487
▁အရ	-2488
အထက်	-2489
▁နော	-2490
နာကို	-2491
ဦးစွာ	-2492
▁တနေ့	-2493
▁တိုး	-2494
▁ဖျက်	-2495
မရှိဘဲ	-2496
▁ယေရော	-2497
▁ရောင်း	-2498
▁အမြင့်	-2499
အရပ်သို့	-2500
▁သုံးရက်	-2501
ဖြစ်သည်ဟု	-2502
ဖြောင့်မတ်	-2503
တွေ	-2504
မနေ	-2505
သူ၏	-2506
▁တူ	-2507
အကြံ	-2508
▁ကွဲ	-2509
ခမည်း	-2510
စပျစ်	-2511
တချက်	-2512
▁ကုန်	-2513
စဉ်အခါ	-2514
တော်မှ	-2515
ပွဲကို	-2516
မရောက်	-2517
▁ယောရှ	-2518
▁လျက်၊	-2519
▁နောင်တ	-2520
▁ဥယျာဉ်	-2521
▁ကဲ့သို့	-2522
▁ချိုင့်	-2523
▁စုံစမ်း	-2524
▁အလျှင်း	-2525
သောအချိန်	-2526
▁တမန်တော်	-2527
▁မြည်တမ်း	-2528
▁တယောက်ကို	-2529
▁အစဉ်မပြတ်	-2530
▁ဘုရားသခင်၊	-2531
တတ်။	-2532
ထံမှ	-2533
▁ရာဇ	-2534
▁အဦး	-2535
လုလင်	-2536
လွှား	-2537
အဘော်	-2538
▁သင်း	-2539
ကောင်၊	-2540
သောအသံ	-2541
အပေါ်၌	-2542
▁လုလင်	-2543
▁သူကို	-2544
ခန့်ထား	-2545
လမ်းကို	-2546
အလျောက်	-2547
▁ပျောက်	-2548
ပြုလျှင်	-2549
▁ငါတို့၏	-2550
▁ပုန်ကန်	-2551
▁ဖာရိရှဲ	-2552
▁သင့်အား	-2553
▁အဘယ်မှာ	-2554
သောအကျင့်	-2555
▁စွန့်ပစ်	-2556
▁နှုတ်ဆက်	-2557
▁ရွေးကောက်	-2558
နှင့်ပြည့်စုံ	-2559
စ္စ	-2560
ရာ။	-2561
လဒဲ	-2562
စပါး	-2563
ရန်သူ	-2564
▁ငှက်	-2565
မဟုတ်၊	-2566
▁ပေါက်	-2567
အနားမှာ	-2568
ရှိသော်၊	-2569
▁ကုလားကာ	-2570
မည်နည်းဟု	-2571
▁စည်းစိမ်	-2572
▁ဤလူမျိုး	-2573
▁လူတို့ကို	-2574
သည်တိုင်အောင်	-2575
ောရ	-2576
လောက	-2577
ိုသေ	-2578
ောရိ	-2579
▁ကူး	-2580
▁စေ့	-2581
▁အဟိ	-2582
လျော်	-2583
ေလသည်	-2584
▁ဧည့်	-2585
▁လက်ျာ	-2586
▁အလျား	-2587
▁စစ်ချီ	-2588
▁ဗတ္တိဇ	-2589
▁အစ်ကို	-2590
ခြင်းရှိ၏။	-2591
စေခြင်းငှာ	-2592
တိရ	-2593
ကွက်	-2594
မိမိ	-2595
ကိုသာ	-2596
ချကြ၏။	-2597
▁မတွေ့	-2598
▁အဆင်း	-2599
မရှိသော	-2600
ိန်းဝပ်	-2601
▁ငါကြား	-2602
▁ဝတ်ပြု	-2603
စိုးရိမ်	-2604
▁ခိုလှုံ	-2605
▁နတ်ဆိုး	-2606
▁ပြပ်ဝပ်	-2607
▁ဘုရားကို	-2608
▁အတိုင်း၊	-2609
▁အပြစ်ကို	-2610
နှင့်၎င်း၊	-2611
▁မြေမှုန့်	-2612
▁အကုန်အစင်	-2613
▁အခြားတပါး	-2614
▁ဖြစ်သတည်း။	-2615
သည်မဟုတ်လော။	-2616
ဇရ	-2617
▁၊	-2618
ကွာ	-2619
ချို	-2620
ဩဝါဒ	-2621
▁ရည်	-2622
ဆုံးမ	-2623
▁တဘက်	-2624
ငါးဆယ်	-2625
ပေးသော	-2626
ဗိမာန်	-2627
သွား၏။	-2628
▁မှည့်	-2629
ွပ်မျက်	-2630
▁ယခုမှာ	-2631
နီးချင်း	-2632
▁ပြည်သား	-2633
▁ခြင်းကို	-2634
ဘုရားသခင်၏	-2635
သောသူမူကား၊	-2636
▁အချင်းလူသား၊	-2637
▁ညီအစ်ကိုတို့၊	-2638
အလုံးစုံတို့ကို	-2639
ဒါ	-2640
ငှက်	-2641
ထုန်	-2642
▁အာဗ	-2643
▁ဧလာ	-2644
ခိုက်	-2645
ခိုင်	-2646
▁ပြုစု	-2647
▁အဘို့	-2648
သတည်းဟု	-2649
ေ့လျော့	-2650
▁ပြန်လာ	-2651
▁သဖြင့်၊	-2652
သတို့သမီး	-2653
▁အခွင့်ကို	-2654
ိမိတ်လက္ခဏာ	-2655
ရမည်အကြောင်း၊	-2656
▁ကိုယ်ကိုကိုယ်	-2657
ပို့	-2658
သိပ်	-2659
ုတ်၊	-2660
▁အစေ	-2661
▁သွေး	-2662
လေးဆယ်	-2663
▁တွင်း	-2664
ဘိုးဘေး	-2665
သောစကား	-2666
▁သူ၏သား	-2667
▁ဤသူသည်	-2668
▁ငါအမှန်	-2669
ကြသောအခါ၊	-2670
တယောက်ကို	-2671
▁စားသောက်	-2672
▁ဘွားမြင်	-2673
နိုင်အောင်	-2674
▁လူအသက်ကို	-2675
▁ဤသူတို့သည်	-2676
ဖြစ်လိမ့်မည်။	-2677
ဟေ	-2678
အရ	-2679
န္န	-2680
ဂုဏ်	-2681
ထိပ်	-2682
ဖလား	-2683
အိုး	-2684
▁ငယ်	-2685
▁ဗေသ	-2686
ရှလုံ	-2687
သေး၏။	-2688
▁၎င်း	-2689
ရွံရှာ	-2690
▁အာဟပ်	-2691
စီးသူရဲ	-2692
ဆိုကြ၏။	-2693
ပျက်စီး	-2694
ောက်မက်	-2695
လမ်းသို့	-2696
▁ပြောင်း	-2697
ခြင်းတွင်	-2698
တည်းဟူသော၊	-2699
လျက်ရှိသော	-2700
တို့ကို၎င်း	-2701
▁ဖာရောဘုရင်	-2702
▁ယေရောဗောင်	-2703
▁ရှက်ကြောက်	-2704
ဖဲ့	-2705
▁ဟိ	-2706
ကြစေ။	-2707
လုံး၌	-2708
ာလိုက်	-2709
▁ခါလဒဲ	-2710
▁တည်း။	-2711
▁သက်သာ	-2712
ထုံးဖွဲ့	-2713
▁ပယ်ရှား	-2714
▁ယောနသန်	-2715
▁အမှုအရာ	-2716
အကျွန်ုပ်	-2717
▁ပြင်းစွာ	-2718
တော်မူချက်	-2719
တော်မူသည်ဟု	-2720
▁အမျိုးမျိုး	-2721
▁အမျိုးအနွယ်	-2722
ဖြစ်ကြောင်းကို	-2723
▁လူအမျိုးမျိုး	-2724
▁ထာဝရဘုရားအဘို့	-2725
▁ယနေ့တိုင်အောင်	-2726
ညက်	-2727
▁ဂေ	-2728
ပြတ်	-2729
မွတ်	-2730
ဝှက်	-2731
ဆိုးမ	-2732
ပါရုံ	-2733
ပြု၏။	-2734
ိမလက်	-2735
▁လွှဲ	-2736
▁အလုပ်	-2737
▁ရဲရင့်	-2738
စေသတည်း။	-2739
▁ဆင်ခြင်	-2740
▁မြို့နယ်	-2741
▁သိုးထိန်း	-2742
တောင်ပေါ်မှာ	-2743
ပူ	-2744
ဂတိ	-2745
သခါ	-2746
ဟတ်	-2747
▁ဘိ	-2748
ရှန်	-2749
ဝေါ်	-2750
▁ဗေရ	-2751
▁ယုံ	-2752
▁ဟာမ	-2753
ခေါ်၍	-2754
တပြင်	-2755
အလင်း	-2756
ော့ဟု	-2757
▁ယောယ	-2758
▁အဆွေ	-2759
ပင်ကို	-2760
▁စိုက်	-2761
▁သားရဲ	-2762
▁ပြည်သူ	-2763
▁ရေတွက်	-2764
▁ရှောင်	-2765
ကြသည်ကို	-2766
ရှိသည်ဟု	-2767
အသက်ရှင်	-2768
▁မီးဖြင့်	-2769
ကာလပတ်လုံး	-2770
▁ထိုစကားကို	-2771
▁သူတို့နှင့်	-2772
▁ဆင့်ဆိုရမည်မှာ၊	-2773
ပိ	-2774
ိဗ	-2775
ံယ	-2776
၌၊	-2777
ခဒ်	-2778
ခရိ	-2779
ယေရ	-2780
ုဒ္ဒ	-2781
▁ရုဗ	-2782
▁နို့	-2783
အတောင်	-2784
ဦးမည်။	-2785
ူပါရုံ	-2786
▁ချုပ်	-2787
▁အသေခံ	-2788
ပေတည်း။	-2789
သီချင်း	-2790
အားကြီး	-2791
▁တကျိပ်	-2792
▁အမွေခံ	-2793
မြို့မှာ	-2794
လိုက်သော	-2795
အောက်မေ့	-2796
▁ရှုတ်ချ	-2797
▁အိပ်မက်	-2798
တိရစ္ဆာန်	-2799
▁တိုင်ပင်	-2800
ကြကုန်အံ့။	-2801
▁ရှောလုသည်	-2802
????????????	-2803
▁သန့်ရှင်းစေ	-2804
ခြင်းငှါ၎င်း၊	-2805
တော်မမူပါနှင့်။	-2806
ငတ်	-2807
နေ၍	-2808
ဗန်	-2809
မှ၊	-2810
အကဲ	-2811
လိလဲ	-2812
▁လှံ	-2813
ဗုခဒ်	-2814
▁ရေကို	-2815
▁လမ်း၌	-2816
▁သားဦး	-2817
▁ငါ့သား	-2818
▁စုံလင်	-2819
▁ထားဘေး	-2820
▁ဧလိရှဲ	-2821
▁ထိုနေ့၌	-2822
▁ထိုမင်း	-2823
▁မကြောက်	-2824
▁အဝတ်ကို	-2825
ွမ်းသတ္တိ	-2826
▁ကြီးမြတ်	-2827
▁ညည်းတွား	-2828
ခြင်းကိုခံ	-2829
▁ပို့ဆောင်	-2830
▁ပြောဆို၏။	-2831
▁သန့်ရှင်းသူ	-2832
▁ယဇ်ပုရောဟိတ်သည်	-2833
ထီး	-2834
တည်၍	-2835
သင်္	-2836
▁သေရ	-2837
ဆိတ်ညံ	-2838
ရုပ်တု	-2839
▁နေသော	-2840
ကြလိမ့်	-2841
ဖြစ်သည်	-2842
▁မေတ္တာ	-2843
အဘယ်သို့	-2844
▁အာမောရိ	-2845
▁ခရစ်တော်	-2846
ဖြစ်သည်ကို	-2847
သောစကားကို	-2848
▁ပြုတော်မူ	-2849
သမျှတို့ကို	-2850
▁လျှောက်လေ၏။	-2851
▁အခြားတပါးသော	-2852
▁ကျန်ကြွင်းသော	-2853
▁အရှင်မင်းကြီး	-2854
မ၊	-2855
ကူး	-2856
▁ဘာ	-2857
ပိတ်	-2858
ဖန်း	-2859
▁ထပ်	-2860
▁မျှ	-2861
တပါး၊	-2862
ပြုမူ	-2863
▁ခုတ်	-2864
▁မြတ်	-2865
ခြင်းအ	-2866
မျိုး၊	-2867
လိုက်၍	-2868
▁သတ္တမ	-2869
▁သမုတ်	-2870
▁သတည်း။	-2871
▁အနိုင်	-2872
▁ဤအရပ်၌	-2873
ဆိုလျက်၊	-2874
များပြား	-2875
သောအရပ်၌	-2876
ုန်မြို့	-2877
▁ကျိန်ဆဲ	-2878
▁ချောင်း	-2879
သောသူနှင့်	-2880
▁အိပ်ပျော်	-2881
▁??????????	-2882
▁ချည်နှောင်	-2883
အပေါင်းတို့အား	-2884
ဆန်	-2885
ဖုရ	-2886
စို့	-2887
▁ဆေး	-2888
▁ရင်	-2889
▁အနံ	-2890
ိုထား	-2891
▁ဖြို	-2892
ဝါးကပ်	-2893
▁ဒုက္ခ	-2894
▁နက်နဲ	-2895
▁ရုဗင်	-2896
ပတ်လည်၌	-2897
▁ကြံစည်	-2898
▁ကြောင်း	-2899
▁ကွဲပြား	-2900
▁မှာလိုက်	-2901
▁လွင်ပြင်	-2902
ထာဝရဘုရားသည်	-2903
ဒျ	-2904
ရ၊	-2905
မက၊	-2906
ဆန့်	-2907
ရုံး	-2908
▁ဂဒ်	-2909
▁ဂေါ	-2910
▁လေဗ	-2911
▁အာန	-2912
အသွေး	-2913
ျာလက်	-2914
▁မွတ်	-2915
ကိမင်း	-2916
ကိုယူ၍	-2917
စုအဝေး	-2918
အရပ်မှ	-2919
ကြသလော။	-2920
လေသော်၊	-2921
သမျှကို	-2922
▁လက်နက်	-2923
▁လူတို့	-2924
▁အရာကို	-2925
▁ဣသရေလလူ	-2926
▁ကယ်လွှတ်	-2927
ပေးတော်မူသော	-2928
▁ခရစ်တော်သည်	-2929
▁မောရှေနှင့်	-2930
နှင့်ဆိုင်သော	-2931
▁ရောက်သောအခါ၊	-2932
မံ	-2933
ခက်	-2934
မြံ	-2935
ုရု	-2936
▁မချ	-2937
ဖုရား	-2938
▁ဝှက်	-2939
▁အမြဲ	-2940
ည်းကပ်	-2941
▁ထိုလူ	-2942
ကြသော်၊	-2943
တကောင်၊	-2944
နှစ်သက်	-2945
ပါပြီဟု	-2946
▁စားပွဲ	-2947
နှင်ထုတ်	-2948
▁ကျွန်ခံ	-2949
▁ကြလော့။	-2950
▁ဆိုလေ၏။	-2951
▁တရားကို	-2952
▁ဧည့်သည်	-2953
တ္တိကျမ်း	-2954
အမည်ဖြင့်	-2955
▁မွတ်သိပ်	-2956
▁အမှုတော်	-2957
▁ကြောက်မက်	-2958
▁ရွေးနှုတ်	-2959
▁ထိုသူတို့ကို	-2960
ယံ	-2961
▁ဝေ	-2962
င့်တ	-2963
မြန်	-2964
▁ခွဲ	-2965
▁ဘက်	-2966
▁ဧလျ	-2967
ထံမှာ	-2968
မောင်	-2969
ရှိန်	-2970
အဝတ်ကို	-2971
ေရုဗိမ်	-2972
▁သည်းခံ	-2973
▁သမုဒ္ဒ	-2974
ထိုက်သော	-2975
သုံးယောက်	-2976
▁မျိုးစေ့	-2977
ထာဝရဘုရား၏	-2978
မည်သည်ကား၊	-2979
▁ဆုံးရှုံး	-2980
▁တုန်လှုပ်	-2981
ဝါးကပ်တိုင်	-2982
▁ရှင်ဘုရင်၏	-2983
ခြင်းအမှုကို	-2984
ရမည်အကြောင်း	-2985
ခြင်းအကြောင်း	-2986
ဖာ	-2987
ပ္ပ	-2988
ဖြူ	-2989
▁ထဲ	-2990
ကြို	-2991
နေဇာ	-2992
နေ့၊	-2993
မလည်	-2994
ယသည်	-2995
အမွေ	-2996
▁စွဲ	-2997
▁ဒန်	-2998
▁တဆေး	-2999
▁မြက်	-3000
▁ဧသော	-3001
▁ကြမ်း	-3002
▁စိတ်မ	-3003
▁ညှိုး	-3004
▁တတ်၏။	-3005
▁လောင်	-3006
တရှောက်	-3007
▁စားစရာ	-3008
▁ထိုအရာ	-3009
ခြင်းအရာ	-3010
စေတော်မူ	-3011
မြို့ရွာ	-3012
လျက်နေ၏။	-3013
အသီးအသီး	-3014
▁ပင်ပန်း	-3015
▁မှူးမတ်	-3016
▁သူနှင့်	-3017
ယေရှုခရစ်	-3018
တို့ကလည်း၊	-3019
▁ငါသည်လည်း	-3020
▁ယုဒအမျိုး	-3021
▁ငါ့ရှေ့မှာ	-3022
▁ရှင်းရှင်း	-3023
▁ထိုအကြောင်း	-3024
▁သုတ်သင်ပယ်ရှင်း	-3025
▁ဇေ	-3026
ထား၍	-3027
မပေး	-3028
▁မြှ	-3029
▁အာသ	-3030
▁အာဏာ	-3031
ဆောင်၍	-3032
သီးကို	-3033
▁ကုန်း	-3034
▁အရပ်၌	-3035
ကြားမှာ	-3036
မှောက်၌	-3037
▁ဝင်စား	-3038
▁သစ်ပင်	-3039
နှိမ့်ချ	-3040
မျှလောက်	-3041
သောအထည်၊	-3042
▁အဗရှလုံ	-3043
▁မြို့ကို	-3044
ကြားလျှင်၊	-3045
▁ကျိန်းဝပ်	-3046
▁ဆင်းသက်သော	-3047
▁ဗိမာန်တော်၌	-3048
▁ဖြစ်လိမ့်မည်။	-3049
▁အပြစ်ဖြေရာယဇ်	-3050
ပဌ	-3051
လ၊	-3052
ံ၊	-3053
တီး	-3054
ပမာ	-3055
သတိ	-3056
က္ခာ	-3057
ချော	-3058
ပကတိ	-3059
▁ထက်	-3060
▁ရွာ	-3061
မှတ်၍	-3062
ထောင့်	-3063
▁ငါ၏လူ	-3064
▁ဆောက်	-3065
▁မသွား	-3066
▁လှုပ်	-3067
▁ဣဇာက်	-3068
▁ဤရွေ့	-3069
ဘက်သို့	-3070
▁ထိုအတူ	-3071
▁လက်ကို	-3072
မြို့သည်	-3073
သောသူအား	-3074
▁ပေးသနား	-3075
▁အသက်ကို	-3076
▁ထားနှင့်	-3077
▁ထိုမြို့၌	-3078
▁မုတ်ဆိုးမ	-3079
ပေးတော်မူ၏။	-3080
▁ထိုအမှုကို	-3081
နည်းဟူမူကား၊	-3082
▁???????????	-3083
▁ပေးတော်မူ၏။	-3084
▁ယုဒအမျိုးသား	-3085
▁ဣသရေလအမျိုး၌	-3086
▁အမျိုးသားချင်း	-3087
၏၊	-3088
ခန္	-3089
ကျပ်	-3090
တုံ၊	-3091
မုတ်	-3092
လွင်	-3093
သင်၏	-3094
▁ဣရှ	-3095
ရောဂါ	-3096
▁အထူး	-3097
▁အနက်	-3098
▁ဤလောက	-3099
▁ခေါ်၍၊	-3100
▁ဂါလိလဲ	-3101
▁ငြိမ်း	-3102
▁စေ့စေ့	-3103
▁မူကား၊	-3104
▁ရွံရှာ	-3105
ဖြစ်ပါ၏။	-3106
▁ယေရှုက၊	-3107
တောင်းပန်	-3108
ပြုလျှင်၊	-3109
▁ဂုဏ်အသရေ	-3110
▁ဆန့်ကျင်	-3111
▁မီးလောင်	-3112
▁သက်ရောက်	-3113
သည်ဖြစ်စေ၊	-3114
▁ဆောင်သွား	-3115
သည်ကို၎င်း၊	-3116
▁စပျစ်ဥယျာဉ်	-3117
▁နိုင်ငံတော်	-3118
▁ကောင်းကင်ဘုံ၌	-3119
▁အသေသတ်ခြင်းကို	-3120
္ဗ	-3121
ကျီ	-3122
ကြာ	-3123
▁နီ	-3124
သိက်	-3125
ငြင်း	-3126
တွေဝေ	-3127
ထသော၊	-3128
မပြော	-3129
▁ကျယ်	-3130
နာမကို	-3131
မိုဃ်း	-3132
မြေကို	-3133
အမိန့်	-3134
ိပ်စက်	-3135
▁ခံရကြ	-3136
▁ပြန်၍	-3137
နည်းငယ်	-3138
ပြုကြ၏။	-3139
မြေကြီး	-3140
သားသမီး	-3141
▁လိုက်၍	-3142
▁ငါတို့၌	-3143
▁ဒါဝိဒ်၏	-3144
▁အလိုရှိ	-3145
▁အသီးအနှံ	-3146
▁လွှမ်းမိုး	-3147
▁ပြန်လျှောက်	-3148
▁ယုံကြည်ခြင်း	-3149
▁နှုတ်ကပတ်တော်	-3150
ရာဇ	-3151
သဏ္	-3152
ကလေး	-3153
နား၊	-3154
မြော	-3155
ဥပဒ်	-3156
▁မယ်	-3157
▁အမဲ	-3158
▁အာခ	-3159
▁ထုံး	-3160
▁ပသခါ	-3161
▁မပေး	-3162
သက်သက်	-3163
▁ကျော့	-3164
▁ပိုင်	-3165
▁အခွန်	-3166
▁အနောက်	-3167
ဒုစရိုက်	-3168
ပြည်ပြည်	-3169
ပြီတကား။	-3170
▁နာမတော်	-3171
▁ပေါ်မှာ	-3172
တယောက်မျှ	-3173
ဗုခဒ်နေဇာ	-3174
▁ပြန်သွား	-3175
▁အိုဣသရေလ	-3176
▁မိန်းမသည်	-3177
လျက်ရှိကြ၏။	-3178
▁ငါတို့သခင်	-3179
▁ပြန်ပြော၏။	-3180
▁အာရုန်နှင့်	-3181
▁ဖြောင့်မတ်သော	-3182
▁ဝိညာဉ်တော်သည်	-3183
ဒေ	-3184
မယူ	-3185
ဝယ်	-3186
ှဉ်	-3187
▁ကိ	-3188
▁ထိ	-3189
မြည်	-3190
လေရာ	-3191
၌လည်း	-3192
▁မိဒျ	-3193
လက်နက်	-3194
▁စေတနာ	-3195
▁ကြွယ်ဝ	-3196
▁သတ္တဝါ	-3197
▁သနည်း။	-3198
ကဲ့သို့၊	-3199
ဆုတောင်း	-3200
▁ကိုးစား	-3201
▁လူဆိတ်ညံ	-3202
▁အစရှိသော	-3203
▁စေလွှတ်၍၊	-3204
▁ရှေ့ဦးစွာ	-3205
ချီးမြှောက်	-3206
▁ကာလပတ်လုံး	-3207
▁ဖါရောဘုရင်	-3208
ရှင်ဘုရင်သည်	-3209
▁တံပိုးမှုတ်	-3210
ချ၍	-3211
မနာ	-3212
နား၌	-3213
အတတ်	-3214
▁တညီ	-3215
▁မကျ	-3216
▁လူတ	-3217
င်္ဂါ	-3218
ထား၍၊	-3219
ပြုစု	-3220
အပြား	-3221
▁တတိယ	-3222
▁ဘာသာ	-3223
▁မဝင်	-3224
ဘို့ရာ	-3225
သူတို့	-3226
▁ကျော်	-3227
ထားကြ၏။	-3228
ောတွေဝေ	-3229
▁မြို့ရွာ	-3230
▁လှည့်စား	-3231
▁အသွေးကို	-3232
ပြန်လျှင်၊	-3233
▁ရောက်ကြ၏။	-3234
▁ထိုမင်းသည်	-3235
▁?????????????	-3236
▁ထာဝရဘုရားသည်၊	-3237
▁နံ့သာပေါင်းကို	-3238
္ဌ	-3239
စေ၍	-3240
▁နိ	-3241
▁နူ	-3242
ခန့်	-3243
စွပ်	-3244
ပေး၍	-3245
ရွှေ	-3246
▁ကြာ	-3247
ပေး၏။	-3248
▁မပြော	-3249
▁ထိုကာလ	-3250
▁သိမြင်	-3251
▁အပြစ်မ	-3252
ပြင်သို့	-3253
▁ခိုင်မာ	-3254
▁စားခန်း	-3255
▁တကျွန်း	-3256
▁ထိုမျှမ	-3257
▁ထူးဆန်း	-3258
▁ရှိမုန်	-3259
ကြွင်းမဲ့	-3260
▁ငါ့ကျွန်	-3261
▁လူတိုင်း	-3262
▁ဟူမူကား၊	-3263
▁အမှီပြု၍	-3264
ကျေးဇူးကို	-3265
▁ဒါဝိဒ်ကို	-3266
သောသူဖြစ်၏။	-3267
▁ဖြစ်တော်မူ၏။	-3268
▁အိမ်နီးချင်း	-3269
တော်မူခြင်းကို	-3270
မရ	-3271
္ထ	-3272
ဒေသ	-3273
ကြ၍၊	-3274
တည့်	-3275
ထည့်	-3276
မှီ၊	-3277
ူသော	-3278
▁ကမ္	-3279
▁ပြာ	-3280
▁မနေ	-3281
ညှိုး	-3282
ပေါ်က	-3283
မဖြစ်	-3284
▁ကျင်	-3285
▁ချို	-3286
▁နေ၏။	-3287
စိုးစံ	-3288
ဆိုသော	-3289
ုရောက်	-3290
▁ပျော်	-3291
▁ဖြင့်	-3292
▁လက်ဝဲ	-3293
▁ဟေဇကိ	-3294
▁အရိုး	-3295
ချင်သော	-3296
▁တံဆိပ်	-3297
▁ဘိသိက်	-3298
▁မိဒျန်	-3299
▁သားကို	-3300
▁အစိုးရ	-3301
▁အပ်နှံ	-3302
ော်ကြည့်	-3303
▁လေဗနုန်	-3304
▁သခင်သည်	-3305
▁သောအခါ၊	-3306
▁အားကြီး	-3307
အားဖြင့်၊	-3308
▁ယေရှုကို	-3309
▁ဤအမှုကို	-3310
ပါစေနှင့်။	-3311
▁ကျွေးမွေး	-3312
နှောင့်ရှက်	-3313
▁မြေကြီးကို	-3314
▁အလုံးအရင်း	-3315
▁နိမိတ်လက္ခဏာ	-3316
ကျေးဇူးတော်ကို	-3317
▁အပေါင်းတို့ကို	-3318
သန္	-3319
လှန်	-3320
သင်း	-3321
အစည်	-3322
အဝတ်	-3323
ဥာဏ်	-3324
▁ဆူး	-3325
▁ရှု	-3326
▁ဟာန	-3327
▁အလှ	-3328
ထား၏။	-3329
နွမ်း	-3330
▁စမ်း	-3331
▁ဇာတိ	-3332
▁ထင်း	-3333
▁ဗေသလ	-3334
ကယ်တင်	-3335
ပြိုင်	-3336
ယာကုပ်	-3337
ော်ဒကဲ	-3338
▁လူသား	-3339
▁အာဗြံ	-3340
▁အာမင်	-3341
▁ပြုသော	-3342
▁လျှော်	-3343
တော်မူရာ	-3344
▁စာရေးတံ	-3345
▁ပြုကြ၏။	-3346
▁ဖြောင့်	-3347
▁ဘမ်းဆီး	-3348
တို့အဘို့	-3349
▁ကွပ်မျက်	-3350
▁ခေရုဗိမ်	-3351
▁ပေးလိုက်	-3352
▁သမုဒ္ဒရာ	-3353
▁သို့ဖြစ်	-3354
▁ငါတို့အား	-3355
▁နှစ်ယောက်	-3356
▁ကျေးဇူးကို	-3357
▁အဘယ်သူမျှမ	-3358
▁မြင်းစီးသူရဲ	-3359
▁အကျွန်ုပ်တို့၏	-3360
▁ဧဝံဂေလိတရားကို	-3361
ခပ်	-3362
ဝံ့	-3363
သေရ	-3364
အဘ၏	-3365
မွန်	-3366
ယုတ်	-3367
သတ္တ	-3368
ိခေါ	-3369
ိသန္	-3370
▁မမူ	-3371
▁မြဲ	-3372
▁ဟေလ	-3373
မင်း၏	-3374
မိသော	-3375
အများ	-3376
▁ရိတ်	-3377
▁အရာ၌	-3378
မေတ္တာ	-3379
ရက်နေ့	-3380
▁ဗာလမ်	-3381
▁ထိုနေ့	-3382
▁နေရာကျ	-3383
ကြပါပြီ။	-3384
▁သိုးထီး	-3385
အကျိုးကို	-3386
▁ပြုရမည်။	-3387
▁မေ့လျော့	-3388
ကြပါစေသော။	-3389
▁တည်းဟူသော	-3390
▁ပေးတော်မူ	-3391
▁ဘုန်းအသရေ	-3392
▁မိမိကျွန်	-3393
▁ယေရုရှလင်	-3394
▁အစိုးရသော	-3395
▁ငါနှင့်အတူ	-3396
▁မီးရှို့ရာ	-3397
▁ရှောက်သွား	-3398
▁အားကြီးသော	-3399
▁နှောင့်ရှက်	-3400
▁အိုဘုရားသခင်၊	-3401
▁နားထောင်ကြလော့။	-3402
▁အလုံးစုံတို့ကို	-3403
တကာ	-3404
တ္ထ	-3405
ထူး	-3406
ခြုံ	-3407
နှံ့	-3408
ယဇ်ပ	-3409
ိလတ်	-3410
▁လှေ	-3411
ုဘော်	-3412
▁ပါ၏။	-3413
▁ဖလား	-3414
▁သမျှ	-3415
▁အပင်	-3416
▁အသစ်	-3417
ဘက်မှာ	-3418
▁ထွက်၍	-3419
▁မွှေး	-3420
ရေတွင်း	-3421
▁ငါသိ၏။	-3422
▁သိမှတ်	-3423
▁သွား၍၊	-3424
မီးရှို့	-3425
ဝန်းကျင်	-3426
▁ခံရမည်။	-3427
▁ညဉ့်အခါ	-3428
▁တပ်မှူး	-3429
▁ထိုပြည်	-3430
▁အသီးသီး	-3431
ခေါင်းကို	-3432
ယဇ်ပလ္လင်	-3433
သိတင်းကို	-3434
ွေ့ခြောက်	-3435
▁ဥပုသ်နေ့	-3436
▁ကုလားအုပ်	-3437
▁ဆုံးမဩဝါဒ	-3438
▁မစိုးရိမ်	-3439
▁ယခုမူကား၊	-3440
▁အကျိုးကို	-3441
▁လွှတ်လိုက်	-3442
▁ကြလိမ့်မည်။	-3443
▁ခိုင်ခံ့သော	-3444
▁စကားတော်ကို	-3445
▁ပူဇော်ရမည်။	-3446
ကွ	-3447
ခဏ	-3448
တစု	-3449
▁ခဏ	-3450
▁ဒါ	-3451
▁ပု	-3452
▁ယု	-3453
ခင်း	-3454
နှော	-3455
▁တခု	-3456
▁ဒေါသ	-3457
▁မတည်	-3458
င်္ကျီ	-3459
ပြန်၏။	-3460
ဝိုင်း	-3461
▁အာရဇ်	-3462
ကြပြီဟု	-3463
ခိုလှုံ	-3464
ခြားနား	-3465
စေခြင်း	-3466
▁မလိုက်	-3467
▁မေထုန်	-3468
▁ရှေခင်	-3469
▁သတိပြု	-3470
▁အသံကို	-3471
ခြင်းဘေး	-3472
စပ်ဆိုင်	-3473
တနိုင်ငံ	-3474
ပိုင်သော	-3475
မြို့နယ်	-3476
လက်နှင့်	-3477
▁ငါစီရင်	-3478
▁မော်ဒကဲ	-3479
▁ယေရိခေါ	-3480
စိတ်နှင့်	-3481
▁ခရီးသွား	-3482
▁ထမ်းဘိုး	-3483
▁ပိတ်ချော	-3484
▁လူသားသည်	-3485
ညတ္တိကျမ်း	-3486
▁တပြည်လုံး	-3487
▁ယောရှုသည်	-3488
▁လူအစုအဝေး	-3489
ပိုင်းအခြား	-3490
▁မကောင်းသော	-3491
ဘုရားသခင်သည်	-3492
▁ကျေးဇူးတော်	-3493
▁တောင်ပေါ်မှာ	-3494
▁ယုဒလူတို့သည်	-3495
ဘဏ္	-3496
သတာ	-3497
သူ့	-3498
အရေ	-3499
▁ထံ	-3500
ဘမ်း	-3501
ရထား	-3502
▁ဖြေ	-3503
▁မိမ	-3504
▁ရက်	-3505
ပြင်း	-3506
သဖန်း	-3507
▁ရသော	-3508
မည်သော	-3509
သည်ထက်	-3510
▁ခေါ်၍	-3511
▁သောသူ	-3512
▁ဟူသော	-3513
ကြသည်ဟု	-3514
ဆင်ခြင်	-3515
ပေးမည်။	-3516
ပြင်ဆင်	-3517
လုပ်ကြံ	-3518
▁ထိုသူ၏	-3519
▁ဘုရား၊	-3520
အလုံးစုံ	-3521
▁များစွာ	-3522
▁ရဲတိုက်	-3523
▁လက်ျာလက်	-3524
▁ငါစေလွှတ်	-3525
▁တော်မူသော	-3526
▁နေ့တိုင်း	-3527
နိုင်သနည်း။	-3528
▁ပြင်းစွာသော	-3529
▁ကြည့်ရှုလော့။	-3530
တော်မူကြောင်းကို	-3531
နိ၊	-3532
ပြေ	-3533
အာန	-3534
ဖြား	-3535
ဘာသာ	-3536
အဝင်	-3537
▁ကင်	-3538
▁ဇေဒ	-3539
▁ဒံယ	-3540
▁သေလ	-3541
စောင်	-3542
ထိန်း	-3543
သိန်း	-3544
ေရင်း	-3545
▁ဟုတ်	-3546
ငွေကို	-3547
ထောင်၊	-3548
နန်းစံ	-3549
သေးသော	-3550
▁ဧလာဇာ	-3551
စစ်ကြော	-3552
တရားသည်	-3553
သင်တို့	-3554
သောသဘော	-3555
ဟူ၍၎င်း	-3556
▁ငွေကို	-3557
▁သံလွင်	-3558
စည်းစိမ်	-3559
▁ယခုတွင်	-3560
▁ဟေဗြုန်	-3561
နှင့်တူ၏။	-3562
▁ထိုပြည်၌	-3563
▁အရှက်ကွဲ	-3564
မင်္ဂလာကို	-3565
ရှိသမျှသည်	-3566
▁ကရုဏာတော်	-3567
▁မေးလျှင်၊	-3568
တိုင်အောင်၊	-3569
▁သခင်ဘုရား၏	-3570
▁ဆန့်ကျင်ဘက်	-3571
▁ဗျာဒိတ်တော်	-3572
▁သောကြောင့်၊	-3573
တော်မူသောအခါ၊	-3574
တော်မူသည်ဖြစ်၍၊	-3575
နီ	-3576
ဗလ	-3577
စာ၌	-3578
လှဲ	-3579
အာဗ	-3580
▁သု	-3581
ပဌနာ	-3582
သေး။	-3583
ံပင်	-3584
▁ဂေရ	-3585
▁တကွ	-3586
▁ဘတ်	-3587
▁ဝယ်	-3588
▁အဘ၏	-3589
▁အမှ	-3590
ခံသော	-3591
စိုက်	-3592
တပည့်	-3593
ဒုက္ခ	-3594
မာသက်	-3595
▁ငွေအ	-3596
▁လုံး	-3597
▁လူစု	-3598
▁ဝစွာ	-3599
ငါ့ကို	-3600
သတ္တဝါ	-3601
ျားရည်	-3602
▁ချွတ်	-3603
▁ငါအပ်	-3604
▁တဘက်၌	-3605
▁ပုန်း	-3606
▁မိမိမ	-3607
▁အနန္တ	-3608
စိတ်ကို	-3609
ပါလော့။	-3610
▁စိုးစံ	-3611
ဆုံးဖြတ်	-3612
တတ်နိုင်	-3613
မျိုးကို	-3614
▁ဘေးဥပဒ်	-3615
စေသဖြင့်၊	-3616
ရှိလျှင်၊	-3617
▁ပူဇော်သော	-3618
▁သေခြင်းမှ	-3619
စေတော်မူပါ။	-3620
▁အကျွန်ုပ်၌	-3621
ယဇ်ပုရောဟိတ်	-3622
အပေါင်းတို့၊	-3623
▁ကိုယ်တော်က၊	-3624
▁ထို့ကြောင့်	-3625
▁မိန်းမောတွေဝေ	-3626
▁လူများတို့အား	-3627
▁လက်ဝါးကပ်တိုင်	-3628
ဒပ်	-3629
စရပ်	-3630
▁ဆရာ	-3631
▁မတ်	-3632
▁သီး	-3633
တော့။	-3634
ပေါလု	-3635
ရှေ့၊	-3636
လုပ်၍	-3637
▁ယေဟု	-3638
▁ယောဘ	-3639
ကဲ့ရဲ့	-3640
တောင်၊	-3641
သေတ္တာ	-3642
ဟာယယဇ်	-3643
ဟောင်း	-3644
▁ကမ္ဘာ	-3645
▁မကြား	-3646
▁ယူခဲ့	-3647
▁အခန်း	-3648
▁ဤအရပ်	-3649
စကားသည်	-3650
နည်းတူ၊	-3651
ဘွားသော	-3652
▁ဗာရှန်	-3653
▁ရန်ဘက်	-3654
ပြန်ပြော	-3655
အစဉ်အဆက်	-3656
▁ကျင်လည်	-3657
ပါစေသောဟု	-3658
မြော်လင့်	-3659
▁ငါမှာထား	-3660
▁ငါ့ခမည်း	-3661
▁စိတ်ပျက်	-3662
▁ထားဖြင့်	-3663
▁မြွက်ဆို	-3664
▁ယောရှဖတ်	-3665
▁လမ်းခရီး	-3666
▁လှည့်လည်	-3667
▁နှုတ်ဆောင်	-3668
သည်နှင့်အညီ၊	-3669
▁အမှုတို့ကို	-3670
▁ရန်သူတို့ကို	-3671
▁ရှင်ဘုရင်ကို	-3672
ဖြစ်စေခြင်းငှါ	-3673
မှီတိုင်အောင်၊	-3674
▁အမိန့်တော်ရှိ	-3675
မြို့သားတို့သည်	-3676
▁ပူဇော်သက္ကာကို	-3677
▁ရောက်လိမ့်မည်။	-3678
▁လေဝိသားတို့သည်	-3679
တော်မူသည်အတိုင်း	-3680
ဖူ	-3681
ဒဒ်	-3682
ဗက်	-3683
မူး	-3684
ခမ်း	-3685
စား၍	-3686
နွယ်	-3687
ွှယ်	-3688
▁စတု	-3689
▁ပြီ	-3690
တွန်း	-3691
ဗိုလ်	-3692
▁နေကြ	-3693
▁ယေရု	-3694
▁သူ၏အ	-3695
ကြိုင်	-3696
ပင်လယ်	-3697
လွှမ်း	-3698
▁ပိလတ်	-3699
▁သခင်၏	-3700
▁သည်ဟု	-3701
သောအကြံ	-3702
ဟာယဖွဲ့	-3703
▁ငါချစ်	-3704
မည်လောဟု	-3705
▁တည်းခို	-3706
ဆောင်ရွက်	-3707
ထဲသို့ဝင်	-3708
သို့၎င်း၊	-3709
▁ကိုက်စား	-3710
▁ကျမ်းပြု	-3711
▁ဖြိုဖျက်	-3712
▁ဝမ်းနည်း	-3713
သင်တို့သည်	-3714
▁ကိုယ်အလို	-3715
▁ပေါ်ထွန်း	-3716
သောအသံနှင့်	-3717
▁ဗတ္တိဇံကို	-3718
▁မတရားသဖြင့်	-3719
▁မိမိအဝတ်ကို	-3720
ရှိသည်အတိုင်း	-3721
▁ခံရလိမ့်မည်။	-3722
▁ပေးတော်မူသော	-3723
▁ယဇ်ပလ္လင်ကို	-3724
▁မိန့်တော်မူသော	-3725
သဲ	-3726
ရသည်	-3727
▁ဆန်	-3728
▁အင်	-3729
ကြပါ။	-3730
စ်မူး	-3731
န်သည်	-3732
ရပြီ။	-3733
သစ္စာ	-3734
သားရဲ	-3735
အပေါ်	-3736
▁တကား	-3737
▁ပန်း	-3738
▁မြွေ	-3739
▁လင်း	-3740
▁သည်၊	-3741
▁ဆက်ဆံ	-3742
▁ဖါရော	-3743
တို့ထက်	-3744
များစွာ	-3745
အားထုတ်	-3746
အိမ်ကို	-3747
▁ဒမာသက်	-3748
ညွတ်တည်း	-3749
ရှိသောသူ	-3750
အာနုဘော်	-3751
အောက်မှာ	-3752
▁ကျက်စား	-3753
▁မိဖုရား	-3754
▁သည်လည်း	-3755
သွေးဆောင်	-3756
▁ခေါ်ဝေါ်	-3757
▁ငြင်းပယ်	-3758
▁မုန့်ညက်	-3759
▁ဟစ်ကြော်	-3760
နိုင်ငံကို	-3761
လျှင်၎င်း၊	-3762
▁ပြောင်းလဲ	-3763
▁ရာဇပလ္လင်	-3764
▁သင်တို့သိ	-3765
များကိုလည်း	-3766
▁စပျစ်ရည်ကို	-3767
▁စက်ဆုပ်ရွံရှာ	-3768
ဖိ	-3769
ပါ၊	-3770
▁မသ	-3771
ကြုံ	-3772
တော၌	-3773
ထွေး	-3774
▁ခင်	-3775
ကြွလာ	-3776
ငါသည်	-3777
ငြိမ်	-3778
မုန်း	-3779
အမှန်	-3780
▁ကယ်မ	-3781
▁ကြယ်	-3782
▁တုရု	-3783
▁ထပ်၍	-3784
▁ယူ၍၊	-3785
ထွက်၍၊	-3786
▁ရိုသေ	-3787
▁အဆုံး	-3788
စဉ်အခါ၊	-3789
ဖန်ဆင်း	-3790
လေရာရာ၌	-3791
အမျိုး၏	-3792
▁သိုထား	-3793
ကင်းလွတ်	-3794
နိုင်ကြ။	-3795
▁အဘိမလက်	-3796
ရှိသည်ကို	-3797
လမ်းဖြင့်	-3798
ဝိညာဉ်သည်	-3799
▁တတ်နိုင်	-3800
▁ပေါလုသည်	-3801
▁မုန့်ကို	-3802
▁အလုံးစုံ	-3803
▁ဥစ္စာကို	-3804
▁ထိုမှတပါး	-3805
▁ပျော်မွေ့	-3806
▁ယာကုပ်သည်	-3807
▁ယောသပ်သည်	-3808
▁ရှိသတည်း။	-3809
▁ပေါင်းဘော်	-3810
▁နက်ဖြန်နေ့၌	-3811
▁အကြောင်းကို	-3812
လိမ့်မည်နည်း။	-3813
▁သင်တို့အဘို့	-3814
▁အနန္တတန်ခိုး	-3815
ခြံ	-3816
ငါ၏	-3817
ဖို	-3818
လှံ	-3819
အာရ	-3820
▁ထူ	-3821
ကိုး	-3822
နေရာ၌	-3823
မြင်း	-3824
မှသည်	-3825
သောလူ	-3826
ောမနာ	-3827
▁ဆုတ်	-3828
▁ထည့်	-3829
▁နောဧ	-3830
▁ပြု၍	-3831
▁အဝေး	-3832
စေကြ၏။	-3833
တံပိုး	-3834
နှစ်ခု	-3835
ပါလျက်	-3836
သွားရာ	-3837
အရာရှိ	-3838
အရှိန်	-3839
▁လက်မှ	-3840
ကွဲပြား	-3841
ဆင်းသက်	-3842
▁စုံဘက်	-3843
▁စောင်း	-3844
မုန့်ကို	-3845
▁စောင့်မ	-3846
▁တော်သည်	-3847
▁ရောက်၍၊	-3848
▁ရှေ့မှာ	-3849
▁လည်ပင်း	-3850
▁အခါမလည်	-3851
ခေါင်းပါး	-3852
နှိုးဆော်	-3853
မဟုတ်လော။	-3854
ရွှင်လန်း	-3855
သောသူသည်၊	-3856
▁ကိုယ်ခန္	-3857
▁ကျောက်ခဲ	-3858
▁ခင်ပွန်း	-3859
▁ထိုဘုရား	-3860
▁သစ္စာဂတိ	-3861
▁အနာရောဂါ	-3862
▁အသေကောင်	-3863
▁တို့နှင့်	-3864
▁လိုက်ကြ၏။	-3865
တို့ရှေ့မှာ	-3866
သမျှအတိုင်း	-3867
▁တရားသူကြီး	-3868
သန့်ရှင်းသော	-3869
▁လျှောက်ကြ၏။	-3870
ခြင်းကို၎င်း၊	-3871
▁သင်္ဘောသဖန်း	-3872
▁စီရင်ထုံးဖွဲ့	-3873
▁အမြင့်ဆုံးသော	-3874
▁ဣသရေလလူတို့သည်	-3875
ထိ	-3876
ဂေါ	-3877
ပဲ့	-3878
ိမ္	-3879
▁ဒေ	-3880
တန်း	-3881
နေ၍၊	-3882
ဟုန်	-3883
▁ကား	-3884
အလွန်	-3885
၌၎င်း	-3886
▁အထပ်	-3887
ကြမည်။	-3888
ကြံစည်	-3889
▁ဖောက်	-3890
▁လက်ခံ	-3891
▁အသင့်	-3892
မြစ်ကို	-3893
▁စတုတ္ထ	-3894
▁ဆိုလို	-3895
▁နေရာချ	-3896
▁ပိုင်း	-3897
▁သောဒုံ	-3898
နိုင်ရာ။	-3899
ပြည်သား၊	-3900
သောအမှု၊	-3901
ိညာဉ်ကို	-3902
▁???????	-3903
▁နှစ်ဆယ်	-3904
မြို့ရိုး	-3905
ဝိညာဉ်ကို	-3906
▁ကြွင်းသော	-3907
▁သူသည်လည်း	-3908
တော်မူပြီဟု	-3909
▁အနိုင်အထက်	-3910
▁အစွမ်းသတ္တိ	-3911
▁သို့ပြုလျှင်	-3912
▁စားခန်းချကြ၏။	-3913
▁ပြည်သူပြည်သား	-3914
▁လျှောက်လျှင်၊	-3915
▁ရှိသမျှတို့ကို	-3916
တိမ	-3917
သနာ	-3918
▁ဩဇ	-3919
ခွင်	-3920
ပါလေ	-3921
▁ကိရ	-3922
▁ရှံ	-3923
ကျင်း	-3924
မြင်၍	-3925
ရှသား	-3926
▁ဖြတ်	-3927
▁မွေ့	-3928
▁ရွံ့	-3929
င့်တယ်	-3930
ဘော်ပြ	-3931
သစ်ကို	-3932
▁ဂိဒေါ	-3933
▁ထွန်း	-3934
▁မူပါ။	-3935
▁သလော။	-3936
▁အကျပ်	-3937
်	-3938
▁	-3939
ာ	-3940
ု	-3941
ိ	-3942
ေ	-3943
း	-3944
သ	-3945
က	-3946
င	-3947
မ	-3948
တ	-3949
့	-3950
ရ	-3951
ြ	-3952
အ	-3953
ှ	-3954
ည	-3955
န	-3956
လ	-3957
ပ	-3958
စ	-3959
၊	-3960
ျ	-3961
ူ	-3962
ခ	-3963
။	-3964
ါ	-3965
ွ	-3966
၏	-3967
ထ	-3968
ယ	-3969
ဘ	-3970
ံ	-3971
ီ	-3972
ဖ	-3973
၍	-3974
ဆ	-3975
ဝ	-3976
ဟ	-3977
ဲ	-3978
၌	-3979
?	-3980
္	-3981
ဒ	-3982
ဇ	-3983
ဗ	-3984
၎	-3985
ဉ	-3986
ဂ	-3987
ဣ	-3988
ဤ	-3989
ဏ	-3990
ဧ	-3991
ဥ	-3992
ဦ	-3993
ဃ	-3994
ဌ	-3995
ဩ	-3996
