<pad>	0
</s>	0
<unk>	0
¦	-1.26769
▁¦	-1.67903
▁	-2.87369
𐋇	-3.24208
ˈ	-3.34828
▁̈	-3.81543
▁,	-4.04556
ˈ¦	-4.17097
▁.	-4.44942
comam	-4.46464
naj	-4.74375
an	-4.83419
tu	-4.91977
ebnaj	-4.94365
yin	-4.96067
k	-5.02918
caw	-5.29538
ti	-5.31037
xin	-5.32107
ha	-5.34667
a	-5.42124
yul	-5.49669
anma	-5.50684
hune	-5.60367
e	-5.63324
yu	-5.65665
dios	-5.6821
yet	-5.71336
tzet	-5.7483
tet	-5.76198
yeb	-5.79367
ay	-5.83206
is	-5.85326
n	-5.86389
c	-5.94199
mach	-5.98742
▁:	-6.04304
ẍi	-6.11731
wal	-6.13124
isc	-6.17535
han	-6.21659
ta	-6.22514
haca	-6.22681
ul	-6.2489
to	-6.26107
o	-6.26188
ch	-6.34566
mac	-6.35383
▁―	-6.36269
jes	-6.3965
yuto	-6.44636
sat	-6.44783
yaj	-6.47364
sunil	-6.49468
tato	-6.50689
isk	-6.51298
yuxin	-6.53495
yalni	-6.5482
con	-6.60867
al	-6.6502
hac	-6.65118
ix	-6.67065
chi	-6.68057
ek	-6.70821
ya	-6.72023
isba	-6.72627
cat	-6.73146
s	-6.74255
tx	-6.74467
on	-6.74533
tz	-6.75909
en	-6.76034
hunt	-6.76056
ab	-6.77692
ban	-6.77763
ob	-6.78859
ni	-6.79617
bey	-6.83245
,	-6.83829
y	-6.84024
yi	-6.84594
no	-6.86902
hunu	-6.8903
te	-6.92711
u	-6.93547
bay	-6.96398
cristo	-6.97023
in	-6.97725
p	-6.98817
ú	-6.99849
tic	-6.99851
can	-7.0155
i	-7.0375
¿	-7.03908
jan	-7.04062
chu	-7.0502
xa	-7.0536
ulal	-7.1022
bal	-7.10772
ye	-7.12686
▁?	-7.14529
hex	-7.17253
machi	-7.21705
inal	-7.22015
co	-7.2302
xol	-7.23629
he	-7.23959
yal	-7.24801
ayco	-7.2538
lahwi	-7.26199
chal	-7.26397
teyet	-7.28756
nan	-7.32264
tzoti	-7.32754
yoc	-7.3301
watx	-7.35093
.	-7.36177
paxo	-7.42415
israel	-7.46371
ec	-7.46645
j	-7.51499
yip	-7.51614
ojan	-7.52768
oj	-7.54767
yun	-7.5696
ischejab	-7.58978
istx	-7.60022
lan	-7.63807
hey	-7.64196
mam	-7.64593
ma	-7.65765
il	-7.66514
”	-7.72001
matxa	-7.72313
tan	-7.75531
wi	-7.76597
otx	-7.76882
ojal	-7.77633
isya	-7.79081
tajil	-7.79545
hunun	-7.81089
iswi	-7.81185
cha	-7.82382
chiwal	-7.83305
niman	-7.83645
ayic	-7.85453
ton	-7.86162
▁;	-7.86184
atan	-7.86256
oc	-7.87462
haxa	-7.88073
yatut	-7.88138
iswatx	-7.89888
yelapno	-7.90839
ebix	-7.91462
heba	-7.92
ablo	-7.93356
lax	-7.94132
ib	-7.94334
hanin	-7.95921
ista	-7.96825
espíritu	-7.9845
isto	-7.99695
ixim	-7.99713
yilal	-8.01266
yapni	-8.0155
texol	-8.02794
we	-8.03114
yilni	-8.03869
ley	-8.05903
ca	-8.07538
sata	-8.07912
cano	-8.09054
é	-8.10074
yahawil	-8.10141
munil	-8.10156
mo	-8.10557
yehi	-8.107
cuywom	-8.10702
maca	-8.11373
ahol	-8.11994
chon	-8.13501
je	-8.14307
maẍto	-8.14854
el	-8.16121
jet	-8.16463
és	-8.16588
howal	-8.17322
chin	-8.17898
ilo	-8.18081
yaben	-8.19867
icham	-8.22083
¡	-8.22213
ah	-8.23239
lo	-8.23309
‐	-8.23803
wet	-8.23852
edr	-8.23856
cuybanile	-8.24549
ayto	-8.24887
juẍta	-8.25361
isbi	-8.26411
teyin	-8.26617
matzwalil	-8.26649
▁!	-8.26909
santo	-8.27155
nabal	-8.27174
win	-8.27297
wetan	-8.27306
tom	-8.27777
choche	-8.27907
istz	-8.29218
yebpaxo	-8.29668
xan	-8.29776
bil	-8.30489
xaco	-8.30618
chia	-8.30921
yinta	-8.31037
hach	-8.31097
ismul	-8.33475
ismajul	-8.3349
ja	-8.34051
anil	-8.34062
maẍ	-8.345
ángel	-8.34808
nich	-8.35196
xahan	-8.35597
ojab	-8.35858
waxa	-8.36071
janma	-8.3828
juan	-8.39506
jin	-8.39928
ayo	-8.40033
yeli	-8.40225
ap	-8.40338
inan	-8.40715
wa	-8.4139
hec	-8.4151
la	-8.42931
lahan	-8.42951
yalnipaxo	-8.43695
babel	-8.43748
apni	-8.47825
ón	-8.4818
taj	-8.49816
yuninal	-8.51176
canoj	-8.51999
yechel	-8.52285
t	-8.5242
amben	-8.53473
maẍtaj	-8.54005
hi	-8.55126
anmahil	-8.55183
as	-8.55187
le	-8.56243
chiwa	-8.57205
yel	-8.57977
chiyij	-8.58144
chex	-8.58154
chiswatx	-8.58783
ico	-8.58877
sa	-8.5906
wanma	-8.59268
xil	-8.59298
rus	-8.60418
sacerdote	-8.61291
ba	-8.61556
tiempo	-8.61863
yanico	-8.62408
macta	-8.62619
yec	-8.62689
yahaw	-8.62933
aypaxo	-8.63638
isnimanil	-8.63698
coba	-8.66783
wan	-8.67241
inmam	-8.6761
chioc	-8.68544
inc	-8.68587
anxa	-8.68625
chalni	-8.68853
ju	-8.6918
hunelxa	-8.69979
pax	-8.70334
isti	-8.70336
chiyu	-8.70743
colbanil	-8.708
heyu	-8.71653
mi	-8.73696
lin	-8.73697
yum	-8.74077
ej	-8.75981
che	-8.76277
isyelal	-8.76369
ayoj	-8.77077
cheyute	-8.77078
ham	-8.7736
wuẍtaj	-8.79285
rey	-8.79563
camom	-8.79956
hunxa	-8.80256
machojab	-8.80532
jahawil	-8.80988
camic	-8.81031
chito	-8.81511
yay	-8.81697
paxoj	-8.81733
wuh	-8.82959
b	-8.83228
om	-8.83285
ic	-8.83479
da	-8.84104
ayat	-8.86303
ist	-8.86944
chala	-8.87858
machoj	-8.87908
ayical	-8.8843
me	-8.88592
yah	-8.88772
winaj	-8.89324
cuywawom	-8.91646
ule	-8.92054
yohta	-8.92426
xahanbal	-8.92503
chute	-8.9397
hun	-8.94293
quin	-8.94507
chihul	-8.948
xinto	-8.95163
cheyil	-8.96072
cheya	-8.96496
preso	-8.96585
go	-8.97016
coc	-8.97265
diosal	-8.98653
yoj	-8.98801
chiec	-8.98839
hal	-8.99934
oji	-8.99957
lah	-9.00178
hanic	-9.00242
anc	-9.00393
ac	-9.00843
wanab	-9.01057
istzotel	-9.01079
tiempohal	-9.01424
fariseo	-9.02569
chitit	-9.02767
bar	-9.03043
camo	-9.03119
ehal	-9.03205
iscam	-9.03371
ex	-9.03707
hunel	-9.04613
yeco	-9.0467
cam	-9.05136
ebilcano	-9.05232
chul	-9.06139
yaco	-9.06402
yan	-9.06431
helanil	-9.06871
hunuxa	-9.06921
chaco	-9.07913
chico	-9.08568
culus	-9.09879
inti	-9.10611
lek	-9.11079
ismi	-9.12203
melyu	-9.127
chic	-9.12757
mar	-9.13723
abr	-9.14166
tzujan	-9.14309
heyalni	-9.1477
ayex	-9.16504
sic	-9.17136
man	-9.17848
soldado	-9.18795
unin	-9.19084
ip	-9.19706
ría	-9.19781
tzalahilal	-9.19837
ayc	-9.20203
chisje	-9.20608
yute	-9.20714
heya	-9.21082
nipaxo	-9.21871
yixal	-9.21952
conimanil	-9.21973
aban	-9.22707
chihalni	-9.22935
istoholal	-9.23125
es	-9.23663
ocan	-9.23986
juẍtaj	-9.24272
anico	-9.24503
na	-9.24568
sim	-9.25072
beh	-9.26764
pan	-9.26829
wintaj	-9.27214
aybal	-9.27641
hanta	-9.27889
jichmam	-9.28605
eb	-9.28621
nime	-9.28764
obal	-9.29997
chischah	-9.30758
istiempohal	-9.31284
itz	-9.3159
tzujno	-9.3161
elo	-9.31932
haba	-9.31996
yijem	-9.32505
iloj	-9.32706
niẍte	-9.33268
yichico	-9.3339
um	-9.33415
ayicto	-9.34338
chiwoche	-9.34485
ulo	-9.34738
yo	-9.35019
inalo	-9.36031
oht	-9.36526
am	-9.36825
gali	-9.36924
ho	-9.37793
huno	-9.37983
herod	-9.3818
saj	-9.38367
lea	-9.39216
bilin	-9.39494
lal	-9.39612
yuch	-9.40159
vid	-9.40721
taxca	-9.4179
mule	-9.42044
yaw	-9.42091
inba	-9.42234
tawin	-9.43061
quex	-9.43126
mil	-9.43739
ayilo	-9.44382
walni	-9.44563
chiapni	-9.45002
jilni	-9.45158
paxto	-9.45447
f	-9.45641
wilni	-9.46001
yulaj	-9.46177
itzitz	-9.46406
aco	-9.46566
em	-9.46753
aycano	-9.46772
ulan	-9.47003
yabe	-9.47443
cablah	-9.47476
capilla	-9.47779
chawal	-9.48334
potx	-9.486
wohtaj	-9.49989
yijni	-9.50094
nahat	-9.50195
anni	-9.50245
jacob	-9.50251
nino	-9.50251
halni	-9.51041
chielico	-9.51183
chitzala	-9.51263
chejbanile	-9.51859
yinito	-9.52239
istohol	-9.52337
ispaj	-9.52438
chiya	-9.52583
ayxa	-9.52687
cancano	-9.52858
isbeybal	-9.53296
cheyaco	-9.53498
cheyala	-9.53577
cheyal	-9.53687
issaj	-9.54089
pila	-9.54548
ilni	-9.54668
ech	-9.55267
ebil	-9.55572
ayojab	-9.55905
chil	-9.56468
chit	-9.5647
ixnam	-9.57448
majan	-9.58167
ilwe	-9.58986
ano	-9.59066
jos	-9.5914
xewi	-9.59478
yoche	-9.59701
mame	-9.59711
tri	-9.59835
at	-9.59857
habil	-9.60482
ambe	-9.60553
ismay	-9.60754
chawa	-9.60943
hawu	-9.61536
ischahni	-9.61746
ischuquil	-9.62266
yetxa	-9.63076
yetbi	-9.6308
yala	-9.63513
carta	-9.63665
chejab	-9.63667
abxubal	-9.63845
walex	-9.64246
chitzotel	-9.65028
halbilcano	-9.66275
coxol	-9.66317
anayo	-9.66503
hum	-9.67018
isyijen	-9.67313
hitzico	-9.67452
ji	-9.67727
heyet	-9.68399
uil	-9.68581
tit	-9.69165
li	-9.69563
ahto	-9.69686
weco	-9.70002
hawalni	-9.7041
islahobal	-9.70575
johtaj	-9.70598
yunin	-9.71263
ewan	-9.71949
hul	-9.71995
loj	-9.72284
jahno	-9.72324
m	-9.72335
roma	-9.72368
quexchi	-9.72496
toj	-9.72738
nico	-9.73137
iscab	-9.73485
yalno	-9.7358
yichamil	-9.73743
chija	-9.74035
chiq	-9.74064
ayayo	-9.74238
oxeb	-9.74247
comon	-9.74257
chitz	-9.74664
aycan	-9.7474
yawten	-9.74818
insata	-9.74993
ahan	-9.75026
chihallax	-9.75466
nia	-9.75912
ispotx	-9.76651
yabil	-9.7715
ías	-9.77156
etaj	-9.77227
alom	-9.77397
comul	-9.77781
asi	-9.77861
ismeltzo	-9.77888
cachan	-9.7808
chislo	-9.78611
chip	-9.78745
camoj	-9.79216
hay	-9.79294
chiwalto	-9.79561
hujeb	-9.79686
iscawil	-9.80024
titna	-9.80027
chim	-9.80064
w	-9.80184
jud	-9.80305
jalni	-9.80655
paxico	-9.80695
wican	-9.80874
yila	-9.80995
munlawom	-9.81595
chiel	-9.81887
cuybanil	-9.81977
dea	-9.82574
chach	-9.82898
israelo	-9.82955
chaẍ	-9.83206
cosunil	-9.83869
baytet	-9.84434
ahil	-9.84669
cab	-9.84795
chabe	-9.85264
machiswalil	-9.85265
mato	-9.854
apno	-9.85755
isn	-9.85848
isyenilo	-9.85861
itzitzbi	-9.85873
án	-9.86143
colwa	-9.86377
etoj	-9.86761
eni	-9.86832
selel	-9.86958
ejholo	-9.87591
chitxumcha	-9.87645
ischejbanil	-9.87655
isyeni	-9.87784
ach	-9.87785
tzotelo	-9.87812
yil	-9.87952
?	-9.88181
heyehi	-9.88208
chalilo	-9.88386
witz	-9.88625
teyi	-9.89382
ayinic	-9.8945
mulum	-9.89676
chisyije	-9.89727
trato	-9.90563
yintaj	-9.90639
xiw	-9.9149
do	-9.92992
cheyabe	-9.93283
yalnicano	-9.93493
masan	-9.93734
berna	-9.93983
bé	-9.93988
chicolwa	-9.9412
l	-9.94572
heyanico	-9.94831
uxan	-9.9534
wip	-9.95401
hil	-9.95751
yuẍta	-9.95979
ispi	-9.96098
istit	-9.96273
chimunla	-9.96316
chiitzitzbi	-9.96341
chicam	-9.9645
chicawxi	-9.96762
heyohta	-9.97686
yich	-9.9782
occano	-9.97828
ás	-9.97919
ical	-9.98113
chiocnico	-9.98594
elip	-9.98605
payxa	-9.98655
chij	-9.99052
uc	-9.99171
oco	-9.99864
halwe	-10.001
chiyal	-10.0018
chijil	-10.0045
chilahwi	-10.005
yanayto	-10.0051
chintoh	-10.0107
wu	-10.0123
isch	-10.0125
chintz	-10.0161
umal	-10.0182
wej	-10.0257
tzeh	-10.0273
octo	-10.0274
tohla	-10.0283
heyijen	-10.0296
circuncisión	-10.0318
so	-10.0321
cheyoche	-10.0328
jehi	-10.0329
cua	-10.0359
elico	-10.0369
cach	-10.0399
tohol	-10.0443
alaxico	-10.0448
chiay	-10.0451
cawxo	-10.0492
helan	-10.0523
tioẍ	-10.0524
tzalaho	-10.0532
yahawilo	-10.0571
johta	-10.0588
á	-10.0594
chexoc	-10.063
subchaho	-10.0646
cuywi	-10.0666
nabil	-10.07
techa	-10.0706
elicoj	-10.0706
hin	-10.0741
meẍa	-10.0782
chijal	-10.0805
wec	-10.0817
nito	-10.0819
isnani	-10.0825
len	-10.0867
masant	-10.0879
isma	-10.0902
txiquin	-10.1072
anto	-10.1092
pas	-10.1122
iscuywa	-10.1139
chawil	-10.1151
isye	-10.1221
egi	-10.1243
awtebil	-10.1298
heyoc	-10.1302
oro	-10.1315
sam	-10.1333
chichahni	-10.1338
naba	-10.1347
nananta	-10.1356
eloj	-10.1374
chis	-10.143
ui	-10.1469
h	-10.1475
chijoche	-10.1492
bilxa	-10.1527
waben	-10.1543
ischejabo	-10.1548
txahli	-10.155
enilo	-10.1569
pulta	-10.1573
chixiw	-10.1584
gobernador	-10.1602
vino	-10.1602
isbel	-10.1602
howeb	-10.1615
encano	-10.1616
ayxac	-10.1633
istxumni	-10.1682
isbis	-10.1687
ajan	-10.1757
cay	-10.1819
nicano	-10.1832
ra	-10.1833
etza	-10.1853
eho	-10.1861
heyohtaj	-10.1862
anciano	-10.1879
erto	-10.1882
chinhul	-10.1884
yettax	-10.1885
ayexxaco	-10.1886
chawute	-10.1886
hawa	-10.1897
nu	-10.19
caj	-10.1901
machim	-10.1914
istxahli	-10.1914
xe	-10.1914
des	-10.1925
hesunil	-10.1927
ij	-10.194
lomal	-10.1973
hechahni	-10.1974
einti	-10.1992
yelti	-10.2001
atil	-10.2046
pto	-10.2053
ilaxto	-10.2161
hemul	-10.2165
cutxanico	-10.2168
hon	-10.2207
ocnico	-10.2215
woc	-10.2227
how	-10.223
inmunil	-10.2244
toxa	-10.2253
jex	-10.2261
cheyi	-10.2263
▁?”	-10.2263
joc	-10.2266
intoh	-10.2269
ulla	-10.2283
hajlo	-10.2344
yilalo	-10.2349
nayo	-10.2353
elax	-10.2448
ofrenda	-10.2459
itam	-10.2476
iscolwa	-10.248
conabal	-10.2515
chiyute	-10.2543
islo	-10.2661
chiwil	-10.2702
walnic	-10.2753
cocolomal	-10.2762
ojtam	-10.2766
quía	-10.2771
ispulta	-10.2795
heye	-10.2865
un	-10.2867
col	-10.2883
anch	-10.2895
hallax	-10.2914
islah	-10.2932
iscuyni	-10.2948
í	-10.2963
tzotel	-10.2975
wom	-10.3015
anex	-10.3023
yeto	-10.3037
walpaxo	-10.3051
jahaw	-10.3071
nazare	-10.3075
elías	-10.308
japni	-10.3112
ischejni	-10.313
hewi	-10.3154
munlah	-10.3211
chicolo	-10.3219
yeh	-10.3224
hetxumni	-10.3254
nimanile	-10.3325
xu	-10.3329
anayto	-10.3344
laxto	-10.3356
oya	-10.3379
isyije	-10.3387
yalnic	-10.3405
chinapni	-10.3416
anican	-10.3418
cuyni	-10.3439
aya	-10.3439
yayc	-10.3445
aj	-10.3452
chiaben	-10.3483
chexxiw	-10.3485
muj	-10.3485
xaya	-10.3507
cachwa	-10.3517
hinan	-10.3549
wanoj	-10.3553
tim	-10.3579
tzabnico	-10.3608
hebeybal	-10.3619
ayach	-10.3619
nab	-10.3654
mohyi	-10.3665
ena	-10.3671
que	-10.375
hato	-10.3751
este	-10.3771
q	-10.3775
chijaco	-10.3776
binaho	-10.3795
ichamta	-10.3819
yilax	-10.3842
haban	-10.3881
coman	-10.3921
ichmam	-10.3926
moy	-10.3973
uh	-10.3989
hawet	-10.4022
eli	-10.4038
huj	-10.4039
yahto	-10.4044
ín	-10.4048
wacax	-10.4075
xiwquil	-10.4076
camnaxa	-10.4078
chijute	-10.408
chiyo	-10.4081
chintzala	-10.4089
chilo	-10.4103
chiyoche	-10.4108
chijala	-10.4135
coyijen	-10.4167
canico	-10.4224
eniloj	-10.4226
alaxicto	-10.425
heyilni	-10.4252
heyila	-10.4276
xaj	-10.4308
ar	-10.4328
chiwaco	-10.4346
yinican	-10.4351
ilcha	-10.44
capit	-10.4433
xahaw	-10.4439
watut	-10.4446
tajca	-10.4447
chicolcha	-10.4456
mu	-10.4458
oteo	-10.4465
isbejnicano	-10.4469
quinchi	-10.4474
iscolni	-10.4493
zar	-10.4546
cheyije	-10.4653
icto	-10.4662
chiah	-10.4689
patr	-10.4709
bilcano	-10.4722
nilo	-10.4723
aben	-10.4735
pa	-10.4792
hawehi	-10.4807
cabeb	-10.481
oli	-10.4815
wahil	-10.4826
anab	-10.4893
za	-10.491
hawoc	-10.4931
cheyay	-10.4946
dá	-10.4948
haltebilcano	-10.4959
cuar	-10.4979
yohtajo	-10.4983
lá	-10.499
yox	-10.5006
cochahni	-10.5011
itzitzb	-10.5021
hata	-10.5088
isxahan	-10.5089
cosat	-10.5091
chican	-10.5103
munla	-10.5107
apax	-10.5123
iscawxican	-10.5128
maquex	-10.514
nimanil	-10.515
selelo	-10.516
iln	-10.5181
unub	-10.5188
isje	-10.5192
chicabcon	-10.5193
iscuyu	-10.5196
innimanil	-10.5197
yehico	-10.5262
tzen	-10.5262
yawte	-10.5262
xew	-10.5332
espa	-10.5337
tac	-10.5374
behal	-10.5415
yuc	-10.5441
wohta	-10.545
canilo	-10.5476
beybal	-10.5478
chichiwa	-10.5504
isway	-10.5514
ape	-10.5534
nte	-10.5543
chiwalcano	-10.5586
axpon	-10.5588
iswa	-10.5633
isnu	-10.5653
hunix	-10.568
yuẍtaj	-10.5706
yilo	-10.5708
laxi	-10.5711
laba	-10.5719
inchejab	-10.5747
cobeybal	-10.5754
yuninalo	-10.5769
enan	-10.5811
jil	-10.5825
chisc	-10.5837
ro	-10.5843
yitzitzbi	-10.5853
nican	-10.5884
nahul	-10.5896
g	-10.591
yeniloj	-10.5929
nanxa	-10.5938
inilo	-10.5971
chicancano	-10.5977
hulic	-10.5992
yahcano	-10.6
heyohtajo	-10.6005
inmul	-10.6005
sucal	-10.6014
eto	-10.6017
isbejcano	-10.6033
sila	-10.6049
wohtajoj	-10.606
tam	-10.6126
yillax	-10.614
buch	-10.6161
coj	-10.6171
ayexico	-10.6183
machipaxo	-10.6184
aymi	-10.6187
ispe	-10.6195
chayto	-10.6197
lena	-10.6251
ahwano	-10.6259
eq	-10.628
iscawxi	-10.632
intz	-10.6326
nohna	-10.6333
chechah	-10.6337
eojab	-10.6353
tocano	-10.6357
heyabe	-10.6367
yetbiho	-10.6395
ichico	-10.6421
lemna	-10.6439
ilchalo	-10.6446
isaí	-10.645
chiwute	-10.6451
ehojab	-10.6455
heyohtaxa	-10.6463
istzoteli	-10.6504
ento	-10.6512
chiwabe	-10.6529
eo	-10.6552
hawoche	-10.6572
chew	-10.6601
isa	-10.6604
canto	-10.6637
coxahan	-10.6692
efes	-10.6725
cheyila	-10.6727
chicami	-10.6806
ato	-10.6835
ischah	-10.6867
ajla	-10.6869
axep	-10.6884
xwan	-10.6894
itah	-10.6894
echmabil	-10.6896
chicochah	-10.6901
or	-10.6905
ciento	-10.6906
lahanex	-10.6907
beyc	-10.6919
ixobal	-10.6948
ispa	-10.7003
wah	-10.7005
omal	-10.7011
mal	-10.702
issayni	-10.7047
ayn	-10.7048
sad	-10.7049
lom	-10.705
alaxcan	-10.706
tio	-10.7062
chahni	-10.7075
im	-10.7084
cheh	-10.7092
iscolcha	-10.7093
ẍicano	-10.7096
wo	-10.7153
chinoc	-10.7167
ulojab	-10.7169
haquin	-10.7171
chitx	-10.7178
yechman	-10.7179
yebi	-10.7195
elapnoj	-10.7221
laxcan	-10.7264
ispohni	-10.7272
into	-10.7273
haw	-10.7296
ispax	-10.7326
txumcha	-10.7328
capil	-10.7334
uilo	-10.734
cap	-10.7364
testigo	-10.737
esare	-10.737
ebilxa	-10.7374
cantil	-10.7388
uxni	-10.7391
istxam	-10.7391
ismunla	-10.7405
ad	-10.7407
yohtaxa	-10.7417
majal	-10.7417
acti	-10.742
lto	-10.7427
cheyohta	-10.7438
yalte	-10.746
jila	-10.7466
jala	-10.7512
txahl	-10.7535
jon	-10.7627
xi	-10.7642
haltebil	-10.7663
aldea	-10.7737
olo	-10.7744
ahi	-10.7758
canocan	-10.7765
yallax	-10.7769
lolo	-10.7772
yij	-10.7841
isbelwi	-10.7843
chejn	-10.7862
ishajni	-10.7871
tzujcha	-10.7872
hecawil	-10.7873
isyelo	-10.7874
yictabal	-10.7879
iscayel	-10.7881
yen	-10.7882
hamanil	-10.7889
ismachiswalil	-10.7945
hawip	-10.7993
yitz	-10.7996
chebej	-10.8051
oxel	-10.8052
elan	-10.8072
alil	-10.8112
ux	-10.8123
zaca	-10.8143
hetxumnilo	-10.8185
chisye	-10.8307
gri	-10.8308
chisna	-10.8317
meltzo	-10.8325
mari	-10.8353
;	-10.8371
chah	-10.838
chelo	-10.8386
melqui	-10.8396
bejwe	-10.8397
tzala	-10.84
yehobal	-10.84
telaj	-10.84
chietaxto	-10.8403
erna	-10.8404
chijabe	-10.8411
chabilxa	-10.8413
iscutxbanico	-10.8414
opo	-10.8417
rub	-10.8417
jor	-10.8418
romano	-10.843
yanipaxico	-10.8431
ibcan	-10.8453
quexwil	-10.8465
iscutxban	-10.8469
uslax	-10.8487
chiyenilo	-10.8491
lahano	-10.8491
ahab	-10.8498
issajbilo	-10.8521
alo	-10.8558
bel	-10.8566
heyip	-10.8573
istzala	-10.8576
iscami	-10.8577
camnaj	-10.8579
hemam	-10.8581
ehayo	-10.8588
fes	-10.8602
ego	-10.8636
jabe	-10.8639
gó	-10.8669
chiwi	-10.8674
way	-10.873
wul	-10.8739
cor	-10.8767
chiyiy	-10.8781
inbi	-10.8786
ixwi	-10.8817
yilno	-10.8839
z	-10.887
chibe	-10.8919
cachni	-10.8937
hajxam	-10.895
dena	-10.8956
hexahan	-10.8993
sed	-10.9001
lahico	-10.9011
chuman	-10.9028
xiwcan	-10.9031
yor	-10.9035
yilnito	-10.9073
comunil	-10.9075
chiwalni	-10.9076
tar	-10.9091
hecal	-10.9117
tec	-10.9124
mayu	-10.9129
hawohtaj	-10.9157
yilcha	-10.9168
yahawo	-10.9181
chiahilo	-10.9187
io	-10.9197
chicoyije	-10.9269
iscutxba	-10.9287
laxayo	-10.9313
tzoteli	-10.9321
hawi	-10.9324
chiwalpax	-10.9329
peta	-10.9333
inyije	-10.9348
chexwa	-10.9359
ixal	-10.936
rom	-10.9387
yalten	-10.942
cawxican	-10.9446
mas	-10.9452
awi	-10.9452
ismohyi	-10.9472
mohyil	-10.9491
chiway	-10.9498
yani	-10.9515
chicotz	-10.9537
babilo	-10.9547
chati	-10.9557
dra	-10.956
chitxahli	-10.9568
abewe	-10.9578
naweti	-10.9586
ischejnito	-10.9599
yax	-10.9609
jec	-10.9621
dama	-10.9643
agr	-10.9643
xic	-10.9651
ahti	-10.9655
txahlo	-10.9701
chiscutxba	-10.9704
chisyelo	-10.9717
chahwe	-10.9739
ita	-10.9739
haquex	-10.9767
chilolax	-10.9784
paxilo	-10.9812
sunilo	-10.9814
noj	-10.9822
si	-10.9839
bu	-10.9856
chalo	-10.9868
cuart	-10.9871
banil	-10.9876
ocpaxo	-10.9945
istzabn	-10.9961
istxum	-10.9993
uba	-11.0104
islahwi	-11.0142
chisbej	-11.0151
ispoh	-11.0154
mahul	-11.0161
circuncidar	-11.0165
jop	-11.0168
yalpaxo	-11.0182
hetxahli	-11.0183
ilti	-11.0186
tzabno	-11.0194
incarta	-11.0203
salom	-11.021
abayo	-11.0228
hunelo	-11.0234
alxa	-11.0261
walach	-11.0262
ub	-11.0275
sataj	-11.0291
ixli	-11.0298
eno	-11.0308
woj	-11.0319
winajil	-11.035
inaloj	-11.0353
ewe	-11.0355
paxtoj	-11.0357
enta	-11.0375
cotoh	-11.0385
iscuy	-11.0426
ecano	-11.044
chix	-11.0456
hulnaj	-11.05
chexa	-11.0506
techaho	-11.0544
yamigo	-11.0595
yito	-11.0596
yochen	-11.0607
waco	-11.0652
cia	-11.0653
yanican	-11.0664
wuẍta	-11.0671
ilal	-11.0685
bi	-11.0724
yicta	-11.0782
sco	-11.0792
tij	-11.08
isbey	-11.0813
zeb	-11.0817
colni	-11.0823
magdal	-11.0831
isva	-11.0831
intzotel	-11.0834
andr	-11.0835
utelax	-11.0836
pix	-11.0846
ischejlaxto	-11.0849
chinchahni	-11.0874
igue	-11.0876
isxu	-11.0895
istxah	-11.0927
chiyi	-11.0957
titnajin	-11.0961
istxumnilo	-11.0982
bawe	-11.0988
say	-11.1024
yuho	-11.1031
yalnilo	-11.1046
motx	-11.1062
wanico	-11.1125
cuy	-11.1201
nilto	-11.1206
utz	-11.121
laxico	-11.1235
hecol	-11.1235
cheyu	-11.1241
laxcano	-11.1256
yelcan	-11.1257
sac	-11.1258
issa	-11.126
ishuj	-11.1269
chejbil	-11.1271
uninal	-11.1274
wute	-11.1278
hetx	-11.1285
hayeb	-11.1299
chihuli	-11.1308
ican	-11.1309
alc	-11.131
walca	-11.131
taca	-11.1352
laxic	-11.1359
colchah	-11.1366
jilico	-11.1379
elti	-11.1387
chachoc	-11.1388
elcanico	-11.1415
ibo	-11.142
tetej	-11.1442
isyenican	-11.1477
wuninal	-11.1495
chucano	-11.1522
ene	-11.1535
hawuẍta	-11.154
aceit	-11.1546
apolo	-11.1549
inchuquil	-11.1551
ilno	-11.1555
él	-11.1557
chiillax	-11.156
cotxahli	-11.1567
ejbiyal	-11.1571
alcal	-11.1575
corn	-11.1585
re	-11.161
chejniti	-11.1623
icoj	-11.1642
inta	-11.1647
ajo	-11.1658
hetxumu	-11.1675
wala	-11.1676
chispoh	-11.1678
initi	-11.1678
ayico	-11.169
isbili	-11.1691
aytoj	-11.1693
hawayto	-11.1695
bo	-11.1702
wecano	-11.1737
chio	-11.1769
ebilico	-11.1786
txahul	-11.1797
yama	-11.1829
belwi	-11.1835
ria	-11.1837
ohcha	-11.1845
jip	-11.1861
ahilo	-11.19
colwah	-11.1928
ilnilo	-11.1954
halbil	-11.1958
ipa	-11.2004
enpaxo	-11.2008
chahi	-11.2041
ischahnicano	-11.2057
inito	-11.206
bililo	-11.2062
ambenpaxo	-11.2062
wil	-11.2063
rro	-11.2072
hawil	-11.2082
heto	-11.2112
heyuẍta	-11.2166
anojab	-11.217
awten	-11.2171
chisma	-11.2203
issay	-11.2204
chiyil	-11.2225
bilo	-11.2244
us	-11.2246
enico	-11.2264
chiilcha	-11.2298
bet	-11.23
tzalah	-11.2304
cotxumni	-11.2314
xaquex	-11.2315
yichebanil	-11.2315
bre	-11.2317
barr	-11.2317
ijbalom	-11.2326
chena	-11.2332
ispixan	-11.2332
chimeltzo	-11.2334
hunex	-11.2335
ajna	-11.2343
pra	-11.2343
heyaben	-11.2353
uloj	-11.2355
calle	-11.236
yilaxil	-11.236
beta	-11.2385
hawohta	-11.2402
jetbi	-11.2402
chisbal	-11.2411
jalnic	-11.2413
yictaj	-11.2421
wejna	-11.243
chiji	-11.2434
yijewe	-11.2448
chilni	-11.2455
laxo	-11.2465
sid	-11.2466
yanab	-11.2478
inchahni	-11.251
wepaxo	-11.253
hamul	-11.2548
heyahawil	-11.2567
ajano	-11.2581
cami	-11.2585
ichamil	-11.2591
cos	-11.2616
seleloj	-11.2623
xam	-11.2637
isme	-11.2645
huln	-11.2662
aynato	-11.2668
ispal	-11.2718
tre	-11.2731
ohtabil	-11.2752
su	-11.2786
laxilo	-11.2792
abi	-11.2801
elto	-11.2837
iro	-11.2841
xico	-11.2854
chiwat	-11.2874
hechah	-11.2875
tzalacan	-11.2877
chec	-11.2927
r	-11.2933
bilico	-11.2952
jo	-11.2988
canicoj	-11.3002
chexto	-11.3023
tro	-11.3032
yuli	-11.3036
ancan	-11.3048
be	-11.3055
colcha	-11.308
maquin	-11.3083
peyab	-11.3117
sello	-11.3122
ijatz	-11.3133
tzujanil	-11.3135
chayo	-11.3137
chahnayto	-11.3139
weh	-11.314
semana	-11.3148
denario	-11.3148
xuln	-11.3152
chietanto	-11.3154
chejaboj	-11.3155
chexcolwa	-11.3158
chicuywa	-11.3159
chawabe	-11.3164
toholojab	-11.3166
tzab	-11.3166
heyi	-11.3166
estam	-11.317
ebxa	-11.3187
isxe	-11.3195
quexwilno	-11.3196
dia	-11.3207
tzuj	-11.3217
jintaj	-11.322
yub	-11.3255
habi	-11.3261
chiw	-11.3342
ojlaxay	-11.3357
heyil	-11.3362
chahnicano	-11.3365
iscol	-11.3402
epaxo	-11.3426
halno	-11.3431
!	-11.3476
cabcon	-11.3493
leg	-11.3495
iwe	-11.351
rco	-11.3528
atz	-11.3529
saybil	-11.3531
yohtaj	-11.3534
xahano	-11.3551
tzenilo	-11.356
iscolbanil	-11.3561
wahi	-11.3571
ojo	-11.3583
heniman	-11.3589
jute	-11.3594
hop	-11.3604
yije	-11.3629
oyo	-11.3655
ishoy	-11.3663
plata	-11.3666
wipaxo	-11.3689
wila	-11.3714
chinye	-11.375
yelo	-11.3773
hatx	-11.3785
wanito	-11.383
maxaw	-11.3857
chejbanil	-11.3859
awe	-11.3869
laxpaxo	-11.387
ahni	-11.3875
joná	-11.3879
yto	-11.3889
buchwa	-11.3923
chalnipaxo	-11.3935
ojex	-11.3936
hami	-11.395
lahnico	-11.3954
caẍ	-11.3968
anwe	-11.3975
inmunla	-11.3975
woche	-11.3977
chistx	-11.3982
balo	-11.3994
wetbi	-11.401
topaxo	-11.4031
islow	-11.4039
iptze	-11.4042
parti	-11.4058
salón	-11.4058
siq	-11.4059
witzitzbi	-11.4061
aret	-11.4075
cocolcha	-11.4084
dem	-11.4088
chintzotel	-11.4092
chibehal	-11.4095
chiichico	-11.4098
ismotx	-11.4099
joccano	-11.4101
ario	-11.4102
chiilaxilo	-11.4104
if	-11.4109
isxiwcan	-11.411
maxawal	-11.411
munlawomal	-11.4127
chiwalic	-11.4138
incam	-11.4167
mataj	-11.4167
sajb	-11.4168
chijalt	-11.4171
heyohtajoj	-11.4175
istohla	-11.4178
isyenipaxo	-11.4179
ga	-11.418
isna	-11.4182
per	-11.4186
yulic	-11.4186
cosataj	-11.4193
iswahni	-11.4197
acan	-11.4204
ebo	-11.4212
alem	-11.4306
ada	-11.4314
wabe	-11.4315
ado	-11.4321
chielti	-11.4332
quexin	-11.4342
acto	-11.4355
tajo	-11.4356
chinwa	-11.4367
johtaxa	-11.4399
sar	-11.4399
mos	-11.4428
ilxa	-11.4457
pajtzen	-11.447
macach	-11.4483
hojab	-11.4484
etaxto	-11.4505
toco	-11.4507
de	-11.4557
jer	-11.4562
helni	-11.4567
chinacha	-11.4585
techahoj	-11.4585
cac	-11.4625
pre	-11.4676
chijalni	-11.4694
walnit	-11.4748
yuni	-11.4755
cheyalni	-11.4779
bilxalo	-11.4798
apaxo	-11.4808
ubal	-11.482
bih	-11.482
pala	-11.4828
lahanxa	-11.4834
alaci	-11.4845
tona	-11.4858
chejabo	-11.486
mohy	-11.4878
tze	-11.4908
pon	-11.491
ojlax	-11.4912
mawal	-11.4944
abil	-11.4958
hecolwa	-11.4981
noh	-11.5026
chejni	-11.5027
cien	-11.5032
may	-11.5032
irla	-11.5057
quil	-11.5062
isdiezmo	-11.5062
chibuchwa	-11.5073
ispujnacan	-11.5078
chijayto	-11.5079
aca	-11.5082
inbeybal	-11.5084
yabeni	-11.5085
tzoc	-11.509
bere	-11.5111
cohelanil	-11.5146
yabelax	-11.5172
ede	-11.5177
naxa	-11.5179
ismeẍa	-11.5183
jaco	-11.5185
istioẍ	-11.5187
chialaxico	-11.5206
chishel	-11.5207
coto	-11.5207
uwan	-11.5236
welo	-11.5243
xawal	-11.5271
istxumcha	-11.5277
oqui	-11.529
xilo	-11.5318
quinhe	-11.5324
cowi	-11.5384
chintx	-11.5411
ixwil	-11.5424
iscamilo	-11.5429
pet	-11.5432
paxti	-11.5441
xacam	-11.5459
bilon	-11.5475
chinchejt	-11.5477
aquil	-11.549
txumwe	-11.5497
matan	-11.5497
olal	-11.5505
ica	-11.5517
colo	-11.5537
chihallaxic	-11.5548
babito	-11.5574
esen	-11.5584
yilwen	-11.5587
alniloj	-11.5596
chejto	-11.5597
tzun	-11.5598
lico	-11.5631
quinhul	-11.5632
istra	-11.5635
chielcanico	-11.5653
cuywa	-11.5659
bit	-11.5659
caniloj	-11.5661
ispujba	-11.5675
yahbal	-11.5679
chitaj	-11.5689
heyenilo	-11.5699
elcan	-11.5716
chiwu	-11.5722
comunlah	-11.573
colbil	-11.5738
yic	-11.5757
juten	-11.5761
subchahoj	-11.5775
yalaxcan	-11.5804
nicto	-11.5816
bejtzo	-11.5825
hawanico	-11.5828
cho	-11.5829
utx	-11.5831
rin	-11.5832
xab	-11.5833
waybal	-11.5835
laxilto	-11.5836
jaben	-11.5872
ida	-11.5879
paxcano	-11.5882
istzabni	-11.5892
xiwi	-11.5911
chistxum	-11.5912
cochah	-11.5918
corona	-11.5924
elaxi	-11.5924
inpax	-11.594
binahoj	-11.5955
ismajilo	-11.5974
walno	-11.5996
ojni	-11.601
lab	-11.6019
bitn	-11.6022
cheja	-11.6057
ag	-11.6093
ilto	-11.61
licano	-11.611
ishel	-11.6118
hol	-11.6135
elna	-11.6137
yelcano	-11.6154
biloj	-11.6168
chitzejla	-11.6169
alejandr	-11.6169
chepuh	-11.6169
prisc	-11.6169
istzejla	-11.6169
chiabelax	-11.6169
yichitax	-11.6169
isjobn	-11.6169
iscolomal	-11.6169
wajeb	-11.6169
ochebil	-11.617
xahey	-11.6174
chiwinajli	-11.6176
wahawil	-11.6176
chexcolcha	-11.6176
ohchahi	-11.6178
iscolnilo	-11.618
arena	-11.6184
hachcachan	-11.6186
halbilxa	-11.6188
yawtelax	-11.6191
isreyal	-11.6193
majul	-11.6193
bejbilcano	-11.6195
yilweno	-11.6196
chiyabe	-11.62
uq	-11.6204
xito	-11.6214
ischilba	-11.6219
ebilcanayo	-11.6222
ambebal	-11.6234
exxa	-11.6235
quinyanic	-11.6241
inwi	-11.6246
tijab	-11.626
bihoj	-11.6268
yex	-11.627
yilnipaxo	-11.6275
isyecan	-11.6278
incuywom	-11.6284
baj	-11.6295
yac	-11.6301
henani	-11.6311
ochen	-11.6321
matanil	-11.6341
awtebilex	-11.6348
wojan	-11.6356
paxayto	-11.6356
camna	-11.6366
chaẍto	-11.6412
chinta	-11.6424
wapni	-11.6436
cabe	-11.6463
up	-11.6474
xahul	-11.6475
isnoh	-11.6488
del	-11.6497
yanicano	-11.65
yahwi	-11.6522
challax	-11.6558
itzitzto	-11.6566
elcano	-11.6568
ó	-11.658
chetz	-11.6601
hti	-11.6638
odi	-11.664
txah	-11.6653
isxahanbal	-11.6676
chuco	-11.669
xayu	-11.669
cheye	-11.6726
ispujbani	-11.6733
chinto	-11.6766
campaxo	-11.6772
hecach	-11.6799
cachi	-11.6801
mate	-11.6804
wub	-11.6806
et	-11.6807
chiscaj	-11.6863
enayo	-11.6868
txumwelo	-11.6892
yanicanic	-11.6938
wawte	-11.6942
alto	-11.6949
heyaco	-11.6978
elaxo	-11.701
ed	-11.7031
hatzotel	-11.7038
unn	-11.7042
hexxa	-11.705
ojabn	-11.7068
tzujn	-11.7079
ut	-11.7087
cotx	-11.7107
issaya	-11.7134
colin	-11.716
tawi	-11.7185
ayna	-11.7198
zabe	-11.7204
uluj	-11.7209
cawina	-11.7217
heyabeni	-11.7277
unu	-11.7333
heyeco	-11.7336
tr	-11.734
wetoj	-11.7346
yichi	-11.735
chextzala	-11.7361
cheyito	-11.7366
subuta	-11.7372
chuquil	-11.7383
ohni	-11.7387
mujlax	-11.7388
tzabni	-11.7402
cutxan	-11.7403
wiloj	-11.7404
subcha	-11.7404
ismal	-11.7415
chinchah	-11.7418
wehic	-11.7418
ciren	-11.7419
veintic	-11.7419
’	-11.7419
hunpilan	-11.7419
niẍtejal	-11.7419
pohleb	-11.7419
pujan	-11.742
igi	-11.742
chiyahni	-11.7425
ismujli	-11.7429
reta	-11.7431
chibili	-11.7431
quinhawohtaj	-11.7432
chimujlax	-11.7432
cili	-11.7433
chiillaxi	-11.7436
istzabayo	-11.7436
tzujanex	-11.7436
cocachni	-11.7437
inbel	-11.7442
wiyo	-11.7459
hatax	-11.7463
istel	-11.7467
hecolcha	-11.747
quexya	-11.7473
chexel	-11.7474
pol	-11.7487
hawetbi	-11.7488
po	-11.7504
ischahno	-11.7521
isyox	-11.7526
cantoj	-11.7533
icó	-11.7537
ispich	-11.7537
yohtajoj	-11.7541
ehalo	-11.7553
maapni	-11.7554
bana	-11.7555
inmelyu	-11.7555
ilom	-11.7557
chisyah	-11.7557
isloni	-11.7562
chissay	-11.757
tzelaxilo	-11.7572
wahlax	-11.7574
suc	-11.7585
isniman	-11.7589
esp	-11.7602
wetbihoj	-11.7609
heyoche	-11.7624
ojlaxto	-11.763
inxahan	-11.7638
uel	-11.7639
ero	-11.7651
yechelo	-11.7667
checutxban	-11.7671
chinna	-11.7693
ulna	-11.7705
hech	-11.7723
ila	-11.7729
coley	-11.7736
hehel	-11.774
chich	-11.7743
yesp	-11.7747
alaxayto	-11.7747
laxojab	-11.7766
wuten	-11.7793
hawala	-11.7812
chiyala	-11.7833
winilo	-11.785
upni	-11.7851
cajni	-11.7867
tzalahi	-11.7882
echma	-11.7909
laxilti	-11.7911
oxa	-11.7913
isla	-11.7921
wuc	-11.7962
machmi	-11.7973
aho	-11.7993
hoyno	-11.8013
ilbil	-11.8014
iwel	-11.8014
chucanico	-11.8021
rra	-11.803
hor	-11.8047
chiijba	-11.8065
weti	-11.8066
chinha	-11.8082
incolni	-11.811
chawalic	-11.8141
rio	-11.8145
ilaxilo	-11.8167
chicotxum	-11.817
qui	-11.8187
bin	-11.8221
maxawa	-11.827
inmeltzo	-11.828
yelax	-11.8295
cheta	-11.8333
isho	-11.8341
bilti	-11.8414
heyehico	-11.8449
majwah	-11.8472
xap	-11.8474
jetbiho	-11.8477
yalil	-11.8488
yetanto	-11.8504
anmaho	-11.8546
canayo	-11.8553
chesay	-11.8567
batx	-11.8604
bayo	-11.863
baln	-11.8672
atro	-11.8677
china	-11.8696
isbejtzo	-11.8729
jeco	-11.8732
isbejni	-11.874
tax	-11.8749
wahni	-11.875
chiuc	-11.8766
hunlah	-11.8776
chitocano	-11.8782
chalpaxto	-11.8801
istaj	-11.8808
cris	-11.8833
chialax	-11.8842
mujlubal	-11.8847
juez	-11.8847
ejholilo	-11.8847
filipo	-11.8847
iscawxobal	-11.8847
isyahbe	-11.8848
titnajach	-11.8848
albalax	-11.8848
jalno	-11.8849
chimujli	-11.8852
sión	-11.8853
far	-11.8853
chinischah	-11.8858
txiho	-11.8859
hawichamil	-11.886
inchejbanil	-11.8864
yelawil	-11.8865
maẍtajach	-11.8865
xajayto	-11.8866
salmo	-11.8871
yecan	-11.8874
axepxa	-11.8878
inma	-11.8884
conaniti	-11.8885
chitzejtzon	-11.8894
inchejt	-11.8895
maya	-11.8907
dor	-11.8909
pojoj	-11.8917
heyuten	-11.8919
fre	-11.892
cawxenico	-11.8923
yinipax	-11.8941
pujnacan	-11.8944
helanex	-11.8952
hallaxojab	-11.8977
awte	-11.898
etzan	-11.9013
yelto	-11.9014
aytoc	-11.9021
hatz	-11.9028
yehilo	-11.9041
chiwacan	-11.9047
yacano	-11.9047
chiilaxto	-11.906
iscach	-11.906
naí	-11.9093
etx	-11.9103
hayebo	-11.9105
yeloj	-11.9129
chub	-11.9136
ahojab	-11.9167
chahlax	-11.9203
otz	-11.9216
hawe	-11.923
yiptzen	-11.9235
ahcano	-11.9257
tí	-11.9259
ischej	-11.9267
chii	-11.9268
lot	-11.9313
illaxi	-11.9379
ur	-11.938
chisyijepaxo	-11.9384
aycanilo	-11.9387
chicobej	-11.9406
bancano	-11.9414
sté	-11.9416
yahcan	-11.9441
reyal	-11.9483
cheyuc	-11.9494
heyilwe	-11.9519
comunla	-11.9523
cayel	-11.9525
chiix	-11.9527
alib	-11.9554
aypaxic	-11.9556
walic	-11.9564
quexis	-11.9578
ohtabilo	-11.958
chawi	-11.9587
ninoj	-11.9595
heyuc	-11.9596
canilto	-11.9599
yallaxi	-11.9601
colilo	-11.9622
nil	-11.9645
jecoj	-11.966
ilnoj	-11.9766
niloj	-11.9773
hacuyni	-11.9788
chalic	-11.9809
jeto	-11.9811
yecano	-11.983
yijemoj	-11.9855
istzablaxayo	-11.9866
bili	-11.9876
helo	-11.9882
heyetbiho	-11.9891
ispeyab	-11.9934
paxic	-12.0013
epaxoj	-12.0027
wano	-12.003
chincam	-12.0034
nacha	-12.0036
yanipax	-12.005
ía	-12.0057
nocano	-12.0058
balxa	-12.0068
titnaj	-12.0088
coln	-12.0094
nilti	-12.0096
istzil	-12.0101
encanilo	-12.0123
hecuy	-12.0171
tzelax	-12.0181
iscapil	-12.0183
juc	-12.019
hewa	-12.0197
uch	-12.0197
elilo	-12.021
chiyeni	-12.0226
ujbanic	-12.0287
haco	-12.0301
arco	-12.0308
chiwuc	-12.0322
ambenilo	-12.0322
ecanoj	-12.0324
chixew	-12.0359
chacano	-12.0371
ulu	-12.0385
isbej	-12.0409
tzumbe	-12.046
mat	-12.046
tzalacano	-12.0505
epafr	-12.0514
(	-12.0514
)	-12.0514
setenta	-12.0514
venta	-12.0514
maxawute	-12.0514
chihellax	-12.0514
diácono	-12.0514
aẍno	-12.0514
istzumbenil	-12.0514
ófi	-12.0515
chipohcha	-12.0517
camiẍ	-12.0518
numna	-12.0518
awtelax	-12.0518
chisayni	-12.0519
chaẍhul	-12.052
istzabnoyo	-12.052
chitxumni	-12.052
ismajchen	-12.0523
chexmeltzo	-12.0524
chijechma	-12.0524
cajwa	-12.0527
comatan	-12.0528
isjepla	-12.0528
waxajeb	-12.0528
tzencanilo	-12.0529
chisubcha	-12.0532
chexapno	-12.0533
cocawil	-12.0535
chimalto	-12.0536
yijatz	-12.0538
pahni	-12.054
cajlax	-12.0542
chiinito	-12.0548
yabelo	-12.0549
arist	-12.055
ug	-12.0558
wahaw	-12.0562
winit	-12.0562
chí	-12.0565
cotioẍ	-12.0573
chaẍwa	-12.0592
istzic	-12.0607
heyec	-12.0616
elaxilo	-12.0619
heyaw	-12.062
ello	-12.0643
er	-12.0649
xajal	-12.0662
yijle	-12.0662
heyetbi	-12.0665
istzablo	-12.0688
nahatil	-12.069
ayalil	-12.069
somchaho	-12.0692
ini	-12.0697
hunlahan	-12.0699
alomex	-12.0708
hacawil	-12.0709
xawabe	-12.0717
etio	-12.0726
chexcam	-12.0743
isholni	-12.0752
bahlax	-12.0755
yechma	-12.0769
echman	-12.0779
ẍiayti	-12.0784
hawunin	-12.0792
intxumni	-12.0792
lahanojab	-12.0793
uxlax	-12.0804
ud	-12.0814
ishunban	-12.0819
awey	-12.0846
hulcan	-12.086
chawila	-12.088
yenipaxilo	-12.0909
quexyil	-12.0924
hilan	-12.0935
isl	-12.0956
enal	-12.0965
heway	-12.1004
cuenta	-12.102
ael	-12.1033
nacan	-12.1048
usni	-12.1063
yuten	-12.1075
belwito	-12.1081
eco	-12.1082
chipa	-12.11
xawa	-12.1119
ismajil	-12.1157
pat	-12.1187
pac	-12.1213
hajba	-12.1224
chejbilin	-12.1233
jcano	-12.1237
heyohtapaxo	-12.1246
chichon	-12.1257
chinalaxic	-12.1259
johtajoj	-12.1262
chincan	-12.1295
tuclenoj	-12.1325
elaxcano	-12.1327
quinya	-12.1339
inye	-12.1341
emi	-12.1342
chiochen	-12.1406
chiyalic	-12.1424
checuy	-12.1426
hawute	-12.1437
helano	-12.1466
fr	-12.1475
etanto	-12.1543
inic	-12.1545
isbiho	-12.1556
wanayo	-12.1589
chinchej	-12.1615
hetz	-12.1616
lahni	-12.1635
plat	-12.1675
ahbilxa	-12.1677
cosata	-12.1678
hunban	-12.1687
ishitz	-12.1698
saywe	-12.1763
tzeniloj	-12.1777
yallen	-12.1796
chipax	-12.1831
istzab	-12.1844
diosalo	-12.1902
camnajo	-12.1902
chintxum	-12.1908
wacano	-12.1919
chicona	-12.1922
johtajo	-12.194
monte	-12.1963
cotzotel	-12.1969
hayije	-12.1974
aqui	-12.1978
isli	-12.1981
silo	-12.1992
hel	-12.2012
chexilax	-12.202
poh	-12.2027
bican	-12.2053
ispitni	-12.2063
wayc	-12.2071
rón	-12.2078
halilo	-12.2096
hesayni	-12.2156
ohal	-12.2164
moc	-12.2197
ishol	-12.222
ulpaxo	-12.2221
puhnilo	-12.2233
chetxum	-12.224
chischahpaxo	-12.2245
wayo	-12.2262
intoc	-12.2274
icanico	-12.2275
ew	-12.2292
hawabe	-12.2296
illax	-12.2297
tor	-12.231
sia	-12.2313
hetzotel	-12.2323
hoc	-12.2337
chiyoc	-12.2341
alaxti	-12.2343
chabil	-12.2354
chihallaxi	-12.2374
yohtapaxo	-12.2404
nawe	-12.2414
ax	-12.2416
ejbi	-12.2444
ih	-12.246
hitzan	-12.2462
chijila	-12.2463
cawxoj	-12.2474
quiniscol	-12.2475
cheyutepaxo	-12.2479
pitni	-12.2481
iscutx	-12.2492
maxe	-12.2495
mun	-12.2495
hajloho	-12.2503
ishatelax	-12.2514
genes	-12.2514
italia	-12.2514
jijle	-12.2514
quetzal	-12.2514
reina	-12.2514
hatelaxo	-12.2514
chepohle	-12.2515
hecolomal	-12.2515
chepajtze	-12.2515
chihaltelax	-12.2518
chiwejcha	-12.2519
chexixli	-12.2521
chibejtzolax	-12.2522
istzilmo	-12.2522
chima	-12.2523
fili	-12.2524
ojabilo	-12.2524
cochuquil	-12.2527
dara	-12.2529
encanilto	-12.2531
hinanojab	-12.2533
hujel	-12.2534
hetxah	-12.2534
incuywa	-12.2534
chexwil	-12.2537
ismilal	-12.2541
chinxiw	-12.2547
chiiptze	-12.2548
issayno	-12.2551
mayij	-12.2551
chinheyila	-12.2553
atena	-12.2556
isbahwa	-12.2558
ohtabiloj	-12.2563
xain	-12.2567
chiyelax	-12.2572
ismalen	-12.2579
fenic	-12.2588
bulan	-12.259
chexcancano	-12.2599
winajli	-12.2601
ahlax	-12.2601
istzalabal	-12.2603
inyenilo	-12.2607
heyalno	-12.2615
yahbil	-12.262
ismatan	-12.2623
winiti	-12.2623
chiwayto	-12.263
ru	-12.2649
ixnamxa	-12.2654
mago	-12.2654
wixal	-12.2664
abeno	-12.2665
wabenpaxo	-12.2675
isbejtzolax	-12.2683
txumniloj	-12.2683
istzotelpaxo	-12.2684
iswah	-12.2698
ari	-12.27
matat	-12.2703
hachahni	-12.2715
matxataj	-12.2729
chexya	-12.2733
hecuywawom	-12.2738
chinbejtzo	-12.2752
cawbo	-12.276
bilexxa	-12.2761
wamigo	-12.2765
nalo	-12.2767
ischahlax	-12.2772
malto	-12.278
anilto	-12.2786
hawohtajoj	-12.2789
colah	-12.281
ayinict	-12.282
di	-12.2823
chiyila	-12.2825
xican	-12.2829
oq	-12.2836
fe	-12.2839
habatx	-12.2847
coxahanbal	-12.2852
nue	-12.2854
ambewe	-12.286
para	-12.2874
chislah	-12.291
walnipaxo	-12.2931
fil	-12.2938
tira	-12.298
íni	-12.2985
icano	-12.2999
zor	-12.3015
yacoj	-12.3027
yichec	-12.3043
ismaj	-12.3067
habilxa	-12.3069
sayniloj	-12.3072
ambal	-12.3074
ambeni	-12.3082
camto	-12.3095
sala	-12.3135
chicoyelo	-12.3136
paxiloj	-12.3178
istzubli	-12.3188
chexo	-12.3193
ishob	-12.3195
hier	-12.3255
coyeniloj	-12.3277
pí	-12.3283
uplax	-12.3293
amigo	-12.331
abel	-12.3316
chalpaxo	-12.3321
mayal	-12.3328
isyelax	-12.3335
cachwil	-12.3379
ischiwa	-12.3403
inchejni	-12.3444
cuylax	-12.3447
yepaxo	-12.3469
chiwilni	-12.3487
jechma	-12.3493
fan	-12.3504
ishaj	-12.3516
howbi	-12.3531
wacan	-12.3545
somni	-12.3613
chicocutxba	-12.3654
hechahnicano	-12.3686
utxba	-12.3694
chiuten	-12.3707
chistz	-12.3721
isyijelax	-12.3772
yallaxpaxo	-12.3883
jechman	-12.3891
hoyo	-12.3896
isteyele	-12.3899
gab	-12.3914
etalax	-12.3919
era	-12.3971
chila	-12.3992
hayijen	-12.3997
chishaj	-12.4032
quinani	-12.4042
yaltecano	-12.4061
heyelapno	-12.4085
oche	-12.4137
hawuten	-12.4144
nipaxcano	-12.4205
wat	-12.422
inilti	-12.4239
epaxto	-12.4255
hamunla	-12.4258
yayo	-12.4266
wanic	-12.4281
ischejti	-12.4287
cachlax	-12.4321
bitni	-12.4372
gam	-12.4376
chicawxican	-12.4403
chawu	-12.4439
iweto	-12.4446
chisyecan	-12.4449
abebil	-12.4467
chiwalnipax	-12.4482
int	-12.4503
chinsay	-12.4522
chistzab	-12.4522
chexalax	-12.4543
tzelo	-12.4551
bojab	-12.4558
hayeni	-12.4572
chinano	-12.4603
nati	-12.4658
spe	-12.4664
zab	-12.4758
ispohle	-12.4765
laxayoj	-12.4773
iel	-12.4791
inbejtzo	-12.4791
locoh	-12.4806
ischab	-12.4821
chinlo	-12.4825
cuybil	-12.4832
mawa	-12.4835
issomcha	-12.4839
maxeyi	-12.4841
yijban	-12.4842
nawal	-12.4869
chismaj	-12.4891
ahw	-12.4908
cowa	-12.4925
aniti	-12.4932
yilwelax	-12.4938
copa	-12.4967
topaxoj	-12.4972
ipaxilo	-12.4986
meltz	-12.4988
wunin	-12.4988
libr	-12.4991
istucle	-12.5
bejcano	-12.5004
yichenico	-12.501
hucan	-12.5011
chexchahlaxi	-12.5012
niẍ	-12.5012
conabaweti	-12.5014
puerto	-12.5014
iswejcha	-12.5014
tiberi	-12.5014
chicutxi	-12.5014
cawxeco	-12.5014
ér	-12.5015
copohni	-12.5015
etanoto	-12.5015
jucano	-12.5016
yaẍn	-12.5016
lembil	-12.5016
chiluylun	-12.5016
quexawten	-12.5017
chimtxumcha	-12.5017
siqui	-12.5017
cotxumuloj	-12.5019
chiyeno	-12.5019
eft	-12.502
cobejnicano	-12.502
chicolahico	-12.502
hajxamex	-12.5021
yechto	-12.5022
ishucba	-12.5023
jiln	-12.5023
aram	-12.5023
tzalahojab	-12.5024
istzumbelax	-12.5026
quexyawte	-12.5027
isnumero	-12.5028
paxayo	-12.5028
claudi	-12.5028
isbutni	-12.5029
chietalax	-12.503
chishatx	-12.503
jopla	-12.5032
hacuynipaxo	-12.5038
helahnico	-12.5039
chichahlax	-12.5039
fi	-12.5048
quinheyohtaj	-12.505
mawaco	-12.5051
chisbejtzo	-12.5053
ayintoc	-12.5059
chitxih	-12.5059
suni	-12.5059
chiscach	-12.506
ópa	-12.5061
iswaj	-12.5061
yawtenico	-12.5062
chihalno	-12.5063
issomchacan	-12.5065
zu	-12.5067
cobel	-12.5069
isbejtzon	-12.5072
ismujlax	-12.5085
isbina	-12.5087
chisten	-12.5091
iq	-12.5093
sabá	-12.5096
ehobal	-12.5099
ishajlax	-12.5104
hawinilti	-12.5106
chitzic	-12.5108
heyanab	-12.511
chawiti	-12.5115
cuyw	-12.5115
heyije	-12.5118
issello	-12.5121
ispajo	-12.5133
islahban	-12.5135
ajban	-12.5135
wichmam	-12.5137
cocuyni	-12.5138
chicoye	-12.5142
heyala	-12.5144
isr	-12.5147
chexpax	-12.5153
tirlaxto	-12.5158
henanitij	-12.5165
hawic	-12.517
heyahaw	-12.5172
cotxah	-12.5176
dos	-12.5181
jayto	-12.519
abia	-12.519
mawabe	-12.5192
cocancano	-12.5193
ser	-12.5205
erge	-12.5209
hocan	-12.5216
rd	-12.522
isholan	-12.5234
ahwe	-12.5247
heyichico	-12.5255
isyaxil	-12.5256
unlax	-12.5259
ayexic	-12.5265
etli	-12.5266
pahla	-12.5274
ambepaxo	-12.5287
ayachic	-12.529
ocojab	-12.5293
sayiloj	-12.5297
iscolo	-12.53
hemunla	-12.53
chinhesay	-12.5313
cambal	-12.5317
ishow	-12.5333
istitc	-12.5336
wanayto	-12.5341
heyic	-12.5342
macachcawxi	-12.5345
pujbani	-12.5357
toholb	-12.5363
ismas	-12.5366
ismajni	-12.5366
xawil	-12.5366
stro	-12.5377
cenc	-12.5402
quinwa	-12.5445
inme	-12.5447
muji	-12.5452
cowahni	-12.5474
isxecnic	-12.5489
axcanto	-12.5498
walaxic	-12.55
tzic	-12.5506
istxihni	-12.551
buchlax	-12.551
yabenpaxo	-12.5515
toholcano	-12.5527
anoto	-12.5539
ben	-12.5542
chihalnilo	-12.5548
mes	-12.5553
tajilo	-12.5581
awej	-12.5593
baytaj	-12.5626
isbujil	-12.5629
canilti	-12.5663
exch	-12.5679
chaben	-12.5679
ibpaxo	-12.5693
isbeh	-12.5701
ter	-12.5744
onbayo	-12.5751
cheyilo	-12.5762
epta	-12.5766
efa	-12.5768
majwa	-12.5796
omex	-12.5834
saú	-12.5839
mohyina	-12.5851
innani	-12.5865
octoj	-12.587
chilan	-12.5892
hoj	-12.5907
xalo	-12.5957
yija	-12.5971
aytzen	-12.5986
chiyican	-12.5986
jalawe	-12.5989
cobelwi	-12.6008
jahawiloj	-12.6088
nohcan	-12.6103
luca	-12.6107
nohcano	-12.6133
lam	-12.6136
chischej	-12.614
chexyil	-12.6151
ochenico	-12.6157
jas	-12.6197
chexelico	-12.6227
issaylax	-12.6252
wayoj	-12.6254
tzeloj	-12.6254
istajilo	-12.626
isteyelen	-12.6268
tzabn	-12.6272
iscajle	-12.6288
hehunban	-12.6341
ijban	-12.6352
chetato	-12.6365
incu	-12.6373
titnaco	-12.6395
hediosal	-12.6419
hujuy	-12.6422
ischejnil	-12.6456
batxn	-12.6458
lecan	-12.6486
pixan	-12.6498
canayoj	-12.6515
ijbani	-12.6575
cocutxban	-12.6586
hajcha	-12.6587
cheyij	-12.6607
chaẍxiw	-12.6648
ocheni	-12.6649
ri	-12.6667
isxi	-12.6675
chibelwi	-12.6722
chiilax	-12.6755
imo	-12.6765
chicosayi	-12.6779
txumiloj	-12.678
yenilo	-12.6822
monten	-12.7002
chextzotel	-12.7004
naw	-12.7049
chiscuyni	-12.7059
chilow	-12.7082
yaltencano	-12.7098
hacuy	-12.7107
hechayto	-12.7229
incheja	-12.7281
chawte	-12.7386
rah	-12.7387
axto	-12.7389
hallaxo	-12.7398
cololo	-12.7454
istxumulo	-12.746
x	-12.7525
ncuenta	-12.7539
hebel	-12.7551
pujna	-12.7646
chahn	-12.7656
amin	-12.7664
lem	-12.7682
istxihn	-12.7715
bla	-12.7724
wechma	-12.7727
abeni	-12.776
exico	-12.7769
bejnicano	-12.7791
lipaxo	-12.7845
xon	-12.785
yalaxoc	-12.7887
chish	-12.7894
munlaho	-12.7931
wamigoh	-12.7933
chinhesayi	-12.7948
jabeni	-12.7963
yecanico	-12.7979
chahto	-12.7995
lit	-12.8012
aytze	-12.8051
chiyacan	-12.8064
quexwa	-12.8069
txumni	-12.8081
atij	-12.8093
chiwaben	-12.8094
chitzalapaxo	-12.8119
pohnican	-12.8119
chej	-12.8121
pajtze	-12.8122
nahi	-12.8147
isxec	-12.817
ichican	-12.8189
ohba	-12.821
toholo	-12.8241
hob	-12.8247
pujba	-12.8252
hesaynilo	-12.8265
tenba	-12.8273
inway	-12.8274
ishunba	-12.8298
isbitn	-12.8301
txihlax	-12.8304
mujli	-12.8312
jepla	-12.8316
hajlax	-12.8319
salm	-12.8327
istir	-12.8327
ahnilo	-12.8334
ishuc	-12.8334
sajbilo	-12.8337
chiichi	-12.8343
camposanto	-12.8347
quexwiptzen	-12.8347
xalecamto	-12.8347
hatxumu	-12.8347
cutxanexico	-12.8347
nawepaxti	-12.8347
xibte	-12.8347
quiẍta	-12.8347
hetzanten	-12.8347
lectah	-12.8347
ismujno	-12.8348
hetzicni	-12.8348
wijle	-12.8348
etaxna	-12.8348
hajlojab	-12.8348
jochebal	-12.8348
herm	-12.8349
cosaya	-12.8349
semanahil	-12.835
rán	-12.835
álaxico	-12.8351
machahlo	-12.8351
awuẍ	-12.8351
ẍal	-12.8351
sombil	-12.8352
inpohni	-12.8352
chexawtelax	-12.8352
chexetanto	-12.8353
istxumabilo	-12.8353
chinilchah	-12.8353
sajbicano	-12.8354
uẍ	-12.8354
metro	-12.8355
jabenpaxoj	-12.8355
quinisbejtzo	-12.8356
quinhetzabno	-12.8357
mer	-12.8357
fos	-12.8357
bro	-12.8359
iter	-12.8359
chexcolni	-12.836
chexutelax	-12.836
esí	-12.8361
yiptzelax	-12.8362
pér	-12.8362
siquilo	-12.8364
conani	-12.8368
beca	-12.8368
poho	-12.8369
ixwipaxoj	-12.8369
ismujni	-12.837
hitzo	-12.8371
coyahni	-12.8373
siqu	-12.8379
johtapaxoj	-12.838
jiptze	-12.8382
hacuyu	-12.8386
quinissayni	-12.8386
saynic	-12.8387
libro	-12.8387
elí	-12.8387
juninal	-12.8387
majabe	-12.8387
erg	-12.8388
iscajlen	-12.8389
chexeta	-12.8393
dec	-12.8394
ischahlo	-12.8395
winican	-12.8396
jinito	-12.8397
ehpaxo	-12.84
islaban	-12.8406
chinxew	-12.8408
yijbal	-12.8408
waxajla	-12.842
xajabe	-12.8423
quexyuninal	-12.8425
chimheyal	-12.8428
juli	-12.8428
ishatx	-12.8443
mir	-12.8454
ahnato	-12.8455
inxew	-12.8459
cheyohtajo	-12.8464
chijic	-12.8468
hawetxa	-12.8469
chexisyah	-12.8472
quexwilni	-12.8473
yocheco	-12.8487
ismonten	-12.8489
wawten	-12.849
tzelaxcanilo	-12.8492
ispeban	-12.8494
chintopax	-12.8496
abenico	-12.8501
machijex	-12.8502
meltzoho	-12.8503
ecantoj	-12.8514
iscuynicano	-12.8515
arqu	-12.8521
heyanican	-12.8525
ishoj	-12.8529
bejtzolax	-12.8542
intrato	-12.8556
heyochen	-12.8557
wanipax	-12.8559
cocarta	-12.8563
hallaxi	-12.8568
ahla	-12.8572
yichipax	-12.8578
isbalnic	-12.8587
hawila	-12.8588
chicawxo	-12.8589
iscachlax	-12.8603
iscorona	-12.8606
hesaj	-12.8617
inbeyc	-12.8618
umpa	-12.8652
chialaxcan	-12.8652
cheyec	-12.8653
ubli	-12.8657
camnajex	-12.8666
emcan	-12.8669
arc	-12.8678
pohbil	-12.868
jelapno	-12.8685
pichbil	-12.8694
maxeyil	-12.8702
sun	-12.8707
ojnayt	-12.8724
isbabi	-12.8726
innoh	-12.8739
locohoj	-12.874
hachayoj	-12.8743
pujnato	-12.8756
cuynicanto	-12.8771
cheyel	-12.8793
wepaxoj	-12.8826
chitzeb	-12.886
inpuhn	-12.8869
hitzto	-12.8872
jocto	-12.8906
cocuy	-12.893
for	-12.8957
quexwawte	-12.8991
chinoh	-12.905
ebilpaxcan	-12.9056
coyije	-12.9074
cosayni	-12.9122
hebejtzo	-12.9143
leyanto	-12.9155
ebilpaxcanayo	-12.9192
isjahban	-12.9198
hese	-12.922
hulu	-12.926
isbit	-12.9315
hawanic	-12.933
yenican	-12.9348
jetbihoj	-12.9384
hetzabayoj	-12.9414
isdiosalo	-12.9427
chesayi	-12.9447
hnayto	-12.947
yilaxot	-12.9484
chaẍtzotel	-12.9544
ismoh	-12.9619
ól	-12.9651
wacto	-12.9675
ayexto	-12.9678
chiscol	-12.9749
wetpaxoj	-12.9809
ewelo	-12.9827
inpaxic	-12.985
ispit	-12.9905
chih	-12.994
istitico	-12.9957
chinchejni	-13.0013
chialaxay	-13.0016
bejcanoj	-13.0059
issom	-13.0104
chetxumilo	-13.0124
raí	-13.0125
chawuc	-13.0135
sir	-13.0151
ispohlax	-13.0196
islotze	-13.0203
patro	-13.0232
babic	-13.028
chijocheco	-13.0296
tzablaxayoj	-13.0334
cotxumu	-13.0346
chicosay	-13.036
ilwelax	-13.0429
quexistucle	-13.0434
chinpit	-13.0497
elojabi	-13.0536
chicoyijen	-13.0546
chitoh	-13.0615
iscawxilo	-13.0669
cutxbawe	-13.0713
quexwani	-13.0738
ẍ	-13.2445
ñ	-13.3347
‘	-14.4997
v	-14.4998
“	-14.4999
―	-14.5
:	-14.5001
d	-14.5002
̈	-14.5003
