<pad>	0
</s>	0
<unk>	0
、	-2.40471
の	-2.49216
。	-3.1064
を	-3.94955
は	-3.96753
▁	-4.06666
に	-4.18053
と	-4.24834
が	-4.45653
その	-4.75197
た	-5.14204
も	-5.15983
か	-5.24291
、「	-5.27211
で	-5.33701
」。	-5.371
い	-5.38396
し	-5.43054
て	-5.46438
る	-5.47276
から	-5.47682
また	-5.65283
り	-5.68316
き	-5.73723
わたしは	-5.73984
く	-5.83736
である	-5.83823
な	-5.84439
よ	-5.90121
って	-5.93722
あなたの	-5.93954
み	-6.08506
わたしの	-6.1537
った	-6.18039
した	-6.20809
して	-6.24359
す	-6.25167
者	-6.26749
う	-6.27967
お	-6.28398
いた	-6.30136
この	-6.32257
あなたは	-6.33205
彼らは	-6.35998
め	-6.36793
人	-6.37119
ら	-6.37713
ま	-6.41379
ない	-6.41861
」	-6.42384
わたし	-6.44262
言った	-6.46525
ア	-6.48289
え	-6.49367
つ	-6.50092
これを	-6.50352
ことを	-6.515
や	-6.53021
ル	-6.56432
の子	-6.5684
ように	-6.57081
によって	-6.57463
すべての	-6.58217
のために	-6.588
および	-6.60119
王	-6.63156
彼は	-6.6372
をもって	-6.6384
あなたがたは	-6.66135
▁また	-6.66582
わたしを	-6.69266
あなた	-6.71072
すなわち	-6.72955
ある	-6.73561
からである	-6.74157
主は	-6.74432
者は	-6.74687
時	-6.7496
日	-6.75339
れ	-6.75712
神	-6.75757
主の	-6.76675
なさい	-6.76728
られた	-6.77796
する	-6.78555
それを	-6.78562
わたしが	-6.80174
のように	-6.80178
▁そこで	-6.83038
わが	-6.8332
▁しかし	-6.83384
こ	-6.83454
さ	-6.83746
ず	-6.83783
あ	-6.84374
▁わたしは	-6.84946
られる	-6.86068
あなたがたの	-6.86198
わたしに	-6.87498
こと	-6.87898
び	-6.88222
ラ	-6.88559
け	-6.9046
シ	-6.90737
であろう	-6.91064
主が	-6.9118
なかった	-6.91982
そ	-6.92108
ヤ	-6.92288
自分の	-6.93095
びと	-6.93636
いて	-6.93854
主	-6.93908
彼ら	-6.93908
彼らを	-6.94164
、『	-6.95006
物	-6.95176
そして	-6.95646
テ	-6.95661
ン	-6.95877
ている	-6.97748
心	-6.98965
せ	-6.99175
いる	-6.99309
』	-6.99595
に言った	-6.99949
であった	-7.00007
一	-7.00347
▁そして	-7.00397
きた	-7.01406
あなたがた	-7.03228
む	-7.0344
まで	-7.05563
すべて	-7.05988
とき	-7.07477
上	-7.07482
彼	-7.08071
地	-7.08227
彼らの	-7.08893
だ	-7.09109
しかし	-7.09559
ます	-7.09711
神の	-7.10134
わ	-7.1027
と共に	-7.11996
これは	-7.12064
なければならない	-7.12173
エ	-7.12181
十	-7.13568
ば	-7.15784
させ	-7.16125
▁その	-7.16768
のである	-7.16903
ました	-7.1801
デ	-7.18439
事	-7.19081
ダビデ	-7.19413
彼を	-7.1963
行って	-7.19683
民	-7.20005
罪	-7.2051
んだ	-7.20564
女	-7.20904
イ	-7.2106
もし	-7.21107
んで	-7.21322
には	-7.21409
国	-7.22183
ハ	-7.2289
手	-7.23294
あなたを	-7.244
▁彼らは	-7.24843
父	-7.25355
の上に	-7.25991
あなたが	-7.26016
ち	-7.26026
マ	-7.2623
ぎ	-7.26411
それ	-7.26493
された	-7.26546
です	-7.26662
見	-7.26721
今	-7.27997
る者	-7.28919
であって	-7.29095
▁あなたは	-7.29519
▁「	-7.29687
あなたに	-7.29841
なら	-7.29865
火	-7.29969
ならば	-7.29972
彼らに	-7.30575
こう	-7.30758
「	-7.31034
これ	-7.31309
ナ	-7.3181
きて	-7.32647
力	-7.32864
るであろう	-7.33801
たち	-7.34086
・	-7.34704
について	-7.34922
の子孫	-7.35751
ム	-7.36092
言われた	-7.36358
ぶ	-7.3661
主に	-7.37038
レ	-7.37199
べ	-7.37353
として	-7.37749
祭司	-7.38809
大	-7.39725
ど	-7.39845
らせ	-7.40054
子	-7.40536
それは	-7.41257
のうちに	-7.41599
もろもろの	-7.41663
あなたがたに	-7.41838
足	-7.42254
人々は	-7.42529
所	-7.42652
みな	-7.42991
リ	-7.43139
人々	-7.43293
主よ	-7.4336
▁主は	-7.43454
ひとり	-7.44139
町	-7.44141
行った	-7.44859
ただ	-7.45486
言う	-7.45598
じ	-7.46158
地に	-7.46288
下	-7.46338
人が	-7.46766
人は	-7.46863
キリスト	-7.48093
ク	-7.48218
全	-7.48921
▁彼は	-7.49178
水	-7.49461
しい	-7.49545
そう	-7.49995
出	-7.50738
年	-7.50748
ために	-7.5084
イスラエル	-7.51217
知	-7.51375
される	-7.51764
のか	-7.51989
所に	-7.52046
の中に	-7.52251
敵	-7.52676
られ	-7.53094
後	-7.53501
人を	-7.53659
言	-7.53795
事を	-7.53874
見よ	-7.53955
イエス	-7.5412
っている	-7.55123
とを	-7.55483
イスラエルの	-7.55493
海	-7.55835
ので	-7.55858
自分	-7.56075
ご	-7.566
彼に	-7.56618
ス	-7.57343
彼の	-7.57835
彼女	-7.58326
しもべ	-7.58391
人の	-7.58806
恐れ	-7.58866
われわれは	-7.59425
あなたがたが	-7.59684
ん	-7.60695
へ	-7.60941
にある	-7.61296
を見	-7.61424
石	-7.6154
エル	-7.61562
口	-7.61609
行	-7.61955
てください	-7.61974
よう	-7.62194
来る	-7.62982
ため	-7.63452
そこに	-7.63954
行く	-7.64437
山	-7.646
ブ	-7.64982
ところ	-7.65421
バ	-7.66152
祭壇	-7.6643
の家	-7.66557
物を	-7.66654
パ	-7.67261
実	-7.67616
悪	-7.67877
神は	-7.68104
分	-7.68182
なる	-7.6865
救	-7.69439
イスラエルの人々	-7.69685
の前に	-7.70023
血	-7.70062
なく	-7.70118
彼らが	-7.70307
行き	-7.70504
天	-7.70622
定め	-7.70811
肉	-7.71054
家	-7.71427
います	-7.73089
道	-7.73097
たので	-7.73115
立って	-7.73501
祭	-7.74784
者が	-7.7506
ユダ	-7.75126
している	-7.75789
大いなる	-7.76164
手を	-7.77223
立ち	-7.79111
多くの	-7.79183
タ	-7.79264
エルサレム	-7.7976
のです	-7.80221
預言者	-7.80448
兄弟	-7.80538
夜	-7.80722
る者は	-7.81395
ふ	-7.81427
という	-7.82102
五	-7.82408
目	-7.82914
えて	-7.82959
わたしたちは	-7.82976
あなたがたを	-7.83115
となり	-7.83533
霊	-7.83715
喜び	-7.83815
わせ	-7.83816
▁こうして	-7.83826
にむかって	-7.83973
▁あなたがたは	-7.84073
ください	-7.8409
なお	-7.84318
月	-7.84354
知恵	-7.84356
ヤコブ	-7.84815
律法	-7.84924
に対して	-7.84935
にも	-7.84973
でしょう	-7.85021
どうして	-7.8517
声	-7.85473
てはならない	-7.8612
王の	-7.86134
彼が	-7.8622
れた	-7.87153
出て	-7.87497
げ	-7.87621
思い	-7.88233
あなたの神	-7.88391
▁もし	-7.88443
引き	-7.88486
『	-7.88603
かた	-7.88641
言葉を	-7.88678
王は	-7.8888
を取り	-7.88925
のですか	-7.88993
羊	-7.89286
器	-7.89311
部族	-7.89361
ミ	-7.89554
イエスは	-7.89834
妻	-7.89967
者を	-7.90043
母	-7.90212
名	-7.90503
世	-7.90505
よりも	-7.90777
▁この	-7.90846
れる	-7.90863
モーセ	-7.90876
数	-7.91197
ニ	-7.92038
わざ	-7.92167
▁さて	-7.92367
町々	-7.92391
ことは	-7.92642
手に	-7.92909
香	-7.92964
命	-7.93071
与え	-7.93175
着	-7.93208
▁それゆえ	-7.93397
起	-7.93548
ホ	-7.93757
一つ	-7.93819
に言われた	-7.93956
銀	-7.94179
取り	-7.94234
パン	-7.94287
がある	-7.94461
聖なる	-7.94643
木	-7.94886
死	-7.95109
ろう	-7.95441
栄光	-7.96124
愛	-7.96607
ベ	-7.96782
四	-7.96816
助け	-7.96846
会	-7.9685
あった	-7.96928
ひ	-7.97559
従	-7.97981
はその	-7.98166
書	-7.98265
われわれの	-7.98593
光	-7.99026
▁すなわち	-7.99149
二	-7.99243
と言った	-7.99393
は言った	-7.99474
ね	-7.99695
言葉	-7.99933
食べ	-8.00343
にしたがって	-8.00364
間	-8.00476
地の	-8.00484
からだ	-8.00563
され	-8.01855
百	-8.01886
ではないか	-8.02069
金	-8.02128
われわれ	-8.02218
良い	-8.02296
ろ	-8.02524
怒り	-8.02742
おり	-8.02856
長	-8.0304
メ	-8.03177
オ	-8.03663
これらの	-8.03771
皆	-8.03969
ぼ	-8.04445
ペリシテびと	-8.04453
者たち	-8.04759
レビびと	-8.04834
ソロモン	-8.05037
祈	-8.05229
しく	-8.05262
であり	-8.0527
聞いて	-8.05274
万	-8.05477
そうすれば	-8.05522
だけ	-8.05825
川	-8.05853
』。	-8.05857
になった	-8.05906
ません	-8.05927
かつ	-8.0601
サウル	-8.06105
わたしたちの	-8.06542
かせ	-8.06638
ことごとく	-8.06755
となる	-8.06851
心を	-8.0689
に向かって	-8.06917
ではない	-8.07102
パロ	-8.07318
かな	-8.07699
ぐ	-8.07809
▁すると	-8.07996
れて	-8.08086
カ	-8.0854
恵み	-8.08705
神が	-8.08762
共に	-8.08895
牛	-8.0893
ザ	-8.09079
宮	-8.09248
ヨ	-8.09376
ものである	-8.09947
になって	-8.10039
ト	-8.10149
七	-8.10387
前	-8.10479
▁あなたの	-8.10674
頭	-8.10852
ネ	-8.10918
ものを	-8.11089
はならない	-8.11227
とし	-8.11595
でも	-8.11655
ものは	-8.11753
帰	-8.11918
があった	-8.1255
方	-8.12554
連れて	-8.12638
獣	-8.12788
アブラハム	-8.1279
よく	-8.12831
と言う	-8.12986
のもとに	-8.13048
ロ	-8.1317
あり	-8.13268
一つの	-8.13348
次	-8.13931
燔祭	-8.14275
ひとりの	-8.14526
残	-8.14976
をも	-8.15051
える	-8.15058
義	-8.15212
さばき	-8.15258
ことが	-8.15687
男	-8.15865
ダ	-8.16003
シャ	-8.16135
生	-8.1634
とが	-8.16401
では	-8.16413
そこで	-8.16519
▁その時	-8.16747
らない	-8.16851
ではなく	-8.17194
信じ	-8.17539
て言った	-8.17684
セ	-8.17727
身を	-8.17742
キュビト	-8.1779
神に	-8.17915
道を	-8.18049
聞き	-8.18106
上って	-8.18146
主の前に	-8.18157
あげ	-8.18225
かれ	-8.18529
のだ	-8.18604
滅び	-8.18697
三	-8.18742
めて	-8.18864
教え	-8.18993
野	-8.19014
民は	-8.19033
どうぞ	-8.19037
身	-8.19696
求め	-8.1977
アロン	-8.19807
ケ	-8.19838
つけ	-8.19921
死んだ	-8.19934
きょう	-8.20245
柱	-8.20245
人の子	-8.20321
人に	-8.2058
もまた	-8.20785
目に	-8.21058
ゼ	-8.21474
第	-8.21494
戦い	-8.21675
▁イエスは	-8.21701
つるぎ	-8.21722
ここに	-8.21772
名を	-8.22026
これに	-8.22122
門	-8.22146
の娘	-8.22329
るように	-8.22369
々	-8.22415
信仰	-8.22503
ていた	-8.2252
こうして	-8.22538
だれが	-8.22619
滅ぼし	-8.22721
わたしたち	-8.22761
べき	-8.22795
があり	-8.22995
なり	-8.23035
中	-8.23641
しるし	-8.23778
主の宮	-8.24581
と一緒に	-8.25298
に従って	-8.25541
立て	-8.25945
とその	-8.26027
いだ	-8.26043
渡	-8.26048
種	-8.26116
入れ	-8.26183
歩	-8.2636
かけ	-8.26441
あかし	-8.26565
戒め	-8.2664
内	-8.26798
▁これは	-8.26868
嗣業	-8.26984
ユダヤ人	-8.27031
人たち	-8.27033
まだ	-8.2741
守	-8.27543
兄弟たち	-8.27702
っ	-8.27753
箱	-8.283
住	-8.28378
ためである	-8.28457
供え物	-8.2846
彼女は	-8.28805
エジプト	-8.28826
不	-8.29027
パウロ	-8.29187
歌	-8.29187
人々が	-8.29208
サ	-8.2928
となった	-8.29531
逃げ	-8.29635
者に	-8.29859
悪い	-8.29931
のうちから	-8.29957
告げ	-8.30052
ユダの	-8.3029
ること	-8.30405
えた	-8.30784
ましょう	-8.31063
の門	-8.31155
祝福	-8.31228
答え	-8.31301
重	-8.31439
夫	-8.31439
だれ	-8.31651
おまえ	-8.31795
を受け	-8.31801
になる	-8.31806
その子	-8.31843
心に	-8.31845
をことごとく	-8.32105
とは	-8.32125
ウ	-8.32344
食	-8.32482
エルサレムに	-8.32496
時に	-8.32798
しない	-8.32849
あるいは	-8.32865
よい	-8.33242
当	-8.33263
ほかの	-8.33506
取	-8.33727
多く	-8.33787
その人	-8.33799
の前で	-8.33891
るために	-8.34048
合	-8.34199
前に	-8.34399
つく	-8.34481
六	-8.34927
二十	-8.34949
使	-8.35021
を与え	-8.35116
馬	-8.35626
報い	-8.3566
地を	-8.35677
からです	-8.3581
せよ	-8.35926
ガ	-8.35984
ペ	-8.36102
朝	-8.36102
神を	-8.36217
おられる	-8.36246
主を	-8.3648
畑	-8.36567
られて	-8.36652
▁見よ	-8.36679
の間	-8.36717
しなさい	-8.3676
娘	-8.36913
をお	-8.36923
っていた	-8.36952
ヘ	-8.37061
われ	-8.37236
産	-8.37276
を攻め	-8.37545
死ぬ	-8.37579
のところに	-8.37732
を見て	-8.37848
聖所	-8.37868
イスラエルの神	-8.38129
はみな	-8.38347
破	-8.38465
おのおの	-8.38477
ぬ	-8.38482
再び	-8.38522
住む	-8.38567
行い	-8.38888
ダビデは	-8.38906
イスラエルの王	-8.38957
ふたり	-8.3915
まず	-8.39233
ってはならない	-8.39252
正しい	-8.39363
とする	-8.39434
尋ね	-8.39466
外	-8.39499
耳	-8.39501
家に	-8.39709
富	-8.39996
ついに	-8.4005
にいる	-8.40721
なぜ	-8.41065
たちは	-8.41101
高	-8.41138
ヨセフ	-8.41402
何	-8.41796
結	-8.41897
過	-8.42
麦	-8.42
風	-8.42001
ても	-8.42482
必ず	-8.42508
近	-8.42726
ざ	-8.42795
者である	-8.42881
など	-8.43301
キ	-8.43431
殺	-8.4348
ド	-8.43508
いない	-8.436
ながら	-8.43604
コ	-8.43922
無	-8.44047
を得	-8.44384
の木	-8.44479
それで	-8.44522
らず	-8.44882
に告げ	-8.44904
知っている	-8.45005
得	-8.45018
答えて	-8.45031
群衆	-8.45086
を取って	-8.45105
主の言葉	-8.45249
ようになる	-8.45429
▁それで	-8.45437
数え	-8.45478
のがれ	-8.45658
願い	-8.45814
者と	-8.46158
下って	-8.46203
の中で	-8.46231
エリ	-8.46431
顔を	-8.46467
幕屋	-8.4667
教	-8.46679
▁神は	-8.46966
の子たち	-8.47039
われら	-8.47056
いま	-8.47118
フ	-8.47188
ッ	-8.47195
ることを	-8.47538
来て	-8.47606
悪しき者	-8.47649
と言って	-8.47747
のうち	-8.4788
ほ	-8.48104
わし	-8.48161
主人	-8.48247
ベニヤミン	-8.48269
▁ところが	-8.48315
そこ	-8.4837
すでに	-8.48385
のゆえに	-8.48495
』」。	-8.48752
ようと	-8.48804
工	-8.4881
座	-8.48814
知らない	-8.4889
獲	-8.49354
ユダの王	-8.49366
水を	-8.49466
同	-8.4975
これらは	-8.50107
語	-8.50324
知らせ	-8.50404
兵	-8.50449
庭	-8.50449
ジ	-8.50449
もとに	-8.50474
おきて	-8.50511
意	-8.50991
滅ぼす	-8.51002
の子らは	-8.5112
してはならない	-8.51197
語り	-8.51437
谷	-8.51557
帰って	-8.51629
顔	-8.51766
ると	-8.51779
のうちで	-8.51811
あなたがたの神	-8.52252
明	-8.52676
台	-8.52677
いで	-8.52705
自身	-8.52894
▁わたしが	-8.52922
先祖たち	-8.5294
日に	-8.52951
もう	-8.52967
に仕え	-8.53028
族	-8.53477
わか	-8.53535
投げ	-8.53559
ような	-8.53588
部	-8.53734
北	-8.53811
けて	-8.53946
酒	-8.54369
雲	-8.54382
糸	-8.54383
シオン	-8.54412
なんの	-8.54573
を捨て	-8.54584
または	-8.54623
答えた	-8.5485
罰	-8.54854
除	-8.54957
ほど	-8.5505
金の	-8.55053
切	-8.55193
の言葉	-8.55413
害	-8.55534
とした	-8.55663
める	-8.55663
めた	-8.55947
わず	-8.55977
土	-8.55992
▁わたしの	-8.55999
他の	-8.5606
解	-8.56116
みずから	-8.56123
の手から	-8.56325
にあって	-8.56373
来	-8.56489
は皆	-8.5652
どうか	-8.56553
寝	-8.56701
どんな	-8.56701
歳	-8.56701
イエスを	-8.56716
望み	-8.56857
代	-8.56922
ろば	-8.57034
追い	-8.5714
打ち	-8.57225
八	-8.57231
十二	-8.57297
天幕	-8.57312
弟子たち	-8.57529
子を	-8.57732
バビロン	-8.57828
の中	-8.57872
を聞いた	-8.57881
親	-8.57881
災	-8.57885
気	-8.58193
現れ	-8.58542
不義	-8.5855
初め	-8.58738
うちに	-8.58866
あと	-8.58892
造	-8.58905
戸	-8.59075
イエスが	-8.59083
の長	-8.59277
言い	-8.59342
満	-8.59605
グ	-8.59678
雄羊	-8.5969
真実	-8.59702
このように	-8.59967
すぐ	-8.59981
の下に	-8.60001
すべての民	-8.60051
三十	-8.60115
戦	-8.60241
側	-8.60284
万軍の主	-8.60295
何を	-8.60423
命を	-8.60531
の間に	-8.60624
ゲ	-8.60751
二つの	-8.60784
主は言われる	-8.60855
備え	-8.60885
語る	-8.60891
小羊	-8.60927
▁それから	-8.61039
があって	-8.61067
言いなさい	-8.61314
いつくしみ	-8.61507
家畜	-8.61511
命じられた	-8.61605
国々	-8.61742
してください	-8.6184
ことができる	-8.61865
罪を	-8.61989
成	-8.62114
群れ	-8.6212
務	-8.62124
ボ	-8.62124
ったので	-8.63061
子供	-8.63167
エフライム	-8.6337
岩	-8.6337
拝	-8.63456
救い	-8.63693
もない	-8.63705
すると	-8.63797
それに	-8.63813
かった	-8.63873
きなさい	-8.6392
を行う	-8.6394
東	-8.63942
の子ら	-8.63944
動	-8.63973
民を	-8.64058
もはや	-8.6409
苦	-8.64605
ほかに	-8.64613
ヨアブ	-8.64632
しめ	-8.65034
王たち	-8.65053
イスラエルの人々は	-8.65173
病	-8.65239
異邦人	-8.65269
偽り	-8.65358
ゆえ	-8.65649
僕	-8.6591
ヨハネ	-8.6591
官	-8.6591
サウルは	-8.66095
による	-8.66246
つかさたち	-8.66256
モ	-8.66459
させた	-8.66529
ヨルダン	-8.66555
放	-8.66555
れば	-8.66601
ることはない	-8.66759
であろうか	-8.66896
かれる	-8.66992
出し	-8.67092
エレミヤ	-8.67205
出す	-8.67226
返	-8.67305
恥	-8.67444
させる	-8.67582
なし	-8.67659
にお	-8.67669
契約	-8.67686
かれた	-8.68008
千	-8.68296
のため	-8.68428
▁ダビデは	-8.6847
小	-8.68478
墓	-8.68516
青銅	-8.68516
大きな	-8.68519
神々	-8.68607
るでしょう	-8.68677
んでいる	-8.6872
安息日	-8.68812
がよい	-8.68924
のような	-8.68952
ビ	-8.68961
誇	-8.69178
偶像	-8.69178
油	-8.69359
出して	-8.69407
者も	-8.69585
ない者	-8.69619
あって	-8.69743
イサク	-8.69845
あわれみ	-8.69845
バアル	-8.69968
強く	-8.70042
持って	-8.70114
らなければならない	-8.70246
るべき	-8.70342
とこしえに	-8.70516
苦しみ	-8.70517
軍勢	-8.7052
先祖	-8.70665
良	-8.70695
切り	-8.70914
の妻	-8.71064
思	-8.71069
売	-8.71191
勇士	-8.71195
その人は	-8.71224
ないでください	-8.71428
受け	-8.71568
人々に	-8.71705
地は	-8.71848
軍	-8.71856
乳	-8.71872
落ち	-8.71924
かしら	-8.71931
自	-8.71949
長老たち	-8.71974
祭司たち	-8.7204
天に	-8.72312
ギレアデ	-8.72556
果	-8.72557
善	-8.72557
はずかしめ	-8.72557
たが	-8.72559
セラ	-8.72735
生き	-8.72813
を見た	-8.7284
ある者	-8.73206
あなたと	-8.73233
を集め	-8.73246
言え	-8.73305
わない	-8.73937
張	-8.73941
流れ	-8.74087
見え	-8.74239
つかさ	-8.74347
だれか	-8.74353
において	-8.74407
死に	-8.74441
の名は	-8.74451
の上	-8.74489
さない	-8.74491
国民	-8.74527
の氏族	-8.74556
囲	-8.74641
ないように	-8.74668
撃	-8.74701
その上に	-8.74708
ごとに	-8.74762
契約を	-8.74824
この地	-8.74839
する者	-8.7486
むべき	-8.74947
命じた	-8.74984
をする	-8.75138
祭司は	-8.75266
エドム	-8.75344
むすこ	-8.75347
荒野	-8.75572
のうちの	-8.75716
分け	-8.75733
されて	-8.75735
バル	-8.75766
しよう	-8.758
を建て	-8.75818
食い	-8.76049
皮	-8.76053
穴	-8.76054
を求め	-8.76093
わたしはあなたの	-8.76161
となって	-8.76596
見た	-8.76682
わたしたちが	-8.7675
角	-8.76768
労	-8.76768
それゆえ	-8.76835
がない	-8.76867
あがない	-8.7689
彼らに言った	-8.77016
目を	-8.77078
▁モーセは	-8.77086
取った	-8.77172
と言い	-8.77275
だからである	-8.77399
城壁	-8.7749
だれも	-8.77505
身に	-8.77548
開	-8.77617
入	-8.7762
アビ	-8.77651
町の	-8.7773
を捕え	-8.77806
奪	-8.77995
生れた	-8.78158
境	-8.78162
役	-8.78212
ヒゼキヤ	-8.78212
眠	-8.78212
合わせて	-8.78213
さば	-8.78336
と言われた	-8.78576
の中から	-8.7874
場所	-8.78772
諸	-8.78926
衣	-8.78928
相	-8.78942
シケル	-8.78942
サマリヤ	-8.78959
あの	-8.7898
ありません	-8.79114
国の	-8.79139
じて	-8.79325
満ち	-8.79438
傷	-8.79677
枝	-8.79677
彼に言った	-8.79701
しなければならない	-8.80081
伝え	-8.80108
時は	-8.80112
願	-8.80118
全地	-8.80371
断	-8.80379
王が	-8.80385
女は	-8.80387
理	-8.80408
花	-8.80418
ああ	-8.80441
とおり	-8.80634
そうと	-8.80736
を守る	-8.80739
食物	-8.80911
作	-8.80926
洗	-8.81164
ズ	-8.81164
南	-8.81165
もなく	-8.81275
訴え	-8.81335
どう	-8.81437
る時	-8.8148
仕え	-8.81526
このような	-8.81532
悟	-8.81575
だから	-8.81592
ラム	-8.81705
ひと	-8.81773
指	-8.81915
骨	-8.81917
知識	-8.81917
素祭	-8.81917
ることがない	-8.82054
ける	-8.8213
を愛し	-8.822
ものと	-8.82667
マナセ	-8.82673
ヨナタン	-8.82685
大いに	-8.82712
イスラエルの家	-8.82753
上げ	-8.82888
またその	-8.82891
していた	-8.82985
た者	-8.83037
▁それは	-8.83071
られない	-8.832
その時	-8.83263
ませ	-8.83264
清め	-8.83417
夕	-8.83436
妹	-8.83437
来た	-8.83447
ことである	-8.83466
負	-8.83497
終	-8.83512
宿営	-8.83581
いのち	-8.83619
強い	-8.83793
一頭	-8.83953
われわれの神	-8.83962
油を	-8.83998
いった	-8.84026
ひとりも	-8.84149
首	-8.84207
なければ	-8.84207
非常に	-8.8421
まった	-8.84242
君	-8.84505
わた	-8.84528
につけ	-8.84641
▁あなたが	-8.84707
ことはない	-8.84785
自分たち	-8.84846
去	-8.84934
服	-8.84967
舟	-8.84982
戦車	-8.84994
▁時に	-8.84994
エリシャ	-8.85024
迎え	-8.8503
民の	-8.85087
王に	-8.85247
終り	-8.85326
誓い	-8.85328
を治め	-8.85608
を得る	-8.85675
証	-8.85721
保	-8.85763
おおい	-8.85859
四十	-8.86148
モーセは	-8.86204
ことも	-8.86272
会衆	-8.86498
移	-8.86549
像	-8.8655
声を	-8.86578
エジプトびと	-8.86725
堅く	-8.86734
悪を	-8.86746
栄え	-8.86766
毛	-8.87344
位	-8.87344
エリヤ	-8.87555
道に	-8.87723
だろうか	-8.87796
広	-8.88132
弱	-8.88144
神よ	-8.8824
立つ	-8.88373
ベル	-8.88497
主である	-8.88773
楽	-8.88949
しえたげ	-8.8895
ダン	-8.88972
ロン	-8.89002
若い	-8.89219
いなさい	-8.89454
すべての人	-8.89603
より	-8.89685
布	-8.8975
失	-8.89763
友	-8.89764
新しい	-8.89793
の入口	-8.89829
わたしたちに	-8.89944
ころ	-8.8996
荒	-8.9002
その中に	-8.90056
▁すべて	-8.90087
変	-8.9015
をささげ	-8.90194
三日	-8.90387
流	-8.90411
その日	-8.90424
自分を	-8.9055
すべき	-8.9058
草	-8.90583
ピ	-8.90583
配	-8.90583
雄牛	-8.90597
去って	-8.90948
ることは	-8.91007
示し	-8.91036
たからである	-8.91104
わが民	-8.91177
アル	-8.91196
▁その日	-8.91273
はいって	-8.91347
くだ	-8.91374
陰	-8.9141
平安	-8.91419
づ	-8.91445
う者	-8.91485
イエスの	-8.91751
るならば	-8.91793
これら	-8.9193
につ	-8.92042
にはいって	-8.92052
を離れ	-8.92133
山に	-8.92204
舌	-8.92243
汚れ	-8.92243
取って	-8.92414
つか	-8.92504
せて	-8.92621
かつて	-8.92696
この人	-8.9273
あだ	-8.9283
わたしたちを	-8.92848
その民	-8.92879
わたしはあなた	-8.92933
ども	-8.93065
まり	-8.93066
白	-8.93083
ぶどう酒	-8.93102
つえ	-8.93106
加え	-8.93157
正しい者	-8.93446
何も	-8.93458
けた	-8.93828
やり	-8.93878
告	-8.93892
ささげ	-8.93907
別	-8.93918
記	-8.9393
雨	-8.93931
字	-8.93931
後に	-8.93963
でしょうか	-8.94287
信	-8.94377
天から	-8.94458
もろもろの民	-8.94461
われわれを	-8.94565
しし	-8.9457
去った	-8.94594
かなければならない	-8.94612
前から	-8.9464
わり	-8.94675
空	-8.94785
アブサロム	-8.94785
両	-8.94785
命令	-8.94794
所有	-8.94803
憤り	-8.94863
は彼	-8.94922
離れ	-8.94935
飲み	-8.9498
荒れ	-8.95325
ふたりの	-8.95404
になり	-8.95526
るもの	-8.95637
暗	-8.95638
かえって	-8.95663
同じ	-8.95761
進み	-8.9577
悲しみ	-8.95786
の家に	-8.95787
ペテロ	-8.95854
望	-8.95927
の子である	-8.95954
国に	-8.96027
ないで	-8.96416
その家	-8.96473
法	-8.96517
は次のとおりである	-8.96519
ぶどう	-8.96524
食べる	-8.96584
イエスに	-8.96591
ばれ	-8.96616
御	-8.96777
全く	-8.96908
高く	-8.97023
を持って	-8.97089
まれ	-8.97275
ぞ	-8.97379
去り	-8.974
とおりに	-8.97444
者ども	-8.97483
さえ	-8.97496
働	-8.9758
をした	-8.97634
せず	-8.97792
われわれに	-8.97814
通	-8.97866
立	-8.97948
これが	-8.98022
ることができる	-8.98083
愛する者	-8.98164
くる	-8.98249
息	-8.98267
様	-8.98279
それが	-8.98279
天の	-8.98668
となるであろう	-8.98704
エルサレムの	-8.98705
わたしと	-8.98794
ないであろう	-8.98808
話し	-8.99007
帰り	-8.99091
ばかり	-8.99183
らなかった	-8.99483
▁だから	-8.9949
死んで	-8.99529
のを見て	-8.9956
帰った	-8.99612
落	-9.00003
宝	-9.00023
利	-9.00062
宿	-9.00071
の方	-9.00091
さらに	-9.00123
教会	-9.00131
を打ち	-9.00182
あります	-9.00291
そのすべての	-9.00327
かない	-9.00372
魂	-9.00606
により	-9.00614
しなかった	-9.00708
アヒ	-9.00714
を造り	-9.00776
安	-9.00794
送	-9.01007
待ち	-9.01046
ことに	-9.01084
怒りを	-9.01151
愛する	-9.01178
先に	-9.0121
の父	-9.01234
泣	-9.01403
生れ	-9.01584
主はこう言われる	-9.01708
約束	-9.01829
屋	-9.01889
置き	-9.01893
集まって	-9.019
主なる神はこう言われる	-9.01904
バビロンの王	-9.0198
おのおのその	-9.02001
所へ	-9.02121
追	-9.0213
ヤコブは	-9.02252
イム	-9.02289
の子孫は	-9.02575
絶え	-9.02575
をなし	-9.02703
この世	-9.02763
に臨んだ	-9.02808
を呼び	-9.02826
知り	-9.02838
汚れた	-9.02921
おく	-9.03105
▁王は	-9.03424
出た	-9.0355
ヨシュア	-9.03586
持ち	-9.03604
すれば	-9.03614
高い	-9.03677
いたので	-9.03736
青	-9.0376
昼	-9.0376
外に	-9.03763
ですか	-9.03768
激しい	-9.03769
さあ	-9.03782
だろう	-9.04122
兄弟たちよ	-9.04352
御使	-9.04446
を追い	-9.04456
▁そのとき	-9.04463
誓	-9.04526
んじ	-9.04559
の日に	-9.04586
を汚し	-9.04631
のほとり	-9.04704
に対する	-9.04725
モアブの	-9.04841
覚え	-9.04937
この民	-9.04991
ベテ	-9.04993
目は	-9.05044
さし	-9.05063
を通	-9.05147
ささげなければならない	-9.05238
のかたわらに	-9.05254
キリストの	-9.05301
イスラエルを	-9.05336
好	-9.05356
イスラエルに	-9.05419
わたしのために	-9.05614
会見の幕屋	-9.0562
み名	-9.05667
あらわ	-9.05747
場	-9.05784
聖	-9.05824
宮の	-9.0587
ことができない	-9.05894
おのれ	-9.05907
家来たち	-9.05912
ようとする	-9.05994
イスラエルは	-9.06003
▁このように	-9.06007
争	-9.06013
ささげる	-9.06267
働き	-9.06414
人々を	-9.06463
あなたの民	-9.06482
ゆるし	-9.06603
に属する	-9.06617
預言者たち	-9.0662
貧しい者	-9.06621
衣服	-9.06635
らは	-9.06678
ほしい	-9.06719
て下さる	-9.06754
ヨシュアは	-9.06794
を設け	-9.06865
殺され	-9.07156
その地	-9.07231
エサウ	-9.07588
すること	-9.0763
いと	-9.07741
言って	-9.07776
ままに	-9.08049
この町	-9.0808
生きている	-9.08177
ヒ	-9.08401
モアブ	-9.08424
▁わが	-9.08427
永遠の	-9.08569
に命じて	-9.0859
ヨセフは	-9.08752
強	-9.08808
すべての事	-9.08862
造った	-9.08867
ほめ	-9.08975
見る	-9.09009
るまで	-9.09366
待	-9.09489
福音	-9.09563
ちり	-9.09681
▁彼らが	-9.0969
話	-9.09742
ミカ	-9.09746
飲	-9.09756
書き	-9.09854
したので	-9.09905
見ると	-9.09914
を守り	-9.10036
うち	-9.1018
口に	-9.10202
そこから	-9.10371
ゴ	-9.10558
を携えて	-9.10558
御霊	-9.10604
▁彼が	-9.10609
ききん	-9.10613
殺し	-9.10662
あれ	-9.10772
罪祭	-9.10848
に与えた	-9.10882
建て	-9.10915
起き	-9.11009
ゆえに	-9.11154
その所で	-9.11204
高き所	-9.11575
聖霊	-9.1161
を受ける	-9.1163
寄せ	-9.11633
なぜなら	-9.11708
罪を犯し	-9.11803
から出た	-9.11888
去らせ	-9.11896
らし	-9.12002
とおりである	-9.12097
を見る	-9.12149
恐れる	-9.12199
ぜ	-9.12302
ゆる	-9.12341
出した	-9.1245
づけ	-9.12534
復	-9.12582
アハブ	-9.12589
異	-9.1259
のを見た	-9.12613
ノア	-9.12718
この事	-9.12766
なかったので	-9.12769
遠く	-9.12859
るためである	-9.12884
造られた	-9.12886
リヤ	-9.12951
一緒に	-9.13316
隠	-9.13399
られました	-9.13411
王と	-9.13425
小さい	-9.1362
出された	-9.13979
くじ	-9.14131
を殺した	-9.14267
いたが	-9.14269
打	-9.14511
から出て	-9.14529
と主は言われる	-9.14536
レビ	-9.14662
マリヤ	-9.14709
に与える	-9.14793
出てきた	-9.14935
の住民	-9.14969
な者	-9.15048
まことに	-9.15054
メル	-9.15094
受けいれ	-9.15104
与えられた	-9.1514
寄	-9.15303
ようか	-9.15306
所で	-9.15541
つかわした	-9.15606
感謝	-9.15614
権	-9.15709
けれども	-9.15714
ギ	-9.15714
進んで	-9.15763
娘たち	-9.15972
られている	-9.16074
常に	-9.1612
おられた	-9.16147
置いた	-9.16314
降	-9.16435
栄	-9.16454
殺した	-9.16456
べて	-9.16595
を立てて	-9.16667
を離れて	-9.16737
難	-9.1676
語って	-9.16779
ルベン	-9.16779
地から	-9.16945
悪霊	-9.16954
エジプトの国	-9.16956
におる	-9.16968
行う	-9.17
くら	-9.17028
われた	-9.17075
連れ	-9.17104
させてください	-9.17126
なす	-9.17181
その子は	-9.17195
その兄弟	-9.17212
町に	-9.17231
そのように	-9.17361
ささげた	-9.17376
どこに	-9.17434
まい	-9.17485
滅	-9.17574
▁『	-9.17646
先	-9.17678
彼と共に	-9.17678
われらの	-9.17809
さきに	-9.17831
勝	-9.17841
災を	-9.17847
死体	-9.17882
深い	-9.18001
何か	-9.18068
語った	-9.18113
家族	-9.18295
と同じ	-9.18449
驚	-9.18615
遠	-9.18648
用	-9.18728
神の宮	-9.1881
をとって	-9.18819
鳥	-9.18939
計	-9.1894
真理	-9.18954
のようで	-9.18976
エジプトの	-9.19036
町を	-9.19055
にはいった	-9.19114
します	-9.19296
車	-9.20021
議	-9.20039
を忘れ	-9.20039
耳を傾け	-9.2004
平和	-9.20047
の周囲	-9.20207
三人	-9.20438
女たち	-9.20654
飲む	-9.20659
割礼	-9.20695
示	-9.20738
さなければならない	-9.2089
出る	-9.20912
こそ	-9.21097
子ら	-9.2111
平	-9.21123
賜わった	-9.2115
あらゆる	-9.2115
犠牲をささげ	-9.2115
正しく	-9.21182
もので	-9.21234
つるぎを	-9.21244
いつも	-9.21251
正義	-9.21277
わが神	-9.21284
滅ぼされ	-9.21353
嘆き	-9.21417
決して	-9.21418
あなたがたのうちに	-9.21501
時には	-9.21515
行きなさい	-9.21581
頭に	-9.21597
求める	-9.21758
を殺し	-9.21812
主なる神	-9.21884
のだから	-9.2202
ようとして	-9.22142
持っている	-9.22235
ヨシャパテ	-9.22274
とその放牧地	-9.22283
らい	-9.22289
仰せ	-9.22315
人であった	-9.2234
るとき	-9.22348
あなたのしもべ	-9.22436
わたしはあなたを	-9.22488
するであろう	-9.22595
自ら	-9.22659
とをもって	-9.22731
この事を	-9.22745
同じように	-9.22755
つかわされた	-9.22884
たちが	-9.22889
がなく	-9.2289
長さ	-9.23173
としなければならない	-9.23192
アナ	-9.23308
やぎ	-9.2331
真	-9.23349
を守ら	-9.23377
宣べ伝え	-9.23411
プ	-9.23411
急いで	-9.23418
はじめ	-9.2367
▁彼らの	-9.23758
悟り	-9.23929
ほか	-9.243
これらの事	-9.24324
少し	-9.2437
者よ	-9.24429
幕	-9.24503
にはいる	-9.2451
捕え	-9.24557
地で	-9.24683
をかけ	-9.24711
言われる	-9.24718
カル	-9.24901
三つ	-9.24994
愚かな者	-9.25027
金を	-9.25109
喜んで	-9.25229
エジプトの地	-9.25376
君たち	-9.254
弟子	-9.25574
ツ	-9.25693
音	-9.25717
ラッパ	-9.25722
飲ませ	-9.25741
納め	-9.25754
のところへ	-9.25952
寄り	-9.26103
られます	-9.26129
去る	-9.26234
わたしの民	-9.26292
初	-9.26382
おこない	-9.26444
はいり	-9.26449
消え	-9.26544
間に	-9.26609
十二人	-9.26677
歩み	-9.26694
ふさ	-9.26816
頭を	-9.26849
ポ	-9.26898
むしろ	-9.269
を生んだ	-9.2692
だれでも	-9.26985
かすめ	-9.27082
キシ	-9.27131
悪人	-9.2714
▁彼はまた	-9.27261
であることを	-9.27328
をほめたたえ	-9.276
義と	-9.27807
ることができない	-9.27926
ともに	-9.28013
ひれ伏し	-9.2809
主なる神は言われる	-9.28097
ならびに	-9.28101
場合	-9.2812
わたしがあなた	-9.28176
らせた	-9.28249
年に	-9.28368
隠れ	-9.28453
イスラエルのすべての	-9.28463
われる	-9.28529
もろもろの国民	-9.28814
主はこう仰せられる	-9.28843
ようとした	-9.29018
正	-9.29032
事は	-9.29057
こさせ	-9.29105
千人	-9.29153
わたしも	-9.29204
踏	-9.29294
その女	-9.29327
全会衆	-9.2938
行かせ	-9.29478
女が	-9.29616
尊い	-9.29627
日には	-9.29799
送り	-9.29886
食物を	-9.30084
を行い	-9.30128
ノ	-9.3036
召し	-9.30384
あなたがたも	-9.30409
サムエル	-9.30431
られるであろう	-9.30438
今日	-9.305
ダニエル	-9.30514
モン	-9.30594
七つの	-9.30723
に臨む	-9.30776
右	-9.30839
のろい	-9.30844
ようになった	-9.30987
取る	-9.30988
となえ	-9.3106
を撃ち	-9.31121
アサ	-9.31134
を造った	-9.31154
長子	-9.31455
悲	-9.31722
ヨアシ	-9.31748
逆	-9.31748
ヤラベアム	-9.31748
わけ	-9.31749
書いてある	-9.3175
ぶどう畑	-9.31782
があれば	-9.31791
証人	-9.31815
おいた	-9.3183
捨てられ	-9.31873
のようだ	-9.31876
偽りを	-9.31914
少	-9.31953
使者	-9.32012
言葉は	-9.32043
できない	-9.3208
に住む者	-9.32131
すわって	-9.32146
に満ち	-9.32298
その中	-9.32478
大祭司	-9.32553
偽	-9.32658
あなたの前に	-9.32688
堅	-9.32707
されている	-9.32729
を守って	-9.32793
命じ	-9.32911
ことのない	-9.32986
ヘブロン	-9.32998
それぞれ	-9.32999
カルデヤびと	-9.32999
て下さった	-9.32999
激しく	-9.33006
シモン	-9.33101
つかわし	-9.33107
所から	-9.33163
人間	-9.33169
荒野に	-9.33177
あなたの父	-9.33225
あなたはわたしの	-9.33328
わき	-9.33366
人たちは	-9.33452
へ行って	-9.33538
内に	-9.3354
われわれが	-9.33633
わら	-9.3384
弟子たちは	-9.34012
父は	-9.3412
るがよい	-9.34139
に至る	-9.34176
やみ	-9.34192
わたしは彼ら	-9.3421
立てた	-9.34248
エレアザル	-9.34264
ガリラヤ	-9.34264
サムソン	-9.34266
権威	-9.3427
若者	-9.34313
ガド	-9.34323
アッスリヤの王	-9.34364
渡し	-9.34371
ことがない	-9.34394
あがめ	-9.34472
買い	-9.34475
があるか	-9.34656
おうと	-9.34683
よみがえ	-9.3476
しるされ	-9.34919
なのである	-9.3505
モーセが	-9.35292
定	-9.35416
リム	-9.35437
愚	-9.35511
エヒウ	-9.35546
宣	-9.35546
喜ぶ	-9.35561
二百	-9.35675
あなたのために	-9.35924
ホル	-9.36133
を捨てて	-9.36257
あなたがたのために	-9.36394
なさ	-9.36567
七十	-9.36585
問	-9.36652
年の間	-9.36725
一日	-9.36749
体	-9.36753
学	-9.36845
を呼んで	-9.36845
近づいて	-9.36845
生きながらえ	-9.36847
うしろ	-9.36847
四つの	-9.36896
引いて	-9.36925
バラム	-9.36928
多い	-9.37198
▁わたしたちは	-9.37238
わたしの前に	-9.37261
その他の	-9.37407
牧者	-9.37418
を祝福し	-9.37457
子供たち	-9.375
ものが	-9.3752
まこと	-9.37727
みわざ	-9.37816
わなければならない	-9.3787
ってください	-9.38006
を知る	-9.3803
をつかさど	-9.38187
さず	-9.3822
すであろう	-9.38312
一同	-9.38382
テル	-9.38396
に告げて	-9.38542
行こう	-9.38555
あるように	-9.38562
あるもの	-9.38608
救われる	-9.38677
わな	-9.38737
ませんでした	-9.38819
水が	-9.38905
ことのないように	-9.3897
恥じ	-9.39002
続	-9.39181
買	-9.39272
立った	-9.39359
臨	-9.39451
造り	-9.39487
サムエルは	-9.39584
深く	-9.39611
と思う	-9.39785
イエスは彼ら	-9.40011
七日	-9.40107
主なる	-9.40178
する者は	-9.4027
エジプトから	-9.40347
エルサレムで	-9.40469
嘆	-9.4052
返し	-9.40636
したら	-9.40672
たとい	-9.4075
陣	-9.40843
永	-9.40843
楽しみ	-9.40847
安らかに	-9.40904
着物を	-9.40905
残りの	-9.40981
わたしの名	-9.40988
命じる	-9.41038
されるであろう	-9.41042
を与えて	-9.41053
結び	-9.41122
起きて	-9.41225
シバ	-9.4125
生きる	-9.41393
ことができよう	-9.41399
められる	-9.41437
の上で	-9.41699
二つ	-9.41711
をさして	-9.41799
わたしの心	-9.41825
捕	-9.41883
まま	-9.42048
現	-9.42063
対	-9.4213
わざわい	-9.42134
隊	-9.42197
領	-9.42199
兄	-9.42208
勇	-9.42209
ひき	-9.42213
ピラト	-9.42215
隣り人	-9.42217
長く	-9.42257
ベテル	-9.42458
若	-9.42564
てくれ	-9.42613
離	-9.42674
をうけ	-9.43002
に与えて	-9.43211
淫	-9.43301
を負わ	-9.43397
帰らせ	-9.43467
和	-9.43594
わたしの父	-9.43597
アモリびと	-9.43604
いちじく	-9.43609
のあいだ	-9.43672
礼拝	-9.43674
を救う	-9.4383
清い	-9.43854
ことはできない	-9.4386
語られた	-9.43893
歩む	-9.43894
サラ	-9.43926
汚	-9.44238
地方	-9.44302
ゆ	-9.44435
ここ	-9.44451
てしまった	-9.4449
聖なる物	-9.44581
度	-9.44858
▁どうか	-9.4495
レバノン	-9.45013
シケム	-9.45013
みこころ	-9.45013
ないのか	-9.45028
を産んだ	-9.45123
自分のために	-9.45228
するのか	-9.45771
アダ	-9.45877
争い	-9.45879
さま	-9.46126
に住んだ	-9.46225
の方に	-9.46331
もろもろの国	-9.46362
神の国	-9.46366
らす	-9.46427
はいけない	-9.46443
重ねて	-9.46444
さんび	-9.46448
産んだ	-9.46552
人をつかわして	-9.46562
ユダの人々	-9.46591
きよめ	-9.46622
ヨブ	-9.4663
右の手	-9.46659
ついて	-9.46982
すえ	-9.47021
わなかった	-9.47037
おいて	-9.47161
手で	-9.47169
男の子	-9.47386
第二	-9.47519
主を恐れ	-9.47734
すまい	-9.47747
ゼデキヤ	-9.4789
アブラム	-9.4789
タラント	-9.47891
しばらく	-9.47891
を授け	-9.47891
オリブ	-9.47891
くびき	-9.47903
断食	-9.47938
▁ただし	-9.47946
主にささげ	-9.47976
生ける	-9.4799
主にささげる	-9.48278
モーセとアロン	-9.48279
あげて	-9.4835
ささげ物	-9.4835
と言ったので	-9.48359
わたしはあなたに	-9.48453
と思って	-9.48541
立っている	-9.48701
愚かな	-9.48806
その父	-9.48849
いやし	-9.48914
死人	-9.48914
おこなった	-9.49217
家を建て	-9.49221
弟	-9.49235
報	-9.49243
へ行った	-9.4936
ケルビム	-9.49361
ではありませんか	-9.49362
むなしい	-9.49366
アビメレク	-9.49369
病気	-9.49405
カナンびと	-9.49414
置	-9.49442
を起し	-9.49561
置いて	-9.49566
さいわいである	-9.49631
撃ち	-9.49736
を殺す	-9.49981
食事	-9.50013
わが主	-9.50028
熱	-9.50165
それから	-9.50215
怒	-9.50244
いったい	-9.50281
神の人	-9.50309
まれる	-9.50355
ペテロは	-9.50495
彼は言った	-9.50574
ることができ	-9.50598
なんと	-9.50787
確	-9.50832
アンモンの人々	-9.50853
▁主はモーセに言われた	-9.50854
らい病	-9.50878
ことができなかった	-9.50885
定められた	-9.50972
召	-9.51014
ごろ	-9.51083
悪しき	-9.51095
入れた	-9.51106
ことがある	-9.5117
言っている	-9.51174
子牛	-9.51446
近く	-9.51714
あなたと共に	-9.51781
主の使	-9.51914
決	-9.52004
罪を犯した	-9.52018
周囲の	-9.52119
あなたの手	-9.52209
半	-9.52291
仕	-9.52338
公	-9.52358
にあずか	-9.5238
その名を	-9.52393
四方	-9.52511
あなたがたのうち	-9.5255
りました	-9.52573
おまえたち	-9.52713
こう言われる	-9.52768
見せ	-9.52889
くつ	-9.53174
残った	-9.53198
なされた	-9.53241
られるように	-9.53316
を知って	-9.53337
わたしの言葉	-9.53503
下り	-9.53526
示す	-9.53532
な子	-9.53549
ことなく	-9.53581
に従い	-9.53726
スリヤびと	-9.53901
いっさい	-9.53907
賜わる	-9.53907
ういご	-9.53913
あふれ	-9.53931
ツロ	-9.53947
に至るまで	-9.54014
まさ	-9.54129
その子ら	-9.54216
と名づけた	-9.54265
聞きなさい	-9.54361
タン	-9.54364
つるぎをもって	-9.54405
七年	-9.54427
六十	-9.54539
立っていた	-9.54651
むち	-9.5477
荒野で	-9.54794
ますます	-9.5489
主の名	-9.54949
ユダヤ人たち	-9.55045
見ている	-9.55046
を与える	-9.55301
新	-9.55412
十分の一	-9.55469
アブネル	-9.55469
ナダブ	-9.5547
バラク	-9.5547
代って王となった	-9.5547
を生み	-9.55524
エリコ	-9.55535
頼み	-9.55639
をさばく	-9.55669
にとって	-9.55727
どろ	-9.55753
されました	-9.55825
▁たとい	-9.55906
メン	-9.55909
彼のために	-9.56046
らくだ	-9.56062
わたしがあなたがた	-9.56109
のろわれ	-9.56167
何事	-9.56311
聖別し	-9.56381
常	-9.56441
レア	-9.56533
主なる神は	-9.56589
ることはできない	-9.56849
生きて	-9.56948
モルデカイ	-9.57056
ヨシヤ	-9.57056
導き出し	-9.57057
ミデアン	-9.57057
ダマスコ	-9.57058
大きい	-9.5707
ヨラム	-9.57122
感謝し	-9.57199
ひろ	-9.57219
供え	-9.574
に仕える	-9.57432
言いました	-9.57529
さなかった	-9.577
生かし	-9.57742
られたので	-9.5782
イスラエルびと	-9.5784
を得た	-9.57865
から出る	-9.5789
声をあげて	-9.58057
力ある	-9.58215
進	-9.58292
入れて	-9.58369
さいわい	-9.58376
タマル	-9.58669
立たせ	-9.58675
知らなかった	-9.58774
望む	-9.58837
泣き	-9.58902
てしまう	-9.58921
を受けて	-9.59191
時代	-9.59383
み前に	-9.59562
ゆるされ	-9.59579
右に	-9.59625
彼に言われた	-9.59636
みんな	-9.60003
アッスリヤ	-9.60185
与えられる	-9.60199
主イエス	-9.60208
すべてのもの	-9.60232
御言	-9.60259
ねばならない	-9.60309
があろうか	-9.60309
びとの氏族が出	-9.6031
座して	-9.60323
下さい	-9.60337
先生	-9.60353
聖書	-9.60368
しもべたち	-9.6043
残っている	-9.60535
シャン	-9.60667
御子	-9.60825
わが魂	-9.60994
これを聞いて	-9.61031
命じて	-9.61135
ユダヤ	-9.61211
ることなく	-9.61263
尊	-9.61517
あす	-9.61696
かかって	-9.61761
主君	-9.61781
隠し	-9.61825
散	-9.61924
壁	-9.61971
大ぜい	-9.61976
公平	-9.61987
恐るべき	-9.61989
領地	-9.61995
村々	-9.61997
いばら	-9.62048
六百	-9.62095
世々	-9.62127
出て行って	-9.62232
にまさる	-9.62246
ことをしない	-9.62409
消	-9.62483
はかり	-9.6251
に従う	-9.62768
送った	-9.62797
多	-9.62922
さわ	-9.63016
誓った	-9.63186
にまさって	-9.63219
他	-9.63272
祈って	-9.63291
ることができようか	-9.63306
持	-9.63497
それらの	-9.63565
エラ	-9.63567
不思議	-9.6367
ラバン	-9.6367
ネブカデネザル	-9.63671
ソ	-9.63672
尋ねた	-9.63789
彼らのために	-9.63883
ことを知る	-9.63968
思う	-9.64053
起る	-9.64062
シロ	-9.64126
を用い	-9.64801
を得させ	-9.64839
テラ	-9.64896
食べて	-9.64945
雄	-9.65316
出てきて	-9.6532
ハマン	-9.65396
宮殿	-9.65421
カナンの地	-9.65458
行われた	-9.65479
家来	-9.65494
一度	-9.65507
金銀	-9.65579
絶えず	-9.65599
につき	-9.65621
一千	-9.65623
の目の前で	-9.65633
に投げ入れ	-9.66175
終った	-9.66198
残して	-9.66275
へび	-9.66479
貧	-9.66494
へや	-9.66536
喜ばれ	-9.66538
いつまで	-9.6658
バプテスマ	-9.66738
に住んでいる	-9.66763
に宿営し	-9.66822
二千	-9.66878
み手	-9.67099
ギデオン	-9.67148
レハベアム	-9.67149
アザリヤ	-9.6715
大きく	-9.67159
山々	-9.67354
もしあなたが	-9.67449
作った	-9.67646
るべきである	-9.67659
驚き	-9.67679
いつまでも	-9.67729
救い出し	-9.67992
戦う	-9.68112
引	-9.68411
老	-9.68437
主は言われた	-9.68585
を造って	-9.68744
連	-9.68788
エポデ	-9.68934
エステル	-9.68935
シメオン	-9.68935
ヘロデ	-9.68935
に向け	-9.68935
の書にしるされている	-9.68935
計りごと	-9.68936
あがなわ	-9.68948
半ば	-9.69027
捕われ	-9.69137
民衆	-9.6919
ほかの人	-9.69246
高さ	-9.6932
受ける	-9.69452
に着いた	-9.69839
七人	-9.70108
仕事	-9.7025
しましょう	-9.7033
葬	-9.70459
の名によって	-9.70474
葉	-9.70534
てくれた	-9.7065
よろしく	-9.70754
呼ばわって	-9.70754
はなはだ	-9.70754
聞きいれ	-9.70781
ひざ	-9.70877
三百	-9.70905
おとめ	-9.70924
四百	-9.70943
しかも	-9.70967
第一	-9.70972
できる	-9.70988
淫を行	-9.71086
み言葉	-9.71205
民はみな	-9.71247
男子	-9.71376
熱心	-9.716
はしため	-9.7166
安息	-9.71798
ザドク	-9.72605
ベツレヘム	-9.72605
ラケル	-9.72606
永遠に	-9.72606
やぐら	-9.72607
そむいて	-9.72607
そんな	-9.72607
明らかに	-9.7261
いなご	-9.72617
やもめ	-9.72617
暗やみ	-9.72625
なくなる	-9.7264
わたしたちの主イエス	-9.72644
ぶどうの木	-9.72655
加わ	-9.72663
今日まで	-9.7274
行かれた	-9.72756
刈り	-9.72826
使徒たち	-9.72863
置く	-9.72973
そばに	-9.72985
老い	-9.73061
ロテ	-9.7308
この国	-9.7318
父の家	-9.73281
ハム	-9.73385
その子孫	-9.73409
のかたわら	-9.73501
行け	-9.73599
歩いて	-9.73636
のもとへ	-9.73871
留め	-9.73915
神の子	-9.74229
滅ぼされる	-9.74286
正しい人	-9.74311
士	-9.74485
城	-9.74486
すみやかに	-9.74492
ナフタリ	-9.74492
イザヤ	-9.74492
を憎む者	-9.74493
五十人	-9.74499
サタン	-9.74523
食べてはならない	-9.74543
神殿	-9.746
やがて	-9.74616
東の方	-9.74666
恐れてはならない	-9.7483
オン	-9.7492
あなたの家	-9.75108
着物	-9.75287
ためであった	-9.75394
思われ	-9.75583
を求める	-9.75587
この所	-9.75673
ゆだね	-9.76415
たくわえ	-9.76416
主をほめたたえよ	-9.76417
のごとく	-9.76419
の手に渡され	-9.7643
行わなければならない	-9.76489
葬られ	-9.76505
するために	-9.76561
破れ	-9.76626
問う	-9.76703
あざ	-9.76798
ガテ	-9.76807
降り	-9.7704
わたしと一緒に	-9.77182
これらのことを	-9.77365
アマレク	-9.78376
ヅ	-9.78376
ヘテびと	-9.78376
ごらんなさい	-9.78376
ゼブルン	-9.78377
ゼカリヤ	-9.78377
自分の家	-9.78391
散らし	-9.7842
ご自身	-9.78559
に住んでいた	-9.78566
を喜ばせ	-9.78585
五百	-9.78612
くださる	-9.78673
不信	-9.78801
ゲル	-9.78839
一万	-9.78891
ことについて	-9.7894
おろし	-9.79381
おられます	-9.79589
から離れ	-9.79689
多くの人	-9.79834
と思った	-9.80095
殿	-9.80231
聖徒	-9.80236
ソドム	-9.80376
呼ばわり	-9.80376
シドン	-9.80376
を出立して	-9.80377
その氏族によ	-9.80403
用意	-9.80414
すみか	-9.80418
諸国民	-9.80422
ナタン	-9.80433
全体	-9.80463
ささえ	-9.80656
を信じる	-9.80711
のようであった	-9.80747
にかなう	-9.80751
ことをやめ	-9.80754
に従った	-9.80785
土地	-9.80808
建てた	-9.80842
着せ	-9.80893
されない	-9.80898
を奪い	-9.80959
彼らの上に	-9.80978
なくなった	-9.81203
五人	-9.8146
彼らのうちに	-9.81476
ここで	-9.81722
山地	-9.81789
をつかわして	-9.81824
▁主はまたモーセ	-9.81876
孫	-9.82061
のぼって	-9.82277
ギベア	-9.82417
アロンとその子たち	-9.82417
高ぶり	-9.82418
陣営	-9.82419
ねたみ	-9.82424
殺された者	-9.82495
進んだ	-9.82513
氏族の長	-9.8265
国々の民	-9.82651
▁そのころ	-9.82654
に臨み	-9.82777
父ダビデ	-9.82846
治め	-9.8298
を殺そうと	-9.82986
隣人	-9.82987
しい者	-9.83009
恐	-9.8313
出される	-9.83482
パリサイ人	-9.83836
三年	-9.84344
威	-9.8449
アンモンびと	-9.84499
ギベオン	-9.84499
おおよそ	-9.845
ヘブル	-9.845
アハズ	-9.845
かたくな	-9.84506
荒布	-9.84536
もっと	-9.84602
これを見て	-9.84865
怒って	-9.84877
パリサイ人たち	-9.85169
信仰によって	-9.85213
主にむかって	-9.85228
若者たち	-9.85297
割礼を受け	-9.85362
ことがなく	-9.85645
捕えられ	-9.85961
のようになり	-9.86089
与えられ	-9.86245
頼	-9.86303
ろうとして	-9.86464
地に住む	-9.86494
に座し	-9.86542
納	-9.86571
福	-9.86614
エズレル	-9.86627
エッサイ	-9.86627
シメイ	-9.86628
同様に	-9.86628
コハテ	-9.86629
世を治めた	-9.86629
ともしび	-9.86683
父祖	-9.86683
心をつくし	-9.86748
示された	-9.86765
を開いて	-9.86768
主があなた	-9.86887
出て行った	-9.86919
上がって	-9.86925
絶	-9.86955
とどめ	-9.87071
に会う	-9.87092
ソロモン王	-9.87326
を撃って	-9.87484
あなたがたの先祖	-9.8756
義人	-9.88084
これらのもの	-9.88195
長老	-9.88548
へ行き	-9.88586
主に仕え	-9.88708
村	-9.88774
選ばれた	-9.88801
アハジヤ	-9.88801
あわれんで	-9.88801
エゼル	-9.88801
ほむべきかな	-9.88802
アセル	-9.88803
祭司長たち	-9.88803
近寄って	-9.88804
雄やぎ	-9.88814
死人の中から	-9.88824
いくさ	-9.8883
頼む	-9.88894
追い出し	-9.88946
五キュビト	-9.89027
清くな	-9.89058
帰ってきて	-9.89185
コラ	-9.89242
帰ってきた	-9.89273
生き物	-9.89433
留	-9.89472
アマジヤ	-9.91023
ミヅパ	-9.91023
しゅうと	-9.91024
感	-9.91024
預言して	-9.91024
空の鳥	-9.91026
にそむいた	-9.91034
誓われた	-9.91049
備	-9.91055
どこへ	-9.9106
であれば	-9.91131
置かれ	-9.91141
ことができましょう	-9.91159
ひそかに	-9.91169
とどまる	-9.9135
のまわりに	-9.91375
もしあなたがたが	-9.91381
食べさせ	-9.91514
のもとにきて	-9.91755
をつくし	-9.92165
子ども	-9.92762
民のうち	-9.92972
全部	-9.93219
ぶんどり物	-9.93295
イシマエル	-9.93296
地のおもて	-9.93296
解き明かし	-9.93298
シマヤ	-9.93298
ヨルダンを渡	-9.93299
をおおう	-9.93302
誓願	-9.93331
そしり	-9.93346
御座	-9.93351
バシャン	-9.93362
淫行	-9.93378
言わなければならない	-9.9339
約束された	-9.93474
だれにも	-9.93546
に代って	-9.9358
目の前に	-9.93689
ようなもの	-9.93726
続け	-9.93835
とどまって	-9.9409
貧しい人	-9.94144
声をあげ	-9.94281
聖別	-9.94308
気をつけ	-9.94327
ダビデの町	-9.94409
に帰する	-9.94446
出て行く	-9.95116
使徒	-9.95311
勢	-9.95606
呼ばわる	-9.95622
イッサカル	-9.95622
確かに	-9.95635
広場	-9.95656
アサフ	-9.95663
三度	-9.95668
わざわいだ	-9.95766
第四	-9.95829
に入り	-9.95872
葬った	-9.95891
みまえに	-9.95921
五頭	-9.95974
パンを食べ	-9.96001
みんなの者	-9.96067
ないもの	-9.96184
を汚す	-9.96325
御使たち	-9.96328
こう仰せられる	-9.96505
をあらわし	-9.96697
につかわして	-9.97822
罪を犯す	-9.98002
キリア	-9.98004
つまずき	-9.98006
父なる神	-9.98012
万軍の主は言われる	-9.98022
石がき	-9.98044
七日の間	-9.98049
に当った	-9.98084
行われる	-9.98121
食べることができる	-9.98149
バプテスマを受け	-9.98566
助	-9.99758
万軍の	-9.99803
開かれ	-9.99841
二万	-9.99962
他人	-10.0012
ことができず	-10.0037
エブスびと	-10.0044
と呼ばれる	-10.0044
に逆らって	-10.0044
に向かい	-10.0044
主の言葉がわたしに臨んだ	-10.0044
メラリ	-10.0044
ハナン	-10.0044
近づいた	-10.0044
つかわす	-10.0044
こんな	-10.0045
に聞き従わ	-10.0045
どこから	-10.0045
の手にわたされ	-10.0045
散らされ	-10.0046
たきぎ	-10.0047
宝石	-10.0058
聖徒たち	-10.0062
ロト	-10.0064
われらの神	-10.0078
持ち物	-10.0096
イスラエルの人々のうち	-10.0192
民は皆	-10.0219
設け	-10.0241
にならない	-10.0253
ちょうど	-10.0294
ネゲブ	-10.0294
ハマテ	-10.0294
ひじょうに	-10.0294
むなしく	-10.0294
の族長	-10.0295
苦難	-10.0298
戦争	-10.0299
ウリヤ	-10.03
二度	-10.03
主は生きておられ	-10.0301
それとも	-10.0307
仰	-10.0331
連れてきて	-10.0339
をとおって	-10.034
の言葉を聞いて	-10.0348
喜ば	-10.036
御名	-10.0377
の産物	-10.0392
あらわれ	-10.0421
答	-10.0469
清	-10.0481
拝し	-10.0502
いるのを見	-10.0506
罪を犯させ	-10.0551
過越の祭	-10.0551
香ばしいかおり	-10.0551
ほら穴	-10.0551
憎むべき事	-10.0551
オピヤ	-10.0551
エホヤキム	-10.0551
ギリシヤ	-10.0551
ピリポ	-10.0551
あなたがたに言っておく	-10.0551
ギルガル	-10.0551
あまねく	-10.0551
高ぶる者	-10.0551
言わせた	-10.0551
目をあげて	-10.0554
あざける	-10.0555
を作り	-10.0561
これがために	-10.0568
と言われ	-10.0681
を変え	-10.0688
と名づけ	-10.0753
メレク	-10.0812
祝	-10.0813
ヒルキヤ	-10.0814
めいめい	-10.0814
ラッパを吹き	-10.0814
あざけり	-10.0814
ヘシボン	-10.0814
ふたたび	-10.0814
種入れぬパン	-10.0814
血を流し	-10.0814
いにしえ	-10.0814
セイル	-10.0814
いと高き者	-10.0814
大声で	-10.0814
たずね	-10.0814
あわて	-10.0815
の治世	-10.0816
代々	-10.0826
打ち場	-10.0829
燔祭をささげ	-10.0841
律法学者たち	-10.086
万軍の神	-10.0877
ヒラム	-10.0938
用いる	-10.0953
よみがえらせ	-10.0978
建	-10.1041
の道に歩	-10.1044
非	-10.1083
まっすぐに	-10.1084
いけにえ	-10.1084
リベカ	-10.1084
ひねもす	-10.1084
スリヤの王	-10.1084
そのいつくしみはとこしえに絶え	-10.1084
ペルシャ	-10.1084
ざくろ	-10.1084
そむく	-10.1085
野の獣	-10.1086
わが子よ	-10.1086
喜んだ	-10.1088
他の神々	-10.1092
を負う	-10.1103
分け与え	-10.1105
かえし	-10.1118
ほふら	-10.1144
知っています	-10.1184
を撃った	-10.1199
殺される	-10.1206
を知った	-10.1239
勝利	-10.1266
撃ち殺し	-10.1291
カナン	-10.1342
ボアズ	-10.1362
あいさつ	-10.1362
ほふり	-10.1362
おとずれ	-10.1362
むさぼ	-10.1362
ほんとう	-10.1362
つかえめ	-10.1362
たくさん	-10.1362
マアカ	-10.1362
こちら	-10.1362
に感謝せよ	-10.1364
めぐらし	-10.1364
書きおく	-10.1366
ユダとエルサレム	-10.1366
の代りに	-10.1367
不正	-10.1368
心にとめ	-10.1374
を打つ	-10.1377
を罰する	-10.1412
をあけ	-10.1456
三千	-10.1496
刈	-10.161
先祖の神	-10.1613
有	-10.1641
エホヤダ	-10.1647
かも知れない	-10.1648
よこしまな	-10.1648
エフタ	-10.1648
たちまち	-10.1648
目をさまして	-10.1648
うわさ	-10.1648
にむかい	-10.1649
つながれ	-10.1649
悪を行う者	-10.1649
羊の群れ	-10.1649
報復	-10.165
滅ぼさ	-10.1651
なにゆえ	-10.1652
打たれ	-10.1654
を持つ	-10.1656
の手に渡し	-10.1666
汚れたもの	-10.1712
ほめたたえ	-10.1767
食事をし	-10.186
にかけて	-10.1903
▁イエスは答え	-10.1916
ユフラテ	-10.1942
の前から追い払	-10.1942
アムノン	-10.1942
あがなう	-10.1942
ベエルシバ	-10.1942
他国人	-10.1942
楽しむ	-10.1942
捕え移され	-10.1942
にしたがい	-10.1943
七日のあいだ	-10.1944
にとどまってい	-10.2008
呼ばわった	-10.2245
ウジヤ	-10.2245
主の契約の箱	-10.2245
踏みつけ	-10.2245
衣服を洗	-10.2245
一歳の雄の小羊	-10.2245
オベデ	-10.2245
イスラエルの聖者	-10.2245
子を産む	-10.2246
臨ませ	-10.2248
軍隊	-10.2248
を断ち	-10.225
あわれま	-10.2252
きわめ	-10.2276
勝利を得	-10.2354
をつけて	-10.2358
に会い	-10.2365
を撃ち殺した	-10.2432
に臨んで	-10.2447
律法学者	-10.2503
急	-10.2555
束	-10.2557
礼	-10.2863
深	-10.3138
牧	-10.3405
令	-10.3911
憤	-10.4251
伝	-10.4444
戒	-10.4588
徒	-10.5066
隣	-10.5799
ユ	-10.5919
供	-10.6032
司	-10.7348
営	-10.735
共	-10.8029
喜	-10.8031
激	-10.8425
約	-10.8434
業	-10.8434
割	-10.9647
覚	-11.0145
衆	-11.0214
緒	-11.0883
訴	-11.1618
投	-11.1794
恵	-11.3477
ー	-11.354
再	-11.5641
逃	-11.5647
受	-11.6801
与	-11.8174
銅	-11.9995
加	-12.1737
祖	-12.1938
素	-12.1992
治	-12.4263
設	-12.4367
迎	-12.7587
識	-13.2824
畜	-14.271
慰	-14.2768
閉	-14.2769
要	-14.277
招	-14.2771
施	-14.2772
ゅ	-14.2773
忘	-14.2774
込	-14.2775
越	-14.2776
築	-14.2777
傾	-14.2778
授	-14.2779
燃	-14.278
偶	-14.2781
裂	-14.2782
奴	-14.2783
隷	-14.2784
払	-14.2785
吹	-14.2786
属	-14.2787
砕	-14.2788
伸	-14.2789
乗	-14.279
邦	-14.2791
最	-14.2792
周	-14.2793
以	-14.2794
犠	-14.2795
牲	-14.2796
―	-14.2797
互	-14.2798
及	-14.2799
賜	-14.28
必	-14.2801
選	-14.2802
携	-14.2803
伏	-14.2804
至	-14.2805
叫	-14.2806
燔	-14.2807
悩	-14.2808
注	-14.2809
氏	-14.281
契	-14.2811
憎	-14.2812
攻	-14.2813
導	-14.2814
倒	-14.2815
焼	-14.2816
犯	-14.2817
群	-14.2818
律	-14.2819
捨	-14.282
壇	-14.2821
求	-14.2822
集	-14.2823
向	-14.2824
預	-14.2825
呼	-14.2826
尋	-14.2826
ュ	-14.2827
ャ	-14.2828
謝	-14.2829
ょ	-14.2829
嗣	-14.283
聞	-14.283
