<pad>	0
</s>	0
<unk>	0
▁d	-0
▁s	-1
▁c	-2
er	-3
no	-4
▁p	-5
▁a	-6
▁i	-7
▁l	-8
re	-9
to	-10
▁e	-11
▁di	-12
el	-13
ra	-14
ti	-15
on	-16
▁m	-17
li	-18
te	-19
ri	-20
ro	-21
an	-22
▁f	-23
ta	-24
en	-25
▁v	-26
▁t	-27
▁il	-28
gli	-29
ia	-30
la	-31
io	-32
ss	-33
he	-34
▁la	-35
qu	-36
uo	-37
▁del	-38
▁in	-39
▁S	-40
▁per	-41
un	-42
▁co	-43
al	-44
▁g	-45
▁n	-46
es	-47
▁che	-48
▁no	-49
▁al	-50
▁qu	-51
▁con	-52
ar	-53
ch	-54
do	-55
va	-56
in	-57
lo	-58
co	-59
gno	-60
▁o	-61
▁tu	-62
▁Si	-63
▁le	-64
▁lo	-65
▁un	-66
▁I	-67
le	-68
po	-69
▁po	-70
me	-71
gnore	-72
▁non	-73
▁D	-74
▁si	-75
▁Signore	-76
▁su	-77
ci	-78
mo	-79
▁ri	-80
▁G	-81
tto	-82
ca	-83
▁se	-84
▁so	-85
di	-86
▁A	-87
▁pa	-88
▁de	-89
da	-90
ce	-91
de	-92
▁da	-93
▁re	-94
▁h	-95
era	-96
▁fi	-97
▁ca	-98
▁vi	-99
▁b	-100
se	-101
▁«	-102
st	-103
za	-104
ere	-105
▁vo	-106
▁E	-107
▁nel	-108
▁è	-109
ve	-110
▁ma	-111
tti	-112
ché	-113
sa	-114
▁loro	-115
▁te	-116
▁an	-117
vi	-118
▁sa	-119
▁suo	-120
▁M	-121
sse	-122
▁mi	-123
▁fa	-124
▁figli	-125
mp	-126
▁gli	-127
▁ci	-128
▁C	-129
mi	-130
one	-131
ui	-132
▁Dio	-133
zi	-134
ma	-135
tà	-136
gg	-137
ero	-138
iu	-139
▁pre	-140
▁me	-141
ni	-142
▁P	-143
si	-144
na	-145
▁ha	-146
or	-147
vo	-148
▁dal	-149
ran	-150
rono	-151
▁della	-152
▁pi	-153
▁perché	-154
bi	-155
▁ques	-156
▁come	-157
tro	-158
▁pro	-159
bb	-160
▁dei	-161
▁ne	-162
tte	-163
▁tuo	-164
so	-165
▁u	-166
ando	-167
sto	-168
▁gio	-169
ne	-170
anno	-171
ele	-172
sso	-173
ssi	-174
pi	-175
erà	-176
min	-177
hi	-178
▁una	-179
▁sono	-180
sra	-181
▁era	-182
tta	-183
▁N	-184
ale	-185
▁do	-186
eri	-187
▁man	-188
▁ave	-189
▁quel	-190
anti	-191
vano	-192
sc	-193
cco	-194
▁li	-195
che	-196
gi	-197
▁L	-198
ssa	-199
▁mo	-200
▁ti	-201
men	-202
▁io	-203
▁disse	-204
▁Isra	-205
sti	-206
pp	-207
▁sta	-208
▁alla	-209
tra	-210
▁sua	-211
▁ter	-212
▁mio	-213
▁sul	-214
chi	-215
▁popo	-216
▁tutti	-217
cc	-218
Qu	-219
▁figlio	-220
▁av	-221
fi	-222
▁Il	-223
▁fu	-224
cca	-225
go	-226
▁gior	-227
▁par	-228
rà	-229
▁ven	-230
▁B	-231
▁voi	-232
zione	-233
erò	-234
oni	-235
▁sp	-236
ese	-237
arà	-238
▁Qu	-239
▁suoi	-240
con	-241
tu	-242
anto	-243
▁T	-244
▁Ma	-245
zz	-246
ene	-247
tre	-248
enza	-249
▁popolo	-250
ru	-251
▁sac	-252
que	-253
▁lui	-254
tel	-255
▁ai	-256
▁giu	-257
▁por	-258
ul	-259
ff	-260
ue	-261
▁Al	-262
▁nella	-263
lora	-264
ga	-265
▁uo	-266
▁vost	-267
▁sc	-268
ranno	-269
▁fra	-270
▁questo	-271
▁F	-272
zia	-273
▁ris	-274
sì	-275
gni	-276
sco	-277
zza	-278
▁chi	-279
▁tra	-280
▁Giu	-281
sci	-282
▁più	-283
▁fe	-284
ven	-285
▁terra	-286
dre	-287
ba	-288
▁Da	-289
▁sarà	-290
tt	-291
▁dell	-292
▁contro	-293
ggi	-294
▁ser	-295
▁ra	-296
▁Israele	-297
ria	-298
tor	-299
▁aveva	-300
▁col	-301
sta	-302
▁ver	-303
▁egli	-304
▁paese	-305
▁com	-306
▁tua	-307
eli	-308
ttà	-309
rai	-310
▁città	-311
▁ho	-312
▁R	-313
▁tutto	-314
▁for	-315
ron	-316
ente	-317
iamo	-318
▁casa	-319
esti	-320
▁pri	-321
ani	-322
▁O	-323
▁ad	-324
eranno	-325
▁mia	-326
endo	-327
fa	-328
▁giorno	-329
▁paro	-330
du	-331
zzo	-332
oi	-333
ini	-334
uno	-335
mini	-336
▁anche	-337
▁ve	-338
elo	-339
▁degli	-340
▁poi	-341
▁dav	-342
gna	-343
▁pe	-344
▁nost	-345
▁Per	-346
▁Mo	-347
▁davanti	-348
».	-349
vide	-350
enti	-351
▁quando	-352
▁delle	-353
rio	-354
▁ch	-355
▁Davide	-356
▁Io	-357
▁Non	-358
▁all	-359
rò	-360
▁gran	-361
▁abb	-362
ei	-363
▁Co	-364
ten	-365
ine	-366
▁dalla	-367
▁mon	-368
ina	-369
▁Sa	-370
sp	-371
bbe	-372
ento	-373
▁Allora	-374
▁hai	-375
erai	-376
▁ba	-377
▁uomini	-378
lta	-379
▁ogni	-380
▁mor	-381
cchi	-382
esù	-383
unque	-384
▁Gesù	-385
▁fatto	-386
dere	-387
tri	-388
▁Se	-389
mpo	-390
▁des	-391
mme	-392
▁tuoi	-393
▁pie	-394
condo	-395
▁tro	-396
ter	-397
uto	-398
▁così	-399
dò	-400
gge	-401
anza	-402
▁noi	-403
▁gu	-404
ver	-405
erdo	-406
eru	-407
▁sacerdo	-408
▁mezzo	-409
▁né	-410
glio	-411
bo	-412
gu	-413
fe	-414
▁fratel	-415
▁bene	-416
tare	-417
▁na	-418
▁secondo	-419
▁dice	-420
rito	-421
▁ed	-422
▁due	-423
mpa	-424
chia	-425
▁erano	-426
uomo	-427
▁qua	-428
glia	-429
▁sal	-430
rd	-431
▁cuo	-432
sè	-433
▁Giuda	-434
▁V	-435
uni	-436
mento	-437
mpio	-438
▁Di	-439
▁gra	-440
ang	-441
▁Mosè	-442
▁tutte	-443
▁Poi	-444
▁Fi	-445
▁chia	-446
▁La	-447
sale	-448
salemme	-449
▁alle	-450
▁Geru	-451
▁Gerusalemme	-452
▁mano	-453
▁pu	-454
▁abi	-455
▁hanno	-456
pa	-457
ccia	-458
▁ste	-459
▁ar	-460
gn	-461
▁In	-462
lto	-463
▁fo	-464
ura	-465
cia	-466
pose	-467
sce	-468
eliti	-469
▁mani	-470
▁Gio	-471
▁sulla	-472
sero	-473
▁fino	-474
▁sia	-475
mpi	-476
▁cor	-477
glie	-478
▁padre	-479
cci	-480
▁fuo	-481
▁essi	-482
▁ta	-483
▁Israeliti	-484
ssero	-485
▁servi	-486
ste	-487
▁Ba	-488
▁sue	-489
▁porta	-490
▁tre	-491
▁vita	-492
zioni	-493
fatti	-494
rifi	-495
▁Tu	-496
▁ciò	-497
▁tor	-498
▁nome	-499
▁cuore	-500
elli	-501
mpre	-502
▁occhi	-503
▁questa	-504
▁cui	-505
▁pecca	-506
ona	-507
▁tempio	-508
▁tutta	-509
▁es	-510
▁uno	-511
▁grande	-512
lti	-513
▁sei	-514
▁nelle	-515
▁agli	-516
▁Pa	-517
entre	-518
▁Egli	-519
anta	-520
▁Quando	-521
▁parola	-522
erto	-523
▁far	-524
gia	-525
▁senza	-526
▁giorni	-527
zio	-528
mina	-529
▁spa	-530
▁verso	-531
▁cosa	-532
▁dunque	-533
mb	-534
ane	-535
rete	-536
▁die	-537
ana	-538
▁quelli	-539
cora	-540
▁ac	-541
▁stra	-542
mm	-543
▁miei	-544
pe	-545
▁-	-546
▁ten	-547
▁car	-548
▁pad	-549
ab	-550
gitto	-551
▁cre	-552
▁off	-553
▁quanto	-554
▁dove	-555
▁Chi	-556
▁ess	-557
?»	-558
▁nu	-559
qui	-560
eni	-561
!»	-562
▁Z	-563
▁en	-564
▁profe	-565
lla	-566
qua	-567
▁giusti	-568
▁asco	-569
▁capi	-570
▁Ora	-571
▁sop	-572
▁cose	-573
▁vol	-574
▁U	-575
▁fece	-576
▁diven	-577
▁anda	-578
▁capo	-579
▁usci	-580
▁Ri	-581
▁don	-582
esta	-583
▁tri	-584
rato	-585
▁tempo	-586
▁ro	-587
▁lib	-588
▁infatti	-589
ggio	-590
gui	-591
ena	-592
▁male	-593
▁ness	-594
▁parole	-595
▁spi	-596
▁rispose	-597
erci	-598
▁uomo	-599
alo	-600
▁pren	-601
mente	-602
▁ancora	-603
▁gen	-604
▁parte	-605
▁app	-606
su	-607
erete	-608
▁Cri	-609
▁sette	-610
▁nostro	-611
and	-612
▁to	-613
▁Cristo	-614
▁parla	-615
ge	-616
▁fratelli	-617
▁va	-618
tò	-619
▁cielo	-620
▁pres	-621
▁Ab	-622
▁chiama	-623
▁vostro	-624
▁luo	-625
▁sotto	-626
▁saranno	-627
▁poiché	-628
▁sopra	-629
scia	-630
tura	-631
▁quale	-632
▁mentre	-633
▁sacrifi	-634
ciò	-635
▁rico	-636
▁sempre	-637
▁quello	-638
por	-639
tato	-640
▁cono	-641
zo	-642
stru	-643
▁detto	-644
▁gi	-645
▁rif	-646
▁allora	-647
▁fuoco	-648
▁vostri	-649
▁tue	-650
▁scri	-651
anda	-652
▁Così	-653
▁Le	-654
▁alc	-655
menti	-656
▁Gli	-657
▁via	-658
▁Mi	-659
▁dopo	-660
▁stato	-661
▁dall	-662
▁sacerdote	-663
▁ord	-664
▁nei	-665
▁cin	-666
▁trova	-667
▁cu	-668
dici	-669
▁bo	-670
▁glo	-671
▁avete	-672
▁mangia	-673
ete	-674
▁An	-675
alle	-676
▁sor	-677
▁op	-678
ggia	-679
▁essa	-680
▁luogo	-681
▁insi	-682
▁qual	-683
▁Gia	-684
Isra	-685
chio	-686
▁legge	-687
una	-688
▁ecco	-689
▁anni	-690
Israele	-691
▁peccato	-692
▁fin	-693
▁Ecco	-694
ren	-695
▁forse	-696
cendo	-697
Egitto	-698
dia	-699
▁cer	-700
▁trib	-701
▁servo	-702
usa	-703
▁altri	-704
▁queste	-705
ante	-706
▁giustizia	-707
▁dai	-708
▁ucci	-709
▁ora	-710
▁morte	-711
mò	-712
per	-713
angue	-714
▁Eli	-715
▁sangue	-716
▁ascolta	-717
▁mie	-718
▁gri	-719
end	-720
▁questi	-721
▁pot	-722
oro	-723
▁prop	-724
▁solo	-725
▁essere	-726
▁padri	-727
cio	-728
▁cam	-729
▁dato	-730
▁Giaco	-731
▁Be	-732
mici	-733
▁spada	-734
ze	-735
▁nell	-736
onia	-737
eme	-738
▁giudi	-739
▁nessuno	-740
cato	-741
▁besti	-742
▁presso	-743
tevi	-744
▁Saul	-745
▁sacerdoti	-746
more	-747
cento	-748
▁là	-749
mone	-750
str	-751
▁guar	-752
▁eserci	-753
▁voce	-754
mila	-755
▁st	-756
▁regno	-757
▁stesso	-758
▁ge	-759
▁fare	-760
▁fratello	-761
▁lu	-762
stra	-763
▁avevano	-764
▁gia	-765
▁passa	-766
▁prima	-767
▁insieme	-768
ad	-769
▁sco	-770
▁fami	-771
▁H	-772
rda	-773
▁molti	-774
der	-775
tano	-776
▁schia	-777
ulla	-778
▁Giacobbe	-779
Non	-780
▁mis	-781
▁furono	-782
▁dov	-783
▁Perché	-784
▁aff	-785
▁tribù	-786
rire	-787
▁dalle	-788
bil	-789
ppe	-790
▁sca	-791
▁disp	-792
▁bocca	-793
▁donna	-794
▁gloria	-795
ella	-796
vece	-797
▁acc	-798
▁disc	-799
▁bu	-800
bili	-801
ardo	-802
▁ren	-803
▁dire	-804
ttro	-805
▁mai	-806
▁veni	-807
▁vesti	-808
ure	-809
ronne	-810
▁abit	-811
▁giun	-812
▁moglie	-813
rre	-814
ello	-815
▁nuo	-816
▁ce	-817
dito	-818
▁prese	-819
esto	-820
mora	-821
sser	-822
▁quella	-823
▁Do	-824
▁acco	-825
▁Aronne	-826
▁deserto	-827
▁primo	-828
▁Giude	-829
cin	-830
▁poten	-831
▁dicendo	-832
▁Ti	-833
ghi	-834
▁comp	-835
▁lavo	-836
lle	-837
vere	-838
▁quali	-839
▁pia	-840
▁conf	-841
este	-842
▁oggi	-843
▁siete	-844
▁invece	-845
▁mare	-846
▁popoli	-847
▁K	-848
arò	-849
mmo	-850
amo	-851
▁Ne	-852
loca	-853
anni	-854
▁mondo	-855
▁piedi	-856
▁colo	-857
▁distru	-858
▁abbiamo	-859
▁Fili	-860
▁tenda	-861
ont	-862
strui	-863
derà	-864
▁entra	-865
▁posto	-866
cchio	-867
▁causa	-868
▁monte	-869
▁fron	-870
▁sulle	-871
tten	-872
▁prof	-873
altare	-874
dato	-875
▁spe	-876
▁rivo	-877
gento	-878
▁Abra	-879
▁sap	-880
ac	-881
▁Babil	-882
▁notte	-883
▁nulla	-884
▁inse	-885
▁colui	-886
derò	-887
tanto	-888
▁Salo	-889
▁carne	-890
▁Babilonia	-891
?».	-892
▁So	-893
▁giov	-894
ai	-895
▁dico	-896
▁dissero	-897
▁levi	-898
▁Salomone	-899
▁fru	-900
erità	-901
▁anzi	-902
▁gente	-903
▁madre	-904
▁profeti	-905
▁eserciti	-906
▁nostri	-907
tua	-908
dine	-909
be	-910
tore	-911
▁cir	-912
tori	-913
locau	-914
▁faccia	-915
▁figlia	-916
▁guer	-917
▁bestia	-918
▁comuni	-919
at	-920
terà	-921
▁osser	-922
▁quanti	-923
▁spirito	-924
▁fer	-925
▁rim	-926
▁nemici	-927
arti	-928
▁Poiché	-929
▁fede	-930
▁vostra	-931
▁sacrificio	-932
ghe	-933
via	-934
mero	-935
esi	-936
nun	-937
▁Gi	-938
bile	-939
mino	-940
ggiun	-941
arca	-942
▁parti	-943
▁numero	-944
zzi	-945
ltre	-946
▁esp	-947
▁senti	-948
▁Filiste	-949
▁abitanti	-950
am	-951
ppure	-952
▁farò	-953
▁lascia	-954
uta	-955
▁Pi	-956
stri	-957
▁bru	-958
▁inf	-959
care	-960
raone	-961
▁segui	-962
gione	-963
▁mett	-964
▁pane	-965
▁faraone	-966
torno	-967
▁testi	-968
▁vostre	-969
zze	-970
▁Ie	-971
▁molto	-972
▁ama	-973
sione	-974
▁condu	-975
ccio	-976
scepo	-977
▁andò	-978
▁finché	-979
▁discepo	-980
gio	-981
▁Lo	-982
▁lun	-983
ffi	-984
▁ap	-985
▁dom	-986
▁coloro	-987
▁acca	-988
▁avrà	-989
▁visto	-990
ari	-991
▁mal	-992
cò	-993
▁qui	-994
▁be	-995
▁pen	-996
▁grazia	-997
etro	-998
▁imp	-999
▁Gà	-1000
▁venti	-1001
▁genera	-1002
duto	-1003
▁Padre	-1004
▁leviti	-1005
lio	-1006
▁bi	-1007
dità	-1008
indi	-1009
▁pace	-1010
iasc	-1011
▁Vi	-1012
▁cio	-1013
▁aver	-1014
egli	-1015
enta	-1016
mmon	-1017
▁verità	-1018
cero	-1019
rati	-1020
▁ere	-1021
▁Con	-1022
▁fuori	-1023
▁Ef	-1024
▁cioè	-1025
▁rice	-1026
▁rigu	-1027
▁altro	-1028
▁nuovo	-1029
▁quattro	-1030
▁go	-1031
quità	-1032
▁acque	-1033
▁deci	-1034
▁conce	-1035
▁Giudei	-1036
▁benedi	-1037
suè	-1038
biti	-1039
seppe	-1040
▁Giosuè	-1041
▁ru	-1042
▁sic	-1043
▁Abramo	-1044
▁Su	-1045
▁fronte	-1046
ela	-1047
colo	-1048
▁posse	-1049
▁Giuseppe	-1050
èl	-1051
erico	-1052
Ecco	-1053
▁gre	-1054
ssimo	-1055
▁Essi	-1056
▁comme	-1057
cri	-1058
gre	-1059
erta	-1060
▁sto	-1061
▁profeta	-1062
lea	-1063
▁alz	-1064
▁sui	-1065
▁farà	-1066
▁risp	-1067
▁Filistei	-1068
vato	-1069
▁sol	-1070
argento	-1071
▁abband	-1072
elle	-1073
▁cal	-1074
▁cap	-1075
▁può	-1076
versa	-1077
▁gioia	-1078
▁testim	-1079
▁Come	-1080
▁viene	-1081
▁agi	-1082
▁rima	-1083
▁siamo	-1084
lazione	-1085
val	-1086
▁bra	-1087
pirito	-1088
▁ciasc	-1089
▁discepoli	-1090
rlo	-1091
▁consi	-1092
▁Spirito	-1093
lato	-1094
▁mese	-1095
▁nazioni	-1096
rsi	-1097
▁Ris	-1098
▁can	-1099
▁volta	-1100
mia	-1101
▁pes	-1102
▁torna	-1103
acqua	-1104
▁diede	-1105
▁ini	-1106
▁forte	-1107
gne	-1108
arsi	-1109
Per	-1110
▁fed	-1111
▁rad	-1112
▁rov	-1113
▁Figlio	-1114
▁giusto	-1115
▁discend	-1116
nci	-1117
sia	-1118
dete	-1119
▁racco	-1120
lu	-1121
▁or	-1122
▁Ben	-1123
▁opere	-1124
▁cinque	-1125
▁guerra	-1126
▁Ed	-1127
gono	-1128
cce	-1129
▁Che	-1130
▁annun	-1131
▁stati	-1132
gua	-1133
dono	-1134
▁lei	-1135
angelo	-1136
▁offri	-1137
▁spo	-1138
dendo	-1139
▁figlie	-1140
mu	-1141
altra	-1142
▁arri	-1143
▁condo	-1144
▁corpo	-1145
▁santi	-1146
▁sé	-1147
▁san	-1148
▁indi	-1149
▁sali	-1150
▁forza	-1151
▁signore	-1152
bito	-1153
▁vuo	-1154
▁avvi	-1155
▁Figli	-1156
▁matti	-1157
uti	-1158
▁immon	-1159
▁ent	-1160
altro	-1161
▁sull	-1162
▁trov	-1163
▁circon	-1164
▁ordina	-1165
rie	-1166
rno	-1167
▁ric	-1168
▁sti	-1169
▁luce	-1170
▁Perciò	-1171
▁uscire	-1172
▁comanda	-1173
▁Li	-1174
▁alza	-1175
!».	-1176
rare	-1177
posto	-1178
▁abbia	-1179
▁colpi	-1180
deva	-1181
▁super	-1182
▁cubiti	-1183
▁famiglia	-1184
cen	-1185
ppo	-1186
▁scon	-1187
▁cerca	-1188
▁costrui	-1189
▁stabili	-1190
▁dieci	-1191
ppa	-1192
zie	-1193
▁Giò	-1194
▁donne	-1195
▁cieli	-1196
▁pasco	-1197
▁allont	-1198
▁bestiame	-1199
▁mangiare	-1200
▁Am	-1201
onne	-1202
rdano	-1203
scere	-1204
▁vino	-1205
▁diri	-1206
▁caval	-1207
▁grida	-1208
▁testa	-1209
▁fecero	-1210
▁pass	-1211
▁appar	-1212
▁riferi	-1213
▁ster	-1214
▁getta	-1215
gh	-1216
sca	-1217
▁campo	-1218
▁Giordano	-1219
mba	-1220
▁Isa	-1221
▁pio	-1222
▁Anche	-1223
▁conse	-1224
▁alcuni	-1225
▁ciascuno	-1226
acca	-1227
▁and	-1228
▁scel	-1229
▁abita	-1230
▁mandò	-1231
▁generò	-1232
▁santua	-1233
▁anziani	-1234
ram	-1235
▁strada	-1236
iuto	-1237
tati	-1238
▁desi	-1239
▁mini	-1240
▁dimora	-1241
rì	-1242
sac	-1243
▁Ca	-1244
▁Abi	-1245
▁lin	-1246
▁vio	-1247
▁cento	-1248
▁ritor	-1249
▁testimoni	-1250
▁Un	-1251
nò	-1252
edi	-1253
mato	-1254
terno	-1255
ontano	-1256
▁salva	-1257
▁strani	-1258
fica	-1259
raim	-1260
alleanza	-1261
▁proprio	-1262
uro	-1263
telli	-1264
▁Dopo	-1265
▁però	-1266
▁morti	-1267
▁princi	-1268
tui	-1269
minio	-1270
▁padr	-1271
▁sapi	-1272
▁Rispose	-1273
▁scritto	-1274
▁santuario	-1275
mma	-1276
rore	-1277
▁Bet	-1278
detto	-1279
▁sepo	-1280
▁messo	-1281
▁nostra	-1282
▁servizio	-1283
ato	-1284
pre	-1285
▁ani	-1286
▁grandi	-1287
vero	-1288
▁fre	-1289
▁riv	-1290
▁pron	-1291
sul	-1292
▁Ci	-1293
▁fon	-1294
▁tene	-1295
▁destra	-1296
nero	-1297
vole	-1298
▁cen	-1299
▁modo	-1300
▁Efraim	-1301
▁Questo	-1302
▁consac	-1303
▁olocau	-1304
cu	-1305
esa	-1306
nan	-1307
dero	-1308
▁ono	-1309
▁peri	-1310
▁Tutti	-1311
▁malva	-1312
▁Questi	-1313
▁intorno	-1314
Se	-1315
▁Ga	-1316
▁Re	-1317
gnuno	-1318
vezza	-1319
▁stata	-1320
▁presenza	-1321
Che	-1322
anna	-1323
▁incon	-1324
mmi	-1325
rerà	-1326
▁muo	-1327
▁Benia	-1328
▁espia	-1329
▁rispon	-1330
▁lontano	-1331
▁potenza	-1332
▁riguardo	-1333
tì	-1334
▁uni	-1335
▁Eb	-1336
ture	-1337
▁rib	-1338
bbero	-1339
▁mang	-1340
▁stava	-1341
ericord	-1342
▁buo	-1343
▁vide	-1344
▁andare	-1345
▁potere	-1346
bato	-1347
▁Sal	-1348
▁Voi	-1349
▁dis	-1350
▁fal	-1351
▁alzò	-1352
▁compi	-1353
▁genti	-1354
▁divenne	-1355
olo	-1356
usci	-1357
▁fari	-1358
▁simi	-1359
▁trono	-1360
▁misericord	-1361
▁fine	-1362
▁Paolo	-1363
▁oltre	-1364
▁chiamò	-1365
▁libera	-1366
mico	-1367
▁cad	-1368
vanni	-1369
▁parl	-1370
▁soff	-1371
▁fosse	-1372
▁libro	-1373
▁Aca	-1374
▁ebbe	-1375
▁peccati	-1376
▁sacrifici	-1377
Il	-1378
rità	-1379
ster	-1380
▁Nel	-1381
ttere	-1382
stitui	-1383
▁quelle	-1384
anà	-1385
▁vedere	-1386
▁ordinato	-1387
▁possesso	-1388
▁salvezza	-1389
giu	-1390
▁compa	-1391
▁santo	-1392
▁famiglie	-1393
llo	-1394
spe	-1395
doli	-1396
▁cammina	-1397
▁abbandona	-1398
lte	-1399
cina	-1400
date	-1401
▁atten	-1402
cino	-1403
▁Ass	-1404
segui	-1405
▁comin	-1406
▁porte	-1407
▁inter	-1408
▁Egitto	-1409
▁lavoro	-1410
▁mandato	-1411
▁padrone	-1412
▁comunità	-1413
▁Na	-1414
▁ang	-1415
▁ori	-1416
▁venire	-1417
▁venuto	-1418
▁parlare	-1419
▁Giovanni	-1420
veri	-1421
▁allo	-1422
▁esso	-1423
▁mise	-1424
▁tras	-1425
▁monti	-1426
nata	-1427
scono	-1428
▁Dice	-1429
▁sole	-1430
▁messa	-1431
▁Pietro	-1432
Si	-1433
gnò	-1434
▁Sion	-1435
▁pers	-1436
▁Mentre	-1437
sei	-1438
gnato	-1439
▁picco	-1440
▁prepa	-1441
▁verrà	-1442
▁morire	-1443
▁Beniamino	-1444
dà	-1445
cre	-1446
tin	-1447
▁preso	-1448
▁venne	-1449
▁pietra	-1450
▁annunzia	-1451
bbra	-1452
▁teso	-1453
▁Santo	-1454
▁conve	-1455
▁potrà	-1456
▁disper	-1457
▁quei	-1458
▁folla	-1459
▁opera	-1460
▁sorte	-1461
▁dodici	-1462
▁chiamato	-1463
▁convegno	-1464
gato	-1465
cchia	-1466
▁Moab	-1467
▁mori	-1468
▁sapienza	-1469
▁misericordia	-1470
ira	-1471
cherà	-1472
rebbe	-1473
rezza	-1474
▁empi	-1475
▁prodi	-1476
▁Ra	-1477
geni	-1478
▁cop	-1479
▁face	-1480
deranno	-1481
▁udi	-1482
nanzi	-1483
resti	-1484
ede	-1485
ser	-1486
▁abo	-1487
▁asse	-1488
▁ognuno	-1489
scì	-1490
telo	-1491
tene	-1492
▁invi	-1493
▁dagli	-1494
▁lingua	-1495
▁purifi	-1496
▁territo	-1497
▁iniquità	-1498
mbi	-1499
nta	-1500
arla	-1501
boamo	-1502
▁Sono	-1503
▁alcun	-1504
▁comba	-1505
▁predi	-1506
▁prome	-1507
▁rispo	-1508
off	-1509
mbra	-1510
▁Elia	-1511
▁Gere	-1512
▁acqua	-1513
▁terzo	-1514
▁gioven	-1515
▁Geremia	-1516
Co	-1517
▁fiu	-1518
▁rin	-1519
rante	-1520
▁Ioab	-1521
▁mura	-1522
▁schi	-1523
▁udito	-1524
teranno	-1525
gioni	-1526
▁resta	-1527
▁setti	-1528
▁preghi	-1529
▁eredità	-1530
rti	-1531
▁sf	-1532
ttra	-1533
▁men	-1534
▁ved	-1535
▁cost	-1536
▁sper	-1537
quanta	-1538
▁fatti	-1539
▁monta	-1540
▁ricev	-1541
▁rovina	-1542
▁rivolta	-1543
▁ira	-1544
oniti	-1545
▁dena	-1546
▁pote	-1547
Perché	-1548
▁custo	-1549
▁frutto	-1550
▁timore	-1551
▁generazione	-1552
ìa	-1553
vol	-1554
rano	-1555
terò	-1556
▁fan	-1557
estro	-1558
▁addo	-1559
▁ripo	-1560
▁resto	-1561
▁teneb	-1562
udi	-1563
▁Gu	-1564
core	-1565
dano	-1566
maria	-1567
▁impo	-1568
▁fuggi	-1569
▁siano	-1570
▁viven	-1571
mon	-1572
remo	-1573
▁div	-1574
▁ore	-1575
▁Achi	-1576
▁bere	-1577
▁lungo	-1578
▁nasco	-1579
▁du	-1580
asse	-1581
mità	-1582
muele	-1583
▁ogge	-1584
▁proc	-1585
▁sape	-1586
ghezza	-1587
ssione	-1588
▁profu	-1589
▁volte	-1590
▁brucia	-1591
▁pietre	-1592
▁vicino	-1593
▁Samuele	-1594
▁ministri	-1595
▁Fa	-1596
▁Eze	-1597
tando	-1598
tello	-1599
▁compre	-1600
pli	-1601
▁Ia	-1602
bano	-1603
ntri	-1604
dente	-1605
▁darò	-1606
▁sera	-1607
mpagna	-1608
▁morto	-1609
▁prati	-1610
▁sarai	-1611
dizione	-1612
mpamento	-1613
▁testimonianza	-1614
▁pian	-1615
▁condotta	-1616
▁incontro	-1617
▁settentri	-1618
arlo	-1619
ppia	-1620
storo	-1621
▁scen	-1622
▁altre	-1623
▁valle	-1624
▁denaro	-1625
▁sabato	-1626
▁diritto	-1627
▁primogeni	-1628
▁discendenza	-1629
ài	-1630
gere	-1631
rate	-1632
▁agn	-1633
▁consu	-1634
▁quell	-1635
▁vento	-1636
▁Isacco	-1637
▁voglio	-1638
▁cavalli	-1639
▁circonci	-1640
▁distrugg	-1641
cor	-1642
sor	-1643
laad	-1644
▁sde	-1645
torio	-1646
▁anno	-1647
▁divo	-1648
▁uscì	-1649
▁quaran	-1650
▁Ezechia	-1651
Io	-1652
▁pol	-1653
▁Manà	-1654
▁dare	-1655
tudine	-1656
▁coman	-1657
▁Gàlaad	-1658
▁contin	-1659
▁marito	-1660
▁perciò	-1661
▁osserva	-1662
▁chiunque	-1663
▁territorio	-1664
vò	-1665
ati	-1666
▁Ho	-1667
ontà	-1668
verna	-1669
▁fini	-1670
▁pure	-1671
▁decre	-1672
▁farai	-1673
▁simile	-1674
▁immondo	-1675
ave	-1676
▁Me	-1677
posi	-1678
▁alb	-1679
▁anch	-1680
▁avven	-1681
▁diceva	-1682
▁quegli	-1683
▁subito	-1684
▁mattino	-1685
▁regione	-1686
eso	-1687
▁No	-1688
▁cro	-1689
▁mar	-1690
▁idoli	-1691
▁possa	-1692
▁qualc	-1693
▁quest	-1694
▁Manàsse	-1695
▁neppure	-1696
▁qualche	-1697
▁Fe	-1698
▁Ro	-1699
▁Asa	-1700
▁conta	-1701
▁pecore	-1702
dera	-1703
▁Nab	-1704
▁ele	-1705
▁eter	-1706
▁sore	-1707
▁sven	-1708
▁tale	-1709
▁batta	-1710
▁sepol	-1711
enne	-1712
▁morì	-1713
▁pietà	-1714
▁risca	-1715
▁vergo	-1716
▁quindi	-1717
▁ricche	-1718
▁schiavi	-1719
accampamento	-1720
▁dà	-1721
vati	-1722
▁fio	-1723
bbiamo	-1724
▁depor	-1725
▁dietro	-1726
▁andarono	-1727
▁opp	-1728
▁favo	-1729
▁fian	-1730
cinque	-1731
▁manif	-1732
▁volto	-1733
offerta	-1734
▁trovato	-1735
▁prendere	-1736
▁as	-1737
gare	-1738
voca	-1739
▁ado	-1740
▁lar	-1741
▁tem	-1742
gresso	-1743
scolta	-1744
ttanta	-1745
▁carri	-1746
▁festa	-1747
▁porti	-1748
▁giudizio	-1749
▁qualcuno	-1750
Tu	-1751
rei	-1752
coli	-1753
▁Dani	-1754
devano	-1755
ho	-1756
op	-1757
dio	-1758
mati	-1759
▁ucc	-1760
▁umi	-1761
derai	-1762
▁acce	-1763
▁cibo	-1764
▁guarda	-1765
▁presen	-1766
▁Samaria	-1767
▁parlato	-1768
▁pascoli	-1769
▁vennero	-1770
▁presenta	-1771
▁espiatorio	-1772
ub	-1773
armi	-1774
▁tal	-1775
▁cada	-1776
minato	-1777
▁messagg	-1778
gra	-1779
▁Zi	-1780
▁esse	-1781
▁fate	-1782
▁pasto	-1783
▁conosc	-1784
▁raduna	-1785
ur	-1786
cere	-1787
lati	-1788
▁abba	-1789
▁lato	-1790
▁viol	-1791
tarono	-1792
▁onore	-1793
▁Quanto	-1794
▁Giònata	-1795
▁Oracolo	-1796
▁olocausti	-1797
mei	-1798
èle	-1799
▁Baal	-1800
▁Ioia	-1801
▁divi	-1802
▁olio	-1803
▁ripa	-1804
▁Tutto	-1805
▁dello	-1806
ingresso	-1807
▁dimenti	-1808
▁alleanza	-1809
ania	-1810
gano	-1811
▁chiu	-1812
▁anima	-1813
▁manda	-1814
▁ordin	-1815
▁Questa	-1816
▁bestie	-1817
▁gregge	-1818
▁stessa	-1819
▁polvere	-1820
▁dicevano	-1821
▁battaglia	-1822
àn	-1823
Chi	-1824
dom	-1825
ora	-1826
rdi	-1827
mano	-1828
▁esi	-1829
stitu	-1830
▁case	-1831
▁perd	-1832
▁prov	-1833
▁nemico	-1834
▁nostre	-1835
▁stavano	-1836
▁speranza	-1837
due	-1838
rvi	-1839
ttò	-1840
lare	-1841
unto	-1842
▁Ioa	-1843
▁Pre	-1844
▁ben	-1845
rente	-1846
▁Bala	-1847
ssiria	-1848
▁potre	-1849
▁sarete	-1850
▁accampa	-1851
▁continu	-1852
▁entrare	-1853
▁giovani	-1854
▁malvagi	-1855
▁campagna	-1856
▁soltanto	-1857
tate	-1858
anche	-1859
▁fame	-1860
▁rifu	-1861
▁pensa	-1862
▁eterna	-1863
▁comandi	-1864
▁giovane	-1865
into	-1866
▁Amm	-1867
▁cari	-1868
▁spar	-1869
▁teme	-1870
▁vedo	-1871
▁legno	-1872
▁tocca	-1873
censo	-1874
cherò	-1875
mblea	-1876
▁metà	-1877
alonne	-1878
olocau	-1879
ordine	-1880
▁avevo	-1881
▁fanci	-1882
▁paura	-1883
▁sicli	-1884
▁Dimora	-1885
▁conosci	-1886
olocausto	-1887
eb	-1888
rmi	-1889
▁mu	-1890
▁Ara	-1891
▁ing	-1892
▁Essa	-1893
▁Ness	-1894
▁assi	-1895
▁impa	-1896
▁rest	-1897
▁Daniele	-1898
▁insegna	-1899
▁tenebre	-1900
▁prossimo	-1901
▁Assalonne	-1902
Fi	-1903
▁Ch	-1904
▁Ama	-1905
▁fia	-1906
▁rip	-1907
▁son	-1908
▁alta	-1909
▁cond	-1910
▁dovrà	-1911
▁sapere	-1912
▁Go	-1913
eltà	-1914
tere	-1915
▁spl	-1916
▁vie	-1917
▁ango	-1918
▁obbe	-1919
eserci	-1920
quista	-1921
▁attra	-1922
▁colpa	-1923
▁grano	-1924
ggiunse	-1925
▁ricono	-1926
▁settimo	-1927
gerà	-1928
▁mas	-1929
▁spie	-1930
▁colpe	-1931
▁villa	-1932
▁sorella	-1933
▁Ammoniti	-1934
▁disprezza	-1935
bà	-1936
tali	-1937
ttato	-1938
▁avrai	-1939
▁menzo	-1940
▁prece	-1941
▁misero	-1942
▁uccelli	-1943
▁settentrione	-1944
gò	-1945
ccu	-1946
seo	-1947
empi	-1948
▁esa	-1949
▁piena	-1950
▁prova	-1951
▁umili	-1952
▁labbra	-1953
▁dinanzi	-1954
▁sventura	-1955
▁preghiera	-1956
An	-1957
ore	-1958
ppi	-1959
▁Fece	-1960
▁sarò	-1961
▁sepp	-1962
▁batte	-1963
▁leggi	-1964
▁rivol	-1965
▁cammino	-1966
▁propria	-1967
cro	-1968
die	-1969
mbo	-1970
gine	-1971
▁den	-1972
bbene	-1973
▁Nabu	-1974
▁bron	-1975
▁nasc	-1976
▁aiuto	-1977
▁basto	-1978
▁buona	-1979
▁conso	-1980
▁tanto	-1981
▁procla	-1982
▁sconfi	-1983
▁governa	-1984
▁orecchi	-1985
mbe	-1986
nal	-1987
ono	-1988
spi	-1989
zer	-1990
scri	-1991
▁Can	-1992
▁Esa	-1993
▁gua	-1994
▁sen	-1995
▁Gero	-1996
▁tran	-1997
strati	-1998
▁amore	-1999
▁confi	-2000
▁tornò	-2001
blazione	-2002
▁Infatti	-2003
▁conosce	-2004
▁To	-2005
orse	-2006
▁tur	-2007
sioni	-2008
▁Cana	-2009
▁beni	-2010
▁dono	-2011
▁lasc	-2012
▁catti	-2013
▁invia	-2014
▁vende	-2015
▁vigna	-2016
▁bronzo	-2017
▁sdegno	-2018
▁spaven	-2019
▁stessi	-2020
esercito	-2021
▁compren	-2022
▁presero	-2023
▁montagne	-2024
ttu	-2025
▁er	-2026
cati	-2027
gizi	-2028
verà	-2029
vola	-2030
▁dar	-2031
▁affi	-2032
▁stan	-2033
▁grido	-2034
▁liber	-2035
▁passi	-2036
▁primi	-2037
▁pronun	-2038
▁rimase	-2039
▁trenta	-2040
▁oriente	-2041
▁passare	-2042
▁allontana	-2043
Di	-2044
età	-2045
verti	-2046
▁atti	-2047
▁atto	-2048
▁darà	-2049
▁deso	-2050
▁poco	-2051
▁vivo	-2052
▁ferro	-2053
▁Quelli	-2054
▁costoro	-2055
▁momento	-2056
▁comunione	-2057
fo	-2058
im	-2059
fat	-2060
ond	-2061
rdo	-2062
pora	-2063
▁gui	-2064
▁sel	-2065
empio	-2066
erano	-2067
▁Esaù	-2068
▁dimo	-2069
▁dolo	-2070
▁sten	-2071
▁campi	-2072
▁mille	-2073
▁Quindi	-2074
▁scelto	-2075
▁potente	-2076
▁avvicina	-2077
lli	-2078
rgli	-2079
rona	-2080
▁para	-2081
▁supp	-2082
tellig	-2083
▁canto	-2084
▁costru	-2085
▁costui	-2086
▁frutti	-2087
▁misura	-2088
▁proprie	-2089
▁Geroboamo	-2090
rli	-2091
▁Ad	-2092
▁Ki	-2093
▁Là	-2094
andò	-2095
nato	-2096
tata	-2097
▁bev	-2098
▁meno	-2099
▁Disse	-2100
▁posso	-2101
Signore	-2102
▁favore	-2103
▁comando	-2104
▁primogenito	-2105
ìm	-2106
olio	-2107
▁ali	-2108
▁dia	-2109
▁arre	-2110
▁entrò	-2111
▁state	-2112
▁porpora	-2113
▁seguito	-2114
▁cinquanta	-2115
car	-2116
▁Po	-2117
cano	-2118
eleb	-2119
ttri	-2120
vate	-2121
▁All	-2122
▁Amo	-2123
▁viv	-2124
▁dura	-2125
▁gioi	-2126
▁odia	-2127
▁forma	-2128
▁parlò	-2129
▁piang	-2130
▁povero	-2131
▁suppli	-2132
▁comandato	-2133
▁risposero	-2134
ll	-2135
▁De	-2136
arda	-2137
riti	-2138
▁Sia	-2139
▁oro	-2140
rarono	-2141
▁preda	-2142
giziani	-2143
▁durante	-2144
▁ricorda	-2145
▁mezzogio	-2146
▁Fu	-2147
▁est	-2148
ttura	-2149
▁deva	-2150
▁deve	-2151
▁immo	-2152
▁certo	-2153
▁angeli	-2154
▁maggio	-2155
▁ordine	-2156
▁ordinò	-2157
▁sappia	-2158
▁raggiun	-2159
▁Egiziani	-2160
▁mezzogiorno	-2161
▁Cal	-2162
▁Rub	-2163
▁lan	-2164
diamo	-2165
menta	-2166
▁alto	-2167
▁cura	-2168
▁rica	-2169
▁vole	-2170
spetto	-2171
▁mette	-2172
▁Canaan	-2173
▁nessun	-2174
iniquità	-2175
▁Nessuno	-2176
▁custodi	-2177
▁risusci	-2178
assemblea	-2179
tù	-2180
lui	-2181
cate	-2182
rane	-2183
estre	-2184
▁Acab	-2185
▁Gàba	-2186
▁dirà	-2187
▁riti	-2188
▁valo	-2189
▁inten	-2190
▁lasci	-2191
▁leone	-2192
▁possi	-2193
▁segno	-2194
▁prezio	-2195
▁ucciso	-2196
▁offerta	-2197
▁ricevuto	-2198
▁vergogna	-2199
▁verranno	-2200
ha	-2201
dro	-2202
ell	-2203
▁ni	-2204
▁Ghe	-2205
▁pal	-2206
rando	-2207
safat	-2208
▁peso	-2209
▁reso	-2210
▁forti	-2211
▁mogli	-2212
▁venga	-2213
▁meglio	-2214
▁reggia	-2215
▁avranno	-2216
▁chiamava	-2217
▁commesso	-2218
▁sterminio	-2219
san	-2220
▁Ar	-2221
▁am	-2222
duti	-2223
eria	-2224
▁Edom	-2225
▁biso	-2226
▁buoi	-2227
▁ossa	-2228
▁rito	-2229
▁buono	-2230
▁cheru	-2231
▁fiume	-2232
▁retti	-2233
cazione	-2234
▁Nabuco	-2235
▁persone	-2236
▁portato	-2237
▁prodigi	-2238
▁villaggi	-2239
▁ascoltato	-2240
▁Ha	-2241
▁Is	-2242
dòno	-2243
▁Ogni	-2244
▁lode	-2245
▁mali	-2246
▁poss	-2247
dònosor	-2248
▁azioni	-2249
▁nascon	-2250
▁rimane	-2251
▁braccio	-2252
▁farisei	-2253
▁interro	-2254
▁perenne	-2255
▁pratica	-2256
▁scaccia	-2257
▁schiava	-2258
▁vangelo	-2259
▁Giòsafat	-2260
▁giovenco	-2261
▁indietro	-2262
▁nascosto	-2263
▁quaranta	-2264
▁messaggeri	-2265
▁Nabucodònosor	-2266
dur	-2267
rov	-2268
▁Za	-2269
torì	-2270
mbino	-2271
èlech	-2272
▁chie	-2273
▁data	-2274
▁resi	-2275
▁sola	-2276
▁esser	-2277
▁fonda	-2278
▁innal	-2279
▁radun	-2280
▁sommo	-2281
▁alture	-2282
▁saggio	-2283
▁tavola	-2284
gistrati	-2285
▁colonne	-2286
▁foresti	-2287
▁vivente	-2288
▁allontan	-2289
▁prostitu	-2290
»,	-2291
gue	-2292
ande	-2293
cini	-2294
▁fla	-2295
ttero	-2296
▁nube	-2297
▁puni	-2298
▁affer	-2299
▁casti	-2300
▁collo	-2301
▁fanno	-2302
▁pieno	-2303
▁prost	-2304
▁sposa	-2305
▁tende	-2306
▁arriva	-2307
▁dentro	-2308
▁Ascolta	-2309
▁domanda	-2310
▁facendo	-2311
▁partorì	-2312
▁moltipli	-2313
pì	-2314
àm	-2315
ali	-2316
erte	-2317
rrei	-2318
▁ass	-2319
▁dif	-2320
▁ero	-2321
▁dite	-2322
▁segu	-2323
▁ascol	-2324
▁coper	-2325
▁crede	-2326
▁pelle	-2327
▁togli	-2328
▁temere	-2329
▁agnelli	-2330
▁fanciul	-2331
▁mattina	-2332
▁tranqui	-2333
▁conoscere	-2334
▁stranieri	-2335
àb	-2336
dei	-2337
noc	-2338
iore	-2339
mine	-2340
tivo	-2341
▁Noi	-2342
▁avrò	-2343
▁esul	-2344
▁indo	-2345
▁puro	-2346
noltre	-2347
▁Tutta	-2348
▁accor	-2349
▁celeb	-2350
▁conto	-2351
▁mente	-2352
tamente	-2353
▁esegui	-2354
▁grazie	-2355
▁venuti	-2356
▁insegui	-2357
▁ritorna	-2358
▁schiavo	-2359
▁seppelli	-2360
lera	-2361
▁Sei	-2362
▁occi	-2363
▁pose	-2364
▁giura	-2365
▁pensi	-2366
▁presi	-2367
▁regnò	-2368
▁aposto	-2369
▁dichia	-2370
▁riempi	-2371
▁bambino	-2372
▁profumo	-2373
▁sarebbe	-2374
▁sepolcro	-2375
▁torrente	-2376
▁discendenti	-2377
▁Te	-2378
gani	-2379
gore	-2380
squa	-2381
opera	-2382
▁medi	-2383
▁meri	-2384
▁quar	-2385
▁censi	-2386
▁letto	-2387
▁vista	-2388
tazione	-2389
▁casati	-2390
▁stolto	-2391
▁maestro	-2392
▁pioggia	-2393
▁ribelli	-2394
▁prigioni	-2395
▁stabilito	-2396
▁abbandonato	-2397
▁cie	-2398
▁deli	-2399
▁stri	-2400
▁avere	-2401
▁molte	-2402
▁negli	-2403
▁appena	-2404
▁partire	-2405
▁costitui	-2406
▁qualunque	-2407
La	-2408
cie	-2409
sino	-2410
▁Ieu	-2411
▁lie	-2412
▁reg	-2413
terai	-2414
▁atta	-2415
▁scio	-2416
▁torn	-2417
▁velo	-2418
▁guari	-2419
▁solle	-2420
▁tempi	-2421
▁scribi	-2422
▁avversa	-2423
▁bastone	-2424
▁concesso	-2425
av	-2426
mai	-2427
▁ir	-2428
▁sb	-2429
duce	-2430
tosi	-2431
▁App	-2432
▁Ave	-2433
▁Gad	-2434
▁dio	-2435
▁Gali	-2436
▁Levi	-2437
▁Rico	-2438
▁buon	-2439
▁sini	-2440
Figlio	-2441
▁avuto	-2442
▁fatta	-2443
▁parto	-2444
▁perfe	-2445
▁succe	-2446
▁vitti	-2447
▁grasso	-2448
orecchio	-2449
▁confini	-2450
▁devasta	-2451
▁prostra	-2452
▁comincia	-2453
▁condanna	-2454
▁censimento	-2455
ccò	-2456
▁dor	-2457
▁bamb	-2458
▁Ebron	-2459
▁suolo	-2460
▁fedele	-2461
▁pianta	-2462
▁spezza	-2463
▁animali	-2464
▁fedeltà	-2465
▁tornare	-2466
Và	-2467
bia	-2468
gri	-2469
rla	-2470
▁Ai	-2471
ardi	-2472
chem	-2473
diti	-2474
onda	-2475
zaro	-2476
▁Bar	-2477
eremo	-2478
▁assa	-2479
▁vede	-2480
▁corti	-2481
▁lutto	-2482
▁sagge	-2483
▁Eliseo	-2484
▁Quegli	-2485
▁farina	-2486
▁vivere	-2487
▁avvicin	-2488
▁confine	-2489
▁perdona	-2490
▁volontà	-2491
ute	-2492
bbia	-2493
enze	-2494
tale	-2495
dando	-2496
▁Paro	-2497
▁basi	-2498
▁invo	-2499
▁salì	-2500
guardo	-2501
mèlech	-2502
reranno	-2503
▁obbedi	-2504
▁giurato	-2505
▁oggetto	-2506
▁principe	-2507
▁consiglio	-2508
▁larghezza	-2509
mar	-2510
zati	-2511
▁sci	-2512
ssato	-2513
▁coro	-2514
▁devo	-2515
▁inte	-2516
▁vero	-2517
terete	-2518
▁Forse	-2519
▁Ruben	-2520
▁insul	-2521
▁portò	-2522
quattro	-2523
▁alberi	-2524
▁faceva	-2525
▁stanno	-2526
▁attorno	-2527
▁decreti	-2528
▁intellig	-2529
▁sinistra	-2530
▁fà	-2531
bbli	-2532
lata	-2533
mate	-2534
▁fai	-2535
derlo	-2536
eravi	-2537
▁Pren	-2538
▁confu	-2539
▁legna	-2540
▁prega	-2541
▁rifiu	-2542
▁riman	-2543
▁sogno	-2544
▁veste	-2545
▁tromba	-2546
▁abitare	-2547
▁lamento	-2548
▁parlava	-2549
▁portare	-2550
▁prescri	-2551
▁terrore	-2552
▁visione	-2553
Do	-2554
dati	-2555
ende	-2556
ermo	-2557
sten	-2558
▁eli	-2559
▁sch	-2560
amore	-2561
cando	-2562
▁Sime	-2563
▁anti	-2564
▁diso	-2565
▁inca	-2566
▁stir	-2567
▁tali	-2568
▁terre	-2569
▁Caldei	-2570
▁Libano	-2571
▁alcuno	-2572
▁altare	-2573
▁compor	-2574
▁meravi	-2575
▁pagani	-2576
▁bambini	-2577
▁oracolo	-2578
▁rifugio	-2579
▁viaggio	-2580
▁condusse	-2581
▁continua	-2582
▁mantello	-2583
▁benedetto	-2584
▁consacrato	-2585
sò	-2586
dri	-2587
▁Ke	-2588
▁và	-2589
alli	-2590
cche	-2591
cerà	-2592
cipi	-2593
uote	-2594
▁Una	-2595
anima	-2596
ccupa	-2597
esero	-2598
tente	-2599
verso	-2600
▁Nell	-2601
▁muro	-2602
▁nomi	-2603
entale	-2604
▁Betel	-2605
▁ricon	-2606
▁sommi	-2607
▁alcuna	-2608
▁ebbero	-2609
▁greggi	-2610
▁riusci	-2611
▁spalle	-2612
▁nazione	-2613
▁piccolo	-2614
▁settanta	-2615
▁manifesta	-2616
▁ricchezze	-2617
tr	-2618
dita	-2619
duta	-2620
feri	-2621
▁Dal	-2622
▁bal	-2623
▁edi	-2624
letto	-2625
▁Ioas	-2626
▁liba	-2627
▁nato	-2628
▁Colui	-2629
▁divor	-2630
▁ricer	-2631
▁abbond	-2632
▁angelo	-2633
▁avendo	-2634
▁farete	-2635
▁rivela	-2636
▁sapete	-2637
▁specie	-2638
▁troppo	-2639
▁addosso	-2640
▁guardie	-2641
▁incenso	-2642
▁portarono	-2643
In	-2644
erlo	-2645
▁Hai	-2646
▁Pro	-2647
▁Sede	-2648
▁camb	-2649
▁diff	-2650
▁fati	-2651
▁chiam	-2652
▁fossa	-2653
▁gettò	-2654
▁perco	-2655
▁Aramei	-2656
▁osserv	-2657
▁taglia	-2658
▁argento	-2659
▁fianchi	-2660
▁giovine	-2661
▁giudice	-2662
▁offerte	-2663
▁supersti	-2664
Ma	-2665
dì	-2666
bbi	-2667
pio	-2668
rata	-2669
▁Dan	-2670
▁ber	-2671
▁esc	-2672
▁piu	-2673
▁stu	-2674
rdino	-2675
tterà	-2676
▁noti	-2677
▁stel	-2678
ttosto	-2679
▁Maria	-2680
▁oppre	-2681
▁petto	-2682
▁regni	-2683
▁sugli	-2684
▁riposo	-2685
▁secoli	-2686
▁stirpe	-2687
▁videro	-2688
▁vedendo	-2689
▁cominciò	-2690
▁promessa	-2691
▁raccogli	-2692
▁saggezza	-2693
▁accamparono	-2694
▁En	-2695
bbro	-2696
dare	-2697
ensa	-2698
erti	-2699
stro	-2700
voli	-2701
▁ari	-2702
▁dip	-2703
▁sai	-2704
inago	-2705
tezza	-2706
▁Madi	-2707
▁vera	-2708
carono	-2709
▁affli	-2710
▁disco	-2711
▁santa	-2712
▁siate	-2713
▁trovò	-2714
▁vanta	-2715
▁versa	-2716
razione	-2717
▁Eppure	-2718
▁Parola	-2719
▁Sichem	-2720
▁catene	-2721
▁conser	-2722
▁consul	-2723
▁motivo	-2724
▁sinago	-2725
▁tavole	-2726
▁venuta	-2727
▁Amorrei	-2728
▁manderò	-2729
▁trovava	-2730
▁vecchio	-2731
▁esercito	-2732
Al	-2733
drà	-2734
▁ga	-2735
arvi	-2736
bini	-2737
temi	-2738
ulto	-2739
▁Maa	-2740
▁Ven	-2741
▁ade	-2742
▁gro	-2743
atrio	-2744
chele	-2745
▁debo	-2746
▁fidu	-2747
▁flag	-2748
▁pani	-2749
▁sigi	-2750
derete	-2751
▁cuori	-2752
▁ralle	-2753
▁riuni	-2754
▁scudi	-2755
Assiria	-2756
▁Appena	-2757
▁Balaam	-2758
▁compia	-2759
▁decimo	-2760
▁presta	-2761
▁tratta	-2762
▁Galilea	-2763
▁bisogno	-2764
▁faranno	-2765
▁scienza	-2766
▁abbandon	-2767
▁acquista	-2768
▁duecento	-2769
▁proprietà	-2770
▁benedizione	-2771
▁El	-2772
▁sì	-2773
serà	-2774
vata	-2775
▁agg	-2776
▁ard	-2777
denti	-2778
verrà	-2779
▁Guai	-2780
▁demo	-2781
▁dife	-2782
▁scia	-2783
▁uffi	-2784
▁vuoi	-2785
cherai	-2786
▁ferma	-2787
▁saggi	-2788
▁scher	-2789
▁Giudea	-2790
▁andava	-2791
▁avrete	-2792
▁descri	-2793
▁presto	-2794
▁tesori	-2795
▁uscito	-2796
▁veniva	-2797
▁collera	-2798
▁oggetti	-2799
▁giardino	-2800
▁mangiato	-2801
▁Abimèlech	-2802
▁olocausto	-2803
▁piuttosto	-2804
Vi	-2805
ach	-2806
dini	-2807
ttino	-2808
▁Alla	-2809
▁nece	-2810
▁rami	-2811
▁risu	-2812
▁scor	-2813
▁seno	-2814
▁sorg	-2815
ssanta	-2816
▁metti	-2817
▁piede	-2818
▁vitto	-2819
nocente	-2820
▁Gerico	-2821
▁giunse	-2822
▁lavori	-2823
▁provin	-2824
▁quarto	-2825
▁uccise	-2826
▁persona	-2827
▁sguardo	-2828
▁moltitudine	-2829
gro	-2830
ner	-2831
Sono	-2832
ango	-2833
▁aiu	-2834
▁Aram	-2835
▁Scri	-2836
▁cima	-2837
▁cora	-2838
▁gelo	-2839
▁racc	-2840
▁Isaia	-2841
▁circa	-2842
▁colli	-2843
▁dissi	-2844
▁rimar	-2845
lazioni	-2846
▁altari	-2847
▁dicono	-2848
▁fedeli	-2849
▁poveri	-2850
▁domandò	-2851
▁passato	-2852
▁servire	-2853
▁cadaveri	-2854
▁violenza	-2855
▁forestiero	-2856
cìa	-2857
fed	-2858
stò	-2859
▁Bi	-2860
▁Gh	-2861
alto	-2862
cheo	-2863
itti	-2864
onale	-2865
▁calp	-2866
▁nubi	-2867
▁raga	-2868
▁vidi	-2869
▁Abner	-2870
▁Abram	-2871
▁Canan	-2872
▁Farai	-2873
▁desti	-2874
▁germo	-2875
▁miele	-2876
▁partì	-2877
▁perfi	-2878
▁pezzi	-2879
▁prote	-2880
▁scese	-2881
▁segre	-2882
potente	-2883
▁banche	-2884
▁cadere	-2885
▁cammin	-2886
▁eterno	-2887
▁finito	-2888
▁inferi	-2889
▁lasciò	-2890
▁sacche	-2891
▁seduto	-2892
▁spiega	-2893
▁Sedecìa	-2894
▁diranno	-2895
▁maschio	-2896
▁splendo	-2897
▁Chiunque	-2898
▁lasciato	-2899
▁uscirono	-2900
▁cherubini	-2901
▁straniero	-2902
bed	-2903
▁Ni	-2904
Pren	-2905
cava	-2906
dite	-2907
tuto	-2908
vali	-2909
▁Aza	-2910
▁usa	-2911
elice	-2912
ssori	-2913
▁camm	-2914
▁rame	-2915
▁resp	-2916
▁soli	-2917
▁amici	-2918
▁passò	-2919
▁signi	-2920
▁andate	-2921
▁miglio	-2922
▁fiducia	-2923
▁fossero	-2924
▁macchia	-2925
▁renderò	-2926
▁schiere	-2927
▁avversari	-2928
▁considera	-2929
▁lunghezza	-2930
▁registrati	-2931
Ri	-2932
▁Av	-2933
orto	-2934
rode	-2935
sabe	-2936
stin	-2937
▁Nat	-2938
▁sov	-2939
conda	-2940
▁Bene	-2941
▁Elea	-2942
▁aper	-2943
▁date	-2944
▁indu	-2945
▁stru	-2946
▁vive	-2947
goglio	-2948
stante	-2949
▁Mardo	-2950
▁giogo	-2951
▁mangi	-2952
▁sazia	-2953
▁udire	-2954
▁aggiun	-2955
▁avanza	-2956
▁lancia	-2957
▁Intanto	-2958
▁accanto	-2959
▁selvati	-2960
▁traspor	-2961
▁abominio	-2962
▁apostoli	-2963
▁fortezze	-2964
▁prigione	-2965
▁combattere	-2966
▁conoscenza	-2967
▁maledizione	-2968
for	-2969
ori	-2970
▁As	-2971
mare	-2972
tana	-2973
▁bue	-2974
▁pur	-2975
▁Dama	-2976
▁crea	-2977
▁roto	-2978
▁Salmo	-2979
▁Zacca	-2980
▁addor	-2981
▁fiumi	-2982
▁vieni	-2983
▁dolore	-2984
▁giunge	-2985
▁prendi	-2986
▁strade	-2987
cheranno	-2988
▁guardia	-2989
▁porterà	-2990
▁persegui	-2991
▁Mardocheo	-2992
▁abitavano	-2993
▁principio	-2994
▁Ta	-2995
▁Car	-2996
▁Por	-2997
▁Tiro	-2998
▁arie	-2999
▁feri	-3000
▁vedi	-3001
▁danno	-3002
▁trafi	-3003
▁Giosia	-3004
▁Queste	-3005
▁contra	-3006
▁faccio	-3007
▁fretta	-3008
▁furore	-3009
▁soppor	-3010
▁vedova	-3011
▁Damasco	-3012
▁apparve	-3013
▁bottino	-3014
▁essendo	-3015
▁glorifi	-3016
▁offrire	-3017
▁prostrò	-3018
▁chiamare	-3019
▁menzogna	-3020
▁possiamo	-3021
▁promesso	-3022
▁scendere	-3023
▁costruito	-3024
▁preparato	-3025
▁splendore	-3026
▁tornarono	-3027
▁conosciuto	-3028
▁z	-3029
lga	-3030
▁Vo	-3031
Come	-3032
fano	-3033
rava	-3034
▁Ana	-3035
dotto	-3036
tterò	-3037
▁Isma	-3038
▁amma	-3039
▁apri	-3040
▁asso	-3041
▁cali	-3042
▁irri	-3043
▁mesi	-3044
▁pala	-3045
▁sala	-3046
▁scop	-3047
▁vani	-3048
▁Parti	-3049
▁carro	-3050
▁corre	-3051
▁gesta	-3052
▁infor	-3053
▁ricco	-3054
▁sacco	-3055
rebbero	-3056
▁Giobbe	-3057
▁Pilato	-3058
▁arieti	-3059
▁caccia	-3060
▁dottri	-3061
▁luoghi	-3062
▁morirà	-3063
▁roccia	-3064
▁valoro	-3065
▁innalza	-3066
estremità	-3067
nipotente	-3068
▁chiamati	-3069
▁prenderà	-3070
▁ascoltare	-3071
▁Ve	-3072
▁zo	-3073
cifi	-3074
onde	-3075
tela	-3076
ttare	-3077
▁base	-3078
▁impe	-3079
▁lega	-3080
▁lont	-3081
▁sede	-3082
▁stre	-3083
▁Betle	-3084
▁copri	-3085
▁gridò	-3086
▁ormai	-3087
▁spezz	-3088
▁stare	-3089
▁vigne	-3090
volenza	-3091
▁Làbano	-3092
▁carità	-3093
▁demoli	-3094
▁fronti	-3095
▁giunto	-3096
▁semina	-3097
▁ribella	-3098
▁rivesti	-3099
▁ufficia	-3100
▁compiuto	-3101
▁stermina	-3102
▁oblazione	-3103
▁condussero	-3104
ià	-3105
us	-3106
àr	-3107
aff	-3108
mer	-3109
rme	-3110
ssò	-3111
▁Ze	-3112
arco	-3113
sciu	-3114
vera	-3115
▁cla	-3116
sette	-3117
stere	-3118
stero	-3119
ttori	-3120
vegli	-3121
▁fior	-3122
▁salv	-3123
▁citta	-3124
▁intro	-3125
▁peste	-3126
▁vuole	-3127
oriente	-3128
▁arredi	-3129
▁avanti	-3130
▁fianco	-3131
▁occhio	-3132
▁ordini	-3133
▁raccon	-3134
▁accosta	-3135
▁apparti	-3136
▁profana	-3137
▁schiera	-3138
▁Eleazaro	-3139
▁Zaccaria	-3140
▁addormen	-3141
▁peccatori	-3142
▁giuramento	-3143
abi	-3144
bon	-3145
clu	-3146
fod	-3147
imp	-3148
kìm	-3149
son	-3150
uoi	-3151
▁Bo	-3152
▁Nè	-3153
erba	-3154
vamo	-3155
▁Noè	-3156
▁sce	-3157
drete	-3158
gnerà	-3159
messo	-3160
▁Chel	-3161
▁bian	-3162
▁mari	-3163
▁mina	-3164
▁ulti	-3165
andali	-3166
▁canti	-3167
▁dirai	-3168
▁lampa	-3169
▁pieni	-3170
▁retto	-3171
▁sente	-3172
▁Simone	-3173
▁cavali	-3174
▁disono	-3175
▁domani	-3176
▁riceve	-3177
▁vicini	-3178
▁intanto	-3179
▁pastori	-3180
▁piccoli	-3181
▁potenti	-3182
▁vestito	-3183
▁malvagio	-3184
▁occidente	-3185
▁ricchezza	-3186
▁consegnato	-3187
Ho	-3188
dòk	-3189
▁au	-3190
▁sv	-3191
desi	-3192
ersi	-3193
lità	-3194
mana	-3195
tter	-3196
ulti	-3197
vare	-3198
▁Dei	-3199
▁min	-3200
cinto	-3201
estra	-3202
▁mira	-3203
▁visi	-3204
▁Ester	-3205
▁Zadòk	-3206
▁abiti	-3207
▁coppa	-3208
▁estre	-3209
▁perse	-3210
▁presa	-3211
▁segni	-3212
▁albero	-3213
▁aperto	-3214
▁medesi	-3215
▁pianto	-3216
▁Cananei	-3217
▁ardente	-3218
▁Betlemme	-3219
▁alzarono	-3220
▁battezza	-3221
▁mediante	-3222
▁numerosi	-3223
▁uccidere	-3224
▁profetizza	-3225
▁benevolenza	-3226
▁governatore	-3227
▁risuscitato	-3228
àd	-3229
òn	-3230
elab	-3231
nati	-3232
rere	-3233
▁Fra	-3234
▁Gat	-3235
▁Nèf	-3236
▁San	-3237
ttono	-3238
▁aspe	-3239
▁beve	-3240
▁cand	-3241
▁cori	-3242
▁doni	-3243
▁viva	-3244
ccherà	-3245
ppiamo	-3246
strato	-3247
▁cedro	-3248
▁infed	-3249
▁piaga	-3250
▁pasqua	-3251
▁prende	-3252
▁uscirà	-3253
▁Nèftali	-3254
▁Roboamo	-3255
▁braccia	-3256
▁entrerà	-3257
▁inviato	-3258
▁resterà	-3259
▁seconda	-3260
▁viscere	-3261
▁angoscia	-3262
▁apparten	-3263
▁candelab	-3264
▁benedisse	-3265
▁appartiene	-3266
▁comandamenti	-3267
▁r	-3268
bba	-3269
rso	-3270
tio	-3271
udo	-3272
ull	-3273
▁Iz	-3274
▁Or	-3275
gura	-3276
rerò	-3277
sone	-3278
▁Mac	-3279
▁adi	-3280
▁ese	-3281
▁pla	-3282
▁vor	-3283
dotti	-3284
gnati	-3285
▁Amàn	-3286
▁appa	-3287
▁devi	-3288
▁impi	-3289
▁lino	-3290
▁sale	-3291
posero	-3292
▁Gàbaa	-3293
▁Ioram	-3294
▁bontà	-3295
▁convo	-3296
▁farlo	-3297
▁latte	-3298
▁nello	-3299
▁nuova	-3300
▁riser	-3301
▁rispe	-3302
▁vendi	-3303
▁viola	-3304
▁avesse	-3305
▁compiu	-3306
▁dirgli	-3307
▁parabo	-3308
▁regina	-3309
▁tesoro	-3310
▁Simeone	-3311
▁precipi	-3312
▁sentito	-3313
▁viventi	-3314
▁dispersi	-3315
▁dobbiamo	-3316
▁presentò	-3317
▁spavento	-3318
▁trecento	-3319
▁vendetta	-3320
▁colpevole	-3321
▁frontiera	-3322
▁mangerete	-3323
▁significa	-3324
▁Pe	-3325
▁Sò	-3326
estì	-3327
gini	-3328
tera	-3329
trai	-3330
ulon	-3331
▁bre	-3332
▁mer	-3333
▁pun	-3334
renti	-3335
ssare	-3336
ttera	-3337
venti	-3338
▁fugg	-3339
▁pare	-3340
▁rimp	-3341
▁serp	-3342
▁vite	-3343
▁Certo	-3344
▁capro	-3345
▁conte	-3346
▁messi	-3347
▁mieti	-3348
▁punto	-3349
▁rende	-3350
▁trasc	-3351
▁tribo	-3352
▁vanno	-3353
▁Chiesa	-3354
▁Ioiadà	-3355
▁guerri	-3356
▁mostra	-3357
▁perire	-3358
▁ritorn	-3359
▁salire	-3360
▁scarla	-3361
▁abomini	-3362
▁attacca	-3363
▁diedero	-3364
▁gettato	-3365
▁lettera	-3366
▁nessuna	-3367
▁ricordo	-3368
▁vengono	-3369
▁cadranno	-3370
▁compiere	-3371
▁consigli	-3372
▁dottrina	-3373
▁descritte	-3374
▁fondamenta	-3375
▁compassione	-3376
dan	-3377
lse	-3378
tam	-3379
arli	-3380
cciò	-3381
cque	-3382
late	-3383
mani	-3384
mmia	-3385
simo	-3386
▁Ciò	-3387
▁Cor	-3388
▁Ver	-3389
▁Zàb	-3390
▁bri	-3391
prese	-3392
▁arro	-3393
▁atte	-3394
▁fran	-3395
▁misu	-3396
▁temp	-3397
Andate	-3398
▁Amale	-3399
▁agito	-3400
▁sacro	-3401
eredità	-3402
▁domina	-3403
▁prezzo	-3404
▁stelle	-3405
▁trombe	-3406
▁Assiria	-3407
▁Ricorda	-3408
▁Zàbulon	-3409
▁ascolto	-3410
▁desider	-3411
▁mettere	-3412
cinquanta	-3413
▁principi	-3414
▁banchetto	-3415
▁distrutto	-3416
▁ricostrui	-3417
▁schiavitù	-3418
▁intelligenza	-3419
..	-3420
erì	-3421
esp	-3422
rne	-3423
sen	-3424
cata	-3425
deri	-3426
doma	-3427
iate	-3428
▁Era	-3429
▁Miz	-3430
▁amm	-3431
▁pon	-3432
▁rap	-3433
sabea	-3434
▁adul	-3435
▁caso	-3436
▁otto	-3437
▁rige	-3438
▁ripu	-3439
varono	-3440
▁Basan	-3441
▁belle	-3442
▁bisso	-3443
▁concu	-3444
▁edifi	-3445
▁infer	-3446
▁piano	-3447
▁prele	-3448
▁suono	-3449
almente	-3450
▁Azaria	-3451
▁Madian	-3452
▁miglia	-3453
▁ricord	-3454
▁satana	-3455
▁scriba	-3456
▁Rachele	-3457
▁caresti	-3458
▁notizia	-3459
▁offrirà	-3460
▁pastore	-3461
▁possono	-3462
▁salvato	-3463
▁strappa	-3464
▁cammelli	-3465
▁riscatto	-3466
▁diventato	-3467
▁ufficiali	-3468
▁altrimenti	-3469
▁giovinezza	-3470
Ara	-3471
rim	-3472
▁lì	-3473
efod	-3474
mòni	-3475
tero	-3476
▁eri	-3477
gendo	-3478
gerai	-3479
urità	-3480
vesti	-3481
▁pazi	-3482
▁voto	-3483
tabili	-3484
tavano	-3485
▁Iesse	-3486
▁colpì	-3487
▁guada	-3488
▁impre	-3489
▁provo	-3490
▁tolto	-3491
▁Sòdoma	-3492
▁andato	-3493
▁chiese	-3494
▁deciso	-3495
▁demòni	-3496
▁lebbra	-3497
▁niente	-3498
▁quatto	-3499
▁quinto	-3500
▁temete	-3501
rrezione	-3502
▁crocifi	-3503
▁giudizi	-3504
▁recinto	-3505
▁talenti	-3506
oblazione	-3507
▁chiamata	-3508
▁desidera	-3509
▁generato	-3510
▁allontanò	-3511
▁diventerà	-3512
▁passarono	-3513
▁pronunzia	-3514
▁attraversa	-3515
▁desolazione	-3516
▁prigionieri	-3517
▁presentarono	-3518
▁risurrezione	-3519
alb	-3520
ddi	-3521
lam	-3522
tan	-3523
▁Ge	-3524
bilì	-3525
cosa	-3526
ervi	-3527
inse	-3528
minò	-3529
▁Ief	-3530
▁Mes	-3531
▁inc	-3532
▁osc	-3533
▁sie	-3534
Parla	-3535
▁Aser	-3536
▁Mera	-3537
▁affa	-3538
▁armi	-3539
▁auto	-3540
▁azzi	-3541
▁capa	-3542
▁igno	-3543
▁inni	-3544
▁lapi	-3545
▁luna	-3546
▁sazi	-3547
▁vaci	-3548
darono	-3549
gnello	-3550
▁Nella	-3551
▁barca	-3552
▁denti	-3553
▁ingiu	-3554
▁poter	-3555
▁soave	-3556
▁suona	-3557
interno	-3558
▁andati	-3559
▁corona	-3560
▁fiamme	-3561
▁maledi	-3562
▁potrai	-3563
▁soffio	-3564
▁statua	-3565
▁vanità	-3566
▁voglia	-3567
▁Ismaele	-3568
▁giudici	-3569
▁metterà	-3570
▁necessa	-3571
▁partori	-3572
▁ritorno	-3573
▁aggiunse	-3574
▁pensieri	-3575
▁qualcosa	-3576
▁seicento	-3577
▁venivano	-3578
▁cavalieri	-3579
▁innocente	-3580
▁scarlatto	-3581
▁commettere	-3582
▁radunarono	-3583
On	-3584
bu	-3585
là	-3586
mà	-3587
Dice	-3588
roni	-3589
volo	-3590
▁Tra	-3591
▁aro	-3592
▁sfu	-3593
ombra	-3594
riamo	-3595
terni	-3596
▁aprì	-3597
▁digi	-3598
▁esal	-3599
trenta	-3600
▁bella	-3601
▁lievi	-3602
▁offrì	-3603
▁tagli	-3604
▁volle	-3605
▁debole	-3606
▁istrui	-3607
▁marcia	-3608
▁nudità	-3609
▁pubbli	-3610
▁radunò	-3611
▁stanze	-3612
angoscia	-3613
▁annunzi	-3614
▁consegn	-3615
▁portico	-3616
▁ragione	-3617
▁salvare	-3618
▁sepolto	-3619
▁terreno	-3620
▁carestia	-3621
▁potevano	-3622
▁contamina	-3623
▁costruire	-3624
▁entrarono	-3625
▁trovarono	-3626
Onnipotente	-3627
▁circoncisi	-3628
▁superstiti	-3629
▁disprezzato	-3630
▁distruggere	-3631
Ba	-3632
Mi	-3633
Voi	-3634
ate	-3635
dra	-3636
rra	-3637
Alti	-3638
cera	-3639
endi	-3640
merà	-3641
nate	-3642
ppre	-3643
zare	-3644
▁Kad	-3645
▁lav	-3646
enaià	-3647
raneo	-3648
▁Asaf	-3649
▁Gher	-3650
▁Sara	-3651
▁fama	-3652
▁raff	-3653
▁seme	-3654
▁sino	-3655
▁spun	-3656
▁turb	-3657
▁vuol	-3658
edeone	-3659
ssacar	-3660
▁Balak	-3661
▁Kiria	-3662
▁amico	-3663
▁asini	-3664
▁cadde	-3665
▁capri	-3666
▁mando	-3667
▁nutri	-3668
▁piene	-3669
▁resti	-3670
▁scomp	-3671
▁vedrà	-3672
▁Benaià	-3673
▁condur	-3674
▁dipend	-3675
▁libero	-3676
▁peggio	-3677
ccasione	-3678
▁agnello	-3679
▁antichi	-3680
▁avrebbe	-3681
▁castigo	-3682
▁costruì	-3683
▁innanzi	-3684
▁inoltre	-3685
▁miseria	-3686
▁rimasto	-3687
▁soldati	-3688
▁trasgre	-3689
Altissimo	-3690
▁cadavere	-3691
▁coraggio	-3692
▁sinagoga	-3693
▁successo	-3694
▁valorosi	-3695
▁Partirono	-3696
▁malvagità	-3697
▁partirono	-3698
▁trovavano	-3699
▁abbondanza	-3700
▁generazioni	-3701
Pa	-3702
Su	-3703
abb	-3704
ann	-3705
tun	-3706
▁dò	-3707
arci	-3708
bele	-3709
gerò	-3710
inti	-3711
lerà	-3712
pito	-3713
tava	-3714
turi	-3715
▁Ada	-3716
▁Pri	-3717
▁fun	-3718
▁iso	-3719
▁sin	-3720
gherò	-3721
scano	-3722
volto	-3723
▁Fino	-3724
▁Izre	-3725
▁aggu	-3726
▁feci	-3727
▁imma	-3728
▁legg	-3729
▁nati	-3730
▁sete	-3731
Quando	-3732
Questo	-3733
ficato	-3734
▁Erode	-3735
▁abbat	-3736
▁andrà	-3737
▁corna	-3738
▁dormi	-3739
▁falso	-3740
▁mosse	-3741
▁regna	-3742
▁Ebbene	-3743
▁difesa	-3744
▁distin	-3745
▁esseri	-3746
▁percor	-3747
▁riposa	-3748
▁stolte	-3749
▁tramon	-3750
▁voluto	-3751
▁Gedeone	-3752
▁Giacomo	-3753
▁decreto	-3754
▁diletto	-3755
▁prender	-3756
▁ragazzo	-3757
▁vergine	-3758
▁facevano	-3759
▁migliaia	-3760
▁raccolto	-3761
▁sappiamo	-3762
▁ascoltate	-3763
▁orientale	-3764
▁venticinque	-3765
No	-3766
dic	-3767
man	-3768
▁Pu	-3769
altà	-3770
anze	-3771
cono	-3772
inai	-3773
piti	-3774
tino	-3775
▁Geb	-3776
▁Mar	-3777
▁Uno	-3778
▁dol	-3779
▁tru	-3780
gherà	-3781
rdici	-3782
vendo	-3783
▁Acaz	-3784
▁Nilo	-3785
▁canc	-3786
▁navi	-3787
▁recò	-3788
▁rial	-3789
▁sepa	-3790
▁vado	-3791
▁vivi	-3792
ggiare	-3793
minerò	-3794
▁Tutte	-3795
▁beste	-3796
▁cambi	-3797
▁intri	-3798
▁proge	-3799
▁scudo	-3800
▁socco	-3801
geranno	-3802
incenso	-3803
▁Guarda	-3804
▁anelli	-3805
▁ariete	-3806
▁conclu	-3807
▁grosso	-3808
▁maschi	-3809
▁minuto	-3810
▁ricomp	-3811
▁simili	-3812
▁abitano	-3813
▁avverrà	-3814
▁cintura	-3815
▁convocò	-3816
▁manifes	-3817
▁vittima	-3818
▁condotto	-3819
▁fortezza	-3820
▁giunsero	-3821
▁maggiore	-3822
▁precetti	-3823
▁sessanta	-3824
▁vedranno	-3825
▁deportati	-3826
▁annunziato	-3827
▁attenzione	-3828
▁quattordici	-3829
▁quattrocento	-3830
Bà	-3831
inf	-3832
tuo	-3833
▁Zo	-3834
teli	-3835
▁Ber	-3836
▁Dov	-3837
▁bar	-3838
▁fil	-3839
durrò	-3840
gando	-3841
rerai	-3842
ssere	-3843
ttavo	-3844
▁Rama	-3845
▁cade	-3846
▁dici	-3847
▁fumo	-3848
▁mala	-3849
▁osti	-3850
▁rete	-3851
▁riva	-3852
▁suon	-3853
▁tuni	-3854
Prendi	-3855
micida	-3856
sterna	-3857
▁Osser	-3858
▁culto	-3859
▁dallo	-3860
▁fermò	-3861
▁grave	-3862
▁inviò	-3863
▁lacri	-3864
▁leoni	-3865
▁monto	-3866
▁pesci	-3867
▁pozzo	-3868
▁senno	-3869
▁siclo	-3870
▁spera	-3871
intorno	-3872
▁adempi	-3873
▁concub	-3874
▁Issacar	-3875
▁mangerà	-3876
▁stabilì	-3877
▁Tuttavia	-3878
▁commette	-3879
▁converti	-3880
▁tuttavia	-3881
▁camminare	-3882
▁desiderio	-3883
▁diecimila	-3884
▁guerrieri	-3885
▁salvatore	-3886
▁costituito	-3887
il	-3888
oz	-3889
bui	-3890
len	-3891
nòn	-3892
tàn	-3893
▁Es	-3894
▁dì	-3895
Bàal	-3896
acco	-3897
bati	-3898
bbri	-3899
bria	-3900
brio	-3901
essi	-3902
geva	-3903
mono	-3904
▁Baa	-3905
▁Cam	-3906
▁Iab	-3907
▁Lib	-3908
aveva	-3909
carsi	-3910
erach	-3911
lgala	-3912
rovvi	-3913
siasi	-3914
ssima	-3915
versi	-3916
▁Amen	-3917
▁	-3918
e	-3919
i	-3920
a	-3921
o	-3922
r	-3923
n	-3924
l	-3925
t	-3926
s	-3927
c	-3928
d	-3929
u	-3930
p	-3931
m	-3932
g	-3933
v	-3934
,	-3935
h	-3936
f	-3937
b	-3938
z	-3939
S	-3940
q	-3941
à	-3942
'	-3943
ò	-3944
:	-3945
I	-3946
è	-3947
D	-3948
A	-3949
G	-3950
E	-3951
é	-3952
.	-3953
;	-3954
»	-3955
«	-3956
C	-3957
M	-3958
P	-3959
ì	-3960
ù	-3961
N	-3962
L	-3963
?	-3964
B	-3965
Q	-3966
T	-3967
F	-3968
!	-3969
R	-3970
O	-3971
-	-3972
V	-3973
k	-3974
U	-3975
Z	-3976
H	-3977
K	-3978
"	-3979
1	-3980
6	-3981
(	-3982
2	-3983
)	-3984
3	-3985
4	-3986
5	-3987
7	-3988
8	-3989
0	-3990
9	-3991
J	-3992
’	-3993
]	-3994
j	-3995
}	-3996
