<pad>	0
</s>	0
<unk>	0
¦	-1.38894
▁¦	-1.70408
▁	-3.27265
𐋇	-3.30001
▁,	-3.52142
u	-4.07476
a	-4.38094
e	-4.43383
o	-4.52758
▁.	-4.52828
i	-4.68024
ni	-4.88538
na	-5.06255
yo	-5.16195
▁:	-5.24748
▁;	-5.28661
“	-5.3313
wa	-5.40768
ku	-5.4898
ba	-5.54402
ka	-5.62264
kepha	-5.65846
nga	-5.6717
ngokuba	-5.70616
nkulunkulu	-5.81892
no	-5.82298
ne	-5.87902
▁.”	-5.94761
nke	-6.0254
ukuba	-6.02834
-	-6.03249
ngi	-6.03894
eni	-6.04362
aba	-6.05463
si	-6.10075
nge	-6.10175
lo	-6.12637
be	-6.14979
ukuthi	-6.17947
uku	-6.20247
wathi	-6.20479
le	-6.21111
li	-6.23137
ya	-6.25119
ngo	-6.31203
yi	-6.31805
ke	-6.31998
ko	-6.34266
la	-6.38323
khona	-6.38748
jes	-6.43169
uma	-6.43213
nkosi	-6.46942
kuye	-6.4914
kwa	-6.52356
za	-6.54472
we	-6.57376
zo	-6.5806
▁?	-6.61613
muntu	-6.62268
weni	-6.63709
kubo	-6.68623
sa	-6.73017
krist	-6.73174
ndla	-6.73661
se	-6.74025
zi	-6.75664
𐊣	-6.79886
𐊼	-6.79886
bo	-6.80007
so	-6.83072
kini	-6.84485
kodwa	-6.85463
ini	-6.87233
lokho	-6.87928
ye	-6.88017
wo	-6.88527
nxa	-6.8899
lu	-6.91457
noku	-6.96754
ngoku	-6.98422
lokhu	-6.98629
ngu	-7.00009
ngakho	-7.00874
ma	-7.0178
um	-7.02615
m	-7.06039
bathi	-7.07527
ze	-7.08565
ama	-7.09101
‘	-7.09218
isi	-7.12249
kwe	-7.1329
kwaba	-7.15243
n	-7.17511
lowo	-7.17546
▁?”	-7.19003
ukuze	-7.19857
bonk	-7.20532
kholwa	-7.20913
noma	-7.21499
moy	-7.22129
naba	-7.23237
eli	-7.28317
ile	-7.29219
pha	-7.29492
bili	-7.31773
lapho	-7.32289
oku	-7.32925
baba	-7.3376
kanye	-7.34018
izi	-7.36833
kube	-7.3721
lwa	-7.37517
mina	-7.38283
yena	-7.38838
de	-7.39484
nye	-7.40802
esi	-7.44293
nina	-7.44988
kwathi	-7.45215
phakathi	-7.4679
futhi	-7.47352
tha	-7.48088
ngcwele	-7.48536
njalo	-7.51777
yakhe	-7.52176
phezu	-7.54747
juda	-7.54844
nani	-7.55737
uj	-7.55767
phambi	-7.55785
mtheth	-7.56346
bu	-7.56374
thu	-7.57189
esu	-7.57829
leyo	-7.57976
kuthi	-7.58567
ezi	-7.60866
kho	-7.62583
pho	-7.62886
kwen	-7.63361
naye	-7.63389
izwi	-7.63982
bakhe	-7.66031
ningi	-7.66552
nama	-7.6661
▁.’	-7.66636
kakhulu	-7.68308
yini	-7.68869
ndodan	-7.69653
kwakhe	-7.70078
ese	-7.70534
gama	-7.73534
bheka	-7.73766
zalwane	-7.74021
funa	-7.74128
ngithi	-7.74204
ngena	-7.75744
sikhathi	-7.76038
wu	-7.76108
the	-7.77036
hamba	-7.77103
ela	-7.77584
kuphila	-7.79072
phi	-7.79975
waba	-7.80209
nase	-7.808
usa	-7.8151
kimi	-7.83524
base	-7.84373
nami	-7.84817
dwa	-7.85102
wena	-7.85779
phansi	-7.85852
suku	-7.85938
ngelosi	-7.8643
kuqala	-7.87004
babe	-7.87035
uya	-7.87454
rist	-7.87652
waye	-7.8794
ru	-7.89271
ndlu	-7.89904
mi	-7.89967
hlala	-7.90693
bona	-7.91287
kwabo	-7.91397
nezi	-7.92843
munye	-7.93521
abe	-7.93762
lika	-7.93961
thi	-7.94405
wayese	-7.95026
abanye	-7.95829
omunye	-7.96413
nabo	-7.96713
lwe	-7.97969
lutho	-7.98346
ngalokho	-7.98661
khuluma	-7.98728
ngiya	-7.99257
abafundi	-7.99267
sika	-7.99433
njengalokh	-8.00107
ninga	-8.00558
jer	-8.00648
hla	-8.01085
kuka	-8.01491
kuphela	-8.01775
nalowo	-8.02133
shumi	-8.02304
vela	-8.03804
bantu	-8.0392
file	-8.05064
misebenzi	-8.05519
lema	-8.05978
zwi	-8.06061
abantu	-8.06098
eziyi	-8.06724
zwe	-8.07037
manje	-8.08081
emv	-8.09016
uyaku	-8.09572
kuze	-8.09933
labo	-8.09964
bi	-8.10872
phe	-8.11106
kuwe	-8.11205
fa	-8.11219
nom	-8.11364
w	-8.11754
kwazi	-8.11763
abo	-8.11804
pawu	-8.12321
ezulw	-8.12507
in	-8.12985
ki	-8.13814
musa	-8.14013
lakhe	-8.14221
qinisile	-8.15188
nam	-8.15976
ngiyaku	-8.16084
phandle	-8.1651
h	-8.16528
kanjalo	-8.16532
khuleka	-8.16649
k	-8.16669
nguye	-8.17366
me	-8.17513
is	-8.17642
pet	-8.18173
isa	-8.18189
kuba	-8.18378
zwa	-8.18559
phuma	-8.19242
wayeseth	-8.19366
ngaye	-8.19385
sebe	-8.19659
ayi	-8.20113
wam	-8.2023
nkazimul	-8.20421
yise	-8.20539
s	-8.22022
thanda	-8.22456
yami	-8.22731
njengokuba	-8.23266
kade	-8.23346
vangeli	-8.23712
enga	-8.24768
ng	-8.25689
da	-8.26036
fu	-8.2607
zakhe	-8.26688
esifazane	-8.27086
masinya	-8.2712
indoda	-8.27312
sixuk	-8.27352
zulu	-8.27598
anga	-8.27917
johan	-8.28084
thina	-8.28756
ndle	-8.29421
mazwi	-8.30425
kwase	-8.30442
mvu	-8.30587
ngama	-8.31162
ngase	-8.32053
iya	-8.32197
ngaba	-8.32582
sikhombis	-8.32632
hlezi	-8.33095
waphendula	-8.33628
laba	-8.33799
yethu	-8.3467
siya	-8.34721
nyama	-8.34721
iwe	-8.35025
far	-8.35268
qinis	-8.35684
kuyo	-8.35867
thula	-8.35906
khulu	-8.36777
em	-8.36786
ndawo	-8.37248
dla	-8.37531
ezwe	-8.37544
ngokuthi	-8.382
ani	-8.38346
ethi	-8.38376
hle	-8.38713
kwam	-8.38884
zen	-8.39258
mbe	-8.39439
nhliziyo	-8.40538
kulo	-8.40667
bam	-8.40714
yathi	-8.40734
kile	-8.40785
kwenza	-8.40839
wakhe	-8.41015
kha	-8.41463
fanele	-8.41544
nje	-8.42064
awu	-8.42675
khonza	-8.42982
gazi	-8.43504
yen	-8.43863
themba	-8.43863
kukhona	-8.45043
mo	-8.45359
imi	-8.45459
aka	-8.46177
thokoza	-8.46208
ababe	-8.4621
kithi	-8.46268
yakho	-8.47256
lesi	-8.47509
▁,”	-8.48301
wami	-8.48323
ngesi	-8.48503
yebo	-8.48744
l	-8.48891
kunge	-8.4913
lunga	-8.49163
baya	-8.49181
izwe	-8.49285
oya	-8.49661
uthi	-8.49896
bani	-8.49946
kanja	-8.50385
lele	-8.50713
nokuba	-8.5172
ngalo	-8.52318
umbus	-8.52554
sakhe	-8.5275
beka	-8.52827
kwakho	-8.52964
kuthe	-8.53089
bhekani	-8.53171
wazi	-8.53425
kudla	-8.53616
vuka	-8.53751
mp	-8.53962
zimba	-8.54075
thand	-8.54376
endl	-8.55698
manzi	-8.56063
tho	-8.5615
zinto	-8.56455
lapha	-8.56758
nakho	-8.57828
wethu	-8.57889
niya	-8.58127
ngubani	-8.58143
fundisa	-8.58317
fanekis	-8.5841
abayi	-8.59188
uzaku	-8.59338
sto	-8.59559
memeza	-8.5956
asi	-8.60084
owa	-8.60218
thile	-8.60731
leli	-8.60807
▁,’	-8.60863
shumayela	-8.60885
engi	-8.60888
melwe	-8.6118
mkhulu	-8.61272
ngani	-8.62455
kukho	-8.6276
b	-8.62909
angi	-8.62931
lungile	-8.63411
loku	-8.64066
ray	-8.64167
lase	-8.64207
bayaku	-8.64765
khanda	-8.64942
mbi	-8.64967
dle	-8.65059
simo	-8.65338
wase	-8.65709
kwakukhona	-8.66069
nene	-8.67001
zabo	-8.67058
fika	-8.67185
okukhulu	-8.6751
ezizwe	-8.67658
kuzwa	-8.67964
sho	-8.6803
ump	-8.68415
ngokwe	-8.68468
okuhle	-8.68724
un	-8.69148
ngathi	-8.69149
ele	-8.6932
esa	-8.69718
lami	-8.70062
bazi	-8.70407
bukhosi	-8.70965
abra	-8.70969
eza	-8.71007
obe	-8.71096
banga	-8.7113
ow	-8.71389
soku	-8.7143
waya	-8.71607
niyaku	-8.71624
f	-8.71688
athu	-8.71937
enye	-8.71949
hama	-8.72395
limi	-8.72473
galil	-8.73682
emhlab	-8.7373
mbus	-8.74026
aku	-8.74361
ethempeli	-8.7501
khu	-8.75149
eya	-8.75198
sha	-8.75413
ngom	-8.75625
abakhulu	-8.7607
bethi	-8.7611
koku	-8.77553
nathi	-8.77915
mazi	-8.78392
njengo	-8.78403
ose	-8.78676
mashumi	-8.78679
mpela	-8.79118
onga	-8.79223
▁”	-8.79453
naku	-8.79582
kungathi	-8.8017
njenge	-8.80273
kulotshiwe	-8.81146
indi	-8.81495
othi	-8.81761
ngazi	-8.81766
ezint	-8.81906
sizwe	-8.82006
elo	-8.82041
jak	-8.82348
nika	-8.82719
thembis	-8.82753
up	-8.82981
uqo	-8.83765
sesi	-8.84178
zwile	-8.84184
yaba	-8.84613
thuma	-8.84671
yala	-8.84711
kwethu	-8.84886
leso	-8.85035
ngabe	-8.85051
wakho	-8.85253
fi	-8.85664
nde	-8.85709
yabo	-8.85856
ngaphambi	-8.85861
kubona	-8.86227
kwenze	-8.86246
bhali	-8.86913
d	-8.87043
sindis	-8.87463
us	-8.87525
abatha	-8.87691
madoda	-8.88048
nesi	-8.88063
kungabi	-8.8846
sathan	-8.88478
nawe	-8.88713
phendula	-8.88846
mari	-8.88903
inkosi	-8.89469
thela	-8.89859
biza	-8.89951
seku	-8.90069
di	-8.90166
nibe	-8.90262
tshe	-8.90357
wana	-8.90391
fumana	-8.90483
beza	-8.90549
iso	-8.90765
kuso	-8.90934
nda	-8.91182
cela	-8.91496
elikhulu	-8.9156
olu	-8.91821
akakho	-8.91867
fakaza	-8.91897
zulw	-8.9206
msebenzi	-8.92316
wabo	-8.92668
khanya	-8.92826
c	-8.93086
nange	-8.93353
kufika	-8.93399
kazi	-8.93524
amadoda	-8.93717
am	-8.93781
dum	-8.93911
bufakazi	-8.93965
bakho	-8.93975
abanga	-8.94009
elwa	-8.94044
yimi	-8.9407
nazi	-8.94206
izinsuk	-8.94826
atu	-8.95146
zizwe	-8.95169
kuya	-8.95322
lela	-8.95352
cal	-8.95472
lilo	-8.95505
lakho	-8.95556
yihlo	-8.95625
uyi	-8.95791
kahle	-8.95802
bulala	-8.95826
lomo	-8.96086
mba	-8.96102
ngizaku	-8.96824
phu	-8.96929
manga	-8.97077
ngezi	-8.97305
benga	-8.97433
mbona	-8.97454
ngomus	-8.97466
lile	-8.98219
yoku	-8.983
qha	-8.98619
kanti	-8.9863
busisiwe	-8.98772
kuyi	-8.99098
hlo	-8.99307
amehl	-8.99343
hlane	-8.99398
ngakholwa	-8.994
linye	-8.99976
ubu	-9.00307
iza	-9.00449
abantwan	-9.0053
kuvela	-9.00787
yisi	-9.0085
bone	-9.0121
om	-9.01273
mhla	-9.01527
luka	-9.01585
nemi	-9.01613
kugcina	-9.01896
bami	-9.01976
sizi	-9.02007
dem	-9.02009
mhlaba	-9.02086
▁!”	-9.02223
omkhul	-9.02928
bala	-9.02976
muzi	-9.03018
nokho	-9.03024
kusuk	-9.03065
sin	-9.03649
emzi	-9.03833
tsha	-9.03864
unga	-9.03891
sihlan	-9.04355
nguku	-9.04372
sibe	-9.04721
khipha	-9.04735
nikela	-9.05115
nangoku	-9.05659
buthakathak	-9.05961
izon	-9.06051
enu	-9.06386
esikhulu	-9.06455
othile	-9.06936
y	-9.07014
hor	-9.07485
ngiku	-9.0759
benza	-9.07611
shiya	-9.07629
mhlo	-9.07663
woku	-9.07758
ngum	-9.0782
dlula	-9.08151
ukufa	-9.0849
oni	-9.08523
maka	-9.08525
kukhuluma	-9.09865
su	-9.10002
emi	-9.1071
ngene	-9.1082
ncenga	-9.10969
baprofethi	-9.11003
uthe	-9.1122
iqinis	-9.1129
yizi	-9.11327
nithi	-9.11499
zinceku	-9.11883
okuphaka	-9.12065
p	-9.12173
babo	-9.12314
maye	-9.12357
landela	-9.12414
hambe	-9.12732
khe	-9.12829
letha	-9.13197
wasi	-9.13292
phenduka	-9.13523
thumela	-9.13661
saba	-9.13692
langa	-9.13883
mpof	-9.13915
eyi	-9.13992
kwab	-9.14151
hlanganyel	-9.1436
ungu	-9.14527
ize	-9.14725
sondela	-9.14734
khala	-9.14881
kwaku	-9.15188
butha	-9.15548
owaye	-9.15602
thempeli	-9.15682
akukho	-9.15848
kesari	-9.15971
buka	-9.1621
ny	-9.16531
egam	-9.16546
bumnyam	-9.16639
yona	-9.17091
phila	-9.1844
bonile	-9.18612
wen	-9.18647
ala	-9.18893
bantwan	-9.19112
ema	-9.19145
sindiswa	-9.19286
sami	-9.19449
duduz	-9.19473
kubant	-9.1948
kusho	-9.19565
bem	-9.19749
bar	-9.19942
fakazi	-9.19973
makhosi	-9.20326
thole	-9.20732
z	-9.20922
kuse	-9.21018
kuhle	-9.21437
ha	-9.21757
esiphamban	-9.22208
gr	-9.22493
ndi	-9.22655
herod	-9.22685
mbo	-9.22871
jud	-9.23024
abap	-9.23192
kwafik	-9.23244
abase	-9.23258
uhla	-9.23289
suka	-9.23493
sebenzi	-9.23539
kwesaba	-9.23976
umfow	-9.23978
eki	-9.241
nzi	-9.24362
ra	-9.24564
ngabo	-9.24702
gula	-9.24766
weza	-9.25108
nyaka	-9.25131
uva	-9.25177
wabona	-9.25222
ukum	-9.25443
izix	-9.25732
lithi	-9.26164
yayi	-9.26339
lawo	-9.26369
ngemi	-9.26446
ngibona	-9.26517
zinkulungwa	-9.26685
kela	-9.26722
hlobo	-9.26793
kuyaku	-9.26857
iminya	-9.2719
bayi	-9.27253
ezimbi	-9.27292
uthand	-9.27586
kuzo	-9.27632
ngesa	-9.27687
izingu	-9.27717
lwakh	-9.28024
lisa	-9.28029
yawo	-9.28088
akhe	-9.28145
ngisho	-9.28201
kum	-9.28229
ngekho	-9.28337
wayi	-9.28426
gcina	-9.28457
kwaze	-9.28531
njenga	-9.28797
abaning	-9.288
nginga	-9.28864
wakhuluma	-9.29005
ezinga	-9.29464
waqala	-9.29472
mkhunj	-9.29474
ngakwesok	-9.29499
amane	-9.29635
lukhu	-9.29648
mehl	-9.2967
yazi	-9.29734
yayo	-9.29943
kunga	-9.30228
ngawo	-9.30332
lalela	-9.30456
ngiyi	-9.30579
ezining	-9.30735
hi	-9.30767
mzimb	-9.30876
mali	-9.31006
butho	-9.31137
ngayo	-9.31497
aye	-9.31685
omuhl	-9.31816
ngobu	-9.31837
sukuma	-9.31865
kubafundi	-9.31892
goli	-9.3191
ngceb	-9.31925
ngezw	-9.31962
buye	-9.32019
endaw	-9.32114
umzalwane	-9.32248
pil	-9.32255
iswa	-9.32451
al	-9.32667
zami	-9.32766
sithi	-9.32962
buza	-9.33114
izinya	-9.33166
ubus	-9.33315
mhlabathi	-9.33586
yayisi	-9.33704
gcwele	-9.33715
thatha	-9.33846
etr	-9.33921
kule	-9.33987
lula	-9.34075
mele	-9.34314
kw	-9.34328
kulunkulu	-9.3433
phonsa	-9.34665
mbethe	-9.35142
kude	-9.35231
bekezela	-9.35349
phika	-9.35429
zinsuk	-9.3559
use	-9.357
swa	-9.35728
mfundis	-9.35892
hlupheka	-9.36
siye	-9.36383
umuzi	-9.366
sazi	-9.36655
njengaba	-9.36667
wabuye	-9.36866
vule	-9.36939
ngqond	-9.36975
▁?’	-9.36985
wayini	-9.36988
zikhathi	-9.3699
hlambalaza	-9.37136
siyazi	-9.3734
seni	-9.37574
ngize	-9.37583
athi	-9.37841
zoku	-9.37937
nab	-9.37956
qonda	-9.38148
yase	-9.38232
liphu	-9.38335
azi	-9.38492
baka	-9.38721
siyi	-9.38946
ho	-9.38995
okung	-9.39145
wazal	-9.39159
siyaku	-9.39299
eliya	-9.39302
beni	-9.39602
muke	-9.39676
okubi	-9.3976
ntand	-9.39762
siza	-9.39949
zelwe	-9.39974
wamuka	-9.40001
lelwa	-9.40034
muka	-9.40067
inceku	-9.40346
phatha	-9.40349
sebenza	-9.4071
wafika	-9.4078
nges	-9.40817
zethu	-9.40883
ab	-9.40916
wenza	-9.41069
khumbula	-9.41484
yikho	-9.41653
fana	-9.41697
hlakanipha	-9.4217
ayo	-9.42188
etilong	-9.4231
ngithumile	-9.4236
jose	-9.42442
nanga	-9.42727
ngeni	-9.42731
yeza	-9.431
lizwa	-9.43543
enkulu	-9.43627
zika	-9.43781
khi	-9.43812
fiki	-9.43858
esihlal	-9.43881
zindl	-9.4398
liwe	-9.43989
maqo	-9.44084
umprofethi	-9.44284
yibo	-9.44464
jo	-9.44511
zile	-9.44565
abaprofethi	-9.4465
zibonga	-9.44803
bonakala	-9.44892
kuqale	-9.45088
gan	-9.45302
linga	-9.45354
mu	-9.45395
yenza	-9.45501
izithe	-9.45769
kele	-9.45817
ndoda	-9.45941
sihawu	-9.46238
thele	-9.46257
lunye	-9.46342
ali	-9.46418
phawu	-9.4652
sasi	-9.46608
yama	-9.46828
khulume	-9.46829
singa	-9.47077
yisa	-9.4712
lahlwa	-9.47197
nawo	-9.47197
ifa	-9.47217
tar	-9.47478
nya	-9.4785
kuna	-9.48255
laka	-9.485
khali	-9.48522
bonga	-9.48841
ekudl	-9.48967
fazi	-9.49067
kabi	-9.4915
imp	-9.49812
ngini	-9.49836
phelele	-9.49918
kukholw	-9.49939
okwa	-9.50187
nango	-9.50202
nabafundi	-9.50288
waphuma	-9.50312
sikhashan	-9.50888
zaba	-9.50924
indun	-9.51366
hambi	-9.51435
nqum	-9.51511
kwenzeka	-9.51582
esefik	-9.52029
ben	-9.52087
ngami	-9.5247
qonde	-9.52544
uyise	-9.52636
hlale	-9.52721
faka	-9.52864
enhliziy	-9.53021
weyo	-9.53053
lingu	-9.53215
izinto	-9.53729
vunyelw	-9.53916
ethu	-9.53995
benze	-9.54019
buthe	-9.54156
ngaso	-9.54159
phulukisa	-9.54443
azare	-9.54635
intand	-9.54936
duze	-9.54937
lezi	-9.55034
vula	-9.55118
fike	-9.5528
thini	-9.55379
hambani	-9.55542
hlis	-9.55796
udum	-9.55914
funda	-9.55967
ngwa	-9.56345
sila	-9.56352
ube	-9.56514
gcwal	-9.56569
ncwadi	-9.56593
dli	-9.56611
ase	-9.56612
ngeza	-9.56641
babusi	-9.56694
x	-9.56751
engena	-9.56906
bethu	-9.56992
nxusa	-9.57062
zonda	-9.57574
kwavela	-9.57916
mabandl	-9.58025
zalwa	-9.58208
kosi	-9.58307
zibonakalis	-9.58419
ezine	-9.5855
lali	-9.58572
ndana	-9.58573
umyal	-9.58641
bamangal	-9.58715
amen	-9.5915
thabatha	-9.59186
usuku	-9.59187
owenza	-9.59327
iyaku	-9.5943
inhliziyo	-9.59705
amanga	-9.59867
lony	-9.59947
yeka	-9.59979
phuza	-9.6012
ngithanda	-9.60227
wafa	-9.60246
sivumelwan	-9.60267
sizukulwane	-9.60267
thembekile	-9.60374
gibi	-9.60542
mphefumul	-9.60578
isin	-9.60685
kungesi	-9.60758
sishiyagalo	-9.60789
esandl	-9.60804
nceku	-9.61063
kufa	-9.61179
busa	-9.61424
thwa	-9.61527
wula	-9.61595
wona	-9.61669
hu	-9.62054
emihle	-9.62182
sana	-9.62435
zela	-9.62488
j	-9.62532
unina	-9.6291
naphaka	-9.6304
yalo	-9.63073
abakholwa	-9.63089
mnika	-9.63101
bazaku	-9.63317
shwa	-9.63477
baze	-9.63488
umnt	-9.63508
r	-9.63714
profetha	-9.63784
ngam	-9.63786
kufanele	-9.638
soka	-9.638
kangaka	-9.63804
amad	-9.63843
thewu	-9.63879
nkulungwa	-9.64192
lungel	-9.64211
indlela	-9.64434
besi	-9.64536
phethe	-9.64639
ethun	-9.64766
ri	-9.64782
ebus	-9.64933
wawu	-9.64977
matshe	-9.65064
kuyakub	-9.65149
bemi	-9.65225
awulu	-9.65277
nakuba	-9.65605
ukwenza	-9.65642
bese	-9.65846
sondel	-9.65847
mbusi	-9.66036
ebona	-9.66157
iband	-9.66407
bonakalis	-9.66779
inyama	-9.66806
kwabant	-9.66936
nqoba	-9.67051
ngenza	-9.67103
khulek	-9.67235
sela	-9.67267
ngoko	-9.67286
oyaku	-9.67289
wathatha	-9.67668
esinagoge	-9.67898
thandeka	-9.68139
ngenzi	-9.68175
kwezin	-9.68207
sakho	-9.68259
entab	-9.68279
besa	-9.68525
phathi	-9.6859
bezi	-9.68907
baphendula	-9.68947
sengi	-9.69096
hlukanis	-9.69096
len	-9.69177
lahla	-9.69563
wesi	-9.69595
nikwa	-9.69809
njengoku	-9.70035
ngalez	-9.70285
sise	-9.70301
itshe	-9.70378
ene	-9.70448
ebu	-9.70532
khethiwe	-9.70638
mangalis	-9.70663
mkhosi	-9.707
kedoni	-9.70711
okunga	-9.70724
sile	-9.70794
nenza	-9.71042
mbhapathiz	-9.71053
okwe	-9.71255
ise	-9.71476
ngokunjalo	-9.71642
khwe	-9.7168
nta	-9.71703
okazi	-9.71959
utho	-9.72023
mvusa	-9.72246
lis	-9.72264
ningaba	-9.72271
izizwe	-9.72358
enhle	-9.7237
lani	-9.72701
naka	-9.72725
msindis	-9.72824
kungu	-9.72827
yezi	-9.72931
ngise	-9.73056
kungalungi	-9.73123
ziyaku	-9.73184
chitha	-9.73286
masi	-9.73331
ndlela	-9.73336
makub	-9.73362
sifundis	-9.73501
ungum	-9.7355
kuno	-9.73619
mlandela	-9.73678
shay	-9.73686
kholwe	-9.73913
nen	-9.74078
ezinhliziy	-9.74168
mbul	-9.74288
zinkanuk	-9.74329
simu	-9.74435
ndodakazi	-9.74563
sam	-9.74637
ngcolile	-9.74779
khula	-9.74789
mesaba	-9.74935
sekel	-9.74996
phuze	-9.75104
du	-9.75244
kuza	-9.75255
qinisa	-9.75402
thola	-9.75809
nj	-9.7584
im	-9.76089
kugcwalisek	-9.76092
sabo	-9.76504
njan	-9.76547
bali	-9.76573
ngco	-9.76615
ukuya	-9.7716
bafika	-9.7719
besaba	-9.77212
seli	-9.77219
thwe	-9.77221
thethelelw	-9.77348
bhubha	-9.77425
ngibe	-9.77685
nto	-9.77825
nizaku	-9.77864
ariy	-9.78134
jabula	-9.7817
liva	-9.7817
kwenzile	-9.78319
wele	-9.78323
ndaba	-9.78334
sezinyaw	-9.78433
amatha	-9.78506
zenza	-9.78553
ngiye	-9.78691
nisa	-9.7881
libe	-9.78893
nim	-9.79024
bufebe	-9.79085
lama	-9.7923
bhapathiza	-9.79355
zazi	-9.79471
khumb	-9.79476
kufike	-9.79492
dabul	-9.79648
ukwahlulel	-9.79838
emon	-9.79872
kwesi	-9.79904
ane	-9.80028
khonzi	-9.80173
loba	-9.80234
mbuza	-9.80303
vuswa	-9.80554
bezwa	-9.80731
woza	-9.80907
linda	-9.80911
umbhal	-9.80993
ithi	-9.81023
bathandeka	-9.81068
ndwang	-9.81115
komhlaba	-9.81594
wenze	-9.81713
ef	-9.81726
mfihlakal	-9.8217
khuthazela	-9.82171
obu	-9.82172
zithombe	-9.82196
incwadi	-9.82271
nembe	-9.82276
ngisa	-9.82298
thimo	-9.82314
febe	-9.82421
abafi	-9.8245
bele	-9.82464
bethelw	-9.82542
khuza	-9.82605
mbamba	-9.82647
ngayiku	-9.82708
bambe	-9.82728
kwalo	-9.8283
iyu	-9.8284
tshela	-9.82973
nithanda	-9.82997
niyazi	-9.8306
masinagoge	-9.83122
baye	-9.83183
yam	-9.83334
mnya	-9.83473
phiwa	-9.83489
ami	-9.83571
ndu	-9.83616
susa	-9.83647
thethelela	-9.83881
betha	-9.83884
kunjalo	-9.84003
nas	-9.84115
kungena	-9.84365
namalu	-9.85052
hawukel	-9.85061
sezi	-9.85164
mphendula	-9.85203
ngokwa	-9.85253
kunguku	-9.85607
enyam	-9.85644
she	-9.85706
kwahlulel	-9.85836
mar	-9.86073
anti	-9.86309
sivini	-9.86337
khululekile	-9.86341
bonwa	-9.86381
▁;’	-9.86397
eze	-9.86516
rom	-9.86795
yayisith	-9.87031
ipha	-9.87072
ahla	-9.87167
khiphe	-9.87227
izin	-9.87269
phela	-9.87383
liya	-9.87389
ebe	-9.87573
ukulung	-9.87584
esizwe	-9.87666
zinga	-9.87704
ingub	-9.87845
mthanda	-9.87875
wela	-9.88076
linganis	-9.88123
ngabona	-9.88512
nababe	-9.88574
kungaba	-9.88657
sikhonzi	-9.88684
yilo	-9.88733
akusi	-9.89151
ngikhuluma	-9.89429
phonsw	-9.8944
ngomkhu	-9.89805
ngezin	-9.89829
ubi	-9.89971
isilo	-9.90038
abapho	-9.90288
isib	-9.90306
ngaphezu	-9.90544
hlangothi	-9.90691
nabafow	-9.90728
qondi	-9.90885
phambene	-9.90964
mibhal	-9.90974
ngemihla	-9.91121
zin	-9.91199
phiwe	-9.91222
ngingu	-9.91333
boshiwe	-9.91367
ophila	-9.91433
nca	-9.91523
mahlulel	-9.91528
melana	-9.91745
mukeliswa	-9.91765
sithanda	-9.91998
bakholwa	-9.92003
khazimulis	-9.92028
nalo	-9.92129
phesh	-9.92193
yane	-9.92236
yesi	-9.92246
zisa	-9.92591
sawul	-9.92702
sisa	-9.92775
khetha	-9.92909
isitsh	-9.92983
khubekis	-9.93177
umvuz	-9.93193
mise	-9.93278
nezin	-9.93365
nenze	-9.93388
ngokwam	-9.93394
hlwanyela	-9.93607
kuphi	-9.93693
lwane	-9.9385
bengi	-9.93875
endlel	-9.93929
izith	-9.94255
mawu	-9.9427
mprofethi	-9.9444
nothand	-9.94499
sibo	-9.94543
kolw	-9.94663
nzal	-9.94718
thelisi	-9.95028
ngumuphi	-9.95263
usi	-9.95306
owazi	-9.95445
hlulela	-9.95524
kuvuk	-9.95626
kariy	-9.95668
badla	-9.95965
ngozi	-9.9611
kungaka	-9.96191
kuzwile	-9.96413
ngenisa	-9.96457
yemi	-9.96553
esinga	-9.96645
wama	-9.96692
mela	-9.96887
bebona	-9.96926
xway	-9.97072
misa	-9.97076
ningabi	-9.97124
nquma	-9.97238
bamukel	-9.97246
on	-9.97421
umkakh	-9.97604
memezel	-9.97616
wayo	-9.97866
vumela	-9.98067
kwama	-9.98178
nitshela	-9.98205
wasuka	-9.98318
dabuka	-9.98406
uyakuba	-9.98621
fuman	-9.98791
khubek	-9.98912
anazi	-9.98913
imihla	-9.9916
isithe	-9.99204
mandl	-9.99222
dani	-9.99626
bhe	-9.9965
ndulela	-9.99723
zom	-9.999
ceb	-9.99963
ngilandele	-9.99992
kukhanye	-9.99993
lungisiswa	-10
mpande	-10.0002
akusikh	-10.0004
zinhluphek	-10.0007
buyel	-10.0012
ngiyani	-10.0016
philile	-10.002
ethile	-10.0024
bheke	-10.0028
isibonakalis	-10.0033
cebile	-10.0037
muzwa	-10.0054
naso	-10.0063
into	-10.0069
izibonakalis	-10.0087
sizwa	-10.0107
ngim	-10.0111
umkhumb	-10.0111
bakhuluma	-10.0121
chith	-10.0121
nabantwan	-10.0126
upha	-10.0133
engum	-10.0139
dala	-10.0139
kwezw	-10.0167
ngiyazi	-10.0182
nhlan	-10.0197
kwawo	-10.0237
ungubani	-10.024
izinkw	-10.025
bamanga	-10.0251
isaka	-10.0256
selwa	-10.0257
ukubona	-10.0257
neze	-10.0267
okholwa	-10.0314
phinda	-10.0345
dumisa	-10.035
imvu	-10.0356
ayaku	-10.0366
okuningi	-10.0371
sakwa	-10.0375
bafumana	-10.0378
zuz	-10.04
qhube	-10.0411
mphathi	-10.0419
abazal	-10.045
zanga	-10.0453
nele	-10.0465
kom	-10.0482
zingela	-10.0514
bus	-10.0516
landisa	-10.0529
nhloko	-10.0533
izimp	-10.0545
yekhulu	-10.0545
lahlekelwa	-10.055
bambuza	-10.0556
ekha	-10.0559
lukhulu	-10.0564
fokazi	-10.0571
ukuza	-10.0572
fisa	-10.058
shilo	-10.0583
umi	-10.0598
akusho	-10.0634
ongena	-10.0669
bhapathizwa	-10.0675
ababi	-10.0686
hlwanyel	-10.0705
okuyi	-10.0706
ukuthul	-10.0713
ncin	-10.0732
ezinhl	-10.0739
basho	-10.0744
lungis	-10.0753
ngeze	-10.077
fundisi	-10.0791
mukis	-10.0798
wema	-10.0823
abakhile	-10.0833
sibonakalis	-10.0849
lazi	-10.0853
nesib	-10.0893
ziboph	-10.0896
zakh	-10.091
babona	-10.0929
hlela	-10.0929
umhlaba	-10.094
oza	-10.0949
khaphela	-10.0977
bheki	-10.0991
ntaba	-10.0995
thobela	-10.0999
guny	-10.1025
guqul	-10.1025
ntombazan	-10.1026
▁;”	-10.103
wamukela	-10.1036
ngasho	-10.1038
kwesihla	-10.1039
hlanga	-10.1062
hlushwa	-10.1072
ngasem	-10.1072
sona	-10.1074
kwamukela	-10.1087
nyukela	-10.1089
uze	-10.1093
yinkosi	-10.1096
ngalaleli	-10.1108
nize	-10.1135
fakazela	-10.1148
ngezwa	-10.1163
njengom	-10.118
size	-10.1185
swele	-10.1189
ngawe	-10.1208
lwen	-10.1211
bangena	-10.1216
niye	-10.1228
emini	-10.1243
hunyu	-10.1257
hluph	-10.1275
nobu	-10.1279
phakamisa	-10.128
shelwa	-10.1294
ding	-10.1307
washo	-10.1317
phonse	-10.1332
asiya	-10.1337
siphamban	-10.1366
ziya	-10.1425
kwezi	-10.1437
khonze	-10.146
behamba	-10.146
mthatha	-10.1473
dalw	-10.1483
behlel	-10.1501
nonina	-10.1506
uhlala	-10.1508
zase	-10.1555
khathazek	-10.1564
qinile	-10.1581
2	-10.1581
shisekel	-10.1585
jor	-10.1589
rabi	-10.159
akayiku	-10.1595
abu	-10.1596
sifazane	-10.1602
miphefumul	-10.1606
gcwalisa	-10.1607
musha	-10.1609
qoth	-10.1625
senza	-10.1628
nangama	-10.1632
nikele	-10.165
ica	-10.1688
gqila	-10.1715
ning	-10.1717
liyaku	-10.1722
zala	-10.1735
sathi	-10.1735
alifa	-10.1742
ngokunga	-10.1755
sendlel	-10.177
kwemi	-10.1776
lawa	-10.1776
ithu	-10.1782
mile	-10.1838
bulo	-10.1842
bafel	-10.1861
kubi	-10.1866
hlakaniphile	-10.1907
imiyal	-10.1908
yize	-10.1911
lungisela	-10.1912
lungisa	-10.1929
nte	-10.1946
wala	-10.1966
uzakuba	-10.1969
kuyini	-10.1973
es	-10.1973
yikhona	-10.2013
qed	-10.2014
yeli	-10.2017
bamba	-10.2034
isihla	-10.204
kuphikisa	-10.2041
ethanda	-10.2058
nasezi	-10.2064
ngesib	-10.2089
nkonz	-10.21
ngokwesi	-10.2102
zimu	-10.2104
fela	-10.2107
khombis	-10.2115
bubi	-10.2124
kelwa	-10.2125
hane	-10.2126
uyazi	-10.2137
othand	-10.2161
hhashi	-10.2169
hlukene	-10.217
khohlisa	-10.217
gijimela	-10.217
okwesitha	-10.2173
lungisele	-10.2173
mhlambi	-10.2176
cele	-10.2183
bulawa	-10.2187
zezi	-10.22
thenga	-10.2209
oma	-10.221
bingelela	-10.2221
ngifuna	-10.2243
bonakaliswa	-10.2259
ngizakuku	-10.227
semhlab	-10.2271
feze	-10.2273
gcine	-10.2275
makez	-10.2277
babuye	-10.2279
ngump	-10.228
mqond	-10.2283
bikela	-10.2291
engaka	-10.2295
buya	-10.2297
ngamad	-10.23
njengezi	-10.2313
ngiphe	-10.2319
iqhu	-10.2323
kwenziwa	-10.2324
kusa	-10.2329
kungenzek	-10.233
mkhaphela	-10.2354
lelwe	-10.2364
kushay	-10.2367
zindlela	-10.2378
ukukhany	-10.2401
unama	-10.2421
ngizwa	-10.2421
yingco	-10.2435
thokozisa	-10.2441
ju	-10.2452
thabath	-10.2455
kukhulu	-10.2458
kor	-10.2458
aze	-10.2459
mafu	-10.2459
gatsha	-10.2461
kwambulw	-10.2475
shumayele	-10.2506
hlan	-10.2509
kungco	-10.2528
sase	-10.2534
zam	-10.2541
busisa	-10.2547
sihambe	-10.2576
manyal	-10.2579
luleka	-10.2581
wehlela	-10.2582
zifundis	-10.2583
sawo	-10.2587
bangaba	-10.2596
sala	-10.2602
kap	-10.2606
kuphil	-10.2617
nabase	-10.2648
lom	-10.2672
awume	-10.2678
kubap	-10.2681
ezandl	-10.2699
muhl	-10.2703
ukuzi	-10.2706
niyala	-10.2716
isile	-10.2717
nasema	-10.2733
kumbe	-10.2734
bezwe	-10.2757
dela	-10.276
yaso	-10.2762
lwesith	-10.2768
namukel	-10.2776
kukhonza	-10.2785
tshi	-10.2788
baph	-10.2791
ern	-10.2792
ntwan	-10.2794
qaphelan	-10.2794
enqab	-10.2794
qambi	-10.2794
buhlung	-10.2794
thukuthela	-10.2794
khulula	-10.2795
shesha	-10.2797
mkhiwane	-10.2797
hlangabeza	-10.2799
zinkanyezi	-10.2799
miselwe	-10.28
khwelwe	-10.2801
waze	-10.2816
zamazam	-10.2819
ngowo	-10.2828
elis	-10.283
ziphendulel	-10.2835
emlil	-10.2847
fes	-10.2856
enza	-10.2857
dama	-10.2862
zibe	-10.2874
namahlon	-10.2875
zange	-10.288
ongwe	-10.2886
izaku	-10.2906
mnike	-10.2915
okwakhulunywa	-10.2927
ongum	-10.2936
shunyayelw	-10.2937
thule	-10.2952
qeda	-10.2957
yizin	-10.2959
yima	-10.2964
zihlal	-10.2965
ahlale	-10.2977
wezi	-10.2989
bha	-10.2997
abela	-10.3029
lwase	-10.303
beb	-10.3031
nx	-10.3053
mene	-10.3059
suke	-10.3073
bubele	-10.3088
den	-10.3088
lenta	-10.3088
nendoda	-10.3089
sokuba	-10.3092
sithel	-10.3096
ninika	-10.3101
yin	-10.3102
sokile	-10.311
yok	-10.3122
mikhulek	-10.3145
mbhal	-10.3148
abangena	-10.3153
yilokhu	-10.3154
dlule	-10.3156
ngikusho	-10.3158
odwa	-10.3161
ngokoku	-10.3199
zenzis	-10.3207
ez	-10.3211
phumele	-10.3213
dale	-10.3235
wab	-10.3246
ukhuluma	-10.325
ngas	-10.3258
maba	-10.3273
mfow	-10.3274
mbulala	-10.3279
ziwe	-10.3291
re	-10.3294
lotshiwe	-10.3307
angina	-10.3314
nobus	-10.334
and	-10.3342
isidum	-10.3349
ezindaw	-10.3368
sigqila	-10.3382
zindlebe	-10.3383
yiphi	-10.3399
kuqonda	-10.3401
omhlaba	-10.3409
baqala	-10.3461
mshad	-10.3461
ziphambek	-10.3461
jezis	-10.3462
kholekile	-10.3463
mbiza	-10.3464
okwenzekile	-10.3466
nezinhlanz	-10.3468
qondile	-10.3472
ngathandi	-10.3473
phuc	-10.3474
ngulu	-10.3478
asiyiku	-10.3483
esasi	-10.3495
ayese	-10.3497
khathazeki	-10.3503
cho	-10.3507
iceb	-10.3514
ekwazi	-10.3528
izinyo	-10.353
▁’	-10.3536
hlali	-10.3537
bahamba	-10.3561
usho	-10.357
nezon	-10.3605
ndo	-10.361
ngokufanele	-10.3613
sabel	-10.3619
wakha	-10.3639
ukuyo	-10.3642
othanda	-10.3665
ningab	-10.3668
mshay	-10.3671
yison	-10.3679
misile	-10.3702
jona	-10.3708
onama	-10.372
cil	-10.3725
kuphumul	-10.3742
bile	-10.3743
sadu	-10.3758
uthanda	-10.3761
hlatshel	-10.3769
bafa	-10.377
ilanga	-10.3786
yenziw	-10.3799
ibi	-10.3819
sinagoge	-10.3831
senze	-10.3834
ebi	-10.3835
sinda	-10.3837
umye	-10.3839
dukisa	-10.3841
nginilobel	-10.3855
zithel	-10.3857
ar	-10.3864
kulokho	-10.3869
bule	-10.3877
livela	-10.393
wom	-10.3949
mfel	-10.3957
bede	-10.3962
koze	-10.3964
ngomli	-10.3976
eseshi	-10.3978
mhawu	-10.3999
sisw	-10.4015
wabayal	-10.4038
yimp	-10.4057
umfundi	-10.4066
diya	-10.4069
heb	-10.4075
ahlul	-10.4077
shwe	-10.4082
lwesi	-10.4109
nomunye	-10.4114
elish	-10.4154
nibona	-10.4159
ezazi	-10.4163
gcini	-10.4163
doni	-10.4166
pi	-10.4168
viviny	-10.4175
buqili	-10.4175
1	-10.4175
qamba	-10.4176
finyelel	-10.4176
khanyis	-10.4178
cathul	-10.4178
dra	-10.418
ukwahlukan	-10.418
ngamesabi	-10.418
khandlek	-10.4184
nzuzo	-10.4189
bakhonza	-10.4192
yisibon	-10.4194
ngafi	-10.4196
bengena	-10.4198
umakhelwa	-10.421
gijima	-10.4216
buyisan	-10.4217
makungabi	-10.422
siphuza	-10.4228
lokuba	-10.4228
amas	-10.4245
eside	-10.4262
hayi	-10.4263
ngingum	-10.4287
isisa	-10.4288
amukele	-10.4293
ukuhlakaniph	-10.4296
isiwe	-10.43
ezindlebe	-10.4317
laza	-10.4317
siyakuba	-10.4318
emizi	-10.4321
funyanwa	-10.4331
ngenk	-10.4338
hlangana	-10.4342
ubula	-10.4359
esabi	-10.4359
mnini	-10.4373
vuthulu	-10.4389
kubhujisw	-10.4407
lungiselwe	-10.4428
thwele	-10.4434
bekwa	-10.4437
zuza	-10.4438
bayakuba	-10.4451
minikel	-10.4454
cim	-10.4473
bhubhisa	-10.4473
bazenzis	-10.4476
ahlukan	-10.4476
qinisek	-10.4491
bonisi	-10.4496
kwenziw	-10.4503
bambelel	-10.4521
mdumisa	-10.4525
nishumaye	-10.4526
fun	-10.4537
mphakathi	-10.4544
mvini	-10.4559
ozaku	-10.4566
ukuzwa	-10.4577
gcwalisek	-10.458
akele	-10.4581
bakwa	-10.4585
wamukele	-10.4586
som	-10.4593
lahli	-10.4594
philisa	-10.4597
hleka	-10.4668
bamlandela	-10.4669
hlanganis	-10.4683
esihle	-10.4687
kucela	-10.471
babil	-10.4711
ngemv	-10.4713
nilobela	-10.4722
nezinya	-10.4749
ende	-10.4765
senu	-10.4766
emba	-10.4796
nakhu	-10.48
nangezi	-10.482
phendul	-10.4826
nolwa	-10.4827
sendl	-10.4843
baphenduke	-10.486
ses	-10.4866
imizi	-10.4868
fanis	-10.4887
zenzi	-10.4888
ekufik	-10.4893
khulekela	-10.4898
shu	-10.4904
ngokufa	-10.491
ngasoki	-10.4913
qob	-10.4919
hlwanyelw	-10.4922
bel	-10.493
kubonile	-10.4932
shiye	-10.4941
pro	-10.4944
tir	-10.4944
mamukela	-10.4946
par	-10.4947
abern	-10.4947
yaluyal	-10.4948
phumela	-10.4948
andr	-10.495
nasem	-10.4952
wabanik	-10.4953
ebandl	-10.4956
imbe	-10.4959
nyoko	-10.496
eyaku	-10.4961
lambile	-10.4962
xosha	-10.4965
zany	-10.4992
emikhawul	-10.4995
kathath	-10.4995
gcoba	-10.4999
mkhonza	-10.5003
ngikhulume	-10.5013
nemini	-10.5026
olungi	-10.5032
ayisithu	-10.5042
nezinyo	-10.505
makabe	-10.5063
kuphuma	-10.5083
mfundi	-10.5101
ngenze	-10.5107
okhokh	-10.5114
thunzi	-10.5139
yibamba	-10.5163
qhel	-10.5192
shiwo	-10.5199
ufana	-10.5211
inte	-10.5247
akhay	-10.5251
misela	-10.5267
bulale	-10.5273
kuvele	-10.5294
yibona	-10.5308
lila	-10.531
bayizi	-10.5313
sib	-10.5342
lombus	-10.5363
alusi	-10.5377
lingwa	-10.539
andle	-10.5409
kulabo	-10.5425
tsheli	-10.543
ngahlulel	-10.5438
amaziny	-10.5457
mbela	-10.5476
kow	-10.5484
mihla	-10.5486
fundise	-10.5488
ntombi	-10.5491
izind	-10.5491
now	-10.5495
umnikel	-10.5502
mlalela	-10.5506
umqh	-10.5506
okom	-10.5507
enze	-10.5525
nanto	-10.5533
benzi	-10.5553
sibusis	-10.5565
zithanda	-10.5566
ukuthel	-10.5567
ndile	-10.557
ethemb	-10.5579
ngaziwa	-10.5585
cindezel	-10.5632
zesi	-10.5637
thiya	-10.5641
umpho	-10.5642
inxe	-10.5675
uvuk	-10.5698
dabuki	-10.5713
kuboshw	-10.5724
ekufe	-10.5749
abafow	-10.575
elwe	-10.5761
kamu	-10.5772
bahlala	-10.5774
ihlambulul	-10.5778
gqolozel	-10.5778
thinti	-10.5778
zincom	-10.5778
esihog	-10.5778
thembeka	-10.5778
langazelela	-10.578
ezinkulu	-10.5782
zingulube	-10.5782
hlangulis	-10.5785
ungesab	-10.5787
nezindu	-10.5787
bathumela	-10.5788
njengokulotshiwe	-10.5788
abhu	-10.5792
sokwahlulel	-10.5803
yakwenza	-10.581
ukuhluphek	-10.5821
kuzingelw	-10.5823
kuyakuthi	-10.5826
mzane	-10.5835
umnini	-10.5837
ngokom	-10.5839
balekela	-10.585
encwadi	-10.5861
duka	-10.5868
yenze	-10.5883
mkhumb	-10.5885
abezwa	-10.5909
yazini	-10.5913
bamuka	-10.5916
cabanga	-10.592
dlulile	-10.5926
uhlaka	-10.5934
khulumile	-10.5937
khiwa	-10.5944
phikisa	-10.5965
zama	-10.5973
umhawu	-10.5992
uyindoda	-10.6002
singaba	-10.6032
ntsha	-10.6055
khuphukel	-10.6071
kugcine	-10.6073
sekuphele	-10.6076
buyisela	-10.6128
kuzila	-10.6136
lesith	-10.6136
kubonakalis	-10.6136
ngaqondi	-10.6137
nsim	-10.6147
bahlakaniphile	-10.6167
imon	-10.6167
phinga	-10.6204
endun	-10.6239
angiso	-10.6254
kukhulume	-10.6259
mful	-10.6261
silinganis	-10.6271
izink	-10.6274
sibosh	-10.6274
komo	-10.6281
siprofeth	-10.6367
eliphezu	-10.6373
luya	-10.6387
wayesem	-10.6402
kwabase	-10.6439
ukusindis	-10.644
diliz	-10.6447
kakhe	-10.6453
bunga	-10.6463
babuza	-10.6484
valel	-10.6505
dodan	-10.6537
ngalel	-10.654
sifanele	-10.6552
ezon	-10.6577
cabang	-10.6578
ngabafundi	-10.6596
yinto	-10.6608
ukukhulul	-10.6612
ambo	-10.6616
kusebenza	-10.6636
sebu	-10.664
thukulul	-10.6653
sizaku	-10.6656
phumi	-10.6663
ngesihl	-10.6684
gqok	-10.6687
kulotshwe	-10.6687
qaphele	-10.6687
ngamukela	-10.6688
fundiswa	-10.6689
ungumprofethi	-10.669
apholo	-10.6693
bekiwe	-10.6695
makab	-10.6696
angithandi	-10.6699
bongeka	-10.6703
kukhubekisa	-10.6704
dukiswa	-10.6711
nabap	-10.6713
ngokuphelele	-10.6718
namathel	-10.6724
wehla	-10.6726
akenz	-10.6731
bukhulu	-10.6738
babamba	-10.674
embathisa	-10.6742
ngento	-10.6744
hola	-10.6749
adam	-10.6757
chithek	-10.6763
ebub	-10.6766
dumile	-10.6766
yazisa	-10.678
kobus	-10.6786
wezwa	-10.6786
ziboshw	-10.6799
mbethel	-10.6804
inzal	-10.6804
abethe	-10.681
kise	-10.6815
ngaboni	-10.6815
nezinye	-10.6816
mamukele	-10.6839
sikhundl	-10.6843
cindezela	-10.6849
bizela	-10.6851
nyathel	-10.6851
endlebe	-10.6868
ukulwa	-10.6881
elik	-10.6888
mdala	-10.6911
okungena	-10.6917
suse	-10.6951
mhl	-10.6968
yafika	-10.697
afe	-10.6984
zithi	-10.7007
nohlezi	-10.7011
okuza	-10.7033
khiwe	-10.7034
enca	-10.7035
okunjalo	-10.7038
mnqum	-10.7039
omnc	-10.7054
sekufik	-10.7065
yindoda	-10.7096
ngehl	-10.7109
iyakuba	-10.7119
ngithe	-10.7124
mntana	-10.7143
miswa	-10.7213
kubuye	-10.723
dumis	-10.7242
ensim	-10.7254
siphe	-10.7264
lindi	-10.7295
nombus	-10.7296
abahamba	-10.7298
ntab	-10.7305
abalungile	-10.7323
angisiy	-10.7332
lindele	-10.7348
kwezinya	-10.7354
kusiza	-10.7376
lobela	-10.7384
edwal	-10.7385
kukhala	-10.7403
ngadli	-10.7412
okunye	-10.7417
lingaka	-10.746
zishay	-10.7485
yalez	-10.7486
babulal	-10.7494
ezinye	-10.7511
njengama	-10.7525
izuze	-10.7525
kungalaleli	-10.7533
bamnceng	-10.7541
mbele	-10.7545
nikelwa	-10.7545
kuthethelel	-10.7558
ngesibo	-10.756
phuzi	-10.7561
okuqond	-10.7561
thith	-10.7571
filip	-10.7575
mel	-10.7598
hlatshelwe	-10.7602
ekuling	-10.7621
chok	-10.7622
sir	-10.7628
sibani	-10.763
akuvel	-10.7638
khathalel	-10.7653
khathaz	-10.7661
likhuluma	-10.7662
fw	-10.7682
inkanyezi	-10.7686
cwebezela	-10.7687
jabhis	-10.7687
nqunyw	-10.7687
aleksandr	-10.7687
gumbi	-10.7687
tro	-10.7687
zizukulwane	-10.7687
ngasoleki	-10.7687
menyiwe	-10.7687
hlwith	-10.7687
thunyiwe	-10.7688
dunyisw	-10.7688
kusithek	-10.7689
phindisel	-10.7689
okodo	-10.769
sodo	-10.7691
siphile	-10.7691
samukela	-10.7692
kre	-10.7692
hlanzekile	-10.7692
anothi	-10.7693
bekezelela	-10.7696
fundile	-10.7697
arki	-10.7699
zimpond	-10.7701
limaza	-10.7704
kumi	-10.7704
kuhambe	-10.7716
nezilim	-10.7717
thengisi	-10.7721
mhlatshel	-10.7726
endal	-10.7734
likhi	-10.7737
akuyiku	-10.774
lokwahlulel	-10.7746
thethelele	-10.7746
yizimp	-10.7773
sihlale	-10.7773
mbonga	-10.7779
sebefik	-10.7793
sekuyi	-10.7808
anikholwa	-10.7808
nginitshela	-10.7812
dingek	-10.782
zinhluph	-10.7821
phumul	-10.7832
kokubi	-10.7839
inkon	-10.7846
sithombe	-10.7848
izindl	-10.7851
ngowase	-10.7854
ngamafu	-10.7859
aniso	-10.7863
khuthalela	-10.7863
khulumisa	-10.7876
dakwa	-10.7878
benyama	-10.789
swela	-10.7901
khazimula	-10.7903
bamukis	-10.7906
inko	-10.7909
ababizi	-10.7911
zigcwele	-10.7914
ngokuningi	-10.7919
ofe	-10.7919
nenhla	-10.7945
wabafundi	-10.7961
wamangal	-10.7966
notho	-10.7973
bathengisa	-10.7982
nifund	-10.7993
nabangena	-10.8008
kungcol	-10.8032
safa	-10.8049
amalung	-10.8069
singena	-10.8073
delela	-10.8083
mathun	-10.8087
lamba	-10.8089
yamuka	-10.81
ngokubona	-10.8111
yafa	-10.8121
eniyakuku	-10.8135
zingane	-10.8142
ezixuk	-10.8201
akubanga	-10.8235
hlubuk	-10.8319
ezingena	-10.833
engikwenz	-10.8332
thwale	-10.8355
hlamba	-10.8355
khulunywa	-10.8359
mnt	-10.8388
zabant	-10.8407
fihl	-10.8408
hohlo	-10.8415
ezinyaw	-10.8461
hlabelel	-10.8479
hutsh	-10.8508
lwes	-10.8546
funyanw	-10.8556
njengokush	-10.8573
gco	-10.8599
mbulal	-10.8602
kungengoku	-10.8637
angifuman	-10.8663
bangcolile	-10.8688
ngabap	-10.8715
phulukisw	-10.8723
ndiswe	-10.8743
bathath	-10.8744
babule	-10.8744
sekuf	-10.8761
bambulal	-10.8774
gay	-10.8789
inkulu	-10.879
chasisel	-10.8798
ngcweliswa	-10.8798
nqamuk	-10.8798
qhweb	-10.8798
stefan	-10.8798
ezimvab	-10.8798
ngcwelisiwe	-10.8798
5	-10.8798
chibi	-10.8798
ucez	-10.8798
phelelisiwe	-10.8798
lwi	-10.88
ngitshele	-10.88
khulelwe	-10.8801
fihliwe	-10.8802
nginitsheli	-10.8802
dumaza	-10.8804
kwalez	-10.8805
wammisa	-10.8805
njiwe	-10.8807
jas	-10.8809
wayesebabiz	-10.881
lamukela	-10.8811
khulile	-10.8813
balekele	-10.8814
hlanza	-10.8815
lamukele	-10.8817
mbongol	-10.8817
lamul	-10.8823
izincwadi	-10.8823
okudal	-10.883
busiswa	-10.883
bonakale	-10.8831
lenze	-10.8843
zigabisa	-10.8849
kukusindis	-10.8855
thengise	-10.8871
phithi	-10.8875
uyaphi	-10.8879
yesaba	-10.8896
baphila	-10.8897
bagcwal	-10.8907
njengokwe	-10.8908
yesith	-10.8913
ngukufa	-10.8916
ngeziny	-10.8944
yisho	-10.8963
enzela	-10.8974
ziyisith	-10.8986
vamile	-10.8986
bunzi	-10.8992
nesih	-10.9035
mesab	-10.9043
kunale	-10.9043
phelelisw	-10.9073
senziw	-10.9088
phuzisa	-10.9104
ngamadoda	-10.914
ngabaza	-10.9198
mboph	-10.9202
angizang	-10.9203
lusiz	-10.9208
phelelise	-10.9208
sikhulul	-10.9209
mzuz	-10.9231
nxanel	-10.9249
nikhuleke	-10.9273
akala	-10.9303
ezith	-10.9308
benginga	-10.9343
yinceku	-10.9371
ngcolisa	-10.938
nkulu	-10.943
kunja	-10.9431
zidla	-10.9476
zisho	-10.9501
buwul	-10.9502
yindl	-10.9503
holi	-10.9525
yithanda	-10.9537
indlal	-10.9547
nhlobo	-10.9571
banjw	-10.9575
shisa	-10.9595
vimb	-10.9616
izikhonz	-10.9635
ber	-10.9654
waphind	-10.9654
hloniph	-10.9699
thengisa	-10.9701
uphume	-10.9718
mnikel	-10.973
izinhla	-10.974
singabant	-10.9783
thumile	-10.9792
ngobus	-10.9828
asinik	-10.9836
nakekela	-10.9848
bamyis	-10.9873
okunje	-10.9878
neliy	-10.9878
nesithu	-10.9894
deki	-10.9895
ndiswa	-11.0017
ngabhubhi	-11.0048
nyakaziswa	-11.0048
vikel	-11.0048
mbhinq	-11.0048
ngqongqotha	-11.0048
ntshon	-11.0048
gceke	-11.0048
londoloz	-11.0048
lahlekile	-11.0048
zithoba	-11.0049
khuren	-11.0049
sayikuba	-11.005
sebenzela	-11.005
minyanis	-11.0051
uphenduk	-11.0051
hlakazekile	-11.0054
kuhlanjululwa	-11.0054
sekuhlw	-11.0056
ukuyobona	-11.0061
ngatheli	-11.0061
luva	-11.0061
nigcwalis	-11.0062
qhuzu	-11.0062
kuthwala	-11.0063
ngapheli	-11.0064
zisindise	-11.0073
wenyukel	-11.008
kuswelekile	-11.0087
lulek	-11.0095
mthomb	-11.0095
nezikhulu	-11.0101
khalela	-11.0104
ngokwesith	-11.0104
ayida	-11.0104
zithiba	-11.0112
qalekisiwe	-11.0115
owahlulela	-11.0117
hlalisa	-11.0125
bamdumisa	-11.0127
ngihawukel	-11.0128
bonwe	-11.0147
nhloni	-11.0149
dabukisw	-11.0151
ukubiz	-11.0166
ndwe	-11.0171
tshala	-11.0174
ngeson	-11.0175
fafaz	-11.0191
nkathi	-11.0254
bahlulel	-11.0277
angala	-11.0279
sebenzisa	-11.0285
ungaphing	-11.0293
yokulung	-11.0295
shumayez	-11.0299
sidal	-11.0304
bangabi	-11.0307
zibonel	-11.0329
ukuphenduk	-11.033
elimn	-11.0337
cish	-11.0351
hlile	-11.0373
sekus	-11.0394
macal	-11.0394
muki	-11.0408
ngezind	-11.0413
izif	-11.0424
muphi	-11.0462
alf	-11.057
imbal	-11.058
eson	-11.0589
sitshel	-11.0595
esish	-11.0614
khand	-11.0645
wadabu	-11.0667
nokw	-11.0709
buthong	-11.0711
masang	-11.0748
thobele	-11.0763
zahlulel	-11.0765
samuk	-11.0775
makunga	-11.0814
emith	-11.0836
esifub	-11.0842
mbonile	-11.0869
sikhw	-11.0873
msind	-11.0947
mngcolis	-11.0968
ngumfundi	-11.0984
feza	-11.0992
umbon	-11.0995
mfuma	-11.1006
yithatha	-11.1009
shumayel	-11.1031
buth	-11.1045
buqinisile	-11.1057
wabiz	-11.1073
semnya	-11.1078
siphambe	-11.1102
ezintab	-11.114
hlephula	-11.123
athan	-11.1231
kuvam	-11.1237
uyakusindis	-11.1253
nokuqond	-11.128
bekezele	-11.1306
wakhuphuk	-11.1314
ufik	-11.1361
uzakuthi	-11.1368
yakwahlulel	-11.1374
lahlwe	-11.1441
bets	-11.1468
zinja	-11.147
ikamel	-11.1475
kutusw	-11.1477
phakanyisw	-11.1477
emgod	-11.1477
etaful	-11.1477
hlatshwa	-11.1477
igax	-11.1477
noval	-11.1477
ukuvun	-11.1477
bhapathizelwa	-11.1477
gongol	-11.1477
siqhingi	-11.1477
6	-11.1477
chachi	-11.1477
guquka	-11.1477
hudulel	-11.1477
angisayiku	-11.1477
nikhumbuza	-11.1477
mmangalela	-11.1477
fihlakele	-11.1477
dons	-11.1477
thukuthelel	-11.1477
zibekelel	-11.1478
nitshele	-11.1479
indlebe	-11.1479
nodadew	-11.1484
yinhl	-11.1486
dukile	-11.1487
anisibo	-11.149
basuth	-11.1491
funela	-11.1492
zibonge	-11.1492
inkath	-11.1493
mkhathi	-11.1495
zinsukw	-11.1496
unec	-11.1497
mhawukela	-11.1498
sicebi	-11.1498
ngizakwenz	-11.1503
kwehlela	-11.1508
langabi	-11.1509
phathwa	-11.151
hloniphek	-11.1534
ungabu	-11.1538
mphongol	-11.154
zungez	-11.1546
lithukulul	-11.1549
andulele	-11.1553
womile	-11.156
kusuth	-11.1568
zivela	-11.1577
nezink	-11.1583
kubizw	-11.163
athen	-11.164
lishilo	-11.1643
fulathel	-11.1645
babalek	-11.1645
obezaku	-11.1684
inyang	-11.1687
nqobe	-11.1702
mkhiphel	-11.1711
misiwe	-11.1722
angiyiku	-11.1728
sihlephula	-11.173
roni	-11.1748
langazel	-11.1756
sethempeli	-11.1761
ihlaz	-11.1769
ngabahlanganyel	-11.1775
shuk	-11.1776
riy	-11.1778
mthumile	-11.1786
isihl	-11.1907
wayengum	-11.1924
nezing	-11.1945
kuzakub	-11.1967
baphath	-11.1969
thokozis	-11.1971
ash	-11.1991
basindisw	-11.2037
koniy	-11.2044
unja	-11.2045
bayibulal	-11.2087
bhapathizwe	-11.2103
enqo	-11.2128
wenyuk	-11.2137
bingelel	-11.2169
baphume	-11.2248
zakufa	-11.2254
sitsh	-11.2259
angabi	-11.2265
fundisiwe	-11.2313
fakelw	-11.2315
lawod	-11.2321
bonakali	-11.2331
ifik	-11.2335
niphum	-11.2339
sithandw	-11.2398
ngithokozi	-11.2446
khaphel	-11.2461
zikh	-11.2463
enzeki	-11.2527
kulahl	-11.253
izilim	-11.2553
olub	-11.2557
kuswela	-11.2569
mibi	-11.257
emizan	-11.2592
ngokuhl	-11.2595
ngafung	-11.2597
okunc	-11.2614
umangalela	-11.2656
wehlelw	-11.2687
ezif	-11.2694
bhapathizi	-11.2695
okuyiz	-11.2699
hlambuluk	-11.2705
khuphuk	-11.2746
sar	-11.276
dluli	-11.2773
wabafundis	-11.2791
khokhel	-11.2832
ngakhulumi	-11.2841
zula	-11.2859
ayisishiyagalo	-11.2859
shiwe	-11.2881
bavusel	-11.2898
nilinde	-11.2908
bugqil	-11.2931
khuthalel	-11.2947
chil	-11.2982
herodiy	-11.299
baphulukis	-11.2992
nesif	-11.3016
phakamisel	-11.3057
kuyakum	-11.3058
ekuphum	-11.3098
asid	-11.3112
sihlwa	-11.3113
sifik	-11.3115
ngenhla	-11.312
ezigc	-11.3122
hlanjulul	-11.3135
ngamalung	-11.3136
ezincek	-11.3139
esigc	-11.3142
funyaniswa	-11.3143
gxum	-11.3143
hlanjalazwa	-11.3143
kuhuhek	-11.3143
ngaphenduki	-11.3143
ngcwelisa	-11.3143
vunyiwe	-11.3143
zikhukhumez	-11.3143
pont	-11.3143
sambathek	-11.3143
usulu	-11.3143
khafulel	-11.3144
mbhede	-11.3144
hlolisis	-11.3144
khohlisi	-11.3145
shiywa	-11.3145
nganelis	-11.3145
buzisis	-11.3145
funisisa	-11.3146
adiy	-11.3146
yizwani	-11.3147
nyakazisa	-11.3148
mcol	-11.3148
olekile	-11.3148
wenzile	-11.3148
valelisa	-11.315
bayishay	-11.3151
unywa	-11.3152
ningethu	-11.3154
bathandiwe	-11.3155
yizinhlobo	-11.3156
engingaku	-11.3157
ngingoka	-11.3157
uthuli	-11.3158
aniyiku	-11.3158
eseqed	-11.3159
pris	-11.3159
unyisw	-11.3159
encek	-11.3161
miswe	-11.3163
kokudal	-11.3163
nikiwe	-11.3164
endod	-11.3184
buntwan	-11.3184
ngafuni	-11.3191
oyisim	-11.3191
eras	-11.3192
bonise	-11.3198
sesang	-11.3205
bashayw	-11.3208
enyusel	-11.3214
obizw	-11.3218
yisihl	-11.3235
khawulez	-11.3236
kwabonakal	-11.3249
sibambis	-11.3266
babik	-11.3281
ayinike	-11.3284
belusi	-11.329
isif	-11.3328
senyam	-11.3402
kwenezel	-11.3419
qhubekel	-11.3442
nibuthan	-11.3466
miyal	-11.3488
mkhaphel	-11.3488
ukwambul	-11.3491
sebandl	-11.3492
fil	-11.3617
uyakwamukel	-11.3637
ukhulul	-11.3671
izakukh	-11.3687
khotham	-11.3712
njengesel	-11.3724
ukuphelel	-11.3737
kwabuth	-11.3739
ngamath	-11.3757
abanc	-11.3764
vimbel	-11.3764
sibalo	-11.3773
uyakuthath	-11.3811
nikhulul	-11.3857
esengen	-11.3863
owavus	-11.3894
abulaw	-11.3969
neson	-11.3974
okuphind	-11.3979
yizon	-11.4082
njengabant	-11.4102
jiswa	-11.4172
khawul	-11.4178
sigcin	-11.4185
sukw	-11.4186
bambisis	-11.4193
myal	-11.4265
ngezins	-11.4328
imith	-11.4346
semihl	-11.4362
wababiz	-11.4362
akasiy	-11.437
okulungi	-11.4428
bizele	-11.4448
buyisel	-11.4456
kubekezel	-11.4459
enhl	-11.446
bhujisw	-11.4483
bahlu	-11.4518
mbhubhis	-11.4527
kubonakalisw	-11.4539
isibon	-11.4605
esephum	-11.4608
ngukulung	-11.4621
esambath	-11.4622
kufund	-11.4658
shunyaye	-11.4669
embez	-11.4679
babhapathizw	-11.4708
kukheth	-11.474
;	-11.4756
bavumel	-11.4767
ngikhuleke	-11.4774
kulidl	-11.4777
ahlulelwe	-11.4821
yalel	-11.4859
bakhuleke	-11.4907
ithathe	-11.4972
shiyi	-11.5013
enc	-11.5022
sakhiw	-11.5024
klebhul	-11.5048
mlandele	-11.5059
hlambalaz	-11.5073
namad	-11.5089
akhuleke	-11.5104
ngcwelise	-11.511
inkokh	-11.5117
benja	-11.5123
enyukel	-11.5135
kuhlw	-11.5141
ashiyw	-11.5141
wenziwa	-11.5142
linqaba	-11.5143
esevuk	-11.5143
gubuzel	-11.5143
klolodel	-11.5143
4	-11.5143
amnqabel	-11.5143
gxil	-11.5143
khukhumele	-11.5143
ncintisana	-11.5143
pherg	-11.5143
qhoth	-11.5143
vunguz	-11.5143
nawodadew	-11.5143
nikhumbule	-11.5143
sishwabene	-11.5143
nqolobane	-11.5143
yembatha	-11.5143
kwembatha	-11.5143
zinganekwane	-11.5143
thotshis	-11.5143
ephafr	-11.5143
yezinyo	-11.5144
kufiphazw	-11.5144
yamukela	-11.5144
bathunyelw	-11.5145
kubandezek	-11.5145
khumul	-11.5146
zihlambulul	-11.5146
ithakal	-11.5147
ngimangalelw	-11.5148
udadew	-11.5148
wayengaka	-11.5149
bahlulek	-11.5152
yamukele	-11.5154
awuyiku	-11.5158
dazuluk	-11.5162
sard	-11.5165
sici	-11.517
liwil	-11.5175
ekamel	-11.5183
obekuzaku	-11.5186
sithume	-11.5206
sekudlul	-11.5207
nyamalal	-11.5208
wathwal	-11.522
julile	-11.5232
iyakuzond	-11.5244
nxib	-11.5266
sanguluk	-11.5272
okungayikwa	-11.5272
ngikhulul	-11.5274
nansi	-11.5286
aris	-11.5298
umhum	-11.5321
ngabafo	-11.5331
kujul	-11.5369
wayesethath	-11.5372
kusilele	-11.5407
senz	-11.5412
khishw	-11.5414
silungisis	-11.5424
mayib	-11.5428
vuselela	-11.5451
shanel	-11.5515
entan	-11.553
kubhubh	-11.5567
ushisw	-11.5576
rob	-11.5614
fenik	-11.5631
waphenduk	-11.5638
bambamb	-11.5659
buyis	-11.5692
ekufundis	-11.5726
ondliw	-11.5781
eyihla	-11.5789
idili	-11.5812
njengam	-11.5819
nosiz	-11.5894
kuhluphek	-11.5899
aphume	-11.5901
owadal	-11.5906
ezindlel	-11.5924
yichi	-11.5948
inyan	-11.6034
ushane	-11.6042
zindab	-11.605
hlanganisel	-11.6079
kubuthan	-11.6082
behl	-11.6111
ngingaz	-11.6121
zimisel	-11.6127
okungabon	-11.6127
badukis	-11.6152
nahlulel	-11.6157
yihl	-11.618
nqol	-11.618
akusiy	-11.6214
ukwamukel	-11.6259
zithobe	-11.6287
insiz	-11.6312
kukhonz	-11.6318
anizang	-11.6389
ngesen	-11.6462
nithokoz	-11.6528
kwabelw	-11.6538
aphulw	-11.6544
njengab	-11.6608
amnceng	-11.662
esebuy	-11.6655
phelekezela	-11.6683
iyakon	-11.6745
waphons	-11.6771
ifund	-11.6782
nenk	-11.6837
kungavel	-11.6887
nobumn	-11.6918
kwesab	-11.7031
phendukel	-11.7046
athath	-11.7135
kusas	-11.717
bamkhand	-11.7213
nokubong	-11.7251
.	-11.7257
umfan	-11.7269
kuhlakaniph	-11.7331
akukuhl	-11.7332
kufez	-11.7407
lotshelw	-11.7417
mkhomb	-11.7438
kuthath	-11.7476
gijim	-11.7485
nibikel	-11.7512
ngathethelel	-11.7514
nceng	-11.7516
imikh	-11.752
hlanzek	-11.7551
uyakwamuk	-11.7562
asilahle	-11.7564
bantw	-11.7591
esihlahl	-11.7595
profethe	-11.7623
halel	-11.7634
odadew	-11.7636
umpheth	-11.7639
kunxuse	-11.764
ekuphele	-11.7641
lingwe	-11.7642
bhula	-11.7643
mqamekel	-11.7643
siqashi	-11.7643
sivunguvung	-11.7643
agcinw	-11.7643
gudluk	-11.7643
jabulisa	-11.7643
mataful	-11.7643
nivusel	-11.7643
phakanyiselw	-11.7643
phuphuthek	-11.7643
tiberiy	-11.7643
qongelel	-11.7643
ziklabi	-11.7643
ncelisa	-11.7643
setshenzw	-11.7643
lidlulisel	-11.7643
cunul	-11.7643
hlunyelelw	-11.7643
ngizingele	-11.7643
mthathe	-11.7644
umthen	-11.7644
kuthunjelw	-11.7644
kubafo	-11.7644
xutsh	-11.7645
sivulele	-11.7645
kris	-11.7645
ngabalingis	-11.7645
laywa	-11.7646
ixha	-11.7646
nxusela	-11.7647
’	-12.0077
9	-12.0977
7	-12.0977
”	-12.5097
?	-12.5595
'	-12.5977
0	-12.5977
8	-13.561
3	-13.5611
—	-13.5612
!	-13.5613
v	-13.5614
q	-13.5615
:	-13.5616
t	-13.5617
,	-13.5618
g	-13.5618
