<pad>	0
</s>	0
<unk>	0
¦	-1.15485
▁¦	-1.50836
▁	-3.06069
𐋇	-3.5129
▁,	-3.85544
o	-4.0659
ch	-4.18321
s	-4.32297
▁.	-4.6346
i	-4.86706
en	-5.03641
de	-5.0886
som	-5.16611
till	-5.18587
han	-5.19608
så	-5.48554
om	-5.50978
att	-5.51386
t	-5.53797
för	-5.64376
▁;	-5.65195
jag	-5.71226
det	-5.76551
▁:	-5.79805
på	-5.84396
skall	-5.84803
den	-5.87555
icke	-5.92237
herren	-5.92867
av	-5.94116
är	-5.95257
hon	-5.96047
med	-5.983
𐊣	-5.99789
𐊼	-5.99789
a	-6.03583
du	-6.05156
har	-6.08858
▁»	-6.11932
dem	-6.13228
då	-6.19921
var	-6.27048
er	-6.29348
men	-6.29834
mig	-6.41665
r	-6.42003
dig	-6.47088
sig	-6.48036
från	-6.50397
sade	-6.51686
där	-6.533
▁.»	-6.56988
eder	-6.57467
hade	-6.59177
ty	-6.63437
nu	-6.71059
när	-6.71812
efter	-6.73436
alla	-6.75883
upp	-6.76421
sin	-6.80228
gud	-6.80231
it	-6.80474
över	-6.81124
ett	-6.8133
åt	-6.85571
min	-6.89671
din	-6.92256
vad	-6.94068
ock	-6.94616
man	-6.96243
israel	-6.99059
ut	-6.99517
vid	-7.03162
na	-7.07039
allt	-7.07802
vi	-7.16465
hava	-7.17083
son	-7.21029
mot	-7.22383
kola	-7.23195
n	-7.23326
se	-7.26592
komm	-7.26774
tta	-7.26877
eller	-7.27795
sina	-7.28055
dera	-7.28146
e	-7.31134
barn	-7.34514
▁?	-7.36183
än	-7.37668
ja	-7.4046
oss	-7.41958
hus	-7.42887
in	-7.46719
genom	-7.48491
fram	-7.50233
vara	-7.50703
edan	-7.5152
mitt	-7.51577
konungen	-7.52954
må	-7.53084
bliv	-7.53873
äger	-7.54223
folk	-7.55318
göra	-7.57311
skulle	-7.57541
sitt	-7.57701
dina	-7.58384
vill	-7.59161
et	-7.62351
land	-7.62422
komma	-7.62937
bliva	-7.63722
utan	-7.6373
kom	-7.64463
någon	-7.65552
blev	-7.65693
vor	-7.65723
skol	-7.66594
gå	-7.66864
▁'	-7.66914
ned	-7.67997
äro	-7.68365
under	-7.71978
bort	-7.72928
d	-7.73668
henne	-7.74549
ur	-7.74758
dess	-7.75481
dessa	-7.7712
låt	-7.78568
få	-7.8073
bland	-7.81743
herre	-7.81786
folket	-7.81809
därför	-7.82842
hand	-7.83356
ingen	-7.83433
hela	-7.83476
ord	-7.83512
konung	-7.84292
ditt	-7.84795
mina	-7.86484
själv	-7.86637
mer	-7.87124
inför	-7.8851
andra	-7.89283
guds	-7.89771
giva	-7.92112
väl	-7.93013
svarade	-7.93901
tid	-7.95172
jorden	-7.95184
jesu	-7.95408
dag	-7.95853
fader	-7.96389
söner	-7.96705
tjänare	-7.99167
gick	-7.99965
ande	-8.00138
h	-8.00226
kan	-8.01046
david	-8.02855
stor	-8.03319
någo	-8.0444
juda	-8.05357
gjorde	-8.05768
▁--	-8.07742
mose	-8.08226
ju	-8.08375
▁?»	-8.11219
huru	-8.11946
jerusalem	-8.12818
två	-8.13725
namn	-8.13769
män	-8.13856
vår	-8.13955
hör	-8.14979
-	-8.1558
f	-8.17362
ej	-8.17744
edra	-8.18132
stå	-8.18337
säga	-8.18865
här	-8.18885
gör	-8.19402
gjort	-8.22033
gav	-8.23952
denna	-8.27288
ar	-8.27567
denne	-8.28836
landet	-8.29457
får	-8.29543
år	-8.30373
hos	-8.30728
ögon	-8.31072
▁!	-8.31191
lät	-8.3529
tog	-8.3582
dagen	-8.36036
åter	-8.36098
tillbaka	-8.36668
låta	-8.37036
haven	-8.37916
are	-8.38016
taga	-8.38899
himmelen	-8.39421
ända	-8.40627
st	-8.40933
egypten	-8.42478
re	-8.43429
hundra	-8.43653
intet	-8.43822
be	-8.46191
höra	-8.47732
skull	-8.48427
emot	-8.4882
stod	-8.49286
an	-8.4957
all	-8.49623
es	-8.50348
talade	-8.50441
kring	-8.52093
dit	-8.52268
fråga	-8.53012
tusen	-8.54032
tag	-8.54927
ansikte	-8.55326
hjärta	-8.56304
kunna	-8.57079
bröder	-8.57195
åstad	-8.57577
sådan	-8.57587
lika	-8.57985
många	-8.58558
staden	-8.58941
tala	-8.59848
äta	-8.60304
allena	-8.61143
ick	-8.6151
us	-8.62043
hålla	-8.62261
väg	-8.62419
finne	-8.62477
ra	-8.633
givit	-8.63938
liv	-8.63997
rätt	-8.64648
går	-8.65957
samma	-8.66256
såg	-8.67185
tre	-8.67812
bo	-8.68458
vilken	-8.6951
dagar	-8.69901
vem	-8.70614
kvar	-8.71985
het	-8.72077
mycke	-8.73206
sju	-8.73408
sammans	-8.73491
agt	-8.74355
vatten	-8.75485
tro	-8.75511
måste	-8.75554
ta	-8.76146
sände	-8.7665
saul	-8.76826
människor	-8.78092
förde	-8.78329
hörde	-8.78527
jakob	-8.7914
hustru	-8.79541
blod	-8.80287
vare	-8.81051
säg	-8.83174
händer	-8.83595
fäder	-8.83908
däri	-8.84391
guld	-8.84671
da	-8.85403
håll	-8.85811
lik	-8.86158
nåd	-8.87131
våra	-8.87864
satte	-8.88275
städer	-8.88394
döda	-8.88878
föra	-8.89807
vet	-8.90408
vilja	-8.90743
eld	-8.90797
bjud	-8.90933
vilka	-8.91688
både	-8.92801
prästen	-8.93471
jämt	-8.93735
stad	-8.93744
aron	-8.93928
födde	-8.93964
tt	-8.95397
ville	-8.96579
sätt	-8.96639
gott	-8.98461
röst	-8.98516
bud	-8.98901
frukt	-8.99112
as	-8.99415
▁.'	-8.9963
kunde	-8.99636
gingo	-8.99932
broder	-8.99976
mannen	-9.00195
svärd	-9.00455
heliga	-9.00643
lig	-9.00841
nnerlig	-9.00852
tiden	-9.01181
först	-9.02566
drag	-9.03629
huvud	-9.04074
vände	-9.0467
kristus	-9.04797
plats	-9.05041
nämlig	-9.0518
strid	-9.05217
havet	-9.06886
giver	-9.07148
lade	-9.07947
fyra	-9.0827
framför	-9.08686
idan	-9.08762
mun	-9.08794
gått	-9.09174
fast	-9.09328
slag	-9.09649
annan	-9.09887
veta	-9.10214
dotter	-9.10221
draga	-9.10711
finna	-9.10721
båda	-9.10954
vända	-9.1098
fall	-9.11401
nde	-9.11564
bära	-9.11722
salomo	-9.11877
gång	-9.12202
dö	-9.12529
tron	-9.1283
k	-9.12899
ont	-9.13282
fem	-9.13302
gärningar	-9.14262
själ	-9.14288
moder	-9.14327
kläder	-9.14333
or	-9.14378
lag	-9.14882
ställe	-9.15271
kraft	-9.15472
huset	-9.16306
del	-9.16319
sätta	-9.16661
stam	-9.17221
nej	-9.17363
drog	-9.17664
leva	-9.19853
undan	-9.19873
föll	-9.19989
makt	-9.20056
farao	-9.20277
vrede	-9.20872
bröd	-9.21193
onda	-9.21369
ske	-9.21906
silver	-9.2243
hem	-9.22787
bet	-9.23043
sebaot	-9.23178
for	-9.23517
vägen	-9.23665
talat	-9.23835
hit	-9.23866
medan	-9.24137
varandra	-9.24278
▁»,	-9.24307
männen	-9.25152
arvedel	-9.25444
människa	-9.26092
g	-9.27262
p	-9.27265
lägga	-9.27341
mellan	-9.27766
öknen	-9.27766
tjugu	-9.28314
offra	-9.28883
verk	-9.29158
rättfärdighet	-9.29303
altaret	-9.29321
konungar	-9.29333
prästerna	-9.30382
josef	-9.30947
filistéerna	-9.30951
m	-9.31192
ära	-9.31654
fåt	-9.32079
någ	-9.32087
vin	-9.32109
abraham	-9.32166
döttrar	-9.32988
förbund	-9.3299
helig	-9.3309
rus	-9.33386
berg	-9.33499
fann	-9.33795
marken	-9.33929
igen	-9.33968
länge	-9.34421
frukta	-9.34483
kallade	-9.34861
kött	-9.35159
runt	-9.35933
hjärtan	-9.36137
davids	-9.36273
lång	-9.36411
fiender	-9.36687
babel	-9.36771
döden	-9.37315
tio	-9.3743
alnar	-9.3764
evig	-9.38199
rike	-9.38747
tjänst	-9.38945
folken	-9.39959
bodde	-9.40261
härlighet	-9.40929
råd	-9.41073
säd	-9.4109
barns	-9.41093
gudar	-9.4246
hög	-9.42512
falla	-9.4262
död	-9.42979
ropade	-9.43229
världen	-9.43396
josua	-9.4341
leviterna	-9.4342
liga	-9.43986
kvinna	-9.44223
synd	-9.44722
ve	-9.44935
b	-9.44952
natten	-9.45141
mån	-9.45614
äldste	-9.45728
fing	-9.46286
sk	-9.46651
visa	-9.46653
förut	-9.46851
före	-9.46904
dricka	-9.47185
tagit	-9.47265
djur	-9.48334
fötter	-9.48598
ena	-9.48875
släkte	-9.49424
tal	-9.49589
skaffa	-9.49878
▁!»	-9.50031
kalla	-9.50224
ären	-9.51301
vart	-9.5186
glädje	-9.52268
tänk	-9.5249
jordan	-9.53022
sex	-9.53119
sönder	-9.53521
offer	-9.53716
månaden	-9.54045
bor	-9.54169
goda	-9.54187
släkt	-9.54547
given	-9.55056
l	-9.55721
inne	-9.55827
kropp	-9.55901
änt	-9.56202
följde	-9.56337
hop	-9.56769
brännoffer	-9.56816
besittning	-9.57123
togo	-9.57494
frid	-9.57542
talar	-9.57837
slog	-9.58164
välsigna	-9.58526
låg	-9.58631
olv	-9.59196
berget	-9.59297
vandra	-9.59413
träd	-9.59902
lagen	-9.59934
ligge	-9.60129
sta	-9.60305
hjälp	-9.60564
ma	-9.61347
sak	-9.61586
hel	-9.61642
skam	-9.61843
fara	-9.61856
känna	-9.62107
vägar	-9.62221
gammal	-9.62514
hämta	-9.62736
annat	-9.62753
giv	-9.62839
olja	-9.63291
evi	-9.63387
rän	-9.63471
bar	-9.63591
edert	-9.6366
ed	-9.63854
morgon	-9.63893
slut	-9.64241
vän	-9.64435
ben	-9.64552
ser	-9.64677
sång	-9.65255
full	-9.6546
söka	-9.65841
tjäna	-9.65844
ax	-9.66062
porten	-9.66203
levande	-9.66309
missgärning	-9.67023
moab	-9.67043
ldrig	-9.67048
judarna	-9.67092
pet	-9.67492
kvinnor	-9.67537
lever	-9.67649
slå	-9.68726
andre	-9.68808
stadgar	-9.6887
sett	-9.69189
ene	-9.6935
begynte	-9.69685
ligga	-9.70187
steg	-9.70438
ropa	-9.70602
sådana	-9.70819
bygga	-9.71013
släkter	-9.71095
el	-9.71226
höll	-9.7128
drogo	-9.71358
anden	-9.7139
sa	-9.71484
tecken	-9.71768
lova	-9.71775
um	-9.72048
högr	-9.72135
vila	-9.72334
kärlek	-9.7298
krist	-9.73002
ren	-9.73452
livet	-9.73871
sår	-9.74252
fyrtio	-9.74258
övriga	-9.74286
fört	-9.74353
funno	-9.74384
bär	-9.74682
femtio	-9.74703
vattnet	-9.74884
hedningarna	-9.74908
far	-9.75061
förkunna	-9.75226
ning	-9.75291
trettio	-9.7535
sten	-9.75529
rädda	-9.75932
lärjungar	-9.76052
tredje	-9.76055
förstånd	-9.76254
uppstå	-9.76694
koppar	-9.76782
profeten	-9.77102
ting	-9.77133
trädde	-9.77583
bad	-9.77651
arbete	-9.77779
olycka	-9.78022
synder	-9.78643
tänkte	-9.79097
manasse	-9.79371
kvinnan	-9.79525
våld	-9.79771
intill	-9.8038
kasta	-9.81014
ljus	-9.8116
boning	-9.81355
förnimma	-9.81372
vänd	-9.81386
ken	-9.81676
lov	-9.81813
boskap	-9.81951
jeremia	-9.82029
dom	-9.82084
ant	-9.82201
else	-9.82217
furstar	-9.83272
lämna	-9.83406
vishet	-9.83418
bön	-9.83845
uppenbarelsetält	-9.83889
str	-9.84272
ängel	-9.84714
lägra	-9.84739
mat	-9.84988
förstå	-9.8499
spisoff	-9.85221
samuel	-9.85454
frälsning	-9.85487
sända	-9.85665
ytter	-9.86098
joab	-9.8616
befallning	-9.8756
vore	-9.87791
sons	-9.88099
kärl	-9.88919
solen	-9.89144
snar	-9.89204
helgedomen	-9.89281
människorna	-9.8934
stenar	-9.90433
johann	-9.90459
föda	-9.90487
jäm	-9.90663
isak	-9.90756
gilead	-9.90799
arna	-9.90818
område	-9.90826
▁',	-9.91192
lamm	-9.9121
'»	-9.91242
pa	-9.91467
enda	-9.91578
gräns	-9.91595
fly	-9.91947
iterna	-9.92183
hata	-9.92227
oren	-9.92269
gån	-9.93192
dog	-9.93436
penningar	-9.93623
byggde	-9.94005
egen	-9.94047
fadern	-9.94078
vittnesbörd	-9.94094
ran	-9.94645
ställde	-9.9494
hiskia	-9.9495
träda	-9.95146
sitta	-9.9524
bjöd	-9.95292
öster	-9.95321
rätta	-9.95519
god	-9.95557
rättfärdiga	-9.9586
lagt	-9.95876
förgå	-9.9598
stammar	-9.96059
församlade	-9.96268
kastade	-9.96279
fött	-9.96312
profeterna	-9.96587
nära	-9.96597
namnet	-9.96806
stannade	-9.96854
regering	-9.97276
gåvo	-9.97582
lägg	-9.98074
ste	-9.98108
hustrur	-9.98349
länder	-9.98816
bred	-9.98924
lott	-9.99264
nen	-9.99527
la	-10.0036
jonatan	-10.0047
rättfärdig	-10.0048
bättre	-10.0049
stort	-10.005
förgöra	-10.0066
sågo	-10.007
lära	-10.0073
rop	-10.0105
utgjorde	-10.0111
utrota	-10.0143
sida	-10.0161
lär	-10.0198
lägre	-10.021
helga	-10.023
mått	-10.0253
stycke	-10.0278
stör	-10.0278
byte	-10.0284
hopa	-10.0314
fot	-10.0316
sion	-10.0325
räkna	-10.0342
te	-10.0355
högt	-10.0365
les	-10.0385
skriv	-10.0401
helige	-10.0404
rent	-10.0414
ark	-10.0424
öppna	-10.0446
v	-10.0461
funnit	-10.0461
döma	-10.0474
fördärva	-10.0477
sök	-10.0499
syster	-10.063
gånger	-10.0632
fri	-10.0633
fruktan	-10.0646
ad	-10.069
innan	-10.0697
läger	-10.0707
lön	-10.0708
evangeli	-10.0716
regera	-10.0719
profeter	-10.0724
hopp	-10.0728
skrive	-10.073
bergen	-10.0758
akta	-10.0767
behag	-10.0776
stark	-10.0777
gäll	-10.0779
svara	-10.0798
ammon	-10.0888
jo	-10.0888
vilket	-10.0891
platsen	-10.0896
just	-10.0909
öken	-10.0917
fasta	-10.094
prisa	-10.0953
egna	-10.0964
läppar	-10.0979
ege	-10.0994
floden	-10.0994
tunga	-10.1004
altare	-10.1006
tillhör	-10.1047
sjun	-10.1049
döds	-10.1061
främmande	-10.1069
stanna	-10.107
året	-10.1072
nöd	-10.1077
nästa	-10.1081
slagna	-10.1082
undervisa	-10.1113
rättfärdige	-10.1113
levde	-10.1133
flydde	-10.1159
hell	-10.1177
tempel	-10.119
skåda	-10.1237
hästar	-10.1238
siklar	-10.1239
känn	-10.126
gamla	-10.1293
lust	-10.1309
syn	-10.1319
nog	-10.1333
utmarker	-10.1341
hår	-10.1407
ställa	-10.1415
absalom	-10.1434
bringa	-10.1434
invånare	-10.1437
at	-10.1465
allde	-10.1479
ute	-10.1488
natt	-10.149
höllo	-10.1512
ogudaktiga	-10.1535
inom	-10.1535
lös	-10.1537
följande	-10.1542
stund	-10.1565
vagnar	-10.1571
aul	-10.1596
älska	-10.1605
morgonen	-10.1637
lejon	-10.1643
bryta	-10.1645
sinne	-10.1664
förviss	-10.1667
sökte	-10.1692
ro	-10.1692
jord	-10.1702
par	-10.1714
fåglar	-10.1717
red	-10.1721
människobarn	-10.1723
köttet	-10.1726
bevara	-10.1744
älskade	-10.1744
församlingen	-10.1768
bröto	-10.1773
familjer	-10.185
ne	-10.1898
fullborda	-10.1904
elia	-10.1904
barmhärtighet	-10.1911
gad	-10.1911
försoning	-10.1912
samla	-10.1935
rätter	-10.1953
likna	-10.1986
portar	-10.2001
jerobeam	-10.2008
stycken	-10.204
akt	-10.2063
ny	-10.2107
esau	-10.2108
ras	-10.2143
frälst	-10.2144
utom	-10.219
styggelse	-10.2191
ack	-10.2196
ahas	-10.2199
främling	-10.2204
ovan	-10.2231
skynda	-10.2327
aftonen	-10.2343
fjär	-10.2349
aft	-10.2382
norr	-10.2385
öga	-10.2402
ljest	-10.241
egyptierna	-10.2417
räckte	-10.2449
lite	-10.2451
orätt	-10.2455
tält	-10.2474
ahab	-10.2496
je	-10.2506
sjuttio	-10.2513
bevisa	-10.2547
profetera	-10.2554
djup	-10.2571
sela	-10.2575
lämnade	-10.2584
väx	-10.2597
läng	-10.2616
förlåt	-10.2628
pris	-10.2656
syndat	-10.2658
slakta	-10.266
präster	-10.2666
erna	-10.2689
varen	-10.277
å	-10.2783
sjuk	-10.2783
lyfte	-10.2788
järn	-10.2823
samaria	-10.283
horn	-10.2848
vilj	-10.2856
ingången	-10.2862
unga	-10.2892
trä	-10.2927
öron	-10.2937
kanaan	-10.2937
skuld	-10.2939
sanning	-10.298
bröt	-10.2981
baal	-10.2997
efraim	-10.3021
ge	-10.303
stoft	-10.3045
tabernaklet	-10.3045
kunn	-10.3064
efraims	-10.307
ha	-10.3105
ände	-10.3109
bör	-10.3135
elden	-10.3142
mätta	-10.3146
tacka	-10.3152
rena	-10.3158
mantel	-10.316
antal	-10.3176
ika	-10.318
me	-10.3212
bygg	-10.3219
inbyggare	-10.3266
hälft	-10.3266
bedja	-10.3321
domare	-10.3377
starka	-10.3404
orena	-10.3406
slogo	-10.3408
konungs	-10.3412
kunskap	-10.3426
lyssna	-10.3427
grund	-10.3427
rikedom	-10.3427
ga	-10.3464
ette	-10.3468
josafat	-10.3492
dörr	-10.3495
ogudaktige	-10.3498
läto	-10.3499
sked	-10.3508
am	-10.3517
joa	-10.353
tionde	-10.3541
mark	-10.3571
följ	-10.3583
städerna	-10.3602
druck	-10.3607
dräpa	-10.3615
gråt	-10.3616
striden	-10.3618
ns	-10.3656
mod	-10.3673
stilla	-10.3679
lat	-10.3682
otukt	-10.3693
arm	-10.3709
illa	-10.3715
älskar	-10.3719
stiga	-10.3719
ida	-10.3751
sluta	-10.3757
visste	-10.3761
menigheten	-10.3768
seba	-10.377
bes	-10.378
slår	-10.3793
fin	-10.3816
följa	-10.3818
inmönstrade	-10.3847
förgården	-10.3853
vingar	-10.3859
angå	-10.3888
åker	-10.3896
give	-10.39
utval	-10.3911
fördärv	-10.3926
arken	-10.3929
öde	-10.3932
krig	-10.3934
led	-10.3941
gåvor	-10.3944
församla	-10.3954
benjamin	-10.3998
levi	-10.4023
vari	-10.4026
komme	-10.4041
inga	-10.4045
fulla	-10.4046
seger	-10.4051
fatta	-10.406
unda	-10.4066
stig	-10.4069
orda	-10.4073
assyrien	-10.4081
mörker	-10.4087
välbehaglig	-10.4088
begär	-10.4119
beslut	-10.4126
port	-10.414
kär	-10.414
resa	-10.4152
daniel	-10.4203
im	-10.4203
benjamins	-10.4216
lida	-10.423
församling	-10.4239
lärjungarna	-10.4282
aram	-10.4311
amoréerna	-10.4326
mörkret	-10.4326
brev	-10.4327
sidor	-10.4328
människosonen	-10.4336
tåga	-10.4346
skara	-10.4347
dalen	-10.4385
avgudar	-10.439
mika	-10.4392
bok	-10.4398
förblive	-10.4417
kön	-10.4418
ordet	-10.4419
tankar	-10.4451
plantera	-10.4451
ul	-10.4497
beg	-10.4517
graven	-10.4558
buro	-10.4569
smälek	-10.4578
syndoffer	-10.4579
därom	-10.4604
åtta	-10.4617
människan	-10.4618
ställ	-10.463
svärdet	-10.4636
krossa	-10.4638
sanningen	-10.4655
arbeta	-10.4661
dräpte	-10.4668
gal	-10.4693
gången	-10.4694
pläga	-10.4706
beständig	-10.4707
blygd	-10.4714
vittna	-10.4727
heter	-10.4736
iten	-10.4742
ödmjuka	-10.4758
fångenskap	-10.4769
äter	-10.477
ö	-10.4772
fjärde	-10.4778
offrade	-10.4779
stånd	-10.4779
fursten	-10.4794
profet	-10.4804
lit	-10.482
simon	-10.4836
bäst	-10.4836
hugg	-10.4839
lede	-10.4839
förstfödde	-10.4846
bränna	-10.4851
ihåg	-10.4857
varder	-10.4884
fruktade	-10.489
lögn	-10.4896
fäkreatur	-10.4901
bäcken	-10.4902
ljuset	-10.493
berättade	-10.496
gyll	-10.4967
född	-10.4971
tillbedja	-10.4977
likt	-10.4979
bestå	-10.4992
fröjda	-10.5046
sorg	-10.5049
vredes	-10.5055
ok	-10.5057
y	-10.5084
plåga	-10.509
söder	-10.5098
evärdlig	-10.5101
dödsriket	-10.5101
slaktoffer	-10.5104
grav	-10.511
van	-10.5149
präst	-10.5151
frälsa	-10.5162
mycken	-10.5163
öppnade	-10.52
höjden	-10.5211
vandrade	-10.5231
mjöl	-10.5232
ruben	-10.5235
eleasar	-10.5237
änka	-10.524
förtrösta	-10.5253
varar	-10.5255
drabba	-10.5268
havande	-10.5269
predika	-10.53
ofta	-10.5308
förtära	-10.532
fröjd	-10.5335
ondska	-10.5349
sextio	-10.5375
betel	-10.5376
trodde	-10.539
mål	-10.54
öra	-10.5422
träffade	-10.5426
bak	-10.5458
ringa	-10.5496
efa	-10.5508
gensträvig	-10.5512
rör	-10.5517
förgät	-10.553
elisa	-10.553
vikt	-10.5538
tillflykt	-10.5542
dal	-10.556
lösa	-10.5565
förra	-10.5565
förmå	-10.557
regn	-10.5572
edom	-10.5576
dan	-10.5582
undfå	-10.5616
förkasta	-10.5625
förtörnelse	-10.5653
upprätta	-10.5656
ovänner	-10.5662
styggelser	-10.5676
visade	-10.5679
utföra	-10.5681
j	-10.572
huvuden	-10.5741
herde	-10.5773
hoppa	-10.5774
hövdingar	-10.5788
hebron	-10.5795
myckenhet	-10.5797
göm	-10.5799
job	-10.5804
hals	-10.5818
rökelse	-10.5858
bord	-10.5862
mur	-10.5901
ber	-10.5909
tus	-10.5911
ab	-10.5926
stav	-10.5926
främlingar	-10.5929
välsignelse	-10.593
stött	-10.5936
lyd	-10.5942
driva	-10.5956
skänker	-10.5956
vakt	-10.5959
klippa	-10.5963
smorde	-10.5966
tillhöra	-10.5983
vik	-10.5996
hjälpa	-10.6015
rycka	-10.6034
förbanna	-10.6045
räck	-10.6058
stadga	-10.6058
ka	-10.6067
fäste	-10.6069
sikem	-10.6088
kaldéerna	-10.6089
hjärtat	-10.6098
skada	-10.6101
gat	-10.6107
orter	-10.6115
ödemark	-10.612
sutt	-10.6122
samt	-10.6137
förskräckt	-10.6162
vika	-10.6176
fån	-10.619
hast	-10.6193
viss	-10.6196
väster	-10.6248
råda	-10.6256
klädd	-10.6258
konungarna	-10.629
åkalla	-10.63
skatter	-10.6315
ke	-10.6359
hat	-10.6363
lycka	-10.6369
förskräckelse	-10.6371
bestäm	-10.6373
samman	-10.6376
abimelek	-10.6388
drickoffer	-10.6389
brutit	-10.6389
skriftlärde	-10.639
åsyn	-10.639
glädja	-10.6392
vis	-10.6393
sändebud	-10.6396
smäda	-10.6419
hov	-10.6422
skatt	-10.643
ret	-10.6437
glada	-10.6442
vagn	-10.6457
förbi	-10.6503
kände	-10.6515
bäva	-10.6519
psalm	-10.6542
araméerna	-10.6542
vilse	-10.6543
fariséerna	-10.6546
drick	-10.6552
vänt	-10.6552
honung	-10.6562
murar	-10.6576
frambära	-10.6581
byar	-10.6583
svår	-10.6586
gåva	-10.6595
vandrar	-10.6603
muren	-10.6608
jehu	-10.6624
fängelse	-10.6658
tit	-10.6661
kar	-10.6677
furste	-10.6691
galileen	-10.6698
tungomål	-10.6698
frimodig	-10.6698
eldsoffer	-10.6698
jeriko	-10.6698
bitt	-10.6716
hände	-10.6734
straffa	-10.6747
böj	-10.6754
pröva	-10.6782
mästaren	-10.6785
drev	-10.6822
moders	-10.6842
förbannelse	-10.6844
strömmar	-10.6847
handla	-10.6908
träffa	-10.6915
träl	-10.6921
vädurar	-10.694
lovade	-10.6948
bergsbygd	-10.6952
särskild	-10.6962
hud	-10.7
begrav	-10.7
fett	-10.7005
vänner	-10.7008
möda	-10.7018
glöd	-10.7018
bedrövelse	-10.7018
sidkia	-10.7018
abner	-10.7019
tackoffer	-10.7019
brännoffre	-10.7022
vedergäll	-10.7023
ogudaktigas	-10.7032
gent	-10.7045
översteprästen	-10.7045
avkomlingar	-10.705
noa	-10.7051
korn	-10.7056
kroppen	-10.7061
lågo	-10.7063
träden	-10.7065
utgjut	-10.7083
rik	-10.7098
uppteckna	-10.7123
tider	-10.7126
förbarma	-10.7146
hälsa	-10.7169
änglar	-10.7172
hunger	-10.7178
lukt	-10.7179
bileam	-10.7182
ångest	-10.7182
damask	-10.7182
översteprästerna	-10.7184
vittnesbördet	-10.7203
pass	-10.7236
judar	-10.7242
dödade	-10.7246
garn	-10.7263
himmel	-10.7283
dräpt	-10.7296
hjord	-10.7304
domar	-10.7311
get	-10.7313
leda	-10.7315
lidande	-10.7316
intog	-10.7327
basan	-10.7349
abram	-10.7349
▁»;	-10.735
gossen	-10.7352
fåfänglighet	-10.7356
babyloni	-10.7359
helgedom	-10.7362
vakna	-10.7366
ängeln	-10.737
spjut	-10.7398
dans	-10.7407
hållit	-10.7423
hörn	-10.7436
eli	-10.7446
rot	-10.7469
mordokai	-10.7518
trofasthet	-10.7519
belägra	-10.7524
mästare	-10.7525
befästa	-10.7533
gudsmannen	-10.7541
människo	-10.7542
nytt	-10.7561
fattade	-10.7573
öva	-10.7577
tjurar	-10.7577
förtär	-10.7592
asa	-10.762
berömm	-10.7623
menighet	-10.763
osyra	-10.7631
le	-10.765
stån	-10.7658
gil	-10.7677
östra	-10.7691
nådig	-10.7709
högtid	-10.7717
nödga	-10.7719
frisk	-10.7729
inre	-10.7729
ba	-10.7736
löfte	-10.779
hövding	-10.7796
behaga	-10.7801
fattiga	-10.7801
höga	-10.7805
föröka	-10.7807
bund	-10.7841
mätte	-10.7846
tack	-10.7847
synden	-10.7851
nio	-10.7854
sam	-10.7857
ester	-10.7861
jojada	-10.7866
nebukadnessar	-10.7866
klädnad	-10.787
högste	-10.7878
dör	-10.7883
förråd	-10.7886
sabbaten	-10.7919
livs	-10.7945
sköt	-10.7976
nas	-10.7979
folks	-10.799
skapa	-10.8013
näst	-10.8024
försmäkta	-10.8045
allsmäktige	-10.8045
mjölk	-10.805
ordning	-10.8062
månader	-10.8066
spillo	-10.8097
dörrar	-10.8113
nya	-10.8134
bestämd	-10.8141
bi	-10.8145
larm	-10.8165
bara	-10.8167
förbliva	-10.8211
vänta	-10.8219
huvudet	-10.822
maria	-10.8226
ryttare	-10.8227
sadok	-10.8227
josia	-10.8227
gästabud	-10.8227
pila	-10.8227
laban	-10.8227
småboskap	-10.8227
farit	-10.8237
väsende	-10.8255
vitt	-10.8268
tåg	-10.8288
upptände	-10.8307
vittne	-10.8313
reste	-10.8341
jubel	-10.8347
verklig	-10.8356
rov	-10.8381
hörande	-10.8387
vek	-10.8391
ris	-10.8403
éerna	-10.8403
sköld	-10.8404
tjänade	-10.8405
drottning	-10.8412
simeon	-10.8412
åsna	-10.8412
kananéerna	-10.8414
bota	-10.8415
hemlighet	-10.842
vackla	-10.8424
trälar	-10.8426
visar	-10.8431
vinträd	-10.8442
samlade	-10.8448
lot	-10.8472
spetälska	-10.8472
upphöj	-10.8487
vise	-10.8531
afton	-10.8535
fullt	-10.8543
ansikten	-10.8548
ler	-10.8553
band	-10.8558
furstarna	-10.856
fiende	-10.8573
förlossa	-10.8578
åsnor	-10.8589
vinna	-10.8592
kroppar	-10.8597
▁?'	-10.8598
förkunnade	-10.8601
uppe	-10.8601
prov	-10.8602
vinning	-10.8605
främst	-10.8611
hemsöka	-10.8611
felfri	-10.8615
haman	-10.8621
brist	-10.8629
blyg	-10.8631
ålder	-10.8636
br	-10.8659
köp	-10.8662
bed	-10.8681
bröderna	-10.869
trolös	-10.8746
elig	-10.8752
helgade	-10.8758
nät	-10.8779
vinden	-10.8781
skyldig	-10.8784
gripa	-10.879
grät	-10.8791
iakttag	-10.8806
fånga	-10.8815
vädur	-10.8821
ismael	-10.884
höj	-10.8842
halv	-10.8884
al	-10.8895
stöt	-10.8929
kommande	-10.8939
gods	-10.8945
skilja	-10.8961
syndare	-10.8967
ostrafflig	-10.8988
naftali	-10.8989
rehabeam	-10.8989
joram	-10.8989
tjänstgöring	-10.8989
betyde	-10.899
rykte	-10.8993
räddade	-10.8993
bättring	-10.8994
dött	-10.8999
höjderna	-10.9
överflöd	-10.9005
rum	-10.9012
skaffade	-10.9014
rättfärdigheten	-10.9017
ljud	-10.902
kunnig	-10.9029
rörde	-10.903
skjuta	-10.9032
mäktig	-10.9034
libanon	-10.905
sken	-10.9063
iga	-10.9092
fåren	-10.91
kis	-10.9101
överlämna	-10.9117
rök	-10.9155
lovad	-10.9164
dröm	-10.917
andar	-10.9187
budskap	-10.9189
eländig	-10.9189
begrov	-10.9189
föremål	-10.919
munnen	-10.9192
offereld	-10.9194
tjänarinna	-10.9198
missgärningar	-10.9198
li	-10.9202
fattige	-10.9206
möte	-10.9215
fler	-10.9232
därut	-10.9234
nalka	-10.9264
gift	-10.9264
aser	-10.9318
sänd	-10.9322
känne	-10.9333
ofärd	-10.9341
fria	-10.9353
bedj	-10.9368
fjorton	-10.9393
jisreel	-10.9393
asarja	-10.9393
mörkblå	-10.9393
vingård	-10.9393
fotstycken	-10.9394
bereda	-10.9394
bestånd	-10.9396
förundra	-10.9398
net	-10.9399
fångar	-10.9402
aktade	-10.9407
enlighet	-10.941
ham	-10.9411
sodom	-10.9417
slöt	-10.9424
kvinnorna	-10.9425
asaf	-10.9431
ung	-10.9438
altaren	-10.9442
blotta	-10.9448
ringar	-10.9452
båt	-10.9455
särskil	-10.9498
uppfyllde	-10.9523
ssia	-10.9537
bruka	-10.9546
hän	-10.9552
femte	-10.9568
änden	-10.9572
häri	-10.9581
sörj	-10.9582
befall	-10.9583
gibea	-10.9602
trampa	-10.9602
offergåva	-10.9602
natan	-10.9605
vällukt	-10.9606
sebulon	-10.9611
klagan	-10.9614
överträdelser	-10.9614
hämtade	-10.9626
övermått	-10.9631
tjänaren	-10.9633
kameler	-10.9638
förrätta	-10.9641
uppenbara	-10.9642
skickade	-10.9645
varna	-10.9647
brödet	-10.9648
fiskar	-10.9653
bur	-10.9663
brunn	-10.9663
orenhet	-10.968
blick	-10.9697
kort	-10.9703
angrip	-10.9703
förstod	-10.9722
pest	-10.9745
köpa	-10.9759
överste	-10.9769
sker	-10.9781
rakel	-10.9782
synda	-10.9785
barnet	-10.9804
sjätte	-10.9814
sjön	-10.9815
linne	-10.9817
utvalda	-10.9817
tänder	-10.9821
bröst	-10.9822
kärleken	-10.9829
härom	-10.9839
fastmer	-10.984
förlåta	-10.9844
likaså	-10.9848
tukta	-10.985
gärn	-10.9852
förbundet	-10.9854
riken	-10.9855
utgjuta	-10.986
kalk	-10.9866
häpnad	-10.988
evigheter	-10.9889
blott	-10.9905
gator	-10.9918
stra	-10.992
barnen	-10.9941
dre	-10.9979
aln	-10.9989
förakta	-11.0006
riket	-11.0019
palats	-11.0022
templet	-11.0031
ljusstaken	-11.0033
närmast	-11.0034
beer	-11.0042
klippan	-11.0044
israeliterna	-11.0064
vederfar	-11.0068
mar	-11.0071
egg	-11.008
sabbat	-11.0087
förbannad	-11.0095
vittnen	-11.0154
störta	-11.016
rätten	-11.0161
sions	-11.0166
värde	-11.0175
hungersnöd	-11.0187
tänkt	-11.0191
bitter	-11.0192
strand	-11.0205
sara	-11.0215
stolt	-11.0239
herod	-11.0246
gräs	-11.0247
gideon	-11.0254
gibeon	-11.0254
hydda	-11.0254
simei	-11.0254
begynnelsen	-11.0258
skaror	-11.0258
högg	-11.0258
tuktan	-11.0264
krönika	-11.0266
styrka	-11.0267
föreskriv	-11.0271
ista	-11.0273
ljuvlig	-11.0273
täcke	-11.0283
förnämst	-11.0287
seende	-11.0304
menar	-11.032
förvärva	-11.0324
behöv	-11.0339
fat	-11.0342
krossade	-11.0343
kor	-11.0353
pilar	-11.0372
jubla	-11.0381
c	-11.0387
begå	-11.0387
skön	-11.0388
hyddor	-11.0406
silo	-11.0421
härlig	-11.0425
tröst	-11.0441
gjorda	-11.0449
eus	-11.0462
rev	-11.0468
balak	-11.0481
isaskar	-11.0481
förbundsark	-11.0482
konungshuset	-11.0483
keruberna	-11.0486
utför	-11.0488
utvälj	-11.0499
städe	-11.0501
lammet	-11.0505
isai	-11.0505
skepp	-11.0507
färd	-11.0541
tältet	-11.0554
kläd	-11.0561
små	-11.0562
döm	-11.0577
välsignad	-11.0586
salt	-11.0592
nad	-11.0607
leder	-11.0625
hugga	-11.0667
va	-11.0669
topp	-11.0672
armar	-11.0682
trösta	-11.0683
torr	-11.0689
väldiga	-11.0697
stena	-11.0702
hjältar	-11.0703
falsk	-11.0709
åminnelse	-11.0713
begynn	-11.0713
förstling	-11.0713
underdånig	-11.0714
vapen	-11.0714
hedmark	-11.0714
gärning	-11.0714
judisk	-11.0714
lfte	-11.0714
tillfälle	-11.0714
sakarja	-11.0716
fältet	-11.0718
judeen	-11.0722
visst	-11.0723
djupet	-11.0728
berätta	-11.0733
und	-11.0745
grip	-11.0745
vinet	-11.0754
elst	-11.0782
stänger	-11.0785
sal	-11.0791
krona	-11.0798
huvudmän	-11.0799
vall	-11.08
amen	-11.0807
märk	-11.0815
u	-11.0836
rama	-11.0849
förbränna	-11.0862
sel	-11.0863
månad	-11.0865
övergiv	-11.0868
häpna	-11.088
pelar	-11.0891
lotten	-11.0906
förfölj	-11.0908
ond	-11.0912
skörda	-11.0938
båge	-11.0944
gläd	-11.0945
mispa	-11.0952
kirjat	-11.0952
benaja	-11.0952
lehem	-11.0952
hindra	-11.0954
skona	-11.0954
raka	-11.0965
ytterst	-11.0971
uppfylld	-11.0982
enskap	-11.0986
behör	-11.0992
lysa	-11.1001
röda	-11.1003
gälla	-11.1005
uppfyll	-11.1019
sammal	-11.1035
sträcka	-11.1038
tage	-11.1051
välde	-11.1056
skriften	-11.1057
säll	-11.107
båd	-11.1071
arbetet	-11.1076
vakta	-11.1082
ätter	-11.109
di	-11.1108
vind	-11.1109
upphör	-11.1114
inner	-11.1118
basun	-11.1119
moln	-11.1126
iel	-11.1131
domen	-11.116
kal	-11.117
invånar	-11.1186
amasja	-11.1196
undervisning	-11.1196
filipp	-11.1196
uppståndelse	-11.1196
jojakim	-11.1196
hadad	-11.1196
lovsjung	-11.1197
semaja	-11.1197
utskifta	-11.1199
guden	-11.1199
enlig	-11.1233
lätt	-11.1238
bredd	-11.1238
gen	-11.1238
följd	-11.1241
uppenbarat	-11.1243
tjugufem	-11.1247
djuren	-11.1269
ingång	-11.1275
offerhöjder	-11.1295
skräck	-11.1331
ek	-11.1341
uppstod	-11.136
plundra	-11.1363
erlig	-11.1368
brände	-11.1373
kallat	-11.1387
rika	-11.1393
värdig	-11.1394
lippa	-11.1398
ans	-11.1405
väst	-11.1427
delade	-11.1428
fred	-11.1429
midjan	-11.143
edoms	-11.1439
fält	-11.144
myndighet	-11.1446
tappra	-11.1446
utplåna	-11.1446
drabanterna	-11.1446
anförare	-11.1446
skrev	-11.1447
beläten	-11.1452
rad	-11.1453
seir	-11.1459
krets	-11.146
lovsång	-11.1466
röra	-11.1467
släppa	-11.1472
orna	-11.1474
grenar	-11.1479
tjuren	-11.148
uria	-11.1493
kore	-11.1503
bockar	-11.1504
syndar	-11.1526
hin	-11.156
dagarna	-11.1571
saliga	-11.1573
önska	-11.1578
väldig	-11.1585
ningen	-11.1599
höjd	-11.1604
skriva	-11.1606
brinn	-11.1612
trakt	-11.1612
behålla	-11.1617
själar	-11.162
längd	-11.1622
evighet	-11.1623
pin	-11.1626
svek	-11.1629
lea	-11.1637
samme	-11.1651
dröj	-11.1661
mal	-11.1668
behöva	-11.1669
tjänar	-11.1674
herrar	-11.1679
eln	-11.1682
väpna	-11.1689
tronen	-11.1689
bild	-11.1691
merari	-11.1691
vingårdar	-11.1695
lopp	-11.17
jesaja	-11.1702
ädla	-11.1702
sömn	-11.1702
simson	-11.1702
offergärd	-11.1703
hamat	-11.1704
stjärnorna	-11.1706
aktar	-11.1708
talenter	-11.1714
märkt	-11.1715
allting	-11.1718
nitälskan	-11.172
höjder	-11.1722
tiondedel	-11.1735
åttio	-11.1755
flykt	-11.176
väduren	-11.1768
fattig	-11.1772
lämnat	-11.1781
brunnen	-11.1783
även	-11.1788
drivit	-11.1789
förfölja	-11.1789
härskara	-11.1791
måst	-11.1793
uppenbarade	-11.1793
tända	-11.1801
stenen	-11.1804
konst	-11.1804
bergsbygden	-11.1808
nar	-11.181
mätt	-11.1811
buk	-11.1812
börda	-11.1813
löften	-11.1814
sål	-11.1826
ban	-11.1843
unna	-11.1871
snara	-11.1878
underbar	-11.1893
borde	-11.1911
sjung	-11.1917
ohelga	-11.1927
ring	-11.1957
hesbon	-11.1965
plötslig	-11.1965
femton	-11.1965
kungör	-11.1966
gärd	-11.1967
begjut	-11.1969
apostlarna	-11.197
ugn	-11.1971
anklaga	-11.1978
offret	-11.1979
åkern	-11.1983
gudstjänst	-11.1989
efoden	-11.1989
skinn	-11.1992
förgjorde	-11.1992
tredjedel	-11.2003
förståndig	-11.2009
sonen	-11.2031
aska	-11.2036
uppfylla	-11.2043
bl	-11.2044
slaktade	-11.2075
krigs	-11.2084
frälsare	-11.2085
sörja	-11.21
tung	-11.2116
ungtjur	-11.2126
husfolk	-11.219
jungfru	-11.2208
överträdelse	-11.2219
dryck	-11.2224
hedningar	-11.2225
oxar	-11.2225
assur	-11.2232
äktenskapsbrott	-11.2235
kaleb	-11.2235
adoni	-11.2235
famn	-11.2235
satan	-11.2236
betyga	-11.2236
yngre	-11.2236
trygghet	-11.2236
värn	-11.2242
ahasja	-11.2252
anslag	-11.2254
falska	-11.2292
böner	-11.2318
begärde	-11.232
måltid	-11.2328
ryckte	-11.2354
mak	-11.237
kän	-11.239
höre	-11.2418
sjunk	-11.2422
gjut	-11.2424
tjän	-11.2434
vred	-11.2442
kalv	-11.2443
lyft	-11.2443
fläck	-11.245
löst	-11.2469
vete	-11.2492
skugga	-11.2494
svarar	-11.2495
dyrka	-11.2506
blinda	-11.2508
villig	-11.2509
sydlandet	-11.2513
vänster	-11.2513
trång	-11.2513
svur	-11.2513
lemmar	-11.2513
förklara	-11.2513
andlig	-11.2515
buga	-11.2515
mängd	-11.2516
flickan	-11.2517
fordom	-11.2518
egendom	-11.2519
förskräcka	-11.252
utbred	-11.2522
visdom	-11.2522
skål	-11.2523
ved	-11.2526
räkning	-11.253
fråg	-11.2531
yttr	-11.2535
tak	-11.254
fienden	-11.2545
hörsamma	-11.2552
riklig	-11.2562
tyg	-11.2583
märke	-11.2622
glad	-11.2634
mäktiga	-11.2636
purpurrö	-11.264
uppenbar	-11.2652
ungdom	-11.2667
dagg	-11.2669
hämnd	-11.269
flytta	-11.2713
em	-11.2717
ihjäl	-11.2736
hu	-11.2755
ort	-11.276
herdar	-11.277
person	-11.277
ändar	-11.2772
skålar	-11.2776
oxe	-11.2789
barmhärtig	-11.2797
kehat	-11.2799
tabernakel	-11.2799
fromma	-11.2799
sidon	-11.2802
sabbatsdag	-11.2804
vilddjuret	-11.2805
förhäv	-11.2813
andarna	-11.2814
cederträ	-11.2823
ing	-11.2837
anda	-11.284
böjde	-11.2841
trolösa	-11.2851
betala	-11.2854
sov	-11.2854
fötterna	-11.2855
alls	-11.2861
arv	-11.2867
härliga	-11.2872
sem	-11.2874
grepo	-11.2893
förneka	-11.2895
vär	-11.2896
utgöra	-11.29
fåfänglig	-11.29
has	-11.2916
redlig	-11.2948
svärds	-11.295
slätt	-11.2961
stigar	-11.2966
borg	-11.2985
behåll	-11.3002
sihon	-11.3012
onde	-11.3036
portarna	-11.3062
fräls	-11.3076
uk	-11.3081
överst	-11.3084
abi	-11.3087
ständig	-11.3091
hilkia	-11.3093
vrång	-11.3093
ägodelar	-11.3093
rosenrö	-11.3093
tårar	-11.3095
molnskyn	-11.3095
byggnad	-11.3097
bräder	-11.3098
förmana	-11.3099
möta	-11.31
ull	-11.3101
uttydning	-11.3101
fästa	-11.3102
dalja	-11.3108
baner	-11.3114
skicka	-11.3122
sköldar	-11.3132
val	-11.3149
olyckan	-11.3165
dyrbar	-11.3166
lyssnade	-11.3177
tränga	-11.3184
syner	-11.3194
synt	-11.3199
oomskurna	-11.321
kära	-11.321
åtto	-11.3214
träng	-11.3214
utvalde	-11.3222
baals	-11.3228
släpp	-11.3245
il	-11.3246
säng	-11.3259
elam	-11.3261
ets	-11.3268
bekym	-11.3301
rygg	-11.3304
dyrbara	-11.3321
begrava	-11.3322
ves	-11.3331
gagn	-11.3336
ias	-11.3338
blind	-11.3341
skor	-11.3343
vita	-11.3344
storm	-11.3371
begära	-11.3382
visheten	-11.3386
hövitsmän	-11.3388
ödra	-11.3388
ägde	-11.3396
)	-11.3396
gräshoppor	-11.3396
skaffen	-11.3396
aderton	-11.3396
grotta	-11.3396
nebukadressar	-11.3396
lampor	-11.3396
föräldrar	-11.3396
johanan	-11.3396
frivillig	-11.3397
gröda	-11.3397
äkta	-11.3406
törst	-11.3407
bryter	-11.3409
talrik	-11.341
gråta	-11.3411
efterkommande	-11.3415
bott	-11.3417
besatt	-11.3423
fisk	-11.3423
upplyft	-11.3427
ensam	-11.344
begiv	-11.344
förvara	-11.3451
arma	-11.3453
förhärliga	-11.3454
befallde	-11.3463
binda	-11.3481
tillslut	-11.3487
mes	-11.3489
fäll	-11.3493
flytt	-11.3494
hetta	-11.3495
klädde	-11.3518
upptecknade	-11.352
broders	-11.3524
aktat	-11.3526
gravar	-11.3532
tröstar	-11.3541
månen	-11.3544
pil	-11.3549
talen	-11.3551
räddat	-11.3592
betänk	-11.3593
länd	-11.3604
nöden	-11.3607
förden	-11.3611
bock	-11.3632
ådrag	-11.365
häls	-11.3653
förtryck	-11.366
änkor	-11.3664
bada	-11.3664
vålla	-11.3671
sålde	-11.3673
nämn	-11.3674
drive	-11.3679
vida	-11.3681
upphöjd	-11.3686
torn	-11.3687
mo	-11.369
ska	-11.3691
dårar	-11.3692
stöd	-11.3703
hövitsmannen	-11.3706
rebecka	-11.3708
sorgdräkt	-11.3709
darra	-11.3709
fullkomlig	-11.3709
himmelriket	-11.3709
safan	-11.371
motståndare	-11.3711
djävulen	-11.3712
pant	-11.3713
fränder	-11.3715
öppning	-11.372
orättfärdighet	-11.3723
änglarna	-11.3729
fylla	-11.3734
un	-11.3734
synagoga	-11.3736
länderna	-11.3743
arter	-11.3764
svär	-11.377
högtids	-11.377
knän	-11.3771
förgäta	-11.3772
res	-11.3777
skria	-11.3799
ningar	-11.38
abia	-11.3805
känd	-11.3805
förbida	-11.3807
stöta	-11.3816
käre	-11.3818
släppt	-11.3833
nå	-11.3835
förakt	-11.3835
boken	-11.3842
hänga	-11.3845
ögonen	-11.3847
kall	-11.3859
glädjen	-11.3859
djuret	-11.387
avstånd	-11.3881
sökt	-11.3893
hölj	-11.3911
förståndiga	-11.3923
löv	-11.3924
ig	-11.3928
uträckt	-11.3928
tig	-11.3934
vero	-11.3965
flyt	-11.3972
förskingra	-11.3975
förvandla	-11.398
platser	-11.3995
lem	-11.4
hasta	-11.4001
sälja	-11.4002
gräv	-11.4008
liknelse	-11.4014
färdig	-11.4018
hemsökelse	-11.402
redliga	-11.4024
helg	-11.4028
källa	-11.4028
säker	-11.4031
tillsyningsmän	-11.4031
stötesten	-11.4031
brud	-11.4031
dubbel	-11.4031
avfällighet	-11.4032
högmod	-11.4033
påskhögtid	-11.4033
gräset	-11.404
spets	-11.4043
upptag	-11.4046
förtälja	-11.405
jämra	-11.4069
väggen	-11.4072
muns	-11.4083
bat	-11.4088
saret	-11.4097
unnit	-11.41
strå	-11.4102
tillbåd	-11.4105
spis	-11.4114
höghelig	-11.412
högre	-11.4134
ledde	-11.4166
vård	-11.4173
sabbater	-11.4174
dåren	-11.4178
växte	-11.4181
trog	-11.4185
uppehåll	-11.4208
vanlig	-11.4213
förstöra	-11.4223
förgä	-11.4255
dåre	-11.4283
döpa	-11.4286
skrift	-11.429
ogudaktighet	-11.4297
begåv	-11.4306
vunn	-11.431
älsk	-11.4313
alt	-11.4319
räddar	-11.4322
förkunnar	-11.4336
abas	-11.4341
sjukdom	-11.4342
tjänstekvinna	-11.4346
finge	-11.4359
göt	-11.4361
smörj	-11.4364
ebjatar	-11.4364
hungrig	-11.4364
jefta	-11.4364
karmel	-11.4364
vattnen	-11.4364
dåraktig	-11.4364
betyda	-11.4364
vattna	-11.4365
berömmelse	-11.4366
orenlighet	-11.4367
insikt	-11.4367
sångarna	-11.4367
tillstadde	-11.4369
samvete	-11.4369
jungfrur	-11.4385
sol	-11.441
besvär	-11.4417
vaka	-11.4419
löpa	-11.4434
hustrun	-11.4435
norra	-11.4444
fas	-11.4445
locka	-11.4452
skapade	-11.4483
gl	-11.4489
gap	-11.4503
bon	-11.451
finger	-11.4517
hor	-11.4542
verka	-11.4546
jona	-11.4551
obed	-11.4581
förtörna	-11.4589
öppe	-11.4605
förste	-11.4608
by	-11.4611
sky	-11.4618
lustgård	-11.4631
tamar	-11.4633
boa	-11.4642
skog	-11.4654
köpt	-11.4656
mild	-11.467
ångra	-11.4683
akten	-11.4691
silv	-11.4692
amalek	-11.4709
brokig	-11.4709
hallel	-11.4709
lyckosam	-11.4709
tacksägelse	-11.4709
terebint	-11.4709
kedjor	-11.4709
bojor	-11.4709
dårskap	-11.4709
▁----	-11.4709
kades	-11.471
åstunda	-11.471
räddning	-11.471
övertäck	-11.4711
skrivelse	-11.4713
kryddor	-11.4715
hananja	-11.4715
godhet	-11.4717
gjuta	-11.4734
saken	-11.4736
ört	-11.4744
skilje	-11.4765
njuta	-11.4766
psaltar	-11.4776
esra	-11.4791
klar	-11.4798
skicklig	-11.4801
kull	-11.4809
svaga	-11.4813
breda	-11.4819
högtiden	-11.4849
ömka	-11.4858
predikade	-11.4871
strids	-11.4874
kammare	-11.4885
röd	-11.4897
utgå	-11.4906
driv	-11.4913
bosatt	-11.4942
summa	-11.4943
dela	-11.4952
kus	-11.4953
pund	-11.4964
fira	-11.4975
värd	-11.4982
utrotade	-11.4986
korsfäst	-11.4987
befäst	-11.4987
hednafolk	-11.5
eden	-11.5002
bleve	-11.501
stridsmän	-11.5012
sera	-11.5014
hjordar	-11.503
kakor	-11.5031
unge	-11.5033
förtorka	-11.5037
sist	-11.5045
fruktansvärd	-11.505
daglig	-11.505
avfall	-11.5055
klaga	-11.5057
vilddjur	-11.5064
akacieträ	-11.5066
gamle	-11.5066
ivrig	-11.5066
kejsaren	-11.5066
plågor	-11.5066
assyrisk	-11.5066
baesa	-11.5066
tarsis	-11.5066
jebuséerna	-11.5067
skuldoffer	-11.5067
delaktig	-11.5067
vredga	-11.5067
faderlöse	-11.5067
sekreteraren	-11.5069
abel	-11.5069
uja	-11.507
bedrev	-11.5071
elände	-11.5072
skyn	-11.5072
druvor	-11.5078
oro	-11.5078
hemsökelsen	-11.5079
allra	-11.5082
bespeja	-11.5082
avdelningar	-11.5085
lärare	-11.5088
ussia	-11.5088
trumpeter	-11.5094
drömmen	-11.51
personer	-11.5103
förtäljde	-11.5104
våga	-11.514
förströ	-11.5158
fängelset	-11.516
vandr	-11.5162
törnen	-11.5192
len	-11.5194
intaga	-11.5218
kant	-11.5222
lys	-11.5223
svart	-11.5227
dana	-11.526
dels	-11.5265
salig	-11.5269
lju	-11.5276
fördärvlig	-11.528
svag	-11.5314
fatt	-11.5336
avkomma	-11.5336
hjorden	-11.5337
torka	-11.5339
sjö	-11.5341
pen	-11.5352
syssl	-11.5362
lar	-11.5367
sälj	-11.5376
förordna	-11.5378
like	-11.5384
överdrog	-11.5392
kastar	-11.54
mörk	-11.5418
högtider	-11.5424
stränga	-11.5426
folkslag	-11.5434
övermod	-11.5436
dräkt	-11.5436
krans	-11.5437
inälvor	-11.5437
amnon	-11.5437
sallum	-11.5437
drömmar	-11.5437
fyrfotadjur	-11.5437
glans	-11.5437
förstocka	-11.5437
lagd	-11.5439
form	-11.5442
anska	-11.5443
förföljare	-11.5445
skändlighet	-11.5446
fångna	-11.5448
befallningar	-11.5451
hjältarna	-11.5453
frat	-11.5459
andan	-11.5466
omma	-11.5487
sakna	-11.5487
upphöja	-11.5507
talrika	-11.5512
fång	-11.5517
bedrövad	-11.5517
uppenbarelse	-11.5526
bävan	-11.5576
hänt	-11.5581
dor	-11.5601
vinner	-11.562
ionde	-11.5626
ehas	-11.5637
skaka	-11.5639
profeterade	-11.5642
straff	-11.5657
fäderna	-11.568
sif	-11.5687
syne	-11.5699
tillstäd	-11.5709
junga	-11.5723
ormen	-11.5725
mos	-11.5729
frälsar	-11.5735
bedröva	-11.5742
flod	-11.5757
överdrag	-11.576
snö	-11.5762
vit	-11.5765
grop	-11.5766
ryck	-11.5773
meddela	-11.5777
svärja	-11.5779
kare	-11.5783
avdelning	-11.5796
fl	-11.5801
begärelse	-11.5807
legat	-11.5816
förtörnade	-11.5817
kvarleva	-11.582
bälte	-11.5821
nådastolen	-11.5821
smädelse	-11.5821
stjäl	-11.5821
hjälte	-11.5821
maaka	-11.5821
njurar	-11.5821
förmörka	-11.5822
seruja	-11.5822
skott	-11.5822
strömma	-11.5822
ordspråk	-11.5823
svärfader	-11.5826
kon	-11.5826
församlingarna	-11.5828
stormvind	-11.5832
sucka	-11.5832
utkräva	-11.5833
herdarna	-11.5836
filistéen	-11.5836
bedriva	-11.5844
övergåvo	-11.5878
aim	-11.5879
förvilla	-11.5885
kain	-11.5886
förlita	-11.5893
omgjorda	-11.5895
skogen	-11.5896
utstå	-11.5903
stängd	-11.591
räknade	-11.5911
förstör	-11.5911
gården	-11.5934
försåt	-11.5939
fullbordat	-11.5984
spel	-11.5995
nam	-11.6008
vistade	-11.6013
fånge	-11.6023
släkten	-11.6027
årsgam	-11.6031
spr	-11.6042
grep	-11.6044
ahia	-11.605
höjde	-11.6055
skjut	-11.6076
ekron	-11.6076
aste	-11.6085
trött	-11.6088
oskyldig	-11.6099
dömd	-11.6099
slöto	-11.6105
fördärvade	-11.6118
ljuda	-11.6126
stann	-11.6144
behöve	-11.6146
häst	-11.6149
örn	-11.6151
bönhör	-11.6162
hövdingdöme	-11.6175
sua	-11.6188
betjäna	-11.6188
fostra	-11.6209
fästen	-11.6215
hövitsman	-11.6218
fikonträd	-11.622
oförnuft	-11.6221
ämbete	-11.6221
berättelse	-11.6221
förgrymmelse	-11.6221
mesullam	-11.6221
misskund	-11.6221
vux	-11.6221
arnon	-11.6221
plundring	-11.6221
rimmon	-11.6221
samarien	-11.6221
äventyr	-11.6221
åkrar	-11.6222
nebat	-11.6222
▁';	-11.6222
ståndaktighet	-11.6223
betalning	-11.6223
skipa	-11.6224
darej	-11.6224
förmådde	-11.6224
behövde	-11.6224
tackoffret	-11.6226
uträcka	-11.6228
seraja	-11.6229
hetiterna	-11.6231
längta	-11.6232
harpor	-11.6232
basuner	-11.6236
frambär	-11.6241
väsendena	-11.6248
fest	-11.6262
helgedomssik	-11.627
esai	-11.6271
amon	-11.6272
ynglingar	-11.6276
ram	-11.6278
korg	-11.6283
laki	-11.6289
hednafolken	-11.6297
iska	-11.6302
trötta	-11.6315
brott	-11.6323
upplåt	-11.6326
blive	-11.6338
ikläd	-11.6341
utropa	-11.6347
dråpare	-11.6359
kvarlevan	-11.6372
ppa	-11.6378
långa	-11.6379
jesua	-11.6382
blås	-11.6385
heta	-11.6391
trädet	-11.6405
ungdoms	-11.6416
överlämnade	-11.6422
överstepräst	-11.6426
sed	-11.6442
blicka	-11.6451
sköna	-11.6456
lyst	-11.646
els	-11.6468
häng	-11.6469
skapare	-11.6478
lasta	-11.6517
hur	-11.6536
flöda	-11.6541
förhus	-11.6568
lej	-11.6572
skörd	-11.6576
avund	-11.6586
doms	-11.6605
bords	-11.6606
myck	-11.6606
miss	-11.6613
teckne	-11.6616
upphäv	-11.6616
baka	-11.6619
israeliter	-11.663
skrifter	-11.6634
tanke	-11.6638
majestät	-11.6638
viftoffer	-11.6638
asdod	-11.6638
bommar	-11.6638
jotam	-11.6638
härbärge	-11.6638
drack	-11.6638
olje	-11.6638
tretton	-11.6638
sexton	-11.6638
himmelska	-11.6638
klagorop	-11.6639
nittio	-11.6639
feta	-11.6641
läst	-11.6642
uppväckt	-11.6643
lin	-11.6644
underhövitsmän	-11.6644
uppsikt	-11.6644
smaka	-11.6647
rådslag	-11.6649
nadab	-11.6652
läsa	-11.6664
upphäva	-11.6667
fördärvet	-11.6672
don	-11.6676
noga	-11.6677
tröskel	-11.6679
når	-11.6686
synagogor	-11.6692
arme	-11.6713
störtade	-11.6716
samlat	-11.6717
föder	-11.6729
efterfölj	-11.6748
vårda	-11.6765
kast	-11.677
dömen	-11.6792
äran	-11.6792
övr	-11.6796
asas	-11.6798
rening	-11.68
hövdingen	-11.68
aseror	-11.6805
hängde	-11.681
altar	-11.6815
eser	-11.6823
kors	-11.6827
vilda	-11.6834
brännoffers	-11.6839
siare	-11.6841
fäkreaturen	-11.6855
skri	-11.6858
bero	-11.6861
dräp	-11.6871
spår	-11.6874
friden	-11.6894
klag	-11.6896
lyste	-11.6902
sorge	-11.6911
lid	-11.692
sträng	-11.6922
förblev	-11.6925
fälla	-11.6933
budbärare	-11.6935
hanan	-11.6937
familj	-11.6978
kol	-11.6986
evad	-11.6987
hål	-11.699
mor	-11.702
ahi	-11.7027
fel	-11.7033
ström	-11.7035
tål	-11.7044
rinna	-11.7045
lagar	-11.7047
timm	-11.705
kuva	-11.7055
fresta	-11.7056
fördrag	-11.7061
hövdingarna	-11.7064
begynnelse	-11.7066
dörrvaktarna	-11.7073
fönstre	-11.7073
gomorra	-11.7073
hebreisk	-11.7073
egyptisk	-11.7073
maaseja	-11.7073
semes	-11.7073
skägg	-11.7073
arbets	-11.7073
makir	-11.7073
mattan	-11.7075
susan	-11.7075
anställ	-11.7075
hasael	-11.7076
hiram	-11.7076
måtte	-11.7078
rådslut	-11.7079
fågeln	-11.7083
bedrivit	-11.7085
klok	-11.7086
hårda	-11.7088
nere	-11.709
utseende	-11.7092
gård	-11.7101
maha	-11.7102
vilo	-11.7105
uppväckte	-11.7106
övermäktiga	-11.7106
torra	-11.7121
naken	-11.713
stadig	-11.7132
arbetare	-11.7134
bida	-11.7148
förstån	-11.7161
sysslor	-11.7162
fattat	-11.7166
borgen	-11.7175
förvandlade	-11.7179
bägare	-11.7181
besinna	-11.7181
väntade	-11.7184
döp	-11.7186
sommar	-11.7195
ela	-11.7199
bedraga	-11.7203
store	-11.7231
ött	-11.7242
fördold	-11.7242
tycke	-11.7246
grunden	-11.7257
församlat	-11.7263
utfärda	-11.7264
kora	-11.7274
gränser	-11.7276
lund	-11.7287
konunga	-11.7289
hemsökt	-11.7295
fångenskapen	-11.7303
våder	-11.7304
tiga	-11.7326
tillbörlig	-11.7347
bese	-11.7349
dda	-11.7369
höljd	-11.7376
förlora	-11.7379
omskurna	-11.7381
regna	-11.7385
bryt	-11.7396
änkan	-11.7406
synen	-11.7407
penning	-11.7408
avföll	-11.7409
skap	-11.7431
köpte	-11.7455
skild	-11.7455
panna	-11.7458
tjur	-11.7461
dölj	-11.7471
sinai	-11.7475
kysst	-11.748
livklädnad	-11.7484
log	-11.7486
förödelse	-11.7503
spärra	-11.7504
framsida	-11.7505
fågel	-11.7517
konungslig	-11.752
skära	-11.7521
ståthållare	-11.7526
mus	-11.7526
befäl	-11.7526
ståndaktig	-11.7526
keruber	-11.7526
förvirring	-11.7527
macedonien	-11.7527
näsa	-11.7527
perisséerna	-11.7527
serubbabel	-11.7527
hungra	-11.7527
peres	-11.7527
ersättning	-11.7527
tjänarinnor	-11.7527
mötte	-11.7528
påskalamme	-11.7528
redskap	-11.7528
smörjelseolja	-11.7528
amalekiterna	-11.7528
nabot	-11.7528
bokrulle	-11.7528
leviten	-11.7529
elva	-11.7529
lydnad	-11.7529
nabal	-11.7529
begrunda	-11.753
adam	-11.7531
bakhåll	-11.7532
likadan	-11.7533
blodskuld	-11.7534
slagen	-11.7536
frihet	-11.7536
gasa	-11.7537
skeppet	-11.7538
källan	-11.754
vedergällning	-11.7541
hjälpare	-11.7546
antända	-11.7547
begärelser	-11.7547
väldige	-11.7553
konungadömet	-11.7555
grundvalar	-11.7556
stadsporten	-11.756
lejonet	-11.7567
dol	-11.7573
hären	-11.7577
åkallan	-11.7581
märka	-11.7592
flyga	-11.7599
eber	-11.7601
väga	-11.7612
anskaffa	-11.7615
förståndige	-11.7624
tvinna	-11.7628
företag	-11.7629
fördrev	-11.7634
utbr	-11.7634
stänk	-11.7641
rusta	-11.7682
bredde	-11.7694
dölja	-11.7697
fikon	-11.7702
pi	-11.7703
uppdrag	-11.7708
vänlig	-11.7735
kalvar	-11.7739
sinnes	-11.7747
församlings	-11.7757
brinna	-11.7759
ödelagd	-11.7762
förgör	-11.7764
dödat	-11.7777
vett	-11.7792
smor	-11.7818
koras	-11.7832
mäns	-11.784
lärde	-11.7872
hemfall	-11.788
uppmana	-11.7885
trädgård	-11.7886
kost	-11.7889
strömmen	-11.789
säck	-11.7896
had	-11.79
geba	-11.7912
pu	-11.7916
skörden	-11.7923
makten	-11.7924
håg	-11.7928
list	-11.7929
minst	-11.7942
besök	-11.7948
uppbygg	-11.7956
bortförd	-11.7956
talet	-11.7957
riva	-11.7968
försvinna	-11.7972
beläte	-11.7977
frälsningen	-11.7982
tvist	-11.7988
bihustru	-11.7991
leviter	-11.7993
dödad	-11.7999
take	-11.8
omsorg	-11.8001
hämna	-11.8001
vånda	-11.8002
äldr	-11.8003
0	-11.8004
apostel	-11.8004
häftig	-11.8004
nilfloden	-11.8004
sammankomst	-11.8004
ypperst	-11.8004
cypress	-11.8004
isebel	-11.8004
persien	-11.8004
rämna	-11.8004
äktenskapsbryt	-11.8004
knapp	-11.8004
vifta	-11.8004
orättrådig	-11.8004
elkana	-11.8004
kunglig	-11.8004
vapendragare	-11.8004
genomborra	-11.8004
kruka	-11.8004
yngste	-11.8004
ouppsåtlig	-11.8004
årsgammal	-11.8004
noomi	-11.8004
hån	-11.8005
vaken	-11.8005
sisera	-11.8005
sköte	-11.8006
amasa	-11.8006
hasor	-11.8006
tungor	-11.8006
ostrafflighet	-11.8008
eliab	-11.8008
övertäckte	-11.8008
timna	-11.8011
troende	-11.8013
starkhet	-11.8013
kvist	-11.8013
vanära	-11.8014
fåkunnig	-11.8014
kämpar	-11.8016
havs	-11.8019
joel	-11.802
pelare	-11.8025
härskarorna	-11.8025
uppväcka	-11.8025
kriget	-11.8028
påbud	-11.803
gerson	-11.8036
framställde	-11.804
fruktsamma	-11.8047
fyll	-11.8047
hövdingdömen	-11.8059
tera	-11.8063
hjulen	-11.8064
minne	-11.8073
förskjut	-11.8074
drycker	-11.8074
bedrag	-11.8081
saba	-11.8084
förfärade	-11.8086
ling	-11.8105
itamar	-11.8115
funne	-11.8133
skända	-11.8145
bygger	-11.8146
gifta	-11.8156
ungar	-11.8156
trofast	-11.8159
ger	-11.8166
rikt	-11.8168
strö	-11.8182
brodern	-11.8182
färda	-11.8188
horon	-11.819
väv	-11.8201
bilder	-11.8212
lusta	-11.8231
staven	-11.8236
murpelar	-11.8261
lyfta	-11.827
ko	-11.8277
bespottar	-11.8282
kunskapen	-11.8294
krigsmän	-11.8306
fal	-11.831
uttala	-11.8312
dia	-11.8314
möjlig	-11.8323
grönska	-11.8332
delar	-11.8344
offerhöjd	-11.8346
libanons	-11.8348
rättvisa	-11.8354
utförde	-11.8364
vissna	-11.8374
tillb	-11.8376
törne	-11.8382
mist	-11.8393
knä	-11.8403
teckna	-11.8431
kia	-11.8431
rumme	-11.8437
kem	-11.8444
mening	-11.8444
sake	-11.8466
flöde	-11.8488
stolpar	-11.8488
ceder	-11.8494
skändlig	-11.8494
uel	-11.8496
invig	-11.8497
omgjordade	-11.8501
tjänarna	-11.8503
hagel	-11.8503
ahitofel	-11.8504
anatot	-11.8504
bröstskölden	-11.8504
bädd	-11.8504
fönster	-11.8504
hesron	-11.8504
hivéerna	-11.8504
sammansvärjning	-11.8504
sannfärdig	-11.8504
netanja	-11.8504
stappla	-11.8504
surdeg	-11.8504
simri	-11.8504
ninev	-11.8504
ahikam	-11.8504
tillkommelse	-11.8504
varelser	-11.8504
mutor	-11.8504
fariséer	-11.8504
plocka	-11.8505
fängsla	-11.8505
klagosång	-11.8506
härskri	-11.8507
hundarna	-11.8509
livsdagar	-11.8509
kallad	-11.851
befria	-11.8511
irsa	-11.8511
skyarna	-11.8511
levitisk	-11.8514
himlarna	-11.8516
tröskplats	-11.8518
fyrfat	-11.8519
källor	-11.852
oxen	-11.8522
marja	-11.8522
köttslig	-11.8526
lider	-11.8526
jämmer	-11.8531
rökelsen	-11.8534
hurudan	-11.8536
låde	-11.8548
vedermöda	-11.8549
omskära	-11.855
ljungeldar	-11.8556
förlid	-11.8558
glöm	-11.8558
övermodig	-11.8559
skilde	-11.8562
bered	-11.8567
blods	-11.8573
återstod	-11.8574
lagbok	-11.8574
sådde	-11.8579
hölja	-11.858
obadja	-11.8582
övar	-11.8582
anställde	-11.8594
förskingrade	-11.8603
övat	-11.8604
lärjunge	-11.8608
trygg	-11.8626
stol	-11.8635
gata	-11.8636
säge	-11.8641
molnen	-11.8644
kastad	-11.8652
salen	-11.8653
halm	-11.8656
hungersnöden	-11.8658
stum	-11.8689
föraktar	-11.8695
inbärga	-11.8718
förjaga	-11.8725
one	-11.8726
änker	-11.8729
lydig	-11.8743
offr	-11.8753
färde	-11.8776
våd	-11.8788
träde	-11.8801
vaktar	-11.8805
öv	-11.8808
fåfäng	-11.8822
skilt	-11.8832
våg	-11.8853
smord	-11.8856
arbeten	-11.8861
fröjde	-11.8862
rid	-11.8866
rygga	-11.8881
trätt	-11.8889
yngling	-11.889
löftes	-11.8909
manna	-11.8918
tände	-11.8922
ru	-11.8925
längs	-11.8934
båg	-11.8956
bevis	-11.8958
hjul	-11.8963
handfyllning	-11.8983
följe	-11.8984
nasir	-11.8984
täckelse	-11.8989
iver	-11.8994
gömd	-11.9009
härskaror	-11.9014
tornet	-11.9018
föreståndare	-11.9022
skar	-11.9029
ogärningsmän	-11.9029
blommor	-11.903
jearim	-11.903
jordbävning	-11.903
libna	-11.903
systrar	-11.903
cedrar	-11.903
nordlandet	-11.903
suckot	-11.903
utsaga	-11.903
prydnad	-11.903
lampa	-11.903
smörjelse	-11.903
skördetiden	-11.903
abisai	-11.903
hårdhet	-11.9031
rådsherrar	-11.9031
syndoffret	-11.9032
åklagare	-11.9032
gläns	-11.9032
klokhet	-11.9032
lugn	-11.9033
landsmän	-11.9033
förlåtelse	-11.9033
orygglig	-11.9033
skönhet	-11.9034
moabiterna	-11.9035
förfäran	-11.9035
meller	-11.9036
rådet	-11.9038
vältra	-11.9038
morgonrodnaden	-11.9039
asien	-11.9042
manskap	-11.9042
utgöt	-11.9045
förrådshus	-11.9046
rab	-11.905
hårdnacka	-11.9052
fördrivna	-11.9054
koka	-11.9056
tyckte	-11.9056
eg	-11.907
åren	-11.9075
hästarna	-11.9076
lyda	-11.9077
förlorat	-11.9078
kiv	-11.9078
palmer	-11.9078
reser	-11.9086
angrep	-11.9091
teman	-11.9093
duvor	-11.9097
omtala	-11.9111
därovan	-11.9111
befäste	-11.9114
räcka	-11.9123
rötter	-11.9132
öpp	-11.9137
amod	-11.9145
närmar	-11.9146
löftet	-11.915
gladde	-11.915
inbjud	-11.9151
tempelkamrar	-11.9166
överens	-11.9175
teg	-11.9176
otrogna	-11.92
grunda	-11.9227
bespotta	-11.9249
bete	-11.9261
pryd	-11.927
bereder	-11.9272
vägg	-11.9311
tänt	-11.9327
förväg	-11.9332
haran	-11.9339
flyta	-11.9361
fart	-11.9382
låna	-11.9395
stråla	-11.9395
josa	-11.9407
röva	-11.9425
törsta	-11.9429
fördol	-11.9439
löp	-11.9469
skydd	-11.9473
borgare	-11.9489
gjord	-11.9492
éer	-11.9499
stång	-11.9503
fördärvar	-11.9512
gårdarna	-11.9514
förlossare	-11.9515
trogna	-11.952
uppsluka	-11.9521
dde	-11.9528
frambur	-11.9531
betryck	-11.9544
tillräkna	-11.9544
efes	-11.9549
mir	-11.9549
vack	-11.9551
kel	-11.9558
övrig	-11.9561
döpt	-11.9563
kloka	-11.9565
gar	-11.957
gröna	-11.9572
apostlar	-11.9576
sköka	-11.9576
girig	-11.9584
avfällig	-11.9584
förnumm	-11.9585
instrument	-11.9585
kräldjur	-11.9585
skillnad	-11.9585
tillrättavisning	-11.9585
▁'?»	-11.9585
kegila	-11.9585
tobia	-11.9585
späd	-11.9585
fogdar	-11.9585
ruiner	-11.9586
hasab	-11.9586
försagd	-11.9586
förödd	-11.9586
asael	-11.9587
svärmoder	-11.9587
förhänge	-11.9592
medel	-11.9594
jok	-11.9594
misshaga	-11.9597
förändra	-11.9599
landshövdingen	-11.9599
nahor	-11.9599
doppa	-11.9601
svaghet	-11.9601
infria	-11.9602
avkastning	-11.9611
beta	-11.9611
olivträd	-11.9612
låglandet	-11.9613
liknelser	-11.9615
förtrycka	-11.9618
styrk	-11.9621
nitälska	-11.9625
murarna	-11.9626
himlar	-11.9628
angripn	-11.9636
ostraffad	-11.9638
fastställ	-11.9638
nätter	-11.964
tecknade	-11.9645
ovän	-11.9648
orsak	-11.9656
fyllde	-11.9657
förvissna	-11.9661
älskare	-11.9663
helgad	-11.9671
manoa	-11.9691
återstå	-11.9698
getter	-11.9705
otrohet	-11.9715
vägra	-11.9722
orten	-11.9723
hetit	-11.9727
träffat	-11.973
tim	-11.9731
ce	-11.9741
fördriva	-11.9749
söt	-11.9767
jubelår	-11.9785
terna	-11.9787
sarai	-11.979
förtörnad	-11.9791
läste	-11.9794
nedan	-11.9803
beröva	-11.9807
ordningen	-11.9809
förtärde	-11.9812
upptänd	-11.9814
anak	-11.9814
ims	-11.982
skänk	-11.9838
elifa	-11.9845
försyn	-11.9853
svåra	-11.9854
begynt	-11.9881
gest	-11.9887
låte	-11.9914
varande	-11.994
hagar	-11.9949
brand	-11.9954
sova	-11.9959
tröska	-11.9966
förkunn	-11.9998
färdade	-12.0005
hemlig	-12.0009
spill	-12.0014
hala	-12.0026
soba	-12.0029
ex	-12.0048
träldom	-12.0053
jam	-12.0054
kam	-12.0061
ll	-12.0081
förtälj	-12.0083
läs	-12.0096
jämn	-12.0097
rest	-12.0128
empel	-12.0133
lögnaktig	-12.0142
sädes	-12.0146
kastning	-12.0147
maten	-12.016
löje	-12.0171
jakim	-12.0173
väder	-12.0174
blomster	-12.0174
böljor	-12.0174
cymbal	-12.0174
oavlåtlig	-12.0174
skonsamhet	-12.0174
eljasib	-12.0174
etiopien	-12.0174
tordön	-12.0174
vävnad	-12.0174
ahimelek	-12.0174
inföding	-12.0174
endräktig	-12.0174
levnad	-12.0174
atalja	-12.0174
tempelsalen	-12.0174
rabbi	-12.0174
sikel	-12.0174
▁?»,	-12.0174
rytande	-12.0174
försvunn	-12.0175
ledning	-12.0175
horeb	-12.0175
ussiel	-12.0176
baalerna	-12.0176
elisama	-12.0177
lasar	-12.0177
mönstrade	-12.0178
havsländerna	-12.0178
falskhet	-12.0178
rota	-12.018
bekant	-12.018
krigsfolk	-12.018
uthärda	-12.018
grön	-12.0181
naaman	-12.0182
veder	-12.0183
gryta	-12.0183
kungjor	-12.0185
riktig	-12.0188
törstig	-12.0192
grannar	-12.0193
rekab	-12.0193
förfärdiga	-12.0195
bihustrur	-12.0196
bras	-12.0207
näpst	-12.0212
förhuset	-12.0212
ägare	-12.0217
omstörta	-12.0222
nyttig	-12.0223
tvärt	-12.0228
mäta	-12.023
tillreda	-12.0232
greker	-12.0235
spela	-12.0235
sjukdomar	-12.0237
heman	-12.0251
betesmarker	-12.0251
gasell	-12.0254
avbild	-12.0256
undergång	-12.0257
uträtta	-12.0257
leta	-12.0268
stadd	-12.027
spän	-12.0277
korsfästa	-12.0282
förståndet	-12.0283
höja	-12.029
ofruktsam	-12.0291
folkslagen	-12.0293
blåsa	-12.0296
spring	-12.0305
salm	-12.0306
förhud	-12.0313
höljde	-12.0314
värte	-12.0317
barak	-12.0318
förmaning	-12.0336
mång	-12.034
dyr	-12.0341
seglade	-12.0342
gera	-12.0344
gårdar	-12.0356
uppbygga	-12.0359
harpa	-12.0371
vingården	-12.0374
halta	-12.0384
våldsam	-12.0394
växt	-12.0394
gudarna	-12.0403
klago	-12.0419
saml	-12.0435
lydde	-12.0437
vild	-12.0444
hopar	-12.0445
snår	-12.0451
hanok	-12.0455
reda	-12.0461
arvs	-12.0463
doft	-12.0465
torg	-12.0468
stoder	-12.0485
skrymt	-12.0487
lögnen	-12.0487
skåd	-12.0505
barm	-12.0508
axel	-12.0525
ahima	-12.0544
barnlös	-12.0547
skådade	-12.0558
nåden	-12.0582
bevarade	-12.0585
vann	-12.0594
regnet	-12.0595
tillbedj	-12.0612
syra	-12.0622
rövare	-12.0626
hämtat	-12.0627
bringan	-12.063
kaka	-12.0639
orenade	-12.064
skin	-12.0668
lärjung	-12.0669
avkomling	-12.0674
ställen	-12.0678
bägar	-12.068
värt	-12.0681
x	-12.0692
vagns	-12.0697
ku	-12.0727
bäck	-12.073
örnen	-12.074
vingårds	-12.0746
rättfärdighets	-12.0756
skurna	-12.0757
betryckt	-12.0765
uppenbarad	-12.0779
kämpa	-12.0782
inseg	-12.0783
lup	-12.0788
stjärnor	-12.0789
sprid	-12.0789
ebed	-12.0794
väktare	-12.0796
lyte	-12.0796
renar	-12.0797
frestelse	-12.0799
läglar	-12.0799
myrra	-12.0799
pansar	-12.0799
åsninnor	-12.0799
styggelig	-12.0799
nebusa	-12.0799
vräng	-12.0799
tillförsikt	-12.0799
lystnad	-12.0799
huvudbindel	-12.0799
boskapsdjur	-12.0799
jefunne	-12.0799
amram	-12.0799
betrakta	-12.0799
intag	-12.08
förföljelse	-12.08
hagg	-12.0801
rubeniterna	-12.0801
ungt	-12.0801
skorv	-12.0802
nätverk	-12.0802
gömma	-12.0802
störste	-12.0803
pärl	-12.0807
fikonträdet	-12.0808
trälinna	-12.0809
korset	-12.081
göre	-12.081
uppehöll	-12.0811
aroer	-12.0814
malkia	-12.0814
gudsman	-12.0818
utgjuter	-12.0825
siba	-12.0828
töck	-12.0829
ussa	-12.0829
fångarna	-12.083
granatäpplen	-12.083
publikaner	-12.0834
spänna	-12.0837
avgrunden	-12.0838
ng	-12.0841
skuggan	-12.0841
härav	-12.0842
betryckta	-12.0844
profetisk	-12.0846
farbroder	-12.0847
stänga	-12.0849
förskräcke	-12.0851
vederkvick	-12.0855
renas	-12.0856
bedriv	-12.0857
främlingarna	-12.0867
gode	-12.0875
lån	-12.0878
avgudarna	-12.0883
tvag	-12.0889
dröja	-12.0907
foga	-12.0914
slipp	-12.0918
tomt	-12.0919
ällning	-12.0928
bela	-12.093
oomskuren	-12.0935
sängen	-12.0942
flyttade	-12.0943
oförgänglig	-12.0945
kula	-12.0953
ryckt	-12.0958
idel	-12.0966
strödd	-12.0978
fru	-12.0985
översta	-12.0985
ormar	-12.0993
renade	-12.0997
fina	-12.101
kläde	-12.1018
trygga	-12.1018
kränkt	-12.1019
fe	-12.1053
ki	-12.1057
hälsade	-12.1061
orolig	-12.1081
härja	-12.1084
abiga	-12.1099
lyssn	-12.1109
rull	-12.1117
härskare	-12.1131
kyss	-12.1137
avstod	-12.1141
fordra	-12.1146
räk	-12.1172
luta	-12.1182
undkomm	-12.1184
natur	-12.1187
uppbyggd	-12.1207
nit	-12.1218
beskärm	-12.1234
jer	-12.1255
befinn	-12.1258
dråpar	-12.1258
upptaga	-12.1265
styra	-12.1273
församl	-12.1278
förstörd	-12.128
kind	-12.1296
omri	-12.13
ång	-12.1307
smädar	-12.1328
aktig	-12.1357
ges	-12.1364
trots	-12.1369
gos	-12.137
räknad	-12.1376
bekänn	-12.1376
försvara	-12.1379
annar	-12.1383
killing	-12.1392
tjuv	-12.1394
låga	-12.1403
töm	-12.1412
saktmod	-12.1434
överlämnad	-12.1437
ljas	-12.144
kenas	-12.1442
frände	-12.1449
syndade	-12.1449
konungadöme	-12.1453
gry	-12.1454
ighet	-12.1455
slet	-12.1463
plant	-12.1465
förlossning	-12.1465
landsbygden	-12.1465
planer	-12.1465
rafaéerna	-12.1465
rannsakning	-12.1465
trolldom	-12.1465
tvärstänger	-12.1465
ädlingar	-12.1465
östanvind	-12.1465
ahitub	-12.1465
artasasta	-12.1465
björn	-12.1465
hermon	-12.1465
jedutun	-12.1465
jehiel	-12.1465
mefiboset	-12.1465
peor	-12.1465
sadrak	-12.1465
sanherib	-12.1465
sjutton	-12.1465
peka	-12.1465
trävirke	-12.1466
hebréerna	-12.1466
återhållsamhet	-12.1466
krigshövitsmän	-12.1466
slockna	-12.1466
elieser	-12.1466
sammansvur	-12.1466
ogärningsmännen	-12.1466
jonadab	-12.1466
domstol	-12.1466
grymma	-12.1467
uppegga	-12.1467
döparen	-12.1467
tillrättavisa	-12.1467
hosea	-12.1467
omhängen	-12.1467
gudabild	-12.1467
fingrar	-12.1468
klätt	-12.1469
vänskap	-12.1469
nego	-12.1469
drista	-12.147
härhövitsman	-12.147
mesak	-12.147
bestämma	-12.147
melek	-12.147
bildstod	-12.1471
sanna	-12.1472
vass	-12.1472
hjälpte	-12.1472
spåmännen	-12.1473
utrannsaka	-12.1474
förborga	-12.1474
församlingar	-12.1475
svans	-12.1475
mikael	-12.1476
pall	-12.1477
sträcke	-12.1477
liggande	-12.148
romersk	-12.148
brudgummen	-12.1482
skyl	-12.1482
stul	-12.1483
klövar	-12.1484
pelet	-12.1487
hy	-12.1488
betäcka	-12.149
tjugutre	-12.1496
gudsfruktan	-12.1498
befann	-12.1501
räddad	-12.1505
gemensam	-12.1508
betryckte	-12.1511
keruben	-12.1516
dammen	-12.1516
överträdar	-12.1524
avstå	-12.1526
förvaltare	-12.1529
utlova	-12.1534
bistå	-12.1538
skattkamrar	-12.1539
behandla	-12.1539
suckan	-12.1541
verkar	-12.1545
botad	-12.1546
vägde	-12.1549
avsomna	-12.1556
fräcka	-12.1564
gissla	-12.1565
storhet	-12.1567
värdighet	-12.1567
beredde	-12.1568
rabba	-12.1571
bågen	-12.1583
late	-12.1585
snöre	-12.1587
starke	-12.1595
vista	-12.1606
lägerplats	-12.1607
stäng	-12.161
aga	-12.1614
förbrände	-12.1626
upprätt	-12.1636
miste	-12.1644
förbarmar	-12.1652
synderna	-12.1655
basunen	-12.1656
bani	-12.1669
syna	-12.1688
spänn	-12.1709
fylles	-12.1711
medien	-12.1714
blottade	-12.1717
förökade	-12.1718
beskärma	-12.1727
väggar	-12.1728
erska	-12.1732
välj	-12.1749
förtrampa	-12.1755
tahas	-12.1755
kraftig	-12.1757
lam	-12.1765
vist	-12.1772
sakar	-12.1782
åkerstycke	-12.1796
hitin	-12.1797
förbjöd	-12.1799
hemsök	-12.1804
härligheten	-12.1814
trängta	-12.185
bestämde	-12.1863
tillföll	-12.1888
bäckenställe	-12.1888
ub	-12.1891
krossad	-12.1892
enträ	-12.1904
påsk	-12.1918
jair	-12.1919
fullbordade	-12.1927
hys	-12.1946
ppe	-12.1947
vävd	-12.1948
kul	-12.195
erskor	-12.1966
lejonen	-12.1966
korta	-12.1967
lock	-12.1981
timme	-12.1986
hämt	-12.1997
ogudaktig	-12.202
klipp	-12.2026
esare	-12.2029
kos	-12.2044
knorrade	-12.2053
ljug	-12.206
stäm	-12.2066
gripit	-12.2066
orm	-12.2072
upplåta	-12.2096
ståthållar	-12.2097
vindar	-12.2106
bruk	-12.211
efod	-12.2114
resan	-12.2119
stormen	-12.2119
rista	-12.2125
rycker	-12.2125
skäl	-12.213
blottad	-12.2159
kamel	-12.216
sköko	-12.2163
förstfödd	-12.2164
rannsaka	-12.217
skyar	-12.2176
straffe	-12.2178
säte	-12.2179
skådebröd	-12.218
dryp	-12.218
efron	-12.218
flöt	-12.218
ledsaga	-12.218
luttra	-12.218
netanel	-12.218
paddor	-12.218
skorpion	-12.218
skrud	-12.218
skrämm	-12.218
svavel	-12.218
jerubbaal	-12.218
tvivla	-12.218
pliktig	-12.218
tärnor	-12.218
eglon	-12.218
nederlag	-12.218
debir	-12.218
dörrvaktare	-12.218
slunga	-12.218
tegel	-12.218
vinpress	-12.2181
midjaniterna	-12.2181
basunljud	-12.2181
främja	-12.2182
mantlar	-12.2182
draken	-12.2183
gaditerna	-12.2183
hota	-12.2186
hädan	-12.2186
dalar	-12.2186
inrista	-12.2186
sväng	-12.2187
hund	-12.2188
maheli	-12.2189
silverpenningar	-12.219
guldsmed	-12.219
aseran	-12.2191
flytning	-12.2192
nebo	-12.2193
skökor	-12.2197
faderlösa	-12.2199
krigsfolket	-12.2199
snärja	-12.22
dagon	-12.2201
stolparna	-12.2202
spåmän	-12.2203
husai	-12.2203
gropen	-12.2205
dagsres	-12.2206
träta	-12.2206
höghet	-12.2207
harm	-12.2213
etam	-12.2213
fjärdedel	-12.2218
rema	-12.2221
hovman	-12.2222
timmermän	-12.2224
underrätta	-12.2224
tålig	-12.2229
spra	-12.223
bärga	-12.2232
använde	-12.2233
safir	-12.2235
gördel	-12.2242
konstförfar	-12.2245
faror	-12.2245
ania	-12.2247
rådgiv	-12.2251
hoppet	-12.2256
livklädnader	-12.2256
korgar	-12.2257
innehåll	-12.2257
vandring	-12.2262
väktar	-12.227
gersom	-12.2275
vållat	-12.2276
bördiga	-12.2278
olycks	-12.2297
rankor	-12.23
stängde	-12.2302
räknar	-12.2307
skifta	-12.2319
fången	-12.2327
häv	-12.2331
nämna	-12.2335
förströdd	-12.2345
träldoms	-12.2352
släpa	-12.2354
avsked	-12.2358
rättstjänar	-12.2358
lev	-12.2378
förtal	-12.2379
samlad	-12.2386
försvar	-12.2387
ängar	-12.2392
bördeman	-12.2393
ebråd	-12.2395
fota	-12.2405
omvänd	-12.242
lera	-12.2429
lus	-12.2445
djupa	-12.2464
klappa	-12.247
edar	-12.25
trogn	-12.2513
gagna	-12.252
hovmän	-12.2521
drabbade	-12.2532
stavar	-12.2562
korna	-12.2582
styr	-12.2586
ingå	-12.2588
synlig	-12.2588
gill	-12.2594
snabba	-12.2603
bevisade	-12.2605
last	-12.2605
tjock	-12.2606
täcka	-12.2617
rak	-12.2622
sänka	-12.2623
barnbarn	-12.265
alle	-12.2653
sikt	-12.2657
tavlorna	-12.2662
bil	-12.268
läggning	-12.2684
föraktad	-12.2686
prydd	-12.2693
lå	-12.2694
hasar	-12.2701
lek	-12.2703
innor	-12.273
fortf	-12.2737
maktlös	-12.2758
lita	-12.2762
fog	-12.2764
förgänglig	-12.2771
spådom	-12.2783
sib	-12.2796
kammaren	-12.2797
renhet	-12.2799
förhärja	-12.2806
lighet	-12.2807
naim	-12.2809
ropen	-12.2811
mättad	-12.2816
föd	-12.2818
trohet	-12.2827
aperna	-12.2892
understöd	-12.2898
tryckte	-12.29
egla	-12.2902
spira	-12.2909
gosse	-12.2911
släktet	-12.2913
krok	-12.2918
människoson	-12.2919
sebul	-12.2927
farisé	-12.293
brudgum	-12.293
tidsålder	-12.2934
offergåvor	-12.2935
rund	-12.2936
flicka	-12.2938
uppror	-12.2941
höve	-12.2947
trapp	-12.2948
▁!'	-12.2949
barnaföderska	-12.2949
gemenskap	-12.2949
hinnoms	-12.2949
härstamma	-12.2949
liljor	-12.2949
schakaler	-12.2949
tempelträlarna	-12.2949
ynnest	-12.2949
askelon	-12.2949
fager	-12.2949
jedaja	-12.2949
veckor	-12.2949
öglor	-12.2949
förläna	-12.2949
josadak	-12.2949
pashur	-12.2949
satraper	-12.2949
sefatja	-12.2949
sidonierna	-12.2949
ymnig	-12.2949
gräm	-12.2949
mätsnöre	-12.2949
iddo	-12.2949
byggningsmän	-12.2949
föröda	-12.2949
amminadab	-12.2949
arameisk	-12.2949
ofir	-12.2949
nagel	-12.2949
säcktyg	-12.2949
▁!»,	-12.2949
offergärdsområde	-12.2949
abinadab	-12.2949
simea	-12.2949
lösaktig	-12.2949
yppa	-12.2949
frö	-12.295
agag	-12.295
abbas	-12.295
kehatiterna	-12.295
ödmjukhet	-12.295
signetring	-12.2951
begabba	-12.2951
begagna	-12.2951
vattenkällor	-12.2951
fettstycken	-12.2952
ibla	-12.2952
syndoffersbock	-12.2953
ålderdom	-12.2953
allmos	-12.2954
feber	-12.2954
bytt	-12.2955
hamor	-12.2955
ödelägga	-12.2955
hasi	-12.2956
gog	-12.2956
ansedd	-12.2956
bördes	-12.2956
klagar	-12.2958
ertappa	-12.2959
jaeser	-12.2961
skökan	-12.2962
sila	-12.2963
invigning	-12.2964
konungatron	-12.2965
tecknen	-12.2967
skälv	-12.2968
oxarna	-12.2971
vinträdet	-12.2976
musi	-12.2977
mikm	-12.2978
skänkt	-12.298
silverskål	-12.2982
uppkallat	-12.2988
lögnaktiga	-12.2992
dårarna	-12.2993
leka	-12.2995
våningen	-12.2995
midjanitisk	-12.2997
anbefall	-12.3002
sarga	-12.3005
belägrings	-12.3005
fäst	-12.3011
ångrade	-12.3014
förbannelsen	-12.3015
slakt	-12.3016
slöja	-12.3018
vattenbäckar	-12.3022
femtedel	-12.3034
abihu	-12.305
värdiga	-12.3052
värdet	-12.3064
flyg	-12.3064
övermäktig	-12.3064
gol	-12.3068
predikan	-12.3077
rahab	-12.3082
utsäde	-12.3087
handels	-12.3101
bittra	-12.3102
fotst	-12.3102
bjälkar	-12.3109
besvärjare	-12.3118
fruktsam	-12.3135
utlämna	-12.3136
hämnden	-12.3139
borgar	-12.3151
ajot	-12.3152
tillade	-12.3182
drabbat	-12.3192
lur	-12.3193
förrättade	-12.3197
fäderne	-12.3198
ön	-12.3206
toppar	-12.3232
stormän	-12.3237
företog	-12.3266
druv	-12.3268
oskära	-12.3268
mag	-12.3277
jämr	-12.3281
brän	-12.3292
kärvar	-12.3296
fåle	-12.3307
upprättade	-12.3318
hugna	-12.3326
uppskriv	-12.333
mottaga	-12.3335
betog	-12.3335
fläk	-12.3337
gjutn	-12.334
öppnat	-12.3346
skrymtar	-12.3348
hörnsten	-12.3364
skick	-12.3366
ödelag	-12.3379
hugger	-12.3397
purpur	-12.34
drar	-12.3413
bespottare	-12.3428
pel	-12.3443
välsigne	-12.3446
spetälsk	-12.3452
häda	-12.3457
kas	-12.3472
duva	-12.3483
kniv	-12.3486
tand	-12.3494
gångar	-12.3497
lämn	-12.3497
skyla	-12.3503
mu	-12.3513
pann	-12.3513
uttorka	-12.3524
arbetar	-12.3537
äck	-12.3542
redde	-12.3558
rått	-12.357
sonhustru	-12.3573
tvista	-12.358
fördölj	-12.358
förfärad	-12.3584
väsen	-12.3596
synagog	-12.3601
funn	-12.3604
dold	-12.3608
rädd	-12.3611
pelarhuvuden	-12.3615
stick	-12.3616
rida	-12.3624
hal	-12.3635
omskuren	-12.3638
telning	-12.3639
nne	-12.3639
vreden	-12.3652
arvslott	-12.367
härska	-12.3677
sema	-12.3679
grym	-12.368
släktregist	-12.3691
måg	-12.3706
förfära	-12.3706
mäktige	-12.3713
middag	-12.3715
försmå	-12.3726
högmodig	-12.3732
seb	-12.3734
lärdom	-12.3737
ljungeld	-12.3762
betrodd	-12.377
halt	-12.3771
tavlor	-12.3772
släcka	-12.3772
upplyfta	-12.3778
språk	-12.3778
ängsla	-12.3779
långmodig	-12.378
beria	-12.3781
rehob	-12.3781
späk	-12.3782
berekja	-12.3782
blodshämnaren	-12.3782
gehenna	-12.3782
jordagods	-12.3782
kämpe	-12.3782
ljusstakar	-12.3782
megiddo	-12.3782
sannskyldig	-12.3782
säkra	-12.3782
våldsverkare	-12.3782
▁),	-12.3782
▁).	-12.3782
barsillai	-12.3782
fjättra	-12.3782
hjärte	-12.3782
kidron	-12.3782
läke	-12.3782
selofhad	-12.3782
umgängelse	-12.3782
törnbusk	-12.3782
skyndsam	-12.3782
bohag	-12.3782
avgudadyrka	-12.3782
baana	-12.3782
konstvävnad	-12.3782
hadadeser	-12.3783
ragla	-12.3783
trappsteg	-12.3783
förskräcklig	-12.3783
gäck	-12.3783
magdal	-12.3783
kedar	-12.3783
hälsning	-12.3784
munskänk	-12.3784
bestryk	-12.3784
förförelse	-12.3784
hakar	-12.3784
beskydda	-12.3784
isop	-12.3785
gomer	-12.3785
hefer	-12.3785
kamp	-12.3786
rustning	-12.3786
linnekläder	-12.3787
dundra	-12.3788
pukor	-12.3788
nöj	-12.3789
heber	-12.3789
neko	-12.3789
molnstod	-12.379
härhövitsmannen	-12.3791
tjuvar	-12.3791
sjönk	-12.3791
misshandla	-12.3792
arbetarna	-12.3793
huvudhår	-12.3794
stödja	-12.3795
tillstädja	-12.3796
dalarna	-12.3799
beblanda	-12.3799
samtalade	-12.3801
rensa	-12.3802
irra	-12.3807
por	-12.3808
lögnare	-12.3812
israelitisk	-12.3813
oförnuftiga	-12.3813
tabor	-12.3815
offrat	-12.3816
åvor	-12.3819
gossebarn	-12.3821
javan	-12.3823
vilostad	-12.3831
härda	-12.3835
ornan	-12.3836
blinde	-12.3838
fruktansvär	-12.3839
olyck	-12.3839
täckelset	-12.3849
middagen	-12.385
sångare	-12.385
tillredde	-12.3859
tillfoga	-12.3862
föreståndaren	-12.3864
jagade	-12.3867
såld	-12.3869
väktaren	-12.3874
bärare	-12.3875
tillstädje	-12.3881
trettiosju	-12.3883
assar	-12.3887
sträva	-12.389
ynglingen	-12.3893
beslöt	-12.3903
rand	-12.3903
förlåte	-12.3908
värm	-12.392
lösning	-12.3932
ondskan	-12.3933
sväva	-12.3942
spotta	-12.3945
sjuke	-12.3948
fördriv	-12.3951
trakter	-12.3956
bekänna	-12.3975
efterfölja	-12.3978
anani	-12.3983
nymånader	-12.3983
omringa	-12.3983
faran	-12.3994
sedd	-12.4001
nim	-12.4029
bedräglig	-12.403
hemliga	-12.4037
överhet	-12.4045
hängive	-12.4052
sorga	-12.4055
kosta	-12.4072
öring	-12.409
skarp	-12.409
jeri	-12.4091
kval	-12.4095
omöjlig	-12.4096
fter	-12.4103
tekoa	-12.4108
ners	-12.411
stentavlor	-12.4114
bilha	-12.4115
äckar	-12.4119
stamfurstar	-12.412
blåst	-12.4124
otillbörlig	-12.4129
brunnar	-12.4143
mät	-12.4146
uttyd	-12.4177
skamlig	-12.4185
avunda	-12.4188
vakten	-12.4194
kamrarna	-12.4205
knorra	-12.4213
rim	-12.4232
damm	-12.4249
uttyda	-12.4259
hård	-12.4266
ägna	-12.4272
reslig	-12.4281
otuktig	-12.429
bilda	-12.4291
ebal	-12.4299
ödmjuk	-12.4316
agri	-12.432
förelag	-12.4321
amma	-12.4327
sammankalla	-12.4352
skifte	-12.4376
insatt	-12.4383
avla	-12.4399
pluggar	-12.4408
trolova	-12.4418
förebrå	-12.4425
trampar	-12.4435
nekade	-12.4438
vinge	-12.444
mp	-12.4444
agnar	-12.4447
avsi	-12.4471
itu	-12.4473
atiten	-12.449
arab	-12.4494
uppenbarar	-12.4511
nedbrut	-12.4519
utgör	-12.4528
fra	-12.4531
bräck	-12.4539
jämna	-12.454
bröllop	-12.4551
tvinga	-12.4552
jubl	-12.4553
abba	-12.4559
folkhop	-12.4562
palm	-12.4579
reta	-12.4581
smälta	-12.4586
uppväck	-12.4593
ryckes	-12.4593
ägg	-12.4597
oförnuftig	-12.4604
kerub	-12.4605
cke	-12.4608
rövar	-12.4623
eldslågor	-12.4626
yng	-12.4636
grå	-12.4637
landsflykt	-12.464
etiopiern	-12.4643
gråter	-12.4643
istel	-12.4645
urim	-12.4655
egyptiern	-12.4658
röj	-12.4661
egyptier	-12.4665
välbehag	-12.4674
parti	-12.4679
åsninna	-12.4681
kräv	-12.4682
benjaminit	-12.4683
ussi	-12.4683
bäckar	-12.4683
förtryckare	-12.4685
gäld	-12.4688
elfenben	-12.4688
stryk	-12.4691
adullam	-12.4691
gissel	-12.4691
hjort	-12.4691
hjässa	-12.4691
hädelse	-12.4691
idissla	-12.4691
iskariot	-12.4691
klenoder	-12.4691
månadsrening	-12.4691
mödrar	-12.4691
paddan	-12.4691
sunem	-12.4691
vederstygglig	-12.4691
2	-12.4691
bekräft	-12.4691
blomstra	-12.4691
hätsk	-12.4691
jordkretsen	-12.4691
ödeläggelse	-12.4691
husbonden	-12.4691
nykt	-12.4691
väderstreck	-12.4691
tapper	-12.4691
yxa	-12.4691
▁?',	-12.4691
pipor	-12.4691
bygd	-12.4691
snodd	-12.4691
tydlig	-12.4691
ebja	-12.4691
skoning	-12.4691
bebodd	-12.4692
haggai	-12.4692
abiram	-12.4692
medlare	-12.4692
jafet	-12.4692
lemek	-12.4692
milka	-12.4692
dibon	-12.4692
skördemännen	-12.4692
utslit	-12.4692
jordiska	-12.4692
skövl	-12.4693
apollo	-12.4693
ljunga	-12.4693
ansenlig	-12.4694
from	-12.4694
reguel	-12.4694
leverfett	-12.4695
huvudgärd	-12.4696
nämnda	-12.4696
erövra	-12.4696
addai	-12.4697
klipporna	-12.4698
boset	-12.4698
lans	-12.4698
hopfogad	-12.47
åsninnan	-12.4701
hägnad	-12.4702
stärk	-12.4702
välbehåll	-12.4703
homer	-12.4705
ammi	-12.4707
fattigdom	-12.4709
söderlandet	-12.471
uppriktig	-12.471
profetian	-12.4717
häravdelningar	-12.4719
rättsinniga	-12.4722
förhärda	-12.4732
makter	-12.4735
ämne	-12.4736
skärp	-12.4736
efer	-12.4736
oliver	-12.4737
sticka	-12.474
järnet	-12.4745
högmodiga	-12.4749
förestå	-12.4752
itiska	-12.4768
understödde	-12.4769
inoam	-12.4772
förmanar	-12.4776
slita	-12.4786
uppsåt	-12.4786
tjuven	-12.4786
stamfader	-12.479
tyget	-12.4791
verksam	-12.4793
uppslukade	-12.48
sjöngo	-12.4807
betäck	-12.4808
lapp	-12.4809
fullkomna	-12.4811
förblinda	-12.4819
stadsport	-12.4822
rött	-12.4823
syndig	-12.4824
tull	-12.4825
bind	-12.4833
färdiga	-12.4836
imma	-12.4838
insåg	-12.4841
akna	-12.4846
försynda	-12.4857
plåt	-12.4858
pressa	-12.4884
lix	-12.4884
ogudaktigheten	-12.4886
omstörtade	-12.4889
hanani	-12.4897
sånger	-12.4897
förtorkade	-12.4899
nob	-12.49
bocken	-12.49
uppbränd	-12.4907
kai	-12.4908
skydda	-12.4922
upptända	-12.4926
vilje	-12.4929
oskyldige	-12.4945
gran	-12.4947
förlossar	-12.4948
fotsid	-12.4949
hedra	-12.496
bedri	-12.4973
bekymra	-12.4991
överföll	-12.4999
aksa	-12.5016
gödd	-12.503
tjugusju	-12.5031
anfall	-12.5041
tillspillogivn	-12.5043
dop	-12.5059
handlade	-12.5062
abad	-12.5095
torkade	-12.513
jeter	-12.5142
lår	-12.5184
förskräckte	-12.5186
måga	-12.5189
lada	-12.5227
rättvis	-12.5231
jojaki	-12.5232
försvinn	-12.5249
skapar	-12.5256
utsänd	-12.526
täckt	-12.5267
örelse	-12.5267
lända	-12.5273
sätte	-12.5277
brusa	-12.5299
läran	-12.5312
kränk	-12.5346
rikta	-12.535
varth	-12.5363
knorr	-12.5382
förvärv	-12.5389
utslag	-12.5404
kla	-12.5409
resin	-12.5413
spejar	-12.5415
riven	-12.5434
färg	-12.5455
gren	-12.5475
dy	-12.5483
häl	-12.5496
berömme	-12.5546
skyldige	-12.5548
stenhop	-12.5553
pung	-12.5562
tuktig	-12.5565
tola	-12.5576
lud	-12.5592
larna	-12.5599
båtar	-12.5603
etan	-12.5604
föreståndar	-12.5609
krukmakar	-12.5622
lätta	-12.564
förhärligad	-12.5642
skuren	-12.5644
skyldiga	-12.5644
näps	-12.565
fyrkant	-12.5657
avguda	-12.5659
prat	-12.5671
mord	-12.5671
undfly	-12.5672
högst	-12.5673
bräde	-12.5675
landshövdingar	-12.5676
omskärelse	-12.5676
häravdelning	-12.5677
drivna	-12.568
krön	-12.5681
profetia	-12.5681
hundar	-12.5686
lais	-12.5688
stämma	-12.569
rymma	-12.569
jishar	-12.5691
sikri	-12.5691
selemja	-12.5691
virke	-12.5691
anklagelse	-12.5691
förskyll	-12.5691
förstfödslorätt	-12.5691
haglet	-12.5691
hjälm	-12.5691
hyllning	-12.5691
häktor	-12.5691
hövisk	-12.5691
illfundig	-12.5691
inbyggarna	-12.5691
keretéerna	-12.5691
lägel	-12.5691
molok	-12.5691
mygg	-12.5691
mönsterbild	-12.5691
rymlig	-12.5691
scharlakan	-12.5691
turturduvor	-12.5691
väss	-12.5691
jeroham	-12.5691
mamre	-12.5691
naheson	-12.5691
sefanja	-12.5691
spenabarn	-12.5691
ajalon	-12.5691
cyper	-12.5691
foster	-12.5691
höft	-12.5691
jerameel	-12.5691
läglig	-12.5691
millo	-12.5691
sealtiel	-12.5691
sippor	-12.5691
tofet	-12.5691
tubal	-12.5691
vanartig	-12.5691
hulp	-12.5691
fjäll	-12.5691
stift	-12.5691
ankomst	-12.5691
akaja	-12.5691
vasti	-12.5691
virka	-12.5691
arbetspliktig	-12.5691
fortsatte	-12.5691
högljudd	-12.5691
abberi	-12.5691
utforska	-12.5691
kansler	-12.5692
förbittrade	-12.5692
stupa	-12.5692
tillfriskna	-12.5692
förkväv	-12.5692
malört	-12.5692
sekanja	-12.5692
smärt	-12.5692
rigla	-12.5692
förbindelse	-12.5692
gerar	-12.5692
datan	-12.5692
prakt	-12.5692
hammare	-12.5692
råka	-12.5692
ovännen	-12.5692
huram	-12.5692
vredesdomen	-12.5693
aktad	-12.5693
tjänstekvinnor	-12.5693
gudfruktig	-12.5693
gunst	-12.5693
syndofferstjur	-12.5693
ikris	-12.5693
edoméerna	-12.5693
skapelse	-12.5693
belt	-12.5693
betuel	-12.5693
jebusé	-12.5693
lagklok	-12.5694
förhatlig	-12.5694
stefan	-12.5694
maskar	-12.5694
ohol	-12.5695
neria	-12.5695
fortfara	-12.5695
klen	-12.5695
dropp	-12.5695
debora	-12.5695
sjufal	-12.5695
hastig	-12.5696
giel	-12.5696
tvång	-12.5696
sadducéerna	-12.5697
styresm	-12.5698
bevaka	-12.5698
eliel	-12.5698
vintern	-12.5698
lövhyddohögtid	-12.57
bragt	-12.5701
agar	-12.5702
bordsgäster	-12.5704
mull	-12.5711
sadla	-12.5713
bindlar	-12.5714
träto	-12.5722
ehud	-12.5722
fullhet	-12.5722
kir	-12.5722
armod	-12.5723
plundrare	-12.5725
stridsman	-12.5725
skälig	-12.5726
palatset	-12.5728
sänkte	-12.5729
larmet	-12.5732
spiran	-12.5733
blek	-12.5736
utrotad	-12.5738
vingårdarna	-12.5739
kista	-12.5739
frestade	-12.5741
meriba	-12.5741
tiotusen	-12.5742
beel	-12.5743
kenan	-12.5744
stycka	-12.5744
uttåg	-12.5746
anb	-12.5747
väpnad	-12.5752
oförnuftige	-12.5752
smälte	-12.5757
döpte	-12.5763
tjurarna	-12.5767
sönderriv	-12.5768
medborgare	-12.5771
bergfäste	-12.5773
inbjöd	-12.5775
ansatte	-12.5779
kumm	-12.5796
spridde	-12.5797
run	-12.581
förledde	-12.5812
utbyte	-12.5814
brute	-12.582
huvudman	-12.583
döme	-12.584
oförfärad	-12.584
fädernes	-12.5841
avskilja	-12.5846
bröllops	-12.5849
skakade	-12.5886
befläcka	-12.5888
förstörde	-12.5904
förordnade	-12.5909
betro	-12.5916
avvan	-12.5919
årlig	-12.5921
lame	-12.5926
ljuga	-12.5943
dörrposter	-12.5953
förhärjare	-12.5963
mil	-12.5967
gande	-12.5975
grus	-12.5976
hamra	-12.5979
elon	-12.598
oskyldiga	-12.5998
sönderslå	-12.6014
pesten	-12.6034
efterskörd	-12.6034
gåv	-12.6037
brukar	-12.6053
förbrän	-12.6054
bran	-12.6063
arvinge	-12.6091
överskyl	-12.611
avskil	-12.6111
förlorad	-12.6125
mördar	-12.6137
manade	-12.6152
plöj	-12.616
tjocka	-12.6161
mulåsn	-12.6162
budbärar	-12.6168
jakin	-12.6172
föredöme	-12.6178
skovlar	-12.6192
förelägg	-12.6193
motsvara	-12.6208
ittai	-12.6235
sälla	-12.6244
rökelsealtare	-12.6246
sönderkrossa	-12.6259
gileadit	-12.6267
gul	-12.6289
ljuv	-12.6313
döv	-12.632
pina	-12.632
pun	-12.6331
rost	-12.6332
mut	-12.6336
förehåll	-12.6346
adar	-12.6348
lon	-12.6377
fle	-12.6399
kyssa	-12.6412
utspän	-12.6428
föreläst	-12.6453
bönfalla	-12.6454
saf	-12.6477
lycklig	-12.65
sag	-12.6507
eliu	-12.6514
alel	-12.6536
tumm	-12.6555
blyge	-12.657
bjälk	-12.6571
press	-12.6575
rivit	-12.6591
dragare	-12.6602
stamfamilj	-12.661
nal	-12.6619
girighet	-12.6646
golv	-12.6651
grek	-12.6655
intage	-12.6659
ehum	-12.6664
fräck	-12.6666
trettiofem	-12.669
ordnade	-12.6691
ävla	-12.6692
tiderna	-12.6704
fångad	-12.673
våning	-12.6735
sträckt	-12.6743
eel	-12.6748
skölj	-12.6752
yck	-12.6757
harim	-12.6757
ogs	-12.6761
lykta	-12.6766
jon	-12.6767
grädd	-12.6774
misa	-12.6774
utkräv	-12.6779
bly	-12.6779
etiopier	-12.6781
badja	-12.6781
krydd	-12.6783
lejoninna	-12.6785
förnimm	-12.6788
väckte	-12.6791
häp	-12.6794
sekreterare	-12.6794
nymånad	-12.6797
stumma	-12.6799
huggorm	-12.68
syrien	-12.6801
hebré	-12.6802
tjug	-12.6802
streck	-12.6802
guel	-12.6802
anstiftade	-12.6802
asmavet	-12.6802
blodsförvant	-12.6802
dubbla	-12.6802
eljoenai	-12.6802
fagra	-12.6802
följeslagare	-12.6802
förbittring	-12.6802
granatträd	-12.6802
hunno	-12.6802
luft	-12.6802
midnattstid	-12.6802
olivplanteringar	-12.6802
persisk	-12.6802
smältugn	-12.6802
spräcklig	-12.6802
söndring	-12.6802
tessalonik	-12.6802
utlänning	-12.6802
hadareser	-12.6802
krukor	-12.6802
kräla	-12.6802
utpost	-12.6802
överhovmästaren	-12.6802
flätverk	-12.6802
fetma	-12.6802
forntiden	-12.6802
kedja	-12.6802
afek	-12.6802
liksidig	-12.6802
mätstång	-12.6802
infattning	-12.6802
penningpung	-12.6802
eldsglöd	-12.6803
genstridig	-12.6803
jib	-12.6803
cedon	-12.6803
störtning	-12.6803
ammihud	-12.6803
kviga	-12.6803
märg	-12.6803
hinder	-12.6803
mesek	-12.6803
sackur	-12.6803
avgudaoffer	-12.6803
adaja	-12.6803
styrkte	-12.6803
dyg	-12.6804
gersoniterna	-12.6804
stridsvagnar	-12.6804
skuldoffret	-12.6804
händelse	-12.6805
angeläg	-12.6805
moderssköte	-12.6805
betäckte	-12.6805
flotta	-12.6805
sobal	-12.6805
maon	-12.6805
jubelrop	-12.6806
gäster	-12.6806
kvarter	-12.6807
glädjebudskap	-12.6807
hundrafal	-12.6808
stocken	-12.6808
ryta	-12.6808
skörde	-12.6809
kåpan	-12.6809
smaklig	-12.6809
konungamakt	-12.6809
busken	-12.6811
misstanke	-12.6813
tanken	-12.6814
nof	-12.6814
nymånadsdag	-12.6815
utsläcka	-12.6816
begrät	-12.6816
visshet	-12.6816
karmi	-12.6818
läror	-12.6819
arba	-12.6821
köpmän	-12.6821
bördor	-12.6821
bördig	-12.6822
astarte	-12.6822
rådslå	-12.6823
utrusta	-12.6828
svinen	-12.683
insegle	-12.6833
skänkte	-12.684
dödlig	-12.6841
krigshär	-12.6841
lvis	-12.6849
vissla	-12.6859
föreskrifter	-12.6862
kringspri	-12.6862
förödelsen	-12.6864
allmänn	-12.6867
stormade	-12.6868
sidovägg	-12.6869
edomé	-12.687
matti	-12.6876
använda	-12.688
krukmakaren	-12.688
försmådd	-12.6881
konungason	-12.6882
elea	-12.6885
möt	-12.6889
omringade	-12.6891
kropparna	-12.6892
axlar	-12.6893
andevärlden	-12.6894
läkare	-12.69
gudlösa	-12.6901
lönn	-12.6904
rakt	-12.6913
tvagning	-12.6914
grann	-12.6922
talent	-12.6927
förskräckelser	-12.6937
brant	-12.6938
ståthållaren	-12.694
vågor	-12.6949
arvslotter	-12.6957
nästan	-12.6961
bull	-12.697
hopsamla	-12.6979
obetänksam	-12.6981
undgå	-12.6982
salmon	-12.6983
böne	-12.6983
förjagade	-12.7002
våldet	-12.7004
hästen	-12.7004
bekläd	-12.7005
besinning	-12.7006
oniten	-12.7009
underordna	-12.7013
firade	-12.7017
rosta	-12.7027
vanmäktig	-12.7031
åligganden	-12.7041
försona	-12.7057
övlig	-12.7061
trösk	-12.7066
omslute	-12.7082
upprörd	-12.7085
storma	-12.7116
besinn	-12.7126
app	-12.7141
fienderna	-12.7152
härskar	-12.7162
hölje	-12.7185
befatta	-12.7204
beskärd	-12.7213
leve	-12.7231
moabitiska	-12.7244
hädar	-12.7249
bus	-12.7258
hovmästare	-12.7295
bränne	-12.7297
naturlig	-12.73
dyn	-12.7349
förvänt	-12.7376
beredd	-12.7395
plågare	-12.7416
profetlärjungar	-12.7417
löse	-12.747
beställ	-12.7475
beerot	-12.7476
beskär	-12.7476
bruse	-12.7496
plöja	-12.7522
vingårdsmän	-12.7529
tukt	-12.7531
gliga	-12.7554
onan	-12.7555
stånga	-12.7556
syrad	-12.7564
!	-12.7573
brödstycke	-12.76
bu	-12.7647
spjute	-12.7674
väva	-12.7719
görelse	-12.7733
ihjälrive	-12.7755
tillspillogiv	-12.7769
älskad	-12.7797
avskild	-12.7819
fristad	-12.7826
trängt	-12.7829
näste	-12.7844
läka	-12.7851
sered	-12.7867
edre	-12.7868
sebe	-12.7869
loge	-12.7872
betesmark	-12.7886
safat	-12.789
gåta	-12.7904
almon	-12.7912
tu	-12.7931
vederkvicka	-12.7936
slöj	-12.7943
påminn	-12.7951
bränn	-12.7954
sido	-12.7955
bäre	-12.7963
grundval	-12.7972
födelse	-12.7973
babylon	-12.7975
elif	-12.7984
värld	-12.7987
bekän	-12.7993
dråp	-12.8009
rättsinnig	-12.8011
fyrfa	-12.8012
mogen	-12.8015
ryk	-12.8026
fåll	-12.8031
ämre	-12.8034
fjä	-12.8036
kaldéer	-12.804
väcka	-12.8041
äldst	-12.8041
naama	-12.8043
kananéer	-12.8046
gnat	-12.8048
lytt	-12.805
gib	-12.8051
ryter	-12.8052
filistéer	-12.8052
netofatite	-12.8052
umgänge	-12.8052
arauna	-12.8052
belsassar	-12.8052
bjällr	-12.8052
cilicien	-12.8052
estaol	-12.8052
flugsvärmar	-12.8052
förteckning	-12.8052
gnissla	-12.8052
herradöme	-12.8052
högtidsdräkter	-12.8052
ingivelse	-12.8052
kadmiel	-12.8052
krysolit	-12.8052
krämar	-12.8052
mispe	-12.8052
misshandling	-12.8052
refaims	-12.8052
sidolister	-12.8052
skuggorna	-12.8052
slumra	-12.8052
tappua	-12.8052
trollkarl	-12.8052
örsnibb	-12.8052
flög	-12.8052
krankhet	-12.8052
melkisedek	-12.8052
nehemja	-12.8052
sibeon	-12.8052
slicka	-12.8052
stämpla	-12.8052
nådegåva	-12.8052
pisga	-12.8052
profetissa	-12.8052
sabdi	-12.8052
störtskur	-12.8052
avsöndrade	-12.8052
nödvändig	-12.8052
skördeskri	-12.8052
korint	-12.8053
betydelse	-12.8053
jabin	-12.8053
gräsmaskar	-12.8053
plantering	-12.8053
skrapa	-12.8053
knåda	-12.8053
linneduk	-12.8053
omvärv	-12.8053
solstoder	-12.8053
massa	-12.8053
oholibama	-12.8053
asarel	-12.8053
heres	-12.8053
ackub	-12.8053
sinear	-12.8053
flöjt	-12.8053
alstra	-12.8054
menahem	-12.8054
gnist	-12.8054
klu	-12.8054
sinnig	-12.8054
yttarna	-12.8055
vinnlägg	-12.8055
armband	-12.8055
esjon	-12.8055
rovfåglar	-12.8055
skygd	-12.8055
tema	-12.8056
suba	-12.8056
befälhavar	-12.8056
linda	-12.8057
pedaja	-12.8057
sidokamrarna	-12.8058
bosra	-12.8058
betlehem	-12.8058
kebar	-12.8059
gitt	-12.8059
regnskur	-12.8059
salthavet	-12.806
utspy	-12.806
pålitlig	-12.806
maresa	-12.806
förtryckta	-12.8061
gesur	-12.8062
uthållig	-12.8063
förtvina	-12.8064
återbörda	-12.8065
ursäkt	-12.8066
ariel	-12.8068
sisa	-12.807
dödsskuggan	-12.807
prästadömet	-12.8072
stortalig	-12.8072
landshövdingarna	-12.8075
skäppa	-12.8079
ammonitisk	-12.8085
flut	-12.8085
jahas	-12.8086
bitar	-12.8087
förtryckaren	-12.8087
grekisk	-12.8087
blomma	-12.8088
krus	-12.809
uppfostra	-12.8093
usel	-12.8096
gan	-12.8097
beskärt	-12.8097
fortsätt	-12.8102
krokig	-12.8104
jungfrun	-12.8105
fläckar	-12.8107
skölja	-12.811
korsfäste	-12.8112
saktmodig	-12.8112
krigare	-12.8116
förbinde	-12.8122
soko	-12.8125
rövat	-12.8127
övervinna	-12.8135
flyktingar	-12.8136
barnsnöd	-12.8143
gräva	-12.8148
aramé	-12.815
välsignelsen	-12.8151
mul	-12.8157
vildmark	-12.8167
stamhövdingar	-12.817
upplösa	-12.817
bul	-12.8178
täckte	-12.8182
baksida	-12.8188
trög	-12.819
släktregistre	-12.8193
killingar	-12.8195
räkn	-12.82
vil	-12.8203
förunderlig	-12.8208
villkor	-12.8227
elet	-12.8254
matte	-12.8279
lovet	-12.828
uppstånd	-12.828
vaktkamrar	-12.828
prövning	-12.828
telningar	-12.8284
flöd	-12.8294
salva	-12.8295
gruvliga	-12.8306
avog	-12.831
obab	-12.8316
knivar	-12.8322
föreskrift	-12.8339
slu	-12.8363
färgad	-12.8364
börd	-12.8408
tref	-12.8418
hamme	-12.8434
brännoffersdjure	-12.8436
välsign	-12.8459
öka	-12.8484
jael	-12.8512
gästa	-12.8524
grönskan	-12.8528
slagg	-12.8532
sand	-12.8557
sopa	-12.8558
kullar	-12.8587
delad	-12.8606
ebes	-12.8606
lie	-12.8665
fyller	-12.8677
stortå	-12.8695
pröv	-12.8712
förbränd	-12.8739
konstarbet	-12.8767
frossa	-12.8787
torge	-12.8787
luka	-12.8788
överskrift	-12.8789
kastskov	-12.8793
öm	-12.8799
vallar	-12.8816
kalkar	-12.884
rulle	-12.8842
hållning	-12.8849
plågad	-12.8851
beröm	-12.8869
grundlig	-12.8911
juble	-12.8918
mik	-12.8928
betal	-12.8932
göd	-12.8958
skarpa	-12.8964
arpa	-12.903
tappa	-12.9056
dörrpost	-12.9111
leh	-12.9136
lura	-12.9153
strål	-12.9181
lod	-12.9193
spott	-12.9194
brus	-12.9195
bebygg	-12.9217
njut	-12.9245
fördärvare	-12.9255
fela	-12.929
fullkomnad	-12.9291
sjöng	-12.9307
ägaren	-12.9336
köld	-12.9346
förfarna	-12.9348
brut	-12.9352
förbränn	-12.9361
bäckarna	-12.9364
uppkallad	-12.9374
fiend	-12.9381
ömma	-12.9387
straffdom	-12.9387
käll	-12.9401
granatäpple	-12.9406
väldighet	-12.941
inmönstra	-12.9421
sänkt	-12.9426
olivträ	-12.9428
klöv	-12.9445
skingra	-12.9445
torie	-12.9449
lossa	-12.945
årig	-12.9459
utsago	-12.9464
ilja	-12.9464
läcker	-12.9468
kamrar	-12.9472
väcke	-12.9472
buske	-12.9472
jim	-12.9472
ljusstake	-12.9473
havsländer	-12.9473
molnsky	-12.9473
vinter	-12.9474
gästerna	-12.9474
nacken	-12.9475
jebus	-12.9478
oreb	-12.9479
röse	-12.948
drabant	-12.9481
uppehälle	-12.9481
1	-12.9481
avsatser	-12.9481
bucki	-12.9481
böcker	-12.9481
dikta	-12.9481
disputera	-12.9481
girgaséerna	-12.9481
hädisk	-12.9481
inhysesman	-12.9481
kittéerna	-12.9481
kronor	-12.9481
köpebrev	-12.9481
ljöd	-12.9481
malluk	-12.9481
mönstring	-12.9481
simron	-12.9481
skymning	-12.9481
tillsyningsman	-12.9481
uppsyningsmän	-12.9481
veckodagen	-12.9481
vädret	-12.9481
österlänningarna	-12.9481
▁'.»	-12.9481
avlägse	-12.9481
binnui	-12.9481
dagakarl	-12.9481
förpliktelse	-12.9481
jabbok	-12.9481
jekonja	-12.9481
krubba	-12.9481
mahalalel	-12.9481
mullbärsfikonträ	-12.9481
otniel	-12.9481
råmärke	-12.9481
uppvigla	-12.9481
översvinnlig	-12.9481
astarot	-12.9481
bagaren	-12.9481
cyren	-12.9481
konungasönerna	-12.9481
strimmig	-12.9481
syndoffersdjuret	-12.9481
villfarelse	-12.9481
boskapshjordar	-12.9481
strupe	-12.9481
suga	-12.9481
famla	-12.9481
lekamlig	-12.9481
silpa	-12.9481
kustlandet	-12.9481
trösklarna	-12.9481
utrön	-12.9481
sabbatsvila	-12.9481
seboim	-12.9481
bål	-12.9481
akbor	-12.9481
klang	-12.9481
lösepenning	-12.9481
balsam	-12.9481
galilé	-12.9481
nitton	-12.9481
strövskar	-12.9481
gödsel	-12.9481
jojarib	-12.9481
stadsmuren	-12.9481
jahasiel	-12.9481
utkorade	-12.9481
okunnighet	-12.9481
stlingsfrukter	-12.9481
gesuréerna	-12.9481
libni	-12.9481
enfaldig	-12.9481
hogla	-12.9481
domarsäte	-12.9481
mänsklig	-12.9481
patros	-12.9481
murbruk	-12.9482
jisv	-12.9482
samarit	-12.9482
kainéerna	-12.9482
vrida	-12.9482
vinbärgning	-12.9482
anakiterna	-12.9482
älskog	-12.9483
tvilling	-12.9483
koraiterna	-12.9483
nedböjd	-12.9483
sönderbrut	-12.9483
gathörn	-12.9483
fromme	-12.9484
korpar	-12.9484
asriel	-12.9484
plog	-12.9484
födslovånd	-12.9485
huggormar	-12.9485
elnatan	-12.9486
utrymme	-12.9486
utvidga	-12.9488
jordstycke	-12.9489
jered	-12.9489
magra	-12.949
ammoniterna	-12.949
byta	-12.9491
förgängelsen	-12.9491
bränsle	-12.9493
gurk	-12.9493
kvarnsten	-12.9496
härhövitsmän	-12.9496
uttömm	-12.9496
husgudarna	-12.9497
elim	-12.9497
samaritisk	-12.9498
utsagor	-12.9499
feja	-12.9501
såningsman	-12.9501
omskärelsen	-12.9503
fia	-12.9504
uppblåst	-12.9505
partisk	-12.9508
ful	-12.9508
tidsåldern	-12.951
delaja	-12.9511
jaspis	-12.9511
upphängda	-12.9517
bulnader	-12.9517
pre	-12.9517
röja	-12.9518
harpan	-12.9519
dryckes	-12.952
almai	-12.9524
längtan	-12.9524
brust	-12.9526
palmträd	-12.9527
vitmena	-12.9528
vitna	-12.9529
övertyga	-12.9534
betunga	-12.9535
hälle	-12.9541
bita	-12.9545
skeppare	-12.9548
seka	-12.9551
lotan	-12.9553
jägare	-12.9561
ummim	-12.9561
väldigheter	-12.9565
tjänstekvinnan	-12.9565
syndarna	-12.9568
förhållande	-12.957
avhålle	-12.9572
beskära	-12.9574
spetälske	-12.9578
bergsklyft	-12.9579
förbjude	-12.9582
dison	-12.9587
etiopierna	-12.9587
bärgning	-12.9589
drin	-12.9603
översvämma	-12.9606
herrarna	-12.9615
beton	-12.9624
förtärd	-12.9643
avsegla	-12.9659
vette	-12.9663
haser	-12.9667
förebild	-12.967
abisu	-12.9691
fallgrop	-12.97
sofa	-12.9759
beka	-12.9806
frodiga	-12.9817
speja	-12.9828
samtal	-12.987
käppar	-12.9881
växter	-12.9895
tappar	-12.9916
kret	-12.9923
undra	-12.9929
beräkna	-12.993
araber	-12.9931
agg	-12.9938
kinder	-12.9944
upphöjning	-12.9952
suf	-12.9956
lövhyddo	-12.998
bönfall	-13.0004
bestyr	-13.0028
budorde	-13.006
vårregn	-13.0065
ändra	-13.012
landsfurste	-13.0123
kap	-13.013
överstepräster	-13.0141
lustgårdar	-13.0158
löste	-13.0182
sorglös	-13.0189
flykting	-13.0275
täck	-13.0276
leb	-13.0316
stinga	-13.033
döva	-13.0345
löshet	-13.0367
fädernestam	-13.0392
udd	-13.0433
sassar	-13.0448
förseglad	-13.0471
mulåsna	-13.0483
läkt	-13.0496
annor	-13.0515
gäst	-13.0518
mogna	-13.0601
neka	-13.0632
käpp	-13.0661
upphängd	-13.0661
:	-13.0668
ud	-13.0689
förnämliga	-13.0696
släp	-13.0731
åkall	-13.0751
åliggande	-13.0795
brännoffersdjur	-13.0854
tramp	-13.0887
högfärd	-13.0955
klot	-13.096
underordn	-13.0962
himla	-13.0973
vedermöd	-13.0989
ålägge	-13.1011
niko	-13.1028
pelat	-13.1046
publikan	-13.105
filisté	-13.1061
pele	-13.1074
förvandlad	-13.1093
näpste	-13.1105
malki	-13.1105
bulnad	-13.111
kungjord	-13.1116
dödsskugga	-13.1127
skriftlärd	-13.1132
eleasa	-13.1133
svämma	-13.1136
kåpa	-13.1137
spy	-13.1138
klippor	-13.1139
sanne	-13.1141
peda	-13.1142
oholiba	-13.1147
onyx	-13.1147
6	-13.1148
rymde	-13.1148
ó	-13.1148
alexander	-13.1148
avlägsna	-13.1148
avsatsen	-13.1148
eljasaf	-13.1148
förkovra	-13.1148
gafflar	-13.1148
galileisk	-13.1148
helbrägda	-13.1148
hörntofs	-13.1148
inympa	-13.1148
kananeisk	-13.1148
krymp	-13.1148
kärleksäpplen	-13.1148
laodicea	-13.1148
legodräng	-13.1148
leviatan	-13.1148
metusela	-13.1148
myrten	-13.1148
mångfaldig	-13.1148
näsring	-13.1148
skepnad	-13.1148
spränga	-13.1148
sslor	-13.1148
sunnanvind	-13.1148
sänklod	-13.1148
triumfera	-13.1148
tålmodig	-13.1148
vädja	-13.1148
▁);	-13.1148
abihail	-13.1148
assyrierna	-13.1148
befrynd	-13.1148
bigvai	-13.1148
förvirra	-13.1148
hednisk	-13.1148
jediael	-13.1148
kaftor	-13.1148
misslynt	-13.1148
outrannsaklig	-13.1148
virvla	-13.1148
ödslig	-13.1148
överskygg	-13.1148
jissia	-13.1148
nöta	-13.1148
plank	-13.1148
sefarvaim	-13.1148
skämm	-13.1148
tveegga	-13.1148
skjort	-13.1148
spegla	-13.1148
tempelbolar	-13.1148
tillförlitlig	-13.1148
vanvettig	-13.1148
serug	-13.1148
joktan	-13.1148
ruttna	-13.1148
gästvänlig	-13.1148
nyckel	-13.1148
bebai	-13.1148
goljat	-13.1148
efrata	-13.1148
seeb	-13.1148
hodia	-13.1148
allvarlig	-13.1148
beker	-13.1148
stubbe	-13.1148
ahieser	-13.1148
nattväkt	-13.1148
selomit	-13.1148
fräta	-13.1148
tvistefråg	-13.1148
åsne	-13.1148
vecka	-13.1148
onyxstenar	-13.1148
abieser	-13.1148
smulor	-13.1148
vildåsnor	-13.1148
rövarskara	-13.1148
sällskap	-13.1148
böl	-13.1148
rogel	-13.1148
offerkist	-13.1149
oroligheter	-13.1149
misrai	-13.1149
lossna	-13.1149
disan	-13.1149
horéerna	-13.1149
arabien	-13.1149
meon	-13.1149
stengolv	-13.1149
gidd	-13.1149
grushög	-13.1149
gedor	-13.1149
vederkvickelse	-13.1149
profetsyner	-13.115
hagelstenar	-13.115
brak	-13.115
argo	-13.115
förkunnelse	-13.115
seraiterna	-13.115
bekännelse	-13.115
stänkelsevatt	-13.115
konungavälde	-13.1151
kostnad	-13.1151
galati	-13.1151
förgriplig	-13.1151
sual	-13.1151
gedi	-13.1151
nasaré	-13.1151
tigga	-13.1152
vattenledning	-13.1153
offermåltid	-13.1153
arpad	-13.1154
hebroniterna	-13.1154
skumma	-13.1155
förfärdigande	-13.1155
fni	-13.1155
timra	-13.1156
adad	-13.1156
påminnelse	-13.1156
ilbud	-13.1156
hämnare	-13.1157
gihon	-13.1158
stadier	-13.1158
ammiel	-13.1158
senap	-13.1159
gnaga	-13.116
kpela	-13.116
absa	-13.116
ålägga	-13.116
sorgsen	-13.116
livskraft	-13.1161
utsir	-13.1161
kannor	-13.1161
setar	-13.1161
fårhjordar	-13.1162
ljuvlighet	-13.1162
stlar	-13.1162
jimna	-13.1162
bemäktiga	-13.1163
belopp	-13.1163
utsläcke	-13.1163
eftersinna	-13.1164
gudlöse	-13.1167
svep	-13.1169
konungariken	-13.117
gossar	-13.1174
landsman	-13.1181
adma	-13.1186
ungarna	-13.1187
pilträd	-13.1188
fållor	-13.119
knoppar	-13.1196
kison	-13.1197
hungerår	-13.1198
uppenbarelsen	-13.1205
avgudabeläte	-13.1208
tillredelsedag	-13.1209
pallu	-13.1212
veteskörd	-13.1217
tapa	-13.1226
vagnshästar	-13.1234
flyktig	-13.1243
bågskyttar	-13.1246
sebu	-13.1247
skinnsak	-13.1252
sluttningar	-13.1322
besvärjelse	-13.1323
naara	-13.1325
mask	-13.1332
skönast	-13.1333
örjan	-13.1347
vadställen	-13.1348
ringe	-13.1348
tyngd	-13.1353
stengrund	-13.1358
sovkammare	-13.1364
hassu	-13.1364
assir	-13.138
hasum	-13.1408
asri	-13.143
bäv	-13.1477
friköpt	-13.1553
raim	-13.1568
sjöar	-13.1581
ockrar	-13.1588
trälinn	-13.1633
segerrik	-13.1639
pelarhuvud	-13.1658
bildad	-13.1691
ylle	-13.173
samtyck	-13.1746
bränning	-13.175
fullmog	-13.1784
förrådd	-13.1874
fristäder	-13.1875
bö	-13.1936
helgedomar	-13.1938
hedersam	-13.1941
bespott	-13.2006
präktig	-13.2058
offerdjur	-13.2082
fferhöjdspräster	-13.2083
naharai	-13.2097
prästerlig	-13.2114
fredlig	-13.212
präktiga	-13.2138
ugnad	-13.217
önsk	-13.218
själisk	-13.2182
fylld	-13.2257
benjaminiter	-13.2269
eol	-13.2306
inbärg	-13.2327
avhugge	-13.2347
klapp	-13.236
stjärnan	-13.2378
»	-13.2403
ögtidsförsamling	-13.2424
åligg	-13.2426
gjute	-13.2456
drägliga	-13.2544
sådd	-13.2599
besvärjar	-13.2635
väkt	-13.2666
påskoff	-13.2674
försonad	-13.2781
förlor	-13.279
glas	-13.2805
begrip	-13.2846
salar	-13.2853
agd	-13.2869
sluttning	-13.2941
förvalta	-13.295
kilj	-13.295
förtröt	-13.2969
bal	-13.2984
belägring	-13.2993
föröke	-13.3003
puk	-13.3006
struts	-13.3026
töckn	-13.3045
främ	-13.3053
furst	-13.3063
brot	-13.307
merib	-13.3083
svärj	-13.3102
unni	-13.3108
härjare	-13.3119
daniterna	-13.3131
förgängelse	-13.3133
stjärna	-13.3135
tillredd	-13.3138
drake	-13.3138
oomskure	-13.314
fyl	-13.3144
regu	-13.3144
kvä	-13.3145
hövde	-13.3146
amoré	-13.3147
vämj	-13.3147
äktenskap	-13.3148
hivée	-13.3148
ahoait	-13.3148
basilisk	-13.3148
blixtra	-13.3148
blomstre	-13.3148
dämpa	-13.3148
fabler	-13.3148
förmätenhet	-13.3148
förvaltning	-13.3148
förvaringsrum	-13.3148
gamliel	-13.3148
ivrar	-13.3148
jessai	-13.3148
jisei	-13.3148
kainéen	-13.3148
kenaana	-13.3148
lamptänger	-13.3148
maakatéerna	-13.3148
mehola	-13.3148
nebajot	-13.3148
perasim	-13.3148
pirgatonit	-13.3148
rehabja	-13.3148
räfst	-13.3148
selumiel	-13.3148
skogsbygd	-13.3148
snidverk	-13.3148
syfta	-13.3148
turturduva	-13.3148
veckohögtid	-13.3148
väska	-13.3148
våldsverkarna	-13.3148
öknar	-13.3148
beflita	-13.3148
druvsaft	-13.3148
dränkt	-13.3148
kräslig	-13.3148
missunnsam	-13.3148
oläklig	-13.3148
sefon	-13.3148
ättling	-13.3148
örontasslare	-13.3148
daglönare	-13.3148
stödjepelar	-13.3148
beskrivning	-13.3148
glupsk	-13.3148
räddhåga	-13.3148
slungsten	-13.3148
ättik	-13.3148
bevingad	-13.3148
epafr	-13.3148
teckentyder	-13.3148
underrättelse	-13.3148
lummig	-13.3148
skuldror	-13.3148
dunkel	-13.3148
ondskefull	-13.3148
undersökning	-13.3148
pelikan	-13.3148
örtagård	-13.3148
svägerska	-13.3148
dristig	-13.3148
dränka	-13.3148
antikrist	-13.3148
refaja	-13.3148
snöpt	-13.3148
grannskap	-13.3148
asanja	-13.3148
raema	-13.3148
semira	-13.3148
split	-13.3148
försumlig	-13.3148
spillror	-13.3148
maher	-13.3148
medeba	-13.3148
jasub	-13.3148
sviklig	-13.3148
utländsk	-13.3148
poti	-13.3148
livsuppehälle	-13.3148
offerhöjdshus	-13.3148
sorgefest	-13.3148
inkomst	-13.3148
våldsgärningar	-13.3148
vapne	-13.3148
försyndelse	-13.3148
dalbygd	-13.3148
elimelek	-13.3148
tröskvagnar	-13.3148
mibsa	-13.3148
sutela	-13.3148
elisur	-13.3148
sammanfoga	-13.3149
stenröse	-13.3149
gruva	-13.3149
gäng	-13.3149
pagiel	-13.3149
selomot	-13.3149
olycklige	-13.3149
aloe	-13.3149
hägern	-13.3149
tillhörighet	-13.3149
jekam	-13.3149
gemarja	-13.3149
prästämbete	-13.3149
knyt	-13.3149
livrock	-13.3149
'	-13.5057
,	-13.5137
;	-13.5141
9	-13.5648
í	-13.5648
5	-13.8981
é	-14.3961
7	-14.3981
3	-14.3981
]	-14.3981
8	-15.3976
4	-15.3977
(	-15.3978
?	-15.3979
.	-15.398
á	-15.3981
ä	-15.3981
