<pad>	0
</s>	0
<unk>	0
▁¦	-0
▁a	-1
ch	-2
ai	-3
ea	-4
th	-5
in	-6
na	-7
ar	-8
▁d	-9
bh	-10
▁s	-11
ir	-12
mh	-13
an	-14
dh	-15
il	-16
is	-17
ío	-18
▁c	-19
▁l	-20
ta	-21
gu	-22
▁t	-23
▁f	-24
▁g	-25
gus	-26
id	-27
▁an	-28
gh	-29
air	-30
▁m	-31
la	-32
▁ch	-33
ra	-34
▁n	-35
on	-36
each	-37
▁agus	-38
▁𐋇	-39
▁ar	-40
▁i	-41
eo	-42
▁r	-43
éa	-44
ás	-45
ach	-46
co	-47
nn	-48
▁le	-49
ao	-50
▁bh	-51
the	-52
tá	-53
▁.	-54
iú	-55
▁,	-56
▁co	-57
▁na	-58
▁b	-59
ain	-60
le	-61
inn	-62
▁go	-63
ine	-64
ear	-65
ia	-66
eas	-67
ei	-68
lá	-69
áil	-70
or	-71
▁do	-72
tha	-73
te	-74
agus	-75
os	-76
ais	-77
19	-78
ean	-79
ín	-80
ig	-81
▁-	-82
▁p	-83
vid	-84
un	-85
it	-86
uair	-87
cht	-88
fh	-89
as	-90
ír	-91
im	-92
▁th	-93
▁ag	-94
aithe	-95
ile	-96
éad	-97
▁’	-98
eadh	-99
▁dh	-100
▁fh	-101
igh	-102
aigh	-103
▁h	-104
eag	-105
anna	-106
sa	-107
ro	-108
idir	-109
go	-110
íonn	-111
ithe	-112
adh	-113
20	-114
al	-115
eann	-116
aidh	-117
▁de	-118
io	-119
óg	-120
▁bhf	-121
aoine	-122
uil	-123
áin	-124
óir	-125
▁T	-126
vír	-127
do	-128
eile	-129
▁é	-130
▁covid	-131
íos	-132
▁nó	-133
-19	-134
áid	-135
láin	-136
oi	-137
ac	-138
abh	-139
eacht	-140
▁(	-141
ag	-142
ail	-143
aith	-144
íodh	-145
de	-146
áir	-147
▁in	-148
▁ó	-149
ian	-150
ion	-151
isc	-152
cha	-153
ad	-154
eal	-155
ur	-156
ic	-157
uir	-158
ann	-159
eamh	-160
re	-161
án	-162
ug	-163
▁seo	-164
ála	-165
▁C	-166
ús	-167
▁is	-168
éir	-169
íoch	-170
▁du	-171
▁1	-172
ith	-173
▁D	-174
éidir	-175
nach	-176
taí	-177
▁gh	-178
▁mar	-179
▁mh	-180
cov	-181
sc	-182
ial	-183
ástá	-184
víreas	-185
nó	-186
▁gc	-187
artha	-188
▁sh	-189
rú	-190
éana	-191
tar	-192
aoi	-193
▁tú	-194
áis	-195
▁chun	-196
▁lá	-197
▁A	-198
▁eile	-199
ró	-200
eith	-201
▁I	-202
▁sa	-203
éim	-204
tú	-205
▁M	-206
mp	-207
sh	-208
eidh	-209
▁bhfuil	-210
lú	-211
láinte	-212
ud	-213
tr	-214
aint	-215
ol	-216
ghaidh	-217
omh	-218
▁mb	-219
▁or	-220
uairisc	-221
eanna	-222
éin	-223
tach	-224
▁2	-225
éadf	-226
aid	-227
ár	-228
saín	-229
aí	-230
▁tá	-231
acsaín	-232
éan	-233
▁cás	-234
▁sé	-235
mar	-236
19¦	-237
covid	-238
vacsaín	-239
bhf	-240
▁atá	-241
oib	-242
aon	-243
fhabh	-244
taithe	-245
▁níos	-246
▁mó	-247
oinn	-248
eagmh	-249
ná	-250
aibh	-251
íon	-252
airt	-253
ios	-254
tear	-255
úsáid	-256
iún	-257
thar	-258
ars	-259
▁¦19¦	-260
▁aon	-261
se	-262
oir	-263
▁N	-264
▁tr	-265
▁dt	-266
ua	-267
▁B	-268
ca	-269
dú	-270
raí	-271
imh	-272
seo	-273
▁20	-274
▁ph	-275
iad	-276
eor	-277
▁comh	-278
uid	-279
teach	-280
éar	-281
ástáil	-282
▁Tá	-283
▁lea	-284
du	-285
arthaí	-286
íomh	-287
éanamh	-288
mach	-289
ill	-290
ibh	-291
▁féidir	-292
▁¦1	-293
▁ion	-294
eoir	-295
íocht	-296
ph	-297
▁¦2	-298
▁sc	-299
éadfadh	-300
thair	-301
aip	-302
▁daoine	-303
thu	-304
uairiscíodh	-305
▁io	-306
ásanna	-307
ís	-308
íor	-309
▁o	-310
éal	-311
gur	-312
ras	-313
er	-314
idh	-315
eola	-316
▁faoi	-317
▁leis	-318
▁duine	-319
▁sláinte	-320
iom	-321
ainn	-322
▁Is	-323
▁sin	-324
ialta	-325
▁á	-326
ní	-327
lach	-328
rian	-329
árta	-330
mb	-331
mó	-332
chun	-333
sú	-334
ógra	-335
▁vacsaín	-336
▁ná	-337
st	-338
gc	-339
eir	-340
ghl	-341
▁víreas	-342
ma	-343
reis	-344
pr	-345
eabh	-346
aist	-347
aghaidh	-348
▁tar	-349
nadh	-350
úir	-351
if	-352
▁S	-353
íne	-354
eall	-355
▁raibh	-356
da	-357
lea	-358
coil	-359
ip	-360
▁bás	-361
at	-362
bhfuil	-363
▁u	-364
aile	-365
▁cú	-366
comh	-367
nacht	-368
00	-369
eis	-370
pid	-371
aim	-372
éis	-373
áig	-374
radh	-375
▁air	-376
eachta	-377
int	-378
vir	-379
▁ionfhabh	-380
iúil	-381
eagmháil	-382
▁chomh	-383
us	-384
eart	-385
▁dó	-386
▁F	-387
ítear	-388
chur	-389
▁roinn	-390
▁4	-391
acht	-392
má	-393
▁má	-394
▁ort	-395
▁sars	-396
lí	-397
▁ach	-398
atá	-399
ob	-400
▁3	-401
onraí	-402
eachtaí	-403
daoine	-404
ón	-405
eidhm	-406
▁)	-407
▁ta	-408
aine	-409
▁bheith	-410
eáil	-411
ástála	-412
sé	-413
▁dhéanamh	-414
sin	-415
en	-416
iar	-417
▁úsáid	-418
níos	-419
dach	-420
eacha	-421
▁idir	-422
naí	-423
▁aghaidh	-424
▁rud	-425
ru	-426
eic	-427
▁amh	-428
▁Má	-429
reisin	-430
déim	-431
lán	-432
aindéim	-433
▁iad	-434
rach	-435
navir	-436
▁An	-437
▁éis	-438
cu	-439
olá	-440
víris	-441
san	-442
▁gach	-443
uig	-444
▁as	-445
▁gur	-446
dt	-447
fach	-448
chtúir	-449
eá	-450
▁féin	-451
ronavir	-452
inic	-453
▁im	-454
▁meas	-455
▁chóir	-456
nas	-457
▁¦20	-458
aoin	-459
anacht	-460
▁nach	-461
0¦	-462
aol	-463
osc	-464
▁st	-465
▁chur	-466
▁2020	-467
▁duit	-468
mha	-469
ib	-470
▁la	-471
alar	-472
▁ann	-473
ath	-474
▁/	-475
4¦	-476
▁ní	-477
▁bhí	-478
ór	-479
rom	-480
▁Ní	-481
mpla	-482
oradh	-483
▁comharthaí	-484
uas	-485
▁dhaoine	-486
íochta	-487
▁L	-488
▁roinnt	-489
▁cl	-490
▁siad	-491
oibr	-492
chú	-493
bhairt	-494
▁den	-495
cú	-496
amh	-497
ram	-498
▁5	-499
▁don	-500
▁ina	-501
mu	-502
cás	-503
ois	-504
nad	-505
aidir	-506
ionfhabh	-507
eaghl	-508
eaghlaigh	-509
féidir	-510
eabhra	-511
▁fr	-512
▁san	-513
▁orthu	-514
íortha	-515
aig	-516
áisiún	-517
▁ón	-518
áirítear	-519
ead	-520
acha	-521
inne	-522
faoi	-523
▁G	-524
▁w	-525
ard	-526
dáil	-527
earbh	-528
eoirí	-529
▁trí	-530
▁fhéadfadh	-531
níomh	-532
áiste	-533
bhí	-534
pa	-535
▁¦3	-536
▁líon	-537
▁thug	-538
oiblí	-539
éil	-540
aipeadh	-541
duine	-542
ronavirus	-543
lu	-544
ábh	-545
igean	-546
eagmhála	-547
ospid	-548
ugadh	-549
aire	-550
óis	-551
ho	-552
easta	-553
▁márta	-554
▁¦2¦	-555
arr	-556
innt	-557
oimh	-558
-2	-559
sín	-560
▁ráig	-561
▁tástáil	-562
5¦	-563
▁lena	-564
lo	-565
leis	-566
airle	-567
déan	-568
áide	-569
▁rios	-570
dó	-571
ait	-572
sláinte	-573
iúla	-574
lúdach	-575
▁roimh	-576
áisiúnta	-577
thú	-578
▁ath	-579
▁thar	-580
fr	-581
ós	-582
aitheamh	-583
chomh	-584
tu	-585
▁tha	-586
coileanna	-587
▁amach	-588
aineann	-589
achta	-590
ál	-591
eac	-592
eanáir	-593
illiún	-594
eachas	-595
áirithe	-596
aic	-597
oc	-598
ort	-599
iomláin	-600
▁freisin	-601
▁isteach	-602
éile	-603
práide	-604
▁dóibh	-605
earfach	-606
uireadh	-607
tí	-608
tas	-609
tóg	-610
gach	-611
náth	-612
▁neamh	-613
sars	-614
éid	-615
asc	-616
▁domh	-617
▁leat	-618
li	-619
alair	-620
▁fáil	-621
am	-622
ola	-623
▁”	-624
▁amháin	-625
óirí	-626
▁“	-627
rios	-628
▁nuair	-629
▁bun	-630
rianta	-631
tais	-632
▁mór	-633
arth	-634
eala	-635
▁lagh	-636
el	-637
raibh	-638
bás	-639
óisialta	-640
áit	-641
▁sp	-642
ba	-643
álacha	-644
▁gheall	-645
▁tástála	-646
▁ionfhabhtaithe	-647
óin	-648
▁chuig	-649
liú	-650
ífh	-651
táit	-652
uairt	-653
las	-654
orb	-655
faidh	-656
och	-657
▁sonraí	-658
nú	-659
▁bhíonn	-660
▁"	-661
fig	-662
▁gco	-663
▁:	-664
ina	-665
iúl	-666
ighis	-667
sp	-668
meas	-669
▁mí	-670
▁gan	-671
▁áit	-672
ampla	-673
▁leor	-674
▁Tuairiscíodh	-675
▁tinn	-676
fidh	-677
▁linn	-678
anda	-679
éanna	-680
han	-681
▁br	-682
lagh	-683
ló	-684
eimh	-685
ochtúir	-686
oll	-687
ithr	-688
eagra	-689
ura	-690
▁Mar	-691
▁nua	-692
▁fanacht	-693
earta	-694
8¦	-695
lé	-696
ógraíodh	-697
rud	-698
▁Ch	-699
▁mo	-700
súil	-701
bheith	-702
▁fháil	-703
éag	-704
cl	-705
▁iar	-706
▁lámha	-707
oifig	-708
dhéanamh	-709
mpar	-710
reán	-711
▁tír	-712
othar	-713
eán	-714
▁réir	-715
bhís	-716
▁acu	-717
▁chuid	-718
ub	-719
únadh	-720
gann	-721
1¦	-722
thaí	-723
muigh	-724
ospidéal	-725
imhe	-726
▁dul	-727
▁fud	-728
▁rial	-729
▁roimhe	-730
▁cásanna	-731
ionch	-732
▁measc	-733
▁maidir	-734
▁aontaithe	-735
oil	-736
íní	-737
ábháil	-738
tuairiscíodh	-739
▁dá	-740
chuir	-741
oscail	-742
▁2020,	-743
eog	-744
▁có	-745
íobh	-746
▁feabhra	-747
▁scaipeadh	-748
lean	-749
-19.	-750
▁dtí	-751
▁teaghlaigh	-752
féin	-753
7¦	-754
▁sao	-755
ialtas	-756
▁chás	-757
▁uair	-758
▁aghaidhe	-759
20¦	-760
ist	-761
uath	-762
eimhn	-763
6¦	-764
ne	-765
▁aip	-766
▁haghaidh	-767
chóir	-768
comharthaí	-769
um	-770
eol	-771
▁6	-772
earr	-773
▁ard	-774
▁chéad	-775
iúd	-776
ealt	-777
mhair	-778
íochaine	-779
líon	-780
▁Déan	-781
▁coronavirus	-782
3¦	-783
iabh	-784
orthaí	-785
▁ba	-786
▁sna	-787
nóis	-788
róit	-789
santa	-790
aigheann	-791
ífhógraíodh	-792
▁R	-793
▁lean	-794
▁víris	-795
rón	-796
racha	-797
raim	-798
far	-799
den	-800
nann	-801
aisteal	-802
íochtaí	-803
▁choinn	-804
▁tugadh	-805
▁¦2020¦	-806
duit	-807
róin	-808
ers	-809
▁leo	-810
ionchar	-811
▁eanáir	-812
don	-813
oin	-814
▁Ba	-815
▁bp	-816
▁chos	-817
▁rian	-818
asacht	-819
rá	-820
éanaí	-821
▁bhaile	-822
▁–	-823
iath	-824
uhan	-825
aintín	-826
▁hiomláin	-827
táil	-828
roinnt	-829
lár	-830
inneadh	-831
nuair	-832
ógair	-833
▁fógra	-834
dhaoine	-835
▁riospráide	-836
thug	-837
ce	-838
all	-839
liain	-840
áinig	-841
▁tsín	-842
▁tuairiscíodh	-843
br	-844
▁nd	-845
siad	-846
▁poiblí	-847
náisiúnta	-848
▁thabhairt	-849
dar	-850
aill	-851
éanann	-852
▁ng	-853
▁su	-854
có	-855
imp	-856
trí	-857
úil	-858
ige	-859
▁mbeadh	-860
ss	-861
▁bhfeidhm	-862
súla	-863
laíonn	-864
▁7	-865
▁aois	-866
▁hcov	-867
▁leith	-868
ite	-869
▁ain	-870
▁cur	-871
▁oibr	-872
▁maith	-873
2¦	-874
eolas	-875
orthu	-876
ún	-877
▁chor	-878
▁faoin	-879
lena	-880
róitéin	-881
).	-882
▁iom	-883
iachta	-884
fhéadfadh	-885
sco	-886
▁tu	-887
racht	-888
iabhras	-889
ogh	-890
▁Th	-891
▁agat	-892
▁%	-893
lac	-894
▁¦4¦	-895
neamh	-896
éagsúla	-897
sí	-898
▁9	-899
▁ei	-900
▁lu	-901
▁ós	-902
▁chú	-903
pidéim	-904
▁am	-905
▁déan	-906
aistil	-907
tástáil	-908
▁10	-909
▁Ag	-910
dála	-911
▁fad	-912
▁galar	-913
paí	-914
oibre	-915
íonna	-916
lan	-917
ráig	-918
▁chuir	-919
bhr	-920
osaigh	-921
fa	-922
éine	-923
bhísí	-924
lacha	-925
raíonn	-926
eachais	-927
▁pháiste	-928
ríomh	-929
▁8	-930
▁feadh	-931
▁mhéad	-932
▁leighis	-933
▁bhaineann	-934
nacha	-935
▁aib	-936
▁stáit	-937
isteach	-938
raintín	-939
dhío	-940
▁¦1¦	-941
imhse	-942
márta	-943
▁leanaí	-944
▁éigean	-945
ealtaine	-946
▁shampla	-947
to	-948
000	-949
namh	-950
daigh	-951
iomlán	-952
),	-953
9¦	-954
ainne	-955
eachtain	-956
aib	-957
▁Bh	-958
ibhéal	-959
▁gcásanna	-960
▁paindéim	-961
▁dhochtúir	-962
▁ionfhabhtú	-963
tó	-964
aois	-965
▁al	-966
ionn	-967
róinvíreas	-968
dr	-969
▁tíortha	-970
eist	-971
,000	-972
éigh	-973
▁eis	-974
▁cinn	-975
▁cúram	-976
▁staid	-977
▁othair	-978
éif	-979
iomp	-980
▁oir	-981
▁léir	-982
▁chaitheamh	-983
▁clúdach	-984
▁scoileanna	-985
ich	-986
iana	-987
amach	-988
eanta	-989
ianta	-990
-19,	-991
▁éif	-992
cr	-993
dóibh	-994
bun	-995
ims	-996
onn	-997
▁14	-998
▁éir	-999
▁seir	-1000
ealach	-1001
tuithe	-1002
oireann	-1003
▁srianta	-1004
earbhaithe	-1005
mór	-1006
▁gá	-1007
raith	-1008
▁cóir	-1009
▁teagmháil	-1010
aisc	-1011
íreach	-1012
achtach	-1013
aiseachtaí	-1014
isce	-1015
▁daon	-1016
▁síne	-1017
▁dearfach	-1018
▁Ná	-1019
aise	-1020
igiú	-1021
oirm	-1022
obail	-1023
▁ionad	-1024
mo	-1025
feadh	-1026
fanacht	-1027
freisin	-1028
▁chéile	-1029
scoileanna	-1030
domh	-1031
gnóis	-1032
gan	-1033
tír	-1034
▁4,	-1035
▁Ar	-1036
▁lé	-1037
▁rá	-1038
sonraí	-1039
▁iomlán	-1040
▁aibreán	-1041
eath	-1042
néis	-1043
▁dhá	-1044
chúis	-1045
mhithe	-1046
nachta	-1047
leat	-1048
scoil	-1049
fáil	-1050
tinn	-1051
uine	-1052
▁domhain	-1053
▁rialtas	-1054
ionfhabhtaithe	-1055
saí	-1056
éamh	-1057
iaidh	-1058
liana	-1059
oláth	-1060
amháin	-1061
níomha	-1062
aistigh	-1063
uairiscigh	-1064
▁fhr	-1065
▁siúd	-1066
og	-1067
▁'	-1068
teacht	-1069
tástála	-1070
dá	-1071
▁cu	-1072
linn	-1073
onta	-1074
▁mhí	-1075
ugtar	-1076
álach	-1077
aisnéis	-1078
▁toradh	-1079
óireacht	-1080
measc	-1081
▁for	-1082
▁who	-1083
▁mbeidh	-1084
▁Dífhógraíodh	-1085
obal	-1086
bhaile	-1087
orbairt	-1088
eitheamh	-1089
eastaíonn	-1090
me	-1091
mí	-1092
▁ra	-1093
bair	-1094
éit	-1095
rí	-1096
eana	-1097
aighde	-1098
daithe	-1099
gheall	-1100
op	-1101
chuig	-1102
▁sco	-1103
▁beag	-1104
bhíonn	-1105
▁ospidéal	-1106
▁sóisialta	-1107
ene	-1108
faí	-1109
eastal	-1110
íol	-1111
▁¦5	-1112
▁gla	-1113
▁las	-1114
▁déanaí	-1115
ionfhabhtú	-1116
su	-1117
▁¦4	-1118
tair	-1119
lacht	-1120
airíonna	-1121
tóga	-1122
oladh	-1123
oláir	-1124
eagairt	-1125
▁thástáil	-1126
artheagmhála	-1127
gco	-1128
▁¦5¦	-1129
ionad	-1130
▁cuairt	-1131
▁fhógair	-1132
iond	-1133
leor	-1134
▁19	-1135
▁dí	-1136
▁aer	-1137
▁Cuir	-1138
▁mura	-1139
▁frith	-1140
▁fuair	-1141
▁luath	-1142
coronavirus	-1143
obh	-1144
rial	-1145
réir	-1146
▁v	-1147
▁cr	-1148
áirt	-1149
▁ial	-1150
chuid	-1151
▁minic	-1152
itianta	-1153
sna	-1154
aithn	-1155
▁bu	-1156
mhór	-1157
▁cov	-1158
ghabh	-1159
▁bunús	-1160
▁thart	-1161
ing	-1162
iagnóis	-1163
rachtaí	-1164
fear	-1165
maidir	-1166
▁náisiúnta	-1167
rna	-1168
loig	-1169
covanna	-1170
én	-1171
eap	-1172
▁os	-1173
chos	-1174
aigin	-1175
▁srian	-1176
▁wuhan	-1177
▁cosúil	-1178
▁ghnáth	-1179
paindéim	-1180
▁milliún	-1181
▁chosaint	-1182
dhíonachta	-1183
iachtanach	-1184
nua	-1185
sao	-1186
▁¦3¦	-1187
aonrú	-1188
lín	-1189
anta	-1190
lámha	-1191
▁bhás	-1192
▁mbaol	-1193
▁teagmhála	-1194
ág	-1195
anais	-1196
preag	-1197
tharl	-1198
raothar	-1199
eolaíoch	-1200
oláireamh	-1201
iúr	-1202
óid	-1203
▁ís	-1204
úirt	-1205
▁bia	-1206
fháil	-1207
▁léinn	-1208
▁bearta	-1209
▁vacsaíní	-1210
ll	-1211
irt	-1212
leath	-1213
ubst	-1214
chtaí	-1215
▁aith	-1216
▁éagsúla	-1217
dul	-1218
táin	-1219
údar	-1220
cásanna	-1221
ireadh	-1222
▁háirithe	-1223
▁tionchar	-1224
▁comhairle	-1225
▁bhféadfadh	-1226
cs	-1227
acu	-1228
ara	-1229
tát	-1230
oghl	-1231
seir	-1232
othair	-1233
ubstaint	-1234
▁24	-1235
▁Bhí	-1236
iodáil	-1237
riosca	-1238
▁sábháil	-1239
aontaithe	-1240
▁lasmuigh	-1241
ge	-1242
óil	-1243
uartha	-1244
▁O	-1245
fud	-1246
▁11	-1247
chla	-1248
cuir	-1249
mura	-1250
rtha	-1251
éann	-1252
▁Níl	-1253
áistí	-1254
▁mers	-1255
roimhe	-1256
éigean	-1257
▁theas	-1258
scaipeadh	-1259
raothartach	-1260
luaiseachtaí	-1261
ng	-1262
om	-1263
▁ts	-1264
ocht	-1265
▁lae	-1266
▁oibre	-1267
feabhra	-1268
▁cheart	-1269
▁riosca	-1270
▁thoradh	-1271
bhar	-1272
uill	-1273
ógais	-1274
éimhse	-1275
iúltach	-1276
earsanta	-1277
bhachtach	-1278
▁ais	-1279
▁suas	-1280
tugadh	-1281
▁Beidh	-1282
▁céanna	-1283
▁láthair	-1284
▁fhaigheann	-1285
dtí	-1286
teaghlaigh	-1287
aif	-1288
ioc	-1289
aoil	-1290
rúpa	-1291
éanó	-1292
ineál	-1293
reise	-1294
achtar	-1295
▁obair	-1296
oláthar	-1297
▁laghdú	-1298
eachtach	-1299
▁choróin	-1300
▁fhéidir	-1301
▁ghalair	-1302
che	-1303
chor	-1304
chás	-1305
aghaidhe	-1306
oscailte	-1307
ang	-1308
ladh	-1309
lúth	-1310
▁oid	-1311
ailte	-1312
▁méad	-1313
áileog	-1314
▁Chuir	-1315
▁dúnadh	-1316
haghaidh	-1317
▁leibhéal	-1318
nd	-1319
leo	-1320
abhrú	-1321
ailiú	-1322
aradh	-1323
eatha	-1324
leith	-1325
oltar	-1326
ontae	-1327
iscint	-1328
uarthas	-1329
ospidéil	-1330
ost	-1331
▁15	-1332
▁De	-1333
▁Go	-1334
aisp	-1335
▁nós	-1336
▁éad	-1337
chéad	-1338
▁tinnis	-1339
▁¦6	-1340
fra	-1341
ong	-1342
osú	-1343
eáin	-1344
iúmó	-1345
▁chl	-1346
▁sio	-1347
▁géar	-1348
ealamh	-1349
raithe	-1350
▁gcuid	-1351
▁teacht	-1352
▁taistil	-1353
▁eipidéim	-1354
▁bealtaine	-1355
▁choinneáil	-1356
▁dr	-1357
▁lú	-1358
▁um	-1359
óras	-1360
▁eor	-1361
▁mac	-1362
choinn	-1363
▁laghad	-1364
▁príomh	-1365
▁casacht	-1366
▁cuireadh	-1367
mhíochaine	-1368
óga	-1369
iúint	-1370
ruinn	-1371
ríobh	-1372
íocha	-1373
ialacha	-1374
iúmóine	-1375
▁	-1376
a	-1377
¦	-1378
i	-1379
h	-1380
n	-1381
r	-1382
e	-1383
t	-1384
s	-1385
o	-1386
c	-1387
l	-1388
d	-1389
g	-1390
á	-1391
m	-1392
u	-1393
í	-1394
b	-1395
f	-1396
é	-1397
ú	-1398
ó	-1399
.	-1400
,	-1401
p	-1402
v	-1403
-	-1404
1	-1405
𐋇	-1406
2	-1407
0	-1408
9	-1409
’	-1410
3	-1411
4	-1412
T	-1413
5	-1414
)	-1415
(	-1416
C	-1417
D	-1418
6	-1419
8	-1420
A	-1421
7	-1422
I	-1423
M	-1424
N	-1425
B	-1426
w	-1427
:	-1428
y	-1429
S	-1430
%	-1431
F	-1432
"	-1433
/	-1434
L	-1435
k	-1436
G	-1437
z	-1438
“	-1439
;	-1440
”	-1441
'	-1442
R	-1443
–	-1444
j	-1445
x	-1446
?	-1447
O	-1448
P	-1449
Ú	-1450
Ó	-1451
q	-1452
‘	-1453
V	-1454
$	-1455
[	-1456
]	-1457
&	-1458
U	-1459
E	-1460
Á	-1461
€	-1462
+	-1463
≥	-1464
H	-1465
Í	-1466
É	-1467
#	-1468
~	-1469
×	-1470
W	-1471
@	-1472
α	-1473
β	-1474
|	-1475
£	-1476
°	-1477
ã	-1478
ç	-1479
γ	-1480
—	-1481
武	-1482
肺	-1483
K	-1484
=	-1485
_	-1486
­	-1487
à	-1488
å	-1489
′	-1490
汉	-1491
漢	-1492
炎	-1493
J	-1494
X	-1495
Y	-1496
