<pad>	0
</s>	0
<unk>	0
,	-2.49672
.	-3.47216
▁a	-3.55572
i	-4.37935
▁v	-4.37961
▁se	-4.43841
▁	-4.56242
▁na	-4.68547
m	-4.72776
a	-4.74773
:	-4.75939
▁z	-4.81674
▁A	-4.90372
▁s	-4.90788
▁k	-4.95715
▁i	-5.01745
u	-5.15736
▁jest	-5.238
▁jeho	-5.25405
;	-5.26127
e	-5.27732
o	-5.28204
▁po	-5.33101
í	-5.33647
r	-5.397
▁pak	-5.40393
y	-5.41687
▁I	-5.42922
▁do	-5.43772
ch	-5.47684
▁že	-5.51705
ť	-5.53712
▁za	-5.60466
te	-5.6059
v	-5.61411
ž	-5.62773
▁od	-5.64814
s	-5.64904
▁jsem	-5.66378
▁Hospodin	-5.66948
l	-5.69908
li	-5.71893
?	-5.75157
t	-5.77012
k	-5.78064
▁u	-5.79192
z	-5.79898
á	-5.8021
š	-5.82426
p	-5.82525
▁by	-5.85096
▁aby	-5.86261
ě	-5.89699
▁řekl	-5.91453
▁vy	-5.9612
▁to	-5.97331
▁bude	-5.97466
▁byl	-6.04758
d	-6.05302
▁o	-6.06814
▁když	-6.07061
▁jejich	-6.07708
ou	-6.08124
h	-6.08631
▁tak	-6.08709
▁před	-6.10014
ní	-6.1255
▁je	-6.13072
▁při	-6.14174
▁své	-6.15206
▁jako	-6.15561
▁nebo	-6.15809
la	-6.17172
ů	-6.18695
▁kteříž	-6.18807
▁kterýž	-6.19847
em	-6.21521
é	-6.25447
ce	-6.28465
▁mne	-6.3082
le	-6.31381
b	-6.31927
ho	-6.32245
▁ne	-6.32861
▁svého	-6.33151
ti	-6.33244
▁jsou	-6.34796
▁pro	-6.35296
ý	-6.38828
▁ale	-6.42418
▁Nebo	-6.4261
na	-6.45293
▁ho	-6.46949
n	-6.47507
ně	-6.50497
▁jsi	-6.51662
▁jim	-6.51793
st	-6.5183
▁Bůh	-6.5214
▁kteréž	-6.52742
▁já	-6.53728
ra	-6.55194
▁země	-6.55307
č	-6.56265
▁proti	-6.56993
▁jemu	-6.57085
▁toho	-6.58512
▁zemi	-6.58547
▁nad	-6.6036
▁také	-6.61576
il	-6.6216
ovi	-6.6329
▁mi	-6.6402
me	-6.65417
▁tobě	-6.66767
▁budou	-6.67128
▁ten	-6.67139
▁ty	-6.68555
▁jej	-6.69026
▁až	-6.69046
▁lid	-6.69861
▁Tedy	-6.71277
▁p	-6.71603
ni	-6.72788
en	-6.74367
-	-6.74738
ná	-6.74946
▁byli	-6.76743
▁Ale	-6.76756
▁S	-6.77955
▁vám	-6.79191
▁svou	-6.79812
to	-6.8007
▁král	-6.80944
▁domu	-6.81467
ře	-6.82335
▁tě	-6.8404
▁což	-6.8449
▁pod	-6.85892
▁svých	-6.86216
mu	-6.86406
né	-6.88889
ové	-6.89614
▁vás	-6.89747
▁Z	-6.89969
lo	-6.90765
ova	-6.91672
▁syn	-6.93028
▁V	-6.93618
▁tvé	-6.93897
j	-6.94061
▁roz	-6.95339
▁ve	-6.95699
▁sobě	-6.96123
▁ani	-6.96251
▁Protož	-6.98125
mi	-6.98868
še	-6.99009
▁má	-6.99033
▁mé	-7.00339
▁bylo	-7.00772
el	-7.01589
c	-7.02146
vá	-7.02251
▁Boha	-7.02381
mezi	-7.03671
▁lidu	-7.04196
an	-7.04968
▁synů	-7.05894
al	-7.06069
▁praví	-7.06127
no	-7.06491
▁jste	-7.06546
ku	-7.06642
▁Ne	-7.07213
▁ob	-7.08602
▁on	-7.09694
▁všecky	-7.10645
▁můj	-7.10645
ří	-7.10838
▁Po	-7.12482
▁ji	-7.13016
ého	-7.13195
▁synové	-7.15691
▁Hospodinu	-7.15727
▁tedy	-7.15824
▁den	-7.16436
uje	-7.16758
ci	-7.17432
▁všech	-7.17927
▁dal	-7.18509
jí	-7.19322
ka	-7.19418
▁ním	-7.19465
▁mně	-7.19925
▁syna	-7.21484
▁těch	-7.21915
▁všickni	-7.22385
▁kteráž	-7.22687
▁pře	-7.22862
▁K	-7.23206
ky	-7.2336
▁jeden	-7.23641
▁kdo	-7.24563
▁jsme	-7.24766
▁řka	-7.25621
▁mluvil	-7.26852
lí	-7.27757
▁tu	-7.27862
▁srdce	-7.27934
ta	-7.28119
▁všecko	-7.28816
ův	-7.28939
▁Boží	-7.29028
ých	-7.29312
▁dne	-7.30498
▁dí	-7.3054
cí	-7.30864
▁P	-7.3111
iti	-7.31363
▁aniž	-7.31718
ím	-7.32053
▁zajisté	-7.32288
▁byla	-7.32659
▁krále	-7.33003
▁Hospodina	-7.33749
ma	-7.33753
▁(	-7.33809
ř	-7.34581
▁obět	-7.3483
▁učinil	-7.36352
▁tvůj	-7.36482
tí	-7.37037
▁nás	-7.37123
▁David	-7.37725
▁Aj	-7.37761
nu	-7.38435
že	-7.38602
če	-7.38617
lé	-7.38697
ne	-7.39427
oval	-7.40094
▁svým	-7.40606
▁d	-7.40615
▁Ježíš	-7.40822
nou	-7.41004
▁h	-7.41307
▁věci	-7.4164
▁není	-7.41705
▁co	-7.41873
▁b	-7.41986
▁mu	-7.42336
▁tebe	-7.4256
▁její	-7.42652
▁m	-7.42674
po	-7.43359
ný	-7.43576
▁budu	-7.44096
▁svému	-7.44875
ko	-7.45058
▁kdož	-7.45396
da	-7.45759
je	-7.45784
▁nich	-7.4623
dě	-7.46343
▁tam	-7.47022
▁jakž	-7.47173
▁té	-7.47173
▁ti	-7.47399
ví	-7.47536
▁města	-7.47778
▁O	-7.48142
▁kterouž	-7.49426
va	-7.49787
▁jméno	-7.5067
ší	-7.50723
▁každý	-7.5089
ru	-7.52196
▁více	-7.52558
tě	-7.52942
▁jich	-7.53036
▁aj	-7.53792
▁králi	-7.53953
ili	-7.54337
f	-7.54381
lá	-7.54459
▁ke	-7.54499
ze	-7.54985
▁něho	-7.54995
▁něm	-7.5615
▁Když	-7.56727
▁jí	-7.56951
▁však	-7.5701
▁již	-7.57311
▁budeš	-7.58183
ech	-7.58296
▁pokolení	-7.59697
ům	-7.59805
ad	-7.60139
at	-7.60266
▁Bohu	-7.61114
ám	-7.61556
skrze	-7.62172
▁nám	-7.6237
▁Na	-7.6268
▁sedm	-7.62995
ej	-7.63225
▁Vy	-7.63236
mo	-7.63354
▁měl	-7.6455
▁protož	-7.65496
lu	-7.65852
▁nyní	-7.65919
▁němu	-7.65989
▁jenž	-7.66846
ň	-7.66986
dlé	-7.67251
ových	-7.68058
▁otce	-7.68083
čí	-7.68226
ení	-7.68442
▁aneb	-7.6879
▁Mojžíš	-7.69132
ři	-7.69409
or	-7.69562
▁budete	-7.70148
tá	-7.70426
ly	-7.70844
g	-7.70962
vr	-7.71117
ští	-7.71157
▁abych	-7.71332
▁B	-7.7137
sa	-7.71657
ného	-7.71691
koli	-7.72042
▁dům	-7.72393
▁pos	-7.72532
val	-7.73014
▁stalo	-7.73083
▁přišel	-7.73609
ovati	-7.73853
ích	-7.74145
▁ať	-7.74854
▁tebou	-7.75096
▁býti	-7.75331
▁mého	-7.75368
či	-7.7612
▁poslal	-7.76285
▁čas	-7.76422
▁ruku	-7.7699
▁Potom	-7.76991
dí	-7.7748
▁svůj	-7.77709
▁M	-7.77772
▁živ	-7.77803
▁muži	-7.77811
▁mnou	-7.7805
▁ta	-7.78078
▁tomu	-7.78554
▁Hospodinova	-7.7877
ek	-7.78875
▁všecken	-7.78919
▁slovo	-7.79313
▁tvá	-7.79315
▁ještě	-7.79408
▁nimi	-7.79496
▁nepo	-7.79708
▁království	-7.79898
on	-7.80302
nost	-7.80367
▁vaše	-7.80485
▁ní	-7.81096
▁U	-7.81142
za	-7.81271
▁prostřed	-7.81548
▁ode	-7.82038
▁t	-7.82244
ó	-7.82641
▁syny	-7.8272
▁místo	-7.82931
▁bratří	-7.83
stav	-7.8366
▁bez	-7.84177
▁tom	-7.85082
▁Hospodine	-7.85141
▁slova	-7.85436
▁ruce	-7.85465
▁než	-7.85481
▁oni	-7.85778
▁proto	-7.86222
▁svém	-7.86327
▁D	-7.86701
▁zase	-7.87118
▁činí	-7.87257
dl	-7.87352
▁Izraelský	-7.87518
dá	-7.87694
▁nebude	-7.87694
ách	-7.87736
▁R	-7.87912
▁řekli	-7.87945
▁ze	-7.87955
▁ku	-7.88225
▁pravím	-7.89059
od	-7.89202
ob	-7.89675
ují	-7.90076
▁jakož	-7.90337
ské	-7.90531
▁l	-7.90548
▁dva	-7.90622
▁abyste	-7.91092
iáš	-7.91194
▁T	-7.91561
▁ně	-7.91738
▁tvého	-7.91833
▁tvých	-7.93586
íš	-7.93587
ba	-7.93718
▁člověka	-7.93864
de	-7.94131
▁muž	-7.94152
▁věky	-7.94159
▁nic	-7.94816
▁abys	-7.94867
▁všecka	-7.95006
▁muže	-7.95012
ny	-7.9596
▁Od	-7.96114
▁člověk	-7.96758
▁neb	-7.97372
▁Při	-7.98562
ry	-7.98732
ha	-7.98916
▁oběti	-7.99416
▁svými	-7.99853
▁toto	-7.99945
▁sám	-7.99957
▁Já	-8.00131
▁Izraelských	-8.00789
▁Zdaliž	-8.00798
▁synům	-8.00899
ovali	-8.01055
cích	-8.01128
ud	-8.01144
▁let	-8.01215
▁pří	-8.01216
er	-8.02478
▁svá	-8.02938
▁velmi	-8.03051
▁Ty	-8.03229
ve	-8.03579
▁nes	-8.03646
▁nebe	-8.0368
▁tři	-8.03715
ných	-8.03807
▁vz	-8.0381
▁hřích	-8.03839
ým	-8.03977
ati	-8.03985
▁tr	-8.04144
▁To	-8.0424
sti	-8.04265
▁rukou	-8.04295
▁duše	-8.04295
ání	-8.04301
▁Je	-8.04488
▁neu	-8.04511
▁sta	-8.04518
us	-8.04722
▁přikázal	-8.04924
▁jednoho	-8.05024
▁Kdo	-8.05204
▁vůkol	-8.05241
▁sebe	-8.05286
▁sto	-8.05676
▁Za	-8.07002
▁něj	-8.07285
▁mužů	-8.07493
stup	-8.07677
▁Izraelští	-8.07848
▁dědictví	-8.08135
ost	-8.08141
in	-8.08253
▁mých	-8.08285
▁viděl	-8.08525
ši	-8.08617
▁Saul	-8.08877
▁veliké	-8.08937
▁Tak	-8.09347
▁šel	-8.09488
▁tisíc	-8.09671
▁zástupů	-8.10028
▁očima	-8.10171
▁Takto	-8.10559
▁tohoto	-8.10625
▁ruky	-8.11117
▁soud	-8.11119
es	-8.11224
▁H	-8.11353
▁domě	-8.11487
▁Se	-8.11627
▁též	-8.12132
▁vol	-8.1234
▁činil	-8.12609
▁kněží	-8.12685
▁E	-8.13057
▁žádného	-8.13224
▁Jákob	-8.13365
▁nim	-8.1351
▁pět	-8.13875
▁jísti	-8.13903
▁Ma	-8.14304
▁přišli	-8.14322
▁Mojžíšovi	-8.14742
▁vody	-8.14845
ri	-8.15405
ská	-8.15645
▁Egyptské	-8.1572
ských	-8.15951
▁řkouce	-8.16289
▁mou	-8.16475
▁os	-8.16659
▁tento	-8.16788
▁množství	-8.16999
ali	-8.17117
▁potom	-8.17374
▁odpověděl	-8.17426
ování	-8.18182
▁tím	-8.18198
vše	-8.18269
šel	-8.18487
▁dá	-8.19269
▁vzal	-8.19559
▁vší	-8.19997
pustil	-8.20088
▁vámi	-8.20249
▁Panovník	-8.2035
▁Izrael	-8.21357
▁Jestliže	-8.21372
▁kněz	-8.21544
▁naše	-8.21848
sil	-8.22454
▁synu	-8.22681
▁řeč	-8.22843
ovu	-8.22954
ď	-8.23016
▁Řekl	-8.23092
▁zlé	-8.23243
kou	-8.23302
▁život	-8.23693
liž	-8.23737
▁dobré	-8.2384
av	-8.24201
ným	-8.2431
▁ženy	-8.2435
▁Hospodinem	-8.24536
▁pokoj	-8.2462
▁milosrdenství	-8.24781
▁Odpověděl	-8.24788
vati	-8.24832
▁Ch	-8.25362
▁koli	-8.25402
▁bych	-8.25463
vali	-8.25846
▁buď	-8.26294
▁těm	-8.26316
ství	-8.26752
▁město	-8.26797
▁J	-8.26907
▁umřel	-8.26982
uj	-8.27047
▁míti	-8.27123
▁nevy	-8.27134
▁Hospodinovo	-8.27359
▁mluví	-8.28453
íce	-8.28509
▁dnů	-8.28712
▁š	-8.28857
▁moc	-8.28864
▁Aron	-8.28988
▁Jeruzaléma	-8.29038
▁knížata	-8.29148
▁sv	-8.29309
▁Kterýž	-8.2944
▁nej	-8.29764
ami	-8.29797
▁modl	-8.30213
▁Bože	-8.30328
▁Že	-8.30329
án	-8.30706
lož	-8.30845
▁úst	-8.31095
br	-8.31125
▁oči	-8.31391
tý	-8.31523
▁Což	-8.31537
▁každého	-8.31651
di	-8.31864
▁moře	-8.31973
prav	-8.32197
▁Šalomoun	-8.32252
▁dvě	-8.32314
▁On	-8.32541
▁Jeruzalémě	-8.32622
ot	-8.32654
▁rad	-8.32789
▁Pán	-8.32852
▁hlas	-8.32868
▁života	-8.32919
ovy	-8.33204
vý	-8.33389
▁anděl	-8.33613
▁svět	-8.33951
bu	-8.3396
▁měli	-8.3445
▁kdež	-8.34866
▁tvoji	-8.34911
▁všeho	-8.34922
▁my	-8.3493
▁měst	-8.35216
▁nežli	-8.35484
ty	-8.35879
hu	-8.3593
▁jestliže	-8.36639
▁mnoho	-8.37067
▁našeho	-8.37722
▁byly	-8.37801
▁nez	-8.37991
▁ž	-8.3809
▁času	-8.3811
it	-8.38205
▁hned	-8.38384
▁šest	-8.3841
▁této	-8.38662
▁kteréhož	-8.38825
▁přes	-8.39015
krze	-8.39576
edlé	-8.39696
▁žádný	-8.39716
▁hor	-8.39785
▁vašich	-8.39997
si	-8.40013
▁tělo	-8.40194
osti	-8.4048
)	-8.40491
trh	-8.40547
▁tváři	-8.41039
tež	-8.41047
▁Jozue	-8.41067
▁shromáždění	-8.41115
▁tvář	-8.41119
▁L	-8.41197
▁slov	-8.41226
▁hoře	-8.41366
ed	-8.41498
dy	-8.41504
▁Aby	-8.41514
▁moci	-8.41571
▁Izraele	-8.4171
▁nebylo	-8.42008
tu	-8.42181
▁nepravost	-8.4257
str	-8.42943
ají	-8.42957
▁silný	-8.42962
▁N	-8.4297
▁měsíce	-8.43163
ský	-8.43454
▁dnes	-8.43549
▁bys	-8.43802
ejte	-8.43843
▁Co	-8.44316
bil	-8.44451
▁přijde	-8.44502
▁všechněm	-8.4477
▁služebník	-8.44773
▁věcí	-8.45231
▁Pro	-8.4538
▁nebyl	-8.45527
ově	-8.45556
▁zplodil	-8.45843
▁Jeruzalém	-8.45973
▁veliký	-8.46095
▁svědectví	-8.46184
▁totiž	-8.46193
▁otec	-8.46667
bí	-8.46701
▁léta	-8.4671
eni	-8.46769
ků	-8.4682
dal	-8.47128
▁spolu	-8.47628
▁tvou	-8.47628
▁tvým	-8.47629
▁bývá	-8.47653
▁pa	-8.47675
▁set	-8.47724
jde	-8.47748
ujte	-8.478
▁Hospodinův	-8.47807
chází	-8.47897
▁Pane	-8.48115
▁jehož	-8.48202
▁Davidovi	-8.48511
ložil	-8.48757
▁mluviti	-8.49127
▁Izraelského	-8.49257
▁místě	-8.49621
▁věc	-8.49701
▁zlého	-8.49833
▁dcery	-8.50282
▁postavil	-8.50289
▁těla	-8.50689
cího	-8.50826
há	-8.51011
▁poušti	-8.51075
▁kníže	-8.51076
pa	-8.51505
▁rod	-8.51533
▁smrti	-8.51595
ského	-8.51889
▁poněvadž	-8.52083
▁služebníci	-8.52085
▁nepři	-8.52497
ským	-8.52507
▁Izraelským	-8.52523
▁hněv	-8.52569
▁jménu	-8.5259
▁Pročež	-8.52592
▁sebou	-8.52617
▁stál	-8.53041
▁Synové	-8.5319
▁Proč	-8.53252
▁národy	-8.53332
▁žena	-8.5337
▁Jozef	-8.5348
nil	-8.54108
▁nechť	-8.54144
▁počal	-8.54146
eno	-8.54674
▁pr	-8.54791
▁oheň	-8.55168
▁srdci	-8.55168
▁ustanovení	-8.55168
▁starší	-8.55168
▁Ježíše	-8.5573
▁Pána	-8.55737
vy	-8.56006
▁vod	-8.56039
▁Abraham	-8.56085
▁obětovati	-8.56367
▁kraloval	-8.57279
▁duši	-8.57279
lad	-8.57364
▁Zdali	-8.57509
▁přikázaní	-8.57813
▁otci	-8.57818
áš	-8.5787
by	-8.57903
▁stánku	-8.57922
▁otců	-8.58004
▁duch	-8.58364
pil	-8.58779
▁Pakli	-8.58892
▁lidem	-8.59153
▁padl	-8.59256
▁meč	-8.59322
▁učiněn	-8.59435
▁dám	-8.59514
),	-8.59746
▁Efraim	-8.60531
▁dokudž	-8.60581
áž	-8.60602
▁abychom	-8.60603
▁deset	-8.61084
▁jsa	-8.61086
▁díl	-8.61132
▁nichž	-8.61135
▁noci	-8.61426
▁opět	-8.61639
▁čtyři	-8.61719
íte	-8.62004
▁krev	-8.62198
▁hlasu	-8.62398
▁nev	-8.62717
▁Ti	-8.62775
▁zástup	-8.62929
▁přední	-8.63038
▁jazyk	-8.63324
kem	-8.63333
▁pán	-8.63411
▁dar	-8.63529
▁váš	-8.63572
▁Ja	-8.63677
▁jak	-8.6373
▁vidí	-8.63939
▁vyp	-8.64053
▁vyvedl	-8.64077
ovo	-8.64316
as	-8.64317
▁mým	-8.6455
▁Duch	-8.64749
▁vyšel	-8.64895
▁Beniamin	-8.65039
▁Farao	-8.65048
▁jedno	-8.65075
▁hory	-8.65367
bě	-8.65613
▁loket	-8.65617
▁moji	-8.65618
ovým	-8.65852
▁Syn	-8.6594
▁řkoucí	-8.66198
▁ješto	-8.66202
eš	-8.66324
▁Božího	-8.66329
▁spravedlnost	-8.66707
▁všeliké	-8.66769
▁brány	-8.66783
▁dobře	-8.66788
im	-8.66933
▁toliko	-8.66982
▁náš	-8.67015
▁národů	-8.67196
▁mohl	-8.67299
šli	-8.67542
▁němž	-8.67599
▁první	-8.67783
▁řekla	-8.67824
ložen	-8.6797
▁chodí	-8.67981
▁neod	-8.68089
▁noh	-8.68231
▁Eli	-8.68382
▁hlavu	-8.68406
▁pole	-8.68483
ním	-8.68506
▁straně	-8.68736
▁takto	-8.68872
▁městě	-8.68939
▁svaté	-8.68978
nější	-8.69046
▁pl	-8.69241
▁dny	-8.69288
▁druhé	-8.69468
▁Žid	-8.69567
uji	-8.69743
▁Petr	-8.69764
▁smlouvu	-8.69876
▁cesty	-8.69925
▁prorok	-8.69938
▁Toto	-8.69978
▁učiním	-8.70136
ele	-8.70291
▁oznámil	-8.70366
▁prosím	-8.70374
▁Sion	-8.70981
▁Egypta	-8.70995
ému	-8.71007
sy	-8.71052
stal	-8.7114
▁bratra	-8.71204
▁šli	-8.71391
fa	-8.72194
▁slunce	-8.72206
▁námi	-8.7231
▁ro	-8.72414
▁vydá	-8.7256
▁div	-8.72649
▁vydal	-8.72682
ďte	-8.72717
▁hod	-8.72741
▁dříví	-8.72827
▁kamení	-8.72867
tra	-8.72891
▁ústa	-8.72903
▁mají	-8.73048
▁jiné	-8.7321
▁tisíců	-8.73455
▁činiti	-8.73471
▁spravedlnosti	-8.73533
ád	-8.74054
▁hejtman	-8.74081
▁pokrm	-8.74084
▁milost	-8.74102
▁nemá	-8.74233
▁Izraelské	-8.74486
▁bratr	-8.74542
▁služebníka	-8.74618
▁odtud	-8.74718
▁druhého	-8.74905
▁spasení	-8.74958
aje	-8.75214
▁Bohem	-8.75351
▁údolí	-8.75351
▁stráž	-8.75351
nese	-8.75517
▁dává	-8.75889
▁přede	-8.75898
jdu	-8.76036
▁přivedl	-8.76162
▁potok	-8.76327
▁vzav	-8.76394
▁jména	-8.76637
▁Kdož	-8.76717
▁nalezl	-8.7729
.)	-8.77932
▁cestě	-8.78051
▁tato	-8.78256
▁nedo	-8.78267
▁vaši	-8.78602
▁oltář	-8.78768
▁dní	-8.78813
▁učiní	-8.7885
▁Byl	-8.78878
▁tuto	-8.7911
▁druhý	-8.7926
▁ovoce	-8.79263
▁Izraeli	-8.79478
ál	-8.7971
▁všemu	-8.79776
ji	-8.79789
▁oltáře	-8.79828
vodí	-8.7986
▁zem	-8.80109
▁zabil	-8.80532
▁prvé	-8.80614
▁mám	-8.81003
▁zákon	-8.81092
▁slyšel	-8.81106
▁Hospodinovy	-8.81158
▁roucho	-8.81274
táhl	-8.81413
▁místa	-8.8144
ován	-8.81509
ými	-8.81839
▁Amen	-8.82016
▁Ve	-8.82191
▁dnech	-8.82476
▁roucha	-8.82639
▁úmluvy	-8.82639
▁kterak	-8.82639
▁zlata	-8.82647
▁učinili	-8.83205
▁vstav	-8.83257
▁neo	-8.83311
▁Samuel	-8.8333
▁Joáb	-8.8333
▁rci	-8.83353
▁Do	-8.83389
žto	-8.83592
práv	-8.83679
zi	-8.8376
▁nepravosti	-8.83822
▁nohy	-8.83846
▁zápal	-8.83867
▁strany	-8.84359
zí	-8.84548
▁národové	-8.84795
▁Páně	-8.85185
ec	-8.85419
▁Ó	-8.85427
▁uzřel	-8.85427
▁cestou	-8.85528
▁nebeské	-8.85747
mysl	-8.85909
▁Me	-8.86087
▁jde	-8.86208
eb	-8.86297
▁řeči	-8.86336
▁ukázal	-8.8685
▁Galád	-8.8685
iž	-8.87005
▁Moáb	-8.87094
▁vojska	-8.87206
▁sami	-8.87509
▁chléb	-8.87569
▁hlad	-8.87657
▁cestu	-8.87822
▁uvedl	-8.87847
▁Ten	-8.87933
▁Hospodinovu	-8.88233
ující	-8.88378
niž	-8.89189
▁Davida	-8.89306
▁Ta	-8.89587
▁znamení	-8.89759
▁čtyřidceti	-8.89759
▁oblak	-8.89853
▁lež	-8.89902
▁bydlil	-8.89991
▁zá	-8.90025
▁stane	-8.90134
▁neza	-8.90253
▁udělal	-8.90335
▁spravedlivý	-8.90402
!	-8.905
▁Stalo	-8.90539
▁obrátil	-8.90558
▁byste	-8.90579
▁nemoc	-8.90607
▁mečem	-8.9071
cházel	-8.90765
▁tváří	-8.91021
▁všem	-8.91074
▁Ezechiáš	-8.91246
▁Jo	-8.91257
cím	-8.91334
▁umře	-8.91531
▁hlav	-8.91769
▁vaší	-8.92049
▁Jan	-8.92139
▁způsob	-8.92245
▁všel	-8.9245
šla	-8.92482
▁služebníky	-8.92714
▁Izák	-8.92757
▁stojí	-8.9295
▁Kristus	-8.93042
▁boj	-8.93382
▁El	-8.93694
▁sloup	-8.93725
▁obyvatel	-8.93748
▁navrátil	-8.93804
▁noc	-8.94129
hub	-8.94174
▁stě	-8.94267
▁navrátí	-8.94288
▁moři	-8.94291
▁rozum	-8.94303
rob	-8.94678
nesl	-8.95006
▁odšel	-8.95073
▁Neboť	-8.95351
▁prchlivost	-8.95374
▁neměl	-8.95929
▁těmi	-8.96171
ěj	-8.96311
▁n	-8.96326
nebo	-8.96434
▁Kteříž	-8.96519
mluv	-8.96589
▁očí	-8.96729
▁Pánu	-8.96916
▁ačkoli	-8.96935
▁dílo	-8.96991
▁něhož	-8.97139
vu	-8.97257
▁knížat	-8.97303
▁naproti	-8.97426
▁spravedliv	-8.97452
▁Ha	-8.97698
▁slyš	-8.98163
▁Krista	-8.98226
▁někteří	-8.98226
▁pomezí	-8.98227
▁chtěl	-8.98227
třel	-8.98272
▁nep	-8.98323
pálil	-8.98386
▁chleba	-8.98709
▁Proto	-8.98712
▁Roz	-8.98766
▁blázn	-8.99032
▁kněze	-8.99214
▁jsouce	-8.99225
▁lidé	-8.99304
▁vším	-8.99444
▁bratřím	-8.99506
▁ni	-8.99812
▁dveří	-8.99845
▁mnohé	-8.99845
▁věčné	-8.99848
▁símě	-8.99857
▁velikým	-8.99999
vedl	-9.0011
▁tyto	-9.00168
▁budeme	-9.00182
▁boji	-9.0036
▁níž	-9.00441
▁svatyně	-9.00665
▁ráno	-9.00665
▁zůstal	-9.00667
▁Izraelskému	-9.00808
▁lev	-9.00915
romě	-9.0099
▁Ducha	-9.01087
▁ohněm	-9.01287
šedše	-9.01292
▁jedna	-9.01305
▁zemí	-9.01365
▁porodila	-9.01491
▁posvěcen	-9.01491
▁Egypt	-9.01619
krát	-9.01821
▁moudrost	-9.01906
▁rozp	-9.02147
▁krve	-9.02334
▁Ach	-9.02621
▁postav	-9.02626
padl	-9.02964
▁rozkázal	-9.03165
▁třidceti	-9.03165
▁dokonal	-9.03165
▁Otce	-9.03168
▁nádob	-9.03474
▁radost	-9.03497
▁mému	-9.03676
▁seděl	-9.037
▁činili	-9.03742
▁všemi	-9.03746
▁králem	-9.03966
▁Zákon	-9.03991
jíti	-9.04082
▁uslyšel	-9.04146
▁Hle	-9.04475
ával	-9.0466
▁nena	-9.04753
▁kam	-9.04772
rot	-9.04809
▁dědičně	-9.04867
▁kterýchž	-9.0487
▁mrtvých	-9.05016
▁Jak	-9.05107
▁prostředku	-9.05166
▁Synů	-9.0564
▁obětoval	-9.05683
▁učedlníci	-9.05729
▁všecku	-9.05729
▁mnozí	-9.05729
▁půjde	-9.0573
▁Juda	-9.05731
▁utekl	-9.05733
▁kterémž	-9.05747
▁Abi	-9.05878
▁oko	-9.06252
▁žádné	-9.06419
▁oltáři	-9.06503
ající	-9.06556
▁strach	-9.06604
▁nebudeš	-9.06695
▁Božím	-9.06898
▁Mo	-9.07152
jdou	-9.07165
▁vedl	-9.07475
▁Poněvadž	-9.07476
▁matky	-9.07476
▁bydliti	-9.07477
▁píti	-9.07485
hne	-9.07585
▁měsíc	-9.07852
nes	-9.08076
▁Té	-9.08137
▁lidí	-9.08196
▁obrátí	-9.08361
▁dnové	-9.08362
▁poklad	-9.08364
dej	-9.08488
stane	-9.08537
▁tvému	-9.0891
ém	-9.08942
▁ná	-9.09144
▁cel	-9.09213
stoupí	-9.09254
▁uzří	-9.09261
▁zlato	-9.09274
▁otcové	-9.09279
▁Bet	-9.09308
▁pomst	-9.0933
▁psáno	-9.09394
▁osm	-9.09742
▁soudu	-9.0986
▁poli	-9.099
▁hrozn	-9.10155
▁naplnil	-9.10155
▁ustanovil	-9.10161
▁Nechť	-9.10168
▁čeled	-9.10187
▁jíti	-9.10262
▁letech	-9.10316
▁nepřátel	-9.10345
▁ducha	-9.10709
▁mluvili	-9.10752
jme	-9.10796
▁Ammon	-9.11069
▁dobrý	-9.11125
▁Jdi	-9.11129
▁smlouvy	-9.11202
▁nebi	-9.1134
▁slyší	-9.11356
▁Vz	-9.11387
uješ	-9.11422
▁Te	-9.11505
▁Izraelem	-9.11506
▁Synu	-9.11961
▁Absolon	-9.11981
▁počtu	-9.11983
▁Otec	-9.11983
▁čeledech	-9.12036
vé	-9.1213
▁stran	-9.12266
▁dvanácte	-9.1229
▁pomoc	-9.12341
▁svatých	-9.12354
▁tomto	-9.12407
bychom	-9.1243
▁příčin	-9.12491
▁všelik	-9.12546
▁viděli	-9.12731
▁bo	-9.12879
▁dvadceti	-9.12907
▁velikou	-9.12908
▁bydlí	-9.12954
íme	-9.13046
ros	-9.1313
▁zachová	-9.13169
▁služebníků	-9.13362
▁Judský	-9.13426
▁Kristu	-9.1349
▁Dí	-9.13603
ále	-9.13832
▁loupež	-9.13842
▁světa	-9.13879
▁dítě	-9.14191
▁jedl	-9.14392
▁mluv	-9.14438
▁bydlili	-9.14492
▁Ba	-9.14493
▁nešlechetnost	-9.14541
▁pravé	-9.14612
▁ano	-9.14712
▁ruka	-9.14716
▁Král	-9.14791
▁nazval	-9.14845
vají	-9.14866
▁prach	-9.15217
šk	-9.15432
▁chodil	-9.1544
▁skr	-9.15589
▁skutky	-9.15738
▁stříbra	-9.15738
▁pročež	-9.15743
▁dcera	-9.15749
▁hovad	-9.15836
▁městech	-9.15858
▁světlo	-9.15978
▁tisíce	-9.16049
▁čist	-9.1612
▁jím	-9.16194
▁zjev	-9.16312
▁ona	-9.16642
▁Levítů	-9.16699
▁Nyní	-9.16701
▁horu	-9.16864
▁dvou	-9.16972
▁Aronovi	-9.17018
▁vyvolil	-9.17104
▁pána	-9.1723
pad	-9.17287
ujíce	-9.17373
▁větší	-9.1767
▁Pavel	-9.1767
▁strom	-9.1767
▁vidění	-9.1767
▁může	-9.17671
▁meče	-9.17704
▁manželku	-9.17725
▁cizí	-9.17782
▁Judského	-9.17788
▁jedn	-9.17862
jdi	-9.17873
▁proroka	-9.18103
▁uděl	-9.18237
▁jiných	-9.18242
▁pokoje	-9.18517
▁každé	-9.18566
▁žádost	-9.18603
▁lodí	-9.18656
▁národ	-9.18699
▁uši	-9.1877
▁oblíčeje	-9.19235
▁Jeremiáš	-9.19507
▁skutků	-9.19641
▁nebudou	-9.19641
▁pastýř	-9.19641
▁sláva	-9.19643
nobrž	-9.19648
▁hrob	-9.20154
▁ok	-9.20167
▁královské	-9.20459
▁podobenství	-9.20641
▁poušť	-9.20641
▁bolest	-9.20643
▁ovce	-9.20657
▁těle	-9.20778
psal	-9.20787
byl	-9.20869
▁hlavy	-9.21231
▁tvém	-9.21485
▁dobyt	-9.21546
kové	-9.21549
▁člověčí	-9.21651
▁Ezau	-9.21651
▁říká	-9.21652
▁příbytku	-9.21707
▁Eliáš	-9.21745
▁obětí	-9.21765
▁které	-9.21895
chod	-9.22081
▁Judských	-9.22102
▁dobrého	-9.22134
▁Hospodinově	-9.22386
▁žen	-9.22595
ivše	-9.22623
▁evangelium	-9.22671
▁končin	-9.22671
▁truhlu	-9.22671
▁umění	-9.22671
▁přijal	-9.22696
měř	-9.22705
▁pozdvih	-9.22765
▁čehož	-9.22798
▁východu	-9.22857
▁zákona	-9.22963
▁Izraelovi	-9.23035
▁bojoval	-9.23155
▁svatý	-9.23158
▁volal	-9.23281
▁roh	-9.23611
▁odplat	-9.23704
kládá	-9.23707
▁vezme	-9.23708
ostí	-9.23786
▁los	-9.23822
▁vojsko	-9.24002
▁vytáhl	-9.24103
nouti	-9.24188
níci	-9.24308
▁třetí	-9.24562
▁rt	-9.24718
cházeti	-9.24744
▁vysvoboz	-9.24744
▁vždycky	-9.24744
▁slávu	-9.24744
▁houf	-9.24749
▁shromáždil	-9.24915
▁hojn	-9.25066
▁jedli	-9.25115
▁neob	-9.2518
▁modlil	-9.25186
▁národu	-9.25349
▁nejvyšší	-9.25614
▁pozůstal	-9.25796
▁zabit	-9.25864
ček	-9.25864
▁Jezukrista	-9.25866
▁Ob	-9.25887
▁vína	-9.25908
▁jedné	-9.26009
▁stř	-9.26046
▁Kterýžto	-9.26096
▁Židé	-9.26134
▁an	-9.26457
▁vrch	-9.2656
▁vašeho	-9.26574
▁Levítové	-9.2686
▁spatř	-9.26861
▁něco	-9.26862
▁hněvu	-9.2698
▁požehnání	-9.27041
▁vstal	-9.27082
▁Davidův	-9.27323
▁nádoby	-9.27425
▁vrchu	-9.27434
▁vzali	-9.27444
▁proč	-9.27453
itský	-9.27728
▁Cha	-9.27798
▁opatr	-9.27935
▁nečistý	-9.27935
▁některé	-9.27935
▁předměstí	-9.27935
▁stolici	-9.27936
▁nalezen	-9.27937
▁knize	-9.2794
rátil	-9.27976
▁bral	-9.28049
▁ustavičně	-9.28065
věřil	-9.28189
čili	-9.28217
▁dcer	-9.2826
▁takové	-9.28338
▁čeledi	-9.28348
▁našich	-9.2835
▁vyšli	-9.28453
▁Mojžíše	-9.28596
dati	-9.28643
▁neví	-9.28662
▁prosil	-9.28666
▁dni	-9.28738
▁Jakož	-9.28752
▁čtyř	-9.28866
▁vnitř	-9.28977
ajíce	-9.29015
[	-9.29022
▁bohy	-9.29024
▁maje	-9.29142
▁nebesa	-9.29191
▁večer	-9.29246
▁čem	-9.29472
▁dali	-9.29549
▁příčiny	-9.2955
▁Syna	-9.29578
▁uzdrav	-9.29593
▁králů	-9.29654
▁Jako	-9.29667
▁znám	-9.29697
věř	-9.29721
▁pís	-9.29723
ber	-9.29854
▁slou	-9.29912
▁těchto	-9.29924
dali	-9.30077
▁Ruben	-9.30121
▁sloužiti	-9.30122
▁víry	-9.30148
▁ženu	-9.30232
▁okolo	-9.30249
jděte	-9.30262
nému	-9.30385
▁nepřátely	-9.30666
▁kraj	-9.30867
▁pověděl	-9.31027
▁máš	-9.3103
rostl	-9.31146
liť	-9.31187
▁Samaří	-9.31233
ýbrž	-9.3126
▁věcech	-9.31355
▁čině	-9.31371
▁služebníku	-9.31462
▁Ano	-9.31538
vrz	-9.31718
▁tito	-9.3198
▁potřeb	-9.31991
▁zlý	-9.32156
▁sedí	-9.32247
▁položili	-9.32299
▁naši	-9.32316
▁Gád	-9.32356
▁ostříhal	-9.32356
▁nemůže	-9.32563
▁mysli	-9.32575
▁přijdou	-9.32633
ývá	-9.32715
▁chrámu	-9.32755
▁mém	-9.32879
ců	-9.32935
▁Babylon	-9.33199
▁Není	-9.33414
▁Jozafat	-9.33492
▁bráně	-9.33492
▁peníze	-9.33493
▁žalm	-9.33496
▁konce	-9.33499
▁hledají	-9.33504
▁boha	-9.33552
▁spravedlivého	-9.33605
▁někdo	-9.337
▁obraz	-9.33954
▁nebudete	-9.33956
▁hle	-9.341
▁připrav	-9.34115
▁povolal	-9.34135
▁bojí	-9.34472
▁rychle	-9.3461
▁Ga	-9.34641
▁Opět	-9.34642
▁Všickni	-9.34642
▁Živ	-9.34642
▁navštív	-9.34642
▁nechtěl	-9.34642
▁krás	-9.34651
▁semene	-9.34661
▁Manasses	-9.34679
▁budeť	-9.3468
▁miluje	-9.34686
▁koho	-9.34735
▁králové	-9.34769
▁svatého	-9.34992
▁bál	-9.35088
▁prchlivosti	-9.3534
▁mnohý	-9.35387
stavěl	-9.35688
▁cherubín	-9.35804
▁apoštol	-9.35805
▁jménem	-9.35805
▁prut	-9.35852
▁Aniž	-9.35853
▁lotů	-9.35975
▁porazil	-9.36007
▁nesl	-9.36052
▁vzdělá	-9.36085
▁ohně	-9.36102
▁přišla	-9.36145
▁Jordán	-9.36202
▁padesáte	-9.36257
nul	-9.36458
,)	-9.36645
▁nemohl	-9.36911
▁Nabuchodonozor	-9.36981
▁půlnoci	-9.36981
▁Zákona	-9.37012
▁ssoužení	-9.37078
▁ohavnost	-9.37119
▁řek	-9.3727
▁marnost	-9.37275
▁nešlechetn	-9.37287
čil	-9.37689
▁obyvatele	-9.3777
▁lidi	-9.37941
▁Kananejské	-9.38171
▁zhřešil	-9.38171
▁Však	-9.38172
▁Nadto	-9.38234
▁přichází	-9.38706
▁smrt	-9.38813
▁vstoupil	-9.38836
▁koz	-9.39189
▁naplněn	-9.39376
▁trápení	-9.39376
▁plakal	-9.39377
▁Daniel	-9.39385
▁Nýbrž	-9.394
▁slyšeli	-9.39413
▁víno	-9.39444
▁list	-9.39449
▁prve	-9.39458
▁východní	-9.39562
▁živi	-9.39615
▁ven	-9.39729
▁přinesl	-9.39756
▁knězi	-9.39804
▁Jákobovi	-9.39844
▁řeky	-9.39844
▁sedmého	-9.39846
▁Judo	-9.39847
▁hříchy	-9.39893
▁vodou	-9.39935
▁pohr	-9.40035
▁les	-9.40045
▁buďte	-9.40118
▁otcům	-9.40163
▁jiní	-9.40264
áni	-9.4055
▁Filistinští	-9.40596
▁Kristov	-9.40596
▁kralovati	-9.40596
▁náramně	-9.40596
▁stříbro	-9.40596
▁červ	-9.40597
▁ramen	-9.406
▁býval	-9.40606
▁síň	-9.40616
▁polní	-9.40663
▁Takž	-9.40771
▁třetího	-9.40809
▁veselí	-9.40875
▁nepro	-9.41106
▁nov	-9.41139
▁Všeck	-9.41321
▁obětovali	-9.41416
▁pokoji	-9.41567
▁jen	-9.41697
▁odpovídaje	-9.4183
▁odpočinutí	-9.4183
▁přestoupení	-9.4183
▁půlnoční	-9.4183
▁svobod	-9.4183
▁učiniti	-9.4183
▁Bude	-9.41834
▁naději	-9.41835
▁krví	-9.41854
▁počet	-9.41854
▁čím	-9.41894
▁děv	-9.41921
rov	-9.41949
▁přítel	-9.42027
▁prvního	-9.42211
▁dával	-9.4222
▁věz	-9.42225
▁Sal	-9.42347
▁Jeroboám	-9.42395
▁zahanben	-9.42621
▁prac	-9.42706
▁kol	-9.42887
dají	-9.43056
▁ostříhati	-9.4308
▁poslední	-9.4308
▁tehdáž	-9.4308
▁nevěst	-9.43081
▁kámen	-9.43086
▁rozs	-9.43112
▁potěš	-9.43112
▁služebníkům	-9.43153
▁pil	-9.43192
▁milosti	-9.43399
▁stín	-9.4341
▁mnohých	-9.43532
skou	-9.43675
▁moudrosti	-9.43713
▁Také	-9.43818
▁Jed	-9.43981
▁ran	-9.44017
▁Su	-9.44097
▁hovada	-9.44236
▁člověku	-9.4428
▁bližního	-9.44346
▁vyhlazen	-9.44346
▁pustin	-9.44347
▁Běda	-9.44347
▁pravdě	-9.44348
▁vykoná	-9.44349
▁snad	-9.44388
▁hrd	-9.44397
▁musí	-9.44465
▁Mluvil	-9.44476
▁přijíti	-9.44672
kati	-9.44782
▁stáda	-9.44829
▁proroků	-9.44842
lon	-9.44849
▁dáno	-9.44878
▁tomuto	-9.44947
▁krajin	-9.45017
▁bohům	-9.45049
▁Jonata	-9.45138
▁Le	-9.45169
▁jiný	-9.45318
prost	-9.45382
▁obrácen	-9.45628
▁vítr	-9.4563
▁polední	-9.4563
▁zvuk	-9.45696
▁Dan	-9.46037
padne	-9.46183
rok	-9.46319
mon	-9.46802
▁Hebron	-9.46927
▁nenávidí	-9.46927
▁Šimon	-9.46927
▁moudrý	-9.46927
▁Noé	-9.4693
▁jistě	-9.46933
▁miloval	-9.46987
▁síně	-9.46997
▁zdi	-9.47059
▁nenávisti	-9.47201
▁mlad	-9.4731
▁slib	-9.47384
▁vdov	-9.47622
▁padesát	-9.47733
▁vesel	-9.47776
jav	-9.48221
1	-9.48243
▁hvězd	-9.48243
▁přísahou	-9.48243
▁přebývá	-9.48243
▁Faraonovi	-9.48243
▁chudý	-9.48244
▁doufá	-9.48244
▁odpověděv	-9.48247
▁cedr	-9.48249
▁výsost	-9.48338
▁vyuč	-9.48417
▁Aza	-9.48557
▁sloužili	-9.48875
▁hlasem	-9.48895
▁vyjde	-9.48969
volav	-9.492
▁přišed	-9.49206
▁Nebude	-9.49279
▁sprav	-9.49497
ejské	-9.49549
▁viděti	-9.49576
▁matka	-9.49576
▁slávy	-9.49577
pusť	-9.49598
▁podobné	-9.49621
▁položil	-9.49635
vržen	-9.49677
veď	-9.49711
▁sstoupil	-9.49749
▁Pře	-9.49799
▁zle	-9.49807
▁Dej	-9.49812
ější	-9.50018
▁čeledí	-9.50294
▁nebyli	-9.50407
pouštěj	-9.50538
▁pravili	-9.50667
▁cizím	-9.50774
▁Mluv	-9.50792
sadil	-9.50837
▁Eleazar	-9.50927
▁Jistě	-9.50927
▁obyčej	-9.50928
neš	-9.50928
▁Léví	-9.50928
▁suchou	-9.50928
▁učiň	-9.50928
▁nejsou	-9.5093
▁bedr	-9.50941
▁obě	-9.51009
▁horách	-9.51051
▁uvedu	-9.51166
▁kdyby	-9.51186
▁křič	-9.51215
▁zbit	-9.51328
▁pás	-9.5134
▁kmen	-9.51372
▁tého	-9.51399
▁zjeven	-9.51561
plní	-9.5159
▁jiného	-9.51817
▁troub	-9.5187
▁přistoupil	-9.51963
▁necha	-9.52053
▁tuk	-9.52106
ujete	-9.52217
▁ryb	-9.5229
▁ratolest	-9.52297
▁dlouho	-9.52297
▁ostříhá	-9.52297
▁královský	-9.52298
▁příchozí	-9.52298
▁korun	-9.52305
▁podstavk	-9.5237
▁stez	-9.52431
Psal	-9.52462
▁odděl	-9.52466
▁zápalné	-9.52501
ření	-9.52562
▁vycházel	-9.52787
pomenul	-9.53112
volal	-9.53183
▁pošli	-9.53527
▁Bál	-9.53673
▁dobrořeč	-9.53686
▁ptactv	-9.53686
▁zlaté	-9.53689
▁zlatý	-9.537
▁síly	-9.53709
▁palác	-9.53737
▁síla	-9.53791
▁nádobí	-9.53838
▁zdaliž	-9.53978
▁tří	-9.54165
▁By	-9.54446
▁Jest	-9.54529
▁olejem	-9.54716
▁Slyš	-9.54863
▁zas	-9.54949
▁Libán	-9.55095
▁přikázání	-9.55095
▁rána	-9.55095
▁máme	-9.55098
▁lži	-9.55121
▁vysvobodil	-9.55142
▁skryt	-9.5516
▁zápalnou	-9.55222
▁medle	-9.55223
▁bíd	-9.55369
▁Před	-9.55406
▁Filistinských	-9.55413
▁vystavěl	-9.55417
vejte	-9.55429
▁lot	-9.55461
▁přitáhl	-9.55544
dejte	-9.55777
▁velikého	-9.5588
▁hrobu	-9.55903
▁hledá	-9.56189
▁Aneb	-9.56194
▁Sélah	-9.56523
▁Tehdy	-9.56523
▁budiž	-9.56523
▁přisáhl	-9.56524
▁fík	-9.56527
▁věků	-9.56534
▁Jemuž	-9.56537
▁vlas	-9.56596
▁jaké	-9.56609
▁Vstaň	-9.5661
▁osob	-9.56729
▁všeliký	-9.56738
▁smiln	-9.56738
káže	-9.56794
▁zlost	-9.56808
▁vejde	-9.56833
▁svýma	-9.56886
▁chleb	-9.56897
▁prst	-9.56979
▁Jáť	-9.56989
▁Jordánu	-9.57223
▁osla	-9.5738
▁oleje	-9.57531
▁chce	-9.57789
▁Tito	-9.57895
▁mrtvé	-9.57972
▁Madian	-9.57973
▁uzřev	-9.57973
▁maso	-9.57974
▁kázal	-9.57974
házejí	-9.57979
▁meze	-9.57987
▁jdou	-9.58
stávají	-9.58009
▁rozkoš	-9.58011
▁pozná	-9.58038
▁nemohli	-9.58059
▁Sar	-9.58072
▁mlč	-9.58166
▁studnice	-9.58285
bývají	-9.58441
▁slavnost	-9.58604
▁Job	-9.58636
▁pravici	-9.58689
ejští	-9.58777
▁národům	-9.58788
▁kosti	-9.58871
▁Vid	-9.58923
▁zde	-9.58964
nesou	-9.59075
▁kde	-9.59138
▁šla	-9.59278
▁ohni	-9.59415
▁pamět	-9.59443
▁poledne	-9.59443
▁Ještě	-9.59444
▁choditi	-9.59444
▁věčný	-9.59444
▁teď	-9.59459
▁tolikéž	-9.59469
▁domích	-9.5947
▁komu	-9.59514
▁jdi	-9.59529
▁bran	-9.59532
stává	-9.59549
▁skopce	-9.59559
▁silného	-9.59587
▁přestal	-9.59666
▁mocí	-9.59748
▁Neboj	-9.59911
▁kněžím	-9.59988
▁každému	-9.60046
▁nemají	-9.6011
▁dej	-9.60157
náší	-9.60512
▁Babylona	-9.60586
▁zed	-9.60594
▁Judské	-9.60643
pal	-9.60733
kaž	-9.60746
▁Neb	-9.60918
▁pohostinu	-9.60936
▁vysvobodí	-9.60936
▁veliká	-9.60936
▁Bethel	-9.60945
▁vypravoval	-9.60946
▁vzdělal	-9.60966
▁ohavnosti	-9.6101
▁vida	-9.61076
▁svatým	-9.61124
rac	-9.61266
▁dělá	-9.61292
vážil	-9.61332
▁povol	-9.61431
▁pane	-9.61568
▁dceru	-9.61729
▁jednu	-9.61812
▁Davidova	-9.6187
moc	-9.62017
▁proroky	-9.62053
táhne	-9.62193
▁postaví	-9.62435
▁Abimelech	-9.62451
▁otevřel	-9.62451
▁vespolek	-9.62451
▁úzkost	-9.62451
▁pohanů	-9.62451
▁samého	-9.62451
▁zůstane	-9.62454
▁kterýmž	-9.62458
▁Joas	-9.62517
▁Mar	-9.62547
▁kdy	-9.62633
▁vodu	-9.62639
▁pilně	-9.62641
▁vešli	-9.62747
▁posly	-9.62765
▁Muž	-9.62791
▁vašim	-9.63072
▁stáli	-9.63157
▁Ježíši	-9.63184
ívají	-9.63336
vodil	-9.63342
▁věděl	-9.63352
▁Dá	-9.63455
▁dřev	-9.63499
▁slove	-9.63632
▁hříchu	-9.63703
▁manžel	-9.63749
▁Filistinské	-9.63989
▁myšlení	-9.63989
▁pánu	-9.64002
▁potup	-9.64006
▁Š	-9.64012
bořil	-9.64095
▁jitra	-9.64195
▁rozkaz	-9.64313
▁nepřátelé	-9.6432
▁volka	-9.6434
▁vinn	-9.64557
▁všelikého	-9.64605
▁máte	-9.64641
ejský	-9.64728
▁dáti	-9.64775
▁vyvol	-9.64854
▁známost	-9.65197
▁pravil	-9.65243
▁bratru	-9.6539
▁příbyt	-9.65421
div	-9.65542
▁Balám	-9.65554
▁škol	-9.65584
▁nikoli	-9.65651
▁připravil	-9.65721
▁domem	-9.65754
vez	-9.66109
▁umí	-9.66178
▁učedlník	-9.66882
nutí	-9.669
▁Sedechiáš	-9.67139
▁shromáždí	-9.67139
▁zboží	-9.67139
▁Sichem	-9.67139
▁vyvýšen	-9.67139
▁Abner	-9.6714
▁odvrátil	-9.67141
▁zajetí	-9.67143
▁dnešní	-9.67146
▁cestách	-9.67178
▁plod	-9.67394
▁místu	-9.67396
▁souditi	-9.67472
▁hříchů	-9.67486
▁poznal	-9.67491
▁správc	-9.67539
▁chodili	-9.67643
▁Saule	-9.67673
▁Saulovi	-9.67786
▁bohů	-9.67863
▁Babylonský	-9.67897
▁chrám	-9.67905
ázán	-9.68026
▁mající	-9.68053
▁Moábské	-9.68203
▁pozdvihl	-9.6826
▁poznali	-9.68397
▁večera	-9.68427
▁Kdež	-9.68597
▁jaký	-9.68625
▁cest	-9.6875
▁požehnal	-9.68752
▁svatyni	-9.68752
▁jednostejn	-9.68752
▁vývod	-9.68752
▁raději	-9.68753
▁učení	-9.68764
▁Lid	-9.68779
▁odešli	-9.68877
▁mohli	-9.68954
▁nepře	-9.68992
▁Tento	-9.69007
▁královského	-9.69046
bro	-9.69208
▁jejím	-9.69398
▁Hospodinovýma	-9.69451
▁nové	-9.69581
staň	-9.69632
▁bývají	-9.69878
hledá	-9.70245
▁cizolož	-9.70391
▁loktů	-9.70391
▁pohanění	-9.70391
▁otázal	-9.70391
▁kopí	-9.70395
▁naděje	-9.70402
▁přišlo	-9.70402
▁Již	-9.70472
ejší	-9.70495
▁bezbožných	-9.70735
▁Slyšte	-9.70757
▁kterýžto	-9.70838
▁nezná	-9.70866
▁trouby	-9.70931
▁viz	-9.71195
▁celý	-9.71258
▁olej	-9.71369
▁vinic	-9.71556
▁říkají	-9.7187
▁díla	-9.72056
▁počátku	-9.72058
▁Jéhu	-9.72058
▁oznam	-9.72058
▁Abram	-9.72059
▁Jděte	-9.72062
▁Izaiáš	-9.72083
▁Bázan	-9.72112
▁vůle	-9.72136
▁měla	-9.72305
▁Tato	-9.72325
▁pobil	-9.72332
▁všelijak	-9.72585
▁dílem	-9.72716
▁Jakž	-9.72764
▁sobot	-9.72908
▁jichž	-9.72979
▁had	-9.72999
▁jiným	-9.73078
▁zub	-9.73217
▁Izraelskými	-9.73513
▁bohatství	-9.73753
▁svatosti	-9.73753
▁zapsán	-9.73753
▁zlatem	-9.73754
▁klaněl	-9.7376
▁vždy	-9.7377
▁jediné	-9.73781
▁Prav	-9.7381
pravil	-9.73906
▁oděv	-9.73947
▁křik	-9.74045
▁chrámě	-9.74047
▁pokojné	-9.74295
▁mor	-9.74297
▁vinice	-9.74316
▁dvanácti	-9.74403
▁pec	-9.74442
stoupili	-9.74633
▁dělal	-9.74736
▁Toho	-9.74756
▁volů	-9.74938
▁Oni	-9.74969
▁sečten	-9.75119
▁My	-9.75166
▁našim	-9.75253
mordoval	-9.75374
▁nečistot	-9.75477
▁osvědč	-9.75477
▁oznámí	-9.75477
▁službu	-9.75477
▁peněz	-9.75477
▁roční	-9.75478
▁Syrské	-9.75478
▁zůstává	-9.75479
▁šetř	-9.75479
▁velice	-9.75488
▁odkud	-9.75496
▁děti	-9.75503
▁Babylonského	-9.75508
▁pojal	-9.75511
▁dvakrát	-9.75555
▁vojsk	-9.75648
▁Nez	-9.75694
▁Jeruzalému	-9.758
věděl	-9.75818
▁krajině	-9.75853
▁Šalomounovi	-9.76035
▁Tam	-9.76433
▁zdali	-9.76501
▁Má	-9.76725
▁úrod	-9.76781
▁poškvrnil	-9.76822
▁dary	-9.76863
▁vyslyš	-9.77141
▁bezbožné	-9.77231
▁blízko	-9.77231
▁velbloud	-9.77231
▁rozhněval	-9.77231
▁slávě	-9.77231
▁nejprv	-9.77232
▁neviděl	-9.77232
▁nasycen	-9.77232
▁konec	-9.77232
▁Syrský	-9.77232
▁pohany	-9.77233
▁vlastní	-9.77233
▁pověst	-9.77233
▁béře	-9.77234
▁suché	-9.77234
▁Viděl	-9.77257
▁obyvatelů	-9.77298
▁přivedu	-9.77446
měl	-9.77453
▁dvěma	-9.77545
▁sedmdesáte	-9.77574
stupuje	-9.77772
▁dílu	-9.7789
▁čistý	-9.78172
▁hledali	-9.78299
niti	-9.78339
▁bezbožní	-9.7839
▁každ	-9.78493
vedu	-9.78591
▁zvěř	-9.78592
dělal	-9.78639
převrácen	-9.79011
▁Kterak	-9.79017
▁beránka	-9.79017
▁lučiště	-9.79017
▁maličko	-9.79017
▁obličejem	-9.79017
▁širokost	-9.79017
▁Izmael	-9.79017
▁dělati	-9.79017
▁základ	-9.79017
▁kořist	-9.79018
▁vozy	-9.79019
▁věrný	-9.7902
▁poklon	-9.79023
▁obrace	-9.79034
▁kořen	-9.79066
▁dvéře	-9.79085
▁odpor	-9.79098
▁skryl	-9.791
▁Kteréž	-9.79169
▁poškvrny	-9.79271
▁prorokuj	-9.79292
▁mouky	-9.79398
▁Abrahamovi	-9.79472
▁nechať	-9.79536
krá	-9.79599
▁Egyptě	-9.79607
▁propustil	-9.7988
▁složil	-9.79979
▁hojnost	-9.80006
níků	-9.80361
ováni	-9.80538
dává	-9.80556
▁Jeruzalémské	-9.80598
▁čtvrt	-9.80757
▁desát	-9.8076
▁Sádoch	-9.80835
▁odpuštěn	-9.80835
▁zevnitř	-9.80835
▁Pilát	-9.80835
▁pravdu	-9.80835
▁Joziáš	-9.80836
▁drží	-9.80836
▁stanů	-9.80844
▁pokání	-9.80844
běhl	-9.80917
▁jejího	-9.80982
címu	-9.80987
▁uměl	-9.81177
▁domů	-9.8119
▁křt	-9.81332
▁našemu	-9.81397
▁nepřítel	-9.81469
▁Všecko	-9.81592
ska	-9.81674
▁nadělal	-9.81797
▁hotov	-9.8182
▁Dal	-9.81844
▁slavn	-9.81951
▁nedal	-9.81968
▁navrátili	-9.82001
▁rovn	-9.82162
▁Filistinský	-9.82269
řednímu	-9.82441
▁hnu	-9.82508
▁výsosti	-9.82553
▁Lában	-9.82687
▁Zachariáš	-9.82687
▁lepší	-9.82687
▁Gabaa	-9.82688
▁pravdy	-9.82688
▁zahrad	-9.82689
▁Nikoli	-9.82689
▁očekáva	-9.82694
▁hůl	-9.82695
kládal	-9.82699
▁hledati	-9.82703
▁jámy	-9.82793
▁pas	-9.82979
▁uvede	-9.83128
▁přicházel	-9.83232
měřil	-9.83239
▁soudy	-9.83289
▁městu	-9.83291
▁En	-9.83337
▁Achab	-9.83376
▁kamž	-9.83468
▁přivede	-9.83633
▁spal	-9.83922
▁Muži	-9.84232
▁málo	-9.84422
tví	-9.84427
▁Neftalím	-9.84574
▁uslyší	-9.84574
▁desíti	-9.84574
▁zázrak	-9.84574
▁Vezmi	-9.84575
▁práci	-9.84575
▁práce	-9.84576
▁Betlém	-9.84582
▁bílé	-9.84588
▁očistí	-9.8459
▁provaz	-9.84592
▁Udělal	-9.84617
▁připoj	-9.84636
▁dobytek	-9.84656
rozuměl	-9.84664
▁anděla	-9.84705
▁slyšeti	-9.84751
pověděl	-9.84755
▁vyšed	-9.84884
▁druhému	-9.84923
▁ležel	-9.84942
▁Nebudeš	-9.84997
▁jednom	-9.85021
▁krajiny	-9.8524
▁majíce	-9.85274
▁Ru	-9.85927
▁pln	-9.86258
▁Žád	-9.86437
▁Roboám	-9.86497
▁Simeon	-9.86497
▁ostříhej	-9.86497
▁posvětil	-9.86497
▁shromažď	-9.86497
▁vidouce	-9.86497
▁zaslíbil	-9.86497
▁šarlat	-9.86497
▁žaláře	-9.86497
▁mořské	-9.86497
▁udatný	-9.86498
▁zhoub	-9.86502
▁povstal	-9.86503
▁Požehnaný	-9.86528
▁manželky	-9.8659
▁manželka	-9.86596
▁rozumnost	-9.86609
▁víře	-9.86637
▁cesta	-9.86637
▁Aman	-9.86984
▁bezbožník	-9.87177
▁oblíčej	-9.87293
▁učedlníkům	-9.87337
vajíce	-9.8764
▁pravo	-9.87648
▁spasen	-9.877
▁všelijaké	-9.8784
▁Sta	-9.88175
don	-9.88276
▁zdrž	-9.88443
▁Mistře	-9.88458
▁Zabulon	-9.88458
▁déšť	-9.88458
▁hromad	-9.88458
▁službě	-9.88458
▁stánek	-9.88458
▁Amalech	-9.88458
▁všudy	-9.88458
▁pomazal	-9.88458
▁Ester	-9.88458
▁vezmi	-9.88465
▁děje	-9.88467
▁slouží	-9.88496
▁výše	-9.88501
pustiv	-9.88504
pustím	-9.88523
▁vůli	-9.88627
▁kudy	-9.88678
▁říkajíce	-9.88681
▁vytrhl	-9.88723
▁lsti	-9.88739
▁potře	-9.88743
▁takový	-9.88877
berou	-9.88946
slyšel	-9.89
▁silné	-9.89077
▁posadil	-9.89185
▁pouště	-9.89313
lehl	-9.8933
▁sít	-9.89355
▁jednomu	-9.89435
▁každém	-9.89694
▁nepřítele	-9.89764
tisk	-9.90034
▁bezbožný	-9.90039
▁Ježíšovi	-9.90051
▁odpoví	-9.90133
▁Pís	-9.90134
▁vytrhn	-9.9017
hel	-9.90247
ustanov	-9.90446
▁rovin	-9.90449
3	-9.90458
▁Assyrský	-9.90458
▁Pozdrav	-9.90458
▁vysoké	-9.90458
▁zpuštěn	-9.90458
▁čiňte	-9.90458
▁bližním	-9.90458
▁proroci	-9.90458
▁nikdy	-9.90458
▁západu	-9.90458
▁Léta	-9.90458
▁rytin	-9.90459
▁duší	-9.90462
▁jmen	-9.90462
▁vozů	-9.90462
▁podobný	-9.90462
▁příbytek	-9.90514
▁hrad	-9.90533
chlub	-9.90535
▁učil	-9.90627
▁med	-9.90681
▁stany	-9.90693
▁Jeremiášovi	-9.90728
pokoj	-9.90792
▁Hor	-9.90805
▁křídla	-9.91041
▁soudil	-9.91121
▁smrtí	-9.91272
▁rok	-9.91294
▁věří	-9.91298
▁zlořeč	-9.91491
▁dvo	-9.91953
▁Sem	-9.92121
▁Nepo	-9.92194
stoupiv	-9.92281
▁Budiž	-9.92499
▁Jezreel	-9.92499
▁přikazuji	-9.92499
▁vstříc	-9.92499
▁zaslíbení	-9.92499
▁zdaleka	-9.92499
rmoutil	-9.92499
▁Sodom	-9.92499
▁Azariáš	-9.92499
▁svrchu	-9.92499
▁Sidon	-9.925
▁nejsem	-9.92502
▁pochovali	-9.92513
▁zpěv	-9.92516
▁zkažen	-9.92529
▁místech	-9.9253
▁rady	-9.9265
volati	-9.92674
▁ostatek	-9.92729
buď	-9.92745
▁prorokoval	-9.92745
▁Hospodinovým	-9.92862
▁milují	-9.92917
▁řekne	-9.93239
▁slyše	-9.93344
Nebo	-9.9356
▁uložil	-9.93829
▁který	-9.942
▁nedá	-9.94369
▁Judstvu	-9.94582
▁poslouchati	-9.94582
▁utíkal	-9.94583
▁otcovských	-9.94591
▁státi	-9.94595
▁nevin	-9.94749
▁měj	-9.94791
▁očištění	-9.94844
▁Kteřížto	-9.94884
▁rozděl	-9.9497
▁jednou	-9.9506
čkoli	-9.95103
krývá	-9.95346
▁duchem	-9.95387
▁trní	-9.95642
sedl	-9.96084
▁hledal	-9.96229
▁čtrnáct	-9.96709
▁Kahat	-9.9671
▁Každý	-9.9671
▁pohlaví	-9.9671
▁Judští	-9.9671
▁Všelik	-9.9671
▁pavéz	-9.9671
▁nebudu	-9.96711
▁příjemn	-9.96712
▁Prosím	-9.96712
▁dítky	-9.96713
▁vezma	-9.96715
▁Buď	-9.96744
▁mladosti	-9.96747
▁víru	-9.96791
▁vězení	-9.96794
▁farizeové	-9.96806
▁Dar	-9.96833
▁vojskem	-9.96962
▁soudů	-9.97079
▁Sam	-9.97134
▁trůnu	-9.97212
▁Jozefovi	-9.97269
▁živého	-9.97428
statek	-9.97442
▁Jonat	-9.97546
▁zmordoval	-9.97709
třech	-9.97934
▁milostiv	-9.98299
▁dána	-9.98344
▁Nej	-9.98497
▁dáš	-9.98749
▁služeb	-9.98866
2	-9.98883
▁Asser	-9.98884
▁Gi	-9.98884
▁dobrovoln	-9.98884
▁knihy	-9.98884
▁zavrhl	-9.98884
▁navrať	-9.98884
▁nazván	-9.98891
▁Judovi	-9.98892
▁ostrov	-9.9891
▁pochován	-9.98912
▁čistého	-9.99067
▁přistoupiv	-9.99116
▁domy	-9.99259
▁Azaf	-9.99264
▁polovice	-9.99378
držeti	-9.9945
▁zavolal	-9.99488
▁sobotu	-9.99627
▁vzat	-9.99741
▁Char	-9.99968
▁boje	-9.99997
vésti	-10.0009
▁způsobil	-10.0017
▁zabije	-10.0045
▁učedlníků	-10.005
▁marn	-10.006
vracuj	-10.0107
▁šťastně	-10.0108
▁úd	-10.0111
▁Filip	-10.0111
▁přisluhování	-10.0111
▁Člověk	-10.0111
▁zvědí	-10.0111
zejtří	-10.0111
▁Ráchel	-10.0111
▁drahé	-10.0111
▁nečinil	-10.0111
▁usnul	-10.0111
▁pravda	-10.0111
▁báti	-10.0111
▁vládařství	-10.0112
▁potrav	-10.0117
▁poslav	-10.012
▁milý	-10.012
▁Egyptští	-10.0123
▁křiv	-10.0124
▁Měl	-10.0128
chovej	-10.0128
▁Lot	-10.0128
▁Manassesova	-10.013
▁spoj	-10.013
▁Het	-10.0139
▁štít	-10.014
▁chceš	-10.0157
metal	-10.0178
▁Nad	-10.0195
▁roku	-10.0207
▁plné	-10.0227
však	-10.0236
▁jaká	-10.0236
atím	-10.0244
▁smilství	-10.0251
▁polovic	-10.0287
▁mord	-10.029
▁požehná	-10.0299
trhl	-10.0299
▁ustavičn	-10.031
▁nečisté	-10.032
▁farize	-10.0328
▁Gabaon	-10.0338
▁Gedeon	-10.0338
▁Herodes	-10.0338
▁Izachar	-10.0338
▁Levíty	-10.0338
▁centnéř	-10.0338
▁mrákot	-10.0338
▁obrátiv	-10.0338
▁přebýval	-10.0338
▁zahynul	-10.0338
▁tovaryš	-10.0338
▁hrůz	-10.0338
▁narodil	-10.0338
▁nebesích	-10.0338
▁ukydan	-10.0338
▁moudré	-10.0338
▁žádal	-10.0338
▁neobřez	-10.0338
▁následuj	-10.0339
▁uvěřili	-10.0339
▁Maria	-10.034
▁padnou	-10.034
▁obilí	-10.0345
▁Bez	-10.0346
▁proměn	-10.0351
▁vodách	-10.0356
jímal	-10.0375
věděv	-10.0382
▁stanu	-10.0385
▁háj	-10.0392
▁úrody	-10.0397
▁dřevo	-10.0414
▁Kde	-10.0424
▁plná	-10.0426
▁stád	-10.0444
▁vztáhl	-10.0448
▁soudce	-10.0467
▁dále	-10.0471
▁Dne	-10.0506
▁úhl	-10.057
stoupiti	-10.057
▁Nátan	-10.057
▁beránků	-10.057
▁bláznovství	-10.057
▁malomocenství	-10.057
▁mládenci	-10.057
▁pohledění	-10.057
▁prvorozený	-10.057
▁prvotin	-10.057
▁hřešil	-10.057
▁Masfa	-10.057
▁ničeho	-10.057
▁zšíří	-10.0571
▁dotkl	-10.0572
▁trub	-10.0574
▁bělné	-10.0577
▁děvky	-10.0585
▁koně	-10.0587
▁veleb	-10.0588
jímá	-10.0594
▁čin	-10.06
▁stádo	-10.0622
ložím	-10.0624
itská	-10.0634
dadí	-10.0666
▁služebníkem	-10.0674
ložíš	-10.0681
bije	-10.0691
A	-10.0706
▁dcero	-10.0751
▁studnic	-10.0757
▁mrtvý	-10.0767
▁skop	-10.0792
olikéž	-10.0804
▁přátel	-10.0807
▁falešn	-10.0808
▁ostříhají	-10.0808
▁třidcíti	-10.0808
▁úředník	-10.0808
▁břemen	-10.0809
▁harf	-10.0809
▁bohové	-10.0809
▁podobně	-10.0809
▁zkazí	-10.0809
▁následov	-10.0809
▁nápoj	-10.0809
▁škod	-10.081
▁Izai	-10.0811
▁pokorn	-10.0811
▁Jakub	-10.0812
▁Seir	-10.0813
▁sestry	-10.0813
dělej	-10.0817
▁Achas	-10.0821
▁trpí	-10.0821
▁prvorozeného	-10.0825
▁mužského	-10.0826
▁způsobím	-10.0831
▁malé	-10.0833
▁vrat	-10.0835
▁nevěděl	-10.0835
▁Chus	-10.0838
▁sstupují	-10.0838
▁Adam	-10.0844
▁šedesáte	-10.0845
pis	-10.0847
▁nejvyššího	-10.085
ňuje	-10.0851
▁věcmi	-10.086
dání	-10.0867
▁koš	-10.0894
▁vylil	-10.0932
▁prázd	-10.0991
▁trůn	-10.0995
veden	-10.1048
▁odpověd	-10.105
▁Ger	-10.1052
▁Kteráž	-10.1052
▁Damašku	-10.1052
▁Tehdáž	-10.1052
▁bezbožnost	-10.1052
▁hedbáví	-10.1052
▁kralování	-10.1052
▁mnohem	-10.1052
▁zplozen	-10.1052
▁řkuci	-10.1052
▁klaněti	-10.1052
▁břehu	-10.1052
▁Semaiáš	-10.1052
▁uvrhl	-10.1052
▁kůži	-10.1053
▁Balák	-10.1053
▁poručil	-10.1053
▁právě	-10.1053
▁ctí	-10.1054
▁zítra	-10.1054
▁Jmén	-10.1054
▁půl	-10.1054
▁obilé	-10.1055
▁vln	-10.1056
▁Necha	-10.106
▁potěšení	-10.1063
▁myslí	-10.1067
▁přijímá	-10.1075
▁leč	-10.1076
▁uděláš	-10.108
▁plat	-10.1094
▁Vol	-10.1098
▁pravého	-10.1101
▁ukáže	-10.1107
▁jimiž	-10.1123
▁uzdraven	-10.1171
hodil	-10.1197
kazuje	-10.1253
dcátého	-10.1302
▁Amaziáš	-10.1302
▁koflík	-10.1302
▁nejmenší	-10.1302
▁opuštěn	-10.1302
▁osmdesát	-10.1302
▁očekává	-10.1302
▁pětmecítm	-10.1302
4	-10.1302
▁tehdy	-10.1302
▁vyhladil	-10.1302
▁zahyne	-10.1302
▁líbost	-10.1302
▁nalezne	-10.1302
▁trpěl	-10.1303
▁Uriáš	-10.1303
▁Ješto	-10.1303
▁Merari	-10.1303
▁poražen	-10.1303
▁nátisk	-10.1304
▁pastv	-10.1306
▁sílu	-10.1307
▁Egyptských	-10.1311
▁písař	-10.1314
▁Judova	-10.1315
▁chudého	-10.1317
▁roztrhl	-10.1317
▁knížatům	-10.1319
chyl	-10.132
▁popel	-10.1334
▁jdouce	-10.1336
▁chlebů	-10.1339
▁Jordánem	-10.1347
▁vyslyšel	-10.1349
▁jestiť	-10.137
▁Kdyby	-10.1409
▁všed	-10.1412
▁pravic	-10.1435
sadí	-10.1488
hlédl	-10.1488
▁nedostat	-10.1497
měnil	-10.1556
▁jistotně	-10.1559
▁kvílení	-10.1559
▁modlitbu	-10.1559
▁modrého	-10.1559
▁přiblížil	-10.1559
▁rozptýlen	-10.1559
▁služby	-10.1559
▁stříbrných	-10.1559
▁vzhůru	-10.1559
▁západní	-10.1559
▁nenalezl	-10.1559
▁pokryt	-10.1559
▁Samson	-10.1559
▁pozoruj	-10.1559
▁Sinai	-10.1559
▁obživ	-10.1559
▁zveleb	-10.1559
▁Slovo	-10.1559
▁Otci	-10.1559
▁Hlas	-10.1559
▁srdcí	-10.156
▁ulicích	-10.156
▁nevěří	-10.156
▁páchal	-10.156
▁satan	-10.1561
▁rozdíl	-10.1561
▁cti	-10.1564
▁zlořečení	-10.1565
▁protivník	-10.1567
▁snaž	-10.157
▁hledí	-10.1572
▁ucho	-10.1577
▁bezpečně	-10.1578
▁Judskému	-10.1578
▁zachoval	-10.1581
▁starý	-10.1586
▁Her	-10.1587
▁ucha	-10.1588
▁Jeden	-10.1592
▁rozdělen	-10.1608
▁přitáhn	-10.1627
▁nástroj	-10.1643
▁Kor	-10.1655
▁sloužil	-10.1696
▁sedmdesát	-10.1771
▁zdvih	-10.1821
▁Všemohoucí	-10.1822
▁Ezebon	-10.1822
▁Navrať	-10.1822
▁dobrotiv	-10.1822
▁mládence	-10.1822
▁obdržel	-10.1822
▁rouchem	-10.1822
▁výborné	-10.1822
▁úřad	-10.1822
▁stavěti	-10.1822
▁zajaté	-10.1822
▁dotekl	-10.1822
▁vrátn	-10.1822
▁držel	-10.1822
▁matku	-10.1822
▁zemřeli	-10.1822
▁vzácn	-10.1822
▁hodinu	-10.1822
▁Emat	-10.1822
▁pohané	-10.1822
▁vražedlník	-10.1823
▁okras	-10.1823
▁rovinách	-10.1827
▁daleko	-10.1828
▁jat	-10.1831
▁žádostiv	-10.1835
▁síle	-10.1839
▁rukama	-10.1843
▁Přišel	-10.1848
▁pláče	-10.1863
▁sobotní	-10.1865
▁postaven	-10.187
cházející	-10.1912
▁Řek	-10.1935
▁zlořečil	-10.1947
vstanou	-10.1959
▁Achabov	-10.1994
▁věřící	-10.1996
dávají	-10.2049
▁setník	-10.205
▁prvorozené	-10.2074
▁dvadcíti	-10.2092
▁Nejvyšší	-10.2092
▁Ochoziáš	-10.2092
▁Galgala	-10.2092
▁Joakim	-10.2092
▁devět	-10.2092
▁památk	-10.2092
▁přisluhova	-10.2092
▁truhla	-10.2092
▁uposlechl	-10.2092
▁uslyšev	-10.2092
▁chválu	-10.2092
▁neučinil	-10.2092
▁přikryl	-10.2092
▁Kálef	-10.2092
▁nepoznal	-10.2092
▁popatř	-10.2092
▁tázal	-10.2092
▁poledni	-10.2092
▁ohnivou	-10.2092
▁zákoníci	-10.2092
apomíná	-10.2092
▁potřín	-10.2092
▁ochotn	-10.2093
▁silnější	-10.2093
▁nemluvil	-10.2093
▁jinak	-10.2093
▁opravoval	-10.2094
▁kalich	-10.2095
▁odjal	-10.2097
▁Báz	-10.2098
▁ovcí	-10.21
▁vůni	-10.2101
▁veseliti	-10.2107
▁řeknou	-10.2107
▁Sílo	-10.2112
▁dobytka	-10.2113
▁víra	-10.2119
▁oslic	-10.215
▁Seon	-10.2155
▁čel	-10.2162
▁odšed	-10.218
▁ženin	-10.229
▁stánk	-10.2314
▁někd	-10.2336
▁nebeský	-10.2336
▁Každé	-10.237
▁bitvě	-10.237
▁neuposlechl	-10.237
▁pevnost	-10.237
▁pohledí	-10.237
▁stvořen	-10.237
▁žoldnéři	-10.237
▁měděné	-10.237
▁nadarmo	-10.237
▁otevřen	-10.237
▁vezmou	-10.237
▁nějaký	-10.237
▁stůl	-10.237
▁plamen	-10.237
▁jedenáct	-10.237
▁spálen	-10.237
nášejí	-10.237
▁Otče	-10.237
▁důstojnost	-10.2371
▁pobral	-10.2374
▁střev	-10.2378
▁Žádný	-10.2379
▁mladší	-10.2382
▁Assyrského	-10.2383
▁palm	-10.239
volej	-10.239
▁nečistého	-10.2392
čteno	-10.2439
vedou	-10.2452
▁povolán	-10.2457
razil	-10.2504
áhl	-10.2552
J	-10.2554
plodil	-10.2556
▁rozdělil	-10.2556
▁lít	-10.2573
▁přídrž	-10.2584
▁čeho	-10.2623
▁ďábel	-10.2653
▁Chóre	-10.2656
▁Idumejské	-10.2656
▁Mouřenín	-10.2656
▁patnáct	-10.2656
▁přísloví	-10.2656
▁vzkříšení	-10.2656
▁živočich	-10.2656
▁Elizeus	-10.2656
▁chvály	-10.2656
▁zdélí	-10.2656
▁Kádes	-10.2656
▁hořkost	-10.2656
▁zloděj	-10.2656
rozený	-10.2656
▁zavázal	-10.2656
▁efi	-10.2656
▁Milost	-10.2656
▁vyhnal	-10.2656
▁učitel	-10.2656
▁přijda	-10.2656
▁potkal	-10.2656
▁dsky	-10.2656
▁ponížen	-10.2657
▁nuzné	-10.2657
půjč	-10.2657
▁skopců	-10.2657
▁Ráma	-10.2657
▁věže	-10.2662
▁poškvrněn	-10.2662
▁tesa	-10.2663
▁dvé	-10.2667
▁desátky	-10.2668
▁vnitřnost	-10.2668
▁Semei	-10.2668
▁čtvrtého	-10.2669
▁Blahoslavený	-10.2671
▁divili	-10.2683
▁veselil	-10.2684
▁zapomen	-10.2785
▁smlouv	-10.2812
hledal	-10.285
▁ranil	-10.2921
▁čt	-10.2929
pomínej	-10.2945
▁Bersabé	-10.295
▁Cest	-10.295
▁Gát	-10.295
▁Kaldejské	-10.295
▁pozdvižení	-10.295
▁udeřil	-10.295
▁upřímé	-10.295
▁užitek	-10.295
▁zahynutí	-10.295
▁zvířat	-10.295
▁Žalm	-10.295
▁vyplénil	-10.295
▁zpívati	-10.295
▁Židovský	-10.295
▁vůdce	-10.295
▁naučení	-10.295
▁přikryt	-10.295
▁půjdu	-10.295
▁čtver	-10.295
▁Dokud	-10.295
▁Toliko	-10.295
▁panovati	-10.295
▁květ	-10.295
▁řád	-10.295
▁míry	-10.295
▁Jimž	-10.295
▁líbí	-10.295
▁knihu	-10.295
▁kterémuž	-10.2951
▁skála	-10.2952
▁masa	-10.2952
▁zelen	-10.2954
▁Prorok	-10.2955
▁zbroj	-10.2957
▁branách	-10.2958
▁drak	-10.2966
▁mast	-10.3002
▁přijel	-10.3008
▁prosb	-10.3026
čistil	-10.3028
▁vyhladí	-10.304
▁lněn	-10.3043
▁dán	-10.3062
piš	-10.307
toliko	-10.3151
▁vylit	-10.3158
▁křídl	-10.3166
▁Helkiáš	-10.3253
▁pozdrav	-10.3253
cházení	-10.3253
▁Jochanan	-10.3253
▁naříkání	-10.3253
▁odsouzen	-10.3253
▁skutkové	-10.3253
▁stvořil	-10.3253
▁útočiště	-10.3253
▁Chíram	-10.3253
▁soužení	-10.3253
▁císař	-10.3253
▁běžel	-10.3253
odvrátí	-10.3253
▁zkazil	-10.3253
▁podobná	-10.3253
▁Dobře	-10.3253
▁rcete	-10.3253
▁Poslal	-10.3253
▁mědi	-10.3253
▁povede	-10.3253
▁pominul	-10.3253
▁zanechá	-10.3253
▁vladař	-10.3253
▁žádá	-10.3253
▁slepý	-10.3253
▁uhlí	-10.3254
▁jda	-10.3255
▁skále	-10.3255
▁lítosti	-10.3255
▁opoj	-10.3256
▁Jonáš	-10.3256
▁hubil	-10.3257
▁ohnivé	-10.326
▁píseň	-10.3261
▁síni	-10.3266
▁nepřátelům	-10.3271
▁kadil	-10.3274
▁slz	-10.3301
kopal	-10.3308
▁plný	-10.3403
▁východ	-10.3462
▁mladý	-10.3502
▁vycházejí	-10.3546
▁cen	-10.3554
▁Kananejský	-10.3565
▁blázen	-10.3565
▁druhou	-10.3565
▁krupobití	-10.3565
▁náramenník	-10.3565
▁pohleděl	-10.3565
▁utvrdil	-10.3565
▁vojště	-10.3565
▁částk	-10.3565
▁žízni	-10.3565
▁lásce	-10.3565
▁měděný	-10.3565
▁slaviti	-10.3565
▁Gerson	-10.3565
▁vykoupil	-10.3565
▁lokte	-10.3565
▁záloh	-10.3566
▁neučiní	-10.3566
▁čemuž	-10.3567
▁svátek	-10.3567
▁střely	-10.3567
▁Všech	-10.3567
četl	-10.3567
▁hříšník	-10.3569
▁Pojď	-10.3569
▁Obět	-10.3569
▁pokouše	-10.3569
▁poslán	-10.3571
▁docela	-10.3571
▁jho	-10.3571
▁Mezi	-10.3574
▁Mnoh	-10.3578
▁třikrát	-10.3578
▁rek	-10.3578
▁semeni	-10.358
▁samo	-10.358
▁neznal	-10.3583
▁poškvrn	-10.3587
▁zlou	-10.36
▁jal	-10.3603
volil	-10.3608
bíral	-10.361
▁staré	-10.3647
▁shromáždě	-10.3853
▁psán	-10.3868
▁chudé	-10.387
▁Blahoslaven	-10.3871
▁pachole	-10.3888
▁Galilee	-10.3888
▁Safan	-10.3888
▁obzvláštně	-10.3888
▁stupňů	-10.3888
▁svědomí	-10.3888
▁výklad	-10.3888
▁zadělané	-10.3888
▁zvěstoval	-10.3888
▁makovic	-10.3888
▁mzdu	-10.3888
▁zbořen	-10.3888
▁blesk	-10.3888
▁bojovní	-10.3888
▁napsán	-10.3888
bloudil	-10.3888
▁láska	-10.3888
▁Pověz	-10.3888
▁kterýmiž	-10.3888
▁pořád	-10.3888
pívejte	-10.3888
▁snížen	-10.3889
▁svatí	-10.3889
▁pěkn	-10.389
▁Joram	-10.389
▁vyšlo	-10.3891
▁rád	-10.3891
▁zemské	-10.3891
▁Mardocheus	-10.3891
▁seděti	-10.3892
páliti	-10.3893
▁dolů	-10.3898
▁silou	-10.3898
▁nebývá	-10.3898
▁sestra	-10.3906
▁vypravuj	-10.3928
▁vztáhn	-10.3955
▁dvanáct	-10.3982
hladím	-10.412
▁řemesl	-10.4146
▁šedesát	-10.417
▁noham	-10.4196
▁blahoslaven	-10.4221
▁bázeň	-10.4221
▁církve	-10.4221
▁pomazání	-10.4221
▁působí	-10.4221
▁rozhněvání	-10.4221
▁rozmnožil	-10.4221
▁stříbrné	-10.4221
▁aspoň	-10.4221
▁skutku	-10.4221
▁umříti	-10.4221
▁vypléněn	-10.4221
▁řetěz	-10.4221
▁Abiatar	-10.4221
▁Jesua	-10.4221
▁zahladil	-10.4221
▁zeměplaz	-10.4221
poškvrňuj	-10.4221
▁nezůstal	-10.4221
▁zžíře	-10.4221
▁nesnadn	-10.4221
▁Jefte	-10.4222
▁tajně	-10.4222
▁matce	-10.4222
▁neuzří	-10.4222
▁Kníže	-10.4222
▁patří	-10.4222
▁šíji	-10.4222
▁říkal	-10.4222
▁vonných	-10.4222
▁Nun	-10.4222
▁ovec	-10.4222
▁svatá	-10.4222
▁nečiní	-10.4223
▁smiluj	-10.4223
▁vládl	-10.4223
▁ďábelství	-10.4224
▁propustí	-10.4227
svěť	-10.4234
▁Jiné	-10.4244
▁přítomnost	-10.4308
▁kříž	-10.434
▁Bálov	-10.4342
děláš	-10.4388
▁pohrdá	-10.4395
achat	-10.4448
▁přicházejí	-10.447
cházeje	-10.4519
▁Udělá	-10.4549
mlouval	-10.4553
5	-10.4566
▁Barnabáš	-10.4566
▁Syrští	-10.4566
▁obdrží	-10.4566
▁oznámeno	-10.4566
▁poslouchal	-10.4566
▁tajemství	-10.4566
▁trpělivost	-10.4566
▁vysokost	-10.4566
▁vzkřísil	-10.4566
▁Amorejský	-10.4566
▁Godoliáš	-10.4566
▁chválí	-10.4566
▁hřmot	-10.4566
třásl	-10.4566
▁Banaiáš	-10.4566
▁Pohleď	-10.4566
▁zpéře	-10.4566
▁Pavlov	-10.4566
▁Samařsk	-10.4566
▁chvále	-10.4566
▁mnohá	-10.4566
▁rány	-10.4566
▁mrtví	-10.4566
▁Svatý	-10.4566
▁slýchal	-10.4566
▁Judu	-10.4566
▁kozlů	-10.4566
▁příhodn	-10.4566
▁naplň	-10.4566
▁nevidí	-10.4567
▁předěšen	-10.4567
▁krvi	-10.4567
▁stolice	-10.4567
▁sluší	-10.4567
▁běda	-10.4567
▁takovou	-10.4567
▁staních	-10.4567
rámě	-10.4568
▁čest	-10.4569
▁Egyptskou	-10.457
▁Chananiáš	-10.457
▁kamene	-10.4571
▁viděv	-10.4571
▁hluk	-10.4571
▁Soba	-10.458
braň	-10.4585
▁zemský	-10.4608
pochyb	-10.4614
▁prah	-10.4616
▁míst	-10.4695
pouštěl	-10.4726
▁předešl	-10.4773
život	-10.4821
▁pláč	-10.4872
ozel	-10.4887
▁Mardoche	-10.492
▁Bratří	-10.4923
▁Judstva	-10.4923
▁Karmel	-10.4923
▁Spravedliv	-10.4923
▁Zhřešil	-10.4923
▁Zlořečený	-10.4923
▁obvesel	-10.4923
▁ostatků	-10.4923
▁rozmnoží	-10.4923
▁truhlou	-10.4923
▁vyzdvihl	-10.4923
▁kvíliti	-10.4923
▁některý	-10.4923
▁rozptýlí	-10.4923
▁skláně	-10.4923
▁uchýlil	-10.4923
▁osmnáct	-10.4923
▁posměch	-10.4923
▁větru	-10.4923
▁vládnouti	-10.4923
▁pošlapá	-10.4923
▁skotů	-10.4923
▁oblečen	-10.4923
kládají	-10.4923
▁svícn	-10.4923
▁Uziáš	-10.4923
▁mzdy	-10.4923
▁nuzný	-10.4924
▁zvýší	-10.4924
▁skály	-10.4924
▁beran	-10.4924
▁Amnon	-10.4924
▁ospravedlněn	-10.4925
▁choď	-10.4925
▁nosil	-10.4925
▁létě	-10.4925
▁Kain	-10.4925
▁ovšem	-10.4925
▁Pokoj	-10.4926
▁Sedm	-10.4926
▁kůže	-10.4927
▁daleké	-10.4929
▁panoval	-10.4931
▁řece	-10.4931
▁silní	-10.4934
▁běh	-10.4934
kázáno	-10.4949
▁zpod	-10.4954
litoval	-10.4965
užil	-10.5001
zvíte	-10.5009
▁obřezán	-10.5057
▁bráti	-10.5064
▁zabij	-10.5092
▁položí	-10.5177
dávej	-10.5255
▁bezpečn	-10.5266
▁Beránk	-10.5294
▁kadidlnic	-10.5294
▁kantorů	-10.5294
▁nemohou	-10.5294
▁odpočinul	-10.5294
▁očišťování	-10.5294
▁posměvač	-10.5294
▁pronárodu	-10.5294
▁proroctví	-10.5294
▁pátého	-10.5294
▁rozmnožen	-10.5294
▁trpěti	-10.5294
▁upřímnosti	-10.5294
▁vzbudil	-10.5294
▁Maaseiáš	-10.5294
▁duchovní	-10.5294
▁děvečka	-10.5294
▁hluboko	-10.5294
▁hřešení	-10.5294
▁otevřín	-10.5294
▁pláště	-10.5294
▁udatní	-10.5294
▁Edom	-10.5294
▁lásku	-10.5294
▁vzbudí	-10.5294
▁napřed	-10.5294
▁ránu	-10.5294
▁Heber	-10.5294
▁dělník	-10.5294
▁pohleď	-10.5294
▁zpět	-10.5294
▁vykonal	-10.5294
▁Týru	-10.5294
▁Halelu	-10.5294
▁Chanan	-10.5294
pomáhal	-10.5294
▁Sallum	-10.5294
▁promluvil	-10.5294
▁milování	-10.5294
▁milovati	-10.5295
▁stavení	-10.5295
▁přišly	-10.5295
▁odsud	-10.5295
▁říci	-10.5296
▁slituj	-10.5296
▁odjat	-10.5297
▁pije	-10.5297
▁nevěr	-10.5301
▁zisk	-10.5303
▁naučil	-10.5341
▁lůn	-10.5354
mén	-10.5354
▁běl	-10.5396
▁vztáh	-10.5425
váží	-10.5433
▁smilstv	-10.5438
▁tučn	-10.5492
▁obřez	-10.554
▁cíl	-10.5621
▁očištěn	-10.563
tírá	-10.5636
▁Který	-10.5641
▁dokud	-10.5648
x	-10.5678
▁Benadad	-10.5678
▁Báruch	-10.5678
▁Idumejský	-10.5678
▁kadidla	-10.5678
▁komorník	-10.5678
▁městečka	-10.5678
▁napořád	-10.5678
▁pahrbku	-10.5678
▁pohleděv	-10.5678
▁protivenství	-10.5678
▁předsevzetí	-10.5678
▁rozmnožuj	-10.5678
▁sochory	-10.5678
▁uprostřed	-10.5678
▁upřímý	-10.5678
▁zpronevěř	-10.5678
▁Babylonskému	-10.5678
▁lásky	-10.5678
▁ukáži	-10.5678
▁věčnou	-10.5678
▁Rámot	-10.5678
▁lépe	-10.5678
▁Adoniáš	-10.5678
▁pramen	-10.5678
▁oblékl	-10.5678
▁pečet	-10.5678
▁železné	-10.5678
▁přikryj	-10.5678
▁půjdou	-10.5678
▁rozsívá	-10.5678
ědouce	-10.5678
▁loutn	-10.5678
▁zastření	-10.5678
▁bydlení	-10.5678
▁kněžský	-10.5679
▁pověz	-10.5679
líbila	-10.5679
▁Bóz	-10.5679
▁zkušen	-10.5679
▁oslaven	-10.5679
▁obrací	-10.568
▁Sára	-10.568
▁nechodil	-10.568
▁sežral	-10.568
▁vzíti	-10.5681
▁zžíra	-10.5683
▁onoho	-10.5683
▁užasn	-10.5687
▁Achis	-10.569
▁chlubí	-10.569
▁obuv	-10.5696
▁poddán	-10.5697
▁Znám	-10.5707
▁odstoupil	-10.5734
▁řemeslník	-10.5766
hledejte	-10.5811
▁počn	-10.5831
▁Panovní	-10.5979
▁Assyrské	-10.606
▁ocel	-10.6075
▁Ezdráš	-10.6078
▁Fínes	-10.6078
▁Lépe	-10.6078
▁Mesullam	-10.6078
▁Támar	-10.6078
▁Vezměte	-10.6078
▁Zorobábel	-10.6078
▁cizozemců	-10.6078
▁ječmene	-10.6078
▁líbilo	-10.6078
▁navrátiv	-10.6078
▁okršlek	-10.6078
▁plésati	-10.6078
▁plésání	-10.6078
▁pokřtěn	-10.6078
▁popouzel	-10.6078
▁provinění	-10.6078
▁trestati	-10.6078
▁truhly	-10.6078
▁výborný	-10.6078
▁zkřikl	-10.6078
▁úklad	-10.6078
▁čtyřmecítma	-10.6078
▁Sarvie	-10.6078
▁bravů	-10.6078
▁chtěje	-10.6078
▁pokušení	-10.6078
▁vypléním	-10.6078
čátek	-10.6078
▁Arnon	-10.6078
▁druhá	-10.6078
▁vichřic	-10.6078
▁Budou	-10.6078
▁hřeší	-10.6078
▁menší	-10.6078
▁ohrad	-10.6078
▁dceři	-10.6078
▁dosáhl	-10.6078
▁Abizai	-10.6079
▁štěp	-10.6079
▁nastroj	-10.6079
▁posilň	-10.6079
▁kupci	-10.6079
▁žalost	-10.6079
▁Nepři	-10.6079
▁Kteréhož	-10.6079
▁rodiny	-10.6079
▁kolena	-10.6079
▁Totiž	-10.6079
▁vzýval	-10.6079
▁Nic	-10.6079
▁blud	-10.608
▁převrácenost	-10.608
▁neznají	-10.608
▁hodina	-10.608
▁obrať	-10.608
▁slušn	-10.608
▁knížetem	-10.6081
▁měr	-10.6082
▁bíti	-10.6082
▁čern	-10.6084
▁obecné	-10.6086
▁jistý	-10.6087
▁začal	-10.6094
▁hubí	-10.6101
▁kotl	-10.6206
8	-10.6495
▁Assur	-10.6495
▁Joachaz	-10.6495
▁Lachis	-10.6495
▁barveného	-10.6495
▁devadesát	-10.6495
▁kobylky	-10.6495
▁korouhev	-10.6495
▁nejlepší	-10.6495
▁náprsník	-10.6495
▁obklíčil	-10.6495
▁přebývati	-10.6495
▁stříbrná	-10.6495
▁trestání	-10.6495
▁čaloun	-10.6495
▁říkaje	-10.6495
▁břímě	-10.6495
▁modlitba	-10.6495
▁otvírá	-10.6495
▁kulhav	-10.6495
▁utvrzen	-10.6495
▁vojnu	-10.6495
kropí	-10.6495
třesení	-10.6495
▁deště	-10.6495
jmilejší	-10.6495
▁závist	-10.6495
▁vyprahl	-10.6495
▁šestnáct	-10.6495
▁doufají	-10.6495
▁hanbu	-10.6495
▁mohou	-10.6495
▁sukni	-10.6495
▁zmocnil	-10.6495
▁rozmohl	-10.6495
▁dveře	-10.6495
▁pohřb	-10.6495
▁lékař	-10.6495
▁vyplnil	-10.6495
▁pomazané	-10.6495
▁užitk	-10.6495
▁zůřiv	-10.6495
▁zahynou	-10.6495
▁veřeje	-10.6495
▁jasn	-10.6496
▁skálu	-10.6496
▁válka	-10.6496
▁pryč	-10.6496
▁žíti	-10.6496
▁Jotam	-10.6496
▁učiti	-10.6497
▁nejedl	-10.6497
▁pravě	-10.6498
zývati	-10.6498
▁rychl	-10.6507
▁smrteln	-10.651
▁pravý	-10.6517
ozích	-10.6545
bývej	-10.6573
byste	-10.6632
▁zahanb	-10.6652
T	-10.6826
▁Fereze	-10.693
▁největší	-10.693
▁Akaron	-10.693
▁Jericha	-10.693
▁Jerichu	-10.693
▁Joiada	-10.693
▁Spasitel	-10.693
▁chváliti	-10.693
▁dvamecítma	-10.693
▁hrnčíř	-10.693
▁kadidlo	-10.693
▁kněžství	-10.693
▁povědíno	-10.693
▁požehnaný	-10.693
▁přinášeli	-10.693
▁rozkázaní	-10.693
▁shromáždiv	-10.693
▁zmužile	-10.693
▁útržk	-10.693
0	-10.693
▁Cýr	-10.693
▁slitování	-10.693
▁soused	-10.693
▁věčnost	-10.693
▁zhynul	-10.693
▁brána	-10.693
▁chválil	-10.693
▁naklonil	-10.693
▁umyje	-10.693
▁užívá	-10.693
▁Učinil	-10.693
▁orlice	-10.693
▁třináct	-10.693
▁vzdálen	-10.693
▁oslavovati	-10.693
▁železo	-10.693
▁plášť	-10.693
popouzej	-10.693
▁Jábes	-10.693
▁Hazael	-10.693
▁mořský	-10.693
▁trápil	-10.693
▁pojednou	-10.693
▁vítěz	-10.693
▁dvadcítilet	-10.693
▁nevejde	-10.693
▁zrušil	-10.693
▁panny	-10.693
▁neřekl	-10.693
▁Machir	-10.693
▁pátý	-10.693
▁miluji	-10.693
▁sebrali	-10.693
▁hodiny	-10.693
▁Šest	-10.693
▁zavřín	-10.693
▁klásti	-10.693
▁prudk	-10.693
▁souzen	-10.693
▁klaněj	-10.693
▁hyne	-10.693
▁hynou	-10.693
▁povstane	-10.6931
▁pohnul	-10.6931
▁zkusil	-10.6931
▁směle	-10.6931
▁Melch	-10.6931
▁koupil	-10.6931
▁dětí	-10.6932
▁hleděl	-10.6933
▁nepohnu	-10.6933
▁ostrost	-10.6935
▁jisté	-10.7002
jedn	-10.7033
národech	-10.7182
P	-10.7282
▁kterou	-10.73
hromáždil	-10.7309
▁Far	-10.7377
▁hříšn	-10.738
▁Fáres	-10.7384
▁Rechab	-10.7384
▁Cis	-10.7384
▁Filistinská	-10.7384
▁Jezábel	-10.7384
▁Micheáš	-10.7384
▁Nábal	-10.7384
▁Nábot	-10.7384
▁bloudí	-10.7384
▁jitřní	-10.7384
▁milosrdn	-10.7384
▁nazpět	-10.7384
▁nebezpečenství	-10.7384
▁nenáviděl	-10.7384
▁nezemřeli	-10.7384
▁nečistá	-10.7384
▁pšenice	-10.7384
▁skutcích	-10.7384
▁starodávní	-10.7384
▁ukřižován	-10.7384
▁vyhlásí	-10.7384
▁větrem	-10.7384
▁zvláště	-10.7384
▁zámutek	-10.7384
▁úpění	-10.7384
▁Jidáš	-10.7384
▁Srdce	-10.7384
▁mateři	-10.7384
▁nařízení	-10.7384
▁obydlí	-10.7384
▁chvíle	-10.7384
▁plavili	-10.7384
▁spokojující	-10.7384
▁vyhledávati	-10.7384
▁Levítsk	-10.7384
▁skutek	-10.7384
▁nehřeš	-10.7384
▁bojovný	-10.7384
▁oklamá	-10.7384
▁příklad	-10.7384
▁ponížil	-10.7384
▁vypravovati	-10.7384
▁učiniv	-10.7384
▁zrodil	-10.7384
▁utíká	-10.7384
▁robot	-10.7384
▁Susan	-10.7385
▁pusté	-10.7385
ušitel	-10.7385
▁tentýž	-10.7385
▁rozvod	-10.7385
▁věži	-10.7385
▁vesnic	-10.7385
▁chodě	-10.7386
▁dobrou	-10.7386
stěhoval	-10.7387
▁téhodn	-10.7387
▁rozpálen	-10.7387
▁svlaž	-10.7388
▁počten	-10.7397
▁oslavuj	-10.7404
beřte	-10.7412
▁děsi	-10.7416
▁rybník	-10.7431
▁opustí	-10.7649
troji	-10.7735
▁nevěd	-10.7786
▁Které	-10.782
▁vyzdvihn	-10.7854
9	-10.786
kormoutí	-10.786
▁Ostříhej	-10.786
▁Služebník	-10.786
▁bázni	-10.786
▁břicho	-10.786
▁dokavad	-10.786
▁hřbet	-10.786
▁jeskyně	-10.786
▁lehkost	-10.786
▁mládenec	-10.786
▁mokré	-10.786
▁mrtvá	-10.786
▁mrzkost	-10.786
▁neužitečn	-10.786
▁popléněn	-10.786
▁prozpěvovati	-10.786
▁rouhání	-10.786
▁sváteční	-10.786
▁svědek	-10.786
▁svědkové	-10.786
▁výmluvnost	-10.786
▁výplat	-10.786
▁zvěstuje	-10.786
▁úhony	-10.786
yslýchej	-10.786
▁Hebrejsk	-10.786
▁Judská	-10.786
▁jsuc	-10.786
▁modlitby	-10.786
▁skonání	-10.786
▁zdraví	-10.786
▁zlořečenství	-10.786
▁přísahu	-10.786
▁Anatot	-10.786
▁mlékem	-10.786
▁noční	-10.786
▁služebnice	-10.786
▁Itamar	-10.786
▁neduh	-10.786
▁zpěváku	-10.786
▁vykoupen	-10.786
▁starců	-10.7861
▁někoho	-10.7861
▁činitel	-10.7861
▁náhle	-10.7861
▁Chvalte	-10.7861
▁statku	-10.7861
▁pamatuj	-10.7861
▁strdí	-10.7861
▁pojedl	-10.7862
okázal	-10.7862
▁sečtl	-10.7862
strašil	-10.7862
▁hadač	-10.787
▁hrud	-10.7872
▁pojď	-10.7875
konati	-10.7902
íseň	-10.7936
▁Jeroboámov	-10.8131
▁která	-10.827
▁Obrát	-10.8329
▁Shromažď	-10.836
6	-10.836
zůstanou	-10.836
▁Achitofel	-10.836
▁Ezron	-10.836
▁Fáze	-10.836
▁Kaldejských	-10.836
▁Natanael	-10.836
▁Netaniáš	-10.836
▁Nádab	-10.836
▁Obededom	-10.836
▁církev	-10.836
▁církví	-10.836
▁grunt	-10.836
▁sformoval	-10.836
▁spasitel	-10.836
▁teprv	-10.836
▁upevněn	-10.836
▁vysokých	-10.836
▁výpověd	-10.836
▁všemohoucí	-10.836
▁úředníci	-10.836
▁Achikam	-10.836
▁jezdci	-10.836
▁posílám	-10.836
▁zhůru	-10.836
▁zamiloval	-10.836
▁Nebudou	-10.836
▁rouhal	-10.836
▁Agar	-10.8361
▁sžíře	-10.8361
▁Nebudu	-10.8361
▁utíkati	-10.8361
▁Židovské	-10.8361
▁zákoníků	-10.8361
▁pustá	-10.8361
▁spálí	-10.8361
▁vyjití	-10.8361
▁přistupovati	-10.8361
▁stromoví	-10.8361
▁vstana	-10.8361
tlouk	-10.8361
▁lůže	-10.8361
▁vysuš	-10.8361
▁dávno	-10.8361
▁strýc	-10.8361
▁utěšen	-10.8361
▁Vizte	-10.8361
▁Medle	-10.8361
▁pádu	-10.8361
sužoval	-10.8361
chvacuj	-10.8363
rozené	-10.8364
▁vinař	-10.8367
▁přesnic	-10.8372
▁svázal	-10.8377
▁vystaven	-10.838
▁rozmlouv	-10.8442
▁nepřišl	-10.8485
▁prohléd	-10.8734
▁Pozdvih	-10.8745
M	-10.8783
▁ohavn	-10.8798
▁Kterouž	-10.8887
▁ohlašuj	-10.8887
▁poslouchej	-10.8887
▁různic	-10.8887
svěcuje	-10.8887
▁Služebníci	-10.8887
▁církvi	-10.8887
▁hospodář	-10.8887
▁jablk	-10.8887
▁jeskyni	-10.8887
▁knihách	-10.8887
▁maličký	-10.8887
▁navrátiti	-10.8887
▁nezahynul	-10.8887
▁okršlku	-10.8887
▁oznámiti	-10.8887
▁přepásaní	-10.8887
▁slitovnici	-10.8887
▁svědčí	-10.8887
▁vysvoboď	-10.8887
▁zalíbilo	-10.8887
▁zatvrdil	-10.8887
▁Abdiáš	-10.8887
▁Břímě	-10.8887
▁královští	-10.8887
▁modlitbě	-10.8887
▁musejí	-10.8887
▁příbuzný	-10.8887
▁rouchu	-10.8887
poslechne	-10.8887
▁Náchor	-10.8887
▁chtíti	-10.8887
▁ostatní	-10.8887
▁porodu	-10.8887
▁hříšníci	-10.8887
▁samému	-10.8887
▁zpěváci	-10.8887
▁Lepší	-10.8887
▁obtížen	-10.8887
▁nakloň	-10.8887
▁neplodn	-10.8887
▁neslyší	-10.8887
▁plakati	-10.8887
▁Faraonova	-10.8887
▁stůj	-10.8887
▁porodí	-10.8887
▁porážk	-10.8887
▁dělají	-10.8887
▁Eden	-10.8887
pásal	-10.8889
▁napsan	-10.889
▁nevzal	-10.8894
▁koláč	-10.8895
▁tajné	-10.8899
▁panují	-10.8913
▁Miluj	-10.9002
zdvihněte	-10.9156
šedši	-10.9257
▁nemůž	-10.9338
▁přestoupil	-10.9389
znávám	-10.9427
▁vládař	-10.944
▁čarodějn	-10.9442
▁Kariatjeharim	-10.9442
▁Míkol	-10.9442
▁Odpovídaj	-10.9442
▁blýskání	-10.9442
▁dosavad	-10.9442
▁hlubin	-10.9442
▁hříších	-10.9442
▁královskou	-10.9442
▁mokrou	-10.9442
▁narození	-10.9442
▁nenavrátí	-10.9442
▁neostříhal	-10.9442
▁nesčísln	-10.9442
▁oplývající	-10.9442
▁ostatkové	-10.9442
▁ostatky	-10.9442
▁podměstí	-10.9442
▁pohoršení	-10.9442
▁porušení	-10.9442
▁pravdomluvn	-10.9442
▁propuštěn	-10.9442
▁reptal	-10.9442
▁rozptýlil	-10.9442
▁styděti	-10.9442
▁utvrdí	-10.9442
▁vezměte	-10.9442
▁vysvoboditel	-10.9442
▁zvěstovati	-10.9442
▁čtyřidcíti	-10.9442
▁ďáblů	-10.9442
▁Ammonitští	-10.9442
▁bedliv	-10.9442
▁dlouhé	-10.9442
▁efod	-10.9442
▁společn	-10.9442
▁Jehoram	-10.9442
▁Věrou	-10.9442
▁chloub	-10.9442
▁hloup	-10.9442
▁královna	-10.9442
▁Mnozí	-10.9442
▁služte	-10.9442
▁Remmon	-10.9442
▁chvíli	-10.9442
▁hleděti	-10.9442
▁ledví	-10.9442
▁opanoval	-10.9442
▁pancíř	-10.9442
▁Náman	-10.9442
▁poslušn	-10.9442
▁zapálí	-10.9442
▁utíkají	-10.9442
kládati	-10.9442
▁nalézá	-10.9442
▁obcování	-10.9442
▁vozové	-10.9442
▁Tobiáš	-10.9442
▁Podobn	-10.9442
▁počínal	-10.9443
tresci	-10.9444
▁nepřijal	-10.9444
▁telat	-10.9444
▁násilník	-10.9445
▁vládn	-10.9445
▁suchý	-10.9455
▁přítomn	-10.9879
▁nenávist	-10.9904
S	-10.9928
▁ssoužen	-10.9981
pomínati	-11.0021
▁Achimelech	-11.0031
▁Galilejské	-11.0031
▁prozpěvuj	-11.0031
7	-11.0031
▁Abigail	-11.0031
▁Betsemes	-11.0031
▁Gomor	-11.0031
▁Hetejského	-11.0031
▁Kristův	-11.0031
▁Oslavujte	-11.0031
▁Světlo	-11.0031
▁Ustanov	-11.0031
▁beránky	-11.0031
▁chudob	-11.0031
▁cizozemec	-11.0031
▁doufati	-11.0031
▁děvečky	-11.0031
▁hřiven	-11.0031
▁ledvin	-11.0031
▁ničemž	-11.0031
▁nižádný	-11.0031
▁novměsíce	-11.0031
▁ohyzdn	-11.0031
▁ošklivost	-11.0031
▁poslouchaj	-11.0031
▁poslušenství	-11.0031
▁posvětí	-11.0031
▁prospěch	-11.0031
▁svegruš	-11.0031
▁vykupitel	-11.0031
▁zbohat	-11.0031
▁zpořáda	-11.0031
▁Oznam	-11.0031
▁bránu	-11.0031
▁nejsilnější	-11.0031
▁posmívá	-11.0031
▁zpurný	-11.0031
▁Nebatova	-11.0031
▁jednomyslně	-11.0031
▁neobřízk	-11.0031
▁pomazaný	-11.0031
▁Aroer	-11.0031
▁Kněží	-11.0031
▁nesloužil	-11.0031
▁přítrž	-11.0031
▁vidoucí	-11.0031
▁Héman	-11.0031
▁plésají	-11.0031
▁Učiň	-11.0031
▁Dobré	-11.0031
▁ztíží	-11.0031
▁poskvrn	-11.0031
▁Rabb	-11.0031
▁Uziel	-11.0031
▁kadění	-11.0031
▁očišťuj	-11.0031
Ž	-11.0653
E	-11.4445
I	-11.6557
V	-11.6557
N	-11.7806
D	-12.0901
O	-12.0902
Z	-12.0902
R	-12.8735
L	-12.8736
Š	-13.3737
#	-14.3823
Ď	-14.3824
Ú	-14.3825
]	-14.3826
Ó	-14.3827
Č	-14.3828
Ř	-14.3829
(	-14.383
U	-14.3831
F	-14.3832
G	-14.3833
C	-14.3834
ú	-14.3835
K	-14.3836
B	-14.3837
H	-14.3838
Í	-14.3838
Ý	-14.3838
