<pad>	0
</s>	0
<unk>	0
▁¦	-0
▁᙮	-1
▁,	-2
ᑕᔥ	-3
ᐃᔑ	-4
ᐙᒡ	-5
ᑲᔦ	-6
ᐃᐃ	-7
ᐐᓐ	-8
ᓂᒡ	-9
ᓂᓂ	-10
ᐁᑮ	-11
ᑳᑮ	-12
ᐅᑮ	-13
ᓂᑑ	-14
ᐎᓐ	-15
ᑭᔐ	-16
ᒪᓂᑑ	-17
ᑭᔐᒪᓂᑑ	-18
ᐃᑭ	-19
ᐅᒋ	-20
▁:	-21
ᑳᐐᓐ	-22
ᑭᒋ	-23
ᒋᑫ	-24
ᑎᓯ	-25
ᐗᒃ	-26
ᐃᓂ	-27
ᑯᓯ	-28
ᐊᔮ	-29
ᐃᑕᔥ	-30
ᒦᑕᔥ	-31
ᒋᓴ	-32
ᐋᓃ	-33
ᐃᐃᒫ	-34
ᐃᓈ	-35
ᐊᐎ	-36
ᑳᐃᔑ	-37
ᑭᓇ	-38
ᐎᓂ	-39
ᔦᒃ	-40
ᐊᐊ	-41
ᑌᐺ	-42
ᐅᐅ	-43
ᑕᒧ	-44
ᐊᐎᔭ	-45
ᐊᐲ	-46
ᐱᒫ	-47
ᐃᑭᑐ	-48
ᓇᐙ	-49
ᑭᑭ	-50
ᑲᑭᓇ	-51
ᓇᓐ	-52
ᓂᒃ	-53
ᑎᐯ	-54
ᒋᓴᔅ	-55
ᐃᑯ	-56
ᐌᓂ	-57
ᐁᔑ	-58
ᑕᒪ	-59
ᐙᓐ	-60
ᐙᐸ	-61
ᑰᓐ	-62
ᐃᓇ	-63
ᑭᑎ	-64
ᐯᔑ	-65
ᑳᑌ	-66
ᒥᓐ	-67
ᑕᒫ	-68
ᑭᔐᒪᓂᑑᓐ	-69
ᐗᓐ	-70
ᓇᒥ	-71
ᒥᑯ	-72
ᐋᓃᔥ	-73
ᑲᓂ	-74
ᔮᓐ	-75
ᑖᑯᓯ	-76
ᔥᑭ	-77
ᓂᓂᒃ	-78
ᐃᓀ	-79
▁?	-80
ᑲᓇ	-81
ᐱᒫᑎᓯ	-82
ᑭᑫ	-83
ᑖᐱ	-84
ᑭᒫ	-85
ᐗᐞ	-86
ᐊᓂ	-87
ᒪᒋ	-88
ᐃᐌ	-89
ᐁᑕ	-90
ᑭᑭᓄ	-91
ᐸᓐ	-92
ᐅᑎ	-93
ᐃᓂᓂ	-94
ᐅᑕ	-95
ᐊᓇᒥ	-96
ᔭᓐ	-97
ᑭᑲ	-98
ᑮᔑ	-99
ᑭᑭᓄᐊ	-100
ᑭᓐ	-101
ᔥᐱ	-102
▁!	-103
ᑾᓐ	-104
ᓈᓐ	-105
ᓂᑮ	-106
ᓬᐊ	-107
ᑲᓐ	-108
ᐊᐌ	-109
ᐁᐐ	-110
ᑫᑰᓐ	-111
ᑕᕽ	-112
ᐅᑮᐃᓈ	-113
ᐋᓃᓐ	-114
ᐎᓂᕽ	-115
ᔥᑲ	-116
ᐃᔑᒋᑫ	-117
ᓂᒥ	-118
ᑳᑎᐯ	-119
ᓂᒫ	-120
ᑮᔥᐱ	-121
ᑮᔥᐱᓐ	-122
ᐐᒋ	-123
ᓃᓐ	-124
ᑲᑴ	-125
ᓄᑮ	-126
ᑮᓇᐙ	-127
ᑲᓅ	-128
▁𐋇	-129
ᐊᑮ	-130
ᓂᓯ	-131
ᒦᔥ	-132
ᓀᓐ	-133
ᑕᔑ	-134
ᓂᔕ	-135
ᑮᐃᑭᑐ	-136
ᐎᓂᓂ	-137
ᓂᑯ	-138
ᐐᒌ	-139
ᔥᑳ	-140
ᐗᒡ	-141
ᐅᑲ	-142
ᑕᒨ	-143
ᔥᑰ	-144
ᒪᑲ	-145
ᐃᔥ	-146
ᐊᑮᕽ	-147
ᑖᐱᔥᑰ	-148
ᓴᓐ	-149
ᑯᓂ	-150
ᒥᓄ	-151
ᓂᔑ	-152
ᓂᑎ	-153
ᓲᓐ	-154
ᒣᒃ	-155
ᐯᔑᒃ	-156
ᑳᑮᐃᔑ	-157
ᒪᐙ	-158
ᓯᐌ	-159
ᐊᓇᒥᐁ	-160
ᑰᒃ	-161
ᐋᔕ	-162
ᐌᑎ	-163
ᑾᔭ	-164
ᑳᐅ	-165
ᒥᓐᒡ	-166
ᑭᑮ	-167
ᑕᒧᐙᒡ	-168
ᐸᑭᑎ	-169
ᒋᓴᓲᓐ	-170
ᓈᒡ	-171
ᓵᑭ	-172
ᑳᑎᐯᒋᑫ	-173
ᓂᑖ	-174
ᒦᓇᐙ	-175
ᓂᑕ	-176
ᐃᔖ	-177
ᑕᑯ	-178
ᓈᑾ	-179
ᐃᒫ	-180
ᐆᑌ	-181
ᑭᓯ	-182
ᑲᔥᑭ	-183
ᐅᓇ	-184
ᑯᒡ	-185
ᓈᕽ	-186
ᐋᐱ	-187
ᐅᔑ	-188
ᐊᑕ	-189
ᑕᒥ	-190
ᐎᓯ	-191
ᐃᑎ	-192
ᐃᑰ	-193
ᐱᓯ	-194
ᑯᕽ	-195
ᑳᐅᒋ	-196
ᑕᐙ	-197
ᐎᓇᓐ	-198
ᓈᐙ	-199
ᐯᒫ	-200
ᑳᔑ	-201
ᐯᒫᑎᓯ	-202
ᑭᑐ	-203
ᓂᑲ	-204
ᐊᓇᒥᐁᐎ	-205
ᕒᐊ	-206
ᐐᑕᒪ	-207
ᒋᑳᑌ	-208
ᑫᑯ	-209
ᒋᑑ	-210
ᓂᐳ	-211
ᐅᑌᐺ	-212
ᑮᐌ	-213
ᑲᓇᐞ	-214
ᐱᒥ	-215
ᔮᕽ	-216
ᐅᔕ	-217
ᐅᑯᓯ	-218
ᑭᑭᓄᐊᒪᐙ	-219
ᑖᑾ	-220
ᓰᓐ	-221
ᑕᒣᒃ	-222
ᐃᐃᐌ	-223
ᑭᑑ	-224
ᑭᐸᓐ	-225
ᐃᔥᒀ	-226
ᐁᑳ	-227
ᑎᓄ	-228
ᑕᒃ	-229
ᑯᒻ	-230
ᑲᒥ	-231
ᑮᐃᔑ	-232
ᔭᕽ	-233
ᒋᒧ	-234
ᑐᒃ	-235
ᐱᑯ	-236
ᑳᐐ	-237
ᑭᑌ	-238
ᓈᑯᓯ	-239
ᑕᐎ	-240
ᓀᒃ	-241
ᑳᓱ	-242
ᑮᓐ	-243
ᒫᒡ	-244
ᔕᒃ	-245
ᐗᕽ	-246
ᒪᔥᑲ	-247
ᑎᐹ	-248
ᐲᐃ	-249
ᓃᑳ	-250
ᐯᔑᑾᓐ	-251
ᓇᕽ	-252
ᐊᓄᑮ	-253
ᑳᐊᔮ	-254
ᐄᑐᒃ	-255
ᓅᑯᒻ	-256
ᐃᑴ	-257
ᓯᒃ	-258
ᔓᐌ	-259
ᓇᑰᒃ	-260
ᑭᑭᓄᐊᒫ	-261
ᐅᑭᒫ	-262
ᑫᑰ	-263
ᐅᑮᐃᓈᐞ	-264
ᐎᒡ	-265
ᒪᒋᑑ	-266
ᑯᑕᒃ	-267
ᐅᐌ	-268
ᐐᑫ	-269
ᒥᓍ	-270
ᒦᓂ	-271
ᐸᑳ	-272
ᔑᑾ	-273
ᐃᓈᒡ	-274
ᐋᐱᒋ	-275
ᑲᒥᑯ	-276
ᑎᑫ	-277
ᑕᒥᓂᒡ	-278
ᒫᒪ	-279
ᐅᒌ	-280
ᐋᓇ	-281
ᑳᑎᐯᒋᑫᒡ	-282
ᔥᑫ	-283
ᓇᐃ	-284
ᐙᐞ	-285
ᓈᑯ	-286
ᐅᑌᐺᑕᒨ	-287
ᒥᕽ	-288
ᕒᐆ	-289
ᐅᑮᐃᓈᓐ	-290
ᒪᓐ	-291
ᐅᑌ	-292
ᒥᓯᐌ	-293
ᑖᓐ	-294
ᓃᕽ	-295
ᕒᐃ	-296
ᐁᐃᔑ	-297
ᓅᓐ	-298
ᑎᐱ	-299
ᐅᐅᒫ	-300
ᒫᒌ	-301
ᐱᒫᒋ	-302
ᑭᒋᐊᓇᒥᐁᐎ	-303
ᐅᑖᐱ	-304
ᓈᓂ	-305
ᓐᒡ	-306
ᒥᓂ	-307
ᐋᐸ	-308
ᑳᐃ	-309
ᑕᒧᐎᓐ	-310
ᔑᓐ	-311
ᐎᓐᑦ	-312
ᒥᑯᒡ	-313
ᐋᒡ	-314
ᐐᑳ	-315
ᑭᑭᓄᐊᒫᑫ	-316
ᒣᒀ	-317
ᐅᑕᒑ	-318
ᐐᒌᐎ	-319
ᓇᐎᓐᑦ	-320
ᐌᒋ	-321
ᒋᐅᒋ	-322
ᓈᓯ	-323
ᑲᑴᒋ	-324
ᐌᑯ	-325
ᑕᓐ	-326
ᐅᑖ	-327
ᐁᑮᐃᔑ	-328
ᑎᓰ	-329
ᒀᑕ	-330
ᑲᓇᓐ	-331
ᒫᐗᒡ	-332
ᐅᑯ	-333
ᐙᕽ	-334
ᒋᐃᔑ	-335
ᒫᒑ	-336
ᐆᑌᓈᕽ	-337
ᒫᓐ	-338
ᑌᐺᔦ	-339
ᐃᑭᑐᒡ	-340
ᑲᔥᑭᑑ	-341
ᐅᓄ	-342
ᔮᐱ	-343
ᐃᓀᑖᑯᓯ	-344
ᑕᑲ	-345
ᐊᐊᐌ	-346
ᐅᓇᔓᐌ	-347
¦	-348
▁	-349
ᓂ	-350
ᐃ	-351
ᓐ	-352
ᑭ	-353
ᑕ	-354
ᒋ	-355
ᑮ	-356
ᑳ	-357
ᐅ	-358
ᐊ	-359
ᑲ	-360
ᒡ	-361
ᒃ	-362
ᔥ	-363
ᔑ	-364
ᐙ	-365
᙮	-366
ᓇ	-367
ᐎ	-368
,	-369
ᐁ	-370
ᒫ	-371
ᑯ	-372
ᑫ	-373
ᓯ	-374
ᒥ	-375
ᑎ	-376
ᐱ	-377
ᐌ	-378
ᒪ	-379
ᐐ	-380
ᓈ	-381
ᕽ	-382
ᐗ	-383
ᒦ	-384
ᐸ	-385
ᔦ	-386
ᐋ	-387
ᑑ	-388
ᑌ	-389
ᑖ	-390
ᓴ	-391
ᓃ	-392
ᔮ	-393
ᔭ	-394
ᑰ	-395
ᐯ	-396
ᓀ	-397
ᐲ	-398
ᐞ	-399
ᓄ	-400
ᑾ	-401
ᔐ	-402
ᓰ	-403
ᑐ	-404
ᔅ	-405
ᓅ	-406
ᔕ	-407
ᒧ	-408
ᒻ	-409
ᒀ	-410
:	-411
ᑴ	-412
ᒌ	-413
ᐹ	-414
ᓱ	-415
ᓭ	-416
ᒣ	-417
ᓵ	-418
ᓬ	-419
ᕒ	-420
ᐺ	-421
ᒨ	-422
ᒑ	-423
ᔖ	-424
ᐄ	-425
?	-426
ᐆ	-427
ᔓ	-428
!	-429
ᒎ	-430
ᐴ	-431
x	-432
𐋇	-433
ᑦ	-434
ᓲ	-435
ᑣ	-436
ᐳ	-437
ᔒ	-438
ᔔ	-439
ᓉ	-440
ᑏ	-441
ᓍ	-442
ᒐ	-443
ᑆ	-444
ᐤ	-445
ᒉ	-446
ᑸ	-447
ᒞ	-448
ᔫ	-449
ᔣ	-450
ᑉ	-451
ᔨ	-452
0	-453
ᔂ	-454
ᔗ	-455
;	-456
ᑗ	-457
ᔩ	-458
2	-459
ᑶ	-460
3	-461
ᓶ	-462
1	-463
ᔪ	-464
4	-465
7	-466
ᒬ	-467
ᒸ	-468
ᓋ	-469
ᐾ	-470
ᔛ	-471
ᒶ	-472
5	-473
ᒍ	-474
–	-475
8	-476
ᔀ	-477
ᔾ	-478
6	-479
9	-480
ᔡ	-481
(	-482
)	-483
.	-484
"	-485
/	-486
[	-487
]	-488
a	-489
u	-490
z	-491
~	-492
ᐧ	-493
ᐼ	-494
ᑡ	-495
ᒒ	-496
