<pad>	0
</s>	0
<unk>	0
▁t	-0
in	-1
he	-2
▁a	-3
re	-4
on	-5
▁the	-6
at	-7
▁s	-8
en	-9
er	-10
▁c	-11
or	-12
▁o	-13
is	-14
ed	-15
▁w	-16
▁in	-17
es	-18
▁p	-19
an	-20
it	-21
▁of	-22
as	-23
al	-24
▁b	-25
▁f	-26
▁d	-27
ing	-28
▁h	-29
▁to	-30
ar	-31
nd	-32
ion	-33
ent	-34
ou	-35
ic	-36
▁m	-37
il	-38
ac	-39
om	-40
▁and	-41
ve	-42
▁be	-43
▁T	-44
▁th	-45
▁n	-46
le	-47
▁re	-48
id	-49
▁v	-50
ec	-51
▁C	-52
▁is	-53
▁M	-54
tr	-55
os	-56
▁l	-57
us	-58
ation	-59
ir	-60
▁A	-61
▁g	-62
▁e	-63
▁I	-64
▁S	-65
▁The	-66
ay	-67
ow	-68
▁st	-69
ot	-70
▁for	-71
ver	-72
ly	-73
ol	-74
ad	-75
▁on	-76
ur	-77
im	-78
ut	-79
oron	-80
ill	-81
ave	-82
▁are	-83
op	-84
ter	-85
acc	-86
accin	-87
orona	-88
ment	-89
▁vaccin	-90
ect	-91
ate	-92
et	-93
▁P	-94
▁that	-95
▁has	-96
um	-97
▁H	-98
▁pr	-99
▁al	-100
am	-101
oc	-102
▁have	-103
ati	-104
ce	-105
ith	-106
▁con	-107
th	-108
ig	-109
▁D	-110
▁an	-111
▁with	-112
▁B	-113
▁we	-114
ld	-115
un	-116
▁r	-117
od	-118
ak	-119
ch	-120
and	-121
st	-122
▁corona	-123
▁he	-124
rom	-125
▁1	-126
▁was	-127
est	-128
▁as	-129
ers	-130
ents	-131
▁will	-132
ul	-133
▁from	-134
▁W	-135
▁dis	-136
her	-137
iv	-138
fect	-139
▁2	-140
em	-141
ov	-142
▁wh	-143
ies	-144
ort	-145
▁y	-146
▁not	-147
▁pati	-148
▁R	-149
ain	-150
▁or	-151
▁go	-152
ore	-153
▁at	-154
▁sh	-155
ct	-156
if	-157
▁by	-158
se	-159
pp	-160
ab	-161
umb	-162
▁been	-163
ity	-164
ome	-165
ag	-166
▁it	-167
▁de	-168
▁sa	-169
▁patients	-170
oun	-171
▁ex	-172
res	-173
▁this	-174
irus	-175
▁vaccine	-176
▁ne	-177
▁su	-178
vern	-179
▁tr	-180
ial	-181
▁N	-182
vernment	-183
ive	-184
ess	-185
▁In	-186
el	-187
ople	-188
inis	-189
ase	-190
alth	-191
eople	-192
▁O	-193
▁com	-194
ia	-195
▁said	-196
▁inc	-197
▁U	-198
ant	-199
▁wor	-200
ould	-201
qu	-202
ions	-203
so	-204
▁res	-205
ren	-206
▁"	-207
art	-208
ud	-209
▁government	-210
▁(	-211
▁people	-212
pt	-213
ical	-214
▁Th	-215
ated	-216
har	-217
ther	-218
our	-219
▁also	-220
ict	-221
gen	-222
▁F	-223
act	-224
pit	-225
▁im	-226
▁state	-227
hi	-228
red	-229
▁infect	-230
own	-231
ovid	-232
19	-233
▁se	-234
▁numb	-235
port	-236
▁K	-237
ays	-238
iz	-239
▁us	-240
▁cl	-241
▁were	-242
pital	-243
▁ch	-244
▁G	-245
▁ad	-246
▁per	-247
▁virus	-248
▁He	-249
▁can	-250
▁af	-251
ary	-252
▁test	-253
ap	-254
trict	-255
ospital	-256
▁number	-257
▁u	-258
▁sp	-259
▁le	-260
end	-261
out	-262
igh	-263
▁ab	-264
cc	-265
-19	-266
ts	-267
▁Minis	-268
av	-269
▁coun	-270
▁20	-271
▁E	-272
ash	-273
▁Corona	-274
ock	-275
ge	-276
ous	-277
▁sy	-278
▁all	-279
▁Ind	-280
ast	-281
ear	-282
▁countr	-283
gh	-284
any	-285
ib	-286
▁should	-287
▁other	-288
▁work	-289
ard	-290
ime	-291
▁J	-292
▁health	-293
ans	-294
tra	-295
▁Minister	-296
ord	-297
ound	-298
ke	-299
ack	-300
▁there	-301
▁Ma	-302
ough	-303
▁had	-304
▁out	-305
xy	-306
are	-307
ue	-308
▁cent	-309
vel	-310
ose	-311
ail	-312
▁tak	-313
xygen	-314
▁cr	-315
ist	-316
reat	-317
▁hospital	-318
ID	-319
▁me	-320
og	-321
OV	-322
fic	-323
▁comp	-324
ost	-325
OVID	-326
ine	-327
▁app	-328
▁Mahar	-329
ure	-330
ator	-331
ashtra	-332
▁pl	-333
▁after	-334
▁Maharashtra	-335
▁oxygen	-336
▁who	-337
▁ag	-338
▁COVID	-339
▁pre	-340
▁India	-341
▁di	-342
▁V	-343
all	-344
00	-345
▁exp	-346
▁you	-347
▁cont	-348
▁incre	-349
▁Ch	-350
▁whe	-351
ond	-352
age	-353
ild	-354
orm	-355
uc	-356
▁Dr	-357
oV	-358
down	-359
▁hand	-360
▁L	-361
▁dec	-362
ockdown	-363
▁do	-364
ens	-365
ub	-366
able	-367
ance	-368
▁3	-369
ath	-370
▁It	-371
▁dise	-372
▁about	-373
ef	-374
ai	-375
▁more	-376
one	-377
ased	-378
ates	-379
ew	-380
ip	-381
▁This	-382
ile	-383
ases	-384
ong	-385
ide	-386
▁their	-387
▁Pr	-388
▁rec	-389
ations	-390
CoV	-391
▁lockdown	-392
▁than	-393
▁time	-394
arch	-395
nder	-396
▁But	-397
ever	-398
▁new	-399
uct	-400
ight	-401
pr	-402
▁so	-403
read	-404
▁no	-405
▁tw	-406
▁med	-407
▁ef	-408
RS	-409
▁5	-410
▁Wh	-411
ru	-412
▁infection	-413
▁under	-414
ep	-415
lic	-416
ob	-417
form	-418
ll	-419
▁some	-420
▁k	-421
iss	-422
ording	-423
amp	-424
▁disease	-425
▁being	-426
▁vaccination	-427
mpt	-428
▁days	-429
▁vaccines	-430
ice	-431
lud	-432
▁year	-433
ccording	-434
une	-435
▁report	-436
ich	-437
▁one	-438
▁Health	-439
▁country	-440
▁4	-441
▁gr	-442
▁As	-443
▁if	-444
▁these	-445
▁pos	-446
▁sec	-447
▁av	-448
ult	-449
rent	-450
ious	-451
▁There	-452
aus	-453
ition	-454
mptom	-455
▁resp	-456
▁stud	-457
med	-458
▁need	-459
irst	-460
osed	-461
20	-462
▁ev	-463
ool	-464
▁but	-465
ike	-466
ind	-467
▁On	-468
▁qu	-469
▁How	-470
ors	-471
very	-472
▁which	-473
ress	-474
▁includ	-475
▁Un	-476
▁un	-477
▁district	-478
ame	-479
iven	-480
▁ar	-481
ence	-482
ang	-483
▁reg	-484
▁'	-485
▁they	-486
▁first	-487
ass	-488
▁sit	-489
fe	-490
velop	-491
▁many	-492
▁supp	-493
uring	-494
▁treat	-495
ask	-496
aj	-497
ign	-498
ities	-499
▁child	-500
▁ser	-501
▁found	-502
▁spread	-503
ons	-504
▁may	-505
chool	-506
oll	-507
▁second	-508
ures	-509
▁effect	-510
▁symptom	-511
te	-512
ARS	-513
miss	-514
▁two	-515
▁again	-516
▁get	-517
ace	-518
▁last	-519
▁cases	-520
uation	-521
▁such	-522
▁day	-523
▁ris	-524
▁imp	-525
▁over	-526
▁start	-527
umbai	-528
▁up	-529
▁March	-530
▁St	-531
hief	-532
▁Mumbai	-533
▁symptoms	-534
▁SARS	-535
▁develop	-536
virus	-537
▁rel	-538
▁any	-539
ra	-540
oct	-541
▁2020	-542
▁According	-543
▁ac	-544
▁says	-545
▁Chin	-546
mission	-547
▁pers	-548
▁death	-549
olog	-550
▁due	-551
atory	-552
ok	-553
ade	-554
▁given	-555
esh	-556
han	-557
pril	-558
gan	-559
mer	-560
▁cond	-561
lo	-562
▁sc	-563
▁use	-564
▁contr	-565
▁en	-566
▁avail	-567
▁children	-568
ied	-569
▁am	-570
▁situation	-571
▁treatment	-572
ning	-573
▁mon	-574
▁adm	-575
▁dif	-576
▁prev	-577
▁7	-578
▁trans	-579
ek	-580
ach	-581
stem	-582
▁sur	-583
▁wave	-584
ublic	-585
▁like	-586
▁bec	-587
▁cur	-588
▁6	-589
ree	-590
hed	-591
▁only	-592
ted	-593
▁Chief	-594
ire	-595
▁ant	-596
▁However	-597
▁Covid	-598
day	-599
aw	-600
fore	-601
▁school	-602
▁act	-603
ell	-604
▁prod	-605
▁system	-606
ian	-607
▁offic	-608
rough	-609
▁doct	-610
▁your	-611
▁countries	-612
▁inform	-613
▁We	-614
itiz	-615
▁coronavirus	-616
▁ann	-617
▁available	-618
ced	-619
reak	-620
▁comm	-621
▁pres	-622
▁part	-623
▁infected	-624
ute	-625
▁April	-626
▁Cent	-627
▁If	-628
▁prot	-629
▁world	-630
ational	-631
emb	-632
▁gen	-633
▁What	-634
▁during	-635
ro	-636
▁j	-637
anu	-638
▁cons	-639
▁against	-640
▁8	-641
▁announ	-642
▁-	-643
▁risk	-644
000	-645
ited	-646
▁how	-647
▁inter	-648
▁provid	-649
ove	-650
ject	-651
ident	-652
▁10	-653
▁caus	-654
▁when	-655
hing	-656
icip	-657
▁int	-658
ating	-659
▁used	-660
▁every	-661
▁now	-662
ivir	-663
▁mask	-664
▁while	-665
lect	-666
▁col	-667
▁week	-668
ally	-669
▁bed	-670
▁Pune	-671
▁those	-672
per	-673
▁str	-674
inistr	-675
▁restrict	-676
▁vaccinated	-677
."	-678
▁pol	-679
▁home	-680
-2	-681
▁Af	-682
▁them	-683
▁import	-684
dd	-685
▁care	-686
▁take	-687
we	-688
les	-689
▁9	-690
ody	-691
ting	-692
▁ind	-693
acker	-694
▁taken	-695
ral	-696
▁medical	-697
▁hospitals	-698
ackeray	-699
,000	-700
▁Thackeray	-701
pe	-702
akh	-703
emic	-704
▁ph	-705
▁exper	-706
▁public	-707
▁reported	-708
▁his	-709
owed	-710
▁through	-711
uch	-712
break	-713
ible	-714
▁person	-715
ater	-716
anc	-717
rug	-718
▁add	-719
ility	-720
▁lar	-721
▁outbreak	-722
▁drug	-723
▁made	-724
▁bet	-725
▁rem	-726
▁restrictions	-727
ust	-728
stit	-729
ural	-730
owing	-731
▁China	-732
▁kn	-733
▁its	-734
hav	-735
li	-736
omm	-737
ific	-738
ata	-739
▁beds	-740
▁would	-741
ech	-742
ery	-743
▁disc	-744
ope	-745
▁iss	-746
▁lakh	-747
▁Al	-748
ative	-749
▁So	-750
ices	-751
▁workers	-752
▁red	-753
itive	-754
▁dr	-755
▁patient	-756
▁Sh	-757
▁dep	-758
▁contact	-759
▁current	-760
ish	-761
vers	-762
).	-763
cy	-764
▁even	-765
▁hum	-766
▁including	-767
ials	-768
▁areas	-769
▁covid	-770
▁meet	-771
▁trave	-772
▁Hospital	-773
▁announced	-774
▁Y	-775
▁An	-776
▁soc	-777
▁short	-778
oss	-779
▁Raj	-780
asing	-781
▁requ	-782
icipal	-783
unicipal	-784
als	-785
▁loc	-786
ark	-787
eng	-788
ected	-789
▁month	-790
▁important	-791
ake	-792
aking	-793
▁dem	-794
▁var	-795
▁started	-796
▁high	-797
ms	-798
hen	-799
▁Mod	-800
▁foll	-801
▁information	-802
▁exam	-803
▁most	-804
inistration	-805
ri	-806
ision	-807
▁well	-808
und	-809
▁prevent	-810
▁travel	-811
▁call	-812
▁come	-813
▁years	-814
itizens	-815
lu	-816
▁say	-817
▁same	-818
▁increased	-819
),	-820
ines	-821
▁what	-822
▁affect	-823
▁hig	-824
ential	-825
ying	-826
▁diffe	-827
▁testing	-828
uss	-829
amil	-830
ized	-831
▁che	-832
▁hel	-833
ember	-834
▁poss	-835
▁spec	-836
▁tests	-837
▁closed	-838
ared	-839
▁did	-840
▁our	-841
▁After	-842
▁states	-843
ne	-844
▁level	-845
▁help	-846
▁hour	-847
▁serv	-848
▁doctors	-849
way	-850
arly	-851
other	-852
ned	-853
rit	-854
ings	-855
▁fac	-856
▁respir	-857
▁large	-858
The	-859
ise	-860
ween	-861
uction	-862
▁hands	-863
▁Go	-864
cent	-865
rect	-866
▁then	-867
artment	-868
▁supply	-869
▁few	-870
▁increasing	-871
ank	-872
try	-873
▁body	-874
▁city	-875
▁mill	-876
▁rate	-877
▁positive	-878
▁effective	-879
BC	-880
eral	-881
▁ass	-882
▁crore	-883
▁increase	-884
ince	-885
ven	-886
▁demand	-887
ology	-888
▁between	-889
▁case	-890
▁where	-891
▁control	-892
▁administration	-893
ff	-894
erv	-895
▁ent	-896
▁priv	-897
▁Udd	-898
▁far	-899
▁proc	-900
▁Uddhav	-901
oth	-902
▁lead	-903
▁acc	-904
▁low	-905
▁deaths	-906
ety	-907
ior	-908
ules	-909
▁camp	-910
ucation	-911
▁Center	-912
▁students	-913
▁Del	-914
ganiz	-915
▁Modi	-916
▁2020,	-917
▁comple	-918
▁present	-919
oses	-920
ering	-921
▁quest	-922
app	-923
ird	-924
▁ed	-925
▁cle	-926
▁surve	-927
▁imm	-928
▁data	-929
▁died	-930
▁into	-931
ousand	-932
▁contin	-933
ics	-934
vere	-935
▁att	-936
por	-937
▁age	-938
▁Delhi	-939
pur	-940
▁For	-941
▁very	-942
iod	-943
ness	-944
oved	-945
arant	-946
ended	-947
gency	-948
▁could	-949
▁direct	-950
▁central	-951
▁respiratory	-952
ked	-953
▁ins	-954
▁ord	-955
▁appr	-956
▁does	-957
oup	-958
▁At	-959
tain	-960
▁three	-961
▁around	-962
▁Am	-963
gest	-964
▁before	-965
▁period	-966
▁citizens	-967
▁ke	-968
▁set	-969
▁BBC	-970
▁Com	-971
▁samp	-972
▁fe	-973
unity	-974
old	-975
▁19	-976
aign	-977
ists	-978
▁15	-979
▁crit	-980
▁dose	-981
▁decision	-982
▁op	-983
▁ro	-984
aces	-985
ient	-986
ivers	-987
▁dist	-988
anuary	-989
ik	-990
▁UK	-991
▁emer	-992
▁meas	-993
▁rece	-994
▁doses	-995
▁thousand	-996
ick	-997
ves	-998
▁man	-999
entil	-1000
▁million	-1001
▁decl	-1002
▁severe	-1003
▁campaign	-1004
ised	-1005
▁issu	-1006
▁Prime	-1007
▁meeting	-1008
▁conf	-1009
stitute	-1010
▁social	-1011
oid	-1012
▁ob	-1013
▁inv	-1014
▁These	-1015
▁coron	-1016
▁recomm	-1017
▁without	-1018
get	-1019
uce	-1020
ause	-1021
ered	-1022
▁clos	-1023
▁Or	-1024
▁pro	-1025
▁prop	-1026
▁hours	-1027
▁private	-1028
▁different	-1029
xt	-1030
▁te	-1031
idence	-1032
▁Nag	-1033
ha	-1034
ric	-1035
itted	-1036
mp	-1037
its	-1038
▁est	-1039
▁lab	-1040
▁pass	-1041
▁12	-1042
▁plan	-1043
▁tested	-1044
▁January	-1045
▁allowed	-1046
▁May	-1047
▁inf	-1048
▁famil	-1049
▁ventil	-1050
alk	-1051
▁Bi	-1052
iate	-1053
eb	-1054
apid	-1055
▁rese	-1056
▁United	-1057
▁working	-1058
▁possible	-1059
iew	-1060
▁Rs	-1061
▁sm	-1062
inical	-1063
▁rules	-1064
▁percent	-1065
ung	-1066
HO	-1067
ages	-1068
▁Of	-1069
▁vir	-1070
▁make	-1071
▁Vaccin	-1072
ug	-1073
▁50	-1074
ators	-1075
ution	-1076
▁washing	-1077
cer	-1078
opul	-1079
▁open	-1080
▁antib	-1081
▁Institute	-1082
ebru	-1083
▁group	-1084
ebruary	-1085
▁schools	-1086
ax	-1087
uced	-1088
▁Wor	-1089
ments	-1090
▁rapid	-1091
ys	-1092
lood	-1093
▁sub	-1094
▁Municipal	-1095
ix	-1096
eld	-1097
esp	-1098
ron	-1099
▁des	-1100
ality	-1101
▁long	-1102
▁prob	-1103
▁quarant	-1104
▁bo	-1105
▁sim	-1106
▁They	-1107
ically	-1108
▁local	-1109
▁24	-1110
▁study	-1111
ganization	-1112
▁Government	-1113
kar	-1114
oin	-1115
▁11	-1116
▁Bh	-1117
aren	-1118
ason	-1119
ired	-1120
▁main	-1121
▁States	-1122
▁center	-1123
▁February	-1124
rap	-1125
▁Ad	-1126
▁Some	-1127
▁back	-1128
▁ext	-1129
▁Many	-1130
andemic	-1131
mediate	-1132
▁14	-1133
▁gu	-1134
▁Med	-1135
▁area	-1136
▁popul	-1137
ination	-1138
▁discuss	-1139
▁whether	-1140
▁shortage	-1141
uk	-1142
ien	-1143
ially	-1144
▁called	-1145
▁company	-1146
arr	-1147
line	-1148
ross	-1149
arket	-1150
▁down	-1151
▁addition	-1152
▁developed	-1153
▁Spe	-1154
▁air	-1155
▁lim	-1156
▁less	-1157
▁vill	-1158
▁Speaking	-1159
▁affected	-1160
▁adv	-1161
▁pandemic	-1162
ood	-1163
tal	-1164
▁co	-1165
▁Union	-1166
▁human	-1167
▁using	-1168
illance	-1169
▁education	-1170
▁ty	-1171
onom	-1172
▁held	-1173
▁lear	-1174
▁masks	-1175
▁rural	-1176
▁regard	-1177
oh	-1178
ale	-1179
ces	-1180
▁hy	-1181
ults	-1182
orpor	-1183
ention	-1184
esivir	-1185
▁blood	-1186
▁protect	-1187
▁30	-1188
lement	-1189
▁because	-1190
ram	-1191
▁ep	-1192
ived	-1193
outh	-1194
▁rele	-1195
▁seen	-1196
itions	-1197
▁across	-1198
▁gl	-1199
ives	-1200
▁fact	-1201
▁still	-1202
▁measures	-1203
▁department	-1204
▁bat	-1205
▁don	-1206
▁since	-1207
▁total	-1208
▁months	-1209
oci	-1210
▁ill	-1211
▁occ	-1212
▁much	-1213
▁remed	-1214
▁transmission	-1215
me	-1216
urs	-1217
▁wom	-1218
odies	-1219
▁both	-1220
▁done	-1221
▁stop	-1222
▁Therefore	-1223
ink	-1224
loy	-1225
ange	-1226
ouse	-1227
▁Mar	-1228
▁result	-1229
▁process	-1230
ev	-1231
owd	-1232
▁Me	-1233
▁lo	-1234
-19.	-1235
▁four	-1236
▁heart	-1237
▁Rajesh	-1238
▁clinical	-1239
ah	-1240
ars	-1241
▁18	-1242
ined	-1243
ovac	-1244
▁among	-1245
▁today	-1246
▁conduct	-1247
▁include	-1248
▁Tr	-1249
▁prog	-1250
▁chang	-1251
▁provide	-1252
▁currently	-1253
CE	-1254
par	-1255
▁Ser	-1256
▁cre	-1257
▁Kovid	-1258
▁places	-1259
▁proble	-1260
ful	-1261
ops	-1262
▁Se	-1263
ants	-1264
▁end	-1265
▁mod	-1266
ified	-1267
▁find	-1268
▁going	-1269
▁sever	-1270
▁production	-1271
ins	-1272
ten	-1273
fact	-1274
imes	-1275
onse	-1276
▁Con	-1277
▁medic	-1278
▁contain	-1279
▁Ministry	-1280
▁sent	-1281
▁soap	-1282
urther	-1283
▁Nagpur	-1284
▁taking	-1285
orporation	-1286
▁emergency	-1287
▁Dep	-1288
▁WHO	-1289
▁him	-1290
truct	-1291
▁avoid	-1292
▁third	-1293
▁diffic	-1294
▁implement	-1295
cept	-1296
▁Rem	-1297
▁sus	-1298
▁epid	-1299
▁next	-1300
▁till	-1301
▁higher	-1302
▁market	-1303
▁surveillance	-1304
led	-1305
▁1.	-1306
▁det	-1307
▁train	-1308
▁inject	-1309
▁samples	-1310
▁question	-1311
▁difficult	-1312
wn	-1313
hes	-1314
leg	-1315
ret	-1316
▁cap	-1317
▁When	-1318
atives	-1319
▁known	-1320
iving	-1321
▁HCoV	-1322
ovacin	-1323
▁World	-1324
▁asked	-1325
▁issued	-1326
▁imposed	-1327
▁IC	-1328
ters	-1329
▁know	-1330
▁pract	-1331
▁population	-1332
▁met	-1333
▁Tope	-1334
▁cell	-1335
▁five	-1336
▁stat	-1337
▁place	-1338
▁doctor	-1339
essential	-1340
▁according	-1341
▁conditions	-1342
alf	-1343
▁All	-1344
▁cris	-1345
▁sign	-1346
anufact	-1347
▁research	-1348
▁response	-1349
uth	-1350
▁tem	-1351
▁isol	-1352
▁another	-1353
▁experts	-1354
▁complete	-1355
SC	-1356
ory	-1357
▁Ex	-1358
▁New	-1359
▁happ	-1360
▁State	-1361
▁become	-1362
▁remain	-1363
iversity	-1364
aly	-1365
ual	-1366
▁emp	-1367
▁min	-1368
▁stay	-1369
▁cause	-1370
▁fight	-1371
▁house	-1372
▁serious	-1373
▁support	-1374
▁Commission	-1375
aff	-1376
ane	-1377
▁Gu	-1378
ided	-1379
▁ret	-1380
▁fire	-1381
▁keep	-1382
▁told	-1383
though	-1384
▁crisis	-1385
▁Col	-1386
▁Prad	-1387
▁susp	-1388
▁fever	-1389
▁likely	-1390
▁further	-1391
▁approved	-1392
▁immediate	-1393
anj	-1394
▁bu	-1395
▁ec	-1396
care	-1397
tern	-1398
lying	-1399
▁post	-1400
▁crowd	-1401
▁Indian	-1402
▁services	-1403
ese	-1404
ork	-1405
▁bl	-1406
▁sl	-1407
▁good	-1408
▁vari	-1409
▁early	-1410
▁trials	-1411
▁br	-1412
cing	-1413
fort	-1414
here	-1415
▁200	-1416
▁Serum	-1417
▁regul	-1418
▁small	-1419
▁staff	-1420
▁family	-1421
▁ter	-1422
▁yet	-1423
▁guid	-1424
▁facil	-1425
▁ident	-1426
▁least	-1427
▁rapidly	-1428
▁manufact	-1429
▁Organization	-1430
▁form	-1431
▁lung	-1432
▁water	-1433
▁concer	-1434
▁confir	-1435
▁continue	-1436
▁coronary	-1437
▁infections	-1438
CR	-1439
aim	-1440
ues	-1441
ilar	-1442
wide	-1443
▁mut	-1444
ather	-1445
▁phase	-1446
▁police	-1447
▁Chinese	-1448
▁Corporation	-1449
wh	-1450
▁US	-1451
▁my	-1452
echn	-1453
▁And	-1454
ecess	-1455
uthor	-1456
▁anim	-1457
▁admitted	-1458
obal	-1459
▁sug	-1460
▁econom	-1461
▁strain	-1462
▁centers	-1463
▁University	-1464
▁Fr	-1465
fety	-1466
uhan	-1467
▁rep	-1468
▁face	-1469
go	-1470
▁Z	-1471
els	-1472
▁cy	-1473
▁run	-1474
ience	-1475
▁breat	-1476
▁proper	-1477
▁reduce	-1478
▁various	-1479
▁closures	-1480
▁condition	-1481
▁essential	-1482
sp	-1483
lis	-1484
▁Is	-1485
▁fl	-1486
oung	-1487
▁hot	-1488
▁Bhar	-1489
▁labor	-1490
▁prote	-1491
▁ve	-1492
hest	-1493
▁Dis	-1494
aving	-1495
▁sect	-1496
arents	-1497
▁media	-1498
▁.	-1499
ajor	-1500
▁arr	-1501
▁let	-1502
▁non	-1503
▁vis	-1504
▁Offic	-1505
▁weeks	-1506
▁People	-1507
▁distance	-1508
tt	-1509
aid	-1510
ured	-1511
view	-1512
▁Res	-1513
▁Sat	-1514
▁beg	-1515
▁flu	-1516
▁san	-1517
based	-1518
▁each	-1519
▁major	-1520
ibility	-1521
▁epidemic	-1522
ERS	-1523
sel	-1524
▁16	-1525
ndra	-1526
aring	-1527
ining	-1528
▁init	-1529
▁read	-1530
engers	-1531
▁monit	-1532
▁common	-1533
▁Pradesh	-1534
▁getting	-1535
▁transport	-1536
NA	-1537
aily	-1538
avati	-1539
ently	-1540
▁lack	-1541
lished	-1542
▁based	-1543
▁claim	-1544
▁polit	-1545
▁within	-1546
ma	-1547
agn	-1548
ote	-1549
abad	-1550
▁Cov	-1551
▁fin	-1552
▁six	-1553
iness	-1554
▁minis	-1555
▁women	-1556
arendra	-1557
▁coming	-1558
▁compan	-1559
air	-1560
ends	-1561
omes	-1562
▁Dec	-1563
acity	-1564
▁June	-1565
▁pain	-1566
▁class	-1567
▁caused	-1568
▁immune	-1569
▁similar	-1570
▁suggest	-1571
▁community	-1572
JP	-1573
ite	-1574
nal	-1575
not	-1576
▁Re	-1577
athi	-1578
▁obs	-1579
▁Wuhan	-1580
▁Medical	-1581
▁collect	-1582
▁Narendra	-1583
wal	-1584
▁sw	-1585
▁neg	-1586
▁ref	-1587
▁head	-1588
▁cough	-1589
▁touch	-1590
▁follow	-1591
▁decided	-1592
▁parents	-1593
oub	-1594
til	-1595
▁Sp	-1596
aled	-1597
ustr	-1598
▁ben	-1599
▁big	-1600
rence	-1601
ually	-1602
▁chall	-1603
▁retur	-1604
▁highest	-1605
▁several	-1606
▁village	-1607
▁capacity	-1608
▁required	-1609
acy	-1610
eet	-1611
ards	-1612
trib	-1613
▁Pre	-1614
▁Also	-1615
▁close	-1616
▁press	-1617
▁respons	-1618
hers	-1619
land	-1620
▁Paw	-1621
▁Sec	-1622
▁own	-1623
▁2019	-1624
▁Biot	-1625
ravati	-1626
▁influ	-1627
▁employ	-1628
▁effects	-1629
▁related	-1630
▁expected	-1631
▁companies	-1632
▁antibodies	-1633
atic	-1634
neum	-1635
▁BJP	-1636
▁bus	-1637
▁she	-1638
iting	-1639
▁cold	-1640
▁Remed	-1641
▁chest	-1642
▁daily	-1643
ability	-1644
▁others	-1645
▁project	-1646
▁Although	-1647
▁received	-1648
▁conducted	-1649
▁underlying	-1650
hy	-1651
ns	-1652
up	-1653
ption	-1654
▁able	-1655
▁order	-1656
▁stand	-1657
▁cannot	-1658
▁safety	-1659
▁diseases	-1660
▁evidence	-1661
▁confirmed	-1662
anwh	-1663
▁Eur	-1664
▁Pol	-1665
▁spe	-1666
▁here	-1667
▁estim	-1668
▁gener	-1669
▁tweet	-1670
▁young	-1671
anwhile	-1672
▁necess	-1673
▁distrib	-1674
▁results	-1675
▁development	-1676
21	-1677
▁RT	-1678
-19,	-1679
ivid	-1680
side	-1681
▁ICU	-1682
ature	-1683
hield	-1684
▁MERS	-1685
▁cour	-1686
▁half	-1687
elines	-1688
▁activ	-1689
▁cance	-1690
▁night	-1691
▁global	-1692
▁Marathi	-1693
▁growing	-1694
▁viruses	-1695
ife	-1696
wad	-1697
▁tal	-1698
▁Even	-1699
▁Pawar	-1700
▁South	-1701
▁lives	-1702
▁pneum	-1703
▁humans	-1704
▁reason	-1705
▁scient	-1706
▁Amravati	-1707
▁provided	-1708
▁relatives	-1709
▁quarantine	-1710
ford	-1711
oint	-1712
rest	-1713
▁her	-1714
▁give	-1715
▁Bharat	-1716
▁Europe	-1717
▁action	-1718
▁ventilators	-1719
na	-1720
ism	-1721
▁1,	-1722
ount	-1723
▁Gen	-1724
▁ful	-1725
▁pot	-1726
▁why	-1727
▁clean	-1728
ecially	-1729
▁cities	-1730
▁invest	-1731
▁instruct	-1732
▁districts	-1733
ry	-1734
iqu	-1735
ians	-1736
osis	-1737
▁100	-1738
▁She	-1739
▁You	-1740
going	-1741
▁look	-1742
▁show	-1743
▁want	-1744
ressed	-1745
▁Italy	-1746
▁store	-1747
▁active	-1748
▁online	-1749
▁Biotech	-1750
▁persons	-1751
▁national	-1752
▁Meanwhile	-1753
icy	-1754
man	-1755
tle	-1756
▁No	-1757
ohol	-1758
onia	-1759
▁Ass	-1760
▁see	-1761
▁war	-1762
▁way	-1763
▁came	-1764
▁chec	-1765
▁needs	-1766
▁shops	-1767
istered	-1768
▁though	-1769
especially	-1770
▁spreading	-1771
,"	-1772
ims	-1773
▁25	-1774
▁sen	-1775
▁orig	-1776
ending	-1777
idered	-1778
istics	-1779
▁While	-1780
▁acute	-1781
▁think	-1782
▁National	-1783
▁facilities	-1784
▁registered	-1785
DC	-1786
za	-1787
PCR	-1788
▁off	-1789
▁mort	-1790
▁stock	-1791
▁outside	-1792
▁everyone	-1793
▁especially	-1794
We	-1795
ana	-1796
izer	-1797
ront	-1798
▁cod	-1799
▁prom	-1800
▁took	-1801
▁taluk	-1802
▁times	-1803
▁strict	-1804
▁problems	-1805
▁municipal	-1806
▁immediately	-1807
oon	-1808
ped	-1809
▁To	-1810
ling	-1811
▁Why	-1812
acter	-1813
cohol	-1814
▁away	-1815
▁oper	-1816
▁reco	-1817
▁seem	-1818
▁sequ	-1819
overed	-1820
▁happen	-1821
▁influen	-1822
▁monitor	-1823
▁perform	-1824
▁potential	-1825
uty	-1826
▁17	-1827
▁ca	-1828
▁ur	-1829
▁Pat	-1830
ached	-1831
▁room	-1832
▁safe	-1833
▁clear	-1834
▁decre	-1835
▁needed	-1836
▁individ	-1837
▁program	-1838
▁service	-1839
▁December	-1840
▁officials	-1841
▁considered	-1842
ara	-1843
▁Do	-1844
lain	-1845
ular	-1846
▁cost	-1847
▁jour	-1848
ensive	-1849
▁prior	-1850
▁techn	-1851
▁author	-1852
▁sanitiz	-1853
▁following	-1854
ym	-1855
▁Ar	-1856
▁De	-1857
fizer	-1858
▁path	-1859
retary	-1860
▁diagn	-1861
▁reach	-1862
▁viral	-1863
ological	-1864
▁released	-1865
▁necessary	-1866
▁31	-1867
apur	-1868
etic	-1869
▁CoV	-1870
▁kill	-1871
▁During	-1872
▁Pfizer	-1873
▁illness	-1874
▁negative	-1875
ala	-1876
▁40	-1877
▁aw	-1878
arli	-1879
▁Kar	-1880
▁tre	-1881
acted	-1882
ights	-1883
alking	-1884
utions	-1885
▁Contr	-1886
▁School	-1887
▁review	-1888
▁influenza	-1889
.5	-1890
hod	-1891
lor	-1892
war	-1893
▁60	-1894
▁Now	-1895
▁Utt	-1896
▁equ	-1897
▁host	-1898
▁just	-1899
▁estab	-1900
▁applic	-1901
▁enough	-1902
▁letter	-1903
▁special	-1904
▁pneumonia	-1905
▁recommended	-1906
CG	-1907
cr	-1908
▁Ph	-1909
▁ra	-1910
▁sol	-1911
▁2021	-1912
▁Sing	-1913
▁card	-1914
▁appro	-1915
ptember	-1916
▁appear	-1917
▁having	-1918
▁mortality	-1919
cl	-1920
sw	-1921
▁0	-1922
▁z	-1923
hip	-1924
nes	-1925
▁pm	-1926
▁pub	-1927
▁disp	-1928
▁mild	-1929
▁writ	-1930
▁issue	-1931
▁leaders	-1932
▁informed	-1933
▁declining	-1934
▁guidelines	-1935
ateg	-1936
▁typ	-1937
▁appe	-1938
▁free	-1939
▁task	-1940
▁Uttar	-1941
▁means	-1942
▁change	-1943
▁origin	-1944
▁investig	-1945
▁learning	-1946
▁regarding	-1947
▁Remedesivir	-1948
ft	-1949
gr	-1950
iat	-1951
ily	-1952
▁13	-1953
▁Ab	-1954
iday	-1955
lder	-1956
term	-1957
uals	-1958
▁ACE	-1959
▁One	-1960
▁mat	-1961
▁pur	-1962
ndrom	-1963
ories	-1964
xford	-1965
▁Pres	-1966
▁check	-1967
▁force	-1968
▁until	-1969
▁levels	-1970
▁employe	-1971
▁questions	-1972
cle	-1973
reg	-1974
▁21	-1975
▁22	-1976
pite	-1977
▁fun	-1978
▁food	-1979
▁tank	-1980
infect	-1981
▁cells	-1982
▁drugs	-1983
▁elect	-1984
▁later	-1985
▁consid	-1986
▁method	-1987
▁taluka	-1988
▁covacin	-1989
▁general	-1990
ead	-1991
ved	-1992
▁23	-1993
lied	-1994
▁Sur	-1995
▁ban	-1996
▁del	-1997
ances	-1998
ccess	-1999
endra	-2000
▁carr	-2001
▁type	-2002
▁wash	-2003
▁front	-2004
▁invol	-2005
▁intern	-2006
▁implemented	-2007
kn	-2008
ada	-2009
elf	-2010
▁Aj	-2011
▁En	-2012
▁po	-2013
less	-2014
▁lot	-2015
▁pay	-2016
irect	-2017
▁sing	-2018
▁great	-2019
▁Oxford	-2020
▁temper	-2021
▁business	-2022
▁September	-2023
▁experience	-2024
▁passengers	-2025
set	-2026
▁28	-2027
▁45	-2028
enec	-2029
ising	-2030
▁Brit	-2031
▁Pati	-2032
▁fear	-2033
ndrome	-2034
ymptom	-2035
▁above	-2036
▁began	-2037
▁examp	-2038
ishield	-2039
▁observ	-2040
▁record	-2041
▁Central	-2042
▁District	-2043
▁critical	-2044
▁Vaccination	-2045
▁examination	-2046
'.	-2047
az	-2048
the	-2049
ashi	-2050
lege	-2051
▁Ram	-2052
▁cer	-2053
▁dev	-2054
▁par	-2055
ready	-2056
▁grow	-2057
ancial	-2058
▁might	-2059
ificant	-2060
osition	-2061
▁preval	-2062
▁already	-2063
▁demanded	-2064
▁healthcare	-2065
ty	-2066
arb	-2067
kin	-2068
ule	-2069
▁la	-2070
ogen	-2071
▁201	-2072
▁Can	-2073
▁mor	-2074
ately	-2075
ustry	-2076
▁full	-2077
▁prep	-2078
▁sick	-2079
▁step	-2080
action	-2081
▁2020.	-2082
▁shown	-2083
▁senior	-2084
▁alcohol	-2085
▁completely	-2086
mb	-2087
con	-2088
ela	-2089
few	-2090
▁Tw	-2091
ield	-2092
traZ	-2093
eneca	-2094
▁feel	-2095
▁mult	-2096
▁genome	-2097
▁reserv	-2098
▁single	-2099
▁isolation	-2100
▁political	-2101
▁published	-2102
▁worldwide	-2103
▁Department	-2104
▁significant	-2105
▁/	-2106
erm	-2107
nav	-2108
▁Di	-2109
itte	-2110
umar	-2111
▁RNA	-2112
▁fig	-2113
▁lit	-2114
asons	-2115
osure	-2116
▁More	-2117
▁deli	-2118
▁side	-2119
▁toll	-2120
▁Resear	-2121
▁critic	-2122
▁journal	-2123
▁reached	-2124
traZeneca	-2125
HE	-2126
In	-2127
rs	-2128
idd	-2129
ium	-2130
ump	-2131
▁Sc	-2132
uted	-2133
▁Fad	-2134
▁opp	-2135
▁put	-2136
navis	-2137
▁bats	-2138
▁fill	-2139
▁mand	-2140
▁news	-2141
▁soon	-2142
▁team	-2143
▁vict	-2144
▁often	-2145
▁rates	-2146
▁separ	-2147
▁office	-2148
▁survey	-2149
▁things	-2150
▁trying	-2151
▁example	-2152
▁numbers	-2153
▁reduced	-2154
▁success	-2155
▁Fadnavis	-2156
▁maintain	-2157
▁minister	-2158
▁planning	-2159
▁produced	-2160
▁underway	-2161
▁President	-2162
▁practices	-2163
arc	-2164
ocol	-2165
utes	-2166
work	-2167
▁anti	-2168
▁must	-2169
▁nurs	-2170
▁once	-2171
▁past	-2172
▁soci	-2173
▁alleg	-2174
▁Public	-2175
▁effort	-2176
▁partic	-2177
▁therap	-2178
▁reasons	-2179
▁Lockdown	-2180
▁Patients	-2181
".	-2182
edd	-2183
vir	-2184
▁70	-2185
gien	-2186
itis	-2187
▁Man	-2188
▁Son	-2189
▁dry	-2190
ening	-2191
▁Home	-2192
▁prim	-2193
ricult	-2194
▁begin	-2195
▁benef	-2196
▁build	-2197
▁right	-2198
▁offices	-2199
▁statement	-2200
▁laboratory	-2201
▁statistics	-2202
▁instructions	-2203
bo	-2204
ged	-2205
▁80	-2206
▁Ag	-2207
▁pe	-2208
▁wa	-2209
aper	-2210
like	-2211
lish	-2212
▁too	-2213
aster	-2214
ittee	-2215
▁High	-2216
▁chain	-2217
▁exams	-2218
▁organ	-2219
▁trial	-2220
▁curfew	-2221
▁changes	-2222
▁require	-2223
▁victims	-2224
▁industry	-2225
▁syndrome	-2226
▁discussed	-2227
▁developing	-2228
▁individuals	-2229
CGP	-2230
lam	-2231
lim	-2232
self	-2233
tric	-2234
year	-2235
▁Ajit	-2236
▁date	-2237
▁suff	-2238
▁view	-2239
arlier	-2240
agement	-2241
▁causes	-2242
ociation	-2243
▁immunity	-2244
▁previous	-2245
▁suspected	-2246
▁vaccinate	-2247
▁infectious	-2248
PE	-2249
hea	-2250
irc	-2251
lec	-2252
part	-2253
▁Par	-2254
acing	-2255
▁That	-2256
▁fore	-2257
▁inst	-2258
▁left	-2259
▁phys	-2260
▁rest	-2261
▁went	-2262
▁Chand	-2263
▁Other	-2264
▁equip	-2265
▁regis	-2266
▁waste	-2267
▁Direct	-2268
▁animal	-2269
▁commun	-2270
▁hygien	-2271
▁impact	-2272
▁limited	-2273
▁reports	-2274
▁variant	-2275
▁directly	-2276
▁exposure	-2277
▁employees	-2278
▁incidence	-2279
▁coronaviruses	-2280
gn	-2281
ox	-2282
pl	-2283
alg	-2284
ani	-2285
agar	-2286
ande	-2287
ffic	-2288
▁ens	-2289
andid	-2290
unday	-2291
▁Drug	-2292
▁Kumb	-2293
▁name	-2294
▁role	-2295
▁Deputy	-2296
▁entire	-2297
▁stopped	-2298
▁breathing	-2299
aik	-2300
hat	-2301
hic	-2302
▁Ra	-2303
▁Not	-2304
▁bas	-2305
▁tow	-2306
▁Cong	-2307
▁Cons	-2308
▁Mela	-2309
▁Russ	-2310
▁circ	-2311
▁doub	-2312
▁life	-2313
▁Kumbh	-2314
▁Thane	-2315
ference	-2316
▁Police	-2317
▁candid	-2318
▁sector	-2319
▁sequen	-2320
▁General	-2321
▁Vaccine	-2322
▁created	-2323
▁Secretary	-2324
▁financial	-2325
▁president	-2326
▁injections	-2327
▁governments	-2328
io	-2329
ern	-2330
ify	-2331
ize	-2332
▁90	-2333
▁Ed	-2334
aged	-2335
enge	-2336
harm	-2337
ideo	-2338
pted	-2339
▁RSC	-2340
ction	-2341
▁RCGP	-2342
▁answ	-2343
▁nose	-2344
▁surf	-2345
▁diarr	-2346
▁onset	-2347
ociated	-2348
▁Friday	-2349
▁produce	-2350
▁Congress	-2351
▁families	-2352
▁followed	-2353
▁expressed	-2354
▁permission	-2355
▁Commissioner	-2356
▁2.	-2357
▁26	-2358
used	-2359
▁cor	-2360
▁job	-2361
▁mic	-2362
anger	-2363
awala	-2364
▁Care	-2365
▁Dise	-2366
▁With	-2367
▁diab	-2368
▁miss	-2369
ession	-2370
▁Kumar	-2371
▁lower	-2372
▁occur	-2373
iveness	-2374
▁Sunday	-2375
▁leader	-2376
▁season	-2377
▁strateg	-2378
▁economic	-2379
▁equipment	-2380
▁effectiveness	-2381
br	-2382
yn	-2383
der	-2384
ets	-2385
iot	-2386
▁Hy	-2387
▁Sa	-2388
▁ce	-2389
ense	-2390
loro	-2391
omet	-2392
▁CDC	-2393
asion	-2394
uture	-2395
verse	-2396
▁Comm	-2397
▁Shiv	-2398
▁kits	-2399
▁reli	-2400
gether	-2401
ources	-2402
▁Afric	-2403
▁board	-2404
▁effic	-2405
▁parts	-2406
▁ensure	-2407
▁studies	-2408
▁announce	-2409
▁pressure	-2410
▁specific	-2411
▁together	-2412
ymptomatic	-2413
▁challenge	-2414
▁undergoing	-2415
▁authorities	-2416
of	-2417
fer	-2418
hib	-2419
orn	-2420
ched	-2421
clud	-2422
▁App	-2423
▁fre	-2424
inary	-2425
quine	-2426
thing	-2427
▁Kore	-2428
▁Most	-2429
▁Only	-2430
▁aver	-2431
▁impr	-2432
▁laun	-2433
▁move	-2434
urrent	-2435
▁Patil	-2436
▁relig	-2437
▁track	-2438
▁video	-2439
▁became	-2440
▁future	-2441
▁raised	-2442
▁genetic	-2443
loroquine	-2444
▁official	-2445
▁protocol	-2446
▁mandatory	-2447
▁temperature	-2448
mon	-2449
rop	-2450
▁(1	-2451
▁Vas	-2452
▁ago	-2453
ashik	-2454
enstr	-2455
▁Will	-2456
▁fail	-2457
▁memb	-2458
▁prof	-2459
▁real	-2460
▁mater	-2461
▁postp	-2462
▁pregn	-2463
▁Nashik	-2464
▁design	-2465
▁events	-2466
▁groups	-2467
▁Control	-2468
▁figures	-2469
▁protein	-2470
▁systems	-2471
▁wearing	-2472
formation	-2473
▁Research	-2474
▁agricult	-2475
▁controls	-2476
▁occasion	-2477
▁Education	-2478
▁Covishield	-2479
▁Association	-2480
▁international	-2481
%)	-2482
for	-2483
oke	-2484
orr	-2485
▁29	-2486
etes	-2487
▁PPE	-2488
anjay	-2489
ental	-2490
ormal	-2491
▁Sonu	-2492
▁bring	-2493
▁exact	-2494
▁novel	-2495
▁access	-2496
▁danger	-2497
▁matter	-2498
▁nurses	-2499
▁animals	-2500
▁hygiene	-2501
▁ordered	-2502
▁recovered	-2503
▁ventilator	-2504
▁containment	-2505
ij	-2506
ya	-2507
ner	-2508
▁2,	-2509
▁Cl	-2510
▁et	-2511
ises	-2512
ital	-2513
lind	-2514
oper	-2515
▁Due	-2516
▁Sol	-2517
▁got	-2518
▁mob	-2519
stant	-2520
urity	-2521
where	-2522
▁gone	-2523
elling	-2524
mitted	-2525
▁Since	-2526
▁ready	-2527
▁Oxygen	-2528
▁cylind	-2529
▁issues	-2530
▁Disease	-2531
▁antivir	-2532
▁declared	-2533
▁extended	-2534
▁medicine	-2535
▁attention	-2536
▁injection	-2537
▁quarantined	-2538
bs	-2539
ez	-2540
arm	-2541
ogn	-2542
ots	-2543
▁Ak	-2544
come	-2545
ened	-2546
▁Don	-2547
▁beh	-2548
usion	-2549
▁hist	-2550
▁mind	-2551
▁rise	-2552
▁slow	-2553
etwork	-2554
▁indic	-2555
▁limit	-2556
vention	-2557
▁produc	-2558
▁saying	-2559
▁Collect	-2560
▁factors	-2561
▁largest	-2562
▁problem	-2563
▁tweeted	-2564
▁director	-2565
▁particip	-2566
▁recommends	-2567
-1	-2568
MR	-2569
to	-2570
abin	-2571
amin	-2572
avir	-2573
ourt	-2574
ower	-2575
▁hit	-2576
▁tar	-2577
▁tur	-2578
▁CoVs	-2579
▁bill	-2580
▁conn	-2581
▁wear	-2582
▁Court	-2583
▁alone	-2584
▁leave	-2585
▁bacter	-2586
▁policy	-2587
▁prepar	-2588
urrently	-2589
▁claimed	-2590
▁primary	-2591
▁society	-2592
▁European	-2593
▁diabetes	-2594
▁included	-2595
▁identified	-2596
▁prevalence	-2597
▁sequencing	-2598
▁AstraZeneca	-2599
2,	-2600
ph	-2601
▁Av	-2602
▁By	-2603
▁Ke	-2604
ners	-2605
▁Dev	-2606
▁Mal	-2607
April	-2608
▁Doct	-2609
▁fund	-2610
▁late	-2611
▁self	-2612
▁teac	-2613
▁Vasai	-2614
▁added	-2615
▁types	-2616
▁vehic	-2617
istance	-2618
▁instit	-2619
▁proced	-2620
▁remedic	-2621
▁Director	-2622
▁appealed	-2623
▁experien	-2624
▁antiviral	-2625
▁asymptomatic	-2626
50	-2627
erc	-2628
iol	-2629
ple	-2630
ably	-2631
cies	-2632
▁Eng	-2633
▁Vir	-2634
▁def	-2635
▁enc	-2636
engal	-2637
▁gave	-2638
▁list	-2639
ection	-2640
▁along	-2641
▁chief	-2642
▁seems	-2643
areness	-2644
▁contag	-2645
▁killed	-2646
▁little	-2647
▁average	-2648
▁cancell	-2649
▁morning	-2650
▁researc	-2651
▁diarrhea	-2652
▁suggested	-2653
▁scientists	-2654
▁manufacture	-2655
▁vaccinations	-2656
DA	-2657
bul	-2658
ran	-2659
amed	-2660
arsh	-2661
iver	-2662
neez	-2663
ored	-2664
roat	-2665
▁Our	-2666
▁bur	-2667
▁dom	-2668
aries	-2669
leges	-2670
▁Pass	-2671
▁West	-2672
▁clar	-2673
▁comb	-2674
▁intr	-2675
▁skin	-2676
ancing	-2677
iatric	-2678
▁Every	-2679
▁Exper	-2680
▁HCoVs	-2681
▁enter	-2682
▁exist	-2683
▁hotel	-2684
▁sneez	-2685
ization	-2686
▁Bengal	-2687
▁menstr	-2688
▁changed	-2689
▁concern	-2690
▁continu	-2691
▁compared	-2692
▁mutation	-2693
▁observed	-2694
▁pathogen	-2695
▁standard	-2696
▁beginning	-2697
▁medicines	-2698
▁difficulty	-2699
▁application	-2700
▁distribution	-2701
LA	-2702
ca	-2703
adi	-2704
ari	-2705
raz	-2706
yes	-2707
▁wr	-2708
greg	-2709
ober	-2710
▁Add	-2711
▁Rah	-2712
▁fil	-2713
▁nat	-2714
▁upd	-2715
razil	-2716
▁Comp	-2717
▁Palg	-2718
▁hard	-2719
▁liqu	-2720
▁live	-2721
▁lost	-2722
▁surg	-2723
▁tour	-2724
▁About	-2725
▁Singh	-2726
▁allow	-2727
▁lungs	-2728
▁sched	-2729
gencies	-2730
▁Brazil	-2731
▁adults	-2732
▁advice	-2733
▁assess	-2734
▁except	-2735
▁stages	-2736
▁target	-2737
▁College	-2738
▁Officer	-2739
▁Palghar	-2740
▁treated	-2741
▁written	-2742
▁Collector	-2743
▁diagnosed	-2744
▁estimated	-2745
II	-2746
com	-2747
ica	-2748
uge	-2749
ush	-2750
crib	-2751
inal	-2752
most	-2753
uman	-2754
▁MLA	-2755
▁eas	-2756
▁law	-2757
ivity	-2758
oving	-2759
urday	-2760
▁From	-2761
▁inte	-2762
▁mean	-2763
▁sche	-2764
ashing	-2765
endent	-2766
▁Austr	-2767
▁steps	-2768
▁Office	-2769
▁amount	-2770
▁sample	-2771
▁Britain	-2772
▁however	-2773
▁product	-2774
▁talking	-2775
▁tracing	-2776
▁establish	-2777
▁associated	-2778
▁possibility	-2779
▁hospitalized	-2780
aur	-2781
jar	-2782
▁el	-2783
▁er	-2784
iple	-2785
oday	-2786
umbo	-2787
▁Des	-2788
▁PHE	-2789
▁sal	-2790
aging	-2791
arsha	-2792
▁Germ	-2793
▁play	-2794
▁prov	-2795
▁save	-2796
▁tend	-2797
▁mouth	-2798
▁seven	-2799
▁somet	-2800
▁takes	-2801
itation	-2802
▁France	-2803
▁Varsha	-2804
▁living	-2805
▁making	-2806
▁status	-2807
▁throat	-2808
▁Germany	-2809
▁advised	-2810
▁certain	-2811
▁efforts	-2812
▁flights	-2813
▁history	-2814
▁officer	-2815
▁organiz	-2816
▁antibody	-2817
▁challeng	-2818
▁prepared	-2819
▁recommend	-2820
▁religious	-2821
▁remedivir	-2822
adu	-2823
ban	-2824
▁27	-2825
▁Im	-2826
adhy	-2827
oshi	-2828
oval	-2829
▁Joh	-2830
▁car	-2831
▁men	-2832
ograp	-2833
stand	-2834
urang	-2835
viron	-2836
▁Emer	-2837
atform	-2838
ctober	-2839
undred	-2840
▁Joshi	-2841
▁Korea	-2842
▁RTPCR	-2843
▁cover	-2844
▁purch	-2845
▁veget	-2846
atories	-2847
▁arrest	-2848
▁behind	-2849
▁former	-2850
▁metric	-2851
▁mobile	-2852
▁economy	-2853
▁minutes	-2854
▁recover	-2855
▁univers	-2856
▁Saturday	-2857
▁findings	-2858
▁includes	-2859
▁launched	-2860
▁recently	-2861
▁supplied	-2862
▁mutations	-2863
▁successful	-2864
3,	-2865
ube	-2866
xim	-2867
▁Su	-2868
osts	-2869
▁Kol	-2870
▁fat	-2871
▁foc	-2872
▁rub	-2873
▁ten	-2874
▁ton	-2875
iddle	-2876
quate	-2877
▁Coun	-2878
▁Pand	-2879
▁huge	-2880
▁kept	-2881
abinet	-2882
rought	-2883
▁Rahul	-2884
▁break	-2885
▁paper	-2886
▁relax	-2887
▁stage	-2888
▁thing	-2889
ologist	-2890
▁Africa	-2891
▁detail	-2892
▁recept	-2893
▁recogn	-2894
▁stress	-2895
▁request	-2896
▁delivery	-2897
▁practice	-2898
▁touching	-2899
▁training	-2900
▁awareness	-2901
▁completed	-2902
▁disinfect	-2903
▁intensive	-2904
▁protective	-2905
▁remedicivir	-2906
It	-2907
ris	-2908
use	-2909
▁Co	-2910
▁II	-2911
▁Ro	-2912
▁Sw	-2913
▁UN	-2914
igen	-2915
mber	-2916
reme	-2917
road	-2918
than	-2919
▁Opp	-2920
▁ada	-2921
▁dig	-2922
▁led	-2923
▁opt	-2924
There	-2925
aceut	-2926
onday	-2927
▁beli	-2928
▁pict	-2929
▁tell	-2930
ursday	-2931
▁Gujar	-2932
▁ambul	-2933
▁black	-2934
▁field	-2935
itional	-2936
ovember	-2937
▁Russia	-2938
▁create	-2939
▁facing	-2940
▁showed	-2941
▁threat	-2942
▁markets	-2943
▁setting	-2944
aceutical	-2945
▁Thursday	-2946
▁colleges	-2947
▁location	-2948
▁personal	-2949
▁platform	-2950
▁proteins	-2951
▁criticized	-2952
▁researchers	-2953
harmaceutical	-2954
▁organization	-2955
.3	-2956
29	-2957
cil	-2958
nel	-2959
▁Be	-2960
▁PM	-2961
aced	-2962
drop	-2963
ucle	-2964
uled	-2965
▁Cal	-2966
▁Luc	-2967
▁Rel	-2968
ednes	-2969
izing	-2970
▁Gaik	-2971
▁Last	-2972
▁char	-2973
▁dead	-2974
▁scre	-2975
▁stor	-2976
▁webs	-2977
ardhan	-2978
ardian	-2979
▁Harsh	-2980
▁Johns	-2981
▁Nagar	-2982
▁Today	-2983
▁comes	-2984
▁doing	-2985
▁homes	-2986
▁scale	-2987
▁whole	-2988
▁Sanjay	-2989
▁Satara	-2990
▁bodies	-2991
▁determ	-2992
▁passed	-2993
▁stocks	-2994
ednesday	-2995
truction	-2996
▁Gaikwad	-2997
▁Gujarat	-2998
▁account	-2999
▁careful	-3000
▁environ	-3001
▁exactly	-3002
▁natural	-3003
▁species	-3004
lications	-3005
▁backdrop	-3006
▁complain	-3007
▁priority	-3008
▁projects	-3009
▁recovery	-3010
▁separate	-3011
▁virology	-3012
▁suffering	-3013
▁contagious	-3014
▁monitoring	-3015
▁responsibility	-3016
.7	-3017
.8	-3018
8,	-3019
aon	-3020
mes	-3021
▁Le	-3022
dden	-3023
gent	-3024
isms	-3025
osal	-3026
sequ	-3027
ways	-3028
▁Pun	-3029
▁dam	-3030
▁die	-3031
anded	-3032
olled	-3033
▁Serv	-3034
▁mess	-3035
▁near	-3036
▁stre	-3037
▁swab	-3038
ailway	-3039
idents	-3040
isions	-3041
▁Medic	-3042
▁Trump	-3043
▁frequ	-3044
▁preca	-3045
▁terms	-3046
▁gather	-3047
▁growth	-3048
▁sudden	-3049
▁hundred	-3050
▁picture	-3051
▁release	-3052
▁running	-3053
▁Guardian	-3054
▁returned	-3055
▁elections	-3056
▁protection	-3057
▁Coronavirus	-3058
▁Information	-3059
▁laboratories	-3060
▁manufacturing	-3061
RT	-3062
ti	-3063
cre	-3064
dom	-3065
emi	-3066
erg	-3067
rel	-3068
utr	-3069
alys	-3070
ides	-3071
▁Ash	-3072
▁gym	-3073
▁vac	-3074
iforn	-3075
known	-3076
organ	-3077
riate	-3078
▁Poon	-3079
▁acid	-3080
▁paid	-3081
aching	-3082
▁Child	-3083
▁Force	-3084
▁initi	-3085
▁visit	-3086
▁woman	-3087
▁Monday	-3088
▁almost	-3089
▁anyone	-3090
▁attack	-3091
▁nation	-3092
▁normal	-3093
▁option	-3094
▁scheme	-3095
▁Centers	-3096
▁Solapur	-3097
▁brought	-3098
▁crowded	-3099
▁tankers	-3100
▁Californ	-3101
▁consider	-3102
▁constant	-3103
▁presence	-3104
▁progress	-3105
▁register	-3106
▁Currently	-3107
▁ministers	-3108
▁Opposition	-3109
▁distancing	-3110
▁scientific	-3111
▁responsible	-3112
%.	-3113
,1	-3114
oj	-3115
cel	-3116
mit	-3117
ocy	-3118
pox	-3119
akes	-3120
hold	-3121
ival	-3122
king	-3123
lies	-3124
load	-3125
vant	-3126
vent	-3127
▁Fin	-3128
▁Two	-3129
▁old	-3130
COVID	-3131
erate	-3132
tific	-3133
▁Desh	-3134
▁ages	-3135
▁farm	-3136
▁inqu	-3137
▁send	-3138
▁shop	-3139
ective	-3140
ortion	-3141
▁court	-3142
▁exerc	-3143
▁plans	-3144
▁reduc	-3145
derabad	-3146
▁Aurang	-3147
▁Infect	-3148
▁approp	-3149
▁better	-3150
▁formul	-3151
▁longer	-3152
▁region	-3153
▁tempor	-3154
▁tonnes	-3155
▁digital	-3156
▁initial	-3157
▁network	-3158
▁involved	-3159
▁isolated	-3160
▁concerned	-3161
▁decreased	-3162
▁sanitizer	-3163
▁thousands	-3164
▁Aurangabad	-3165
▁difference	-3166
▁procedures	-3167
▁sanitizers	-3168
▁technology	-3169
▁announcement	-3170
▁transportation	-3171
95	-3172
MS	-3173
▁,	-3174
dro	-3175
eds	-3176
ier	-3177
inc	-3178
omb	-3179
uck	-3180
ukh	-3181
▁48	-3182
alse	-3183
ging	-3184
oney	-3185
tery	-3186
▁Bab	-3187
▁ang	-3188
harma	-3189
▁Adar	-3190
▁Iran	-3191
▁bank	-3192
▁elec	-3193
▁trad	-3194
▁weak	-3195
atures	-3196
▁chron	-3197
▁focus	-3198
▁minim	-3199
▁never	-3200
▁works	-3201
tration	-3202
▁Intern	-3203
▁accept	-3204
▁mother	-3205
▁notice	-3206
▁strong	-3207
ediatric	-3208
▁Experts	-3209
▁address	-3210
▁carried	-3211
▁closure	-3212
▁consult	-3213
▁storage	-3214
▁studied	-3215
▁Citizens	-3216
▁Devendra	-3217
▁November	-3218
▁detected	-3219
▁interest	-3220
▁officers	-3221
▁physical	-3222
▁severity	-3223
▁treating	-3224
▁Wednesday	-3225
▁Prevention	-3226
▁contracted	-3227
▁management	-3228
▁availability	-3229
▁universities	-3230
IN	-3231
ex	-3232
WHO	-3233
▁MP	-3234
▁fr	-3235
rish	-3236
umer	-3237
▁Are	-3238
▁Let	-3239
▁Reg	-3240
▁Vij	-3241
▁aff	-3242
▁enz	-3243
▁fri	-3244
▁vol	-3245
▁wid	-3246
ither	-3247
ouble	-3248
ought	-3249
▁Part	-3250
▁Ramd	-3251
▁Task	-3252
▁Tues	-3253
▁bord	-3254
▁fall	-3255
▁feet	-3256
▁loss	-3257
▁shut	-3258
ularly	-3259
▁Phase	-3260
▁cured	-3261
▁elder	-3262
▁enfor	-3263
▁micro	-3264
▁money	-3265
▁analys	-3266
▁answer	-3267
▁course	-3268
▁decide	-3269
▁detect	-3270
▁export	-3271
▁obtain	-3272
▁recent	-3273
fficient	-3274
▁Austral	-3275
▁Despite	-3276
▁Doctors	-3277
▁October	-3278
▁Tuesday	-3279
▁capital	-3280
▁foreign	-3281
▁industr	-3282
▁mention	-3283
▁planned	-3284
▁respond	-3285
▁usually	-3286
▁Vaccines	-3287
▁properly	-3288
▁security	-3289
▁teachers	-3290
▁Hyderabad	-3291
▁Poonawala	-3292
▁additional	-3293
▁appropriate	-3294
▁organizations	-3295
,4	-3296
.2	-3297
If	-3298
ie	-3299
sy	-3300
att	-3301
cri	-3302
nik	-3303
ott	-3304
▁..	-3305
▁Pl	-3306
lamm	-3307
spec	-3308
unte	-3309
wali	-3310
ward	-3311
▁Adm	-3312
▁Sen	-3313
▁mis	-3314
▁via	-3315
aches	-3316
iring	-3317
ondwe	-3318
poxia	-3319
▁bird	-3320
▁fast	-3321
▁phot	-3322
▁rout	-3323
andeep	-3324
ension	-3325
▁doesn	-3326
▁point	-3327
▁tract	-3328
actions	-3329
uration	-3330
▁Diwali	-3331
▁banned	-3332
▁breath	-3333
inations	-3334
▁Bhondwe	-3335
▁despite	-3336
▁explain	-3337
▁ongoing	-3338
▁postpon	-3339
▁subject	-3340
▁therapy	-3341
▁efficacy	-3342
▁multiple	-3343
▁provides	-3344
▁dangerous	-3345
▁outbreaks	-3346
▁performed	-3347
▁resources	-3348
▁Passengers	-3349
▁conference	-3350
▁departments	-3351
▁environment	-3352
RE	-3353
ps	-3354
ury	-3355
val	-3356
▁35	-3357
▁Gr	-3358
▁Pa	-3359
▁bi	-3360
lock	-3361
ones	-3362
oves	-3363
sych	-3364
▁500	-3365
▁Jay	-3366
▁bel	-3367
▁deg	-3368
▁etc	-3369
▁kit	-3370
▁val	-3371
erson	-3372
utnik	-3373
▁Amer	-3374
▁Hong	-3375
▁Kong	-3376
▁Test	-3377
▁coll	-3378
▁educ	-3379
▁expl	-3380
▁grad	-3381
▁hold	-3382
▁insp	-3383
▁peak	-3384
▁toil	-3385
▁unit	-3386
Corona	-3387
ancies	-3388
corona	-3389
▁Again	-3390
▁Vijay	-3391
▁cardi	-3392
▁entry	-3393
▁urban	-3394
related	-3395
▁mental	-3396
▁simple	-3397
liminary	-3398
ximately	-3399
▁Council	-3400
▁chronic	-3401
▁classes	-3402
▁members	-3403
▁missing	-3404
▁someone	-3405
gregation	-3406
▁activity	-3407
▁agencies	-3408
▁approval	-3409
▁canceled	-3410
▁cleaning	-3411
▁happened	-3412
▁recorded	-3413
▁relative	-3414
▁solution	-3415
▁starting	-3416
▁villages	-3417
▁contacted	-3418
▁assistance	-3419
▁critically	-3420
▁journalist	-3421
▁nationwide	-3422
▁prevention	-3423
▁distributed	-3424
▁agricultural	-3425
▁International	-3426
25	-3427
63	-3428
Ch	-3429
af	-3430
▁?	-3431
avi	-3432
bid	-3433
igr	-3434
ola	-3435
ugg	-3436
uly	-3437
apan	-3438
char	-3439
ecut	-3440
eros	-3441
free	-3442
ires	-3443
leag	-3444
▁buy	-3445
▁gas	-3446
▁try	-3447
angol	-3448
echan	-3449
estic	-3450
osing	-3451
ource	-3452
overs	-3453
rapur	-3454
▁East	-3455
▁News	-3456
▁drop	-3457
▁road	-3458
▁viol	-3459
▁wors	-3460
cluded	-3461
rishna	-3462
▁Jumbo	-3463
▁hydro	-3464
▁immun	-3465
▁light	-3466
▁older	-3467
▁phone	-3468
▁speed	-3469
▁introd	-3470
▁member	-3471
▁return	-3472
▁suppli	-3473
▁weekly	-3474
ritories	-3475
▁Earlier	-3476
▁Sputnik	-3477
▁failure	-3478
▁variants	-3479
▁Committee	-3480
▁Emergency	-3481
▁admission	-3482
▁decisions	-3483
▁providing	-3484
▁traveling	-3485
▁Chandrapur	-3486
▁candidates	-3487
▁allegations	-3488
▁considering	-3489
▁established	-3490
As	-3491
sh	-3492
yc	-3493
ali	-3494
arp	-3495
ift	-3496
mal	-3497
oir	-3498
ols	-3499
▁3.	-3500
▁4.	-3501
▁Kh	-3502
CoVs	-3503
SARS	-3504
abor	-3505
band	-3506
hmed	-3507
▁Air	-3508
▁Har	-3509
▁Vid	-3510
▁ade	-3511
▁cow	-3512
▁pul	-3513
ables	-3514
erala	-3515
itter	-3516
tered	-3517
ugust	-3518
▁Amit	-3519
▁Fund	-3520
▁Mund	-3521
▁Over	-3522
▁eyes	-3523
▁item	-3524
▁sore	-3525
▁ward	-3526
▁word	-3527
istent	-3528
resent	-3529
▁Karon	-3530
▁Malik	-3531
▁Surve	-3532
▁cross	-3533
▁deter	-3534
▁disru	-3535
▁eight	-3536
▁inhib	-3537
▁refer	-3538
espread	-3539
lection	-3540
▁Consid	-3541
▁Kerala	-3542
▁attend	-3543
▁extent	-3544
▁highly	-3545
▁orders	-3546
▁pangol	-3547
▁rising	-3548
▁Develop	-3549
▁England	-3550
▁elderly	-3551
▁exposed	-3552
▁ministr	-3553
▁overall	-3554
▁parties	-3555
▁unknown	-3556
▁bacteria	-3557
▁communic	-3558
▁directed	-3559
▁incident	-3560
▁meetings	-3561
▁pregnant	-3562
▁vehicles	-3563
▁clarified	-3564
▁committee	-3565
▁cylinders	-3566
▁mentioned	-3567
▁understand	-3568
▁widespread	-3569
▁examinations	-3570
▁intermediate	-3571
▁significantly	-3572
,8	-3573
▁:	-3574
amb	-3575
▁Bo	-3576
▁CT	-3577
▁EU	-3578
ency	-3579
ison	-3580
mukh	-3581
▁...	-3582
▁Naw	-3583
▁Sal	-3584
▁aut	-3585
▁cam	-3586
▁mid	-3587
apore	-3588
▁Baba	-3589
▁Then	-3590
▁lock	-3591
▁pack	-3592
▁poor	-3593
▁walk	-3594
▁wide	-3595
▁zone	-3596
acting	-3597
asthan	-3598
usband	-3599
▁2021,	-3600
▁Apart	-3601
▁Japan	-3602
▁behav	-3603
▁plant	-3604
▁psych	-3605
▁share	-3606
▁spike	-3607
ecutive	-3608
▁August	-3609
▁Author	-3610
▁eating	-3611
▁giving	-3612
▁rather	-3613
▁stores	-3614
▁Schools	-3615
▁Twitter	-3616
▁ability	-3617
▁closing	-3618
▁colleag	-3619
▁earlier	-3620
▁thought	-3621
▁visited	-3622
▁Children	-3623
▁Deshmukh	-3624
▁analysis	-3625
▁arrested	-3626
▁building	-3627
▁election	-3628
▁surfaces	-3629
▁Rajasthan	-3630
▁Singapore	-3631
▁constantly	-3632
▁controvers	-3633
▁discussion	-3634
▁programmes	-3635
▁strategies	-3636
▁discussions	-3637
▁segregation	-3638
▁ventilation	-3639
IV	-3640
bor	-3641
iry	-3642
jri	-3643
osp	-3644
yme	-3645
▁37	-3646
▁Te	-3647
atch	-3648
eddy	-3649
hens	-3650
orth	-3651
otic	-3652
resp	-3653
wise	-3654
▁Rec	-3655
▁San	-3656
▁Who	-3657
▁key	-3658
▁nas	-3659
▁pan	-3660
▁ver	-3661
anand	-3662
eding	-3663
ensin	-3664
essor	-3665
ester	-3666
oming	-3667
orrow	-3668
▁July	-3669
▁Priv	-3670
▁Sood	-3671
▁goes	-3672
▁groc	-3673
▁jobs	-3674
▁mass	-3675
▁outc	-3676
▁talk	-3677
jriwal	-3678
▁Ahmed	-3679
▁Covin	-3680
▁Lucas	-3681
▁Reddy	-3682
▁Where	-3683
▁event	-3684
▁hosts	-3685
▁price	-3686
▁space	-3687
itivity	-3688
▁altern	-3689
▁coding	-3690
▁crowds	-3691
▁damage	-3692
▁drying	-3693
▁encour	-3694
▁flight	-3695
▁object	-3696
▁replic	-3697
arantine	-3698
▁Krishna	-3699
▁antigen	-3700
▁benefit	-3701
▁cabinet	-3702
▁describ	-3703
▁greater	-3704
▁methods	-3705
▁website	-3706
▁Kejriwal	-3707
▁adequate	-3708
▁benefits	-3709
▁coughing	-3710
▁existing	-3711
▁facility	-3712
▁fighting	-3713
▁function	-3714
▁guidance	-3715
▁receptor	-3716
▁continues	-3717
▁gradually	-3718
▁personnel	-3719
▁colleagues	-3720
27	-3721
IR	-3722
MA	-3723
-2.	-3724
lev	-3725
omp	-3726
ros	-3727
tro	-3728
▁33	-3729
▁em	-3730
abil	-3731
rist	-3732
ubei	-3733
xych	-3734
▁Exp	-3735
▁FDA	-3736
▁Out	-3737
▁Sim	-3738
▁cyt	-3739
▁hol	-3740
▁hom	-3741
▁mil	-3742
▁tax	-3743
arbha	-3744
arily	-3745
nagar	-3746
▁Gand	-3747
▁Hind	-3748
▁ICMR	-3749
▁Spec	-3750
▁cere	-3751
▁curb	-3752
▁door	-3753
▁fing	-3754
▁grap	-3755
▁poly	-3756
▁pred	-3757
▁sold	-3758
▁tons	-3759
▁wedd	-3760
selves	-3761
▁Hubei	-3762
▁clots	-3763
▁items	-3764
▁makes	-3765
▁power	-3766
aurants	-3767
washing	-3768
▁faster	-3769
▁liquid	-3770
▁mechan	-3771
▁stored	-3772
▁worker	-3773
▁adverse	-3774
▁measure	-3775
▁options	-3776
▁privacy	-3777
▁strains	-3778
▁surface	-3779
▁Vidarbha	-3780
▁material	-3781
▁millions	-3782
▁ministry	-3783
▁Australia	-3784
▁collected	-3785
▁confusion	-3786
▁initially	-3787
▁postponed	-3788
▁represent	-3789
▁returning	-3790
▁throughout	-3791
▁treatments	-3792
▁Development	-3793
▁communities	-3794
▁remedesivir	-3795
xychloroquine	-3796
▁experiencing	-3797
▁manufactured	-3798
▁Administration	-3799
▁implementation	-3800
,5	-3801
24	-3802
60	-3803
65	-3804
be	-3805
oe	-3806
WIN	-3807
bed	-3808
dis	-3809
heb	-3810
mph	-3811
oli	-3812
yal	-3813
▁(3	-3814
▁CE	-3815
▁Us	-3816
▁Zh	-3817
▁ir	-3818
alls	-3819
appy	-3820
eful	-3821
know	-3822
lebr	-3823
ocyt	-3824
ring	-3825
said	-3826
▁Bef	-3827
▁Var	-3828
▁eng	-3829
▁inj	-3830
▁sat	-3831
▁sum	-3832
alian	-3833
eline	-3834
hapur	-3835
istan	-3836
ounds	-3837
ustom	-3838
▁Food	-3839
▁Paul	-3840
▁Such	-3841
▁Work	-3842
▁apps	-3843
▁migr	-3844
everal	-3845
oplets	-3846
▁Munde	-3847
▁basis	-3848
▁delay	-3849
▁final	-3850
▁hotsp	-3851
▁nucle	-3852
▁super	-3853
▁worse	-3854
▁youth	-3855
▁Before	-3856
▁Gandhi	-3857
▁Marath	-3858
▁celebr	-3859
▁circul	-3860
▁enzyme	-3861
▁slowly	-3862
iotensin	-3863
▁Italian	-3864
▁Johnson	-3865
▁decline	-3866
▁facilit	-3867
▁organic	-3868
▁session	-3869
▁sitting	-3870
▁student	-3871
echnology	-3872
▁changing	-3873
▁outcomes	-3874
▁sneezing	-3875
▁speaking	-3876
▁campaigns	-3877
▁candidate	-3878
▁household	-3879
▁pediatric	-3880
▁reservoir	-3881
▁percentage	-3882
▁vegetables	-3883
▁Considering	-3884
▁educational	-3885
▁investigation	-3886
▁manufacturers	-3887
▁participating	-3888
",	-3889
,0	-3890
.9	-3891
CP	-3892
IC	-3893
IS	-3894
ee	-3895
SCO	-3896
aps	-3897
ats	-3898
ipp	-3899
rob	-3900
▁41	-3901
▁65	-3902
▁Up	-3903
airs	-3904
ancy	-3905
asma	-3906
bing	-3907
book	-3908
empt	-3909
erms	-3910
hada	-3911
idge	-3912
ites	-3913
mpty	-3914
ping	-3915
rees	-3916
tail	-3917
▁Act	-3918
▁ide	-3919
▁raw	-3920
eries	-3921
mical	-3922
overy	-3923
ronch	-3924
▁Bhus	-3925
▁Hand	-3926
▁best	-3927
▁deal	-3928
▁line	-3929
▁mach	-3930
▁purp	-3931
▁rare	-3932
▁reve	-3933
▁spok	-3934
▁term	-3935
▁tiss	-3936
▁true	-3937
▁Coron	-3938
▁codes	-3939
▁creat	-3940
▁drive	-3941
▁party	-3942
▁tried	-3943
desivir	-3944
▁Karona	-3945
▁Ramdev	-3946
▁Strict	-3947
▁expert	-3948
▁shared	-3949
▁specim	-3950
▁stated	-3951
▁toilet	-3952
▁British	-3953
▁husband	-3954
▁keeping	-3955
▁receive	-3956
▁relaxed	-3957
▁showing	-3958
▁waiting	-3959
▁Kolhapur	-3960
▁domestic	-3961
▁learners	-3962
▁politics	-3963
▁reaction	-3964
▁administr	-3965
▁California	-3966
▁businesses	-3967
▁commission	-3968
▁importance	-3969
▁pathogenic	-3970
▁preventing	-3971
▁potentially	-3972
▁preliminary	-3973
▁institutions	-3974
▁menstruation	-3975
▁approximately	-3976
.1	-3977
.4	-3978
EE	-3979
amm	-3980
arg	-3981
lia	-3982
oph	-3983
pri	-3984
▁Aw	-3985
▁Ec	-3986
▁My	-3987
-229	-3988
ames	-3989
ikas	-3990
▁Ant	-3991
▁Bid	-3992
▁aim	-3993
▁cut	-3994
▁leg	-3995
▁mus	-3996
▁tom	-3997
,000.	-3998
March	-3999
embly	-4000
ocial	-4001
otees	-4002
ports	-4003
▁Both	-4004
▁Does	-4005
▁Foll	-4006
▁Sena	-4007
▁acqu	-4008
▁clus	-4009
▁poin	-4010
▁rain	-4011
▁seek	-4012
▁sens	-4013
▁sure	-4014
▁surv	-4015
▁zoon	-4016
ashank	-4017
esides	-4018
ivered	-4019
urance	-4020
▁aeros	-4021
▁named	-4022
▁polic	-4023
▁quant	-4024
fective	-4025
ivision	-4026
olution	-4027
ubation	-4028
▁abroad	-4029
▁deploy	-4030
▁handle	-4031
▁middle	-4032
▁opport	-4033
▁resort	-4034
▁tanker	-4035
▁trains	-4036
▁warned	-4037
▁widely	-4038
esterday	-4039
▁Against	-4040
▁Railway	-4041
▁billion	-4042
▁degrees	-4043
▁deliver	-4044
▁epidemi	-4045
▁learned	-4046
▁station	-4047
organisms	-4048
▁Shashank	-4049
▁decrease	-4050
▁designed	-4051
▁devotees	-4052
▁distress	-4053
▁droplets	-4054
▁moderate	-4055
▁settings	-4056
▁delivered	-4057
▁diagnosis	-4058
▁estimates	-4059
▁generally	-4060
▁materials	-4061
▁reduction	-4062
▁suspended	-4063
▁typically	-4064
▁activities	-4065
▁challenges	-4066
▁everything	-4067
▁initiative	-4068
▁profession	-4069
▁respective	-4070
▁themselves	-4071
▁regulations	-4072
▁territories	-4073
▁municipality	-4074
▁particularly	-4075
43	-4076
KU	-4077
SE	-4078
Th	-4079
aya	-4080
eve	-4081
ipe	-4082
ocu	-4083
pre	-4084
ugh	-4085
upe	-4086
wan	-4087
▁Ne	-4088
ESCO	-4089
anch	-4090
eria	-4091
eved	-4092
ique	-4093
irth	-4094
omen	-4095
over	-4096
vind	-4097
▁PCR	-4098
▁Pim	-4099
▁bar	-4100
▁mom	-4101
▁saw	-4102
▁won	-4103
adhya	-4104
covid	-4105
cular	-4106
oller	-4107
▁Bank	-4108
▁Jess	-4109
▁Resp	-4110
▁York	-4111
▁beta	-4112
▁bind	-4113
▁code	-4114
▁harm	-4115
▁poll	-4116
▁thus	-4117
▁tick	-4118
ctions	-4119
ederal	-4120
icians	-4121
▁Biden	-4122
▁Bihar	-4123
▁Nawab	-4124
▁Treat	-4125
▁Virar	-4126
▁below	-4127
▁birds	-4128
▁false	-4129
▁joint	-4130
▁shock	-4131
▁twice	-4132
▁units	-4133
▁usual	-4134
▁wrong	-4135
respond	-4136
▁Arvind	-4137
▁Econom	-4138
▁Madhya	-4139
▁Pimpri	-4140
▁UNESCO	-4141
▁claims	-4142
▁custom	-4143
▁either	-4144
▁ground	-4145
▁hotels	-4146
▁modern	-4147
▁remote	-4148
▁select	-4149
▁strugg	-4150
▁useful	-4151
district	-4152
ineering	-4153
▁Bhushan	-4154
▁Covacin	-4155
▁Jessica	-4156
▁Several	-4157
▁avoided	-4158
▁farmers	-4159
▁inquiry	-4160
▁leading	-4161
▁wedding	-4162
▁Everyone	-4163
▁attended	-4164
▁excluded	-4165
▁majority	-4166
▁products	-4167
▁supplies	-4168
▁continued	-4169
▁something	-4170
▁correspond	-4171
▁opposition	-4172
▁Accordingly	-4173
▁controversy	-4174
▁precautions	-4175
▁applications	-4176
▁establishments	-4177
-3	-4178
RD	-4179
de	-4180
▁i	-4181
100	-4182
Fig	-4183
Ind	-4184
ene	-4185
ert	-4186
eut	-4187
ina	-4188
int	-4189
ita	-4190
ole	-4191
put	-4192
▁Ac	-4193
▁Sy	-4194
alas	-4195
clus	-4196
gans	-4197
itya	-4198
leep	-4199
oted	-4200
raid	-4201
rane	-4202
time	-4203
umul	-4204
▁300	-4205
▁Sub	-4206
▁Use	-4207
▁aid	-4208
▁alp	-4209
▁bad	-4210
▁fif	-4211
▁lic	-4212
▁muc	-4213
▁pat	-4214
▁win	-4215
alled	-4216
anted	-4217
astic	-4218
board	-4219
chwad	-4220
enger	-4221
feren	-4222
uresh	-4223
▁Anil	-4224
▁Dhar	-4225
▁Gang	-4226
▁Sang	-4227
▁Stud	-4228
▁ever	-4229
▁fest	-4230
▁fine	-4231
▁kind	-4232
▁ones	-4233
▁ster	-4234
anging	-4235
ifying	-4236
remely	-4237
▁Chhat	-4238
▁Human	-4239
▁adapt	-4240
▁empty	-4241
akistan	-4242
ocktail	-4243
ression	-4244
▁50,000	-4245
▁Suresh	-4246
▁camels	-4247
▁nature	-4248
▁organs	-4249
▁plasma	-4250
▁starts	-4251
▁Kovacin	-4252
▁Sandeep	-4253
▁accused	-4254
▁becomes	-4255
▁causing	-4256
▁connect	-4257
▁dischar	-4258
▁forward	-4259
▁healthy	-4260
▁himself	-4261
▁inflamm	-4262
▁inhibit	-4263
▁instead	-4264
▁predict	-4265
▁sectors	-4266
▁spreads	-4267
▁trouble	-4268
ification	-4269
▁Election	-4270
▁although	-4271
▁deterior	-4272
▁obtained	-4273
▁position	-4274
▁schedule	-4275
▁sequence	-4276
▁ambulance	-4277
▁frontline	-4278
▁generated	-4279
▁preparing	-4280
▁presented	-4281
▁requiring	-4282
▁secretary	-4283
▁shortages	-4284
▁suppliers	-4285
▁vacancies	-4286
▁Additional	-4287
▁Management	-4288
▁instructed	-4289
▁maintained	-4290
▁transmitted	-4291
▁successfully	-4292
,3	-4293
CT	-4294
DP	-4295
SH	-4296
-20	-4297
ald	-4298
eme	-4299
ikh	-4300
irl	-4301
lig	-4302
ache	-4303
anti	-4304
aram	-4305
ares	-4306
athe	-4307
avan	-4308
erve	-4309
ocal	-4310
ooth	-4311
pass	-4312
▁400	-4313
▁Bec	-4314
▁Dem	-4315
▁His	-4316
▁Lok	-4317
▁Rep	-4318
▁abs	-4319
▁aud	-4320
▁deb	-4321
▁den	-4322
▁haz	-4323
▁tra	-4324
▁vit	-4325
agers	-4326
idwar	-4327
inash	-4328
ledge	-4329
onstr	-4330
▁Data	-4331
▁Fort	-4332
▁Lead	-4333
▁Raut	-4334
▁Shen	-4335
▁bicy	-4336
▁crem	-4337
▁cult	-4338
▁docu	-4339
▁else	-4340
▁heav	-4341
▁hope	-4342
▁sell	-4343
▁ship	-4344
▁uses	-4345
▁wait	-4346
▁worr	-4347
ovirus	-4348
rehens	-4349
▁2019,	-4350
▁Tamil	-4351
▁calls	-4352
▁germs	-4353
▁model	-4354
▁quick	-4355
ascular	-4356
certain	-4357
isation	-4358
▁Canada	-4359
▁Centre	-4360
▁afraid	-4361
▁battle	-4362
▁border	-4363
▁bronch	-4364
▁coward	-4365
▁double	-4366
▁father	-4367
▁impose	-4368
▁Another	-4369
▁Avinash	-4370
▁affects	-4371
▁message	-4372
▁quality	-4373
▁regions	-4374
▁regular	-4375
▁towards	-4376
trictions	-4377
▁Haridwar	-4378
▁Medicine	-4379
▁Punawala	-4380
▁Rajendra	-4381
▁anything	-4382
▁approach	-4383
▁avoiding	-4384
▁estimate	-4385
▁fatality	-4386
▁handling	-4387
▁hundreds	-4388
▁identity	-4389
▁overcome	-4390
▁policies	-4391
▁revealed	-4392
▁serology	-4393
▁studying	-4394
▁surgical	-4395
▁tomorrow	-4396
▁tracking	-4397
▁zoonotic	-4398
▁determine	-4399
▁producing	-4400
▁secondary	-4401
▁therapeut	-4402
▁collection	-4403
▁complaints	-4404
▁everywhere	-4405
▁facilitate	-4406
▁particular	-4407
▁relatively	-4408
▁alternative	-4409
▁chloroquine	-4410
▁journalists	-4411
▁investigated	-4412
,7	-4413
TI	-4414
Vir	-4415
aji	-4416
ami	-4417
elt	-4418
esc	-4419
hel	-4420
ibr	-4421
ids	-4422
ira	-4423
ney	-4424
ont	-4425
ows	-4426
▁AC	-4427
▁Gl	-4428
▁Zy	-4429
aves	-4430
iers	-4431
igad	-4432
mosp	-4433
▁1.5	-4434
▁Gad	-4435
▁Ger	-4436
▁Nep	-4437
▁Nit	-4438
▁Saw	-4439
▁bud	-4440
▁dra	-4441
▁lif	-4442
▁pet	-4443
▁son	-4444
▁top	-4445
▁und	-4446
Virar	-4447
amily	-4448
fered	-4449
ously	-4450
▁Bhag	-4451
▁City	-4452
▁Guid	-4453
▁Hary	-4454
▁acad	-4455
▁ceme	-4456
▁gets	-4457
▁girl	-4458
▁nine	-4459
▁turn	-4460
fortun	-4461
itness	-4462
ograph	-4463
▁2021.	-4464
▁Given	-4465
▁Spain	-4466
▁Zhang	-4467
▁accur	-4468
▁birth	-4469
▁extra	-4470
▁range	-4471
▁shows	-4472
▁speak	-4473
olation	-4474
stances	-4475
umerous	-4476
vardhan	-4477
▁German	-4478
▁Raigad	-4479
▁Scient	-4480
▁atmosp	-4481
▁compar	-4482
▁electr	-4483
▁formed	-4484
▁manner	-4485
▁rights	-4486
▁search	-4487
▁timely	-4488
ventions	-4489
▁Haryana	-4490
▁Special	-4491
▁applied	-4492
▁arrived	-4493
▁believe	-4494
▁ceremon	-4495
▁college	-4496
▁enforce	-4497
▁envelop	-4498
▁funeral	-4499
▁happens	-4500
▁improve	-4501
▁leaving	-4502
▁located	-4503
▁remains	-4504
▁removed	-4505
▁streets	-4506
▁updated	-4507
▁volunte	-4508
▁Pakistan	-4509
▁becoming	-4510
▁certific	-4511
▁concerns	-4512
▁cylinder	-4513
▁requires	-4514
▁tourists	-4515
▁Authority	-4516
▁affecting	-4517
▁cancelled	-4518
▁explained	-4519
▁factories	-4520
▁menstrual	-4521
▁passenger	-4522
▁remaining	-4523
▁reporting	-4524
▁solutions	-4525
▁Controller	-4526
▁atmosphere	-4527
▁discovered	-4528
▁gatherings	-4529
▁introduced	-4530
▁previously	-4531
▁recovering	-4532
▁agriculture	-4533
▁angiotensin	-4534
▁combination	-4535
▁Harshvardhan	-4536
▁Restrictions	-4537
▁construction	-4538
▁complications	-4539
▁pharmaceutical	-4540
.,	-4541
//	-4542
2-	-4543
90	-4544
CM	-4545
OC	-4546
ks	-4547
la	-4548
-2,	-4549
://	-4550
ACE	-4551
bal	-4552
ber	-4553
ema	-4554
gue	-4555
has	-4556
hyl	-4557
isl	-4558
oud	-4559
ras	-4560
rim	-4561
ton	-4562
▁34	-4563
▁5.	-4564
▁55	-4565
▁95	-4566
▁fo	-4567
▁ge	-4568
anka	-4569
edia	-4570
ergy	-4571
ibly	-4572
ixed	-4573
kill	-4574
ogle	-4575
onym	-4576
pper	-4577
risk	-4578
▁Aad	-4579
▁Ang	-4580
▁Hem	-4581
▁Kam	-4582
▁Lat	-4583
▁Mah	-4584
▁Nir	-4585
▁Sam	-4586
▁cov	-4587
▁fav	-4588
▁pil	-4589
▁suf	-4590
centr	-4591
ether	-4592
human	-4593
ients	-4594
istic	-4595
lines	-4596
oking	-4597
ondon	-4598
ounts	-4599
uated	-4600
▁Four	-4601
▁King	-4602
▁Prod	-4603
▁Shah	-4604
▁Shar	-4605
▁aged	-4606
▁aims	-4607
▁eval	-4608
▁rail	-4609
▁repe	-4610
▁trib	-4611
▁wife	-4612
atigue	-4613
mented	-4614
merase	-4615
monary	-4616
ycosis	-4617
▁Board	-4618
▁Local	-4619
▁Mayor	-4620
▁Those	-4621
▁Which	-4622
▁alarm	-4623
▁graph	-4624
▁image	-4625
▁learn	-4626
▁photo	-4627
▁recru	-4628
▁serve	-4629
▁sharp	-4630
▁storm	-4631
▁stren	-4632
▁trend	-4633
▁upper	-4634
▁whose	-4635
▁withd	-4636
havikas	-4637
▁London	-4638
▁budget	-4639
▁compon	-4640
▁conven	-4641
▁disord	-4642
▁filled	-4643
▁itself	-4644
▁minute	-4645
▁occurs	-4646
▁relief	-4647
▁tissue	-4648
▁Because	-4649
▁aerosol	-4650
▁alleged	-4651
▁arrange	-4652
▁biggest	-4653
▁brother	-4654
▁complex	-4655
▁federal	-4656
▁routine	-4657
▁seconds	-4658
▁staying	-4659
▁traffic	-4660
▁walking	-4661
▁younger	-4662
▁Services	-4663
▁allowing	-4664
▁commonly	-4665
▁concentr	-4666
▁conferen	-4667
▁contains	-4668
▁demonstr	-4669
▁exercise	-4670
▁postpone	-4671
▁proposal	-4672
▁reducing	-4673
▁Treatment	-4674
▁described	-4675
▁discovery	-4676
▁interview	-4677
▁knowledge	-4678
▁otherwise	-4679
▁pregnancy	-4680
▁prevalent	-4681
▁professor	-4682
▁screening	-4683
▁seriously	-4684
▁shortness	-4685
▁controlled	-4686
▁individual	-4687
▁industrial	-4688
▁positivity	-4689
▁circulating	-4690
▁hospitalization	-4691
2)	-4692
35	-4693
7,	-4694
OP	-4695
PI	-4696
ji	-4697
my	-4698
sc	-4699
EEA	-4700
RNA	-4701
emy	-4702
ief	-4703
ino	-4704
iri	-4705
tic	-4706
ude	-4707
xic	-4708
▁36	-4709
▁99	-4710
▁GP	-4711
aste	-4712
enty	-4713
prod	-4714
ptic	-4715
reed	-4716
room	-4717
tact	-4718
ttps	-4719
umps	-4720
ymph	-4721
yond	-4722
▁Any	-4723
▁Baj	-4724
▁Bio	-4725
▁Cha	-4726
▁Jav	-4727
▁Kap	-4728
▁NCP	-4729
▁Tel	-4730
▁ach	-4731
▁ple	-4732
▁rus	-4733
▁ste	-4734
ician	-4735
night	-4736
ulate	-4737
vales	-4738
venue	-4739
▁Face	-4740
▁Fore	-4741
▁Mult	-4742
▁Post	-4743
▁Prot	-4744
▁Well	-4745
▁Year	-4746
▁attr	-4747
▁clin	-4748
▁clot	-4749
▁didn	-4750
▁evac	-4751
▁extr	-4752
▁fort	-4753
▁idea	-4754
▁vary	-4755
▁vers	-4756
People	-4757
adekar	-4758
adhyay	-4759
entech	-4760
erving	-4761
vernor	-4762
▁5,000	-4763
▁Ashok	-4764
▁Canad	-4765
▁Covax	-4766
▁Shail	-4767
▁aware	-4768
▁banks	-4769
▁carry	-4770
▁coord	-4771
▁fully	-4772
▁goods	-4773
▁helps	-4774
▁indep	-4775
▁panic	-4776
▁satis	-4777
▁serum	-4778
▁signs	-4779
▁sites	-4780
▁sleep	-4781
▁soaps	-4782
▁spend	-4783
▁story	-4784
▁tools	-4785
species	-4786
▁Donald	-4787
▁Modern	-4788
▁Pandit	-4789
▁Pharma	-4790
▁Sawant	-4791
▁asking	-4792
▁chance	-4793
▁friend	-4794
▁labore	-4795
▁muscle	-4796
▁phases	-4797
▁remove	-4798
▁streng	-4799
aminated	-4800
▁America	-4801
▁Besides	-4802
▁Dharavi	-4803
▁Indians	-4804
▁Kingdom	-4805
▁Maratha	-4806
▁Service	-4807
▁answers	-4808
▁contrib	-4809
▁devices	-4810
▁discrim	-4811
▁filling	-4812
▁surgery	-4813
valescent	-4814
▁arriving	-4815
▁cocktail	-4816
▁creating	-4817
▁deployed	-4818
▁detailed	-4819
▁features	-4820
▁identify	-4821
▁occurred	-4822
▁original	-4823
▁probably	-4824
▁strategy	-4825
▁teaching	-4826
▁Mahavikas	-4827
▁buildings	-4828
▁depending	-4829
▁lockdowns	-4830
▁regulator	-4831
▁sometimes	-4832
▁yesterday	-4833
▁containing	-4834
▁polymerase	-4835
▁sufficient	-4836
▁vaccinating	-4837
▁convalescent	-4838
▁difficulties	-4839
.6	-4840
10	-4841
30	-4842
6,	-4843
84	-4844
An	-4845
On	-4846
co	-4847
vi	-4848
%),	-4849
CDC	-4850
aka	-4851
hir	-4852
ius	-4853
oga	-4854
oor	-4855
sec	-4856
udd	-4857
yan	-4858
▁42	-4859
▁44	-4860
▁IL	-4861
▁Ig	-4862
▁kg	-4863
▁ut	-4864
This	-4865
ahan	-4866
ambr	-4867
ches	-4868
gaon	-4869
hood	-4870
ivil	-4871
kins	-4872
ming	-4873
tion	-4874
▁120	-4875
▁150	-4876
▁19,	-4877
▁600	-4878
▁800	-4879
▁Agh	-4880
▁Did	-4881
▁Ext	-4882
▁Hop	-4883
▁Nov	-4884
▁Sun	-4885
▁Tai	-4886
▁War	-4887
▁bab	-4888
▁cal	-4889
▁cru	-4890
▁unn	-4891
India	-4892
aming	-4893
apers	-4894
arent	-4895
crete	-4896
gence	-4897
ibody	-4898
icrob	-4899
inite	-4900
irmed	-4901
omach	-4902
oting	-4903
otion	-4904
power	-4905
▁Bang	-4906
▁Half	-4907
▁Sach	-4908
▁fees	-4909
▁link	-4910
▁load	-4911
▁rule	-4912
▁site	-4913
▁whom	-4914
▁wind	-4915
ackers	-4916
active	-4917
bidity	-4918
iences	-4919
▁Awate	-4920
▁Cambr	-4921
▁Class	-4922
▁Group	-4923
▁Nepal	-4924
▁Under	-4925
▁Women	-4926
▁apply	-4927
▁begun	-4928
▁chair	-4929
▁filed	-4930
▁hyper	-4931
▁liver	-4932
▁noted	-4933
▁owner	-4934
▁risen	-4935
▁table	-4936
▁teams	-4937
erating	-4938
▁Agency	-4939
▁Aghadi	-4940
▁Family	-4941
▁Google	-4942
▁Leader	-4943
▁artery	-4944
▁begins	-4945
▁expect	-4946
▁limits	-4947
▁moment	-4948
▁nearly	-4949
▁placed	-4950
▁recomb	-4951
▁struct	-4952
▁summer	-4953
▁unlock	-4954
▁urgent	-4955
▁worked	-4956
atistics	-4957
cription	-4958
esperson	-4959
ifically	-4960
ologists	-4961
▁attempt	-4962
▁closely	-4963
▁constit	-4964
▁evening	-4965
▁experim	-4966
▁hypoxia	-4967
▁involve	-4968
▁license	-4969
▁lockout	-4970
▁subsequ	-4971
▁vehicle	-4972
▁worship	-4973
ovascular	-4974
▁Upadhyay	-4975
▁chemical	-4976
▁contrast	-4977
▁duration	-4978
▁electron	-4979
▁entering	-4980
▁frequent	-4981
▁referred	-4982
▁relevant	-4983
▁reliable	-4984
▁sampling	-4985
▁severely	-4986
▁unnecess	-4987
▁Chinchwad	-4988
▁demanding	-4989
▁extremely	-4990
▁increases	-4991
▁insurance	-4992
▁mechanism	-4993
▁monitored	-4994
▁operating	-4995
▁organized	-4996
▁protocols	-4997
▁providers	-4998
▁residents	-4999
▁scheduled	-5000
▁temporary	-5001
▁therefore	-5002
▁villagers	-5003
▁conducting	-5004
▁connection	-5005
▁frequently	-5006
▁preventive	-5007
▁recognized	-5008
▁corporation	-5009
▁interaction	-5010
▁restaurants	-5011
▁therapeutic	-5012
▁registration	-5013
▁recommendations	-5014
',	-5015
-4	-5016
-5	-5017
-7	-5018
62	-5019
AT	-5020
BA	-5021
NL	-5022
St	-5023
gu	-5024
kh	-5025
mi	-5026
abh	-5027
nat	-5028
ode	-5029
ply	-5030
ume	-5031
urb	-5032
▁38	-5033
▁59	-5034
▁98	-5035
▁Bl	-5036
▁mo	-5037
IIMS	-5038
alyz	-5039
conf	-5040
efic	-5041
ekar	-5042
illa	-5043
inde	-5044
ohan	-5045
oids	-5046
olar	-5047
orat	-5048
orts	-5049
pres	-5050
ynec	-5051
▁Big	-5052
▁Bor	-5053
▁Bro	-5054
▁Das	-5055
▁Nav	-5056
▁Rai	-5057
▁Sir	-5058
▁Sit	-5059
▁Yoj	-5060
▁ash	-5061
▁box	-5062
▁hur	-5063
▁ign	-5064
Covid	-5065
Table	-5066
amata	-5067
arity	-5068
lands	-5069
level	-5070
limin	-5071
okine	-5072
stead	-5073
▁2009	-5074
▁Here	-5075
▁Thus	-5076
▁Ward	-5077
▁Welf	-5078
▁alve	-5079
▁bath	-5080
▁burd	-5081
▁duty	-5082
▁exce	-5083
▁land	-5084
▁milk	-5085
▁prem	-5086
▁rush	-5087
▁shif	-5088
▁wake	-5089
arekar	-5090
asures	-5091
estern	-5092
hankar	-5093
harpur	-5094
istant	-5095
nataka	-5096
ulated	-5097
▁Akola	-5098
▁Among	-5099
▁Avoid	-5100
▁Chain	-5101
▁First	-5102
▁Found	-5103
▁Inter	-5104
▁Party	-5105
▁Princ	-5106
▁Shops	-5107
▁Store	-5108
▁Trans	-5109
▁agree	-5110
▁multi	-5111
▁spoke	-5112
▁tight	-5113
▁trade	-5114
essions	-5115
igation	-5116
liament	-5117
omiting	-5118
ulation	-5119
▁10,000	-5120
▁Christ	-5121
▁Demand	-5122
▁Global	-5123
▁Middle	-5124
▁Social	-5125
▁Thorat	-5126
▁Yojana	-5127
▁afford	-5128
▁agreed	-5129
▁always	-5130
▁backgr	-5131
▁beyond	-5132
▁circum	-5133
▁depend	-5134
▁elimin	-5135
▁factor	-5136
▁gloves	-5137
▁hazard	-5138
▁median	-5139
▁sought	-5140
▁source	-5141
▁tender	-5142
▁towels	-5143
atically	-5144
clinical	-5145
crackers	-5146
infected	-5147
▁Halfkin	-5148
▁Russian	-5149
▁Vardhan	-5150
▁Welfare	-5151
▁adapted	-5152
▁appears	-5153
▁benefic	-5154
▁capable	-5155
▁comfort	-5156
▁confirm	-5157
▁consequ	-5158
▁dropped	-5159
▁hotspot	-5160
▁pattern	-5161
▁prepare	-5162
▁reduces	-5163
▁selling	-5164
▁sources	-5165
itionally	-5166
▁Canadian	-5167
▁Facebook	-5168
▁academic	-5169
▁alveolar	-5170
▁cemetery	-5171
▁coroners	-5172
▁internet	-5173
▁laborers	-5174
▁membrane	-5175
▁movement	-5176
▁petition	-5177
▁produces	-5178
▁regional	-5179
▁repeated	-5180
▁reserved	-5181
▁resulted	-5182
▁reviewed	-5183
▁standing	-5184
▁transmit	-5185
▁unfortun	-5186
ailability	-5187
▁Cambridge	-5188
▁Following	-5189
▁Hospitals	-5190
▁Javadekar	-5191
▁Karnataka	-5192
▁customers	-5193
▁documents	-5194
▁pangolins	-5195
▁platforms	-5196
▁promising	-5197
▁regularly	-5198
AstraZeneca	-5199
▁Ahmednagar	-5200
▁Foundation	-5201
▁Pandharpur	-5202
▁components	-5203
▁coronation	-5204
▁discharged	-5205
▁medications	-5206
▁interspecies	-5207
▁interventions	-5208
▁microorganisms	-5209
32	-5210
40	-5211
Co	-5212
GI	-5213
My	-5214
No	-5215
RA	-5216
ST	-5217
by	-5218
ka	-5219
su	-5220
uj	-5221
Dec	-5222
arh	-5223
cop	-5224
eed	-5225
hra	-5226
oly	-5227
oul	-5228
rak	-5229
rew	-5230
str	-5231
uda	-5232
▁(5	-5233
▁4)	-5234
▁57	-5235
acet	-5236
ahar	-5237
avax	-5238
axim	-5239
geal	-5240
head	-5241
iced	-5242
ovir	-5243
purp	-5244
rael	-5245
resh	-5246
uest	-5247
zhen	-5248
▁Aff	-5249
▁Est	-5250
▁Goa	-5251
▁God	-5252
▁IMA	-5253
▁Imm	-5254
▁Kak	-5255
▁Kov	-5256
▁Per	-5257
▁Ted	-5258
▁Tur	-5259
▁Wik	-5260
▁ail	-5261
▁anx	-5262
▁fru	-5263
▁har	-5264
▁hav	-5265
▁mit	-5266
borne	-5267
ching	-5268
cript	-5269
ented	-5270
haryn	-5271
retar	-5272
riers	-5273
▁Cels	-5274
▁Form	-5275
▁Head	-5276
▁Jour	-5277
▁Mand	-5278
▁baby	-5279
▁bott	-5280
▁dire	-5281
▁feed	-5282
▁felt	-5283
▁hous	-5284
▁labs	-5285
▁libr	-5286
▁rely	-5287
▁scan	-5288
▁suit	-5289
▁town	-5290
▁upon	-5291
▁wipe	-5292
akhand	-5293
allies	-5294
fforts	-5295
ilarly	-5296
imedia	-5297
obally	-5298
olling	-5299
shield	-5300
▁AIIMS	-5301
▁North	-5302
▁Order	-5303
▁abdom	-5304
▁agent	-5305
▁cumul	-5306
▁cycle	-5307
▁drink	-5308
▁gynec	-5309
▁happy	-5310
▁lymph	-5311
▁maxim	-5312
▁meals	-5313
▁minds	-5314
▁stick	-5315
▁swing	-5316
▁users	-5317
▁words	-5318
▁wrote	-5319
opharyn	-5320
verting	-5321
▁Aditya	-5322
▁Chavan	-5323
▁Hemant	-5324
▁Second	-5325
▁Tedros	-5326
▁arrive	-5327
▁behavi	-5328
▁cruise	-5329
▁inside	-5330
▁parcel	-5331
▁plants	-5332
▁really	-5333
▁repurp	-5334
▁shield	-5335
▁winter	-5336
▁workpl	-5337
acterial	-5338
rastruct	-5339
tainment	-5340
▁Affairs	-5341
▁Celsius	-5342
▁Company	-5343
▁Contact	-5344
▁Darekar	-5345
▁Foreign	-5346
▁Hopkins	-5347
▁Journal	-5348
▁Washing	-5349
▁breathe	-5350
▁cluster	-5351
▁consist	-5352
▁crossed	-5353
▁dismiss	-5354
▁fatigue	-5355
▁feeling	-5356
▁friends	-5357
▁funding	-5358
▁install	-5359
▁looking	-5360
▁mutated	-5361
▁nothing	-5362
▁operate	-5363
▁purpose	-5364
▁reverse	-5365
▁suspect	-5366
▁traders	-5367
▁travell	-5368
▁warning	-5369
▁writing	-5370
confirmed	-5371
rehensive	-5372
▁Clinical	-5373
▁Disaster	-5374
▁Students	-5375
▁anywhere	-5376
▁concrete	-5377
▁contacts	-5378
▁covering	-5379
▁criteria	-5380
▁download	-5381
▁numerous	-5382
▁proposed	-5383
▁purchase	-5384
▁remained	-5385
▁targeted	-5386
quarantine	-5387
▁extensive	-5388
▁groceries	-5389
▁resulting	-5390
▁vegetable	-5391
opharyngeal	-5392
▁collecting	-5393
▁cumulative	-5394
▁generation	-5395
▁regulatory	-5396
▁Uttarakhand	-5397
▁respirators	-5398
▁contaminated	-5399
▁preparations	-5400
▁circumstances	-5401
▁comprehensive	-5402
▁pediatricians	-5403
▁cardiovascular	-5404
);	-5405
HS	-5406
NS	-5407
oy	-5408
ta	-5409
HKU	-5410
IRO	-5411
ilt	-5412
urg	-5413
▁(4	-5414
▁(7	-5415
▁85	-5416
▁86	-5417
▁Ja	-5418
▁km	-5419
adic	-5420
aheb	-5421
ania	-5422
arks	-5423
ayat	-5424
igil	-5425
itor	-5426
ivek	-5427
ving	-5428
▁10,	-5429
▁19.	-5430
▁24,	-5431
▁30.	-5432
▁Cad	-5433
▁Chh	-5434
▁Hot	-5435
▁Sud	-5436
▁boy	-5437
▁cin	-5438
▁emb	-5439
▁eru	-5440
▁fer	-5441
▁flo	-5442
▁inh	-5443
▁lat	-5444
▁ren	-5445
▁thr	-5446
adeep	-5447
ained	-5448
akash	-5449
arter	-5450
ength	-5451
iency	-5452
ishad	-5453
otide	-5454
uting	-5455
▁Arab	-5456
▁Asia	-5457
▁CIRO	-5458
▁Deep	-5459
▁Kadu	-5460
▁Less	-5461
▁Nadu	-5462
▁Nath	-5463
▁Phys	-5464
▁Soci	-5465
▁Supp	-5466
▁adop	-5467
▁book	-5468
▁cive	-5469
▁cure	-5470
▁fell	-5471
▁mRNA	-5472
▁meal	-5473
▁ment	-5474
▁mist	-5475
▁note	-5476
▁ways	-5477
advant	-5478
entral	-5479
iation	-5480
ocytes	-5481
▁Along	-5482
▁Polit	-5483
▁Pract	-5484
▁Surat	-5485
▁Three	-5486
▁Vivek	-5487
▁Young	-5488
▁aches	-5489
▁amino	-5490
▁arise	-5491
▁fewer	-5492
▁moved	-5493
▁nasal	-5494
▁newsp	-5495
▁spent	-5496
▁swabs	-5497
▁worth	-5498
cluding	-5499
clusive	-5500
gestion	-5501
itially	-5502
ologies	-5503
ousands	-5504
romised	-5505
ymptoms	-5506
▁Akhada	-5507
▁Around	-5508
▁Former	-5509
▁Fortis	-5510
▁Israel	-5511
▁Policy	-5512
▁Sharad	-5513
▁Shinde	-5514
▁Survey	-5515
▁burden	-5516
▁cooper	-5517
▁doubts	-5518
▁emphas	-5519
▁extend	-5520
▁injury	-5521
▁liquor	-5522
▁mainly	-5523
▁prefer	-5524
▁reject	-5525
▁signed	-5526
▁thinks	-5527
retariat	-5528
tificial	-5529
▁Efforts	-5530
▁Finally	-5531
▁Hypoxia	-5532
▁Pradeep	-5533
▁Prakash	-5534
▁Private	-5535
▁Science	-5536
▁Society	-5537
▁Talking	-5538
▁appoint	-5539
▁calling	-5540
▁counter	-5541
▁details	-5542
▁entered	-5543
▁holiday	-5544
▁migrant	-5545
▁rallies	-5546
▁reading	-5547
▁records	-5548
▁sharing	-5549
▁stomach	-5550
▁updates	-5551
▁variety	-5552
▁withdra	-5553
ivisional	-5554
ormycosis	-5555
▁Moreover	-5556
▁Parishad	-5557
▁actually	-5558
▁alarming	-5559
▁collabor	-5560
▁contract	-5561
▁cowardly	-5562
▁cultural	-5563
▁geograph	-5564
▁headache	-5565
▁homology	-5566
▁mainland	-5567
▁manpower	-5568
▁removing	-5569
▁shopping	-5570
▁suggests	-5571
▁vomiting	-5572
generating	-5573
▁Infection	-5574
▁addressed	-5575
▁agitation	-5576
▁covshield	-5577
▁dependent	-5578
▁disadvant	-5579
▁evolution	-5580
▁prioritiz	-5581
▁purchased	-5582
▁receiving	-5583
▁specimens	-5584
rastructure	-5585
▁Infectious	-5586
▁background	-5587
▁congestion	-5588
▁industries	-5589
▁medication	-5590
▁operations	-5591
▁precaution	-5592
▁proportion	-5593
▁volunteers	-5594
▁challenging	-5595
▁engineering	-5596
▁experienced	-5597
▁opportunity	-5598
▁performance	-5599
▁reservation	-5600
▁unfortunate	-5601
▁Surveillance	-5602
▁geographical	-5603
▁implications	-5604
▁specifically	-5605
▁spokesperson	-5606
▁temperatures	-5607
▁administrative	-5608
▁discrimination	-5609
%,	-5610
37	-5611
5,	-5612
69	-5613
87	-5614
94	-5615
Af	-5616
Tr	-5617
200	-5618
App	-5619
RDS	-5620
RTI	-5621
SHA	-5622
aca	-5623
chu	-5624
enm	-5625
eth	-5626
ika	-5627
imp	-5628
ips	-5629
jab	-5630
wat	-5631
zer	-5632
▁1)	-5633
▁7.	-5634
▁75	-5635
▁8,	-5636
▁96	-5637
▁Ef	-5638
▁MH	-5639
▁dw	-5640
▁fa	-5641
Even	-5642
Many	-5643
ades	-5644
ails	-5645
avat	-5646
cial	-5647
cles	-5648
fere	-5649
geon	-5650
iety	-5651
iger	-5652
kari	-5653
more	-5654
opin	-5655
opsy	-5656
thal	-5657
thma	-5658
trol	-5659
urse	-5660
▁11,	-5661
▁15.	-5662
▁250	-5663
▁Ank	-5664
▁Bal	-5665
▁Che	-5666
▁III	-5667
▁Mus	-5668
▁PTI	-5669
▁Vis	-5670
▁adj	-5671
▁dyn	-5672
▁esc	-5673
▁fec	-5674
▁kil	-5675
▁rev	-5676
▁rul	-5677
After	-5678
Happy	-5679
asure	-5680
itary	-5681
oster	-5682
round	-5683
scale	-5684
tiary	-5685
trans	-5686
▁1201	-5687
▁Beds	-5688
▁Beed	-5689
▁Datt	-5690
▁Denm	-5691
▁Just	-5692
▁Khan	-5693
▁Kish	-5694
▁MPSC	-5695
▁Naik	-5696
▁Pras	-5697
▁Tupe	-5698
▁dies	-5699
▁diss	-5700
▁elev	-5701
▁flow	-5702
▁game	-5703
▁herd	-5704
▁norm	-5705
▁repl	-5706
▁sale	-5707
▁seat	-5708
▁size	-5709
▁text	-5710
▁warm	-5711
ailand	-5712
anjali	-5713
ensity	-5714
hether	-5715
itment	-5716
ogenic	-5717
rakant	-5718
second	-5719
▁2,000	-5720
▁2019.	-5721
▁Aslam	-5722
▁Based	-5723
▁Kamal	-5724
▁Rules	-5725
▁Super	-5726
▁Times	-5727
▁Yavat	-5728
▁advis	-5729
▁alpha	-5730
▁built	-5731
▁fears	-5732
▁fixed	-5733
▁forms	-5734
▁girls	-5735
▁heard	-5736
▁lopin	-5737
▁needy	-5738
▁posts	-5739
▁risks	-5740
▁rooms	-5741
▁ruled	-5742
▁saved	-5743
▁sense	-5744
▁theat	-5745
▁vigil	-5746
imicrob	-5747
knowled	-5748
mercial	-5749
ossible	-5750
ressing	-5751
▁Americ	-5752
▁Doctor	-5753
▁Market	-5754
▁Punjab	-5755
▁Ramesh	-5756
▁Sheikh	-5757
▁Taiwan	-5758
▁caring	-5759
▁domain	-5760
▁easily	-5761
▁handed	-5762
▁looked	-5763
▁prompt	-5764
▁ruling	-5765
▁sealed	-5766
▁ticket	-5767
▁traced	-5768
▁turned	-5769
▁Alcohol	-5770
▁Denmark	-5771
▁Express	-5772
▁Maharaj	-5773
▁Network	-5774
▁Novavax	-5775
▁Privacy	-5776
▁adminis	-5777
▁checked	-5778
▁delayed	-5779
▁follows	-5780
▁maximum	-5781
▁mission	-5782
▁putting	-5783
▁quickly	-5784
▁railway	-5785
upational	-5786
▁Symptoms	-5787
▁Thailand	-5788
▁Yavatmal	-5789
▁ailments	-5790
▁assembly	-5791
▁believed	-5792
▁constitu	-5793
▁disposal	-5794
▁electric	-5795
▁employee	-5796
▁globally	-5797
▁limiting	-5798
▁pangolin	-5799
▁prescrib	-5800
▁protease	-5801
▁sections	-5802
▁Bioentech	-5803
▁Thousands	-5804
▁activists	-5805
▁bacterial	-5806
▁childcare	-5807
▁disorders	-5808
▁efficient	-5809
▁happening	-5810
▁inspected	-5811
▁lopinavir	-5812
▁marketing	-5813
▁morbidity	-5814
▁particles	-5815
▁pulmonary	-5816
▁responses	-5817
▁sensitive	-5818
▁submitted	-5819
information	-5820
▁Guidelines	-5821
▁Scientists	-5822
▁Statistics	-5823
▁Washington	-5824
▁bronchitis	-5825
▁consistent	-5826
▁disruption	-5827
▁incubation	-5828
▁questioned	-5829
▁limitations	-5830
▁maintaining	-5831
▁traditional	-5832
▁virological	-5833
▁Additionally	-5834
▁commissioner	-5835
▁correspondent	-5836
▁nasopharyngeal	-5837
11	-5838
13	-5839
22	-5840
3.	-5841
36	-5842
68	-5843
EM	-5844
ME	-5845
NT	-5846
ss	-5847
yp	-5848
anm	-5849
ape	-5850
aro	-5851
aug	-5852
ava	-5853
dus	-5854
eal	-5855
hoe	-5856
jee	-5857
▁3,	-5858
▁32	-5859
▁39	-5860
▁54	-5861
▁9,	-5862
▁97	-5863
▁Bu	-5864
▁CM	-5865
▁Eb	-5866
▁ID	-5867
▁Lo	-5868
▁Os	-5869
▁ap	-5870
▁ey	-5871
-19)	-5872
When	-5873
adar	-5874
chir	-5875
hoea	-5876
ilip	-5877
iliz	-5878
imal	-5879
irao	-5880
noon	-5881
roke	-5882
soon	-5883
teen	-5884
ught	-5885
vert	-5886
vest	-5887
▁15,	-5888
▁28,	-5889
▁31.	-5890
▁90%	-5891
▁Ach	-5892
▁Ban	-5893
▁Bet	-5894
▁Blu	-5895
▁CEO	-5896
▁Int	-5897
▁Red	-5898
▁See	-5899
▁ask	-5900
▁enh	-5901
▁lin	-5902
▁pal	-5903
▁tim	-5904
▁unw	-5905
Every	-5906
activ	-5907
arked	-5908
arwal	-5909
aying	-5910
chers	-5911
ences	-5912
enter	-5913
inese	-5914
inion	-5915
light	-5916
orbid	-5917
sense	-5918
tries	-5919
wards	-5920
▁Answ	-5921
▁Bhal	-5922
▁Cris	-5923
▁Fire	-5924
▁Gold	-5925
▁Gore	-5926
▁Lack	-5927
▁Mask	-5928
▁Nand	-5929
▁Read	-5930
▁Samp	-5931
▁club	-5932
▁dash	-5933
▁easy	-5934
▁join	-5935
▁meat	-5936
▁noon	-5937
▁nutr	-5938
▁pace	-5939
▁pill	-5940
▁pool	-5941
▁radi	-5942
▁runs	-5943
▁soil	-5944
▁thor	-5945
alyzed	-5946
onavir	-5947
preced	-5948
▁Apple	-5949
▁Asked	-5950
▁Death	-5951
▁Diagn	-5952
▁Ebola	-5953
▁Incre	-5954
▁Labor	-5955
▁Level	-5956
▁Nitin	-5957
▁Osman	-5958
▁Salun	-5959
▁Solid	-5960
▁Their	-5961
▁Zydus	-5962
▁accel	-5963
▁ahead	-5964
▁basic	-5965
▁block	-5966
▁broke	-5967
▁cards	-5968
▁count	-5969
▁dying	-5970
▁faces	-5971
▁fifth	-5972
▁fresh	-5973
▁grand	-5974
▁https	-5975
▁lying	-5976
▁names	-5977
▁plane	-5978
▁river	-5979
▁roads	-5980
▁stuck	-5981
Chinese	-5982
January	-5983
chiroli	-5984
inating	-5985
loyment	-5986
ressive	-5987
▁Brooke	-5988
▁Kishor	-5989
▁Nanded	-5990
▁Nether	-5991
▁Sachin	-5992
▁Sangli	-5993
▁Wardha	-5994
▁accomp	-5995
▁annual	-5996
▁appeal	-5997
▁arises	-5998
▁asthma	-5999
▁charge	-6000
▁figure	-6001
▁forget	-6002
▁helped	-6003
▁income	-6004
▁latest	-6005
▁linked	-6006
▁lowest	-6007
▁moving	-6008
▁opened	-6009
▁remind	-6010
▁reprod	-6011
▁retail	-6012
▁satisf	-6013
▁simply	-6014
▁wanted	-6015
hananjay	-6016
specific	-6017
ssential	-6018
▁Agarwal	-6019
▁Bajirao	-6020
▁Bhagwat	-6021
▁Cabinet	-6022
▁Testing	-6023
▁Western	-6024
▁airport	-6025
▁anticip	-6026
▁arrival	-6027
▁binding	-6028
▁borders	-6029
▁concept	-6030
▁donated	-6031
▁enhance	-6032
▁grocery	-6033
▁journey	-6034
▁lessons	-6035
▁meaning	-6036
▁observe	-6037
▁package	-6038
▁reflect	-6039
▁science	-6040
▁section	-6041
▁serving	-6042
▁thanked	-6043
▁trained	-6044
▁weekend	-6045
uarantine	-6046
▁Sciences	-6047
▁Shenzhen	-6048
▁accident	-6049
▁activist	-6050
▁antibiot	-6051
▁bringing	-6052
▁develops	-6053
▁disaster	-6054
▁enforced	-6055
▁entirely	-6056
▁envelope	-6057
▁generate	-6058
▁partners	-6059
▁province	-6060
▁rejected	-6061
▁resident	-6062
▁selected	-6063
▁spending	-6064
▁strictly	-6065
▁substant	-6066
▁thorough	-6067
▁transfer	-6068
▁weakened	-6069
▁Ministers	-6070
▁Osmanabad	-6071
▁Patanjali	-6072
▁afternoon	-6073
▁character	-6074
▁compounds	-6075
▁dashboard	-6076
▁detection	-6077
▁exception	-6078
▁fortnight	-6079
▁locations	-6080
▁pathogens	-6081
▁reactions	-6082
▁relations	-6083
▁transmiss	-6084
▁uncertain	-6085
▁violating	-6086
precedented	-6087
▁Gadchiroli	-6088
▁Parliament	-6089
▁Remdesivir	-6090
▁ambulances	-6091
▁decreasing	-6092
▁nationally	-6093
▁nucleotide	-6094
▁persistent	-6095
▁remdesivir	-6096
▁Chandrakant	-6097
▁Netherlands	-6098
▁Researchers	-6099
▁controlling	-6100
▁interacting	-6101
▁cancellation	-6102
▁conferencing	-6103
▁disinfectant	-6104
▁manufacturer	-6105
▁collaboration	-6106
▁professionals	-6107
▁recombination	-6108
▁Pharmaceutical	-6109
▁representatives	-6110
1,	-6111
44	-6112
80	-6113
88	-6114
?"	-6115
gg	-6116
iy	-6117
vt	-6118
yl	-6119
CGI	-6120
ICE	-6121
agg	-6122
aki	-6123
atn	-6124
dep	-6125
ext	-6126
ges	-6127
hin	-6128
ini	-6129
isg	-6130
iti	-6131
lad	-6132
oms	-6133
osh	-6134
rub	-6135
ses	-6136
sid	-6137
udi	-6138
▁72	-6139
▁92	-6140
▁94	-6141
▁TV	-6142
.8%)	-6143
acqu	-6144
ager	-6145
alle	-6146
amol	-6147
anks	-6148
atio	-6149
back	-6150
eded	-6151
gone	-6152
ipal	-6153
made	-6154
olic	-6155
omic	-6156
open	-6157
oral	-6158
oter	-6159
tisg	-6160
umab	-6161
umed	-6162
▁1.7	-6163
▁10.	-6164
▁144	-6165
▁20.	-6166
▁30,	-6167
▁Adv	-6168
▁Def	-6169
▁ILI	-6170
▁Jai	-6171
▁Jal	-6172
▁Kal	-6173
▁Kan	-6174
▁Muk	-6175
▁Nax	-6176
▁Ped	-6177
▁Pvt	-6178
▁Sup	-6179
▁Ter	-6180
▁bre	-6181
▁cop	-6182
▁div	-6183
▁eat	-6184
▁enr	-6185
▁exc	-6186
▁gre	-6187
▁kid	-6188
▁lay	-6189
▁log	-6190
▁nod	-6191
▁rib	-6192
▁rob	-6193
▁sad	-6194
▁suc	-6195
▁sun	-6196
▁syn	-6197
▁wel	-6198
alkar	-6199
anced	-6200
ancet	-6201
andey	-6202
enous	-6203
force	-6204
hanom	-6205
ilesh	-6206
imary	-6207
nekar	-6208
otein	-6209
ujbal	-6210
ulkar	-6211
under	-6212
usted	-6213
▁Bach	-6214
▁DCGI	-6215
▁Gupt	-6216
▁Keep	-6217
▁Like	-6218
▁Plan	-6219
▁Prof	-6220
▁army	-6221
▁depr	-6222
▁dest	-6223
▁diet	-6224
▁fish	-6225
▁fram	-6226
▁germ	-6227
▁inef	-6228
▁loan	-6229
▁port	-6230
▁rubs	-6231
▁shed	-6232
▁situ	-6233
▁slum	-6234
▁terr	-6235
▁ther	-6236
▁weap	-6237
▁wild	-6238
▁yoga	-6239
ellers	-6240
enovir	-6241
erally	-6242
hedkar	-6243
rences	-6244
▁1,000	-6245
▁3,000	-6246
▁Bhand	-6247
▁Fever	-6248
▁Immun	-6249
▁Kunte	-6250
▁Latur	-6251
▁Rajiv	-6252
▁Regis	-6253
▁Relig	-6254
▁Short	-6255
▁Using	-6256
▁Zilla	-6257
▁alert	-6258
▁apart	-6259
▁audit	-6260
▁autom	-6261
▁boost	-6262
▁buses	-6263
▁categ	-6264
▁chart	-6265
▁dryer	-6266
▁dynam	-6267
▁enemy	-6268
▁fatal	-6269
▁floor	-6270
▁inaug	-6271
▁loved	-6272
▁meant	-6273
▁rains	-6274
▁ranks	-6275
▁ratio	-6276
▁shift	-6277
▁skill	-6278
▁smell	-6279
▁swine	-6280
▁tired	-6281
▁towel	-6282
▁truck	-6283
▁union	-6284
▁valid	-6285
▁wants	-6286
estinal	-6287
ilities	-6288
ography	-6289
porting	-6290
taining	-6291
tension	-6292
tisgarh	-6293
uestion	-6294
▁Golden	-6295
▁Jayant	-6296
▁Lancet	-6297
▁Niranj	-6298
▁Pandey	-6299
▁Prasad	-6300
▁Safety	-6301
▁Severe	-6302
▁agents	-6303
▁anonym	-6304
▁antise	-6305
▁blamed	-6306
▁compet	-6307
▁conver	-6308
▁counts	-6309
▁crores	-6310
▁disple	-6311
▁eradic	-6312
▁finger	-6313
▁fluids	-6314
▁lifted	-6315
▁makeup	-6316
▁paying	-6317
▁prices	-6318
▁prohib	-6319
▁screen	-6320
▁slight	-6321
▁slowed	-6322
▁sneeze	-6323
▁speech	-6324
▁stabil	-6325
▁suffer	-6326
▁unless	-6327
▁unlike	-6328
▁varies	-6329
December	-6330
acetamol	-6331
acquired	-6332
adequate	-6333
ficiency	-6334
▁2019-20	-6335
▁Adhanom	-6336
▁Bachchu	-6337
▁Bhujbal	-6338
▁Finance	-6339
▁Further	-6340
▁Industr	-6341
▁Instead	-6342
▁Shivaji	-6343
▁Through	-6344
▁actions	-6345
▁anxiety	-6346
▁autopsy	-6347
▁collaps	-6348
▁depends	-6349
▁finding	-6350
▁heavily	-6351
▁helping	-6352
▁interru	-6353
▁killing	-6354
▁machine	-6355
▁managed	-6356
▁origins	-6357
▁pointed	-6358
▁quarter	-6359
▁revenue	-6360
▁talukas	-6361
▁tourism	-6362
▁witness	-6363
infection	-6364
▁Economic	-6365
▁Measures	-6366
▁accepted	-6367
▁airborne	-6368
▁carrying	-6369
▁ceremony	-6370
▁convened	-6371
▁cytokine	-6372
▁dwellers	-6373
▁improved	-6374
▁indicate	-6375
▁messages	-6376
▁offering	-6377
▁remember	-6378
▁suddenly	-6379
▁thinking	-6380
▁visiting	-6381
▁washroom	-6382
converting	-6383
imicrobial	-6384
preserving	-6385
▁Dhananjay	-6386
▁abdominal	-6387
▁agreement	-6388
▁carefully	-6389
▁collector	-6390
▁criticism	-6391
▁emergence	-6392
▁functions	-6393
▁gathering	-6394
▁indicated	-6395
▁libraries	-6396
▁predicted	-6397
▁requested	-6398
▁technique	-6399
▁undergone	-6400
▁artificial	-6401
▁beneficial	-6402
▁determined	-6403
▁employment	-6404
▁encouraged	-6405
▁interacted	-6406
▁originally	-6407
▁quantities	-6408
▁situations	-6409
▁struggling	-6410
▁Secretariat	-6411
▁differences	-6412
▁independent	-6413
▁operational	-6414
▁recognition	-6415
▁replication	-6416
▁serological	-6417
▁suggestions	-6418
▁unnecessary	-6419
▁Californians	-6420
▁Chhattisgarh	-6421
▁administered	-6422
▁constituency	-6423
▁consultation	-6424
▁demonstrated	-6425
▁firecrackers	-6426
▁hypertension	-6427
▁inflammatory	-6428
▁mucormycosis	-6429
▁preparedness	-6430
▁requirements	-6431
▁respectively	-6432
▁Coronaviruses	-6433
▁antibacterial	-6434
▁deteriorating	-6435
▁investigating	-6436
▁transcription	-6437
▁communications	-6438
-6	-6439
.0	-6440
14	-6441
26	-6442
AS	-6443
IT	-6444
TC	-6445
pm	-6446
wa	-6447
-2-	-6448
-21	-6449
500	-6450
For	-6451
You	-6452
era	-6453
ger	-6454
het	-6455
kan	-6456
oja	-6457
rep	-6458
sun	-6459
tak	-6460
ued	-6461
yas	-6462
▁2)	-6463
▁3)	-6464
▁43	-6465
▁53	-6466
▁61	-6467
▁64	-6468
▁66	-6469
▁7,	-6470
▁73	-6471
▁77	-6472
▁78	-6473
▁79	-6474
▁93	-6475
▁Dh	-6476
▁HR	-6477
▁RB	-6478
▁da	-6479
ARDS	-6480
MERS	-6481
Some	-6482
agan	-6483
atri	-6484
ball	-6485
bber	-6486
body	-6487
cast	-6488
emas	-6489
emed	-6490
etah	-6491
idav	-6492
olit	-6493
phan	-6494
quad	-6495
ream	-6496
rier	-6497
shaw	-6498
uing	-6499
uter	-6500
wada	-6501
▁0.5	-6502
▁1,0	-6503
▁14.	-6504
▁31,	-6505
▁50%	-6506
▁7,1	-6507
▁Bah	-6508
▁HIV	-6509
▁KEM	-6510
▁Kon	-6511
▁Lab	-6512
▁Mac	-6513
▁Pan	-6514
▁Run	-6515
▁Sah	-6516
▁Vad	-6517
▁anc	-6518
▁bio	-6519
▁ble	-6520
▁cry	-6521
▁dim	-6522
▁fem	-6523
▁hin	-6524
▁hon	-6525
▁hop	-6526
▁hyp	-6527
▁mal	-6528
▁rac	-6529
▁row	-6530
▁sex	-6531
▁ske	-6532
▁ves	-6533
-19).	-6534
aired	-6535
alaya	-6536
allel	-6537
andom	-6538
anish	-6539
anmay	-6540
arest	-6541
flamm	-6542
iated	-6543
idays	-6544
idden	-6545
imate	-6546
itude	-6547
izers	-6548
logen	-6549
ommod	-6550
umber	-6551
utral	-6552
▁Bird	-6553
▁CEPI	-6554
▁Crit	-6555
▁Fear	-6556
▁MHRA	-6557
▁Mung	-6558
▁Sidd	-6559
▁Wear	-6560
▁adds	-6561
▁capt	-6562
▁cred	-6563
▁foot	-6564
▁gard	-6565
▁goal	-6566
▁hung	-6567
▁insu	-6568
▁mamm	-6569
▁puts	-6570
▁taxi	-6571
▁touc	-6572
▁user	-6573
aduate	-6574
angana	-6575
atitis	-6576
edical	-6577
etooth	-6578
icated	-6579
igence	-6580
ission	-6581
liance	-6582
normal	-6583
▁Blood	-6584
▁Drugs	-6585
▁Lanka	-6586
▁Panch	-6587
▁Right	-6588
▁Saudi	-6589
▁Siram	-6590
▁Sunil	-6591
▁actor	-6592
▁bench	-6593
▁bound	-6594
▁broad	-6595
▁chlor	-6596
▁dates	-6597
▁diver	-6598
▁drawn	-6599
▁earli	-6600
▁faced	-6601
▁feels	-6602
▁freed	-6603
▁funds	-6604
▁gathe	-6605
▁jumbo	-6606
▁malls	-6607
▁molec	-6608
▁pilot	-6609
▁progn	-6610
▁round	-6611
▁route	-6612
▁sales	-6613
▁smoke	-6614
▁steel	-6615
▁succe	-6616
▁surpr	-6617
▁toxic	-6618
▁uncle	-6619
▁value	-6620
▁watch	-6621
▁white	-6622
▁worst	-6623
concept	-6624
ickshaw	-6625
ositive	-6626
through	-6627
▁Arabia	-6628
▁Bhalke	-6629
▁Hebber	-6630
▁Jaipur	-6631
▁Konkan	-6632
▁actual	-6633
▁adjust	-6634
▁agency	-6635
▁crying	-6636
▁delays	-6637
▁device	-6638
▁easier	-6639
▁enable	-6640
▁enters	-6641
▁female	-6642
▁fruits	-6643
▁harass	-6644
▁length	-6645
▁medium	-6646
▁neglig	-6647
▁photos	-6648
▁please	-6649
▁points	-6650
▁random	-6651
▁salary	-6652
▁scared	-6653
▁secret	-6654
▁smooth	-6655
▁sports	-6656
▁twenty	-6657
▁visits	-6658
▁window	-6659
utations	-6660
▁African	-6661
▁Coronil	-6662
▁Lucknow	-6663
▁Similar	-6664
▁Sitaram	-6665
▁Supreme	-6666
▁affidav	-6667
▁bicycle	-6668
▁cardiac	-6669
▁century	-6670
▁comment	-6671
▁compare	-6672
▁context	-6673
▁correct	-6674
▁dispute	-6675
▁emerged	-6676
▁factory	-6677
▁finally	-6678
▁formula	-6679
▁infects	-6680
▁jointly	-6681
▁largely	-6682
▁mammals	-6683
▁offered	-6684
▁protest	-6685
▁suscept	-6686
▁tribals	-6687
▁undergo	-6688
▁vitamin	-6689
intendent	-6690
isolation	-6691
secondary	-6692
▁Assembly	-6693
▁Governor	-6694
▁Munganti	-6695
▁Pednekar	-6696
▁accurate	-6697
▁acquired	-6698
▁appeared	-6699
▁behavior	-6700
▁bicycles	-6701
▁combined	-6702
▁earliest	-6703
▁elevated	-6704
▁entities	-6705
▁gathered	-6706
▁impacted	-6707
▁instance	-6708
▁involves	-6709
▁managing	-6710
▁ordinary	-6711
▁parallel	-6712
▁premises	-6713
▁promoted	-6714
▁sessions	-6715
▁shocking	-6716
▁specimen	-6717
▁stations	-6718
▁suitable	-6719
▁surround	-6720
▁theaters	-6721
▁vigilant	-6722
▁websites	-6723
▁yourself	-6724
associated	-6725
▁Bluetooth	-6726
▁Essential	-6727
▁Initially	-6728
▁Similarly	-6729
▁Telangana	-6730
▁anonymity	-6731
▁converted	-6732
▁executive	-6733
▁illnesses	-6734
▁incidents	-6735
▁influence	-6736
▁permitted	-6737
▁prevented	-6738
▁receptors	-6739
▁structure	-6740
▁Kovishield	-6741
▁assessment	-6742
▁commercial	-6743
▁coronaries	-6744
▁electronic	-6745
▁indicating	-6746
▁inhibitors	-6747
▁mitigation	-6748
▁restricted	-6749
▁specialist	-6750
▁university	-6751
availability	-6752
▁certificate	-6753
▁consecutive	-6754
▁displeasure	-6755
▁electricity	-6756
▁observation	-6757
▁paracetamol	-6758
▁preparation	-6759
▁questioning	-6760
▁restriction	-6761
▁symptomatic	-6762
▁transported	-6763
▁arrangements	-6764
▁consequences	-6765
▁insufficient	-6766
▁communication	-6767
▁disadvantaged	-6768
▁infrastructure	-6769
'?	-6770
2.	-6771
5.	-6772
67	-6773
93	-6774
Ad	-6775
EP	-6776
GC	-6777
Go	-6778
MC	-6779
RF	-6780
hs	-6781
lt	-6782
ww	-6783
-10	-6784
-95	-6785
43,	-6786
Bio	-6787
Cov	-6788
ERE	-6789
Gen	-6790
agh	-6791
ama	-6792
ees	-6793
emp	-6794
erb	-6795
exp	-6796
gov	-6797
isc	-6798
iya	-6799
key	-6800
mas	-6801
mat	-6802
mel	-6803
men	-6804
ony	-6805
oom	-6806
pid	-6807
rec	-6808
uls	-6809
upp	-6810
ups	-6811
www	-6812
yms	-6813
▁("	-6814
▁2-	-6815
▁46	-6816
▁47	-6817
▁52	-6818
▁68	-6819
▁69	-6820
▁AB	-6821
▁AN	-6822
▁Br	-6823
▁Ev	-6824
▁Hu	-6825
▁Li	-6826
▁Op	-6827
▁Pe	-6828
▁Sm	-6829
▁Vi	-6830
HERE	-6831
aint	-6832
apar	-6833
appr	-6834
aria	-6835
axis	-6836
ayan	-6837
dess	-6838
ects	-6839
erna	-6840
gisl	-6841
hani	-6842
ieve	-6843
ipes	-6844
isen	-6845
itus	-6846
lets	-6847
obia	-6848
oded	-6849
onal	-6850
otal	-6851
this	-6852
ulin	-6853
unic	-6854
uris	-6855
xime	-6856
▁(20	-6857
▁12,	-6858
▁2.4	-6859
▁20,	-6860
▁30%	-6861
▁70%	-6862
▁80%	-6863
▁Bus	-6864
▁Day	-6865
▁GPs	-6866
▁Gan	-6867
▁Has	-6868
▁Ins	-6869
▁Its	-6870
▁Jam	-6871
▁Kir	-6872
▁Met	-6873
▁Nik	-6874
▁Sar	-6875
▁Shr	-6876
▁Str	-6877
▁Tal	-6878
▁Try	-6879
▁bot	-6880
▁cho	-6881
▁eye	-6882
▁inn	-6883
▁mem	-6884
▁nor	-6885
▁oil	-6886
▁pra	-6887
▁pun	-6888
▁rum	-6889
ammed	-6890
andra	-6891
annel	-6892
asket	-6893
aveen	-6894
eased	-6895
ector	-6896
edary	-6897
eluda	-6898
eshav	-6899
eties	-6900
hebre	-6901
hsild	-6902
itzer	-6903
ivals	-6904
ocard	-6905
ocyte	-6906
ostic	-6907
tiwar	-6908
upees	-6909
water	-6910
▁Epid	-6911
▁Five	-6912
▁Karj	-6913
▁Mild	-6914
▁Mort	-6915
▁Oper	-6916
▁Phil	-6917
▁Prem	-6918
▁Rest	-6919
▁Said	-6920
▁Says	-6921
▁Sion	-6922
▁Step	-6923
▁Subh	-6924
▁Vyas	-6925
▁achi	-6926
▁cool	-6927
▁coup	-6928
▁drom	-6929
▁entr	-6930
▁fake	-6931
▁gain	-6932
▁gown	-6933
▁hall	-6934
▁horr	-6935
▁laid	-6936
▁lawy	-6937
▁mell	-6938
▁mice	-6939
▁neur	-6940
▁pork	-6941
▁pure	-6942
▁tsun	-6943
Mamata	-6944
Oxygen	-6945
algaon	-6946
antage	-6947
apping	-6948
coming	-6949
ecting	-6950
endors	-6951
eshwar	-6952
ferers	-6953
harmac	-6954
income	-6955
ladesh	-6956
ointed	-6957
pected	-6958
rapati	-6959
troint	-6960
▁7,162	-6961
▁Appro	-6962
▁Asian	-6963
▁Dilip	-6964
▁Happy	-6965
▁Shiva	-6966
▁Vadet	-6967
▁Virus	-6968
▁abide	-6969
▁artic	-6970
▁catch	-6971
▁civil	-6972
▁cloth	-6973
▁color	-6974
▁email	-6975
▁enhan	-6976
▁fecal	-6977
▁genet	-6978
▁heavy	-6979
▁incon	-6980
▁input	-6981
▁lakhs	-6982
▁looks	-6983
▁nurse	-6984
▁oblig	-6985
▁reass	-6986
▁repor	-6987
▁unemp	-6988
▁worry	-6989
arpanch	-6990
eration	-6991
initely	-6992
istical	-6993
ophobia	-6994
rubbing	-6995
ximeter	-6996
▁Action	-6997
▁Andhra	-6998
▁Common	-6999
▁Concer	-7000
▁Dattat	-7001
▁Ganesh	-7002
▁Genome	-7003
▁Ghebre	-7004
▁Instit	-7005
▁Keshav	-7006
▁Korean	-7007
▁Legisl	-7008
▁Person	-7009
▁Proper	-7010
▁Shaila	-7011
▁Sudhir	-7012
▁System	-7013
▁Tanmay	-7014
▁Visakh	-7015
▁arisen	-7016
▁breast	-7017
▁civets	-7018
▁corpor	-7019
▁denied	-7020
▁devast	-7021
▁energy	-7022
▁failed	-7023
▁forces	-7024
▁intend	-7025
▁joined	-7026
▁launch	-7027
▁lethal	-7028
▁meters	-7029
▁metres	-7030
▁models	-7031
▁orphan	-7032
▁papers	-7033
▁parent	-7034
▁quoted	-7035
▁rupees	-7036
▁seeing	-7037
▁series	-7038
▁tweets	-7039
▁update	-7040
changing	-7041
distance	-7042
itioners	-7043
ividuals	-7044
ocardial	-7045
▁2020-21	-7046
▁Kishori	-7047
▁Moderna	-7048
▁Praveen	-7049
▁Samples	-7050
▁Surgeon	-7051
▁Switzer	-7052
▁Various	-7053
▁Whether	-7054
▁adopted	-7055
▁altered	-7056
▁arrives	-7057
▁attacks	-7058
▁chances	-7059
▁cheetah	-7060
▁cleaned	-7061
▁clothes	-7062
▁diminis	-7063
▁doubled	-7064
▁edition	-7065
▁granted	-7066
▁hearing	-7067
▁imaging	-7068
▁isolate	-7069
▁letters	-7070
▁nearest	-7071
▁nursing	-7072
▁opinion	-7073
▁outcome	-7074
▁plastic	-7075
▁popular	-7076
▁promote	-7077
▁raising	-7078
▁readily	-7079
▁refused	-7080
▁rushing	-7081
▁seeking	-7082
▁sending	-7083
▁slammed	-7084
▁smoking	-7085
▁sparked	-7086
▁sterile	-7087
▁teacher	-7088
▁telling	-7089
▁thermal	-7090
▁tickets	-7091
▁tsunami	-7092
▁worried	-7093
Currently	-7094
asketball	-7095
elligence	-7096
logenetic	-7097
ritonavir	-7098
▁Agricult	-7099
▁American	-7100
▁Antibody	-7101
▁Security	-7102
▁Virology	-7103
▁abortion	-7104
▁accommod	-7105
▁barriers	-7106
▁checking	-7107
▁compound	-7108
▁cremated	-7109
▁deceased	-7110
▁examined	-7111
▁feedback	-7112
▁festival	-7113
▁holidays	-7114
▁hotspots	-7115
▁machines	-7116
▁mellitus	-7117
▁modified	-7118
▁opportun	-7119
▁programs	-7120
▁purposes	-7121
▁reflects	-7122
▁soldiers	-7123
▁struggle	-7124
▁suffered	-7125
▁swelling	-7126
▁tertiary	-7127
▁theories	-7128
▁withdraw	-7129
aharashtra	-7130
orbidities	-7131
▁Financial	-7132
▁Ghebreyes	-7133
▁Panchayat	-7134
▁Relatives	-7135
▁acknowled	-7136
▁advantage	-7137
▁attending	-7138
▁authority	-7139
▁behaviour	-7140
▁decentral	-7141
▁dromedary	-7142
▁exercises	-7143
▁improving	-7144
▁informing	-7145
▁institute	-7146
▁pollution	-7147
▁procedure	-7148
▁processes	-7149
▁publicity	-7150
▁reference	-7151
▁reporters	-7152
▁sufferers	-7153
▁travelers	-7154
coronavirus	-7155
▁Bangladesh	-7156
▁Industrial	-7157
▁Solidarity	-7158
▁adaptation	-7159
▁affordable	-7160
▁antiseptic	-7161
▁approached	-7162
▁approaches	-7163
▁cancelling	-7164
▁classified	-7165
▁comparison	-7166
▁impossible	-7167
▁inadequate	-7168
▁performing	-7169
▁prioritize	-7170
▁reportedly	-7171
▁separation	-7172
▁Chhatrapati	-7173
▁Furthermore	-7174
▁Individuals	-7175
▁Mungantiwar	-7176
▁Restaurants	-7177
▁Switzerland	-7178
▁anticipated	-7179
▁compromised	-7180
▁contracting	-7181
▁emergencies	-7182
▁enforcement	-7183
▁handwashing	-7184
▁institution	-7185
▁psychiatric	-7186
▁statistical	-7187
▁technicians	-7188
▁temporarily	-7189
trointestinal	-7190
▁experimental	-7191
▁formulations	-7192
▁nonessential	-7193
▁subsequently	-7194
▁antimicrobial	-7195
▁identification	-7196
▁misinformation	-7197
..	-7198
07	-7199
15	-7200
16	-7201
18	-7202
42	-7203
9,	-7204
AN	-7205
AR	-7206
IL	-7207
PD	-7208
TG	-7209
fl	-7210
hu	-7211
%).	-7212
.3%	-7213
653	-7214
OPD	-7215
Win	-7216
ags	-7217
aja	-7218
ble	-7219
bow	-7220
ero	-7221
gal	-7222
hus	-7223
iva	-7224
lar	-7225
ler	-7226
nce	-7227
och	-7228
ocl	-7229
pir	-7230
ula	-7231
unt	-7232
zen	-7233
▁(6	-7234
▁4,	-7235
▁6.	-7236
▁62	-7237
▁74	-7238
▁81	-7239
▁88	-7240
▁CO	-7241
▁Cr	-7242
▁Ge	-7243
▁Gh	-7244
▁MT	-7245
▁Sr	-7246
▁id	-7247
▁sn	-7248
adav	-7249
arao	-7250
arby	-7251
athy	-7252
atta	-7253
dict	-7254
etal	-7255
fuse	-7256
hane	-7257
hary	-7258
home	-7259
isha	-7260
isod	-7261
iums	-7262
kata	-7263
khar	-7264
rell	-7265
sApp	-7266
tegr	-7267
ties	-7268
utum	-7269
▁(1)	-7270
▁1).	-7271
▁14,	-7272
▁20%	-7273
▁22,	-7274
▁3.5	-7275
▁4.5	-7276
▁700	-7277
▁900	-7278
▁DNA	-7279
▁Emp	-7280
▁Fer	-7281
▁Flu	-7282
▁Gul	-7283
▁Gym	-7284
▁HKU	-7285
▁Ira	-7286
▁MIS	-7287
▁MNS	-7288
▁NBA	-7289
▁Nar	-7290
▁OPD	-7291
▁ORF	-7292
▁Ord	-7293
▁Pal	-7294
▁Pro	-7295
▁RBD	-7296
▁RTI	-7297
▁Raw	-7298
▁Sab	-7299
▁Spr	-7300
▁WIV	-7301
▁art	-7302
▁asp	-7303
▁dil	-7304
▁dys	-7305
▁ear	-7306
▁ele	-7307
▁era	-7308
▁gap	-7309
▁gly	-7310
▁hal	-7311
▁hug	-7312
▁lun	-7313
▁que	-7314
▁ult	-7315
Wuhan	-7316
acerb	-7317
ahane	-7318
ahanu	-7319
angal	-7320
anges	-7321
apped	-7322
athan	-7323
ayand	-7324
being	-7325
erals	-7326
esari	-7327
etite	-7328
feron	-7329
iding	-7330
ifest	-7331
igate	-7332
ipped	-7333
lined	-7334
merce	-7335
ogram	-7336
owned	-7337
party	-7338
stood	-7339
third	-7340
urbar	-7341
▁Ghat	-7342
▁Jais	-7343
▁Live	-7344
▁Mich	-7345
▁Nair	-7346
▁Navr	-7347
▁Once	-7348
▁Poll	-7349
▁Prov	-7350
▁Take	-7351
▁Wada	-7352
▁aler	-7353
▁ampl	-7354
▁argu	-7355
▁bans	-7356
▁beat	-7357
▁biot	-7358
▁boys	-7359
▁cycl	-7360
▁defe	-7361
▁dial	-7362
▁dram	-7363
▁ends	-7364
▁frag	-7365
▁fung	-7366
▁gyms	-7367
▁laws	-7368
▁mark	-7369
▁scam	-7370
▁shel	-7371
Figure	-7372
accine	-7373
ansing	-7374
avirin	-7375
double	-7376
inated	-7377
isting	-7378
omegal	-7379
omfort	-7380
piracy	-7381
▁4,000	-7382
▁Jalna	-7383
▁Later	-7384
▁Mohan	-7385
▁Parab	-7386
▁Press	-7387
▁Royal	-7388
▁Shing	-7389
▁Tests	-7390
▁Third	-7391
▁Until	-7392
▁Yadav	-7393
▁admit	-7394
▁award	-7395
▁brain	-7396
▁camps	-7397
▁elbow	-7398
▁favor	-7399
▁impot	-7400
▁legal	-7401
▁mayor	-7402
▁minus	-7403
▁mortu	-7404
▁mumps	-7405
▁newly	-7406
▁rainy	-7407
▁refus	-7408
▁seats	-7409
▁shall	-7410
▁sixth	-7411
▁stead	-7412
▁towns	-7413
▁trace	-7414
▁urged	-7415
▁wards	-7416
anation	-7417
hsildar	-7418
iolitis	-7419
iranand	-7420
oclonal	-7421
ordance	-7422
otherap	-7423
portant	-7424
▁80,000	-7425
▁Aadhar	-7426
▁Ashish	-7427
▁Dahanu	-7428
▁Kakani	-7429
▁Karjat	-7430
▁Lahane	-7431
▁Muslim	-7432
▁Pradip	-7433
▁Report	-7434
▁Runwal	-7435
▁Turkey	-7436
▁adding	-7437
▁advise	-7438
▁assist	-7439
▁bought	-7440
▁cancer	-7441
▁debate	-7442
▁destro	-7443
▁disapp	-7444
▁embass	-7445
▁emerge	-7446
▁encoun	-7447
▁explos	-7448
▁feared	-7449
▁legisl	-7450
▁module	-7451
▁mostly	-7452
▁nearby	-7453
▁petrol	-7454
▁pharma	-7455
▁rushed	-7456
▁saliva	-7457
▁shifts	-7458
▁trends	-7459
▁unable	-7460
▁unique	-7461
▁vessel	-7462
▁volume	-7463
▁wasted	-7464
edicated	-7465
ifenovir	-7466
ilizumab	-7467
izations	-7468
lessness	-7469
omedical	-7470
tilizers	-7471
▁Austria	-7472
▁Chhagan	-7473
▁Deepika	-7474
▁Jayanti	-7475
▁Kolkata	-7476
▁Looking	-7477
▁Narayan	-7478
▁Salunke	-7479
▁Subhash	-7480
▁Workers	-7481
▁Working	-7482
▁absence	-7483
▁achieve	-7484
▁blowing	-7485
▁caution	-7486
▁cinemas	-7487
▁clinics	-7488
▁exacerb	-7489
▁filters	-7490
▁genomes	-7491
▁guarant	-7492
▁injured	-7493
▁interim	-7494
▁massive	-7495
▁minimal	-7496
▁minimum	-7497
▁mistake	-7498
▁mothers	-7499
▁neutral	-7500
▁opening	-7501
▁opposed	-7502
▁partial	-7503
▁pathway	-7504
▁periods	-7505
▁pharmac	-7506
▁rubbing	-7507
▁strange	-7508
▁strengt	-7509
▁survive	-7510
▁textile	-7511
▁version	-7512
amination	-7513
ibilities	-7514
▁Bhandara	-7515
▁Manufact	-7516
▁Personal	-7517
▁Protocol	-7518
▁Republic	-7519
▁Response	-7520
▁Shingane	-7521
▁WhatsApp	-7522
▁abnormal	-7523
▁airlines	-7524
▁analyzed	-7525
▁attitude	-7526
▁confused	-7527
▁consists	-7528
▁declined	-7529
▁deprived	-7530
▁disposed	-7531
▁interval	-7532
▁manifest	-7533
▁mentally	-7534
▁military	-7535
▁promised	-7536
▁quantity	-7537
▁reaching	-7538
▁rickshaw	-7539
▁stranded	-7540
▁supplier	-7541
▁suppress	-7542
▁systemic	-7543
▁temporal	-7544
▁unlikely	-7545
▁visitors	-7546
▁worrying	-7547
iranandani	-7548
▁Important	-7549
▁Medicines	-7550
▁Mortality	-7551
▁Nandurbar	-7552
▁Pediatric	-7553
▁Physician	-7554
▁Principal	-7555
▁Professor	-7556
▁Religious	-7557
▁Transport	-7558
▁affidavit	-7559
▁childhood	-7560
▁collapsed	-7561
▁commented	-7562
▁connected	-7563
▁consulate	-7564
▁decreases	-7565
▁disrupted	-7566
▁epidemics	-7567
▁evacuated	-7568
▁evaluated	-7569
▁expensive	-7570
▁guideline	-7571
▁impacting	-7572
▁initiated	-7573
▁modelling	-7574
▁nutrition	-7575
▁operation	-7576
▁prognosis	-7577
▁protected	-7578
▁provision	-7579
▁reception	-7580
▁technical	-7581
▁tightened	-7582
Maharashtra	-7583
▁Divisional	-7584
▁Jaishankar	-7585
▁Technology	-7586
▁Vadettiwar	-7587
▁accordance	-7588
▁afterwards	-7589
▁allegation	-7590
▁announcing	-7591
▁celebrated	-7592
▁ceremonies	-7593
▁completing	-7594
▁continuing	-7595
▁contribute	-7596
▁discomfort	-7597
▁intubation	-7598
▁investment	-7599
▁leadership	-7600
▁misconcept	-7601
▁monoclonal	-7602
▁myocardial	-7603
▁presenting	-7604
▁properties	-7605
▁protecting	-7606
▁reassuring	-7607
▁regulators	-7608
▁repeatedly	-7609
▁sanitation	-7610
▁systematic	-7611
▁travellers	-7612
▁understood	-7613
▁virologist	-7614
omegalovirus	-7615
▁Legislative	-7616
▁accordingly	-7617
▁appointment	-7618
▁attractions	-7619
▁effectively	-7620
▁encouraging	-7621
▁genetically	-7622
▁registering	-7623
▁distributing	-7624
▁epidemiology	-7625
▁gynecologist	-7626
▁inflammation	-7627
▁postponement	-7628
▁professional	-7629
▁quarantining	-7630
▁representative	-7631
▁epidemiological	-7632
,9	-7633
17	-7634
45	-7635
70	-7636
Ar	-7637
Ex	-7638
FR	-7639
MD	-7640
RV	-7641
ky	-7642
▁x	-7643
:00	-7644
AMS	-7645
CED	-7646
Don	-7647
EMA	-7648
aty	-7649
got	-7650
hud	-7651
imb	-7652
irv	-7653
lom	-7654
nas	-7655
odi	-7656
osc	-7657
rRT	-7658
ray	-7659
tin	-7660
yed	-7661
yur	-7662
▁01	-7663
▁6-	-7664
▁71	-7665
▁?;	-7666
▁Cy	-7667
▁Kn	-7668
▁Ul	-7669
▁Ur	-7670
▁vo	-7671
acts	-7672
also	-7673
aman	-7674
andi	-7675
angi	-7676
angu	-7677
aped	-7678
apse	-7679
awas	-7680
azar	-7681
case	-7682
comp	-7683
cons	-7684
cuss	-7685
door	-7686
gred	-7687
hACE	-7688
haar	-7689
half	-7690
hana	-7691
haus	-7692
hern	-7693
iary	-7694
iffe	-7695
inel	-7696
inus	-7697
irty	-7698
isco	-7699
izes	-7700
keep	-7701
lers	-7702
mand	-7703
mans	-7704
mend	-7705
oken	-7706
olds	-7707
ores	-7708
pers	-7709
plom	-7710
prop	-7711
raya	-7712
rief	-7713
seud	-7714
uism	-7715
ulty	-7716
wadi	-7717
whel	-7718
with	-7719
▁(2)	-7720
▁(3)	-7721
▁60%	-7722
▁ABC	-7723
▁ABP	-7724
▁ANI	-7725
▁Akh	-7726
▁Bar	-7727
▁Beg	-7728
▁Bel	-7729
▁CRT	-7730
▁Dig	-7731
▁Dok	-7732
▁Fig	-7733
▁Gil	-7734
▁Haz	-7735
▁Him	-7736
▁Ila	-7737
▁Imp	-7738
▁Jit	-7739
▁Lod	-7740
▁Mad	-7741
▁Mon	-7742
▁NCE	-7743
▁Oak	-7744
▁PAN	-7745
▁Pur	-7746
▁Rav	-7747
▁Ren	-7748
▁Ret	-7749
▁Roh	-7750
▁Sak	-7751
▁Sas	-7752
▁Som	-7753
▁TCM	-7754
▁Vik	-7755
▁Wad	-7756
▁agg	-7757
▁bal	-7758
▁fir	-7759
▁gur	-7760
▁map	-7761
▁pen	-7762
▁pig	-7763
▁pus	-7764
▁sil	-7765
▁sis	-7766
▁swe	-7767
▁vul	-7768
▁web	-7769
▁xen	-7770
▁yes	-7771
2,653	-7772
Break	-7773
ISCED	-7774
Trace	-7775
acked	-7776
agiri	-7777
aling	-7778
alpur	-7779
anged	-7780
anied	-7781
arian	-7782
ashed	-7783
asive	-7784
eless	-7785
ellow	-7786
endit	-7787
endix	-7788
gment	-7789
hetre	-7790
iance	-7791
ishra	-7792
ontin	-7793
opara	-7794
phans	-7795
ptive	-7796
rench	-7797
satta	-7798
taken	-7799
uters	-7800
vious	-7801
▁"100	-7802
▁2012	-7803
▁2017	-7804
▁99.9	-7805
▁BAMS	-7806
▁Budd	-7807
▁Fest	-7808
▁Free	-7809
▁Gall	-7810
▁Gram	-7811
▁Groc	-7812
▁Have	-7813
▁Iraq	-7814
▁Jain	-7815
▁Kanj	-7816
▁LRTI	-7817
▁Long	-7818
▁Mira	-7819
▁OSHA	-7820
▁RaTG	-7821
▁Ratn	-7822
▁Road	-7823
▁Saif	-7824
▁Sain	-7825
▁Shir	-7826
▁Taty	-7827
▁Tend	-7828
▁Tour	-7829
▁Wash	-7830
▁Zeal	-7831
▁blue	-7832
▁calc	-7833
▁caps	-7834
▁cash	-7835
▁chol	-7836
▁chur	-7837
▁conc	-7838
▁cort	-7839
▁dele	-7840
▁derm	-7841
▁doll	-7842
▁draw	-7843
▁ease	-7844
▁elig	-7845
▁gear	-7846
▁harb	-7847
▁micr	-7848
▁page	-7849
▁pept	-7850
▁refr	-7851
▁scen	-7852
▁sera	-7853
▁stim	-7854
▁sust	-7855
▁symb	-7856
▁vect	-7857
▁wand	-7858
▁wond	-7859
acific	-7860
acivir	-7861
aparin	-7862
arding	-7863
arrhea	-7864
ensely	-7865
essive	-7866
herjee	-7867
hudurg	-7868
imates	-7869
imming	-7870
itives	-7871
market	-7872
ocated	-7873
ocking	-7874
orrect	-7875
osable	-7876
perial	-7877
ptical	-7878
risome	-7879
roscop	-7880
stream	-7881
teries	-7882
udhary	-7883
urally	-7884
▁Aditi	-7885
▁Anand	-7886
▁Boris	-7887
▁Civil	-7888
▁Crowd	-7889
▁Dadar	-7890
▁Early	-7891
▁Eight	-7892
▁Franc	-7893
▁Kiran	-7894
▁Nalas	-7895
▁Organ	-7896
▁Rapid	-7897
▁Squad	-7898
▁Train	-7899
▁Varun	-7900
▁WHERE	-7901
▁Walse	-7902
▁acted	-7903
▁allev	-7904
▁bills	-7905
▁brief	-7906
▁cared	-7907
▁chick	-7908
▁colds	-7909
▁costs	-7910
▁doors	-7911
▁enzym	-7912
▁exped	-7913
▁gives	-7914
▁glass	-7915
▁grant	-7916
▁haven	-7917
▁havoc	-7918
▁infar	-7919
▁infil	-7920
▁irrit	-7921
▁juris	-7922
▁langu	-7923
▁	-7924
e	-7925
t	-7926
a	-7927
i	-7928
o	-7929
n	-7930
s	-7931
r	-7932
h	-7933
d	-7934
l	-7935
c	-7936
u	-7937
m	-7938
p	-7939
f	-7940
g	-7941
y	-7942
v	-7943
w	-7944
.	-7945
b	-7946
,	-7947
k	-7948
C	-7949
T	-7950
I	-7951
A	-7952
S	-7953
M	-7954
0	-7955
-	-7956
1	-7957
2	-7958
D	-7959
P	-7960
x	-7961
H	-7962
R	-7963
B	-7964
'	-7965
O	-7966
V	-7967
W	-7968
9	-7969
"	-7970
N	-7971
E	-7972
j	-7973
z	-7974
U	-7975
5	-7976
4	-7977
3	-7978
q	-7979
K	-7980
)	-7981
F	-7982
(	-7983
G	-7984
?	-7985
8	-7986
6	-7987
J	-7988
7	-7989
L	-7990
:	-7991
%	-7992
;	-7993
Y	-7994
/	-7995
Z	-7996
