<pad>	0
</s>	0
<unk>	0
¦	-2.19153
▁¦	-2.30102
▁、	-2.75584
▁	-2.95809
▁。	-3.45968
の	-3.77931
を	-4.03444
は	-4.19622
に	-4.22605
と	-4.39405
が	-4.64526
その	-4.84315
い	-5.15918
た	-5.24553
か	-5.27614
し	-5.33854
も	-5.34332
る	-5.39905
り	-5.4208
て	-5.5566
で	-5.56796
から	-5.58245
き	-5.58668
また	-5.59623
▁、「	-5.61227
く	-5.70197
▁」。	-5.708
わたしは	-5.72836
な	-5.79316
って	-5.82057
ら	-5.92837
った	-5.92868
み	-5.98052
あなたの	-5.99122
ま	-6.02419
よ	-6.02826
う	-6.05955
さ	-6.06056
である	-6.0665
す	-6.07099
お	-6.12501
わたしの	-6.13693
この	-6.15299
した	-6.16424
ない	-6.16982
あ	-6.2208
して	-6.23154
ル	-6.25456
いた	-6.26129
ア	-6.26851
え	-6.27043
め	-6.30544
あなたは	-6.32267
人	-6.33738
彼らは	-6.36533
つ	-6.36861
わ	-6.37461
れ	-6.39258
ン	-6.45954
主は	-6.45972
なさい	-6.49564
や	-6.51554
彼は	-6.54904
シ	-6.56568
民	-6.57205
む	-6.57223
すべての	-6.59286
しかし	-6.61145
者	-6.63179
の子	-6.63524
そして	-6.63741
ことを	-6.67675
られた	-6.7
ラ	-6.70915
のために	-6.71869
テ	-6.71885
こ	-6.72059
こと	-6.72149
ヤ	-6.74008
あなたがたは	-6.74417
け	-6.74974
そ	-6.75264
する	-6.75845
これを	-6.78067
ように	-6.78532
わが	-6.7895
なかった	-6.8114
ず	-6.81301
時	-6.81348
たち	-6.81519
▁」	-6.82471
わたしが	-6.82559
日	-6.82724
すなわち	-6.83009
わたし	-6.83261
によって	-6.83588
られる	-6.84162
をもって	-6.86111
ば	-6.8643
言った	-6.87377
主の	-6.89494
せ	-6.89496
神	-6.89645
び	-6.90526
一	-6.90896
いて	-6.9097
地	-6.91057
父	-6.92384
わたしを	-6.928
あなた	-6.93207
および	-6.93267
であろう	-6.93306
者は	-6.94515
そこで	-6.94655
王	-6.95215
ち	-6.9526
ナ	-6.9588
からである	-6.9831
もし	-6.98874
イ	-7.00192
国	-7.00378
ている	-7.01263
もの	-7.01948
のように	-7.02329
あなたがたの	-7.04096
出	-7.0547
事	-7.05627
言われた	-7.05739
ハ	-7.06062
上	-7.06227
びと	-7.06351
わたしに	-7.06845
主	-7.06981
言	-7.07267
女	-7.08227
▁「	-7.08366
物	-7.08374
神の	-7.08551
だ	-7.08647
ある	-7.10265
エ	-7.10469
それを	-7.10933
子	-7.11825
それ	-7.123
マ	-7.13556
まで	-7.13643
んで	-7.13663
ました	-7.13935
町	-7.15231
行	-7.1536
ム	-7.16258
自分の	-7.16861
見	-7.17134
であった	-7.17184
いる	-7.17399
彼らの	-7.1744
イエス	-7.1858
ます	-7.18716
あなたがた	-7.19126
彼らを	-7.19307
のか	-7.19666
じ	-7.19722
これは	-7.19778
ので	-7.19802
きた	-7.1985
主が	-7.20218
とき	-7.21801
なければならない	-7.22054
された	-7.22111
させ	-7.22171
のである	-7.22566
ろ	-7.22864
です	-7.23353
リ	-7.24654
なく	-7.25115
には	-7.25347
ぎ	-7.25743
んだ	-7.26069
へ	-7.26818
らせ	-7.26831
バ	-7.26885
と共に	-7.26962
イスラエル	-7.27074
人の	-7.28085
デ	-7.28917
あなたを	-7.29037
すべて	-7.29668
心	-7.29789
レ	-7.2994
▁、『	-7.3026
人を	-7.3129
人々	-7.31331
ど	-7.31389
悪	-7.3197
るであろう	-7.32569
こう	-7.32613
ぶ	-7.33258
彼ら	-7.33576
祭司	-7.33955
これ	-7.34026
全	-7.34037
に言った	-7.34551
あなたが	-7.34647
カ	-7.34724
もろもろの	-7.35952
行って	-7.36451
人は	-7.3685
知	-7.36881
きて	-7.36966
られ	-7.38577
大	-7.38697
あなたに	-7.39496
年	-7.396
天	-7.39721
ダビデ	-7.39738
水	-7.39856
タ	-7.40114
ひ	-7.40366
事を	-7.40471
手	-7.41146
彼を	-7.41509
所	-7.41982
十	-7.42098
今	-7.4312
彼	-7.4322
主に	-7.44561
ご	-7.45009
なら	-7.45075
の子孫	-7.45965
出て	-7.46156
ならば	-7.46877
メ	-7.47045
しい	-7.47175
ブ	-7.47599
彼らに	-7.47933
ために	-7.48195
ク	-7.49561
山	-7.49845
っている	-7.50734
二	-7.50871
る者	-7.51302
見よ	-7.52574
のうちに	-7.52699
イエスは	-7.53141
の上に	-7.5386
恐れ	-7.54761
それは	-7.55005
われ	-7.55454
ひとり	-7.56396
べ	-7.56779
食べ	-7.57095
生	-7.5719
ため	-7.5738
力	-7.57819
ふ	-7.58578
名	-7.58884
行った	-7.59146
長	-7.59239
について	-7.5943
何	-7.59838
罪	-7.59869
れた	-7.5993
下	-7.59931
わたしたち	-7.6049
イスラエルの人々	-7.60846
金	-7.6126
神は	-7.61828
しもべ	-7.61901
家	-7.62121
であって	-7.62155
三	-7.62312
人が	-7.6257
ロ	-7.62666
七	-7.6271
あなたがたに	-7.62722
される	-7.63082
ス	-7.63188
ほ	-7.63348
言葉	-7.63691
物を	-7.63978
キリスト	-7.64166
そう	-7.64394
帰	-7.64434
自分	-7.64908
火	-7.64988
われわれ	-7.65123
命	-7.65244
の家	-7.65309
地に	-7.65378
として	-7.65776
エルサレム	-7.65821
後	-7.66486
ベ	-7.66845
百	-7.6699
こうして	-7.66999
与え	-7.67156
去	-7.67485
彼に	-7.67502
えて	-7.68162
とを	-7.68504
シャ	-7.68837
高	-7.69203
なる	-7.69625
べき	-7.6963
・	-7.69723
を見	-7.7
死	-7.7009
声	-7.70418
イスラエルの	-7.70636
れる	-7.70776
祭	-7.7089
彼の	-7.71108
ね	-7.71293
たので	-7.71395
よう	-7.71578
口	-7.71643
ん	-7.73554
みな	-7.73555
救	-7.73693
着	-7.73967
人々は	-7.74217
宮	-7.75102
主よ	-7.76343
妻	-7.76901
行き	-7.76995
ささげ	-7.77035
世	-7.77087
エル	-7.77088
足	-7.77273
立って	-7.77918
され	-7.78167
目	-7.78326
石	-7.79349
従	-7.79736
言う	-7.79893
パ	-7.79909
かな	-7.79974
オ	-7.80307
にある	-7.80332
ミ	-7.80499
残	-7.80886
彼らが	-7.82078
使	-7.82226
者を	-7.82728
てください	-7.82808
所に	-7.83848
起	-7.84057
の前に	-7.8412
の中に	-7.84222
頭	-7.84333
これらの	-7.85052
あなたがたが	-7.85087
四	-7.86362
てはならない	-7.86477
ヨ	-7.87075
敵	-7.87695
ただ	-7.88039
定め	-7.88482
歩	-7.88528
々	-7.88889
預言者	-7.88947
を受け	-7.89031
ユダ	-7.89382
はその	-7.89637
者が	-7.89777
五	-7.90109
ザ	-7.90214
ホ	-7.90214
行く	-7.90278
つけ	-7.90453
海	-7.90853
している	-7.90855
しく	-7.90856
血	-7.91068
者の	-7.91236
来る	-7.92188
それゆえ	-7.92191
実	-7.92355
彼女	-7.92444
語	-7.92576
ヤコブ	-7.92797
ダ	-7.93076
兄弟	-7.93377
がある	-7.93937
中	-7.94124
にも	-7.94212
祭壇	-7.94558
王は	-7.9459
る者は	-7.94966
ニ	-7.95003
います	-7.95116
霊	-7.95181
彼が	-7.95192
サ	-7.95251
すると	-7.95321
われわれは	-7.95732
置	-7.95898
手に	-7.96124
撃	-7.96124
産	-7.96124
そこに	-7.97183
前	-7.97239
サウル	-7.97257
言葉を	-7.97414
会	-7.9745
分	-7.97484
でしょう	-7.97516
時に	-7.976
ください	-7.97689
多くの	-7.97853
でも	-7.97995
エジプト	-7.98065
なり	-7.98243
『	-7.9873
入れ	-7.9901
王の	-7.99087
モ	-7.99331
千	-7.99331
名を	-7.9963
告げ	-7.99804
つるぎ	-8.00269
わたしたちは	-8.00276
立ち	-8.00313
間	-8.00524
ること	-8.00618
人に	-8.00634
ゼ	-8.00738
わせ	-8.00918
ド	-8.01211
地の	-8.01428
手を	-8.01441
万	-8.01449
造	-8.01608
律法	-8.01687
生き	-8.02575
愛	-8.02772
ネ	-8.03128
渡	-8.03368
第	-8.041
身	-8.04485
ぼ	-8.04833
セ	-8.05206
怒り	-8.05992
肉	-8.06073
わざ	-8.0619
あげ	-8.06238
日に	-8.06299
キ	-8.06322
にむかって	-8.06324
その時	-8.06453
取	-8.06511
あなたがたを	-8.06557
ケ	-8.06572
パン	-8.06777
男	-8.06823
かつ	-8.06854
たちは	-8.07069
は言った	-8.07228
方	-8.07293
呼	-8.07788
ことが	-8.0782
ガ	-8.08085
食	-8.08164
かた	-8.08183
を与え	-8.08259
れて	-8.08335
その子	-8.09039
前に	-8.09136
義	-8.0933
ト	-8.09364
の王	-8.09366
聖なる	-8.094
住	-8.097
になった	-8.09933
のです	-8.10045
聞いて	-8.10139
心を	-8.10211
ところ	-8.10522
つかわし	-8.10718
の間	-8.10891
ペ	-8.11182
夜	-8.11182
大いなる	-8.11183
言い	-8.11311
求め	-8.11369
モーセ	-8.11614
それで	-8.11617
ことは	-8.11809
と言った	-8.11939
ぐ	-8.12206
銀	-8.12502
者たち	-8.12803
近	-8.13301
を見て	-8.13378
道	-8.14355
羊	-8.14356
喜	-8.1439
来	-8.14654
という	-8.14882
書	-8.15093
主を	-8.15461
思い	-8.1575
を得	-8.16022
かせ	-8.16416
兄弟たち	-8.16944
コ	-8.17122
える	-8.17342
代	-8.17401
っ	-8.17519
となり	-8.17636
ダビデは	-8.18501
ようと	-8.18725
座	-8.18805
喜び	-8.1936
月	-8.19372
知恵	-8.1938
寄	-8.19657
に対して	-8.19955
どうして	-8.20237
だれ	-8.20273
ません	-8.20274
のですか	-8.20282
なお	-8.20295
約	-8.20803
ヘ	-8.20805
ラム	-8.20864
われる	-8.21153
祈	-8.21384
めて	-8.2149
香	-8.21966
だから	-8.22205
牛	-8.22249
げ	-8.22553
を取り	-8.22662
に仕え	-8.22692
ウ	-8.23141
あなたの神	-8.23223
引き	-8.23601
六	-8.23734
取り	-8.24143
器	-8.2433
助け	-8.24431
ものは	-8.24453
家に	-8.24498
身を	-8.24504
者に	-8.24806
ソロモン	-8.2493
母	-8.25231
あった	-8.25384
わたしたちの	-8.2547
持って	-8.25536
よりも	-8.2558
数	-8.25937
人たち	-8.26309
民は	-8.26743
とし	-8.27196
ためである	-8.27228
さて	-8.27471
町々	-8.2748
なん	-8.27508
示	-8.27673
思	-8.2774
をお	-8.2787
いで	-8.28238
かけ	-8.28478
恵み	-8.28636
ふたり	-8.28922
打ち	-8.29281
とおり	-8.29707
終	-8.29861
結	-8.29861
ざ	-8.30131
るように	-8.30257
先	-8.3049
おのおの	-8.30816
ける	-8.31038
御	-8.31057
▁』。	-8.31133
栄光	-8.3114
けて	-8.31168
ものを	-8.31406
不	-8.31423
のもとに	-8.3144
キュビト	-8.31453
つか	-8.31494
立て	-8.31769
川	-8.31775
とその	-8.3187
内	-8.32098
外	-8.32098
にしたがって	-8.32099
合	-8.32746
君	-8.32746
離れ	-8.32761
れば	-8.32873
出し	-8.33099
同	-8.33323
えた	-8.33326
連れて	-8.33414
つく	-8.33494
心に	-8.33786
一つ	-8.33806
捕え	-8.33816
光	-8.34048
主は言われる	-8.34056
パロ	-8.34139
行い	-8.34392
信じ	-8.34445
獣	-8.34716
場	-8.34892
ヨセフ	-8.35049
の娘	-8.3529
われわれの	-8.35336
おり	-8.35585
燔祭	-8.35717
荒野	-8.35729
ユダの	-8.35743
からだ	-8.35749
エリ	-8.35801
なぜ	-8.35816
ものである	-8.35863
のだ	-8.35983
断	-8.36052
祝福	-8.36389
同じ	-8.36466
ではないか	-8.36575
となる	-8.36625
ユダヤ人	-8.37075
良い	-8.37367
耳	-8.37406
木	-8.38164
をも	-8.3826
ジ	-8.38433
畑	-8.38778
過	-8.38778
よく	-8.3912
信仰	-8.39126
ひとりの	-8.3925
ペリシテびと	-8.39471
ゲ	-8.39471
神を	-8.39652
レビびと	-8.39853
地を	-8.39894
と一緒に	-8.39905
子を	-8.3997
っていた	-8.40007
て言った	-8.40081
野	-8.40156
皆	-8.403
他の	-8.40314
であり	-8.40378
の長	-8.40458
そうすれば	-8.4052
おまえ	-8.40525
アビ	-8.40679
の木	-8.40795
神が	-8.40812
こう言われる	-8.40872
だけ	-8.41583
神に	-8.41871
に向かって	-8.41936
者と	-8.42034
戦	-8.42171
られて	-8.42279
苦	-8.42292
フ	-8.42293
気	-8.42293
しない	-8.42326
歌	-8.42652
ほかの	-8.42735
まず	-8.42775
一つの	-8.42992
国民	-8.43155
ことごとく	-8.43194
そこ	-8.43404
ではない	-8.4344
ましょう	-8.43641
共に	-8.4414
を見た	-8.44186
道を	-8.44254
さばき	-8.44834
の前で	-8.45029
らない	-8.45194
るべき	-8.45214
罪を	-8.45387
その日	-8.45456
拝	-8.45566
このように	-8.45937
帰って	-8.46444
になって	-8.46882
があり	-8.47115
と言う	-8.47301
があった	-8.47332
を捨て	-8.47432
せよ	-8.47544
のうち	-8.47643
アブラハム	-8.47809
ノ	-8.47809
かに	-8.48325
ゆえ	-8.48497
衆	-8.48534
かれ	-8.487
モーセは	-8.48702
これに	-8.48856
災	-8.4895
尋ね	-8.4895
箱	-8.49718
正しい	-8.50133
目に	-8.50403
のうちから	-8.50473
当	-8.50491
人の子	-8.50562
なし	-8.50586
もまた	-8.50632
部	-8.50862
破	-8.5088
住む	-8.50982
主の前に	-8.51265
殺	-8.51323
あり	-8.51361
ってはならない	-8.52025
ここに	-8.52176
はみな	-8.52265
では	-8.52308
ではなく	-8.52327
とが	-8.52553
の門	-8.52566
送	-8.52849
囲	-8.53648
滅び	-8.53739
上って	-8.53884
聖	-8.53973
弟子たち	-8.54049
どうぞ	-8.54055
ぶどう	-8.54074
ところが	-8.54387
教え	-8.54463
死んだ	-8.55021
柱	-8.55264
きょう	-8.55264
十二	-8.55373
を行う	-8.5553
んでいる	-8.55665
くだ	-8.5568
アロン	-8.55813
るために	-8.55907
娘	-8.56195
リヤ	-8.5636
ピ	-8.56493
通	-8.56493
開	-8.56493
とは	-8.5662
どうか	-8.56831
戦い	-8.5704
二十	-8.57078
隠	-8.57321
信	-8.5766
嗣業	-8.57738
滅ぼし	-8.57741
の方	-8.57793
だれが	-8.58032
ったので	-8.5808
がよい	-8.58511
次	-8.58576
ヨシュア	-8.58577
用	-8.58577
答え	-8.58692
偽り	-8.58725
ビ	-8.5874
ることを	-8.58797
のある	-8.58811
門	-8.58877
主の宮	-8.59318
子供	-8.59366
の部族	-8.59408
自	-8.59454
しるし	-8.59555
になる	-8.59674
を建て	-8.59876
にあって	-8.59939
投げ	-8.60277
となった	-8.60456
かれた	-8.60487
目を	-8.60542
それから	-8.60625
愚	-8.60704
悟	-8.60704
仰せ	-8.60721
われた	-8.60822
殺した	-8.60874
いだ	-8.61022
めた	-8.61049
いや	-8.61111
に従って	-8.61123
意	-8.61568
あかし	-8.61604
戒め	-8.6166
める	-8.61687
ボ	-8.62003
作	-8.62003
だろう	-8.62096
族	-8.6211
命じ	-8.62343
恥	-8.6244
まだ	-8.62663
自身	-8.6281
返	-8.62878
守	-8.63102
供え物	-8.63319
先祖	-8.63538
づけ	-8.63589
彼女は	-8.63874
人々が	-8.6392
病	-8.64204
パウロ	-8.64206
働	-8.64206
逃げ	-8.64653
エルサレムに	-8.65089
ズ	-8.651
風	-8.65101
をことごとく	-8.65322
土	-8.65551
者である	-8.6559
聖所	-8.65971
必ず	-8.66031
悪い	-8.66403
重	-8.66457
種	-8.66458
夫	-8.66458
おられる	-8.66471
仕	-8.66697
酒	-8.66895
ろう	-8.67034
満	-8.67278
ささげる	-8.67323
ッ	-8.67371
しなければならない	-8.67749
らず	-8.67795
あるいは	-8.67881
とする	-8.67881
満ち	-8.67931
と言って	-8.68068
救い	-8.68073
入	-8.68468
互に	-8.68536
できない	-8.68554
は皆	-8.68588
争	-8.68762
していた	-8.69227
ることは	-8.69412
にいる	-8.69538
食物	-8.69796
のうちの	-8.69821
おく	-8.69843
のゆえに	-8.69868
東	-8.70171
度	-8.70171
国々	-8.70376
導き	-8.70392
奪	-8.70645
馬	-8.70645
飲	-8.70854
を取って	-8.70903
罰	-8.71121
朝	-8.71121
会衆	-8.71164
の子らは	-8.71189
よい	-8.71236
報い	-8.71526
証	-8.71599
殺し	-8.71717
答えて	-8.71721
望	-8.71824
しめ	-8.71996
グ	-8.7208
モアブ	-8.7208
殺され	-8.72169
させる	-8.72261
を攻め	-8.72563
死ぬ	-8.72605
進	-8.72796
立	-8.72967
いない	-8.73212
ようになる	-8.73435
イスラエルの王	-8.73474
再び	-8.73541
してください	-8.73664
顔を	-8.73949
イスラエルの神	-8.74157
イエスを	-8.74388
のところに	-8.74612
ゆ	-8.74716
の子たち	-8.74725
富	-8.75014
すぐ	-8.7507
ついに	-8.75126
出して	-8.7532
のがれ	-8.75747
ベテ	-8.75871
づ	-8.76207
多く	-8.7644
ヨルダン	-8.76514
の中で	-8.76545
わたしはあなたの	-8.76823
の中から	-8.76878
頼	-8.77019
深	-8.77019
麦	-8.7702
受け	-8.7798
主の言葉	-8.78172
八	-8.7855
ながら	-8.78658
感謝	-8.79065
無	-8.79066
諸	-8.79066
害	-8.79066
泣	-8.79066
獲	-8.79066
これらは	-8.79202
など	-8.79205
ぬ	-8.79538
谷	-8.79584
万軍の主	-8.79597
知っている	-8.799
者も	-8.80553
してはならない	-8.8069
する者	-8.80714
数え	-8.80978
願い	-8.81055
教	-8.81106
させた	-8.8125
得	-8.81375
神々	-8.81481
されて	-8.81613
下って	-8.8166
エフライム	-8.81683
▁』」。	-8.81684
歳	-8.81684
悪しき者	-8.81684
幕屋	-8.81687
宿営	-8.82219
ないように	-8.82458
のうちで	-8.8246
油を	-8.83053
ような	-8.83074
あらわ	-8.8308
ベニヤミン	-8.83288
動	-8.83288
すでに	-8.83442
流	-8.83544
ヒ	-8.83638
工	-8.83829
の間に	-8.83839
うちに	-8.83879
知らない	-8.83927
もとに	-8.84004
来て	-8.84242
ユダの王	-8.84281
成	-8.84372
楽し	-8.84447
主である	-8.84649
バル	-8.84755
ペテロ	-8.84918
臨	-8.85039
知らせ	-8.85228
兵	-8.85468
庭	-8.85468
造った	-8.85521
先祖たち	-8.85755
ロン	-8.85813
の子ら	-8.8584
おきて	-8.85922
るでしょう	-8.85947
のような	-8.85972
安	-8.86003
滅ぼす	-8.8602
軍	-8.86572
利	-8.86576
穴	-8.86576
語り	-8.8658
願	-8.86681
あなたがたの神	-8.86911
ころ	-8.87024
の手から	-8.87632
分け	-8.87655
明	-8.87695
台	-8.87696
ベル	-8.87776
と言い	-8.88565
切り	-8.88696
治め	-8.8878
北	-8.88829
放	-8.88829
主人	-8.89112
雲	-8.89401
糸	-8.89401
シオン	-8.89401
小羊	-8.89426
すべての民	-8.89692
答えた	-8.89885
の氏族	-8.89969
除	-8.89976
権	-8.89976
切	-8.9011
わなければならない	-8.9023
ることができる	-8.90231
ほど	-8.90309
解	-8.91135
みずから	-8.91143
二つの	-8.91208
荒	-8.91338
道に	-8.91521
はならない	-8.91672
寝	-8.9172
淫	-8.9172
布	-8.9172
魂	-8.9172
どんな	-8.9172
知って	-8.91915
望み	-8.92032
まま	-8.92087
主なる神は	-8.92115
ことができない	-8.92159
境	-8.92308
暗	-8.92308
天幕	-8.92339
負	-8.92565
ろば	-8.92567
の下に	-8.9268
があって	-8.92836
バビロン	-8.92852
親	-8.929
を聞いた	-8.929
を追い	-8.929
乳	-8.929
アル	-8.93184
による	-8.93187
荒れ	-8.93264
少	-8.93495
広	-8.93495
不義	-8.93552
三十	-8.93562
初め	-8.93774
を知る	-8.93973
打	-8.93998
息	-8.94094
洗	-8.94094
戸	-8.94094
現れ	-8.94263
絶え	-8.94484
ませ	-8.9457
わし	-8.946
かれる	-8.94707
真実	-8.94715
雄羊	-8.94719
わず	-8.94901
ることはない	-8.95054
罪を犯し	-8.95302
側	-8.95302
顔	-8.95399
油	-8.95568
嘆	-8.95912
を守る	-8.96011
備え	-8.96069
アヒ	-8.96127
ない者	-8.96333
わか	-8.96521
いつくしみ	-8.96525
ツ	-8.96525
家畜	-8.96527
命じられた	-8.96701
空	-8.97143
務	-8.97143
勝	-8.97143
滅ぼされ	-8.97144
らなければならない	-8.97173
叫	-8.97376
建	-8.97723
変	-8.97764
夕	-8.97764
殿	-8.97764
移	-8.97764
ほかに	-8.9789
様	-8.98389
岩	-8.98389
のかたわら	-8.9902
どう	-8.99023
語る	-8.99024
清	-8.99092
もはや	-8.99104
牧	-8.99651
常	-8.99651
ヨアブ	-8.99651
において	-8.99851
の名は	-9.00177
像	-9.00288
異邦人	-9.00288
サムエル	-9.00288
マナセ	-9.00288
られます	-9.00672
ただし	-9.00684
老	-9.00926
ヨハネ	-9.00929
僕	-9.00929
決	-9.00929
官	-9.00929
良	-9.01002
われらの	-9.01267
出す	-9.01681
ども	-9.01986
にはいって	-9.02112
弟	-9.02217
皮	-9.02223
買	-9.02223
エレミヤ	-9.02223
怒	-9.02434
ヅ	-9.02877
約束	-9.02883
つかさたち	-9.0331
小	-9.03504
別	-9.03529
散	-9.03535
墓	-9.03535
宝	-9.03535
とこしえに	-9.03535
安息日	-9.03535
青銅	-9.03535
シケル	-9.03536
大きな	-9.03541
雄牛	-9.03557
誇	-9.04197
偶像	-9.04197
なければ	-9.04198
五十	-9.04526
この地	-9.04538
平	-9.04844
葬	-9.04864
イサク	-9.04864
あわれみ	-9.04866
バアル	-9.04945
強く	-9.05091
引	-9.05162
起き	-9.05453
連	-9.05503
驚	-9.05535
召	-9.05535
苦しみ	-9.05537
軍勢	-9.05539
御使	-9.0562
一頭	-9.05872
求める	-9.05991
売	-9.0621
勇士	-9.06213
ないでください	-9.06227
持ち	-9.06303
しよう	-9.06439
ることがない	-9.06474
られない	-9.0663
汚れ	-9.06858
半	-9.06891
長老たち	-9.06893
落ち	-9.06963
王たち	-9.0698
ギレアデ	-9.07576
はずかしめ	-9.07576
モーセに言われた	-9.07579
の入口	-9.07586
セラ	-9.07917
を集め	-9.08265
汚れた	-9.08842
アサ	-9.08855
ギ	-9.0896
恐	-9.09102
祭司たち	-9.09194
を得る	-9.09349
ろうと	-9.09402
言え	-9.09407
右	-9.09544
のようで	-9.09711
だれか	-9.09814
ごとに	-9.10292
エドム	-9.10363
むすこ	-9.10388
となって	-9.10445
流れ	-9.10736
若い	-9.10781
ことができる	-9.1084
彼らに言った	-9.11296
われわれの神	-9.11375
持	-9.11682
あがない	-9.11823
食い	-9.11942
生れた	-9.12025
だれも	-9.12266
ダン	-9.12303
だからである	-9.12439
次のとおりであ	-9.12507
城壁	-9.12508
彼に言った	-9.12592
命じた	-9.12644
加え	-9.12749
その上に	-9.12938
取った	-9.13197
ヒゼキヤ	-9.13231
合わせて	-9.13232
割礼	-9.13232
たとい	-9.13376
すること	-9.13465
このような	-9.13692
見え	-9.13805
衣	-9.13951
衣服	-9.13971
サマリヤ	-9.13988
書き	-9.14231
場所	-9.14306
多	-9.1436
叫び	-9.15157
全地	-9.15174
伝え	-9.152
理	-9.1543
会見の幕屋	-9.15437
その中に	-9.15604
他	-9.15875
四十	-9.16524
思う	-9.16748
おおい	-9.17122
ヨナタン	-9.17693
大いに	-9.17744
部族	-9.17754
上げ	-9.17914
イスラエルの家	-9.17978
捕	-9.18247
呼ばれ	-9.18475
いのち	-9.18577
ことができよう	-9.189
強い	-9.18901
に属する	-9.19225
非常に	-9.19225
さいわい	-9.19225
自分たち	-9.19876
清め	-9.19909
服	-9.1999
戦車	-9.20016
エリシャ	-9.20108
あざ	-9.20481
雄	-9.20725
滅	-9.21381
体	-9.21524
悲	-9.21568
堅く	-9.21781
を愛し	-9.21856
エジプトびと	-9.21873
栄え	-9.22081
導	-9.22788
エリヤ	-9.22806
見ると	-9.22934
愛する者	-9.23249
立つ	-9.23748
留	-9.23969
ポ	-9.23969
吹	-9.23969
しえたげ	-9.23969
福音	-9.24784
新しい	-9.24813
ささげなければならない	-9.25099
ことはない	-9.25425
徒	-9.25582
三日	-9.25855
若者	-9.26416
悲しみ	-9.26429
平安	-9.26446
遠く	-9.26678
者ども	-9.27036
により	-9.27274
ぶどう酒	-9.27297
去った	-9.2732
正	-9.27972
ほめたたえ	-9.28102
に臨んだ	-9.28155
汚	-9.28625
告	-9.28923
教会	-9.29005
アブサロム	-9.29804
所有	-9.29822
を造り	-9.30005
飲み	-9.30261
正しい者	-9.30662
よみがえ	-9.30667
わざわい	-9.30718
かえって	-9.30756
ゆるし	-9.30822
進み	-9.31118
にとどま	-9.31313
法	-9.31536
ぞ	-9.324
いつまで	-9.32423
となるであろう	-9.32739
罪祭	-9.33553
異	-9.34191
ばかり	-9.34218
ありません	-9.34448
ることができ	-9.34632
ようとする	-9.34683
落	-9.34995
どこに	-9.35025
宿	-9.35086
さらに	-9.35619
宣べ伝え	-9.36001
待ち	-9.36089
に命じて	-9.36185
死んで	-9.36303
屋	-9.36911
集まって	-9.36918
バビロンの王	-9.36992
あります	-9.37078
んじ	-9.37303
レビ	-9.37906
話	-9.38132
家族	-9.38501
青	-9.38778
激しい	-9.38834
御霊	-9.38882
マリヤ	-9.38927
のほとり	-9.39725
を設け	-9.39741
に対する	-9.39746
のあいだ	-9.39768
話し	-9.40379
家来たち	-9.40698
報	-9.40821
のつかさ	-9.41313
て下さる	-9.41461
ごらん	-9.41637
貧しい者	-9.41637
みんな	-9.4164
おうと	-9.41718
を汚し	-9.42216
礼	-9.42606
エサウ	-9.42607
永遠の	-9.43587
エジプトの地	-9.43665
強	-9.43667
待	-9.44481
貧	-9.44576
その所で	-9.44608
の所へ	-9.44675
から出た	-9.44676
を守り	-9.4492
ききん	-9.45703
に与えた	-9.46525
バプテスマ	-9.46587
高き所	-9.46597
聖霊	-9.46677
ぜ	-9.47303
激	-9.47548
アハブ	-9.47609
正義	-9.47645
まことに	-9.48391
小さい	-9.48641
さばく	-9.48649
を守ら	-9.48859
の住民	-9.49426
一緒に	-9.49496
パリサイ人	-9.4968
を離れて	-9.49783
におる	-9.50108
に与える	-9.50287
けれども	-9.50733
受けいれ	-9.51014
ではありません	-9.51025
栄	-9.51084
を立てて	-9.51602
ルベン	-9.51799
エジプトの国	-9.51806
「	-9.52011
さきに	-9.52108
万軍の	-9.52846
計	-9.53959
車	-9.55036
議	-9.55058
遠	-9.55833
真	-9.58382
プ	-9.58429
幕	-9.59509
音	-9.60738
供	-9.60894
初	-9.61367
ソ	-9.66767
偽	-9.67574
堅	-9.67681
若	-9.69826
宣	-9.70565
定	-9.70846
現	-9.75481
離	-9.77038
対	-9.77141
兄	-9.77222
勇	-9.7723
和	-9.78611
永	-9.78622
祖	-9.82884
営	-9.829
新	-9.90428
加	-9.96432
壁	-9.96991
必	-10.0566
葉	-10.0569
士	-10.095
城	-10.0951
孫	-10.1514
楽	-10.1923
福	-10.2164
絶	-10.224
備	-10.2547
ょ	-10.2604
感	-10.2604
勢	-10.3063
治	-10.3084
設	-10.3297
助	-10.3463
恵	-10.3764
答	-10.3957
仰	-10.404
祝	-10.4315
非	-10.4586
。	-10.4899
有	-10.5143
ー	-10.5747
束	-10.6056
、	-10.6182
受	-10.7217
伝	-10.7909
戒	-10.809
ユ	-10.942
互	-11.0595
求	-11.0657
司	-11.085
業	-11.1936
共	-11.1949
割	-11.3148
緒	-11.448
投	-11.5297
」	-11.56
再	-11.9143
逃	-11.915
与	-12.1554
銅	-12.3497
偶	-13.133
畜	-14.6278
燃	-14.6287
裂	-14.6288
奴	-14.6289
隷	-14.629
払	-14.6291
属	-14.6292
砕	-14.6293
伸	-14.6294
乗	-14.6295
邦	-14.6296
最	-14.6297
周	-14.6298
以	-14.6299
犠	-14.63
牲	-14.6301
―	-14.6302
及	-14.6303
賜	-14.6304
選	-14.6305
携	-14.6306
伏	-14.6307
至	-14.6308
燔	-14.6309
悩	-14.631
注	-14.6311
氏	-14.6312
契	-14.6313
憎	-14.6314
攻	-14.6315
倒	-14.6316
焼	-14.6317
誓	-14.6318
犯	-14.6319
群	-14.632
律	-14.6321
捨	-14.6322
壇	-14.6323
追	-14.6324
集	-14.6325
向	-14.6326
尋	-14.6327
預	-14.6327
ュ	-14.6328
ャ	-14.6329
』	-14.633
謝	-14.6331
嗣	-14.6331
聞	-14.6331
