<pad>	0
</s>	0
<unk>	0
▁s	-0
de	-1
▁h	-2
en	-3
▁o	-4
ll	-5
▁f	-6
an	-7
ch	-8
ar	-9
▁de	-10
er	-11
▁och	-12
▁t	-13
▁m	-14
▁d	-15
tt	-16
om	-17
▁v	-18
in	-19
ör	-20
är	-21
▁a	-22
▁b	-23
ig	-24
▁i	-25
ill	-26
on	-27
ade	-28
▁för	-29
▁sk	-30
▁g	-31
ag	-32
▁k	-33
ck	-34
▁till	-35
▁l	-36
st	-37
▁han	-38
et	-39
▁e	-40
ra	-41
än	-42
na	-43
▁u	-44
or	-45
ed	-46
▁som	-47
▁p	-48
▁j	-49
el	-50
der	-51
▁H	-52
▁n	-53
▁att	-54
▁så	-55
all	-56
▁st	-57
un	-58
▁är	-59
▁O	-60
ing	-61
▁en	-62
ån	-63
▁den	-64
▁D	-65
▁skall	-66
da	-67
▁det	-68
▁jag	-69
▁I	-70
cke	-71
▁J	-72
▁Och	-73
▁på	-74
ol	-75
▁av	-76
▁r	-77
▁vi	-78
▁icke	-79
pp	-80
▁var	-81
iv	-82
▁hon	-83
▁S	-84
ER	-85
RE	-86
ERRE	-87
▁med	-88
▁HERRE	-89
it	-90
sa	-91
▁HERREN	-92
▁all	-93
ud	-94
▁har	-95
▁M	-96
▁ö	-97
kt	-98
äl	-99
▁bl	-100
sk	-101
▁dem	-102
▁honom	-103
åt	-104
▁»	-105
▁du	-106
av	-107
▁fr	-108
ad	-109
es	-110
▁ut	-111
ft	-112
us	-113
äg	-114
▁G	-115
al	-116
▁sin	-117
▁upp	-118
and	-119
ot	-120
as	-121
ver	-122
▁där	-123
itt	-124
am	-125
år	-126
den	-127
▁mig	-128
▁kom	-129
▁om	-130
ung	-131
at	-132
▁in	-133
ss	-134
▁sig	-135
▁dig	-136
▁A	-137
id	-138
åg	-139
rä	-140
▁sade	-141
▁din	-142
▁eder	-143
▁Gud	-144
.»	-145
▁över	-146
▁hade	-147
för	-148
els	-149
▁hans	-150
▁min	-151
em	-152
fter	-153
▁åt	-154
som	-155
ro	-156
▁komm	-157
lig	-158
are	-159
re	-160
▁skol	-161
▁då	-162
ur	-163
onung	-164
▁hav	-165
▁be	-166
tta	-167
ka	-168
▁konung	-169
olk	-170
▁alla	-171
▁Men	-172
ning	-173
os	-174
▁man	-175
änn	-176
▁folk	-177
ort	-178
▁bliv	-179
▁E	-180
ull	-181
▁ett	-182
▁från	-183
sra	-184
erna	-185
ande	-186
▁såsom	-187
mm	-188
het	-189
▁nu	-190
▁Isra	-191
ff	-192
▁när	-193
ev	-194
▁br	-195
▁säg	-196
▁efter	-197
ri	-198
ätt	-199
▁någ	-200
▁sj	-201
▁sl	-202
var	-203
▁bar	-204
ram	-205
ller	-206
▁T	-207
äm	-208
▁allt	-209
öra	-210
arna	-211
▁Då	-212
▁un	-213
ja	-214
▁hel	-215
▁skola	-216
▁vad	-217
ik	-218
▁ty	-219
▁tj	-220
il	-221
▁N	-222
ång	-223
▁men	-224
ön	-225
ens	-226
öd	-227
▁dag	-228
▁hava	-229
od	-230
▁barn	-231
▁son	-232
▁ock	-233
ne	-234
▁vid	-235
ras	-236
▁an	-237
ta	-238
▁än	-239
▁må	-240
yn	-241
▁fram	-242
▁mot	-243
▁B	-244
▁giv	-245
▁or	-246
▁sina	-247
▁hus	-248
▁deras	-249
▁hö	-250
▁skull	-251
att	-252
og	-253
isk	-254
▁se	-255
▁detta	-256
▁vill	-257
ick	-258
iga	-259
▁vil	-260
▁HERRENS	-261
▁gj	-262
▁tal	-263
ab	-264
ste	-265
▁oss	-266
▁tjän	-267
fr	-268
ärd	-269
edan	-270
ld	-271
enom	-272
yck	-273
▁dö	-274
▁gå	-275
ak	-276
▁Israels	-277
▁Ty	-278
▁eller	-279
▁sitt	-280
▁K	-281
▁få	-282
ast	-283
dra	-284
▁under	-285
▁vara	-286
inn	-287
▁låt	-288
▁säger	-289
ut	-290
äd	-291
andra	-292
▁mitt	-293
▁Så	-294
▁na	-295
▁land	-296
▁V	-297
▁F	-298
yg	-299
te	-300
▁vor	-301
▁å	-302
▁äro	-303
▁själ	-304
▁hj	-305
från	-306
▁här	-307
▁genom	-308
▁göra	-309
▁dina	-310
▁tr	-311
▁skulle	-312
▁bliva	-313
uda	-314
▁blev	-315
▁komma	-316
äng	-317
ader	-318
äll	-319
äder	-320
▁någon	-321
nen	-322
▁utan	-323
amm	-324
▁hu	-325
is	-326
ingen	-327
ans	-328
▁rätt	-329
ffer	-330
ken	-331
▁svar	-332
▁männ	-333
ska	-334
dan	-335
▁ar	-336
▁ned	-337
ät	-338
ukt	-339
▁fö	-340
▁voro	-341
▁sön	-342
eb	-343
orde	-344
▁Jer	-345
aga	-346
▁hen	-347
▁först	-348
▁bort	-349
▁dess	-350
ga	-351
▁Her	-352
▁hör	-353
▁väl	-354
avid	-355
▁hand	-356
del	-357
else	-358
▁konungen	-359
▁David	-360
ott	-361
va	-362
▁jor	-363
im	-364
▁dr	-365
▁ord	-366
sal	-367
▁beg	-368
▁syn	-369
▁förb	-370
äkt	-371
▁kun	-372
▁folket	-373
▁människ	-374
▁ur	-375
▁ber	-376
ssa	-377
▁skolen	-378
åd	-379
äst	-380
▁ju	-381
▁ditt	-382
▁P	-383
ände	-384
op	-385
gon	-386
ighet	-387
▁inför	-388
åll	-389
▁Guds	-390
▁hela	-391
▁Där	-392
ose	-393
ren	-394
▁väg	-395
▁Jes	-396
▁ifrån	-397
ann	-398
▁De	-399
imm	-400
▁svarade	-401
▁sv	-402
▁mina	-403
▁andra	-404
mn	-405
räst	-406
▁Israel	-407
▁När	-408
▁Han	-409
▁pl	-410
lj	-411
▁jorden	-412
▁söner	-413
ligen	-414
▁ingen	-415
▁dessa	-416
ul	-417
så	-418
▁	-419
a	-420
e	-421
n	-422
r	-423
t	-424
s	-425
d	-426
l	-427
o	-428
i	-429
m	-430
h	-431
g	-432
k	-433
v	-434
ä	-435
u	-436
f	-437
å	-438
c	-439
,	-440
ö	-441
b	-442
p	-443
.	-444
j	-445
E	-446
y	-447
R	-448
H	-449
»	-450
;	-451
S	-452
D	-453
N	-454
O	-455
:	-456
J	-457
I	-458
M	-459
G	-460
A	-461
?	-462
-	-463
T	-464
V	-465
B	-466
'	-467
F	-468
K	-469
L	-470
P	-471
é	-472
!	-473
x	-474
U	-475
Ä	-476
Å	-477
Ö	-478
(	-479
)	-480
C	-481
Y	-482
2	-483
0	-484
4	-485
6	-486
1	-487
8	-488
9	-489
ó	-490
3	-491
5	-492
7	-493
í	-494
]	-495
á	-496
