<pad>	0
</s>	0
<unk>	0
▁እ	-0
▁አ	-1
▁በ	-2
▁የ	-3
▁ከ	-4
▁ይ	-5
▁ወ	-6
▁ነ	-7
▁እን	-8
▁መ	-9
ንም	-10
ቸው	-11
▁ለ	-12
አብ	-13
▁ተ	-14
ግዚ	-15
ሔር	-16
ግዚአብ	-17
ግዚአብሔር	-18
▁ሰ	-19
▁ሁ	-20
▁ል	-21
ንድ	-22
▁ያ	-23
▁ወደ	-24
▁ስ	-25
▁ሁሉ	-26
▁ዘ	-27
ርሱ	-28
ችሁ	-29
▁ም	-30
▁እግዚአብሔር	-31
▁እንደ	-32
▁ብ	-33
▁የሚ	-34
▁ላ	-35
▁ነበ	-36
▁በእ	-37
▁አለ	-38
▁ግ	-39
ለሁ	-40
▁ደ	-41
▁ዘንድ	-42
▁ት	-43
▁ላይ	-44
ም።	-45
ንተ	-46
ገር	-47
▁እንዲ	-48
▁ነው	-49
ል።	-50
▁ሆ	-51
ውን	-52
ኤል	-53
▁ባ	-54
▁ስለ	-55
ድር	-56
▁ግን	-57
▁ከእ	-58
▁የእ	-59
▁እነ	-60
ዎች	-61
ጊዜ	-62
▁ቀ	-63
ትን	-64
ዚህ	-65
▁የተ	-66
▁ድ	-67
▁ጊዜ	-68
▁ታ	-69
▁ልጆ	-70
ትም	-71
▁አይ	-72
ውም	-73
ስራ	-74
▁ማ	-75
▁ጋ	-76
▁ሕ	-77
▁ነገር	-78
ስራኤል	-79
▁ን	-80
▁እርሱ	-81
▁ልጆች	-82
▁ክ	-83
▁ጋር	-84
▁አም	-85
▁እኔ	-86
▁ይህ	-87
ው።	-88
▁በአ	-89
▁ቤ	-90
▁ልጅ	-91
ል፤	-92
ዚያ	-93
▁ነበር	-94
▁ው	-95
▁በመ	-96
▁አል	-97
▁ጠ	-98
ልና	-99
ርስ	-100
ሪያ	-101
▁ዓ	-102
▁ኢ	-103
ችን	-104
▁እንዲህ	-105
ል፥	-106
▁ፈ	-107
ቸው።	-108
በት	-109
▁ንጉ	-110
ፊት	-111
ደረ	-112
▁ሰው	-113
▁ገ	-114
▁እንዳ	-115
▁መን	-116
ንና	-117
ለም	-118
▁እስ	-119
ለው	-120
▁ለእ	-121
ደር	-122
ለት	-123
▁ቃ	-124
ላችሁ	-125
▁አን	-126
ጌታ	-127
▁የአ	-128
ናንተ	-129
▁ሕዝ	-130
▁ፍ	-131
ም፥	-132
ይ፥	-133
ያስ	-134
ን፥	-135
▁ና	-136
ሥራ	-137
ነት	-138
ሠራ	-139
▁አላ	-140
▁አምላ	-141
▁ደግ	-142
ተኛ	-143
▁ሳ	-144
▁ቤት	-145
▁የእግዚአብሔር	-146
▁ነበረ	-147
ለህ	-148
▁ፊት	-149
▁ደግሞ	-150
▁የም	-151
ቸውም	-152
▁ቢ	-153
ያን	-154
ቶች	-155
▁ቀን	-156
▁ሆይ፥	-157
ስጥ	-158
ት።	-159
▁እጅ	-160
▁መል	-161
▁በዚያ	-162
▁አስ	-163
▁በም	-164
▁ዳ	-165
▁አንተ	-166
▁ከተ	-167
▁ከአ	-168
ቱም	-169
▁እነሆ	-170
▁በሰ	-171
▁አት	-172
ረስ	-173
ሆን	-174
ማይ	-175
▁ወይ	-176
▁ሰዎች	-177
ሉ።	-178
▁ሆነ	-179
ህን	-180
ስት	-181
▁ቃል	-182
▁ኃ	-183
▁ካ	-184
ለች	-185
▁ምድር	-186
ቸውን	-187
ገድ	-188
▁ሲ	-189
▁ቅ	-190
ባት	-191
▁ድረስ	-192
▁ጌታ	-193
ን።	-194
መጣ	-195
▁ይላ	-196
ሆና	-197
ነበ	-198
መለ	-199
ናገ	-200
ርሱም	-201
▁ንጉሥ	-202
ምን	-203
▁አንድ	-204
ካከ	-205
▁ሊ	-206
▁እስከ	-207
ጢአ	-208
▁ጥ	-209
▁በእግዚአብሔር	-210
▁ራ	-211
ቱን	-212
ፍራ	-213
▁አለው።	-214
ለሁ።	-215
▁አምላክ	-216
▁የሰ	-217
ኋላ	-218
ህም	-219
▁ነው።	-220
ዊት	-221
▁ኢየ	-222
ስም	-223
ገባ	-224
▁ውስጥ	-225
▁ብሎ	-226
ሆነ	-227
ቀመ	-228
ችኋ	-229
▁ሌ	-230
ሳሌ	-231
ቸዋ	-232
▁አድር	-233
ብር	-234
▁ዕ	-235
▁ነበር።	-236
ት፥	-237
▁ሴ	-238
▁ዓመ	-239
▁አለ።	-240
▁እናንተ	-241
ዳን	-242
ወጣ	-243
▁የእስራኤል	-244
ነሣ	-245
ለሁ፥	-246
▁ሙ	-247
▁እግዚአብሔርም	-248
ውንም	-249
▁በኋላ	-250
▁የሚያ	-251
▁ነገ	-252
ም፤	-253
▁ለአ	-254
ለሁ፤	-255
▁ያለ	-256
መን	-257
ተው	-258
▁ቍ	-259
መል	-260
▁ይሆና	-261
ውያን	-262
▁በተ	-263
ሁዳ	-264
ርም	-265
▁ስለዚህ	-266
▁ወንድ	-267
ካከል	-268
ደረገ	-269
▁ድን	-270
▁እርሱም	-271
ምም	-272
▁እነሆ፥	-273
▁ሞ	-274
ትና	-275
ልን	-276
▁አሳ	-277
ዛብ	-278
ሩሳሌ	-279
ርባ	-280
ግብ	-281
ና።	-282
▁ሥ	-283
ኞች	-284
▁ሄ	-285
▁ነበሩ	-286
▁ይህን	-287
▁መካከል	-288
▁ወይም	-289
▁ምን	-290
ሕዛብ	-291
▁ሕዝብ	-292
▁ኃጢአ	-293
ላቸው	-294
▁ልብ	-295
▁ንጉሡ	-296
ኢየ	-297
ርያ	-298
▁ኢየሱ	-299
▁የወ	-300
ቶቻ	-301
ከተ	-302
▁ነው፤	-303
ዋዕ	-304
▁ባሪያ	-305
▁አው	-306
▁እንዲሁ	-307
▁ዛ	-308
▁ዓመት	-309
▁ሙሴ	-310
ሥዋዕ	-311
ሉ፤	-312
▁ሥራ	-313
ቹም	-314
▁ለመ	-315
ሉ፥	-316
ጠፋ	-317
▁አይደ	-318
ድን	-319
▁አሁ	-320
ልም	-321
ሮች	-322
ህና	-323
▁የመ	-324
▁መሥዋዕ	-325
▁ነፍ	-326
▁ደስ	-327
▁ይሰ	-328
ረው	-329
ራት	-330
▁ሚ	-331
▁ሁለት	-332
ሞች	-333
▁ዮ	-334
ላቅ	-335
ፈር	-336
ንን	-337
ርስዋ	-338
▁ብዙ	-339
ቸው፤	-340
ቤቱ	-341
ኝ።	-342
▁ጽ	-343
ያው	-344
▁ከፍ	-345
▁እነዚህ	-346
ላለም	-347
ይሁዳ	-348
▁በሚ	-349
▁በደ	-350
▁ወር	-351
▁ስፍራ	-352
▁እግዚአብሔርን	-353
▁ሕዝቡ	-354
ሕዝ	-355
ራራ	-356
▁ወገ	-357
ምና	-358
▁መልካ	-359
ዲህ	-360
▁እንጂ	-361
▁ጀ	-362
▁ለእግዚአብሔር	-363
▁የነበ	-364
ንጉ	-365
▁ስም	-366
▁ሸ	-367
ቆች	-368
▁መቶ	-369
▁ክፉ	-370
ት፤	-371
▁ከሰ	-372
ግሥ	-373
ቀር	-374
▁በታ	-375
ይወ	-376
▁ር	-377
ርስቶ	-378
ድቅ	-379
ሩሳሌም	-380
ፈስ	-381
▁አባ	-382
ዘላለም	-383
ልቅ	-384
በላ	-385
ገለ	-386
▁በዚህ	-387
▁አላቸው።	-388
▁እጅግ	-389
▁በል	-390
▁በምድር	-391
▁በዚያም	-392
▁እና	-393
▁ተቀ	-394
▁በው	-395
▁እስራኤል	-396
ታቸው	-397
▁ከመ	-398
▁ሁለ	-399
▁ይሁ	-400
▁ነበረ።	-401
ቢያ	-402
▁በወ	-403
▁እነርሱ	-404
▁ለሚ	-405
▁እኔም	-406
ርስቶስ	-407
▁ሦ	-408
▁በላ	-409
▁ሐ	-410
▁ኤ	-411
ድረ	-412
ታችሁ	-413
▁ወን	-414
ጀራ	-415
▁ማን	-416
▁ሺ	-417
▁በየ	-418
▁የማ	-419
▁ይወ	-420
▁ኢየሱስ	-421
ሳት	-422
▁እንግ	-423
ደርጋ	-424
▁ከእነ	-425
ልክ	-426
▁ነበር፤	-427
ተኛው	-428
▁በዳ	-429
▁ዓይ	-430
▁በማ	-431
▁ተናገ	-432
ቸው፥	-433
ደርግ	-434
ንያ	-435
▁ከተማ	-436
▁የእግዚአብሔርን	-437
ሩት	-438
ውያ	-439
▁ቆ	-440
▁በእስራኤል	-441
▁መጣ	-442
ብም	-443
▁እንደሚ	-444
ጥቶ	-445
ው፥	-446
▁መንገድ	-447
ዴት	-448
ሆኑ	-449
▁ሁሉ፥	-450
▁ምስ	-451
▁መሥዋዕት	-452
▁ጸ	-453
▁አቤቱ	-454
ስተ	-455
▁ተነ	-456
▁የምት	-457
▁በፊ	-458
▁እየ	-459
▁ሽ	-460
▁የሆነ	-461
ጠብ	-462
አልና	-463
ች።	-464
▁ድም	-465
ናገር	-466
▁እንዳይ	-467
ችም	-468
ምሮ	-469
▁ጊዜ፥	-470
▁ይላል።	-471
▁ኢዮ	-472
▁ሠራ	-473
▁አገ	-474
▁ውኃ	-475
ሉት	-476
▁በኢየ	-477
ኝ፥	-478
ውነት	-479
ቃጠ	-480
ቀረ	-481
▁ከዚያ	-482
▁አታ	-483
▁ከእርሱ	-484
▁ፍር	-485
▁አለቆች	-486
ምላ	-487
▁ሺህ	-488
በረ	-489
ንጉሡ	-490
▁በር	-491
▁ብር	-492
ቱንም	-493
▁አጠ	-494
ልፍ	-495
▁ዝ	-496
▁ለማ	-497
▁ተሰ	-498
▁አለቃ	-499
ኝ፤	-500
▁በዓ	-501
▁አገር	-502
▁እኛ	-503
▁ይላል	-504
▁ኪ	-505
▁በግ	-506
ለደ	-507
▁እንድ	-508
▁እንዲህም	-509
ኑም	-510
ና፥	-511
▁ዛሬ	-512
ገብ	-513
▁አሕዛብ	-514
ዎቹ	-515
▁አደረገ	-516
ን፤	-517
▁አቤቱ፥	-518
ዕቆ	-519
ላም	-520
ታት	-521
▁ሠ	-522
▁ዘመን	-523
ቻቸው	-524
▁መልካም	-525
ቅደ	-526
ሩም	-527
ው፤	-528
▁ታላቅ	-529
ቅር	-530
▁ሰማ	-531
መስ	-532
እዛ	-533
▁ከሚ	-534
ሠዊ	-535
ገና	-536
▁አብ	-537
▁ከወ	-538
▁እነርሱም	-539
ኛው	-540
ኖች	-541
ሁ።	-542
ዶች	-543
▁አሉ	-544
▁ዳዊ	-545
ሰማ	-546
▁እርስዋ	-547
▁ለዘላለም	-548
ቀደ	-549
▁የሠራ	-550
ኖር	-551
▁ሄደ	-552
▁መለ	-553
▁እርሱም።	-554
በር	-555
ክር	-556
ይፍ	-557
▁በጎ	-558
▁በመን	-559
ቀመጡ	-560
▁ጣ	-561
▁አዘ	-562
ከራ	-563
ህንም	-564
ባቸው	-565
▁ቅዱ	-566
▁ጀምሮ	-567
▁ጕ	-568
▁በሕ	-569
▁አደረ	-570
ዋን	-571
▁አያ	-572
▁የበ	-573
▁ዘንድ፥	-574
ሎች	-575
▁መስ	-576
ሱን	-577
ኖሩ	-578
ፈል	-579
▁ነበረ፤	-580
▁ወጣ	-581
▁ነበሩ።	-582
▁እስኪ	-583
▁ከእኔ	-584
ችሁን	-585
መሰ	-586
▁ሥጋ	-587
መና	-588
ስን	-589
▁ትእዛ	-590
▁ስድ	-591
▁እያ	-592
▁ባለ	-593
ነገ	-594
ቀድ	-595
▁አደ	-596
▁ድምፅ	-597
▁ከም	-598
▁ሌላ	-599
▁በባ	-600
▁በፍ	-601
▁ጻ	-602
አቸው	-603
▁ብት	-604
▁ነው፥	-605
▁ፊ	-606
▁እንግዲህ	-607
ሕዝቡ	-608
▁እሰ	-609
ውቃ	-610
ድም	-611
▁በእርሱ	-612
ሩ።	-613
ርዳ	-614
▁ይበ	-615
▁አሁን	-616
ጠራ	-617
▁ቍርባ	-618
▁እንጀራ	-619
ኖራ	-620
ረት	-621
ይወት	-622
▁ያል	-623
ላችሁ።	-624
▁አይደለም	-625
▁አንዱ	-626
ዙሪያ	-627
▁ሰባት	-628
▁ተራራ	-629
ልህ	-630
▁ኃጢአት	-631
ለህ።	-632
▁ወዳ	-633
ሰው	-634
ኃጢአ	-635
▁ሰጠ	-636
ይን	-637
▁ክርስቶስ	-638
ልና።	-639
▁ዕቃ	-640
▁የለ	-641
▁የባ	-642
▁ይልቅ	-643
▁ሆኖ	-644
▁ማንም	-645
ረገ	-646
ች፥	-647
▁ክንድ	-648
▁መንግሥ	-649
ቀበ	-650
▁አጠገብ	-651
ተዋ	-652
▁ያስ	-653
▁ሦስት	-654
ረከ	-655
ዓት	-656
▁አማ	-657
ኩል	-658
▁ከአንተ	-659
ላችኋ	-660
▁አሁንም	-661
ሀያ	-662
ርቅ	-663
▁እንዴት	-664
ውያንም	-665
ያንዳን	-666
ገዛ	-667
▁ኢያ	-668
▁መንፈስ	-669
ፈራ	-670
▁ጭ	-671
▁አየ	-672
ህ፥	-673
ጋይ	-674
ችሁም	-675
▁እግ	-676
▁ተነሥ	-677
▁ወገን	-678
▁ስሙ	-679
▁ብቻ	-680
▁ተመለ	-681
▁ከተሞች	-682
ሄድ	-683
በታ	-684
▁ዋ	-685
▁ከእግዚአብሔር	-686
ፋት	-687
▁ካህና	-688
ምራ	-689
ንስ	-690
ተኞች	-691
ፋን	-692
▁አልተ	-693
መረ	-694
▁ብለው	-695
▁ከዚህ	-696
▁ንጉሡም	-697
ሁ፥	-698
ህል	-699
ሕር	-700
ዋም	-701
▁ሴቶች	-702
▁ተመል	-703
▁ዳዊት	-704
መጡ	-705
▁ጨ	-706
▁በራ	-707
▁ያለውን	-708
ሩን	-709
ቢሎ	-710
ግብፅ	-711
▁ምድ	-712
▁በታች	-713
▁ይሆናል።	-714
ልና፥	-715
ቹን	-716
▁አሳል	-717
▁የተነሣ	-718
▁አሥራ	-719
ሎሞ	-720
ጠን	-721
ጥር	-722
▁በክ	-723
ጠው	-724
▁በኩል	-725
ችንም	-726
▁በአንድ	-727
▁አሉት።	-728
ደደ	-729
▁በቀ	-730
▁ዳር	-731
▁ሕግ	-732
▁ሳይ	-733
▁መዛ	-734
▁ገና	-735
▁አምላካ	-736
ሙር	-737
▁ወለደ	-738
▁የማይ	-739
▁አምስት	-740
ልስጥ	-741
▁ልጁ	-742
ንግ	-743
▁ጠላ	-744
ልስጥኤ	-745
▁ከእስራኤል	-746
ልሃ	-747
▁ከብ	-748
ገረ	-749
ለች።	-750
▁ወሰ	-751
▁ክብር	-752
▁እነሆም፥	-753
ስፋ	-754
ባባ	-755
ወር	-756
ደርጉ	-757
▁ወስ	-758
▁ተናገረ	-759
▁ከእናንተ	-760
▁እግዚአብሔር።	-761
በሰ	-762
▁አፍ	-763
▁ፍሬ	-764
ገደ	-765
▁ብላ	-766
ብን	-767
ልክት	-768
▁ስላ	-769
▁ኃይ	-770
ቸውንም	-771
▁ዳዊትም	-772
ና፤	-773
▁ርስ	-774
ጡ።	-775
▁ፈጽ	-776
▁ነገሥ	-777
▁ድንኳ	-778
ሁ፤	-779
ታው	-780
▁መጥ	-781
▁አራ	-782
▁ራስ	-783
▁በት	-784
ሮን	-785
▁ሂ	-786
▁ሴት	-787
▁ካህ	-788
▁ነገድ	-789
ዱም	-790
▁ኤል	-791
▁እር	-792
ር፥	-793
▁በፊት	-794
ነግ	-795
ዘው	-796
ድና	-797
▁ስን	-798
▁ናቸው።	-799
▁ለእስራኤል	-800
ድ፥	-801
▁ሥር	-802
▁ከዚያም	-803
ረብ	-804
ዖን	-805
ቀመጥ	-806
ሱም	-807
ሠዊያ	-808
ሞት	-809
▁በቤ	-810
▁የሰው	-811
▁በይሁዳ	-812
▁ከእርሱም	-813
▁ይሆን	-814
ርን	-815
ኢዮ	-816
▁በእኔ	-817
ልስጥኤማ	-818
ለን	-819
ሊት	-820
ውል	-821
▁በነ	-822
▁የእስራኤልም	-823
ቅም	-824
▁የታ	-825
▁ይጠ	-826
▁ያለው	-827
ማግ	-828
▁ሳኦ	-829
ገቡ	-830
▁ግብ	-831
ጆች	-832
ፎች	-833
ዋል።	-834
▁በስ	-835
▁ለም	-836
ሴፍ	-837
ታን	-838
▁ተከ	-839
▁በዚያን	-840
▁የእግዚአብሔርም	-841
ትንም	-842
▁ሰባ	-843
▁ይመጣ	-844
▁በከ	-845
▁ደግሞም	-846
ገኘ	-847
▁ቍርባን	-848
▁ከን	-849
ተኛውም	-850
▁ቍጣ	-851
▁አጥ	-852
ሩ፥	-853
ግባ	-854
▁ነበር፥	-855
ረሰ	-856
▁በሁ	-857
▁መታ	-858
▁የሌ	-859
▁አድርገ	-860
ሳን	-861
ጠላ	-862
▁በሌ	-863
▁የቀ	-864
▁ምንም	-865
▁አባት	-866
▁ትእዛዝ	-867
▁ከእነርሱ	-868
ለህ፤	-869
ማግሌ	-870
▁በብ	-871
▁መዛሙር	-872
ገል	-873
▁ትን	-874
ላለ	-875
▁ረ	-876
ች፤	-877
▁የለም	-878
▁በኢየሩሳሌም	-879
ወድ	-880
ጽሐ	-881
▁ሀያ	-882
▁አሉ።	-883
▁አድርጎ	-884
ቴን	-885
▁ጉ	-886
▁እው	-887
▁ወይስ	-888
▁የሠራዊት	-889
ደው	-890
ንም፥	-891
▁በበ	-892
▁ጥበ	-893
▁ተቀም	-894
ባል	-895
ዘጋ	-896
▁ሰም	-897
▁አሰ	-898
▁ሕዝቡም	-899
መው	-900
▁ቁ	-901
▁አራት	-902
▁ባሪያዎች	-903
ታል።	-904
ንም።	-905
ንድር	-906
ሶች	-907
ጀመ	-908
▁መብ	-909
▁ዘር	-910
ሮስ	-911
ለውን	-912
▁ምሕ	-913
▁ይቀ	-914
▁ይሁዳ	-915
እክ	-916
ለት።	-917
በትን	-918
ደረግ	-919
▁ልጆች፥	-920
ላሳ	-921
ጡ፥	-922
ረውን	-923
▁ለሰ	-924
▁በቅ	-925
▁ያሉ	-926
▁መቅደ	-927
▁ወንድሞ	-928
ሳችሁ	-929
▁ያዕቆ	-930
ታችን	-931
▁መንገ	-932
▁ሙሴም	-933
▁በእነ	-934
ሉም	-935
ሥር	-936
ውሎ	-937
ያም	-938
ደነ	-939
▁እንድት	-940
ሄዳ	-941
አል።	-942
▁ይሆናል፤	-943
▁መር	-944
ቀመጠ	-945
▁ፈር	-946
▁ኢየሱስም	-947
ርኮ	-948
ታም	-949
ሳቸው	-950
▁በዘ	-951
▁ነፍስ	-952
▁ኪዳን	-953
ሩ፤	-954
▁በጥ	-955
▁አውራ	-956
▁እያንዳን	-957
ምህ	-958
ረደ	-959
ድቃ	-960
ቢሎን	-961
▁ባል	-962
ጀመሪያ	-963
▁እውነት	-964
▁ነገሥታት	-965
ከብ	-966
ዋል፤	-967
▁መልሶ	-968
▁ቅዱስ	-969
▁በሰማ	-970
▁ተስፋ	-971
▁ቸ	-972
ለህ፥	-973
▁ሆን	-974
▁ሊያ	-975
በዛ	-976
ብዓ	-977
ኑን	-978
ዱ፥	-979
▁ምንድር	-980
ደርገ	-981
▁የል	-982
▁ይፈ	-983
▁ናቸው፤	-984
▁ኢየሩሳሌም	-985
ዊው	-986
▁ወዲ	-987
▁ደም	-988
▁አስቀድ	-989
ነው	-990
ጸና	-991
መለከ	-992
ባቶቻ	-993
ነበረ	-994
▁ለል	-995
▁ሆነ፤	-996
▁ይህም	-997
▁እንዲያ	-998
ኖስ	-999
▁ሚስ	-1000
▁ገደ	-1001
ንቀ	-1002
ዛት	-1003
ጆሮ	-1004
ለች፤	-1005
ሩትን	-1006
ናገራ	-1007
▁ፍርድ	-1008
▁ሽማግሌ	-1009
▁አደረጉ	-1010
ሁድ	-1011
ይም	-1012
▁ታላ	-1013
▁በቀር	-1014
▁መሠዊያ	-1015
▁አወ	-1016
▁እጁ	-1017
▁የዘ	-1018
▁ልብስ	-1019
▁በእውነት	-1020
▁በዙሪያ	-1021
▁አንተም	-1022
▁የከ	-1023
▁ሰሎሞ	-1024
ርቶ	-1025
ሱስ	-1026
ኑ።	-1027
ጡ፤	-1028
▁ዐ	-1029
▁ጌ	-1030
▁ለወ	-1031
▁ደቀ	-1032
▁ነፍሴ	-1033
ለማ	-1034
ቈጠ	-1035
ዱ።	-1036
ለች፥	-1037
▁የይሁዳ	-1038
ሄዱ	-1039
ላት	-1040
▁ሞተ	-1041
▁በእናንተ	-1042
ሬም	-1043
▁ነውና	-1044
ልኝ	-1045
ቴና	-1046
በትም	-1047
ግብጽ	-1048
አቸው።	-1049
▁በአን	-1050
ሰሙ	-1051
ቶቹ	-1052
ባችሁ	-1053
ደሪያ	-1054
ጽሐፍ	-1055
▁ያዘ	-1056
ላችሁ፤	-1057
ቅያስ	-1058
ልጣ	-1059
ሽን	-1060
ያዕቆ	-1061
▁ጽድቅ	-1062
መነ	-1063
ሜን	-1064
ብስ	-1065
ቸዋል።	-1066
ረድ	-1067
ሸከ	-1068
ዓብ	-1069
▁ወጥ	-1070
▁የሞ	-1071
▁ድንኳን	-1072
▁መሰ	-1073
▁ይለ	-1074
▁የምታ	-1075
▁በአንተ	-1076
▁ያደርጋ	-1077
▁ከእነርሱም	-1078
ራም	-1079
ቅል	-1080
አል፤	-1081
▁ጠራ	-1082
ለዳ	-1083
ምር	-1084
▁ነፋ	-1085
ድማ	-1086
ድጓ	-1087
▁ጮ	-1088
ዳዊት	-1089
▁መከራ	-1090
▁ብርሃ	-1091
▁እንኳ	-1092
ቦት	-1093
ኑ፥	-1094
ገኝ	-1095
▁ከባ	-1096
▁መጣ።	-1097
▁ሙሴን	-1098
▁ሚስት	-1099
▁ሰላም	-1100
▁ሰይፍ	-1101
▁በውኑ	-1102
▁ነበርና	-1103
▁ነኝ	-1104
▁ባሕር	-1105
ችል	-1106
▁ሌዋ	-1107
▁የደ	-1108
▁እርስ	-1109
▁ስለዚህም	-1110
ቢት	-1111
▁መጥቶ	-1112
▁የሚያስ	-1113
ረጋ	-1114
ስ፥	-1115
ራቸው	-1116
ዋንም	-1117
ላችሁ፥	-1118
▁መልአ	-1119
ስሐ	-1120
ሆን፥	-1121
▁ርስት	-1122
ለቆ	-1123
▁በፈ	-1124
▁ስድስት	-1125
▁ነበረ፥	-1126
ዶም	-1127
▁የምድር	-1128
▁የእስራኤልን	-1129
ቴም	-1130
ፀሐ	-1131
ቻቸውም	-1132
▁ዳርቻ	-1133
▁ነበሩ፤	-1134
ህ።	-1135
ስማ	-1136
ሽም	-1137
ጋና	-1138
▁ጫ	-1139
▁ምና	-1140
▁ጠጅ	-1141
▁ነገሠ	-1142
▁ለአንተ	-1143
▁የወይን	-1144
▁ለባ	-1145
▁ቤተ	-1146
ሰጥ	-1147
ምላካ	-1148
ችንን	-1149
▁ለብ	-1150
▁በለ	-1151
▁ገባ	-1152
▁ለምን	-1153
▁መለሰ	-1154
▁ቢሆን	-1155
ቀደሰ	-1156
▁ሦስ	-1157
▁ተወ	-1158
▁ይገባ	-1159
▁ወንድሞች	-1160
ራችሁ	-1161
ታቸውን	-1162
▁አንቺ	-1163
▁የሚቃጠ	-1164
ቀው	-1165
ቂት	-1166
ያ፥	-1167
ርነት	-1168
▁ንጹ	-1169
▁በሕይወት	-1170
▁ሁል	-1171
▁በኤ	-1172
▁ጠብ	-1173
▁ባለው	-1174
▁እሳት	-1175
▁ድንጋይ	-1176
ሥጋ	-1177
ዬን	-1178
▁ቈ	-1179
▁ኖ	-1180
▁ላከ	-1181
▁ነቢ	-1182
▁ዛፍ	-1183
▁አመጣ	-1184
ሩሳሌምም	-1185
▁አምሳ	-1186
▁በመካከ	-1187
ሉን	-1188
ሱ።	-1189
▁በረ	-1190
▁አምላክህ	-1191
▁ጎ	-1192
ቹንም	-1193
▁አድ	-1194
▁ከማ	-1195
▁ልጅ፥	-1196
▁ሰማይ	-1197
▁በላይ	-1198
▁መጽሐፍ	-1199
▁እንዳዘ	-1200
ሙን	-1201
ሞታ	-1202
ቀቅ	-1203
▁ሜ	-1204
▁ቀር	-1205
▁በእሳት	-1206
▁እርስዋም	-1207
ብ፥	-1208
▁የና	-1209
▁የኤ	-1210
▁በከተ	-1211
▁ወርቅ	-1212
▁ሁልጊዜ	-1213
▁መንግሥት	-1214
▁እንዲሁም	-1215
ርሃ	-1216
ባኤ	-1217
ብሎ	-1218
ነዓ	-1219
ዩም	-1220
ዮን	-1221
ልና፤	-1222
▁ማኅ	-1223
▁በሬ	-1224
▁ከበ	-1225
▁እንስ	-1226
ርና	-1227
ፈው	-1228
ኮረብ	-1229
▁በጽ	-1230
▁ተና	-1231
▁የፍ	-1232
▁ለእኔ	-1233
ህ፤	-1234
ሉአ	-1235
ወስ	-1236
ጳውሎ	-1237
▁ይዞ	-1238
▁በድን	-1239
▁ዮሴፍ	-1240
▁በምድረ	-1241
▁በሰይፍ	-1242
ምነት	-1243
ትንና	-1244
▁ይህንም	-1245
▁ኃያ	-1246
▁እባ	-1247
▁አንዳ	-1248
▁አወጣ	-1249
▁እንዳት	-1250
▁እንዲሆን	-1251
ተህ	-1252
ካህና	-1253
▁በፊቱ	-1254
▁ቤቶች	-1255
▁የጌታ	-1256
ዋል	-1257
ጴጥ	-1258
ብርሃ	-1259
▁ልት	-1260
▁ምድረ	-1261
▁ምድሪ	-1262
ቡ።	-1263
ችሁ፥	-1264
▁ሲል	-1265
▁ተራ	-1266
▁አሮ	-1267
▁ዕጣ	-1268
በው	-1269
ለሁና	-1270
▁ያን	-1271
ናት	-1272
ጡት	-1273
▁ሮ	-1274
መለስ	-1275
▁ርኩ	-1276
▁ገብ	-1277
▁ፈቃ	-1278
▁አሳልፎ	-1279
▁አድርግ	-1280
ብህ	-1281
ሙኤል	-1282
▁አካ	-1283
▁የዮ	-1284
▁ሆነ፥	-1285
▁ምርኮ	-1286
▁በጌታ	-1287
▁ተነሣ	-1288
▁በንጉሡ	-1289
ዎችም	-1290
ፋንታ	-1291
▁ለራ	-1292
▁ቅን	-1293
▁ከጥ	-1294
▁ጆሮ	-1295
▁ጊዜም	-1296
▁አደርጋ	-1297
▁ከሰማይ	-1298
ረክ	-1299
ዘን	-1300
ዎቹም	-1301
▁የክ	-1302
▁የኢየ	-1303
▁ከምድር	-1304
ለ።	-1305
መድ	-1306
ረኛ	-1307
ርሳ	-1308
ሰት	-1309
ጠጣ	-1310
ፈሩ	-1311
ችው።	-1312
▁ይኖራ	-1313
በሩ	-1314
ንዘ	-1315
አል	-1316
ካም	-1317
ገሩ	-1318
ገኙ	-1319
▁ምክ	-1320
▁የነ	-1321
▁የዓ	-1322
▁ይታ	-1323
▁አሥር	-1324
▁ይሁን።	-1325
ይቱ	-1326
ለህን	-1327
ቻችሁ	-1328
ዳቸው	-1329
ፈሪያ	-1330
▁አበ	-1331
▁ከሁ	-1332
ታቸውም	-1333
▁ሠላሳ	-1334
▁ትሆና	-1335
▁ናቸው	-1336
▁አገል	-1337
▁ዓለም	-1338
▁መልአክ	-1339
▁ተቀመጠ	-1340
ጠበ	-1341
መልስ	-1342
▁መጋ	-1343
▁የሕ	-1344
▁ይመ	-1345
▁ይነ	-1346
▁ጴጥ	-1347
ርምያስ	-1348
▁ታውቃ	-1349
▁ግን።	-1350
▁እናንተም	-1351
ልጥ	-1352
▁ልጄ	-1353
▁ፈጥ	-1354
▁ወጥቶ	-1355
▁ፋንታ	-1356
▁ከእንግ	-1357
▁አማልክት	-1358
ምት	-1359
ሱ፥	-1360
ብራ	-1361
ዱ፤	-1362
ጠቀ	-1363
▁ዔ	-1364
▁ባይ	-1365
▁እንጨ	-1366
▁ወሰደ	-1367
▁እንዳል	-1368
▁ያደረገ	-1369
▁በእግዚአብሔርም	-1370
ቁ።	-1371
ኢያ	-1372
ሥራቅ	-1373
▁ከደ	-1374
ልንጀራ	-1375
▁ይወጣ	-1376
▁አልነበረ	-1377
ቤል	-1378
ጊያ	-1379
ጠብቅ	-1380
▁ጕል	-1381
▁ሕያው	-1382
▁ምሳሌ	-1383
ዮች	-1384
▁አዳ	-1385
▁ሁሉን	-1386
▁ዓይን	-1387
▁የአባ	-1388
ኝም	-1389
ጽና	-1390
▁ቦ	-1391
ለን።	-1392
▁ቢያ	-1393
▁ነቢያ	-1394
▁እርሻ	-1395
▁ይበላ	-1396
▁ተናገር	-1397
▁አደባባ	-1398
▁ወንዶች	-1399
▁ፍልስጥኤማ	-1400
ላል	-1401
ሙሴ	-1402
ሴሎ	-1403
▁መዝ	-1404
▁ዘይ	-1405
▁የራ	-1406
▁አለኝ።	-1407
▁ለእናንተ	-1408
ሎት	-1409
ፍታ	-1410
▁ስማ	-1411
ውያንን	-1412
▁ትውል	-1413
▁አርባ	-1414
▁አንዲ	-1415
▁አጠፋ	-1416
▁ይሰጣ	-1417
▁ጳውሎ	-1418
ለሽ	-1419
ኅን	-1420
ወቅ	-1421
ጻፈ	-1422
▁ከእኛ	-1423
▁የተባ	-1424
ሳኦ	-1425
ቃጥ	-1426
ውቅ	-1427
ፍት	-1428
▁ስት	-1429
▁አክ	-1430
▁ይዘ	-1431
ላቸውም	-1432
ላቸው።	-1433
▁ምሕረ	-1434
▁በፊትህ	-1435
▁ካህኑም	-1436
ሁት	-1437
ኃኒ	-1438
መሰግ	-1439
ምላክ	-1440
ሶርያ	-1441
▁ቀረ	-1442
▁ባየ	-1443
▁ወራት	-1444
▁መልሶ።	-1445
▁በታላቅ	-1446
▁እስራኤልም	-1447
ኸው	-1448
ደድ	-1449
▁ክፍ	-1450
▁አስቀድሞ	-1451
▁ርኵ	-1452
▁አር	-1453
▁አቤ	-1454
ሠዊያው	-1455
▁ተቀመጡ	-1456
▁የንጉሡ	-1457
▁በአሕዛብ	-1458
▁ፋ	-1459
ውንና	-1460
ድኃኒ	-1461
ፍሬም	-1462
▁ከክ	-1463
▁ወዮ	-1464
▁የብ	-1465
▁ንጹሕ	-1466
▁ዙሪያ	-1467
▁ድንጋ	-1468
▁ሕዝቡን	-1469
▁በሰማይ	-1470
▁እላችኋ	-1471
▁አይደለምን	-1472
▁እነርሱም።	-1473
መር	-1474
መኑ	-1475
ታል፤	-1476
ገለግ	-1477
▁ታስ	-1478
▁ገለ	-1479
▁ወዲያ	-1480
▁የተወ	-1481
ስና	-1482
ብና	-1483
ትህ	-1484
ገኛ	-1485
ጠኝ	-1486
ናገሩ	-1487
▁ተማ	-1488
▁ይባ	-1489
▁ከአባ	-1490
▁ሽማግሌዎች	-1491
ሰድ	-1492
▁ለተ	-1493
▁ሕፃ	-1494
▁ተለ	-1495
▁ይከ	-1496
ቶቻቸው	-1497
▁በእር	-1498
▁ወስዶ	-1499
▁ጉባኤ	-1500
▁ፈጽሞ	-1501
▁በግብፅ	-1502
▁በእርሱም	-1503
▁አደረገ።	-1504
በስ	-1505
▁ጐ	-1506
ችንና	-1507
አል፥	-1508
ዳችሁ	-1509
▁መግ	-1510
▁ሳለ	-1511
▁የይ	-1512
▁ያሳ	-1513
▁ብለህ	-1514
▁ታቦት	-1515
▁አንበ	-1516
▁እሰጣ	-1517
▁አምላኬ	-1518
ረግ	-1519
ቡ፥	-1520
ነትም	-1521
▁ሰጣ	-1522
▁ሆነው	-1523
▁ሰውም	-1524
▁ወዲህ	-1525
▁ጥቂት	-1526
▁ሥርዓት	-1527
▁እንደዚህ	-1528
ለበት	-1529
ላል።	-1530
ዋል፥	-1531
▁መቅ	-1532
▁ቀድ	-1533
▁በሐ	-1534
▁በዮ	-1535
▁ብዬ	-1536
ርዳኖስ	-1537
▁በእጁ	-1538
▁በእጅ	-1539
▁ብርሃን	-1540
▁ተነሥቶ	-1541
▁የለም።	-1542
▁የወርቅ	-1543
ርድ	-1544
ቁ፥	-1545
ነፍ	-1546
ጹም	-1547
▁በኵ	-1548
▁የፈ	-1549
▁ሆነ።	-1550
▁በሁለ	-1551
▁ጌታዬ	-1552
▁ምስክር	-1553
▁ትንቢት	-1554
▁አብርሃ	-1555
▁ወለደ፤	-1556
▁የተቀደሰ	-1557
ንቃ	-1558
▁ጦ	-1559
▁ውጭ	-1560
ቶቼ	-1561
ውጣ	-1562
ሩንም	-1563
ንድሞ	-1564
ፀሐይ	-1565
▁ብታ	-1566
▁ከቶ	-1567
▁ከንቱ	-1568
▁የተሰ	-1569
▁ጻድቅ	-1570
▁ምክንያ	-1571
▁ብላቴና	-1572
ላን	-1573
ያት	-1574
▁አፈ	-1575
▁ዮሐ	-1576
▁ሆንሁ	-1577
▁በውኃ	-1578
▁ሳሙኤል	-1579
ለኛ	-1580
ነትን	-1581
▁ርኩስ	-1582
▁ኃይል	-1583
▁ያህል	-1584
ሠሩ	-1585
ረጃ	-1586
ተና	-1587
ዝራ	-1588
▁መቃ	-1589
▁ዝም	-1590
ቻቸውን	-1591
▁አለ፤	-1592
▁ወደሚ	-1593
▁የቀረ	-1594
መቱ	-1595
ወጡ	-1596
ዋጋ	-1597
▁ሎ	-1598
▁ከፈ	-1599
▁ብዛት	-1600
▁በእርስዋ	-1601
ሙት	-1602
ውና	-1603
ማይቱ	-1604
በት።	-1605
ታል፥	-1606
▁ትሰ	-1607
▁ከሌ	-1608
ኃጢአት	-1609
▁ሁሉም	-1610
▁መጠን	-1611
▁እስክ	-1612
▁እኔን	-1613
▁ያስተ	-1614
▁ያወጣ	-1615
▁ገንዘ	-1616
▁በመንገድ	-1617
ሞን	-1618
▁ዱ	-1619
ለም።	-1620
ንያም	-1621
▁ለሌ	-1622
▁ሕዝቤ	-1623
▁ሰረገ	-1624
▁ያውቃ	-1625
▁አይሁድ	-1626
▁ኤርምያስ	-1627
ማን	-1628
ተኞ	-1629
ድዳ	-1630
▁ዙ	-1631
▁በድ	-1632
አብርሃ	-1633
▁ወዴት	-1634
▁ለእርሱ	-1635
▁አድርጌ	-1636
▁ከግብፅ	-1637
ሞራ	-1638
ቡ፤	-1639
ታል	-1640
ኃይ	-1641
▁ተፈ	-1642
▁ተቀምጦ	-1643
▁እንዳለ	-1644
▁ይሁን፤	-1645
ሙ።	-1646
ምጣ	-1647
ፍረ	-1648
ጠብቁ	-1649
▁ተከተ	-1650
ረዳ	-1651
ከት	-1652
ውቁ	-1653
ድል	-1654
▁ሣ	-1655
▁ኑ	-1656
▁ዲ	-1657
ሃል።	-1658
▁ራሳ	-1659
▁ሰን	-1660
▁ሄደ።	-1661
▁አዘዘ	-1662
▁ከእንግዲህ	-1663
▁የነበረውን	-1664
▁በኢየሩሳሌምም	-1665
ስታ	-1666
ፍጥ	-1667
ላቸዋ	-1668
በት፥	-1669
ድጓድ	-1670
▁ከፊ	-1671
▁ዘመ	-1672
ራቸው።	-1673
▁ሁለቱ	-1674
▁በከን	-1675
▁ሕይወት	-1676
▁መልእክ	-1677
▁ነውና።	-1678
▁አድርጉ	-1679
ላው	-1680
መኛ	-1681
ማት	-1682
ሬት	-1683
ቆም	-1684
ክል	-1685
ዓዛ	-1686
ዕራ	-1687
ለችው	-1688
ናችሁ	-1689
▁በሦ	-1690
▁ይል	-1691
▁ባድማ	-1692
▁ተብሎ	-1693
▁ወንዝ	-1694
▁ምክንያት	-1695
ኖረ	-1696
ኋችሁ	-1697
ንጉሥ	-1698
▁ትዕ	-1699
ስተኛው	-1700
▁ሌሊት	-1701
▁በሕዝ	-1702
▁ክፍል	-1703
▁የዚያ	-1704
▁ምልክት	-1705
ገዙ	-1706
ሆነው	-1707
ሱንም	-1708
▁መጠ	-1709
▁ቆሞ	-1710
▁ከኤ	-1711
ባቸውን	-1712
ያዕቆብ	-1713
▁ሰቅል	-1714
▁በየወ	-1715
▁አቀረ	-1716
▁የሚበ	-1717
▁ቢሆን፥	-1718
▁ነገሠ።	-1719
▁አደባባይ	-1720
ቈጣ	-1721
ቦች	-1722
ጠፉ	-1723
ፍና	-1724
▁ቂ	-1725
ምህር	-1726
ምርያ	-1727
ትም፥	-1728
▁አህ	-1729
▁ዮና	-1730
ገናኛው	-1731
▁ሸለቆ	-1732
▁ተናግ	-1733
▁ይቅር	-1734
▁ማደሪያ	-1735
▁አላት።	-1736
▁መዛሙርቱ	-1737
▁እላችኋለሁ፥	-1738
ልሁ	-1739
ቡም	-1740
▁ተጠ	-1741
▁የቤ	-1742
▁ደር	-1743
▁መንፈ	-1744
▁ራሱን	-1745
▁ሳኦል	-1746
▁እርሱን	-1747
▁የዘላለም	-1748
ሪሳ	-1749
▁መክ	-1750
▁ራእ	-1751
▁በገ	-1752
▁የጽ	-1753
▁ይሻ	-1754
▁ጽኑ	-1755
▁ፈራ	-1756
▁አመጡ	-1757
▁ይሁን	-1758
▁ከዚህም	-1759
▁መስፈሪያ	-1760
▁እስራኤልን	-1761
ሰና	-1762
ሽንም	-1763
ቀርባ	-1764
ኤል፥	-1765
ዖንም	-1766
▁ኋላ	-1767
▁ዋጋ	-1768
▁ዝና	-1769
▁ቅጥር	-1770
▁ተቀበ	-1771
▁ይመስ	-1772
▁ፈቃድ	-1773
▁መቅደስ	-1774
▁ይናገራ	-1775
▁የሆነውን	-1776
ሪክ	-1777
ጨረ	-1778
▁በዕ	-1779
▁አግ	-1780
▁ስንኳ	-1781
▁አስተ	-1782
▁ይወስ	-1783
▁ካህናት	-1784
▁ዳዊትን	-1785
▁በክርስቶስ	-1786
ጆቹ	-1787
ጌል	-1788
ፍን	-1789
ማችሁ	-1790
▁ለበ	-1791
▁የሴ	-1792
አልና።	-1793
▁በብዙ	-1794
▁እውቀ	-1795
▁ከአን	-1796
▁ለንጉሡ	-1797
▁ሠራዊት	-1798
▁የሚኖሩ	-1799
▁ተናገረው።	-1800
ማም	-1801
ሰ።	-1802
ቍጣ	-1803
በራ	-1804
ብኝ	-1805
ቱና	-1806
ዓድ	-1807
ዱን	-1808
ድሜ	-1809
ጕር	-1810
▁ሬ	-1811
▁መረ	-1812
▁ሲያ	-1813
▁አጋ	-1814
▁ጠየ	-1815
▁አዘጋ	-1816
▁ይጠፋ	-1817
▁ታደርጋ	-1818
▁የነበሩ	-1819
▁መሰምርያ	-1820
ለኝ	-1821
ያዊ	-1822
ሃለሁ	-1823
▁ሰፈ	-1824
▁በሞ	-1825
▁ታና	-1826
▁ወድ	-1827
▁ሥርዓ	-1828
▁ሰልፍ	-1829
▁በላያ	-1830
▁በአባ	-1831
▁ካህኑ	-1832
▁ዓይኖ	-1833
▁ጥበብ	-1834
▁ሁለተኛ	-1835
▁ትውልድ	-1836
▁ኢዮአብ	-1837
▁በምድርም	-1838
ሌክ	-1839
ኑ፤	-1840
ንቅ	-1841
ግር	-1842
ማል።	-1843
▁ማዕ	-1844
▁ትወ	-1845
▁አዋ	-1846
▁እል	-1847
▁ክን	-1848
ሃለሁ።	-1849
▁በጎች	-1850
▁እኛም	-1851
▁ይህች	-1852
▁ሳኦልም	-1853
▁እንጨት	-1854
▁የተናገ	-1855
ቁን	-1856
ጨነ	-1857
ድረግ	-1858
አልና፥	-1859
▁በረከ	-1860
▁ከኢየ	-1861
▁ክርስ	-1862
▁ደስታ	-1863
▁በሕዝቡ	-1864
▁ከይሁዳ	-1865
▁ወደዚህ	-1866
▁የነበረ	-1867
▁ጴጥሮስ	-1868
▁ነበርና።	-1869
▁እነዚህን	-1870
ሰብ	-1871
ቅን	-1872
ጸል	-1873
▁ሹ	-1874
▁ኬ	-1875
▁ጩ	-1876
ለምን	-1877
ርብዓ	-1878
ናቸው	-1879
ዊትም	-1880
ጋችሁ	-1881
▁ሚዛ	-1882
▁ፍየ	-1883
▁ቍጥር	-1884
▁እየተ	-1885
▁ወይፈ	-1886
▁ወደቀ	-1887
▁የመን	-1888
▁ጊዜ።	-1889
▁ያሉትን	-1890
▁ሕዝቅያስ	-1891
▁አደረገ፤	-1892
ርክ	-1893
ሾች	-1894
ቁ፤	-1895
ችው	-1896
▁ጢ	-1897
▁ተመ	-1898
▁ተሸ	-1899
▁ከል	-1900
ናቸውም	-1901
▁በዓይ	-1902
▁ነፋስ	-1903
▁ወጣ።	-1904
▁አንዳች	-1905
▁ወገኖች	-1906
▁በመጀመሪያ	-1907
ቲቱ	-1908
ወት	-1909
ለን፤	-1910
ሜሌክ	-1911
▁ማዶ	-1912
▁ርዝ	-1913
▁ቃሌ	-1914
▁አዝ	-1915
▁እኅ	-1916
▁የሐ	-1917
▁ያላ	-1918
▁ይሸ	-1919
▁በሰው	-1920
▁በእጃ	-1921
▁ክፋት	-1922
▁ወረደ	-1923
▁ይሠራ	-1924
▁ልጆች፤	-1925
▁አደረግ	-1926
▁ክርስቲ	-1927
▁ወንድም	-1928
ለቅ	-1929
ናወ	-1930
ስያስ	-1931
ቀርቡ	-1932
▁ከዓ	-1933
▁የዳ	-1934
▁በኢዮ	-1935
▁በወን	-1936
▁እጁን	-1937
▁ጨለማ	-1938
▁ፈቀቅ	-1939
▁ለሕዝቡ	-1940
▁መድኃኒ	-1941
▁በተራራ	-1942
ቃል	-1943
ኸኝ	-1944
ወቀ	-1945
ገት	-1946
ርያም	-1947
ፈርድ	-1948
ማይቱም	-1949
▁ለእነ	-1950
▁በሰባ	-1951
▁በደረ	-1952
▁ይመለ	-1953
▁ይወድቃ	-1954
▁ኵ	-1955
ደረጉ	-1956
▁ተዋ	-1957
▁ኪዳ	-1958
▁የኢ	-1959
▁በመል	-1960
▁በመጣ	-1961
▁በምት	-1962
▁በገባ	-1963
▁አጥን	-1964
▁የኢዮ	-1965
▁ያልተ	-1966
▁ያጠፋ	-1967
▁ምስጋና	-1968
▁አንዲት	-1969
▁በኢየሱስ	-1970
▁የነበሩትን	-1971
አት	-1972
የት	-1973
▁ች	-1974
ለውም	-1975
ላእክ	-1976
ኑንም	-1977
ዎችን	-1978
▁መቼ	-1979
▁ሰይ	-1980
▁አቢ	-1981
▁ጋሻ	-1982
▁ጠቦ	-1983
ላችሁን	-1984
ፈርዖን	-1985
▁ነኝ፤	-1986
▁አውቃ	-1987
▁የሆኑ	-1988
▁ደመና	-1989
▁ጠርቶ	-1990
▁ፍቅር	-1991
▁በእነርሱ	-1992
ማው	-1993
ናን	-1994
ባቸዋ	-1995
ቴንም	-1996
ከደነ	-1997
▁ሰላ	-1998
▁በና	-1999
▁ከቤ	-2000
▁ፈረ	-2001
▁ሥልጣ	-2002
▁እያሉ	-2003
▁ከመን	-2004
▁የብር	-2005
▁በመቅደ	-2006
▁እያንዳንዱ	-2007
ሙም	-2008
ማስ	-2009
ሞላ	-2010
ሱ፤	-2011
ሳይ	-2012
ቂያ	-2013
▁ኀ	-2014
ርያስ	-2015
▁ልቤ	-2016
▁ሞት	-2017
▁ተደ	-2018
▁ጸጋ	-2019
▁ነኝ።	-2020
▁ኢያሱ	-2021
▁ይሄዳ	-2022
▁ይዘው	-2023
▁በአሥራ	-2024
▁በመሠዊያው	-2025
▁አምላካችን	-2026
▁አይደለም።	-2027
ለዋ	-2028
ደዱ	-2029
ጠባ	-2030
ለት፤	-2031
▁ቀኝ	-2032
▁ቦታ	-2033
▁አዲ	-2034
▁ስለሚ	-2035
▁በሥጋ	-2036
▁በፊቴ	-2037
▁አሳብ	-2038
▁አገኘ	-2039
▁ወጣ፥	-2040
▁የሚል	-2041
▁የተለ	-2042
▁መጥተው	-2043
▁ሰሎሞን	-2044
▁አለው፤	-2045
▁አደርግ	-2046
▁ጳውሎስ	-2047
ሦር	-2048
ጸመ	-2049
ጻሜ	-2050
▁ሞገ	-2051
▁ተን	-2052
▁ከቀ	-2053
▁ከታ	-2054
▁በሰን	-2055
▁በእኛ	-2056
▁ነውን	-2057
▁አለቆ	-2058
▁ወይን	-2059
▁ሰዎችም	-2060
▁አንተን	-2061
▁ከእርስዋ	-2062
ሩቅ	-2063
ቡን	-2064
ንቋ	-2065
ድርግ	-2066
▁የላ	-2067
▁ቀንም	-2068
▁በሆነ	-2069
▁እግር	-2070
▁ምድርን	-2071
▁ያደርግ	-2072
▁በአንድነት	-2073
ሁም	-2074
ኛል	-2075
ድራ	-2076
ጠረ	-2077
▁ኦ	-2078
ቃጠል	-2079
ትን፥	-2080
ገለጠ	-2081
▁ናቡ	-2082
▁ጠቢ	-2083
▁ስምን	-2084
▁በደል	-2085
▁አንዳን	-2086
▁እነዚያ	-2087
▁ያዕቆብም	-2088
▁እግዚአብሔር፤	-2089
▁እግዚአብሔርንም	-2090
ማል	-2091
ፊያ	-2092
ባችኋ	-2093
ትም፤	-2094
ኛውም	-2095
▁ሰጥ	-2096
▁ስጦ	-2097
▁አሜ	-2098
▁ናት፤	-2099
▁አቅር	-2100
▁አንሥ	-2101
▁ካህን	-2102
▁ምሕረት	-2103
▁ተመልከ	-2104
▁ነገርን	-2105
▁አባቶቻ	-2106
▁እንዳያ	-2107
▁የሚገባ	-2108
ቡብ	-2109
ሉት።	-2110
መስግ	-2111
ረኞች	-2112
ኛል።	-2113
ጨለማ	-2114
ጨረሻ	-2115
▁የጥ	-2116
▁ጽዋ	-2117
ላቸው፥	-2118
▁ምድርም	-2119
▁በዚህም	-2120
▁ወደዚያ	-2121
▁የአሕዛብ	-2122
▁አምላካችሁ	-2123
ራን	-2124
ብላ	-2125
ገሥ	-2126
መልሳ	-2127
ውም።	-2128
ፈልጉ	-2129
▁ቆመ	-2130
▁እሳ	-2131
▁እዘ	-2132
▁ክፋ	-2133
▁ወሬ	-2134
▁ይጥ	-2135
ዶምያስ	-2136
▁ሰደደ	-2137
▁ትበላ	-2138
▁ኢያሱም	-2139
▁አለችው።	-2140
▁እነዚህም	-2141
▁የነበሩት	-2142
▁በእስራኤልም	-2143
ሌታ	-2144
ምባ	-2145
ሽ፥	-2146
ዬም	-2147
▁ሐሰ	-2148
▁አቆ	-2149
▁መልክ	-2150
▁ምክር	-2151
▁ሰዓት	-2152
▁በኃይ	-2153
▁በባሕር	-2154
▁አለች።	-2155
▁አገልግ	-2156
▁ኤልያስ	-2157
▁ያዕቆብ	-2158
▁ድረስ፥	-2159
ቀላ	-2160
ቅ፥	-2161
ተን	-2162
ቱ፥	-2163
ነጻ	-2164
ገጃ	-2165
ጎች	-2166
ቀበል	-2167
ዋርያ	-2168
▁ሸክ	-2169
▁ቀለ	-2170
▁እጃ	-2171
▁የዕ	-2172
▁ደዌ	-2173
▁ጠባ	-2174
ከደነፆ	-2175
▁በምን	-2176
▁ነገሩ	-2177
▁እውነ	-2178
▁ከከተ	-2179
▁ደረሰ	-2180
▁ለዳዊት	-2181
▁መሰምርያዋ	-2182
▁የእግዚአብሔርንም	-2183
መታ	-2184
መት	-2185
ነሡ	-2186
ከር	-2187
ዎን	-2188
ዮስ	-2189
ሁትን	-2190
ደሮች	-2191
ጠብቃ	-2192
▁መሠ	-2193
▁መው	-2194
▁በዙ	-2195
▁ቤቱ	-2196
▁ተጽ	-2197
▁ይደ	-2198
ዎቹንም	-2199
▁በከንቱ	-2200
▁አንበሳ	-2201
▁ኃጢአትን	-2202
ረጥ	-2203
ቁም	-2204
ኪያ	-2205
ደል	-2206
በት፤	-2207
አቸዋ	-2208
▁ለዘ	-2209
▁ለደ	-2210
▁ሌሎ	-2211
▁መባ	-2212
▁ሰል	-2213
▁ተዘ	-2214
▁ይነግ	-2215
አብርሃም	-2216
▁መስገጃ	-2217
▁ከሕዝቡ	-2218
▁ዓይኖች	-2219
▁ይሆናል፥	-2220
▁አይደለም፤	-2221
ማማ	-2222
ማረ	-2223
ንቆ	-2224
ውር	-2225
ጥም	-2226
ጥን	-2227
ሉትን	-2228
▁ሂድ	-2229
▁ለካ	-2230
▁መጻ	-2231
▁በሴ	-2232
▁እወ	-2233
▁እጄ	-2234
▁ካል	-2235
▁ደጅ	-2236
▁ድሀ	-2237
▁ፈሳ	-2238
ባቸው።	-2239
▁መንጋ	-2240
▁አምስ	-2241
▁ፍጻሜ	-2242
▁ነውና፤	-2243
▁አልሁ።	-2244
▁አደረጉ።	-2245
▁እግዚአብሔርም።	-2246
ወሰ	-2247
ገላ	-2248
ገዱ	-2249
ጠር	-2250
ቶቹም	-2251
ቶችን	-2252
▁ጣዖ	-2253
▁ፈን	-2254
▁ለሰው	-2255
▁ማስተ	-2256
▁ሰውን	-2257
▁በስተ	-2258
▁በቤቱ	-2259
▁በነገ	-2260
▁አለቀ	-2261
▁ካለው	-2262
▁ወጣ፤	-2263
▁የሰማይ	-2264
▁በመንፈስ	-2265
ቀል	-2266
ዝም	-2267
ተውም	-2268
ዎቹን	-2269
ጣችሁ	-2270
▁ዳን	-2271
ባቸውም	-2272
▁ቢኖር	-2273
▁ናት።	-2274
▁ናችሁ	-2275
▁አይቶ	-2276
▁እግሮ	-2277
▁የሚወ	-2278
▁ግብጽ	-2279
▁ባሪያህ	-2280
▁አቤሴሎ	-2281
▁አንዱን	-2282
▁እንስሳ	-2283
▁ኢየሱስም።	-2284
ለቀ	-2285
ለ፤	-2286
ሜዳ	-2287
ምነ	-2288
ሬታ	-2289
ሶም	-2290
በለ	-2291
አለሁ	-2292
ፈልጋ	-2293
▁በሸ	-2294
▁በጣ	-2295
▁ጩኸ	-2296
▁ጮኸ	-2297
ሃለሁ፤	-2298
▁ለጌታ	-2299
▁ቀርቦ	-2300
▁ተጠን	-2301
▁አሮን	-2302
▁ጕልማ	-2303
▁መጋረጃ	-2304
▁በእጅህ	-2305
▁የለም፤	-2306
▁ሰሎሞንም	-2307
▁የሚቃጠለውን	-2308
ማር	-2309
ከማ	-2310
ዓን	-2311
ሃልና	-2312
ሣፍጥ	-2313
▁ልዩ	-2314
▁ባዩ	-2315
▁ተባ	-2316
▁ትላ	-2317
▁አዛ	-2318
▁ከራ	-2319
▁የግ	-2320
▁ዳግ	-2321
ተኞችን	-2322
ካህናት	-2323
▁ነውር	-2324
▁ከሆነ	-2325
▁የነገ	-2326
▁ያሉት	-2327
ታቸውንም	-2328
▁በሌሊት	-2329
▁ተራሮች	-2330
▁ወዳለው	-2331
▁የሚመስ	-2332
▁አድርገው	-2333
ለቱ	-2334
ሳው	-2335
ሶን	-2336
ፈተ	-2337
▁ቡ	-2338
ማል፥	-2339
ዎች፥	-2340
ዘጋጀ	-2341
▁ከሕ	-2342
▁ከነ	-2343
ናውያን	-2344
ደርገው	-2345
▁ሕይወ	-2346
▁ቀድሞ	-2347
▁በሚያ	-2348
▁አንደ	-2349
ቻቸውንም	-2350
▁ናቸው፥	-2351
▁ከግብጽ	-2352
▁የሚሆን	-2353
▁እንደሚያ	-2354
▁ከእስራኤልም	-2355
ሉና	-2356
ሠዋ	-2357
ቼን	-2358
ዳና	-2359
ለት፥	-2360
ሉም።	-2361
ላችን	-2362
ርንጫ	-2363
ቃችሁ	-2364
ቶችም	-2365
ኛል፤	-2366
ደባባ	-2367
▁ወረ	-2368
▁ምስክ	-2369
▁ሰውነ	-2370
▁በቤት	-2371
▁ከነዓ	-2372
▁ዙፋን	-2373
▁የዚህ	-2374
ባቶቻቸው	-2375
▁ሥልጣን	-2376
▁ቅዱሳን	-2377
▁ነውና፥	-2378
▁አልዓዛ	-2379
▁የዚያን	-2380
ረ፥	-2381
ነጋ	-2382
ጠነ	-2383
ጠጡ	-2384
ሃል፤	-2385
ተው።	-2386
ታንም	-2387
ይሁድ	-2388
ፈልግ	-2389
▁ራሱ	-2390
▁ተሻ	-2391
▁ተአ	-2392
▁አና	-2393
▁የው	-2394
▁ዳሩ	-2395
ላቸውን	-2396
▁ሁሉ።	-2397
▁በምድ	-2398
▁በራሱ	-2399
▁በትር	-2400
▁ተጽፎ	-2401
▁አገባ	-2402
▁ዕድሜ	-2403
▁ለባሪያ	-2404
▁መቃብር	-2405
▁መጀመሪያ	-2406
▁እግዚአብሔር፥	-2407
ሙ፥	-2408
ርከ	-2409
ሰር	-2410
ቁት	-2411
ብት	-2412
ዕማ	-2413
ጠግ	-2414
ፋጭ	-2415
ፍር	-2416
ሳኦል	-2417
ቀርብ	-2418
ኋቸው	-2419
ውን፥	-2420
▁ሠር	-2421
▁ከሞ	-2422
▁ደረ	-2423
ኅንነት	-2424
ደረገው	-2425
▁ሄዱ።	-2426
▁ለፊት	-2427
▁መጡ።	-2428
▁በብር	-2429
▁በዓል	-2430
▁ነቢይ	-2431
▁አባቴ	-2432
▁አይሁ	-2433
▁ኢዮአ	-2434
▁እባክ	-2435
▁ዘይት	-2436
▁የሰማ	-2437
▁የአን	-2438
▁ግንብ	-2439
▁ጭፍራ	-2440
▁ዮሴፍም	-2441
ሊላ	-2442
ሚያ	-2443
ሰሰ	-2444
ሴም	-2445
ድነ	-2446
ጃፍ	-2447
ፉን	-2448
▁ኮ	-2449
በኞች	-2450
ተላለ	-2451
ቱንና	-2452
አችሁ	-2453
ወትር	-2454
ውም፥	-2455
▁ልኮ	-2456
▁በቃ	-2457
ሃለሁ፥	-2458
▁መቅሠ	-2459
▁በሙሴ	-2460
▁ከጌታ	-2461
▁ዕለት	-2462
▁ገብቶ	-2463
▁ግን፥	-2464
▁አልሰማ	-2465
▁አሳልፌ	-2466
▁እጅግም	-2467
▁የተቈጠ	-2468
▁ጕድጓድ	-2469
▁ባልንጀራ	-2470
▁ይሆናሉ።	-2471
▁በዮርዳኖስ	-2472
ሪም	-2473
ርፍ	-2474
ሲካ	-2475
ኅና	-2476
ነካ	-2477
ዘዙ	-2478
ጥ፥	-2479
ጸም	-2480
▁ቋ	-2481
ማል፤	-2482
ንም፤	-2483
▁ነህ	-2484
▁አሸ	-2485
▁አኪ	-2486
▁ከግ	-2487
▁የሁ	-2488
▁ግም	-2489
ታችሁን	-2490
ችኋል፤	-2491
አቸውም	-2492
ዋለሁ።	-2493
▁መብል	-2494
▁ነገረ	-2495
▁አያስ	-2496
▁አድነ	-2497
▁ከሰው	-2498
▁የምን	-2499
▁የበግ	-2500
▁ርኵሰት	-2501
▁ብዙዎች	-2502
▁አንዱም	-2503
▁የተሠራ	-2504
▁ያደርጉ	-2505
▁ዳግመኛ	-2506
▁ገንዘብ	-2507
▁ተቀመጡ።	-2508
▁የነበረው	-2509
ልታ	-2510
ሉንም	-2511
መጣው	-2512
ዎችና	-2513
ድቃን	-2514
▁ሌሊ	-2515
▁ልቅ	-2516
▁ሎሌ	-2517
▁ቁር	-2518
▁ተቈ	-2519
▁አእ	-2520
▁ክብ	-2521
▁ውሰ	-2522
▁የጋ	-2523
▁ሌሎች	-2524
▁ይነሣ	-2525
▁ይገድ	-2526
▁ደጃፍ	-2527
ቶቻቸውም	-2528
ከደነፆር	-2529
▁ሁለቱን	-2530
▁ልብሱን	-2531
▁መላእክ	-2532
▁ስምንት	-2533
▁በግብጽ	-2534
▁በፍጹም	-2535
▁ኃያላን	-2536
▁የሕዝቡ	-2537
▁የተጻፈ	-2538
ረፈ	-2539
ችላ	-2540
ኵራ	-2541
ወግ	-2542
ዩን	-2543
ጠይ	-2544
ፀን	-2545
ፋ፥	-2546
ፍቶ	-2547
▁ሃ	-2548
መሰገ	-2549
በረታ	-2550
ባትም	-2551
ድርጉ	-2552
▁መሐ	-2553
▁ማል	-2554
▁እላ	-2555
▁የሸ	-2556
▁ያያ	-2557
▁ይጨ	-2558
▁ዱቄ	-2559
▁ላይ፥	-2560
▁ስጦታ	-2561
▁ቆመው	-2562
▁በልቡ	-2563
▁አልቻ	-2564
▁አትበ	-2565
▁አይታ	-2566
▁ከነበ	-2567
▁ፀሐይ	-2568
▁ፈሪሳ	-2569
▁መግቢያ	-2570
▁በመከራ	-2571
▁በአንቺ	-2572
▁ነፍሴን	-2573
▁አይገባ	-2574
▁እምነት	-2575
▁ፍርድን	-2576
▁በፊታቸው	-2577
▁እንዳዘዘ	-2578
ልሙ	-2579
ረዱ	-2580
ስ።	-2581
ቃወ	-2582
ጣን	-2583
ፈለ	-2584
ናገረ	-2585
▁ሆኑ	-2586
▁መና	-2587
▁ተጣ	-2588
▁የጌ	-2589
▁ይቈ	-2590
▁ጥላ	-2591
ችኋል።	-2592
ዋውያን	-2593
▁ለአባ	-2594
▁ቃሉን	-2595
▁በጠላ	-2596
▁ተነሡ	-2597
▁አግኝ	-2598
▁የሚሰ	-2599
▁የከተ	-2600
▁ይስሐ	-2601
▁ይህችን	-2602
ለዱ	-2603
ምሩ	-2604
ቅዱ	-2605
ኣል	-2606
ድድ	-2607
ፈታ	-2608
ፉ።	-2609
▁ለቀ	-2610
▁ሜዳ	-2611
▁በጕ	-2612
▁አቅ	-2613
▁ኤሊ	-2614
▁ከስ	-2615
አቸው፤	-2616
ኮረብታ	-2617
ገለዓድ	-2618
▁ልጁን	-2619
▁ልጆቹ	-2620
▁መጣ፥	-2621
▁ምናል	-2622
▁ራእይ	-2623
▁ሰጥቶ	-2624
▁ስድሳ	-2625
▁በነበ	-2626
▁አትፍ	-2627
▁አኖረ	-2628
▁የምና	-2629
▁ያመጣ	-2630
▁በጽድቅ	-2631
▁ባቢሎን	-2632
▁ተሰበሰ	-2633
▁አመስግ	-2634
▁የታመነ	-2635
▁ጠላቶች	-2636
▁የአምላካ	-2637
ሃት	-2638
ሎን	-2639
ሐፊ	-2640
ምረ	-2641
ረጠ	-2642
ቱ።	-2643
ጥኣ	-2644
▁ሀ	-2645
ሮንም	-2646
ንቀሳ	-2647
ዊውም	-2648
ይቱም	-2649
▁መሳ	-2650
▁በዝ	-2651
▁እኵ	-2652
▁እጥ	-2653
▁ፈል	-2654
▁ምልክ	-2655
▁ተለይ	-2656
▁ያቃጥ	-2657
▁ይሆኑ	-2658
▁በሕይወ	-2659
▁ቸርነት	-2660
▁የሚሆነ	-2661
▁ዮሐንስ	-2662
▁በእምነት	-2663
▁የሚያደርግ	-2664
ሙ፤	-2665
ረባ	-2666
በቅ	-2667
ብዳ	-2668
ዘዝ	-2669
ጉም	-2670
ጉን	-2671
ጠቅ	-2672
ፈት	-2673
ሙንም	-2674
ዋለሁ	-2675
ውም፤	-2676
ያውቅ	-2677
▁ዕረ	-2678
▁ያየ	-2679
▁ጥሩ	-2680
▁ሁለቱም	-2681
▁ሰፈሩ።	-2682
▁በኋላ፥	-2683
▁እንድን	-2684
▁የባሪያ	-2685
▁የተመረ	-2686
▁ያገለግ	-2687
▁ይመለሳ	-2688
▁ሌዋውያን	-2689
▁በመካከላቸው	-2690
ዞች	-2691
ግጥ	-2692
ጮኻ	-2693
ሎሞን	-2694
ኖረው	-2695
ኛልና	-2696
ዕራብ	-2697
ገለጥ	-2698
▁ሆና	-2699
▁ለሁ	-2700
▁በጭ	-2701
▁እጆ	-2702
▁ከዘ	-2703
▁ያሰ	-2704
ዴቅያስ	-2705
▁ሠራዊ	-2706
▁ሰምቶ	-2707
▁በውስ	-2708
▁በየአ	-2709
▁ተከት	-2710
▁አይሆ	-2711
▁ዛሬም	-2712
▁የምድ	-2713
▁ይሞታ	-2714
▁ይሰማ	-2715
▁ጠጕር	-2716
▁ጣፋጭ	-2717
▁በዳዊት	-2718
▁አስተዋ	-2719
▁የዳዊት	-2720
▁በርሳቸው	-2721
▁ተናገረ።	-2722
▁እርሱንም	-2723
ሪኮ	-2724
በቃ	-2725
በ።	-2726
ነቱ	-2727
ዳይ	-2728
ጋው	-2729
ግሣ	-2730
ፋስ	-2731
▁ጓ	-2732
ርዳኖ	-2733
ደርስ	-2734
▁ስብ	-2735
▁ይስ	-2736
▁ይተ	-2737
▁ፍላ	-2738
በታል።	-2739
አቸው፥	-2740
▁ሄደ፥	-2741
▁ቅሬታ	-2742
▁በስም	-2743
▁ተባት	-2744
▁አልወ	-2745
▁አዲስ	-2746
▁እሆና	-2747
▁ከክፉ	-2748
ችኋለሁ።	-2749
▁ሐዋርያ	-2750
▁የኃጢአ	-2751
▁ይሁዳም	-2752
▁ዳንኤል	-2753
▁ምናልባት	-2754
▁ነበረች።	-2755
ለ፥	-2756
ልቶ	-2757
መካ	-2758
ጣት	-2759
መለሰ	-2760
ችውን	-2761
ገናኘ	-2762
▁ስሜ	-2763
▁በጸ	-2764
▁አሥ	-2765
▁ሰብስ	-2766
▁ቃሌን	-2767
▁በሜዳ	-2768
▁በሠራ	-2769
▁በአራ	-2770
▁በኢያ	-2771
▁ታላቁ	-2772
▁ነኝ፥	-2773
▁እሄዳ	-2774
▁እንቢ	-2775
▁የሌለ	-2776
▁የሰጠ	-2777
▁አራዊት	-2778
▁የሚችል	-2779
▁የአንድ	-2780
▁ድንበር	-2781
▁ሳሙኤልም	-2782
▁ከእነዚህ	-2783
▁ወንዶችና	-2784
▁በእርስዋም	-2785
▁እርስዋም።	-2786
ልስጥኤማውያን	-2787
ረሳ	-2788
ረካ	-2789
ስቱ	-2790
ቀና	-2791
ቴል	-2792
ከረ	-2793
ግቶ	-2794
▁ዞ	-2795
ዋልና	-2796
ዓብም	-2797
ጽናና	-2798
▁ማር	-2799
▁ባት	-2800
▁ከሙ	-2801
▁ከሴ	-2802
▁ፈለ	-2803
ምላክህ	-2804
ርብዓም	-2805
▁ሂድ፥	-2806
▁ሄደ፤	-2807
▁ለዚህ	-2808
▁ልቅሶ	-2809
▁ስላል	-2810
▁በልብ	-2811
▁አስታ	-2812
▁አነሣ	-2813
▁ፈንታ	-2814
▁መጨረሻ	-2815
▁ማኅበር	-2816
▁ሰላምታ	-2817
▁ቅርንጫ	-2818
▁እለምን	-2819
▁እኔም።	-2820
▁ካህናቱ	-2821
▁የከበረ	-2822
▁በየወገና	-2823
▁ተቀመጠ።	-2824
▁ኢዮሣፍጥ	-2825
▁ለእግዚአብሔርም	-2826
ምለ	-2827
ምታ	-2828
ሬን	-2829
ኔን	-2830
ኩ።	-2831
ጥራ	-2832
መላለ	-2833
ሮችም	-2834
በሩም	-2835
ብዳቤ	-2836
ቲቱም	-2837
ኖሩት	-2838
ኸውን	-2839
▁ሞላ	-2840
▁ብን	-2841
▁ተኝ	-2842
▁የቆ	-2843
ላቸው፤	-2844
ቸውም።	-2845
▁ለሚያ	-2846
▁ለእኛ	-2847
▁መለከ	-2848
▁ብርቱ	-2849
▁ናትና	-2850
▁ዓመፀ	-2851
▁በግምባ	-2852
▁አሮንም	-2853
▁እንድታ	-2854
▁ይላሉ።	-2855
▁ይወስዳ	-2856
▁እባክህ፥	-2857
▁ለእያንዳን	-2858
▁በመገናኛው	-2859
ሃል	-2860
ለከ	-2861
ሔም	-2862
ስል	-2863
ቃም	-2864
በብ	-2865
ባን	-2866
ክራ	-2867
ዝን	-2868
ዴን	-2869
ፈጽ	-2870
▁ጃ	-2871
ግሥት	-2872
▁ልባ	-2873
▁ንገ	-2874
▁የት	-2875
▁የጻ	-2876
▁ይው	-2877
ባቸው፥	-2878
▁ሠራ።	-2879
▁ሶርያ	-2880
▁አድም	-2881
▁ኤልያ	-2882
▁እድል	-2883
▁ጠባቂ	-2884
ቸዋለሁ።	-2885
▁በወርቅ	-2886
▁አመሰግ	-2887
▁አስነሣ	-2888
▁አባቶች	-2889
▁ያደረግ	-2890
▁ይሆናል	-2891
▁ኢየሱስን	-2892
▁የኢየሱስ	-2893
▁የይሁዳም	-2894
ለድ	-2895
ሳም	-2896
ቀት	-2897
ኰራ	-2898
ውራ	-2899
ዳሄ	-2900
ዶክ	-2901
▁ሱ	-2902
ሃል፥	-2903
ለን፥	-2904
ማቸው	-2905
ባኖስ	-2906
ቻችን	-2907
▁ለይ	-2908
▁ልታ	-2909
▁ቸር	-2910
▁ኖሮ	-2911
▁ከዋ	-2912
▁ከዮ	-2913
▁የሮ	-2914
▁የዔ	-2915
▁የጠ	-2916
▁ጮኹ	-2917
▁በሰሙ	-2918
▁በቍጣ	-2919
▁አህያ	-2920
▁አቃጠ	-2921
▁አበዛ	-2922
▁አኖራ	-2923
▁ከሚያ	-2924
▁የእህ	-2925
▁በኃጢአ	-2926
▁ተቀመጥ	-2927
▁ነቢያት	-2928
▁ወለደ።	-2929
▁ዘንድ።	-2930
▁ይቀመጣ	-2931
▁ፈርዖን	-2932
▁እውነተኛ	-2933
▁የባቢሎን	-2934
▁የተቀመጡ	-2935
ርፋ	-2936
ሳዕ	-2937
ናጸ	-2938
ክስ	-2939
ዘራ	-2940
ዶን	-2941
▁ጲ	-2942
ለው፥	-2943
ምና፥	-2944
ሮስም	-2945
ከተል	-2946
▁ለድ	-2947
▁መዓ	-2948
▁ከሐ	-2949
▁ያም	-2950
ሳቸውም	-2951
አለሁ፤	-2952
▁ለልጅ	-2953
▁ለልጆ	-2954
▁ልጁም	-2955
▁ልጅም	-2956
▁መርከ	-2957
▁መጣ፤	-2958
▁ምንጭ	-2959
▁ሰበሰ	-2960
▁ሰፈር	-2961
▁ተጻፈ	-2962
▁ታላላ	-2963
▁አባቱ	-2964
▁እናት	-2965
▁ከሁሉ	-2966
▁የማያ	-2967
▁ያመጡ	-2968
▁ይሸከ	-2969
▁ደርሶ	-2970
▁በጨለማ	-2971
▁ትምህር	-2972
▁ወንጌል	-2973
▁ዘላለም	-2974
▁በእርግጥ	-2975
▁በእነዚህ	-2976
▁በዙሪያው	-2977
▁መሥዋዕትና	-2978
▁እንዳዘዘው	-2979
▁አልነበረም።	-2980
ስህ	-2981
ቀ።	-2982
ኝን	-2983
ኩም	-2984
ኬም	-2985
ክሩ	-2986
ኵር	-2987
ዶቹ	-2988
ሁም።	-2989
ልኝ።	-2990
▁ብል	-2991
ታችሁም	-2992
▁ለአን	-2993
▁በወጣ	-2994
▁ነኝና	-2995
▁አለ፥	-2996
▁ከብዙ	-2997
▁ከተሞ	-2998
▁ጥፋት	-2999
▁ፋሲካ	-3000
ያዕቆብም	-3001
▁እስክት	-3002
▁ሁለተኛው	-3003
▁በአምላካ	-3004
▁ተነሥተው	-3005
▁ከአሕዛብ	-3006
▁አገልግሎት	-3007
▁የኢየሩሳሌም	-3008
ላጦ	-3009
ሌም	-3010
ልባ	-3011
ሮቹ	-3012
ቼም	-3013
ኦል	-3014
ክላ	-3015
ኮር	-3016
ዩ፥	-3017
ደዳ	-3018
ጠ፥	-3019
ለቆች	-3020
ናል።	-3021
▁ለክ	-3022
▁ሊቀ	-3023
▁ሐሤ	-3024
▁ስእ	-3025
▁ታያ	-3026
▁ኪሩ	-3027
▁ድር	-3028
መለከት	-3029
ቢሎንም	-3030
ቸዋል፤	-3031
አቸውን	-3032
ውያንና	-3033
▁በሥራ	-3034
▁ታሪክ	-3035
▁አልፎ	-3036
▁እስካ	-3037
▁የተጠ	-3038
▁የድን	-3039
▁ይፈር	-3040
▁ግምጃ	-3041
ቸዋለሁ፤	-3042
▁ሁሉንም	-3043
▁መክሊት	-3044
▁ሰማያት	-3045
▁ሰዎችን	-3046
▁በድንኳ	-3047
▁ወገን፥	-3048
▁የእሳት	-3049
▁ጠቦቶች	-3050
▁ለአሕዛብ	-3051
▁አሕዛብን	-3052
▁ይመጣል፥	-3053
▁መዛሙርቱም	-3054
▁በእነርሱም	-3055
▁ክርስቲያን	-3056
ሁህ	-3057
ሮድ	-3058
ሴን	-3059
በቱ	-3060
ዩ።	-3061
▁ኅ	-3062
▁ኩ	-3063
ምራት	-3064
ሰቢያ	-3065
ቢያት	-3066
ኛውን	-3067
ያውቁ	-3068
▁ሆይ	-3069
▁ሸሽ	-3070
▁ተር	-3071
▁እቀ	-3072
▁ያዙ	-3073
▁ላከ።	-3074
▁በኵር	-3075
▁አሉ፤	-3076
▁እሰጥ	-3077
▁ወጡ።	-3078
▁ወፎች	-3079
▁የሕዝ	-3080
▁ይገደ	-3081
▁ፈረሰ	-3082
ቸዋለሁ፥	-3083
▁በደስታ	-3084
▁ተገለጠ	-3085
▁ነገሥታ	-3086
▁አትፍራ	-3087
▁ከኃጢአ	-3088
▁ከእኔም	-3089
▁ክንድ፥	-3090
▁የሚወድ	-3091
▁ሕዝቡንም	-3092
▁ማናቸውም	-3093
▁ስለዚህ፥	-3094
▁በመልካም	-3095
▁በመካከል	-3096
▁አሕዛብም	-3097
▁አብርሃም	-3098
▁አይደለሁ	-3099
▁የሚሆነውን	-3100
▁የክርስቶስ	-3101
ለል	-3102
ለጥ	-3103
ልጦ	-3104
ሳድ	-3105
ሸጉ	-3106
ብሻ	-3107
ንኳ	-3108
ንጨ	-3109
ኞቹ	-3110
ከሩ	-3111
ጮኽ	-3112
ሉም፤	-3113
መለሱ	-3114
ስተዋ	-3115
ነዓን	-3116
ዘውን	-3117
ግሣጽ	-3118
▁መኖ	-3119
▁ማረ	-3120
▁ማታ	-3121
▁ምኞ	-3122
▁ሰጡ	-3123
▁በሲ	-3124
▁በዛ	-3125
▁ባሉ	-3126
▁አኑ	-3127
▁እኩ	-3128
▁የፊ	-3129
▁ይቆ	-3130
ዎችንም	-3131
▁ለመን	-3132
▁ቀለበ	-3133
▁በክፉ	-3134
▁ትኖራ	-3135
▁ነቢዩ	-3136
▁የሚከ	-3137
▁መምህር	-3138
▁ታቀርባ	-3139
▁ነገር፥	-3140
▁ነፍሱን	-3141
▁አንቀላ	-3142
▁ከአንቺ	-3143
▁እንዳደረገ	-3144
▁ያደረገውን	-3145
▁ከኢየሩሳሌም	-3146
ለየ	-3147
መህ	-3148
ቅና	-3149
ባም	-3150
ብረ	-3151
ብ።	-3152
ኑት	-3153
ናዳ	-3154
ግሩ	-3155
ጠም	-3156
▁ሾ	-3157
▁ዖ	-3158
ህንና	-3159
ለችና	-3160
ዘረጋ	-3161
ፍረት	-3162
▁ሸሹ	-3163
▁ትቀ	-3164
▁ክር	-3165
▁ውጣ	-3166
▁ጸሎ	-3167
ኋቸው።	-3168
አለሁ።	-3169
▁ልመና	-3170
▁መውጫ	-3171
▁ምስል	-3172
▁በቅን	-3173
▁በአጠ	-3174
▁በውጭ	-3175
▁በዙፋ	-3176
▁ትቢያ	-3177
▁አንጻ	-3178
▁እህል	-3179
▁ከጠላ	-3180
▁የወይ	-3181
▁ጀመር	-3182
▁ጲላጦ	-3183
▁ጸሐፊ	-3184
▁ሁላችሁ	-3185
▁ሌዋውያ	-3186
▁በባሪያ	-3187
▁ተነሣ፥	-3188
▁እስኪያ	-3189
▁ከንጉሡ	-3190
▁የሆነው	-3191
▁በመጀመሪያው	-3192
ሂድ	-3193
ህኑ	-3194
ልድ	-3195
ሽራ	-3196
ወቁ	-3197
ፉ፥	-3198
ፍሬ	-3199
ለምና	-3200
ቀበሉ	-3201
ቤልም	-3202
ወርድ	-3203
▁ልቡ	-3204
▁ምላ	-3205
▁ታም	-3206
▁የገ	-3207
ራቸውን	-3208
ሳይያስ	-3209
ቻችሁን	-3210
ዋለሁ፤	-3211
▁መሬት	-3212
▁በለዓ	-3213
▁አለፈ	-3214
▁አገኙ	-3215
▁ዓመፃ	-3216
▁ዘወር	-3217
▁ዘጠኝ	-3218
▁ዛፎች	-3219
▁ሳይሆን	-3220
▁በሰሜን	-3221
▁እመልሳ	-3222
▁የሚያሰ	-3223
▁በላቸው።	-3224
▁ተቀምጠው	-3225
▁አደረገ፥	-3226
▁ፍልስጥኤማውያንም	-3227
ልሽ	-3228
ርት	-3229
ኋለ	-3230
ኤላ	-3231
ጋት	-3232
ጠ።	-3233
▁ሻ	-3234
ለው።	-3235
መልኩ	-3236
ሞንም	-3237
ብሮን	-3238
ቶቹን	-3239
ዘጋጅ	-3240
ያዋን	-3241
ዱንም	-3242
ፍራው	-3243
▁ሐና	-3244
▁ሙሉ	-3245
▁ናት	-3246
▁የሳ	-3247
ቸዋል፥	-3248
ንቀጠቀ	-3249
ዛቸው።	-3250
▁መጡ፥	-3251
▁በሁሉ	-3252
▁በቅዱ	-3253
▁በተራ	-3254
▁ንስሐ	-3255
▁የእኔ	-3256
▁ግብፅ	-3257
▁ልጆችም	-3258
▁መቅደሱ	-3259
▁በደቡብ	-3260
▁ብላችሁ	-3261
▁አንሥቶ	-3262
▁አይተው	-3263
▁እጅህን	-3264
▁ከተማይ	-3265
▁ደብዳቤ	-3266
▁በርሳችሁ	-3267
▁በእጃቸው	-3268
▁በይሁዳም	-3269
▁ኃጢአተኛ	-3270
▁ንጉሡም።	-3271
▁አለቆችና	-3272
▁አደረጉ፤	-3273
▁የሚቃጠል	-3274
▁ኃጢአተኞች	-3275
▁አብርሃምም	-3276
▁ታውቃላችሁ።	-3277
▁የእስራኤልንም	-3278
ሥጢ	-3279
ስረ	-3280
ቀጥ	-3281
በኛ	-3282
ብሩ	-3283
ታ፥	-3284
ቴር	-3285
ኔር	-3286
ንቁ	-3287
ንት	-3288
ኖን	-3289
ዎስ	-3290
ይት	-3291
ድቁ	-3292
ዶና	-3293
ሁት።	-3294
ሁዳን	-3295
ስጋና	-3296
አት።	-3297
ክልት	-3298
ጋውም	-3299
▁ለዓ	-3300
▁ማለ	-3301
▁ቅድ	-3302
▁ብፁ	-3303
▁ችግ	-3304
▁አቁ	-3305
▁እመ	-3306
▁ከከ	-3307
▁የያ	-3308
▁ይጐ	-3309
ኖቻቸው	-3310
ካርያስ	-3311
▁ላሉት	-3312
▁መጡ፤	-3313
▁ሙሴና	-3314
▁ትልቅ	-3315
▁ወስደ	-3316
▁ዘረጋ	-3317
▁ጠላት	-3318
▁ፍጹም	-3319
▁ሰጠው።	-3320
▁ተመልሶ	-3321
▁ተናግሮ	-3322
▁እንደሌ	-3323
▁እንዳታ	-3324
▁እጁንም	-3325
▁ወጥተው	-3326
▁ሴዴቅያስ	-3327
▁በላያቸው	-3328
▁በምሥራቅ	-3329
▁እንደምት	-3330
▁የአባቶቻ	-3331
▁የይሁዳን	-3332
ሆች	-3333
ላይ	-3334
መፀ	-3335
ርግ	-3336
ሰበ	-3337
በ፤	-3338
ብል	-3339
ወረ	-3340
ወዝ	-3341
ዳም	-3342
ግሬ	-3343
ጣል	-3344
ፉም	-3345
ፍ፥	-3346
▁ፌ	-3347
ለትም	-3348
ማስቆ	-3349
ሪዎች	-3350
ኞቹም	-3351
ጊብዓ	-3352
ጥኣን	-3353
ፈልገ	-3354
ፍራት	-3355
▁ሬሳ	-3356
▁ሽታ	-3357
▁ቅር	-3358
▁በጌ	-3359
▁ባዶ	-3360
▁ዋይ	-3361
▁ውኆ	-3362
▁ዘን	-3363
መሰክር	-3364
ቶቻችሁ	-3365
ችኋለሁ	-3366
▁ሞገስ	-3367
▁በል።	-3368
▁ታናሽ	-3369
▁አሞራ	-3370
▁አካዝ	-3371
▁አይቻ	-3372
ላችኋል።	-3373
ሩሳሌምን	-3374
▁ልባቸው	-3375
▁ምሥራቅ	-3376
▁በውስጥ	-3377
▁ተሰብስ	-3378
▁ነገሠ፤	-3379
▁አእምሮ	-3380
▁ለሚቃጠል	-3381
▁ለኃጢአት	-3382
▁መልካሙን	-3383
▁ምድሪቱን	-3384
▁በባቢሎን	-3385
▁ከአባቶቹ	-3386
▁ወዲያውም	-3387
▁የያዕቆብ	-3388
▁ይላልና።	-3389
▁ፈርዖንም	-3390
▁በከተማይቱ	-3391
▁መሰምርያዋን፥	-3392
ለታ	-3393
በሉ	-3394
ቤዠ	-3395
ብ፤	-3396
ቱ፤	-3397
ደክ	-3398
ጠና	-3399
ፉ፤	-3400
▁ቄ	-3401
ራምም	-3402
ሰናከ	-3403
ንደረ	-3404
ይዝራ	-3405
ጀመረ	-3406
ፈስስ	-3407
ፍረተ	-3408
ፎችም	-3409
▁ረዳ	-3410
▁በጉ	-3411
▁ዓም	-3412
▁ዓሣ	-3413
▁ይረ	-3414
ቻችሁም	-3415
▁በሉ።	-3416
▁በጆሮ	-3417
▁ትሰጣ	-3418
▁አብያ	-3419
▁ከንፈ	-3420
▁ከፊት	-3421
▁የተዋ	-3422
▁ይበሉ	-3423
▁ይጠራ	-3424
ስተኛውም	-3425
▁ስምዖን	-3426
▁በረከት	-3427
▁በጽዮን	-3428
▁ብቻውን	-3429
▁ተመለሰ	-3430
▁ንጉሥ፥	-3431
▁አየሁ፥	-3432
▁ኤልሳዕ	-3433
▁ወርዱም	-3434
▁ዘወትር	-3435
▁የወንድ	-3436
▁ለአባቶቻ	-3437
▁ለእነርሱ	-3438
▁የአምላክ	-3439
▁የካህናት	-3440
▁በሰባተኛው	-3441
▁አይደለም፥	-3442
▁ለእስራኤልም	-3443
▁ናቡከደነፆር	-3444
ሄደ	-3445
ህሉ	-3446
ርደ	-3447
ቅ።	-3448
በ፥	-3449
ተም	-3450
ትዮ	-3451
ገም	-3452
ቅረብ	-3453
በትና	-3454
በው።	-3455
ኛል፥	-3456
ኝነት	-3457
ኳንን	-3458
ገረዙ	-3459
▁ለሴ	-3460
▁ምሰ	-3461
▁ሸሸ	-3462
▁ዕው	-3463
▁ይይ	-3464
ዋለሁ፥	-3465
▁መሐላ	-3466
▁ሞተ።	-3467
▁ቋንቋ	-3468
▁በእጄ	-3469
▁አትግ	-3470
▁ከጥሩ	-3471
▁ወጡ፥	-3472
▁የሚታ	-3473
▁የተከ	-3474
▁ያልፋ	-3475
▁ይልቁ	-3476
▁ገበታ	-3477
▁ጠቢብ	-3478
▁ጠቦት	-3479
ችኋለሁ፤	-3480
▁ለወንድ	-3481
▁ሌሎችን	-3482
▁ርዝመቱ	-3483
▁ንጉሡን	-3484
▁አንጻር	-3485
▁አዘዘ።	-3486
▁አጋንን	-3487
▁እነሆም	-3488
▁ወዲያው	-3489
▁የሚመጣ	-3490
▁ይመልስ	-3491
▁መንደሮች	-3492
▁በመንግሥ	-3493
▁በማደሪያ	-3494
▁በድንጋይ	-3495
▁አሁንም፥	-3496
▁ከአንተም	-3497
▁ፍልስጥኤማውያን	-3498
ራ፥	-3499
በዙ	-3500
ብያ	-3501
ዝር	-3502
ዶል	-3503
ጃጅ	-3504
ጣም	-3505
ጽጳ	-3506
▁ቶ	-3507
▁ኰ	-3508
ላል፤	-3509
ባትን	-3510
ትዮጵ	-3511
ይቱን	-3512
ገባው	-3513
▁ሕል	-3514
▁ራብ	-3515
▁በሉ	-3516
▁ታቦ	-3517
▁አረ	-3518
▁የካ	-3519
▁ጦር	-3520
ልሙትና	-3521
ሳቸውን	-3522
በትንም	-3523
ባቸው፤	-3524
ንያምም	-3525
▁ሚዛን	-3526
▁ማለት	-3527
▁ቀን፥	-3528
▁በገዛ	-3529
▁ንገረ	-3530
▁አምባ	-3531
▁አክሊ	-3532
▁ከሰማ	-3533
▁ክፉን	-3534
▁የበደ	-3535
▁ይሄዱ	-3536
▁ጮኸ።	-3537
▁ፈሳሽ	-3538
ለዳውያን	-3539
▁ሆናችሁ	-3540
▁ለሰልፍ	-3541
▁ለይሁዳ	-3542
▁ልጆችና	-3543
▁መኖሪያ	-3544
▁በእርሻ	-3545
▁በዓለም	-3546
▁እናውቃ	-3547
▁እግሮች	-3548
▁ከሙታን	-3549
▁የአባት	-3550
▁የግብጽ	-3551
▁በሰንበት	-3552
▁ካህናቱም	-3553
ርህ	-3554
ርማ	-3555
ስር	-3556
ሻል	-3557
በዘ	-3558
ንቍ	-3559
ዊም	-3560
ዋት	-3561
የው	-3562
ግም	-3563
ግዱ	-3564
ጠመ	-3565
▁ፀ	-3566
ሦስት	-3567
ሩትም	-3568
ባት፥	-3569
ኝም።	-3570
ጕዘው	-3571
ጣል።	-3572
ጤክስ	-3573
▁ሆኜ	-3574
▁ለጥ	-3575
▁ተዉ	-3576
▁እይ	-3577
▁ከገ	-3578
▁ዘለ	-3579
▁የሜ	-3580
▁የቂ	-3581
▁ያዝ	-3582
▁ለነበ	-3583
▁መናፍ	-3584
▁ምሥጢ	-3585
▁ስሙ፤	-3586
▁በመስ	-3587
▁በባሕ	-3588
▁አፈር	-3589
▁ከዋክ	-3590
▁ወሰዱ	-3591
▁ውሰድ	-3592
▁ዝናብ	-3593
▁የሚመ	-3594
▁ጩኸት	-3595
ላቸውም።	-3596
▁መዝሙር	-3597
▁ምሕረቱ	-3598
▁ሰዎቹም	-3599
▁በዚህች	-3600
▁በየወገ	-3601
▁ተጕዘው	-3602
▁ተጠንቀ	-3603
▁ትእዛዙ	-3604
▁አንተና	-3605
▁እናገራ	-3606
▁እንግዳ	-3607
▁ከወዴት	-3608
▁ዓይነት	-3609
▁የተቀረ	-3610
▁የዮሴፍ	-3611
▁ዮርዳኖ	-3612
▁ጕልማሳ	-3613
▁ጽድቅን	-3614
▁መድኃኒት	-3615
▁ተናገረው	-3616
▁ኢዮአብም	-3617
▁ከወንድሞ	-3618
▁የሚናገር	-3619
▁ይኖራል።	-3620
▁ድንጋዮች	-3621
▁ለዘላለምም	-3622
ለፈ	-3623
ላ፥	-3624
ቀም	-3625
ቢዩ	-3626
ችና	-3627
ካፈ	-3628
▁a	-3629
ልኝ፥	-3630
ሩት።	-3631
ራል።	-3632
ርሳቤ	-3633
ናል፤	-3634
ውን።	-3635
ያስተ	-3636
ጐናጸ	-3637
ጸልይ	-3638
▁ሄዶ	-3639
▁ቅጥ	-3640
▁በሙ	-3641
▁በቍ	-3642
▁ወል	-3643
▁ወፍ	-3644
▁የኬ	-3645
▁የዝ	-3646
ለዋል።	-3647
ቸውም፤	-3648
ቻቸው።	-3649
▁ላይም	-3650
▁መሆኑ	-3651
▁ሺህም	-3652
▁በእሳ	-3653
▁በዳም	-3654
▁አሰና	-3655
▁አበባ	-3656
▁ውኃም	-3657
▁የላከ	-3658
▁የውኃ	-3659
▁ድንቅ	-3660
▁ገባ።	-3661
▁ግብር	-3662
▁ፍላጻ	-3663
▁መሠረት	-3664
▁መንገሥ	-3665
▁ስንፍና	-3666
▁በዚያች	-3667
▁ነበሩ፥	-3668
▁እንግዲ	-3669
▁እኵሌታ	-3670
▁ከወሩም	-3671
▁የሰውን	-3672
▁የግብፅ	-3673
▁ለወንድሞ	-3674
▁ራሳቸውን	-3675
▁በአደባባ	-3676
▁እንዳለው	-3677
▁ደግሞም።	-3678
▁ተናገራቸው።	-3679
ሉኝ	-3680
ሰጠ	-3681
ሱት	-3682
ሸሸ	-3683
ዋ፥	-3684
ድኑ	-3685
ጮኹ	-3686
ላል፥	-3687
መቱም	-3688
ኞችም	-3689
▁ልን	-3690
▁ሽቱ	-3691
▁ትታ	-3692
▁እም	-3693
▁የጦ	-3694
▁የፋ	-3695
▁ይን	-3696
▁ድል	-3697
▁ግፍ	-3698
▁ጫማ	-3699
ተዋል፤	-3700
ዋለህ።	-3701
ዋልና፥	-3702
▁ለሕዝ	-3703
▁ማለዳ	-3704
▁ስማ፤	-3705
▁ስምህ	-3706
▁ተሸክ	-3707
▁አልፈ	-3708
▁ወጡ፤	-3709
▁ይጮኻ	-3710
▁ልጆቹም	-3711
▁ሰረገላ	-3712
▁በሰላም	-3713
▁በሰልፍ	-3714
▁በፍርድ	-3715
▁እንዳላ	-3716
▁ደግሞ።	-3717
▁ጠርቶ።	-3718
▁ለማድረግ	-3719
▁በልባቸው	-3720
▁ክርስቲያ	-3721
▁የምድርም	-3722
▁ዳዊትም።	-3723
▁ያደርጋል።	-3724
▁እያንዳንዱም	-3725
በሳ	-3726
ዑል	-3727
ዩ፤	-3728
ጉ።	-3729
▁ሉ	-3730
ላቶች	-3731
ሙትን	-3732
ሮችን	-3733
ሰርይ	-3734
ቀርበ	-3735
ኸውም	-3736
ወሪያ	-3737
ወስዳ	-3738
ዘምራ	-3739
▁መሣ	-3740
▁በን	-3741
▁በኢ	-3742
▁በጠ	-3743
▁ነጭ	-3744
▁አፌ	-3745
▁ከና	-3746
▁ወተ	-3747
▁ደመ	-3748
▁ግድ	-3749
▁ጠል	-3750
ኛልና፥	-3751
አልና፤	-3752
▁ለመነ	-3753
▁ሰልፈ	-3754
▁ሰጥቼ	-3755
▁በሮች	-3756
▁ባረከ	-3757
▁አቆመ	-3758
▁አብዝ	-3759
▁አኖሩ	-3760
▁አውሬ	-3761
▁አጸና	-3762
▁ወድቆ	-3763
▁የመጣ	-3764
▁የሚጠ	-3765
▁የተመ	-3766
▁የናስ	-3767
▁የገዛ	-3768
▁ያገኛ	-3769
▁ዱቄት	-3770
▁መሳፍን	-3771
▁ሙሴን።	-3772
▁ሰምተው	-3773
▁ሰዎች፥	-3774
▁ስሙንም	-3775
▁በደመና	-3776
▁ተመልሰ	-3777
▁ተግሣጽ	-3778
▁አለቃ፥	-3779
▁አይገኝ	-3780
▁እንዲሰ	-3781
▁ይሁኑ።	-3782
▁ይቀበላ	-3783
▁አለቆችም	-3784
▁አቤሴሎም	-3785
▁አድርገህ	-3786
▁አድርግ።	-3787
▁ወንድሞቼ	-3788
▁ያውቃሉ።	-3789
▁ጴጥሮስም	-3790
▁መስገጃዎች	-3791
▁በሁለተኛው	-3792
ለቃ	-3793
ሎም	-3794
ቅረ	-3795
በተ	-3796
በድ	-3797
ታይ	-3798
ንቶ	-3799
ግድ	-3800
ጓዙ	-3801
ሁም፤	-3802
ለሞታ	-3803
ሠላሳ	-3804
ቀመጫ	-3805
በሰቡ	-3806
ባለው	-3807
ናወጥ	-3808
ዋልን	-3809
ጠበቅ	-3810
ፈጸም	-3811
ፋቸው	-3812
▁ቍጥ	-3813
▁ባሕ	-3814
▁ከር	-3815
▁ከሳ	-3816
▁ዘም	-3817
▁የጣ	-3818
▁ያዩ	-3819
▁ጓዳ	-3820
ዳቸውም	-3821
▁ሄደው	-3822
▁ለራሱ	-3823
▁ሊሆን	-3824
▁መካከ	-3825
▁ሠርቶ	-3826
▁ሮብዓ	-3827
▁ሰማያ	-3828
▁ሰነፍ	-3829
▁በላዩ	-3830
▁በመጡ	-3831
▁በቤተ	-3832
▁በአል	-3833
▁ባላቅ	-3834
▁ተቈጣ	-3835
▁ኃያል	-3836
▁ነህ፤	-3837
▁አታስ	-3838
▁የመቶ	-3839
▁የኢያ	-3840
▁ይገዛ	-3841
▁ድምፁ	-3842
▁ድንግ	-3843
▁ፈጥኖ	-3844
▁ፊቱን	-3845
▁መዛግብ	-3846
▁ምናምን	-3847
▁ምድር፥	-3848
▁በዓይን	-3849
▁አለው፥	-3850
▁አላገኘ	-3851
▁አልሰሙ	-3852
▁አየሁ፤	-3853
▁አደረጋ	-3854
▁ኤፍሬም	-3855
▁ወደምት	-3856
▁ያቀርባ	-3857
▁ይቀመጡ	-3858
▁ጻድቃን	-3859
▁ፈረሶች	-3860
▁ፍርሃት	-3861
▁ሰረገሎች	-3862
▁በሰማርያ	-3863
▁ተመለሱ።	-3864
▁አራተኛው	-3865
▁አትክልት	-3866
▁እንስሶች	-3867
▁የሚመስል	-3868
▁የቀረውም	-3869
▁ይሆናሉ፤	-3870
▁እስራኤልንም	-3871
ማሩ	-3872
ማ፥	-3873
ሴቦ	-3874
ቅድ	-3875
በዝ	-3876
በደ	-3877
ናም	-3878
ንብ	-3879
አስ	-3880
ከው	-3881
ደኛ	-3882
ዶቅ	-3883
ጠሩ	-3884
ጸየ	-3885
ፈን	-3886
ልንጀ	-3887
ሎችም	-3888
ቶችህ	-3889
ችው፤	-3890
ኑትን	-3891
ኞችን	-3892
ኤልም	-3893
ወስድ	-3894
▁ለስ	-3895
▁ሰብ	-3896
▁ሳሉ	-3897
▁ስደ	-3898
▁ባላ	-3899
▁ተኛ	-3900
▁ነጋ	-3901
▁ዓለ	-3902
▁የዋ	-3903
▁ያጥ	-3904
▁ጥቂ	-3905
▁ፈት	-3906
ለሁና፥	-3907
ላችሁም	-3908
መለከቱ	-3909
ዛርያስ	-3910
ጤክስስ	-3911
ፀሐይም	-3912
▁ልብህ	-3913
▁መጋረ	-3914
▁ሞዓብ	-3915
▁ሴቲቱ	-3916
▁በማኅ	-3917
▁በቀን	-3918
▁በቀኝ	-3919
▁በነፍ	-3920
▁በእው	-3921
▁በፈቃ	-3922
▁አለኝ	-3923
▁አመለ	-3924
▁አመን	-3925
▁አንገ	-3926
▁አይተ	-3927
▁ኢያቡ	-3928
▁እልፍ	-3929
▁እረኛ	-3930
▁ከደቀ	-3931
▁ወደደ	-3932
▁ያዘዝ	-3933
ርስቶስም	-3934
ችኋለሁ፥	-3935
▁ሐሰተኛ	-3936
▁መለከት	-3937
▁መተላለ	-3938
▁መጥቶ።	-3939
▁ማዕዘን	-3940
▁ሴቲቱም	-3941
▁በሁለት	-3942
▁በማለዳ	-3943
▁በኮረብ	-3944
▁በጀመረ	-3945
▁በጎች፥	-3946
▁እኔንም	-3947
▁እኩሌታ	-3948
▁ክርክር	-3949
▁ክፋትን	-3950
▁ወስደው	-3951
▁የሚሰማ	-3952
▁ይደረግ	-3953
▁ይጠብቃ	-3954
▁ጥበብን	-3955
▁ጽኑዓን	-3956
▁ለእርሱም	-3957
▁ምድሪቱም	-3958
▁አቤሜሌክ	-3959
▁አታድርጉ	-3960
▁እናንተን	-3961
▁እንደማይ	-3962
▁ዘካርያስ	-3963
▁የተለወሰ	-3964
▁የተናገር	-3965
▁ከእናንተም	-3966
ሄል	-3967
ለጠ	-3968
ሣኤ	-3969
ሽ።	-3970
ናል	-3971
ያዣ	-3972
ግዳ	-3973
▁ቴ	-3974
ሁም፥	-3975
ማውም	-3976
ስሐቅ	-3977
ቡብም	-3978
ትም።	-3979
ናዊው	-3980
ወድድ	-3981
ወጣው	-3982
ጣቸው	-3983
▁ሸማ	-3984
▁ቀደ	-3985
▁አሞ	-3986
▁አጽ	-3987
▁እሾ	-3988
▁ወግ	-3989
▁የን	-3990
▁የድ	-3991
▁ያደ	-3992
▁ይች	-3993
▁ገዛ	-3994
▁ጠር	-3995
ምለኪያ	-3996
ሳኦልም	-3997
ተኞችም	-3998
ናገረው	-3999
ውያን፥	-4000
▁መልሰ	-4001
▁በልቤ	-4002
▁በአር	-4003
▁ቤትም	-4004
▁ብላቴ	-4005
▁እያለ	-4006
▁ከኢዮ	-4007
▁የማን	-4008
▁ይገለ	-4009
▁ግብፃ	-4010
▁ጠማማ	-4011
▁ጠየቀ	-4012
▁ፊቴን	-4013
ወርወሪያ	-4014
▁ሕዝቤን	-4015
▁መዝገብ	-4016
▁በስውር	-4017
▁በኃይል	-4018
▁በናያስ	-4019
▁በእኔና	-4020
▁ነበረና	-4021
▁ነገሮች	-4022
▁አሮንን	-4023
▁አብረው	-4024
▁አይችል	-4025
▁አገልጋ	-4026
▁እውቀት	-4027
▁ከወንድ	-4028
▁ከዳዊት	-4029
▁የመቅደ	-4030
▁የሚሄድ	-4031
▁የሚበላ	-4032
▁የእህል	-4033
▁የእርሱ	-4034
▁ያመሰግ	-4035
▁ይጠብቁ	-4036
▁ድንጋጤ	-4037
▁ጀመር።	-4038
▁ለአምላካ	-4039
▁መንገዱን	-4040
▁መገናኛው	-4041
▁ሰጣቸው።	-4042
▁ኢሳይያስ	-4043
▁እንደሆነ	-4044
▁እንዲሆኑ	-4045
▁በዙሪያውም	-4046
▁የተናገረውን	-4047
ልጶ	-4048
ቄም	-4049
ቅ፤	-4050
ባው	-4051
ኅኒ	-4052
ዞት	-4053
ፈረ	-4054
ፋ።	-4055
ሉትም	-4056
ሉት፤	-4057
ርያት	-4058
ታውቁ	-4059
ኑት።	-4060
ዊውን	-4061
ዘጋጁ	-4062
ዛችሁ	-4063
▁ሀብ	-4064
▁ለዮ	-4065
▁ልማ	-4066
▁መካ	-4067
▁ሣር	-4068
▁ቀጥ	-4069
▁በካ	-4070
▁ባያ	-4071
▁ተሳ	-4072
▁ተጋ	-4073
▁ትሁ	-4074
▁ቸነ	-4075
▁ከት	-4076
▁ወራ	-4077
▁ዐፀ	-4078
▁የኃ	-4079
▁ገዥ	-4080
▁ጽሕ	-4081
ለታል።	-4082
ዳቸውን	-4083
▁ሄዱ፤	-4084
▁ሆነች	-4085
▁ስንዴ	-4086
▁በስሜ	-4087
▁በበረ	-4088
▁ተቀብ	-4089
▁ተንኰ	-4090
▁ትሆን	-4091
▁ነህና	-4092
▁አትስ	-4093
▁አውቆ	-4094
▁አጥብ	-4095
▁እሠራ	-4096
▁እኅት	-4097
▁እጥፍ	-4098
▁ከሕዝ	-4099
▁ከመስ	-4100
▁ከሩቅ	-4101
▁ዐውሎ	-4102
▁የቃል	-4103
▁የእነ	-4104
▁ደጆች	-4105
▁ለኃጢአ	-4106
▁ሕዝብም	-4107
▁መቅሠፍ	-4108
▁መኳንን	-4109
▁ሲናገር	-4110
▁በሞዓብ	-4111
▁በሰረገ	-4112
▁በደረሰ	-4113
▁ተቀበረ	-4114
▁አማልክ	-4115
▁አታውቁ	-4116
▁ዓመትም	-4117
▁የሚሠራ	-4118
▁ሁልጊዜም	-4119
▁በመቅደስ	-4120
▁ተነሥተህ	-4121
▁ትምህርት	-4122
▁አይደለች	-4123
▁የሕይወት	-4124
▁የተወለደ	-4125
▁አዘዛቸው።	-4126
▁አድርጋችሁ	-4127
▁የሚያደርጉ	-4128
▁ዮርዳኖስን	-4129
▁ኢየሩሳሌምም	-4130
ሆድ	-4131
ሔል	-4132
ሶር	-4133
ሽ፤	-4134
ንጫ	-4135
ከፍ	-4136
ካዝ	-4137
ዕድ	-4138
ይሁ	-4139
ደሮ	-4140
ጉ፥	-4141
ግና	-4142
ጸጸ	-4143
ፈቱ	-4144
ለንና	-4145
ልህ።	-4146
ምናሴ	-4147
ረከሰ	-4148
ሳንም	-4149
ጃችሁ	-4150
ገልጥ	-4151
ጠውን	-4152
ጡትን	-4153
▁መጡ	-4154
▁ተሞ	-4155
▁አነ	-4156
▁ከየ	-4157
▁ከዳ	-4158
▁ዙፋ	-4159
▁ጻፍ	-4160
ለውንም	-4161
ታችንን	-4162
ቸዋለሁ	-4163
▁ሁሉና	-4164
▁ሂዱ፥	-4165
▁ሄሮድ	-4166
▁ሌላም	-4167
▁ሕግን	-4168
▁ሕፃና	-4169
▁ሞልቶ	-4170
▁ሠራ፥	-4171
▁ሥራው	-4172
▁ቃሎች	-4173
▁በላዬ	-4174
▁ቤትና	-4175
▁አውጥ	-4176
▁እስማ	-4177
▁እጄን	-4178
▁የሞተ	-4179
▁የተቀ	-4180
▁ያከብ	-4181
▁ይሰጡ	-4182
▁ደነገ	-4183
▁ድምፃ	-4184
▁ጀመረ	-4185
▁በሕዝቤ	-4186
▁በሦስት	-4187
▁በደኅና	-4188
▁ባሪያዬ	-4189
▁አባቱም	-4190
▁አደርገ	-4191
▁ዮናታን	-4192
ቶቻቸውንም	-4193
▁መላእክት	-4194
▁ሦስተኛው	-4195
▁ቀለበቶች	-4196
▁በመሠዊያ	-4197
▁በሰማያት	-4198
▁ተቀመጠ፤	-4199
▁ተናገሩ።	-4200
▁ተአምራት	-4201
▁ታላላቆች	-4202
▁አላቸው፤	-4203
▁አድርግ፤	-4204
▁እውቀትን	-4205
▁እጃቸውን	-4206
▁ከነበሩት	-4207
▁ወንድሞቹ	-4208
▁የሚቀመጡ	-4209
▁የሚበልጥ	-4210
▁ያዕቆብን	-4211
▁ዮርዳኖስ	-4212
▁ያደርጋል፤	-4213
ልፋ	-4214
ሐን	-4215
ምሬ	-4216
ሳዊ	-4217
ቈጡ	-4218
ባ፥	-4219
ኪሩ	-4220
ዙም	-4221
ያዘ	-4222
ገሣ	-4223
ጽፍ	-4224
ሁበት	-4225
ህም።	-4226
ሊትም	-4227
ላቴና	-4228
ሎጊያ	-4229
ቀረበ	-4230
ቡንም	-4231
ብኝ፤	-4232
ታልና	-4233
ነውን	-4234
ነጃጅ	-4235
ነፎች	-4236
ኰራኵ	-4237
ገኘው	-4238
▁ልክ	-4239
▁መራ	-4240
▁ሰገ	-4241
▁ሳት	-4242
▁ሶም	-4243
▁ትቶ	-4244
▁እህ	-4245
▁የሱ	-4246
▁ይሉ	-4247
▁ጭፍ	-4248
ለሁና።	-4249
ለትም።	-4250
ማለሁ፥	-4251
ቀደሰው	-4252
ቅዱሳን	-4253
ተዋልና	-4254
ችሁንም	-4255
ችኋልና	-4256
ናቸውን	-4257
ዶክዮስ	-4258
▁ለማን	-4259
▁ለብቻ	-4260
▁ሊገድ	-4261
▁መቅረ	-4262
▁ሰውዮ	-4263
▁ሰው።	-4264
▁ሰገደ	-4265
▁ቀበሩ	-4266
▁ቀንና	-4267
▁ቀንደ	-4268
▁በሌላ	-4269
▁በትዕ	-4270
▁በአም	-4271
▁በፍታ	-4272
▁ታጠፋ	-4273
▁አልቅ	-4274
▁አሳየ	-4275
▁አትሁ	-4276
▁አዕማ	-4277
▁አድና	-4278
▁እርግ	-4279
▁እስራ	-4280
▁ከወይ	-4281
▁ወዳጅ	-4282
▁ዓመፅ	-4283
▁የሥጋ	-4284
▁ያለች	-4285
▁ይመጡ	-4286
▁ይሰጠ	-4287
▁ይደር	-4288
ቶቻቸውን	-4289
▁ለምድር	-4290
▁መጠጊያ	-4291
▁ሚስቱን	-4292
▁ሚስቶች	-4293
▁ሰላምን	-4294
▁ቀንበር	-4295
▁በሐሰት	-4296
▁በመንገ	-4297
▁በኋላም	-4298
▁በዘይት	-4299
▁በፊቱም	-4300
▁ተናግሬ	-4301
▁ነገዶች	-4302
▁የንጉሥ	-4303
▁የጌታን	-4304
▁የጽድቅ	-4305
▁ያልሆነ	-4306
▁ያቀርቡ	-4307
▁ይሁን፥	-4308
▁ይመለስ	-4309
▁ጃንደረ	-4310
▁ጠላቶቼ	-4311
▁ፊትህን	-4312
▁በንጉሡም	-4313
▁ባሪያዎቹ	-4314
▁አልዓዛር	-4315
▁እነርሱን	-4316
▁እውነትን	-4317
▁ከተሞችና	-4318
▁ከዘላለም	-4319
▁የንጉሡን	-4320
▁እንዳደረግ	-4321
▁የሚኖሩትን	-4322
▁የተቈጠሩት	-4323
▁ለእያንዳንዱ	-4324
▁እያንዳንዳቸው	-4325
ርጥ	-4326
ሳፍ	-4327
ስ፤	-4328
በቀ	-4329
ባር	-4330
ዊቱ	-4331
ዝና	-4332
ደገ	-4333
ግራ	-4334
ጠ፤	-4335
▁ቲ	-4336
▁ጤ	-4337
▁ጾ	-4338
ህነት	-4339
ልኝ፤	-4340
መልሱ	-4341
ምና፤	-4342
ሠሩት	-4343
ሥራት	-4344
ባል፥	-4345
ተውል	-4346
ታዘዙ	-4347
ችኋል	-4348
ዖንን	-4349
ደንግ	-4350
ገረዝ	-4351
ግብፃ	-4352
ፈሩት	-4353
▁ለሕ	-4354
▁ለቤ	-4355
▁ስጠ	-4356
▁በኬ	-4357
▁ታጥ	-4358
▁ትር	-4359
▁ከጽ	-4360
▁ክፈ	-4361
▁ዋሻ	-4362
▁ያነ	-4363
▁ጨረ	-4364
▁ጻፈ	-4365
ልሃል።	-4366
ተዋል።	-4367
ተዋል፥	-4368
ታለሁ።	-4369
ችኋል፥	-4370
ኋለኛው	-4371
▁መራራ	-4372
▁ሙታን	-4373
▁ምግብ	-4374
▁ሠራ፤	-4375
▁ሸክም	-4376
▁በቤቴ	-4377
▁ባሉት	-4378
▁ቤቱም	-4379
▁ትዕቢ	-4380
▁ኃያላ	-4381
▁አለው	-4382
▁አወቅ	-4383
▁አየ፤	-4384
▁አይበ	-4385
▁አግብ	-4386
▁እልል	-4387
▁እርም	-4388
▁እንቅ	-4389
▁ወንዶ	-4390
▁ወንጌ	-4391
▁ዕጣን	-4392
▁የመታ	-4393
▁የደረ	-4394
▁ያድና	-4395
▁ይሄድ	-4396
▁ጌታን	-4397
▁ጽዮን	-4398
▁ፍየል	-4399
▁ለአሥራ	-4400
▁ልጆቹን	-4401
▁መጻተኛ	-4402
▁ራስህን	-4403
▁ሰማሁ።	-4404
▁ስእለት	-4405
▁ቀንዶች	-4406
▁በሁለቱ	-4407
▁በሕዝብ	-4408
▁በቤቱም	-4409
▁በነበረ	-4410
▁በንጉሥ	-4411
▁በአምላ	-4412
▁በአባቱ	-4413
▁በክብር	-4414
▁በወንድ	-4415
▁ባለችው	-4416
▁ተአምራ	-4417
▁ታደርግ	-4418
▁ትዕቢት	-4419
▁አዘጋጀ	-4420
▁እስትን	-4421
▁እናቱም	-4422
▁ወሰደ፥	-4423
▁ወጥመድ	-4424
▁የክብር	-4425
▁ዳዊትና	-4426
▁ሁለቱንም	-4427
▁ለያዕቆብ	-4428
▁መቅሠፍት	-4429
▁መታሰቢያ	-4430
▁ተመለሰ።	-4431
▁ተመለከተ	-4432
▁ነበርና፥	-4433
▁እናደርጋ	-4434
▁ከተማይቱ	-4435
▁ከኢየሱስ	-4436
▁ዮናታንም	-4437
▁መሥዋዕት፥	-4438
▁መንግሥታት	-4439
▁በሦስተኛው	-4440
▁ተሰብስበው	-4441
▁በመካከላችሁ	-4442
ሊም	-4443
ልማ	-4444
ልኮ	-4445
መፅ	-4446
ሞቱ	-4447
ርቃ	-4448
ርዮ	-4449
ሸን	-4450
ቂቱ	-4451
ቅላ	-4452
ወራ	-4453
ዋር	-4454
ጠጥ	-4455
ጥረ	-4456
ፍህ	-4457
ሃልን	-4458
ህም፤	-4459
ላት፥	-4460
ሦርም	-4461
ሳችን	-4462
ቀድሞ	-4463
ብኝ።	-4464
ችልም	-4465
ወድቅ	-4466
ዊትን	-4467
ዝበዛ	-4468
ገልግ	-4469
ጊዜው	-4470
ጣሉ፥	-4471
ፉንም	-4472
▁ለፍ	-4473
▁ቀስ	-4474
▁ቅጠ	-4475
▁ታው	-4476
▁ከው	-4477
▁ከዛ	-4478
▁ዝቅ	-4479
▁ይዋ	-4480
▁ይጣ	-4481
▁ጌዴ	-4482
ለውም።	-4483
ሊባኖስ	-4484
ቀመጠው	-4485
ቻለሁ።	-4486
ዋለህ፤	-4487
▁ሙሽራ	-4488
▁ርጉም	-4489
▁ስለት	-4490
▁ቀንድ	-4491
▁በረዶ	-4492
▁በበሩ	-4493
▁በተሰ	-4494
▁በየዓ	-4495
▁ቤቱን	-4496
▁ብልሃ	-4497
▁ተዘል	-4498
▁ነህ፥	-4499
▁ናት፥	-4500
▁አደራ	-4501
▁እምነ	-4502
▁ከሀያ	-4503
▁ከምድ	-4504
▁ካሉት	-4505
▁ወደድ	-4506
▁የሁለ	-4507
▁የሌዊ	-4508
▁የሞላ	-4509
▁የወን	-4510
▁የዘን	-4511
▁የፍየ	-4512
▁ያድነ	-4513
▁ጕድጓ	-4514
▁ጥርስ	-4515
▁ጸሎት	-4516
ጐናጸፊያ	-4517
▁ሁለትም	-4518
▁መፍራት	-4519
▁ሙሴንና	-4520
▁ማርያም	-4521
▁ሦስተኛ	-4522
▁በነገሠ	-4523
▁ባለጠግ	-4524
▁ተዘጋጅ	-4525
▁ኃፍረተ	-4526
▁አልነበ	-4527
▁አባቱን	-4528
▁አየሁ።	-4529
▁እመልስ	-4530
▁ከአንድ	-4531
▁ወዳጆች	-4532
▁የለም፥	-4533
▁የሚነካ	-4534
▁የሚኖር	-4535
▁የሶርያ	-4536
▁የተስፋ	-4537
▁የአሦር	-4538
▁ይወርዳ	-4539
▁ጠራው።	-4540
▁ፈጽመው	-4541
▁ልጆቻችሁ	-4542
▁በኤፍሬም	-4543
▁በከነዓን	-4544
▁በፊታችሁ	-4545
▁ነገሩት።	-4546
▁አሳልፈው	-4547
▁የሕዝቡን	-4548
▁መወርወሪያ	-4549
▁ባሪያዎችህ	-4550
▁የአብርሃም	-4551
▁አደርጋለሁ።	-4552
▁ኢየሩሳሌምን	-4553
ልስጥኤማውያንም	-4554
▁በመካከላቸውም	-4555
መም	-4556
ሜሎ	-4557
ምሰ	-4558
ሰረ	-4559
ናው	-4560
ዘዘ	-4561
ዚች	-4562
ያዝ	-4563
ይዙ	-4564
ጠጋ	-4565
▁ዶ	-4566
ሉም፥	-4567
ልባል	-4568
ቀደሱ	-4569
ነሣው	-4570
ኝም፤	-4571
ከተሉ	-4572
ያስን	-4573
ዬንም	-4574
▁ሊሰ	-4575
▁ላክ	-4576
▁መቱ	-4577
▁ረጅ	-4578
▁ሳያ	-4579
▁በቈ	-4580
▁በቸ	-4581
▁ተገ	-4582
▁ናስ	-4583
▁አጣ	-4584
▁የቃ	-4585
▁የቅ	-4586
▁የዛ	-4587
▁የጭ	-4588
▁የጸ	-4589
▁ደሴ	-4590
▁ደከ	-4591
▁ደካ	-4592
▁ግል	-4593
▁ግዛ	-4594
▁ጠይ	-4595
▁ጸል	-4596
▁ፍቺ	-4597
▁ፍጹ	-4598
ሰማርያ	-4599
ሽማግሌ	-4600
በታል፤	-4601
ትዮጵያ	-4602
አለሁና	-4603
አለሁ፥	-4604
ውንም፥	-4605
▁ልሔም	-4606
▁መለሱ	-4607
▁መስኮ	-4608
▁ሞተ፥	-4609
▁ሲኦል	-4610
▁ስሙን	-4611
▁ብረት	-4612
▁ትተው	-4613
▁አልጋ	-4614
▁አምጡ	-4615
▁አምጥ	-4616
▁አስጨ	-4617
▁አውጣ	-4618
▁አዳነ	-4619
▁አፍስ	-4620
▁ከኢያ	-4621
▁ኮረብ	-4622
▁ዕንቍ	-4623
▁የአገ	-4624
▁ያለቅ	-4625
▁ያነሣ	-4626
▁ያደረ	-4627
▁ያጸና	-4628
▁ግብዣ	-4629
ልንጀራው	-4630
▁ሁላችን	-4631
▁ለሰማይ	-4632
▁ልጆችን	-4633
▁ልጆች።	-4634
▁መሣሪያ	-4635
▁ምሥጢር	-4636
▁ምድሪቱ	-4637
▁ስምህን	-4638
▁በሸለቆ	-4639
▁በኵራት	-4640
▁በፍቅር	-4641
▁ብፁዓን	-4642
▁ትእዛዜ	-4643
▁አሜን።	-4644
▁አርነት	-4645
▁አስታው	-4646
▁አስወግ	-4647
▁እናገር	-4648
▁ከባሪያ	-4649
▁ወስደህ	-4650
▁የአንተ	-4651
▁ይፈልጉ	-4652
▁ፍየሎች	-4653
▁ለራሳቸው	-4654
▁ምሕረትን	-4655
▁ምስክሮች	-4656
▁ሰባተኛው	-4657
▁የተባረከ	-4658
▁ያለበትን	-4659
▁ይመጣል።	-4660
▁መለሰለት።	-4661
▁ከተማይቱም	-4662
▁ያስተሰርይ	-4663
▁በሰባተኛውም	-4664
▁በየአባቶቻቸው	-4665
ለያ	-4666
መራ	-4667
ሣት	-4668
ረቤ	-4669
ራሪ	-4670
ሸት	-4671
ብሳ	-4672
ኋት	-4673
ነቴ	-4674
ኑር	-4675
ደለ	-4676
ደላ	-4677
ዴስ	-4678
ድጋ	-4679
ድፍ	-4680
ጥ።	-4681
ፉት	-4682
ሻል፤	-4683
ናል፥	-4684
አብያ	-4685
ዮችን	-4686
ዴዎች	-4687
ገሩ።	-4688
ጢሮስ	-4689
▁ለኤ	-4690
▁ሰለ	-4691
▁ቀይ	-4692
▁ቂጣ	-4693
▁ኑ፥	-4694
▁ኖኅ	-4695
▁ኢዩ	-4696
▁ደን	-4697
▁ግራ	-4698
▁ጸጥ	-4699
ሃልና፥	-4700
ንቀሳቃ	-4701
▁መብራ	-4702
▁ማታም	-4703
▁ማዳን	-4704
▁ምነው	-4705
▁ስሙም	-4706
▁ስሙ።	-4707
▁ስድብ	-4708
▁ቅዱሳ	-4709
▁ቆሙ።	-4710
▁በሀያ	-4711
▁በመር	-4712
▁በራብ	-4713
▁በቅድ	-4714
▁ቢሆኑ	-4715
▁ተቈጠ	-4716
▁ተደነ	-4717
▁ታናሹ	-4718
▁ትችላ	-4719
▁አለን	-4720
▁ከታና	-4721
▁ከእጅ	-4722
▁ክንፍ	-4723
▁የበረ	-4724
▁ይዋጋ	-4725
▁ዮሐን	-4726
▁ፊልጶ	-4727
▁ልባችሁ	-4728
▁መከራን	-4729
▁ምስሎች	-4730
▁ርዝመት	-4731
▁በከተማ	-4732
▁ተለይቶ	-4733
▁አክሊል	-4734
▁አዘጋጁ	-4735
▁እሰበስ	-4736
▁ከሁለት	-4737
▁ከአሥር	-4738
▁ከፀሐይ	-4739
▁ክፉውን	-4740
▁ኮረብታ	-4741
▁የሞዓብ	-4742
▁የአሮን	-4743
▁የወለደ	-4744
▁ይናገሩ	-4745
▁ይናገር	-4746
▁ይወርሳ	-4747
▁ማስተዋል	-4748
▁አንደኛው	-4749
▁እንግዶች	-4750
▁ከምድርም	-4751
▁ለእነርሱም	-4752
▁በአሕዛብም	-4753
▁አምላክህን	-4754
▁አንዳንዶቹ	-4755
▁ከተማይቱን	-4756
▁ክርስቶስን	-4757
▁የማምለኪያ	-4758
▁በሁለተኛውም	-4759
ራር	-4760
ሰስ	-4761
ቆሙ	-4762
ቡት	-4763
ተክ	-4764
ነሰ	-4765
ናባ	-4766
ናከ	-4767
ኩን	-4768
ዘረ	-4769
ደቀ	-4770
ጉ፤	-4771
ጮች	-4772
ፈህ	-4773
ፈኛ	-4774
ለሁን	-4775
ልሃል	-4776
ምጣት	-4777
ሞትም	-4778
ሞት፥	-4779
ሰጥህ	-4780
ሸከም	-4781
ባት።	-4782
ነገረ	-4783
ያምኑ	-4784
ያንም	-4785
ዴንም	-4786
ገኝ፥	-4787
ጠግብ	-4788
ጥረት	-4789
ፈስሳ	-4790
ፈጸመ	-4791
ፋችሁ	-4792
▁መት	-4793
▁ምሽ	-4794
▁ሳን	-4795
▁ብረ	-4796
▁ብሩ	-4797
▁ተላ	-4798
▁ታች	-4799
▁ትከ	-4800
▁አመ	-4801
▁ከይ	-4802
▁ወላ	-4803
▁ያይ	-4804
▁ዱር	-4805
▁ጢስ	-4806
▁ፈጣ	-4807
ንተኛው	-4808
ዛብሎን	-4809
▁ሆነህ	-4810
▁ሆንህ	-4811
▁ለመታ	-4812
▁ሐውል	-4813
▁ሕልም	-4814
▁መልስ	-4815
▁መታጠ	-4816
▁ሦስቱ	-4817
▁ርግብ	-4818
▁ሲል።	-4819
▁ሳለሁ	-4820
▁ሳንቃ	-4821
▁ሹማም	-4822
▁ቀርቶ	-4823
▁ቍስል	-4824
▁በሕግ	-4825
▁በመሸ	-4826
▁በማይ	-4827
▁በግራ	-4828
▁ብዙም	-4829
▁ተባባ	-4830
▁ትሞታ	-4831
▁ትንቢ	-4832
▁አላስ	-4833
▁አልታ	-4834
▁አስቀ	-4835
▁አትው	-4836
▁አየ።	-4837
▁አያሌ	-4838
▁አድራ	-4839
▁ከድን	-4840
▁ዝግባ	-4841
▁የሚሸ	-4842
▁የአማ	-4843
▁የኢፍ	-4844
▁የወጣ	-4845
▁የገደ	-4846
▁ይኖር	-4847
▁ይፈሩ	-4848
▁ደኅና	-4849
▁ገለባ	-4850
▁ጸለየ	-4851
▁ለአንድ	-4852
▁መሎጊያ	-4853
▁ሰንበት	-4854
▁በለው።	-4855
▁በሬዎች	-4856
▁በነቢዩ	-4857
▁ባለበት	-4858
▁ተመልክ	-4859
▁ተነሡ፥	-4860
▁ችግረኛ	-4861
▁አንድም	-4862
▁አይሁዳ	-4863
▁እረኞች	-4864
▁እርሱና	-4865
▁ወሰደ።	-4866
▁ዕረፍት	-4867
▁ያለበት	-4868
▁ያደረጉ	-4869
▁ይችላል	-4870
▁ገብተው	-4871
▁ለባሪያህ	-4872
▁መልካምን	-4873
▁መናፍስት	-4874
▁ምድርንም	-4875
▁በሌሊትም	-4876
▁በተራራው	-4877
▁ነበረች፤	-4878
▁ነገረው።	-4879
▁አመሰግን	-4880
▁ኤዶምያስ	-4881
▁የሚለውን	-4882
▁የሚጠብቅ	-4883
▁የእናንተ	-4884
▁ያዘዘውን	-4885
▁ሁለተኛውም	-4886
▁ንገራቸው።	-4887
▁በሦስተኛውም	-4888
ለይ	-4889
ሚስ	-4890
ምዋ	-4891
ሳደ	-4892
ቄዶ	-4893
በሬ	-4894
በቁ	-4895
ብሽ	-4896
ተወ	-4897
ትዋ	-4898
ቹና	-4899
ኔም	-4900
ንሐ	-4901
ውስ	-4902
ዓባ	-4903
ያ።	-4904
ዱር	-4905
ዱት	-4906
ድሶ	-4907
ጐራ	-4908
▁ሶ	-4909
ሁት፤	-4910
ሁት፥	-4911
መውን	-4912
ሜንም	-4913
ረኛው	-4914
ሸከሙ	-4915
ሻል።	-4916
በዛዝ	-4917
ቤሴሎ	-4918
ችም፥	-4919
ኅንነ	-4920
ዓብን	-4921
ዛቸው	-4922
ዩንም	-4923
ገርህ	-4924
ጨንቁ	-4925
▁ሆድ	-4926
▁ለታ	-4927
▁ለነ	-4928
▁ሚካ	-4929
▁ሰበ	-4930
▁ቤቴ	-4931
▁ታመ	-4932
▁ታየ	-4933
▁ነን	-4934
▁ኬጢ	-4935
▁ዔሳ	-4936
▁ዕዳ	-4937
▁የር	-4938
▁የስ	-4939
▁ጠግ	-4940
▁ጭቃ	-4941
መለከታ	-4942
ቃጠለው	-4943
ንቀሳቀ	-4944
ደርግ፥	-4945
ገልገል	-4946
▁ለኢዮ	-4947
▁ሕፃን	-4948
▁መሆን	-4949
▁መቶም	-4950
▁ስሜን	-4951
▁በመሰ	-4952
▁ነደደ	-4953
▁አላየ	-4954
▁አማሌ	-4955
▁አቁማ	-4956
▁አዝዞ	-4957
▁አዳራ	-4958
▁አጠጣ	-4959
▁እኔስ	-4960
▁ከፍታ	-4961
▁ዓምድ	-4962
▁የሙሴ	-4963
▁የኤል	-4964
▁የፈር	-4965
▁ያመለ	-4966
▁ይውጣ	-4967
▁ይድና	-4968
▁ይጠጣ	-4969
▁ደሙን	-4970
▁ገመድ	-4971
▁ፈረሶ	-4972
▁ፈጥነ	-4973
ቸዋለህ።	-4974
▁መሆኑን	-4975
▁መለሰ።	-4976
▁ማንንም	-4977
▁ምዕራብ	-4978
▁ሞገስን	-4979
▁ሥራውን	-4980
▁በመንፈ	-4981
▁በሚኖሩ	-4982
▁በትእዛ	-4983
▁ናቸውና	-4984
▁አባትህ	-4985
▁አዘጋጅ	-4986
▁እንስሶ	-4987
▁እንጂ።	-4988
▁ከመቅደ	-4989
▁ከተራራ	-4990
▁ከነዓና	-4991
▁ከአሥራ	-4992
▁ከጥንት	-4993
▁ወለደች	-4994
▁ወሰደ፤	-4995
▁ወንድሙ	-4996
▁የሚሄዱ	-4997
▁የሚባል	-4998
▁የዚህን	-4999
▁ያድርግ	-5000
▁ይመጣል	-5001
▁ይወድዳ	-5002
▁ፈጽመህ	-5003
▁ለልጆቹም	-5004
▁ለፈርዖን	-5005
▁መዛሙርት	-5006
▁በልባችሁ	-5007
▁በነበረው	-5008
▁በኢያሪኮ	-5009
▁ነበሩት፤	-5010
▁አምላክም	-5011
▁አቢሜሌክ	-5012
▁ለአብርሃም	-5013
▁መጐናጸፊያ	-5014
▁ምድሪቱንም	-5015
▁ተጽፎአል።	-5016
▁አሉአቸው።	-5017
▁አምላክህም	-5018
▁አንቀላፋ፥	-5019
▁እንዳይሆን	-5020
▁ከመጀመሪያ	-5021
▁መልእክተኞችን	-5022
▁ከእግዚአብሔርም	-5023
ላቁ	-5024
ሜም	-5025
ሪቱ	-5026
ሮት	-5027
ሰደ	-5028
ሴር	-5029
ሻው	-5030
ቆስ	-5031
ብሮ	-5032
ብሰ	-5033
ተረ	-5034
ናክ	-5035
ደቅ	-5036
ዳድ	-5037
ጁን	-5038
▁ዜ	-5039
ለው፤	-5040
ሉት፥	-5041
ሐንስ	-5042
መለሳ	-5043
መልካ	-5044
መስል	-5045
ሚናዳ	-5046
ማሉ።	-5047
ምና።	-5048
ሠራው	-5049
ሮቹም	-5050
ሻለሁ	-5051
ቃብር	-5052
ቸዋል	-5053
ቼንም	-5054
ገለዓ	-5055
ጠይቅ	-5056
ፈርስ	-5057
▁ማቅ	-5058
▁በሱ	-5059
▁ቡቃ	-5060
▁ትጠ	-5061
▁ነቀ	-5062
▁ኑሮ	-5063
▁ና፥	-5064
▁ንግ	-5065
▁ይብ	-5066
▁ደክ	-5067
▁ገዳ	-5068
▁ጮኽ	-5069
ሉአቸው	-5070
ልቅያስ	-5071
መናችሁ	-5072
ማውያን	-5073
ፍታሌም	-5074
▁ለሞት	-5075
▁ለነፍ	-5076
▁ለደቀ	-5077
▁ለድሀ	-5078
▁መሠረ	-5079
▁ምሰሶ	-5080
▁ምናሴ	-5081
▁ምኞት	-5082
▁ሰጠ።	-5083
▁ሲመጣ	-5084
▁ቃልህ	-5085
▁በልዩ	-5086
▁በስድ	-5087
▁በዕጣ	-5088
▁በፈረ	-5089
▁ትወዳ	-5090
▁ነህን	-5091
▁ነፍሰ	-5092
▁አመነ	-5093
▁አሠራ	-5094
▁አዋጅ	-5095
▁አዘነ	-5096
▁እናቱ	-5097
▁እወቅ	-5098
▁እጅ፥	-5099
▁ከሆን	-5100
▁ከቤተ	-5101
▁ዕረፍ	-5102
▁የቀና	-5103
▁የአኪ	-5104
▁የወር	-5105
▁የጦር	-5106
▁ያውቁ	-5107
▁ይረግ	-5108
▁ይሰጥ	-5109
▁ይበዛ	-5110
▁ይነጋ	-5111
▁ይገዙ	-5112
▁ይጠቅ	-5113
▁ድካም	-5114
▁ገሊላ	-5115
▁ገባ፥	-5116
▁ጌታም	-5117
▁ጥልቅ	-5118
ላቸውንም	-5119
ራቸውንም	-5120
ችኋልና፥	-5121
ናቸውንም	-5122
ደርገውን	-5123
▁ለማንም	-5124
▁ለእህል	-5125
▁ልጆችህ	-5126
▁ማኅፀን	-5127
▁በልብህ	-5128
▁በስፍራ	-5129
▁በነገር	-5130
▁ታደርጉ	-5131
▁ነፋስም	-5132
▁እንደዚ	-5133
▁እንጂ፥	-5134
▁ከመካከ	-5135
▁ከሰሜን	-5136
▁ወይፈን	-5137
▁ዓመታት	-5138
▁የቀሩት	-5139
▁የተለየ	-5140
▁የአገሩ	-5141
▁የወደደ	-5142
▁ያድርጉ	-5143
▁ይቀመጥ	-5144
▁ፀሐይም	-5145
▁መልካምም	-5146
▁መንፈስም	-5147
▁ሰጣቸው፤	-5148
▁በነጋውም	-5149
▁በወንድሞ	-5150
▁ተመለሱ፤	-5151
▁ተመልሰው	-5152
▁ተንቀሳቃ	-5153
▁ነበልባል	-5154
▁አሜስያስ	-5155
▁አስተዋይ	-5156
▁ኢዮስያስ	-5157
▁እላለሁ።	-5158
▁ከምሥራቅ	-5159
▁ወንድሙን	-5160
▁ወንጌልን	-5161
▁የሚቀመጥ	-5162
▁የተቀረጸ	-5163
▁የተቈጠሩ	-5164
▁የተወደደ	-5165
▁ይሰጣል።	-5166
▁ጥበበኞች	-5167
▁በአምላክህ	-5168
▁አምስተኛው	-5169
▁እነርሱንም	-5170
▁የተናገረው	-5171
ላማ	-5172
ማሬ	-5173
ሠዉ	-5174
ርካ	-5175
ቀ፥	-5176
በል	-5177
ቶን	-5178
ነቀ	-5179
ኑና	-5180
ናቱ	-5181
ኘት	-5182
ዘገ	-5183
ይር	-5184
ገራ	-5185
ጋጠ	-5186
ጋ፥	-5187
ጐደ	-5188
ጡም	-5189
ጥእ	-5190
ፈነ	-5191
▁ጅ	-5192
▁ጊ	-5193
ሃቸው	-5194
ህበት	-5195
ሉና።	-5196
ሬንም	-5197
ታንን	-5198
ታንያ	-5199
ቻት።	-5200
ወጣ፥	-5201
ዖንና	-5202
ያብሎ	-5203
ደነግ	-5204
ፈጽም	-5205
▁መሸ	-5206
▁ሠሪ	-5207
▁ራሴ	-5208
▁ሮማ	-5209
▁ስጡ	-5210
▁ሸም	-5211
▁በሮ	-5212
▁በቁ	-5213
▁በጨ	-5214
▁ባሮ	-5215
▁ብለ	-5216
▁ተጨ	-5217
▁ቸል	-5218
▁ኅብ	-5219
▁አቀ	-5220
▁ኤፉ	-5221
▁ከፋ	-5222
▁ዘሩ	-5223
▁ይሞ	-5224
▁ገሠ	-5225
▁ገድ	-5226
▁ጫፍ	-5227
ለሁና፤	-5228
ለችና፥	-5229
ርሳቤህ	-5230
ቶቹንም	-5231
ዋልና።	-5232
▁ሄዱ፥	-5233
▁ሆኑ፥	-5234
▁ለሠራ	-5235
▁መርም	-5236
▁መብረ	-5237
▁መያዣ	-5238
▁ምንስ	-5239
▁ርኵስ	-5240
▁ሰው፥	-5241
▁በየሰ	-5242
▁ተኝቶ	-5243
▁ተከማ	-5244
▁ታንኳ	-5245
▁ትሄዳ	-5246
▁ትሰማ	-5247
▁ትወድ	-5248
▁ኖረ፥	-5249
▁አስወ	-5250
▁አነገ	-5251
▁አንካ	-5252
▁አውቄ	-5253
▁እሆን	-5254
▁እርሾ	-5255
▁ከምት	-5256
▁ከሥጋ	-5257
▁ከእን	-5258
▁ከወን	-5259
▁ዘመና	-5260
▁የልጅ	-5261
▁የሚቀ	-5262
▁የማት	-5263
▁የተና	-5264
▁የአሞ	-5265
▁የገባ	-5266
▁ያማረ	-5267
▁ይሠሩ	-5268
▁ይጠብ	-5269
▁ዮዳሄ	-5270
▁ደቡብ	-5271
▁ጠየቁ	-5272
▁ጠፍቶ	-5273
▁ጮኹ።	-5274
▁ጻፎች	-5275
ላቸዋል።	-5276
ሞራውያን	-5277
▁ለልጆቹ	-5278
▁መቀመጫ	-5279
▁ማድረግ	-5280
▁ሞተም።	-5281
▁ሰዎች።	-5282
▁ቁርበት	-5283
▁በግዞት	-5284
▁ብዝበዛ	-5285
▁ተመላለ	-5286
▁ታላቅና	-5287
▁ትንሣኤ	-5288
▁ነገሩን	-5289
▁አለቃው	-5290
▁አላወቀ	-5291
▁አልቀረ	-5292
▁አመሰገ	-5293
▁እንዳን	-5294
▁እፍረት	-5295
▁ወንድሜ	-5296
▁ዓመፀኛ	-5297
▁ዕጣንም	-5298
▁የሚለው	-5299
▁የሚሰጥ	-5300
▁የተገኘ	-5301
▁ይኖራል	-5302
▁ይኸውም	-5303
▁ጲላጦስ	-5304
▁ለሰሎሞን	-5305
▁መጋረጆች	-5306
▁ምናምንቴ	-5307
▁ራሳችሁን	-5308
▁በመቅደሱ	-5309
▁በእጃችሁ	-5310
▁በዳዊትም	-5311
▁በጌታችን	-5312
▁ተመለሱ፥	-5313
▁ተከትለው	-5314
▁ተጠንቀቅ	-5315
▁አትደንግ	-5316
▁አደረጉ፥	-5317
▁አድርጉ፤	-5318
▁ኢየሱስ።	-5319
▁ወለደች።	-5320
▁የኃጢአት	-5321
▁ይስሐቅም	-5322
▁ዳዊትን።	-5323
▁ቅርንጫፎች	-5324
▁ወንድሞቹም	-5325
▁በከተማይቱም	-5326
▁አደርጋለሁ፤	-5327
▁ክርስቲያናት	-5328
▁በየወገኖቻቸው	-5329
ላሊ	-5330
ልፉ	-5331
ሠረ	-5332
ረ።	-5333
ስቴ	-5334
ቈር	-5335
ቡና	-5336
ቤን	-5337
ተሽ	-5338
ችግ	-5339
ነቅ	-5340
ኩ፥	-5341
ወል	-5342
ዛን	-5343
ድላ	-5344
ጥል	-5345
ጥና	-5346
ፍሩ	-5347
ለኞች	-5348
ሉምን	-5349
ላሉ።	-5350
ላት።	-5351
ሥታት	-5352
ሮንና	-5353
ሳኮር	-5354
ኔንም	-5355
አልን	-5356
ወርሱ	-5357
ዓትም	-5358
ዚያም	-5359
ዮንን	-5360
ደርሱ	-5361
ገቡም	-5362
ፋትም	-5363
▁ላሉ	-5364
▁ሕጉ	-5365
▁መከ	-5366
▁ሚክ	-5367
▁ማሰ	-5368
▁ሞቶ	-5369
▁ስታ	-5370
▁ሽን	-5371
▁ቍራ	-5372
▁በፋ	-5373
▁ባር	-5374
▁ትም	-5375
▁አቃ	-5376
▁አዴ	-5377
▁አፋ	-5378
▁ከኢ	-5379
▁ከጕ	-5380
▁ውስ	-5381
▁ዘው	-5382
▁ይክ	-5383
▁ግመ	-5384
▁ጠጋ	-5385
▁ጠጕ	-5386
▁ጠጣ	-5387
▁ጥል	-5388
▁ጥም	-5389
▁ጨካ	-5390
▁ጨው	-5391
▁ጽድ	-5392
ታችንም	-5393
ቻለሁ፤	-5394
ነጃጅት	-5395
ኛላችሁ	-5396
ካህናቱ	-5397
ዊውንም	-5398
ዳችሁም	-5399
ፈሪያው	-5400
▁ለሌላ	-5401
▁ላከ፤	-5402
▁ልማድ	-5403
▁ልጅህ	-5404
▁መልከ	-5405
▁መስሎ	-5406
▁ሚዛኑ	-5407
▁ሞትን	-5408
▁ሰማ።	-5409
▁ሰዎቹ	-5410
▁ስላላ	-5411
▁በሩቅ	-5412
▁በሰጠ	-5413
▁በአህ	-5414
▁በክን	-5415
▁በደም	-5416
▁ብርና	-5417
▁ብንያ	-5418
▁ተሰጠ	-5419
▁ታውቁ	-5420
▁ትሆኑ	-5421
▁አበኔ	-5422
▁አካል	-5423
▁አይዞ	-5424
▁እኔና	-5425
▁እጅህ	-5426
▁ከሕግ	-5427
▁ከእጄ	-5428
▁ክምር	-5429
▁ወርዶ	-5430
▁ውኆች	-5431
▁ዘርፍ	-5432
▁የሆን	-5433
▁የመሰ	-5434
▁የስም	-5435
▁የዘበ	-5436
▁የጠራ	-5437
▁ይሠዋ	-5438
▁ዮፍታ	-5439
▁ግርማ	-5440
ሳቸውንም	-5441
ባቸዋል።	-5442
▁መንደሮ	-5443
▁ሰማንያ	-5444
▁ሰረገሎ	-5445
▁ሰውነት	-5446
▁ሰደደ።	-5447
▁በእንጨ	-5448
▁በእግር	-5449
▁በዚያው	-5450
▁በግልጥ	-5451
▁ተቀምጠ	-5452
▁ነበረው	-5453
▁ናችሁ።	-5454
▁አልመጣ	-5455
▁አንቺም	-5456
▁አንዲቱ	-5457
▁አድርጋ	-5458
▁እንሂድ	-5459
▁እንደተ	-5460
▁እንዳሉ	-5461
▁ከሦስት	-5462
▁ውኃውም	-5463
▁የሕይወ	-5464
▁የተጠራ	-5465
▁ያደርገ	-5466
▁ይፈርዳ	-5467
▁ፊተኛው	-5468
▁መካከልም	-5469
▁ሳኦልም።	-5470
▁በገለዓድ	-5471
▁በፈርዖን	-5472
▁ተነሥቶም	-5473
▁ትእዛዛት	-5474
▁አምላኬ፥	-5475
▁ወንድምህ	-5476
▁ዓዛርያስ	-5477
▁የአይሁድ	-5478
▁የኤፍሬም	-5479
▁የድንጋይ	-5480
▁ይባላል።	-5481
▁ግልሙትና	-5482
▁ሕዝቅያስም	-5483
▁መልእክተኛ	-5484
▁ተሰበሰቡ።	-5485
▁አቤሴሎምም	-5486
▁ኤርምያስም	-5487
▁እንግዲያስ	-5488
▁የሚያስፈራ	-5489
▁የያዕቆብም	-5490
▁የደኅንነት	-5491
▁ይወድቃሉ።	-5492
▁ለወንድሞቹም	-5493
▁በአምላካችን	-5494
▁በየወገናቸው	-5495
ሊና	-5496
መች	-5497
ማኖ	-5498
ሣር	-5499
ሪ፥	-5500
ሬስ	-5501
ሰጡ	-5502
ስቍ	-5503
ቀ፤	-5504
ባላ	-5505
ብቃ	-5506
ታር	-5507
ንጎ	-5508
ክህ	-5509
ወሩ	-5510
ዋጉ	-5511
ዓም	-5512
ዳ፥	-5513
ድኤ	-5514
ዶስ	-5515
ጠች	-5516
ጸኑ	-5517
ሉና፥	-5518
መውም	-5519
መው።	-5520
ሠራ፥	-5521
ቂዎች	-5522
ቈጠር	-5523
በቱም	-5524
ባትህ	-5525
ታውቅ	-5526
ትውል	-5527
ኖችም	-5528
ኪያስ	-5529
ክዓብ	-5530
ኵራብ	-5531
ወርዱ	-5532
ዎችህ	-5533
ደውን	-5534
ድንም	-5535
ጣሉ።	-5536
▁ሂዱ	-5537
▁ሃሌ	-5538
▁ለጋ	-5539
▁ሳል	-5540
▁ቦዔ	-5541
▁ተው	-5542
▁ትሸ	-5543
▁እፈ	-5544
▁ከሲ	-5545
▁ከድ	-5546
▁ኵሬ	-5547
▁ያው	-5548
መልካም	-5549
በትም።	-5550
ቶቻችን	-5551
▁ሆኑ።	-5552
▁ለመው	-5553
▁ልጆቼ	-5554
▁ሰባቱ	-5555
▁ሰጡ።	-5556
▁ቀረበ	-5557
▁በመለ	-5558
▁በሙሉ	-5559
▁በማን	-5560
▁በቅር	-5561
▁በእን	-5562
▁በእግ	-5563
▁በገና	-5564
▁ባልተ	-5565
▁ባልዋ	-5566
▁ትወር	-5567
▁ኀዘን	-5568
▁ነህ።	-5569
▁ነፍሱ	-5570
▁ንገሩ	-5571
▁አረከ	-5572
▁አሸዋ	-5573
▁አትሥ	-5574
▁አዎን	-5575
▁እጆች	-5576
▁ከላይ	-5577
▁ከበቡ	-5578
▁የልብ	-5579
▁የሚሻ	-5580
▁የሞት	-5581
▁የቤቱ	-5582
▁የእው	-5583
▁ያንን	-5584
▁ይቃጠ	-5585
▁ይወጡ	-5586
▁ገባ፤	-5587
▁ፈጽሜ	-5588
ርብዓምም	-5589
ተኛውንም	-5590
ዎቹንም፥	-5591
ይዝራኤል	-5592
▁ሕዝብህ	-5593
▁መዘምራ	-5594
▁ሰማያዊ	-5595
▁ሰጠው፤	-5596
▁በተስፋ	-5597
▁በአንዱ	-5598
▁በአገሩ	-5599
▁ቸነፈር	-5600
▁አለች፤	-5601
▁አንተ።	-5602
▁አውድማ	-5603
▁አዕማድ	-5604
▁እሳትም	-5605
▁እናቱን	-5606
▁እንዳስ	-5607
▁ከመከራ	-5608
▁የለምን	-5609
▁የለበሰ	-5610
▁የሚወጣ	-5611
▁የምድረ	-5612
▁የተቀበ	-5613
▁የአምላ	-5614
▁ያስነሣ	-5615
▁ይባርክ	-5616
▁ይፈጸም	-5617
▁ገለዓድ	-5618
▁ገደለ።	-5619
▁ጋለሞታ	-5620
▁ሰልፈኞች	-5621
▁በእሳትም	-5622
▁ነበርና፤	-5623
▁ንጉሡንም	-5624
▁አለቆች፥	-5625
▁አሳልፈህ	-5626
▁አይደለህ	-5627
▁አገልጋይ	-5628
▁እንቅልፍ	-5629
▁እንኪያስ	-5630
▁እንደምታ	-5631
▁እንዴትስ	-5632
▁እንጀራን	-5633
▁ከብንያም	-5634
▁ወዳለበት	-5635
▁ዕቃውንም	-5636
▁የመንግሥ	-5637
▁የተደረገ	-5638
▁የዳዊትም	-5639
▁ያለውንም	-5640
▁ያስተምራ	-5641
▁ያደረገው	-5642
▁ይሆናሉ፥	-5643
▁ይልቁንም	-5644
▁ድንበሩም	-5645
▁ለኃጢአትም	-5646
▁አሕዛብንም	-5647
▁አምላካቸው	-5648
▁አንዳንዶች	-5649
▁እርስዋንም	-5650
▁ከእርስዋም	-5651
▁አልነበረም፤	-5652
▁ከመስፈሪያው	-5653
▁ከፍልስጥኤማውያን	-5654
ልካ	-5655
ልያ	-5656
መፃ	-5657
ሜኢ	-5658
ረህ	-5659
ረን	-5660
ረኩ	-5661
ርዛ	-5662
ርዱ	-5663
በቴ	-5664
ባብ	-5665
ቱት	-5666
ታ።	-5667
ወቃ	-5668
ዝ፥	-5669
ያዙ	-5670
ደም	-5671
ገዳ	-5672
ጣዖ	-5673
ጥታ	-5674
▁ሔ	-5675
▁ሖ	-5676
▁ጡ	-5677
ለሽ።	-5678
ልቅሶ	-5679
ሳል፥	-5680
ብኝ፥	-5681
ተውሉ	-5682
ቲቱን	-5683
ነትና	-5684
ንስሳ	-5685
ወልድ	-5686
ያችሁ	-5687
ዶችም	-5688
ጃቸው	-5689
▁ለና	-5690
▁ለው	-5691
▁ልበ	-5692
▁ምራ	-5693
▁ቈር	-5694
▁በኣ	-5695
▁በዋ	-5696
▁በጫ	-5697
▁ባሳ	-5698
▁ባስ	-5699
▁ብዛ	-5700
▁እብ	-5701
▁ከጋ	-5702
▁የሻ	-5703
▁የኀ	-5704
▁ዮአ	-5705
▁ጠፋ	-5706
ለዋል፤	-5707
ራውያን	-5708
ቶአል።	-5709
ነታቸው	-5710
ገባቸው	-5711
ገናኘው	-5712
▁ሂድ፤	-5713
▁ሄደህ	-5714
▁ለመግ	-5715
▁ለሙሴ	-5716
▁ላለው	-5717
▁ላሞች	-5718
▁ላከ፥	-5719
▁መንሻ	-5720
▁ማርያ	-5721
▁ሲነጋ	-5722
▁ሳለ፥	-5723
▁በለስ	-5724
▁በቅጥ	-5725
▁በታቦ	-5726
▁በወይ	-5727
▁በጽኑ	-5728
▁በፈር	-5729
▁ተዋጋ	-5730
▁ትሠራ	-5731
▁ነን።	-5732
▁ነን፤	-5733
▁አሜን	-5734
▁ኢዮብ	-5735
▁ከእጁ	-5736
▁ከፊቴ	-5737
▁ወልደ	-5738
▁ዘንግ	-5739
▁የቀደ	-5740
▁የተጻ	-5741
▁ያበዛ	-5742
▁ያወጡ	-5743
▁ይስማ	-5744
▁ይቀድ	-5745
▁ይከተ	-5746
▁ጎዶል	-5747
▁ፀነሰ	-5748
▁ፍርሃ	-5749
ልሃለሁ፥	-5750
ቶቻችሁም	-5751
▁ለሌሎች	-5752
▁ለንጉሥ	-5753
▁ለእኔም	-5754
▁ሊባኖስ	-5755
▁መዝጊያ	-5756
▁ራሱንም	-5757
▁በሕያው	-5758
▁በአንደ	-5759
▁በወንዝ	-5760
▁በዕድሜ	-5761
▁በጥበብ	-5762
▁ንጉሥ።	-5763
▁አላቸው	-5764
▁አስተማ	-5765
▁አውጥቶ	-5766
▁አይሆን	-5767
▁እለምና	-5768
▁ከሆነ፥	-5769
▁ከከተማ	-5770
▁ክፉዎች	-5771
▁የመጠጥ	-5772
▁የሚያሳ	-5773
▁የምናሴ	-5774
▁የዝግባ	-5775
▁ይጨምር	-5776
▁ጥቂቶች	-5777
▁በምዕራብ	-5778
▁በተራሮች	-5779
▁በተቀደሰ	-5780
▁ነጋዴዎች	-5781
▁አላደረገ	-5782
▁አልሁት።	-5783
▁አልወደደ	-5784
▁አምላክ፥	-5785
▁እርስዋን	-5786
▁እነዚያም	-5787
▁እንደሌለ	-5788
▁ከባቢሎን	-5789
▁ከኤፍሬም	-5790
▁የሚያህል	-5791
▁የምትኖሩ	-5792
▁የምድርን	-5793
▁የቀረውን	-5794
▁የተባለች	-5795
▁የዘንባባ	-5796
▁ያገለግሉ	-5797
▁ይለዋል፤	-5798
▁ይሻላል።	-5799
▁ፈረሰኞች	-5800
▁ሌዋውያኑም	-5801
▁በተራራማው	-5802
▁አደርጋለሁ	-5803
▁ኢዮርብዓም	-5804
▁የሚያገለግ	-5805
▁አደርጋለሁ፥	-5806
▁እለምንሃለሁ	-5807
ሊባ	-5808
ልዳ	-5809
ሕተ	-5810
ሞቴ	-5811
ሩክ	-5812
ሴይ	-5813
ቀህ	-5814
ቆማ	-5815
ባቱ	-5816
ነፈ	-5817
ወጥ	-5818
ውሬ	-5819
ዎቼ	-5820
ያፊ	-5821
ገው	-5822
ግን	-5823
ጣሉ	-5824
ፋም	-5825
ፍም	-5826
ፍዋ	-5827
ሄድ፥	-5828
ሙትም	-5829
ምረው	-5830
ሴቦን	-5831
ስማት	-5832
ሻል፥	-5833
ቀውም	-5834
ቈጠሩ	-5835
ቶችዋ	-5836
ችሁት	-5837
ችበት	-5838
ንቀት	-5839
አት፥	-5840
ከማቹ	-5841
ይማኖ	-5842
ገባ፥	-5843
ገናኛ	-5844
ግባ።	-5845
ፍታሌ	-5846
▁ሄኖ	-5847
▁ለከ	-5848
▁ሰድ	-5849
▁በቂ	-5850
▁በኮ	-5851
▁በጋ	-5852
▁ቤዛ	-5853
▁ታወ	-5854
▁ትክ	-5855
▁አከ	-5856
▁አጸ	-5857
▁እታ	-5858
▁ከጭ	-5859
▁ይራ	-5860
▁ድብ	-5861
▁ግደ	-5862
ሃቸው።	-5863
ላችሁና	-5864
ሠሩትን	-5865
ሥራቅም	-5866
ሳቸው።	-5867
ብሃል።	-5868
ቶችንም	-5869
ቻችንም	-5870
ኋቸው፤	-5871
ጣቸው።	-5872
ጽናናት	-5873
▁ሁኑ።	-5874
▁ለማጥ	-5875
▁ልቡም	-5876
▁ሐሤት	-5877
▁መበለ	-5878
▁መከር	-5879
▁ምጽጳ	-5880
▁ራሔል	-5881
▁ሰገዱ	-5882
▁በሰገ	-5883
▁በሲና	-5884
▁በጥሩ	-5885
▁ተገል	-5886
▁ተገኘ	-5887
▁ተገኝ	-5888
▁ተገዙ	-5889
▁ታገኛ	-5890
▁አማካ	-5891
▁አሦር	-5892
▁አዛዥ	-5893
▁እባብ	-5894
▁ከሞተ	-5895
▁ከሠራ	-5896
▁ከፈተ	-5897
▁ክፉም	-5898
▁ዓረባ	-5899
▁የሚነ	-5900
▁የርስ	-5901
▁የቤት	-5902
▁የተሳ	-5903
▁የወጡ	-5904
▁የዮና	-5905
▁የጠላ	-5906
▁ያፍራ	-5907
▁ይስጥ	-5908
▁ይችላ	-5909
▁ይጸና	-5910
▁ይፈራ	-5911
▁ድርሻ	-5912
▁ጀርባ	-5913
▁ጸንቶ	-5914
ልስጥኤም	-5915
ባቸውንም	-5916
▁ለብሰው	-5917
▁ለካህኑ	-5918
▁ሌላውን	-5919
▁ሕያዋን	-5920
▁መርከብ	-5921
▁መብራት	-5922
▁ምስጉን	-5923
▁ሮብዓም	-5924
▁ሰይጣን	-5925
▁ቃሉንም	-5926
▁በብርቱ	-5927
▁በታንኳ	-5928
▁በከተሞ	-5929
▁ባለጠጋ	-5930
▁ባደረግ	-5931
▁ተናገሩ	-5932
▁ተደረገ	-5933
▁ኃይልን	-5934
▁ንጉሥም	-5935
▁አላወቁ	-5936
▁አላገኙ	-5937
▁አልበላ	-5938
▁አመጡ።	-5939
▁አሮንና	-5940
▁አስብ።	-5941
▁አስተው	-5942
▁አስቴር	-5943
▁አስገባ	-5944
▁አይሰማ	-5945
▁አፈሰሰ	-5946
▁እሳትን	-5947
▁ከሁለቱ	-5948
▁ከንፈር	-5949
▁ከፊትህ	-5950
▁ካለችው	-5951
▁ኬብሮን	-5952
▁ወረደ።	-5953
▁ወደቁ።	-5954
▁የሚሆኑ	-5955
▁የራሱን	-5956
▁ይሆናሉ	-5957
▁ይላል፤	-5958
▁ይበልጣ	-5959
▁ይዘረጋ	-5960
▁ጌታችን	-5961
▁ጽላቶች	-5962
▁መርከቦች	-5963
▁ሰማይንና	-5964
▁በኃጢአት	-5965
▁በአይሁድ	-5966
▁ተባባሉ።	-5967
▁አልተገኘ	-5968
▁አባታችሁ	-5969
▁አንዳችም	-5970
▁አድርጉ።	-5971
▁እሄዳለሁ	-5972
▁እስኪሞት	-5973
▁እንጀራም	-5974
▁ወይፈን፥	-5975
▁የቀሩትም	-5976
▁የብንያም	-5977
▁የተመረጡ	-5978
▁ይጠፋል።	-5979
▁ለአምላክህ	-5980
▁ልጆቻቸውን	-5981
▁አባቶቻቸው	-5982
▁አታውቁምን	-5983
▁እንደሚሆን	-5984
▁የንጉሡንም	-5985
▁ባልንጀራውን	-5986
▁አምላካችሁን	-5987
▁የሚቃጠለውንም	-5988
ለጋ	-5989
ላፊ	-5990
መሩ	-5991
መ፥	-5992
ሰነ	-5993
ሰኝ	-5994
ሰዳ	-5995
ሴስ	-5996
ስጦ	-5997
ቤት	-5998
ተኸ	-5999
ታስ	-6000
ቻል	-6001
ኃሚ	-6002
ኃያ	-6003
ኒ፥	-6004
ኝታ	-6005
ኩስ	-6006
ዕሤ	-6007
ዘነ	-6008
ዘኑ	-6009
ደን	-6010
ገፋ	-6011
ጠቡ	-6012
ጫወ	-6013
▁ዑ	-6014
ላም፥	-6015
ማሉ፤	-6016
ርትራ	-6017
ሶንም	-6018
ባል፤	-6019
ባት፤	-6020
ቱም፥	-6021
ታዊው	-6022
ቶች፥	-6023
ንያ፥	-6024
አት፤	-6025
ኤልን	-6026
ኸኝ።	-6027
ዶክዮ	-6028
ገናኙ	-6029
ገድል	-6030
ጸድቅ	-6031
ፍራጥ	-6032
▁ለሞ	-6033
▁መተ	-6034
▁ረገ	-6035
▁ቀባ	-6036
▁ቀኑ	-6037
▁በች	-6038
▁በዔ	-6039
▁በጻ	-6040
▁ተሠ	-6041
▁ተሾ	-6042
▁ተቆ	-6043
▁ነግ	-6044
▁እሺ	-6045
▁እከ	-6046
▁ክቡ	-6047
▁የሲ	-6048
▁የቄ	-6049
▁የጎ	-6050
▁ይጭ	-6051
▁ጀመ	-6052
▁ጌል	-6053
▁ጎቶ	-6054
ልሃለሁ	-6055
ማለሁ፤	-6056
ስማቸው	-6057
ቄዶንያ	-6058
ኋችሁ።	-6059
ኛልና።	-6060
ዋለህ፥	-6061
ዶንያስ	-6062
ጣቸውን	-6063
ፍሬምም	-6064
▁ለብዙ	-6065
▁ልቡን	-6066
▁መጽሐ	-6067
▁ሚስቱ	-6068
▁ማልዶ	-6069
▁ረጅም	-6070
▁ርኵሰ	-6071
▁ሰሜን	-6072
▁ሰፈሩ	-6073
▁ስንት	-6074
▁ስድስ	-6075
▁ሺህ፥	-6076
▁ቀስት	-6077
▁ቆመ።	-6078
▁በበዓ	-6079
▁በተን	-6080
▁በአገ	-6081
▁በኣል	-6082
▁በግ፥	-6083
▁ባወጣ	-6084
▁ተሰማ	-6085
▁ተገረ	-6086
▁ተጓዙ	-6087
▁ንግሥ	-6088
▁አሉ፥	-6089
▁አራቱ	-6090
▁አሮጌ	-6091
▁እልከ	-6092
▁እወዳ	-6093
▁ከበር	-6094
▁ውበት	-6095
▁ውኃን	-6096
▁ዕውር	-6097
▁የልጆ	-6098
▁የቂጣ	-6099
▁ያቅር	-6100
▁ያገኙ	-6101
▁ይለው	-6102
▁ይከፍ	-6103
▁ይፈጽ	-6104
▁ገቡ፤	-6105
▁ጋር፥	-6106
▁ግልገ	-6107
▁ግንድ	-6108
▁ግዛት	-6109
▁ጭልፋ	-6110
ላቸውም፥	-6111
ቶቻችንም	-6112
▁ልጅንም	-6113
▁መናገር	-6114
▁ሙሴም።	-6115
▁ማኅተም	-6116
▁ሠራተኛ	-6117
▁ሰማርያ	-6118
▁ስለምን	-6119
▁በምሳሌ	-6120
▁በብልሃ	-6121
▁በአባቴ	-6122
▁በደለኛ	-6123
▁ብላቴኖ	-6124
▁ብትሆን	-6125
▁ትወስዳ	-6126
▁ናችሁ፤	-6127
▁አንበጣ	-6128
▁አያውቅ	-6129
▁አድራጊ	-6130
▁አጥንት	-6131
▁እንደም	-6132
▁ከወርቅ	-6133
▁ከዓለም	-6134
▁ወረደ፥	-6135
▁ወንዞች	-6136
▁ውሰድ፥	-6137
▁ዘርግቶ	-6138
▁የበኵር	-6139
▁የባሕር	-6140
▁የአሞን	-6141
▁የጽዮን	-6142
▁ይመልሳ	-6143
▁ይስሐቅ	-6144
▁ይነግሣ	-6145
▁ይጠብቅ	-6146
▁ይፈልጋ	-6147
▁ደሴቶች	-6148
▁ጠብቅ።	-6149
▁ፈራጆች	-6150
ላችኋለሁ።	-6151
ቡከደነፆር	-6152
▁መንግሥተ	-6153
▁መዛግብት	-6154
▁መጥተው።	-6155
▁ሴቶችንም	-6156
▁ቀርበው።	-6157
▁በላያችን	-6158
▁በሌለበት	-6159
▁በመጨረሻ	-6160
▁በቅንነት	-6161
▁በይሁዳና	-6162
▁ኃጢአትም	-6163
▁አመሰግና	-6164
▁አመስግኑ	-6165
▁አንዳንድ	-6166
▁አካዝያስ	-6167
▁አይሁዳዊ	-6168
▁እርሱንና	-6169
▁እስኪመጣ	-6170
▁እንዳልተ	-6171
▁እንዳይወ	-6172
▁ከዋክብት	-6173
▁የሚያውቅ	-6174
▁የሳኦልም	-6175
▁የተቀመጠ	-6176
▁የተባለው	-6177
▁የተናገረ	-6178
▁የእህሉን	-6179
▁ይህችንም	-6180
▁ይመጣል፤	-6181
▁ለሌዋውያን	-6182
▁በኤዶምያስ	-6183
▁ተከተሉት።	-6184
▁አውቃለሁ።	-6185
▁አይሆንም።	-6186
▁አይደላችሁ	-6187
▁አደረገው።	-6188
▁እነዚህንም	-6189
▁እንደዚህም	-6190
▁የባቢሎንም	-6191
▁የአሕዛብን	-6192
▁ያደርጋል፥	-6193
▁ሁለተኛውንም	-6194
▁የተቀደሰውን	-6195
ሌብ	-6196
ሌን	-6197
ሥታ	-6198
ረሱ	-6199
ሬብ	-6200
ርዓ	-6201
ሰኘ	-6202
ሰኛ	-6203
ስሁ	-6204
ሽና	-6205
ቤም	-6206
ቤዥ	-6207
ኒም	-6208
ናፍ	-6209
አዛ	-6210
ከለ	-6211
ካል	-6212
ክሮ	-6213
ዔል	-6214
ዝዝ	-6215
ይና	-6216
ጕረ	-6217
ጠት	-6218
ጡን	-6219
ጥሮ	-6220
ጦፌ	-6221
▁ሩ	-6222
ሉአት	-6223
ልህ፥	-6224
ልም።	-6225
ልን።	-6226
ልን፥	-6227
መልክ	-6228
ረው፥	-6229
ርባን	-6230
ሰሙ፥	-6231
ቀም።	-6232
ቀረቡ	-6233
ቀውን	-6234
ቃወም	-6235
በስብ	-6236
ባል።	-6237
ነገር	-6238
ናወን	-6239
ንበት	-6240
ዎንም	-6241
ያቸው	-6242
ዮችም	-6243
ዲህም	-6244
ድራት	-6245
ዶችን	-6246
ገቡት	-6247
ግተው	-6248
ጣል፤	-6249
ጨነቁ	-6250
ጸያፊ	-6251
ጹምም	-6252
ፈሩም	-6253
ፉትን	-6254
▁ሐማ	-6255
▁ሰቅ	-6256
▁ሰፊ	-6257
▁ሲሉ	-6258
▁ቀበ	-6259
▁ቅረ	-6260
▁በሳ	-6261
▁በዐ	-6262
▁በዖ	-6263
▁በይ	-6264
▁ቢሰ	-6265
▁ከሸ	-6266
▁ከጌ	-6267
▁ዝን	-6268
▁የቢ	-6269
▁ይሹ	-6270
▁ዲዳ	-6271
▁ገላ	-6272
▁ገረ	-6273
▁ገዢ	-6274
▁ግቢ	-6275
▁ጕብ	-6276
ሆናችሁ	-6277
ለታል፤	-6278
ለታል፥	-6279
ስሐቅም	-6280
በትም፤	-6281
ተኛይቱ	-6282
ታልና፥	-6283
ቶችህም	-6284
ዋልና፤	-6285
ገደሉት	-6286
▁ለልጁ	-6287
▁ለብሶ	-6288
▁መጥቼ	-6289
▁መጻሕ	-6290
▁ምላስ	-6291
▁ምድራ	-6292
▁ሞተ፤	-6293
▁ሲወጣ	-6294
▁ስትል	-6295
▁ቀርባ	-6296
▁ቀኑን	-6297
▁በመታ	-6298
▁በመዝ	-6299
▁በቃል	-6300
▁በበት	-6301
▁በአሥ	-6302
▁በአሳ	-6303
▁በወጡ	-6304
▁በዳር	-6305
▁በግን	-6306
▁በጣም	-6307
▁ቡሩክ	-6308
▁ቡቃያ	-6309
▁ባሮክ	-6310
▁ቤቴል	-6311
▁ቤትህ	-6312
▁ተቀደ	-6313
▁ተናወ	-6314
▁ትመጣ	-6315
▁ትርጓ	-6316
▁ትንሽ	-6317
▁አምጣ	-6318
▁አሰኘ	-6319
▁አሳድ	-6320
▁አትን	-6321
▁አእላ	-6322
▁አየ፥	-6323
▁እርዳ	-6324
▁እናስ	-6325
▁እኛን	-6326
▁እኵሌ	-6327
▁ከሥራ	-6328
▁ከብት	-6329
▁ወስዳ	-6330
▁ወዳጄ	-6331
▁የመረ	-6332
▁የቀኝ	-6333
▁የእን	-6334
▁የጽሩ	-6335
▁ያውቅ	-6336
▁ያድር	-6337
▁ይህስ	-6338
▁ይሞላ	-6339
▁ይከብ	-6340
▁ደስም	-6341
▁ደንቆ	-6342
▁ጃግሬ	-6343
▁ፈረስ	-6344
▁ፈራጅ	-6345
ውያንንም	-6346
ገባቸውም	-6347
▁ሁለቱ፤	-6348
▁ለዮሴፍ	-6349
▁ሐሰትን	-6350
▁ሥራቸው	-6351
▁ሳኦልን	-6352
▁ስለምት	-6353
▁በውኃም	-6354
▁ብንያም	-6355
▁ተወለዱ	-6356
▁ተፈጸመ	-6357
▁ታላቅም	-6358
▁ነቢዩም	-6359
▁ነገርም	-6360
▁አለቀሰ	-6361
▁አለፈ፥	-6362
▁አቅርቡ	-6363
▁አክዓብ	-6364
▁አይጠፋ	-6365
▁አግኝቶ	-6366
▁እዘረጋ	-6367
▁ከዋክብ	-6368
▁ከፈሪሳ	-6369
▁ኪዳኑን	-6370
▁ዕቃዎች	-6371
▁የለምና	-6372
▁የሚያን	-6373
▁የሰረገ	-6374
▁የሳኦል	-6375
▁የተሞላ	-6376
▁የተረገ	-6377
▁የዔሳው	-6378
▁ይባረክ	-6379
▁ዮሴፍን	-6380
▁ድምፁን	-6381
▁ጐበዛዝ	-6382
▁ጽሕፈት	-6383
አብርሃምና	-6384
▁ልጆቹንም	-6385
▁ልጆቻቸው	-6386
▁መልሰው።	-6387
▁ማሰማርያ	-6388
▁ምሕረትህ	-6389
▁ምርኮኞች	-6390
▁በለዓምም	-6391
▁በሕይወቱ	-6392
▁በብንያም	-6393
▁በየዓመቱ	-6394
▁በግብፅም	-6395
▁ተቀመጡ፤	-6396
▁ንጉሡን።	-6397
▁አብራምም	-6398
▁አንተም፥	-6399
▁እንዲያስ	-6400
▁እንዳያስ	-6401
▁ከይሁዳም	-6402
▁ወይፈኖች	-6403
▁ወዮላቸው	-6404
▁የሚያምን	-6405
▁የሚያውቁ	-6406
▁የሚጠብቁ	-6407
▁የአባቱን	-6408
▁የአደባባ	-6409
▁የዳዊትን	-6410
▁ይወጣል፤	-6411
▁ይገደል።	-6412
▁መርዶክዮስ	-6413
▁በሕይወትም	-6414
▁በማደሪያው	-6415
▁ባለጠግነት	-6416
▁ትሆናለች፤	-6417
▁አይችልም።	-6418
▁እንድትሆን	-6419
▁ከከተማይቱ	-6420
▁ክርስቶስም	-6421
▁ወንዶችንም	-6422
▁ፈሪሳውያን	-6423
▁ከእንግዲህም	-6424
ልፈ	-6425
መ።	-6426
ሚም	-6427
ረጀ	-6428
ርሰ	-6429
ርሻ	-6430
ሱና	-6431
ሹም	-6432
በክ	-6433
ችሉ	-6434
ዘር	-6435
ዙን	-6436
ይ።	-6437
ይ፤	-6438
ዳር	-6439
ዴም	-6440
ዴቅ	-6441
ጐበ	-6442
ጠየ	-6443
ጭድ	-6444
ፎቹ	-6445
ሁትም	-6446
ለህና	-6447
መለመ	-6448
መልጥ	-6449
ማትም	-6450
ምራዊ	-6451
ረክሱ	-6452
ርንች	-6453
ሰማ፥	-6454
ሰብክ	-6455
ሳል።	-6456
ሳደድ	-6457
ሳድዱ	-6458
ቃል፥	-6459
ቅበዘ	-6460
ባሉ።	-6461
ችም፤	-6462
ናልና	-6463
ናን፥	-6464
ንተው	-6465
ዊቱም	-6466
ገናኝ	-6467
ፋይም	-6468
▁ሄድ	-6469
▁ለሐ	-6470
▁ለዔ	-6471
▁ልከ	-6472
▁ሜሱ	-6473
▁ምጽ	-6474
▁ሩቅ	-6475
▁ሰሎ	-6476
▁በኩ	-6477
▁ተረ	-6478
▁ተኣ	-6479
▁ታጠ	-6480
▁ትሻ	-6481
▁አዎ	-6482
▁አዩ	-6483
▁ኤዊ	-6484
▁እሸ	-6485
▁እበ	-6486
▁ከዕ	-6487
▁ወጭ	-6488
▁ውሸ	-6489
▁ዕራ	-6490
▁የኦ	-6491
▁ያዋ	-6492
▁ያፈ	-6493
▁ይጋ	-6494
▁ገል	-6495
▁ጠፍ	-6496
▁ጤና	-6497
▁ጥር	-6498
ልሃል፤	-6499
መሰክራ	-6500
ማለሁ።	-6501
ራቸው፤	-6502
ቃጠልም	-6503
ኋቸው፥	-6504
ደርጉ፥	-6505
ጠብቅ፥	-6506
▁ለኢየ	-6507
▁ልዑል	-6508
▁ሕፃኑ	-6509
▁መዳን	-6510
▁ሰይጣ	-6511
▁ሴኬም	-6512
▁ስእለ	-6513
▁ቈረጠ	-6514
▁በመረ	-6515
▁በምስ	-6516
▁በሴሎ	-6517
▁በበታ	-6518
▁በበጎ	-6519
▁በጕል	-6520
▁በጣዖ	-6521
▁ብልህ	-6522
▁ታምነ	-6523
▁ታወጣ	-6524
▁ትርፍ	-6525
▁ትነግ	-6526
▁አልሰ	-6527
▁አዋቂ	-6528
▁አውቀ	-6529
▁አዴር	-6530
▁አድኖ	-6531
▁አጽና	-6532
▁እገባ	-6533
▁እፍረ	-6534
▁ከለከ	-6535
▁ከሞት	-6536
▁ከዳን	-6537
▁ወይራ	-6538
▁ወዳሉ	-6539
▁ውኃው	-6540
▁ዔሳው	-6541
▁ዕንቅ	-6542
▁የሚሉ	-6543
▁የምስ	-6544
▁የሰለ	-6545
▁የቤተ	-6546
▁የታመ	-6547
▁የኃይ	-6548
▁የአቢ	-6549
▁የኢን	-6550
▁የዕጣ	-6551
▁የጸና	-6552
▁ያድን	-6553
▁ይተኛ	-6554
▁ይዘህ	-6555
▁ይፈጸ	-6556
▁ደምን	-6557
▁ደንግ	-6558
▁ጀምሬ	-6559
▁ገበሬ	-6560
▁ግብጻ	-6561
▁ጢሞቴ	-6562
ብራውያን	-6563
ዎቻቸውም	-6564
▁ሁለት።	-6565
▁ሄዳችሁ	-6566
▁ለማየት	-6567
▁ለጌታዬ	-6568
▁ሌላውም	-6569
▁ልጃችሁ	-6570
▁ሚክያስ	-6571
▁ስፍራው	-6572
▁ቁመቱም	-6573
▁ቃልህን	-6574
▁ቅንዓት	-6575
▁በአራቱ	-6576
▁በእኔም	-6577
▁ባልንጀ	-6578
▁ባይሆን	-6579
▁ብርታት	-6580
▁ብቻዬን	-6581
▁ተናግረ	-6582
▁ታላላቅ	-6583
▁ታላላቆ	-6584
▁ትርጓሜ	-6585
▁ነበረች	-6586
▁ነፍስህ	-6587
▁ንጹሐን	-6588
▁ንጹሕም	-6589
▁አሥራት	-6590
▁አስመጣ	-6591
▁አበኔር	-6592
▁አገሮች	-6593
▁አግኝቼ	-6594
▁እሰድዳ	-6595
▁እንስት	-6596
▁እንደማ	-6597
▁እያለቀ	-6598
▁ከሆነው	-6599
▁ከሚኖሩ	-6600
▁ከምድረ	-6601
▁ከአባቴ	-6602
▁ከወለደ	-6603
▁ወርቅና	-6604
▁ወደቀ፥	-6605
▁የሆኑት	-6606
▁የሚሠሩ	-6607
▁የሚገዛ	-6608
▁የረከሰ	-6609
▁የሮቤል	-6610
▁የሰሎሞ	-6611
▁የተባለ	-6612
▁የነገር	-6613
▁የከነዓ	-6614
▁ይህችም	-6615
▁ይመለሱ	-6616
▁ደማስቆ	-6617
▁ጠቢባን	-6618
▁ለሕዝቡም	-6619
▁ልብሱንም	-6620
▁ሐዋርያት	-6621
▁መታጠቂያ	-6622
▁ሥርዓትና	-6623
▁ቈነጃጅት	-6624
▁ቍርባን፥	-6625
▁በመጽሐፍ	-6626
▁በሰማይም	-6627
▁በስፍራው	-6628
▁በሸለቆው	-6629
▁በነቢያት	-6630
▁በየትውል	-6631
▁በደቡብም	-6632
▁በድንኳኑ	-6633
▁በፍጹምም	-6634
▁ተናገረ፤	-6635
▁ነበሩት።	-6636
▁አለቻት።	-6637
▁አስጸያፊ	-6638
▁አታድርግ	-6639
▁አኖረው።	-6640
▁አክዓብም	-6641
▁አድርግ፥	-6642
▁ከመካከል	-6643
▁ከኃጢአት	-6644
▁ከፈርዖን	-6645
▁ዓይኖችህ	-6646
▁የሌለበት	-6647
▁የምስጋና	-6648
▁የንጉሡም	-6649
▁የአሞንም	-6650
▁ያመሰግኑ	-6651
▁ጠየቁት።	-6652
▁ለማገልገል	-6653
▁መሥዋዕትን	-6654
▁መንግሥቱን	-6655
▁በመንገድም	-6656
▁በአደባባይ	-6657
▁አልሰማችሁ	-6658
▁አባቶቻችሁ	-6659
▁አባቶቻችን	-6660
▁አይደሉምን	-6661
▁አገልጋዮች	-6662
▁እስትንፋስ	-6663
▁የኤዶምያስ	-6664
▁ይላቸዋል።	-6665
▁መልእክተኞች	-6666
▁በአንድነትም	-6667
▁ታቀርባላችሁ።	-6668
▁እግዚአብሔርን።	-6669
ለፉ	-6670
ሊታ	-6671
ልቁ	-6672
ሕም	-6673
ማፀ	-6674
ምሳ	-6675
ሪው	-6676
ሮና	-6677
ሳል	-6678
ቀሩ	-6679
ቀጣ	-6680
ቋጦ	-6681
በች	-6682
ባበ	-6683
ባጥ	-6684
ተራ	-6685
ተከ	-6686
ነዌ	-6687
ካር	-6688
ክሪ	-6689
ዋና	-6690
ዝሬ	-6691
ዳራ	-6692
ዳቋ	-6693
ገሡ	-6694
ገን	-6695
ግ፥	-6696
ጕን	-6697
ፍ።	-6698
▁ፉ	-6699
ለሽ፤	-6700
ላሉ፤	-6701
ላትያ	-6702
ልም፤	-6703
ልዓዛ	-6704
መድም	-6705
ማለሁ	-6706
ረው፤	-6707
ሪቱም	-6708
ርየት	-6709
ሱንና	-6710
ስረያ	-6711
ሻገር	-6712
ተኛም	-6713
ወደው	-6714
ዛብሎ	-6715
የውን	-6716
ጆቹም	-6717
ገልገ	-6718
ገረዘ	-6719
ጨነቅ	-6720
ጸልያ	-6721
ፈቀደ	-6722
▁ለገ	-6723
▁ላል	-6724
▁ላባ	-6725
▁ሹም	-6726
▁ቀላ	-6727
▁ቆር	-6728
▁በሽ	-6729
▁በቆ	-6730
▁በኀ	-6731
▁ተጐ	-6732
▁ትበ	-6733
▁አዶ	-6734
▁እጨ	-6735
▁ከረ	-6736
▁ከቃ	-6737
▁ከቅ	-6738
▁ከዝ	-6739
▁ከጻ	-6740
▁ወታ	-6741
▁የሆ	-6742
▁ይግ	-6743
▁ደሙ	-6744
▁ደቦ	-6745
▁ዲና	-6746
▁ግባ	-6747
▁ጕን	-6748
▁ጡት	-6749
▁ጥሎ	-6750
▁ጥፋ	-6751
ሃልና።	-6752
ሄድበት	-6753
ለትም፤	-6754
ለችና።	-6755
መላለስ	-6756
ምራዊም	-6757
ቀመጡት	-6758
ቀበለው	-6759
በታል፥	-6760
ቤሴሎም	-6761
ተኛውን	-6762
ታላችሁ	-6763
ቻለሁ፥	-6764
ችንንም	-6765
ዎቻቸው	-6766
ያብሎስ	-6767
ጌልገላ	-6768
▁ሀብት	-6769
▁ሆነን	-6770
▁ለምጻ	-6771
▁ለምጽ	-6772
▁ላባም	-6773
▁ላኩ።	-6774
▁ልቤም	-6775
▁ልቤን	-6776
▁መታ፤	-6777
▁መዓት	-6778
▁ሞዓባ	-6779
▁ራሴን	-6780
▁ርስቱ	-6781
▁ሰጠ፥	-6782
▁ስለሌ	-6783
▁ስማ፥	-6784
▁ቀልጦ	-6785
▁ቀኖች	-6786
▁ቅጣት	-6787
▁በመዓ	-6788
▁በራሴ	-6789
▁በቀል	-6790
▁በአፌ	-6791
▁በጸና	-6792
▁ተነጋ	-6793
▁ተጠመ	-6794
▁ታለቅ	-6795
▁ትመስ	-6796
▁ትወጣ	-6797
▁ትገባ	-6798
▁ትገዛ	-6799
▁አላው	-6800
▁አመድ	-6801
▁አሞን	-6802
▁አሳይ	-6803
▁አብድ	-6804
▁አታም	-6805
▁አትብ	-6806
▁አትች	-6807
▁አነበ	-6808
▁አወጡ	-6809
▁አድን	-6810
▁እመጣ	-6811
▁እሰማ	-6812
▁እሰጠ	-6813
▁እቀጣ	-6814
▁እንባ	-6815
▁ከማኅ	-6816
▁ከቤት	-6817
▁ኵላሊ	-6818
▁ወርቁ	-6819
▁ወንበ	-6820
▁ወድዶ	-6821
▁የተረ	-6822
▁የተራ	-6823
▁የነዌ	-6824
▁የአራ	-6825
▁የጠቢ	-6826
▁ያመነ	-6827
▁ያገኘ	-6828
▁ያጠፉ	-6829
▁ይብላ	-6830
▁ይገቡ	-6831
▁ይገኛ	-6832
▁ይጠይ	-6833
▁ድሆች	-6834
▁ገለዓ	-6835
▁ጕብጕ	-6836
▁ጨረቃ	-6837
▁ፈተና	-6838
ላችኋል፤	-6839
ቶቻችሁን	-6840
ቻችሁንም	-6841
አቸውም።	-6842
አቸውንም	-6843
ያንዳንዱ	-6844
▁ሄሮድስ	-6845
▁ለአሮን	-6846
▁ሕዝብን	-6847
▁ሚስቱም	-6848
▁ምድሩን	-6849
▁ሰዎችና	-6850
▁ሳንቆች	-6851
▁በሆነው	-6852
▁በላዩም	-6853
▁በማዕድ	-6854
▁በሠላሳ	-6855
▁በርናባ	-6856
▁በሳኦል	-6857
▁በሶርያ	-6858
▁በቀረበ	-6859
▁በባሕሩ	-6860
▁በተነሣ	-6861
▁በአልጋ	-6862
▁በዚህና	-6863
▁በጎነት	-6864
▁ቢኖር፥	-6865
▁ተቀብሎ	-6866
▁ንጉሡና	-6867
▁አልተወ	-6868
▁አመንዝ	-6869
▁አቁማዳ	-6870
▁አንገት	-6871
▁አደሰ።	-6872
▁እነግራ	-6873
▁እንሄዳ	-6874
▁ከምናሴ	-6875
▁ከሰፈሩ	-6876
▁ከሶርያ	-6877
▁ከተማም	-6878
▁ከግራር	-6879
▁ወተትና	-6880
▁ወንድማ	-6881
▁ውሰድ፤	-6882
▁ዕውሮች	-6883
▁የሕዝብ	-6884
▁የመከራ	-6885
▁የሚሉት	-6886
▁የሚናገ	-6887
▁የሚያም	-6888
▁የሰውም	-6889
▁የተረፈ	-6890
▁የአሥራ	-6891
▁የካህና	-6892
▁የዮዳሄ	-6893
▁የፈጠረ	-6894
▁ያዘዘው	-6895
▁ይሁኑ፤	-6896
▁ድንገት	-6897
▁ጌልገላ	-6898
▁ፈጥነህ	-6899
▁ፍጥረት	-6900
ለዳውያንም	-6901
▁ሕይወትን	-6902
▁ሰሎሞንን	-6903
▁ሰውዮውም	-6904
▁ስምህንም	-6905
▁በሬዎች፥	-6906
▁በሰይፍና	-6907
▁በስምንተ	-6908
▁በኬብሮን	-6909
▁በግምባሩ	-6910
▁ባሪያውን	-6911
▁ተመለከት	-6912
▁ተግሣጽን	-6913
▁ነበረች፥	-6914
▁አቀረቡ።	-6915
▁አገልግሎ	-6916
▁ኤልያስም	-6917
▁እንደዚያ	-6918
▁እንዲኖር	-6919
▁እንጀራና	-6920
▁ከሰማይም	-6921
▁ወዳለችው	-6922
▁የመድኃኒ	-6923
▁የቀሩትን	-6924
▁ይወጣል።	-6925
▁ይጠፋሉ።	-6926
▁ጕልማሶች	-6927
▁ጠየቀው።	-6928
▁ጳውሎስም	-6929
▁ፈጽማችሁ	-6930
▁ልጆቻቸውም	-6931
▁መሠዊያውን	-6932
▁ስምንተኛው	-6933
▁ታደርጋለህ	-6934
▁ኃጢአትንም	-6935
▁እሰጣለሁ።	-6936
▁እስኪፈጸም	-6937
▁እንደሚገባ	-6938
▁ከወንድሞቹ	-6939
▁የሌለበትን	-6940
▁የዘላለምን	-6941
▁የይሁዳንም	-6942
▁ለአምላካችን	-6943
▁የተቀመጡትን	-6944
▁በፍልስጥኤማውያን	-6945
ሞተ	-6946
ሮም	-6947
ሮጥ	-6948
ቁሔ	-6949
ቃይ	-6950
ቈረ	-6951
ቢስ	-6952
ቤር	-6953
ተዉ	-6954
ንጆ	-6955
ኦስ	-6956
ከም	-6957
ከና	-6958
ኪሶ	-6959
ዬና	-6960
ይዓ	-6961
ዳት	-6962
ገሠ	-6963
ፃን	-6964
ፋጥ	-6965
ህም፥	-6966
ላውም	-6967
መቂያ	-6968
ሮንን	-6969
ሰለት	-6970
ሰጠው	-6971
ሳሉ፥	-6972
ሳዊው	-6973
ቤልና	-6974
ተዋል	-6975
ታንና	-6976
ቶችሽ	-6977
ችሁ።	-6978
ችም።	-6979
ችን፥	-6980
ንዘብ	-6981
ከብር	-6982
ውጣት	-6983
ያምን	-6984
ዳችን	-6985
ግልና	-6986
ጣል፥	-6987
ፍርና	-6988
▁ሂጂ	-6989
▁ለጎ	-6990
▁ለጠ	-6991
▁ሕያ	-6992
▁ሕጌ	-6993
▁ማስ	-6994
▁ምር	-6995
▁ሠዋ	-6996
▁ሣራ	-6997
▁ረስ	-6998
▁ሳዶ	-6999
▁ቈረ	-7000
▁በዲ	-7001
▁ተቃ	-7002
▁ናታ	-7003
▁ናዳ	-7004
▁አሻ	-7005
▁አሽ	-7006
▁አዞ	-7007
▁ከሮ	-7008
▁ከቆ	-7009
▁ከካ	-7010
▁ከዔ	-7011
▁ኪስ	-7012
▁ዋና	-7013
▁የሙ	-7014
▁የጨ	-7015
▁ያዳ	-7016
▁ያድ	-7017
▁ይሽ	-7018
▁ይቻ	-7019
▁ግማ	-7020
ልጥግና	-7021
ሳችሁም	-7022
ሻለሁ።	-7023
ቀርበው	-7024
ቀበሉት	-7025
ባታል።	-7026
ብርሃን	-7027
ተናል፤	-7028
ቱንም፥	-7029
ኋችሁ፤	-7030
ወስደው	-7031
ዎቹንና	-7032
ይሁድም	-7033
ይቱንም	-7034
ደርጉት	-7035
ደርግብ	-7036
ፋቸውም	-7037
ፍራጥስ	-7038
▁ለሁሉ	-7039
▁ለካ።	-7040
▁ለጠላ	-7041
▁ሉያ።	-7042
▁መረጥ	-7043
▁መካን	-7044
▁መጠጥ	-7045
▁ምዋር	-7046
▁ሠሩ፤	-7047
▁ሳሉ፥	-7048
▁ሸሽቶ	-7049
▁ሸክላ	-7050
▁በሐሰ	-7051
▁በመግ	-7052
▁በምና	-7053
▁በሞት	-7054
▁በራስ	-7055
▁በተወ	-7056
▁በአማ	-7057
▁በጠራ	-7058
▁ቢያስ	-7059
▁ባልቴ	-7060
▁ባረካ	-7061
▁ብሩን	-7062
▁ተማከ	-7063
▁ተጠራ	-7064
▁ተጠበ	-7065
▁ታስሮ	-7066
▁ትቀድ	-7067
▁ትጠፋ	-7068
▁ንስር	-7069
▁አልራ	-7070
▁አማት	-7071
▁አሰብ	-7072
▁አስቦ	-7073
▁አስነ	-7074
▁አያው	-7075
▁አይቼ	-7076
▁አዳና	-7077
▁ኤልዛ	-7078
▁እያዩ	-7079
▁እጠራ	-7080
▁ኦርዮ	-7081
▁ከበረ	-7082
▁ከአማ	-7083
▁ኮከብ	-7084
▁ወርድ	-7085
▁ወስጄ	-7086
▁ወገብ	-7087
▁ውድማ	-7088
▁ውጣ፥	-7089
▁ዝማሬ	-7090
▁የሀያ	-7091
▁የመጡ	-7092
▁የሚባ	-7093
▁የማዕ	-7094
▁የሰላ	-7095
▁የአብ	-7096
▁የጋድ	-7097
▁ያበራ	-7098
▁ያገባ	-7099
▁ይመታ	-7100
▁ይይዛ	-7101
▁ደረጃ	-7102
▁ደዌው	-7103
▁ገቡ።	-7104
▁ገቡ፥	-7105
▁ገብስ	-7106
▁ገዳይ	-7107
▁ጊብዓ	-7108
▁ጋርም	-7109
▁ጠንቋ	-7110
▁ፈሩ።	-7111
▁ፊትም	-7112
ላቸዋል፤	-7113
ልሃለሁ፤	-7114
መለከተው	-7115
ርያትይዓ	-7116
ተዋልና፥	-7117
ኅንነትም	-7118
ደረጋችሁ	-7119
▁ለማዳን	-7120
▁ለድሆች	-7121
▁ሌሊትም	-7122
▁መልሰው	-7123
▁መርገም	-7124
▁መናወጥ	-7125
▁መግባት	-7126
▁ራሳችሁ	-7127
▁ሰብስቦ	-7128
▁ሳኦልና	-7129
▁ቀለበት	-7130
▁ቀርበው	-7131
▁ቀርቦ።	-7132
▁በለዓም	-7133
▁በትውል	-7134
▁በአፍህ	-7135
▁በእንግ	-7136
▁በወይን	-7137
▁በዙፋኑ	-7138
▁በጊብዓ	-7139
▁በፈጸመ	-7140
▁በፍታም	-7141
▁ቤቶች፥	-7142
▁ብልቶች	-7143
▁ተሰጥቶ	-7144
▁ተነሣና	-7145
▁ተነሣ፤	-7146
▁ታላቁን	-7147
▁ትምክህ	-7148
▁ነገድ፥	-7149
▁ንግሥት	-7150
▁አላችሁ	-7151
▁አላውቅ	-7152
▁አመጡ፤	-7153
▁አብያተ	-7154
▁አንተስ	-7155
▁አዘንብ	-7156
▁አዘዘ፥	-7157
▁አይቀር	-7158
▁አይኖር	-7159
▁አግብቶ	-7160
▁ኢዮብም	-7161
▁እንዳየ	-7162
▁እየሰበ	-7163
▁ከሰይፍ	-7164
▁ከሴቶች	-7165
▁ኪዳኔን	-7166
▁ካልሆነ	-7167
▁ክብርን	-7168
▁ወረደ፤	-7169
▁ወንበር	-7170
▁ወገን።	-7171
▁ዓይኖቼ	-7172
▁ዘመንም	-7173
▁ዘንድ፤	-7174
▁የሌለው	-7175
▁የሚፈራ	-7176
▁የተጠላ	-7177
▁የታወቀ	-7178
▁የኢዮአ	-7179
▁የያዕቆ	-7180
▁የፍየል	-7181
▁ያለችው	-7182
▁ያመስግ	-7183
▁ይመላለ	-7184
▁ይፈርድ	-7185
▁ደመወዝ	-7186
▁ደሙንም	-7187
▁ደረሰ።	-7188
▁ድምፅ፥	-7189
▁ጣዖታት	-7190
▁ፈጥነው	-7191
▁ፍርዴን	-7192
▁ለመሥራት	-7193
▁ለራሳችሁ	-7194
▁ሊያደርግ	-7195
▁ሊገናኘው	-7196
▁ሌሎችንም	-7197
▁ልባችሁን	-7198
▁መሠዊያው	-7199
▁መንኰራኵ	-7200
▁መንገዴን	-7201
▁መጻተኞች	-7202
▁በአገርህ	-7203
▁በአፋቸው	-7204
▁በዓይንህ	-7205
▁ባሪያህን	-7206
▁ትንቢትን	-7207
▁አለቆቹም	-7208
▁አንተንም	-7209
▁አዶንያስ	-7210
▁እናድርግ	-7211
▁እንዳዘዝ	-7212
▁ከሕዝቡም	-7213
▁ከነበረው	-7214
▁ወለደች፤	-7215
▁የሠራውን	-7216
▁የተቀደሱ	-7217
▁የነበረች	-7218
▁የአሮንም	-7219
▁የኮረብታ	-7220
▁የጻድቃን	-7221
▁ይሄዳል፤	-7222
▁ይልቁንስ	-7223
▁ይነጋገር	-7224
▁ይኖራል፤	-7225
▁ዳግመኛም	-7226
▁ሌዋውያንን	-7227
▁ልብሳቸውን	-7228
▁ሶርያውያን	-7229
▁በማናቸውም	-7230
▁በተቀደሰው	-7231
▁በፊታቸውም	-7232
▁ብላቴናውን	-7233
▁ትሆናለች፥	-7234
▁አስቀድመው	-7235
▁አጠፋለሁ፥	-7236
▁እናንተም።	-7237
▁ወንድሞቹን	-7238
▁የሚገባውን	-7239
▁የተጻፈውን	-7240
▁ይወድቃል።	-7241
▁ሽማግሌዎችም	-7242
▁በመሠዊያውም	-7243
▁በጠላቶቻቸው	-7244
▁ኃጢአታቸውን	-7245
▁አይደለችምን	-7246
▁ከተማይቱንም	-7247
▁የሌለባቸውን	-7248
▁የከተማይቱም	-7249
▁የፍልስጥኤማ	-7250
▁ፈሪሳውያንም	-7251
▁በስምንተኛውም	-7252
KW	-7253
ሁን	-7254
ለስ	-7255
ላቴ	-7256
ሎቹ	-7257
መፁ	-7258
ሞር	-7259
ራቱ	-7260
ሰለ	-7261
ሳ፥	-7262
ሸሽ	-7263
ሺህ	-7264
ሺ፥	-7265
ሾህ	-7266
በሱ	-7267
ባይ	-7268
ቦር	-7269
ቦቹ	-7270
ኑሄ	-7271
ናቂ	-7272
ናቶ	-7273
ናግ	-7274
ወዱ	-7275
ያና	-7276
ያዛ	-7277
ደት	-7278
ጉት	-7279
ጥ፤	-7280
ጸው	-7281
ፈጠ	-7282
ፍሰ	-7283
▁ኒ	-7284
▁ጺ	-7285
ልጠው	-7286
መልሰ	-7287
ሙት፥	-7288
ማማች	-7289
ምንት	-7290
ሥርዓ	-7291
ረክስ	-7292
ረድ፥	-7293
ራቢያ	-7294
ሳሉ።	-7295
ሳሉ፤	-7296
ሳል፤	-7297
ቃሉ።	-7298
ቃል።	-7299
ታለሁ	-7300
ኋለኛ	-7301
ኛለህ	-7302
ካችሁ	-7303
ኸኝ፥	-7304
ዕለቱ	-7305
ደረጋ	-7306
ግርህ	-7307
ግኘት	-7308
ጣሉ፤	-7309
ጨንቅ	-7310
ፈስሰ	-7311
ፍረስ	-7312
▁ሄዱ	-7313
▁ለቅ	-7314
▁ለጌ	-7315
▁ለግ	-7316
▁ሌባ	-7317
▁መበ	-7318
▁ሚሳ	-7319
▁ምጥ	-7320
▁ሠሩ	-7321
▁ረክ	-7322
▁ርኅ	-7323
▁ሰነ	-7324
▁ሲሶ	-7325
▁ቀና	-7326
▁ቁባ	-7327
▁ቅኔ	-7328
▁በኦ	-7329
▁ተካ	-7330
▁ታማ	-7331
▁ታሳ	-7332
▁ኀዘ	-7333
▁ነጻ	-7334
▁አሣ	-7335
▁ካላ	-7336
▁ዖዝ	-7337
▁የሎ	-7338
▁የረ	-7339
▁የሶ	-7340
▁የሽ	-7341
▁ይገ	-7342
▁ድካ	-7343
▁ጣት	-7344
▁ጥራ	-7345
▁ጥጃ	-7346
▁ጭን	-7347
ለዋልና	-7348
ላችኋል	-7349
መለከተ	-7350
መሰክሩ	-7351
ማቸውም	-7352
ቃውያን	-7353
ቢሎንን	-7354
ባትም።	-7355
ታለሁ፤	-7356
ታልና።	-7357
ቶአል፤	-7358
ቻለሁና	-7359
ናችሁም	-7360
ኪሩቤል	-7361
ዕራብም	-7362
ፈልገው	-7363
▁ለማይ	-7364
▁ለስም	-7365
▁ለድን	-7366
▁ሊመጣ	-7367
▁ሌላው	-7368
▁ልጅን	-7369
▁መረብ	-7370
▁መድረ	-7371
▁ማድጋ	-7372
▁ምንቸ	-7373
▁ሰበረ	-7374
▁ስሙ፥	-7375
▁ቅርብ	-7376
▁ቆመ፥	-7377
▁ቍጣው	-7378
▁በል፤	-7379
▁በምሕ	-7380
▁በምታ	-7381
▁በባለ	-7382
▁በየስ	-7383
▁ብሆን	-7384
▁ተረድ	-7385
▁ተቃጠ	-7386
▁ተፈቅ	-7387
▁ታቃጥ	-7388
▁አብሮ	-7389
▁አንጀ	-7390
▁አከብ	-7391
▁አፉን	-7392
▁እልካ	-7393
▁እኛስ	-7394
▁ከልክ	-7395
▁ከብር	-7396
▁ከአፉ	-7397
▁ኪሩብ	-7398
▁ክብሩ	-7399
▁ወለል	-7400
▁ዓለት	-7401
▁የራቀ	-7402
▁የብዙ	-7403
▁የተላ	-7404
▁የተሞ	-7405
▁የትዕ	-7406
▁የእና	-7407
▁ያሰማ	-7408
▁ያኖራ	-7409
▁ይምጣ	-7410
▁ይወዳ	-7411
▁ይደነ	-7412
▁ደመወ	-7413
▁ድምፄ	-7414
▁ድስት	-7415
▁ጀምረ	-7416
▁ገነት	-7417
▁ገናም	-7418
▁ጋሻና	-7419
▁ጌታው	-7420
▁ጸጋና	-7421
▁ፈለገ	-7422
▁ፊንሐ	-7423
▁ፍለጋ	-7424
መለስም።	-7425
ታላችሁ።	-7426
ታችሁንም	-7427
አለሁና።	-7428
ዋውያንም	-7429
▁ሆንሁ።	-7430
▁ለልጆች	-7431
▁ለሚኖሩ	-7432
▁ሌሊትና	-7433
▁ልጅህን	-7434
▁ልጆችዋ	-7435
▁መሸፈኛ	-7436
▁መጥተህ	-7437
▁ሥጋውን	-7438
▁ሦስቱም	-7439
▁ራሳቸው	-7440
▁ሰባትም	-7441
▁ሳያውቅ	-7442
▁ሴቶችም	-7443
▁ቀርሜሎ	-7444
▁በሉት።	-7445
▁በመልካ	-7446
▁በሰዎች	-7447
▁በቅዱስ	-7448
▁በቤቴል	-7449
▁በታቦቱ	-7450
▁በኃይሉ	-7451
▁በኢዮአ	-7452
▁በእጁም	-7453
▁በእግሩ	-7454
▁በወኅኒ	-7455
▁በውስጡ	-7456
▁ባደረገ	-7457
▁ብድራት	-7458
▁ተባለ።	-7459
▁ተገልጦ	-7460
▁ትናገራ	-7461
▁ትጠብቅ	-7462
▁ኅብስት	-7463
▁ነውርም	-7464
▁ነፍሳት	-7465
▁አህዮች	-7466
▁አላወቅ	-7467
▁አልደረ	-7468
▁አምስቱ	-7469
▁አታውቅ	-7470
▁አንተ፥	-7471
▁አያውቁ	-7472
▁ኢያሪኮ	-7473
▁እዘምራ	-7474
▁እግሮቹ	-7475
▁እጠብቃ	-7476
▁እፈልጋ	-7477
▁ከሕዝብ	-7478
▁ከንጉሥ	-7479
▁ከአሦር	-7480
▁ከወይን	-7481
▁ከገሊላ	-7482
▁ካህኑን	-7483
▁የመረጥ	-7484
▁የተሠሩ	-7485
▁የዓለም	-7486
▁የግሪክ	-7487
▁የጻድቅ	-7488
▁ያሉት፥	-7489
▁ይሰበስ	-7490
▁ድንኳኑ	-7491
▁ገደለ፤	-7492
▁ለማደሪያ	-7493
▁ለአንተም	-7494
▁መለከቱን	-7495
▁መካከል፥	-7496
▁ሰማያትን	-7497
▁በሕዝቡም	-7498
▁በሕዝብህ	-7499
▁በሚሆነው	-7500
▁በማድረግ	-7501
▁በራሳቸው	-7502
▁በተናገረ	-7503
▁በተፈጸመ	-7504
▁በአጠገቡ	-7505
▁በኤርትራ	-7506
▁በግብጽም	-7507
▁ተንቀጠቀ	-7508
▁ናቸውና።	-7509
▁አለቆች።	-7510
▁አንተም።	-7511
▁አውቃለሁ	-7512
▁አጋንንት	-7513
▁ኢያሱን።	-7514
▁እርግማን	-7515
▁እንደዚሁ	-7516
▁ከመከተል	-7517
▁ከሰማያዊ	-7518
▁ኬልቅያስ	-7519
▁የሆኑትን	-7520
▁የለውም።	-7521
▁የሚያሰኝ	-7522
▁የማይገባ	-7523
▁የምናሴም	-7524
▁የሰሎሞን	-7525
▁የተመሰገ	-7526
▁የተመሸጉ	-7527
▁የተነገረ	-7528
▁የተወለዱ	-7529
▁የአሦርም	-7530
▁የፈርዖን	-7531
▁ያለችውን	-7532
▁ይመጣሉ፥	-7533
▁ዮሐንስም	-7534
▁ደኅንነት	-7535
▁ፍርድንና	-7536
▁ሌዋውያንም	-7537
▁ሦስተኛውም	-7538
▁በመንደሮች	-7539
▁በአሥረኛው	-7540
▁በአራተኛው	-7541
▁በእናንተም	-7542
▁ባሪያዎቹም	-7543
▁ተጠንቀቁ።	-7544
▁ታውቃላችሁ	-7545
▁ትሆናለህ።	-7546
▁ትእዛዙንም	-7547
▁እንድትሆኑ	-7548
▁እንግዲህ።	-7549
▁ከለዳውያን	-7550
▁ከአባታችን	-7551
▁ከእነዚህም	-7552
▁የሌዋውያን	-7553
▁የዘበኞቹም	-7554
▁ለአባቶቻቸው	-7555
▁በአርጤክስስ	-7556
▁እናውቃለን።	-7557
▁እናደርጋለን	-7558
▁የአምላክህን	-7559
▁የአምላካችንን	-7560
▁በእግዚአብሔርና	-7561
▁የኢየሩሳሌምንም	-7562
ለፍ	-7563
ልዋ	-7564
ሕና	-7565
ማለ	-7566
ረ፤	-7567
ሬና	-7568
ርጉ	-7569
ሳኮ	-7570
ቀኝ	-7571
ቅሠ	-7572
ቋቋ	-7573
ባለ	-7574
ተነ	-7575
ትር	-7576
ቶ።	-7577
ናጽ	-7578
ንቱ	-7579
ኖቹ	-7580
ካች	-7581
ክም	-7582
ዖር	-7583
ዘኛ	-7584
ዙ።	-7585
ዦች	-7586
ዩት	-7587
ያማ	-7588
ዮቹ	-7589
ደና	-7590
ደግ	-7591
ዲቱ	-7592
ድዱ	-7593
ጁም	-7594
ጠህ	-7595
ጠል	-7596
ጠማ	-7597
ጦን	-7598
ጫው	-7599
ፈሰ	-7600
▁ሪ	-7601
ሁህ፤	-7602
ሄዱም	-7603
ለሽ፥	-7604
ለትን	-7605
ሉና፤	-7606
ምር፥	-7607
ምን፥	-7608
ሠለጥ	-7609
ረሰ።	-7610
ራምን	-7611
ሽም።	-7612
ቀመጪ	-7613
ቀው፥	-7614
በላው	-7615
በልጥ	-7616
ቤልዩ	-7617
ትምህ	-7618
ናይም	-7619
ንቀላ	-7620
ኖር፥	-7621
ኖስም	-7622
ወድዱ	-7623
ዋንና	-7624
ዘጋጃ	-7625
ደውም	-7626
ድነት	-7627
ዶችና	-7628
ጐራጐ	-7629
ጠኛው	-7630
ጠፋ፥	-7631
ጨምር	-7632
ፈርዳ	-7633
ፈወስ	-7634
ፋስቂ	-7635
▁ሊወ	-7636
▁ልሔ	-7637
▁መኰ	-7638
▁ሽባ	-7639
▁ቃየ	-7640
▁ከኬ	-7641
▁ካሉ	-7642
▁ወጡ	-7643
▁ውዴ	-7644
▁ውጡ	-7645
▁ያወ	-7646
▁ይና	-7647
▁ዶሮ	-7648
▁ጌጥ	-7649
▁ጥና	-7650
ለውም፤	-7651
መለስ፥	-7652
ሩአቸው	-7653
ሳችሁን	-7654
ስተዋል	-7655
ሻለሁ፤	-7656
ቃቸው።	-7657
ኖርበት	-7658
ደረጉት	-7659
ግራችሁ	-7660
ጠፋቸው	-7661
ፋንታው	-7662
▁ለምት	-7663
▁ለነገ	-7664
▁ለጣዖ	-7665
▁ሊያስ	-7666
▁ልጄን	-7667
▁ሕሊና	-7668
▁መኝታ	-7669
▁መዕሤ	-7670
▁መጋቢ	-7671
▁ሚዳቋ	-7672
▁ማልሁ	-7673
▁ማንን	-7674
▁ምንኛ	-7675
▁ራእዩ	-7676
▁ሰማ፤	-7677
▁ሰምቼ	-7678
▁ሴትም	-7679
▁ሸሹ።	-7680
▁ሸንጎ	-7681
▁ቀን።	-7682
▁ቃልን	-7683
▁በማታ	-7684
▁በራእ	-7685
▁በርስ	-7686
▁በርኵ	-7687
▁በንጹ	-7688
▁በአፉ	-7689
▁በኤል	-7690
▁በወገ	-7691
▁በዕቃ	-7692
▁በዘመ	-7693
▁በገደ	-7694
▁በጎቹ	-7695
▁ባየች	-7696
▁ብልጣ	-7697
▁ተስማ	-7698
▁ተሸከ	-7699
▁ተከፈ	-7700
▁ተደፋ	-7701
▁ተገለ	-7702
▁ታመን	-7703
▁ታውቅ	-7704
▁ኋላው	-7705
▁ነገም	-7706
▁ኑኃሚ	-7707
▁ንጉሣ	-7708
▁ኖኅም	-7709
▁አለቅ	-7710
▁አልከ	-7711
▁አሳያ	-7712
▁አስቴ	-7713
▁አትታ	-7714
▁አዘዝ	-7715
▁አይች	-7716
▁አገሩ	-7717
▁አጥፊ	-7718
▁እኅቴ	-7719
▁እኖራ	-7720
▁እወጣ	-7721
▁እጁም	-7722
▁ከሌላ	-7723
▁ከራሱ	-7724
▁ከዓይ	-7725
▁ከደም	-7726
▁ከፊቱ	-7727
▁ካስማ	-7728
▁ክንፎ	-7729
▁ወተት	-7730
▁ወንዞ	-7731
▁ዘመኑ	-7732
▁ዘጠና	-7733
▁የሆድ	-7734
▁የሚሹ	-7735
▁የሰን	-7736
▁የቀን	-7737
▁የቍጣ	-7738
▁የአስ	-7739
▁ያሰኘ	-7740
▁ደናግ	-7741
▁ፈለግ	-7742
▁ፊት፥	-7743
▁ፌርዛ	-7744
ላቸውም፤	-7745
ልሃለሁ።	-7746
ቸዋለህ፥	-7747
ችኋልና።	-7748
ያውያንም	-7749
▁ለመቅደ	-7750
▁ለምርኮ	-7751
▁ለምንስ	-7752
▁ለራስህ	-7753
▁ሌሎችም	-7754
▁ልብስም	-7755
▁መንገዱ	-7756
▁መንጎች	-7757
▁ምንጮች	-7758
▁ምድርና	-7759
▁ሰባቱን	-7760
▁ሰነፎች	-7761
▁ሰውንም	-7762
▁ሰጣቸው	-7763
▁ሴቶችን	-7764
▁በመሬት	-7765
▁በሥጋው	-7766
▁በሰፈሩ	-7767
▁በስምህ	-7768
▁በቅጥር	-7769
▁በነበሩ	-7770
▁በነቢያ	-7771
▁በአንገ	-7772
▁በገሊላ	-7773
▁በጉባኤ	-7774
▁በፊቴም	-7775
▁ቤቱንም	-7776
▁ተራራው	-7777
▁ተቈጥቶ	-7778
▁ትፈልጋ	-7779
▁ነፍሴም	-7780
▁ንጉሥና	-7781
▁አለቆቹ	-7782
▁አላጠፋ	-7783
▁አልወጣ	-7784
▁አሚናዳ	-7785
▁አሳደዱ	-7786
▁አስብ፤	-7787
▁አዎን፥	-7788
▁አዘዘ፤	-7789
▁አይሁን	-7790
▁አይመጣ	-7791
▁ኢያሱን	-7792
▁እሰብራ	-7793
▁እነሆኝ	-7794
▁እፈርድ	-7795
▁ከሳኦል	-7796
▁ከብበው	-7797
▁ከተፈተ	-7798
▁ከነዓን	-7799
▁ከእህሉ	-7800
▁ከእግሩ	-7801
▁ከጨለማ	-7802
▁ክብርና	-7803
▁ዓመት፥	-7804
▁ዘመን፥	-7805
▁የሚጠራ	-7806
▁የምስራ	-7807
▁የሠራው	-7808
▁የሦስት	-7809
▁የበፍታ	-7810
▁የተልባ	-7811
▁የኢየሱ	-7812
▁ያቀርበ	-7813
▁ይሁዳን	-7814
▁ይሰናከ	-7815
▁ይሰግዳ	-7816
▁ይታጠባ	-7817
▁ይወስድ	-7818
▁ይጠግባ	-7819
▁ድንግል	-7820
▁ጠብቁ።	-7821
▁ጠግነት	-7822
▁ጦርነት	-7823
▁ፋሲካን	-7824
▁ሆኖአል።	-7825
▁ለባቢሎን	-7826
▁ልባቸውም	-7827
▁መልአክ።	-7828
▁ማኅበሩም	-7829
▁ሰጣቸው፥	-7830
▁ቀበሩት።	-7831
▁በሰይፍም	-7832
▁በባሕርም	-7833
▁በታላቅም	-7834
▁በአንተም	-7835
▁በአንቺም	-7836
▁በውስጥዋ	-7837
▁በዚያችም	-7838
▁በድንገት	-7839
▁በፊትህም	-7840
▁በፋንታው	-7841
▁ተናገረ፥	-7842
▁ተናገር፥	-7843
▁ነቢያትም	-7844
▁ነፍሴንም	-7845
▁አስተምረ	-7846
▁አባታችን	-7847
▁አትፍራ፥	-7848
▁አይሁድም	-7849
▁አድነኝ።	-7850
▁እሆናለሁ	-7851
▁እስማኤል	-7852
▁እንናገራ	-7853
▁ከተሞችን	-7854
▁ከተሞች፥	-7855
▁ከካህናት	-7856
▁ካህናቱና	-7857
▁ዘገለዓድ	-7858
▁የሚቀበል	-7859
▁የሰማይን	-7860
▁የወርቁን	-7861
▁ያውቃል።	-7862
▁ያጠፋል።	-7863
▁ግልገሎች	-7864
▁ጎዶልያስ	-7865
▁ጠራችው።	-7866
▁ጲላጦስም	-7867
▁ጳውሎስን	-7868
▁ፍየሎች፥	-7869
▁ለሚቃጠልም	-7870
▁መለሱለት።	-7871
▁በሰማርያም	-7872
▁በሰንበትም	-7873
▁ተመልከት፤	-7874
▁ትሆናለች።	-7875
▁ነፍሳቸውን	-7876
▁አልተመለሰ	-7877
▁አልቻሉም።	-7878
▁አልኋቸው።	-7879
▁አይሆንም፤	-7880
▁የብንያምም	-7881
▁የአባትህን	-7882
▁የያዕቆብን	-7883
▁ይመለሳል።	-7884
▁ጠላቶችህን	-7885
▁ልጆቻቸውንም	-7886
▁በመካከላችን	-7887
▁በአምስተኛው	-7888
▁በኢዮርብዓም	-7889
▁እመልሳለሁ፥	-7890
▁ከነዓናውያን	-7891
▁ግብፃውያንም	-7892
▁በየወገናቸው፥	-7893
▁ኃጢአታቸውንም	-7894
▁ፍልስጥኤማውያንን	-7895
▁ከፍልስጥኤማውያንም	-7896
gW	-7897
ሆም	-7898
ለዩ	-7899
ላሉ	-7900
ላስ	-7901
ልሉ	-7902
ማሉ	-7903
ማና	-7904
ሰኙ	-7905
ሳር	-7906
ሸገ	-7907
ሻገ	-7908
ቀለ	-7909
ቸኵ	-7910
ነስ	-7911
ነፉ	-7912
ናስ	-7913
ኖኅ	-7914
ኝና	-7915
ኪር	-7916
ኪን	-7917
ካራ	-7918
ኰል	-7919
ኸን	-7920
ዒላ	-7921
ዓር	-7922
ዙፋ	-7923
ያ፤	-7924
ደቡ	-7925
ደጋ	-7926
ጋጤ	-7927
ጎቻ	-7928
ጣ፥	-7929
ጩኸ	-7930
ፈኑ	-7931
ፋቱ	-7932
ፍኑ	-7933
▁ኡ	-7934
▁ዒ	-7935
▁ጼ	-7936
ሁህን	-7937
ሄሮድ	-7938
ህምና	-7939
ህምን	-7940
ህኑም	-7941
ለምኑ	-7942
ለቃው	-7943
ለኝ፥	-7944
ላት፤	-7945
ልሁ።	-7946
ሎችን	-7947
ማረኩ	-7948
ሩት፥	-7949
ራል፥	-7950
ራንም	-7951
ርሃት	-7952
ስቱም	-7953
ሶችም	-7954
ቀጠቀ	-7955
በረከ	-7956
በሩን	-7957
በሰባ	-7958
ባልዋ	-7959
ባበር	-7960
ብንም	-7961
ተው፥	-7962
ቴንና	-7963
ቶቼም	-7964
ቸውና	-7965
ነው።	-7966
ነድድ	-7967
ነግር	-7968
ኖቹም	-7969
ኦልም	-7970
ከረ።	-7971
ውድማ	-7972
ዘነበ	-7973
ዘገይ	-7974
ድቁን	-7975
ዶምና	-7976
ጆችም	-7977
ጋንን	-7978
ጠው።	-7979
ጸልዩ	-7980
ጾኪያ	-7981
▁ሄዳ	-7982
▁ለላ	-7983
▁ለዕ	-7984
▁ለየ	-7985
▁ራቁ	-7986
▁በቴ	-7987
▁ቢል	-7988
▁ባታ	-7989
▁ተስ	-7990
▁ተቸ	-7991
▁ተክ	-7992
▁ትተ	-7993
▁ትዝ	-7994
▁ትይ	-7995
▁ትጋ	-7996
▁ነጐ	-7997
▁ከላ	-7998
▁ውብ	-7999
▁ውደ	-8000
▁የቴ	-8001
▁የኪ	-8002
▁የዑ	-8003
▁ያበ	-8004
▁ያዛ	-8005
▁ያግ	-8006
▁ዮዛ	-8007
▁ድሆ	-8008
▁ገሥ	-8009
▁ጥቁ	-8010
▁ፍቅ	-8011
መላለሱ	-8012
መረምራ	-8013
መፀኞች	-8014
ራቸውም	-8015
ራቸው፥	-8016
ስቍልና	-8017
ቀርቡት	-8018
በታቸው	-8019
ታለች፤	-8020
ቸዋልና	-8021
ነትንና	-8022
ውንም።	-8023
ዳንኤል	-8024
ገድለው	-8025
▁ሂድና	-8026
▁ላከኝ	-8027
▁ሐሰት	-8028
▁መርገ	-8029
▁መታ፥	-8030
▁መንጎ	-8031
▁መደረ	-8032
▁ሜልኮ	-8033
▁ሞቱ።	-8034
▁ሲዶና	-8035
▁ሳለች	-8036
▁ሳለን	-8037
▁ሳዶቅ	-8038
▁ስሜም	-8039
▁ስብ፥	-8040
▁ሸሹ፤	-8041
▁ቃል፥	-8042
▁በሄደ	-8043
▁በሉ፤	-8044
▁በመጋ	-8045
▁በረሃ	-8046
▁በረታ	-8047
▁በሱሳ	-8048
▁በቀኙ	-8049
▁በበደ	-8050
▁በተመ	-8051
▁በአዲ	-8052
▁በዚች	-8053
▁በዱር	-8054
▁በድለ	-8055
▁በጥበ	-8056
▁በፍር	-8057
▁ባርያ	-8058
▁ቤትን	-8059
▁ቤት፥	-8060
▁ብለን	-8061
▁ብር፥	-8062
▁ብፁዕ	-8063
▁ተሻገ	-8064
▁ተወግ	-8065
▁ትኵር	-8066
▁ኀጥእ	-8067
▁ናታን	-8068
▁ኖረ።	-8069
▁አለመ	-8070
▁አሞጽ	-8071
▁አስባ	-8072
▁አቢሳ	-8073
▁አብን	-8074
▁አኖር	-8075
▁አያይ	-8076
▁አጥፍ	-8077
▁ኢዩም	-8078
▁እመታ	-8079
▁እቶን	-8080
▁እንሰ	-8081
▁ከመቶ	-8082
▁ከቤቱ	-8083
▁ከነገ	-8084
▁ከአብ	-8085
▁ከዛሬ	-8086
▁ካልተ	-8087
▁ወሰድ	-8088
▁ውረድ	-8089
▁ውጡ፥	-8090
▁ዐመፁ	-8091
▁ዓላማ	-8092
▁ዓይኔ	-8093
▁ዘንዶ	-8094
▁ዘውድ	-8095
▁የሚም	-8096
▁የሚካ	-8097
▁የሚዘ	-8098
▁የሰባ	-8099
▁የባሕ	-8100
▁የተነ	-8101
▁የአር	-8102
▁ያርፋ	-8103
▁ያፈር	-8104
▁ይሁኑ	-8105
▁ይሰብ	-8106
▁ይቈር	-8107
▁ይበቃ	-8108
▁ይበዘ	-8109
▁ይኖሩ	-8110
▁ይገሥ	-8111
▁ይጠሩ	-8112
▁ይጠጡ	-8113
▁ደረቅ	-8114
▁ደርብ	-8115
▁ዲናር	-8116
▁ዳሰሰ	-8117
▁ገልጦ	-8118
▁ጋኔን	-8119
▁ጠራ።	-8120
▁ፈርሶ	-8121
▁ፈቀደ	-8122
▁ፈጣሪ	-8123
ሎቻቸውም	-8124
ሩሳሌምና	-8125
ባቸውም።	-8126
ችኋልና፤	-8127
አቸዋል፤	-8128
ኤላውያን	-8129
ኮረብታው	-8130
▁ሆነች።	-8131
▁ለመሄድ	-8132
▁ለአምላ	-8133
▁ለአንዱ	-8134
▁ሌሊቱን	-8135
▁ልብህን	-8136
▁ሕዝቤም	-8137
▁ሕዝብ፥	-8138
▁መክደኛ	-8139
▁ራስዋን	-8140
▁ሰማይና	-8141
▁ቅዱስም	-8142
▁ቍጥር፥	-8143
▁በሁሉም	-8144
▁በሌላው	-8145
▁በመቅረ	-8146
▁በሚዛን	-8147
▁በምኵራ	-8148
▁በረኞች	-8149
▁በሴቶች	-8150
▁በውስጤ	-8151
▁በዐውሎ	-8152
▁በዓመት	-8153
▁በደልን	-8154
▁በጥቂት	-8155
▁ተመለስ	-8156
▁ተቀምጣ	-8157
▁ተከትሎ	-8158
▁ትእዛዛ	-8159
▁ትጠብቃ	-8160
▁አሁንስ	-8161
▁አልገባ	-8162
▁አማካሪ	-8163
▁አምጥቶ	-8164
▁አሥረኛ	-8165
▁አሰበ።	-8166
▁አብራም	-8167
▁አትብላ	-8168
▁አትፍሩ	-8169
▁አነገሡ	-8170
▁አኖረው	-8171
▁አይደለ	-8172
▁እርሱ።	-8173
▁እስራት	-8174
▁እበትና	-8175
▁እወቁ።	-8176
▁እያስተ	-8177
▁ከአገሩ	-8178
▁ከእጅህ	-8179
▁ከካህና	-8180
▁ከጥቂት	-8181
▁ኵርንች	-8182
▁ወርቅም	-8183
▁ወሰዱ፥	-8184
▁ወደቀ፤	-8185
▁ዓለምን	-8186
▁ዔሳውም	-8187
▁ዘይትም	-8188
▁ዝንጕር	-8189
▁የሆነ፥	-8190
▁የለውም	-8191
▁የሚሰሙ	-8192
▁የሚጠላ	-8193
▁የማይታ	-8194
▁የምሥራ	-8195
▁የተገደ	-8196
▁የነቢያ	-8197
▁የጭፍራ	-8198
▁ያላቸው	-8199
▁ያያል፤	-8200
▁ይሁዳና	-8201
▁ይህንስ	-8202
▁ይመስል	-8203
▁ይቀርባ	-8204
▁ይባረካ	-8205
▁ይወጣል	-8206
▁ይዋረዳ	-8207
▁ይዛችሁ	-8208
▁ይገለጥ	-8209
▁ደረሰ፤	-8210
▁ድምፅ።	-8211
▁ገደሉ።	-8212
▁ጥምቀት	-8213
▁ጭፍሮች	-8214
▁ጻፎችና	-8215
▁ፈሳሾች	-8216
▁ፊልጶስ	-8217
▁ፊቱንም	-8218
ላቸዋለህ።	-8219
ባቸዋለሁ፥	-8220
ባችኋለሁ፥	-8221
▁ለመኑት።	-8222
▁ለእርስዋ	-8223
▁መስኮቶች	-8224
▁መንፈሳዊ	-8225
▁ሠራተኞች	-8226
▁ሥርዓቴን	-8227
▁ስለዚህ።	-8228
▁ስፍራዎች	-8229
▁ቅርንጫፍ	-8230
▁በመርከብ	-8231
▁በሠራዊት	-8232
▁በሰማይና	-8233
▁በኋለኛው	-8234
▁በአባቱም	-8235
▁በዙፋኑም	-8236
▁ተመለሰ፥	-8237
▁ተቀበረ፤	-8238
▁ነቢያትን	-8239
▁ነፍስህም	-8240
▁ናቸውና፤	-8241
▁አለቀሰ።	-8242
▁አልመለሰ	-8243
▁አልነበሩ	-8244
▁አልፈቀደ	-8245
▁አስቀድሜ	-8246
▁አቅራቢያ	-8247
▁አበኔርም	-8248
▁አያደርግ	-8249
▁አዳራሾች	-8250
▁እስኪነጋ	-8251
▁እነዚያን	-8252
▁ከመንገድ	-8253
▁ከንፈሮች	-8254
▁ከአባቶቻ	-8255
▁ከፊታችሁ	-8256
▁ኮረብቶች	-8257
▁ዓመፀኞች	-8258
▁የሚወጡት	-8259
▁የሚያጠፋ	-8260
▁የሚፈርድ	-8261
▁የማንሣት	-8262
▁የምሥራቅ	-8263
▁የስምዖን	-8264
▁የአባቶች	-8265
▁የአገሩም	-8266
▁የእነዚህ	-8267
▁የደኅንነ	-8268
▁የገለዓድ	-8269
▁ይሄዳል፥	-8270
▁ይለዋል።	-8271
▁ይመለከቱ	-8272
▁ይገባል።	-8273
▁ዳንኤልም	-8274
▁ጠቦቶች፥	-8275
▁ጥበብንና	-8276
▁ፍርዴንም	-8277
▁ለአሕዛብም	-8278
▁መንገድህን	-8279
▁ስላደረገው	-8280
▁በመንግሥቱ	-8281
▁በምሥራቅም	-8282
▁በኢዮስያስ	-8283
▁ባሪያዎቹን	-8284
▁ተናገሩት።	-8285
▁ተጠንቀቁ፤	-8286
▁ታውቃለህ፤	-8287
▁ኃጢአታችን	-8288
▁አብርሃምን	-8289
▁አጠፋለሁ፤	-8290
▁እልሃለሁ፥	-8291
▁እሰጣለሁ፤	-8292
▁ከሌዋውያን	-8293
▁ከሚቃጠለው	-8294
▁ከክርስቶስ	-8295
▁የባሪያዎች	-8296
▁የተባለውን	-8297
▁የፈርዖንን	-8298
▁ይናገራሉ።	-8299
▁ይናገራል።	-8300
▁ጴጥሮስም።	-8301
▁ለአባቶቻችሁ	-8302
▁መሰምርያዋ፥	-8303
▁በግምባራቸው	-8304
▁አቅርቡልኝ።	-8305
▁ኢዮርብዓምም	-8306
▁እሰጥሃለሁ።	-8307
▁ወንድሞቻቸው	-8308
▁ለእያንዳንዱም	-8309
▁የአምላካችሁን	-8310
▁የፍልስጥኤማውያን	-8311
ለሞ	-8312
መኝ	-8313
ሩባ	-8314
ሪዳ	-8315
ራኄ	-8316
ርፎ	-8317
ር፤	-8318
ሰቡ	-8319
ሴዕ	-8320
ስቀ	-8321
ቂ፥	-8322
ቈጥ	-8323
በያ	-8324
በጠ	-8325
ቡል	-8326
ባቻ	-8327
ቤዣ	-8328
ቦሳ	-8329
ነጥ	-8330
ንህ	-8331
ኖም	-8332
ኩ፤	-8333
ካታ	-8334
ኮት	-8335
ኮን	-8336
ኵላ	-8337
ዝዙ	-8338
ዝዛ	-8339
ደባ	-8340
ዳስ	-8341
ድባ	-8342
ገነ	-8343
ጢያ	-8344
ጥሁ	-8345
ፉኝ	-8346
ፊቦ	-8347
▁ሑ	-8348
▁።	-8349
ሁህ።	-8350
ለቅሱ	-8351
ሕትና	-8352
ሠረተ	-8353
ርሚያ	-8354
ሳሚስ	-8355
ሳኖች	-8356
ሴይም	-8357
ስታም	-8358
ስጦስ	-8359
ሶችን	-8360
ሽሞች	-8361
ሾችም	-8362
ብራይ	-8363
ብን፥	-8364
ተኛና	-8365
ተኞቹ	-8366
ችው፥	-8367
ነውም	-8368
ነው፥	-8369
ነግሥ	-8370
ኖርም	-8371
ኖርባ	-8372
ኝም፥	-8373
ኣልን	-8374
እምሮ	-8375
ከማቸ	-8376
ኵሳት	-8377
ዋን፥	-8378
ያምም	-8379
ደናጎ	-8380
ደድሁ	-8381
ገለገ	-8382
ጉባኤ	-8383
ጠቢያ	-8384
ፈቅድ	-8385
ፌሶን	-8386
ፎቹም	-8387
▁ለሮ	-8388
▁ለዳ	-8389
▁ላካ	-8390
▁ልኬ	-8391
▁ሠዉ	-8392
▁ርቆ	-8393
▁ስስ	-8394
▁ቀሠ	-8395
▁ቃሉ	-8396
▁ቆይ	-8397
▁በሆ	-8398
▁በቶ	-8399
▁ቢታ	-8400
▁ቢወ	-8401
▁ነቅ	-8402
▁ነዶ	-8403
▁አጨ	-8404
▁ከቂ	-8405
▁ከጠ	-8406
▁ከጸ	-8407
▁ወጋ	-8408
▁ዐም	-8409
▁ዘረ	-8410
▁የዖ	-8411
▁የጕ	-8412
▁የጫ	-8413
▁ያፌ	-8414
▁ይት	-8415
▁ገመ	-8416
▁ጋዛ	-8417
▁ፈወ	-8418
ላለች፤	-8419
ላእክት	-8420
መረምር	-8421
ምናሴም	-8422
ራለሁ።	-8423
ሳለሁ፥	-8424
ቀርብ፥	-8425
በትም፥	-8426
ቶአልና	-8427
አብያተ	-8428
አትም፥	-8429
ከራከር	-8430
ኰራኵር	-8431
ዘረዳን	-8432
ደዳችሁ	-8433
ገረዙት	-8434
ገናኘት	-8435
ጠነኛው	-8436
ጳውሎስ	-8437
▁ሆኑ፤	-8438
▁ሕልሙ	-8439
▁መምህ	-8440
▁መረገ	-8441
▁መርጦ	-8442
▁መሸሸ	-8443
▁መቃብ	-8444
▁መታ።	-8445
▁መትቶ	-8446
▁ማኑሄ	-8447
▁ረድኤ	-8448
▁ርብቃ	-8449
▁ሰማ፥	-8450
▁ሰሜኢ	-8451
▁ሰደዳ	-8452
▁ሲሄዱ	-8453
▁ሲወጡ	-8454
▁ሸሹ፥	-8455
▁ሸፈነ	-8456
▁ቀደደ	-8457
▁ቀጥሎ	-8458
▁ቃላት	-8459
▁ቃልም	-8460
▁ቆመ፤	-8461
▁በሉ፥	-8462
▁በቃሉ	-8463
▁በእስ	-8464
▁በድካ	-8465
▁ባለች	-8466
▁ብለሽ	-8467
▁ተለወ	-8468
▁ተለየ	-8469
▁ተሰለ	-8470
▁ተያዘ	-8471
▁ተድላ	-8472
▁ተጠም	-8473
▁ታወከ	-8474
▁ትሄድ	-8475
▁ትተኛ	-8476
▁ትናን	-8477
▁ትጠጣ	-8478
▁አህዮ	-8479
▁አላወ	-8480
▁አላዋ	-8481
▁አሰማ	-8482
▁አሳም	-8483
▁አስበ	-8484
▁አቃጥ	-8485
▁አነሡ	-8486
▁አንሡ	-8487
▁አውቅ	-8488
▁አውጡ	-8489
▁አደነ	-8490
▁አፈረ	-8491
▁ኤሊሳ	-8492
▁እዩ፤	-8493
▁እጽፍ	-8494
▁ከሙሴ	-8495
▁ከስድ	-8496
▁ከቍጣ	-8497
▁ከባሕ	-8498
▁ከወጡ	-8499
▁ክቡር	-8500
▁ወንዙ	-8501
▁ወገኑ	-8502
▁ዐረፈ	-8503
▁የሚቆ	-8504
▁የሞቱ	-8505
▁የሳኦ	-8506
▁የቀባ	-8507
▁የተጣ	-8508
▁የእጅ	-8509
▁የድሀ	-8510
▁የጠፋ	-8511
▁የጥበ	-8512
▁ያስታ	-8513
▁ያፈራ	-8514
▁ይመራ	-8515
▁ይራራ	-8516
▁ይቀበ	-8517
▁ደቦል	-8518
▁ጊዜው	-8519
▁ጎዳና	-8520
▁ጠበቅ	-8521
▁ጢሮስ	-8522
▁ጨካኝ	-8523
▁ጭንቅ	-8524
▁ፍላጾ	-8525
▁ፍሬ፥	-8526
ሉአቸው።	-8527
ሉአቸው፥	-8528
ርዳኖስም	-8529
ብሃለሁ፥	-8530
ተዋልና።	-8531
ቶአልና፥	-8532
አለሁና፥	-8533
አቸዋል።	-8534
አቸዋል፥	-8535
ይዝራኤላ	-8536
▁ሆነች፥	-8537
▁ለምናሴ	-8538
▁ለሳኦል	-8539
▁ለአውራ	-8540
▁ለዓለም	-8541
▁ለፍርድ	-8542
▁ሊያጠፋ	-8543
▁ላድርግ	-8544
▁ልጅዋን	-8545
▁ሐናንያ	-8546
▁ሕልምን	-8547
▁ሕዝብ።	-8548
▁መምጣት	-8549
▁መስዋዕ	-8550
▁መታመኛ	-8551
▁መንደር	-8552
▁መጥቶም	-8553
▁ሚስትን	-8554
▁ማኅበሩ	-8555
▁ሰይፍን	-8556
▁ስሙኝ፤	-8557
▁ሶምሶን	-8558
▁ቃሌንም	-8559
▁ቅዱስን	-8560
▁በሚያስ	-8561
▁በምጽጳ	-8562
▁በሴኬም	-8563
▁በቤትህ	-8564
▁በካህኑ	-8565
▁በወንዙ	-8566
▁በዓይኑ	-8567
▁በዘመኑ	-8568
▁በጊዜው	-8569
▁በግብፃ	-8570
▁በጎቹን	-8571
▁በጫንቃ	-8572
▁ባላቅም	-8573
▁ተመለከ	-8574
▁ተሻገረ	-8575
▁ተገናኘ	-8576
▁ታላቂቱ	-8577
▁ታደርገ	-8578
▁ትወርሱ	-8579
▁ኃጢአቱ	-8580
▁ኋላቸው	-8581
▁ነኝና፥	-8582
▁ነገሩም	-8583
▁ነገርና	-8584
▁አልተው	-8585
▁አልጠጣ	-8586
▁አምላኩ	-8587
▁አምኖን	-8588
▁አራቱን	-8589
▁አቆመ።	-8590
▁አውራጃ	-8591
▁አያልፍ	-8592
▁አይጸና	-8593
▁ኢያቡሳ	-8594
▁ኢዮራም	-8595
▁ኢዮአስ	-8596
▁እሰድድ	-8597
▁እንሞታ	-8598
▁እንውጣ	-8599
▁እንዳሳ	-8600
▁እንድና	-8601
▁እንጎቻ	-8602
▁ከሞዓብ	-8603
▁ከስፍራ	-8604
▁ከአንዱ	-8605
▁ከጌታዬ	-8606
▁ኪሩቤል	-8607
▁ወሰዱ።	-8608
▁ወደቀ።	-8609
▁ወጥቶም	-8610
▁ወፎችም	-8611
▁ዕቃውን	-8612
▁የመለከ	-8613
▁የምታስ	-8614
▁የሰላም	-8615
▁የቀረበ	-8616
▁የቀረው	-8617
▁የበደል	-8618
▁የብረት	-8619
▁የተፈታ	-8620
▁የአሞራ	-8621
▁የገለዓ	-8622
▁የጥፋት	-8623
▁የፈረሰ	-8624
▁ይጥፋ።	-8625
▁ይፈርዱ	-8626
▁ዮፍታሔ	-8627
▁ዱቄት፥	-8628
▁ጓዳዎች	-8629
▁ጸለየ።	-8630
▁ጽዮንን	-8631
▁ለመነው።	-8632
▁ለነበሩት	-8633
▁ለአሮንና	-8634
▁ለይስሐቅ	-8635
▁ልጆችም፤	-8636
▁ሕዝብህን	-8637
▁መልአኩም	-8638
▁መልእክት	-8639
▁መንግሥቱ	-8640
▁መኳንንት	-8641
▁መደረቢያ	-8642
▁ምሕረቱም	-8643
▁ራሳችንን	-8644
▁ርስታቸው	-8645
▁ሰበሰበ፥	-8646
▁ቀበሩት፤	-8647
▁በላያችሁ	-8648
▁በመንገዱ	-8649
▁በመከራዬ	-8650
▁በምስክሩ	-8651
▁በብልሃት	-8652
▁በነበሩት	-8653
▁በነገውም	-8654
▁በዙሪያዋ	-8655
▁በያዕቆብ	-8656
▁በደማስቆ	-8657
▁ቤርሳቤህ	-8658
▁ብላቴናው	-8659
▁ተቀመጠ፥	-8660
▁ተቀበሉ።	-8661
▁ተቀበረ።	-8662
▁አላስተዋ	-8663
▁አስወገደ	-8664
▁አትግለጥ	-8665
▁አንዱንም	-8666
▁አእላፋት	-8667
▁አዘዘው።	-8668
▁አይችልም	-8669
▁ኢትዮጵያ	-8670
▁እስከዚህ	-8671
▁እናንተ።	-8672
▁እንዲመጣ	-8673
▁ከነቢያት	-8674
▁ከፊታቸው	-8675
▁ኪዳኔንም	-8676
▁ካህናቱን	-8677
▁የሚወድዱ	-8678
▁የሚያህሉ	-8679
▁የሚያሰኘ	-8680
▁የተሰወረ	-8681
▁የተዘጋጁ	-8682
▁የአባትህ	-8683
▁የአንበሳ	-8684
▁የእነርሱ	-8685
▁የጌታችን	-8686
▁ያውቃሉ፤	-8687
▁ይሆናልና	-8688
▁ይሰጣል፤	-8689
▁ይሰጣል፥	-8690
▁ይስሐቅን	-8691
▁ይበላል።	-8692
▁ጕስቍልና	-8693
▁ጽድቅንም	-8694
▁ፈጥናችሁ	-8695
▁ለያዕቆብም	-8696
▁መንገዳችሁ	-8697
▁መንግሥትም	-8698
▁ማስተዋልን	-8699
▁በልባቸውም	-8700
▁በመካከልሽ	-8701
▁በባቢሎንም	-8702
▁በፈርዖንና	-8703
▁ብላቴናውም	-8704
▁ተመልከቱ፤	-8705
▁ትኖራለች።	-8706
▁ናቡዘረዳን	-8707
▁አኖራቸው።	-8708
▁አውቃለሁ፤	-8709
▁አይገኝም።	-8710
▁አጋንንትን	-8711
▁አጠፋለሁ።	-8712
▁እሄዳለሁ፤	-8713
▁ከመሠዊያው	-8714
▁ወንድሙንም	-8715
▁የሰሎሞንን	-8716
▁የባቢሎንን	-8717
▁የተሠሩትን	-8718
▁የይስሐቅም	-8719
▁ይታጠባል፥	-8720
▁ይወስዳል።	-8721
▁መንገዳቸውን	-8722
▁በአሞራውያን	-8723
▁አልነበረምን	-8724
▁አልነበረም፥	-8725
▁አምላካችንም	-8726
▁ወለደችለት።	-8727
▁የአባቶቻቸው	-8728
▁መንደሮቻቸው።	-8729
▁በአጠገባቸውም	-8730
▁የሚያደርጉትን	-8731
▁የአባቶቻቸውን	-8732
▁የኢየሩሳሌምን	-8733
ሃነ	-8734
ለብ	-8735
ልከ	-8736
ሎና	-8737
ሣራ	-8738
ሩና	-8739
ራል	-8740
ርጌ	-8741
ርፉ	-8742
ሮሮ	-8743
ሲም	-8744
ሻት	-8745
ቀኑ	-8746
ቃ፥	-8747
በህ	-8748
ቢብ	-8749
ብዛ	-8750
ታተ	-8751
ኆች	-8752
ነፋ	-8753
ናቅ	-8754
አን	-8755
ክታ	-8756
ክ፥	-8757
ዊ፥	-8758
ዜማ	-8759
ደህ	-8760
ደኝ	-8761
ዲት	-8762
ዳል	-8763
ገየ	-8764
ጉር	-8765
ጠሉ	-8766
ጥፋ	-8767
ጦች	-8768
ጩን	-8769
ጸሙ	-8770
ጸባ	-8771
ፃና	-8772
ፊም	-8773
ፎን	-8774
▁ዚ	-8775
ሁህ፥	-8776
ለቅስ	-8777
ለኛው	-8778
ለኝ።	-8779
ላትን	-8780
ልህ፤	-8781
ልን፤	-8782
ሕተት	-8783
መኑ፤	-8784
ማፀኛ	-8785
ሞንዔ	-8786
ረደው	-8787
ርስራ	-8788
ርከው	-8789
ርያ፥	-8790
ሮቹን	-8791
ሰናክ	-8792
ሰግዱ	-8793
ሸከማ	-8794
ቃወሙ	-8795
በቅል	-8796
ቤልን	-8797
ታመኑ	-8798
ታትን	-8799
ነቱን	-8800
ንምን	-8801
ንቃቄ	-8802
ኖንም	-8803
አሶን	-8804
አትም	-8805
ኤል።	-8806
ኬምም	-8807
ዋትም	-8808
ዋውያ	-8809
ዋጋት	-8810
ያል።	-8811
ደርጎ	-8812
ጀምራ	-8813
ጠሚያ	-8814
ጠቅም	-8815
ጠውም	-8816
ጡም።	-8817
ፈርዱ	-8818
ፍረድ	-8819
ፍተው	-8820
▁ሄጄ	-8821
▁ላሜ	-8822
▁ልና	-8823
▁መሬ	-8824
▁መዋ	-8825
▁ሙላ	-8826
▁ማዳ	-8827
▁ሰቀ	-8828
▁ቀራ	-8829
▁ቆማ	-8830
▁ቆሜ	-8831
▁ቈላ	-8832
▁ቍስ	-8833
▁በሩ	-8834
▁በቄ	-8835
▁በጦ	-8836
▁ብኤ	-8837
▁ተበ	-8838
▁ተይ	-8839
▁ታድ	-8840
▁ነሣ	-8841
▁ናዖ	-8842
▁አሦ	-8843
▁አጭ	-8844
▁እደ	-8845
▁ካሳ	-8846
▁ወለ	-8847
▁የሬ	-8848
▁የቍ	-8849
▁የኔ	-8850
▁ያቆ	-8851
▁ይሒ	-8852
▁ይር	-8853
▁ደጀ	-8854
▁ድስ	-8855
▁ገር	-8856
▁ጌት	-8857
▁ጠን	-8858
▁ፈታ	-8859
▁ፈፋ	-8860
ሉአችሁ	-8861
ልኛል።	-8862
ልዓዛር	-8863
ምራችሁ	-8864
ቀጥቀጥ	-8865
ቤሜሌክ	-8866
ተላለፍ	-8867
ታለሁ፥	-8868
ታችሁና	-8869
አችሁን	-8870
ዎችንና	-8871
ያውያን	-8872
ደነቂያ	-8873
ዳቸው፥	-8874
ድርአዛ	-8875
ገኝም።	-8876
ፈራቸው	-8877
▁ሆይ።	-8878
▁ለምስ	-8879
▁ለሥጋ	-8880
▁ለበጎ	-8881
▁ለአብ	-8882
▁ለወይ	-8883
▁ሌላ፥	-8884
▁ልብን	-8885
▁ሐማም	-8886
▁ሕልቃ	-8887
▁ሠሩ።	-8888
▁ሠራው	-8889
▁ሥራን	-8890
▁ሥራ፤	-8891
▁ሥራ፥	-8892
▁ሥጋን	-8893
▁ሥጋዬ	-8894
▁ራስህ	-8895
▁ሬማት	-8896
▁ርቀው	-8897
▁ሰምታ	-8898
▁ሰውና	-8899
▁ሰጠ፤	-8900
▁ሳይወ	-8901
▁ስማ።	-8902
▁ሸሸ።	-8903
▁ሸቀጥ	-8904
▁ቅጠል	-8905
▁በልጁ	-8906
▁በመቶ	-8907
▁በብብ	-8908
▁በነጋ	-8909
▁በአዛ	-8910
▁በየመ	-8911
▁በገቡ	-8912
▁በጸሎ	-8913
▁ቢኖሩ	-8914
▁ባሕሩ	-8915
▁ባገኘ	-8916
▁ተለው	-8917
▁ተቈጥ	-8918
▁ተበቃ	-8919
▁ተኩል	-8920
▁ተወል	-8921
▁ታስባ	-8922
▁ታድነ	-8923
▁ነቀፋ	-8924
▁ነንና	-8925
▁ንገር	-8926
▁ንግግ	-8927
▁አለህ	-8928
▁አርቅ	-8929
▁አርክ	-8930
▁አሳዳ	-8931
▁አስቸ	-8932
▁አትሂ	-8933
▁አትዘ	-8934
▁አኪማ	-8935
▁አክብ	-8936
▁አዝዣ	-8937
▁አደገ	-8938
▁አዳም	-8939
▁አገኛ	-8940
▁አፈሰ	-8941
▁ኤፍሬ	-8942
▁እሾህ	-8943
▁እቀድ	-8944
▁እንጐ	-8945
▁እጥላ	-8946
▁እፈው	-8947
▁ኦርና	-8948
▁ከማይ	-8949
▁ከረጢ	-8950
▁ከሰጠ	-8951
▁ከስም	-8952
▁ከባድ	-8953
▁ከአር	-8954
▁ከአፌ	-8955
▁ኰበለ	-8956
▁ወይኑ	-8957
▁ውሾች	-8958
▁ውደድ	-8959
▁ዐመፀ	-8960
▁ዓይና	-8961
▁ዕዝራ	-8962
▁ዘርግ	-8963
▁የመከ	-8964
▁የቅን	-8965
▁የበዛ	-8966
▁የኃያ	-8967
▁የአክ	-8968
▁የከበ	-8969
▁የደም	-8970
▁ያኖሩ	-8971
▁ይመካ	-8972
▁ይዘጋ	-8973
▁ዮናታ	-8974
▁ደምም	-8975
▁ደረስ	-8976
▁ጠጎች	-8977
▁ጥቅም	-8978
▁ጦሩን	-8979
▁ጫንቃ	-8980
▁ጮኹ፥	-8981
▁ጻፍ።	-8982
▁ጽድቄ	-8983
▁ፈረደ	-8984
▁ፈትል	-8985
ሉአቸውም	-8986
ሉአቸው፤	-8987
ላቸዋል፥	-8988
ባቸዋል፤	-8989
ናውያንም	-8990
ፍታሌምም	-8991
▁ሁላቸው	-8992
▁ለሁለቱ	-8993
▁ለሕዝብ	-8994
▁ለሰይፍ	-8995
▁ለብቻው	-8996
▁ለዚህም	-8997
▁ሐሤትን	-8998
▁ሕግህን	-8999
▁መልኩም	-9000
▁መልካሚ	-9001
▁መበለት	-9002
▁መገረዝ	-9003
▁ሚስትህ	-9004
▁ሚዛኑም	-9005
▁ማልደው	-9006
▁ምናሴም	-9007
▁ሦስትም	-9008
▁ሰማይም	-9009
▁ሰደደ፤	-9010
▁ሰፈሩ፤	-9011
▁ስለምታ	-9012
▁ስብራት	-9013
▁ስፍራ፥	-9014
▁ቀልጠው	-9015
▁ቂርያት	-9016
▁ቅንነት	-9017
▁ቅድስና	-9018
▁በልቡም	-9019
▁በሕልም	-9020
▁በቍጣው	-9021
▁በበገና	-9022
▁በባሳን	-9023
▁በአሮን	-9024
▁በአውራ	-9025
▁በውኃው	-9026
▁በዝግባ	-9027
▁በጌታዬ	-9028
▁ባድማና	-9029
▁ተሞልታ	-9030
▁ተሰበረ	-9031
▁ተነሡ፤	-9032
▁ተነሥቼ	-9033
▁ተደርጎ	-9034
▁ተፈቅዶ	-9035
▁ታለቅሳ	-9036
▁ትዕግሥ	-9037
▁ኃይለኛ	-9038
▁ነበርሁ	-9039
▁ነደደ፥	-9040
▁ነፋሳት	-9041
▁ንገረኝ	-9042
▁አለፈ።	-9043
▁አልሰጠ	-9044
▁አልተቻ	-9045
▁አቀረበ	-9046
▁አብልጦ	-9047
▁አትሥሩ	-9048
▁አንዱ።	-9049
▁አዘነበ	-9050
▁አዛውን	-9051
▁አይራራ	-9052
▁አይቶ።	-9053
▁እንሥራ	-9054
▁እንጂ፤	-9055
▁እየጮኹ	-9056
▁እግሩን	-9057
▁ከመጠጡ	-9058
▁ከምርኮ	-9059
▁ከበርቴ	-9060
▁ከተማ፥	-9061
▁ከንፈሮ	-9062
▁ከጽዮን	-9063
▁ወለደ፥	-9064
▁ወረዱ፥	-9065
▁ወደማይ	-9066
▁ዓመፃን	-9067
▁ዓይንህ	-9068
▁የመገና	-9069
▁የሚሸፍ	-9070
▁የሚከፍ	-9071
▁የሚጠጣ	-9072
▁የማታው	-9073
▁የሜራሪ	-9074
▁የሰነፍ	-9075
▁የቀደሰ	-9076
▁የቀድሞ	-9077
▁የቤቱን	-9078
▁የተቀባ	-9079
▁የናዝሬ	-9080
▁የእርሻ	-9081
▁የፋርስ	-9082
▁ያለቅሱ	-9083
▁ያላችሁ	-9084
▁ይህንን	-9085
▁ይሰበራ	-9086
▁ይሰጠው	-9087
▁ይወስዱ	-9088
▁ይደነግ	-9089
▁ጆሮውን	-9090
▁ጌዴዎን	-9091
▁ጠብቁ፤	-9092
▁ጨለማም	-9093
▁ጽድቅም	-9094
▁ፍሬዋን	-9095
▁ፍሬውን	-9096
▁ፍርድም	-9097
▁ፍቺውን	-9098
▁ፍየል፤	-9099
▁ፍጹማን	-9100
ባቸዋለሁ፤	-9101
▁ሁላችሁ፥	-9102
▁ለቅዱሳን	-9103
▁ለንጉሡም	-9104
▁ለአንዱም	-9105
▁ለእነዚህ	-9106
▁መርዶክዮ	-9107
▁መንጋውን	-9108
▁መጨረሻው	-9109
▁ቍጥራቸው	-9110
▁በመሰንቆ	-9111
▁በሚኖሩት	-9112
▁በርሳችን	-9113
▁በሰልፍም	-9114
▁በሰማያዊ	-9115
▁በቅዱሳን	-9116
▁በቅድስና	-9117
▁በተናገር	-9118
▁በኋላቸው	-9119
▁በአምላክ	-9120
▁በዘላለም	-9121
▁በየዕለቱ	-9122
▁ብልጥግና	-9123
▁ብርሃንም	-9124
▁ተራሮችም	-9125
▁ተናገር።	-9126
▁ተከተለኝ	-9127
▁ትእዛዜን	-9128
▁ነበረው።	-9129
▁ነበራችሁ	-9130
▁ነገርንም	-9131
▁ነፍስህን	-9132
▁አለቀሱ።	-9133
▁አላደረግ	-9134
▁አመንዝራ	-9135
▁አራዊትም	-9136
▁አሮንንና	-9137
▁አስቴርም	-9138
▁አቀረበ።	-9139
▁አቀረበ፤	-9140
▁አትፍሩ፤	-9141
▁አትፍራ፤	-9142
▁እላለሁ፤	-9143
▁እስትንፋ	-9144
▁እስኪጠፉ	-9145
▁እናንተስ	-9146
▁እንጀራ፥	-9147
▁ከሊባኖስ	-9148
▁ከመቅደሱ	-9149
▁ከአይሁድ	-9150
▁ከያዕቆብ	-9151
▁የሊባኖስ	-9152
▁የመንፈስ	-9153
▁የሚሉትን	-9154
▁የሚመጣው	-9155
▁የሚኖሩት	-9156
▁የሚወድድ	-9157
▁የሚያመጣ	-9158
▁የሚያስተ	-9159
▁የሚገባው	-9160
▁የሞተውን	-9161
▁የሳኦልን	-9162
▁የቤቱንም	-9163
▁የብላቴና	-9164
▁የተቀረጹ	-9165
▁የኢዮአብ	-9166
▁የወይኑን	-9167
▁ያላቸውን	-9168
▁ያወጣል።	-9169
▁ይመለከታ	-9170
▁ይሞታል፤	-9171
▁ይበላል፤	-9172
▁ይንቀጠቀ	-9173
▁ይወጣል፥	-9174
▁ዮሐንስን	-9175
▁ጃንደረባ	-9176
▁ገደሉት።	-9177
▁ጠባቂዎች	-9178
ርያትይዓሪም	-9179
▁ለክርስቶስ	-9180
▁መዛሙርቱ።	-9181
▁ማስተስረያ	-9182
▁ሥርዓቱንም	-9183
▁ራሳቸውንም	-9184
▁ስድስተኛው	-9185
▁በሕዝቅያስ	-9186
▁በርሳቸውም	-9187
▁ትእዛዝህን	-9188
▁አልቀረም።	-9189
▁አልዓዛር፥	-9190
▁አራተኛውም	-9191
▁አርጤክስስ	-9192
▁አቤሜሌክም	-9193
▁አይችልም፤	-9194
▁ኢየሱስንም	-9195
▁ኢዮሣፍጥም	-9196
▁እሰጥሃለሁ	-9197
▁እንዳልሆነ	-9198
▁ከብንያምም	-9199
▁ከዮርዳኖስ	-9200
▁ወንድሞችን	-9201
▁ዘካርያስ፥	-9202
▁የምታደርጉ	-9203
▁የባሪያህን	-9204
▁የተገኘውን	-9205
▁የኢየሱስን	-9206
▁ይበላችሁ።	-9207
▁ድምፃቸውን	-9208
▁ለአባቶቻችን	-9209
▁ለአብርሃምና	-9210
▁ለደኅንነትም	-9211
▁ልብሳቸውንም	-9212
▁ሽማግሌዎችና	-9213
▁በባልንጀራው	-9214
▁በእስራኤልና	-9215
▁ኃጢአተኞችን	-9216
▁አምላካችንን	-9217
▁አይደለህምን	-9218
▁አደረጋቸው።	-9219
▁እናገራለሁ።	-9220
▁እንዳደረገው	-9221
▁እየተንቀጠቀ	-9222
▁የተቀረጸውን	-9223
▁ያደረግሁትን	-9224
▁ታቀርባላችሁ፤	-9225
▁አደርገዋለሁ።	-9226
▁ኢየሩሳሌምንም	-9227
▁እግዚአብሔርስ	-9228
▁ወንድሞቻቸውም	-9229
▁የተቀደሰውንም	-9230
ለሰ	-9231
ላድ	-9232
ልል	-9233
ልሞ	-9234
ልቃ	-9235
ልኛ	-9236
ሎሌ	-9237
ሜል	-9238
ሜር	-9239
ሩበ	-9240
ሪ፤	-9241
ራስ	-9242
ርዜ	-9243
ሮዔ	-9244
ሽው	-9245
ቀሳ	-9246
ቃት	-9247
ቅህ	-9248
ቆሮ	-9249
ቆን	-9250
ቈሰ	-9251
በጥ	-9252
ባና	-9253
ብለ	-9254
ቦካ	-9255
ቲም	-9256
ነጽ	-9257
ነ።	-9258
ካፍ	-9259
ክን	-9260
ዋሚ	-9261
ዘዛ	-9262
ዛው	-9263
ድህ	-9264
ድ።	-9265
ጆቼ	-9266
ገጥ	-9267
ጠሙ	-9268
ጣብ	-9269
ጦፋ	-9270
ጨት	-9271
ጭን	-9272
ጻት	-9273
ፉዱ	-9274
ፍሮ	-9275
▁ጳ	-9276
ሆንም	-9277
ለወጥ	-9278
ልኝም	-9279
ልከው	-9280
መስሉ	-9281
ማለጃ	-9282
ማመን	-9283
ማዊው	-9284
ሜራሪ	-9285
ምስት	-9286
ረዱ፥	-9287
ሰግድ	-9288
ሶችና	-9289
ሻውን	-9290
ቀው።	-9291
ቃሉ፤	-9292
ቃቸው	-9293
ቅዱሳ	-9294
ቈርጣ	-9295
በርክ	-9296
በቱን	-9297
ቤል፥	-9298
ቱን፥	-9299
ታምም	-9300
ቻለሁ	-9301
ቻለው	-9302
ነቢያ	-9303
ኑር።	-9304
ናታን	-9305
ከማቻ	-9306
ወደደ	-9307
ዋለህ	-9308
ዎስም	-9309
ዘዘው	-9310
ይትም	-9311
ዮንም	-9312
ደዱ፤	-9313
ድረስ	-9314
ድጓዱ	-9315
ዶላም	-9316
ጁንም	-9317
ገቡ፥	-9318
ገድላ	-9319
ጋይም	-9320
ግባር	-9321
ግባ፤	-9322
ጎችም	-9323
ጎናጸ	-9324
ጕንቸ	-9325
ጠረው	-9326
ጠሩት	-9327
ጠበቀ	-9328
ጠበቁ	-9329
ጠች።	-9330
ጠች፥	-9331
ጠው፤	-9332
ጮችና	-9333
ጸየፈ	-9334
ፈስሱ	-9335
ፋረድ	-9336
▁KW	-9337
▁ሁን	-9338
▁ለሳ	-9339
▁ለጻ	-9340
▁ላሞ	-9341
▁መላ	-9342
▁መሪ	-9343
▁መቆ	-9344
▁መዳ	-9345
▁ሜም	-9346
▁ሞል	-9347
▁ሞቱ	-9348
▁ራሔ	-9349
▁ሰረ	-9350
▁ሰራ	-9351
▁ሴሎ	-9352
▁ሴሰ	-9353
▁ቀሚ	-9354
▁ቁመ	-9355
▁ቈጠ	-9356
▁ተጻ	-9357
▁ታበ	-9358
▁ታዳ	-9359
▁ትጨ	-9360
▁አሒ	-9361
▁አተ	-9362
▁አጐ	-9363
▁አፉ	-9364
▁ኤስ	-9365
▁ኤሽ	-9366
▁ከለ	-9367
▁ኩላ	-9368
▁ውሻ	-9369
▁ዓሦ	-9370
▁ዔሊ	-9371
▁የሦ	-9372
▁የኅ	-9373
▁የየ	-9374
▁የዱ	-9375
▁ይሮ	-9376
▁ይዝ	-9377
▁ዲቦ	-9378
▁ድው	-9379
▁ጋት	-9380
▁ጋይ	-9381
▁ጠጥ	-9382
▁ጫነ	-9383
▁ጭኖ	-9384
▁ጮኾ	-9385
▁ጸያ	-9386
▁ፈው	-9387
▁ፍራ	-9388
ሃቸውም	-9389
ሃናይም	-9390
ሃይማኖ	-9391
ለችና፤	-9392
ለንና።	-9393
ሉአት።	-9394
ላለች።	-9395
ልሃል፥	-9396
ሎቻቸው	-9397
ማስቆም	-9398
ራችሁም	-9399
ሰበሰቡ	-9400
ተናልና	-9401
ተኞች፥	-9402
ቱንም።	-9403
ችሁትን	-9404
ችግረኛ	-9405
ነፈርም	-9406
ኖረበት	-9407
ኛውንም	-9408
አችሁ፥	-9409
ጆቻቸው	-9410
ገልግሎ	-9411
ፋጥያስ	-9412
▁ሁኑ፥	-9413
▁ሂዱ፤	-9414
▁ሄደን	-9415
▁ሄዶም	-9416
▁ለመር	-9417
▁ለማስ	-9418
▁ለራስ	-9419
▁ለባለ	-9420
▁ለባሽ	-9421
▁ለቤተ	-9422
▁ለዚያ	-9423
▁ሌዋዊ	-9424
▁ልብና	-9425
▁መለያ	-9426
▁መልሼ	-9427
▁መጥታ	-9428
▁ማለ።	-9429
▁ምላሳ	-9430
▁ሥራህ	-9431
▁ራሱም	-9432
▁ሰደዱ	-9433
▁ሲሄድ	-9434
▁ሲሆን	-9435
▁ሲያስ	-9436
▁ሲገባ	-9437
▁ሳያስ	-9438
▁ስጠኝ	-9439
▁ቃል።	-9440
▁ቍራጭ	-9441
▁ቍጣን	-9442
▁በመቃ	-9443
▁በርት	-9444
▁በቁር	-9445
▁በከበ	-9446
▁በኵሩ	-9447
▁በደጅ	-9448
▁በድያ	-9449
▁በግድ	-9450
▁በፍቅ	-9451
▁ቢወድ	-9452
▁ባርቅ	-9453
▁ብርም	-9454
▁ቦዔዝ	-9455
▁ተሰም	-9456
▁ተሸሽ	-9457
▁ተበተ	-9458
▁ተበት	-9459
▁ተገዝ	-9460
▁ተጨነ	-9461
▁ታላቂ	-9462
▁ታምሞ	-9463
▁ታስተ	-9464
▁ትቆማ	-9465
▁ትይዩ	-9466
▁ኃይሌ	-9467
▁ኋላም	-9468
▁ኖሮ፥	-9469
▁አረማ	-9470
▁አስማ	-9471
▁አቆማ	-9472
▁አቢግ	-9473
▁አትከ	-9474
▁አዩ።	-9475
▁አይከ	-9476
▁አይወ	-9477
▁አዳን	-9478
▁አገቡ	-9479
▁እምላ	-9480
▁እምቢ	-9481
▁እሞታ	-9482
▁እነሣ	-9483
▁እነግ	-9484
▁እኔ።	-9485
▁እየለ	-9486
▁እያየ	-9487
▁እይ፤	-9488
▁እፈራ	-9489
▁ከርኵ	-9490
▁ከቀይ	-9491
▁ከአስ	-9492
▁ከወገ	-9493
▁ከወጣ	-9494
▁ከደነ	-9495
▁ከገዛ	-9496
▁ካወጣ	-9497
▁ወለድ	-9498
▁ዘለላ	-9499
▁የማኅ	-9500
▁የሴት	-9501
▁የቃሬ	-9502
▁የታላ	-9503
▁የአህ	-9504
▁የክፉ	-9505
▁የዓይ	-9506
▁የዳን	-9507
▁የግድ	-9508
▁ያስቀ	-9509
▁ያዘዛ	-9510
▁ያዘ፥	-9511
▁ያዝዛ	-9512
▁ያድራ	-9513
▁ይለቅ	-9514
▁ይረዳ	-9515
▁ይሰሙ	-9516
▁ይሰድ	-9517
▁ይገል	-9518
▁ደካማ	-9519
▁ገሞራ	-9520
▁ገሠጸ	-9521
▁ጉዳይ	-9522
▁ግማሽ	-9523
▁ግራም	-9524
▁ጐዳና	-9525
▁ጠራቢ	-9526
▁ጠብቁ	-9527
▁ጠጅም	-9528
ልንጀራህ	-9529
ብራይስጥ	-9530
ቸዋልና።	-9531
አቸውም፥	-9532
ጥራቸውም	-9533
▁ለሁሉም	-9534
▁ለአባቱ	-9535
▁ለጥፋት	-9536
▁ሊያድን	-9537
▁ሐውልት	-9538
▁ሕፃናት	-9539
▁መሥራት	-9540
▁መብልን	-9541
▁መድረክ	-9542
▁ሥራህን	-9543
▁ራፋስቂ	-9544
▁ሮማኖች	-9545
▁ሰላምም	-9546
▁ሰልፍም	-9547
▁ሰቅል፥	-9548
▁ሰውንና	-9549
▁ሰይፉን	-9550
▁ሰደደ፥	-9551
▁ሳይመጣ	-9552
▁ሳይኖር	-9553
▁ስላልተ	-9554
▁ስርየት	-9555
▁ቀረቡ፥	-9556
▁ቃርሚያ	-9557
▁ቅፍርና	-9558
▁በመቅሠ	-9559
▁በሚባል	-9560
▁በማግሥ	-9561
▁በሜዳም	-9562
▁በምድራ	-9563
▁በሥርዓ	-9564
▁በራሱም	-9565
▁በብረት	-9566
▁በታችም	-9567
▁በነጋው	-9568
▁በእንስ	-9569
▁በወረደ	-9570
▁በዓለት	-9571
▁በዘመና	-9572
▁በጎዳና	-9573
▁በፀሐይ	-9574
▁በፈረስ	-9575
▁ቢሆኑ፥	-9576
▁ቢገኝ፥	-9577
▁ተራራማ	-9578
▁ተሰማ።	-9579
▁ተነሣ።	-9580
▁ተንኰል	-9581
▁ተከለከ	-9582
▁ተዘርግ	-9583
▁ተገኝቶ	-9584
▁ታያለህ	-9585
▁ትሁን።	-9586
▁ትመለሳ	-9587
▁ትቀመጣ	-9588
▁ናትና።	-9589
▁ናችሁ፥	-9590
▁አለኝ፤	-9591
▁አላት፤	-9592
▁አላወጣ	-9593
▁አልረሳ	-9594
▁አልፈራ	-9595
▁አምሳያ	-9596
▁አሠራር	-9597
▁አራተኛ	-9598
▁አስጠራ	-9599
▁አባቴን	-9600
▁አባትዋ	-9601
▁አትግደ	-9602
▁አኪጦፌ	-9603
▁አወቀ።	-9604
▁አያታል	-9605
▁አይብላ	-9606
▁አዲሱን	-9607
▁አገርና	-9608
▁አፍርሰ	-9609
▁እልልታ	-9610
▁እመለሳ	-9611
▁እርምጃ	-9612
▁እርግማ	-9613
▁እነማን	-9614
▁እናውቅ	-9615
▁እወስዳ	-9616
▁እጄንም	-9617
▁ከልጆቹ	-9618
▁ከሠላሳ	-9619
▁ከሰፈር	-9620
▁ከቀይም	-9621
▁ከእኛም	-9622
▁ከጥፋት	-9623
▁ኬጢያዊ	-9624
▁ወረዱ።	-9625
▁ወርቁን	-9626
▁ወርቅ፥	-9627
▁ወዳሉት	-9628
▁ወጭት፥	-9629
▁ውኃውን	-9630
▁ውኆችም	-9631
▁ዓይኑን	-9632
▁የልዑል	-9633
▁የሐሰት	-9634
▁የሚረግ	-9635
▁የሚነሣ	-9636
▁የሰጠው	-9637
▁የተከተ	-9638
▁የአሞጽ	-9639
▁የአሴር	-9640
▁የአባቴ	-9641
▁የአውራ	-9642
▁የአገር	-9643
▁የእንጨ	-9644
▁የወይራ	-9645
▁የወደቀ	-9646
▁የወጡት	-9647
▁የጽሩያ	-9648
▁ያለህን	-9649
▁ያመልኩ	-9650
▁ያስቈጡ	-9651
▁ይስማ።	-9652
▁ይሸከሙ	-9653
▁ይነግዱ	-9654
▁ይወርሱ	-9655
▁ድምፅም	-9656
▁ድስት፤	-9657
▁ጀመረ።	-9658
▁ጀምረው	-9659
▁ገደሉ፤	-9660
▁ጠራው፤	-9661
▁ጠቦት፤	-9662
▁ጥበበኛ	-9663
▁ጭልፋ፤	-9664
▁ጸሎቴን	-9665
▁ፍቅርን	-9666
ባችኋለሁ፤	-9667
▁ሁለተኛም	-9668
▁ለብቻቸው	-9669
▁ለወንድሙ	-9670
▁ሌዋውያኑ	-9671
▁ልባቸውን	-9672
▁ሐሰተኞች	-9673
▁ሕዝቡን።	-9674
▁መሸሸጊያ	-9675
▁መንገድን	-9676
▁መንፈስን	-9677
▁መውጫውም	-9678
▁መጥቶአል	-9679
▁ማርያምም	-9680
▁ምስጋናን	-9681
▁ሥራቸውም	-9682
▁ሥራቸውን	-9683
▁ርዝመቱም	-9684
▁ሰበሰበ።	-9685
▁ሰዎችንም	-9686
▁ሳኦልን።	-9687
▁ስምንት።	-9688
▁ቍርባንና	-9689
▁በሐሰትም	-9690
▁በሕያዋን	-9691
▁በሚመጣው	-9692
▁በምስጋና	-9693
▁በረከትን	-9694
▁በተቀመጠ	-9695
▁በተንኰል	-9696
▁በተዘረጋ	-9697
▁በእርሱና	-9698
▁በእንጨት	-9699
▁በኮረብታ	-9700
▁በዘወትር	-9701
▁በገንዘብ	-9702
▁በጌልገላ	-9703
▁በጕድጓድ	-9704
▁ባሪያዬን	-9705
▁ባቢሎንም	-9706
▁ባደረገው	-9707
▁ብሎአልና	-9708
▁ብዙዎችን	-9709
▁ተመልሰህ	-9710
▁ተቀመጡ፥	-9711
▁ተንበርክ	-9712
▁ተገለጠ።	-9713
▁ታላቅነት	-9714
▁ትላለህ።	-9715
▁ትሞታለህ	-9716
▁ችግረኞች	-9717
▁ነበረና።	-9718
▁ነፍሱንም	-9719
▁አላስቀረ	-9720
▁አልተቀበ	-9721
▁አልደረሰ	-9722
▁አሮንን።	-9723
▁አስቀመጡ	-9724
▁አስታውቃ	-9725
▁አቀረበ፥	-9726
▁አቃጠለ።	-9727
▁አትፍሩ፥	-9728
▁አንዳንዱ	-9729
▁አይሁድን	-9730
▁አይሆንም	-9731
▁አድርገና	-9732
▁ኤልሳዕም	-9733
▁እንዲሄድ	-9734
▁እያመሰገ	-9735
▁እግሩንም	-9736
▁እግሮቹም	-9737
▁ከማድረግ	-9738
▁ከአምላካ	-9739
▁ከእምነት	-9740
▁ኪሩቤልም	-9741
▁ወሰደው፥	-9742
▁ወሰዱት።	-9743
▁ዓይኖቹን	-9744
▁የመሥዋዕ	-9745
▁የሚመልስ	-9746
▁የሚያድን	-9747
▁የሚፈልግ	-9748
▁የማደሪያ	-9749
▁የምስራች	-9750
▁የሶርያም	-9751
▁የቅዱሳን	-9752
▁የተሸከሙ	-9753
▁የተገለጠ	-9754
▁የእርሱን	-9755
▁የዮሴፍም	-9756
▁የፊተኛው	-9757
▁ያስተምር	-9758
▁ያጥባል፥	-9759
▁ይሁዳንና	-9760
▁ይህንንም	-9761
▁ይመጣሉ።	-9762
▁ይመጣሉ፤	-9763
▁ይሞታሉ።	-9764
▁ይችላልን	-9765
▁ይኖራል፥	-9766
▁ይወጣሉ።	-9767
▁ይጠፋሉ፥	-9768
▁ይጠፋል፤	-9769
▁ይጸናል።	-9770
▁ደመናውም	-9771
▁ጸሐፊውም	-9772
▁ፍርድንም	-9773
▁ለመታሰቢያ	-9774
▁ለእናንተም	-9775
▁ለደኅንነት	-9776
▁ቍርባናቸው	-9777
▁በመጨረሻው	-9778
▁በርሳቸው።	-9779
▁በባሪያዎቹ	-9780
▁በአንደኛው	-9781
▁በእውነትም	-9782
▁በዙሪያቸው	-9783
▁በፈቃዳቸው	-9784
▁ብሎአልና።	-9785
▁ነገራቸው።	-9786
▁ናቡከደነፆ	-9787
▁አምስቱንም	-9788
▁አሞራውያን	-9789
▁አቢሜሌክም	-9790
▁አታድርጉ፤	-9791
▁አይደለምና	-9792
▁አድርገው።	-9793
▁ኢይዝራኤል	-9794
▁ኤልሳዕም።	-9795
▁ኤርምያስን	-9796
▁እናገራለሁ	-9797
▁እንግዲህም	-9798
▁ከሐምራዊም	-9799
▁ከመካከልህ	-9800
▁ከአሕዛብም	-9801
▁ከወንድሞች	-9802
▁ወንድማማች	-9803
▁የሕይወትን	-9804
▁የመታጠቢያ	-9805
▁የምትቀመጥ	-9806
▁የምድርንም	-9807
▁የቀረውንም	-9808
▁የባልንጀራ	-9809
▁ያደርጋሉ።	-9810
▁ይሆናልና።	-9811
▁ይናገራል፤	-9812
▁ይወድቃሉ፥	-9813
▁ይገባዋል።	-9814
▁ጃንደረቦች	-9815
▁መለሰላቸው።	-9816
▁ሰውነታቸውን	-9817
▁ሶርያውያንም	-9818
▁ቍርባናቸውን	-9819
▁በአምላካችሁ	-9820
▁በዕብራይስጥ	-9821
▁ታደርጋለህ።	-9822
▁አስቀድማችሁ	-9823
▁እሰድዳለሁ፥	-9824
▁የመገናኛውን	-9825
▁የሚያስጨንቁ	-9826
▁የተመረጡትን	-9827
▁ያቃጥለዋል።	-9828
▁መሰምርያዋን፤	-9829
▁እያንዳንዳችሁ	-9830
▁ያቀርቡላችኋል።	-9831
kW	-9832
ልቦ	-9833
መቂ	-9834
መዳ	-9835
ማያ	-9836
ምሁ	-9837
ሪጳ	-9838
ሮው	-9839
ሰዱ	-9840
ስብ	-9841
ቀስ	-9842
ቀቀ	-9843
ቀባ	-9844
ቁቻ	-9845
በሪ	-9846
ባዔ	-9847
ብቶ	-9848
ብዴ	-9849
ካዜ	-9850
ካ፥	-9851
ክት	-9852
ኮል	-9853
ዓ፥	-9854
ዝህ	-9855
የኝ	-9856
ጋባ	-9857
ጠቁ	-9858
ጡና	-9859
ጢፋ	-9860
ጦም	-9861
ጭም	-9862
ጻፍ	-9863
ፈወ	-9864
ፎኒ	-9865
▁ሢ	-9866
ሄልም	-9867
ህን፥	-9868
ለብሳ	-9869
ሊላም	-9870
ልበት	-9871
መገለ	-9872
ሙት።	-9873
ማሉ፥	-9874
ማረካ	-9875
ምም።	-9876
ምሰል	-9877
ምዋገ	-9878
ሠራዊ	-9879
ረጡ፥	-9880
ራሉ፥	-9881
ራት።	-9882
ርዳት	-9883
ሮስን	-9884
ሰውም	-9885
ሴርም	-9886
ስም፤	-9887
ስንዴ	-9888
ሻልና	-9889
ሻገሩ	-9890
ቀበት	-9891
ቀትም	-9892
ቃል፤	-9893
ቈረጠ	-9894
ቋንቋ	-9895
በላ፥	-9896
በሶች	-9897
ባብራ	-9898
ብያ፥	-9899
ታምር	-9900
ትህም	-9901
ትና።	-9902
ችሁ፤	-9903
ነካው	-9904
ነግሩ	-9905
ናንያ	-9906
ኛይቱ	-9907
ኤል፤	-9908
ከማች	-9909
ኸኝ፤	-9910
ወስዱ	-9911
ያንና	-9912
ያን፥	-9913
ደክም	-9914
ዳዊው	-9915
ዴትም	-9916
ዶቹም	-9917
ጆች፥	-9918
ገላን	-9919
ግባ፥	-9920
ጐድል	-9921
ጠይቃ	-9922
ጽዮን	-9923
ፈለግ	-9924
ፍርም	-9925
▁ለሲ	-9926
▁ሐር	-9927
▁መደ	-9928
▁መጫ	-9929
▁ሙሾ	-9930
▁ረከ	-9931
▁ሰኮ	-9932
▁ሲባ	-9933
▁ሳሚ	-9934
▁ሳው	-9935
▁ስቀ	-9936
▁ሽም	-9937
▁በሪ	-9938
▁በዪ	-9939
▁በጅ	-9940
▁በጊ	-9941
▁በጾ	-9942
▁ቢሸ	-9943
▁ተቋ	-9944
▁ታዩ	-9945
▁ነሽ	-9946
▁ንጥ	-9947
▁ኤዶ	-9948
▁እዩ	-9949
▁ከጫ	-9950
▁ዋላ	-9951
▁ዋነ	-9952
▁የሺ	-9953
▁የዲ	-9954
▁ይሾ	-9955
▁ይቁ	-9956
▁ይዤ	-9957
▁ዳኛ	-9958
▁ገዡ	-9959
▁ጉቦ	-9960
▁ጐበ	-9961
▁ጨዋ	-9962
ሃቸው፤	-9963
ለቆችና	-9964
ሉትንም	-9965
ላትም።	-9966
ላችንም	-9967
ላውያን	-9968
መሰግን	-9969
ማቸውን	-9970
ማግሎች	-9971
ረደውን	-9972
ራችሁን	-9973
ሰበስብ	-9974
ባታል፤	-9975
ብሮንም	-9976
ተናል።	-9977
ታቸውና	-9978
ትናገር	-9979
ቶአል፥	-9980
ቻቸው፥	-9981
ኋለኞች	-9982
ኋቸውን	-9983
ኋችሁን	-9984
ናልና፤	-9985
ናክሬም	-9986
ኛለህ፤	-9987
ኛልና፤	-9988
አቸውና	-9989
ካችሁ፥	-9990
ወዝወዝ	-9991
ዘጋጀው	-9992
ዶቹንም	-9993
ገልገያ	-9994
ጣቸው፤	-9995
ጣቸው፥	-9996
ፈስሰው	-9997
▁ሂድ።	-9998
▁ሆኖም	-9999
▁ለመስ	-10000
▁ለመብ	-10001
▁ለሥራ	-10002
▁ለስሜ	-10003
▁ላይና	-10004
▁ላይ።	-10005
▁ልብሶ	-10006
▁ሎጥም	-10007
▁መሆና	-10008
▁መለስ	-10009
▁መዓካ	-10010
▁መጣህ	-10011
▁ማዕዘ	-10012
▁ሰይፌ	-10013
▁ሰዶም	-10014
▁ሲድራ	-10015
▁ሳውል	-10016
▁ሴትን	-10017
▁ሴት፥	-10018
▁ስጥ፥	-10019
▁ሸምግ	-10020
▁ቀስተ	-10021
▁ቀኝም	-10022
▁ቁመቱ	-10023
▁ቃልና	-10024
▁ቅንዓ	-10025
▁ቆሞ።	-10026
▁ቆንጆ	-10027
▁ቍጣዬ	-10028
▁በሆድ	-10029
▁በማዕ	-10030
▁በሞተ	-10031
▁በስሙ	-10032
▁በበሬ	-10033
▁በኃያ	-10034
▁በአብ	-10035
▁በግመ	-10036
▁በጣቱ	-10037
▁ቢመጣ	-10038
▁ቢበድ	-10039
▁ባለፈ	-10040
▁ባየው	-10041
▁ቤትሖ	-10042
▁ቤት።	-10043
▁ብታስ	-10044
▁ብድራ	-10045
▁ተማም	-10046
▁ተቈር	-10047
▁ተባለ	-10048
▁ተካፈ	-10049
▁ተጸጸ	-10050
▁ታመጣ	-10051
▁ታናሺ	-10052
▁ታገኙ	-10053
▁ትባላ	-10054
▁አማች	-10055
▁አረደ	-10056
▁አሰኛ	-10057
▁አስጥ	-10058
▁አበር	-10059
▁አባረ	-10060
▁አታዩ	-10061
▁አይው	-10062
▁አደን	-10063
▁አደጋ	-10064
▁እልክ	-10065
▁እተክ	-10066
▁እከፍ	-10067
▁እየዘ	-10068
▁እያሳ	-10069
▁እጄም	-10070
▁እጅና	-10071
▁እፈጽ	-10072
▁ከመር	-10073
▁ከመቃ	-10074
▁ከምታ	-10075
▁ከሴት	-10076
▁ከአቢ	-10077
▁ከእጃ	-10078
▁ከውኃ	-10079
▁ከፍሬ	-10080
▁ከፍየ	-10081
▁ወሰዳ	-10082
▁ወኅኒ	-10083
▁ወደማ	-10084
▁ወጥመ	-10085
▁ዋጋው	-10086
▁ዕቃ፥	-10087
▁ዘመድ	-10088
▁ዘሩባ	-10089
▁የሕግ	-10090
▁የመለ	-10091
▁የማለ	-10092
▁የሜዳ	-10093
▁የተማ	-10094
▁የተር	-10095
▁የተሸ	-10096
▁የተሾ	-10097
▁የወፍ	-10098
▁የደከ	-10099
▁የፈረ	-10100
▁ያቀና	-10101
▁ያዘዘ	-10102
▁ያጥን	-10103
▁ይሠዉ	-10104
▁ይረጨ	-10105
▁ይቀር	-10106
▁ይቈረ	-10107
▁ይይዙ	-10108
▁ይጠባ	-10109
▁ደብረ	-10110
▁ጕድፍ	-10111
▁ጠጉር	-10112
▁ጠፈር	-10113
▁ጣዖት	-10114
▁ጥፍጥ	-10115
▁ጨምሮ	-10116
▁ጻድቃ	-10117
▁ፈሩ፥	-10118
▁ፈርቶ	-10119
▁ፊቱም	-10120
▁ፌዘኛ	-10121
▁ፍረድ	-10122
▁ፍርም	-10123
▁ፍጥረ	-10124
መለሳችሁ	-10125
ቀርበውን	-10126
ባችኋል።	-10127
ታቸውንና	-10128
አቸዋልና	-10129
ዛብሎንም	-10130
የስማቸው	-10131
▁ሁለንተ	-10132
▁ለሰነፍ	-10133
▁ለሰውም	-10134
▁ለሰዎች	-10135
▁ለአባቴ	-10136
▁ለእንግ	-10137
▁ለክብር	-10138
▁ልቅሶና	-10139
▁ልጁንም	-10140
▁መረገጫ	-10141
▁መባውም	-10142
▁መብላት	-10143
▁መናፍስ	-10144
▁መንገዳ	-10145
▁መዓቴን	-10146
▁መጻሕፍ	-10147
▁መጽናና	-10148
▁ማሰናከ	-10149
▁ምልክቱ	-10150
▁ራሳችን	-10151
▁ሰንበታ	-10152
▁ሰዎቹን	-10153
▁ሰይፍም	-10154
▁ሰይፍና	-10155
▁ሰገነት	-10156
▁ሰጡት።	-10157
▁ስለማይ	-10158
▁ስቡንም	-10159
▁ስጠኝ፤	-10160
▁ሸማያ፥	-10161
▁ቀድሞው	-10162
▁ቅዱስ፥	-10163
▁ቅድስተ	-10164
▁ቍጣውን	-10165
▁በልተው	-10166
▁በልጆቹ	-10167
▁በልጆች	-10168
▁በመዓት	-10169
▁በምድሩ	-10170
▁በሠራው	-10171
▁በራስህ	-10172
▁በስሙም	-10173
▁በቀር፥	-10174
▁በቍጥር	-10175
▁በበሩም	-10176
▁በቤትም	-10177
▁በብዙም	-10178
▁በተሠራ	-10179
▁በታላቁ	-10180
▁በትምህ	-10181
▁በአሞን	-10182
▁በእኛና	-10183
▁በዓረባ	-10184
▁በዓይኔ	-10185
▁በደረሱ	-10186
▁በጎችና	-10187
▁ባሕርን	-10188
▁ባሪያዎ	-10189
▁ተሠርቶ	-10190
▁ተቃዋሚ	-10191
▁ተነሥታ	-10192
▁ተነሥ፥	-10193
▁ተከፈተ	-10194
▁ተገናኙ	-10195
▁ተጻፈ።	-10196
▁ትክክል	-10197
▁ትኵሳት	-10198
▁ትጠግባ	-10199
▁ነህና፥	-10200
▁ነበርን	-10201
▁ነውረኛ	-10202
▁ነፍሱም	-10203
▁አለቃም	-10204
▁አለን።	-10205
▁አልመረ	-10206
▁አልሠራ	-10207
▁አልበደ	-10208
▁አልፈው	-10209
▁አሥሩን	-10210
▁አብዝቶ	-10211
▁አታርክ	-10212
▁አናውቅ	-10213
▁አኖረ።	-10214
▁አኖረ፥	-10215
▁አካሄዱ	-10216
▁አክብር	-10217
▁አወጣ፥	-10218
▁አውቀው	-10219
▁አይተን	-10220
▁አገባ፤	-10221
▁አግሪጳ	-10222
▁አፈረሰ	-10223
▁ኤልያሴ	-10224
▁እህልን	-10225
▁እምቦሳ	-10226
▁እስከሚ	-10227
▁እስክን	-10228
▁እናትህ	-10229
▁እንኖራ	-10230
▁እንጐቻ	-10231
▁እጃቸው	-10232
▁ከመሬት	-10233
▁ከመንፈ	-10234
▁ከሚያስ	-10235
▁ከሰውም	-10236
▁ከሰዎች	-10237
▁ከባሕር	-10238
▁ከታናሽ	-10239
▁ከንቱን	-10240
▁ከአባት	-10241
▁ከዚህች	-10242
▁ከየነገ	-10243
▁ከድንኳ	-10244
▁ወይንም	-10245
▁ውርንጫ	-10246
▁ዓይኖቹ	-10247
▁ዘይት፥	-10248
▁ዝናብም	-10249
▁የለምጽ	-10250
▁የልመና	-10251
▁የመጠጡ	-10252
▁የመጣው	-10253
▁የሚሠዋ	-10254
▁የሚከለ	-10255
▁የሚገቡ	-10256
▁የማዝዝ	-10257
▁የርግብ	-10258
▁የባዶስ	-10259
▁የተሰጠ	-10260
▁የእሴይ	-10261
▁የእንስ	-10262
▁የደመና	-10263
▁የጌድሶ	-10264
▁የጨለማ	-10265
▁የፍርድ	-10266
▁ያሳድዱ	-10267
▁ያዋርዳ	-10268
▁ያውቃል	-10269
▁ይሆንን	-10270
▁ይላል፥	-10271
▁ይመስገ	-10272
▁ይሰግዱ	-10273
▁ይበላሉ	-10274
▁ይውጣ፥	-10275
▁ይጸልይ	-10276
▁ደመናው	-10277
▁ደንቆሮ	-10278
▁ዳርዮስ	-10279
▁ድምፅና	-10280
▁ጆሮህን	-10281
▁ገንዘቡ	-10282
▁ግብዞች	-10283
▁ጠየቀ።	-10284
▁ጥቂትም	-10285
▁ጭንቀት	-10286
▁ጻድቁን	-10287
▁ጽዋውን	-10288
ላቸዋለሁ።	-10289
▁ሄሮድስም	-10290
▁ሆኖአል፤	-10291
▁ለማግኘት	-10292
▁ለሠራዊት	-10293
▁ለአባትህ	-10294
▁ለካህናቱ	-10295
▁ሕፃናትን	-10296
▁መቅደስም	-10297
▁መንፈስ፥	-10298
▁መጠጊያዬ	-10299
▁መጥመቂያ	-10300
▁ምልክትና	-10301
▁ምልክቶች	-10302
▁ሠራዊቱም	-10303
▁ሮብዓምም	-10304
▁ሰውነትህ	-10305
▁ሰይጣንም	-10306
▁ስላደረገ	-10307
▁ቀርሜሎስ	-10308
▁ቍርባንን	-10309
▁በሐዋርያ	-10310
▁በመቃብር	-10311
▁በመድኃኒ	-10312
▁በማስተዋ	-10313
▁በምሕረት	-10314
▁በምድሪቱ	-10315
▁በራሳችሁ	-10316
▁በሽማግሌ	-10317
▁በቅድስተ	-10318
▁በብርሃን	-10319
▁በእጅህም	-10320
▁በየሠራዊ	-10321
▁በገባችሁ	-10322
▁በገባዖን	-10323
▁በፊታችን	-10324
▁ብልጣሶር	-10325
▁ብሎአል።	-10326
▁ተለይተው	-10327
▁ተመለሰ፤	-10328
▁ተመልሶም	-10329
▁ተመልከት	-10330
▁ተራራማው	-10331
▁ተሰበሰቡ	-10332
▁ተሻገሩ።	-10333
▁ተኣምራት	-10334
▁ተዘልለው	-10335
▁ታውቃለህ	-10336
▁ትእዛዙን	-10337
▁ትወርሳት	-10338
▁አሉአት።	-10339
▁አላደረጉ	-10340
▁አምጡልኝ	-10341
▁አምጥተው	-10342
▁አቅርቡ።	-10343
▁አባቶችህ	-10344
▁አብደናጎ	-10345
▁አትበል።	-10346
▁አደረግሁ	-10347
▁አድምጡ፤	-10348
▁ኢዮአብና	-10349
▁እመሰክር	-10350
▁እርሻውን	-10351
▁እሰጣለሁ	-10352
▁እናንተና	-10353
▁ከመልካም	-10354
▁ከሽማግሌ	-10355
▁ከተራራው	-10356
▁ከእጃቸው	-10357
▁ወንድሙም	-10358
▁ዕንቅፋት	-10359
▁የለውም፤	-10360
▁የላቸውም	-10361
▁የመሠዊያ	-10362
▁የሚሆነው	-10363
▁የሚናገሩ	-10364
▁የሠራውም	-10365
▁የሰማይም	-10366
▁የተዘጋጀ	-10367
▁የተጻፈው	-10368
▁የነቢያት	-10369
▁የኖረበት	-10370
▁የአሮንን	-10371
▁የእውነት	-10372
▁የከተማይ	-10373
▁የወለደች	-10374
▁የግብጽን	-10375
▁ያስተምሩ	-10376
▁ያደረግህ	-10377
▁ይሄዳሉ።	-10378
▁ይባረክ።	-10379
▁ዲያብሎስ	-10380
▁ድንጋይም	-10381
▁ገበታዎች	-10382
▁ጌዴዎንም	-10383
▁ጢሞቴዎስ	-10384
▁ፊታቸውን	-10385
▁መልካሙንም	-10386
▁መንኰራኵር	-10387
▁መንግሥቱም	-10388
▁መድኃኒትን	-10389
▁ማደሪያውን	-10390
▁ምድራቸውን	-10391
▁ሠራዊቱም፥	-10392
▁ሥርዓትህን	-10393
▁ርስታቸውን	-10394
▁ሰጡአቸው።	-10395
▁በመቅደሱም	-10396
▁በምዕራብም	-10397
▁በራሳቸውም	-10398
▁በትዕግሥት	-10399
▁በኮረብቶች	-10400
▁በዓይናቸው	-10401
▁ብላችኋል።	-10402
▁ተመልሳችሁ	-10403
▁ተሰበሰቡ፤	-10404
▁ተሰበሰቡ፥	-10405
▁ተናገረኝ።	-10406
▁ትሆናለህ፥	-10407
▁ትላላችሁ።	-10408
▁ትበላለች።	-10409
▁ትእዛዜንም	-10410
▁አላቸውም።	-10411
▁አልተናገር	-10412
▁አሳባቸውን	-10413
▁አስቀድሞም	-10414
▁አይሆንም፥	-10415
▁አይደለሁም	-10416
▁አይደሉም።	-10417
▁አደረገው፥	-10418
▁አደረግሁ።	-10419
▁አጸናለሁ።	-10420
▁እንዳላችሁ	-10421
▁ከተቀደሰው	-10422
▁ከአብርሃም	-10423
▁ወንድማችሁ	-10424
▁ወደምትባል	-10425
▁የመንግሥት	-10426
▁የሚንቀሳቀ	-10427
▁የተቀመጠው	-10428
▁የንፍታሌም	-10429
▁የከተማይቱ	-10430
▁ያልተገረዘ	-10431
▁ያደረገውም	-10432
▁ይናገራሉ፥	-10433
▁ይወድቃሉ፤	-10434
▁በተራራማውም	-10435
▁በዮርዳኖስም	-10436
▁ተናግሮአልና	-10437
▁ታደርጋለህ፤	-10438
▁ትበላላችሁ።	-10439
▁አምላካቸውን	-10440
▁አይደለሁም።	-10441
▁እሰጣችኋለሁ	-10442
▁እንዲያደርጉ	-10443
▁እንዳዘዘው፥	-10444
▁እንዳደረግሁ	-10445
▁ከመካከላቸው	-10446
▁ከከተማይቱም	-10447
▁የሁለተኛውም	-10448
▁የሚያገለግሉ	-10449
▁የነበረውንም	-10450
▁የክርስቶስን	-10451
▁ያስተምራቸው	-10452
▁በናቡከደነፆር	-10453
▁እለምንሃለሁ።	-10454
▁እለምንሃለሁ፤	-10455
▁እንደየስማቸው	-10456
▁የሚያደርገውን	-10457
▁በየትውልዳቸው፥	-10458
▁አመሰግንሃለሁ።	-10459
▁የፍልስጥኤማውያንም	-10460
▁የፍልስጥኤማውያንን	-10461
ለፋ	-10462
ሊቀ	-10463
ሊቱ	-10464
ሑን	-10465
ሖሊ	-10466
ሖር	-10467
ማዊ	-10468
ምቁ	-10469
ሣቀ	-10470
ሤም	-10471
ረፍ	-10472
ርጋ	-10473
ሸሹ	-10474
ሺ፤	-10475
ሻም	-10476
ቅሁ	-10477
ባድ	-10478
ቤና	-10479
ብቱ	-10480
ብዙ	-10481
ብጥ	-10482
ተኑ	-10483
ነቃ	-10484
ናና	-10485
ከስ	-10486
ከሻ	-10487
ውሮ	-10488
ዘወ	-10489
ይዝ	-10490
ዳው	-10491
ዳያ	-10492
ገበ	-10493
ጋግ	-10494
ጎድ	-10495
ጥቀ	-10496
ጥቅ	-10497
ጪ፤	-10498
ጫት	-10499
ጭዳ	-10500
ፋዝ	-10501
ፋፈ	-10502
ፌት	-10503
ፍስ	-10504
ሁህም	-10505
ሁምና	-10506
ለብስ	-10507
ለቱም	-10508
ለታል	-10509
ላሉ፥	-10510
ልህም	-10511
ልቅም	-10512
ልቅ፥	-10513
ሎቹም	-10514
መልከ	-10515
መንዝ	-10516
መጡት	-10517
ምታት	-10518
ሠሩ፥	-10519
ረውም	-10520
ረው።	-10521
ረዱ።	-10522
ሩበት	-10523
ሩት፤	-10524
ራሉ።	-10525
ራል፤	-10526
ርህም	-10527
ሮችና	-10528
ሶቹም	-10529
ሽበት	-10530
ሾችና	-10531
ቀቅ።	-10532
ቄምን	-10533
ቅበዝ	-10534
ቈረጥ	-10535
ቋርጥ	-10536
በላና	-10537
በረቱ	-10538
በርር	-10539
በሰብ	-10540
በኔር	-10541
ቡትን	-10542
ባርክ	-10543
ቤድኤ	-10544
ብህ፥	-10545
ቦቹም	-10546
ተህም	-10547
ታመን	-10548
ታምኑ	-10549
ታትም	-10550
ችውም	-10551
ነሣ፥	-10552
ነዚህ	-10553
ነግሡ	-10554
ናዳብ	-10555
ኣልም	-10556
ኤልና	-10557
ከበር	-10558
ኸው፤	-10559
ኸው፥	-10560
ወድቁ	-10561
ወግዳ	-10562
ውጣ።	-10563
ዖን፥	-10564
ዝኤል	-10565
ደኛው	-10566
ዳን፥	-10567
ድሶን	-10568
ጆችን	-10569
ገትም	-10570
ጣት፥	-10571
ጥረኛ	-10572
ጨንቃ	-10573
ጸየፉ	-10574
ጽሐፉ	-10575
ጽሕና	-10576
ፈረድ	-10577
ፈጠረ	-10578
ፍሮች	-10579
ፍሰስ	-10580
▁ለን	-10581
▁ለጦ	-10582
▁ለጸ	-10583
▁ለፈ	-10584
▁ልያ	-10585
▁ሎጥ	-10586
▁መቍ	-10587
▁ሙግ	-10588
▁ረጨ	-10589
▁ሰዓ	-10590
▁ሲላ	-10591
▁ሲሣ	-10592
▁ሳመ	-10593
▁ሽሹ	-10594
▁ቆሬ	-10595
▁ቈራ	-10596
▁በሄ	-10597
▁በሎ	-10598
▁በጺ	-10599
▁ቢቻ	-10600
▁ባወ	-10601
▁ተብ	-10602
▁ተጓ	-10603
▁ታግ	-10604
▁ትሑ	-10605
▁ትነ	-10606
▁ትዋ	-10607
▁ነድ	-10608
▁ነጣ	-10609
▁አጎ	-10610
▁እፍ	-10611
▁ከሱ	-10612
▁ከቍ	-10613
▁ከኦ	-10614
▁ከጎ	-10615
▁ካለ	-10616
▁ወዶ	-10617
▁ወፎ	-10618
▁ዓዝ	-10619
▁ያብ	-10620
▁ይም	-10621
▁ይኑ	-10622
▁ጥን	-10623
▁ጫኑ	-10624
▁ጾም	-10625
ሃቸው፥	-10626
ህበትም	-10627
ለቆችም	-10628
ላችሁት	-10629
መለሱ፥	-10630
ሜስያስ	-10631
ምዋገት	-10632
ሞንዔም	-10633
ሩትንም	-10634
ሰናከል	-10635
ሳለሁ።	-10636
ሳለሁ፤	-10637
ሳቸው፥	-10638
ቀዋል፤	-10639
ባትንም	-10640
ባችሁን	-10641
ባችሁ፥	-10642
ተሃልና	-10643
ትንሣኤ	-10644
ቶቹንና	-10645
ቶችዋም	-10646
ችልም፤	-10647
ችኋቸው	-10648
ኋቸውም	-10649
ኋችሁ፥	-10650
ነገረው	-10651
ናገር፥	-10652
አችሁም	-10653
ከራከሩ	-10654
ኮንያን	-10655
ዎችህም	-10656
ዘጋጀት	-10657
ጃንደረ	-10658
ገለገለ	-10659
ገባችሁ	-10660
ጠኛውም	-10661
▁ሁከት	-10662
▁ሂዱ።	-10663
▁ሆምጣ	-10664
▁ለሆኑ	-10665
▁ለሚወ	-10666
▁ለምድ	-10667
▁ለበሰ	-10668
▁ለቤቱ	-10669
▁ለተራ	-10670
▁ለካ፤	-10671
▁ለወን	-10672
▁ለወገ	-10673
▁ለዘሩ	-10674
▁ለጠቦ	-10675
▁ሊዋጉ	-10676
▁ልጅዋ	-10677
▁ሕጉን	-10678
▁ሕግና	-10679
▁መስቀ	-10680
▁መባቻ	-10681
▁መቤዠ	-10682
▁መብት	-10683
▁መከሩ	-10684
▁መዓዛ	-10685
▁መጠም	-10686
▁ማቅም	-10687
▁ማወቅ	-10688
▁ማዕድ	-10689
▁ማጭድ	-10690
▁ምዕራ	-10691
▁ሞትም	-10692
▁ሞግዚ	-10693
▁ሥቃይ	-10694
▁ሥጋው	-10695
▁ረዳት	-10696
▁ሰሙ፤	-10697
▁ሰይፋ	-10698
▁ሰጡ፤	-10699
▁ሲሰሙ	-10700
▁ስለም	-10701
▁ሶምሶ	-10702
▁ቀሚስ	-10703
▁ቁመት	-10704
▁ቃዴስ	-10705
▁በሄድ	-10706
▁በልጅ	-10707
▁በቃሌ	-10708
▁በቶሎ	-10709
▁በአካ	-10710
▁በወጥ	-10711
▁በጋይ	-10712
▁በጨው	-10713
▁ቢተኛ	-10714
▁ብሎ።	-10715
▁ተመረ	-10716
▁ተረከ	-10717
▁ተሰነ	-10718
▁ተሻግ	-10719
▁ተቀድ	-10720
▁ተቃጥ	-10721
▁ተተክ	-10722
▁ተከፍ	-10723
▁ተካፋ	-10724
▁ተገደ	-10725
▁ተጋደ	-10726
▁ታምና	-10727
▁ታዳጊ	-10728
▁ታገባ	-10729
▁ትመታ	-10730
▁ትበሉ	-10731
▁ኃይሉ	-10732
▁ነነዌ	-10733
▁ንገሥ	-10734
▁አልፋ	-10735
▁አምኖ	-10736
▁አርማ	-10737
▁አርፋ	-10738
▁አሳስ	-10739
▁አቃለ	-10740
▁አብዩ	-10741
▁አትጨ	-10742
▁አንሣ	-10743
▁አጋር	-10744
▁አጠፉ	-10745
▁አጥማ	-10746
▁አጥፋ	-10747
▁አፌን	-10748
▁እሄድ	-10749
▁እናቴ	-10750
▁እንወ	-10751
▁እድና	-10752
▁ከሆኑ	-10753
▁ከለዳ	-10754
▁ከራሴ	-10755
▁ከርስ	-10756
▁ከበግ	-10757
▁ከተሰ	-10758
▁ከእና	-10759
▁ከዳር	-10760
▁ከገባ	-10761
▁ኪራም	-10762
▁ክርክ	-10763
▁ኰብል	-10764
▁ወረድ	-10765
▁ወርዱ	-10766
▁ዋይታ	-10767
▁ዐፀድ	-10768
▁ዕብራ	-10769
▁የሚፈ	-10770
▁የምሰ	-10771
▁የረገ	-10772
▁የራስ	-10773
▁የራጉ	-10774
▁የስር	-10775
▁የባሰ	-10776
▁የእኅ	-10777
▁የግብ	-10778
▁የጸጋ	-10779
▁የፍሬ	-10780
▁ያምጣ	-10781
▁ያነጻ	-10782
▁ያንም	-10783
▁ያኖረ	-10784
▁ያጠም	-10785
▁ይላሉ	-10786
▁ይርቃ	-10787
▁ይሸሻ	-10788
▁ይቃወ	-10789
▁ይቆሙ	-10790
▁ይከፈ	-10791
▁ይደክ	-10792
▁ዮአስ	-10793
▁ገድሎ	-10794
▁ጊደር	-10795
▁ጌታ፥	-10796
▁ግብዝ	-10797
▁ጕልበ	-10798
▁ጥዋት	-10799
▁ጭንቀ	-10800
▁ጮኹ፤	-10801
▁ጸና፥	-10802
▁ጸያፍ	-10803
▁ጽሕፈ	-10804
▁ጽናት	-10805
▁ጽድቁ	-10806
▁ፈለጉ	-10807
▁ፈቃዱ	-10808
▁ፊትህ	-10809
▁ፍቀድ	-10810
ላችሁም።	-10811
ሎቻቸውን	-10812
ራችሁንም	-10813
ሮቻቸውን	-10814
ቀመጥበት	-10815
በራቸውም	-10816
ባችሁምን	-10817
ተኞችንም	-10818
ቸዋለህ፤	-10819
አቸውም፤	-10820
አችኋል፤	-10821
ዱቃውያን	-10822
▁ሃይማኖ	-10823
▁ለማስተ	-10824
▁ለምጻም	-10825
▁ለራሱም	-10826
▁ለቀሩት	-10827
▁ለአውሬ	-10828
▁ለእንስ	-10829
▁ለዘርህ	-10830
▁ሊያስተ	-10831
▁ላደርግ	-10832
▁ሐሤትም	-10833
▁መስማት	-10834
▁መቀመጥ	-10835
▁መብረቅ	-10836
▁መግደላ	-10837
▁ሚስትም	-10838
▁ማቅረብ	-10839
▁ሜምፊቦ	-10840
▁ምሰሶች	-10841
▁ሞኝነት	-10842
▁ሞዓብም	-10843
▁ሠራዊቱ	-10844
▁ርኅራኄ	-10845
▁ሰማሁ፤	-10846
▁ሰገዱ።	-10847
▁ሲወርድ	-10848
▁ሲያልፍ	-10849
▁ስላለው	-10850
▁ሸሽተው	-10851
▁ሽንገላ	-10852
▁ቀድሞም	-10853
▁ቅድስት	-10854
▁በላይህ	-10855
▁በልቅሶ	-10856
▁በመሸም	-10857
▁በራእይ	-10858
▁በሰማች	-10859
▁በሰውም	-10860
▁በሴይር	-10861
▁በቀንም	-10862
▁በቃዴስ	-10863
▁በበረሀ	-10864
▁በበትር	-10865
▁በኋላው	-10866
▁በአህያ	-10867
▁በአባት	-10868
▁በአዕማ	-10869
▁በአፍን	-10870
▁በእሾህ	-10871
▁በኮሬብ	-10872
▁በወገቡ	-10873
▁በዮሴፍ	-10874
▁በዳርቻ	-10875
▁በጌታም	-10876
▁በጎችን	-10877
▁በፈረሰ	-10878
▁ቤርሳቤ	-10879
▁ቤታቸው	-10880
▁ቦዔዝም	-10881
▁ተለውጦ	-10882
▁ተላላፊ	-10883
▁ተመለሱ	-10884
▁ተራራዬ	-10885
▁ተሸክሞ	-10886
▁ተነገረ	-10887
▁ተወልዶ	-10888
▁ተደፍቶ	-10889
▁ተጓዙ፤	-10890
▁ተጻፈ፥	-10891
▁ታላቁም	-10892
▁ትላለህ	-10893
▁ትሸከማ	-10894
▁ትወድቃ	-10895
▁ትዕማር	-10896
▁ኀፍረተ	-10897
▁ኃይልና	-10898
▁ነበሩት	-10899
▁ነቢዩን	-10900
▁ንገረን	-10901
▁ንጉሥን	-10902
▁አለውና	-10903
▁አለፈ፤	-10904
▁አሉት፤	-10905
▁አልሁ፤	-10906
▁አማሌቃ	-10907
▁አማሌቅ	-10908
▁አስነሥ	-10909
▁አቀረቡ	-10910
▁አቅርብ	-10911
▁አበረታ	-10912
▁አነገሠ	-10913
▁አንኩስ	-10914
▁አንካሳ	-10915
▁አይበላ	-10916
▁አይወጣ	-10917
▁አድርጊ	-10918
▁አገኘ።	-10919
▁እልከኛ	-10920
▁እነሆ።	-10921
▁እንሆና	-10922
▁እንድር	-10923
▁እንገዛ	-10924
▁እጅዋን	-10925
▁እጆቼን	-10926
▁ከምድሩ	-10927
▁ከሰልፍ	-10928
▁ከሰረገ	-10929
▁ከተማው	-10930
▁ከነበረ	-10931
▁ከነበሩ	-10932
▁ከአለቆ	-10933
▁ከኢያሱ	-10934
▁ከእናቱ	-10935
▁ከዚያች	-10936
▁ከዮሴፍ	-10937
▁ከጌታው	-10938
▁ኪራምም	-10939
▁ካህኑ።	-10940
▁ክህነት	-10941
▁ክብርም	-10942
▁ክንፎች	-10943
▁ወዲህና	-10944
▁ወድቀው	-10945
▁ውሰዱ፥	-10946
▁ውሽሞች	-10947
▁ዕራቁት	-10948
▁የሁሉም	-10949
▁የልቅሶ	-10950
▁የመርከ	-10951
▁የሙሴን	-10952
▁የሚበል	-10953
▁የሚወዱ	-10954
▁የሚዘራ	-10955
▁የምስክ	-10956
▁የሰጠኝ	-10957
▁የሳዶቅ	-10958
▁የሴቶች	-10959
▁የሸክላ	-10960
▁የተሰቀ	-10961
▁የትዕቢ	-10962
▁የአሳፍ	-10963
▁የእናት	-10964
▁የዓመፅ	-10965
▁የገደለ	-10966
▁የጌታዬ	-10967
▁ያለውም	-10968
▁ያዘጋጃ	-10969
▁ይመልሱ	-10970
▁ይማረካ	-10971
▁ይረግፋ	-10972
▁ይቀልጣ	-10973
▁ይታመና	-10974
▁ይታጠብ	-10975
▁ይደረጋ	-10976
▁ይደርስ	-10977
▁ይገድሉ	-10978
▁ይፈልግ	-10979
▁ዮሐናን	-10980
▁ዳዊት።	-10981
▁ድምፄን	-10982
▁ጀመር፥	-10983
▁ግመሎች	-10984
▁ግብጽም	-10985
▁ጓጕንቸ	-10986
▁ጕልላት	-10987
▁ጕልበት	-10988
▁ጠብቅ፥	-10989
▁ጨረቃም	-10990
▁ጽዋዎች	-10991
▁ፈልገው	-10992
▁ፊቴንም	-10993
ያንዳንዱም	-10994
▁ለመዋጋት	-10995
▁ለመውጋት	-10996
▁ለምስጋና	-10997
▁ለነበሩ፥	-10998
▁ለይሁዳም	-10999
▁ሌላውንም	-11000
▁ልጆችንም	-11001
▁ሕይወትም	-11002
▁መሳፍንት	-11003
▁መስዋዕት	-11004
▁መጽሐፉን	-11005
▁መጽሐፍ።	-11006
▁መጽናናት	-11007
▁ማለላቸው	-11008
▁ሰባቱንም	-11009
▁ሳሙኤልን	-11010
▁ሽንገላን	-11011
▁በመረጠው	-11012
▁በሚሰጥህ	-11013
▁በማኅበሩ	-11014
▁በባሪያህ	-11015
▁በተመለሰ	-11016
▁በትዕቢት	-11017
▁በኃጢአቱ	-11018
▁በአምላኩ	-11019
▁በአእምሮ	-11020
▁በእጃችን	-11021
▁በወርቅም	-11022
▁በወንድሙ	-11023
▁በደለኞች	-11024
▁በጎችንና	-11025
▁በጠላቶቼ	-11026
▁ቢያደርግ	-11027
▁ባሪያዎቼ	-11028
▁ብላቴኖች	-11029
▁ብልሃተኛ	-11030
▁ብትሆን፥	-11031
▁ተሸክመው	-11032
▁ተናገሩ፥	-11033
▁ተናገርህ	-11034
▁ተፈጸመ።	-11035
▁ትሆናለህ	-11036
▁ትላላችሁ	-11037
▁ትእዛዝና	-11038
▁ትእዛዝን	-11039
▁ኃጢአቱን	-11040
▁ኃጢአት፥	-11041
▁ነገራቸው	-11042
▁ነፋስንም	-11043
▁አለቃውም	-11044
▁አላቸው፥	-11045
▁አላውቅም	-11046
▁አምላኬም	-11047
▁አምላኬን	-11048
▁አምላክና	-11049
▁አስቀመጠ	-11050
▁አስታወቅ	-11051
▁አባታቸው	-11052
▁አብያታር	-11053
▁አትሁኑ።	-11054
▁አትመልስ	-11055
▁አንበሶች	-11056
▁አኖሩት።	-11057
▁አያደርጉ	-11058
▁አደረግህ	-11059
▁አጥንቶቼ	-11060
▁እስካለው	-11061
▁እንዲያው	-11062
▁እኵሌቶቹ	-11063
▁እየሰበከ	-11064
▁ከመስማት	-11065
▁ከመጠጡም	-11066
▁ከስድስት	-11067
▁ከስፍራው	-11068
▁ከባልንጀ	-11069
▁ከባርነት	-11070
▁ካህናትና	-11071
▁ወንዶች።	-11072
▁ወደቀች፥	-11073
▁ወጥተውም	-11074
▁ውስጠኛው	-11075
▁ዓይኖቹም	-11076
▁የለምና፥	-11077
▁የላከኝን	-11078
▁የላከውን	-11079
▁የሕዝቡም	-11080
▁የማያውቁ	-11081
▁የምትለም	-11082
▁የምትኖር	-11083
▁የሰማርያ	-11084
▁የሰነፎች	-11085
▁የሰጠኸኝ	-11086
▁የተመረጠ	-11087
▁የተሞሉ፥	-11088
▁የተሰበረ	-11089
▁የኋለኛው	-11090
▁የአምላኬ	-11091
▁የዮሐንስ	-11092
▁የግብጽም	-11093
▁የጽዮንን	-11094
▁ያደርጋል	-11095
▁ያፍራሉ።	-11096
▁ይለኛል።	-11097
▁ይመሰክር	-11098
▁ይሞታል።	-11099
▁ይሞታል፥	-11100
▁ይሰጣቸው	-11101
▁ይነሣል፤	-11102
▁ይወጣሉ፥	-11103
▁ዮፍታሔም	-11104
▁ገንዘብን	-11105
▁ጉባኤውም	-11106
▁ጴጥሮስና	-11107
▁ሁለተኛውን	-11108
▁ለሚያደርጉ	-11109
▁ለአባቶችህ	-11110
▁ልጆቻችሁም	-11111
▁ልጆቻችሁን	-11112
▁መሠዊያዎች	-11113
▁መንገዱንም	-11114
▁መንግሥትን	-11115
▁ቍጥራቸውም	-11116
▁በሚኖሩበት	-11117
▁በሰረገላው	-11118
▁በስፍራውም	-11119
▁በቸነፈርም	-11120
▁በነገሥታት	-11121
▁በእነዚህም	-11122
▁በወንድሞቹ	-11123
▁ብትጠብቅ፥	-11124
▁ተመልሰውም	-11125
▁ተመልከቱ።	-11126
▁ተጠንቀቅ።	-11127
▁ታውቃለህ።	-11128
▁ነገሥታትም	-11129
▁አለቻቸው።	-11130
▁አላገኙም።	-11131
▁አልራቀም።	-11132
▁አልተፈቀደ	-11133
▁አመስግኑ፤	-11134
▁አመጣለሁ።	-11135
▁አትግለጥ፤	-11136
▁አደረገው፤	-11137
▁አደረግህ።	-11138
▁አድራጊዎች	-11139
▁ኤልያስም።	-11140
▁እሰጣለሁ፥	-11141
▁እናንተንም	-11142
▁እንደሚሠራ	-11143
▁እንዳላቸው	-11144
▁እንዳይሞት	-11145
▁እንዳይኖር	-11146
▁እንዳይጠፋ	-11147
▁እንዳደረጉ	-11148
▁እወዳለሁ።	-11149
▁ወንዶችንና	-11150
▁ወይፈኖች፥	-11151
▁የላቸውም።	-11152
▁የሕዝቡንም	-11153
▁የተመሰገነ	-11154
▁የተሠራውን	-11155
▁የነገሥታት	-11156
▁የእህሉንም	-11157
▁የከነዓንን	-11158
▁የወደደውን	-11159
▁የፈርዖንም	-11160
▁ያደረጉትን	-11161
▁ያደረጋችሁ	-11162
▁ያገለግሉት	-11163
▁ይመለሳል፥	-11164
▁ይቃጠላል።	-11165
▁ይበሉታል።	-11166
▁ይናገራሉ፤	-11167
▁ይወድቃል፥	-11168
▁ጠየቃቸው።	-11169
▁ጲላጦስም።	-11170
▁ሕዝቅያስም።	-11171
▁ሽማግሌዎች።	-11172
▁በስድስተኛው	-11173
▁በአራተኛውም	-11174
▁በእያንዳንዱ	-11175
▁በከተሞቻቸው	-11176
▁በግብፃውያን	-11177
▁ተጽፎአልና።	-11178
▁ታውቃላችሁ፤	-11179
▁ታውቃላችሁ፥	-11180
▁ታደርጋላችሁ	-11181
▁ትላቸዋለህ።	-11182
▁ትበላላችሁ፤	-11183
▁ትኖራላችሁ።	-11184
▁አልመለስም።	-11185
▁አልወደደም።	-11186
▁አባቶቻቸውም	-11187
▁አባቶቻችንም	-11188
▁አድርጎአል፤	-11189
▁እሰጥሃለሁ፤	-11190
▁እንደሌላቸው	-11191
▁እንዲያገለግ	-11192
▁እንዳዘዛቸው	-11193
▁እዘምራለሁ።	-11194
▁ከኃጢአተኞች	-11195
▁የተደረገውን	-11196
▁ይሁንላችሁ፤	-11197
▁ፈሪሳውያን፥	-11198
▁አይደላችሁምን	-11199
ሁሽ	-11200
ለግ	-11201
ላና	-11202
ላከ	-11203
ላጥ	-11204
ሌቅ	-11205
ሐላ	-11206
ሐት	-11207
ሞስ	-11208
ሠው	-11209
ረቡ	-11210
ረኝ	-11211
ረዝ	-11212
ረይ	-11213
ርቁ	-11214
ርታ	-11215
ሰፍ	-11216
ሳሚ	-11217
ሳቤ	-11218
ሹን	-11219
ቀማ	-11220
ባታ	-11221
ብሃ	-11222
ብኩ	-11223
ተኝ	-11224
ተጋ	-11225
ታበ	-11226
ቾች	-11227
ንቄ	-11228
ንፈ	-11229
ኩራ	-11230
ኩር	-11231
ኩት	-11232
ካብ	-11233
ዋክ	-11234
ዓና	-11235
ዔና	-11236
ዜር	-11237
ዜብ	-11238
ዝኑ	-11239
ዝዘ	-11240
ይታ	-11241
ይያ	-11242
ደሉ	-11243
ደሰ	-11244
ዳኤ	-11245
ዶር	-11246
ጀ።	-11247
ጋ።	-11248
ጌው	-11249
ግታ	-11250
ጎር	-11251
ጎን	-11252
ጐነ	-11253
ጓሚ	-11254
ጢን	-11255
ጣፍ	-11256
ጥሩ	-11257
ጫም	-11258
ጮኸ	-11259
ጵሎ	-11260
ጽፋ	-11261
ፈቅ	-11262
ፊር	-11263
ፋሽ	-11264
ፋ፤	-11265
ፍሁ	-11266
▁ዬ	-11267
▁ጆ	-11268
ሃትም	-11269
ሃነም	-11270
ህልም	-11271
ለችን	-11272
ሌብም	-11273
ልልታ	-11274
ልም፥	-11275
ልኛል	-11276
ሎቹን	-11277
ሚን፥	-11278
ማልና	-11279
ማን፥	-11280
ምም፤	-11281
ሞቱም	-11282
ሣርያ	-11283
ሥልጣ	-11284
ረዱ፤	-11285
ረፍት	-11286
ሪቱን	-11287
ርዜሊ	-11288
ርያን	-11289
ሰናዳ	-11290
ሰድ።	-11291
ቀምጡ	-11292
ቀች።	-11293
ቄምም	-11294
ቅረዙ	-11295
ቅርብ	-11296
ቆሮቱ	-11297
ቆስጣ	-11298
በታል	-11299
በድል	-11300
ቤንም	-11301
ብቃም	-11302
ብኛል	-11303
ብኝን	-11304
ብዓት	-11305
ቦችም	-11306
ቦችን	-11307
ተው፤	-11308
ታልን	-11309
ታርም	-11310
ትርም	-11311
ቶችና	-11312
ኋት።	-11313
ነት፥	-11314
ንቆም	-11315
ንጉሣ	-11316
ኖሩ፥	-11317
ኝንም	-11318
ወቀው	-11319
ያትም	-11320
ደርቃ	-11321
ዴዎን	-11322
ድባር	-11323
ገደል	-11324
ጠለጠ	-11325
ጠኝ።	-11326
ጠግቡ	-11327
ጠፋው	-11328
ጨናቂ	-11329
ፈለገ	-11330
ፋትን	-11331
ፍራታ	-11332
▁gW	-11333
▁ሁኑ	-11334
▁ሁከ	-11335
▁ለር	-11336
▁ለቍ	-11337
▁ለኢ	-11338
▁ሌዊ	-11339
▁ሐሸ	-11340
▁መሓ	-11341
▁መመ	-11342
▁መሶ	-11343
▁ሙሽ	-11344
▁ሢሶ	-11345
▁ሰደ	-11346
▁ሱነ	-11347
▁ቀኙ	-11348
▁ቁም	-11349
▁ቃይ	-11350
▁በሜ	-11351
▁በኪ	-11352
▁ቢነ	-11353
▁ታይ	-11354
▁ትሉ	-11355
▁ትል	-11356
▁ቶሎ	-11357
▁ኑና	-11358
▁ናፍ	-11359
▁ኤላ	-11360
▁እለ	-11361
▁እቆ	-11362
▁ካደ	-11363
▁ዕብ	-11364
▁ዘበ	-11365
▁ዘጋ	-11366
▁ዛብ	-11367
▁የሾ	-11368
▁የኡ	-11369
▁የዐ	-11370
▁ደቡ	-11371
▁ገዝ	-11372
▁ገፈ	-11373
▁ጋድ	-11374
▁ጠበ	-11375
▁ጠነ	-11376
▁ጣል	-11377
▁ጸን	-11378
▁ፈሩ	-11379
ሎአል።	-11380
ሚናዳብ	-11381
ማለህ፤	-11382
ሞቻቸው	-11383
ራችሁ፥	-11384
ርስራሽ	-11385
ሰዋል።	-11386
ሳኮርም	-11387
ስማኤል	-11388
ስንፍና	-11389
ቀውንም	-11390
ቅድስና	-11391
ብኛልና	-11392
ብኛል፤	-11393
ተኞቹን	-11394
ታልና፤	-11395
ታቸው፥	-11396
ቶችዋን	-11397
ቻችንን	-11398
ችሉትን	-11399
ችልም።	-11400
ነግረው	-11401
ናገርም	-11402
ኛለሁና	-11403
አታል።	-11404
ካዝያስ	-11405
ዋለች።	-11406
ይሁድን	-11407
ደኛውም	-11408
ጠራበት	-11409
ጠነቀቅ	-11410
ጥኣንን	-11411
ፎቻቸው	-11412
▁ሁኑ፤	-11413
▁ለልጄ	-11414
▁ለመጻ	-11415
▁ለኢያ	-11416
▁ለኤል	-11417
▁ለወር	-11418
▁ለወዳ	-11419
▁ሕመም	-11420
▁ሕጌን	-11421
▁መረግ	-11422
▁መቆም	-11423
▁መገረ	-11424
▁ሚልካ	-11425
▁ምናን	-11426
▁ምድሩ	-11427
▁ምግባ	-11428
▁ሣራም	-11429
▁ረዓብ	-11430
▁ሰባኪ	-11431
▁ሰውዬ	-11432
▁ሰጠው	-11433
▁ሳለህ	-11434
▁ሴዎን	-11435
▁ስለማ	-11436
▁ስልማ	-11437
▁ስሞች	-11438
▁ስንቅ	-11439
▁ስጡ፤	-11440
▁ስፋት	-11441
▁ሹመት	-11442
▁ሻኵራ	-11443
▁ቀላል	-11444
▁ቀሠፈ	-11445
▁ቂሮስ	-11446
▁ቅርጽ	-11447
▁ቅኖች	-11448
▁ቆሙ፤	-11449
▁በሆኑ	-11450
▁በሆን	-11451
▁በል፥	-11452
▁በረሀ	-11453
▁በሰሜ	-11454
▁በቀኜ	-11455
▁በቀደ	-11456
▁በቍጥ	-11457
▁በጌት	-11458
▁በግም	-11459
▁በግፍ	-11460
▁በጥፋ	-11461
▁በጭቃ	-11462
▁በጸጋ	-11463
▁ቢሞት	-11464
▁ቢሰጥ	-11465
▁ባኦስ	-11466
▁ባዩት	-11467
▁ባይሰ	-11468
▁ብሎ፥	-11469
▁ብዔል	-11470
▁ተሞል	-11471
▁ተቀኙ	-11472
▁ተበላ	-11473
▁ተኝታ	-11474
▁ተገዛ	-11475
▁ተገድ	-11476
▁ተፈት	-11477
▁ተፈወ	-11478
▁ታመነ	-11479
▁ታካች	-11480
▁ታድና	-11481
▁ታጠብ	-11482
▁ትሄዱ	-11483
▁ትልም	-11484
▁ትረግ	-11485
▁ትሰጠ	-11486
▁ትድና	-11487
▁ትገኛ	-11488
▁ትጠራ	-11489
▁ትጮኻ	-11490
▁ችግር	-11491
▁ነሽ፤	-11492
▁ነን፥	-11493
▁ናዕማ	-11494
▁ናዝራ	-11495
▁አለች	-11496
▁አላሳ	-11497
▁አልቆ	-11498
▁አልባ	-11499
▁አልደ	-11500
▁አምና	-11501
▁አረግ	-11502
▁አስራ	-11503
▁አሻቅ	-11504
▁አቅን	-11505
▁አታል	-11506
▁አትመ	-11507
▁አትቍ	-11508
▁አትጣ	-11509
▁አናው	-11510
▁አዩ፤	-11511
▁አያድ	-11512
▁አይግ	-11513
▁አጋባ	-11514
▁አግባ	-11515
▁አፈራ	-11516
▁እምራ	-11517
▁እሪያ	-11518
▁እርከ	-11519
▁እሴይ	-11520
▁እሸት	-11521
▁እችላ	-11522
▁እናገ	-11523
▁እንሸ	-11524
▁እወድ	-11525
▁እያስ	-11526
▁እጆቹ	-11527
▁እጮኻ	-11528
▁ከሌዊ	-11529
▁ከመሰ	-11530
▁ከማን	-11531
▁ከበለ	-11532
▁ከታች	-11533
▁ከኃያ	-11534
▁ከኃይ	-11535
▁ከነቢ	-11536
▁ከናስ	-11537
▁ከአጐ	-11538
▁ኪዳኑ	-11539
▁ክፈፍ	-11540
▁ክፉው	-11541
▁ወርም	-11542
▁ውጡ፤	-11543
▁ዔሊም	-11544
▁ዕራቁ	-11545
▁ዘርን	-11546
▁የሁሉ	-11547
▁የመር	-11548
▁የሚሳ	-11549
▁የሚስ	-11550
▁የሚተ	-11551
▁የሥራ	-11552
▁የስድ	-11553
▁የበለ	-11554
▁የበሬ	-11555
▁የኖኅ	-11556
▁የአፌ	-11557
▁የክን	-11558
▁የወገ	-11559
▁የዘመ	-11560
▁የያዘ	-11561
▁የዱር	-11562
▁የግን	-11563
▁የጐደ	-11564
▁ያርዳ	-11565
▁ያሳየ	-11566
▁ያነሡ	-11567
▁ያኖር	-11568
▁ያዳነ	-11569
▁ይልካ	-11570
▁ይመር	-11571
▁ይቈጣ	-11572
▁ይበቅ	-11573
▁ይበት	-11574
▁ይባል	-11575
▁ይቤዠ	-11576
▁ይክፈ	-11577
▁ይወጋ	-11578
▁ይውሰ	-11579
▁ይያዛ	-11580
▁ይጓዙ	-11581
▁ይጠግ	-11582
▁ይጮኹ	-11583
▁ይፈታ	-11584
▁ይፈው	-11585
▁ገለበ	-11586
▁ገረድ	-11587
▁ጎረቤ	-11588
▁ጠራ፥	-11589
▁ጠብቀ	-11590
▁ጠንቅ	-11591
▁ጭነው	-11592
▁ጮኸ፤	-11593
▁ጸንተ	-11594
▁ጻድቁ	-11595
▁ጼዴቅ	-11596
▁ፈጠረ	-11597
▁ፈጥና	-11598
▁ፈጥኜ	-11599
▁ፈጸመ	-11600
ላችሁምን	-11601
ላችሁንም	-11602
ልሃልና።	-11603
ሬአለሁ።	-11604
ርደዋል፤	-11605
ብሻለሁ፥	-11606
ኅንነትን	-11607
ዋውያኑም	-11608
ጠራቸው።	-11609
ጠበቃችሁ	-11610
▁ለመሆን	-11611
▁ለአንቺ	-11612
▁ለካህና	-11613
▁ለክፋት	-11614
▁ለጎረቤ	-11615
▁ለጣዖት	-11616
▁ሊፈርድ	-11617
▁ሎሌዎች	-11618
▁ሕዝብና	-11619
▁ሕፃኑን	-11620
▁መለሰ፥	-11621
▁መማለጃ	-11622
▁መርበብ	-11623
▁መሰንቆ	-11624
▁መቅረዙ	-11625
▁መንጋጋ	-11626
▁መንፈሴ	-11627
▁ማለዳም	-11628
▁ማናቸው	-11629
▁ምኵራብ	-11630
▁ሥጋዋን	-11631
▁ሦስት።	-11632
▁ርስትን	-11633
▁ሰውዮው	-11634
▁ሰገደ።	-11635
▁ሰጡት፤	-11636
▁ሲሄዱም	-11637
▁ስማኝ፤	-11638
▁ስፍራና	-11639
▁ሸክም።	-11640
▁ቍጥቋጦ	-11641
▁በላይዋ	-11642
▁በልብዋ	-11643
▁በሙሴና	-11644
▁በማንም	-11645
▁በምናሴ	-11646
▁በሰጠው	-11647
▁በሲኦል	-11648
▁በቀድሞ	-11649
▁በቃልህ	-11650
▁በቅጥሩ	-11651
▁በትከሻ	-11652
▁በትዕቢ	-11653
▁በኀዘን	-11654
▁በኋላ።	-11655
▁በነጋም	-11656
▁በነፋስ	-11657
▁በንጹሕ	-11658
▁በአምባ	-11659
▁በአራት	-11660
▁በእምነ	-11661
▁በከፍታ	-11662
▁በካህና	-11663
▁በዓመፅ	-11664
▁በዙፋን	-11665
▁በየሰሞ	-11666
▁በየቀኑ	-11667
▁በየነገ	-11668
▁በየከተ	-11669
▁በድካም	-11670
▁በገመድ	-11671
▁በጭንቅ	-11672
▁ቢሞት፥	-11673
▁ቢወድቅ	-11674
▁ባለቤት	-11675
▁ባልሆነ	-11676
▁ቤትህን	-11677
▁ተሞልቶ	-11678
▁ተቀምጬ	-11679
▁ተቈጣ፥	-11680
▁ተከማቸ	-11681
▁ተከማቹ	-11682
▁ተወለደ	-11683
▁ተዘጋጀ	-11684
▁ትሁን፤	-11685
▁ትመልሳ	-11686
▁ትቀበላ	-11687
▁ትበልጣ	-11688
▁ትወርሳ	-11689
▁ትፈርዳ	-11690
▁ኃይልህ	-11691
▁ኃይልም	-11692
▁ኅብረት	-11693
▁ነበልባ	-11694
▁ነበሩና	-11695
▁ነፋስን	-11696
▁ንጉሡ።	-11697
▁ንግግር	-11698
▁አለበሰ	-11699
▁አለን፥	-11700
▁አላመኑ	-11701
▁አላነበ	-11702
▁አልራራ	-11703
▁አልጠራ	-11704
▁አራቱም	-11705
▁አሳላፊ	-11706
▁አስቈጡ	-11707
▁አስቡ።	-11708
▁አስታሮ	-11709
▁አስጨነ	-11710
▁አባትና	-11711
▁አነሣ፥	-11712
▁አከማቹ	-11713
▁አወረደ	-11714
▁አይጠቅ	-11715
▁አደሱ።	-11716
▁አዳምም	-11717
▁አጥብቆ	-11718
▁አጽንቶ	-11719
▁አፍዋን	-11720
▁እላለሁ	-11721
▁እሳትና	-11722
▁እስክታ	-11723
▁እሸቶች	-11724
▁እባርካ	-11725
▁እናንት	-11726
▁እንሠራ	-11727
▁እንሰማ	-11728
▁እንወጣ	-11729
▁እወቁ፤	-11730
▁እየሆኑ	-11731
▁ከሌሎች	-11732
▁ከልጆች	-11733
▁ከትእዛ	-11734
▁ከአምላ	-11735
▁ከእሳት	-11736
▁ከእንጨ	-11737
▁ከወይኑ	-11738
▁ከጢሮስ	-11739
▁ክብሩን	-11740
▁ክፉንም	-11741
▁ወርደው	-11742
▁ወሰዱ፤	-11743
▁ወይም።	-11744
▁ወደሚያ	-11745
▁ወደምታ	-11746
▁ወደቁ፥	-11747
▁ወዲህም	-11748
▁ዓለሙን	-11749
▁ዓለምም	-11750
▁ዓይኔም	-11751
▁ዕቃውም	-11752
▁ዕድሜው	-11753
▁የልጁን	-11754
▁የልጆቹ	-11755
▁የልጆች	-11756
▁የሕጉን	-11757
▁የሚመታ	-11758
▁የሚረዳ	-11759
▁የሚበሉ	-11760
▁የሚተኛ	-11761
▁የሚያዩ	-11762
▁የሚያይ	-11763
▁የሚይዙ	-11764
▁የምቀድ	-11765
▁የሠራዊ	-11766
▁የቀዓት	-11767
▁የቆሮስ	-11768
▁የበለጠ	-11769
▁የበረታ	-11770
▁የበጎች	-11771
▁የባሳን	-11772
▁የተገኙ	-11773
▁የተጠቃ	-11774
▁የተፈራ	-11775
▁የተፈተ	-11776
▁የታመኑ	-11777
▁የታመን	-11778
▁የናሱን	-11779
▁የኤልያ	-11780
▁የዘብዴ	-11781
▁የዘይት	-11782
▁የዳንም	-11783
▁የግብፃ	-11784
▁የጥበብ	-11785
▁ያለዚያ	-11786
▁ያሳድዳ	-11787
▁ያስተው	-11788
▁ያዘጋጀ	-11789
▁ያይደለ	-11790
▁ያገልግ	-11791
▁ይሁዳ፥	-11792
▁ይልቁን	-11793
▁ይመጣሉ	-11794
▁ይሞታል	-11795
▁ይሰብራ	-11796
▁ይሰድዳ	-11797
▁ይሰጠን	-11798
▁ይቀጠቅ	-11799
▁ይቈጠራ	-11800
▁ይነድዳ	-11801
▁ይዘምራ	-11802
▁ይዘውም	-11803
▁ይገለብ	-11804
▁ይፈስሳ	-11805
▁ደረሰ፥	-11806
▁ደካሞች	-11807
▁ድረስ።	-11808
▁ድንጋዮ	-11809
▁ድፍረት	-11810
▁ጀምረህ	-11811
▁ግምጃ፥	-11812
▁ጠብቁ፥	-11813
▁ጠብቅ፤	-11814
▁ጣዖትን	-11815
▁ጥበብም	-11816
▁ጨካኞች	-11817
▁ጸንተው	-11818
▁ፈልጉ፥	-11819
▁ፊንሐስ	-11820
ላቸዋለሁ፥	-11821
ባቶቻቸውም	-11822
ባቸዋለሁ።	-11823
▁ለመርዳት	-11824
▁ለመስማት	-11825
▁ለሚጠብቁ	-11826
▁ለሚፈሩት	-11827
▁ለማጥፋት	-11828
▁ለሰልፍም	-11829
▁ለአንተና	-11830
▁ለአይሁድ	-11831
▁ለእርሱና	-11832
▁ለካህናት	-11833
▁ሊገድሉት	-11834
▁መሠዊያ፥	-11835
▁መቅደሱም	-11836
▁መቅደሱን	-11837
▁መተላለፍ	-11838
▁መዕሤያ፥	-11839
▁መዛነቢያ	-11840
▁መድኃኒቴ	-11841
▁መጻሕፍት	-11842
▁ሜሱላም፥	-11843
▁ምድራቸው	-11844
▁ሥራውንም	-11845
▁ሰናክሬም	-11846
▁ሰንበትን	-11847
▁ሳይደርስ	-11848
▁ስንፍናን	-11849
▁ሶምሶንም	-11850
▁በለዓምን	-11851
▁በልሳኖች	-11852
▁በሕዝቤም	-11853
▁በመልእክ	-11854
▁በመጋረጃ	-11855
▁በሚባለው	-11856
▁በማኅፀን	-11857
▁በምድሩም	-11858
▁በርናባስ	-11859
▁በሰሎሞን	-11860
▁በሰገነት	-11861
▁በቸርነት	-11862
▁በኃይልህ	-11863
▁በከተሞች	-11864
▁በኪሩቤል	-11865
▁በወርቅና	-11866
▁በወንጌል	-11867
▁በውኃውም	-11868
▁በዘመኑም	-11869
▁በዙሪያሽ	-11870
▁በዚህችም	-11871
▁በዳርዮስ	-11872
▁በድንኳን	-11873
▁በጨለማም	-11874
▁በፊተኛው	-11875
▁በፍርሃት	-11876
▁ባሪያዬም	-11877
▁ብርሃንን	-11878
▁ብታደርግ	-11879
▁ተመለስ፥	-11880
▁ተማከሩ።	-11881
▁ተናገሩ፤	-11882
▁ታንኳይቱ	-11883
▁ትመለከታ	-11884
▁ነበርሁ፤	-11885
▁ነበርሁ፥	-11886
▁ነጐድጓድ	-11887
▁ነፍሳችሁ	-11888
▁ናቸውና፥	-11889
▁ንገረው።	-11890
▁አለውም።	-11891
▁አላዘነበ	-11892
▁አመለኩ።	-11893
▁አመጡት፤	-11894
▁አስታወቀ	-11895
▁አቀረቡ፥	-11896
▁አትከልክ	-11897
▁አንሥተው	-11898
▁አንጐራጐ	-11899
▁አንጾኪያ	-11900
▁አኖረው፤	-11901
▁አኖራለሁ	-11902
▁አወጣቸው	-11903
▁አይሁን፤	-11904
▁አይመለስ	-11905
▁አይደርስ	-11906
▁አድርጉ፥	-11907
▁ኢያቡሳዊ	-11908
▁ኢዮአቄም	-11909
▁ኢዮኤል፥	-11910
▁እስኪሆን	-11911
▁እነርሱና	-11912
▁እነግርሃ	-11913
▁እንደምን	-11914
▁እንዲበዛ	-11915
▁እንዳገኘ	-11916
▁እጅህንም	-11917
▁ከሁላችሁ	-11918
▁ከመቅደስ	-11919
▁ከመንጋው	-11920
▁ከመንግሥ	-11921
▁ከማሳደድ	-11922
▁ከማኅፀን	-11923
▁ከሰማያት	-11924
▁ከአምስት	-11925
▁ከአንቺም	-11926
▁ከእውነት	-11927
▁ከከተማው	-11928
▁ከወርቅና	-11929
▁ከየነገዱ	-11930
▁ወደዚያም	-11931
▁ወዳዘጋጀ	-11932
▁ዓይንህን	-11933
▁የሕዝቤን	-11934
▁የሚመዝዙ	-11935
▁የሚባለው	-11936
▁የሚያልፍ	-11937
▁የሚያነሣ	-11938
▁የሚፈልጉ	-11939
▁የማዕዘን	-11940
▁የምትናገ	-11941
▁የሞዓብን	-11942
▁የስርየት	-11943
▁የቃሬያም	-11944
▁የበኣልን	-11945
▁የተረገመ	-11946
▁የተከፈተ	-11947
▁የኀጥኣን	-11948
▁የአብርሃ	-11949
▁የአንዱም	-11950
▁የአገሩን	-11951
▁የወጣውን	-11952
▁የዛብሎን	-11953
▁የጽድቅን	-11954
▁ያመነዝራ	-11955
▁ያቅርብ።	-11956
▁ያዕቆብና	-11957
▁ያገኛል።	-11958
▁ይሄዳሉ፤	-11959
▁ይመረምራ	-11960
▁ይሠራል፥	-11961
▁ይበላል፥	-11962
▁ይናገራል	-11963
▁ይጠፋል፥	-11964
▁ዮዛባት፥	-11965
▁ድንኳኑን	-11966
▁ድንኳኖች	-11967
▁ገደለው።	-11968
▁ጕልላቶች	-11969
▁ጕድጓድም	-11970
▁ፍርሃት፥	-11971
▁ለልጆቻችሁ	-11972
▁ለመገናኘት	-11973
▁ለጠቦቶቹም	-11974
▁መልክተኞች	-11975
▁መንገዳቸው	-11976
▁መዛሙርቱን	-11977
▁መጠምጠሚያ	-11978
▁ምስክርህን	-11979
▁ሳሙኤልም።	-11980
▁ስለዚህም።	-11981
▁በላያቸውም	-11982
▁በሌዋውያን	-11983
▁በመንገዱም	-11984
▁በምኵራብም	-11985
▁በሰንሰለት	-11986
▁በሸለቆውም	-11987
▁በተሰበሰቡ	-11988
▁በአዕማዱም	-11989
▁በአደባባዩ	-11990
▁በኢዮአቄም	-11991
▁በኤርምያስ	-11992
▁በኮረብታው	-11993
▁በዓይናችሁ	-11994
▁በዘጠነኛው	-11995
▁በየስማቸው	-11996
▁በየስፍራው	-11997
▁በግልሙትና	-11998
▁ባሪያዎችም	-11999
▁ብታደርግ፥	-12000
▁ተቀመጠች።	-12001
▁ትችላለህን	-12002
▁አልሰሙም።	-12003
▁አልቻለም።	-12004
▁አልቻሉም፤	-12005
▁አልዓዛርም	-12006
▁አልዓዛርን	-12007
▁አመስግኑ።	-12008
▁አመጡለት።	-12009
▁አሜስያስም	-12010
▁አባትህንና	-12011
▁እሄዳለሁ።	-12012
▁እሆናለሁ፥	-12013
▁እምነታችሁ	-12014
▁እስኪያልፍ	-12015
▁እንደነዚህ	-12016
▁እንደዚሁም	-12017
▁እንዳይሞቱ	-12018
▁እንግዲህስ	-12019
▁እንግዶችን	-12020
▁እገባለሁ፤	-12021
▁ከኤዶምያስ	-12022
▁ከያዕቆብም	-12023
▁ወንድምህን	-12024
▁የለበሰውን	-12025
▁የሌለባቸው	-12026
▁የመንደሮች	-12027
▁የመጀመሪያ	-12028
▁የማዝዝህን	-12029
▁የምድያምን	-12030
▁የቀሩትንም	-12031
▁የተሰጠውን	-12032
▁የአሕዛብም	-12033
▁የአይሁድን	-12034
▁የኢትዮጵያ	-12035
▁የኮረብታው	-12036
▁ያልሆነውን	-12037
▁ያደርጋሉ፤	-12038
▁ይመለሳሉ።	-12039
▁ይሸከማል።	-12040
▁ይቀመጣል፥	-12041
▁ይበሉታል፤	-12042
▁ይጠብቃል።	-12043
▁ደርሶአልና	-12044
▁ገደላቸው።	-12045
▁ፍልስጥኤም	-12046
▁ለማደሪያውም	-12047
▁ለባልንጀራው	-12048
▁መልክተኞችን	-12049
▁መሥዋዕትንም	-12050
▁መርዶክዮስም	-12051
▁በመንገዳቸው	-12052
▁በርሳቸውም።	-12053
▁በስምንተኛው	-12054
▁በእንግድነት	-12055
▁ባሪያዎቹን።	-12056
▁ተናገራቸው፤	-12057
▁ነገሥታትንም	-12058
▁አላደረገም።	-12059
▁አልተገኘም፤	-12060
▁አመስግኑት፤	-12061
▁አይደለሁምን	-12062
▁አደረጋቸው፤	-12063
▁እንዳይሆን፥	-12064
▁ከመጀመሪያው	-12065
▁ከባሪያዎችህ	-12066
▁ከአባቶቻችን	-12067
▁ከኢዮርብዓም	-12068
▁ከፈሪሳውያን	-12069
▁ወንድሞቻችሁ	-12070
▁የሚሸፍነውን	-12071
▁የሚቀመጡትን	-12072
▁የሚያሰኘውን	-12073
▁የኮረብታውን	-12074
▁የደኅንነቱን	-12075
▁ያደርገዋል።	-12076
▁ዮርዳኖስንም	-12077
▁ድምፃቸውንም	-12078
▁ጠላቶቻቸውን	-12079
▁ለናቡከደነፆር	-12080
▁በመጀመሪያውም	-12081
▁በየወገናቸው፤	-12082
▁አመሰግናለሁ፤	-12083
▁አደርገዋለሁ፥	-12084
▁ከነዓናውያንን	-12085
▁ከኢየሩሳሌምም	-12086
▁ወንድሞቻችሁን	-12087
▁የመታጠቢያውን	-12088
▁አላነበባችሁምን	-12089
▁ያስተሰርይለታል፥	-12090
ለሉ	-12091
ለመ	-12092
ለገ	-12093
ላላ	-12094
ላክ	-12095
ላዋ	-12096
ልጃ	-12097
ሐም	-12098
መሌ	-12099
መቁ	-12100
መ፤	-12101
ማራ	-12102
ረየ	-12103
ረጨ	-12104
ሪት	-12105
ሪና	-12106
ሪ።	-12107
ርሶ	-12108
ርፈ	-12109
ሰች	-12110
ሴት	-12111
ሶቹ	-12112
ሻር	-12113
ቀሉ	-12114
ቅሎ	-12115
ቋጥ	-12116
በቆ	-12117
ቢው	-12118
ተተ	-12119
ታቱ	-12120
ቶስ	-12121
ነጹ	-12122
ንባ	-12123
ንፍ	-12124
ኖቼ	-12125
ከኝ	-12126
ከፋ	-12127
ኮይ	-12128
ወክ	-12129
ዌን	-12130
ዓል	-12131
ዕር	-12132
ዛዝ	-12133
ዬ፥	-12134
ደስ	-12135
ደበ	-12136
ደጃ	-12137
ደፈ	-12138
ዶሻ	-12139
ዶቼ	-12140
ጉና	-12141
ጋራ	-12142
ጋብ	-12143
ጠፈ	-12144
ጥሉ	-12145
ጨለ	-12146
ጪ፥	-12147
ጫነ	-12148
ጭና	-12149
ጭ፥	-12150
ጸር	-12151
ፈኖ	-12152
ፌል	-12153
ፌር	-12154
▁ኔ	-12155
ሃለን	-12156
ሄዱ፥	-12157
ሄድም	-12158
ለዋል	-12159
ለውና	-12160
ላለን	-12161
ላቁም	-12162
ላውን	-12163
ሐናን	-12164
መሰኳ	-12165
መጡም	-12166
ሙንና	-12167
ሚሁድ	-12168
ሜልዩ	-12169
ምለክ	-12170
ሥራቁ	-12171
ረቱም	-12172
ረትም	-12173
ረክሳ	-12174
ረገ።	-12175
ራት፤	-12176
ሬትም	-12177
ርተው	-12178
ሮትም	-12179
ሮችህ	-12180
ሮዔር	-12181
ሰድድ	-12182
ሰጠኝ	-12183
ሱስም	-12184
ሱትም	-12185
ሳን፥	-12186
ሳፍጥ	-12187
ስቴም	-12188
ሸሸገ	-12189
ሸሸግ	-12190
ቀረጹ	-12191
ቀበለ	-12192
ቀደስ	-12193
ቁንም	-12194
ቃሉ፥	-12195
ቅልል	-12196
ቆመው	-12197
በሉና	-12198
በሩ።	-12199
በስበ	-12200
በተኑ	-12201
ቢያው	-12202
ባበራ	-12203
ብሃል	-12204
ብሩም	-12205
ብርም	-12206
ታወቅ	-12207
ትምና	-12208
ቹንና	-12209
ኋት፤	-12210
ነፈር	-12211
ኑበት	-12212
ናወነ	-12213
ንስሐ	-12214
ኛለሽ	-12215
ኞችና	-12216
አለሽ	-12217
አርባ	-12218
ከራከ	-12219
ከብድ	-12220
ከፍት	-12221
ክማስ	-12222
ክርም	-12223
ኸን።	-12224
ወለድ	-12225
ወስደ	-12226
ዋደድ	-12227
ዘረጉ	-12228
ዝራም	-12229
ዝሬት	-12230
ዩም።	-12231
ዬንና	-12232
ይምም	-12233
ይርም	-12234
ደርጊ	-12235
ዳድም	-12236
ገለጡ	-12237
ገልጣ	-12238
ገሩም	-12239
ገባት	-12240
ጐበኛ	-12241
ጠመቁ	-12242
ጠው፥	-12243
ጠይቁ	-12244
ጠጣት	-12245
ጠጣው	-12246
ጠፉት	-12247
ጠፉ፥	-12248
ጡት፤	-12249
ጢያዊ	-12250
ጥአን	-12251
ጥፋት	-12252
ጨመረ	-12253
ጨረቃ	-12254
ጨንቋ	-12255
ጸባረ	-12256
ፈለጉ	-12257
ፈርም	-12258
ፉኝት	-12259
ፋት፥	-12260
ፍሮን	-12261
▁ለቃ	-12262
▁ለት	-12263
▁ለፊ	-12264
▁ልጃ	-12265
▁ሕሊ	-12266
▁መቀ	-12267
▁ርግ	-12268
▁ሲመ	-12269
▁ሳላ	-12270
▁ሳም	-12271
▁ሳቤ	-12272
▁ስና	-12273
▁ስፋ	-12274
▁ሸለ	-12275
▁ሸፍ	-12276
▁ቍል	-12277
▁በያ	-12278
▁በጐ	-12279
▁ቢደ	-12280
▁ብራ	-12281
▁ትመ	-12282
▁እኮ	-12283
▁እድ	-12284
▁እጀ	-12285
▁እጋ	-12286
▁ኦሖ	-12287
▁ከሽ	-12288
▁ከቁ	-12289
▁ከጨ	-12290
▁ኮቴ	-12291
▁ወና	-12292
▁ዔግ	-12293
▁የሄ	-12294
▁የኩ	-12295
▁የዒ	-12296
▁የጢ	-12297
▁ያጨ	-12298
▁ይሂ	-12299
▁ይሙ	-12300
▁ይሳ	-12301
▁ይዒ	-12302
▁ይጓ	-12303
▁ይጽ	-12304
▁ዮቅ	-12305
▁ዮቶ	-12306
▁ዳስ	-12307
▁ጉድ	-12308
▁ጌሹ	-12309
▁ግር	-12310
▁ጣር	-12311
▁ጣፋ	-12312
▁ጩኹ	-12313
▁ጫጩ	-12314
▁ጽፌ	-12315
▁ጽፎ	-12316
▁ፀን	-12317
▁ፈሰ	-12318
▁ፍም	-12319
▁ፍዳ	-12320
ሁትንም	-12321
ሄሮድስ	-12322
ህነትም	-12323
ለምኑት	-12324
ለዋል፥	-12325
ለውም፥	-12326
ሉትም።	-12327
ላቴናው	-12328
መልመሌ	-12329
መሰከረ	-12330
መሰግኑ	-12331
መስለው	-12332
መውንም	-12333
መጣውም	-12334
ሮቻቸው	-12335
ሰጣችሁ	-12336
ሳውያን	-12337
ሻለሁ፥	-12338
ሽንገላ	-12339
ቀውም።	-12340
ቅረብ።	-12341
ቅረብ፤	-12342
በታልና	-12343
በኞችን	-12344
ባታል፥	-12345
ባትም፥	-12346
ብሃል፥	-12347
ተሃል፤	-12348
ተናል፥	-12349
ታውቀው	-12350
ቸዋለህ	-12351
ቸውንና	-12352
ችለውን	-12353
ችውንም	-12354
ነግርህ	-12355
ናልና።	-12356
ናዊውም	-12357
ኛለህ።	-12358
አታል፥	-12359
አቸዋል	-12360
ኤልን፥	-12361
ኸውንም	-12362
ዋለህን	-12363
ዝዘውን	-12364
ያለሁ፥	-12365
ድናቸው	-12366
ገቡም።	-12367
ገዳደር	-12368
ጉባኤው	-12369
ጋንንት	-12370
ጕረመር	-12371
ጠባበቁ	-12372
ጠባበቅ	-12373
ጠብቁ፥	-12374
ፀሐይን	-12375
ፃንነት	-12376
ፍሬምና	-12377
ፍርም።	-12378
▁KWT	-12379
▁ሁሉ፤	-12380
▁ሆንን	-12381
▁ለሆነ	-12382
▁ለመቶ	-12383
▁ለሴት	-12384
▁ለስድ	-12385
▁ለአማ	-12386
▁ለአስ	-12387
▁ለኪሶ	-12388
▁ለዓይ	-12389
▁ለዘመ	-12390
▁ለገዛ	-12391
▁ሊሆኑ	-12392
▁ሊዋጋ	-12393
▁ሊይዙ	-12394
▁ሊጠጡ	-12395
▁ልሂድ	-12396
▁ልታዩ	-12397
▁ልከው	-12398
▁ልጅ።	-12399
▁ሐማት	-12400
▁መሄድ	-12401
▁መልሱ	-12402
▁መሰደ	-12403
▁መሳለ	-12404
▁መስክ	-12405
▁መክፈ	-12406
▁መዝሙ	-12407
▁መገዛ	-12408
▁መጣና	-12409
▁ማርም	-12410
▁ማየት	-12411
▁ምረጥ	-12412
▁ምስያ	-12413
▁ምስጉ	-12414
▁ምኵራ	-12415
▁ሞገድ	-12416
▁ሠሩ፥	-12417
▁ረከሰ	-12418
▁ረዳቴ	-12419
▁ረጃጅ	-12420
▁ሰልፉ	-12421
▁ሰበከ	-12422
▁ሰጠን	-12423
▁ሱባዔ	-12424
▁ሲያዩ	-12425
▁ሳለ።	-12426
▁ሳምና	-12427
▁ሳንቆ	-12428
▁ሴይር	-12429
▁ስጠን	-12430
▁ስጡ።	-12431
▁ሸማያ	-12432
▁ቀንዲ	-12433
▁ቀድዶ	-12434
▁ቃሉም	-12435
▁በሄዱ	-12436
▁በሕያ	-12437
▁በማለ	-12438
▁በሞላ	-12439
▁በረጅ	-12440
▁በሩን	-12441
▁በርኔ	-12442
▁በሰይ	-12443
▁በቀና	-12444
▁በቀይ	-12445
▁በተቀ	-12446
▁በተከ	-12447
▁በነቢ	-12448
▁በናስ	-12449
▁በአስ	-12450
▁በአቢ	-12451
▁በዜማ	-12452
▁በየማ	-12453
▁በደሙ	-12454
▁በጥፊ	-12455
▁ቢመታ	-12456
▁ባርኮ	-12457
▁ባስል	-12458
▁ባወቀ	-12459
▁ብሉ።	-12460
▁ብሩህ	-12461
▁ተሞላ	-12462
▁ተራፊ	-12463
▁ተሰጣ	-12464
▁ተቀማ	-12465
▁ተቀር	-12466
▁ተቀባ	-12467
▁ተኛ።	-12468
▁ተኵላ	-12469
▁ተጋድ	-12470
▁ታዘዙ	-12471
▁ትረሳ	-12472
▁ትባል	-12473
▁ትዕማ	-12474
▁ትጉ።	-12475
▁ቶማስ	-12476
▁ነፋ፤	-12477
▁ኑሩ።	-12478
▁ናቡቴ	-12479
▁ናፍቆ	-12480
▁ንዕማ	-12481
▁ንግድ	-12482
▁አምል	-12483
▁አርጅ	-12484
▁አሰኝ	-12485
▁አስቤ	-12486
▁አበላ	-12487
▁አባር	-12488
▁አታው	-12489
▁አትሆ	-12490
▁አትጠ	-12491
▁አናጢ	-12492
▁አንብ	-12493
▁አወሩ	-12494
▁አወራ	-12495
▁አዩ፥	-12496
▁አይቀ	-12497
▁አይጥ	-12498
▁አዳር	-12499
▁አዶኒ	-12500
▁አገዳ	-12501
▁አጥር	-12502
▁አፍህ	-12503
▁ኤሊፋ	-12504
▁እሞላ	-12505
▁እሠዋ	-12506
▁እዘዝ	-12507
▁እዩ።	-12508
▁ከልብ	-12509
▁ከሰባ	-12510
▁ከበጎ	-12511
▁ከኤል	-12512
▁ከእግ	-12513
▁ከዙፋ	-12514
▁ከደሙ	-12515
▁ከገደ	-12516
▁ከፍቶ	-12517
▁ኩብኩ	-12518
▁ኪዳኔ	-12519
▁ካሌብ	-12520
▁ካዘዝ	-12521
▁ወደም	-12522
▁ወደቁ	-12523
▁ወደዱ	-12524
▁ወዳለ	-12525
▁ወዳል	-12526
▁ወድቀ	-12527
▁ወገኔ	-12528
▁ዋርሳ	-12529
▁ውጭም	-12530
▁ዐርፎ	-12531
▁ዓናቶ	-12532
▁ዘለፋ	-12533
▁ዘምሪ	-12534
▁ዘሩም	-12535
▁ዘሩን	-12536
▁ዛሬው	-12537
▁የሐሰ	-12538
▁የመጋ	-12539
▁የሚን	-12540
▁የሚክ	-12541
▁የሸሸ	-12542
▁የቆሬ	-12543
▁የበላ	-12544
▁የተን	-12545
▁የተጋ	-12546
▁የተፈ	-12547
▁የታሰ	-12548
▁የታተ	-12549
▁የኔር	-12550
▁የኤዶ	-12551
▁የእሳ	-12552
▁የከብ	-12553
▁የኪሩ	-12554
▁የደቡ	-12555
▁የጠጅ	-12556
▁ያልታ	-12557
▁ያልፍ	-12558
▁ያመል	-12559
▁ያየው	-12560
▁ያጣም	-12561
▁ያጭዳ	-12562
▁ያፈል	-12563
▁ይሂድ	-12564
▁ይቀል	-12565
▁ይበረ	-12566
▁ይነሡ	-12567
▁ይነቅ	-12568
▁ይነጥ	-12569
▁ይነፉ	-12570
▁ይዞታ	-12571
▁ይደግ	-12572
▁ይግባ	-12573
▁ዮናስ	-12574
▁ደረሱ	-12575
▁ድርብ	-12576
▁ገዦች	-12577
▁ጋር።	-12578
▁ጌቶች	-12579
▁ግልጥ	-12580
▁ግምባ	-12581
▁ጠራ፤	-12582
▁ጠርቼ	-12583
▁ጠጅና	-12584
▁ጠፍር	-12585
▁ጥሩር	-12586
▁ጨርቅ	-12587
▁ጭከና	-12588
▁ጸናጽ	-12589
▁ጺቅላ	-12590
▁ጻፈ።	-12591
▁ጽኑዕ	-12592
▁ፈልጉ	-12593
▁ፈርዖ	-12594
▁ፈሰሰ	-12595
▁ፈውስ	-12596
▁ፈጽመ	-12597
▁ፍሪዳ	-12598
▁ፍርዱ	-12599
▁ፍርዴ	-12600
ሃይማኖት	-12601
ለዋልና።	-12602
ሊባኖስም	-12603
ላችኋልና	-12604
ቀርብበት	-12605
ቸዋለሁና	-12606
ቸዋለች።	-12607
ቻቸውንና	-12608
ቼአለሁ።	-12609
ዙአቸው።	-12610
ገልግሎት	-12611
ፈርዖንም	-12612
▁ሆምጣጤ	-12613
▁ሆንሁ፤	-12614
▁ሆኖአል	-12615
▁ለመበለ	-12616
▁ለበኣል	-12617
▁ለባልዋ	-12618
▁ለእሳት	-12619
▁ለእናቱ	-12620
▁ለዔሳው	-12621
▁ለዘላለ	-12622
▁ለጥቂት	-12623
▁ልጆቼን	-12624
▁ሐምራዊ	-12625
▁መማፀኛ	-12626
▁መስጠት	-12627
▁መቃኖች	-12628
▁መታው፥	-12629
▁መከተል	-12630
▁መጎናጸ	-12631
▁መጥምቁ	-12632
▁መጫሪያ	-12633
▁ሙሽራው	-12634
▁ማረፊያ	-12635
▁ማሰሪያ	-12636
▁ማዕበል	-12637
▁ምሳሌ፥	-12638
▁ምክርን	-12639
▁ሠርተህ	-12640
▁ሥራውም	-12641
▁ርኩስን	-12642
▁ርኩሶች	-12643
▁ሰንባላ	-12644
▁ሰዓትም	-12645
▁ሰጠው፥	-12646
▁ሲናገሩ	-12647
▁ሳለሁ፥	-12648
▁ሳላችሁ	-12649
▁ስምህም	-12650
▁ስድስቱ	-12651
▁ቀረበ፤	-12652
▁ቀረቡ፤	-12653
▁ቁርባን	-12654
▁ቅንጣት	-12655
▁በልብሱ	-12656
▁በመምጣ	-12657
▁በመከር	-12658
▁በመጠን	-12659
▁በቀስታ	-12660
▁በትሮች	-12661
▁በትጋት	-12662
▁በአገር	-12663
▁በኢያቡ	-12664
▁በከበረ	-12665
▁በከነዓ	-12666
▁በውጭም	-12667
▁በዓመፃ	-12668
▁በዘጠኝ	-12669
▁በየመን	-12670
▁በደጆች	-12671
▁በገባች	-12672
▁በግሪክ	-12673
▁በጢሮስ	-12674
▁በጥቂቱ	-12675
▁በጸሎት	-12676
▁በጸጥታ	-12677
▁በፈቃዱ	-12678
▁ቢሠራ፥	-12679
▁ቢወጣ፥	-12680
▁ባለቤቱ	-12681
▁ባልዋም	-12682
▁ባሕርም	-12683
▁ባይኖር	-12684
▁ተመልሳ	-12685
▁ተመልሼ	-12686
▁ተማረከ	-12687
▁ተራራና	-12688
▁ተርጓሚ	-12689
▁ተሰብሰ	-12690
▁ተሰናከ	-12691
▁ተሰጡ።	-12692
▁ተሰጥታ	-12693
▁ተቀመጪ	-12694
▁ተቅበዝ	-12695
▁ተቈጠረ	-12696
▁ተኣምራ	-12697
▁ተጠርቶ	-12698
▁ታሳድዳ	-12699
▁ታቃጥላ	-12700
▁ታቦቱን	-12701
▁ትወልዳ	-12702
▁ትወድዳ	-12703
▁ትዘረጋ	-12704
▁ኃይሉም	-12705
▁ናቸውን	-12706
▁ንጥቂያ	-12707
▁አለፉ።	-12708
▁አላልሁ	-12709
▁አላዋቂ	-12710
▁አልሄዱ	-12711
▁አልሰጥ	-12712
▁አልቅሱ	-12713
▁አልጠየ	-12714
▁አመነዘ	-12715
▁አምላኮ	-12716
▁አሦርም	-12717
▁አረከስ	-12718
▁አሰበ፤	-12719
▁አሳለፈ	-12720
▁አስቀር	-12721
▁አሸነፈ	-12722
▁አባቱና	-12723
▁አብረን	-12724
▁አትሰጥ	-12725
▁አትቀበ	-12726
▁አትተወ	-12727
▁አትወጣ	-12728
▁አትዘግ	-12729
▁አትፈራ	-12730
▁አንገተ	-12731
▁አያሸን	-12732
▁አይሆኑ	-12733
▁አይሰሙ	-12734
▁አጠፋ።	-12735
▁አፈስስ	-12736
▁አፍንጫ	-12737
▁ኢያሱ፥	-12738
▁ኤዊያዊ	-12739
▁እልፍኝ	-12740
▁እሴይም	-12741
▁እቀበላ	-12742
▁እባክህ	-12743
▁እንሆን	-12744
▁እንኳ፥	-12745
▁እወቅ፤	-12746
▁እየሄዱ	-12747
▁እጆቹን	-12748
▁እጠብቅ	-12749
▁እጨምራ	-12750
▁እጸልያ	-12751
▁ከሁሉም	-12752
▁ከመጠን	-12753
▁ከሚስቱ	-12754
▁ከሜራሪ	-12755
▁ከሮቤል	-12756
▁ከቀድሞ	-12757
▁ከታላቁ	-12758
▁ከትውል	-12759
▁ከአሁን	-12760
▁ከአሞን	-12761
▁ከአርባ	-12762
▁ከአሮን	-12763
▁ከክፋት	-12764
▁ከዓይን	-12765
▁ከደመና	-12766
▁ከግብፃ	-12767
▁ከጻፎች	-12768
▁ወረዱ፤	-12769
▁ወይስ።	-12770
▁ወዮለት	-12771
▁ወደቁ፤	-12772
▁ወዲያም	-12773
▁ወዳጆቹ	-12774
▁ወጣች።	-12775
▁ወጥተህ	-12776
▁ውስጥ፥	-12777
▁ውሸተኛ	-12778
▁ዖዝያን	-12779
▁ዘመዶች	-12780
▁ዘርህን	-12781
▁ዘንድና	-12782
▁ዛብሎን	-12783
▁የሆንሁ	-12784
▁የለበሱ	-12785
▁የላከኝ	-12786
▁የሕያው	-12787
▁የመጡት	-12788
▁የሚመጡ	-12789
▁የሚበቃ	-12790
▁የሚበዙ	-12791
▁የሚገኝ	-12792
▁የሚገዙ	-12793
▁የማልሁ	-12794
▁የሞቱት	-12795
▁የሰዶም	-12796
▁የሻለቃ	-12797
▁የበደሉ	-12798
▁የተዋበ	-12799
▁የታሰረ	-12800
▁የኋለኛ	-12801
▁የኖረው	-12802
▁የአህያ	-12803
▁የአምሳ	-12804
▁የእህሉ	-12805
▁የዘረጋ	-12806
▁የድንኳ	-12807
▁የጢሮስ	-12808
▁የፈጠር	-12809
▁ያለው፥	-12810
▁ያስፈል	-12811
▁ያስፈራ	-12812
▁ያቀረቡ	-12813
▁ያከብሩ	-12814
▁ያያሉ፥	-12815
▁ይሁኑ፥	-12816
▁ይላሉ፤	-12817
▁ይልቅስ	-12818
▁ይሰረይ	-12819
▁ይሰጣል	-12820
▁ይሸፍኑ	-12821
▁ይበረታ	-12822
▁ይበተና	-12823
▁ይባርካ	-12824
▁ይነሣል	-12825
▁ይነግሩ	-12826
▁ይኑር።	-12827
▁ይወሰዳ	-12828
▁ይገባል	-12829
▁ይጠብ፥	-12830
▁ዮዳሄም	-12831
▁ደስታን	-12832
▁ደኅንነ	-12833
▁ድረስ፤	-12834
▁ድሪዎች	-12835
▁ጀመረ፤	-12836
▁ጀመር፤	-12837
▁ገባሮች	-12838
▁ግብርም	-12839
▁ጠየቀ፤	-12840
▁ጣሉት፤	-12841
▁ጥበብና	-12842
▁ጮኽሁ፤	-12843
▁ጮኽሁ፥	-12844
▁ጻፎችም	-12845
▁ፈጽሞም	-12846
▁ፍሬውም	-12847
ሉአቸዋል።	-12848
ላችኋለሁ፤	-12849
▁ሁላችሁም	-12850
▁ለሌሎችም	-12851
▁ለመግባት	-12852
▁ለመግደል	-12853
▁ለመጠበቅ	-12854
▁ለሚቀመጡ	-12855
▁ለሰማይም	-12856
▁ለኤፍሬም	-12857
▁ልጆቹንና	-12858
▁ልጆቻችን	-12859
▁ልጆችህን	-12860
▁መለከትም	-12861
▁መልአኩን	-12862
▁መልካምና	-12863
▁መንገዶች	-12864
▁መንፈሴን	-12865
▁መጥተውም	-12866
▁ምልክትን	-12867
▁ምሕረትና	-12868
▁ምሳሌውን	-12869
▁ምድሩንም	-12870
▁ሥጋቸውም	-12871
▁ሰውነቱን	-12872
▁ሰይፉንም	-12873
▁ስለሚሆን	-12874
▁ስላደረግ	-12875
▁ስደተኞች	-12876
▁ስፍራቸው	-12877
▁ሽመልመሌ	-12878
▁ቃልህንም	-12879
▁በሁለቱም	-12880
▁በልብህም	-12881
▁በሕዝብም	-12882
▁በመሥዋዕ	-12883
▁በምድርህ	-12884
▁በሠራዊቱ	-12885
▁በሥራቸው	-12886
▁በረዶውም	-12887
▁በሰሜንም	-12888
▁በስማቸው	-12889
▁በቅርንጫ	-12890
▁በቤትህም	-12891
▁በትእዛዜ	-12892
▁በንጉሡና	-12893
▁በአለቆች	-12894
▁በአልጋው	-12895
▁በአንገቱ	-12896
▁በአክዓብ	-12897
▁በኢዮአብ	-12898
▁በእርሻም	-12899
▁በእነዚያ	-12900
▁በእንስሳ	-12901
▁በእውቀት	-12902
▁በከተማም	-12903
▁በከተማው	-12904
▁በከንፈሩ	-12905
▁በወንዞች	-12906
▁በዓይኖች	-12907
▁በዘበኞች	-12908
▁በዘይትም	-12909
▁በየጊዜው	-12910
▁በደስታም	-12911
▁በዳንኤል	-12912
▁በፈረሶች	-12913
▁ባሪያህም	-12914
▁ቤትሖሮን	-12915
▁ብታደርጉ	-12916
▁ብቻቸውን	-12917
▁ተመለስ፤	-12918
▁ተመልከቺ	-12919
▁ተራሮችን	-12920
▁ተሰለፉ።	-12921
▁ተቀመጥ፥	-12922
▁ተናገርሁ	-12923
▁ተናገር፤	-12924
▁ተንኰለኛ	-12925
▁ተንኰልን	-12926
▁ትሄዳለህ	-12927
▁ትሆናለች	-12928
▁ትንቢትም	-12929
▁ትውልድም	-12930
▁ትዕግሥት	-12931
▁ነበረችና	-12932
▁ነበረው፤	-12933
▁ነገሩት፤	-12934
▁ንገሩት።	-12935
▁ንግሥቲቱ	-12936
▁አለቆችን	-12937
▁አልቻለም	-12938
▁አመሰገነ	-12939
▁አመንዝረ	-12940
▁አምስተኛ	-12941
▁አምስቱም	-12942
▁አርፋክስ	-12943
▁አሮጌውን	-12944
▁አስገባሪ	-12945
▁አስጨንቃ	-12946
▁አባቱንና	-12947
▁አትበል፤	-12948
▁አንደበት	-12949
▁አንገቱን	-12950
▁አወቅሁ።	-12951
▁አወቅሁ፤	-12952
▁አያስተው	-12953
▁አያይም።	-12954
▁አድምጡ።	-12955
▁አገሮችም	-12956
▁አጥንቶች	-12957
▁አፋቸውን	-12958
▁ኢዮራምም	-12959
▁ኢዮርብዓ	-12960
▁ኢዮቤልዩ	-12961
▁ኤልዛቤል	-12962
▁ኤፍሬምም	-12963
▁እምላለሁ	-12964
▁እናትህን	-12965
▁እንዲሰጥ	-12966
▁እንዲያዩ	-12967
▁እንዳስተ	-12968
▁እንዳያዩ	-12969
▁እውቀትም	-12970
▁እውነቱን	-12971
▁እግረኞች	-12972
▁ከሕይወት	-12973
▁ከመቃብር	-12974
▁ከመናገር	-12975
▁ከመንገዱ	-12976
▁ከመንፈስ	-12977
▁ከምዕራብ	-12978
▁ከራፋይም	-12979
▁ከሰሎሞን	-12980
▁ከቅዱሳን	-12981
▁ከባሕርም	-12982
▁ከተማዎች	-12983
▁ከተቀመጠ	-12984
▁ከኢዮአብ	-12985
▁ከእንጀራ	-12986
▁ከከነዓን	-12987
▁ከዛብሎን	-12988
▁ከይስሐቅ	-12989
▁ከዮሐንስ	-12990
▁ከዳዊትም	-12991
▁ከድንኳኑ	-12992
▁ከፊተኛው	-12993
▁ኪዳኑንም	-12994
▁ክብርንም	-12995
▁ወደሚሆን	-12996
▁ወገኖችና	-12997
▁ወጥታችሁ	-12998
▁ዘጠኝኛው	-12999
▁ዙፋኑንም	-13000
▁የለምና፤	-13001
▁የለውም፥	-13002
▁የሌላቸው	-13003
▁የሚቃወም	-13004
▁የሚያፈራ	-13005
▁የሚደረግ	-13006
▁የሚደርስ	-13007
▁የምትሰሙ	-13008
▁የምናገር	-13009
▁የምድሩን	-13010
▁የሞላበት	-13011
▁የራጉኤል	-13012
▁የሮቤልም	-13013
▁የተዋበች	-13014
▁የአሞንን	-13015
▁የአባቴን	-13016
▁የአክዓብ	-13017
▁የኢያሪኮ	-13018
▁የእንጀራ	-13019
▁የከነዓን	-13020
▁የወርቅም	-13021
▁የወንድሞ	-13022
▁የዚያንም	-13023
▁የይሳኮር	-13024
▁የይስሐቅ	-13025
▁የጠቢባን	-13026
▁ያስተውሉ	-13027
▁ያወጣል፥	-13028
▁ያውቃል፤	-13029
▁ይሄዳሉ፥	-13030
▁ይለኛል፤	-13031
▁ይለዋል፥	-13032
▁ይመለከት	-13033
▁ይሰበሰባ	-13034
▁ይበላችሁ	-13035
▁ይነሣል።	-13036
▁ይኖራሉ።	-13037
▁ይከናወን	-13038
▁ይወጣሉ፤	-13039
▁ይድናል።	-13040
▁ይገባል፤	-13041
▁ይገባል፥	-13042
▁ይገደል፤	-13043
▁ይጠራል።	-13044
▁ድንጋዩን	-13045
▁ገንዘቡን	-13046
▁ጠላቶቼን	-13047
▁ፀነሰች፥	-13048
▁ፍሬውንም	-13049
▁ለእናንተና	-13050
▁መሠዊያውም	-13051
▁መሥዋዕትም	-13052
▁መቅሠፍቴን	-13053
▁መንቀጥቀጥ	-13054
▁መግደላዊት	-13055
▁ማናቸውንም	-13056
▁ምሕረትህም	-13057
▁ምሕረትህን	-13058
▁ምግባቸውን	-13059
▁ሳሙኤልን።	-13060
▁በመቅሠፍት	-13061
▁በመካከልህ	-13062
▁በማስተዋል	-13063
▁በምድሪቱም	-13064
▁በምድራቸው	-13065
▁በተራሮችም	-13066
▁በነበረበት	-13067
▁በአምላኩም	-13068
▁በዙሪያዋም	-13069
▁በየወገኑ፥	-13070
▁በደላቸውን	-13071
▁በደማስቆም	-13072
▁ተመለከተ፥	-13073
▁ተመልከት፥	-13074
▁ተአምራትን	-13075
▁ኃጢአታቸው	-13076
▁ኃጢአታችሁ	-13077
▁ነገሥታት፥	-13078
▁ነፍስህንም	-13079
▁ንጉሡንም።	-13080
▁አስቀድመን	-13081
▁አታውቅምን	-13082
▁አኖራለሁ፤	-13083
▁አውቃለሁና	-13084
▁አያውቅም።	-13085
▁አይገኝም፤	-13086
▁አደረጋችሁ	-13087
▁አዳናቸው።	-13088
▁ኢዮስያስም	-13089
▁እመልሳለሁ	-13090
▁እስራኤልና	-13091
▁እባካችሁ፥	-13092
▁እነርሱንና	-13093
▁እንሄዳለን	-13094
▁እንዲሠለጥ	-13095
▁እንዲቀበል	-13096
▁እንዳትሆን	-13097
▁እንዳያልፍ	-13098
▁እንድርያስ	-13099
▁እንግዲህ፥	-13100
▁እኵሌቶቹም	-13101
▁እውነትንም	-13102
▁እዘዛቸው።	-13103
▁እጃቸውንም	-13104
▁እጆቻቸውን	-13105
▁ከካህናቱም	-13106
▁ከደኅንነት	-13107
▁ኮረብቶችም	-13108
▁ወንድምህም	-13109
▁ወዮላችሁ።	-13110
▁ወጥቶአል፤	-13111
▁ዓይኖቻቸው	-13112
▁ዝንጕርጕር	-13113
▁የልመናዬን	-13114
▁የሕዝቅያስ	-13115
▁የሚሄዱትን	-13116
▁የሚመጣውን	-13117
▁የምታደርግ	-13118
▁የሰጣቸውን	-13119
▁የተቀመጡት	-13120
▁የተወለደው	-13121
▁የተደረገው	-13122
▁የነቢያትን	-13123
▁የአማልክት	-13124
▁የአራተኛው	-13125
▁የአገሩንም	-13126
▁የኢዮሣፍጥ	-13127
▁የእውነትን	-13128
▁የከተማውም	-13129
▁የገለዓድን	-13130
▁ያቀርባል።	-13131
▁ያቀርባል፤	-13132
▁ያዕቆብንም	-13133
▁ያዘዝሁህን	-13134
▁ይመልሳል።	-13135
▁ይቀመጣሉ።	-13136
▁ይቀመጣሉ፤	-13137
▁ይቀበላል።	-13138
▁ይበላችሁ፥	-13139
▁ይበልጣል።	-13140
▁ይወስዳል፤	-13141
▁ደርሶአል።	-13142
▁ጴጥሮስንና	-13143
▁ሌዋውያንንም	-13144
▁መሥዋዕታችሁ	-13145
▁ሰረገሎችንና	-13146
▁ሰንበታቴንም	-13147
▁ሰውነታችሁን	-13148
▁በኢይዝራኤል	-13149
▁በከለዳውያን	-13150
▁በክርስቶስም	-13151
▁በዙሪያቸውም	-13152
▁ባሪያዎችህን	-13153
▁ተንቀሳቃሾች	-13154
▁ተወለዱለት፤	-13155
▁ኃጢአታቸውም	-13156
▁አመስግኑት።	-13157
▁አምላካችሁም	-13158
▁አይደለሁም፤	-13159
▁አይገባውም።	-13160
▁አድርጎአልና	-13161
▁ኢዮሣፍጥን።	-13162
▁እሰጠዋለሁ፥	-13163
▁እናውቃለን፤	-13164
▁እናገራለሁ፤	-13165
▁ከሌዋውያንም	-13166
▁ከመካከላችሁ	-13167
▁ከባልንጀራው	-13168
▁ክንፎቻቸውን	-13169
▁የመቅደሱንም	-13170
▁የሚናገረውን	-13171
▁የማደርገውን	-13172
▁የምታደርገው	-13173
▁የተመሸጉትን	-13174
▁የአሕዛብንም	-13175
▁የከለዳውያን	-13176
▁የወደደችውን	-13177
▁ያቃጥለዋል፤	-13178
▁መሎጊያዎቹንም	-13179
▁በኢየሩሳሌምና	-13180
▁ተናገሩአቸው።	-13181
▁ተናግሮአልና።	-13182
▁እያንዳንዳችን	-13183
▁የአምላካቸውን	-13184
▁የአምላክህንም	-13185
▁የአሞራውያንን	-13186
▁የአደባባዩንም	-13187
▁አመሰግንሃለሁ፥	-13188
▁እያንዳንዳችሁም	-13189
ሁኑ	-13190
ለወ	-13191
ላታ	-13192
ላገ	-13193
ሎክ	-13194
መገ	-13195
ምስ	-13196
ሞቹ	-13197
ሣው	-13198
ረሌ	-13199
ረም	-13200
ረጆ	-13201
ራክ	-13202
ራው	-13203
ራ።	-13204
ሬድ	-13205
ርቆ	-13206
ርዶ	-13207
ሮቼ	-13208
ሮአ	-13209
ሮጡ	-13210
ሰ፤	-13211
ሱር	-13212
ሳስ	-13213
ሾቹ	-13214
ቀች	-13215
ቀን	-13216
ቁብ	-13217
ቃው	-13218
ቄዳ	-13219
ቆጣ	-13220
ቈሩ	-13221
በኝ	-13222
በከ	-13223
ቢም	-13224
ብኘ	-13225
ቦም	-13226
ተቱ	-13227
ቲት	-13228
ቶም	-13229
ነድ	-13230
ኔሌ	-13231
ኔዝ	-13232
ንጥ	-13233
ኚ።	-13234
አኩ	-13235
ካዑ	-13236
ኰላ	-13237
ዋሽ	-13238
ዋየ	-13239
ዕና	-13240
ዕ፥	-13241
ዘበ	-13242
ዘጉ	-13243
ዚፍ	-13244
ዛቱ	-13245
ዞሩ	-13246
ዞር	-13247
ዢው	-13248
ዮት	-13249
ደቁ	-13250
ዳሪ	-13251
ዳነ	-13252
ዳጅ	-13253
ድሉ	-13254
ገፈ	-13255
ገፍ	-13256
ጋሪ	-13257
ጋድ	-13258
ግዝ	-13259
ግዶ	-13260
ጓዳ	-13261
ጕም	-13262
ጣው	-13263
ጤስ	-13264
ጥብ	-13265
ሉበት	-13266
ላትም	-13267
ልሁ፤	-13268
ልናል	-13269
ልንም	-13270
ሎንቄ	-13271
መሰክ	-13272
መው፥	-13273
መጣሁ	-13274
መጣ፥	-13275
ማመና	-13276
ማርካ	-13277
ማንም	-13278
ሞን፥	-13279
ሠምር	-13280
ሦርን	-13281
ረዋል	-13282
ራሉ፤	-13283
ራርም	-13284
ራቱም	-13285
ራት፥	-13286
ርሱ፥	-13287
ርሳም	-13288
ርዮን	-13289
ሰብሁ	-13290
ሰውር	-13291
ሳንና	-13292
ሳውን	-13293
ሳደቡ	-13294
ሴዴቅ	-13295
ሸጉት	-13296
ቁም፥	-13297
ቄሣር	-13298
ቅዱስ	-13299
ቆችን	-13300
ቈቅል	-13301
በሉት	-13302
በቴም	-13303
ቡት፥	-13304
ቢልታ	-13305
ባሉ፥	-13306
ባችን	-13307
ባንም	-13308
ባድ፥	-13309
ብኝም	-13310
ቦችና	-13311
ቱኤል	-13312
ታውም	-13313
ታይም	-13314
ቶቼን	-13315
ችኋት	-13316
ኋትን	-13317
ናሉ።	-13318
ኖሶች	-13319
ከበሩ	-13320
ከባል	-13321
ክር፥	-13322
ኮትም	-13323
ኵራት	-13324
ኵርና	-13325
ኸኝም	-13326
ወለዱ	-13327
ወርም	-13328
ወርስ	-13329
ወግድ	-13330
ወጡት	-13331
ወጡ፥	-13332
ዋረድ	-13333
ዋርት	-13334
ዋርድ	-13335
ዋትና	-13336
ዋቸው	-13337
ዚችም	-13338
ዝርና	-13339
ዝያን	-13340
ያለሁ	-13341
ያል፤	-13342
ያዊው	-13343
ያውቋ	-13344
ይም፥	-13345
ደክሙ	-13346
ደዋል	-13347
ደደው	-13348
ደድህ	-13349
ደፍር	-13350
ዱትን	-13351
ድሮን	-13352
ድን፤	-13353
ዶንና	-13354
ገልጋ	-13355
ገብህ	-13356
ገዱም	-13357
ገዱ።	-13358
ጊያም	-13359
ጐበኘ	-13360
ጠረበ	-13361
ጠር፤	-13362
ጠቀም	-13363
ጠብቀ	-13364
ጠነቅ	-13365
ጠንቅ	-13366
ጡም፤	-13367
ጡበት	-13368
ጣምም	-13369
ጣንም	-13370
ጨነቃ	-13371
ጫል።	-13372
ጫወት	-13373
ጸየፋ	-13374
ጸጸት	-13375
ጽበት	-13376
ፈሩና	-13377
ፈርዋ	-13378
ፈኑም	-13379
▁ለሸ	-13380
▁ሊፈ	-13381
▁ላኩ	-13382
▁ልሂ	-13383
▁ልጓ	-13384
▁ሐሜ	-13385
▁መፍ	-13386
▁ማሳ	-13387
▁ማቱ	-13388
▁ማየ	-13389
▁ሞኝ	-13390
▁ረብ	-13391
▁ረግ	-13392
▁ሩት	-13393
▁ሩጫ	-13394
▁ሮጦ	-13395
▁ሰዶ	-13396
▁ሲዘ	-13397
▁ስል	-13398
▁ሸሚ	-13399
▁ቀብ	-13400
▁ቀዳ	-13401
▁ቆየ	-13402
▁ቋድ	-13403
▁ቍር	-13404
▁በኅ	-13405
▁በኖ	-13406
▁በጢ	-13407
▁ቢን	-13408
▁ተድ	-13409
▁ተጥ	-13410
▁ተጸ	-13411
▁ታሞ	-13412
▁ትሆ	-13413
▁ችሎ	-13414
▁ችጋ	-13415
▁ነዪ	-13416
▁ንቃ	-13417
▁ኖራ	-13418
▁አሴ	-13419
▁ኤሎ	-13420
▁እረ	-13421
▁ኦዚ	-13422
▁ከኮ	-13423
▁ከያ	-13424
▁ከዲ	-13425
▁ከጦ	-13426
▁ኩሲ	-13427
▁ኵሲ	-13428
▁ዓብ	-13429
▁የቁ	-13430
▁የቡ	-13431
▁የቶ	-13432
▁የጊ	-13433
▁ይሆ	-13434
▁ይቅ	-13435
▁ይዛ	-13436
▁ዲን	-13437
▁ገጸ	-13438
▁ጎበ	-13439
▁ጎግ	-13440
▁ጥቅ	-13441
▁ፍጠ	-13442
ለሁበት	-13443
ለህና።	-13444
ለምነው	-13445
ለተኛው	-13446
ለንና፥	-13447
ላታል።	-13448
ልኛል፤	-13449
መለሱት	-13450
መለስም	-13451
መልሳት	-13452
መሰግና	-13453
መቂያው	-13454
መጣችሁ	-13455
ሙኤል፥	-13456
ማለች፤	-13457
ማላችሁ	-13458
ሞትበት	-13459
ረክሰው	-13460
ረክስ፥	-13461
ሩበኣል	-13462
ራቸውና	-13463
ርባንን	-13464
ሮንቶስ	-13465
ሳለች፥	-13466
ሳኦልና	-13467
ስተምር	-13468
ሶቻቸው	-13469
ቃቸው፤	-13470
በላውን	-13471
ባችሁ።	-13472
ባችኋል	-13473
ብሮን፥	-13474
ብሻል።	-13475
ብሻል፤	-13476
ቲቱንም	-13477
ታለች፥	-13478
ቼአለሁ	-13479
ችሁም።	-13480
ነታችን	-13481
ነግሡት	-13482
ናቸው።	-13483
ንቀላፋ	-13484
ንቅልፍ	-13485
ኖረውን	-13486
ኖቻችሁ	-13487
ኞቹንም	-13488
ከራከራ	-13489
ክርክር	-13490
ክዓብም	-13491
ኸኛልና	-13492
ኸኝም፤	-13493
ወርደው	-13494
ወቃችሁ	-13495
ወትርም	-13496
ዋለሁና	-13497
ዋለች፤	-13498
ዎቻችሁ	-13499
ዔናይ፥	-13500
ያውቀው	-13501
ዮችንም	-13502
ደኛለህ	-13503
ገለግል	-13504
ገቡባት	-13505
ገባበት	-13506
ገኘውን	-13507
ገኝበት	-13508
ጕረመረ	-13509
ጠራችሁ	-13510
ጠዋል።	-13511
ጣቸውም	-13512
ፈሩንም	-13513
▁ሁን፥	-13514
▁ለመኑ	-13515
▁ለከተ	-13516
▁ሊሠራ	-13517
▁ሊሰጥ	-13518
▁ሊቀበ	-13519
▁ልቡና	-13520
▁ልዩም	-13521
▁ሕግም	-13522
▁መለወ	-13523
▁መልሳ	-13524
▁መልኩ	-13525
▁መርጫ	-13526
▁መሶብ	-13527
▁መቱ፤	-13528
▁መኖር	-13529
▁መጥረ	-13530
▁ሚስቴ	-13531
▁ማረከ	-13532
▁ማንስ	-13533
▁ምሽግ	-13534
▁ምድጃ	-13535
▁ሞቱ፤	-13536
▁ሥጋም	-13537
▁ሥጋና	-13538
▁ርዝመ	-13539
▁ሮጠ፥	-13540
▁ሰሎሚ	-13541
▁ሰሙ።	-13542
▁ሰንበ	-13543
▁ሰድዶ	-13544
▁ሰጠህ	-13545
▁ሰጥቻ	-13546
▁ሳፋን	-13547
▁ስላስ	-13548
▁ስምዋ	-13549
▁ስጥ።	-13550
▁ሶፎን	-13551
▁ሸሸገ	-13552
▁ሹሞች	-13553
▁ቀለብ	-13554
▁ቀረጸ	-13555
▁ቀጠቀ	-13556
▁ቅባት	-13557
▁ቅዒላ	-13558
▁ቅድሳ	-13559
▁ቆሙ፥	-13560
▁ቋቁቻ	-13561
▁በላ፥	-13562
▁በልቶ	-13563
▁በመተ	-13564
▁በሚታ	-13565
▁በበር	-13566
▁በብል	-13567
▁በክፈ	-13568
▁በዋጋ	-13569
▁በየክ	-13570
▁በደሉ	-13571
▁በጥም	-13572
▁በጦር	-13573
▁በፍየ	-13574
▁ቢነካ	-13575
▁ቢጸል	-13576
▁ባለጠ	-13577
▁ባልሁ	-13578
▁ባኒ፥	-13579
▁ባየሁ	-13580
▁ባገባ	-13581
▁ብላ።	-13582
▁ብሎት	-13583
▁ተላል	-13584
▁ተመቱ	-13585
▁ተሠራ	-13586
▁ተሳለ	-13587
▁ተሸሸ	-13588
▁ተበቀ	-13589
▁ተተከ	-13590
▁ተወስ	-13591
▁ተገኙ	-13592
▁ታኖረ	-13593
▁ታየ።	-13594
▁ትሁን	-13595
▁ትሰጥ	-13596
▁ትተን	-13597
▁ትካዜ	-13598
▁ትጋት	-13599
▁ትጸና	-13600
▁ትፈል	-13601
▁ትፈታ	-13602
▁ነግሦ	-13603
▁ናታኒ	-13604
▁አላዝ	-13605
▁አልሁ	-13606
▁አልማ	-13607
▁አሜሳ	-13608
▁አስብ	-13609
▁አስይ	-13610
▁አቃል	-13611
▁አቤል	-13612
▁አብም	-13613
▁አብሬ	-13614
▁አታን	-13615
▁አታጥ	-13616
▁አትል	-13617
▁አትቅ	-13618
▁አነጻ	-13619
▁አናት	-13620
▁አዋላ	-13621
▁አውታ	-13622
▁አዝኖ	-13623
▁አየሁ	-13624
▁አየና	-13625
▁አገረ	-13626
▁አጵሎ	-13627
▁ኢያሪ	-13628
▁ኤስሮ	-13629
▁እራት	-13630
▁እቀኛ	-13631
▁እብቅ	-13632
▁እንቍ	-13633
▁እንታ	-13634
▁እከተ	-13635
▁እየሰ	-13636
▁እየነ	-13637
▁እይዛ	-13638
▁እይ፥	-13639
▁እግሩ	-13640
▁ከሌለ	-13641
▁ከተመ	-13642
▁ከአኪ	-13643
▁ከአዛ	-13644
▁ከአፋ	-13645
▁ከእሳ	-13646
▁ከእስ	-13647
▁ከየአ	-13648
▁ከጣዖ	-13649
▁ክብሬ	-13650
▁ወድቃ	-13651
▁ወጥቼ	-13652
▁ውርደ	-13653
▁ውሰዱ	-13654
▁ውጭው	-13655
▁ዘምሩ	-13656
▁ዘርም	-13657
▁ዘርጋ	-13658
▁ዘግቶ	-13659
▁ዝሙት	-13660
▁ዝባድ	-13661
▁ዝንጉ	-13662
▁ዝገት	-13663
▁የላም	-13664
▁የመራ	-13665
▁የመዓ	-13666
▁የቀር	-13667
▁የቀበ	-13668
▁የባል	-13669
▁የተደ	-13670
▁የነፍ	-13671
▁የንስ	-13672
▁የአሳ	-13673
▁የኤሊ	-13674
▁የእስ	-13675
▁የእኛ	-13676
▁የእግ	-13677
▁የከፋ	-13678
▁የዓዝ	-13679
▁የያዙ	-13680
▁የይሮ	-13681
▁የድሆ	-13682
▁ያለህ	-13683
▁ያላት	-13684
▁ያምና	-13685
▁ያሰረ	-13686
▁ያወራ	-13687
▁ያዘ።	-13688
▁ያዙ።	-13689
▁ያደር	-13690
▁ያድኑ	-13691
▁ያጥኑ	-13692
▁ይሂዱ	-13693
▁ይሆነ	-13694
▁ይልበ	-13695
▁ይምላ	-13696
▁ይሞት	-13697
▁ይረጩ	-13698
▁ይቆም	-13699
▁ይትራ	-13700
▁ይነካ	-13701
▁ይንቃ	-13702
▁ይካፈ	-13703
▁ይወድ	-13704
▁ይጨል	-13705
▁ደም፥	-13706
▁ደርቆ	-13707
▁ደበደ	-13708
▁ድምጽ	-13709
▁ድብቅ	-13710
▁ገደለ	-13711
▁ጋለሞ	-13712
▁ጌርጌ	-13713
▁ጌታ።	-13714
▁ግመል	-13715
▁ግባ፥	-13716
▁ግያዝ	-13717
▁ጠላቴ	-13718
▁ጠብቄ	-13719
▁ጣለ።	-13720
▁ጫፍ፥	-13721
▁ጮኸ፥	-13722
▁ጸለይ	-13723
▁ጽድቃ	-13724
▁ፀዳል	-13725
▁ፈርጥ	-13726
▁ፈሳሾ	-13727
▁ፊልክ	-13728
▁ፊተኛ	-13729
▁ፊት።	-13730
▁ፋሬስ	-13731
▁ፍሬም	-13732
ለዋለህ።	-13733
ላቸዋለሁ	-13734
ላችኋለሁ	-13735
ላችኋል፥	-13736
ሸከሙትን	-13737
በታቸውን	-13738
ባቸዋለሁ	-13739
ባቸዋል፥	-13740
ባቸውም፤	-13741
ባችኋለሁ	-13742
ባችኋል፤	-13743
ባችኋል፥	-13744
ችግረኞች	-13745
ኖቻቸውም	-13746
አችሁንም	-13747
አችኋል።	-13748
አችኋል፥	-13749
ገለዓድም	-13750
ገናኛውም	-13751
ጣቸውም።	-13752
ጽፍላችሁ	-13753
▁ሄደች።	-13754
▁ሆነች፤	-13755
▁ሆንሁ፥	-13756
▁ለሕዝቤ	-13757
▁ለመሻት	-13758
▁ለመያዝ	-13759
▁ለሚሆኑ	-13760
▁ለሚስቱ	-13761
▁ለሮቤል	-13762
▁ለሰሎሞ	-13763
▁ለሴቶች	-13764
▁ለነበሩ	-13765
▁ለእናት	-13766
▁ለከንቱ	-13767
▁ለወርቁ	-13768
▁ለግብፅ	-13769
▁ሊቀበል	-13770
▁ልባሞች	-13771
▁ልትሆን	-13772
▁ልጅህም	-13773
▁ሕልሙን	-13774
▁ሕያውም	-13775
▁ሕፃኑም	-13776
▁መለሱ።	-13777
▁መለየት	-13778
▁መሰከረ	-13779
▁መስክሮ	-13780
▁መክፈቻ	-13781
▁መጠን፥	-13782
▁መጣችሁ	-13783
▁ሙታንን	-13784
▁ሚስቶቹ	-13785
▁ማለፊያ	-13786
▁ማስተዋ	-13787
▁ማንም።	-13788
▁ማዕዘኑ	-13789
▁ሜሱላም	-13790
▁ምንደኛ	-13791
▁ምጽዋት	-13792
▁ሠርተው	-13793
▁ሥጋንም	-13794
▁ሦስቱን	-13795
▁ራእዩን	-13796
▁ርኵሳን	-13797
▁ሰላዮች	-13798
▁ሰሜንም	-13799
▁ሰምቶ።	-13800
▁ሰባቱም	-13801
▁ሰዶምና	-13802
▁ሰጣት።	-13803
▁ሲሣራን	-13804
▁ሳይሞት	-13805
▁ስለሚያ	-13806
▁ስሕተት	-13807
▁ስንሆን	-13808
▁ስድብን	-13809
▁ቀረቡ።	-13810
▁ቀስቱን	-13811
▁ቀናተኛ	-13812
▁ቂሣርያ	-13813
▁ቅርፊት	-13814
▁ቅዱሳኑ	-13815
▁ቆርኔሌ	-13816
▁ቍጣዬን	-13817
▁በልቡ።	-13818
▁በሕግም	-13819
▁በመርከ	-13820
▁በመባቻ	-13821
▁በማመን	-13822
▁በምንም	-13823
▁በምኩራ	-13824
▁በሥራው	-13825
▁በሬማት	-13826
▁በሰውና	-13827
▁በቀረው	-13828
▁በቀንና	-13829
▁በቅንዓ	-13830
▁በኋላዬ	-13831
▁በነፍሱ	-13832
▁በአሦር	-13833
▁በአርባ	-13834
▁በአካዝ	-13835
▁በአዲስ	-13836
▁በኢያሱ	-13837
▁በእሳቱ	-13838
▁በእስያ	-13839
▁በኩል፥	-13840
▁በወይኑ	-13841
▁በወጣህ	-13842
▁በውሸት	-13843
▁በዘመን	-13844
▁በየሰን	-13845
▁በደረቅ	-13846
▁በደረቱ	-13847
▁በዳውን	-13848
▁በጌሤም	-13849
▁በጸናጽ	-13850
▁በፋርስ	-13851
▁ባልቴት	-13852
▁ባሪያም	-13853
▁ባትሰሙ	-13854
▁ባድማም	-13855
▁ቤቶችን	-13856
▁ብልሃት	-13857
▁ብሩንና	-13858
▁ብትሆኑ	-13859
▁ብትሰሙ	-13860
▁ብዛትና	-13861
▁ተሰረየ	-13862
▁ተሰውሮ	-13863
▁ተስፋዬ	-13864
▁ተሸሽጎ	-13865
▁ተሾመው	-13866
▁ተቈረጠ	-13867
▁ተቈጣ።	-13868
▁ተበቃዩ	-13869
▁ተነሺ፥	-13870
▁ተኝተው	-13871
▁ተከታተ	-13872
▁ተወሰደ	-13873
▁ተዋጉ፤	-13874
▁ተዘጋጁ	-13875
▁ተገረሙ	-13876
▁ተገዙ፤	-13877
▁ተጐናጽ	-13878
▁ተጠራ።	-13879
▁ኀጥኣን	-13880
▁ኃጢአቴ	-13881
▁ነበርህ	-13882
▁ናታንም	-13883
▁ንጹሑን	-13884
▁ንጽሕና	-13885
▁አለቀሱ	-13886
▁አለን፤	-13887
▁አለፉ፥	-13888
▁አልተሰ	-13889
▁አመኑ።	-13890
▁አመኑ፤	-13891
▁አምልኮ	-13892
▁አሥርም	-13893
▁አራትም	-13894
▁አራት።	-13895
▁አሳደደ	-13896
▁አሳደዳ	-13897
▁አስቈጣ	-13898
▁አስቡ፥	-13899
▁አስገዛ	-13900
▁አሻቅቦ	-13901
▁አቅንቶ	-13902
▁አባቶቼ	-13903
▁አታልቅ	-13904
▁አትሠራ	-13905
▁አትስረ	-13906
▁አትጨነ	-13907
▁አነድዳ	-13908
▁አንድን	-13909
▁አካዝም	-13910
▁አወረዱ	-13911
▁አወሩ።	-13912
▁አወቀ፤	-13913
▁አወጣ።	-13914
▁አየች፤	-13915
▁አያለሁ	-13916
▁አይምሰ	-13917
▁አገሩን	-13918
▁አገባ፥	-13919
▁አጥፍቶ	-13920
▁አፈለሰ	-13921
▁አፍህን	-13922
▁አፍስሰ	-13923
▁አፍስሶ	-13924
▁ኢትዮጵ	-13925
▁ኢዩም።	-13926
▁ኢያሱና	-13927
▁ኤልሳቤ	-13928
▁ኤልያብ	-13929
▁እህልና	-13930
▁እመክራ	-13931
▁እቈርጣ	-13932
▁እበቀላ	-13933
▁እባብም	-13934
▁እንስራ	-13935
▁እንክር	-13936
▁እኛንም	-13937
▁እወቅ።	-13938
▁እየጮኸ	-13939
▁እገልጣ	-13940
▁እገልጥ	-13941
▁እገድላ	-13942
▁እግሬን	-13943
▁እፈጽም	-13944
▁ከቆሙት	-13945
▁ከበኣል	-13946
▁ከቤቱም	-13947
▁ከብላቴ	-13948
▁ከታናሹ	-13949
▁ከነዚህ	-13950
▁ከአሴር	-13951
▁ከአባቱ	-13952
▁ከአፉም	-13953
▁ከእንስ	-13954
▁ከወንዙ	-13955
▁ከጌታም	-13956
▁ካላቸው	-13957
▁ክብሩም	-13958
▁ክንዱም	-13959
▁ወንዙም	-13960
▁ወደዚች	-13961
▁ወዴትም	-13962
▁ወገንና	-13963
▁ዐቀበት	-13964
▁ዓመፅን	-13965
▁ዓምዶች	-13966
▁ዓይኑም	-13967
▁ዕለትም	-13968
▁ዕዝራም	-13969
▁ዘለፋን	-13970
▁ዘመኑን	-13971
▁ዘመናት	-13972
▁ዘምሩ፤	-13973
▁ዘምሩ፥	-13974
▁ዘረጋ፥	-13975
▁ዝናብን	-13976
▁የልቡን	-13977
▁የመዳን	-13978
▁የሚበር	-13979
▁የሚጠሉ	-13980
▁የሚጸና	-13981
▁የምትል	-13982
▁የሠላሳ	-13983
▁የሰልፍ	-13984
▁የሰማዩ	-13985
▁የቅርብ	-13986
▁የቅብዓ	-13987
▁የበረሀ	-13988
▁የቢክሪ	-13989
▁የቤቱም	-13990
▁የብርና	-13991
▁የተሰወ	-13992
▁የተሳለ	-13993
▁የኃይል	-13994
▁የአማሌ	-13995
▁የአኪጦ	-13996
▁የእግር	-13997
▁የከተማ	-13998
▁የካህኑ	-13999
▁የወጣው	-14000
▁የወፍጮ	-14001
▁የዓመፃ	-14002
▁የገቡት	-14003
▁የጌታም	-14004
▁ያቀርብ	-14005
▁ያያሉ።	-14006
▁ያጽናና	-14007
▁ያፈስሰ	-14008
▁ያፈስሳ	-14009
▁ይላቸው	-14010
▁ይመለከ	-14011
▁ይሠዋና	-14012
▁ይሰግድ	-14013
▁ይሰፍራ	-14014
▁ይሸፍና	-14015
▁ይቀበሉ	-14016
▁ይቀበል	-14017
▁ይበል።	-14018
▁ይበትና	-14019
▁ይታገሣ	-14020
▁ይንገሥ	-14021
▁ይወርድ	-14022
▁ይገልጥ	-14023
▁ይገድል	-14024
▁ይጠቅመ	-14025
▁ደመናት	-14026
▁ደስታና	-14027
▁ደንዳና	-14028
▁ደግሞ፥	-14029
▁ድህነት	-14030
▁ጀመረ፥	-14031
▁ገደለ፥	-14032
▁ጉባኤው	-14033
▁ጌታም።	-14034
▁ጌታቸው	-14035
▁ጌታዬን	-14036
▁ግብጽን	-14037
▁ግንቦች	-14038
▁ጠባቂው	-14039
▁ጥዋትም	-14040
▁ጥፍጥፍ	-14041
▁ጮኸች።	-14042
▁ጸሎትና	-14043
▁ጽድቅና	-14044
▁ፀነሰች	-14045
▁ፈረደ።	-14046
▁ፈርተው	-14047
▁ፈጣኖች	-14048
▁ፊስጦስ	-14049
▁ፊተኞች	-14050
ላችኋልና።	-14051
ባብራለሁ፤	-14052
ተኸኛልና፥	-14053
ቶቻችሁንም	-14054
ዎቻቸውንም	-14055
ደረጋችሁት	-14056
▁ሁለንተና	-14057
▁ሆኖአልና	-14058
▁ለልጆችህ	-14059
▁ለሕዝቡ።	-14060
▁ለሕይወት	-14061
▁ለመልካም	-14062
▁ለመብላት	-14063
▁ለሚወድዱ	-14064
▁ለሚያምኑ	-14065
▁ለማፍሰስ	-14066
▁ለስምህም	-14067
▁ለበጠው።	-14068
▁ለነበረው	-14069
▁ለአምላክ	-14070
▁ለአባቱም	-14071
▁ለእውነት	-14072
▁ለዳዊትም	-14073
▁ለዳዊትና	-14074
▁ለጦርነት	-14075
▁ልባችንን	-14076
▁ሕዝቤንም	-14077
▁ሕይወቴን	-14078
▁መሆናችሁ	-14079
▁መለከትን	-14080
▁መሰደቢያ	-14081
▁መቄዶንያ	-14082
▁መቅረዞች	-14083
▁መታቸው።	-14084
▁መከራዬን	-14085
▁መካከል።	-14086
▁መዘምራን	-14087
▁መጣለት።	-14088
▁ሚስቶችን	-14089
▁ምሕረቱን	-14090
▁ምስጉኖች	-14091
▁ምስጋናና	-14092
▁ራስዋንም	-14093
▁ሰማርያም	-14094
▁ሰበሰበ፤	-14095
▁ሰብስበው	-14096
▁ሰንሰለት	-14097
▁ሰደደው።	-14098
▁ሴቲቱም።	-14099
▁ስማቸውም	-14100
▁ሽማግሎች	-14101
▁ሽምግልና	-14102
▁ቀርቦአል	-14103
▁ቅዱሳኑም	-14104
▁በመንፈሱ	-14105
▁በመከራም	-14106
▁በመካከሉ	-14107
▁በመዝገብ	-14108
▁በማለዳም	-14109
▁በራፋይም	-14110
▁በሰረገላ	-14111
▁በስድስት	-14112
▁በቀርሜሎ	-14113
▁በቁርበቱ	-14114
▁በተደረገ	-14115
▁በትምህር	-14116
▁በናያስ፥	-14117
▁በአማልክ	-14118
▁በአርኖን	-14119
▁በአሮንና	-14120
▁በአባቶቻ	-14121
▁በአንዲቱ	-14122
▁በአፍንጫ	-14123
▁በወንዙም	-14124
▁በዙሪያዬ	-14125
▁በየስፍራ	-14126
▁በደልንም	-14127
▁በደመናው	-14128
▁በድንጋጤ	-14129
▁በግምባሬ	-14130
▁በጎችንም	-14131
▁በጕልበቱ	-14132
▁በጥንቃቄ	-14133
▁በጻድቃን	-14134
▁በጽድቅም	-14135
▁ባደረግሁ	-14136
▁ቤትሳሚስ	-14137
▁ብለዋል።	-14138
▁ብሎአቸው	-14139
▁ብዙዎችም	-14140
▁ተቀመጥ፤	-14141
▁ተቈጠሩ።	-14142
▁ተበትነው	-14143
▁ተደነቁ።	-14144
▁ትምክህት	-14145
▁ትችላለህ	-14146
▁ትውልድ፥	-14147
▁ቸርነትና	-14148
▁ኃይለኞች	-14149
▁ነበርሁ።	-14150
▁ኑኃሚንም	-14151
▁አህያውን	-14152
▁አለቆችዋ	-14153
▁አላገኘሁ	-14154
▁አልመለሱ	-14155
▁አልተሰማ	-14156
▁አልችልም	-14157
▁አልነገር	-14158
▁አልከለከ	-14159
▁አልወደዱ	-14160
▁አልጠበቅ	-14161
▁አመጡት።	-14162
▁አማርያ፥	-14163
▁አምላክን	-14164
▁አምስት።	-14165
▁አሥረኛው	-14166
▁አሥሩንም	-14167
▁አስቀሎና	-14168
▁አስተማሪ	-14169
▁አስታውቀ	-14170
▁አስጠንቅ	-14171
▁አስጨናቂ	-14172
▁አቅርብ፤	-14173
▁አብራችሁ	-14174
▁አብዝተው	-14175
▁አትመለከ	-14176
▁አትችሉም	-14177
▁አትናገር	-14178
▁አዘጋጁ።	-14179
▁አየሁም፥	-14180
▁አያለሁ፤	-14181
▁አይሁድ።	-14182
▁አይበልጥ	-14183
▁አይብላ።	-14184
▁አድርገን	-14185
▁አድነኝ፤	-14186
▁አገልጋዮ	-14187
▁አገኙት፤	-14188
▁አጠፋቸው	-14189
▁ኢኮንያን	-14190
▁ኤፍራጥስ	-14191
▁እላለሁ፥	-14192
▁እስከማይ	-14193
▁እስኪገባ	-14194
▁እነሣለሁ	-14195
▁እነርሱ።	-14196
▁እናንተ፥	-14197
▁እናደርግ	-14198
▁እንለምን	-14199
▁እንላለን	-14200
▁እንደሚሰ	-14201
▁እንዳታስ	-14202
▁እኖራለሁ	-14203
▁እውነትም	-14204
▁እያላችሁ	-14205
▁እጆቹንም	-14206
▁እግሮቼን	-14207
▁ከሙታንም	-14208
▁ከሚኖሩት	-14209
▁ከምናሴም	-14210
▁ከሠራዊት	-14211
▁ከተናገረ	-14212
▁ከተፈተለ	-14213
▁ከእንስሳ	-14214
▁ከእንቅል	-14215
▁ከይሳኮር	-14216
▁ከጠላቶቼ	-14217
▁ከፀሐይም	-14218
▁ካህናትም	-14219
▁ወለደች፥	-14220
▁ወታደሮች	-14221
▁ወደዚህም	-14222
▁ወገብህን	-14223
▁ዓይኖቼን	-14224
▁የለመለመ	-14225
▁የመሰንቆ	-14226
▁የመቅደሱ	-14227
▁የመጽሐፍ	-14228
▁የሚሰግዱ	-14229
▁የሚሰጠው	-14230
▁የሚቀርቡ	-14231
▁የሚታመን	-14232
▁የሚወጣው	-14233
▁የሚያልፉ	-14234
▁የሚያበራ	-14235
▁የሚያወጣ	-14236
▁የማይጠፋ	-14237
▁የምትባል	-14238
▁የምነግር	-14239
▁የሰላምም	-14240
▁የሰሙትም	-14241
▁የሰማችሁ	-14242
▁የሰጠውን	-14243
▁የቂጣውን	-14244
▁የበደለኛ	-14245
▁የባሕርን	-14246
▁የተርሴስ	-14247
▁የኅጥኣን	-14248
▁የናዝሬቱ	-14249
▁የአሦርን	-14250
▁የከበረም	-14251
▁የውኃውን	-14252
▁የዓለምን	-14253
▁የዓሚሁድ	-14254
▁የዕረፍት	-14255
▁የዮሴፍን	-14256
▁የደቡብም	-14257
▁የጋለሞታ	-14258
▁የግብፅን	-14259
▁የጠፋውን	-14260
▁ያመጣል።	-14261
▁ያስፈልጋ	-14262
▁ያቃጥሉአ	-14263
▁ያቅርብ፤	-14264
▁ያበዛል።	-14265
▁ያነግሡት	-14266
▁ያድርጉ።	-14267
▁ያድርግብ	-14268
▁ይሄዳል።	-14269
▁ይለኛል፥	-14270
▁ይመላለስ	-14271
▁ይመሰክሩ	-14272
▁ይመሰክራ	-14273
▁ይሰጣሉ።	-14274
▁ይበላሉ።	-14275
▁ይበላሉ፤	-14276
▁ይበዘብዛ	-14277
▁ይነሣል፥	-14278
▁ይገባሉ።	-14279
▁ድምፁንም	-14280
▁ድንኳን፥	-14281
▁ድንገትም	-14282
▁ድንጋይና	-14283
▁ጃግሬውም	-14284
▁ገላውንም	-14285
▁ጌታችንን	-14286
▁ግብዝነት	-14287
▁ጠላቶችህ	-14288
▁ጠራቸው።	-14289
▁ጽድቅንና	-14290
▁ፊልጶስም	-14291
▁ፊታቸውም	-14292
▁ፊትህንም	-14293
▁ፋሲካውን	-14294
▁ፍርድህን	-14295
▁ሆኖአልና።	-14296
▁ለልጆቻቸው	-14297
▁ለመወዝወዝ	-14298
▁ለበጣቸው።	-14299
▁ለወንድምህ	-14300
▁ለወንድሞቹ	-14301
▁ሐዋርያትና	-14302
▁መልካቸውም	-14303
▁መጋረጆች፥	-14304
▁ማደሪያውም	-14305
▁ሥራቸውንም	-14306
▁ሰምቻለሁ፥	-14307
▁ሰገዱለት።	-14308
▁ሰጠኋቸው።	-14309
▁ሴቶቻቸውም	-14310
▁ሴዴቅያስን	-14311
▁ስላደረጉት	-14312
▁ሶምሶንም።	-14313
▁ቀርቦአልና	-14314
▁በለዓምን።	-14315
▁በሕዝብህም	-14316
▁በመቅደስም	-14317
▁በመንፈስም	-14318
▁በማደሪያህ	-14319
▁በአባታቸው	-14320
▁በኢሳይያስ	-14321
▁በኤፍራጥስ	-14322
▁በእናንተና	-14323
▁በውስጥዋም	-14324
▁ብልሃተኞች	-14325
▁ተመልከቱ፥	-14326
▁ተመልከት።	-14327
▁ተመልክቶ።	-14328
▁ተነሥተውም	-14329
▁ተንቀሳቃሽ	-14330
▁ተንበርክኮ	-14331
▁ትእዛዙንና	-14332
▁ትወዳለህን	-14333
▁ትወዳላችሁ	-14334
▁ነገሥታትን	-14335
▁አለቆቻቸው	-14336
▁አላወቀም።	-14337
▁አላወቁም።	-14338
▁አላውቀውም	-14339
▁አልተናገረ	-14340
▁አመጣለሁ፥	-14341
▁አትችሉም።	-14342
▁አኖራቸው፤	-14343
▁አውራውንም	-14344
▁አይተሃልን	-14345
▁አይገባም።	-14346
▁አደረገች።	-14347
▁አድርገኝ።	-14348
▁አጋንንትም	-14349
▁አጥብቃችሁ	-14350
▁እሆናለሁ፤	-14351
▁እርስዋንና	-14352
▁እስማኤልም	-14353
▁እንዳዘዘ፥	-14354
▁እንዳይገቡ	-14355
▁እግሮቻቸው	-14356
▁ከተናገረው	-14357
▁ከታናሽነቴ	-14358
▁ከአባታቸው	-14359
▁ከኤርምያስ	-14360
▁ከዋክብትም	-14361
▁ወይፈኑንም	-14362
▁ዓዛርያስ፥	-14363
▁የሆነውንም	-14364
▁የልጆቹንም	-14365
▁የመንኰራኵ	-14366
▁የሚሆኑትን	-14367
▁የሚመስለው	-14368
▁የሚመጣውም	-14369
▁የሚያመልኩ	-14370
▁የማዝዘውን	-14371
▁የማይታዘዙ	-14372
▁የምትቀመጪ	-14373
▁የሠራዊቱም	-14374
▁የሰማይንም	-14375
▁የተረፈውን	-14376
▁የኃጢአቱን	-14377
▁የነበረውም	-14378
▁የነበሩትም	-14379
▁የአሚናዳብ	-14380
▁የአምላኩን	-14381
▁የአምላክን	-14382
▁የአይሁድም	-14383
▁የኬልቅያስ	-14384
▁የወንድሙን	-14385
▁የግብጽንም	-14386
▁ይሁንልህ።	-14387
▁ይሆናልና፥	-14388
▁ይላቸዋል፤	-14389
▁ይመስገን።	-14390
▁ይሰግዳሉ።	-14391
▁ይቀመጣል።	-14392
▁ይቀርባል።	-14393
▁ይቀበላል፤	-14394
▁ይናገራል፥	-14395
▁ይወርሳሉ።	-14396
▁ይጠብቃል፤	-14397
▁ደብዳቤውን	-14398
▁ጆሮአቸውን	-14399
▁ገበታውንም	-14400
▁ጎዶልያስን	-14401
▁ጴጥሮስን።	-14402
▁ፈርዖንም።	-14403
▁ፈርዖንን።	-14404
▁ለመርዶክዮስ	-14405
▁ለአገልግሎት	-14406
▁ልጆቻችሁንም	-14407
▁መሎጊያዎቹን	-14408
▁መሥዋዕትንና	-14409
▁መንደሮችዋ፥	-14410
▁መዛሙርቱም።	-14411
▁ሰጥቼሃለሁ።	-14412
▁ሰጥቼሃለሁ፤	-14413
▁በሕይወታቸው	-14414
▁በባሪያዎቹም	-14415
▁በየሰሞናቸው	-14416
▁ባልንጀራህን	-14417
▁ታቀርባለህ።	-14418
▁ትሆናላችሁ፤	-14419
▁አሞራውያንም	-14420
▁አስተምረኝ።	-14421
▁አስተዋልሁ።	-14422
▁አትደንግጡ፤	-14423
▁አንገታቸውን	-14424
▁አደረገለት።	-14425
▁አደርገዋለሁ	-14426
▁አደርግሃለሁ	-14427
▁አድርገሃልና	-14428
▁እሰብራለሁ፥	-14429
▁እንስሳውንም	-14430
▁እንዳደረግህ	-14431
▁እፈልጋለሁ።	-14432
▁ከለዳውያንም	-14433
▁ከሶርያውያን	-14434
▁ወንድሞቻችን	-14435
▁የሚሆነውንም	-14436
▁የሚያስፈልገ	-14437
▁የተናገሩትን	-14438
▁የአምላካችን	-14439
▁የአሞራውያን	-14440
▁የአባቶቻችን	-14441
▁የከበረውንም	-14442
▁የዕብራውያን	-14443
▁ያቀርበዋል።	-14444
▁ያፈስሰዋል።	-14445
▁ይሁንላችሁ።	-14446
▁ይሆንልሃል።	-14447
▁ይዘጋበታል።	-14448
▁ለአባቶቻችሁም	-14449
▁በየትውልዳቸው	-14450
▁ታውቃላችሁና።	-14451
▁ታደርጋላችሁ።	-14452
▁ናቡከደነፆርም	-14453
▁አደርጋታለሁ፤	-14454
▁እላችኋለሁና፥	-14455
▁እሰባብራለሁ፤	-14456
▁እሰጣቸዋለሁ፥	-14457
▁የአባቶቻቸውም	-14458
▁ይሆንላችኋል፤	-14459
▁አደርጋቸዋለሁ።	-14460
ሀጽ	-14461
ህስ	-14462
ህኒ	-14463
ለሃ	-14464
ለለ	-14465
ለኸ	-14466
ሊያ	-14467
ላጩ	-14468
ሕ፥	-14469
መዱ	-14470
ሚ፤	-14471
ምሪ	-14472
ምቅ	-14473
ሞና	-14474
ሠር	-14475
ሥፍ	-14476
ረጉ	-14477
ሪባ	-14478
ራፊ	-14479
ርዋ	-14480
ሰቍ	-14481
ሰባ	-14482
ሱብ	-14483
ሳሽ	-14484
ስቶ	-14485
ስድ	-14486
ሶጵ	-14487
ሹት	-14488
ሽታ	-14489
ቀሱ	-14490
ቁና	-14491
ቃን	-14492
ቅሶ	-14493
ቈተ	-14494
በጭ	-14495
ቢ፥	-14496
ባሽ	-14497
ብክ	-14498
ተር	-14499
ተት	-14500
ታክ	-14501
ቴጌ	-14502
ትሞ	-14503
ኅነ	-14504
ነን	-14505
ኒያ	-14506
ኔና	-14507
ንጻ	-14508
ኚ፤	-14509
ከባ	-14510
ውጥ	-14511
ዓራ	-14512
ዓታ	-14513
ዙ፤	-14514
ዝዞ	-14515
ዩስ	-14516
ያየ	-14517
ያይ	-14518
ያፋ	-14519
ደኑ	-14520
ዲም	-14521
ዳች	-14522
ድከ	-14523
ድግ	-14524
ጀት	-14525
ጄን	-14526
ጋፍ	-14527
ጋ፤	-14528
ጐም	-14529
ጐት	-14530
ጕድ	-14531
ጠኙ	-14532
ጣ።	-14533
ጨን	-14534
ጪኝ	-14535
ጭዱ	-14536
ጽሞ	-14537
ፋር	-14538
ፎር	-14539
ፔር	-14540
▁ኣ	-14541
▁ዩ	-14542
▁ጵ	-14543
▁ፅ	-14544
ሄልና	-14545
ለማዊ	-14546
ለሽን	-14547
ለቅቃ	-14548
ለኛል	-14549
ለውዝ	-14550
ለውጥ	-14551
ለደው	-14552
ላልና	-14553
ላልን	-14554
ላቴን	-14555
ሌንም	-14556
ልሽ፥	-14557
ልያም	-14558
ልፈው	-14559
ሎችና	-14560
ሐር፥	-14561
ሐፊው	-14562
መለኩ	-14563
መታው	-14564
መነዝ	-14565
መን፥	-14566
መጡ፥	-14567
ሚኤል	-14568
ማችን	-14569
ሜንጦ	-14570
ምሁ፤	-14571
ረሕም	-14572
ረበት	-14573
ረብና	-14574
ረትን	-14575
ረኩ።	-14576
ረደ፥	-14577
ረድኤ	-14578
ረገዘ	-14579
ሩንና	-14580
ሪኤል	-14581
ራሪም	-14582
ራውን	-14583
ርስ፥	-14584
ርቅ፥	-14585
ሮት፥	-14586
ሮን፥	-14587
ሰማሩ	-14588
ሰማው	-14589
ሰረይ	-14590
ሰርያ	-14591
ሰሰው	-14592
ሰኘው	-14593
ሰዋል	-14594
ሰውን	-14595
ሳለሁ	-14596
ሳትን	-14597
ሳት፥	-14598
ሳውም	-14599
ሴንም	-14600
ሴይን	-14601
ስማሙ	-14602
ስኮር	-14603
ሸፍን	-14604
ቁም፤	-14605
ቂያም	-14606
ቃጥል	-14607
ቅድቅ	-14608
ቈርጥ	-14609
ቈጠረ	-14610
ቈጥራ	-14611
በረው	-14612
በሪም	-14613
በውን	-14614
ቡንና	-14615
ቢስም	-14616
ቢዎች	-14617
ባሉ፤	-14618
ባብ፥	-14619
ባንና	-14620
ቤድም	-14621
ተሃል	-14622
ተበት	-14623
ቱም፤	-14624
ቱንቢ	-14625
ችሁና	-14626
ነሣት	-14627
ነትዋ	-14628
ናትን	-14629
ናችን	-14630
ናወጡ	-14631
ናዖር	-14632
ንሐስ	-14633
ኖሪያ	-14634
ኖችን	-14635
ኞች፥	-14636
አሔር	-14637
አታል	-14638
ከለክ	-14639
ከባለ	-14640
ኩል፥	-14641
ኩስም	-14642
ካሞች	-14643
ካሮች	-14644
ካፈሉ	-14645
ካፈል	-14646
ኬንያ	-14647
ክክል	-14648
ኸው።	-14649
ወረ።	-14650
ወርሳ	-14651
ወዱ፥	-14652
ዋክብ	-14653
ዎስን	-14654
ዎቹና	-14655
ዑልም	-14656
ዕናክ	-14657
ዘንብ	-14658
ዛሉ።	-14659
ያውን	-14660
ይጣን	-14661
ዮስም	-14662
ዮችና	-14663
ዮን፥	-14664
ደሚያ	-14665
ደነገ	-14666
ደው፥	-14667
ደደን	-14668
ደዱ፥	-14669
ዲሞስ	-14670
ዲኤል	-14671
ዳሉ።	-14672
ዳንህ	-14673
ድራይ	-14674
ድን፥	-14675
ዶቹን	-14676
ጀምር	-14677
ገሥጸ	-14678
ገሥጽ	-14679
ገረው	-14680
ገኙት	-14681
ገዛ፥	-14682
ገድሉ	-14683
ጊያው	-14684
ጋቸው	-14685
ጋጠም	-14686
ግብጻ	-14687
ጎድል	-14688
ጠልጥ	-14689
ጠቀ፥	-14690
ጠኝ፤	-14691
ጠጣ፥	-14692
ጡም፥	-14693
ጡት።	-14694
ጥነት	-14695
ጨመር	-14696
ጩንም	-14697
ጩኸት	-14698
ጰዓድ	-14699
ጹንም	-14700
ጻፉት	-14701
ፈረ፥	-14702
ፈራራ	-14703
ፈጠር	-14704
ፉበት	-14705
ፋል፥	-14706
ፋረዳ	-14707
ፋንም	-14708
ፋጨት	-14709
ፌር፥	-14710
▁ሃያ	-14711
▁ለኬ	-14712
▁ለዋ	-14713
▁ለፋ	-14714
▁ላለ	-14715
▁ሕመ	-14716
▁ሙታ	-14717
▁ሜሮ	-14718
▁ሞሳ	-14719
▁ሰሙ	-14720
▁ሰሜ	-14721
▁ሰቡ	-14722
▁ሲሞ	-14723
▁ሲና	-14724
▁ሳታ	-14725
▁ሹማ	-14726
▁ቀቡ	-14727
▁ቃና	-14728
▁ቅል	-14729
▁ቅመ	-14730
▁ቅጣ	-14731
▁ቍጠ	-14732
▁በሣ	-14733
▁በፌ	-14734
▁ቢቀ	-14735
▁ቢጠ	-14736
▁ባሌ	-14737
▁ባን	-14738
▁ቲር	-14739
▁ታረ	-14740
▁ትኩ	-14741
▁ትጣ	-14742
▁ትጥ	-14743
▁ነአ	-14744
▁ነጎ	-14745
▁ኒቆ	-14746
▁ናባ	-14747
▁አጫ	-14748
▁ከሆ	-14749
▁ከሦ	-14750
▁ከኪ	-14751
▁ከኵ	-14752
▁ከዱ	-14753
▁ክህ	-14754
▁ውረ	-14755
▁ውድ	-14756
▁ዓና	-14757
▁ዓክ	-14758
▁የቈ	-14759
▁የቦ	-14760
▁የጐ	-14761
▁ያሬ	-14762
▁ያቈ	-14763
▁ያጸ	-14764
▁ይካ	-14765
▁ዳነ	-14766
▁ድሪ	-14767
▁ጅራ	-14768
▁ጋኔ	-14769
▁ጎጆ	-14770
▁ጠማ	-14771
▁ጩኺ	-14772
▁ጩኽ	-14773
▁ጸና	-14774
▁ጻፎ	-14775
▁ፊቱ	-14776
ሃለሁና	-14777
ሃልና፤	-14778
ሄዳችሁ	-14779
ለኛል።	-14780
ለኛውም	-14781
ላለሁ።	-14782
ላትያል	-14783
ላቸውና	-14784
ላችሁኝ	-14785
ላችንን	-14786
ሎቹንም	-14787
ሎቻችሁ	-14788
ሎአል፥	-14789
መረመር	-14790
መረምሩ	-14791
መጣለን	-14792
ሙትንም	-14793
ማለህ፥	-14794
ማለች፥	-14795
ማልና፥	-14796
ሞቹንም	-14797
ሠራበት	-14798
ሥርዓት	-14799
ሥዋዕት	-14800
ረካቸው	-14801
ረዋል።	-14802
ራለሁ፤	-14803
ርቅም።	-14804
ስተሪያ	-14805
ቀመጥህ	-14806
ቀጠቀጠ	-14807
ቃቸው፥	-14808
በቱንም	-14809
በዋል።	-14810
ባትም፤	-14811
ባቸውና	-14812
ብሃልና	-14813
ብረቀር	-14814
ተኞቹም	-14815
ተውሉ፥	-14816
ታለች።	-14817
ታቸው።	-14818
ታውቁኝ	-14819
ትንም፥	-14820
ቶችህን	-14821
ቶችንና	-14822
ቹንም፥	-14823
ቻቸው፤	-14824
ችሁምን	-14825
ችውም።	-14826
ነቱንም	-14827
ነታችሁ	-14828
ነቴንም	-14829
ነጋገር	-14830
ናቂዎች	-14831
ናገሩ።	-14832
ኖሩበት	-14833
ኖቹንም	-14834
አታል፤	-14835
ኤልንም	-14836
ከለክል	-14837
ከተለኝ	-14838
ወደውን	-14839
ወጣቸው	-14840
ዎቹም፥	-14841
ዎችዋም	-14842
ዛቸው፤	-14843
ያለሁ።	-14844
ይሁድና	-14845
ደዋል።	-14846
ደዱትን	-14847
ዳችሁን	-14848
ዳውያን	-14849
ድጓድም	-14850
ዶልያስ	-14851
ዶቻቸው	-14852
ገለገሉ	-14853
ገድሉት	-14854
ገድሉኝ	-14855
ግሥቲቱ	-14856
ጠባበቃ	-14857
ጠብቀው	-14858
ጠብቁት	-14859
ጣለች፤	-14860
ጣችሁን	-14861
ጥኣንም	-14862
ጴጥሮስ	-14863
ጸጸትም	-14864
ጽዮንጋ	-14865
ፈለው።	-14866
ፈልገኝ	-14867
ፈልጉ፥	-14868
▁ሆሴዕ	-14869
▁ሆነሽ	-14870
▁ሆንሽ	-14871
▁ሆይ፤	-14872
▁ለመለ	-14873
▁ለማኅ	-14874
▁ለቍጣ	-14875
▁ለብር	-14876
▁ለእና	-14877
▁ለክፉ	-14878
▁ለይቶ	-14879
▁ለይቼ	-14880
▁ለደረ	-14881
▁ለግመ	-14882
▁ሊሄድ	-14883
▁ሊሞት	-14884
▁ሊገባ	-14885
▁ልምላ	-14886
▁ልሳን	-14887
▁ልጅስ	-14888
▁ልጅሽ	-14889
▁ሎጥን	-14890
▁ሐናን	-14891
▁ሕማም	-14892
▁መላል	-14893
▁መሐሪ	-14894
▁መሠዊ	-14895
▁መርዝ	-14896
▁መስማ	-14897
▁መታው	-14898
▁መቼስ	-14899
▁መጣች	-14900
▁መፈራ	-14901
▁ሙላት	-14902
▁ማዶም	-14903
▁ምስኪ	-14904
▁ሞሖሊ	-14905
▁ሥሩን	-14906
▁ሥራም	-14907
▁ሥራ።	-14908
▁ራቅ፤	-14909
▁ራብም	-14910
▁ራብን	-14911
▁ርኅሩ	-14912
▁ሰሙ፥	-14913
▁ሰርግ	-14914
▁ሰቦች	-14915
▁ሰጡ፥	-14916
▁ሳሚም	-14917
▁ሳቤዔ	-14918
▁ሳይዳ	-14919
▁ስለተ	-14920
▁ሸሸ፥	-14921
▁ሽብር	-14922
▁ቀትር	-14923
▁ቀጭን	-14924
▁ቁሙ፥	-14925
▁ቁባት	-14926
▁ቅሚያ	-14927
▁ቅረቡ	-14928
▁ቅጥሩ	-14929
▁ቍጣህ	-14930
▁በላ።	-14931
▁በመው	-14932
▁በሚዛ	-14933
▁በማሳ	-14934
▁በማቅ	-14935
▁በማጠ	-14936
▁በምሽ	-14937
▁በረት	-14938
▁በራክ	-14939
▁በሬም	-14940
▁በሬው	-14941
▁በሰፊ	-14942
▁በሽታ	-14943
▁በቀሚ	-14944
▁በቈላ	-14945
▁በበላ	-14946
▁በተማ	-14947
▁በተሻ	-14948
▁በተነ	-14949
▁በትና	-14950
▁በአሞ	-14951
▁በእባ	-14952
▁በእና	-14953
▁በእኩ	-14954
▁በዛ፥	-14955
▁በየዋ	-14956
▁በደቀ	-14957
▁በዳን	-14958
▁በድሀ	-14959
▁በድና	-14960
▁በፈታ	-14961
▁በፍሬ	-14962
▁ቢል፥	-14963
▁ቢረሌ	-14964
▁ቢበላ	-14965
▁ቢኖራ	-14966
▁ቢገኝ	-14967
▁ቢገድ	-14968
▁ባሮች	-14969
▁ባጠፋ	-14970
▁ብሉ፤	-14971
▁ብላ፤	-14972
▁ብሎም	-14973
▁ተመር	-14974
▁ተመስ	-14975
▁ተረዳ	-14976
▁ተሰና	-14977
▁ተሰጥ	-14978
▁ተቤዥ	-14979
▁ተንቀ	-14980
▁ተኛ፤	-14981
▁ተወሰ	-14982
▁ተወ።	-14983
▁ተዉ።	-14984
▁ተደብ	-14985
▁ተደፍ	-14986
▁ተገር	-14987
▁ተጽና	-14988
▁ታምሜ	-14989
▁ታምኜ	-14990
▁ታርፋ	-14991
▁ታስታ	-14992
▁ታነሣ	-14993
▁ታናና	-14994
▁ታወቀ	-14995
▁ታገሡ	-14996
▁ታጥቆ	-14997
▁ትሸሻ	-14998
▁ትቈጣ	-14999
▁ትነሣ	-15000
▁ትፀን	-15001
▁ነስን	-15002
▁ነኝን	-15003
▁ነድዶ	-15004
▁ነጋዴ	-15005
▁ነግሬ	-15006
▁ኒካዑ	-15007
▁አለና	-15008
▁አላፊ	-15009
▁አልህ	-15010
▁አልለ	-15011
▁አልቃ	-15012
▁አልጠ	-15013
▁አረጀ	-15014
▁አሰፋ	-15015
▁አሳዩ	-15016
▁አቅና	-15017
▁አትራ	-15018
▁አናኒ	-15019
▁አኪያ	-15020
▁አውሩ	-15021
▁አዝዛ	-15022
▁አይራ	-15023
▁አይን	-15024
▁አደቀ	-15025
▁አደጉ	-15026
▁አደግ	-15027
▁አጠን	-15028
▁ኢዮጴ	-15029
▁እሆነ	-15030
▁እለዋ	-15031
▁እሰይ	-15032
▁እንሽ	-15033
▁እኛና	-15034
▁እየጸ	-15035
▁እደክ	-15036
▁እጆቼ	-15037
▁እጠላ	-15038
▁ከሄዱ	-15039
▁ከሆድ	-15040
▁ከለም	-15041
▁ከልጆ	-15042
▁ከሎሌ	-15043
▁ከመል	-15044
▁ከመዓ	-15045
▁ከሚስ	-15046
▁ከርቤ	-15047
▁ከቀረ	-15048
▁ከበላ	-15049
▁ከበታ	-15050
▁ከቤቴ	-15051
▁ከብዶ	-15052
▁ከትን	-15053
▁ከቶም	-15054
▁ከንጹ	-15055
▁ከእር	-15056
▁ከእኅ	-15057
▁ከደዌ	-15058
▁ከድካ	-15059
▁ከጋድ	-15060
▁ከፈረ	-15061
▁ኩላቦ	-15062
▁ኪስም	-15063
▁ካለፈ	-15064
▁ክብራ	-15065
▁ኮረጆ	-15066
▁ኮበለ	-15067
▁ኵራት	-15068
▁ወልጄ	-15069
▁ወራሽ	-15070
▁ወርች	-15071
▁ውኃ፥	-15072
▁ዐምፀ	-15073
▁ዓሦች	-15074
▁ዘመኔ	-15075
▁ዘርህ	-15076
▁ዘፈን	-15077
▁ዛሬስ	-15078
▁ዛፍም	-15079
▁ዜቡል	-15080
▁ዞረ፤	-15081
▁ዞዓር	-15082
▁የሄደ	-15083
▁የሄዱ	-15084
▁የልቤ	-15085
▁የማል	-15086
▁የማስ	-15087
▁የማታ	-15088
▁የሰል	-15089
▁የሽቱ	-15090
▁የባለ	-15091
▁የተገ	-15092
▁የንጹ	-15093
▁የአሮ	-15094
▁የኤላ	-15095
▁የወሰ	-15096
▁የዋህ	-15097
▁የዕው	-15098
▁የዳስ	-15099
▁የገቡ	-15100
▁የገብ	-15101
▁የጌት	-15102
▁የጎደ	-15103
▁የጣዖ	-15104
▁የፍች	-15105
▁ያላሳ	-15106
▁ያልፉ	-15107
▁ያምኑ	-15108
▁ያሠራ	-15109
▁ያቀረ	-15110
▁ያታል	-15111
▁ያንኑ	-15112
▁ያዘ፤	-15113
▁ያገኝ	-15114
▁ያጠራ	-15115
▁ይረገ	-15116
▁ይሰበ	-15117
▁ይሸሸ	-15118
▁ይሸሽ	-15119
▁ይቀደ	-15120
▁ይከለ	-15121
▁ይከማ	-15122
▁ይኸው	-15123
▁ይዘን	-15124
▁ይፈወ	-15125
▁ዮሐና	-15126
▁ደሙም	-15127
▁ደኅነ	-15128
▁ደክሜ	-15129
▁ደገፋ	-15130
▁ደግሜ	-15131
▁ዳቤር	-15132
▁ድንበ	-15133
▁ጀምራ	-15134
▁ጅራት	-15135
▁ገለጥ	-15136
▁ገደል	-15137
▁ጌዝር	-15138
▁ጌዴዎ	-15139
▁ጌድሶ	-15140
▁ግምቱ	-15141
▁ግሩም	-15142
▁ግፍን	-15143
▁ጐበኘ	-15144
▁ጠላቱ	-15145
▁ጠበቀ	-15146
▁ጠባብ	-15147
▁ጠብቆ	-15148
▁ጠጅ፥	-15149
▁ጥቁር	-15150
▁ጦብያ	-15151
▁ጨመረ	-15152
▁ጸልዩ	-15153
▁ጸልይ	-15154
▁ጽና፥	-15155
▁ፈልጌ	-15156
▁ፈራጆ	-15157
▁ፈጥረ	-15158
▁ፈጽማ	-15159
▁ፋርስ	-15160
ለዋልና፥	-15161
ላችሁትን	-15162
ላችሁና።	-15163
ማላችሁ።	-15164
ማላችሁ፤	-15165
ሠሩትንም	-15166
ሠዊያውም	-15167
ሪዎችንና	-15168
ሬአለሁ፤	-15169
ቅበዘበዙ	-15170
በስበስን	-15171
ቤድኤዶም	-15172
ብሻለሁ።	-15173
ታላችሁ፤	-15174
ታችኋል፤	-15175
ታችንንም	-15176
ቶቹንም፥	-15177
ቶቻቸውና	-15178
ችኋቸውን	-15179
ነግራችሁ	-15180
ወርሱአት	-15181
ዛላችሁ።	-15182
ደምደሚያ	-15183
ደርግልህ	-15184
ድርአዛር	-15185
ግዚአሔር	-15186
ፈልጋችሁ	-15187
▁KWTa	-15188
▁ሀብትን	-15189
▁ሃዳድም	-15190
▁ሄደች፥	-15191
▁ሆነው፥	-15192
▁ለሆነው	-15193
▁ለመነ።	-15194
▁ለሚወድ	-15195
▁ለሚያስ	-15196
▁ለማነጽ	-15197
▁ለማወቅ	-15198
▁ለሞሎክ	-15199
▁ለሴቲቱ	-15200
▁ለበደል	-15201
▁ለንስሐ	-15202
▁ለእኛም	-15203
▁ለድንኳ	-15204
▁ለግሪክ	-15205
▁ሊሰልሉ	-15206
▁ሊገናኙ	-15207
▁ላክኸኝ	-15208
▁ሌሎቹም	-15209
▁ልባችን	-15210
▁ልብህም	-15211
▁ልብሱም	-15212
▁ልብስ፥	-15213
▁ልናገር	-15214
▁ልጆችሽ	-15215
▁ሎሌውም	-15216
▁ሐሴቦን	-15217
▁መልሳ።	-15218
▁መረጠው	-15219
▁መረጠ፤	-15220
▁መረጠ፥	-15221
▁መስለው	-15222
▁መቃብሩ	-15223
▁መታዘዝ	-15224
▁መንፈሱ	-15225
▁መግደል	-15226
▁መጣች፤	-15227
▁ማንደጃ	-15228
▁ማፋጨት	-15229
▁ምርኮን	-15230
▁ሥራችሁ	-15231
▁ሥጋዬን	-15232
▁ረአሶን	-15233
▁ራእዩም	-15234
▁ርስቱን	-15235
▁ርብቃም	-15236
▁ሮቤልም	-15237
▁ሰውነቴ	-15238
▁ሰጠን።	-15239
▁ሰጠኝ።	-15240
▁ሲኦልም	-15241
▁ሲያስተ	-15242
▁ሳንቲም	-15243
▁ሳይቀጣ	-15244
▁ሳዶቅና	-15245
▁ሴቲቱን	-15246
▁ስለሌለ	-15247
▁ስለታም	-15248
▁ስለዚያ	-15249
▁ስቀለው	-15250
▁ስጦታው	-15251
▁ስፍራም	-15252
▁ቀደደ፥	-15253
▁ቅጥሩን	-15254
▁ቈረቈሩ	-15255
▁ቈረጠ፥	-15256
▁ቍጣውም	-15257
▁ቍጥቋጥ	-15258
▁በሄኖም	-15259
▁በሆሴዕ	-15260
▁በላቸው	-15261
▁በላች።	-15262
▁በሌሎች	-15263
▁በልሳን	-15264
▁በልብስ	-15265
▁በመሐላ	-15266
▁በመምሬ	-15267
▁በመታጠ	-15268
▁በመዓቴ	-15269
▁በመያዣ	-15270
▁በመጣሁ	-15271
▁በሙሴም	-15272
▁በሚወጡ	-15273
▁በምርኮ	-15274
▁በሥጋዬ	-15275
▁በሦስቱ	-15276
▁በረኞቹ	-15277
▁በርስቱ	-15278
▁በሰንሰ	-15279
▁በሰፈር	-15280
▁በሲዶና	-15281
▁በስሜም	-15282
▁በሸንጎ	-15283
▁በሸክላ	-15284
▁በቀረቡ	-15285
▁በቀኝህ	-15286
▁በቂሮስ	-15287
▁በቅርብ	-15288
▁በቍጣዬ	-15289
▁በበረሃ	-15290
▁በበረታ	-15291
▁በበሮች	-15292
▁በበኣል	-15293
▁በበዓሉ	-15294
▁በበጎች	-15295
▁በብዔል	-15296
▁በትሩን	-15297
▁በችኰላ	-15298
▁በአፈር	-15299
▁በኣሊም	-15300
▁በእንባ	-15301
▁በከንፈ	-15302
▁በውርደ	-15303
▁በውኆች	-15304
▁በዓናቶ	-15305
▁በዘረጋ	-15306
▁በዘርህ	-15307
▁በዘበዙ	-15308
▁በዘፈን	-15309
▁በየክፍ	-15310
▁በደረጃ	-15311
▁በድንቅ	-15312
▁በድንጋ	-15313
▁በጆሮዬ	-15314
▁በገበታ	-15315
▁በግራው	-15316
▁በግንቡ	-15317
▁በጎቼን	-15318
▁በጕሮሮ	-15319
▁በጠማማ	-15320
▁በጥዋት	-15321
▁በጭንቀ	-15322
▁በጭፍራ	-15323
▁በጸናች	-15324
▁በጻድቅ	-15325
▁ቢሆንም	-15326
▁ቢሰፋ፥	-15327
▁ቢደረግ	-15328
▁ባለውም	-15329
▁ባሉበት	-15330
▁ባያችሁ	-15331
▁ባዶውን	-15332
▁ብለውም	-15333
▁ብትሉ፥	-15334
▁ብትኖሩ	-15335
▁ብትወድ	-15336
▁ብቻህን	-15337
▁ብንሆን	-15338
▁ብኵርና	-15339
▁ተራራም	-15340
▁ተርሴስ	-15341
▁ተሰብሮ	-15342
▁ተስማም	-15343
▁ተሻገር	-15344
▁ተቀበል	-15345
▁ተቈጣ፤	-15346
▁ተባባሪ	-15347
▁ተባትና	-15348
▁ተተክሎ	-15349
▁ተነሡ።	-15350
▁ተከለ፤	-15351
▁ተከማች	-15352
▁ተዋጉ።	-15353
▁ተዘግቶ	-15354
▁ተገኘ።	-15355
▁ተጸጸተ	-15356
▁ተጻፈው	-15357
▁ተፈጽሞ	-15358
▁ታችኛው	-15359
▁ትሰበስ	-15360
▁ትቀመጥ	-15361
▁ትቀድሳ	-15362
▁ትተክላ	-15363
▁ትታችሁ	-15364
▁ትናገር	-15365
▁ትወሰዳ	-15366
▁ትጠብቁ	-15367
▁ትፈልጉ	-15368
▁ትፈርድ	-15369
▁ኋለኞች	-15370
▁ኋላውም	-15371
▁ነደደ፤	-15372
▁ነገረው	-15373
▁ነገረ።	-15374
▁ነፍስን	-15375
▁ኑኃሚን	-15376
▁ናዝሬት	-15377
▁አለቃና	-15378
▁አለበት	-15379
▁አላባሽ	-15380
▁አልሄደ	-15381
▁አልሆነ	-15382
▁አልተዋ	-15383
▁አልታየ	-15384
▁አልወድ	-15385
▁አልገደ	-15386
▁አልፈር	-15387
▁አመለከ	-15388
▁አመጣ።	-15389
▁አመጣ፤	-15390
▁አመጣ፥	-15391
▁አምጡ፥	-15392
▁አሠራ፤	-15393
▁አሣሄል	-15394
▁አሰናብ	-15395
▁አስረክ	-15396
▁አስቀረ	-15397
▁አስብ፥	-15398
▁አሽክላ	-15399
▁አቅርቦ	-15400
▁አባቴም	-15401
▁አብያም	-15402
▁አታለል	-15403
▁አትመስ	-15404
▁አትሥራ	-15405
▁አትርሳ	-15406
▁አትስጥ	-15407
▁አኪማአ	-15408
▁አካሄድ	-15409
▁አወለቀ	-15410
▁አወርዳ	-15411
▁አወጣ፤	-15412
▁አዘጋጃ	-15413
▁አዛሄል	-15414
▁አየና።	-15415
▁አያገኙ	-15416
▁አይቀበ	-15417
▁አይነሡ	-15418
▁አይገኙ	-15419
▁አደጎች	-15420
▁አዳራሽ	-15421
▁አዳነ።	-15422
▁አገኘ፤	-15423
▁አገኙ፥	-15424
▁አጸና፤	-15425
▁አጽናና	-15426
▁አጽንተ	-15427
▁አፈስሳ	-15428
▁ኢታምር	-15429
▁እልልም	-15430
▁እመልሰ	-15431
▁እርሻው	-15432
▁እርዳታ	-15433
▁እሰብክ	-15434
▁እሳቱም	-15435
▁እሾህና	-15436
▁እቀመጣ	-15437
▁እባርክ	-15438
▁እናመጣ	-15439
▁እኔም፥	-15440
▁እንሄድ	-15441
▁እንላለ	-15442
▁እንበረ	-15443
▁እንኮይ	-15444
▁እንገባ	-15445
▁እከፍታ	-15446
▁እወድዳ	-15447
▁እዘምር	-15448
▁እየሠራ	-15449
▁እየበረ	-15450
▁እጅህም	-15451
▁እጠይቅ	-15452
▁እፈርዳ	-15453
▁ኦርናም	-15454
▁ከሆንህ	-15455
▁ከሕፃና	-15456
▁ከሚችል	-15457
▁ከማለዳ	-15458
▁ከሠራዊ	-15459
▁ከሥራው	-15460
▁ከረጢት	-15461
▁ከርኵሰ	-15462
▁ከቃዴስ	-15463
▁ከበጎች	-15464
▁ከባልዋ	-15465
▁ከብቶች	-15466
▁ከተማና	-15467
▁ከታናና	-15468
▁ከአሳፍ	-15469
▁ከዓመፀ	-15470
▁ከዓይኔ	-15471
▁ከዝሙት	-15472
▁ከጊብዓ	-15473
▁ከግሪክ	-15474
▁ከፈረሰ	-15475
▁ከፍርድ	-15476
▁ኩብኩባ	-15477
▁ካሳተው	-15478
▁ክርታስ	-15479
▁ክብሬን	-15480
▁ክፋት፥	-15481
▁ወረቀት	-15482
▁ወንድና	-15483
▁ወዮላት	-15484
▁ወዮልሽ	-15485
▁ወዮልኝ	-15486
▁ወደደ፥	-15487
▁ወጣችሁ	-15488
▁ወፎችና	-15489
▁ዋኖሶች	-15490
▁ውሰዱ፤	-15491
▁ዔሳውን	-15492
▁ዕብራዊ	-15493
▁ዕጣውም	-15494
▁ዘምሩ።	-15495
▁ዘረጋ።	-15496
▁ዘረጋ፤	-15497
▁ዘንጎች	-15498
▁ዘወርም	-15499
▁ዘይቱን	-15500
▁የለውዝ	-15501
▁የሌዊን	-15502
▁የሕልም	-15503
▁የመረጠ	-15504
▁የመበለ	-15505
▁የመንጋ	-15506
▁የሙታን	-15507
▁የሚለኝ	-15508
▁የሚቀድ	-15509
▁የሚቆም	-15510
▁የሚተረ	-15511
▁የሚያው	-15512
▁የማታስ	-15513
▁የምትመ	-15514
▁የሞትን	-15515
▁የሰሜኢ	-15516
▁የሰባቱ	-15517
▁የሳባም	-15518
▁የሶገር	-15519
▁የቀንደ	-15520
▁የቅዱሳ	-15521
▁የቈጠሩ	-15522
▁የበኣል	-15523
▁የተላኩ	-15524
▁የተማማ	-15525
▁የተሞሉ	-15526
▁የተዘራ	-15527
▁የታላቁ	-15528
▁የኃያላ	-15529
▁የኃጢያ	-15530
▁የነገሠ	-15531
▁የናባጥ	-15532
▁የአባቱ	-15533
▁የአንበ	-15534
▁የእምነ	-15535
▁የእንግ	-15536
▁የወገኔ	-15537
▁የዔናቅ	-15538
▁የዘበኛ	-15539
▁የደረሰ	-15540
▁የደስታ	-15541
▁የገሊላ	-15542
▁የጋድም	-15543
▁የጠለቀ	-15544
▁የፀሐይ	-15545
▁የፊተኛ	-15546
▁ያልሆኑ	-15547
▁ያንጊዜ	-15548
▁ያዘጋጁ	-15549
▁ያግቡ።	-15550
▁ይሄዳል	-15551
▁ይለምኑ	-15552
▁ይራቅ፤	-15553
▁ይሰብክ	-15554
▁ይሰድድ	-15555
▁ይስጥ።	-15556
▁ይሸከም	-15557
▁ይቅርታ	-15558
▁ይቈጥራ	-15559
▁ይበሉ።	-15560
▁ይበልሽ	-15561
▁ይታወቃ	-15562
▁ይነድድ	-15563
▁ይከተሉ	-15564
▁ይወደው	-15565
▁ይወድድ	-15566
▁ይገረዝ	-15567
▁ይጠይቅ	-15568
▁ይጨመር	-15569
▁ይፈረድ	-15570
▁ይፈጽም	-15571
▁ደረሱ፤	-15572
▁ደረቀ።	-15573
▁ደናግል	-15574
▁ድሆችን	-15575
▁ድምፁም	-15576
▁ድምፅን	-15577
▁ገላውን	-15578
▁ገዳዩን	-15579
▁ጌታውም	-15580
▁ግልገል	-15581
▁ግድግዳ	-15582
▁ጕልማሶ	-15583
▁ጕልበቴ	-15584
▁ጠሩት።	-15585
▁ጠራው፥	-15586
▁ጠንካራ	-15587
▁ጠጕሩም	-15588
▁ጣሉት።	-15589
▁ጥርሶች	-15590
▁ጸለየ፥	-15591
▁ጸልዩ።	-15592
▁ጸልዩ፤	-15593
▁ጽድቅህ	-15594
▁ፀሐይና	-15595
▁ፀሐይን	-15596
▁ፈለገ።	-15597
▁ፈቃዱን	-15598
▁ፈቃድህ	-15599
▁ፋንታ፥	-15600
▁ፍሬያማ	-15601
▁ፍርምባ	-15602
▁ፍርዱን	-15603
▁ፍርድህ	-15604
▁ፍየል፥	-15605
▁ፍጻሜው	-15606
መለከትም።	-15607
ባችኋለሁ።	-15608
አችኋለሁ።	-15609
ኤላውያንም	-15610
ገናኛውንም	-15611
▁ለሕዝብህ	-15612
▁ለመምጣት	-15613
▁ለመቅደሱ	-15614
▁ለመንገድ	-15615
▁ለሚታመኑ	-15616
▁ለማምጣት	-15617
▁ለምናሴም	-15618
▁ለምድርም	-15619
▁ለብንያም	-15620
▁ለብዙዎች	-15621
▁ለነቢያት	-15622
▁ለአምላኬ	-15623
▁ለአስቴር	-15624
▁ለአብራም	-15625
▁ለአብያተ	-15626
▁ለኢየሱስ	-15627
▁ለኢዮአብ	-15628
▁ለዘወትር	-15629
▁ለዳንኤል	-15630
▁ሊያደርጉ	-15631
▁ሌሊቱንም	-15632
▁ሌሎችም።	-15633
▁ልጆችሽን	-15634
▁ሕዝቡም።	-15635
▁ሕዝብህም	-15636
▁መሃናይም	-15637
▁መላእክቱ	-15638
▁መልሶም።	-15639
▁መልአክም	-15640
▁መልክያ፥	-15641
▁መራቸው።	-15642
▁መሳለቂያ	-15643
▁መቃብሩን	-15644
▁መታጠቢያ	-15645
▁መንገድህ	-15646
▁መንፈሱም	-15647
▁መያዣውን	-15648
▁መደነቂያ	-15649
▁መጋረጃ፥	-15650
▁መጥረቢያ	-15651
▁ማኅበሩን	-15652
▁ማገልገል	-15653
▁ማገልገያ	-15654
▁ምልክትም	-15655
▁ምሳሌዎች	-15656
▁ምስጋናም	-15657
▁ምድያምን	-15658
▁ሠራዊቱን	-15659
▁ሥልጣንን	-15660
▁ሥጋውንም	-15661
▁ራፋስቂስ	-15662
▁ርስቱንም	-15663
▁ርኵስነት	-15664
▁ሰማያትም	-15665
▁ሰይፍህን	-15666
▁ሰደዱት።	-15667
▁ሲነጋገር	-15668
▁ሲያደርግ	-15669
▁ሴሰኝነት	-15670
▁ስላልነበ	-15671
▁ስምዖንም	-15672
▁ስምዖንን	-15673
▁ስእለቴን	-15674
▁ቁርበት፥	-15675
▁ቅጥሩንም	-15676
▁በሌላውም	-15677
▁በሐሴቦን	-15678
▁በመልካሙ	-15679
▁በመርገም	-15680
▁በመቀመጫ	-15681
▁በመጽሐፉ	-15682
▁በሚናገሩ	-15683
▁በማኅበር	-15684
▁በሜዳውም	-15685
▁በምኵራብ	-15686
▁በሠላሳው	-15687
▁በሬዎችን	-15688
▁በርባንን	-15689
▁በስምህም	-15690
▁በቀትርም	-15691
▁በቍጥቋጦ	-15692
▁በበታቹም	-15693
▁በባለጠግ	-15694
▁በባሳንም	-15695
▁በቤታቸው	-15696
▁በብብትህ	-15697
▁በተማረኩ	-15698
▁በተቀመጡ	-15699
▁በትክክል	-15700
▁በቸነፈር	-15701
▁በኋላውም	-15702
▁በነገሠም	-15703
▁በነገሥታ	-15704
▁በአመድም	-15705
▁በአርያም	-15706
▁በአዛጦን	-15707
▁	-15708
ን	-15709
ም	-15710
አ	-15711
በ	-15712
እ	-15713
ር	-15714
ው	-15715
ል	-15716
ት	-15717
ለ	-15718
ስ	-15719
የ	-15720
ይ	-15721
።	-15722
ነ	-15723
መ	-15724
ደ	-15725
፥	-15726
ብ	-15727
ና	-15728
ች	-15729
ድ	-15730
ተ	-15731
ያ	-15732
ከ	-15733
ሁ	-15734
ግ	-15735
ላ	-15736
ወ	-15737
ህ	-15738
ሰ	-15739
ገ	-15740
ራ	-15741
፤	-15742
ረ	-15743
ባ	-15744
ታ	-15745
ዚ	-15746
ሉ	-15747
ማ	-15748
ቸ	-15749
ቀ	-15750
ጠ	-15751
ዘ	-15752
ዳ	-15753
ፍ	-15754
ሆ	-15755
ሱ	-15756
ሔ	-15757
ሳ	-15758
ቅ	-15759
ክ	-15760
ጥ	-15761
ሚ	-15762
ዋ	-15763
ፈ	-15764
ቱ	-15765
ሩ	-15766
ጋ	-15767
ጣ	-15768
ሥ	-15769
ቶ	-15770
ሞ	-15771
ቃ	-15772
ሕ	-15773
ካ	-15774
ዲ	-15775
ኤ	-15776
ዝ	-15777
ዓ	-15778
ቤ	-15779
ጅ	-15780
ኛ	-15781
ጉ	-15782
ዛ	-15783
ኝ	-15784
ዎ	-15785
ሌ	-15786
ሎ	-15787
ኑ	-15788
ኔ	-15789
ጆ	-15790
ሙ	-15791
ሮ	-15792
ፋ	-15793
ዱ	-15794
ጊ	-15795
ቢ	-15796
ሴ	-15797
ኢ	-15798
ኖ	-15799
?	-15800
ፊ	-15801
ሠ	-15802
ሪ	-15803
ዜ	-15804
ቡ	-15805
ዕ	-15806
ቻ	-15807
ዊ	-15808
ቆ	-15809
ሽ	-15810
ጡ	-15811
ዮ	-15812
ኃ	-15813
ጽ	-15814
ቹ	-15815
ኋ	-15816
ጌ	-15817
ሬ	-15818
ዙ	-15819
ቁ	-15820
ሃ	-15821
ሊ	-15822
ዶ	-15823
ሐ	-15824
ሸ	-15825
ቴ	-15826
ሄ	-15827
ፉ	-15828
ጀ	-15829
ሣ	-15830
ጸ	-15831
ሶ	-15832
ሲ	-15833
ጢ	-15834
ሜ	-15835
ሡ	-15836
ሻ	-15837
ጨ	-15838
ዩ	-15839
ጎ	-15840
ኪ	-15841
ጻ	-15842
ቍ	-15843
ኩ	-15844
ቦ	-15845
ጭ	-15846
ኞ	-15847
ዬ	-15848
ዴ	-15849
ኮ	-15850
ጃ	-15851
ቈ	-15852
ሦ	-15853
ጁ	-15854
ቼ	-15855
ፎ	-15856
ቂ	-15857
ፅ	-15858
ጦ	-15859
ጕ	-15860
ኳ	-15861
ኅ	-15862
ኸ	-15863
ዖ	-15864
ኵ	-15865
ጫ	-15866
ሺ	-15867
ጂ	-15868
ኦ	-15869
ሀ	-15870
ጐ	-15871
ኘ	-15872
ዞ	-15873
ኬ	-15874
ፀ	-15875
ጹ	-15876
ጮ	-15877
ጄ	-15878
ጓ	-15879
ዔ	-15880
ፌ	-15881
ሹ	-15882
ሾ	-15883
ቄ	-15884
ቲ	-15885
ፃ	-15886
ሂ	-15887
ኒ	-15888
ቺ	-15889
ኙ	-15890
ቋ	-15891
ጳ	-15892
!	-15893
ኰ	-15894
ዐ	-15895
ኣ	-15896
ጩ	-15897
ጤ	-15898
ጴ	-15899
ዌ	-15900
ኀ	-15901
ዉ	-15902
ዑ	-15903
ፁ	-15904
ሤ	-15905
ኹ	-15906
ጾ	-15907
ዣ	-15908
ሖ	-15909
ዥ	-15910
ጵ	-15911
ኽ	-15912
ፆ	-15913
ኜ	-15914
ኻ	-15915
ጪ	-15916
ጲ	-15917
ሑ	-15918
ኆ	-15919
ዪ	-15920
ዒ	-15921
a	-15922
ሒ	-15923
ሼ	-15924
ዠ	-15925
ጶ	-15926
W	-15927
ዢ	-15928
ኡ	-15929
ኚ	-15930
ጼ	-15931
ጺ	-15932
ጬ	-15933
ዦ	-15934
ዤ	-15935
ሢ	-15936
ቾ	-15937
ሓ	-15938
ዡ	-15939
ፄ	-15940
K	-15941
g	-15942
ኄ	-15943
r	-15944
ኾ	-15945
ጰ	-15946
ጱ	-15947
k	-15948
ቧ	-15949
ፔ	-15950
ፕ	-15951
T	-15952
ኺ	-15953
d	-15954
*	-15955
1	-15956
v	-15957
"	-15958
l	-15959
ሷ	-15960
ፐ	-15961
ፓ	-15962
2	-15963
s	-15964
D	-15965
3	-15966
[	-15967
]	-15968
o	-15969
ፑ	-15970
ፒ	-15971
(	-15972
)	-15973
-	-15974
5	-15975
A	-15976
e	-15977
ቊ	-15978
ዷ	-15979
ፂ	-15980
0	-15981
4	-15982
@	-15983
b	-15984
m	-15985
u	-15986
ሏ	-15987
ቷ	-15988
ቿ	-15989
ኗ	-15990
ኟ	-15991
ኲ	-15992
ኼ	-15993
ጒ	-15994
ጧ	-15995
ፏ	-15996
