<pad>	0
</s>	0
<unk>	0
▁እ	-0
▁አ	-1
▁በ	-2
▁የ	-3
▁ከ	-4
▁ይ	-5
▁ወ	-6
▁ነ	-7
▁እን	-8
▁መ	-9
ንም	-10
ቸው	-11
▁ለ	-12
አብ	-13
▁ተ	-14
ግዚ	-15
ሔር	-16
ግዚአብ	-17
ግዚአብሔር	-18
▁ሰ	-19
▁ሁ	-20
▁ል	-21
ንድ	-22
▁ያ	-23
▁ወደ	-24
▁ስ	-25
▁ሁሉ	-26
▁ዘ	-27
ርሱ	-28
ችሁ	-29
▁ም	-30
▁እግዚአብሔር	-31
▁እንደ	-32
▁ብ	-33
▁የሚ	-34
▁ላ	-35
▁ነበ	-36
▁በእ	-37
▁አለ	-38
▁ግ	-39
ለሁ	-40
▁ደ	-41
▁ዘንድ	-42
▁ት	-43
▁ላይ	-44
ም።	-45
ንተ	-46
ገር	-47
▁እንዲ	-48
▁ነው	-49
ል።	-50
▁ሆ	-51
ውን	-52
ኤል	-53
▁ባ	-54
▁ስለ	-55
ድር	-56
▁ግን	-57
▁ከእ	-58
▁የእ	-59
▁እነ	-60
ዎች	-61
ጊዜ	-62
▁ቀ	-63
ትን	-64
ዚህ	-65
▁የተ	-66
▁ድ	-67
▁ጊዜ	-68
▁ታ	-69
▁ልጆ	-70
ትም	-71
▁አይ	-72
ውም	-73
ስራ	-74
▁ማ	-75
▁ጋ	-76
▁ሕ	-77
▁ነገር	-78
ስራኤል	-79
▁ን	-80
▁እርሱ	-81
▁ልጆች	-82
▁ክ	-83
▁ጋር	-84
▁አም	-85
▁እኔ	-86
▁ይህ	-87
ው።	-88
▁በአ	-89
▁ቤ	-90
▁ልጅ	-91
ል፤	-92
ዚያ	-93
▁ነበር	-94
▁ው	-95
▁በመ	-96
▁አል	-97
▁ጠ	-98
ልና	-99
ርስ	-100
ሪያ	-101
▁ዓ	-102
▁ኢ	-103
ችን	-104
▁እንዲህ	-105
ል፥	-106
▁ፈ	-107
ቸው።	-108
በት	-109
▁ንጉ	-110
ፊት	-111
ደረ	-112
▁ሰው	-113
▁ገ	-114
▁እንዳ	-115
▁መን	-116
ንና	-117
ለም	-118
▁እስ	-119
ለው	-120
▁ለእ	-121
ደር	-122
ለት	-123
▁ቃ	-124
ላችሁ	-125
▁አን	-126
ጌታ	-127
▁የአ	-128
ናንተ	-129
▁ሕዝ	-130
▁ፍ	-131
ም፥	-132
ይ፥	-133
ያስ	-134
ን፥	-135
▁ና	-136
ሥራ	-137
ነት	-138
ሠራ	-139
▁አላ	-140
▁አምላ	-141
▁ደግ	-142
ተኛ	-143
▁ሳ	-144
▁ቤት	-145
▁የእግዚአብሔር	-146
▁ነበረ	-147
ለህ	-148
▁ፊት	-149
▁ደግሞ	-150
▁የም	-151
ቸውም	-152
▁ቢ	-153
ያን	-154
ቶች	-155
▁ቀን	-156
▁ሆይ፥	-157
ስጥ	-158
ት።	-159
▁እጅ	-160
▁መል	-161
▁በዚያ	-162
▁አስ	-163
▁በም	-164
▁ዳ	-165
▁አንተ	-166
▁ከተ	-167
▁ከአ	-168
ቱም	-169
▁እነሆ	-170
▁በሰ	-171
▁አት	-172
ረስ	-173
ሆን	-174
ማይ	-175
▁ወይ	-176
▁ሰዎች	-177
ሉ።	-178
▁ሆነ	-179
ህን	-180
ስት	-181
▁ቃል	-182
▁ኃ	-183
▁ካ	-184
ለች	-185
▁ምድር	-186
ቸውን	-187
ገድ	-188
▁ሲ	-189
▁ቅ	-190
ባት	-191
▁ድረስ	-192
▁ጌታ	-193
ን።	-194
መጣ	-195
▁ይላ	-196
ሆና	-197
ነበ	-198
መለ	-199
ናገ	-200
ርሱም	-201
▁ንጉሥ	-202
ምን	-203
▁አንድ	-204
ካከ	-205
▁ሊ	-206
▁እስከ	-207
ጢአ	-208
▁ጥ	-209
▁በእግዚአብሔር	-210
▁ራ	-211
ቱን	-212
ፍራ	-213
▁አለው።	-214
ለሁ።	-215
▁አምላክ	-216
▁የሰ	-217
ኋላ	-218
ህም	-219
▁ነው።	-220
ዊት	-221
▁ኢየ	-222
ስም	-223
ገባ	-224
▁ውስጥ	-225
▁ብሎ	-226
ሆነ	-227
ቀመ	-228
ችኋ	-229
▁ሌ	-230
ሳሌ	-231
ቸዋ	-232
▁አድር	-233
ብር	-234
▁ዕ	-235
▁ነበር።	-236
ት፥	-237
▁ሴ	-238
▁ዓመ	-239
▁አለ።	-240
▁እናንተ	-241
ዳን	-242
ወጣ	-243
▁የእስራኤል	-244
ነሣ	-245
ለሁ፥	-246
▁ሙ	-247
▁እግዚአብሔርም	-248
ውንም	-249
▁በኋላ	-250
▁የሚያ	-251
▁ነገ	-252
ም፤	-253
▁ለአ	-254
ለሁ፤	-255
▁ያለ	-256
መን	-257
ተው	-258
▁ቍ	-259
መል	-260
▁ይሆና	-261
ውያን	-262
▁በተ	-263
ሁዳ	-264
ርም	-265
▁ስለዚህ	-266
▁ወንድ	-267
ካከል	-268
ደረገ	-269
▁ድን	-270
▁እርሱም	-271
ምም	-272
▁እነሆ፥	-273
▁ሞ	-274
ትና	-275
ልን	-276
▁አሳ	-277
ዛብ	-278
ሩሳሌ	-279
ርባ	-280
ግብ	-281
ና።	-282
▁ሥ	-283
ኞች	-284
▁ሄ	-285
▁ነበሩ	-286
▁ይህን	-287
▁መካከል	-288
▁ወይም	-289
▁ምን	-290
ሕዛብ	-291
▁ሕዝብ	-292
▁ኃጢአ	-293
ላቸው	-294
▁ልብ	-295
▁ንጉሡ	-296
ኢየ	-297
ርያ	-298
▁ኢየሱ	-299
▁የወ	-300
ቶቻ	-301
ከተ	-302
▁ነው፤	-303
ዋዕ	-304
▁ባሪያ	-305
▁አው	-306
▁እንዲሁ	-307
▁ዛ	-308
▁ዓመት	-309
▁ሙሴ	-310
ሥዋዕ	-311
ሉ፤	-312
▁ሥራ	-313
ቹም	-314
▁ለመ	-315
ሉ፥	-316
ጠፋ	-317
▁አይደ	-318
ድን	-319
▁አሁ	-320
ልም	-321
ሮች	-322
ህና	-323
▁የመ	-324
▁መሥዋዕ	-325
▁ነፍ	-326
▁ደስ	-327
▁ይሰ	-328
ረው	-329
ራት	-330
▁ሚ	-331
▁ሁለት	-332
ሞች	-333
▁ዮ	-334
ላቅ	-335
ፈር	-336
ንን	-337
ርስዋ	-338
▁ብዙ	-339
ቸው፤	-340
ቤቱ	-341
ኝ።	-342
▁ጽ	-343
ያው	-344
▁ከፍ	-345
▁እነዚህ	-346
ላለም	-347
ይሁዳ	-348
▁በሚ	-349
▁በደ	-350
▁ወር	-351
▁ስፍራ	-352
▁እግዚአብሔርን	-353
▁ሕዝቡ	-354
ሕዝ	-355
ራራ	-356
▁ወገ	-357
ምና	-358
▁መልካ	-359
ዲህ	-360
▁እንጂ	-361
▁ጀ	-362
▁ለእግዚአብሔር	-363
▁የነበ	-364
ንጉ	-365
▁ስም	-366
▁ሸ	-367
ቆች	-368
▁መቶ	-369
▁ክፉ	-370
ት፤	-371
▁ከሰ	-372
ግሥ	-373
ቀር	-374
▁በታ	-375
ይወ	-376
▁ር	-377
ርስቶ	-378
ድቅ	-379
ሩሳሌም	-380
ፈስ	-381
▁አባ	-382
ዘላለም	-383
ልቅ	-384
በላ	-385
ገለ	-386
▁በዚህ	-387
▁አላቸው።	-388
▁እጅግ	-389
▁በል	-390
▁በምድር	-391
▁በዚያም	-392
▁እና	-393
▁ተቀ	-394
▁በው	-395
▁እስራኤል	-396
ታቸው	-397
▁ከመ	-398
▁ሁለ	-399
▁ይሁ	-400
▁ነበረ።	-401
ቢያ	-402
▁በወ	-403
▁እነርሱ	-404
▁ለሚ	-405
▁እኔም	-406
ርስቶስ	-407
▁ሦ	-408
▁በላ	-409
▁ሐ	-410
▁ኤ	-411
ድረ	-412
ታችሁ	-413
▁ወን	-414
ጀራ	-415
▁ማን	-416
▁ሺ	-417
▁በየ	-418
▁የማ	-419
▁ይወ	-420
▁ኢየሱስ	-421
ሳት	-422
▁እንግ	-423
ደርጋ	-424
▁ከእነ	-425
ልክ	-426
▁ነበር፤	-427
ተኛው	-428
▁በዳ	-429
▁ዓይ	-430
▁በማ	-431
▁ተናገ	-432
ቸው፥	-433
ደርግ	-434
ንያ	-435
▁ከተማ	-436
▁የእግዚአብሔርን	-437
ሩት	-438
ውያ	-439
▁ቆ	-440
▁በእስራኤል	-441
▁መጣ	-442
ብም	-443
▁እንደሚ	-444
ጥቶ	-445
ው፥	-446
▁መንገድ	-447
ዴት	-448
ሆኑ	-449
▁ሁሉ፥	-450
▁ምስ	-451
▁መሥዋዕት	-452
▁ጸ	-453
▁አቤቱ	-454
ስተ	-455
▁ተነ	-456
▁የምት	-457
▁በፊ	-458
▁እየ	-459
▁ሽ	-460
▁የሆነ	-461
ጠብ	-462
አልና	-463
ች።	-464
▁ድም	-465
ናገር	-466
▁እንዳይ	-467
ችም	-468
ምሮ	-469
▁ጊዜ፥	-470
▁ይላል።	-471
▁ኢዮ	-472
▁ሠራ	-473
▁አገ	-474
▁ውኃ	-475
ሉት	-476
▁በኢየ	-477
ኝ፥	-478
ውነት	-479
ቃጠ	-480
ቀረ	-481
▁ከዚያ	-482
▁አታ	-483
▁ከእርሱ	-484
▁ፍር	-485
▁አለቆች	-486
ምላ	-487
▁ሺህ	-488
በረ	-489
ንጉሡ	-490
▁በር	-491
▁ብር	-492
ቱንም	-493
▁አጠ	-494
ልፍ	-495
▁ዝ	-496
▁ለማ	-497
▁ተሰ	-498
▁አለቃ	-499
ኝ፤	-500
▁በዓ	-501
▁አገር	-502
▁እኛ	-503
▁ይላል	-504
▁ኪ	-505
▁በግ	-506
ለደ	-507
▁እንድ	-508
▁እንዲህም	-509
ኑም	-510
ና፥	-511
▁ዛሬ	-512
ገብ	-513
▁አሕዛብ	-514
ዎቹ	-515
▁አደረገ	-516
ን፤	-517
▁አቤቱ፥	-518
ዕቆ	-519
ላም	-520
ታት	-521
▁ሠ	-522
▁ዘመን	-523
ቻቸው	-524
▁መልካም	-525
ቅደ	-526
ሩም	-527
ው፤	-528
▁ታላቅ	-529
ቅር	-530
▁ሰማ	-531
መስ	-532
እዛ	-533
▁ከሚ	-534
ሠዊ	-535
ገና	-536
▁አብ	-537
▁ከወ	-538
▁እነርሱም	-539
ኛው	-540
ኖች	-541
ሁ።	-542
ዶች	-543
▁አሉ	-544
▁ዳዊ	-545
ሰማ	-546
▁እርስዋ	-547
▁ለዘላለም	-548
ቀደ	-549
▁የሠራ	-550
ኖር	-551
▁ሄደ	-552
▁መለ	-553
▁እርሱም።	-554
በር	-555
ክር	-556
ይፍ	-557
▁በጎ	-558
▁በመን	-559
ቀመጡ	-560
▁ጣ	-561
▁አዘ	-562
ከራ	-563
ህንም	-564
ባቸው	-565
▁ቅዱ	-566
▁ጀምሮ	-567
▁ጕ	-568
▁በሕ	-569
▁አደረ	-570
ዋን	-571
▁አያ	-572
▁የበ	-573
▁ዘንድ፥	-574
ሎች	-575
▁መስ	-576
ሱን	-577
ኖሩ	-578
ፈል	-579
▁ነበረ፤	-580
▁ወጣ	-581
▁ነበሩ።	-582
▁እስኪ	-583
▁ከእኔ	-584
ችሁን	-585
መሰ	-586
▁ሥጋ	-587
መና	-588
ስን	-589
▁ትእዛ	-590
▁ስድ	-591
▁እያ	-592
▁ባለ	-593
ነገ	-594
ቀድ	-595
▁አደ	-596
▁ድምፅ	-597
▁ከም	-598
▁ሌላ	-599
▁በባ	-600
▁በፍ	-601
▁ጻ	-602
አቸው	-603
▁ብት	-604
▁ነው፥	-605
▁ፊ	-606
▁እንግዲህ	-607
ሕዝቡ	-608
▁እሰ	-609
ውቃ	-610
ድም	-611
▁በእርሱ	-612
ሩ።	-613
ርዳ	-614
▁ይበ	-615
▁አሁን	-616
ጠራ	-617
▁ቍርባ	-618
▁እንጀራ	-619
ኖራ	-620
ረት	-621
ይወት	-622
▁ያል	-623
ላችሁ።	-624
▁አይደለም	-625
▁አንዱ	-626
ዙሪያ	-627
▁ሰባት	-628
▁ተራራ	-629
ልህ	-630
▁ኃጢአት	-631
ለህ።	-632
▁ወዳ	-633
ሰው	-634
ኃጢአ	-635
▁ሰጠ	-636
ይን	-637
▁ክርስቶስ	-638
ልና።	-639
▁ዕቃ	-640
▁የለ	-641
▁የባ	-642
▁ይልቅ	-643
▁ሆኖ	-644
▁ማንም	-645
ረገ	-646
ች፥	-647
▁ክንድ	-648
▁መንግሥ	-649
ቀበ	-650
▁አጠገብ	-651
ተዋ	-652
▁ያስ	-653
▁ሦስት	-654
ረከ	-655
ዓት	-656
▁አማ	-657
ኩል	-658
▁ከአንተ	-659
ላችኋ	-660
▁አሁንም	-661
ሀያ	-662
ርቅ	-663
▁እንዴት	-664
ውያንም	-665
ያንዳን	-666
ገዛ	-667
▁ኢያ	-668
▁መንፈስ	-669
ፈራ	-670
▁ጭ	-671
▁አየ	-672
ህ፥	-673
ጋይ	-674
ችሁም	-675
▁እግ	-676
▁ተነሥ	-677
▁ወገን	-678
▁ስሙ	-679
▁ብቻ	-680
▁ተመለ	-681
▁ከተሞች	-682
ሄድ	-683
በታ	-684
▁ዋ	-685
▁ከእግዚአብሔር	-686
ፋት	-687
▁ካህና	-688
ምራ	-689
ንስ	-690
ተኞች	-691
ፋን	-692
▁አልተ	-693
መረ	-694
▁ብለው	-695
▁ከዚህ	-696
▁ንጉሡም	-697
ሁ፥	-698
ህል	-699
ሕር	-700
ዋም	-701
▁ሴቶች	-702
▁ተመል	-703
▁ዳዊት	-704
መጡ	-705
▁ጨ	-706
▁በራ	-707
▁	-708
ን	-709
ም	-710
አ	-711
በ	-712
እ	-713
ር	-714
ው	-715
ል	-716
ት	-717
ለ	-718
ስ	-719
የ	-720
ይ	-721
።	-722
ነ	-723
መ	-724
ደ	-725
፥	-726
ብ	-727
ና	-728
ች	-729
ድ	-730
ተ	-731
ያ	-732
ከ	-733
ሁ	-734
ግ	-735
ላ	-736
ወ	-737
ህ	-738
ሰ	-739
ገ	-740
ራ	-741
፤	-742
ረ	-743
ባ	-744
ታ	-745
ዚ	-746
ሉ	-747
ማ	-748
ቸ	-749
ቀ	-750
ጠ	-751
ዘ	-752
ዳ	-753
ፍ	-754
ሆ	-755
ሱ	-756
ሔ	-757
ሳ	-758
ቅ	-759
ክ	-760
ጥ	-761
ሚ	-762
ዋ	-763
ፈ	-764
ቱ	-765
ሩ	-766
ጋ	-767
ጣ	-768
ሥ	-769
ቶ	-770
ሞ	-771
ቃ	-772
ሕ	-773
ካ	-774
ዲ	-775
ኤ	-776
ዝ	-777
ዓ	-778
ቤ	-779
ጅ	-780
ኛ	-781
ጉ	-782
ዛ	-783
ኝ	-784
ዎ	-785
ሌ	-786
ሎ	-787
ኑ	-788
ኔ	-789
ጆ	-790
ሙ	-791
ሮ	-792
ፋ	-793
ዱ	-794
ጊ	-795
ቢ	-796
ሴ	-797
ኢ	-798
ኖ	-799
?	-800
ፊ	-801
ሠ	-802
ሪ	-803
ዜ	-804
ቡ	-805
ዕ	-806
ቻ	-807
ዊ	-808
ቆ	-809
ሽ	-810
ጡ	-811
ዮ	-812
ኃ	-813
ጽ	-814
ቹ	-815
ኋ	-816
ጌ	-817
ሬ	-818
ዙ	-819
ቁ	-820
ሃ	-821
ሊ	-822
ዶ	-823
ሐ	-824
ሸ	-825
ቴ	-826
ሄ	-827
ፉ	-828
ጀ	-829
ሣ	-830
ጸ	-831
ሶ	-832
ሲ	-833
ጢ	-834
ሜ	-835
ሡ	-836
ሻ	-837
ጨ	-838
ዩ	-839
ጎ	-840
ኪ	-841
ጻ	-842
ቍ	-843
ኩ	-844
ቦ	-845
ጭ	-846
ኞ	-847
ዬ	-848
ዴ	-849
ኮ	-850
ጃ	-851
ቈ	-852
ሦ	-853
ጁ	-854
ቼ	-855
ፎ	-856
ቂ	-857
ፅ	-858
ጦ	-859
ጕ	-860
ኳ	-861
ኅ	-862
ኸ	-863
ዖ	-864
ኵ	-865
ጫ	-866
ሺ	-867
ጂ	-868
ኦ	-869
ሀ	-870
ጐ	-871
ኘ	-872
ዞ	-873
ኬ	-874
ፀ	-875
ጹ	-876
ጮ	-877
ጄ	-878
ጓ	-879
ዔ	-880
ፌ	-881
ሹ	-882
ሾ	-883
ቄ	-884
ቲ	-885
ፃ	-886
ሂ	-887
ኒ	-888
ቺ	-889
ኙ	-890
ቋ	-891
ጳ	-892
!	-893
ኰ	-894
ዐ	-895
ኣ	-896
ጩ	-897
ጤ	-898
ጴ	-899
ዌ	-900
ኀ	-901
ዉ	-902
ዑ	-903
ፁ	-904
ሤ	-905
ኹ	-906
ጾ	-907
ዣ	-908
ሖ	-909
ዥ	-910
ጵ	-911
ኽ	-912
ፆ	-913
ኜ	-914
ኻ	-915
ጪ	-916
ጲ	-917
ሑ	-918
ኆ	-919
ዪ	-920
ዒ	-921
a	-922
ሒ	-923
ሼ	-924
ዠ	-925
ጶ	-926
W	-927
ዢ	-928
ኡ	-929
ኚ	-930
ጼ	-931
ጺ	-932
ጬ	-933
ዦ	-934
ዤ	-935
ሢ	-936
ቾ	-937
ሓ	-938
ዡ	-939
ፄ	-940
K	-941
g	-942
ኄ	-943
r	-944
ኾ	-945
ጰ	-946
ጱ	-947
k	-948
ቧ	-949
ፔ	-950
ፕ	-951
T	-952
ኺ	-953
d	-954
*	-955
1	-956
v	-957
"	-958
l	-959
ሷ	-960
ፐ	-961
ፓ	-962
2	-963
s	-964
D	-965
3	-966
[	-967
]	-968
o	-969
ፑ	-970
ፒ	-971
(	-972
)	-973
-	-974
5	-975
A	-976
e	-977
ቊ	-978
ዷ	-979
ፂ	-980
0	-981
4	-982
@	-983
b	-984
m	-985
u	-986
ሏ	-987
ቷ	-988
ቿ	-989
ኗ	-990
ኟ	-991
ኲ	-992
ኼ	-993
ጒ	-994
ጧ	-995
ፏ	-996
