<pad>	0
</s>	0
<unk>	0
ም	-3.09688
▁	-3.25689
ን	-3.33679
፥	-3.91139
።	-3.96333
▁በ	-4.07827
ል	-4.09829
ት	-4.12377
ና	-4.14097
▁አ	-4.21961
ስ	-4.286
ር	-4.31037
ው	-4.38792
▁የ	-4.47452
፤	-4.57527
ድ	-4.62607
ለ	-4.76043
ብ	-4.76057
ረ	-4.77674
▁ይ	-4.78731
▁ከ	-4.8686
ራ	-4.90342
ታ	-4.92965
ያ	-4.93105
ላ	-4.9339
ገ	-4.97289
በ	-5.03686
ህ	-5.05812
▁እ	-5.06837
ባ	-5.07215
መ	-5.07916
▁መ	-5.08174
ደ	-5.09869
▁ወደ	-5.1212
▁ተ	-5.128
ሰ	-5.16674
ቀ	-5.18853
ይ	-5.19144
▁ሁሉ	-5.21842
ች	-5.21907
ማ	-5.24724
ፍ	-5.24829
ግ	-5.25274
ጠ	-5.2597
ቅ	-5.27827
ዳ	-5.29022
ዋ	-5.31871
ጥ	-5.3454
ንም	-5.35947
ነ	-5.38608
▁ያ	-5.39937
ተ	-5.43011
▁ለ	-5.44208
ወ	-5.49619
ከ	-5.50307
ሳ	-5.51927
ክ	-5.52291
▁እንደ	-5.54555
ሁ	-5.63885
▁ዘንድ	-5.67088
ፈ	-5.6787
ጋ	-5.68525
ዘ	-5.72083
▁ላይ	-5.72494
ሩ	-5.74026
▁እግዚአብሔር	-5.75848
ጣ	-5.76375
ኝ	-5.78401
ቃ	-5.80404
▁ወ	-5.83385
▁የሚ	-5.8466
ቱ	-5.86481
ሉ	-5.87564
?	-5.88221
▁ግን	-5.88999
▁ሰ	-5.94842
ዝ	-5.97151
ሞ	-5.97763
ችሁ	-6.01288
ዛ	-6.03356
▁ጊዜ	-6.03812
ኑ	-6.04605
▁ት	-6.05973
ዓ	-6.09192
ቶ	-6.10933
ቸው	-6.1095
ሽ	-6.12114
▁ነገር	-6.14279
ውን	-6.14669
▁ስለ	-6.14671
ካ	-6.18899
▁ልጆች	-6.20282
ሮ	-6.20692
▁የተ	-6.20785
ቤ	-6.20852
▁ጋር	-6.21878
ፋ	-6.22034
አ	-6.22127
ዱ	-6.22979
ሱ	-6.23259
በት	-6.26942
▁ልጅ	-6.27291
ሙ	-6.28581
ጽ	-6.29988
ዮ	-6.30532
▁አይ	-6.31123
ቡ	-6.31124
▁ታ	-6.36774
ሕ	-6.36983
ቆ	-6.37007
▁ሰው	-6.37056
ሌ	-6.40207
▁እንዲህ	-6.41883
ቁ	-6.42784
▁ነ	-6.43245
ል።	-6.46537
ሥ	-6.47038
▁እን	-6.47241
▁እኔ	-6.48226
ዶ	-6.51206
ሎ	-6.51575
ሴ	-6.51745
▁ባ	-6.52997
ጉ	-6.53115
▁ብ	-6.53407
▁በአ	-6.53583
▁አል	-6.53862
የ	-6.5444
ቴ	-6.5543
▁ማ	-6.56144
▁ደ	-6.58519
ላችሁ	-6.58879
ሬ	-6.59147
ዎች	-6.5943
▁የአ	-6.59482
ፊ	-6.605
ሰማ	-6.60907
▁ነው	-6.61802
▁ቀን	-6.62381
ጸ	-6.62619
መጣ	-6.63605
ኖ	-6.64003
ውም	-6.64449
▁ቤት	-6.64614
▁ጠ	-6.65129
▁በመ	-6.65565
ሶ	-6.67892
▁ፊት	-6.68555
▁ፈ	-6.68813
ቹ	-6.69505
ችን	-6.69945
▁ደግሞ	-6.70096
ትን	-6.70489
ሜ	-6.71659
ሆን	-6.71697
ለው	-6.71884
ሻ	-6.7297
▁ሆይ፥	-6.73319
ህን	-6.75431
ሆ	-6.76514
ጡ	-6.76575
ለህ	-6.76727
▁ይህ	-6.77005
▁ስ	-6.77049
▁አንተ	-6.77294
ኛ	-6.78045
ጨ	-6.78395
ል፤	-6.79132
▁እንዳ	-6.79817
ዙ	-6.80065
ሸ	-6.80218
ዩ	-6.8032
ኃ	-6.80797
ሠ	-6.81015
▁እርሱ	-6.81396
ኤ	-6.81813
▁ቃል	-6.82857
▁ሰዎች	-6.83408
▁ሆነ	-6.84709
ዕ	-6.85237
▁ገ	-6.86147
ጌ	-6.86288
ወጣ	-6.87551
ነት	-6.89091
▁ምድር	-6.89251
ተኛ	-6.89606
ቢ	-6.89908
▁ሲ	-6.91459
ቦ	-6.91795
ቶች	-6.92203
▁እርሱም	-6.92374
▁ድረስ	-6.92726
▁ጌታ	-6.93019
ሐ	-6.93135
▁በእ	-6.93576
ላቸው	-6.94101
▁ዓ	-6.94714
▁ዘ	-6.94737
▁እንዲ	-6.94932
ጭ	-6.95033
ሉ።	-6.9514
እ	-6.95724
ሠራ	-6.95967
ዬ	-6.96781
▁ንጉሥ	-6.97046
ፉ	-6.97119
ንና	-6.98123
▁አንድ	-6.98135
▁ምን	-6.98543
ጻ	-6.98649
▁እስከ	-6.9959
▁ል	-6.99596
ውያን	-6.99818
ጎ	-6.99823
▁ቀ	-7.00155
ቱን	-7.00444
▁ያለ	-7.00827
ሪ	-7.01211
▁በእግዚአብሔር	-7.0138
▁ሊ	-7.0169
ገባ	-7.02793
▁አለ	-7.02831
ል፥	-7.02867
ዊ	-7.02902
▁አለው።	-7.02934
▁አት	-7.03114
▁የሚያ	-7.03442
ተው	-7.0405
▁አምላክ	-7.04285
▁አስ	-7.06121
▁ከአ	-7.07645
▁ውስጥ	-7.08161
▁ነው።	-7.08705
ለት	-7.09053
▁ብሎ	-7.09268
ለሁ	-7.0954
▁ቢ	-7.11044
ዚ	-7.11626
ጅ	-7.12638
▁ነበር።	-7.12909
▁እናንተ	-7.13328
▁የእስራኤል	-7.13952
▁የእግዚአብሔር	-7.14115
ባት	-7.14493
▁አለ።	-7.15345
▁ሳ	-7.15432
ጃ	-7.16174
▁በኋላ	-7.17053
ቈ	-7.17467
▁ነገ	-7.18975
▁በዚያ	-7.21328
ቱም	-7.21459
ታቸው	-7.21604
ጀ	-7.21671
▁እጅ	-7.22295
▁ስለዚህ	-7.23271
ቼ	-7.24076
አቸው	-7.24347
ደር	-7.24624
ሪያ	-7.24692
ኤል	-7.25028
ባቸው	-7.25086
ቻ	-7.25889
▁ይህን	-7.26147
ፎ	-7.2642
▁እግዚአብሔርም	-7.26552
ጢ	-7.27014
ሃ	-7.28274
ጦ	-7.28456
▁እነሆ፥	-7.28523
ሉት	-7.2875
ህም	-7.29348
ኮ	-7.30532
▁በተ	-7.31598
▁መካከል	-7.32028
ቻቸው	-7.32412
ጆ	-7.3246
ሰው	-7.32526
▁ነበር	-7.33299
▁ወይም	-7.34431
ራት	-7.35695
ቀር	-7.3574
▁አላ	-7.36133
▁ዓመት	-7.36139
▁ሕዝብ	-7.3691
▁አሳ	-7.36956
ኩ	-7.37142
ኸ	-7.37305
▁ለአ	-7.38233
▁ንጉሡ	-7.3877
ዴ	-7.39305
▁የማ	-7.39401
ጫ	-7.39443
▁ኢየሱስ	-7.39578
▁ግ	-7.39599
▁ማን	-7.40066
▁ልብ	-7.40972
ፈር	-7.41084
ሚ	-7.41112
ጕ	-7.41214
▁ለመ	-7.41282
ብር	-7.4155
▁ከእርሱ	-7.4163
ራቸው	-7.42137
▁ይሆናል	-7.42322
▁ቅ	-7.42363
ድን	-7.42639
▁ዳዊት	-7.43298
ወር	-7.43344
ለሁ።	-7.43917
ና።	-7.43972
▁እንዲሁ	-7.4416
ሮች	-7.44359
▁ሙሴ	-7.44445
ኢ	-7.44718
ጠፋ	-7.44842
▁ነው፤	-7.4501
ቍ	-7.45557
▁የእ	-7.45592
▁በሰ	-7.4579
▁ከእ	-7.45808
▁ሁለት	-7.46024
ቂ	-7.46288
ሄ	-7.46318
▁ሥራ	-7.46447
ሊ	-7.46964
▁የመ	-7.47284
▁የሰ	-7.48844
ቢያ	-7.49017
▁አሁን	-7.49282
ናቸው	-7.50121
ርያ	-7.50343
▁ፍ	-7.50385
▁ደስ	-7.50853
ነሣ	-7.51051
▁ባሪያ	-7.51418
ኛው	-7.51993
ሣ	-7.52167
ውንም	-7.53361
ኪ	-7.53785
▁ብዙ	-7.54012
ለሁ፤	-7.55229
▁እነዚህ	-7.55698
ሆኑ	-7.56527
▁ከተማ	-7.56836
አል	-7.56891
▁ስፍራ	-7.57143
ዖ	-7.57284
ኋ	-7.57686
ሉ፤	-7.57752
▁መሥዋዕት	-7.5777
▁ሕዝቡ	-7.5777
▁ስም	-7.58411
▁በሚ	-7.58831
▁እንጂ	-7.59257
▁ወንድ	-7.59386
ዲ	-7.59718
▁ለእግዚአብሔር	-7.60067
ቸ	-7.60255
▁ዕ	-7.60711
ሉ፥	-7.61312
▁በደ	-7.61571
▁ክፉ	-7.6177
ኳ	-7.61909
ጁ	-7.6226
▁ካ	-7.62701
▁ከፍ	-7.63384
▁ከመ	-7.63665
▁ኢ	-7.63949
▁መቶ	-7.64361
ዎቹ	-7.6438
ችኋ	-7.64606
▁እግዚአብሔርን	-7.64885
በላ	-7.65249
ጐ	-7.66405
▁ጥ	-7.66706
ሃል	-7.67545
▁ነበረ	-7.68123
ዞ	-7.68189
ኔ	-7.683
▁ወር	-7.68629
▁በዚህ	-7.68757
▁አላቸው።	-7.68796
▁በምድር	-7.69297
ሦ	-7.69456
ለሁ፥	-7.69849
▁ሸ	-7.69887
▁እጅግ	-7.69939
▁እስራኤል	-7.70189
▁የእግዚአብሔርን	-7.70824
▁ይላል	-7.7175
▁ባለ	-7.7305
▁ለሚ	-7.73436
▁እነሆ	-7.73452
▁ነበረ።	-7.7347
▁እነርሱም	-7.73494
ናገር	-7.74087
መጡ	-7.74775
ደርግ	-7.75084
▁እኔም	-7.75593
ኬ	-7.75856
ገረ	-7.75941
ይቱ	-7.76003
ታችሁ	-7.76728
▁ይሰ	-7.76812
▁በዚያም	-7.77262
ቸዋል	-7.78063
▁ነበር፤	-7.78441
▁በእስራኤል	-7.78615
ሎች	-7.78662
▁ሺህ	-7.79026
ነው	-7.80081
▁መልካም	-7.80111
▁እንደሚ	-7.80196
▁መንገድ	-7.8023
▁እንዳይ	-7.80541
▁በየ	-7.80781
▁በእርሱ	-7.81458
▁አቤቱ	-7.81885
▁የሆነ	-7.81897
▁ሐ	-7.82719
▁የምት	-7.82753
አሥራ	-7.83829
▁እየ	-7.84569
▁አለቆች	-7.84587
በሩ	-7.84904
ሳቸው	-7.85187
አልና	-7.85249
▁ውኃ	-7.85571
▁ኃጢአት	-7.85864
▁ዘመን	-7.8615
ሞት	-7.86394
ጮ	-7.86511
ኛል	-7.8677
▁ይላል።	-7.87236
▁ከዚያ	-7.87392
ወጡ	-7.89959
ሃለሁ	-7.90051
▁አይደለም	-7.91159
ኖች	-7.91403
▁አገር	-7.91989
▁አለቃ	-7.91996
▁ነውና	-7.92517
▁ከእነርሱ	-7.92756
ኖሩ	-7.93004
▁ነኝ	-7.9313
▁ለማ	-7.93357
ቻችሁ	-7.93462
ጄ	-7.93913
ችው	-7.94054
▁እኛ	-7.94294
▁አደረገ	-7.94382
ጊ	-7.94614
▁ዛሬ	-7.94885
▁አሕዛብ	-7.95084
ነገ	-7.95908
ጠላ	-7.96091
ችኋለሁ	-7.96653
ዔ	-7.96747
▁ታላቅ	-7.96768
▁ሚ	-7.97184
▁ይሁን	-7.973
▁እነርሱ	-7.97782
ቶቻቸው	-7.97897
ኖር	-7.97908
ፌ	-7.98195
መለከ	-7.98218
▁ከሚ	-7.98612
ሹ	-7.98682
ሾ	-7.98926
▁ወገን	-7.99168
▁ለዘላለም	-7.9991
ቄ	-8.00158
▁ነበሩ	-8.00203
ኦ	-8.00404
▁ሌላ	-8.00667
ፈሩ	-8.00771
▁ሄደ	-8.00945
ፀ	-8.02667
ፃ	-8.04204
ጠራ	-8.04341
ቀመጡ	-8.04449
▁ጀምሮ	-8.04982
ሄዱ	-8.05076
ሂ	-8.05503
ኒ	-8.05503
ገደ	-8.06458
ዊው	-8.08053
ለች።	-8.08082
▁እስኪ	-8.08167
▁ከእኔ	-8.08239
ምድረ	-8.08822
▁እንግዲህ	-8.0896
▁ሥጋ	-8.09026
▁ነበረ፤	-8.0916
▁ሰባት	-8.09516
ቺ	-8.09776
▁ነበሩ።	-8.09966
▁በኢየሩሳሌም	-8.10323
▁ድምፅ	-8.10874
▁የለም	-8.10967
▁ክርስቶስ	-8.11983
ዎ	-8.13558
ጹ	-8.1367
ኙ	-8.1367
ሀ	-8.13927
ተኞች	-8.13955
▁ሦስት	-8.13956
ሄድ	-8.14032
▁እንጀራ	-8.14244
▁መንፈስ	-8.14815
▁አንዱ	-8.15748
▁ተራራ	-8.16387
ቋ	-8.16841
ፈረ	-8.18259
▁ከተሞች	-8.18912
▁ይልቅ	-8.19173
▁ዕቃ	-8.19199
ጓ	-8.19211
▁ሆኖ	-8.19232
▁አጠገብ	-8.19513
▁ተናገረ	-8.19528
▁ክንድ	-8.19531
ቲ	-8.19813
ደረግ	-8.19911
▁ሴቶች	-8.20743
ቶቹ	-8.20819
▁ሴት	-8.21088
ሕይወ	-8.21319
መለሰ	-8.21408
▁ከአንተ	-8.21997
▁እንዴት	-8.22262
ቸዋለሁ	-8.2228
▁በታች	-8.23128
ነበረው	-8.23245
▁ተነሥ	-8.24144
▁ብለው	-8.25033
▁ከእግዚአብሔር	-8.25077
▁ስሙ	-8.25647
▁በኩል	-8.25789
▁ከዚህ	-8.26386
▁ናት	-8.27102
▁አምስት	-8.27386
▁ብቻ	-8.27508
ጆች	-8.27676
ተዋል	-8.28694
ሡ	-8.29298
▁የተነሣ	-8.29421
▁ፍርድ	-8.30358
▁አሉት።	-8.30717
▁ቢሆን	-8.30734
▁በአንድ	-8.30844
▁ሕግ	-8.31449
▁ቍርባን	-8.31648
▁ኢየሩሳሌም	-8.32329
▁ልጁ	-8.32647
▁ከእስራኤል	-8.32672
▁የነበሩ	-8.32681
ንግሥ	-8.32779
▁ክብር	-8.33406
▁ከእናንተ	-8.34054
▁ሁለቱ	-8.3406
ናገሩ	-8.34202
ሲ	-8.34404
▁ፍሬ	-8.3484
▁ራስ	-8.3642
▁ካህኑ	-8.38684
▁ለእስራኤል	-8.40148
▁ናቸው።	-8.4034
ቀመጥ	-8.40965
▁በይሁዳ	-8.41639
▁እውነት	-8.42431
▁በእኔ	-8.42599
!	-8.43915
▁ሳኦል	-8.44302
ሔ	-8.45074
▁አድርገ	-8.45469
ኰ	-8.46245
▁ነገሥታት	-8.46639
መለሱ	-8.46928
መለስ	-8.47332
▁የይሁዳ	-8.47432
ዜ	-8.47828
▁ቅዱስ	-8.49045
▁የሠራዊት	-8.49439
▁ቍጣ	-8.49473
▁ሰላም	-8.49485
▁ይሁዳ	-8.49921
▁ትእዛዝ	-8.51075
መልካ	-8.51629
▁ሀያ	-8.52779
▁አድርጎ	-8.53582
▁ወይስ	-8.54126
▁እሳት	-8.54261
ለች፤	-8.55295
ኣ	-8.55717
▁መሠዊያ	-8.55717
ጩ	-8.56585
▁ኪዳን	-8.57463
▁ያዕቆብ	-8.58788
ጤ	-8.60586
▁ተስፋ	-8.61132
▁በእውነት	-8.61504
ፅ	-8.62878
▁ሚስት	-8.63398
▁ኢያሱ	-8.63816
▁ናቸው፤	-8.64414
▁ድንኳን	-8.64753
▁ሞተ	-8.67019
▁በዙሪያ	-8.68127
▁ሰሎሞን	-8.68609
▁መንግሥት	-8.69118
▁በእናንተ	-8.70095
▁በእሳት	-8.70633
▁በሕይወት	-8.71142
ጠብቅ	-8.71972
▁ባሕር	-8.72133
▁ርስት	-8.72187
▁በፊቱ	-8.72196
▁ጽድቅ	-8.73134
▁ሁለተኛ	-8.74167
▁ወንድሞች	-8.75217
▁ወዲያ	-8.75217
▁ስድስት	-8.75739
ጠብቁ	-8.76397
▁ሰይፍ	-8.76851
ያደርጉ	-8.77419
▁ኃይል	-8.77873
▁ድንጋይ	-8.78411
▁መጥቶ	-8.78455
▁መዛሙርቱ	-8.78954
▁የወይን	-8.78961
▁ዳርቻ	-8.7898
ሺ	-8.81687
▁ለአንተ	-8.81783
ሰጣቸው	-8.83091
ነዚህ	-8.84531
▁ወንዶች	-8.85137
▁አማልክት	-8.8689
▁ጥበብ	-8.86916
▁መጽሐፍ	-8.87482
ዌ	-8.88077
▁ልጆቹ	-8.88078
ኀ	-8.98779
ዉ	-9.10765
ጳ	-9.13038
ዑ	-9.18551
ሤ	-9.24386
ኹ	-9.24386
ጾ	-9.26118
ዣ	-9.29674
ሖ	-9.30583
ዥ	-9.41169
ጵ	-9.4117
ኽ	-9.43221
ኜ	-9.53011
ኻ	-9.55323
ጪ	-9.565
ጲ	-9.60114
ሑ	-9.70446
ኆ	-9.73205
ዪ	-9.80454
ዒ	-9.83508
a	-9.8991
ሒ	-9.91577
ጂ	-9.98358
ሼ	-10.0035
ዠ	-10.0221
ጶ	-10.1202
ዢ	-10.2062
ጴ	-10.2522
ኚ	-10.3254
ጼ	-10.3511
ጺ	-10.3774
ጬ	-10.5517
ዤ	-10.8447
ሢ	-10.8882
ቾ	-10.9336
ሓ	-10.9812
ፄ	-11.0839
ጰ	-11.4758
ጱ	-11.4758
ቧ	-11.5591
ፕ	-11.5591
ኺ	-11.75
*	-11.9861
1	-11.9861
ፆ	-11.9861
v	-12.129
ፐ	-12.2956
l	-12.2956
ፓ	-12.2956
"	-12.2956
s	-12.4956
2	-12.4956
D	-12.7456
o	-13.079
3	-13.079
]	-13.079
A	-13.579
ቊ	-13.579
)	-13.579
-	-13.579
5	-13.579
e	-13.579
ዷ	-13.579
ፂ	-13.579
(	-14.5767
ፒ	-14.5768
ፑ	-14.5769
[	-14.577
ሷ	-14.5771
d	-14.5772
T	-14.5773
ፔ	-14.5774
k	-14.5775
ኾ	-14.5776
r	-14.5777
ኄ	-14.5778
g	-14.5779
K	-14.578
ዡ	-14.5781
ዦ	-14.5782
ኡ	-14.5783
W	-14.5784
ፁ	-14.5785
ዐ	-14.5786
ኘ	-14.5787
ኵ	-14.5788
ኅ	-14.5789
ኲ	-14.579
0	-14.579
4	-14.579
@	-14.579
b	-14.579
m	-14.579
u	-14.579
ሏ	-14.579
ቷ	-14.579
ቿ	-14.579
ኗ	-14.579
ኞ	-14.579
ኟ	-14.579
ኼ	-14.579
ጒ	-14.579
ጧ	-14.579
ፏ	-14.579
