<pad>	0
</s>	0
<unk>	0
¦	-1.53286
▁¦	-1.56409
▁်	-2.24417
င	-3.57581
▁့	-3.84467
း	-4.14203
ည	-4.17399
သ	-4.44609
▁့်	-4.48301
ကို	-4.51995
▁၊	-4.74718
က	-4.76177
တော	-4.868
အ	-4.8867
စ	-5.05178
တို	-5.14685
သော	-5.19156
▁၏။	-5.2133
တ	-5.29406
နှ	-5.30695
မ	-5.34575
▁	-5.49304
န	-5.51422
မည	-5.55772
▁်၊	-5.59892
သို	-5.63997
ကြ	-5.66775
▁။	-5.69378
ောင	-5.69555
သင	-5.71028
ခြ	-5.72838
ရ	-5.74572
ဖြ	-5.77842
ငါ	-5.78339
ယ	-5.795
္	-5.86011
ပ	-5.96453
▁်။	-5.9795
▁၍	-6.0894
မူ	-6.11241
လည	-6.11446
ဆ	-6.14082
စေ	-6.18551
▁၏	-6.20913
ဟု	-6.29011
မြို	-6.32558
သူ	-6.34374
ဘုရား	-6.3441
သူတို	-6.35101
ထို	-6.36478
သား	-6.44433
သခ	-6.46941
ောက	-6.49504
လျ	-6.4992
ရှင	-6.50253
▁၌	-6.50922
▁်၏	-6.52559
မြ	-6.53093
ကိုယ	-6.54114
ုပ	-6.57373
၎	-6.59206
ပြည	-6.61494
ရာ	-6.62081
ပါ	-6.64659
နေ	-6.65171
လျှ	-6.66707
မှာ	-6.66739
လိမ	-6.69516
ထာဝရဘုရား	-6.71787
အား	-6.72306
ဉ	-6.72545
ချ	-6.73896
းကို	-6.7504
တည	-6.75269
လေ	-6.77499
▁၍၊	-6.78441
ရှိ	-6.79095
မှ	-6.81452
ဇ	-6.82452
ပြု	-6.82665
မိန	-6.83289
ိမ	-6.83548
လော	-6.89495
တွ	-6.90193
လ	-6.91532
လက	-6.91922
ဝ	-6.92771
သွား	-6.92948
ဆို	-6.93267
ာ	-6.94476
▁်၍၊	-6.96097
▁့။	-6.96376
▁့်၊	-6.97281
ထ	-7.01104
ပြ	-7.01735
အဘယ	-7.03915
းတို	-7.05483
လူ	-7.0559
▁်၏။	-7.05693
အကြော	-7.06424
ပေး	-7.06701
ုတ	-7.07745
အကျွန	-7.09397
းငှါ	-7.09464
ထား	-7.09842
ပေါ	-7.0994
သောသူ	-7.10094
ရှေ	-7.10688
သေ	-7.10841
ကား	-7.12733
တိုင	-7.12898
တတ	-7.12954
ဗ	-7.12984
လင	-7.15532
းသော	-7.15605
မင	-7.16014
ိတ	-7.17239
ရောက	-7.17371
ဒ	-7.20255
လာ	-7.20918
သန	-7.21661
ပြစ	-7.22149
ေ	-7.22375
ခ	-7.26557
ကျ	-7.27446
အပေါ	-7.28264
နို	-7.31293
ုန	-7.34048
မိမိ	-7.3633
ံ	-7.36786
ငါတို	-7.39257
ဤ	-7.39676
သာ	-7.39895
ဘုရ	-7.40825
ု	-7.41034
ရပ	-7.41198
ကျွန	-7.41765
ကဲ	-7.43043
ဘ	-7.43075
များ	-7.44678
▁့၏	-7.44894
အသက	-7.45253
ဖန	-7.45489
သောအခါ	-7.45547
▁့၊	-7.47551
စား	-7.49826
ခံ	-7.49873
ကြော	-7.50044
ဲ	-7.5005
စာ	-7.50893
ကြီး	-7.50967
ပြန	-7.51227
စိတ	-7.52658
ထွ	-7.52711
ထော	-7.54884
ရေ	-7.55523
သက	-7.56915
အာ	-7.57462
သဖြ	-7.57656
ရှိသော	-7.58224
လှ	-7.60292
ငါသ	-7.60623
သိ	-7.60765
လွ	-7.60923
ရှ	-7.61403
ပြော	-7.61912
ယူ	-7.6292
ဘက	-7.63252
မူသ	-7.6342
မျ	-7.63439
ဖ	-7.64134
ခေါ	-7.64562
လိုက	-7.65185
တရား	-7.65957
ူ	-7.67446
ထံ	-7.68458
ကြလော	-7.69489
နာ	-7.69883
းမ	-7.70093
မူသော	-7.70375
လုပ	-7.70938
သတ	-7.72675
အမျိုး	-7.73504
အစ	-7.74954
တု	-7.76033
မို	-7.76148
မရှိ	-7.76452
ပြီ	-7.76993
အားဖြ	-7.77315
မိ	-7.77673
နား	-7.78134
အမှု	-7.79418
ဧ	-7.8044
မာ	-7.80954
ထိုသို	-7.81021
ဆော	-7.81099
လုံး	-7.81149
လူတို	-7.81598
းကင	-7.82861
ထာဝရဘုရားသ	-7.83739
ိ	-7.84208
မြေ	-7.85153
တန	-7.85967
သားတို	-7.86144
ဥ	-7.86573
မျှ	-7.86756
သူသ	-7.87067
စီရ	-7.88216
ဟ	-7.88368
လွှတ	-7.89034
စစ	-7.89327
ို	-7.90736
ယောက	-7.90784
တောင	-7.92082
ကာလ	-7.92389
းတော	-7.93238
အမျိုးသား	-7.94038
စွာ	-7.94901
ဦး	-7.95003
ဝတ	-7.95241
ဏ	-7.95477
ပျ	-7.95538
ပတ	-7.96738
လမ	-7.97112
များကို	-7.9714
ကြား	-7.97726
ရှာ	-7.9802
ယော	-7.98342
ခဲ	-7.98719
ဘဲ	-7.98993
ရိ	-7.99012
အဘို	-7.99232
ှင	-7.99305
အဘ	-7.99745
ရှု	-8.00435
ရကြ	-8.00456
အတို	-8.01146
ရှိသမျှ	-8.01295
မတ	-8.01708
မဟု	-8.01943
စကားကို	-8.02942
သောသူတို	-8.03349
ပူဇော	-8.03478
မေ	-8.03818
ထက	-8.04091
ုံ	-8.0419
ကြွ	-8.04442
စကား	-8.04557
စုံ	-8.04738
ိပ	-8.05055
းကြီး	-8.06901
အရာ	-8.07947
ဘို	-8.08723
မူပါ	-8.09157
ဂု	-8.09433
ဒါဝိဒ	-8.09497
ီ	-8.09619
တပ	-8.10176
ပြီးမှ	-8.10239
အို	-8.10385
သိမ	-8.10464
သုံး	-8.11155
ဣသရေလ	-8.11467
တင	-8.11726
မုန	-8.12024
တယောက	-8.13135
ကော	-8.13263
▁့်။	-8.13574
ကာ	-8.13773
ထိုအခါ	-8.14086
းနှ	-8.14242
ကယ	-8.14705
ရက	-8.15903
ရသော	-8.17081
စရာ	-8.17454
ဘော	-8.17516
ခြေ	-8.19224
ိုင	-8.19361
ရန	-8.20005
ွန	-8.20438
သောကြ	-8.2052
းမူကား	-8.20984
အပ	-8.21913
ပုရောဟ	-8.21946
တွေ	-8.22055
ထဲ	-8.2245
အခွ	-8.23004
ယုဒ	-8.23572
ခံရ	-8.23612
ဣသရေလအမျိုး	-8.24413
ကျေးဇူး	-8.24937
တိုက	-8.24963
အတူ	-8.26439
သောသူသ	-8.2648
တိ	-8.26525
ထိုသူ	-8.27505
မီး	-8.28495
းခြ	-8.28499
မက	-8.29429
အမှုကို	-8.3014
မြောက	-8.30295
လယ	-8.30913
ဃ	-8.312
ရှိသ	-8.3123
ဖျ	-8.31329
အံ	-8.3136
နှာ	-8.32199
ါ	-8.32962
ွေ	-8.3308
ဆက	-8.33745
မူကား	-8.3503
ိန	-8.35452
ယခု	-8.36131
တာ	-8.3679
ခန	-8.36956
အဲ	-8.37137
ကြောက	-8.37661
ဟာ	-8.37902
ပြီးလျ	-8.37943
ရော	-8.37947
နေရာ	-8.38531
စီး	-8.39137
ယေ	-8.39682
ယေရုရှ	-8.39896
ထာဝရ	-8.4081
တံခါး	-8.41399
းသ	-8.42382
မှတ	-8.43471
မှန	-8.43617
ထဲက	-8.43972
းသို	-8.4465
အလွ	-8.44706
ဟူ	-8.4509
လေး	-8.461
ကျောက	-8.47449
းဟု	-8.4785
ဆုံး	-8.4796
ဝမ	-8.48322
မှီ	-8.4912
အရ	-8.49189
မှစ	-8.49216
ှ	-8.49369
အတွ	-8.49473
ငံ	-8.49681
ရိုက	-8.50501
ရဲ	-8.50529
တကွ	-8.5076
ပလ	-8.50854
မြေကြီး	-8.51027
ဝိညာ	-8.51074
အချ	-8.51331
ချက	-8.51965
ခရ	-8.53088
သစ	-8.53257
ခုန	-8.54033
နှလုံး	-8.54408
ဣသရေလအမျိုးသား	-8.54467
တူ	-8.54924
သံ	-8.54999
သကဲ	-8.55291
းစေ	-8.56011
ဂ	-8.56666
ဆီး	-8.57492
ရွှေ	-8.58508
ကျိ	-8.59015
းဟူသော	-8.59135
ပရောဖ	-8.59452
ဩ	-8.59617
ဇာ	-8.59816
စပ	-8.59862
မောရှေ	-8.59908
ခို	-8.59911
အလို	-8.60686
အချိ	-8.6074
ပည	-8.61255
ွ	-8.61456
ကွ	-8.61758
အော	-8.61771
လူများ	-8.62216
တမန	-8.62348
ဝန	-8.62529
ျား	-8.62567
ေလ	-8.62668
ြိမ	-8.63095
ထုတ	-8.63415
ဗို	-8.6365
ရှား	-8.63839
ဆီ	-8.63852
ဘေး	-8.64015
လူမျိုး	-8.64387
ရှိကြ	-8.65007
မွေ	-8.65465
နန	-8.65852
ငွေ	-8.65852
လိ	-8.65954
နာမ	-8.66036
မီးရှို	-8.66451
ဆာ	-8.67009
ယေရှု	-8.67279
ွတ	-8.68115
ပန	-8.68231
ပြုသော	-8.68303
ရွံ	-8.70052
ခိုး	-8.70131
ခါ	-8.70188
ဟော	-8.70777
အန	-8.70961
ကြပါ	-8.71026
းရဲ	-8.71337
သမီး	-8.72155
ဘွ	-8.72687
ပိုင	-8.72995
နွား	-8.73218
ချစ	-8.73368
အမျ	-8.73571
မိမိတို	-8.73826
မျိုး	-8.74104
နိ	-8.74607
လို	-8.74689
ယုံကြ	-8.75137
မူပြီ	-8.75167
၊	-8.75252
စွန	-8.76033
▁?????????	-8.77667
ရှက	-8.77777
ပွဲ	-8.78862
မေး	-8.79011
ကြံ	-8.79337
နေကြ	-8.79564
ိမာန	-8.79567
သလော	-8.80002
ဝေး	-8.80094
ရှောက	-8.8014
းရှိ	-8.80562
သမျှ	-8.81006
ကြပြီ	-8.81024
ြ	-8.81078
ဗေ	-8.8118
အကျ	-8.81599
ဟုဆို	-8.82326
အခါ	-8.82411
နေသော	-8.82672
းဖြ	-8.83731
ပြေး	-8.84221
ခု	-8.8486
ီအစ	-8.84863
ကွယ	-8.85614
လျော	-8.86212
မယား	-8.86379
ရွေး	-8.8676
ဣ	-8.86972
ဗာ	-8.87297
စု	-8.87408
အသံ	-8.87422
အမိန	-8.87869
းကြ	-8.88094
ယာ	-8.88698
အမြ	-8.8897
ခံရသော	-8.89268
သွားကြ	-8.89719
သီး	-8.89732
ဟူမူကား	-8.90062
ဒုစ	-8.90081
ထိုကြ	-8.90358
လဲ	-8.90442
မဲ	-8.9055
ဘွား	-8.90808
များတို	-8.91551
နီ	-8.9213
ရွာ	-8.92344
ဝပ	-8.92705
ပြောဆို	-8.93195
မှာထား	-8.93284
ညှ	-8.93495
မသိ	-8.94116
လျှော	-8.94242
စော	-8.94407
ယာကု	-8.94811
ထိုန	-8.95659
ရိုး	-8.95744
ချီးမွ	-8.96317
အကျိုး	-8.96319
ပါပြီ	-8.96714
စာကို	-8.97094
ခပ	-8.98451
ပေ	-8.98454
ရလိမ	-8.98491
ပစ	-8.9851
စိ	-8.99247
ဆိုး	-8.99319
ညီ	-8.99767
ထာဝရဘုရားကို	-8.99899
ဟေ	-9.00508
တပါး	-9.00863
နေရ	-9.01152
ချီ	-9.01488
ဇိ	-9.01785
ပညာ	-9.01926
သူရဲ	-9.02058
မြော	-9.02615
သဘော	-9.02962
လူအပေါ	-9.02983
စိုးရ	-9.03293
သွ	-9.03413
ရှောလု	-9.03485
ဘူး	-9.03753
ဖွဲ	-9.03773
ဟောပြော	-9.04062
ပျော	-9.04819
နားမှာ	-9.05685
လန	-9.05857
အာရု	-9.06313
ခွ	-9.07143
အကြံ	-9.07608
ပရိသတ	-9.07931
ကျမ	-9.08006
ရွက	-9.08509
ယနေ	-9.08563
နံ	-9.08995
ဇေ	-9.09429
ွမ	-9.0951
းဆဲ	-9.09563
အခြားသော	-9.09933
မပြု	-9.10093
သောအရာ	-9.10367
လေဝိ	-9.1037
တကား	-9.1062
ပြုကြ	-9.10977
ဟိ	-9.10985
မတရားသော	-9.1406
ပို	-9.14398
တရားကို	-9.14522
ပြား	-9.14844
ရှိရာ	-9.14859
ချိုင	-9.14881
အသီး	-9.14941
အရာကို	-9.15528
းကပ	-9.15738
ရံ	-9.1647
အချို	-9.16481
ထိ	-9.16718
းသာ	-9.17078
သူအပေါ	-9.17385
ပါစေသော	-9.17644
ဆာန	-9.18143
မော	-9.18161
အဆွေအမျိုး	-9.18162
းစွာ	-9.18382
ပြီဟု	-9.1853
သနား	-9.19071
ဆုတော	-9.19191
အသရေ	-9.19304
လောက	-9.19886
သေခံ	-9.20298
ရုပ	-9.20447
ဆုံးမ	-9.21714
တိရစ	-9.21783
ဂါ	-9.22037
ဒေါ	-9.22319
ထိုသူသ	-9.2299
ကျန	-9.23062
ဒန	-9.23194
ဖိလိ	-9.23234
ဘိုးဘေး	-9.23235
သောငှါ	-9.23529
တဲတော	-9.23568
အသွေး	-9.23593
မှူး	-9.24197
သူမျှ	-9.24355
ဓမ	-9.25029
စွဲ	-9.25125
ွယ	-9.2589
နားမ	-9.26121
ျစ	-9.26641
တံ	-9.26808
လောဟု	-9.27291
ထဲမှာ	-9.27292
လတံ	-9.27921
သူတပါး	-9.28034
အမြဲ	-9.28116
ာဏ	-9.28166
ချမ	-9.28175
မုတ	-9.29024
ခတ	-9.29205
ဆိုကြ	-9.29371
ဘု	-9.29936
သောအမှု	-9.30155
ထမ	-9.30321
အရာတို	-9.30353
မခံ	-9.3098
မူလျှ	-9.31149
သတိ	-9.31615
ဗာဗုလု	-9.33062
ဂလာ	-9.33129
သမျှသော	-9.33713
ပါစေ	-9.33897
ဂလာရှိ	-9.34553
ျာ	-9.34738
လာကြ	-9.34838
လု	-9.34862
မြွ	-9.34868
တပါးအမျိုးသား	-9.34981
အညီ	-9.35215
စားရ	-9.35959
ထူး	-9.37296
အမျိုးမျိုး	-9.37723
ထိုအရ	-9.38632
ပုံ	-9.39346
ဘဲနေ	-9.39353
????????????????	-9.39826
ပဋိညာ	-9.39826
ီချ	-9.40323
စိုး	-9.40794
ဂိ	-9.40861
ရှိပါ	-9.40958
ကျော	-9.4178
လေပြီ	-9.4351
အလုံးစုံ	-9.4358
အာမ	-9.43783
ပြုရ	-9.44066
ဖွ	-9.441
ထပ	-9.44163
ဗာလ	-9.44342
ရှောလမုန	-9.44346
▁?????	-9.44346
စပါး	-9.44495
စုဝေး	-9.44761
ခွန	-9.45048
တကော	-9.4506
ဗျာဒိ	-9.459
ခံရကြ	-9.46133
ပေါလု	-9.47576
ဓ	-9.47597
ပျို	-9.47638
ထာဝရဘုရားအား	-9.48205
ယေရှုသ	-9.48674
လွှဲ	-9.48678
ဖုံး	-9.48686
ဗော	-9.49733
-	-9.49892
ချီးမြှ	-9.50301
ကရုဏာ	-9.51122
ရွှ	-9.51853
အာဗြဟံ	-9.5195
ဆေး	-9.5329
ငိုကြွေး	-9.54051
ယောရှု	-9.5426
ရာအရ	-9.54562
လူသား	-9.54995
ချိုး	-9.5578
ခရီး	-9.57071
ဒေ	-9.5718
မေးလျှ	-9.57431
ရေတွ	-9.58175
▁့၍၊	-9.5839
ဂေ	-9.58898
အသီးအသီး	-9.59298
ထုံး	-9.59736
ဥယျ	-9.60797
ယုဒလူ	-9.61046
တစုံတခု	-9.61556
ဆွဲ	-9.62003
ရှော	-9.62336
ဧဖရ	-9.63396
အခြား	-9.6367
ယေရှုခ	-9.63674
နံန	-9.63723
ဍာ	-9.63862
ခုံ	-9.64325
သားသမီး	-9.64738
ဂတိ	-9.64874
အမျိုးအနွ	-9.65018
အိုထာဝရဘုရား	-9.65376
းငှာ	-9.6575
ဋ	-9.66228
ပေတရု	-9.67192
များစွာသော	-9.67195
ကြားလျှ	-9.67508
ဿ	-9.67677
ဒိ	-9.67687
မောဘ	-9.69244
မပြတ	-9.69687
လုယူ	-9.69714
းကြီးပေး	-9.70606
ဘုံ	-9.7155
ကြိုး	-9.71996
ရှုံး	-9.72187
အလိုရှိ	-9.72392
ခွဲ	-9.73284
မှတပါး	-9.74699
တစုံတ	-9.75919
ယောဟန	-9.76314
ငှက	-9.76789
အမှုအရာ	-9.76811
များပြား	-9.77489
ပညာရှိ	-9.78348
ဒါ	-9.79306
မောရှေအား	-9.79308
ထမြောက	-9.79409
ရေးထား	-9.79595
ဌာန	-9.79667
ဤအရ	-9.80449
။	-9.80606
ပြုစု	-9.80999
အမွေခံ	-9.81445
ကြားပြော	-9.82073
ပဌနာ	-9.82325
လုလ	-9.82406
ထိုမှတပါး	-9.82511
ယာမိန	-9.82611
ကြီးစွာသော	-9.82893
ွေးကြော	-9.83104
လောကီ	-9.83521
တိလူ	-9.84641
တံပိုး	-9.84641
ငှါ	-9.86546
ဝှ	-9.86719
ကူး	-9.88563
းဝေးရာ	-9.8873
မုသာ	-9.88792
ပွား	-9.89325
နှိုးဆော	-9.91154
မိဿဟာယ	-9.91154
ဥပု	-9.91169
ကြိုးစား	-9.91243
ကြေးဝါ	-9.91772
သိုးထ	-9.92744
ဇိအုန	-9.93019
ယုဒရှ	-9.93568
ခဏာ	-9.93647
ယောရှ	-9.94247
အမှီပြု	-9.96208
အလိုငှါ	-9.98184
ဂြို	-9.99493
ျ	-10.3848
ဌ	-10.402
၏	-10.6355
ဈ	-11.7635
ဍ	-12.8607
ဠ	-12.8616
ဦ	-14.5069
?	-14.579
၌	-14.5791
၍	-14.5792
့	-14.5793
ဪ	-14.5794
်	-14.5794
