<pad>	0
</s>	0
<unk>	0
▁¦	-0
के	-1
्र	-2
ार	-3
है	-4
ें	-5
या	-6
ने	-7
ों	-8
▁़	-9
में	-10
कर	-11
▁।	-12
से	-13
का	-14
की	-15
▁,	-16
ता	-17
कि	-18
और	-19
र्	-20
स्	-21
को	-22
प्र	-23
ना	-24
्य	-25
क्	-26
वि	-27
ान	-28
पर	-29
ही	-30
वा	-31
ति	-32
लि	-33
ला	-34
नि	-35
▁(	-36
हो	-37
▁)	-38
न्	-39
जा	-40
सा	-41
रा	-42
सं	-43
ते	-44
कार	-45
ित	-46
दे	-47
मा	-48
ले	-49
तु	-50
हा	-51
दि	-52
हैं	-53
▁.	-54
भी	-55
था	-56
ती	-57
लिए	-58
इस	-59
ोग	-60
त्	-61
एक	-62
सी	-63
क्ष	-64
जो	-65
दा	-66
सम	-67
तो	-68
त्र	-69
हीं	-70
बा	-71
उस	-72
अप	-73
उन	-74
द्	-75
जि	-76
नहीं	-77
हम	-78
तुम	-79
हु	-80
पा	-81
ल्	-82
ष्	-83
गा	-84
िक	-85
नी	-86
भा	-87
वे	-88
तर	-89
चा	-90
किया	-91
मु	-92
यह	-93
ली	-94
कु	-95
री	-96
यों	-97
वह	-98
श्	-99
रू	-100
ष्ट	-101
अध	-102
करने	-103
पू	-104
अन	-105
मि	-106
लोग	-107
मान	-108
ारा	-109
ये	-110
ंग	-111
रे	-112
मे	-113
▁¦1	-114
खा	-115
जी	-116
दी	-117
शा	-118
हि	-119
वर्	-120
ारे	-121
देश	-122
अपने	-123
सक	-124
भार	-125
न्ह	-126
रह	-127
सु	-128
उप	-129
सि	-130
िर	-131
स्थ	-132
च्	-133
्या	-134
सू	-135
गे	-136
क्र	-137
दो	-138
पु	-139
व्य	-140
▁¤	-141
िया	-142
तथा	-143
प्	-144
ओं	-145
सर	-146
गया	-147
जिस	-148
अनु	-149
ार्	-150
ारी	-151
ैं	-152
रूप	-153
्री	-154
कुछ	-155
आप	-156
जब	-157
शि	-158
तक	-159
▁𐋇	-160
्ह	-161
द्व	-162
निर्	-163
किसी	-164
उन्ह	-165
तुम्ह	-166
परि	-167
साथ	-168
प्रा	-169
मी	-170
पूर्	-171
दू	-172
योग	-173
▁¦2	-174
इन	-175
बं	-176
ोज	-177
गी	-178
हर	-179
कोई	-180
म्	-181
वर	-182
प्रति	-183
वी	-184
ुदा	-185
द्ध	-186
यु	-187
क्त	-188
थे	-189
राज	-190
कृ	-191
करें	-192
ंड	-193
बना	-194
द्वारा	-195
रि	-196
करते	-197
लो	-198
क्ति	-199
भारत	-200
उनके	-201
नों	-202
लोगों	-203
ंत्र	-204
धार	-205
बी	-206
गु	-207
फिर	-208
जाए	-209
गर	-210
पी	-211
राष्ट	-212
अधि	-213
ज्	-214
ची	-215
कार्य	-216
जाता	-217
चार	-218
स्था	-219
बे	-220
ग्र	-221
पह	-222
मैं	-223
दिया	-224
कह	-225
▁"	-226
क्या	-227
अं	-228
टी	-229
थी	-230
द्य	-231
निय	-232
लाह	-233
कहा	-234
ब्	-235
टा	-236
▁?	-237
0¦	-238
अल्	-239
करना	-240
रख	-241
▁्	-242
बर	-243
सब	-244
स्त	-245
अव	-246
उसके	-247
दु	-248
बंध	-249
अपनी	-250
चे	-251
रहे	-252
क्षा	-253
च्छ	-254
अल्लाह	-255
प्त	-256
भि	-257
उत्	-258
धि	-259
रु	-260
क्षे	-261
ज्ञ	-262
मू	-263
हुए	-264
रो	-265
द्र	-266
वाले	-267
त्य	-268
बि	-269
डा	-270
बहु	-271
चि	-272
लग	-273
लों	-274
बात	-275
चु	-276
न्न	-277
जन	-278
▁;	-279
टे	-280
उसे	-281
पै	-282
स्व	-283
क्षेत्र	-284
करता	-285
जान	-286
बाद	-287
समय	-288
सकता	-289
शु	-290
उन्हें	-291
योज	-292
ोंने	-293
दान	-294
होता	-295
बड	-296
रहा	-297
अधिक	-298
शी	-299
पति	-300
शे	-301
कर्	-302
शन	-303
देख	-304
मिल	-305
पास	-306
ियों	-307
वन	-308
काम	-309
भू	-310
ोड	-311
जै	-312
▁'	-313
दर्	-314
चित	-315
राष्ट्र	-316
्यों	-317
ानी	-318
र्थ	-319
कारी	-320
भाग	-321
बु	-322
तीय	-323
बहुत	-324
त्व	-325
कम	-326
मह	-327
पूर्ण	-328
चाह	-329
विश्	-330
लय	-331
निक	-332
धान	-333
करण	-334
डि	-335
कों	-336
तरह	-337
दर	-338
पि	-339
वर्ष	-340
णा	-341
टि	-342
होने	-343
उन्होंने	-344
मत	-345
सम्	-346
मो	-347
हू	-348
हुआ	-349
गए	-350
सह	-351
गत	-352
मुख	-353
्रा	-354
नियम	-355
टर	-356
पे	-357
तुम्हारे	-358
दिन	-359
बो	-360
▁:	-361
चना	-362
▁¦19	-363
प्राप्त	-364
_¦	-365
▁¦_¦	-366
बार	-367
उनकी	-368
वं	-369
स्ता	-370
हमारे	-371
यदि	-372
तों	-373
जिन	-374
्रीय	-375
हमने	-376
मन	-377
ौर	-378
व्यक्ति	-379
चाहि	-380
राष्ट्रपति	-381
नाम	-382
अन्य	-383
वाला	-384
पर्	-385
यी	-386
हों	-387
होगा	-388
पहले	-389
्यू	-390
01	-391
ऐसे	-392
समा	-393
झे	-394
दूस	-395
हां	-396
5¦	-397
गई	-398
सभी	-399
ओर	-400
दन	-401
हाँ	-402
अच्छ	-403
राज्य	-404
एं	-405
▁%	-406
स्ट	-407
स्थान	-408
4¦	-409
न्या	-410
पड	-411
िति	-412
प्रकार	-413
एँ	-414
खु	-415
्रे	-416
लन	-417
बद	-418
संबंध	-419
सरकार	-420
सकते	-421
श्य	-422
कारण	-423
जाने	-424
बढ	-425
अगर	-426
समझ	-427
दार	-428
शेष	-429
भाव	-430
साम	-431
करे	-432
धन	-433
पूर्व	-434
धी	-435
धा	-436
ईमान	-437
चाहिए	-438
तन	-439
न्द	-440
होती	-441
सद	-442
वार	-443
सार	-444
किए	-445
इसके	-446
लिया	-447
ज्ञान	-448
योजना	-449
पो	-450
माण	-451
▁¦3	-452
अभि	-453
फल	-454
ऐसा	-455
गार	-456
ध्य	-457
भाष	-458
सर्	-459
उसकी	-460
क्रिया	-461
ट्	-462
क्यों	-463
करो	-464
रसू	-465
वै	-466
na	-467
डी	-468
यन	-469
दिखा	-470
ंच	-471
त्म	-472
क्रम	-473
द्योग	-474
जू	-475
युक्त	-476
भे	-477
▁𐊣	-478
व्या	-479
तः	-480
पहु	-481
हित	-482
मुझे	-483
यू	-484
निश्	-485
भारतीय	-486
ंक	-487
सो	-488
आई	-489
यर	-490
हे	-491
ठा	-492
स्तु	-493
जे	-494
वृ	-495
लगा	-496
विक	-497
रसूल	-498
प्रदान	-499
रब	-500
किन	-501
अब	-502
विका	-503
ीन	-504
लें	-505
हाय	-506
मंत्र	-507
प्रे	-508
▁¦1¦	-509
गो	-510
च्च	-511
मार्	-512
एवं	-513
क्षण	-514
विश्व	-515
पार	-516
बै	-517
विशेष	-518
अपना	-519
जाती	-520
होते	-521
आर	-522
विष	-523
दृ	-524
शो	-525
कृति	-526
उपयोग	-527
बन	-528
आधार	-529
पत्र	-530
विकास	-531
¦	-532
▁	-533
ा	-534
क	-535
र	-536
े	-537
्	-538
न	-539
ि	-540
स	-541
त	-542
ह	-543
ं	-544
ी	-545
म	-546
ो	-547
य	-548
प	-549
ल	-550
व	-551
द	-552
ज	-553
ु	-554
ग	-555
ब	-556
ै	-557
अ	-558
श	-559
ए	-560
च	-561
उ	-562
भ	-563
ू	-564
़	-565
।	-566
ट	-567
,	-568
थ	-569
औ	-570
ध	-571
ख	-572
आ	-573
ष	-574
ड	-575
इ	-576
ण	-577
फ	-578
(	-579
)	-580
.	-581
ई	-582
-	-583
छ	-584
ँ	-585
1	-586
ौ	-587
ृ	-588
0	-589
ओ	-590
ठ	-591
a	-592
e	-593
2	-594
i	-595
घ	-596
झ	-597
t	-598
ऐ	-599
n	-600
à	-601
𐋇	-602
o	-603
s	-604
ढ	-605
¤	-606
r	-607
ॉ	-608
ः	-609
"	-610
4	-611
9	-612
3	-613
/	-614
l	-615
m	-616
c	-617
5	-618
p	-619
?	-620
ञ	-621
'	-622
d	-623
;	-624
%	-625
6	-626
8	-627
h	-628
:	-629
ऊ	-630
7	-631
_	-632
u	-633
b	-634
𐊣	-635
𐊼	-636
g	-637
y	-638
ऑ	-639
!	-640
¥	-641
‍	-642
ऋ	-643
k	-644
f	-645
०	-646
w	-647
१	-648
#	-649
v	-650
‘	-651
”	-652
’	-653
>	-654
⁄	-655
&	-656
२	-657
x	-658
“	-659
<	-660
	-661
९	-662
३	-663
°	-664
५	-665
	-666
–	-667
	-668
	-669
६	-670
z	-671
८	-672
j	-673
४	-674
¿	-675
@	-676
+	-677
̧	-678
ॅ	-679
q	-680
{	-681
̈	-682
७	-683
\	-684
}	-685
]	-686
̄	-687
[	-688
®	-689
॰	-690
ङ	-691
μ	-692
	-693
$	-694
«	-695
	-696
	-697
¡	-698
¶	-699
—	-700
	-701
=	-702
¬	-703
	-704
	-705
	-706
ऍ	-707
ॆ	-708
	-709
ॊ	-710
ळ	-711
|	-712
~	-713
	-714
	-715
·	-716
é	-717
*	-718
	-719
£	-720
©	-721
॥	-722
	-723
§	-724
ऎ	-725
`	-726
¢	-727
	-728
	-729
̃	-730
	-731
	-732
	-733
	-734
	-735
×	-736
î	-737
ò	-738
þ	-739
ą	-740
ĺ	-741
ş	-742
ॄ	-743
॓	-744
‐	-745
₹	-746
