<pad>	0
</s>	0
<unk>	0
▁¦	-0
de	-1
▁𐋇	-2
▁,	-3
en	-4
oc	-5
ll	-6
an	-7
ar	-8
er	-9
och	-10
om	-11
tt	-12
▁.	-13
in	-14
ör	-15
är	-16
st	-17
ig	-18
sk	-19
för	-20
ti	-21
on	-22
ade	-23
ag	-24
till	-25
han	-26
all	-27
or	-28
som	-29
än	-30
ra	-31
et	-32
ed	-33
na	-34
vi	-35
ck	-36
så	-37
den	-38
el	-39
att	-40
av	-41
un	-42
der	-43
var	-44
det	-45
▁;	-46
ick	-47
da	-48
jag	-49
sa	-50
her	-51
herr	-52
▁:	-53
ing	-54
på	-55
fr	-56
ån	-57
skall	-58
ol	-59
va	-60
icke	-61
herren	-62
med	-63
hon	-64
ta	-65
pp	-66
▁𐊣	-67
du	-68
bl	-69
ut	-70
se	-71
▁»	-72
har	-73
ud	-74
rä	-75
dem	-76
ter	-77
dig	-78
ver	-79
där	-80
honom	-81
men	-82
äl	-83
då	-84
us	-85
sin	-86
äg	-87
upp	-88
kt	-89
es	-90
kom	-91
mo	-92
ka	-93
and	-94
ja	-95
si	-96
ung	-97
sig	-98
ju	-99
gud	-100
man	-101
mig	-102
ma	-103
eder	-104
ef	-105
sade	-106
ro	-107
år	-108
ss	-109
min	-110
från	-111
din	-112
åg	-113
över	-114
åt	-115
ri	-116
▁.»	-117
ty	-118
hade	-119
lig	-120
alla	-121
hans	-122
la	-123
jor	-124
is	-125
vid	-126
ett	-127
när	-128
it	-129
nu	-130
ur	-131
efter	-132
kon	-133
tta	-134
lä	-135
be	-136
bar	-137
sta	-138
skol	-139
hav	-140
le	-141
are	-142
li	-143
ga	-144
br	-145
konung	-146
olk	-147
itt	-148
folk	-149
bli	-150
gi	-151
re	-152
ning	-153
ock	-154
ba	-155
vad	-156
såsom	-157
ull	-158
män	-159
het	-160
▁?	-161
säg	-162
isra	-163
sam	-164
israel	-165
gen	-166
mot	-167
son	-168
hel	-169
ne	-170
må	-171
ska	-172
hö	-173
gör	-174
as	-175
någ	-176
allt	-177
ller	-178
dag	-179
hör	-180
fra	-181
gå	-182
dö	-183
of	-184
arna	-185
em	-186
barn	-187
fö	-188
skola	-189
ev	-190
detta	-191
äm	-192
hava	-193
ön	-194
dan	-195
hus	-196
og	-197
dr	-198
ras	-199
ens	-200
des	-201
eller	-202
mer	-203
fram	-204
skull	-205
yn	-206
erna	-207
ot	-208
deras	-209
te	-210
sina	-211
ort	-212
jäl	-213
gjor	-214
sl	-215
herrens	-216
vill	-217
ste	-218
jän	-219
oss	-220
nen	-221
här	-222
vara	-223
od	-224
vil	-225
tjän	-226
yck	-227
vit	-228
os	-229
tr	-230
väl	-231
mm	-232
vor	-233
ha	-234
få	-235
hu	-236
ni	-237
under	-238
israels	-239
jer	-240
ande	-241
edan	-242
göra	-243
inn	-244
vå	-245
mitt	-246
ord	-247
und	-248
▁'	-249
säger	-250
ken	-251
tag	-252
land	-253
andra	-254
genom	-255
al	-256
rätt	-257
kun	-258
vän	-259
sitt	-260
dina	-261
skulle	-262
själ	-263
äng	-264
äro	-265
ingen	-266
bliva	-267
komma	-268
ul	-269
del	-270
stä	-271
trä	-272
blev	-273
kr	-274
ifrån	-275
ader	-276
utan	-277
str	-278
ned	-279
någon	-280
ber	-281
vär	-282
yg	-283
bet	-284
kan	-285
lå	-286
fer	-287
sedan	-288
iga	-289
tal	-290
stad	-291
offer	-292
syn	-293
hå	-294
fa	-295
jär	-296
vet	-297
ly	-298
sön	-299
brö	-300
hen	-301
ab	-302
ft	-303
sten	-304
voro	-305
jo	-306
pa	-307
hand	-308
mn	-309
dess	-310
svar	-311
else	-312
konungen	-313
fader	-314
ätt	-315
männi	-316
hi	-317
dessa	-318
guds	-319
bort	-320
ann	-321
david	-322
tid	-323
folket	-324
ång	-325
därför	-326
bland	-327
väg	-328
mina	-329
ditt	-330
ena	-331
lö	-332
eg	-333
hela	-334
kte	-335
lj	-336
mån	-337
stor	-338
skolen	-339
lat	-340
sp	-341
inför	-342
fär	-343
jes	-344
ott	-345
gon	-346
rö	-347
lla	-348
herre	-349
giva	-350
jorden	-351
vin	-352
svarade	-353
hög	-354
lan	-355
dde	-356
först	-357
prä	-358
sen	-359
nes	-360
ukt	-361
gjorde	-362
far	-363
tet	-364
sän	-365
lag	-366
läg	-367
söner	-368
vä	-369
ligen	-370
▁-	-371
vår	-372
juda	-373
gick	-374
fä	-375
fi	-376
▁!	-377
namn	-378
beg	-379
bo	-380
ära	-381
människ	-382
något	-383
▁--	-384
hur	-385
tog	-386
aden	-387
mi	-388
tjänare	-389
lo	-390
lem	-391
ia	-392
mose	-393
mar	-394
hjär	-395
▁?»	-396
låt	-397
usa	-398
kommer	-399
ker	-400
fy	-401
ser	-402
slä	-403
ej	-404
huru	-405
skap	-406
blivit	-407
åd	-408
jesus	-409
jerusa	-410
nas	-411
éerna	-412
jerusalem	-413
je	-414
färdig	-415
ho	-416
sö	-417
stå	-418
nar	-419
gr	-420
yp	-421
edra	-422
henne	-423
ko	-424
lar	-425
landet	-426
star	-427
ger	-428
byg	-429
ten	-430
drag	-431
mmel	-432
får	-433
förb	-434
säga	-435
egyp	-436
am	-437
himmel	-438
gjort	-439
åter	-440
sä	-441
lät	-442
pro	-443
ster	-444
två	-445
går	-446
ögon	-447
sal	-448
fört	-449
själv	-450
gär	-451
ända	-452
sju	-453
denna	-454
at	-455
låta	-456
vatt	-457
dagen	-458
sådan	-459
ven	-460
nat	-461
frukt	-462
me	-463
gav	-464
änder	-465
fet	-466
kta	-467
dom	-468
mä	-469
baka	-470
hos	-471
bå	-472
rar	-473
hund	-474
satt	-475
liga	-476
rättfärdig	-477
skri	-478
tillbaka	-479
vis	-480
ställ	-481
ningar	-482
bes	-483
därefter	-484
ds	-485
höra	-486
haven	-487
svär	-488
ve	-489
hustr	-490
taga	-491
stod	-492
denne	-493
profet	-494
myck	-495
klä	-496
ännu	-497
öd	-498
bliver	-499
bel	-500
go	-501
hundra	-502
liv	-503
komm	-504
kunna	-505
också	-506
lade	-507
tro	-508
bor	-509
tar	-510
intet	-511
hem	-512
räck	-513
jäm	-514
dju	-515
ren	-516
hjärta	-517
bed	-518
fråg	-519
ansi	-520
tio	-521
samman	-522
kommit	-523
lik	-524
rik	-525
jud	-526
bröder	-527
samma	-528
huv	-529
emot	-530
slag	-531
talade	-532
lighet	-533
människor	-534
im	-535
dit	-536
nade	-537
fem	-538
lär	-539
fly	-540
lika	-541
kring	-542
tus	-543
berg	-544
ligt	-545
ighet	-546
kö	-547
eftersom	-548
föra	-549
tju	-550
ingo	-551
fri	-552
brän	-553
rist	-554
tusen	-555
dar	-556
bud	-557
dro	-558
mma	-559
äta	-560
full	-561
stra	-562
kän	-563
följ	-564
staden	-565
tän	-566
åstad	-567
kvar	-568
il	-569
bro	-570
många	-571
tit	-572
terna	-573
försam	-574
tala	-575
kor	-576
nad	-577
sag	-578
hålla	-579
stri	-580
ling	-581
plat	-582
uld	-583
allena	-584
kro	-585
omkring	-586
hä	-587
fick	-588
sak	-589
givit	-590
skar	-591
krist	-592
ansikte	-593
bef	-594
förde	-595
finn	-596
dagar	-597
vatten	-598
håll	-599
städer	-600
kommo	-601
himmelen	-602
dock	-603
edom	-604
såg	-605
jung	-606
igt	-607
tan	-608
rop	-609
vinn	-610
▁.'	-611
san	-612
fara	-613
ons	-614
gä	-615
sammans	-616
kär	-617
vem	-618
fast	-619
fäder	-620
igen	-621
vare	-622
hjäl	-623
mor	-624
gu	-625
mycket	-626
unn	-627
gång	-628
ben	-629
fräl	-630
sagt	-631
bör	-632
ner	-633
tre	-634
rå	-635
red	-636
präst	-637
eld	-638
sar	-639
näm	-640
hustru	-641
saul	-642
vitt	-643
sände	-644
hörde	-645
måste	-646
läng	-647
huvud	-648
pen	-649
mannen	-650
dd	-651
kob	-652
jakob	-653
fin	-654
tiden	-655
eli	-656
ske	-657
mun	-658
salom	-659
allenast	-660
tter	-661
bu	-662
döda	-663
hennes	-664
broder	-665
stora	-666
ets	-667
stån	-668
synd	-669
prästen	-670
höj	-671
vre	-672
sätt	-673
låg	-674
bygg	-675
våra	-676
kvinn	-677
händer	-678
ades	-679
els	-680
hag	-681
net	-682
blod	-683
varför	-684
moder	-685
kar	-686
kall	-687
svärd	-688
födde	-689
erligen	-690
dda	-691
port	-692
vilken	-693
djur	-694
arbet	-695
finnes	-696
främ	-697
enbar	-698
uppenbar	-699
ppar	-700
fall	-701
vilka	-702
äck	-703
dakt	-704
vilja	-705
fur	-706
före	-707
visa	-708
ans	-709
guld	-710
verk	-711
heller	-712
um	-713
nåd	-714
både	-715
ville	-716
fatt	-717
kött	-718
orna	-719
ff	-720
häm	-721
rade	-722
männen	-723
van	-724
seba	-725
glä	-726
pel	-727
mör	-728
dens	-729
nä	-730
teck	-731
bära	-732
bär	-733
natt	-734
plats	-735
sil	-736
själva	-737
gott	-738
drick	-739
drä	-740
gar	-741
fien	-742
tron	-743
gärningar	-744
ld	-745
kunde	-746
fili	-747
ad	-748
höv	-749
jon	-750
bba	-751
trö	-752
levi	-753
satte	-754
sy	-755
stam	-756
styck	-757
heliga	-758
ige	-759
välsig	-760
egypten	-761
gingo	-762
lu	-763
ring	-764
försk	-765
blevo	-766
varit	-767
föll	-768
död	-769
jämte	-770
kristus	-771
gläd	-772
kra	-773
röst	-774
hed	-775
makt	-776
giver	-777
nämligen	-778
skö	-779
otter	-780
står	-781
sidan	-782
vända	-783
ogu	-784
ogudakt	-785
ygg	-786
draga	-787
morgon	-788
prästerna	-789
ham	-790
fått	-791
sj	-792
gått	-793
rättfärdighet	-794
vag	-795
bränn	-796
framför	-797
for	-798
fördär	-799
sky	-800
abra	-801
öj	-802
offr	-803
onde	-804
konungens	-805
leva	-806
veta	-807
altar	-808
gudar	-809
aren	-810
helg	-811
dotter	-812
kläder	-813
hit	-814
oren	-815
vinna	-816
by	-817
begyn	-818
sex	-819
annan	-820
silver	-821
sån	-822
dött	-823
kraft	-824
råd	-825
dra	-826
ök	-827
huset	-828
éernas	-829
ont	-830
drog	-831
höll	-832
miss	-833
förstån	-834
fyra	-835
ången	-836
filist	-837
förbund	-838
vr	-839
rätta	-840
lev	-841
öm	-842
ningen	-843
lärjung	-844
sn	-845
llan	-846
havet	-847
vidare	-848
öpp	-849
båda	-850
kalla	-851
sätta	-852
alltså	-853
bjud	-854
undan	-855
nej	-856
kten	-857
frågade	-858
ry	-859
slog	-860
tens	-861
onda	-862
ny	-863
egyptens	-864
sef	-865
diga	-866
träd	-867
kropp	-868
fru	-869
funn	-870
vrede	-871
sådant	-872
yr	-873
ffa	-874
vägen	-875
len	-876
hövd	-877
vände	-878
sebaot	-879
ki	-880
ljus	-881
behag	-882
medan	-883
ua	-884
has	-885
ving	-886
ke	-887
gat	-888
▁»,	-889
stör	-890
lägga	-891
ban	-892
arve	-893
talat	-894
arvedel	-895
skil	-896
ycka	-897
to	-898
ts	-899
pet	-900
människa	-901
varandra	-902
vo	-903
konungar	-904
tack	-905
io	-906
sla	-907
ären	-908
jut	-909
bröd	-910
aron	-911
dör	-912
per	-913
inne	-914
run	-915
låtit	-916
tjugu	-917
jas	-918
barns	-919
lång	-920
bi	-921
vand	-922
läm	-923
mur	-924
äld	-925
josef	-926
lov	-927
sik	-928
offra	-929
öknen	-930
davids	-931
tjänst	-932
best	-933
he	-934
abraham	-935
reger	-936
bjudit	-937
val	-938
sång	-939
fiender	-940
bon	-941
mande	-942
salomo	-943
fann	-944
några	-945
sönder	-946
ek	-947
bod	-948
ältet	-949
döttrar	-950
människo	-951
profeter	-952
härlighet	-953
tillsammans	-954
giv	-955
digt	-956
falla	-957
förut	-958
dri	-959
fyll	-960
mäkt	-961
låter	-962
fyr	-963
bred	-964
runt	-965
mellan	-966
hjärtan	-967
nelse	-968
likasom	-969
sid	-970
hopp	-971
babel	-972
mmar	-973
värl	-974
rus	-975
räk	-976
förl	-977
kter	-978
tung	-979
fäng	-980
jord	-981
alnar	-982
arnas	-983
gn	-984
vart	-985
boskap	-986
hövding	-987
helgedom	-988
brännoffer	-989
ål	-990
därav	-991
fräls	-992
ende	-993
hört	-994
krig	-995
släkt	-996
kallade	-997
länge	-998
tol	-999
kvinna	-1000
ang	-1001
älsk	-1002
bodde	-1003
grä	-1004
tor	-1005
stade	-1006
ropade	-1007
veder	-1008
faders	-1009
jos	-1010
söka	-1011
viss	-1012
elser	-1013
bön	-1014
ika	-1015
tem	-1016
befall	-1017
altaret	-1018
häl	-1019
▁!»	-1020
ängel	-1021
orätt	-1022
folken	-1023
förskräck	-1024
kärle	-1025
redan	-1026
håller	-1027
stö	-1028
bä	-1029
given	-1030
marken	-1031
sett	-1032
togo	-1033
dat	-1034
därtill	-1035
god	-1036
hop	-1037
slut	-1038
josua	-1039
dricka	-1040
hän	-1041
pri	-1042
lipp	-1043
trett	-1044
gärning	-1045
mö	-1046
nor	-1047
fötter	-1048
äldste	-1049
hår	-1050
sor	-1051
strid	-1052
natten	-1053
därpå	-1054
fingo	-1055
följde	-1056
släkte	-1057
därifrån	-1058
stan	-1059
kasta	-1060
första	-1061
moab	-1062
utt	-1063
vån	-1064
mmal	-1065
döden	-1066
helig	-1067
rädda	-1068
gammal	-1069
let	-1070
vilk	-1071
farao	-1072
skam	-1073
jordan	-1074
månaden	-1075
pi	-1076
das	-1077
stygg	-1078
rän	-1079
efra	-1080
klag	-1081
överste	-1082
fot	-1083
jamin	-1084
glädje	-1085
jordens	-1086
vittnes	-1087
hor	-1088
goda	-1089
rike	-1090
edert	-1091
säd	-1092
hjälp	-1093
tagit	-1094
vittnesbör	-1095
fte	-1096
led	-1097
vat	-1098
edje	-1099
mått	-1100
skaffa	-1101
ru	-1102
besitt	-1103
jen	-1104
sår	-1105
fjär	-1106
hören	-1107
stodo	-1108
frukta	-1109
sm	-1110
fråga	-1111
ligger	-1112
tredje	-1113
bry	-1114
sann	-1115
känna	-1116
ningarna	-1117
bad	-1118
tolv	-1119
talar	-1120
ill	-1121
kam	-1122
par	-1123
alltid	-1124
ternas	-1125
föl	-1126
hung	-1127
ytter	-1128
berget	-1129
tjänar	-1130
leviterna	-1131
sol	-1132
annat	-1133
elset	-1134
lingen	-1135
po	-1136
gra	-1137
slå	-1138
sons	-1139
utro	-1140
lever	-1141
kommen	-1142
frid	-1143
ryck	-1144
bygga	-1145
hämta	-1146
benjamin	-1147
besittning	-1148
hug	-1149
kal	-1150
högra	-1151
hal	-1152
övr	-1153
efraim	-1154
vandra	-1155
vishet	-1156
kvinnor	-1157
nå	-1158
lamm	-1159
tare	-1160
sabba	-1161
tager	-1162
fl	-1163
sel	-1164
sänt	-1165
elsen	-1166
bätt	-1167
skyn	-1168
snar	-1169
spis	-1170
evinn	-1171
evinnerligen	-1172
iten	-1173
stånd	-1174
kärlek	-1175
nöd	-1176
rör	-1177
ibland	-1178
tempel	-1179
ställde	-1180
världen	-1181
gam	-1182
tra	-1183
förs	-1184
skän	-1185
lingar	-1186
ene	-1187
drig	-1188
mark	-1189
anden	-1190
est	-1191
tes	-1192
uel	-1193
gåvo	-1194
berna	-1195
tecken	-1196
mod	-1197
hett	-1198
begär	-1199
johan	-1200
larna	-1201
älska	-1202
fruktan	-1203
ften	-1204
strö	-1205
tade	-1206
vits	-1207
vårt	-1208
ligga	-1209
nings	-1210
stadgar	-1211
ge	-1212
oni	-1213
fröj	-1214
låten	-1215
aldrig	-1216
synder	-1217
konungs	-1218
bru	-1219
aram	-1220
ulus	-1221
drogo	-1222
sådana	-1223
missgärning	-1224
akt	-1225
fta	-1226
mat	-1227
vägar	-1228
offret	-1229
begynte	-1230
bil	-1231
lagen	-1232
paulus	-1233
släkter	-1234
fött	-1235
straff	-1236
bj	-1237
sim	-1238
kade	-1239
dande	-1240
hövits	-1241
ass	-1242
bas	-1243
döds	-1244
bedja	-1245
livet	-1246
intill	-1247
gas	-1248
barm	-1249
olja	-1250
våld	-1251
koppar	-1252
ark	-1253
egen	-1254
lott	-1255
förni	-1256
skatt	-1257
utval	-1258
övriga	-1259
hy	-1260
fåg	-1261
fanns	-1262
gören	-1263
petrus	-1264
lärjungar	-1265
grän	-1266
vädu	-1267
ligare	-1268
länder	-1269
furstar	-1270
juta	-1271
tagen	-1272
mär	-1273
beam	-1274
dade	-1275
lämn	-1276
sjun	-1277
täck	-1278
manas	-1279
stället	-1280
so	-1281
aft	-1282
amm	-1283
res	-1284
ski	-1285
andre	-1286
fastän	-1287
finnas	-1288
trädde	-1289
skrivet	-1290
vattnet	-1291
förstånd	-1292
lju	-1293
uck	-1294
väx	-1295
ått	-1296
levande	-1297
sannerligen	-1298
fång	-1299
jesu	-1300
skör	-1301
kristi	-1302
manasse	-1303
esa	-1304
afton	-1305
bestäm	-1306
förkun	-1307
profeten	-1308
skyl	-1309
steg	-1310
ting	-1311
flo	-1312
sti	-1313
boning	-1314
olycka	-1315
förnimma	-1316
himmelens	-1317
slu	-1318
utg	-1319
dräp	-1320
invån	-1321
jerem	-1322
klipp	-1323
sonen	-1324
sända	-1325
asa	-1326
fal	-1327
skå	-1328
förrän	-1329
förtör	-1330
tillhör	-1331
filistéerna	-1332
gla	-1333
varda	-1334
arbete	-1335
uppenbarelset	-1336
ok	-1337
öl	-1338
gile	-1339
huvu	-1340
vakt	-1341
lejon	-1342
däri	-1343
järn	-1344
skur	-1345
igenom	-1346
mycken	-1347
hustrur	-1348
akta	-1349
ände	-1350
finna	-1351
menighet	-1352
inga	-1353
joab	-1354
därmed	-1355
egypti	-1356
porten	-1357
vingår	-1358
sida	-1359
annade	-1360
uppfyll	-1361
blo	-1362
ret	-1363
vore	-1364
slakt	-1365
tjäna	-1366
församling	-1367
stol	-1368
befallning	-1369
fat	-1370
bjöd	-1371
likväl	-1372
visade	-1373
ält	-1374
fami	-1375
härt	-1376
lyss	-1377
barmhärt	-1378
allasammans	-1379
mål	-1380
rök	-1381
nära	-1382
hette	-1383
samuel	-1384
hedningarna	-1385
gås	-1386
rev	-1387
▁',	-1388
bäck	-1389
områ	-1390
skär	-1391
öster	-1392
iterna	-1393
fördärv	-1394
flö	-1395
åker	-1396
gamla	-1397
skuld	-1398
stort	-1399
uppstå	-1400
johannes	-1401
ytterligare	-1402
gån	-1403
kas	-1404
ahas	-1405
enda	-1406
förö	-1407
sorg	-1408
kvinnan	-1409
stycken	-1410
no	-1411
ran	-1412
asar	-1413
baal	-1414
lust	-1415
långt	-1416
samar	-1417
strax	-1418
fadern	-1419
stenar	-1420
mas	-1421
ond	-1422
isak	-1423
kros	-1424
hunger	-1425
högtid	-1426
tänkte	-1427
jeremia	-1428
frälsning	-1429
sågo	-1430
riket	-1431
höjder	-1432
känner	-1433
kastade	-1434
mön	-1435
inna	-1436
plan	-1437
slags	-1438
svara	-1439
¦	-1440
▁	-1441
a	-1442
e	-1443
n	-1444
r	-1445
t	-1446
s	-1447
d	-1448
l	-1449
o	-1450
i	-1451
h	-1452
m	-1453
g	-1454
k	-1455
𐋇	-1456
v	-1457
ä	-1458
f	-1459
u	-1460
å	-1461
c	-1462
,	-1463
ö	-1464
b	-1465
j	-1466
p	-1467
.	-1468
y	-1469
»	-1470
;	-1471
:	-1472
𐊣	-1473
𐊼	-1474
?	-1475
-	-1476
'	-1477
é	-1478
!	-1479
x	-1480
(	-1481
)	-1482
2	-1483
0	-1484
4	-1485
6	-1486
1	-1487
8	-1488
9	-1489
ó	-1490
3	-1491
5	-1492
7	-1493
í	-1494
]	-1495
á	-1496
