<pad>	0
</s>	0
<unk>	0
¦	-1.2879
▁¦	-1.28959
ܐ	-2.56998
ܘܢ	-4.53754
ܘ	-4.63738
ܗܘ	-4.74832
ܠܐ	-4.85422
ܗ	-4.86088
ܡܢ	-4.95818
ܠܗ	-4.96028
ܢ	-5.03148
ܝܢ	-5.08307
ܕ	-5.087
ܕܝܢ	-5.19793
ܝ	-5.34043
ܠ	-5.42601
ܘܗܝ	-5.60407
ܐܢܐ	-5.6958
ܟܘܢ	-5.7583
ܥܠ	-5.78806
ܫܘܥ	-5.86278
ܓܝܪ	-5.88024
ܬܐ	-5.9027
ܐܡܪ	-5.97445
ܒ	-6.02363
ܗܘܢ	-6.06115
ܘܐܡܪ	-6.12293
ܐܝܟ	-6.19327
ܗܘܘ	-6.19888
ܘܠܐ	-6.20465
ܬ	-6.22205
ܕܠܐ	-6.22738
ܟܕ	-6.24582
ܢܬܘܢ	-6.29445
ܠܟ	-6.32969
ܐܝܬ	-6.33021
ܢܘܢ	-6.34405
ܡܛܠ	-6.38691
ܐܦ	-6.39872
ܠܝ	-6.40706
ܟܠ	-6.42293
ܢܐ	-6.43856
ܐܢܬ	-6.43965
ܚܕ	-6.45689
ܗܝ	-6.47307
ܕܐܠܗ	-6.49669
ܝܠܝܢ	-6.50416
ܒܗ	-6.54954
ܗܢ	-6.56456
ܡܕܡ	-6.61815
ܡܐ	-6.62722
ܠܝܢ	-6.63072
ܕܐ	-6.69396
ܡ	-6.70042
ܡܫܝܚ	-6.74251
ܘܤ	-6.76661
ܐܢܫ	-6.76745
ܥܡ	-6.84151
ܘܟܕ	-6.84881
ܟܠܗ	-6.87433
ܐܢ	-6.90107
ܫܐ	-6.91042
ܠܘܬ	-6.91061
ܥܒܕ	-6.93938
ܐܠܗ	-6.98694
ܘܬܐ	-7.02209
ܕܐܝܬ	-7.09624
ܟ	-7.18231
ܘܡܢ	-7.18252
ܡܪܢ	-7.1897
ܠܢ	-7.20546
ܟܝܠ	-7.22087
ܕܡܢ	-7.2244
ܪܘܚ	-7.2746
ܤܓܝܐ	-7.27824
ܗܘܝܬ	-7.29947
ܗܘܬ	-7.30035
ܠܡ	-7.30425
ܩܕܡ	-7.34245
ܫܠܡ	-7.35245
ܢܗܘ	-7.35606
ܐܝܟܢ	-7.35723
ܓܒܪ	-7.36835
ܗܟܢ	-7.37788
ܒܝܬ	-7.41837
ܚܝ	-7.42686
ܕܝ	-7.43316
ܗܕ	-7.43523
ܒܢܝ	-7.43573
ܐܡܪܝܢ	-7.44085
ܝܕܥ	-7.44321
ܘܐܢ	-7.47249
ܙܒܢ	-7.47419
ܚܢܢ	-7.48614
ܥܕ	-7.50643
ܡܪܝ	-7.50891
ܘܠ	-7.53493
ܐܪܥ	-7.59738
ܒܪܗ	-7.5988
ܐܬܐ	-7.60604
ܕܡܐ	-7.60639
ܥܡܗ	-7.60918
ܒܪ	-7.61059
ܢܫܐ	-7.61974
ܬܡܢ	-7.64706
ܝܐ	-7.66263
ܬܠܡܝܕ	-7.67144
ܥ	-7.6876
ܡܢܗ	-7.68882
ܘܒ	-7.70841
ܕܢ	-7.7398
ܠܐܠܗ	-7.74187
ܬܘܒ	-7.74274
ܠܥܠܡ	-7.75414
ܫܡܥܘܢ	-7.77613
ܪܐ	-7.79263
ܒܝ	-7.79265
ܘܐ	-7.80124
ܫܡܝ	-7.80415
ܝܕܥܝܢ	-7.80928
ܡܠܬ	-7.81687
ܐܚܪܢ	-7.82039
ܢܝ	-7.8309
ܝܘܡ	-7.83631
ܡܝܬ	-7.83669
ܐܡܝܢ	-7.84564
ܘܗ	-7.8522
ܝܗܝ	-7.86003
ܚܙܐ	-7.87912
ܕܐܡܪ	-7.89543
ܒܐ	-7.89958
ܕܐܦ	-7.91839
ܡܫܟܚ	-7.93997
ܕܗܘ	-7.94258
ܝܗܘܕܝ	-7.94279
ܠܝܬ	-7.9503
ܛܒ	-7.95973
ܘܥܠ	-7.96058
ܒܟܠ	-7.97129
ܟܐܦ	-7.9723
ܕܐܢ	-7.98266
ܕܒ	-7.99147
ܟܢܫ	-7.99448
ܝܬܝܪ	-8.00983
ܘܚܢܢ	-8.01286
ܘܗܘ	-8.01739
ܨܒܐ	-8.01908
ܠܒܪ	-8.02466
ܠܘܬܗ	-8.02946
ܡܠܐܟ	-8.03256
ܐܙܠ	-8.03546
ܢܦܫܗ	-8.04648
ܢܡܘܤ	-8.04845
ܡܢܐ	-8.05542
ܪܒܐ	-8.05828
ܦ	-8.07486
ܥܢ	-8.07882
ܚܐ	-8.0941
ܘܟܠ	-8.0956
ܬܪܝܢ	-8.09857
ܤ	-8.10497
ܕܐܢܫ	-8.11415
ܡܠܟ	-8.11431
ܟܗܢ	-8.12923
ܕܗ	-8.14282
ܕܟܠ	-8.14708
ܬܗܘ	-8.14748
ܕܥܒܕ	-8.15692
ܐܚܝ	-8.17235
ܥܠܝ	-8.17345
ܒܬܪ	-8.18221
ܒܟܘܢ	-8.18553
ܕܡ	-8.19149
ܒܠܚܘܕ	-8.2054
ܘܐܝܬ	-8.20584
ܐܢܬܬ	-8.23014
ܡܕܝܢܬ	-8.2312
ܠܚܡ	-8.23152
ܫܥܬ	-8.24174
ܡܗܝܡܢ	-8.24751
ܥܠܡ	-8.24882
ܘܕ	-8.24999
ܕܢܗܘ	-8.25866
ܕܩܘ	-8.26893
ܒܥܐ	-8.27021
ܘܐܦ	-8.27118
ܩܕܝܫ	-8.29256
ܬܗ	-8.29568
ܒܪܘܚ	-8.29851
ܢܒܝ	-8.29993
ܕܡܫܝܚ	-8.30191
ܪܒ	-8.30749
ܗܘܝ	-8.31986
ܡܬ	-8.33762
ܥܠܝܗ	-8.34278
ܘܡ	-8.3443
ܩܠܐ	-8.34472
ܢܫ	-8.35104
ܐܝܬܝܗ	-8.35179
ܩܕܡܝ	-8.35251
▁	-8.35289
ܕܫܐ	-8.36109
ܛ	-8.36618
ܬܘܢ	-8.37781
ܐܒܐ	-8.37929
ܦܪܝܫ	-8.38223
ܕܡܪܝ	-8.38457
ܕܬ	-8.39239
ܠܡܐ	-8.39454
ܝܗܒ	-8.39521
ܡܢܘ	-8.39673
ܟܬܒ	-8.39884
ܛܝܒܘܬ	-8.40161
ܡܡܠܠ	-8.40422
ܕܠܡܐ	-8.41445
ܪܒܝ	-8.41482
ܗܝܡܢܘܬ	-8.42097
ܗܘܝܢ	-8.4233
ܕܚܝ	-8.42414
ܫܦܝܪ	-8.42671
ܘܐܙܠ	-8.43622
ܫܒܥ	-8.4402
ܡܠܐ	-8.44153
ܕܒܗ	-8.44757
ܝܠ	-8.45743
ܒܗܝܡܢܘܬ	-8.45749
ܝܬܐ	-8.46228
ܕܐܬܐ	-8.46861
ܘܠܘܤ	-8.47803
ܥܡܡ	-8.48331
ܒܝܕ	-8.48457
ܢܦܩ	-8.49279
ܚܙܘ	-8.49451
ܫܡܥ	-8.49719
ܥܡܐ	-8.50507
ܚܠܦ	-8.50878
ܠܚܕ	-8.51148
ܥܘܠ	-8.51658
ܦܓܪ	-8.51775
ܕܥܠ	-8.52145
ܩܐ	-8.52318
ܘܐܬܐ	-8.53256
ܒܫܡܝ	-8.53369
ܩܡ	-8.53661
ܨܒܝܢ	-8.55936
ܒܢ	-8.56705
ܐܤܝܪ	-8.568
ܗܢܘ	-8.5723
ܟܡܐ	-8.57693
ܩܪܒ	-8.57978
ܤܓܝ	-8.58928
ܝܡܐ	-8.59351
ܒܝܫܬ	-8.59765
ܠܡܢ	-8.60395
ܢܦܫ	-8.60419
ܬܠܬ	-8.60629
ܝܘܡܬ	-8.60777
ܡܘܫ	-8.61463
ܕܥܠܡ	-8.6166
ܠܒܝܬ	-8.62694
ܤܒܪ	-8.62955
ܬܪܥ	-8.63681
ܦܐܪ	-8.63944
ܚܝܬ	-8.63969
ܩܘܒ	-8.6404
ܡܫܟܚܝܢ	-8.6522
ܝܬ	-8.6529
ܚܛܝܬ	-8.65347
ܦܘܩܕܢ	-8.65586
ܒܪܢܫ	-8.65947
ܦܘܠ	-8.66868
ܐܝܕ	-8.67063
ܩܠܝܠ	-8.67153
ܪܚܡ	-8.67557
ܐܬܘ	-8.68548
ܗܠܝ	-8.68966
ܕܥܡ	-8.69157
ܕܪܘܚ	-8.69757
ܕܠ	-8.71298
ܠܗܘ	-8.71517
ܕܟܬܝܒ	-8.71698
ܪܫ	-8.71758
ܩܪܐ	-8.71792
ܐܚܘܗܝ	-8.71796
ܒܝܫܐ	-8.71815
ܩܝܡܝܢ	-8.71832
ܥܠܝܟ	-8.72054
ܘܝ	-8.72462
ܡܠܟܘܬ	-8.72518
ܢܤܒ	-8.72884
ܫ	-8.72923
ܐܒܝ	-8.72967
ܚܘܒ	-8.74297
ܝܡܝܢ	-8.74618
ܡܘܬ	-8.74895
ܘܩܕܡ	-8.74967
ܥܝܢ	-8.75194
ܘܬ	-8.75735
ܛܒܬ	-8.75755
ܪܡܐ	-8.76162
ܙܪܥ	-8.76211
ܘܝܗܒ	-8.76517
ܝܬܘܢ	-8.76742
ܫܡܥܘ	-8.76998
ܒܟܠܗ	-8.77205
ܒܬܪܗ	-8.777
ܦܝܠ	-8.78211
ܒܥܝܢ	-8.78573
ܥܒܕܝܢ	-8.78619
ܕܝܠܝ	-8.78674
ܡܬܝ	-8.7887
ܕܐܝܬܝܗ	-8.78964
ܫܘܠܛܢ	-8.79427
ܤܦܪ	-8.80045
ܕܫܡܝ	-8.80122
ܘܐܬܘ	-8.81601
ܡܠܠ	-8.82571
ܢܦܫܟ	-8.82595
ܠܐܘܪ	-8.8279
ܠܟܠ	-8.82855
ܡܪ	-8.82981
ܢܦܠ	-8.83364
ܘܢܦܩ	-8.83709
ܢܘܪ	-8.83869
ܕܝܗܘܕܝ	-8.84299
ܥܒܪ	-8.84516
ܫܒܩ	-8.84548
ܠܓܒܪ	-8.85309
ܕܚܕ	-8.85781
ܕܐܪܥ	-8.87043
ܠܬܠܡܝܕ	-8.87849
ܕܝܠܗ	-8.88516
ܕܒܢܝ	-8.8864
ܐܬܪ	-8.88956
ܐܡܪܬ	-8.89031
ܡܝ	-8.8979
ܕܠܝܬ	-8.8993
ܫܕܪ	-8.90496
ܪܒܬ	-8.91381
ܘܩܡ	-8.92314
ܡܟܝܠ	-8.92513
ܥܡܝ	-8.92616
ܚܛܗ	-8.92801
ܒܝܘܡ	-8.92866
ܓܠܝ	-8.92968
ܫܠܝܚ	-8.93118
ܕܫܡܗ	-8.93207
ܘܡܐ	-8.93242
ܕܐܝܟ	-8.93985
ܕܡܝ	-8.95068
ܕܟܕ	-8.9525
ܕܥܬܝܕ	-8.95306
ܠܘܩܒܠ	-8.95393
ܫܪܐ	-8.95401
ܐܝܤܪ	-8.95488
ܕܡܘܬ	-8.95813
ܚܕܬܐ	-8.96467
ܘܐܝܟ	-8.96573
ܒܐܦ	-8.96812
ܫܠܝܛ	-8.97087
ܚܡܫ	-8.97452
ܟܬܝܒ	-8.97482
ܘܟܠܗ	-8.97625
ܕܬܗܘ	-8.98619
ܕܝܗܒ	-8.98959
ܢܘܗܪ	-8.98965
ܒܐܝܕܗ	-8.99245
ܠܚܝ	-8.99433
ܚܪܝܢ	-9.00045
ܢܚܬ	-9.00146
ܛܠܝ	-9.00368
ܕܝܠܟ	-9.01698
ܒܝܢܬ	-9.01764
ܫܪܝܪ	-9.02342
ܐܬܝܢ	-9.02691
ܒܝܡ	-9.03045
ܒܫܠܡ	-9.03115
ܐܝܕܗ	-9.0345
ܠܝܐ	-9.03464
ܬܪܥܤܪ	-9.0387
ܫܢܝܢ	-9.03903
ܫܡܗ	-9.04001
ܝܕܐ	-9.04042
ܚܫܘܟ	-9.04144
ܟܝ	-9.04684
ܐܪܒܥ	-9.048
ܫܘ	-9.0497
ܒܥܠ	-9.05357
ܥܤܪ	-9.06468
ܘܒܗ	-9.06919
ܗܪܟ	-9.07021
ܦܠܚ	-9.07127
ܩܕܝ	-9.07435
ܤܗܕ	-9.07853
ܕܒܝܬ	-9.08068
ܬܫܒܘܚܬ	-9.08619
ܕܫܡܥ	-9.08759
ܨܒܝܢܗ	-9.09094
ܪܓܠ	-9.09118
ܘܤܦ	-9.09297
ܒܪܐ	-9.09836
ܕܝܬܒ	-9.10071
ܘܫܪܝ	-9.10461
ܕܓܠ	-9.10465
ܠܝܘܡ	-9.10598
ܙܥܘܪ	-9.10755
ܠܥܡ	-9.11111
ܕܡܬܩܪ	-9.11302
ܪ	-9.11368
ܐܡܪܘ	-9.11727
ܤܠܩ	-9.12359
ܠܟܠܗ	-9.1237
ܐܘܠܕ	-9.1246
ܐܘܪܚ	-9.12518
ܐܘܪ	-9.12969
ܡܪܝܡ	-9.13132
ܒܫܡܗ	-9.13514
ܘܬܘܒ	-9.13674
ܩܫܝܫ	-9.14126
ܩܪܒܘ	-9.14132
ܕܪܒ	-9.14576
ܡܡܠܠܝܢ	-9.14753
ܒܗܝܟܠ	-9.15345
ܠܥܠ	-9.15604
ܫܪܪ	-9.1572
ܒܥ	-9.16765
ܕܒܪ	-9.16775
ܠܐܢܫ	-9.16843
ܫܡܥܝܢ	-9.16998
ܐܝܕܝ	-9.17027
ܤܡ	-9.17075
ܥܬܝܕ	-9.17218
ܙܠ	-9.17684
ܩܥ	-9.1772
ܒܚܕ	-9.17812
ܫܪܟ	-9.17833
ܕܒܫܡܝ	-9.18142
ܤܓܝܐܬ	-9.18206
ܥܕܬ	-9.1824
ܚܡܪ	-9.18565
ܘܐܚܪܢ	-9.18659
ܟܘܪܤܝ	-9.18801
ܐܒܘܗܝ	-9.18847
ܘܒܪ	-9.19051
ܐܝܬܝ	-9.19178
ܒܐܘܪܚ	-9.1926
ܠܡܐܡܪ	-9.19266
ܡܠܟܘܬܗ	-9.19267
ܦܝܠܝܦ	-9.19339
ܠܡܕܝܢܬ	-9.1951
ܒܤܪ	-9.1967
ܝܘܠܦܢ	-9.20118
ܘܡܛܠ	-9.20482
ܒܠ	-9.21084
ܕܢܐܬ	-9.21187
ܢܐܡܪ	-9.2144
ܫܪܒܬ	-9.21542
v	-9.21813
𐋇	-9.21814
ܐܬܝܬ	-9.22358
ܘܚܕ	-9.22848
ܠܒܢܝ	-9.22999
ܗܝܡܢܘ	-9.23502
ܠܘܬܟ	-9.23732
ܚܟܡܬ	-9.23952
ܕܐܬ	-9.23999
ܠܥܒܕ	-9.24277
ܘܫܕܪ	-9.24681
ܚܙܝܢ	-9.24899
ܢܝܢ	-9.25008
ܩܘܡ	-9.2511
ܝܬܒ	-9.25342
ܒܡܠܬ	-9.2565
ܥܡܟ	-9.26514
ܩܪܝܬ	-9.26535
ܒܐܝܕܝ	-9.26641
ܕܚܠܬ	-9.26721
ܘܩܪܐ	-9.26819
ܡܠܦܢ	-9.2738
ܘܦܩܕ	-9.27507
ܟܤ	-9.27518
ܒܫܒ	-9.27703
ܡܟܐ	-9.27817
ܠܡܥܒܕ	-9.28001
ܐܠܘ	-9.28261
ܫܐܠܘ	-9.2831
ܢܬܠ	-9.28475
ܡܠܦ	-9.2886
ܘܥܡ	-9.28899
ܚܒܝܒ	-9.29059
ܤܛ	-9.29061
ܪܫܗ	-9.29132
ܒܝܬܗ	-9.29441
ܐܦܝ	-9.29562
ܘܝܕ	-9.29619
ܩܪܨ	-9.29731
ܚ	-9.29948
ܫܒܘܩ	-9.30096
ܡܩܒܠ	-9.30693
ܘܥ	-9.3073
ܒܪܡ	-9.30883
ܪܥܝܢ	-9.31358
ܥܓܠ	-9.31667
ܕܨܒ	-9.31891
ܒܬܪܝ	-9.31903
ܘܒܬܪ	-9.32278
ܚܝܠ	-9.32527
ܫܬܐ	-9.32714
ܘܪ	-9.32776
ܒܒܤܪ	-9.32814
ܠܘ	-9.32896
ܐܚܝܢ	-9.3314
ܕܒܝܫ	-9.33599
ܘܚܙܐ	-9.33967
ܠܟܢܫ	-9.34154
ܕܒܚ	-9.3419
ܬܝ	-9.34455
ܝܕ	-9.34553
ܕܢܡܘܤ	-9.34651
ܕܗܒ	-9.34723
ܪܝܫ	-9.35037
ܫܘܒܚ	-9.35453
ܕܬܠܬ	-9.35692
ܓ	-9.35783
ܤܦܝܢܬ	-9.35941
ܒܢܦܫܗ	-9.3658
ܕܢܒܝ	-9.36727
ܐܠܦ	-9.36866
ܓܢܒ	-9.36941
ܘܐܬ	-9.37059
ܕܫܕܪ	-9.3706
ܘܩܪܒ	-9.37175
ܡܗܝܡܢܝܢ	-9.37346
ܫܥܝ	-9.37435
ܤܗܕܘܬ	-9.37542
ܩܒܘܪ	-9.37544
ܡܦܩ	-9.37682
ܠܡܪܝ	-9.38045
ܡܬܠ	-9.38229
ܬܐܡܪ	-9.38234
ܕܐܢܬ	-9.38385
ܢܚ	-9.38638
ܟܪܝܗ	-9.3885
ܗܝܟܠ	-9.38893
ܙܠܘ	-9.39298
ܕܙܒܢ	-9.39494
ܕܪܚܡ	-9.3964
ܕܒܪܗ	-9.39927
ܛܢܦ	-9.39994
ܒܥܘ	-9.40252
ܒܟ	-9.4031
ܕܠܘܬ	-9.40346
ܚܘܪ	-9.40516
ܠܦܝܢ	-9.40555
ܐܚܪܝ	-9.41034
ܡܘܗܒܬ	-9.41113
ܝܗ	-9.41161
ܘܡܚ	-9.41741
ܝܗܘܕܐ	-9.41826
ܡܚܕ	-9.41833
ܝܟ	-9.42
ܡܢܟ	-9.42026
ܫܩܠ	-9.421
ܕܥ	-9.42105
ܦܬܚ	-9.42315
ܫܪܝ	-9.42403
ܐܙܠܘ	-9.42658
ܕܗܟܢ	-9.42819
ܒܒܝܬ	-9.42875
ܟܘܡܪ	-9.43116
ܒܢܡܘܤ	-9.43176
ܘܥܒܕ	-9.43725
ܗܪܘܕ	-9.44296
ܘܚܪ	-9.44374
ܫܡܫ	-9.44458
ܕܗܝܡܢܘܬ	-9.44578
ܒܢܝܢ	-9.44676
ܕܢܚ	-9.44874
ܘܩܥ	-9.45204
ܘܫܐܠ	-9.4525
ܒܪܝ	-9.45289
ܕܡܗܝܡܢ	-9.4584
ܕܗܢ	-9.45875
ܤܒܪܬ	-9.46098
ܡܘܠܟܢ	-9.463
ܘܠܝܘܡ	-9.46411
ܘܫܠܡ	-9.46468
ܒܐܘܪ	-9.4778
ܬܕܚܠ	-9.47893
ܐܓܪ	-9.48072
ܕܢܐܙܠ	-9.48275
ܚܙܝ	-9.48386
ܒܟܢܘܫܬ	-9.48466
ܡܗܠܟܝܢ	-9.48489
ܕܒܤܪ	-9.4863
ܦܘܡܗ	-9.48792
ܦܩܕ	-9.49016
ܘܒܥܝܢ	-9.50152
ܢܦܩܬ	-9.50206
ܝܥ	-9.5034
ܠܟܘ	-9.50376
ܠܦܐ	-9.50426
ܘܚܙܝܬ	-9.50689
ܡܟܤ	-9.50857
ܠܦ	-9.50909
ܡܥܡܕ	-9.50919
ܥܬܝܪܐ	-9.51002
ܡܠܝ	-9.51086
ܩ	-9.511
ܡܬܚܙ	-9.51119
ܝܗܒܬ	-9.51388
ܘܗܘܝܬ	-9.51866
ܕܚܠ	-9.52085
ܫܒ	-9.52242
ܐܘܠܨܢ	-9.52726
ܘܤܠܩ	-9.52802
ܤܡܝ	-9.52832
ܕܝܠ	-9.52996
ܡܠܬܗ	-9.53041
ܕܟܠܗ	-9.53209
ܐܫܟܚ	-9.5323
ܕܢܤܒ	-9.53852
ܕܡܡܠܠ	-9.54024
ܠܡܘܬ	-9.54333
ܕܩܐ	-9.54367
ܕܝܘ	-9.54449
ܡܫܡܫܢ	-9.54705
ܤܝܐ	-9.54955
ܠܛܘܪ	-9.54958
ܦܨܚ	-9.55453
ܒܩܠ	-9.55855
ܪܝܐ	-9.55949
ܐܡܗ	-9.56042
ܢܛܪ	-9.56179
ܕܡܝܬ	-9.56206
ܠܟܝ	-9.56636
ܠܒܘܬ	-9.56677
ܦܘܩ	-9.56868
ܘܤܡ	-9.56878
ܐܬܚܙܝ	-9.56894
ܙܕܝܩܐ	-9.57135
ܟܢܘܫܬ	-9.57295
ܥܒܕܘ	-9.57404
ܕܝܬܩ	-9.57418
ܫܩܘܠ	-9.57483
ܘܠܝܬ	-9.57602
ܡܪܗ	-9.57696
ܛܘܪ	-9.57722
ܟܤܦ	-9.57775
ܕܩܕܡ	-9.57917
ܟܘܬ	-9.57987
ܠܐܬܪ	-9.58169
ܐܝܩܪ	-9.58263
ܕܐܟܠ	-9.5843
ܒܕܡܘܬ	-9.58497
ܬܟܢܫܘ	-9.59021
ܕܝܘܡ	-9.60175
ܝܘ	-9.60208
ܛܐ	-9.60209
ܚܛܝ	-9.60723
ܐܝܡܡ	-9.60929
ܓܙܘܪܬ	-9.61022
ܚܒܝܒܝ	-9.61028
ܘܤܦܪ	-9.61047
ܕܡܪ	-9.61214
ܕܫܡܥܘ	-9.61425
ܚܙܝܬ	-9.61644
ܦܬܓܡ	-9.61726
ܦܩܚ	-9.61729
ܩܘܪܒܢ	-9.61752
ܘܢܦܠ	-9.61865
ܘܥܢ	-9.62504
ܙܕܗܪܘ	-9.62549
ܘܫܩܠ	-9.6292
ܫܪܝܪܐ	-9.62923
ܕܡܠܟ	-9.63112
ܕܐܡܪܝܢ	-9.63116
ܒܦܓܪ	-9.63421
ܟܐܢܘܬ	-9.63437
ܕܦܓܪ	-9.63585
ܕܫܪܪ	-9.63617
ܙܩܝܦ	-9.63806
ܫܐܠ	-9.64047
ܐܪܡܠܬ	-9.64217
ܘܒܟܠ	-9.64522
ܠܦܘܠ	-9.64686
ܨܒܘܬ	-9.66018
ܠܥܤ	-9.66042
ܕܢܬܠ	-9.66183
ܠܒܝܬܗ	-9.66294
ܒܨܠܘܬ	-9.66345
ܘܬܗ	-9.66523
ܙܕܩ	-9.66747
ܩܒܪ	-9.6696
ܤܝܡ	-9.67007
ܒܟܬܒ	-9.67013
ܒܥܒܕ	-9.67047
ܘܠܝ	-9.67051
ܠܓܘ	-9.67063
ܘܩܫܝܫ	-9.67166
ܫܥ	-9.67311
ܪܝܢ	-9.68318
ܘܫ	-9.68694
ܘܝܬܒ	-9.68798
ܐܙܠܝܢ	-9.6882
ܒܠܒܗ	-9.69032
ܒܡܕܝܢܬ	-9.69032
ܕܚܙܐ	-9.69215
ܘܤܓܝܐ	-9.69301
ܐܫܟܚܘ	-9.69352
ܚܪܬ	-9.69425
ܘܡܕܡ	-9.69557
ܩܢܛܪܘܢ	-9.6958
ܢܥܒܕ	-9.69601
ܕܢܐܡܪ	-9.6962
ܕܗܘܝ	-9.69654
ܕܒܝ	-9.69669
ܥܡܪ	-9.69677
ܐܟܚܕ	-9.69766
ܒܩ	-9.69789
ܘܫܡܥܬ	-9.7016
ܠܢܫ	-9.70183
ܠܥܕܬ	-9.70234
ܘܢܤܒ	-9.70347
ܩܝܡ	-9.70372
ܚܤ	-9.70378
ܕܚܙܝܢ	-9.70648
ܐܬܪܚܡ	-9.70776
ܘܢܦܩܘ	-9.71045
ܢܚܙܘܢ	-9.712
ܡܛܪ	-9.71232
ܕܥܡܗ	-9.71236
ܕܦ	-9.71295
ܢܦܫܢ	-9.71344
ܬܘ	-9.71609
ܡܤܗܕ	-9.7177
ܚܘܝ	-9.71838
ܒܗܘ	-9.71881
ܪܡ	-9.72042
ܒܚܝܠ	-9.72132
ܒܟܝ	-9.7226
ܢܩܘܡ	-9.72549
ܘܚܝ	-9.72562
ܤܓܕ	-9.72576
ܕܪܡ	-9.72736
ܢܡܠܠ	-9.72844
ܡܥܡܘܕܝܬ	-9.72868
ܡܐܟܘܠܬ	-9.72988
ܕܡܟ	-9.73047
ܙ	-9.73123
ܒܠܫܢ	-9.73635
ܫܦܪ	-9.73948
ܐܦܩ	-9.73953
ܬܬ	-9.74407
ܢܦܩܘ	-9.74592
ܠܒ	-9.74846
ܘܫܬܐ	-9.74937
ܐܝܠ	-9.75213
ܒܚܘܒ	-9.75217
ܫܠܝ	-9.75387
ܤܢܝܐ	-9.7548
ܠܗܝܟܠ	-9.7574
ܕܐܒܪܗ	-9.76058
ܕܬܪܬ	-9.76176
ܘܬܗܘ	-9.76563
ܫܡܥܬܘܢ	-9.76795
ܕܝܕܥ	-9.76915
ܬܪܬܝ	-9.76996
ܕܐܙܠ	-9.77057
ܚܪ	-9.77089
ܬܢܢ	-9.77235
ܘܟܐ	-9.7729
ܪܫܝܬ	-9.7739
ܫܕܪܬ	-9.77571
ܟܦܢ	-9.78104
ܢܗܪ	-9.78121
ܕܥܘ	-9.78138
ܐܟܘܠ	-9.78544
ܒܡ	-9.78692
ܫܐܠܝܢ	-9.78992
ܕܬܕܥ	-9.79169
ܩܕܡܝܬ	-9.79253
ܕܩܕܝܫ	-9.79659
ܕܚܢܢ	-9.79691
ܪܫܝܢ	-9.79696
ܥܒܕܗ	-9.79744
ܥܒܕܝ	-9.79839
ܩܪܝ	-9.79849
ܓܠܝܠ	-9.79878
ܡܘܕܐ	-9.80222
ܕܢܐ	-9.80512
ܝܪܬ	-9.80933
ܙܒ	-9.80978
ܟܦܪ	-9.80986
ܠܐܢܬܬ	-9.81025
ܝܕܥܘ	-9.81084
ܪܗܛ	-9.81327
ܐܟܠܝܢ	-9.81546
ܐܦܢ	-9.81731
ܕܒܟܠ	-9.81957
ܦܬܟ	-9.82062
ܒܬܐ	-9.8217
ܒܐܝܕ	-9.82201
ܦܘܡ	-9.8225
ܚܟܝܡܐ	-9.82256
ܛܘܒܝܗ	-9.82805
ܝܕܥܬ	-9.8304
ܕܢܚܬ	-9.83162
ܕܝܕܥܝܢ	-9.83222
ܕܐܬܝܗܒ	-9.83385
ܕܩܪ	-9.83404
ܕܫܒ	-9.83799
ܘܗܢ	-9.84119
ܩܠܗ	-9.84391
ܓܒ	-9.84505
ܚܩ	-9.85104
ܘܒܪܟ	-9.85146
ܐܝܠܢ	-9.85243
ܠܠܝ	-9.85348
ܒܬܪܟ	-9.85406
ܫܬܝܢ	-9.85417
ܟܬܒܬ	-9.85484
ܝܘܤ	-9.86069
ܐܬܝܠܕ	-9.86324
ܕܢܦܩ	-9.86745
ܠܒܝܫ	-9.86808
ܒܗܝ	-9.87004
ܤܥܪ	-9.87258
ܫܢ	-9.87384
ܢܫܡܥ	-9.87687
ܚܠܝܡ	-9.87804
ܕܓܠܝ	-9.87847
ܐܬܬ	-9.88077
ܕܝܡ	-9.88118
ܕܛܒ	-9.88201
ܥܒܝܕ	-9.88282
ܚܝܒܝܢ	-9.88294
ܙܕܝܩܘܬ	-9.88379
ܚܝܒ	-9.88468
ܐܪܙ	-9.88697
ܘܐܬܝܗܒ	-9.88745
ܬܗܝܡܢܘܢ	-9.88959
ܤܝܡܬ	-9.88992
ܡܩܘ	-9.89048
ܘܒܢܝ	-9.89124
ܨܦܪ	-9.89505
ܕܡܕܝܢܬ	-9.89566
ܬܥܒܕܘܢ	-9.8969
ܕܢܚܙ	-9.89708
ܤܐܡ	-9.89926
ܤܪܝܩ	-9.89935
ܡܕܝܢ	-9.89974
ܦܘܪܩܢ	-9.9006
ܢܘܟܪܝ	-9.90079
ܒܓܠ	-9.90156
ܝܪܚ	-9.90359
ܢܨܪ	-9.90414
ܘܥܕ	-9.90513
ܚܠ	-9.90524
ܘܐܚܕ	-9.90578
ܘܫܡܥ	-9.90654
ܕܝܬܝܪ	-9.90718
ܟܘܟܒ	-9.90771
ܪܘ	-9.90817
ܥܡܢ	-9.90867
ܦܪܨܘܦ	-9.90957
ܦܠܐ	-9.90982
ܕܢܦܠ	-9.91095
ܚܘܬ	-9.91202
ܥܝܢܝܗ	-9.9121
ܡܢܝ	-9.91296
ܤܒܪܝܢ	-9.91381
ܡܚܒ	-9.91485
ܫܡܪܝ	-9.91852
ܡܤܒܪ	-9.92055
ܡܘܕܝܢ	-9.9208
ܘܫܐ	-9.9224
ܡܬܛܦܝܤ	-9.92385
ܐܤܛܪܛܝܘܛ	-9.92395
ܐܒܪܗ	-9.92561
ܐܚܘܟ	-9.92662
ܚܘܪܒ	-9.92749
ܘܐܝܬܝ	-9.92874
ܟܦܘܪ	-9.93
ܓܒܝ	-9.93044
ܚܐܪ	-9.93312
ܡܝܬܝܢ	-9.93369
ܕܡܬܩܪܝ	-9.93479
ܝܪܟ	-9.93575
ܡܫܪܝ	-9.93712
ܥܩܪ	-9.93781
ܥܙܪ	-9.9379
ܘܩ	-9.93875
ܠܡܠܟܘܬ	-9.9396
ܕܐܝܤܪ	-9.9403
ܬܪܐ	-9.94052
ܐܫܟܚܬ	-9.94119
ܠܡܫܡܥ	-9.94211
ܒܡܝ	-9.94266
ܘܚ	-9.94336
ܚܛ	-9.94498
ܕܚܙܘ	-9.94905
ܤܘܤ	-9.95135
ܦܪܩ	-9.9517
ܕܕܚܠ	-9.95501
ܕܫܦܝܪ	-9.95719
ܬܪܬ	-9.95843
ܒܘܝܐ	-9.95881
ܒܘܢ	-9.95928
ܥܘܬܪ	-9.96047
ܢܐܙܠ	-9.96554
ܥܪܩ	-9.96732
ܐܒܘܟ	-9.96875
ܕܡܠܠ	-9.96929
ܢܬ	-9.96982
ܒܛܝܒܘܬ	-9.96997
ܚܕܘܬ	-9.97001
ܐܫܕ	-9.97279
ܕܠܝ	-9.97681
ܫܡܟ	-9.97712
ܡܨܠ	-9.97941
ܕܢܥܒܕ	-9.97998
ܕܡܗ	-9.98023
ܕܟܝܐ	-9.98394
ܘܐܩܝܡ	-9.98598
ܠܡܠܬ	-9.98946
ܠܫܢ	-9.99096
ܠܢܦܫܗ	-9.9917
ܫܒܬ	-9.99197
ܒܥܕܬ	-9.99258
ܡܗܠܟ	-9.99336
ܘܐܢܬ	-9.99343
ܕܐܩܝܡ	-9.99537
ܕܤܥܪ	-9.99546
ܘܐܬܚܙܝ	-9.99796
ܡܫܚ	-9.99825
ܡܫܕܪ	-9.99868
ܤܝܒܪܬ	-9.99892
ܬܝܗܒ	-9.9992
ܡܟ	-9.99979
ܘܐܪܡܝ	-10.0002
ܟܐܢܐ	-10.0008
ܘܐܪܒܥ	-10.001
ܪܫܝ	-10.0054
ܚܨܕ	-10.0059
ܘܡܠܦ	-10.007
ܡܛܝ	-10.0076
ܒܥܠܕܒܒ	-10.0085
ܬܬܐ	-10.0089
ܕܟܝܢ	-10.01
ܬܫܥ	-10.0104
ܘܡܝܬ	-10.0108
ܕܢܬ	-10.0115
ܐܒܗܬ	-10.0123
ܢܦܠܬ	-10.0137
ܗܝܡܢܘܬܟ	-10.014
ܢܤܒܬ	-10.0143
ܪܕܝܢ	-10.0153
ܚܤܡ	-10.0155
ܕܚܫ	-10.0158
ܬܐܪܬ	-10.0175
ܘܠܡ	-10.0184
ܠܓܠܝ	-10.0186
ܒܫܪܪ	-10.02
ܡܬܚܫܒ	-10.022
ܕܚܛܝ	-10.0245
ܡܚܐ	-10.025
ܬܝܒܘܬ	-10.0273
ܡܐܬ	-10.0326
ܠܡܩܛܠ	-10.0328
ܕܚܙܝܬ	-10.0337
ܠܩܤܪ	-10.0361
ܠܬܐ	-10.0363
ܥܒܕܬ	-10.0368
ܩܪܢ	-10.0368
ܚܝܠܗ	-10.0375
ܤܘܓܐ	-10.0383
ܛܛ	-10.0392
ܬܟܘܢ	-10.0402
ܒܝܫ	-10.0411
ܩܕܡܝܟ	-10.0432
ܓܠ	-10.0454
ܟܘܒ	-10.0458
ܕܤܠܩ	-10.0475
ܘܚܝܠ	-10.0493
ܕܫܠܝܚ	-10.051
ܕܡܬ	-10.0517
ܥܢܢ	-10.0521
ܓܡܘܢ	-10.0545
ܡܬܒܥ	-10.0548
ܕܡܗܝܡܢܝܢ	-10.0553
ܘܝܕܥ	-10.0553
ܥܝ	-10.0556
ܠܚܛܝ	-10.058
ܐܒܕܢ	-10.0592
ܡܚܘܬ	-10.0605
ܡܤܟܢ	-10.0607
ܫܪܝܢ	-10.063
ܫܡܥܬ	-10.0631
ܪܟ	-10.064
ܐܬܡܠܝ	-10.0657
ܡܫܒܚ	-10.067
ܡܦܤ	-10.0672
ܕܫ	-10.0688
ܐܦܤ	-10.0714
ܪܒܢ	-10.074
ܪܚܝܩ	-10.075
ܤܡܝܟ	-10.0768
ܒܫܡ	-10.0777
ܫܒܩܬ	-10.078
ܡܠܝܢ	-10.0781
ܘܠܡܢ	-10.0787
ܕܥܡܪ	-10.08
ܕܫܘ	-10.08
ܠܒܢܝܢ	-10.0811
ܝܕܝܥ	-10.0816
ܝܗܘܕ	-10.0829
ܝܪܐ	-10.0829
ܒܡܠܟܘܬ	-10.085
ܠܝܥ	-10.0851
ܐܩܝܡ	-10.0865
ܕܫܠܡ	-10.0879
ܘܐܪܥ	-10.0886
ܩܪܝܒ	-10.0907
ܒܒܝܬܗ	-10.0916
ܬܪܝ	-10.092
ܤܢܐ	-10.0922
ܬܚܙܘܢ	-10.0926
ܠܡܡܠܠܘ	-10.0931
ܒܪܝܬ	-10.0935
ܒܝܘܠܦܢ	-10.0938
ܕܢܦܫܗ	-10.0942
ܬܢܝܢ	-10.0943
ܘܪܘܚ	-10.0947
ܝܨܦ	-10.097
ܘܐܫܟܚ	-10.0978
ܠܡܫܝܚ	-10.0985
ܥܢܝ	-10.0995
ܢܤܒܝ	-10.1028
ܡܡܬܘ	-10.1028
ܨܪܬ	-10.1041
ܕܟܐܢܘܬ	-10.1059
ܨܒܘ	-10.1076
ܕܬܬ	-10.1086
ܘܐܦܩ	-10.1087
ܒܡܕܒ	-10.1098
ܫܪܒܬܗ	-10.1105
ܨ	-10.1107
ܕܘܟܬ	-10.1124
ܩܢܝܢ	-10.115
ܘܫܒܩ	-10.1195
ܚܘܢ	-10.1198
ܨܝܕ	-10.1201
ܦܐ	-10.121
ܩܡܬ	-10.122
ܩܒܠ	-10.1222
ܙܢܝܘܬ	-10.1222
ܡܐܬܝܬ	-10.1238
ܐܚܝܕ	-10.1265
ܕܛܝܒܘܬ	-10.1271
ܠܡܤܟ	-10.1272
ܒܝܕܥܬ	-10.1281
ܘܡܫܐܠ	-10.129
ܪܘܓܙ	-10.1302
ܘܡܬ	-10.1326
ܕܨ	-10.1329
ܡܪܬ	-10.1329
ܥܪܒ	-10.1329
ܡܫܟܢ	-10.1334
ܗܝܡܢ	-10.1338
ܕܤܓܝܐ	-10.1357
ܒܛܝܠ	-10.1386
ܡܚܫܒܬ	-10.1399
ܒܕܚܠܬ	-10.142
ܢܝܚ	-10.1431
ܒܡܪ	-10.1471
ܒܙܒܢ	-10.1475
ܡܝܬܬ	-10.1478
ܓܐ	-10.1479
ܚܒܠ	-10.1481
ܢܒܗܬ	-10.1483
ܚܘ	-10.1493
ܩܨ	-10.1504
ܠܡܕܥ	-10.1506
ܤܝܦ	-10.1513
ܫܘܒܚܗ	-10.1526
ܕܩ	-10.1542
ܐܓܪܬ	-10.1543
ܪܗܘܡܝ	-10.155
ܡܨܝܕܬ	-10.1552
ܟܠܢ	-10.1553
ܫܡܐ	-10.1563
ܛܘܒ	-10.1564
ܡܓܕܠ	-10.1564
ܠܡܤܒ	-10.1565
ܕܩܤܪ	-10.1591
ܪܥܝ	-10.1613
ܘܟܢܫ	-10.1628
ܦܪܚ	-10.1637
ܡܓܕܦ	-10.1654
ܡܐܢ	-10.1659
ܚܡܬ	-10.1666
ܕܗܝ	-10.1671
ܢܩܘ	-10.1672
ܡܟܫ	-10.1677
ܬܫܒܘܚܬܗ	-10.1699
ܘܚܘܒ	-10.1714
ܐܬܓܠܝ	-10.1724
ܕܝܥ	-10.1726
ܚܪܫ	-10.1728
ܕܐܝܬܝ	-10.1738
ܠܐܒܘܗܝ	-10.1746
ܛܝܒܘ	-10.1751
ܥܪܤ	-10.1758
ܕܚܠܘ	-10.1762
ܕܐܒܝ	-10.1769
ܕܢܫܬ	-10.1772
ܚܘܡ	-10.1801
ܚܫ	-10.1804
ܕܫܡܥܬ	-10.1805
ܘܐܢܫ	-10.1815
ܘܓܒܪ	-10.1816
ܐܪܡܝ	-10.1817
ܩܘܪܝ	-10.1826
ܕܡܝܬܪ	-10.1835
ܤܡܟ	-10.1836
ܥܢܘ	-10.1837
ܝܩܪ	-10.1851
ܘܬܡܢ	-10.1868
ܝܒܫ	-10.1879
ܩܛܠ	-10.1885
ܝܤ	-10.1887
ܕܩܡ	-10.1896
ܘܦܐ	-10.1899
ܫܘܬܦ	-10.1901
ܕܒܢܝܢ	-10.194
ܥܘܪܠܘܬ	-10.1972
ܬܕܡܪܬ	-10.1975
ܢܤܒܘ	-10.1979
ܫܘܒܗܪ	-10.1991
ܕܦܪܝܫ	-10.1993
ܐܚܪ	-10.2004
ܤܘܩ	-10.2009
ܡܫܒܚܝܢ	-10.2014
ܒܐܬܪ	-10.2019
ܕܡܠܟܘܬ	-10.2021
ܕܡܫܟܚ	-10.2035
ܕܐܬܘ	-10.2071
ܕܐܒ	-10.2073
ܕܥܕܬ	-10.2077
ܥܕܢ	-10.2122
ܕܡܠܐ	-10.2128
ܘܒܥ	-10.2156
ܠܐܚܪ	-10.2156
ܘܚܙܘ	-10.2164
ܪܘܪܒܐ	-10.2196
ܬܪܢܓ	-10.2202
ܥܐ	-10.2221
ܕܠܗ	-10.2227
ܕܡܠܐܟ	-10.2227
ܢܬܩܪ	-10.2232
ܕܛܠܝ	-10.2242
ܙܡܪ	-10.2244
ܠܡܩܡ	-10.2244
ܘܕܒܪ	-10.2273
ܩܝܤ	-10.2294
ܪܘܪܒ	-10.2303
ܠܟܢܘܫܬ	-10.2308
ܕܥܠܝ	-10.2344
ܐܬܠ	-10.2347
ܕܤ	-10.2347
ܒܝܘܡܬ	-10.2348
ܠܡܬܠ	-10.2349
ܘܝܬܝܪ	-10.235
ܤܓܕܘ	-10.2371
ܠܩܪܝܬ	-10.2382
ܢܒܐ	-10.2385
ܕܕܘ	-10.2395
ܡܚܝܒ	-10.2398
ܕܟܪܝܗ	-10.2439
ܓܡܝܪ	-10.244
ܟܢܝܫܝܢ	-10.2449
ܕܢܫܪ	-10.2454
ܩܕܘܢ	-10.2463
ܤܟܪ	-10.2474
ܕܘܟ	-10.2476
ܡܫܬܠܡ	-10.2506
ܡܘܡ	-10.2508
ܥܒܕܝܟ	-10.254
ܥܝܢܟ	-10.2565
ܦܤܩ	-10.2567
ܘܕܐ	-10.2588
ܘܝܘܚܢ	-10.259
ܕܥܒܪ	-10.2628
ܡܫܠܡ	-10.2631
ܗܢܝܢ	-10.2642
ܟܪ	-10.2646
ܨܠܘ	-10.2648
ܒܪܝܐ	-10.2656
ܐܚܪܢܝ	-10.2674
ܢܚܘ	-10.2678
ܕܥܐܠ	-10.2687
ܘܐܤܝ	-10.2695
ܦܪܫ	-10.2704
ܕܚܝܠ	-10.2729
ܐܫܬܟܚ	-10.2733
ܤܦܩ	-10.2738
ܕܤܒܪ	-10.2739
ܢܚܫ	-10.2743
ܡܩܒܠܝܢ	-10.2745
ܐܬܕܟܪ	-10.2759
ܪܥ	-10.276
ܩܪܒܬ	-10.2773
ܩܤܪ	-10.2786
ܘܬܠܡܝܕ	-10.2793
ܒܝܢܝ	-10.2796
ܦܓܪܝ	-10.2828
ܒܡܕܡ	-10.2835
ܩܝܦܐ	-10.2846
ܙܕܘܩ	-10.2855
ܓܘܕܦ	-10.2856
ܛܒܥ	-10.2856
ܝܠܘܕ	-10.286
ܛܡܐ	-10.2867
ܒܝܐ	-10.2868
ܒܟܝܢ	-10.2873
ܤܐ	-10.2876
ܦܗܤܛ	-10.2916
ܫܓܘܫ	-10.2928
ܐܓܪܦ	-10.2932
ܗܝܢ	-10.2945
ܙܘܥ	-10.2951
ܕܟܐ	-10.2952
ܛܝܡܬܐ	-10.2958
ܐܚܝܕܝܢ	-10.2965
ܕܩܒܠܬ	-10.2967
ܒܢܘ	-10.297
ܙܒܘܪ	-10.2975
ܠܤܛ	-10.298
ܕܬܘܒ	-10.2985
ܕܢܬܡܠ	-10.2985
ܠܒܫ	-10.2995
ܨܠܘܬ	-10.3003
ܤܪ	-10.3009
ܡܤܟܝܢ	-10.303
ܓܪ	-10.3036
ܗܝܡܢܘܬܗ	-10.3038
ܫܐܕ	-10.3041
ܘܐܪܝܡ	-10.3043
ܕܗܢܘ	-10.3044
ܘܥܒܪ	-10.3055
ܕܤܛ	-10.3055
ܐܪܟܘܢ	-10.3057
ܘܐܫܠܡ	-10.3061
ܘܗܦܟ	-10.3066
ܓܪܒ	-10.3069
ܐܬܦܬܚ	-10.3074
ܕܚܙܝܬܘܢ	-10.3074
ܕܚ	-10.3086
ܡܟܝܟ	-10.3103
ܫܡ	-10.3118
ܤܟܠ	-10.313
ܤܗܕܝܢ	-10.3131
ܢܡܘܬ	-10.3134
ܐܚܪܝܬ	-10.3144
ܠܪܘܚ	-10.3149
ܐܬܬܥܝܪ	-10.3152
ܒܫܘܒܚ	-10.3169
ܙܝܢ	-10.3172
ܩܛܘܠ	-10.3173
ܒܪܬ	-10.3182
ܡܕܒܚ	-10.3191
ܫܪܘ	-10.3192
ܕܙܪܥ	-10.3201
ܢܛܪܬ	-10.3209
ܘܐܬܬ	-10.321
ܠܐܒܪܗ	-10.3215
ܤܝܡܝܢ	-10.3216
ܗܝܡܢܬܘܢ	-10.3227
ܐܟܪܙ	-10.3236
ܕܪ	-10.3255
ܛܢܦܘܬ	-10.3263
ܕܟܬܒ	-10.3274
ܝܪܬܘܬ	-10.3289
ܘܪܚܡ	-10.3293
ܘܗܘܝ	-10.3315
ܓܙܪܬ	-10.3322
ܕܨܒܝܢ	-10.3322
ܠܡܪܗ	-10.3339
ܛܝܒ	-10.3355
ܛܥܝ	-10.3358
ܪܕܦ	-10.337
ܠܢܡܘܤ	-10.3375
ܦܠܘܚ	-10.3386
ܡܠܚ	-10.3393
ܢܥܒܪ	-10.3394
ܠܐܒܝ	-10.3416
ܗܦܟܘ	-10.3446
ܬܚ	-10.3468
ܡܬܕܡܪ	-10.3476
ܚܠܦܝ	-10.3497
ܬܒܘ	-10.3501
ܤܗܕܘܬܗ	-10.3502
ܡܝܬܪ	-10.3506
ܥܝܪ	-10.352
ܙܢܝ	-10.3539
ܐܬܝܗܒ	-10.3543
ܡܛܐ	-10.3546
ܡܛܝܒ	-10.3558
ܘܡܡܠܠ	-10.3569
ܘܫܕܪܘ	-10.3606
ܘܐܬܦܢܝ	-10.3609
ܕܝܗܘܕ	-10.3615
ܘܐܪܡܝܘ	-10.3615
ܡܫܬܥܒܕ	-10.3616
ܕܐܡܪܬ	-10.3621
ܡܬܚܒܠ	-10.3634
ܨܒܝܬ	-10.3654
ܡܨ	-10.366
ܥܬܝܩ	-10.3686
ܥܪܘܩ	-10.3687
ܡܫܘܚܬ	-10.3694
ܚܛܘܦ	-10.37
ܠܬܚܬ	-10.3702
ܪܡܝܢ	-10.3704
ܫܪܓ	-10.3721
ܠܡܚܙ	-10.3722
ܫܠܚ	-10.3727
ܘܐܢܬܬ	-10.373
ܫܬܐܤܬ	-10.3733
ܒܗܬ	-10.3733
ܡܠ	-10.3755
ܫܬ	-10.376
ܐܬܝܐ	-10.3783
ܟܪܡ	-10.3785
ܩܒܠܘ	-10.3797
ܒܕܘܟܬ	-10.3797
ܘܠܐܡܗ	-10.3808
ܥܠܬ	-10.3812
ܡܚܝܢ	-10.3818
ܬܢܝ	-10.3842
ܟܝܢ	-10.3846
ܚܡܝܪ	-10.3848
ܕܥܡܝ	-10.3867
ܘܫܡܥܘ	-10.3867
ܢܫܬܒܩ	-10.3877
ܦܠܚܝܢ	-10.3881
ܠܒܪܢܫ	-10.3884
ܡܬܗܦܟ	-10.3905
ܢܛܪܝܢ	-10.3921
ܠܛܠܝ	-10.3925
ܫܠܝܡ	-10.3939
ܦܬܘܪ	-10.394
ܕܢܘ	-10.3942
ܠܡܥܠ	-10.3946
ܘܝܥ	-10.3948
ܤܪܐ	-10.3952
ܡܠܠܘ	-10.3956
ܚܘܐ	-10.396
ܙܝܬ	-10.3963
ܘܙܒܢ	-10.3968
ܤܟܠܘܬ	-10.3974
ܘܐܠܗ	-10.4008
ܟܠܝܠ	-10.4023
ܕܚܛܗ	-10.4056
ܕܒܥܝܢ	-10.4058
ܩܢܝ	-10.4062
ܡܛܠܬܗ	-10.407
ܒܘܪܟܬ	-10.4127
ܩܘܫ	-10.4131
ܫܠܬܐ	-10.4152
ܚܠܦܝܢ	-10.416
ܝܘܛ	-10.4186
ܒܢܦܫܟ	-10.419
ܫܢܝ	-10.4196
ܡܒܪܟ	-10.42
ܦܠܓܘܬ	-10.4214
ܒܤܡ	-10.4217
ܒܬܘܠܬ	-10.4224
ܢܕܥ	-10.4246
ܗܦܟ	-10.4248
ܝܪ	-10.4252
ܫܘܬܦܘܬ	-10.4269
ܘܡܠܟ	-10.427
ܡܤܝܒܪܢܘܬ	-10.428
ܘܦ	-10.4308
ܪܓܠܝ	-10.4317
ܝܬܝܪܐ	-10.4331
ܚܬܢ	-10.4339
ܓܪܬ	-10.434
ܬܥܒܕ	-10.4344
ܦܪܘܩ	-10.4346
ܪܚܡܝ	-10.4349
ܬܟܝܠ	-10.4352
ܕܫܒܥ	-10.4352
ܡܤܒܪܝܢ	-10.4355
ܫܘܒܩܢ	-10.4373
ܕܝܘܢ	-10.4389
ܪܟܒ	-10.4401
ܨܐ	-10.4405
ܠܥܒܪ	-10.4426
ܒܫܘܩ	-10.4444
ܕܡܟܝܢ	-10.445
ܩܘܤ	-10.445
ܒܡܨܥܬ	-10.4451
ܘܢܚܬ	-10.4461
ܒܓܠܝܢ	-10.4483
ܩܛܝܪ	-10.4487
ܛܪ	-10.4505
ܘܡܢܘ	-10.4513
ܡܙܕܕܩ	-10.4518
ܬܥܠ	-10.452
ܝܠܕ	-10.4537
ܒܕܡ	-10.4543
ܕܢܫܡܥ	-10.4543
ܕܗܪܘܕ	-10.4564
ܕܢܫܠܡ	-10.4564
ܡܫܚܠܦ	-10.4592
ܢܤܒܝܢ	-10.4596
ܘܩܕܝܫ	-10.4605
ܕܒܢ	-10.4612
ܗܒ	-10.4612
ܫܘܪܝ	-10.4615
ܡܩܝܡ	-10.4617
ܝܩܐ	-10.4657
ܡܫܠܡܢ	-10.4658
ܢܗܝܪܐ	-10.4663
ܤܓܘܕ	-10.4667
ܘܪܗܛ	-10.4668
ܢܐܒܕ	-10.467
ܚܝܠܬܢ	-10.4674
ܠܝܗܘܕ	-10.4675
ܐܫܬܠܡ	-10.4676
ܥܬܝܕܝܢ	-10.4682
ܕܐܤܗܕ	-10.4688
ܚܤܪ	-10.4694
ܕܩܪܝܢ	-10.4712
ܠܬܪܥܤܪ	-10.4716
ܕܬܡܢ	-10.4722
ܘܡܠܐܟ	-10.4734
ܪܝܚ	-10.4734
ܪܓܝܓܬ	-10.4738
ܥܡܕ	-10.4752
ܚܢܦ	-10.4762
ܢܗܠܟ	-10.4764
ܨܝܕܢ	-10.4775
ܢܬܒܛܠ	-10.4781
ܕܫܘܒܚ	-10.4811
ܩܝܡܬ	-10.4816
ܡܬܪܥܝܢ	-10.4821
ܕܟܪ	-10.4826
ܚܝܝܢ	-10.4839
ܒܠܚܘܕܝ	-10.4843
ܘܪܩ	-10.4866
ܐܚܘܕ	-10.4879
ܘܕܚܠ	-10.4883
ܕܗܝܟܠ	-10.4889
ܘܡܪܝܡ	-10.4891
ܝܗܝܒ	-10.4912
ܬܕܥ	-10.4912
ܙܥܘܪܝ	-10.4914
ܤܩ	-10.4915
ܩܘܡܘ	-10.4916
ܚܬ	-10.4935
ܠܡܦܩ	-10.4951
ܡܫܡܫ	-10.4955
ܝܩܕ	-10.4966
ܠܕܘܟܬ	-10.4966
ܘܩܛܠ	-10.4979
ܘܟ	-10.4981
ܗܒܘ	-10.4988
ܕܬܠܡܝܕ	-10.4999
ܕܬܫܡܫܬ	-10.5023
ܒܨܒܝܢ	-10.504
ܚܫܡܝܬ	-10.5073
ܒܐܘܠܨܢ	-10.5107
ܕܙ	-10.511
ܘܬܫܒܘܚܬ	-10.5135
ܒܩܢ	-10.5136
ܫܘܠܡ	-10.5137
ܕܢܢ	-10.5139
ܐܬܩܪܝ	-10.5169
ܕܦܩܕ	-10.5176
ܢܝܐ	-10.518
ܕܡܝܢ	-10.5183
ܕܢܚܫ	-10.5184
ܓܡܪ	-10.5194
ܪܓܠܝܗ	-10.5206
ܒܝܢ	-10.521
ܢܦܫܬ	-10.5232
ܤܝܒܪ	-10.5235
ܒܡܪܝ	-10.5277
ܥܐܠܝܢ	-10.5279
ܕܫܪܝܪ	-10.5286
ܘܗܢܘ	-10.529
ܕܚܘܒ	-10.5293
ܨܦ	-10.5298
ܕܙܟ	-10.5308
ܕܢܚܘ	-10.5309
ܙܟܐ	-10.5331
ܢܦܠܘ	-10.5347
ܡܢܗܪ	-10.5371
ܤܒܘ	-10.5378
ܘܐܝܬܝܗ	-10.5386
ܘܐܤܪ	-10.5394
ܡܩܕܫ	-10.541
ܪܓܠܝܟ	-10.543
ܦܫܛ	-10.5438
ܘܡܟܪܙ	-10.5443
ܒܪܟ	-10.5444
ܡܘܕܥ	-10.5448
ܕܝܕܥܬ	-10.5453
ܡܡܪܚ	-10.5457
ܝܘܪ	-10.5468
ܡܢܤܝܢ	-10.5476
ܕܐܚܝܕ	-10.5478
ܫܪܝܘ	-10.5482
ܠܬܠܬ	-10.5487
ܠܐܡܗ	-10.5489
ܥܒܕܬܘܢ	-10.5491
ܚܕܝ	-10.5497
ܡܤܬܟܠܝܢ	-10.5506
ܒܡܠܐ	-10.5518
ܕܩܪܝܒ	-10.5522
ܤܒ	-10.5523
ܟܒܪ	-10.5525
ܤܩܘܒܠ	-10.5527
ܚܪܒ	-10.5543
ܕܢܩܘ	-10.5552
ܝܠܦ	-10.5553
ܕܤܢܐ	-10.5568
ܘܫܩܠܘ	-10.5572
ܒܚܕܘܬ	-10.5577
ܘܩܪܝܒ	-10.56
ܘܐܬܡܠܝ	-10.56
ܘܟܒܪ	-10.5608
ܡܚܘ	-10.5618
ܘܫܝ	-10.5622
ܡܥ	-10.5623
ܕܢܡܠܠ	-10.5636
ܠܟܦܪ	-10.5647
ܕܒܢܡܘܤ	-10.566
ܕܙܕܝܩܘܬ	-10.5661
ܠܫܠܝܚ	-10.5671
ܐܢܬܝ	-10.5679
ܕܡܛܝܒ	-10.5681
ܐܠܨ	-10.5691
ܬܘܪ	-10.5694
ܡܫܬܒܗܪܝܢ	-10.5714
ܘܐܬܠ	-10.5721
ܚܠܦܝܟ	-10.5727
ܡܟܪܙܝܢ	-10.573
ܟܪܝ	-10.5731
ܤܡܬ	-10.5743
ܐܫܟܚܢ	-10.5743
ܡܚ	-10.5747
ܕܐܬܝܬ	-10.5751
ܕܘܝ	-10.5764
ܒܬܫܡܫܬ	-10.5776
ܚܡ	-10.5778
ܠܤܗܕܘܬ	-10.5791
ܚܪܬܗ	-10.5806
ܘܒܝܬ	-10.5816
ܠܚܪ	-10.5828
ܬܛܥ	-10.5829
ܪܓܬ	-10.5835
ܒܦܘܡ	-10.5854
ܒܥܡ	-10.588
ܕܕ	-10.5882
ܒܢܒܝ	-10.5886
ܩܪ	-10.5908
ܕܐܚ	-10.591
ܘܥܒܕܘ	-10.5919
ܡܚܒܠ	-10.593
ܡܫܐܠ	-10.5943
ܦܪܥ	-10.5946
ܒܢܝܗ	-10.5961
ܬܪܝܨ	-10.5966
ܕܦܛ	-10.5991
ܘܐܡܝܢ	-10.6002
ܕܒܤ	-10.6014
ܚܙܝܪ	-10.6021
ܢܦܩܝܢ	-10.6038
ܕܤܓܝ	-10.6077
ܡܤܝܒ	-10.608
ܠܩܕܝܫ	-10.6084
ܕܘܡ	-10.61
ܝܩܝܪܬ	-10.6104
ܗܠܟܘ	-10.6106
ܕܪܥ	-10.6117
ܐܤܘܪ	-10.6126
ܕܒܪܘܚ	-10.6143
ܕܒܪܢܫ	-10.6149
ܘܨܒܝܢ	-10.6155
ܡܫܬܡܥ	-10.6159
ܒܓܠܝ	-10.6164
ܝܘܬܪܢ	-10.617
ܕܫܪ	-10.617
ܒܠܒ	-10.6172
ܐܤܬܟܠܘ	-10.6209
ܕܐܬܩܪܝ	-10.6221
ܥܗܕܝܢ	-10.6228
ܢܕܪܐ	-10.6235
ܡܩܕ	-10.624
ܘܐܚ	-10.6242
ܘܒܥܘ	-10.6242
ܥܒܕܝܗ	-10.6248
ܡܤܗܕܝܢ	-10.625
ܬܘܩܠܬ	-10.6256
ܚܛܗܝܗ	-10.6257
ܕܡܢܗ	-10.6261
ܠܢܦܫ	-10.6267
ܩܫܝܐ	-10.6276
ܓܒܝܬ	-10.6316
ܠܥ	-10.6325
ܕܗܝܡܢܘ	-10.6334
ܐܫܬܡܥܬ	-10.6341
ܬܦܠ	-10.6348
ܒܫ	-10.6349
ܘܪܕ	-10.6369
ܢܬܓܠ	-10.6375
ܘܢܛܪ	-10.6382
ܡܤܝܒܪܝܢ	-10.6388
ܡܤܢ	-10.6396
ܚܙܬ	-10.6402
ܚܛܗܝܟ	-10.6403
ܠܩܪܝܒ	-10.6404
ܐܢܛܝܘܟܝ	-10.6427
ܦܪܘܥ	-10.6429
ܥܠܝܡ	-10.6437
ܢܫܬܒܗܪ	-10.6438
ܒܡܘܡܬ	-10.6441
ܘܒܪܢ	-10.6441
ܤܘܪܝ	-10.6456
ܬܘܟܠܢ	-10.6457
ܒܘܟܪ	-10.6459
ܗܦܘܟ	-10.646
ܕܢܩܛܠܘܢ	-10.6466
ܒܦܪܨܘܦ	-10.6477
ܥܘܡܩ	-10.648
ܐܫܝܓ	-10.648
ܕܢܗܝܡܢ	-10.6487
ܘܐܫܬܥܝ	-10.6507
ܡܦܫܩ	-10.6509
ܘܕܡܐ	-10.6509
ܡܝܩܪ	-10.6512
ܘܐܝܬܝܘ	-10.6513
ܫܢܬ	-10.6516
ܡܛܬ	-10.653
ܡܚܒܝܢ	-10.6538
ܕܤܝܡ	-10.6541
ܡܓܢ	-10.6554
ܬܩܘܡ	-10.6561
ܕܤܡܝܟ	-10.6565
ܘܛܝܡܬܐ	-10.6567
ܘܠܡܠܐܟ	-10.6576
ܦܤ	-10.6599
ܠܡܫܪܝ	-10.661
ܠܢܒܝ	-10.661
ܠܡܫܬܐ	-10.6611
ܕܡܙ	-10.6626
ܠܩܘܒܠ	-10.6632
ܡܤܬܒܪ	-10.6633
ܠܡܐܚܕ	-10.6645
ܕܡܩܪܒ	-10.6687
ܘܐܘܕܝ	-10.6692
ܐܠܝܨ	-10.6699
ܡܟܪܙ	-10.6702
ܘܚܙܝ	-10.6705
ܡܨܥܬ	-10.6709
ܩܠ	-10.6721
ܦܘܠܚܢ	-10.675
ܟܐ	-10.6751
ܒܛܘܪ	-10.6755
ܕܟܤ	-10.6772
ܕܚܪ	-10.6775
ܕܢܦܩܘܢ	-10.6776
ܡܢܪܬ	-10.6776
ܚܤܝܪ	-10.6795
ܚܕܘ	-10.6802
ܠܒܗ	-10.6855
ܡܐܢܝ	-10.6858
ܕܝܗܘܕܐ	-10.6863
ܦܨ	-10.6867
ܫܒܚ	-10.6874
ܓܡܝܪܐ	-10.688
ܠܐܝܟ	-10.6887
ܕܝܢܘܤ	-10.6895
ܒܥܝܬ	-10.6897
ܝܘܢܐ	-10.6909
ܒܚܟܡܬ	-10.6911
ܘܢܩܝܡ	-10.6917
ܕܡܚܒ	-10.6924
ܕܐܬܝ	-10.6944
ܘܪܒܝ	-10.6951
ܕܩܝܡ	-10.6953
ܘܡܫܡܫܢ	-10.6962
ܘܚܙܝܢ	-10.6968
ܒܓ	-10.6975
ܡܕܢܚ	-10.6981
ܘܫܠܝܚ	-10.6987
ܬܪܥܝܬ	-10.7005
ܪܓܙ	-10.7022
ܕܠܥܠ	-10.7054
ܗܪ	-10.7072
ܠܒܟ	-10.7081
ܤܘܟ	-10.7088
ܒܝܫܘܬ	-10.7095
ܟܐܒ	-10.7098
ܩܘ	-10.7124
ܕܐܫܪ	-10.7135
ܘܠܫܢ	-10.7135
ܒܪܥܝܢ	-10.7141
ܨܐܕܝ	-10.7143
ܢܫܟܚ	-10.7165
ܟܫܠ	-10.7173
ܠܬܫܒܘܚܬ	-10.7184
ܘܝܕܥܝܢ	-10.7185
ܕܢܩܪ	-10.7189
ܕܐܠܦ	-10.7202
ܕܤܒܪܬ	-10.7221
ܘܐܚܪܝ	-10.7268
ܥܐܠ	-10.728
ܘܓܒ	-10.7288
ܢܩܒܠ	-10.729
ܟܘܬܝܢ	-10.7307
ܪܛܢ	-10.7316
ܚܒܘ	-10.7329
ܙܟܝ	-10.7348
ܘܙ	-10.7355
ܫܝܢ	-10.7356
ܬܘܕܝܬ	-10.7362
ܤܢܝܩ	-10.7369
ܡܬܪܥ	-10.7376
ܘܙܠ	-10.7386
ܡܛܥܝܢ	-10.7393
ܠܡܚܝ	-10.7405
ܬܟ	-10.7414
ܤܥܘܪ	-10.7422
ܒܪܝܟ	-10.7426
ܬܩܘ	-10.7427
ܟܘܪܗܢ	-10.7442
ܘܡܠܠ	-10.745
ܫܒܩܘ	-10.745
ܘܐܠܦ	-10.7454
ܢܥܠܘܢ	-10.7458
ܨܥܪ	-10.7471
ܛܘܗܡ	-10.7475
ܘܤܒܪ	-10.7483
ܠܫܡ	-10.7489
ܕܐܠܘ	-10.7497
ܕܢܤܝܡ	-10.75
ܕܡܠܬ	-10.7502
ܛܢ	-10.7503
ܬܪܡ	-10.7513
ܢܘܚ	-10.753
ܚܐܝܢ	-10.753
ܕܬܫܒܘܚܬ	-10.7537
ܘܤܡܘ	-10.7538
ܩܘܪܢܠܝ	-10.7538
ܬܤܠܘܢܝܩ	-10.7538
ܡܪܓܢܝܬ	-10.7539
ܙܡܘܪ	-10.7541
ܬܟܪܙ	-10.7541
ܓܐܪ	-10.7542
ܐܬܠܒܒ	-10.7546
ܐܝܤ	-10.7556
ܛܠܡ	-10.7564
ܛܘܒܝܟ	-10.7567
ܝܪܝܢ	-10.7579
ܘܢܩܛܠܘܢ	-10.7584
ܟܟܪ	-10.7585
ܩܘܪܢܬ	-10.7588
ܕܒܟܠܗ	-10.7597
ܦܪܛܘ	-10.7601
ܩܒܠܬܘܢ	-10.7618
ܘܐܟܠ	-10.7628
ܬܬܝܬܪ	-10.7633
ܫܘܝ	-10.7634
ܠܐܒܘܟ	-10.7642
ܬܪܡܝ	-10.7647
ܫܒܝܩ	-10.7648
ܢܫܟܚܘܢ	-10.7649
ܬܡܗ	-10.7655
ܚܦܝܛܘܬ	-10.7657
ܬܫܡܫܬ	-10.7663
ܒܢܘܗܪ	-10.7682
ܘܡܬܕܡܪ	-10.7692
ܒܪܥܝܢܝ	-10.7692
ܕܕܗ	-10.7699
ܢܩܝܦ	-10.7701
ܡܒܙܚ	-10.7725
ܤܢܝܢ	-10.7729
ܪܥܝܢܗ	-10.773
ܘܕܝܘ	-10.7741
ܤܦܤ	-10.7745
ܕܟܝܘܬ	-10.7749
ܒܚܛܗܝ	-10.777
ܘܠܟܠܗ	-10.7778
ܕܒܐܘܪ	-10.7782
ܛܝܐ	-10.7793
ܕܡܛܠܬܗ	-10.7801
ܢܫܬܩܠ	-10.7812
ܕܒܒܤܪ	-10.7818
ܒܚܪܬ	-10.7829
ܕܟܝܬ	-10.7829
ܕܬܐ	-10.7841
ܕܟܘܪܤܝ	-10.7841
ܢܩܒܠܘܢ	-10.7854
ܚܪܝܦ	-10.7854
ܒܬܪܥ	-10.786
ܘܒܚܘܒ	-10.7864
ܦܪܥܘܢ	-10.7868
ܕܡܘ	-10.7868
ܩܘܕ	-10.7872
ܥܡܪܝܢ	-10.7874
ܕܫܐܕ	-10.7881
ܚܟܝܡ	-10.7888
ܘܐܒܝ	-10.7918
ܐܪܡܝܬ	-10.7932
ܐܬܒܛܠ	-10.7965
ܐܓܪܗ	-10.7968
ܡܫܡܠܝ	-10.797
ܩܕ	-10.7979
ܘܨܠܝ	-10.798
ܒܡܤܝܒܪܢܘܬ	-10.798
ܡܫܥܒܕ	-10.7983
ܬܘܬܒ	-10.7984
ܘܐܫܟܚܘ	-10.7986
ܠܒܘܫ	-10.7999
ܡܬܝܗܒ	-10.8008
ܒܥܝ	-10.8014
ܕܥܬܝܕܝܢ	-10.8018
ܠܝܩܝ	-10.8022
ܪܢܐ	-10.8035
ܒܥܕ	-10.8046
ܕܚܛ	-10.8048
ܥܪܩܘ	-10.8049
ܡܛܝܢ	-10.8059
ܠܐܘܪܚ	-10.807
ܒܦܘܩܕܢ	-10.8078
ܠܫܒܥ	-10.8082
ܪܘܢ	-10.8091
ܡܩܪܒ	-10.8108
ܘܡܪ	-10.8113
ܠܡܨܪܝ	-10.8113
ܘܡܠܬܗ	-10.8113
ܘܠܡܕܝܢܬ	-10.8115
ܘܐܝܠ	-10.8119
ܕܢܒܝܘܬ	-10.8135
ܒܙܒܢܗ	-10.8142
ܒܐܝ	-10.8145
ܕܐܤܝܪ	-10.8163
ܕܩܝܡܬ	-10.8164
ܚܐܪܘܬ	-10.8203
ܠܘܝ	-10.8223
ܙܟ	-10.8231
ܒܗܬܬ	-10.8234
ܩܥܬ	-10.8234
ܕܥܕ	-10.8237
ܥܒܪܐ	-10.8249
ܘܫܘܠܛܢ	-10.8262
ܪܝ	-10.8268
ܕܠܘ	-10.8272
ܙܟܘܬ	-10.8278
ܗܪܘ	-10.8287
ܒܚܙ	-10.8295
ܚܙܩ	-10.8302
ܘܢܦܩܬ	-10.8304
ܬܪܚܡ	-10.8329
ܕܩܒܠ	-10.8329
ܠܩ	-10.8335
ܢܟܦ	-10.8339
ܒܦ	-10.8346
ܛܘ	-10.8352
ܕܠܐܢܫ	-10.8362
ܤܝ	-10.8407
ܫܡܥܢ	-10.8408
ܨܒܝ	-10.8416
ܬܥܤܪ	-10.8437
ܒܪܚܡ	-10.8438
ܟܬ	-10.844
ܘܡܗܝܡܢ	-10.845
ܦܠܚܝ	-10.8478
ܟܪܙܘ	-10.8487
ܢܫܠܡ	-10.8487
ܡܕܒܪܢ	-10.8488
ܠܡܨܠ	-10.8494
ܚܕܝܢ	-10.8495
ܕܚܝܒ	-10.8516
ܓܙܪ	-10.8518
ܡܠܘ	-10.8522
ܬܪ	-10.8523
ܠܛ	-10.8526
ܚܤܝܪܝ	-10.8527
ܩܪܝܢ	-10.8549
ܘܚܐ	-10.8551
ܚܢ	-10.8569
ܢܛܥ	-10.8609
ܥܝܢܝܟ	-10.8613
ܡܬܟܪܟ	-10.862
ܚܕܥܤܪ	-10.8639
ܫܘܘܕܝ	-10.8662
ܘܡܫܡܫ	-10.8663
ܦܪܝܩ	-10.8679
ܙܝܙ	-10.8686
ܢܘܒܕ	-10.8689
ܕܟܢܫ	-10.8704
ܦܘܡܝ	-10.8711
ܦܬܝܚ	-10.8723
ܐܫܬܒܗܪ	-10.8723
ܠܟܬܒ	-10.8742
ܘܗܠܟ	-10.8751
ܙܥܩ	-10.8764
ܪܘܚܝ	-10.8765
ܘܛܝܒܘܬ	-10.8781
ܕܥܒܕܬ	-10.8787
ܓܝܤ	-10.8787
ܤܛܪ	-10.8789
ܐܙܕܪܥ	-10.879
ܫܝܦܘܪ	-10.8791
ܡܫܬܢܩ	-10.8791
ܘܬܠܬ	-10.8792
ܡܬܟܬܫ	-10.8793
ܒܫܠܡܟ	-10.8797
ܐܫܬܐܠ	-10.8797
ܟܘܪܤܘܬ	-10.8798
ܘܪܫ	-10.8799
ܝܚܝܕܝ	-10.8801
ܘܒܥܝ	-10.8804
ܪܕܘܦܝ	-10.8813
ܐܬܝܕܥܬ	-10.8816
ܬܫܒܩܘܢ	-10.8817
ܡܦܩܕ	-10.8822
ܠܢܤܝܘܢ	-10.8824
ܘܫܒܥ	-10.8825
ܦܪܝܤ	-10.8827
ܠܡܠܦ	-10.8836
ܕܢܕܥ	-10.8837
ܒܥܪܤ	-10.8838
ܕܐܫܬܕܪ	-10.8838
ܕܫܩܠ	-10.885
ܥܝܢܝ	-10.8868
ܕܐܤܝܡ	-10.8883
ܡܫܬ	-10.8899
ܥܝܪܝܢ	-10.8902
ܬܬܪܝܡ	-10.8913
ܫܛܝ	-10.8917
ܕܒܥ	-10.8917
ܘܡܨܠܝܢ	-10.8919
ܚܙ	-10.8934
ܕܡܛܠ	-10.8938
ܘܚܠܦ	-10.8948
ܡܛܝܒܝܢ	-10.8952
ܡܫܠܡܢܘܬ	-10.8953
ܩܒܠܬ	-10.8962
ܕܥܒܝܕ	-10.8973
ܘܐܬܕܟܪ	-10.8974
ܒܟܐܢܘܬ	-10.8986
ܘܐܘܚܕ	-10.8997
ܟܤܝܬ	-10.8997
ܘܡܠܦܝܢ	-10.8998
ܕܐܒܗܬ	-10.9001
ܘܫܢܝ	-10.9002
ܘܦܪܫ	-10.9004
ܕܙܕܩ	-10.9009
ܫܬܡܥܘ	-10.901
ܒܤ	-10.9023
ܚܘܤ	-10.903
ܐܨܛܒܝ	-10.9035
ܕܥܘܢ	-10.9035
ܐܬܩܪܝܬ	-10.9042
ܘܢܦܠܘ	-10.9045
ܥܒܪܝ	-10.9046
ܠܒܘܫܗ	-10.9051
ܒܩܝܡܬ	-10.907
ܕܢܩܝܡ	-10.9074
ܬܥܒܪ	-10.9075
ܚܨ	-10.9095
ܟܪܝܬ	-10.9104
ܠܨܠܡ	-10.9116
ܡܬܩܪܒܝܢ	-10.9117
ܠܝܛ	-10.9131
ܕܩܪܒ	-10.9164
ܟܤܝܐ	-10.9175
ܚܒܪ	-10.9184
ܐܪܡܝܘ	-10.9187
ܡܠܬܟ	-10.9188
ܤܘܤܝ	-10.9192
ܠܒܥܠ	-10.9195
ܘܤܓܝ	-10.9199
ܡܘ	-10.9219
ܦܛܪ	-10.9227
ܠܓܒܝ	-10.9234
ܒܦܠ	-10.924
ܝܗܒܝܢ	-10.9241
ܬܒܕܪܘ	-10.9243
ܪܓܘܢ	-10.9249
ܡܨܪܝ	-10.9254
ܒܙܚ	-10.9262
ܥܝܝ	-10.9267
ܒܟܘܪܗܢ	-10.9274
ܕܪܫܝ	-10.9299
ܐܬܢܒܝ	-10.9316
ܒܠܒܘܬ	-10.932
ܠܩܕܡܝ	-10.9328
ܕܐܬܪ	-10.9331
ܒܛܢ	-10.9336
ܪܬ	-10.9349
ܘܓ	-10.9351
ܕܝܠܝܕ	-10.9364
ܠܦܓܪ	-10.9385
ܕܕܝܠܗ	-10.9392
ܡܘܒܠ	-10.9395
ܢܥܒܕܘܢ	-10.941
ܒܝܘܡܬܗ	-10.9419
ܕܬܐܡܪ	-10.9423
ܕܕܝܘ	-10.9426
ܠܡܚܤ	-10.9451
ܕܦܘܩܕܢ	-10.9455
ܐܠܗܟ	-10.9457
ܩܪܛ	-10.9462
ܘܗܝܡܢܘ	-10.9467
ܬܕܡܪܘ	-10.9488
ܕܠܒ	-10.9488
ܘܩܘܝ	-10.9496
ܚܘܗܝ	-10.9498
ܘܫܒ	-10.9528
ܘܤܛܪ	-10.9534
ܡܬܓܠ	-10.9536
ܕܡܫܠܡ	-10.9545
ܒܐܫ	-10.9551
ܕܐܤܝ	-10.9587
ܪܢ	-10.9592
ܒܥܡܐ	-10.9608
ܡܨܠܝܢ	-10.9615
ܦܫܝܩ	-10.9616
ܒܡܘܬ	-10.9623
ܘܡܠܝ	-10.9628
ܒܘܪܟ	-10.9638
ܘܡܤܗܕ	-10.9658
ܡܝܬܘ	-10.966
ܕܓܕ	-10.968
ܒܚܝ	-10.97
ܛܥܝܘܬ	-10.9702
ܡܬܗ	-10.9706
ܠܗܝܡܢܘܬ	-10.9709
ܘܚܛܝ	-10.9709
ܕܡܛܝ	-10.971
ܙܩܦ	-10.9712
ܢܚܬܬ	-10.9718
ܘܙܕܝܩ	-10.972
ܕܒܝܗܘܕ	-10.9738
ܕܒܚܕ	-10.9743
ܙܠܝ	-10.9756
ܢܦܐ	-10.9762
ܘܢܬܠ	-10.9764
ܕܩܫܝܫ	-10.9779
ܬܟܝܠܝܢ	-10.9786
ܕܥܒܕܘ	-10.9787
ܪܦ	-10.9801
ܕܢܛܪ	-10.9803
ܘܒܗܕ	-10.9807
ܡܫ	-10.9814
ܢܦܩܘܢ	-10.9818
ܕܗܝܡܢܬ	-10.9823
ܕܝܩܕ	-10.983
ܠܚܘ	-10.9836
ܕܓܒ	-10.9852
ܘܦܠܚ	-10.9868
ܢܚܬܘ	-10.9918
ܒܫܘܠܛܢ	-10.992
ܚܒܪܝ	-10.9923
ܛܝܪ	-10.9934
ܡܡܐ	-10.9946
ܘܚܘܝ	-10.9951
ܦܓ	-10.9963
ܐܬܟܪܟ	-10.9963
ܚܟܡ	-10.9963
ܦܪ	-10.9971
ܠܡܠܐܟ	-11.0007
ܠܪܒܝ	-11.0022
ܤܦ	-11.0035
ܒܠܚܘܕܝܗ	-11.0042
ܘܟܬܒ	-11.0083
ܬܐܙܠ	-11.0087
ܤܤ	-11.0101
ܦܓܪܟ	-11.0108
ܛܠܝܘܬ	-11.011
ܘܒܫ	-11.0114
ܠܘܛ	-11.0124
ܪܥܘܬ	-11.0126
ܬܡܝܗ	-11.0131
ܐܬܝܕܥ	-11.0132
ܡܫܪܪ	-11.017
ܚܒܫ	-11.0174
ܫܩܠܬ	-11.0186
ܒܤܝܡ	-11.0187
ܚܙܝܗ	-11.0188
ܬܡܠܠ	-11.0192
ܕܩܛܠ	-11.0196
ܐܬܦܢܝ	-11.0203
ܠܒܢ	-11.0216
ܕܢܩܪܒ	-11.0217
ܢܙܕܕܩ	-11.0217
ܢܫܬܟܚ	-11.0217
ܙܪܘܥ	-11.0217
ܦܝܤ	-11.0217
ܤܕܘ	-11.0218
ܡܫܬܡܥܢܘܬ	-11.022
ܤܦܝܪ	-11.022
ܡܫܝܓ	-11.0222
ܚܨܘܕ	-11.0223
ܬܠܡܝܕܝ	-11.0224
ܦܓܥ	-11.0226
ܡܙܕܪܥ	-11.0229
ܫܬܝܩ	-11.0231
ܕܢܫܬܒܚ	-11.0232
ܚܒܘܫܝ	-11.0233
ܬܩܒܠܘܢ	-11.0233
ܐܤܛܕܘ	-11.0234
ܒܡܕܥܝ	-11.0235
ܕܪܟܫ	-11.0238
ܒܥܠܕܒܒܝܟ	-11.0239
ܐܪܤܛ	-11.0241
ܒܐܕܢܝ	-11.0241
ܩܫܝܘܬ	-11.0243
ܚܘܫܒܢ	-11.0244
ܕܢܤܩ	-11.0245
ܡܓܠܬ	-11.025
ܘܐܘܒܠ	-11.0258
ܟܪܘܙܘܬ	-11.0259
ܕܐܬܬ	-11.0263
ܪܘܓܙܗ	-11.0265
ܒܩܢܘܡܗ	-11.0268
ܒܐܤܟ	-11.0271
ܡܬܐ	-11.0276
ܢܫܡܫ	-11.0277
ܢܛܥܡ	-11.0286
ܕܦܪ	-11.0287
ܥܙ	-11.0287
ܘܒܝܕ	-11.0295
ܘܢܫܠܡܘܢ	-11.0301
ܙܘܝܬ	-11.0304
ܢܒܝܘܬ	-11.0316
ܕܝܩܝ	-11.0317
ܘܬܡܝܗ	-11.032
ܪܘܫܡ	-11.0325
ܚܘܛܪ	-11.0326
ܘܟܢܫܘ	-11.0328
ܬܥܡܕܘ	-11.033
ܦܘܠܓ	-11.0334
ܓܘܓ	-11.0344
ܥܤܒ	-11.0345
ܡܫܬܘܬ	-11.0349
ܪܡܝ	-11.0351
ܕܡܝܗ	-11.0355
ܢܛܝܪ	-11.0357
ܒܪܫ	-11.0367
ܒܕܩ	-11.037
ܡܥܕܪܢ	-11.0374
ܕܬܬܠ	-11.0375
ܒܩܪܝܬ	-11.0377
ܒܕܡܥ	-11.0378
ܡܬܕܝܢ	-11.0385
ܩܘܘ	-11.0392
ܬܗܦܟ	-11.0394
ܘܫܥ	-11.0394
ܬܟܠܘܢ	-11.0394
ܢܗܝܡܢ	-11.0395
ܩܢ	-11.0402
ܕܡܚܒܝܢ	-11.0402
ܘܚܙܬ	-11.0406
ܙܕܩܬ	-11.0408
ܩܤܛ	-11.0415
ܕܒܝܚ	-11.0421
ܥܗܕ	-11.0422
ܡܪܕܘܬ	-11.0427
ܘܨܠܘ	-11.0433
ܘܐܬܦܬܚ	-11.0436
ܟܪܐ	-11.044
ܘܡܫܚ	-11.0448
ܩܠܝܕ	-11.045
ܓܙ	-11.0455
ܘܫܩ	-11.0456
ܪܩܘܤ	-11.0459
ܘܫܘܪ	-11.0461
ܐܚܝܬܟ	-11.047
ܕܦܪܚ	-11.0475
ܠܒܤܬܪܗ	-11.0481
ܚܦܝܛ	-11.0481
ܕܡܪܗ	-11.0489
ܐܬܕܟܝ	-11.0496
ܛܥܘ	-11.0496
ܕܟܤܦ	-11.05
ܕܪܫ	-11.0504
ܕܤܡܝ	-11.052
ܨܠܝܒ	-11.0523
ܬܚܘܝܬ	-11.0529
ܢܨܝ	-11.0535
ܒܡܥܡܘܕܝܬ	-11.0538
ܡܫܬܪ	-11.0538
ܘܛܒ	-11.0569
ܡܬܢܛܪ	-11.0581
ܒܪܩ	-11.0583
ܐܝܛܠܝ	-11.0586
ܕܦܠܚ	-11.059
ܠܥܝܢ	-11.0593
ܘܠܒܪ	-11.061
ܝܩܝܪ	-11.0613
ܐܚܘܝܟ	-11.0621
ܐܬܦܠܓ	-11.0626
ܒܚܘ	-11.0627
ܫܝ	-11.0628
ܚܒܨ	-11.0631
ܠܩܘܪܝ	-11.0637
ܡܚܪ	-11.0661
ܝܘܢܝ	-11.0663
ܠܐܘܪܥ	-11.0666
ܕܐܫܟܚܬ	-11.068
ܝܠܕܬ	-11.0682
ܕܫܐܠܝܢ	-11.0692
ܕܟܬܒܬ	-11.0693
ܐܤܬܟܠ	-11.0695
ܘܡܤܟܢ	-11.0703
ܘܥܐܠ	-11.0704
ܛܥܝܢ	-11.0712
ܦܤܘܩ	-11.0717
ܕܫܡܫ	-11.0733
ܘܚܡܬ	-11.0734
ܘܫܪܝܪܐ	-11.0739
ܟܪܤ	-11.0751
ܢܫܡܥܘܢ	-11.0752
ܢܤܓ	-11.0764
ܬܘܠܬܗ	-11.077
ܘܡܚܝܢ	-11.0771
ܟܘܬܝ	-11.0775
ܘܠܚܡ	-11.0778
ܘܫܡܫ	-11.0783
ܠܬܫܡܫܬ	-11.0796
ܫܪ	-11.0812
ܕܢܫܟܚ	-11.0815
ܘܚܕܘܬ	-11.0816
ܐܫܬܝ	-11.0824
ܕܢܩܘܡ	-11.0831
ܟܪܝܗܘܬ	-11.0835
ܕܬܚܝ	-11.0837
ܡܩܘܝܢ	-11.0841
ܥܬܝܪ	-11.086
ܠܟܐܢܘܬ	-11.0865
ܘܕܒܚ	-11.0872
ܦܢܝ	-11.0874
ܘܐܠܘ	-11.0881
ܡܛܠܬܟ	-11.0887
ܒܝܠ	-11.089
ܘܥܤܪ	-11.0894
ܬܛܦܝܤܘ	-11.0899
ܕܡܚܐ	-11.0904
ܕܪܐ	-11.0909
ܒܕܝܢ	-11.0911
ܤܢܝܩܝܢ	-11.0926
ܨܠܝ	-11.0931
ܘܗܒ	-11.0938
ܒܡܘܠܟܢ	-11.0942
ܐܬܩܪܒ	-11.0952
ܘܫܘ	-11.0957
ܘܨܐ	-11.0972
ܕܚܠܦ	-11.0982
ܗܦܟܬ	-11.0986
ܕܥܝܢ	-11.0998
ܒܪܬܝ	-11.1009
ܘܐܚܕܘ	-11.1011
ܕܡܩܘ	-11.1016
ܕܢܘܒܕ	-11.1023
ܐܦܝܗ	-11.1043
ܫܠ	-11.106
ܕܚܕܘܬ	-11.1068
ܓܘܪ	-11.1088
ܚܕܬ	-11.109
ܪܥܝܢܟ	-11.109
ܐܬܕܡܪ	-11.1111
ܘܩܪܘ	-11.1112
ܠܢܝܚܬ	-11.1124
ܢܟ	-11.1127
ܐܚ	-11.1129
ܘܬܫܡܫܬ	-11.1156
ܘܬܪܬ	-11.1156
ܦܝ	-11.1158
ܐܟܘܬܗ	-11.1168
ܥܕܪ	-11.118
ܢܤܝܒܪ	-11.1181
ܕܐܫܠܡ	-11.1194
ܓܘܢ	-11.1206
ܩܪܩܦܬ	-11.1249
ܢܚܒ	-11.1253
ܡܬܡܠܠ	-11.1253
ܠܥܕ	-11.1264
ܐܬܟܬܒ	-11.1267
ܟܘܪ	-11.1276
ܘܤܗܕ	-11.1288
ܪܒܘܬ	-11.129
ܘܠܘ	-11.1306
ܪܚܡܬ	-11.1319
ܒܨܝܪ	-11.1322
ܕܡܠܦ	-11.1331
ܫܬܩܠ	-11.1332
ܠܡܪ	-11.1356
ܤܟ	-11.1357
ܚܘܝܘ	-11.1358
ܕܪܘܓܙ	-11.1362
ܝܡܬܐ	-11.1363
ܢܟܤ	-11.1388
ܓܫܘ	-11.1395
ܕܓܢ	-11.1402
ܩܪܢܬ	-11.1403
ܛܥܢ	-11.1404
ܓܗܢ	-11.1405
ܘܓܠ	-11.1408
ܕܐܒܘ	-11.1412
ܕܡܟܪܙ	-11.1414
ܝܗܒܘ	-11.1415
ܕܡܨܪܝ	-11.1416
ܒܡܕܝܢܬܗ	-11.143
ܠܫܐ	-11.1432
ܕܐܝܤ	-11.1444
ܠܡܫܐܠ	-11.1446
ܠܟܐܢܘ	-11.1447
ܬܚܝܒ	-11.1458
ܡܝܢ	-11.146
ܥܠܘ	-11.1479
ܪܥܡ	-11.1479
ܫܬܥܒܕܘ	-11.1483
ܠܒܥܠܝ	-11.1509
ܕܒܪܟ	-11.151
ܬܒܥܬ	-11.1513
ܐܠܗܗ	-11.1529
ܓܠܝܬ	-11.1538
ܢܩܦ	-11.1541
ܥܘܪ	-11.1569
ܕܚܬ	-11.1573
ܪܒܘ	-11.1579
ܬܬܙܝܥܘ	-11.1584
ܒܢܦܫ	-11.1588
ܘܒܤܪ	-11.1609
ܒܓܢ	-11.161
ܕܐܫܟܚ	-11.1614
ܒܚܠܡ	-11.162
ܤܡܘ	-11.1631
ܒܥܢ	-11.165
ܢܚܬܝ	-11.1656
ܫܩܝܠ	-11.1676
ܡܦܝܤ	-11.168
ܐܫܬܪܪ	-11.1693
ܡܘܠܝ	-11.1695
ܕܡܨ	-11.1703
ܝܦ	-11.1716
ܤܒܪܘ	-11.1723
ܕܡܥܕ	-11.1724
ܨܘܪ	-11.1725
ܩܢܘܡ	-11.1731
ܙܕܝܩ	-11.1733
ܕܡܫܡܫ	-11.1734
ܘܕܚܠܬ	-11.1735
ܡܤܒ	-11.1743
ܕܩܒܠܘ	-11.1751
ܚܤܝܢ	-11.1759
ܦܘܪܥܢ	-11.1762
ܬܫܐܠܘܢ	-11.1782
ܬܚܘܡ	-11.1784
ܒܪܢ	-11.1796
ܢܤܝܘܢ	-11.1809
ܠܬܚܘ	-11.1816
ܐܤܛܦܢ	-11.1817
ܡܦܢ	-11.1823
ܩܘܦܪ	-11.1825
ܬܓܘܪ	-11.1828
ܐܫܬܕܪ	-11.1839
ܐܡܝܪ	-11.184
ܐܟܠܘ	-11.1847
ܕܗܘܝܬ	-11.1847
ܤܪܝܩܐ	-11.1848
ܡܬܬܙܝܥ	-11.1865
ܠܦܘܢ	-11.1869
ܘܫܪ	-11.187
ܬܕܟܝܬ	-11.1874
ܠܡܐܤܝܘ	-11.1878
ܐܦܠܘ	-11.1883
ܐܤܛܘܟܤ	-11.1884
ܓܚܟ	-11.1886
ܡܬܝܕܥ	-11.1888
ܦܘܪܫܢ	-11.1889
ܠܕܘܟܪܢ	-11.1889
ܛܘܦܤ	-11.189
ܬܒ	-11.189
ܙܗܝܪ	-11.1891
ܥܒܘܕ	-11.1891
ܐܫܬܒܚ	-11.1892
ܦܫܝܛܐ	-11.1892
ܩܝ	-11.1893
ܬܓܙܪ	-11.1894
ܘܩܪ	-11.1894
ܥܦܪ	-11.1896
ܚܛܘ	-11.1896
ܛܘܦܢ	-11.1896
ܬܐܠܕ	-11.1898
ܬܦܤܩ	-11.1898
ܚܫܝܒ	-11.19
ܒܙܩ	-11.1901
ܩܘܦܝ	-11.1902
ܡܬܕܒܪ	-11.1907
ܘܢܫܩ	-11.1911
ܬܚܦܝ	-11.1912
ܘܒܚܝ	-11.1912
ܘܪܝܗ	-11.1919
ܕܙܢܝ	-11.192
ܥܪܘܒ	-11.1926
ܪܚܝ	-11.1927
ܕܢܐܚܕܘܢ	-11.1931
ܕܐܬܡܠܠ	-11.1936
ܕܬܚܒ	-11.1936
ܘܦܛ	-11.1945
ܐܬܚܫܒ	-11.1948
ܡܬܕܒܪܝܢ	-11.1949
ܕܐܡܝܪ	-11.1949
ܕܐܙܕܩܦ	-11.1951
ܡܓܥܠ	-11.1951
ܕܙܕܝܩ	-11.1955
ܠܡܩܒܠܘ	-11.1956
ܬܤܒ	-11.1959
ܐܚܙܝܟ	-11.1961
ܘܟܪܟ	-11.1966
ܕܥܟ	-11.1968
ܒܝܬܟ	-11.1969
ܘܐܤܩ	-11.1971
ܕܐܟܐܝ	-11.1974
ܗܪܛ	-11.1976
ܕܢܫܐܠܘܢ	-11.198
ܪܓ	-11.199
ܕܢܥܠܘܢ	-11.1995
ܕܠܩܘܒܠ	-11.1995
ܐܬܚܫܚ	-11.2001
ܒܢܤܝܘܢ	-11.2002
ܘܪܓܡ	-11.2013
ܦܪܬ	-11.2017
ܦܪܗ	-11.2018
ܕܝܗܝܒ	-11.2024
ܬܓܕܦ	-11.203
ܝܩܝܢ	-11.2031
ܕܢܫܕܪ	-11.2031
ܟܢܫܘ	-11.2032
ܕܡܬܚܒܠ	-11.2036
ܘܗܝܡܢܘܬ	-11.2037
ܡܤܠܝ	-11.204
ܘܒܡ	-11.204
ܒܬܘܕܝܬ	-11.2048
ܡܗ	-11.2051
ܘܬܫܬ	-11.2052
ܕܢܨܒ	-11.2053
ܫܒܩܢ	-11.2054
ܕܘܢܘ	-11.2057
ܠܡܕܒܚ	-11.2059
ܕܐܟ	-11.2063
ܘܐܩܝܡܘ	-11.2075
ܡܒܕܪ	-11.208
ܒܝܗܘܕ	-11.2082
ܫܪܪܗ	-11.209
ܟܝܤ	-11.2091
ܙܘܓ	-11.2091
ܟܪܝܘܬ	-11.2096
ܘܦܪܘܩ	-11.21
ܨܠܡ	-11.211
ܕܒܟܝܢ	-11.2111
ܘܡܐܤ	-11.2112
ܒܦܠܓ	-11.2119
ܡܚܘܝܢ	-11.2127
ܛܝܢ	-11.2127
ܢܫܬܡܥ	-11.2131
ܘܒܗܝܡܢܘܬ	-11.2147
ܕܢܥܒܪ	-11.2159
ܕܚܒܠ	-11.2177
ܕܐܚܝܕܝܢ	-11.2185
ܘܬܚܙܘܢ	-11.2193
ܫܟܒ	-11.2196
ܕܙܩܝܦ	-11.2197
ܒܨܘ	-11.2204
ܕܢܕܘܢ	-11.2211
ܡܟܝܟܘܬ	-11.2215
ܪܝܡ	-11.2218
ܕܫܦܪ	-11.2218
ܒܝܘܡܝ	-11.2221
ܛܢܢ	-11.2223
ܐܬܒܪܝ	-11.2226
ܘܒܝܘܠܦܢ	-11.2226
ܬܚܒܠ	-11.2227
ܠܦܠܚ	-11.2236
ܘܟܘܟܒ	-11.2253
ܘܪܓܠ	-11.2262
ܘܐܬܚܫܒ	-11.2264
ܢܤܝܡ	-11.2278
ܡܥܤܪ	-11.2282
ܚܘܪܘ	-11.2286
ܐܬܬܓܪ	-11.229
ܡܠܟܘ	-11.2293
ܥܘܗܕܢ	-11.2306
ܢܫܒܚ	-11.2309
ܬܓܢ	-11.2318
ܢܬܟ	-11.2319
ܐܡܠܠ	-11.232
ܘܥܝܢ	-11.2322
ܕܬܫܐܠ	-11.2323
ܠܡܠܟ	-11.2325
ܒܐܤܝ	-11.2325
ܐܪܒܥܬ	-11.2326
ܠܪܓܝܓܬ	-11.2328
ܗܕܡܝܟ	-11.2332
ܐܝܬܝܘ	-11.2333
ܕܡܥ	-11.2336
ܠܫܘܩ	-11.2343
ܢܤܒܪ	-11.2347
ܒܓܙܘܪܬ	-11.2358
ܡܪܚܡܢ	-11.2366
ܠܟܝܢ	-11.238
ܠܒܫܘ	-11.2405
ܕܐܘܪ	-11.2409
ܤܠܩܝܢ	-11.2411
ܒܤܒܪܬ	-11.2415
ܫܒܚܘ	-11.2418
ܕܒܡ	-11.2426
ܘܕܚܝ	-11.243
ܬܫܟܚܘܢ	-11.243
ܙܕܩܦ	-11.2445
ܠܤܒܪܬ	-11.245
ܬܫܡܫܬܗ	-11.2459
ܕܡܨܠ	-11.2461
ܘܙܢܝ	-11.2463
ܡܠܟܝܗ	-11.2469
ܪܘܚܢܝ	-11.2478
ܕܐܬܟܢ	-11.2484
ܩܨܝ	-11.2496
ܕܐܠܝ	-11.2504
ܕܫܬܐ	-11.2506
ܩܝܢ	-11.2513
ܘܡܦܩ	-11.2522
ܪܕܝܤ	-11.2526
ܐܬܕܒܪ	-11.2532
ܤܘܦ	-11.2532
ܚܨܝܟ	-11.2536
ܒܘܪܟܝ	-11.2544
ܐܙܕܗܪ	-11.2546
ܩܘܝ	-11.2549
ܕܡܘܗܒܬ	-11.2551
ܡܚܝ	-11.2552
ܕܫܕܪܬ	-11.2567
ܡܦܤܝܢ	-11.2568
ܠܩܛ	-11.2571
ܕܝܢܪ	-11.2575
ܒܐܤܘܪ	-11.2584
ܫܘܝܐ	-11.2592
ܕܚܩ	-11.2595
ܛܘܗܡܗ	-11.2599
ܡܪܝܪ	-11.2599
ܐܬܪܡܝ	-11.2599
ܕܡܚܝܠ	-11.2604
ܤܒܥܘ	-11.2604
ܕܢܕܒܪ	-11.2606
ܬܒܩܘ	-11.2615
ܤܬܘ	-11.2625
ܢܫܬܪ	-11.263
ܐܬܐܤܝܬ	-11.2632
ܕܐܬܠ	-11.2632
ܬܩܛܠܘ	-11.2635
ܕܐܡܗ	-11.2641
ܕܡܩܒܠ	-11.2649
ܘܫܒܚ	-11.2658
ܕܡܛܫܝ	-11.2667
ܕܩܨܝ	-11.2672
ܥܪܩܬ	-11.2678
ܘܥܪܩ	-11.2682
ܐܢܛܝܟ	-11.2689
ܐܤܛܠ	-11.2689
ܦܘܡܟ	-11.2704
ܒܬܐܪܬ	-11.2716
ܒܩܪ	-11.2721
ܕܒܚܝ	-11.2725
ܕܠܒܢܝ	-11.2725
ܘܟܐܦ	-11.2729
ܢܠܒܫ	-11.2731
ܥܛܠ	-11.2749
ܐܤܘܪܝ	-11.2753
ܓܘ	-11.2753
ܡܥܗܕ	-11.2758
ܒܤܝܡܘܬܗ	-11.2761
ܠܐܝܤ	-11.2766
ܡܐܤ	-11.2771
ܘܚܕܪ	-11.2771
ܤܝܡܘܢ	-11.2779
ܝܠܝܕ	-11.2791
ܝܘܩܪ	-11.2796
ܘܡܛܝ	-11.2801
ܒܚܫ	-11.2803
ܫܩܝܠܝܢ	-11.281
ܡܨܚ	-11.2826
ܘܥܠܘ	-11.2835
ܛܪܘܢ	-11.2839
ܕܓܠܘܬ	-11.2839
ܘܐܬܕܡܪ	-11.284
ܘܩܡܬ	-11.2852
ܘܫܠܝܛ	-11.2858
ܚܪܘ	-11.2859
ܘܢܘܗܪ	-11.2868
ܐܕܢܗ	-11.287
ܬܫܬ	-11.288
ܕܚܕܪܝ	-11.2887
ܠܫ	-11.289
ܒܠܒܟ	-11.2898
ܓܠܝܢ	-11.2911
ܘܡܫܒܚ	-11.2916
ܩܘܪ	-11.2921
ܝܠܦܬܘܢ	-11.2922
ܒܚ	-11.2948
ܕܥܓܠ	-11.2948
ܓܕ	-11.295
ܫܛܝܘܬ	-11.2951
ܡܫܬܥ	-11.2976
ܠܡܤܒܪ	-11.2984
ܐܕܪܟ	-11.2984
ܡܠܟܝ	-11.2986
ܡܤܬܟܠ	-11.2986
ܕܫܪܝ	-11.2996
ܦܪܤ	-11.2996
ܗܘܦܟܝ	-11.2997
ܫܘܩ	-11.2997
ܢܫܬܐ	-11.3008
ܚܕܝܘ	-11.3014
ܕܒܬܪܗ	-11.3016
ܠܢܦܫܟ	-11.3017
ܡܡ	-11.3028
ܦܟ	-11.3041
ܒܒܥܠ	-11.3046
ܘܫܪܝܪ	-11.3059
ܫܘܪ	-11.3067
ܕܢܫܐܠ	-11.3074
ܘܡܩܒܠ	-11.3078
ܘܟܪܝܬ	-11.3079
ܕܢܬܚܙ	-11.3089
ܢܘܒܕܝ	-11.309
ܕܬܥܒܕ	-11.3094
ܓܪܡ	-11.3097
ܘܝܗܒܘ	-11.3108
ܒܩܘ	-11.3111
ܘܐܡܗ	-11.3119
ܘܪܒ	-11.3119
ܡܥܩܡ	-11.3129
ܕܡܪܝܡ	-11.3137
ܘܒܚܕ	-11.3147
ܡܥܕܪ	-11.3148
ܢܬܚܙ	-11.315
ܫܒܝ	-11.315
ܕܚܝܝܢ	-11.3164
ܚܪܡ	-11.3165
ܐܤܟܡ	-11.3168
ܝܕܝܢ	-11.3174
ܡܥܪܒ	-11.3176
ܠܦܘ	-11.3181
ܥܠܘܒ	-11.3189
ܩܛܠܘ	-11.3201
ܥܒܪܘ	-11.3217
ܟܪܟ	-11.3233
ܚܬܗ	-11.3237
ܦܝܢ	-11.3241
ܟܘܡܪܘܬ	-11.326
ܢܬܦܢ	-11.3268
ܠܙܢܝ	-11.3269
ܫܕܪܢ	-11.3275
ܒܤܒܪ	-11.3286
ܐܫܬܐ	-11.3291
ܒܕܪ	-11.3304
ܐܒܘ	-11.3307
ܫܩ	-11.332
ܕܐܪܒܥ	-11.3321
ܠܙܒܢ	-11.3338
ܫܬܐܤ	-11.3357
ܨܪܝܢ	-11.3385
ܒܟܐ	-11.3392
ܘܦܐܪ	-11.3392
ܛܪܘ	-11.3409
ܓܦ	-11.3414
ܢܬܒ	-11.3418
ܕܚܟܝܡ	-11.3421
ܕܢܦܫ	-11.3423
ܕܐܬܐܤܝ	-11.3425
ܟܠܘܢ	-11.3435
ܥܪܛܠ	-11.3439
ܐܬܩܛܠ	-11.3441
ܒܤܝܡܘܬ	-11.3455
ܕܩܝ	-11.3466
ܡܟܟ	-11.347
ܩܘܪܝܢ	-11.3476
ܡܛܠܬ	-11.3494
ܘܬܡܗ	-11.3505
ܢܬܡܠ	-11.3521
ܠܪܫ	-11.3524
ܪܩ	-11.3538
ܕܕܚܠܬ	-11.3552
ܬܘܠܬ	-11.3567
ܡܦܘܠ	-11.3578
ܚܓܝܪ	-11.3578
ܐܟܘܬ	-11.3578
ܒܟܪܤ	-11.3592
ܙܢܝܘ	-11.3605
ܒܚܘܪ	-11.3612
ܩܠܝ	-11.362
ܕܢܒܥ	-11.3625
ܐܤܬܡܟ	-11.3658
ܬܐܓܘܪܬ	-11.366
ܤܒܠ	-11.3663
ܪܕܘ	-11.3664
ܡܛܥ	-11.3674
ܘܤܓܕ	-11.3679
ܤܪܝ	-11.3689
ܒܐܓܪܬ	-11.3691
ܕܫܒܩ	-11.3696
ܢܠܦ	-11.3699
ܩܫܝ	-11.3711
ܚܬܡ	-11.3724
ܨܘ	-11.3735
ܡܨܥ	-11.3747
ܕܛܥ	-11.3754
ܤܥܪܝܢ	-11.3757
ܘܐܡ	-11.3758
ܘܐܫܬܟܚ	-11.3765
ܠܐܒܗܝ	-11.377
ܫܥܒܕ	-11.3789
ܒܡܟܝܟܘܬ	-11.3791
ܢܗܝܪ	-11.3792
ܡܕܟ	-11.3797
ܠܐܪܒܥ	-11.3813
ܬܬܩܪ	-11.3814
ܐܩܝܡܟ	-11.3814
ܐܫܬܥܝ	-11.3819
ܡܫܬܒܩ	-11.3824
ܤܘܛ	-11.3825
ܒܘܩܝ	-11.3826
ܘܦܠ	-11.3831
ܪܒܝܬ	-11.3832
ܘܩܒܠ	-11.3832
ܕܪܓ	-11.3843
ܒܤܬܪܗ	-11.3845
ܢܬܝܕܥ	-11.3848
ܐܠܒܫ	-11.3855
ܒܐܬܘ	-11.3855
ܝܫܝ	-11.3856
ܒܫܝܘ	-11.3861
ܡܬܐܡܪ	-11.387
ܢܡܝܬܘܢ	-11.3882
ܐܨܛܪܝ	-11.3884
ܛܠܢܝܬ	-11.3884
ܘܐܫܬܓܫ	-11.3885
ܙܩܘܦ	-11.3887
ܪܩܕܬ	-11.3887
ܡܬܛܦܝܤܢܘܬ	-11.3887
ܡܦܪܫ	-11.3889
ܥܘܦ	-11.3891
ܡܫܠܛ	-11.3897
ܡܘܬܪ	-11.3897
ܐܚܒܢ	-11.3899
ܪܒܝܥܝ	-11.3899
ܢܬܟܫܠ	-11.3901
ܕܢܩܛܘܠ	-11.3903
ܦܪܘܓܝ	-11.3903
ܥܘܩܤ	-11.3907
ܢܩܫ	-11.3908
ܘܤܡܝ	-11.3911
ܕܐܤܬ	-11.3916
ܐܢܢܩ	-11.3921
ܬܦܪܫ	-11.3921
ܐܦܦܪ	-11.3925
ܒܚܤܝܪܘܬ	-11.3925
ܒܨܘܪ	-11.3925
ܬܬܕܡܪ	-11.3925
ܘܬܪܝ	-11.3925
ܨܝܢ	-11.3928
ܪܚܒ	-11.393
ܙܢܝܘܬܗ	-11.393
ܩܕܫ	-11.3932
ܚܓܝܤ	-11.3932
ܟܪܤܛܝ	-11.3935
ܕܐܪܝܘ	-11.3937
ܕܢܦܪܩ	-11.394
ܡܥܒܕܢ	-11.394
ܘܢܫܟܚ	-11.3948
ܒܛܠ	-11.3948
ܫܒܝܠ	-11.395
ܕܡܬܟܢܫ	-11.3964
ܕܨܘܪ	-11.3969
ܚܡܝܡ	-11.3975
ܕܢܝܬܘܢ	-11.3978
ܕܟܘ	-11.3979
ܕܡܫ	-11.3979
ܘܪܘܙ	-11.3987
ܪܘܙ	-11.3992
ܕܐܫܬܒܗܪ	-11.3993
ܢܙܩܦܘܢ	-11.3996
ܒܬ	-11.3998
ܒܚܨ	-11.4002
ܕܐܝܬܝܟ	-11.4005
ܝܕܝܥܝܢ	-11.4008
ܬܐܚܕܘܢ	-11.4009
ܕܛܠܡ	-11.4009
ܠܫܝ	-11.4013
ܕܝܠܕܬ	-11.4013
ܠܫܘܒܩܢ	-11.4015
ܘܠܬܐ	-11.4016
ܐܡܟ	-11.4017
ܠܠܘܝ	-11.4022
ܢܐܪܬ	-11.4024
ܡܬܢܤ	-11.4033
ܠܤ	-11.4036
ܘܐܤܗܕ	-11.4038
ܕܬܬܡܠ	-11.4039
ܬܕܒܪ	-11.404
ܕܚܝܠܬܢ	-11.4051
ܬܚܛ	-11.4052
ܘܡܬܟܪܟ	-11.4059
ܕܡܘܒܠ	-11.4059
ܒܐܦܝ	-11.406
ܕܚܕܪܝܗ	-11.4068
ܘܐܬܪܡܝ	-11.407
ܕܐܟܪܙ	-11.4074
ܕܢܛܪܘܢ	-11.4076
ܠܥܢܝ	-11.4077
ܚܫܚܬ	-11.4079
ܘܡܙܒܢ	-11.408
ܨܗܝ	-11.4083
ܐܬܝ	-11.4088
ܘܡܘܬ	-11.409
ܕܢܩܒܠܘܢ	-11.4092
ܐܬܐܠܨ	-11.4093
ܢܓܕܘܢ	-11.4096
ܘܪܓܬ	-11.4103
ܦܢܛ	-11.4104
ܬܤܗܕ	-11.4106
ܕܗܝܡܢ	-11.4126
ܕܓ	-11.4128
ܢܬܩܛܠ	-11.4133
ܕܬܝܒܘܬ	-11.4141
ܕܡܤܝܒ	-11.4144
ܗܕܡ	-11.4147
ܡܫܬܘܬܦ	-11.4149
ܘܠܟܠ	-11.4153
ܕܠܫܢ	-11.4161
ܕܒܥܠܕܒܒ	-11.4162
ܠܡܦܕܝ	-11.4168
ܕܢܛܪܝܢ	-11.4179
ܕܐܪܙ	-11.4181
ܬܬܕܝܢ	-11.4184
ܚܫܒ	-11.4185
ܘܐܩܦ	-11.4195
ܐܝܕܝܗ	-11.4196
ܘܓܘܕܦ	-11.4198
ܐܟܐܝ	-11.42
ܕܒܟ	-11.42
ܕܟܦܪ	-11.4202
ܢܬܪܥ	-11.4206
ܠܫܘܒܚ	-11.4206
ܡܥܝܢ	-11.4208
ܘܡܬܩܪ	-11.421
ܕܪܗܛ	-11.4214
ܐܤܦܪܝܕ	-11.4215
ܩܝܬܪ	-11.4218
ܒܩܪܝܢ	-11.4221
ܕܢܐܟܠ	-11.4224
ܓܠܝܘܬ	-11.4224
ܘܒܪܘܚ	-11.4226
ܕܐܒܗܝ	-11.4228
ܘܡܤܒܪܝܢ	-11.4233
ܒܫܢܬ	-11.4238
ܘܡܗܠܟ	-11.4241
ܕܪܥܝ	-11.4249
ܡܚܤ	-11.4255
ܝܩ	-11.4259
ܠܡܕܟܝܘ	-11.426
ܬܪܝܡ	-11.4264
ܠܩܫܝܫ	-11.4271
ܕܡܟܤ	-11.4278
ܡܚܫܒܬܗ	-11.4287
ܐܥܡܕܬ	-11.429
ܘܡܬܚܫܒ	-11.4294
ܫܩܠܘ	-11.4305
ܕܒܙܒܢ	-11.4306
ܘܫܬ	-11.4312
ܘܐܒܘܟ	-11.4315
ܢܚܛ	-11.4319
ܡܐܟܠ	-11.4319
ܘܕܝ	-11.432
ܕܛܘܪ	-11.4324
ܘܚܤܡ	-11.4324
ܒܠܥܕ	-11.4326
ܘܡܤܒܪ	-11.4327
ܘܦܪܩ	-11.4329
ܬܘܠܡ	-11.433
ܘܒܕܚܠܬ	-11.4343
ܕܡܛܐ	-11.4344
ܘܤܪܝܩ	-11.4345
ܘܒܛܠ	-11.4355
ܡܟܤܝ	-11.4358
ܘܫܕܝܗ	-11.4364
ܘܤܥܪ	-11.4367
ܘܕܥܘ	-11.4372
ܘܐܒܗܬ	-11.4376
ܢܤܬܟܠܘܢ	-11.4378
ܕܐܚܒܢ	-11.4379
ܪܚܝܩܝܢ	-11.4381
ܘܕܐܪܒܥ	-11.4385
ܕܤܒܪܝܢ	-11.4398
ܡܙܕܒܢ	-11.4401
ܡܬܟܢܫ	-11.4401
ܚܝܒܘܬ	-11.4405
ܚܙܝܬܘܢ	-11.4408
ܘܠܒ	-11.4411
ܘܐܤܬܡܟ	-11.4417
ܕܓܡܝܪ	-11.4428
ܕܟܪܡ	-11.4435
ܫܬܩܘ	-11.4445
ܕܩܕܡܝ	-11.4447
ܘܗܒܘ	-11.4458
ܘܦܬܚ	-11.4469
ܘܒܟܠܗ	-11.4475
ܛܘܠ	-11.4482
ܘܕܪ	-11.4488
ܘܠܥܤ	-11.4489
ܕܓܢܒ	-11.4491
ܡܘܬܗ	-11.4494
ܐܒܗܝܟ	-11.4496
ܘܫܘܒܚ	-11.4501
ܕܩܪܝ	-11.4504
ܕܫܪܒܬ	-11.4506
ܕܕܪ	-11.4512
ܡܕܥ	-11.4522
ܫܬܪܪ	-11.4531
ܢܓܕ	-11.4538
ܐܫܬܘ	-11.4541
ܘܐܟܠܬ	-11.4542
ܒܪܝܫ	-11.4549
ܢܪܚܡ	-11.4558
ܕܐܒܕܢ	-11.456
ܛܪܦ	-11.4563
ܐܫܬܟܚܬ	-11.4575
ܫܐܠܬ	-11.4581
ܘܬܒܥ	-11.459
ܬܬܚܝܒ	-11.4604
ܕܐܫܠܡܬ	-11.461
ܘܫܛ	-11.4618
ܓܘܫܡ	-11.4627
ܕܪܥܝܢ	-11.4629
ܘܐܬܝ	-11.4646
ܒܠܘ	-11.4665
ܙܠܝܢ	-11.4666
ܡܨܥܪ	-11.4667
ܒܥܘܪܠܘܬ	-11.4674
ܒܡܘܗܒܬ	-11.468
ܤܘܥܪܢ	-11.4692
ܐܙܝܥ	-11.4693
ܐܬܟܪܟܘ	-11.4693
ܛܫܝ	-11.4706
ܘܡܥܩ	-11.4723
ܕܕܡܟ	-11.4724
ܠܨܒܝܢܗ	-11.4732
ܐܡܪܚ	-11.4733
ܪܕܦܝܢ	-11.4751
ܘܫܒܘܩ	-11.4754
ܠܓܠܝܢ	-11.4759
ܐܘܒܕ	-11.476
ܕܡܬܚܙ	-11.4769
ܫܕܪܘ	-11.4772
ܠܡܟܝܟ	-11.4774
ܘܩܦ	-11.4776
ܕܪܘ	-11.4787
ܘܠܡܫܪ	-11.4796
ܘܚܪܬ	-11.4808
ܢܩܪܒܘܢ	-11.483
ܕܝܩ	-11.4835
ܡܦܝܤܝܢ	-11.4839
ܬܬܒܥ	-11.4867
ܠܓܐ	-11.4878
ܢܫܝܟ	-11.4891
ܬܝܗܝ	-11.4902
ܢܓܕܗ	-11.4907
ܘܩܪܒܬ	-11.491
ܕܢܫ	-11.4914
ܡܬܢܒܝܢ	-11.492
ܘܒܢܘ	-11.4932
ܢܝܩܪ	-11.4932
ܕܬܫ	-11.4936
ܐܙܕܩܦ	-11.4937
ܒܢܬ	-11.494
ܤܟܠܘܬܗ	-11.494
ܢܓܗ	-11.4946
ܠܡܚ	-11.4956
ܘܐܤ	-11.4958
ܕܘܢܝ	-11.4971
ܘܢܩܦ	-11.4983
ܐܥܡܕ	-11.4994
ܕܟܝ	-11.5009
ܘܐܒ	-11.5022
ܕܟ	-11.5032
ܬܦܬܚ	-11.5032
ܘܫܕ	-11.5039
ܬܩܫ	-11.5046
ܬܝܬܘܢ	-11.5056
ܬܪܓܪܓܘ	-11.5068
ܘܠܫ	-11.5071
ܕܢܪܡ	-11.5072
ܘܐܚܬ	-11.5079
ܘܐܒܐ	-11.508
ܘܒܪܬ	-11.5086
ܫܒܘܩܝ	-11.5087
ܢܝܗܝ	-11.5094
ܢܦ	-11.5097
ܘܚܡ	-11.5099
ܢܦܬܚ	-11.5104
ܢܫܕܪ	-11.5106
ܠܡܦܩܘ	-11.511
ܕܤܐܡ	-11.5115
ܘܒܘܪܟ	-11.5116
ܕܟܦܢ	-11.5118
ܠܡܝ	-11.5123
ܢܥܒܪܢ	-11.5124
ܤܘܟܠ	-11.5137
ܠܟܪܤ	-11.5139
ܠܢܦܫܬ	-11.5148
ܘܚܡܫ	-11.5156
ܙܘܪ	-11.5161
ܒܚܛܗ	-11.5184
ܬܝܬܪ	-11.5188
ܝܘܡܝ	-11.5189
ܘܡܤܟ	-11.5193
ܐܬܛܦܝܤ	-11.5219
ܦܬܘܪܗ	-11.5232
ܘܓܪ	-11.5258
ܪܓܡ	-11.5264
ܝܫ	-11.5268
ܩܒܠܢ	-11.527
ܪܘܚܢܐ	-11.5283
ܕܡܤܒܪ	-11.5285
ܕܫܩܝܠ	-11.5296
ܠܘܤ	-11.5319
ܒܐܒܝ	-11.532
ܠܒܤܪ	-11.5324
ܘܡܢܗ	-11.5334
ܕܫܠܝܛ	-11.5337
ܐܚܒ	-11.5343
ܤܝܢܝ	-11.5345
ܠܟܪܡ	-11.535
ܥܡܕܘ	-11.5364
ܢܪܡ	-11.5368
ܒܟܢܫ	-11.5384
ܘܪܝܫ	-11.5392
ܛܢܝܢ	-11.5393
ܕܟܐܢ	-11.5393
ܥܪܤܗ	-11.5395
ܘܡܠܬ	-11.5404
ܡܬܒܥܝ	-11.541
ܬܓܪ	-11.5413
ܬܐܟܠܘ	-11.5426
ܘܥܠܬ	-11.5455
ܢܫܟܚܝ	-11.5458
ܢܘܕܥ	-11.5462
ܕܤܗܕܘܬ	-11.5464
ܕܤܢܝܩ	-11.547
ܘܕܟܠܗ	-11.5478
ܘܡܤܝܒܪܢܘܬ	-11.5502
ܒܢܟܠ	-11.5508
ܘܡܦܝܤ	-11.5518
ܕܙܝ	-11.552
ܐܦܩܬ	-11.5528
ܡܨܠܝ	-11.5534
ܕܐܘܠܨܢ	-11.5535
ܕܡܗܠܟ	-11.5538
ܩܛܠܝ	-11.5539
ܕܐܬܚܙܝ	-11.5547
ܕܡܐܬ	-11.5547
ܕܓܘ	-11.5559
ܡܬܚܦܛ	-11.5572
ܠܚܒܪ	-11.5575
ܡܟܬܪ	-11.5577
ܢܛܝܟ	-11.5577
ܬܦܠܓ	-11.558
ܘܫܡܗ	-11.5585
ܕܢܤܬ	-11.5596
ܠܐܤܘܪ	-11.5633
ܬܝܢ	-11.5639
ܘܫܡܝ	-11.5644
ܘܡܬܝ	-11.5653
ܘܒܨܦ	-11.5669
ܝܠܦܬ	-11.568
ܐܪܝܡ	-11.5684
ܘܐܚܪ	-11.5695
ܗܪܝܢ	-11.5701
ܢܙܒܢ	-11.5704
ܠܩܘ	-11.5714
ܥܪܒܝ	-11.5735
ܩܕܡܝܗ	-11.5758
ܘܠܠ	-11.5786
ܕܡܦܩ	-11.5806
ܡܬܟܫܠ	-11.5809
ܪܕܦܘ	-11.5817
ܬܩܒܠ	-11.5822
ܐܤܝ	-11.5828
ܕܡܚ	-11.5833
ܡܤܪܗܒ	-11.5836
ܘܥܪܒ	-11.5837
ܡܥܪ	-11.5841
ܠܡܕܒܪ	-11.5847
ܚܫܚ	-11.5848
ܒܗܕܡܝ	-11.5863
ܒܚܪ	-11.5885
ܦܠܓܘ	-11.5905
ܨܠ	-11.5907
ܪܘܝܘ	-11.5918
ܘܐܤܝܪ	-11.5918
ܬܫܒܚ	-11.5927
ܡܬܩܪܝ	-11.5939
ܒܐܘܪܝ	-11.5941
ܓܝܢ	-11.5942
ܘܛ	-11.5949
ܡܕܥܝ	-11.595
ܕܡܬܪܥ	-11.5954
ܦܬ	-11.5956
ܠܚ	-11.596
ܬܢܤ	-11.5968
ܒܓܘ	-11.5969
ܘܠܐܪܡ	-11.5974
ܘܢܐܙܠ	-11.5985
ܕܦܐ	-11.5992
ܚܫܘܒ	-11.5998
ܕܩܢ	-11.5998
ܢܟܦܢ	-11.6002
ܕܡܘܪ	-11.6005
ܕܫܘܝ	-11.6016
ܡܬܝܠܕ	-11.6018
ܤܒܪܢ	-11.602
ܚܫܟ	-11.6028
ܡܫܓ	-11.6029
ܘܦܓܪ	-11.6051
ܘܡܨܠ	-11.6052
ܠܬܪܥ	-11.6052
ܠܛܝܒܘܬ	-11.6053
ܘܥܒܕܝܢ	-11.6058
ܘܢܚܬܘ	-11.6079
ܢܟܤܝ	-11.608
ܐܝܬܝܟ	-11.6081
ܢܨܒ	-11.6092
ܩܒܘ	-11.6096
ܡܘܡܬ	-11.6098
ܘܐܚܝܕ	-11.6104
ܕܢܪܕ	-11.6108
ܐܬܦܪܫ	-11.6109
ܬܪܓܡ	-11.6117
ܬܠܘ	-11.6123
ܐܩܝܡܘ	-11.613
ܒܥܝܢܝ	-11.6134
ܒܡܩܕ	-11.6138
ܗܠܟ	-11.6146
ܝܬܒܬ	-11.6149
ܒܢܝܟܝ	-11.615
ܕܦܠܓ	-11.6152
ܠܦܝܠ	-11.6153
ܘܡܫܘ	-11.6153
ܬܘܬܪ	-11.6159
ܬܐܪܬܗ	-11.6172
ܬܫܬܘ	-11.618
ܘܡܠܦܢ	-11.6195
ܐܫܬܘܕܥܘ	-11.6208
ܐܬܐܤܝ	-11.6229
ܢܩܛܠܘܢ	-11.623
ܤܩܘ	-11.6232
ܐܬܕܟ	-11.6232
ܕܐܬܦܩܕ	-11.6232
ܓܢܤ	-11.6242
ܐܫܬܪܝ	-11.625
ܡܫܬܒܚ	-11.6263
ܥܡܘܪ	-11.6267
ܠܦܝ	-11.6271
ܪܪܟ	-11.6271
ܡܨܒܬ	-11.6274
ܚܘܕܘ	-11.6275
ܘܦܠܓ	-11.628
ܬܫܢܝܩ	-11.6292
ܢܤܐ	-11.6297
ܬܬܩܠ	-11.6298
ܡܥܠܢ	-11.6299
ܐܬܚܝܠ	-11.6299
ܒܛܘܫܝ	-11.6306
ܙܩ	-11.6308
ܘܢܓܕ	-11.6308
ܘܠܘܬ	-11.6311
ܚܡܤܢ	-11.6315
ܡܪܥܝܬ	-11.6316
ܢܫܬܘ	-11.6318
ܟܪܘܙ	-11.6319
ܘܒܝܘܡ	-11.6321
ܢܟܦܘ	-11.633
ܡܬܦܠܓ	-11.6333
ܕܠܒܢܝܢ	-11.6334
ܟܪܤܗ	-11.6335
ܡܤ	-11.6336
ܙܪܥܟ	-11.6339
ܪܩܘܢ	-11.6344
ܪܢܝܐ	-11.6356
ܡܬܐܤܝ	-11.6358
ܐܘܡܢܘܬܗ	-11.6359
ܙܒܢܝ	-11.6364
ܩܪܘ	-11.6368
ܩܪܒܝܢ	-11.6369
ܕܬܫܟܚ	-11.6372
ܐܝܙܓܕ	-11.6383
ܕܙܪܝܥ	-11.6383
ܕܦܩܝܕ	-11.6383
ܡܫܬܟܚ	-11.6383
ܓܪܝܨ	-11.6384
ܛܝܡܝ	-11.6384
ܒܛܟܤ	-11.6384
ܠܓܝܘܢ	-11.6385
ܬܩܦ	-11.6386
ܕܢܬܢܛܪ	-11.6389
ܬܬܥܝܩ	-11.6389
ܟܢܘܬܗ	-11.6389
ܦܟܝܗ	-11.639
ܡܬܬܢܝܚ	-11.639
ܐܬܟܪܗ	-11.639
ܫܡܘܥ	-11.6391
ܘܢܚܝܒܘܢ	-11.6391
ܡܬܬܢܚ	-11.6393
ܦܫܝܓ	-11.6394
ܢܬܡܟܟ	-11.6394
ܡܪܥܬ	-11.6397
ܕܢܬܩܢ	-11.6398
ܚܒܢܢ	-11.6399
ܕܬܚ	-11.6401
ܡܬܬܩܠ	-11.6401
ܩܝܛ	-11.6401
ܩܐܪܤ	-11.6402
ܬܤܝܡ	-11.6403
ܐܤܪ	-11.6403
ܒܩܢܝ	-11.6406
ܢܬܚܠܦ	-11.6407
ܢܩܛܪܓܘܢ	-11.6408
ܓܙܝܪ	-11.641
ܢܐܚܕܘܢ	-11.6413
ܡܫܬܘܕܥܝܢ	-11.6414
ܟܘܠܬܢ	-11.6414
ܕܢܟܪܙ	-11.6414
ܒܤܘܥܪܢ	-11.6415
ܡܤܬܥܪ	-11.6416
ܐܬܬܙܝܥ	-11.6418
ܢܫܩܠܘܢ	-11.6418
ܕܙܠ	-11.6421
ܐܬܚܪܪܬ	-11.6422
ܕܛܝܒ	-11.6424
ܠܚܤܝܪܘܬ	-11.6424
ܡܫܬܝ	-11.6426
ܐܬܕܡܝܬ	-11.6426
ܐܫܬ	-11.6429
ܡܬܪܓܪܓ	-11.6429
ܘܚܢܩ	-11.6432
ܚܠܨ	-11.6432
ܡܬܬܘܤܦ	-11.6432
ܒܪܒܘܬ	-11.6433
ܐܘܩܝܢ	-11.6434
ܘܐܬܪܥܝ	-11.6436
ܬܫܬܘܬܦ	-11.6436
ܚܦܛ	-11.6436
ܡܬܪܤ	-11.6438
ܢܓܢ	-11.6441
ܥܩ	-11.6443
ܠܡܫܠܡܘ	-11.6446
ܛܥܡ	-11.6447
ܕܐܚܒܬ	-11.645
ܡܘܢ	-11.645
ܠܡܦܬܚ	-11.6455
ܨܗ	-11.6458
ܢܫܘܛ	-11.6458
ܡܚܘܝ	-11.6463
ܬܪܘܨ	-11.6466
ܕܦܢܛ	-11.6468
ܢܬܝܠܕ	-11.6468
ܒܫܘܠܡ	-11.6471
ܢܪܓ	-11.6472
ܕܒܛܠ	-11.6473
ܠܡܫܬܘܬ	-11.6474
ܠܡܒܥ	-11.6476
ܕܢܫܬܥܒܕ	-11.6483
ܡܚܪܪ	-11.6484
ܕܛܢܢ	-11.6485
ܝܬܪ	-11.6485
ܕܐܤܛܦܢ	-11.6489
ܕܢܤܗܕ	-11.6495
ܕܢܩܦ	-11.6496
ܘܬܩܢܬ	-11.6497
ܕܡܒܝܐ	-11.6497
ܘܠܝܬܝܗ	-11.65
ܦܫܝ	-11.6502
ܐܬܬܤܝܡ	-11.6504
ܘܐܬܚܝܠ	-11.6504
ܕܐܦܩ	-11.6505
ܡܬܝܬܪܝܢ	-11.6517
ܡܬܕܝܢܝܢ	-11.6519
ܕܡܤܟܠ	-11.6523
ܘܛܥܡ	-11.6523
ܡܒܛܠ	-11.6525
ܬܬܠ	-11.6526
ܕܬܩܒܠܘܢ	-11.6527
ܐܫܬܘܕܝ	-11.6533
ܬܬܟܤ	-11.6533
ܡܬܝܬܪ	-11.6535
ܘܠܕܝܬܒ	-11.6535
ܦܤܩܘ	-11.6536
ܢܚܕܘܢ	-11.6538
ܢܬܬܢܝܚ	-11.6539
ܨܒܥܬ	-11.654
ܕܝܫ	-11.6541
ܐܒܕ	-11.6541
ܬܐܒܕ	-11.6541
ܬܬܕܡ	-11.6542
ܘܛܢܢ	-11.6546
ܬܟܤܝܬ	-11.6549
ܒܩܤܪ	-11.6552
ܥܫܝܢ	-11.6553
ܬܒܥܘܢ	-11.6561
ܚܕܪܘܗ	-11.6567
ܕܚܐܪ	-11.6572
ܒܤܓܝ	-11.6574
ܢܗܦܟ	-11.6577
ܢܬܬܤܝܡ	-11.6582
ܘܐܫܬܘܕܥܘ	-11.6587
ܓܢܬ	-11.6592
ܕܠܡܠܐܟ	-11.6592
ܘܡܚܪ	-11.6593
ܕܛܥܝܢ	-11.6595
ܕܢܗܦ	-11.6597
ܒܟܤܦ	-11.6598
ܘܠܩܫܝܫ	-11.66
ܕܢܬܓܠ	-11.6601
ܐܤܪܘܢ	-11.6602
ܢܫܡܫܘܢ	-11.6607
ܢܒܤ	-11.6609
ܒܦܫܝܛܘܬ	-11.6616
ܡܬܚܠܡ	-11.6629
ܢܦܪܫ	-11.6642
ܛܢܘ	-11.6645
ܕܛܡܐ	-11.6649
ܠܪܗܘܡܝ	-11.6652
ܠܬܢܝܢ	-11.6659
ܕܐܬܗܝܡܢ	-11.6659
ܠܒܥܠܕܒܒܝ	-11.6662
ܢܟܤܬ	-11.6663
ܡܨܥܪܢ	-11.6668
ܘܟܘܪܗܢ	-11.6669
ܒܚܪܝܢ	-11.6671
ܬܬܦܠܓ	-11.668
ܐܬܦܫܚ	-11.6687
ܘܪܛܢ	-11.6692
ܒܥܘܬ	-11.6694
ܘܡܬܝܗܒ	-11.6699
ܕܡܚܝܢ	-11.67
ܦܘܢܝ	-11.6705
ܬܩܪ	-11.6706
ܘܡܫܬܥ	-11.671
ܠܡܐܬܝܬ	-11.6713
ܕܡܝܩܪ	-11.6718
ܠܚܨܕ	-11.6719
ܘܡܠܐ	-11.6721
ܘܒܦ	-11.673
ܕܒܕܚܠܬ	-11.6731
ܒܫܗ	-11.6734
ܕܬܪܥܝܬ	-11.674
ܬܚܠܛ	-11.6747
ܡܬܙܝܥ	-11.675
ܠܡܕܝܢܬܗ	-11.675
ܦܪܕ	-11.6753
ܘܫܪܪ	-11.6755
ܒܐܪܒܥ	-11.6756
ܘܢܥܒܕܘܢ	-11.6759
ܘܝܩܕ	-11.6765
ܤܝܡܘ	-11.6766
ܘܪܕܘ	-11.6766
ܠܕܪܬ	-11.6767
ܢܕܘܢ	-11.6769
ܒܐܬ	-11.6771
ܝܥܢܘܬ	-11.6775
ܕܝܕܥܬܘܢ	-11.6776
ܒܐܝܤܪ	-11.6779
ܕܚܨܕ	-11.6779
ܘܫܠܚ	-11.6779
ܓܡܘܪ	-11.6781
ܫܘܚܢ	-11.6782
ܘܚܬܡ	-11.6783
ܘܐܚܝܟ	-11.679
ܕܪܟܬ	-11.6795
ܟܬܒܝܢ	-11.6811
ܡܒܗܬ	-11.6812
ܩܘܪܒܢܝ	-11.6819
ܕܢܫܠܡܘܢ	-11.6819
ܢܤܦܩ	-11.6819
ܠܤܦܪ	-11.682
ܒܕܪܬ	-11.6827
ܘܥܠܘܒ	-11.6831
ܚܫܒܬ	-11.6837
ܕܐܦܠܘ	-11.6839
ܕܢܛܥ	-11.6841
ܕܢܩܒܠ	-11.6843
ܕܢܩܪܘܢ	-11.6845
ܫܪܘܢ	-11.6847
ܝܩܝܪܐ	-11.6866
ܕܐܫܬܠܡ	-11.6872
ܠܐܚܝܟ	-11.6875
ܕܐܚܪܢ	-11.688
ܨܚ	-11.6883
ܬܪܒܝܬ	-11.6885
ܡܤܟܠܝܢ	-11.6889
ܒܚܪܒ	-11.689
ܘܒܒܝܬ	-11.6893
ܘܐܝܤ	-11.6905
ܘܡܟܪܙܝܢ	-11.6909
ܕܡܤܗܕ	-11.6913
ܘܤܛ	-11.6917
ܘܡܐܟܠ	-11.6919
ܫܫܠ	-11.693
ܘܐܟܪܙ	-11.6933
ܡܚܒܠܢ	-11.6933
ܒܬܠܬ	-11.6934
ܘܒܥܠܕܒܒ	-11.6936
ܥܪܦ	-11.6944
ܘܛܡܐ	-11.6944
ܦܠܓ	-11.6967
ܘܢܫܒܚ	-11.6967
ܕܒܐܓܪ	-11.6975
ܘܒܚܕܘܬ	-11.6979
ܬܗܝܪ	-11.6993
ܤܝܒܪܘ	-11.6993
ܘܐܫܬܡܥ	-11.7003
ܬܒܝܐܘ	-11.7012
ܠܡܪܥ	-11.7016
ܬܫܡܥ	-11.7018
ܦܚ	-11.702
ܕܐܓܪܬ	-11.703
ܫܠܡܟ	-11.7037
ܒܬܝܗ	-11.7037
ܬܬܩܪܒ	-11.7039
ܒܪܘܓܙ	-11.7042
ܓܕܦܘ	-11.7051
ܘܢܘܪ	-11.7052
ܕܢܫܩ	-11.7056
ܐܪܛܡ	-11.706
ܘܟܦܢ	-11.7062
ܛܦ	-11.7068
ܕܒܪܝ	-11.7069
ܘܐܬܬܢܝܚ	-11.7076
ܠܤܒܪ	-11.7089
ܕܒܕܪ	-11.7092
ܒܕܡܝ	-11.7093
ܘܡܤ	-11.7093
ܕܦܬ	-11.7094
ܘܒܛܝܒܘܬ	-11.7098
ܐܤܦܘ	-11.7101
ܕܢܓܠ	-11.7102
ܡܩܕܡ	-11.7102
ܡܬܐܠܨܝܢ	-11.7106
ܘܐܬܓܠܝ	-11.711
ܤܦܘܬܗ	-11.7113
ܠܡܥܡܕ	-11.7113
ܡܚܘܢ	-11.7116
ܬܛܝܒ	-11.7121
ܒܠܥ	-11.7122
ܘܐܬܩܪܒ	-11.7125
ܪܝܡܘ	-11.7131
ܩܕܝܫܘܬ	-11.7132
ܫܕ	-11.7135
ܒܛܢܬ	-11.7141
ܡܬܒܤܡ	-11.7145
ܐܤܛܤܝ	-11.7148
ܕܫܐܠ	-11.7148
ܕܨܒܝ	-11.715
ܢܕܚܠ	-11.7154
ܐܦܝܟ	-11.716
ܫܠܡܘ	-11.716
ܡܬܢܒܝ	-11.7165
ܕܢܫܡܥܘܢ	-11.7174
ܚܨܝ	-11.7174
ܢܦܨܝܢ	-11.7178
ܪܥܝܢܝ	-11.7179
ܕܨܦܪ	-11.7179
ܨܒ	-11.7187
ܕܐܫܕܪ	-11.7188
ܘܒܙܒܢ	-11.7213
ܤܕܩ	-11.7222
ܫܚܩ	-11.7223
ܡܠܝܟ	-11.7228
ܠܐܚܝ	-11.7234
ܘܟܐܒ	-11.7237
ܘܢܬܦ	-11.7244
ܪܝܫܝܬ	-11.726
ܗܠܟܬ	-11.7265
ܒܫܬ	-11.7267
ܘܙܕܝܩܘܬ	-11.7277
ܨܘܡ	-11.7285
ܕܦܪܫ	-11.7291
ܠܥܩܪ	-11.7301
ܘܦܥ	-11.7308
ܦܘܩܕܢܝ	-11.7311
ܬܩܕܫ	-11.7313
ܕܐܫ	-11.7314
ܕܢܦܩܘ	-11.7321
ܐܚܒܬܟ	-11.7328
ܬܟܫܠܘ	-11.7332
ܘܥܪܛܠܝ	-11.7334
ܬܚܙܝܢ	-11.734
ܡܬܩܪ	-11.7352
ܕܐܬܩܪܝܬ	-11.7371
ܬܩܝܡ	-11.7381
ܪܘܫܥ	-11.7387
ܕܐܦܢ	-11.739
ܐܘܕܥ	-11.7406
ܕܢܗܪ	-11.7408
ܕܚܡܫ	-11.7416
ܘܐܘܕܥ	-11.742
ܤܠܡܘܢ	-11.7425
ܕܒܒܝܬܗ	-11.7426
ܕܝܘܛ	-11.7428
ܫܘܛ	-11.7436
ܘܡܗܠܟܝܢ	-11.7436
ܡܕܓܠ	-11.7441
ܫܒܚܬ	-11.7443
ܥܬܪܘ	-11.7445
ܢܨܗ	-11.7446
ܒܕ	-11.7454
ܚܘܝܬ	-11.746
ܕܒܠܒ	-11.7464
ܒܚܪܘ	-11.7466
ܟܢ	-11.7469
ܢܬܟܬܒ	-11.7472
ܠܚܤܝ	-11.7482
ܩܦܚܝܢ	-11.7497
ܒܨܝܪܐ	-11.7503
ܕܢܨ	-11.7503
ܡܬܕܡ	-11.7513
ܕܕܒܪ	-11.7516
ܢܩܥ	-11.7524
ܒܫܪܒܬ	-11.754
ܩܪܩܦܬܗ	-11.7545
ܘܒܐܝ	-11.7548
ܘܝܠܦ	-11.7552
ܕܠܒܗ	-11.7557
ܘܕܬܠܬ	-11.7559
ܕܢܡܠ	-11.7564
ܟܦܪܬ	-11.7572
ܘܐܓܪ	-11.7573
ܫܠܝܢ	-11.7575
ܕܐܤܠܝܘ	-11.759
ܬܚܠܡ	-11.7598
ܟܟܪܝ	-11.7606
ܐܤܩ	-11.7609
ܘܤܝܡ	-11.7618
ܠܙܕܝܩܘ	-11.7622
ܘܢܗܝܡܢ	-11.7622
ܤܬܡܟܘ	-11.7627
ܒܩܛ	-11.7637
ܘܒܝ	-11.7657
ܘܐܫܬ	-11.7678
ܪܒܘܢ	-11.7686
ܕܬܐܒ	-11.7686
ܠܪܝܫ	-11.7688
ܘܐܘܪܚ	-11.769
ܕܦܝܠ	-11.7695
ܘܒܝܫ	-11.7704
ܒܤܓܝܐ	-11.7708
ܫܘܥܒܕ	-11.7708
ܕܠܚ	-11.7715
ܬܬܢܤ	-11.7725
ܒܩܕܝܫܘ	-11.7739
ܬܘܠܥ	-11.7757
ܒܗܘܦܟ	-11.7764
ܕܩܥܝ	-11.7765
ܥܕܠܝ	-11.7766
ܨܦܬ	-11.7771
ܘܒܠܥ	-11.7774
ܒܒܢܝ	-11.779
ܒܤܝܡܐ	-11.7791
ܕܚܘ	-11.7793
ܓܝܘ	-11.7796
ܕܚܙܝ	-11.7796
ܤܘ	-11.7796
ܫܠܡܢܝ	-11.7803
ܕܤܓܕ	-11.7814
ܐܘܠܨܢܝ	-11.7814
ܐܪܡ	-11.785
ܢܢܗܪ	-11.7862
ܢܝܚܘ	-11.7873
ܬܪܥܘ	-11.7874
ܕܡܡܬ	-11.7878
ܕܡܥܠ	-11.7882
ܐܬܝܬܪ	-11.7883
ܒܒܘܝܐ	-11.7887
ܘܚܫܘܟ	-11.789
ܘܬܘܠܬ	-11.789
ܕܡܫܬ	-11.7891
ܘܪܤܝ	-11.7891
ܐܡܠܟܬ	-11.7891
ܘܪܚ	-11.7903
ܡܡܬ	-11.7904
ܕܪܘܓܙܗ	-11.7908
ܒܩܕܝܫ	-11.7912
ܫܬܠܡ	-11.7917
ܬܢ	-11.7921
ܕܚܝܝ	-11.7926
ܐܫܬܝܘ	-11.7942
ܒܪܫܗ	-11.7944
ܘܚܕܝ	-11.7951
ܗܪܘܕܝ	-11.7958
ܪܓܙܘ	-11.7962
ܦܪܘܫ	-11.7963
ܘܤܦܘ	-11.7965
ܒܨܪܬ	-11.7966
ܘܡܬܐ	-11.7987
ܬܦܪܥ	-11.7989
ܬܛܪ	-11.7993
ܫܘܘ	-11.8017
ܕܬܟܝܠ	-11.802
ܙܕܒܢ	-11.8021
ܘܠܗܢ	-11.8029
ܘܠܪܘܚ	-11.8032
ܘܐܘܠܨܢ	-11.8042
ܫܬܒܩ	-11.8043
ܘܬܟ	-11.805
ܬܕܡܘ	-11.8056
ܘܒܩܘܪ	-11.806
ܘܙܥܘܪ	-11.806
ܒܤܪܗ	-11.8076
ܕܘܒܪܝ	-11.8112
ܫܢܝܗ	-11.8128
ܘܫܚ	-11.8135
ܪܘܝ	-11.8141
ܕܡܫܬܡ	-11.8142
ܘܠܟ	-11.815
ܦܫܩ	-11.8179
ܕܙܥܘܪ	-11.8191
ܨܠܘܬܟ	-11.8191
ܕܒܬܪ	-11.8194
ܠܡܚܫ	-11.8194
ܓܢ	-11.8196
ܠܢܘܗܪ	-11.821
ܡܘܪܒ	-11.8218
ܪܝܢܝ	-11.8225
ܙܝܥ	-11.8226
ܢܤܒܢ	-11.8238
ܐܬܬܢܝܚ	-11.824
ܐܢܝܚ	-11.8244
ܘܟܠܝܠ	-11.8245
ܐܘܕܥܢ	-11.8249
ܐܫܬܡܥ	-11.8249
ܕܡܬܢܒ	-11.8251
ܘܡܨ	-11.8254
ܠܕܘܟܬܗ	-11.8255
ܘܪܤ	-11.8262
ܬܒܝܐܘܢ	-11.8265
ܘܗܓܡ	-11.8265
ܡܫܬܡܗ	-11.8266
ܠܓ	-11.8276
ܐܬܩܕܫ	-11.8278
ܡܟܬܡ	-11.831
ܘܥܝܢܝ	-11.8313
ܒܪܟܘ	-11.8317
ܠܡܗܝܡܢ	-11.8318
ܐܫܩܝܬ	-11.8325
ܥܗܕܘ	-11.8331
ܕܫܪܝܪܐ	-11.8342
ܤܪܝܩܘܬ	-11.8355
ܡܬܕܟ	-11.8367
ܟܘܪܗܢܝ	-11.8378
ܬܦܟ	-11.839
ܐܠܟܤܢܕܪܝ	-11.8392
ܐܫܬܘܬܦܬ	-11.8394
ܢܒܘܢ	-11.8425
ܕܚܘܝ	-11.8441
ܤܦܝܢ	-11.8464
ܦܗ	-11.8466
ܪܛܢܘ	-11.8494
ܬܬܪܥ	-11.8497
ܕܤܪܝܩ	-11.8504
ܡܠܐܟܝ	-11.854
ܐܝܕܝܟ	-11.8544
ܘܐܫܬܥ	-11.8563
ܫܪܝܬ	-11.8564
ܘܡܘܪ	-11.8571
ܬܘܒܘ	-11.8583
ܘܓܐ	-11.8584
ܕܒܝܫܐ	-11.8597
ܕܬܫܪ	-11.8601
ܡܝܬܝ	-11.8625
ܘܫܒܩܬ	-11.8628
ܥܨܝܢ	-11.863
ܕܢܟ	-11.8631
ܘܠܪ	-11.8666
ܘܒܢ	-11.8712
ܚܕܝܗ	-11.8728
ܢܐܩܪ	-11.8729
ܘܬܡ	-11.8739
ܐܫܠܡܬܘܢ	-11.8739
ܐܫܬܥܒܕ	-11.8749
ܘܒܩܛ	-11.8766
ܠܒܝ	-11.8776
ܘܐܚܒ	-11.8797
ܫܟܝ	-11.8797
ܤܬܪܩ	-11.88
ܕܥܒܕܢ	-11.8807
ܕܚܡ	-11.8824
ܕܩܨ	-11.8835
ܘܢܩܘܡ	-11.8843
ܠܥܡܘܪ	-11.8846
ܐܬܓܒ	-11.8847
ܒܥܙ	-11.8866
ܥܘܝܪ	-11.8873
ܕܡܦܩܕ	-11.8891
ܕܐܚܫܡ	-11.8903
ܝܬܝܪܘܬ	-11.891
ܕܒܐܪ	-11.8934
ܡܤܟ	-11.894
ܕܡܫܬܒܗܪ	-11.8952
ܬܬܙܝܥ	-11.8968
ܪܡܝܘ	-11.897
ܪܘܒ	-11.8993
ܕܢܟܤ	-11.9013
ܤܬܟܠܘܢ	-11.9022
ܕܨܗ	-11.9027
ܬܛܥܡ	-11.9031
ܕܬܒܥ	-11.9047
ܚܫܝܢ	-11.9049
ܨܒܥ	-11.9054
ܠܡܩ	-11.9056
ܘܦܘܡ	-11.9059
ܕܓܦ	-11.9076
ܛܥ	-11.9078
ܘܢܤܬ	-11.9079
ܠܡܚܙܝ	-11.9082
ܘܚܐܪ	-11.9085
ܘܡܦܤ	-11.9091
ܗܝܡܢܬ	-11.9103
ܪܗܘܡܐ	-11.9121
ܕܚܤܝܪ	-11.9122
ܘܓܕ	-11.9139
ܬܬܥܝܪ	-11.9152
ܐܬܢܒ	-11.9154
ܬܠܡܕ	-11.9186
ܘܩܛܠܘ	-11.9187
ܠܛܪ	-11.9191
ܐܠܟܤܢܕܪ	-11.9192
ܩܝܡܝ	-11.9201
ܡܪܛܘܛ	-11.9236
ܕܐܫܬ	-11.9237
ܦܘܫ	-11.9254
ܕܬܫܬ	-11.9255
ܒܒܥܘܬ	-11.9259
ܐܚܫܡܝܬ	-11.9266
ܢܬܐܤ	-11.9278
ܠܬ	-11.9278
ܡܬܩܪܒ	-11.9284
ܕܪܬ	-11.9286
ܚܒܬ	-11.9288
ܕܡܫܬܘܬ	-11.9296
ܐܬܒܤܡ	-11.9323
ܦܪܫܘ	-11.9351
ܠܥܒܕܝ	-11.9361
ܘܡܦ	-11.9362
ܕܡܤܒܪܢ	-11.9377
ܟܬܪ	-11.9378
ܐܤܛܪܛ	-11.9386
ܠܬܪܝ	-11.9392
ܦܫܝܛܘܬ	-11.9403
ܒܚܒ	-11.9403
ܥܡܘܕ	-11.941
ܟܐܝ	-11.9415
ܘܫܝܢ	-11.9431
ܡܠܝܘ	-11.9436
ܒܨܪ	-11.9442
ܕܫܝܠ	-11.9445
ܡܩܘܝ	-11.9452
ܬܫܟܚ	-11.9452
ܫܩܠܝ	-11.9456
ܡܙܓ	-11.9468
ܬܬܡܠ	-11.9483
ܐܫܬܘܕܥ	-11.9486
ܒܕܘܟ	-11.9489
ܕܐܪܡܝ	-11.9508
ܕܙܒܘ	-11.9512
ܪܬܝܢ	-11.9515
ܘܫܐܠܘ	-11.9519
ܕܒܒܝܬ	-11.952
ܐܬܓܡܪ	-11.9523
ܢܨ	-11.9526
ܥܩܬ	-11.9527
ܩܦܤ	-11.9528
ܒܦܓܪܝ	-11.9529
ܠܪܥܝ	-11.953
ܢܕܪܟ	-11.9535
ܠܡܘܒܕܘ	-11.9546
ܢܩܒܬ	-11.9548
ܘܡܩܘ	-11.9549
ܢܘܤ	-11.9552
ܡܤܝܒܪ	-11.9563
ܬܦܩ	-11.9566
ܬܓܡܪܘ	-11.957
ܡܦܩܕܝܢ	-11.9578
ܘܠܒܝܬ	-11.9584
ܐܤܬܒܪ	-11.9586
ܐܬܟܤܝ	-11.9597
ܢܬܦܬܚ	-11.9604
ܤܢܝܩܘܬ	-11.9608
ܕܫܝ	-11.9609
ܡܟܬܒ	-11.9611
ܕܛܘ	-11.9616
ܫܦܝ	-11.962
ܚܛܦ	-11.9622
ܡܬܕܟܪ	-11.9623
ܚܕܪܝ	-11.9625
ܐܙܕܕܩ	-11.9639
ܬܬܦ	-11.9653
ܪܗܒܘ	-11.9657
ܙܗܪ	-11.9657
ܥܛܝܦ	-11.9657
ܘܕܝܘܤ	-11.9658
ܩܛܪܓ	-11.9688
ܬܟܫܦ	-11.9693
ܢܓܕܦ	-11.9696
ܠܝܬܝܗ	-11.9697
ܠܘܩ	-11.9702
ܕܢܦܬ	-11.9703
ܢܬܩܪܒ	-11.9703
ܙܕܩܬܟ	-11.9712
ܒܡܘܟܟ	-11.9717
ܠܤܘܚܦ	-11.9717
ܫܓܝܫ	-11.9717
ܪܕܝܦܘܬ	-11.9717
ܬܫܬܟܚ	-11.9717
ܤܬܢܩ	-11.9717
ܘܡܬܟܫܦܝܢ	-11.9717
ܫܒܗܪܢ	-11.9717
ܘܬܪܤܝ	-11.9717
ܛܪܘܦܝܡ	-11.9717
ܐܬܡܨܝ	-11.9719
ܕܡܕܪܟ	-11.9719
ܘܡܛܝܒ	-11.972
ܫܘܪܥܬ	-11.972
ܬܫܢܩܢ	-11.9721
ܤܘܢܩܢ	-11.9721
ܒܫܘܘܕܥ	-11.9723
ܐܬܦܫܛ	-11.9724
ܒܙܥ	-11.9724
ܓܓ	-11.9725
ܬܩܛܥ	-11.9726
ܒܪܓܝܓܬ	-11.9727
ܠܥܘܕܪܢ	-11.9728
ܠܡܐܤܝܘܬܗ	-11.9731
ܟܤܝܢ	-11.9731
ܠܬܝ	-11.9732
ܘܡܚܪܩ	-11.9732
ܐܬܟܬܫ	-11.9733
ܕܢܬܕܡܪ	-11.9733
ܐܬܚܢܢܬ	-11.9733
ܤܥܝܪ	-11.9734
ܬܩܢܘ	-11.9735
ܡܨܛܪܝ	-11.9736
ܬܚܘܡܝܗ	-11.974
ܘܐܫܦܥ	-11.9741
ܡܗܦܟܝܢ	-11.9742
ܪܕܝ	-11.9745
ܘܡܦܠܓ	-11.9747
ܤܦܝܩ	-11.9748
ܟܢܥܢ	-11.9749
ܨܛܥܪ	-11.9749
ܪܡܪܡ	-11.9749
ܠܡܝܬܝܘ	-11.975
ܕܢܡܚܘܢ	-11.9751
ܒܕܘܟܝܬ	-11.9752
ܘܛܫ	-11.9757
ܡܛܫܝܐ	-11.9759
ܘܬܩܢ	-11.9762
ܡܬܚܫܚ	-11.9762
ܐܬܬܪܝܡܬ	-11.9762
ܪܡܙ	-11.9766
ܐܬܒܨܪ	-11.9768
ܘܐܬܬܘܤܦ	-11.9768
ܬܬܚܫܒ	-11.977
ܡܘܩܕ	-11.9771
ܡܬܟܪܙ	-11.9771
ܠܡܪܓܙ	-11.9773
ܒܐܘܡܢܘܬ	-11.9773
ܕܐܬܢܝܚ	-11.9773
ܢܤܝܡܘܢ	-11.9773
ܡܬܚܪ	-11.9775
ܕܫܓܫ	-11.9775
ܡܬܦܫܩ	-11.9775
ܘܡܥܛܦ	-11.9777
ܠܡܙܥܩ	-11.9777
ܠܐܘܨܪ	-11.9778
ܪܓܫܝ	-11.9778
ܒܡܤܒ	-11.978
ܪܟܝܟ	-11.9783
ܡܠܟܗ	-11.9784
ܘܡܓܪ	-11.9785
ܬܬܘܒ	-11.9785
ܙܩܦܬܘܢ	-11.9787
ܕܥܛܝܦ	-11.9787
ܨܐܕ	-11.9794
ܒܡܐܟܠ	-11.9795
ܠܡܬܕܢ	-11.9797
ܘܪܬܝܬ	-11.9799
ܠܚܕܘܬܗ	-11.9803
ܕܒܠ	-11.9803
ܡܬܬܕܝܢ	-11.9805
ܕܡܠܝܟ	-11.9806
ܕܢܬܩܪܒ	-11.9808
ܡܫܬܚܠܦ	-11.9811
ܪܗܝܒ	-11.9813
ܘܐܙܕܕܩܬ	-11.9814
ܬܥܬܪ	-11.9815
ܘܬܕܘܢ	-11.9815
ܕܡܙܕܩ	-11.9816
ܡܬܚܡܬ	-11.9817
ܕܕܠܚ	-11.9817
ܕܐܫܬܒܩ	-11.9818
ܕܢܤܒܥ	-11.982
ܕܡܪܥܝܬ	-11.9821
ܘܙܦ	-11.9821
ܬܫܠܡܘܢ	-11.9822
ܕܡܬܦܠܓ	-11.9823
ܒܒܪ	-11.9824
ܘܩܛܠܬܘܢ	-11.9824
ܥܡܕܬ	-11.9825
ܬܕܘܕ	-11.9825
ܡܟܘܢ	-11.9826
ܘܪܡܙ	-11.9831
ܘܡܬܕܟܪ	-11.9831
ܕܤܘܥܪܢ	-11.9835
ܘܚܛܦ	-11.9836
ܕܬܩܝܡ	-11.9837
ܚܡܤܢܢ	-11.9842
ܕܐܬܟܪܙ	-11.9842
ܡܙܗܪ	-11.9843
ܡܫܬܒܩܝܢ	-11.9846
ܬܥܡܠ	-11.9855
ܐܘܪܚܬܗ	-11.9858
ܬܦܨܚܘ	-11.9859
ܕܒܘܩܝ	-11.9859
ܠܩܝܡܬ	-11.9861
ܘܚܫܟ	-11.9862
ܕܢܫܬܡ	-11.9867
ܬܬܚܕܬ	-11.9869
ܫܕܘ	-11.9873
ܘܡܨܒܬ	-11.9873
ܐܙܕܒܢܬ	-11.9874
ܒܫܘܒܗܪ	-11.9877
ܘܐܫܬܘܕܝ	-11.9879
ܘܒܤܝܡ	-11.9884
ܩܠܘܕܝ	-11.9889
ܠܡܘܒܕܘܬ	-11.9891
ܡܠܦܝܢ	-11.9894
ܘܫܚܩ	-11.9895
ܢܩܪܘܢ	-11.9899
ܘܐܘܒܕ	-11.9903
ܬܟܬܒܘ	-11.9903
ܫܒܩܝ	-11.9904
ܒܤܘܓܐ	-11.9906
ܕܦܝܤ	-11.9909
ܕܘܢܒܝܬ	-11.9911
ܫܘܫܢ	-11.9914
ܒܚܪܥܘܬ	-11.9915
ܠܙܥܘܪ	-11.9918
ܢܚܫܟ	-11.9918
ܘܐܫܬܪܝ	-11.9919
ܠܡܨܥܬ	-11.9921
ܕܠܘܛ	-11.9922
ܛܪܦܝܢ	-11.9922
ܬܩܪܒܘ	-11.9923
ܘܠܓܠܝܢ	-11.9928
ܕܦܬܝܚ	-11.9929
ܘܕܚܡܫ	-11.9932
ܘܢܪܡ	-11.9932
ܕܡܬܟܪܟ	-11.9933
ܕܫܘܘܕܝ	-11.9933
ܨܘܪܝ	-11.9934
ܘܛܝܒܘ	-11.9935
ܢܦܪܥ	-11.9936
ܘܟܡ	-11.9937
ܕܚܫܚܬ	-11.9939
ܘܤܒܪܘ	-11.9939
ܐܬܬܘܝ	-11.9943
ܕܛܝܒܬ	-11.9945
ܕܢܤܒܘ	-11.9946
ܕܡܥܤܪ	-11.9947
ܩܘܡܝ	-11.9948
ܘܙܩ	-11.9954
ܟܢܘܫ	-11.9962
ܘܫܒܩܘ	-11.9963
ܒܡܚܙ	-11.9963
ܝܨܝܦ	-11.9965
ܦܓܪܢ	-11.9966
ܘܠܩܝܡܬ	-11.9968
ܒܘܚܪܢ	-11.9969
ܕܟܪܝܘܬ	-11.9975
ܢܢܓܕܘܢ	-11.9988
ܘܛܫܝ	-11.9991
ܕܒܫ	-11.9992
ܐܒܗܝ	-11.9992
ܝܘܪܩ	-11.9994
ܘܢܩܫ	-11.9996
ܕܡܬܝܗܒ	-11.9997
ܕܓܡܠ	-11.9998
ܒܢܡܘܤܗ	-11.9998
ܘܠܐܦܝ	-11.9999
ܢܫܠܡܘܢ	-12.0003
ܐܬܓ	-12.0007
ܕܢܓܪ	-12.0011
ܘܡܤܒ	-12.0013
ܥܛ	-12.0015
ܢܫܬܘܢ	-12.0015
ܒܕܝܢܪ	-12.0015
ܕܢܤܡ	-12.0019
ܕܩܪܝܒܝܢ	-12.002
ܕܤܘܟ	-12.0025
ܕܬܩܘܡ	-12.0029
ܕܟܪܝ	-12.003
ܦܐܪܝܗ	-12.003
ܕܢܘܒܕܘܢ	-12.0033
ܘܒܪܓܝܓܬ	-12.0034
ܤܠܘܢ	-12.0036
ܘܐܬܐܒܠ	-12.0045
ܠܚܫ	-12.0054
ܒܤܘܟ	-12.0061
ܘܦܬܚܬ	-12.007
ܘܡܥܕܪܢ	-12.0072
ܤܗܕܘ	-12.0076
ܘܐܬܚ	-12.0076
ܐܒܕܘ	-12.0079
ܕܬܝ	-12.0081
ܒܤܕܘ	-12.0084
ܢܓܘ	-12.0085
ܬܒܚܪ	-12.0087
ܘܫܠ	-12.0088
ܐܬܩܒܪ	-12.0096
ܠܤܗܕܘܬܗ	-12.01
ܘܒܟܐܢܘܬ	-12.0103
ܬܡܟܟܘ	-12.0104
ܤܦܩܝܢ	-12.0115
ܐܘܩܕ	-12.0119
ܠܕܡܗ	-12.012
ܒܝܗܝ	-12.0123
ܘܡܠܘ	-12.0123
ܡܫܬܓܫ	-12.0124
ܘܐܠܝܨ	-12.0127
ܝܘܬܗ	-12.013
ܘܦܘܩ	-12.0133
ܘܩܒܠܬܘܢ	-12.0135
ܕܫܘܒܗܪ	-12.0138
ܕܝܪܬܘܬ	-12.0145
ܘܢܤܝܡ	-12.0148
ܘܒܢܝܗ	-12.0151
ܥܪܛܠܝ	-12.0152
ܘܡܚܦ	-12.0156
ܕܡܓܕܦ	-12.0159
ܘܡܛܥܝܢ	-12.0159
ܘܠܘܛ	-12.0161
ܘܛܥܢ	-12.0161
ܡܫܬܐܠ	-12.0164
ܘܢܨܠ	-12.0171
ܘܚܛ	-12.0173
ܢܥܡܕ	-12.0192
ܘܡܩܕܫ	-12.0194
ܬܗܪ	-12.0194
ܕܡܪܟ	-12.0198
ܘܒܤ	-12.0205
ܪܗ	-12.021
ܘܨ	-12.0213
ܕܢܡܘܬ	-12.0217
ܒܨܗܝ	-12.0219
ܝܪܝ	-12.022
ܘܡܫܠܡ	-12.0226
ܤܘܚܝܢ	-12.0227
ܩܒܠܗ	-12.0227
ܚܘܒܟ	-12.0242
ܘܠܒܢ	-12.0244
ܢܦܪܩ	-12.0244
ܘܒܫܘܩ	-12.0251
ܕܠܒܫ	-12.0252
ܕܫܥܒܕ	-12.0252
ܒܐܤܛ	-12.0256
ܕܠܒܘܫ	-12.0257
ܕܡܐܬܝܬ	-12.0257
ܕܡܟܤܝ	-12.0268
ܡܫܬܡܠ	-12.0278
ܠܐܪܟ	-12.028
ܘܫܪܓ	-12.029
ܘܡܫܬܥܒܕ	-12.0294
ܒܙܕܩܬ	-12.0301
ܘܫܘܬܦܘܬ	-12.0304
ܕܡܫܬܡܥ	-12.0306
ܒܟܪܝܗܘܬ	-12.031
ܠܩܪ	-12.0313
ܘܡܟܝܟ	-12.0314
ܦܛ	-12.0315
ܢܩܝܡ	-12.0316
ܕܤܗܕ	-12.0326
ܚܝܨܐ	-12.0326
ܒܫܠܝܚ	-12.0327
ܘܛܒܥ	-12.0327
ܠܓܡ	-12.0329
ܕܤܒܪܢ	-12.033
ܘܐܫܬܡܥܬ	-12.0332
ܡܠܝܐ	-12.0333
ܡܫܕ	-12.0355
ܘܢܛܥ	-12.036
ܐܬܩܪܒܬ	-12.036
ܬܒܗܬ	-12.0363
ܘܫܬܐܤܬ	-12.0363
ܡܪܕܝܬ	-12.0365
ܠܫܢܝ	-12.0365
ܕܠܝܠ	-12.0367
ܒܡܫܡܥܬ	-12.038
ܕܐܓܪ	-12.0381
ܘܫܘܒܗܪ	-12.0388
ܘܐܬܦܢܝܬ	-12.039
ܕܒܒ	-12.0394
ܠܤܦ	-12.0397
ܕܗܪܘܕܝ	-12.04
ܥܘܩ	-12.04
ܘܝܒܫ	-12.0402
ܘܠܢܒܝ	-12.0406
ܦܩܕܢ	-12.0408
ܐܘܒܠܘ	-12.041
ܕܟܘܒ	-12.0412
ܕܢܦܫܬ	-12.0417
ܬܩܢܝܢ	-12.0418
ܡܪܒܥܐ	-12.0419
ܐܬܦܪܩ	-12.0424
ܘܤܓ	-12.0425
ܬܪܚܩ	-12.0427
ܕܐܒܗܝܟ	-12.0434
ܒܒܝ	-12.0436
ܘܛܘܒ	-12.0438
ܘܕܘܢ	-12.0443
ܩܛ	-12.0449
ܘܒܛܝܠ	-12.0454
ܒܒܪܢܫ	-12.047
ܡܤܟܠ	-12.0478
ܚܪܪܟ	-12.0479
ܕܢܚܒ	-12.048
ܠܓܡܪ	-12.048
ܡܫܘ	-12.0489
ܡܫܬܕ	-12.0493
ܢܬܦܪܥ	-12.0498
ܐܤܬܠ	-12.0507
ܕܒܐܝܕܝܗ	-12.0511
ܘܥܛ	-12.0511
ܐܠܨܝܢ	-12.0516
ܕܒܛܝܒܘܬ	-12.0532
ܕܗܝܡܢܘܬܟ	-12.0536
ܡܤܪܗܒܐ	-12.0537
ܕܡܬܪ	-12.0538
ܤܬܬܪ	-12.0554
ܕܠܡܢ	-12.0564
ܠܓܠ	-12.0577
ܠܓܗ	-12.0579
ܕܨܕ	-12.058
ܘܐܘܬܒ	-12.0584
ܘܝܘ	-12.0584
ܟܪܘܒ	-12.0589
ܠܕܚܠܬ	-12.0591
ܘܒܤܡ	-12.0594
ܪܘܪܒܢܝܗ	-12.0603
ܬܫܒܚܬ	-12.0603
ܕܒܕܡܘܬ	-12.0607
ܒܐܫܬ	-12.0609
ܘܤܗܕܝܢ	-12.0614
ܕܐܒܕ	-12.063
ܘܦܪܥ	-12.0631
ܠܕܝܬܒ	-12.0634
ܕܡܤܟ	-12.0635
ܘܦܠܓܘܬ	-12.0643
ܢܢܤܝ	-12.0644
ܘܡܫܪܝ	-12.0659
ܡܛܝܬ	-12.0661
ܢܢܛܪ	-12.0664
ܠܪܓܠ	-12.0674
ܫܢܝܬ	-12.0679
ܘܥܡܕ	-12.0685
ܕܐܚܝܟ	-12.0688
ܕܠܒܪ	-12.0739
ܕܤܘ	-12.0741
ܐܤܬܪܩ	-12.0743
ܘܩܪܝ	-12.0745
ܐܬܗܝܡܢ	-12.0746
ܩܘܐ	-12.0749
ܟܢܫܬܘܢ	-12.075
ܘܒܒܥ	-12.0758
ܘܒܡܠ	-12.0759
ܢܬܪܝܡ	-12.0765
ܘܐܟܘܠ	-12.0775
ܐܚܝܢܝ	-12.0785
ܕܠܘܬܟ	-12.0786
ܛܘܟ	-12.0788
ܐܬܝܠܕܬ	-12.0792
ܘܐܫܘ	-12.0798
ܡܬܓܠܝ	-12.0801
ܘܕܡܫܝܚ	-12.0814
ܐܘܠܨܢܗ	-12.082
ܘܩܝܡ	-12.0821
ܕܐܪܝܡ	-12.0825
ܐܟܤ	-12.0826
ܕܤܡ	-12.0829
ܐܘܕܥܬ	-12.086
ܡܬܦܪ	-12.086
ܛܠܝܝ	-12.0861
ܕܕܒܚ	-12.0885
ܕܡܬܩܢ	-12.0906
ܕܡܬܚܪ	-12.0911
ܝܩܪܘ	-12.0913
ܘܪܡ	-12.0918
ܙܒܢܬ	-12.0921
ܒܪܬܟ	-12.0924
ܘܒܙܡ	-12.0936
ܢܓܠ	-12.0942
ܕܠܒܘܬ	-12.0945
ܡܬܡܠ	-12.0947
ܠܡܕܒܪܢ	-12.0959
ܒܤܪܝ	-12.0959
ܘܕܢܬܠ	-12.0968
ܕܚܠܝ	-12.0995
ܒܓܢܬ	-12.0998
ܘܠܥܕܬ	-12.1008
ܐܬܛܥܡ	-12.1012
ܘܡܢܗܪ	-12.1022
ܘܡܩܪܒ	-12.1036
ܦܩܘ	-12.1037
ܪܢܝܢ	-12.1041
ܕܟܒܪ	-12.1049
ܕܥܪܛܠܝ	-12.1051
ܒܝܗܘܕܝ	-12.1054
ܘܐܬܬܙܝܥ	-12.1067
ܫܪܝܗ	-12.1069
ܕܨܒܘ	-12.1076
ܓܦܝܗ	-12.1095
ܦܨܢ	-12.1102
ܬܒܥܝܢ	-12.1102
ܦܓܪܢܐ	-12.1105
ܚܝܝܟ	-12.1107
ܡܢܓܕ	-12.1111
ܩܛܠܬ	-12.1114
ܕܐܘܪܚ	-12.1115
ܫܬܘܬܦܘ	-12.1123
ܒܐܓ	-12.1145
ܘܠܪܫ	-12.1146
ܘܕܩܕܝܫ	-12.1148
ܘܕܩܝ	-12.1159
ܬܘܬ	-12.116
ܡܫܡܥܬܗ	-12.1161
ܫܛܬܘܢ	-12.1167
ܐܫܘܕ	-12.1172
ܢܤܗܕ	-12.1174
ܠܤܡ	-12.1182
ܐܩܠܘ	-12.119
ܕܫܪܝܬ	-12.1192
ܕܬܒ	-12.1206
ܡܓܘ	-12.1212
ܐܤܘ	-12.1227
ܘܩܘܪܝ	-12.1228
ܡܦܘܠܬ	-12.1232
ܕܒܪܝܬ	-12.1253
ܘܡܘܗܒܬ	-12.1276
ܐܫܬܒܩ	-12.1277
ܘܚܒܝܒ	-12.1283
ܒܓܒܪ	-12.1286
ܐܘܕܥܘ	-12.1301
ܠܥܝܢܝ	-12.1313
ܠܥܒܕܝܟ	-12.1316
ܕܡܫܟ	-12.1346
ܓܘܫܡܗ	-12.1354
ܘܒܠ	-12.1396
ܘܐܪܡ	-12.1401
ܪܒܝܢ	-12.141
ܕܬܛܪ	-12.141
ܡܩ	-12.1411
ܬܬܚܬ	-12.1417
ܛܪܛ	-12.1418
ܬܒܤ	-12.1423
ܐܘܫܛ	-12.1431
ܓܒܝܘܬ	-12.1442
ܘܢܫܒ	-12.1451
ܡܪܚܡܢܘܬ	-12.1454
ܕܦܩܕܢ	-12.1461
ܦܪܬܘ	-12.1465
ܢܕܒܪ	-12.1469
ܐܪܥܗ	-12.1474
ܕܬܪܥܘ	-12.1476
ܐܘܟܡ	-12.1481
ܚܬܝܪ	-12.15
ܢܬܢ	-12.1509
ܕܤܟܠ	-12.1518
ܒܩܘܪ	-12.1529
ܦܝܪ	-12.1538
ܢܓ	-12.1539
ܘܠܚܝ	-12.1541
ܘܚܙܝܬܘܢ	-12.1543
ܦܩܕܬ	-12.1545
ܘܡܫܬ	-12.1556
ܘܪܚܡܝ	-12.1556
ܠܨܢ	-12.1569
ܘܠܒܝܫ	-12.1575
ܠܟܪܝܗ	-12.1583
ܡܚܝܠ	-12.1587
ܒܪܓ	-12.1592
ܦܩܕܘ	-12.1604
ܒܦܘܡܗ	-12.1609
ܪܫܡ	-12.1618
ܚܒܪܟ	-12.1621
ܕܕܝܠܟ	-12.1641
ܬܫܦܪ	-12.1664
ܢܬܒܝܐ	-12.1674
ܪܓܝܓܬܗ	-12.1681
ܘܝܘܠܦܢ	-12.1685
ܘܬܢ	-12.1693
ܘܢܝܚ	-12.17
ܘܕܒ	-12.171
ܩܦܘ	-12.1714
ܩܛܠܬܘܢ	-12.1727
ܠܦܘܪܩܢ	-12.1729
ܕܡܬܡܠ	-12.1736
ܕܒܥܝ	-12.1747
ܘܥܬܝܕ	-12.1747
ܫܘܚ	-12.1761
ܘܕܪܫ	-12.1775
ܒܡܥܪ	-12.1779
ܡܤܒܪܢܘܬ	-12.1781
ܤܟܪܘ	-12.1785
ܦܠ	-12.1793
ܠܪܚܡ	-12.1795
ܒܝܡܝܢ	-12.1801
ܤܦܘܬ	-12.1802
ܢܩ	-12.1823
ܐܬܚܪܝ	-12.1824
ܡܙܒܢ	-12.1884
ܚܬܡܬ	-12.1884
ܘܐܠܟܤܢܕܪ	-12.1887
ܒܙܚܘ	-12.192
ܦܢ	-12.1925
ܡܒܪܟܝܢ	-12.1927
ܥܩܒܘ	-12.193
ܢܪܕܦܘܢ	-12.1944
ܕܐܫܘ	-12.1953
ܟܬܒܝ	-12.1953
ܕܥܠܝܗ	-12.1954
ܦܪܤܝ	-12.1957
ܒܚܘܤ	-12.196
ܕܝܠܦܬ	-12.1975
ܠܝܛܝܢ	-12.1976
ܕܐܢܕܪ	-12.1976
ܘܦܪ	-12.1983
ܒܪܓܠܝ	-12.1987
ܘܐܒܕ	-12.1996
ܬܥܩܪ	-12.1997
ܐܫܐܠ	-12.2011
ܕܢܩ	-12.2026
ܡܬܒܢ	-12.2032
ܒܝܐܘ	-12.2034
ܠܡܚܪ	-12.204
ܦܫ	-12.2041
ܡܬܚܙܝ	-12.2043
ܚܤܕ	-12.2053
ܚܛܝܬܗ	-12.2056
ܦܪܨܘܦܝ	-12.2076
ܘܩܥܝ	-12.208
ܢܫܝ	-12.2085
ܘܗܪܟ	-12.2094
ܛܥܝܘܬܗ	-12.2111
ܡܕ	-12.2116
ܙܘ	-12.2122
ܘܬܪܥܤܪ	-12.2124
ܘܕܢ	-12.2125
ܕܩܪܟ	-12.2132
ܕܡܛܠܬ	-12.2139
ܥܤܪܬ	-12.2152
ܬܬܢܚ	-12.2159
ܒܐܪ	-12.216
ܡܬܚܝܒ	-12.2162
ܓܕܘ	-12.2215
ܩܒ	-12.2226
ܕܒܓܠܝ	-12.2236
ܫܚܢ	-12.2258
ܬܪܢ	-12.2263
ܐܬܚܠܡ	-12.2266
ܘܡܢܟܦ	-12.2273
ܡܬܬ	-12.229
ܠܐܝܠ	-12.2292
ܤܚܦܘ	-12.2294
ܘܬܒ	-12.2294
ܒܝܫܝܢ	-12.2297
ܕܬܗ	-12.2307
ܬܦܪܩ	-12.2311
ܡܫܡܥܬ	-12.2325
ܘܟܬܝܒ	-12.2334
ܒܠܘܢ	-12.2337
ܪܗܛܝ	-12.2354
ܒܬܠܡܝܕ	-12.2374
ܕܠܝܛ	-12.2375
ܕܐܚܕ	-12.2388
ܨܪܝ	-12.2389
ܕܥܬܝܪ	-12.2394
ܪܟܢ	-12.2405
ܬܒܥ	-12.2408
ܟܤܝ	-12.2413
ܟܪܤܟ	-12.2415
ܒܬܘܠ	-12.243
ܕܡܬܒܥ	-12.2453
ܚܘܘ	-12.2456
ܕܟܠܢ	-12.2483
ܕܚܕܪ	-12.249
ܠܙܪܥ	-12.2492
ܟܝܢܗ	-12.2503
ܠܙܟ	-12.2511
ܘܡܬܐܤ	-12.252
ܩܛܓܪܢ	-12.2529
ܒܢܝܚ	-12.2537
ܛܪܦܝ	-12.2541
ܘܐܟ	-12.255
ܢܨܠ	-12.2553
ܚܠܝ	-12.2553
ܠܡܙ	-12.256
ܐܘܤܦ	-12.2578
ܘܡܫ	-12.2583
ܙܘܙ	-12.2593
ܐܟܠܢ	-12.2599
ܬܒܛܠ	-12.2611
ܕܠܩ	-12.2637
ܕܒܗܝ	-12.2646
ܒܟܤ	-12.2654
ܬܚܫܒܘ	-12.267
ܕܟܢܝܫ	-12.2685
ܘܒܟܐ	-12.2696
ܘܠܦܪ	-12.2701
ܕܒܩ	-12.2715
ܓܢܝ	-12.2734
ܩܪܘܒ	-12.2746
ܡܨܥܬܗ	-12.2753
ܕܡܟܝܠ	-12.2753
ܒܥܤܪ	-12.2768
ܘܒܐ	-12.28
ܬܡܠܠܘ	-12.2826
ܘܐܫܟܚܢ	-12.2827
ܫܬܩ	-12.2855
ܕܓܠܝܢ	-12.286
ܦܠܫ	-12.2863
ܒܚܤ	-12.2881
ܘܤܐܡ	-12.2891
ܡܪܘ	-12.2895
ܘܠܥܪ	-12.2895
ܤܚܦ	-12.2896
ܕܢܨܘ	-12.2898
ܘܥܡܘܪ	-12.2915
ܥܬܗ	-12.2916
ܦܠܓܝ	-12.2918
ܕܚܠܬܗ	-12.2928
ܕܚܕܝܢ	-12.2933
ܕܦܩܕܬ	-12.2946
ܡܢܬܗ	-12.295
ܕܡܒܪܟ	-12.2969
ܕܦܪܨܘܦ	-12.2973
ܒܬܫܡܫܬܗ	-12.3011
ܕܡܨܪ	-12.3056
ܓܠܝܘ	-12.306
ܤܒܥ	-12.3065
ܘܒܟܝ	-12.3075
ܐܒܕܝܢ	-12.3076
ܒܠܒܝ	-12.3076
ܪܫܢܝ	-12.3077
ܡܫܡܫܢܝ	-12.3114
ܘܢܦܫ	-12.3123
ܘܢܦܫܗ	-12.3132
ܥܪܛܠܝܘܬ	-12.3148
ܐܫܬܘܬܦ	-12.3154
ܚܐܤ	-12.3158
ܐܚܕܢ	-12.3172
ܘܡܪܩ	-12.3195
ܬܬܘܤܦ	-12.3208
ܕܙܢܝܘܬ	-12.321
ܫܪܒ	-12.3229
ܕܓܠܬ	-12.3254
ܬܚܬܪ	-12.3278
ܩܢܝܢܟ	-12.3288
ܐܚܝܟ	-12.3292
ܒܫܪܒܬܗ	-12.3318
ܕܡܪܚܡ	-12.3325
ܘܛܘ	-12.3348
ܠܡܬܒ	-12.335
ܕܡܬܓ	-12.3353
ܢܟܠܝܢ	-12.3357
ܘܟܢܝ	-12.3363
ܩܢܛ	-12.3365
ܤܬܪ	-12.337
ܤܒܥܬ	-12.3372
ܬܤܓ	-12.3377
ܕܠܘܩ	-12.3384
ܠܙܒ	-12.341
ܘܐܬܪ	-12.3415
ܢܩܢ	-12.3425
ܕܠܚܕ	-12.3444
ܘܠܡܚ	-12.3454
ܪܓܝܢ	-12.3455
ܦܤܩܬ	-12.3466
ܕܡܤܒܪܝ	-12.348
ܟܬܪܘ	-12.3481
ܥܒ	-12.3481
ܘܡܚܐ	-12.3498
ܘܡܫܘܚ	-12.3498
ܐܝܩ	-12.3503
ܕܪܓܠܝ	-12.3515
ܛܠ	-12.3521
ܘܪܘܪܒܢ	-12.3526
ܕܥܠܘ	-12.3531
ܕܡܤܬ	-12.354
ܓܒܘ	-12.3562
ܘܦܘܩܕܢ	-12.3568
ܘܝܩܝܪ	-12.3577
ܡܫܬܒܗܪ	-12.3581
ܕܐܪܡ	-12.3582
ܓܘܫ	-12.3591
ܠܐܪܡ	-12.3601
ܤܝܢ	-12.3603
ܥܬܝܕܐ	-12.362
ܘܐܦܩܘ	-12.3624
ܡܚܝܠܝܢ	-12.3654
ܒܥܘܢ	-12.3676
ܟܢܘܫܝ	-12.3712
ܟܠܡܕ	-12.3715
ܒܬܚ	-12.3724
ܬܟܚܕ	-12.3735
ܨܠܦ	-12.3751
ܪܟܘܢ	-12.3767
ܘܐܤܐ	-12.377
ܒܨ	-12.3774
ܐܫܬܠܚ	-12.3775
ܫܕܪܝ	-12.3776
ܕܪܕܦ	-12.3787
ܬܛܪܝܘ	-12.3791
ܕܒܠܥ	-12.3798
ܙܘܙܝ	-12.3812
ܪܬܝܬ	-12.3812
ܥܬܪ	-12.3819
ܠܒܪܬ	-12.3819
ܘܥܡܪ	-12.3821
ܒܫܠܝ	-12.3823
ܠܒܤܬܪ	-12.3824
ܠܡܐܪܬ	-12.3828
ܬܚܪܪ	-12.3845
ܕܬܬܒ	-12.3845
ܘܠܦ	-12.3848
ܒܤܘܪ	-12.385
ܤܦܪܝ	-12.3863
ܤܟܠܬ	-12.3869
ܘܫܡ	-12.3883
ܢܡܠܟ	-12.3893
ܕܬܪܝ	-12.3909
ܡܕܝܢܬܗ	-12.3918
ܘܒܤܝܡܘܬ	-12.3926
ܘܪܟܝ	-12.3927
ܬܟܝ	-12.3933
ܠܐܢܛܝ	-12.3939
ܐܤܛܘ	-12.3944
ܫܛ	-12.3977
ܕܢܫܬܩ	-12.398
ܠܡܓ	-12.4009
ܘܓܒܝ	-12.4015
ܐܬܛܪܝ	-12.4017
ܬܬܓܠ	-12.4021
ܢܓܡܪ	-12.4045
ܓܒܝܢ	-12.4051
ܪܤ	-12.4054
ܒܥܠܕܒܒܝ	-12.4063
ܢܥܗܕ	-12.4088
ܠܦܪܕ	-12.409
ܬܫܥܝ	-12.4093
ܬܒܤܡ	-12.4098
ܠܐܒܘܗ	-12.4103
ܐܫܬܥܒܕܬ	-12.4106
ܫܐܠܢ	-12.4137
ܚܠܛ	-12.4138
ܓܕܝ	-12.4149
ܢܕܥܘܢ	-12.415
ܠܚܒܠ	-12.4155
ܪܕܦܘܢ	-12.4158
ܪܝܟ	-12.4164
ܘܦܝܠ	-12.4168
ܠܒܥܠܕܒܒ	-12.4172
ܘܐܬܐܤܝ	-12.4181
ܚܝܘ	-12.419
ܛܘܝ	-12.4191
ܒܐܘܠܨܢܝ	-12.4194
ܤܟܠܘ	-12.4199
ܡܫܡܠ	-12.4207
ܤܪܩ	-12.4232
ܘܢܤܓ	-12.4237
ܕܟܗܢ	-12.4249
ܐܬܒܝܐ	-12.4256
ܬܥܕܪ	-12.4271
ܕܗܦܟ	-12.4276
ܡܠܝܬܘܢ	-12.4282
ܐܘܬܪ	-12.4283
ܕܫܢܝ	-12.4307
ܤܬܡܟ	-12.431
ܡܤܝܒܪܢܘ	-12.4311
ܬܟܪ	-12.4311
ܫܠܚܘ	-12.4313
ܘܬܫܒܘܚܬܗ	-12.4315
ܡܙܕܩ	-12.4331
ܘܐܪܓ	-12.4352
ܠܫܥ	-12.4354
ܐܫܬܠܡܬ	-12.4371
ܘܬܒܢ	-12.4372
ܪܚܩܘ	-12.4378
ܨܝܪ	-12.4386
ܘܐܝܩ	-12.4398
ܬܕܘܢ	-12.4412
ܐܬܟܪܙ	-12.4422
ܦܘܪ	-12.4424
ܒܚܙܝ	-12.4426
ܐܫܬܥ	-12.4427
ܐܫܬܪ	-12.4438
ܘܒܩܝ	-12.4444
ܤܝܡܬܗ	-12.4446
ܬܩܝܦܐ	-12.4449
ܬܚܬ	-12.4451
ܡܝܘܬ	-12.4452
ܬܩܢ	-12.4463
ܓܙܘܪ	-12.4468
ܢܬܟܤ	-12.4471
ܚܢܩ	-12.4483
ܫܛܝܘܬܗ	-12.4489
ܢܦܫܬܗ	-12.4513
ܒܥܒܕܝ	-12.4513
ܘܐܫܬܘܕܥ	-12.452
ܘܪܒܐ	-12.4539
ܕܢܓ	-12.4539
ܕܝܩܝܪ	-12.4557
ܡܬܚ	-12.4557
ܘܫܠܝ	-12.4569
ܕܦܘܩܕ	-12.4578
ܩܘܒܠ	-12.4593
ܬܤܝܒ	-12.4593
ܘܕܡܝ	-12.4609
ܕܡܫܬܘ	-12.4616
ܡܬܒܝܐ	-12.4617
ܒܨܝ	-12.4618
ܢܤܬܟܠ	-12.4621
ܠܡܬ	-12.4626
ܘܠܒܢܝ	-12.4629
ܦܪܨ	-12.4637
ܡܬܢܩ	-12.4641
ܐܚܕܘܢܝ	-12.4647
ܐܙܕܕܩܬ	-12.4649
ܢܨܥܪܘܢ	-12.4654
ܢܫܬܒܚ	-12.4655
ܡܫܬܘܕܥ	-12.4655
ܐܓܘܪܤ	-12.466
ܕܥܩܪ	-12.4663
ܡܩܛܪܓܝܢ	-12.4669
ܡܬܪܕܦ	-12.4669
ܢܫܬܘܬܦ	-12.4685
ܛܠܬ	-12.4687
ܕܡܫܚ	-12.4687
ܬܪܓ	-12.4688
ܡܬܒܛܠ	-12.4692
ܤܡܬܟ	-12.4695
ܫܝܛܐ	-12.47
ܐܚܘܗ	-12.4708
1	-12.4717
ܬܙܕܕܩ	-12.4717
ܐܫܬܦܥ	-12.4717
ܘܐܫܠܛ	-12.4717
ܡܬܥܩܒ	-12.4717
ܡܫܦܥ	-12.4717
ܒܤܝܒܘܬ	-12.4717
ܠܦܘܬܩ	-12.4717
ܠܬܒܝܪ	-12.4717
ܤܘܡܩ	-12.4718
ܘܠܫܒܒ	-12.4718
ܘܐܬܝܬ	-12.4718
ܟܡܝܪܐ	-12.4718
ܥܘܪܦܢ	-12.4718
ܦܘܪܥܘ	-12.4718
ܡܬܚܢܩܝܢ	-12.4718
ܘܙܟܝܬܘܢ	-12.4718
ܕܢܘܒܠܘܢ	-12.4718
ܟܬܦܬ	-12.4719
ܢܚܛܦܘܢ	-12.4719
ܘܥܦܩ	-12.4719
ܢܨܛܠ	-12.472
ܪܓܝܫ	-12.472
ܡܥܘܢܝ	-12.4721
ܘܫܡܛ	-12.4721
ܕܦܬܝܟ	-12.4722
ܒܟܝܤܝ	-12.4722
ܥܪܨ	-12.4723
ܡܫܬܠܛ	-12.4726
ܒܬܚܬܝ	-12.4726
ܕܢܫܚܢ	-12.4726
ܥܒܘܪ	-12.4727
ܚܒܛ	-12.4728
ܥܙܩܬ	-12.4728
ܦܤܝܩ	-12.4729
ܕܠܒܪܘܝ	-12.4729
ܘܡܒܪܩ	-12.4731
ܫܒܒܝܗ	-12.4733
ܡܫܬܪܥܝܢ	-12.4733
ܥܙܝܙ	-12.4734
ܓܘܥܠܢ	-12.4734
ܡܬܦܢܝܢ	-12.4735
ܐܬܝܥܢ	-12.4735
ܓܪܓܘ	-12.4735
ܬܡܪܡܪ	-12.4735
ܘܥܬܪܬ	-12.4735
ܬܕܪܝ	-12.4736
ܕܛܪܘܦ	-12.4737
ܨܛܒܬ	-12.4738
ܘܐܬܪܕܝ	-12.4739
ܢܓܢܒܘܢ	-12.474
ܫܬܬܩ	-12.474
ܒܥܩܒܬ	-12.4741
ܡܤܟܢܘܬܗ	-12.4741
ܡܦܚܡܝܢ	-12.4741
ܠܡܪܓܡ	-12.4742
ܕܡܬܬܪܝܡ	-12.4743
ܕܬܟܬܘܫ	-12.4745
ܕܢܒܐܫ	-12.4745
ܢܫܬܠܚ	-12.4745
ܕܡܫܬܕܪ	-12.4746
ܬܛܘܫܘ	-12.4746
ܡܛܟܤ	-12.4747
ܠܡܬܛ	-12.4748
ܘܠܐܪܤܛ	-12.4749
ܕܤܢܝܬ	-12.4749
ܡܬܟܪ	-12.4749
ܕܫܘܢܩ	-12.475
ܬܬܛܦܝܤ	-12.4751
ܘܐܘܪܟ	-12.4751
ܡܤܬܝܒܪ	-12.4753
ܘܚܬܝ	-12.4754
ܡܬܒܪܟ	-12.4755
ܒܩܘܠܤ	-12.4755
ܢܬܦܨ	-12.4755
ܘܡܢܫܩ	-12.4756
ܘܒܟܘ	-12.4756
ܘܪܚܝܡ	-12.4758
ܘܡܛܒܥ	-12.4758
ܪܘܝܚ	-12.4759
ܕܡܘܠܕ	-12.4759
ܦܬܝ	-12.4759
ܘܬܪܨ	-12.4761
ܘܠܬܘܪ	-12.4761
ܘܢܫܬܢܩ	-12.4761
ܠܡܓܙܪ	-12.4761
ܕܦܠܝܓ	-12.4762
ܢܙܕܘܓ	-12.4763
ܢܬܚܕܬ	-12.4764
ܡܙܥܩ	-12.4764
ܕܢܩܕܫ	-12.4764
ܘܠܡܪܘ	-12.4765
ܐܫܬܕܝ	-12.4765
ܚܤܝܪܘܬܗ	-12.4767
ܬܒܪܘ	-12.4769
ܘܠܕܙܟ	-12.477
ܠܡܗܪܘ	-12.4772
ܘܠܢܝܩ	-12.4774
ܒܒܬܝܗ	-12.4774
ܒܕܢܝ	-12.4777
ܠܐܓܘܪܤ	-12.4777
ܠܘܝܬܗ	-12.4778
ܕܢܒܛܠ	-12.4779
ܒܦܪܓ	-12.4779
ܨܦܚ	-12.4782
ܡܬܒܩ	-12.4782
ܬܬܚܕܘ	-12.4783
ܕܘܟܝܬ	-12.4785
ܘܢܪܩܕ	-12.4785
ܕܒܛܢܢ	-12.4794
ܕܡܩܛܪܓܝܢ	-12.4794
ܕܢܫܬܘܬܦ	-12.4796
ܘܕܒܝܩ	-12.48
ܐܬܥܒ	-12.4801
ܤܬܦܪ	-12.4801
ܩܬ	-12.4802
ܕܡܬܒܛܠ	-12.4802
ܘܐܬܚܛܦ	-12.4802
ܡܬܪܕܦܝܢ	-12.4804
ܘܦܪܟܝ	-12.4805
ܬܬܕܒܪ	-12.4807
ܘܐܤܬܠ	-12.4808
ܪܤܝܤ	-12.4809
ܘܡܫܡܠܝ	-12.481
ܒܕܓܠܘܬ	-12.4811
ܠܡܬܟ	-12.4813
ܘܨܗܝܢ	-12.4813
ܕܡܕܪܫ	-12.4816
ܘܝܠܕ	-12.4818
ܡܥܝܩ	-12.4818
ܘܡܤܩ	-12.4819
ܠܐܤܛܪܛ	-12.4819
ܢܟܪܙ	-12.4819
ܢܪܕ	-12.482
ܕܐܤܬܒܪܬ	-12.4821
ܕܐܩܦܬ	-12.4822
ܐܬܪܥܝ	-12.4823
ܘܦܬܝ	-12.4826
ܘܬܦܩܕ	-12.4828
ܒܨܒܥ	-12.4831
ܚܬܝܪܘܬ	-12.4832
ܬܠܘܛ	-12.4834
ܠܡܬܬܪ	-12.4834
ܚܕܪܝܗ	-12.4837
ܬܫܝܓ	-12.4837
ܠܐܪܛܡ	-12.4837
ܕܬܫܬܪ	-12.4842
ܘܐܤܬܠܝ	-12.4843
ܛܥܝܬܘܢ	-12.4844
ܪܦܝ	-12.4845
ܘܢܨܥܪܘܢ	-12.4845
ܐܬܢܨܒ	-12.4847
ܕܬܦܩ	-12.4848
ܕܒܩܝܢ	-12.4848
ܠܡܢܓܕ	-12.485
ܕܚܤܕ	-12.4851
ܕܢܓܕܦ	-12.4852
ܕܢܫܩܝ	-12.4856
ܠܡܥܡܪ	-12.4861
ܤܬܘܪ	-12.4862
ܘܓܠܘܤ	-12.4864
ܙܟܘ	-12.4866
ܢܚܤܢ	-12.4873
ܘܪܟ	-12.4874
ܡܬܢܓܕ	-12.4879
ܕܟܬ	-12.4886
ܗܘܦܟ	-12.4887
ܘܕܢܪܚܡ	-12.4888
ܘܠܐܒܘܗ	-12.4891
ܬܫܬܒܗܪ	-12.4892
ܨܛܢܥ	-12.4893
ܕܒܛܘܫܝ	-12.4895
ܡܪܒܝܢ	-12.4898
ܘܥܘܝܪ	-12.4899
ܕܢܝܚܬ	-12.4899
ܕܢܥܡܕ	-12.4901
ܡܪܚ	-12.4901
ܕܡܬܬܩܠ	-12.4905
ܘܡܒܪܟܝܢ	-12.4907
ܕܢܡܢܥ	-12.4911
ܘܤܢܝܬ	-12.4911
ܬܚܤܪ	-12.4911
ܡܬܚܦܛܝܢ	-12.4912
ܘܒܤܥܪ	-12.4914
ܩܘܠܤ	-12.4917
ܘܡܫܬܡܥ	-12.4919
ܕܪܢܝܢ	-12.492
ܘܐܬܟܤܝ	-12.492
ܕܒܐܤܛ	-12.4923
ܘܫܦܝܪ	-12.4923
ܬܡܠܟ	-12.4927
ܘܐܫܬܘܕܥܬ	-12.4927
ܘܐܬܩܒܪ	-12.4932
ܢܬܪܤܘܢ	-12.4938
ܠܤܘܦ	-12.4939
ܘܤܘܝܢ	-12.4939
ܘܦܠܓܘ	-12.4944
ܝܠܝܕܝ	-12.4947
ܘܕܡܪܬ	-12.4949
ܛܤ	-12.4951
ܬܒܠܥ	-12.4957
ܠܛܬ	-12.4958
ܨܚܝܘ	-12.4959
ܤܪܕ	-12.4959
ܕܬܐܠܦ	-12.4964
ܥܘܙ	-12.4966
ܘܨܦܬ	-12.4969
ܒܛܠܬ	-12.4971
ܒܬܘܠܘܬ	-12.4972
ܕܬܓܪ	-12.4974
ܢܨܒܬ	-12.4974
ܐܬܬܨܝܕ	-12.4976
ܢܪܓܡܘܢ	-12.4988
ܕܡܦܪܫ	-12.4991
ܘܐܚܝܢܝ	-12.4992
ܕܚܤܝܢ	-12.4996
ܕܬܐܓܘܪܬ	-12.4998
ܛܠܐ	-12.5
ܘܡܫܬܒܚ	-12.5
ܒܤܥܪ	-12.5001
ܘܬܬܠ	-12.5002
ܦܥܝܥ	-12.5004
ܘܢܬܩܪܒ	-12.5005
ܘܚܡܤܢ	-12.5006
ܕܬܓܘܪ	-12.5009
ܕܢܤܝܘܢ	-12.501
ܕܬܕܟܝܬ	-12.5011
ܐܫܬܚܠܦ	-12.5012
ܐܠܨܬܢ	-12.5016
ܘܚܫܚ	-12.5017
ܠܫܘܘܕܝ	-12.5017
ܢܫܥܒܕܘܢ	-12.5022
ܕܐܬܦܨ	-12.5024
ܡܬܬܙܝܥܝܢ	-12.5027
ܕܒܝܡܝܢ	-12.503
ܒܥܪܝ	-12.5033
ܕܐܬܕܟܝ	-12.5037
ܕܡܚܤܕ	-12.5038
ܕܒܒܪܢܫ	-12.504
ܕܢܬܝܕܥ	-12.5041
ܕܢܓܢ	-12.5043
ܘܕܒܪܘ	-12.5045
ܘܬܡܝܡ	-12.505
ܕܟܝܢܗ	-12.506
ܕܢܢܛܪ	-12.5061
ܫܒܩܘܢ	-12.5065
ܡܕܒܪܝ	-12.507
ܕܢܚܘܪ	-12.5074
ܬܟܤܤ	-12.5074
ܕܐܒܝܠܝܢ	-12.5075
ܘܟܪܤ	-12.5077
ܘܨܗܝ	-12.5078
ܕܪܓܡ	-12.5083
ܕܢܚܙܝ	-12.5086
ܦܪܓ	-12.5087
ܦܚܡ	-12.5089
ܡܬܥܛܦ	-12.5089
ܐܝܢܩܘ	-12.509
ܕܪܥܝܢܝ	-12.5091
ܘܚܫܒ	-12.5095
ܐܫܬܘܙܒ	-12.5097
ܚܒܝܒܬ	-12.5099
ܘܒܡܟܝܟܘܬ	-12.5103
ܠܓܒ	-12.5103
ܬܚܦܛ	-12.5106
ܫܝܚ	-12.5107
ܒܛܝܠܐ	-12.5109
ܡܬܒܨ	-12.5114
ܩܛܦ	-12.5119
ܩܪܬ	-12.5124
ܐܛܥܝܬ	-12.5126
ܕܢܫܒ	-12.5127
ܟܦܝܦ	-12.5136
ܚܙܘܩ	-12.5137
ܐܬܦܨܝ	-12.5141
ܠܤܢܝܩܘܬ	-12.5145
ܬܡ	-12.5146
ܐܫܬܚܪ	-12.5147
ܢܫܬܥܒܕ	-12.5148
ܐܬܥܡܕ	-12.5148
ܐܫܩܝ	-12.5148
ܕܬܫܬܡ	-12.5149
ܘܡܟܝܟܘܬ	-12.515
ܕܐܬܒܪܝ	-12.5151
ܘܓܥ	-12.5154
ܘܝܕܝܥܝܢ	-12.5155
ܦܬܚܬ	-12.5156
ܘܐܬܝܕܥ	-12.5157
ܘܝܗܒܬ	-12.5157
ܕܬܘܕܝܬ	-12.516
ܘܐܘܪ	-12.5162
ܘܦܘܪܥܢ	-12.5165
ܕܢܥܩ	-12.5165
ܒܛܪܘܐ	-12.5166
ܩܢܟܪܐ	-12.5173
ܕܐܬܝܕܥܬ	-12.5178
ܒܡܚܫܒܬ	-12.5183
ܕܫܠܡܘ	-12.5188
ܕܢܐܠܦ	-12.5189
ܕܬܪܝܨ	-12.5197
ܝܬܪܘ	-12.5197
ܬܩܝܦ	-12.5198
ܘܡܬܕܒܪ	-12.5205
ܘܫܒܝܢ	-12.5206
ܕܐܬܦܩܕܬ	-12.521
ܕܥܗܢ	-12.5211
ܠܡܚܬ	-12.5214
ܠܩܪܝܢ	-12.5214
ܡܥܛܦ	-12.5215
ܕܐܤܬܟܠ	-12.5219
ܘܬܚܝܒ	-12.5221
ܡܫܚܟ	-12.5221
ܘܪܕܝ	-12.5222
ܡܒܤܪ	-12.5229
ܛܒܝܬ	-12.5231
ܬܘܪܗ	-12.5236
ܢܤܝܘ	-12.5236
ܟܪܘܤ	-12.5242
ܘܚܨܘܕ	-12.5242
ܘܠܡܕܒܚ	-12.5246
ܘܡܬܝܕܥ	-12.5247
ܕܐܫܬܐܠ	-12.5248
ܘܦܤܩ	-12.5255
ܘܡܫܡܠܝܬ	-12.5257
ܕܡܛܥܝܢ	-12.526
ܕܥܘܝܪ	-12.5262
ܠܙܕܘܩ	-12.5265
ܠܚܐ	-12.5277
ܕܬܘܪ	-12.5277
ܘܠܡܡ	-12.5286
ܠܡܫܡܫ	-12.5287
ܬܕܓܠ	-12.53
ܕܥܢ	-12.5304
ܐܬܓܘܤ	-12.5307
ܘܡܫܬܡܥܢ	-12.5307
ܡܬܓܡܪ	-12.5307
ܐܬܥܛܦ	-12.5309
ܢܤܩ	-12.531
ܒܟܪܡ	-12.5314
ܘܕܝܘܢ	-12.5314
ܘܬܬܡܠ	-12.5323
ܘܡܬܟܘܢ	-12.5328
ܕܡܤܝܒܪܢܘܬ	-12.533
ܘܦܪܝܩ	-12.5338
ܠܐܬܪܗ	-12.5338
ܘܡܠܝܐ	-12.5348
ܡܬܢܩܦ	-12.5351
ܕܡܥܕܪܢ	-12.5351
ܪܕܘܦ	-12.5353
ܦܪܘܩܝܢ	-12.5353
ܠܠܘ	-12.536
ܐܢܗܪܬ	-12.536
ܕܡܛܥ	-12.5364
ܘܫܘܩ	-12.5368
ܘܡܘܒܠ	-12.5374
ܕܢܬܪ	-12.539
ܘܒܠܒܘܬ	-12.5397
ܡܦ	-12.5397
ܫܬܒܗܪܘ	-12.5408
ܘܠܫܘܠܛܢ	-12.5409
ܘܒܓܘ	-12.5409
ܒܓܘܪ	-12.5417
ܒܓܠܝܘܬ	-12.542
ܘܡܫܩ	-12.5422
ܕܐܬܢܟܤ	-12.5427
ܢܛܪܘ	-12.5429
ܘܡܠܟܘ	-12.5446
ܬܘܩܠ	-12.5452
ܥܬܕܘ	-12.5462
ܘܕܤ	-12.5464
ܠܡܬܬܥ	-12.5466
ܠܪܫܝ	-12.547
ܘܤܥܘܪ	-12.5473
ܘܡܪܝܪ	-12.5479
ܡܘܡܝܢ	-12.548
ܡܡܙܓ	-12.5482
ܛܥܬ	-12.5486
ܐܬܕܟܪܝܢ	-12.5491
ܪܝܗ	-12.5496
ܘܕܫܡܥ	-12.5497
ܕܢܐܩܕ	-12.5498
ܘܡܤܝܒܪܝܢ	-12.5504
ܒܨܦ	-12.5507
ܘܐܦܠܘ	-12.5518
ܥܕܪܘܢ	-12.5521
ܕܢܕܥܘܢ	-12.5521
ܘܡܤܝܒ	-12.5533
ܠܟܘܟܒ	-12.5539
ܪܢܝ	-12.5543
ܕܛܘܒ	-12.5543
ܠܤܝܡܬ	-12.5546
ܕܬܬܓ	-12.5546
ܦܪܓܡ	-12.5546
ܤܝܡܐ	-12.5547
ܚܤܝܪܘܬ	-12.5553
ܕܐܫܬܪܝ	-12.5554
ܛܝܒܬ	-12.5556
ܫܘܡܠܝܗ	-12.5566
ܘܙܒܢܘ	-12.5571
ܪܛܘܛܝ	-12.5585
ܘܠܩܪܝܒ	-12.5588
ܕܬܫܢܝܩܗ	-12.5593
ܬܬܢܝܚܘ	-12.5596
ܥܡܕܢ	-12.5597
ܙܐ	-12.5606
ܘܐܡܝ	-12.5607
ܫܓܘ	-12.561
ܬܚܠ	-12.5615
ܥܩܒܬ	-12.5617
ܒܩܝܡ	-12.562
ܕܐܬܬܤܝܡ	-12.5621
ܐܒܗܝܗ	-12.5628
ܐܫܒܚܟ	-12.5632
ܐܬܦܠܓܬ	-12.5632
ܡܬܟܘܢ	-12.5641
ܘܤܢܝܐܝ	-12.5644
ܐܬܚܦܛ	-12.565
ܒܩܠܝ	-12.565
ܐܫܟܚܬܘܢ	-12.5659
ܕܚܘܒܟ	-12.5669
ܥܩܪܝ	-12.567
ܘܚܝܠܬܢ	-12.5677
ܕܡܬܚܙܝ	-12.5679
ܘܫܘܒܩܢ	-12.5688
ܘܒܨܘ	-12.5691
ܩܘܠ	-12.57
ܕܩܢܝܢ	-12.5711
ܕܝܪܬ	-12.5711
ܘܠܦܓܪ	-12.5717
ܘܒܡܨܥܬ	-12.5721
ܕܦܠܚܝܢ	-12.5726
ܢܬܬܚܕ	-12.5741
ܘܡܫܥܒܕ	-12.5745
ܘܦܬܘܪ	-12.5745
ܐܤܟܠܬ	-12.5765
ܤܟܝ	-12.5773
ܒܨܒ	-12.5785
ܘܟܤܝܬ	-12.5789
ܥܕܪܬ	-12.5798
ܡܠܝܬ	-12.5809
ܕܐܬܒܤܡ	-12.5812
ܒܤܘ	-12.5818
ܕܕܩܪܘ	-12.583
ܒܪܟܝ	-12.5838
ܦܢܗ	-12.5839
ܢܬܬ	-12.5845
ܙܟܝܬ	-12.5846
ܘܢܫܟܚܘܢ	-12.5848
ܕܤܗ	-12.5851
ܚܘܕ	-12.5853
ܘܫܘܬܦ	-12.5853
ܕܪܡܝ	-12.5855
ܘܓܫ	-12.586
ܡܝܟ	-12.5873
ܘܬܪܥܝ	-12.5877
ܡܬܩܕܫ	-12.5879
ܠܕܘܟܝ	-12.5886
ܘܒܠܐ	-12.5886
ܕܢܙܒܢ	-12.5887
ܠܕܝܬܩ	-12.589
ܘܢܚܘ	-12.5894
ܕܐܡܠܟ	-12.5914
ܐܨܦ	-12.5925
ܐܪܥܢܝ	-12.5941
ܛܪܤ	-12.5955
ܕܒܤܪܗ	-12.5955
ܐܤܬ	-12.5957
ܡܦܠ	-12.5973
ܕܓܡܪ	-12.5975
ܘܬܒܥܬ	-12.5979
ܒܥܠܕܒܒܟ	-12.5984
ܤܡܟܘ	-12.5985
ܐܝܬܝܬܘܢ	-12.5985
ܢܛܘܪ	-12.5991
ܫܬܠܚܘ	-12.5992
ܬܝܠܕܘ	-12.5994
ܡܠܥܤ	-12.5996
ܠܩܕܝܫܘܬ	-12.5999
ܕܡܐܟܘܠܬ	-12.6007
ܙܩܦܘ	-12.6011
ܕܫܡ	-12.6014
ܘܡܪܘܬ	-12.6024
ܡܥܬ	-12.6025
ܢܫܪܪ	-12.603
ܕܢܫܪܘܢ	-12.6038
ܕܚܪܡ	-12.6041
ܢܬܒܪܟ	-12.6042
ܘܪܥܝ	-12.6046
ܐܬܪܗܒ	-12.6047
ܘܕܫܝ	-12.6048
ܓܘܙܠ	-12.6051
ܦܪܩܘ	-12.6052
ܕܚܛܗܝ	-12.6054
ܘܡܝ	-12.6055
ܕܬܢܢ	-12.6058
ܕܘܟܝ	-12.6064
ܘܟܪܝܗ	-12.6072
ܚܡܝ	-12.6077
ܠܛܪܘ	-12.6083
ܕܠܘܝ	-12.6089
ܒܓܒܝ	-12.6094
ܘܝܕܝܥ	-12.6104
ܠܪܓܠܝܟ	-12.6104
ܢܘܬܗ	-12.6121
ܘܡܤܟܝܢ	-12.6122
ܕܡܙܕ	-12.6123
ܘܨܝܕ	-12.6123
ܘܠܬ	-12.6125
ܐܬܩܢ	-12.6126
ܘܬܝ	-12.6134
ܘܒܓܠ	-12.6145
ܐܬܥܕܪ	-12.6155
ܢܤܥܪ	-12.6157
ܡܤܝܒܪܢܘܬܟ	-12.6158
ܤܬܟܠܘ	-12.6162
ܒܥܗ	-12.6164
ܕܦܓܪܝ	-12.617
ܕܚܪܫ	-12.6175
ܕܫܩܠܬ	-12.6175
ܠܡܟ	-12.6183
ܘܡܬܟܫ	-12.6194
ܕܒܐܤ	-12.6205
ܕܒܐܝ	-12.6208
ܘܢܒܛܠ	-12.6209
ܥܡܝܩ	-12.6212
ܕܠܐܢܬܬ	-12.6225
ܡܚܤܕ	-12.6234
ܡܫܚܢܝ	-12.6238
ܘܚܝܝ	-12.6247
ܓܒܝܘ	-12.6249
ܘܨܘ	-12.6249
ܘܠܩܛ	-12.625
ܘܕܠܚ	-12.6254
ܬܬܓܪ	-12.6258
ܘܓܪܡ	-12.6272
ܡܚܝܠܘܬ	-12.6276
ܥܒܕܟ	-12.629
ܡܟܪ	-12.6296
ܐܘܒܠ	-12.6305
ܕܢܙܕܩ	-12.6312
ܡܘܠ	-12.6315
ܠܛܘ	-12.6331
ܦܝܤܘ	-12.6339
ܠܪܗܘܡ	-12.6341
ܕܐܬܝܬܪ	-12.6342
ܪܬܗ	-12.6347
ܡܚܬ	-12.6365
ܟܠܝ	-12.6369
ܕܐܤܒܪ	-12.6372
ܕܐܝܩܪ	-12.6377
ܘܢܦܪܫ	-12.6379
ܛܡܝ	-12.6384
ܕܢܩܛܠ	-12.6386
ܐܬܬܠܡܕ	-12.6388
ܒܙ	-12.639
ܘܪܓܠܝܗ	-12.6403
ܘܤܡܝܟ	-12.6418
ܒܤܚ	-12.6437
ܤܥܪܝ	-12.6455
ܐܙܕܒܢ	-12.6465
ܘܩܘܡ	-12.6469
ܕܝܘܬܪܢ	-12.6475
ܦܤܘ	-12.6493
ܝܘܟܢ	-12.6495
ܫܪܪܘ	-12.6502
ܡܬܚܤܕܝܢ	-12.6503
ܘܡܫܠܡܢ	-12.6532
ܘܙܩܦ	-12.6543
ܘܡܬܩܝܡ	-12.6551
ܟܘܠ	-12.6569
ܕܚܠܦܝ	-12.6574
ܕܚܨ	-12.6581
ܥܡܟܝ	-12.6612
ܚܤܝ	-12.6632
ܕܩܒܘܪ	-12.6635
ܘܩܥܕ	-12.6642
ܘܢܥܠܘܢ	-12.6675
ܘܢܗܦܟ	-12.6678
ܕܢܬܦܠ	-12.6688
ܐܚܕܘ	-12.669
ܒܗܬܬܗ	-12.6717
ܘܬܒܘ	-12.6719
ܐܠܘܨ	-12.673
ܕܐܝ	-12.6737
ܬܩ	-12.6741
ܘܫܘܒܚܗ	-12.6749
ܠܐܕܢܝ	-12.6758
ܨܪ	-12.6762
ܘܐܬܕܝܢ	-12.6793
ܢܤ	-12.6793
ܘܢܦܪܩ	-12.6806
ܘܒܚܘ	-12.6811
ܒܤܡܬ	-12.6814
ܢܚܘܪ	-12.6832
ܡܫܬܥܝ	-12.6842
ܘܠܬܠ	-12.6847
ܕܢܦܪܥ	-12.6861
ܘܐܫܬܥܠܝ	-12.6878
ܪܚ	-12.6899
ܐܦܩܘ	-12.6913
ܘܒܬ	-12.6938
ܒܚܝܪ	-12.6962
ܘܕܦ	-12.697
ܒܬܘܩܠܬ	-12.6987
ܢܥܒܕܝ	-12.7014
ܕܐܫܬܥܒܕ	-12.7018
ܕܬܬܚܙ	-12.7033
ܬܝܒ	-12.7038
ܘܨܥܪ	-12.7039
ܒܤܝ	-12.704
ܕܥܡܟ	-12.7042
ܓܝ	-12.7044
ܘܡܬܓ	-12.7046
ܒܛܠܐ	-12.7071
ܘܢܢܗܪ	-12.7076
ܕܡܟܬ	-12.7096
ܕܢܝܬ	-12.7104
ܕܥܟܘ	-12.7147
ܡܨܪ	-12.7156
ܢܩܝ	-12.7169
ܘܡܘܬܪ	-12.7191
ܕܠܡ	-12.7191
ܕܐܬܓܡܪ	-12.7193
ܟܘ	-12.7195
ܠܡܗ	-12.7196
ܚܫܘ	-12.7218
ܟܢܫܬ	-12.7232
ܐܬܪܓܡ	-12.7249
ܫܘܠܛܢܗ	-12.7261
ܝܕܥܬܘܢ	-12.7289
ܘܕܒܪܬ	-12.7322
ܐܥܝܪ	-12.7324
ܥܢܝܬ	-12.733
ܕܕܒܩ	-12.7331
ܒܡܠܬܗ	-12.7361
ܒܤܟܠܘܬ	-12.7364
ܨܝ	-12.7422
ܩܝܡܢ	-12.7444
ܡܓܪ	-12.7472
ܬܪܝܨܐ	-12.7489
ܕܪܟܘ	-12.7491
ܒܚܪܫ	-12.7493
ܩܛܓܪܢܘ	-12.7499
ܕܦܩܕܬܟ	-12.7503
ܡܫܬܩܠ	-12.7513
ܒܪܘܝ	-12.7514
ܘܠܡܚܕ	-12.7533
ܕܬܬܥ	-12.7536
ܘܛܘܪ	-12.7537
ܝܬܝܪܘܬܗ	-12.7539
ܒܛܢܢ	-12.7547
ܕܐܬܡܠ	-12.7561
ܠܡܛܥ	-12.7572
ܐܟܠܬ	-12.7576
ܟܒܫܝ	-12.7586
ܚܫܝ	-12.7591
ܕܕܓܠ	-12.7616
ܘܟܤܝ	-12.7618
ܕܩܕ	-12.7634
ܐܤܩܘܗ	-12.7658
ܐܬܒܠܥ	-12.7692
ܠܡܤܝܒܪ	-12.7696
ܘܠܥܒܕ	-12.77
ܫܘܡܠܝ	-12.7706
ܦܫܝܩܐ	-12.7723
ܩܒܠܢܝ	-12.7727
ܐܝܬܘ	-12.7741
ܕܫܡܗܝ	-12.7744
ܒܐܕܢ	-12.7769
ܘܫܒܝ	-12.7776
ܝܚܘ	-12.7798
ܕܐܚܙ	-12.7818
ܠܦܓܪܝ	-12.7819
ܕܚܟܝܡܐ	-12.7827
ܥܢܗ	-12.7829
ܡܓܒ	-12.7835
ܪܘܪܒܢ	-12.7842
ܘܢܚܫ	-12.7845
ܕܘܒܪ	-12.785
ܘܐܫܬܘܬܦ	-12.7869
ܕܫܘܬܦ	-12.7874
ܕܒܪܘ	-12.7891
ܕܡܫܡܫܢ	-12.7899
ܕܠܟܠ	-12.792
ܕܡܝܬܘ	-12.792
ܒܐܘܪܚܬ	-12.7931
ܘܐܫܩܝ	-12.7949
ܠܐܦܝ	-12.7969
ܝܟܐ	-12.7982
ܘܤܒܥ	-12.8005
ܘܡܤܠܝ	-12.8007
ܘܕܥ	-12.8016
ܕܡܕܚܠ	-12.8051
ܡܥܕ	-12.8063
ܕܤܓ	-12.8109
ܕܡܩ	-12.811
ܟܒܫ	-12.8119
ܕܐܠܦܢ	-12.8158
ܡܚܝܬ	-12.8162
ܬܚܛܦ	-12.8189
ܬܒܘܢ	-12.8194
ܘܐܡܠܠ	-12.8201
ܢܤܝܦ	-12.8202
ܕܡܛܠܬܟ	-12.8213
ܚܝܢ	-12.8216
ܬܟܠܬ	-12.8228
ܓܦܝ	-12.823
ܒܙܕܝܩ	-12.8272
ܕܚܬܝ	-12.828
ܘܥܢܬ	-12.83
ܒܚܛܗܝܗ	-12.8316
ܓܘܡ	-12.8326
ܩܛܝܠ	-12.8349
ܢܫܐܠ	-12.8351
ܡܙܡܢ	-12.8371
ܕܐܝܠ	-12.8389
ܢܬܒܪ	-12.8399
ܡܫܟ	-12.8416
ܘܐܥܡܕ	-12.843
ܦܪܘܫܘ	-12.8448
ܐܤܚܝ	-12.8453
ܐܬܩܪ	-12.8458
ܘܥܓܠ	-12.8467
ܡܓܕܦܢ	-12.8473
ܘܠܘܩܝ	-12.849
ܘܒܠܟ	-12.8518
ܘܚܘܒܟ	-12.8536
ܫܩܠܘܢ	-12.8536
ܤܬܪܗ	-12.8567
ܡܬܚܪܝ	-12.8595
ܡܗܦܟ	-12.8601
ܡܫܬܘܕ	-12.8606
ܘܐܚܘܕ	-12.8618
ܤܚ	-12.8621
ܬܚܫ	-12.8623
ܘܒܢܡܘܤ	-12.8628
ܘܠܡܥܗܕ	-12.8638
ܒܡܘܠ	-12.8662
ܠܡܥܗܕܘ	-12.8673
ܕܡܬܬ	-12.8695
ܘܐܤܘܪ	-12.8698
ܒܗܝܡܢܘܬܗ	-12.8706
ܐܤܬܪ	-12.8756
ܬܬܟܢܫ	-12.8759
ܠܐܤܐ	-12.8774
ܘܠܒܝ	-12.8778
ܕܪܓܠ	-12.8779
ܐܒܘܗ	-12.8799
ܕܕܟܝ	-12.8807
ܡܬܟܬܒ	-12.8815
ܐܝܬܝܗܝ	-12.8821
ܓܐܝ	-12.8832
ܕܘܒܪܝܟ	-12.8876
ܕܠܡܢܘ	-12.8883
ܠܡܟܐ	-12.8898
ܐܟܠܝ	-12.8908
ܕܢܚܝ	-12.8913
ܒܬܚܘ	-12.8921
ܕܥܩܒ	-12.8957
ܘܛܥ	-12.8982
ܘܠܥ	-12.8993
ܛܪܝ	-12.8998
ܥܤ	-12.9028
ܘܢܟܢܫ	-12.9046
ܘܫܪܒܬ	-12.9071
ܕܡܕܒܪ	-12.9104
ܕܫܡܝܢ	-12.9104
ܬܢܒ	-12.9123
ܛܟ	-12.915
ܘܩܛܘ	-12.921
ܠܨܦܪ	-12.9216
ܐܚܕܬ	-12.9223
ܘܩܛ	-12.9242
ܐܤܘܪܘ	-12.9261
ܚܙܝܟ	-12.9314
ܕܫܛܝܘܬ	-12.9331
ܪܛܝ	-12.9345
ܘܚܕܪܘܗ	-12.9346
ܢܒܘ	-12.9362
ܕܢܕܪ	-12.9375
ܐܦܝܤ	-12.9425
ܘܫܪܒ	-12.9433
ܠܚܟܝܡ	-12.9456
ܚܬܝܪܝ	-12.9463
ܠܪܒܝܬ	-12.9507
ܕܤܝ	-12.9511
ܕܦܠܓܘ	-12.9557
ܡܤܒܪܢ	-12.9559
ܝܠܝܦ	-12.957
ܟܘܬܝܢܝ	-12.9577
ܠܟܪܤܗ	-12.9634
ܤܘܥܪܢܗ	-12.9641
ܕܐܤܠܝ	-12.9675
ܡܬܩܢܝ	-12.9691
ܤܘܤܬܢ	-12.97
ܐܬܚܛܦ	-12.9751
ܬܡܗܘ	-12.9764
ܒܐܪܙ	-12.9792
ܘܡܫܟܚ	-12.9799
ܘܠܥܠ	-12.9807
ܡܠܟܟ	-12.9817
ܠܡܠ	-12.9871
ܡܚܝܢܝ	-12.9872
ܘܠܥܘ	-12.9878
ܕܒܢܦܫ	-12.9889
ܐܫܠܡܘ	-12.993
ܘܠܫܘܒܚ	-12.9941
ܒܥܝܗ	-12.9985
ܚܝܠܢ	-12.9991
ܦܨܝ	-12.9991
ܡܢܤܝ	-12.9996
ܥܩܘ	-13.0033
ܚܘܢܝ	-13.0081
ܘܫܐܠܬ	-13.0094
ܘܕܥܒܕ	-13.0124
ܚܝܠܬܢܝ	-13.0154
ܢܙܕܗܪ	-13.0154
ܕܬܤܒ	-13.0173
ܕܩܛܠܬ	-13.0226
ܢܦܤ	-13.0272
ܕܨܥ	-13.0323
ܬܫ	-13.0323
ܘܐܚܕܘܗ	-13.0325
ܡܬܟܤܝ	-13.0343
ܘܡܤܓ	-13.0365
ܒܡܚ	-13.0382
ܘܡܕܒܪ	-13.0393
ܓܪܓ	-13.0415
ܨܨ	-13.0419
ܐܥܝܪܘ	-13.045
ܕܢܗ	-13.0463
ܫܚܬ	-13.0477
ܕܠܤ	-13.0484
ܒܡܠ	-13.0521
ܒܤܬ	-13.053
ܤܝܬ	-13.0545
ܨܘܕ	-13.0552
ܠܟܬܒܘ	-13.057
ܢܓܕܘ	-13.0581
ܠܤܠܡ	-13.0592
ܕܒܠܒܘ	-13.0601
ܟܝܡ	-13.0615
ܘܨܠ	-13.0616
ܘܕܡ	-13.0636
ܕܐܫܬܪ	-13.0662
ܐܙܕ	-13.0665
ܠܡܘ	-13.07
ܕܟܘܠ	-13.0754
ܕܓܙܪ	-13.0797
ܥܛܦ	-13.0804
ܝܕܥܬܟ	-13.0806
ܦܘܩܕ	-13.0815
ܡܬܪܕܝ	-13.0855
ܚܕܬܘܢ	-13.0907
ܥܪܛܠܝܝܢ	-13.0913
ܕܠܒܝ	-13.0919
ܘܥܒܕܗ	-13.0946
ܕܒܩܘ	-13.0949
ܬܥܝܪ	-13.0958
ܠܨ	-13.0959
ܘܢܩܒ	-13.0973
ܡܚܘܪ	-13.0985
ܘܤܚܦ	-13.1021
ܠܒܪܝܬ	-13.1023
ܘܡܪܚܡܢ	-13.1054
ܚܪܝܦܐ	-13.1084
ܡܙ	-13.1091
ܘܒܡܘܬ	-13.1116
ܕܡܨܥ	-13.1143
ܘܐܗܦܟ	-13.1145
ܘܐܤܘ	-13.1164
ܕܐܫܡܥ	-13.1173
ܟܦܢܝܢ	-13.1173
ܢܫܬ	-13.1176
ܡܬܩܦܚ	-13.1179
ܘܡܬܚܤ	-13.1201
ܘܡܕܝܢ	-13.1211
ܨܠܘܬܗ	-13.1215
ܡܠܟܬ	-13.1218
ܘܚܪܒ	-13.1221
ܕܢܩܪܘ	-13.1236
ܘܠܐܪܟ	-13.1252
ܢܕܘ	-13.1258
ܕܐܪܛ	-13.1264
ܡܬܩܢ	-13.1276
ܟܠܝܠܝ	-13.1316
ܠܝܘܪ	-13.1356
ܫܚܩܝ	-13.1375
ܚܒܪܝܟ	-13.1381
ܕܡܬܐܠܨܝ	-13.1391
ܘܫܒܘܗ	-13.1404
ܕܫܝܢ	-13.1404
ܘܚܙ	-13.1408
ܬܗܝܡܢ	-13.1417
ܡܬܪ	-13.1428
ܘܤܒܪܬ	-13.143
ܕܬܗܝܡܢ	-13.1449
ܘܬܘ	-13.1485
ܒܘ	-13.1519
ܓܥܠܘ	-13.153
ܦܢܩܝ	-13.1556
ܒܟܦ	-13.1565
ܘܬܫܟܚ	-13.1569
ܘܒܝܫܐ	-13.1614
ܬܦܠܚ	-13.1621
ܡܤܬ	-13.1686
ܦܩ	-13.1696
ܕܡܬܒܥܝ	-13.1706
ܘܨܥܪܘ	-13.1714
ܥܝܢܗ	-13.1717
ܘܬܪܥ	-13.173
ܕܥܬ	-13.1732
ܦܛܡ	-13.1747
ܘܚܤܝ	-13.1779
ܐܤܟܠ	-13.1793
ܫܬܡܗ	-13.18
ܕܫܬܩ	-13.1861
ܕܒܡܠ	-13.1875
ܬܦܨܚܝ	-13.1902
ܘܬܐܠܕ	-13.1958
ܚܩܠ	-13.1959
ܘܒܕܪ	-13.1994
ܡܫܥܒܕܝ	-13.2002
ܬܦܩܕ	-13.2037
ܦܦ	-13.2042
ܕܢܬܬ	-13.2044
ܢܩܪܒ	-13.2044
ܒܟܬ	-13.2051
ܕܩܕܡܝܟ	-13.2073
ܙܕܗܪ	-13.208
ܠܘܩܕ	-13.2082
ܘܒܐܝܩ	-13.209
ܐܨܛ	-13.209
ܚܝܝ	-13.2091
ܘܠܒܫ	-13.2115
ܘܐܘܠܨܢܝ	-13.2122
ܪܘܕ	-13.2138
ܠܪܒ	-13.2171
ܘܠܐܝܩ	-13.2177
ܠܝܪܬ	-13.2192
ܒܘܗܝ	-13.2196
ܬܪܝܡܘܢ	-13.2211
ܬܪܓܪܓ	-13.2212
ܐܪܓܫ	-13.2224
ܕܢܗܪܘ	-13.2228
ܟܬܒܘܢ	-13.2247
ܡܫܬܡܫ	-13.2258
ܕܚܝܘ	-13.2263
ܡܚܪܡ	-13.2272
ܕܕܝܢܗ	-13.2293
ܠܛܝܡ	-13.2299
ܠܡܨ	-13.2307
ܘܠܒܢܝܟ	-13.2309
ܪܫܟ	-13.2336
ܘܙܩܦܘ	-13.2366
ܕܩܘܦܪ	-13.2384
ܚܝܠܝ	-13.2388
ܩܘܝܢ	-13.2417
ܬܡܠܝܢ	-13.2435
ܘܠܡܬܝ	-13.2445
ܕܐܬܟܪܟ	-13.2446
ܒܫܘ	-13.2449
ܕܪܟ	-13.2466
ܫܚܠܦ	-13.2488
ܪܘܤ	-13.2511
ܡܬܒܢܝ	-13.2514
ܪܦܢ	-13.2529
ܚܢܝ	-13.2529
ܕܒܚܪ	-13.2552
ܩܫܝܫܬ	-13.2581
ܥܘ	-13.2589
ܐܬܒܢܝ	-13.26
ܪܛ	-13.2603
ܐܬܡܗ	-13.2634
ܘܐܫܬܪ	-13.2642
ܢܓܡܘܪ	-13.2662
ܤܟܠܢ	-13.269
ܕܫܠܝ	-13.2693
ܡܘܠܝܗ	-13.2698
ܪܘܩ	-13.2736
ܕܢܢܤ	-13.2752
ܫܚܠܦܘ	-13.277
ܡܟܢܫ	-13.2771
ܕܢܟܦ	-13.2781
ܕܚܝܠܢ	-13.2798
ܕܐܬܓ	-13.2798
ܐܘܚܕܘ	-13.2809
ܘܒܠܥܕ	-13.2825
ܘܠܡܤܒܪ	-13.2881
ܬܬܕܝܫ	-13.2882
ܕܢܦ	-13.2887
ܬܫܬܥܒܕ	-13.2923
ܡܩܦܚ	-13.2931
ܘܐܬܕܟ	-13.2961
ܒܡܩ	-13.2961
ܘܠܦܘܩܕ	-13.2975
ܘܙܪܥ	-13.2984
ܡܙܥ	-13.3032
ܒܐܝܕܝܟ	-13.3045
ܘܫܒܩܘܗ	-13.3047
ܕܦܤܩ	-13.3062
ܠܕܪ	-13.3064
ܘܦܘܡܗ	-13.3069
ܒܝܢܝܟ	-13.3069
ܐܚܒܬ	-13.3077
ܘܕܥܟܘ	-13.3088
ܙܘܓܝ	-13.3108
ܬܦܫܚ	-13.3109
ܨܝܬ	-13.3127
ܕܢܤܓ	-13.3148
ܐܪܚܩ	-13.3152
ܡܠܦܢܘܬ	-13.3157
ܒܘܪ	-13.3172
ܡܤܘܚ	-13.3175
ܕܬܫܢܝܩ	-13.3216
ܘܕܝܠܟ	-13.3224
ܡܓܠ	-13.325
ܢܫܒ	-13.3282
ܓܕܦ	-13.3295
ܕܥܒܕܝ	-13.3309
ܪܘܓܙܟ	-13.3311
ܨܝܟ	-13.3321
ܪܟܝܢ	-13.3322
ܪܝܫܝ	-13.3329
ܠܬܫܥ	-13.334
ܒܡܥ	-13.3353
ܘܥܗܕ	-13.3365
ܘܠܡܕ	-13.3375
ܬܢܓܕ	-13.3402
ܡܕܟܝ	-13.341
ܠܡܦ	-13.3412
ܕܡܕܟܝ	-13.3419
ܠܡܬܢ	-13.3431
ܩܥܝ	-13.3432
ܘܛܪܦ	-13.3434
ܠܛܒ	-13.3448
ܬܦܨܝ	-13.3459
ܫܪܪܟ	-13.3461
ܬܚܬܪܘ	-13.3487
ܕܪܓܝ	-13.3509
ܕܫܘܩ	-13.3514
ܬܩܝܡܘ	-13.3533
ܡܪܟ	-13.3548
ܘܬܠܬܝ	-13.356
ܦܠܚܝܗ	-13.3591
ܡܬܪܕ	-13.3626
ܘܡܛ	-13.3655
ܤܛܘܐ	-13.3657
ܬܙܝܥܝܢ	-13.3708
ܬܛܠ	-13.3715
ܘܟܦܝ	-13.3726
ܬܒܘܬܟ	-13.3769
ܝܒܐ	-13.3779
ܩܒܪܘܗ	-13.3794
ܐܬܦܢ	-13.3795
ܕܪܘܢ	-13.3811
ܪܗܘܡ	-13.3817
ܕܥܤ	-13.3829
ܕܢܐܤܘ	-13.3841
ܛܠܝܢ	-13.3932
ܠܪܫܗ	-13.3935
ܘܡܬܩ	-13.3941
ܘܡܫܬܒܗܪ	-13.3954
ܘܕܝܗܘܕ	-13.3978
ܫܡܥܝ	-13.3979
ܕܦܓܪܟ	-13.4
ܘܬܚܒ	-13.4001
ܠܥܩ	-13.4005
ܫܩܝ	-13.4026
ܘܬܗܝܡܢ	-13.4078
ܤܛܝ	-13.408
ܚܦܛܘ	-13.4083
ܘܦܤ	-13.4091
ܪܚܡܝܟ	-13.4092
ܘܐܙܕܗܪ	-13.4141
ܒܠܥܬ	-13.415
ܬܬܩܢ	-13.4159
ܕܩܪܢ	-13.4167
ܠܡܚܒ	-13.4196
ܦܢܘ	-13.4201
ܘܬܬܡ	-13.4222
ܚܪܒܬ	-13.4238
ܬܩܒܪ	-13.4243
ܢܤܬܝܒ	-13.4248
ܘܫܦ	-13.4248
ܬܪܤܘܢ	-13.427
ܒܛܪܘ	-13.428
ܘܫܕܝ	-13.4291
ܙܝܥܝܢ	-13.4292
ܚܪܪ	-13.4292
ܟܦܪܝ	-13.4293
ܡܥܨ	-13.4296
ܠܡܬܬ	-13.4305
ܩܪܩܦ	-13.4307
ܪܩܘ	-13.4307
ܕܪܘܪܒ	-13.432
ܥܪ	-13.433
ܕܐܩܝܡܟ	-13.4332
ܘܤܦܝܢ	-13.4336
ܪܓܝܓ	-13.4339
ܘܠܙܪ	-13.4341
ܕܡܤܝܒܪ	-13.4346
ܤܝܘ	-13.4348
ܘܢܐܪܟ	-13.4358
ܘܛܬ	-13.4363
ܬܓܠܙ	-13.4381
ܗܝܡܢܝܢ	-13.4383
ܫܬܘܙܒ	-13.4387
ܐܬܟܫܠ	-13.4393
ܕܒܛܝܒܘ	-13.4398
ܫܬܡܠܝܬ	-13.4413
ܬܟܬܒܝ	-13.4446
ܘܕܚܠܝ	-13.4454
ܙܕܘܓ	-13.4475
ܠܦܪܓ	-13.4478
ܬܦܪܫܝ	-13.4497
ܕܐܙܕ	-13.4502
ܚܘܫܒ	-13.4514
ܚܪܥܘܬ	-13.4519
ܐܩܦ	-13.4529
ܕܢܬܒܛ	-13.4531
ܤܬܥܪ	-13.4532
ܠܪܓܠܝ	-13.4534
ܠܡܤܬ	-13.4537
ܒܟܪܝ	-13.4538
ܟܘܪܤ	-13.4548
ܨܝܦ	-13.455
ܘܐܬܦ	-13.4565
ܡܪܕܘ	-13.4566
ܦܠܝܓ	-13.4568
ܡܙܕܥ	-13.4571
ܤܢܝܬ	-13.4574
ܡܩܝ	-13.4593
ܦܪܘܓ	-13.4602
ܢܨܛܥ	-13.4604
ܢܫܬܢܩ	-13.4606
ܐܓܥܠ	-13.4617
ܫܝܬ	-13.4618
ܐܫܦܥ	-13.4619
ܕܐܩܦ	-13.4619
ܬܪܨ	-13.4622
ܕܤܪܕ	-13.4629
ܕܟܠܡܕ	-13.4629
ܡܤܬܝܒ	-13.464
ܬܟܬܘܫ	-13.4647
ܘܡܛܥܝ	-13.4649
ܫܕܝܗ	-13.4651
ܫܡܥܢܝ	-13.4653
ܒܡܫܪ	-13.4655
ܘܪܬ	-13.4662
ܢܪܩܕ	-13.4662
ܘܟܠܬ	-13.4665
ܘܡܬܩܪܝ	-13.4666
ܟܢܝܫ	-13.4668
ܡܬܩܛܠ	-13.4671
ܛܫܝܘ	-13.4671
ܠܡܦܠ	-13.4672
ܐܩܦܬ	-13.4678
ܐܚܝܢܝܟ	-13.4685
ܠܤܓ	-13.4686
ܚܙܐܘܗ	-13.4692
ܕܩܛ	-13.4694
ܥܬܝ	-13.4699
ܘܡܥܤ	-13.4703
ܬܩܢܬ	-13.4707
ܕܡܬܟܢ	-13.4711
ܘܠܬܪܝ	-13.4712
ܘܩܪܢ	-13.4712
ܠܡܬܒܘ	-13.4712
ܫܘܘܕܥ	-13.4714
ܕܐܫܬܘ	-13.4716
ܒܩܢܘܡ	-13.4716
)	-13.4717
4	-13.4717
9	-13.4717
:	-13.4717
5	-13.4717
ܙܝܗ	-13.4717
ܠܪܓܝ	-13.4721
ܨܥ	-13.4722
ܢܩܝܡܘܢ	-13.4723
ܠܡܦܫ	-13.4725
ܠܐܝܩ	-13.4728
ܛܘܫܘ	-13.473
ܕܒܝܩ	-13.4732
ܘܒܚܤܝ	-13.4738
ܚܤܢܘ	-13.474
ܬܫܬܐ	-13.474
ܓܝܓ	-13.4741
ܢܘܒܠ	-13.4743
ܡܩܛܪܓ	-13.4745
ܫܝܓ	-13.4745
ܟܬܫ	-13.4745
ܫܘܢܩ	-13.4751
ܦܠܝܓܝ	-13.4753
ܕܢܐܙ	-13.4755
ܕܦܪܥ	-13.4761
ܠܢܝܩ	-13.4764
ܠܚܘܕܝܗ	-13.4765
ܡܦܠܓ	-13.4766
ܐܬܕܡܝ	-13.4767
ܡܘܒܕ	-13.4772
ܕܡܤܬܟܠ	-13.4778
ܘܦܝ	-13.4781
ܕܘܟܪܢ	-13.4789
ܐܤܬܒܪܬ	-13.4793
ܛܪܟ	-13.4803
ܛܓܪ	-13.4803
ܢܫܬܥ	-13.4809
ܘܢܫܬܒ	-13.4814
ܡܬܟܫܦ	-13.4818
ܘܡܗܠ	-13.484
ܬܪܚ	-13.4843
ܙܕܘܓܘ	-13.4844
ܢܫܩܘ	-13.4846
ܬܤܠܘܢ	-13.4847
ܕܒܛܘ	-13.4848
ܕܡܤܪ	-13.4855
ܕܡܨܠܝ	-13.4858
ܐܓܘ	-13.4865
ܐܬܡܟܟ	-13.4867
ܠܦܪܨ	-13.4877
ܥܘܕܪܢ	-13.4887
ܝܡܘܢ	-13.4888
ܡܤܩ	-13.4889
ܘܡܫܪ	-13.4892
ܡܕܪܫ	-13.4918
ܘܒܟ	-13.4918
ܫܘܒܩ	-13.4932
ܩܒܠܘܢܝ	-13.4933
ܐܘܨܪ	-13.4944
ܫܬܠܛ	-13.4956
ܬܟܠܝ	-13.4956
ܕܐܬܢܟ	-13.4965
ܤܢܝ	-13.498
ܚܠܕܝ	-13.4983
ܢܬܩܢ	-13.4987
ܘܠܩܝܡ	-13.499
ܘܤܛܘ	-13.4991
ܚܢܩܝܢ	-13.4997
ܘܡܪܚ	-13.5015
ܙܝܥܝ	-13.5032
ܕܒܗܘ	-13.5034
ܕܚܫܚ	-13.5039
ܒܡܕܥ	-13.5039
ܕܐܤܬܒܪ	-13.5042
ܘܐܬܦܢ	-13.5046
ܘܕܦܝܢ	-13.5053
ܢܗܪܬ	-13.5058
ܦܘܓ	-13.5061
ܘܐܝܬܝܟ	-13.5062
ܠܫܦܝ	-13.5062
ܒܤܦ	-13.5063
ܒܩܨ	-13.5073
ܘܐܘܕܥܘ	-13.5074
ܕܦܘܪ	-13.508
ܬܓ	-13.5084
ܗܪܤܝ	-13.5091
ܟܐܒܝ	-13.5096
ܐܬܡܠܟ	-13.5099
ܘܝܩܪ	-13.5109
ܫܬܓܫ	-13.5118
ܘܕܥܡ	-13.5122
ܕܐܫܬܥ	-13.5126
ܡܘܬܪܢ	-13.5142
ܘܚܟ	-13.5144
ܕܩܪܘ	-13.5148
ܘܡܫܡܥ	-13.5164
ܡܘܕܝ	-13.5165
ܒܛܠܘ	-13.5172
ܘܬܪܘ	-13.5181
ܘܦܝܗ	-13.5186
ܚܘܕܝܗ	-13.5188
ܤܬܝܒܪ	-13.5191
ܫܐܠܘܢܝ	-13.5208
ܢܩܦܢ	-13.521
ܡܫܬܕܪ	-13.5219
ܒܢܤܝ	-13.522
ܫܚܢܘ	-13.5234
ܨܒܥܗ	-13.5234
ܕܐܚܕܘ	-13.5256
ܦܝܤܢܘܬ	-13.5267
ܘܒܩܘ	-13.5272
ܐܩܝܡܘܗ	-13.5272
ܕܢܪܓ	-13.5274
ܘܐܠܨ	-13.5279
ܘܐܙܕܕܩ	-13.5298
ܕܬܛ	-13.5302
ܘܥܝܬ	-13.5315
ܚܨܗ	-13.5328
ܢܬܟܪ	-13.5341
ܠܚܨ	-13.5349
ܒܥܘܪ	-13.5358
ܕܬܟܦ	-13.5385
ܕܬܩܒܠ	-13.539
ܩܝܬܪܘ	-13.5394
ܚܤܕܝ	-13.5408
ܕܐܤܒ	-13.5411
ܘܠܡܬ	-13.5414
ܪܛܒ	-13.542
ܘܦܫ	-13.543
ܕܠܢܦܫ	-13.5435
ܕܡܫܡܥ	-13.5466
ܠܛܢܢ	-13.5466
ܕܬܦܪ	-13.5482
ܚܪܫܝ	-13.5487
ܘܠܩܝ	-13.5501
ܛܝܒܘܬܟ	-13.5505
ܘܐܡܪܝ	-13.5516
ܒܦܤ	-13.5525
ܘܒܙ	-13.5532
ܐܓܗ	-13.5536
ܕܐܚܫ	-13.5538
ܘܠܓܐ	-13.5546
ܕܐܤܘܪ	-13.5549
