<pad>	0
</s>	0
<unk>	0
▁	-3.35831
,	-3.55202
ᓂ	-3.66194
᙮	-4.00572
ᓐ	-4.18568
ᒥ	-4.33116
ᑯ	-4.33536
ᒡ	-4.36994
ᑕ	-4.37916
ᓯ	-4.37958
ᑭ	-4.41519
ᓈ	-4.45447
▁ᐁ	-4.46116
▁ᐅ	-4.48343
ᑎ	-4.50758
ᒃ	-4.5231
ᐱ	-4.52791
ᑲ	-4.53007
ᒫ	-4.53526
▁ᑕᔥ	-4.54793
▁ᑲᔦ	-4.55581
▁ᑳ	-4.57002
ᓇ	-4.58296
▁ᒦ	-4.61019
ᒋ	-4.612
ᔑ	-4.61356
▁ᒋ	-4.62635
ᐙ	-4.66405
ᑖ	-4.70468
ᐸ	-4.72332
ᐃ	-4.79353
ᑫ	-4.79668
ᐙᒡ	-4.81506
ᐊ	-4.85877
ᐎ	-4.86025
ᑳ	-4.91678
▁ᑮ	-4.93676
ᐌ	-4.97427
ᕽ	-5.05266
▁ᐁᑮ	-5.10175
ᒪ	-5.12011
ᑑ	-5.15727
:	-5.21007
ᑌ	-5.21739
ᐅ	-5.21777
ᔥ	-5.23817
▁ᑳᐐᓐ	-5.24461
ᐗ	-5.25495
▁ᐃᐃ	-5.26648
ᓂᒡ	-5.27515
▁ᐅᑮ	-5.29149
▁ᑭ	-5.30297
ᓀ	-5.31421
ᑮ	-5.31543
▁ᑳᑮ	-5.31893
▁ᐊ	-5.37226
ᓰ	-5.40468
ᐋ	-5.42633
ᑕᔥ	-5.45526
▁ᑫ	-5.47549
▁ᐃᑕᔥ	-5.47629
▁ᓂ	-5.49109
ᓅ	-5.50943
ᐎᓐ	-5.5289
▁ᓴ	-5.53498
▁ᑭᔐᒪᓂᑑ	-5.55081
▁ᐃᐃᒫ	-5.58107
▁ᐃᓂ	-5.5879
ᓴ	-5.602
ᐐ	-5.60727
▁ᑳᐃᔑ	-5.6155
ᓭ	-5.63034
ᑾ	-5.65821
ᒀ	-5.66827
▁ᐊᐎᔭ	-5.69844
ᐊᔮ	-5.71322
ᓄ	-5.75101
ᐞ	-5.75107
ᔭ	-5.75462
ᒻ	-5.75926
ᐗᒃ	-5.77609
ᑴ	-5.78827
▁ᑲᑭᓇ	-5.8102
ᐲ	-5.81908
ᒦ	-5.82639
▁ᑕ	-5.8382
ᓃ	-5.83928
▁ᐊᐊ	-5.84405
ᒋᑫ	-5.84741
▁ᐊᐲ	-5.8544
ᒌ	-5.85946
ᐹ	-5.86988
▁ᒋᓴᔅ	-5.87578
ᑰ	-5.89581
ᓐ᙮	-5.91863
▁ᐃ	-5.9205
ᔅ	-5.92635
ᓱ	-5.93157
▁ᐃᑭ	-5.9333
▁ᐁᔑ	-5.93853
ᓵ	-5.94027
ᑐ	-5.95313
▁ᐐᓐ	-5.96277
ᔕ	-5.98164
ᐯ	-6.01139
▁ᐃᔑ	-6.03569
ᔮ	-6.03609
ᔦᒃ	-6.03995
ᒡ᙮	-6.06509
▁ᐐ	-6.08659
▁ᐱ	-6.09304
▁ᐋ	-6.11032
▁ᐋᓃᔥ	-6.13085
▁ᑭᔐᒪᓂᑑᓐ	-6.16842
▁ᐅᐅ	-6.17994
?	-6.18521
ᐗᓐ	-6.18588
ᐙᓐ	-6.24769
ᑭᒋ	-6.24821
ᐅᒋ	-6.26215
▁ᐸ	-6.27425
ᔮᓐ	-6.27566
ᒧ	-6.2774
ᐃᔑ	-6.3103
▁ᑭᑲ	-6.39847
!	-6.41501
ᑕᒧ	-6.41654
▁ᐃᓂᓂ	-6.42161
ᑌᐺ	-6.42619
ᒃ᙮	-6.44029
▁ᑫᑰᓐ	-6.45939
▁ᐋᓃᓐ	-6.47116
▁ᓂᑮ	-6.47944
ᐴ	-6.48793
ᐱᒫᑎᓯ	-6.49469
▁ᑮᔥ	-6.5058
ᓂᓂᒃ	-6.51617
ᔖ	-6.52352
▁ᒫ	-6.52521
ᐎᓂᕽ	-6.53083
ᔭᓐ	-6.5543
▁X	-6.56659
ᓂᒡ᙮	-6.56757
ᐱᓐ	-6.57717
ᐙᒡ᙮	-6.5829
ᐐᒌ	-6.59177
▁ᐁᑕ	-6.59626
ᐎᓂ	-6.5986
▁ᐃᑯ	-6.60098
ᓂᒃ	-6.60155
ᑣ	-6.618
▁ᑭᒋ	-6.61881
▁ᐁᐐ	-6.63271
▁ᑮᐃᑭᑐ	-6.63753
ᐐᒋ	-6.64627
ᑳᑌ	-6.64659
▁ᒦᔥ	-6.66046
▁ᑳᐃ	-6.66805
ᑕᕽ	-6.66839
▁ᑳᑮᐃᔑ	-6.67035
ᐗᐞ	-6.67967
ᒨ	-6.6936
ᔥᑭ	-6.69659
▁ᒥ	-6.70387
ᕽ᙮	-6.70494
ᐳ	-6.70617
ᑕᔑ	-6.70668
▁ᐅᑎ	-6.71712
▁ᑖᐱᔥᑰ	-6.7197
▁ᐃᓇ	-6.72315
ᓈᓐ	-6.72771
▁ᐊᑮᕽ	-6.72788
ᕒ	-6.73318
▁ᑮᓇᐙ	-6.73401
▁ᐅᑲ	-6.73911
ᑲᑴ	-6.74608
▁ᓃᓐ	-6.75924
ᑲᓐ	-6.75959
▁ᓃ	-6.76042
▁ᑌᐺ	-6.78076
ᒥᓄ	-6.78376
▁ᑭᑎ	-6.78426
▁ᐃᐃᐌ	-6.78602
ᔥᑲ	-6.78869
ᒣ	-6.78916
▁ᑳᐅ	-6.80374
ᑕᐌ	-6.81158
▁ᐲ	-6.81734
ᒥᓐᒡ	-6.8229
▁ᐋᔕ	-6.82545
ᔒ	-6.84169
▁ᐯᔑᒃ	-6.84619
▁ᒋᓴᓲᓐ	-6.86168
▁ᑲ	-6.86806
ᑭᓐ	-6.8795
ᔦ	-6.88195
▁ᒦᓇᐙ	-6.88531
▁ᑭᑮ	-6.88737
▁ᐃᐌ	-6.88922
ᐸᓐ	-6.88999
ᑕᒪ	-6.89836
▁ᐌᑎ	-6.90146
ᒪᐎ	-6.92771
ᓉ	-6.92895
ᑕᒧᐙᒡ	-6.93249
ᑕᐙ	-6.93325
▁ᐊᔮ	-6.94228
ᐃᔖ	-6.94417
ᑯᒡ	-6.95342
▁ᐅᒋ	-6.96606
ᓇᓐ	-6.96614
ᓂᔑ	-6.96623
ᐁ	-6.98168
▁ᒪ	-6.98582
ᑾᒃ	-6.99342
ᐎᓂᓂ	-6.99801
ᒋᑳᑌ	-6.99946
ᑫᓂ	-7.0147
▁ᑭᑭ	-7.03181
▁ᑳᐅᒋ	-7.04481
ᐎᓇᓐ	-7.05261
ᑭᑭ	-7.0544
▁ᑳᐐ	-7.05758
ᓇᑰᒃ	-7.06871
▁ᐃᒫ	-7.0764
ᔐ	-7.09852
ᐎᓐ᙮	-7.09919
ᔓ	-7.10136
▁ᑯ	-7.11805
ᑕᒪᐙ	-7.11975
▁ᐅᔕ	-7.13096
▁ᓇ	-7.13215
ᑕᒣᒃ	-7.13473
ᑭᓯ	-7.13731
ᔮᕽ	-7.14294
▁ᑫᑯ	-7.14573
ᑭᐸᓐ	-7.14857
ᑦ	-7.15104
▁ᐊᐌ	-7.15277
▁ᑳᔑ	-7.15473
ᑕᐎ	-7.15522
ᓈᑯᓯ	-7.15947
ᐙᐞ	-7.1741
ᓀᒃ	-7.17654
ᑳᓱ	-7.17927
ᐲᐃ	-7.18752
▁ᑮᐃᔑ	-7.19057
ᐗᒃ᙮	-7.20101
ᔭᕽ	-7.20664
ᐊᓄᑮ	-7.21117
▁ᒣ	-7.2188
▁ᐄᑐᒃ	-7.21924
▁ᓅᑯᒻ	-7.21924
ᓈᒡ	-7.22005
ᐃᑯ	-7.22132
▁ᒋᐃᔑ	-7.22312
ᓯᒃ	-7.22459
▁ᐯ	-7.22718
▁ᐯᔑᑾᓐ	-7.22891
▁ᐁᐃᔑ	-7.23008
▁ᐁᑳ	-7.23532
ᐄ	-7.23552
▁ᓂᑲ	-7.23806
▁ᐊᐌᓀ	-7.24104
▁ᑯᑕᒃ	-7.24548
▁ᐃᑴ	-7.25779
ᐙᐸᒫ	-7.26034
▁ᔑᑾ	-7.27025
ᓰᓐ	-7.27135
▁ᐋᐱᒋ	-7.27229
ᑭᒫ	-7.27267
▁ᐌ	-7.27557
ᓂᓂᒻ	-7.28031
ᐆ	-7.28897
▁ᑳᑎᐯᒋᑫᒡ	-7.28911
ᒪᒋ	-7.29767
ᐗᕽ	-7.29896
ᓬ	-7.30125
▁ᐅᑮᐃᓈᓐ	-7.3135
ᓯᒀ	-7.3144
▁ᑳᐊ	-7.32018
ᐃᐌ	-7.32527
▁ᐅᐅᐌ	-7.34287
▁ᐁᑮᐃᔑ	-7.37502
ᑕᒥᓂᒡ	-7.38141
ᓇᕽ	-7.38517
▁ᐃᑭᑐ	-7.39396
ᑭᑭᓄᐊᒫᑫ	-7.39405
ᒫᒋ	-7.39632
▁ᐅᐅᒫ	-7.39683
ᔔ	-7.40554
▁ᑮᓐ	-7.40634
ᔦᒃ᙮	-7.40792
ᓇᐃ	-7.40985
▁ᐅᐌ	-7.41284
▁ᒥᓯᐌ	-7.41357
ᓃᕽ	-7.41567
ᑲᔥᑭᑑ	-7.4176
ᒫᒌ	-7.42796
ᐙᐱ	-7.43623
ᑰᓐ	-7.43662
ᑲᓂᐎ	-7.43725
▁ᐐᑫ	-7.44662
▁ᐱᑯ	-7.45761
▁ᒫᐗᒡ	-7.46141
ᐐᑕᒪᐎ	-7.46316
ᑲᓇᓐ	-7.46669
ᐤ	-7.4694
ᑎᐯᓂᒥ	-7.46947
▁ᐆᑌᓈᕽ	-7.48602
ᑲᓇᐌ	-7.48603
ᒥᑯᒡ	-7.49383
▁ᒋᐅᒋ	-7.49975
ᐃᓀᑖᑯᓯ	-7.50011
▁ᑳᑮᐅᒋ	-7.51607
▁ᐃᔑᒋᑫ	-7.52081
▁ᐊᐊᐌ	-7.5227
ᕒᐊ	-7.5283
▁ᑫᐅᒋ	-7.53613
ᔭᐄ	-7.54184
ᑸ	-7.56895
▁ᐅᓇᔓᐌᐎ	-7.56895
▁ᑕᑲ	-7.5731
ᓬᐊ	-7.57372
▁ᑫᐃᔑ	-7.5763
▁ᑾᔭᒃ	-7.5781
▁ᓇᐗ	-7.58494
ᑰᐞ	-7.58592
ᑕᒫᓐ	-7.586
▁ᑫᔮᐱ	-7.59219
▁ᐌᒋ	-7.5934
ᑰᔦᒃ	-7.59606
ᓵᑭᐃ	-7.59826
ᑲᓅᓈ	-7.62014
ᑏ	-7.62029
▁ᒣᒀ	-7.62103
▁ᒨᔕᒃ	-7.6251
ᓂᑎᓱ	-7.64183
ᓰᒻ	-7.65463
▁ᐗᐊ	-7.65732
▁ᐅᑮᐃᓈᐞ᙮	-7.65902
ᓯᐌᒃ	-7.65941
ᕒᐃ	-7.6604
ᓬᐃ	-7.67059
ᔫ	-7.67443
▁ᐅᑭᑭᓄᐊᒪᐙᑲᓇᐞ	-7.67444
▁ᑮᐊᓂ	-7.67754
▁ᑆᓬ	-7.67994
▁ᐯᒫᑎᓯᓂᒡ	-7.6846
▁ᐃᓇᔥᑫ	-7.68472
ᓍ	-7.68959
ᓯᓂᒃ	-7.69075
▁ᓃᐱᐗᐞ	-7.69491
ᐃᓀᑕ	-7.70361
▁ᐌᑯᓀᓐ	-7.70525
▁ᐊᐗᔑᒣ	-7.72633
ᓯᓅᓐ	-7.72954
ᒪᒋᑑᑕᒧ	-7.73817
▁ᐅᑯᓯᓴᓐ	-7.74786
ᐲᑎᑫ	-7.75137
ᑎᓄᐎ	-7.75152
▁ᐲᑕᕒ	-7.75348
ᔣ	-7.7588
ᐃᑯᒡ	-7.7682
ᑉ	-7.76987
▁ᔔᓂᔮ	-7.78675
▁ᐁᒐᓬ	-7.78716
▁ᐋᓂᑕ	-7.78852
ᒪᑲᒃ	-7.79663
ᒐ	-7.80912
ᐹᑏᓄ	-7.81541
▁ᑭᒋᑮᔑᑯᕽ	-7.82124
▁ᒪᔮ	-7.82222
ᓈᑾᓂᓂ	-7.82598
▁ᐯᒫᑎᓯᐙᒡ	-7.82711
ᓃᑳᓂ	-7.82984
ᐌᓂᐗᒃ	-7.84058
ᓈᑯᓂ	-7.84321
ᑎᐹᒋᒧ	-7.84495
ᑌᓂᒃ	-7.85941
ᐎᓂᐙᓐ	-7.86133
▁ᐅᑮᐃᑰᓐ	-7.88793
ᑲᓇᐞ	-7.88978
ᐊᓇᒥᐋ	-7.90054
ᔨ	-7.90678
0	-7.91318
ᐸᑭᑎᓈ	-7.91998
ᐅᑭᒫ	-7.92548
▁ᑭᒋᐅᑭᒫ	-7.93413
▁ᒥᓂᒃ	-7.94119
ᓂᑖᐎᑭ	-7.95275
ᒦᓂᑰ	-7.95304
▁ᑳᐃᓈᒡ	-7.95605
ᑆ	-7.95859
ᒪᔥᑲᐎᓰ	-7.95917
ᑎᐯᒋᑫ	-7.97389
ᑮᔑᒃ	-7.97825
ᓂᓂᑭᓐ	-7.97944
ᑲᒥᒃ	-7.98815
▁ᐅᑕᒑᑾᓐ	-7.99336
▁ᒎᐗᒃ	-7.99336
▁ᑫᑰᓂᓂ	-7.99338
▁ᑳᑎᐯᒋᑫᓂᒡ	-7.9936
ᑕᒨᒃ	-8.00438
▁ᑫᑰᓇᓐ	-8.00741
ᑖᓈᐙ	-8.01409
▁ᑎᓄ	-8.01472
ᐯᔑᑯ	-8.01909
▁ᐃᔥᒀ	-8.02893
ᑮᔑᑲᓂᓂᒃ	-8.04343
▁ᓂᑕᒻ	-8.05864
ᐱᒥᓂᔕ	-8.07105
ᑖᐱᓇ	-8.07534
ᑯᐸᓀᓐ	-8.0806
▁ᒉᕒᐆᓴᓬᐊᒥᕽ	-8.08815
ᓂᔕᐅ	-8.09132
ᓲ	-8.10356
ᓃᔑᓐ	-8.11787
ᑮᔑᑲᒃ	-8.12985
ᑎᐸᐊ	-8.1321
ᐌᐌᓂ	-8.1349
▁ᑳᒎᐎᐎ	-8.15947
▁ᒞᓐ	-8.15993
ᐙᑳᐃᑲᓂ	-8.16772
▁ᓵᑭ	-8.17598
;	-8.17603
▁ᐹᓂᒫ	-8.17612
ᑎᐹᑯᓂ	-8.19296
▁ᐆᑌᓇ	-8.20141
ᒥᓴᐌ	-8.2035
ᑭᑭᓄᐊᒪᐙ	-8.21
▁ᑭᒋᐊᓇᒥᐁᐎᑭᒫ	-8.21
ᐃᑎᓱ	-8.22214
ᓯᓄᒃ	-8.22432
▁ᐅᑕᓄᑮ	-8.22744
▁ᐅᑌᐺᑕᒨᒃ	-8.22746
ᑮᐌᐱᒫᑎᓯ	-8.23027
ᑖᑯᓯᒡ	-8.2313
▁ᐃᓀᑖ	-8.2355
▁ᐐᓇᐙ	-8.23714
ᐸᑭᑎᓇ	-8.25439
ᑗ	-8.26323
ᒉ	-8.28162
▁ᑫᑮᓇᐙ	-8.28163
▁ᐱᒫᑎᓯᐎᓐ	-8.28474
▁ᒥᓍᒋᒧᐎᓐ	-8.29095
ᐎᓂᐙᕽ	-8.29221
ᒪᒋᑑᑕ	-8.29795
▁ᔖᑰ	-8.30092
ᑕᓇᒥᐋ	-8.30989
ᔩ	-8.32914
2	-8.33892
ᔂ	-8.37902
ᑶ	-8.47561
ᒞ	-8.53293
3	-8.66075
ᓶ	-8.76048
1	-8.80646
4	-8.95866
7	-9.07473
ᒬ	-9.09545
ᐺ	-9.35126
ᓋ	-9.63819
ᔛ	-9.79384
ᒶ	-9.8818
5	-9.97826
–	-10.085
8	-10.2046
ᔀ	-10.3403
ᔾ	-10.3403
6	-10.6841
9	-10.9136
)	-11.9485
.	-12.3985
x	-12.3985
(	-13.2309
ᔡ	-13.231
ᒍ	-13.2311
ᐾ	-13.2312
ᒸ	-13.2313
ᔪ	-13.2314
ᔗ	-13.2315
X	-13.2316
ᒎ	-13.2317
ᑡ	-13.2318
ᒒ	-13.2318
"	-13.2318
/	-13.2318
Z	-13.2318
[	-13.2318
]	-13.2318
a	-13.2318
u	-13.2318
~	-13.2318
ᐧ	-13.2318
ᐼ	-13.2318
ᒑ	-13.2318
