<pad>	0
</s>	0
<unk>	0
¦	-1.43608
▁¦	-1.44952
ᓐ	-3.21256
ᒡ	-3.55977
ᒃ	-3.68084
▁᙮	-3.79799
▁,	-3.89992
ᑕᔥ	-4.30237
ᕽ	-4.41938
ᓂ	-4.76978
ᑲᔦ	-4.90019
ᒦ	-4.93885
ᐞ	-5.11509
ᐙ	-5.19058
ᑳ	-5.19656
ᐃ	-5.35022
ᑭᔐᒪᓂᑑ	-5.45175
ᑮ	-5.50925
ᒋ	-5.51536
ᔥ	-5.54793
ᑳᐐ	-5.55366
▁:	-5.55543
ᐁ	-5.59606
ᐃᐃ	-5.61399
ᔅ	-5.67439
ᓴ	-5.684
ᒻ	-5.69663
ᓇ	-5.86738
ᒋᓴ	-5.8986
ᐋᓃ	-5.90126
ᐃᐃᒫ	-5.91548
ᑭ	-5.94821
ᐁᑮ	-5.94912
ᑫ	-5.95801
ᐃᓂ	-6.0015
ᐗ	-6.02952
ᐐᓐ	-6.03108
ᐊᐎᔭ	-6.04377
ᑯ	-6.0994
ᑲᑭᓇ	-6.14624
ᐊᐊ	-6.1807
ᐊᐲ	-6.18811
ᑳᑮ	-6.19663
ᑕ	-6.20102
ᔦ	-6.24869
ᐅᐅ	-6.26547
ᐃᑭ	-6.29717
ᐅ	-6.31109
ᐅᑮ	-6.31172
ᑳᐃᔑ	-6.32059
ᒫ	-6.33497
ᑖ	-6.42927
ᔭ	-6.44602
ᓃ	-6.48594
▁?	-6.53076
ᑫᑰ	-6.591
▁	-6.62538
ᔮ	-6.63846
ᐃᑯ	-6.70359
ᐁᔑ	-6.7299
ᓰ	-6.75971
▁!	-6.76062
ᒥᓐ	-6.81589
ᔥᐱ	-6.84601
ᑮᓇᐙ	-6.88604
ᐅᑮᐃᓈ	-6.8959
x	-6.90893
𐋇	-6.9106
ᑭᑲ	-6.94003
ᑦ	-6.94108
ᐊᑮ	-6.96243
ᓅ	-6.98465
ᐸ	-6.99356
ᒥ	-7.0332
ᐱᔥᑰ	-7.05769
ᓲ	-7.05884
ᐎᓐ	-7.06342
ᓯ	-7.08239
ᐐ	-7.08754
ᐌᑎ	-7.15122
ᐯᔑ	-7.15636
ᐁᑕ	-7.16153
ᐃᔑ	-7.16905
ᐌ	-7.17118
ᐃᐌ	-7.17818
ᐋᔕ	-7.17845
ᐅᒋ	-7.198
ᑳᑎᐯᒋᑫ	-7.22151
ᒦᓇᐙ	-7.23035
ᑭᒋ	-7.24184
ᒥᓂ	-7.25902
ᑐ	-7.26704
ᐃᓂᓂ	-7.27763
ᐃᒫ	-7.30377
ᒣ	-7.32258
ᐅᑲ	-7.3302
ᑮᐃᑭᑐ	-7.34421
ᓈᓐ	-7.34581
ᐁᐐ	-7.37459
ᐊ	-7.40214
ᐃᓇ	-7.40829
ᑳᑮᐃᔑ	-7.41674
ᐄ	-7.42021
ᑫᑯ	-7.43452
ᓈ	-7.4358
ᑳᔑ	-7.44471
ᐃᐃᐌ	-7.45444
ᑭᐸ	-7.45683
ᐊᐌ	-7.46401
ᐯᔑᑾ	-7.47684
ᓂᓂ	-7.48304
ᒪ	-7.48582
ᑳᐅᒋ	-7.50676
ᑯᑕ	-7.51117
ᐋ	-7.51269
ᑎ	-7.5154
ᐁᑳ	-7.52086
ᐅᔕ	-7.52168
ᑣ	-7.53564
ᑌᐺ	-7.55292
ᐃᓂᓂᐗ	-7.56864
ᓀ	-7.58443
ᒀ	-7.59531
ᔑᑾ	-7.60479
ᐋᐱᒋ	-7.61882
ᓂᓂᒻ	-7.62447
ᐅᐌ	-7.64914
ᐱ	-7.68905
ᐱᑯ	-7.69112
ᓂᑮ	-7.69795
ᓄ	-7.7064
ᒎᐗ	-7.71031
ᑭᑮ	-7.71709
ᓂᑲ	-7.72789
ᐆᑌᓈ	-7.73346
ᐎ	-7.73628
ᒥᓯᐌ	-7.73882
ᒫᐗ	-7.74526
ᐐᑫ	-7.7544
ᐅᑮᐃᑰ	-7.76777
ᑰ	-7.80915
ᐤ	-7.81569
ᐊᐌᓀ	-7.81753
ᒣᒀ	-7.82683
ᐌᑯᓀ	-7.82817
ᐋᓂ	-7.8303
ᐊᐊᐌ	-7.84847
ᑲ	-7.8562
ᑕᑲ	-7.86975
ᔑ	-7.87775
ᐅᐅᐌ	-7.8815
ᑾᔭ	-7.88775
ᓈᐙ	-7.88964
ᓇᐗ	-7.89986
ᐅᑌᐺᑕᒨ	-7.92029
ᑫᔮᐱ	-7.93841
ᑳᑮᐅᒋ	-7.9416
ᒨᔕ	-7.9431
ᑾ	-7.94783
ᑴ	-7.95152
ᐅᑭᑭᓄᐊᒪᐙᑲᓇ	-7.9628
ᑫᐅᒋ	-7.96412
ᑮᐃᔑ	-7.973
ᐅᑯᓯᓴ	-7.98125
ᓃᐱᐗ	-7.98125
ᑫᔑ	-7.98147
ᐅᑯ	-7.98211
ᐗᐊ	-7.9971
ᐯᒫᑎᓯᓂ	-8.02646
ᐃᓇᔥᑫ	-8.03175
ᐌᒋ	-8.0452
ᐊᐗᔑᒣ	-8.05704
ᒞ	-8.05704
ᑮᐊᓂ	-8.0601
ᓂᑕ	-8.06044
ᐐᓇᐙ	-8.06234
ᒋᐅᒋ	-8.06642
ᐌᓂᐗ	-8.08986
ᐲᑕᕒ	-8.10046
ᐊᔮ	-8.10209
ᒪᓐ	-8.10535
ᒦᐗ	-8.11092
ᑉ	-8.11652
ᐅᓄ	-8.12455
ᒪᔮ	-8.12466
ᓯᒀ	-8.12526
ᑭᒋᑮᔑᑯ	-8.15092
ᑳᐃᓈ	-8.15356
ᐯᒫᑎᓯᐙ	-8.16827
ᒫᒑ	-8.17865
ᑮᐃᑭᑐᐗ	-8.18045
ᐲᓂ	-8.18388
ᑌ	-8.19096
ᐁᑮᐃᔑ	-8.19255
ᐃᑭᑐ	-8.19932
ᓯᐌ	-8.21076
ᐃᓀᑖᑯᓯ	-8.21775
ᔐ	-8.22701
ᐲ	-8.2307
ᐸᑳ	-8.2464
ᐅᓇᔓᐌᐎ	-8.2561
ᓇᑰ	-8.27665
ᐁᐊᓂ	-8.28161
ᑭᑖ	-8.282
ᑲᑴ	-8.28506
ᐃᑴ	-8.28899
ᒉᕒᐆᓴᓬᐊ	-8.29273
ᑳᑕᔑ	-8.29799
ᐊᔮᓂ	-8.29828
ᑆᓬ	-8.29878
ᑫᑰᓂᓂ	-8.31837
ᐅᑕᒑᑾ	-8.32655
ᐹ	-8.32704
ᐃᔖ	-8.3374
ᒪᒋ	-8.35176
ᑎᓄ	-8.36094
ᓭ	-8.3773
ᓃᔑ	-8.37857
ᐃᓇᑫ	-8.37912
ᐋᑎ	-8.38746
ᔔᓂᔮ	-8.3876
ᑭᒋᐅᑭᒫ	-8.39674
ᐃᑴᐗ	-8.40043
ᐃᓂᐌᓂᐗ	-8.40117
ᑲᓅᓈ	-8.40687
ᐁᐃᔑ	-8.40994
ᑮᐅᒋ	-8.41093
ᐙᐸ	-8.41519
ᑯᐸᓀ	-8.41791
ᐁᑮᐃᓈ	-8.42064
ᑮᔑ	-8.42151
ᐃᓴ	-8.43316
ᐃᔑᒋᑫ	-8.43567
ᓯᓅ	-8.45918
ᑯᒫ	-8.46233
ᐌᐌᓂ	-8.46662
ᐊᒦ	-8.47207
ᐱᒫᑎᓯᐎ	-8.48177
ᐎᓂ	-8.49657
ᓂᑖ	-8.50733
ᑮᔑᑲᓂᓂ	-8.5097
ᓯᓂ	-8.5109
ᐊᑭ	-8.51661
▁;	-8.52337
ᓱ	-8.52338
ᐹᓂᒫ	-8.52339
ᑭᒋᐊᓇᒥᐁᐎᑭᒫ	-8.52661
ᑑ	-8.5317
ᓰᐗ	-8.53951
ᐃᐃᐌᓂ	-8.54256
ᒨᓯ	-8.55142
ᒪᒋᐊᒑᑾ	-8.56623
ᑳᐱ	-8.56715
ᐋᓇ	-8.57244
ᑮᐊᔮ	-8.57853
ᑮᐌ	-8.58133
ᓃᓇ	-8.58626
ᓀᒀ	-8.58866
ᒥᓍᒋᒧᐎ	-8.59402
ᐅᑮᐃᔑ	-8.5966
ᒧᐙ	-8.60631
ᓈᓂ	-8.60755
ᑳᑮᐱ	-8.61158
ᐅᑖ	-8.64079
ᑲᓇ	-8.64485
ᐃᓈᑯᓂᑫᐎ	-8.65086
ᐁᒐᓬᐊ	-8.65793
ᐊᓂ	-8.66785
ᐯ	-8.67198
ᐯᐸᑳ	-8.68632
ᒨ	-8.69368
ᐲᑎᑫ	-8.70644
ᓯᓂᓂ	-8.70872
ᑳᐊᔮᐙ	-8.717
ᑳᐊᔮ	-8.71801
ᑰᔦ	-8.72176
ᒋᐃᔑ	-8.72182
ᑳᒎᐎᐎᓯ	-8.7246
ᑮᓇᐎ	-8.72724
ᒦᐃ	-8.73044
ᐃᔑᓭ	-8.73297
ᒧ	-8.73609
ᐃᓈ	-8.7402
ᐎᓇ	-8.74464
ᐁᑮᐊᓂ	-8.74529
ᑭᑭᓄᐊᒪᐙᑲᓇ	-8.74643
ᓂᑌᑌ	-8.74757
ᓯᐙ	-8.74768
ᒦᓴ	-8.74872
ᐱᒫᑎᓯ	-8.7563
ᔭᐄ	-8.76964
ᓯᓄ	-8.77328
ᑌᐯᒋᑫ	-8.77948
ᑕᑯᔑ	-8.79603
ᐐᒌᐙ	-8.79773
ᐅᒫ	-8.80153
ᐋᓇᐐ	-8.80907
ᒋᑮ	-8.80925
ᒋᑆ	-8.8128
ᒪᔑ	-8.81388
ᑳᐃᑭᑐ	-8.8141
ᑮᔑᑲ	-8.81687
ᒌ	-8.82132
ᑭᒋᐊᓇᒥᐁᐎᑲᒥᑯ	-8.82309
ᓯᐗ	-8.82355
ᔖᑰ	-8.8241
ᑫᓃ	-8.82465
ᐅᑕᒑᑯᓂ	-8.82502
ᐆ	-8.84234
ᐁᐸᕒᐊᐋ	-8.84563
ᐊᔮᐙ	-8.84586
ᔂ	-8.84776
ᐊᔮᔦ	-8.84823
ᑕᔑ	-8.85394
ᑮᐱ	-8.85458
ᐯᕒᐊᓰ	-8.8582
ᓈᑯᓯ	-8.86353
ᒥᓄ	-8.86677
ᒦᒋ	-8.8732
ᓇᑫ	-8.88229
ᐃᔥᒀ	-8.89927
ᐊᓇᒥᐋ	-8.89976
ᐁᐱ	-8.907
ᐱᓵ	-8.9147
ᐁᐃᑭᑐ	-8.91742
ᑕᑯ	-8.91922
ᑫᒋᓈ	-8.91928
ᑮᐅᑌᑌ	-8.92009
ᑌᐱ	-8.92034
ᐃᔑᐲᐃᑳᑌ	-8.92151
ᑳᑭᒋ	-8.92369
ᑎᐸ	-8.9281
ᑳᐊᔮᓂ	-8.94295
ᑫᐃᔑ	-8.94621
ᐃᓀᑖᑾ	-8.96538
ᒪᒋᑑᑕᒧᐎ	-8.96845
ᐐᒌᐎ	-8.97109
ᐁᑮᐅᒋ	-8.98607
ᒫᒌ	-8.98784
ᐅᑯᓯᓯ	-8.9938
ᔑᒫᑲᓂᔕ	-8.99588
ᓵᐃᒪ	-8.99685
ᐅᔥᑭ	-8.99724
ᐄᓴ	-9.00391
ᐁᒐᓬ	-9.00784
ᐁᐅᒋ	-9.01528
ᑳᐃᔑᒋᑫ	-9.01633
ᑫᓂ	-9.01917
ᒋᐱ	-9.02019
ᑳᐃᔥᒀ	-9.02182
ᓂᑖᐎᑭ	-9.02757
ᐱᒫᑎᓯᐙ	-9.0292
ᐋᐸᒋᑑ	-9.03005
ᓂᑯ	-9.03118
ᐸᑮ	-9.03264
ᐯᔓ	-9.03692
ᐊᐱᓅᒌᔕ	-9.03701
ᐁᑮᐱ	-9.04123
ᓂᐳ	-9.0438
ᑭᑭᓄᐊᒫᑫ	-9.05201
ᐲᐎ	-9.05211
ᐯᔑᑯ	-9.05618
ᒪᑲ	-9.05981
ᒥᑖ	-9.06342
ᐹᐃᓬᐊ	-9.06536
ᑯᐙ	-9.07003
ᐅᒫᒫ	-9.07064
ᐅᓵ	-9.07115
ᑭᒋᒪᓯᓇᐃᑲ	-9.07117
ᑭᑎᔑ	-9.07633
ᒎᑕ	-9.08158
ᐅᑭᒋ	-9.08388
ᑭᑭᑫᑖ	-9.08389
ᐐᑕᒪᐎᓇᑰ	-9.09455
ᓅᒋᑯ	-9.09463
ᐁᕒᐊ	-9.0956
ᐁᑭᒋ	-9.09728
ᑌᐺᐎ	-9.09819
ᑭᑑ	-9.101
ᑳᐃᑯ	-9.11082
ᑲᔥᑭᑑ	-9.11203
▁¦3	-9.11677
ᐃᔥᑯᑌ	-9.12041
ᑕᐌ	-9.12705
ᑮᑭᒋ	-9.12733
ᒥᒋ	-9.1302
ᐅᑮᐅᒋ	-9.14107
ᐆᑌᓇ	-9.1431
ᐅᐙᑳᐃᑲᓂ	-9.14344
ᑲᑴᒋᒫ	-9.14487
ᓂᓯ	-9.14616
ᔕ	-9.14773
ᑑᑕ	-9.15501
ᐐᒋ	-9.15792
▁¦2	-9.16196
ᐐᑕᒪᐎ	-9.17028
ᐌᔫᓯᒥ	-9.17151
ᐲᔖ	-9.17663
ᐎᓂᐙ	-9.17824
ᔒ	-9.17923
ᐅᑌᑌ	-9.18229
ᐁᓈᓴᒦ	-9.18765
ᐁᔑᓈᑾ	-9.18902
ᑳᑭᑭᓄᐊᒫᑫ	-9.19347
ᑳᓂᑖ	-9.19501
ᐁᔑᒋᑫ	-9.19716
ᒪᒋᐊᔭᐋ	-9.2007
ᒥᓴᐙ	-9.2042
ᐁᑕᔑ	-9.21189
ᐁᑕᓱ	-9.21473
ᐃᑯᐙ	-9.21596
ᐃᔅᕒᐃᔭᓬᐊ	-9.22091
ᑳᐅᒌ	-9.22604
ᑫᑳ	-9.22799
ᑭᑭ	-9.22883
ᑕᒪᐙ	-9.2295
ᐙᓭᔮ	-9.2326
ᐗᑭ	-9.23461
ᒦᓈ	-9.23549
ᐋᐱ	-9.23686
ᐅᑕᓄᑮᐋᑲᓇ	-9.23765
ᐃᔑᓂᔕᐙᑲᓇ	-9.23839
ᑭᐐᑕᒪᐎ	-9.24051
ᐅᑭᑭᓄᐊᒫᑫ	-9.24223
ᑯᓯ	-9.25028
ᐅᓄᐌᓂᐗ	-9.25586
ᑭᑎᑳᓀ	-9.25645
ᐴ	-9.25942
ᐃᑎᓱ	-9.26234
ᒪᐎ	-9.26572
ᐃᔥᐱ	-9.26744
ᑫᑮ	-9.27227
ᒣᐎᔕ	-9.27244
ᐸᑴᔑᑲᓇ	-9.27456
ᐗᓂᓂ	-9.27966
ᑳᐊᓂ	-9.27986
ᐃᔑᓈᑾ	-9.2835
ᑆᓬᐊ	-9.29196
ᒋᑳᑌ	-9.29297
ᐱᓵᓂ	-9.29652
ᐊᓯᓃ	-9.29985
ᐊᐌᓀᓇ	-9.30286
ᑮᐃᔖ	-9.30328
ᒋᑫ	-9.30586
ᓅᑕᒧᐙ	-9.30622
ᐐᐸ	-9.3064
ᐁᑮᐃᑭᑐ	-9.30838
ᐙᐸᒫ	-9.30952
ᐁᐲᒋ	-9.31014
ᐙᐸᑕᒧᐙ	-9.31476
ᐅᑮᐱ	-9.31536
ᐙᑳᐃᑲᓂ	-9.31656
ᑲᒀᑕᑭᑑ	-9.31751
ᓈᐱ	-9.32457
ᐐᑕᒪᐙ	-9.3259
ᑎᐱᓇᐌ	-9.32699
ᑳᓬᐊᓬᐄ	-9.32853
ᓃᔣᓱ	-9.33012
ᐁᐊᔮ	-9.33211
ᑳᑎᐯᑕ	-9.33296
ᐐᒋᐃ	-9.33304
ᐋᐙ	-9.3356
ᒫᐗᒋᐃᑎ	-9.33736
ᐃᔑᓭᓂ	-9.34156
ᐅᑕ	-9.3418
ᒥᑰ	-9.34724
ᒎᓴ	-9.34726
ᑭᐐ	-9.34813
ᐋᔑᑌᔮᑎ	-9.34903
ᐹᑏᓄ	-9.35363
ᐅᑮᐃᓈᐙ	-9.35452
ᐊᑕ	-9.35506
ᓂᐳᐎᓂ	-9.3586
ᓂᐳᐎ	-9.36033
ᐅᑎᑭᑐᐎ	-9.36144
ᐱᔑᔑ	-9.36505
ᐊᐙ	-9.3663
ᐅᑯᓯᓯᒫ	-9.36763
ᐃᔑᓂᔕᐅ	-9.36902
ᑲᒥ	-9.37101
ᑕᓱ	-9.37169
ᐊᔮᐗ	-9.37242
ᐃᑰ	-9.37391
ᐅᐅᐌᓂ	-9.37485
ᔥᑲ	-9.37659
ᑭᒋᑲ	-9.37845
ᒥᓂᑴ	-9.37993
ᐐᓯᓂ	-9.38341
ᐁᑮᐃᑯ	-9.38488
ᑭᑕ	-9.38968
ᐸᑭᑎᓈ	-9.39023
ᐁᑭᑐ	-9.39712
ᓅᑌᓭ	-9.40252
ᓯᐙᐙ	-9.40257
ᔔᒥᓈᐳ	-9.40469
ᓂᐱ	-9.40521
ᓇᑴᑕᐙ	-9.40834
ᐁᔑᓈᑯᓯ	-9.40869
ᐁᔮᓂ	-9.4162
ᐁᑮᐃᔖ	-9.41796
ᑲᓂᐎ	-9.42218
ᓈᑯᑑ	-9.42366
ᒫᐙ	-9.42671
ᑳᐊᐲᒋ	-9.43045
ᓵᑭ	-9.4318
ᓇᑴᑕ	-9.43408
ᔕᐌᑖᑯᓯ	-9.4382
ᓂᓯᓐ	-9.44389
ᒣᕒᐃ	-9.44594
ᒫᑭᔖ	-9.44595
ᔑᒫᑲᓂᔒᐎᑭᒫ	-9.446
ᑭᓉ	-9.44722
▁¦7	-9.44956
ᓈᓂᐗ	-9.45637
ᑳᓵᑭᐃ	-9.45744
ᓰᒥ	-9.45791
ᐅᐐᓱᐎᓂ	-9.45835
ᐊᓄᑮᐋᑲ	-9.46486
ᑫᑌ	-9.46826
ᑖᑯᓯ	-9.46842
ᑮᑭᑐ	-9.46858
ᐁᑮᐊᐎ	-9.46983
ᒦᓂᑰ	-9.47432
ᒥᓉᑕ	-9.47783
ᒋᑳᑌᓂ	-9.4784
ᑫᒫ	-9.48231
ᒋᑲᓂᐎ	-9.48234
ᐊᐎ	-9.48662
ᓭᑕ	-9.4874
ᐊᓇᒥᐁᐎᑲᒥᑯ	-9.48806
ᓂᑭ	-9.48816
ᒬ	-9.48893
ᐁᔑᓂᑳᓱ	-9.49301
ᒥᑯ	-9.49565
ᑮᐊᔮᐗ	-9.49969
ᐊᐱ	-9.49969
ᑲᔥᑭᑑᓰ	-9.50427
ᓃᐎ	-9.50895
ᐱᒌᓇ	-9.51119
ᑕᐅᒋ	-9.52234
ᐱᒫᑎᓰᒪ	-9.52526
ᐅᔑᑑ	-9.5263
ᒑ	-9.52811
ᑳᑮᐃᑭᑐ	-9.52917
ᐅᑖᐱᓈ	-9.52934
ᐸᓯᑸ	-9.5298
ᐅᑎ	-9.5329
ᐅᑮᓇᑴᑕᐙ	-9.53601
ᓯᔅ	-9.53874
ᐃᓂᓃ	-9.54198
ᔑᓈ	-9.54326
ᑲᑴᒋᒥ	-9.54629
ᓂᓂᑭ	-9.5473
ᑭᑌ	-9.5475
ᑭᑫᓂᒥ	-9.54782
ᐊᒋ	-9.55243
ᐙᐸᒫᐙ	-9.5544
ᒋᐱᒫᒋᐃᐌ	-9.5578
ᐅᒋᒋᓭ	-9.55782
ᐁᔮ	-9.56064
ᒣᑴ	-9.5619
ᐸᑴᔑᑲ	-9.56933
ᐌᒌ	-9.57152
ᐅᑎᐯᒋᑫᐎ	-9.5721
ᒥᐙ	-9.57371
ᓂᑎᔑ	-9.57506
ᒦᐃᐌ	-9.57972
ᐊᒀ	-9.57995
ᒣᔥᑾ	-9.58099
ᑳᓃᑳᓂᓯ	-9.58111
ᑖᓈᐙ	-9.58121
ᐊᐸᓀ	-9.58139
ᑳᑎᐯᓂᒥᓇ	-9.58561
ᑳᓂ	-9.58595
ᑭᑑᒋ	-9.58746
ᑖᓈ	-9.58855
ᐗᐐᑫ	-9.59627
ᐃᔑᒋᑫᐙ	-9.59832
ᐃᑭᑑᒪᑲ	-9.59928
ᓃᒋ	-9.60125
ᑕᒧᐙ	-9.6025
ᐊᑖᐌ	-9.60542
ᐃᔑᒋᑫᔦ	-9.60589
ᓃᐸᐎ	-9.60723
ᓵᑲᐊ	-9.60775
ᒨᔥᑭᓀ	-9.61013
ᑳᐹᑏᓄ	-9.61255
ᒦᓂᑰᐎᓯ	-9.61357
ᑑᑕᐎ	-9.6152
ᑎᐹᒋᒧᐎ	-9.61598
ᓂᓵᐙ	-9.61874
ᐃᔑᐌᐸ	-9.61926
ᐅᐱᒫᑎᓯᐎ	-9.61932
ᓇᑭ	-9.6234
ᐸᑭᑎᓂ	-9.62816
ᓃᑳᓂ	-9.62903
ᐊᓯᓐ	-9.63064
ᑭᑫᑕᒣ	-9.63075
ᑎᐯᑖᑯᓯ	-9.63142
ᐙᐸᒥ	-9.63619
ᐙᑳᐃᑲ	-9.63836
ᑕᒫ	-9.63886
ᐴᓂ	-9.63973
ᐅᑎᓯ	-9.64948
ᒪᔥᑲᐎᓰᐎ	-9.65001
ᐃᓀᑕ	-9.65087
ᐐᐗ	-9.65135
ᐅᓵᐎ	-9.65277
ᐊᑲ	-9.6529
ᐊᓉ	-9.65301
ᒫᒪᑳᒋᒋᑫᐎ	-9.65414
ᐐᒌᐎᑯ	-9.65432
ᓍ	-9.65591
ᐊᔮᒀᒥᓯ	-9.65631
ᐙᐸᑕᒣ	-9.65729
ᐊᔮᔮ	-9.65938
ᑲᑴᑗ	-9.66023
ᐊᑾ	-9.66155
ᓈᑾ	-9.66165
ᐐᒌᐙᐙ	-9.6655
ᐐᑕᒫᑫ	-9.66615
ᐅᑎᔑ	-9.66835
ᑖᑾ	-9.66842
ᐙᓴ	-9.66875
ᔮᐹ	-9.67416
ᐸᐹ	-9.67942
ᐃᑭᑐᔭ	-9.68046
ᑎᐸᐊᒪᐙ	-9.68357
ᑭᑭᓄᐊᒪᐙ	-9.68378
ᓵ	-9.68783
ᐁᔑᓈᑾᓂᓂ	-9.68845
ᑭᑮᐃᔑ	-9.68852
ᐃᓀᑖᑯᓯᐎ	-9.69443
ᓂᐐ	-9.69467
ᒋᑕᔑ	-9.69601
ᐌᒀ	-9.70025
ᑎᐯᒋᑫ	-9.70176
ᑳᑑᑕ	-9.70206
ᐊᓄᑮ	-9.7034
ᐅᑎᓯᑯ	-9.70366
ᐁᓂ	-9.70516
ᐅᑎᑭᑐᐎᓂ	-9.70892
ᒎᑏᔭ	-9.70935
ᑮᒨᒋ	-9.71361
ᑌᐺᔦᑕ	-9.71715
ᐯᑭ	-9.71843
ᓈᑯ	-9.7193
ᐗᒀ	-9.71976
ᓇᐎ	-9.72066
ᐱᒥ	-9.72079
ᒋᐊᓂ	-9.72148
ᐱᒫᒋᐃᑰᐎ	-9.7216
ᐃᔑᐊᔮ	-9.72523
ᓇᑲᓈ	-9.73142
ᑰᔭ	-9.73463
ᐅᑭᔐᐙᑎᓯᐎ	-9.73589
ᓈᑫ	-9.73684
ᐱᓬᐊ	-9.7371
ᐅᑎᐹᒋᒧᐎᓂᓃᒪ	-9.73713
ᐋᒋᑯ	-9.73721
ᒥᑎ	-9.74068
ᒥᓇ	-9.74196
ᐙᐱ	-9.74383
ᑕᓯ	-9.74436
ᐱᒫᑎᓯᐎᓂ	-9.74662
ᐴᓯ	-9.74963
ᐱᓇᒫ	-9.75103
ᐅᑮᐙᐸᒫ	-9.75106
ᒌᒫᓂ	-9.75123
ᐅᑕᓇᒥᐋ	-9.75217
ᒎᐎ	-9.75992
ᒦᑭᐌ	-9.76012
ᑳᐅᓂᔑᔑ	-9.76092
ᐌᓅᑎᓯ	-9.76366
ᐃᐌᓂ	-9.76373
ᓭᑭᓯ	-9.76395
ᐃᔥᒀᑌ	-9.76542
ᒐᔭᐄ	-9.76572
ᐊᐴᔥᑫ	-9.76594
ᒫᒪᐎ	-9.76712
ᑮᐌᐱᒫᑎᓯ	-9.76721
ᓂᑭᑫᑖ	-9.76909
ᑭᑫᑖ	-9.76995
ᑮᔑᑯ	-9.77369
ᑳᓅᑕ	-9.77484
ᐱᒫᑎᓯᓂ	-9.77632
ᔖ	-9.77753
ᒋᑲᑴ	-9.77938
ᔔᓂᔮᓴ	-9.77947
ᐱᒧᓭ	-9.78027
ᓂᑯᓯ	-9.7826
ᐁᑎᓄᐎ	-9.78358
ᐁᐃᓈ	-9.78388
ᒫᒥᑲᐎ	-9.78611
ᓂᓯᑐᑕ	-9.78678
ᑭᑫᓂᒫ	-9.78886
ᐐᓯᓂᐙ	-9.79008
ᑕᒣ	-9.79062
ᒫᓇᒑᓂᔐ	-9.79155
ᒋᔑ	-9.79179
ᔖᑯᐌ	-9.79324
ᓭᓂ	-9.79428
ᐲᑎ	-9.79436
ᐊᓄᑮᐎ	-9.7949
ᐹᕒᓇᐸ	-9.79511
ᐱᑾᑕᑲᒥ	-9.79511
ᐅᔥᑭᓃᑭᑴ	-9.79518
ᐊᓂᔖ	-9.79529
ᑫᒋ	-9.79596
ᓂᑑᒋ	-9.79614
ᑲᔥᑭᐁᐎᓯᐎ	-9.79743
ᐊᓇᒥᐁ	-9.79829
ᑑᐙ	-9.79959
ᐃᓂᓇᑰ	-9.80101
ᐊᐸ	-9.80286
ᐃᑭᑐᐎᓐ	-9.80564
ᒧᐗ	-9.80674
ᐊᔮᒪᑲ	-9.8096
ᑑᑕᒧᐙ	-9.81086
ᐅᑑ	-9.81291
ᐐᔭᐎᒫ	-9.813
ᐊᓇᒥᐁᐎᑭᒫ	-9.81307
ᓃᔣ	-9.81587
ᒪᔥᑲᐎᓰ	-9.81668
ᒋᐃᔖ	-9.81922
ᐁᐙᐸᒫ	-9.81931
ᔫ	-9.81958
ᐅᒌ	-9.82124
ᐐᒋᐋ	-9.82245
ᐃᓀᓂᒫ	-9.82271
ᑲᑭᑐ	-9.82292
ᐅᓇ	-9.82388
ᐊᒑᑾ	-9.8255
ᐱᐴ	-9.82703
ᐃᑭᑐᔮ	-9.82748
ᐃᔑᐱᒫᑎᓯ	-9.82997
ᐃᔖᐙ	-9.83366
ᐅᑖᐎᓂ	-9.83473
ᕒ	-9.83603
ᒫᒪ	-9.83692
ᑳᐅᔫᓯᒥ	-9.83737
ᑌᐺᑕᐙ	-9.8376
ᐃᓀᑕᒧᐙ	-9.84221
ᑎᓄᐎ	-9.84316
ᐸᑭᑎᓂᑫ	-9.84586
ᐅᓂᔑᔑ	-9.84754
ᓀᐱᒋ	-9.84944
ᒥᓄᒋᑫ	-9.8504
ᐅᑖᐱᓇ	-9.8515
ᓂᑮᐃᔑ	-9.85274
ᒥᓀ	-9.85455
ᒦᑲᓈ	-9.85682
ᐐᒋᑭᐌᔭ	-9.85753
ᑮᐹᑏᓄᐗ	-9.85857
ᐊᓄᑮᐋᑲᓇ	-9.86093
ᑎᒪ	-9.86112
ᓵᑭᐃ	-9.86265
ᓂᑮᐙᐸᒫ	-9.86296
ᑫᑮᓇᐎ	-9.86506
ᐋᐱᑕ	-9.8654
ᓂᑮᐃ	-9.86572
ᒌᒫ	-9.86641
ᑲᑴᒋᒥᑯ	-9.868
ᐁᑮᐃᑭᑐᐙ	-9.86814
ᑳᑮᔑᑲ	-9.86825
ᓃᑳ	-9.86846
ᐅᓃᑳᓂᓰ	-9.86905
ᓂᔑ	-9.86969
ᐋᐸ	-9.87081
ᑭᑎᑫ	-9.87461
ᑎᐱ	-9.88188
ᑲᓅᓂ	-9.88328
ᑭᐱ	-9.88391
ᑌᐺᒪᑲ	-9.88456
ᒋᐅᑌᐺᑕᒨ	-9.88578
ᓂᐹ	-9.88618
ᑭᑫᑕᒧ	-9.88639
ᒥᔅᑸ	-9.88712
ᐅᑭᒋᓂᑭ	-9.88995
ᑳᑮᐃᔑᒋᑫ	-9.89051
ᓅᑌ	-9.89144
ᐊᒑ	-9.89242
ᐃᓀ	-9.893
ᑮᐃᓀᑕ	-9.89428
ᑳᑌ	-9.89536
ᐅᑌᐃ	-9.89821
ᒫᒋ	-9.89834
ᑲᑴᒋᒫᐙ	-9.89892
ᑎᐯᓂᒥᑯᐙ	-9.90479
ᑮᑎᓄᐎ	-9.90548
ᑖᑯ	-9.90838
ᑭᓯ	-9.91112
ᐅᑎᓀᑕᒧᐎ	-9.9118
ᒪᔥᑲᐎ	-9.91364
ᒥᑖᔑᓃᔑ	-9.91666
ᔥᑳᑯ	-9.91696
ᒫᔑ	-9.91786
,000	-9.92225
ᔕᐌᓂᒫ	-9.9223
ᒦᓂᑯ	-9.92233
ᐆᑌᓇᐌ	-9.92396
ᒥᓄᐊᔮ	-9.93077
ᑳᐃᔑᓂᑳᓱ	-9.93082
ᓂᑲᒧ	-9.93156
ᑭᑲᐅᒋ	-9.93167
ᑯᐸ	-9.93473
ᑲᒀᑕᑭᐃ	-9.93541
ᓂᐳᓂ	-9.93541
ᐃᔑᓂᔕᐙ	-9.93725
ᑎᐸᐃᑲ	-9.93997
ᑲᓅᓂᑰ	-9.94282
ᑮᔑᑑ	-9.94935
ᒋᑭᒋ	-9.94974
ᓂᑎ	-9.95019
ᐅᒋᑕ	-9.95203
ᐅᓂᒌ	-9.95485
ᓈᓴᕒᐃ	-9.95673
ᐃᓬᐋᐃᒐ	-9.95674
ᐗᑎᑾ	-9.95675
ᒥᑯᔥᑳᑌᑕ	-9.95682
ᐁᔑᐲᐃᑳᑌ	-9.95694
ᑕᐃᔑ	-9.95717
ᒥᑣ	-9.95725
ᐅᑑᑭᒫᒪ	-9.9577
ᒋᓂ	-9.95776
ᑕᑭᒋ	-9.95798
ᑎᐱᑲ	-9.95849
ᐅᕒᐆᒥ	-9.9585
ᑲᔥᑭᐋ	-9.96042
ᑲᓇᐌᑕ	-9.96094
ᑮᐃᔥᒀ	-9.96123
ᐲᒋ	-9.96168
ᑾᔭᑯ	-9.96249
ᑳᐱᒫᑎᓯ	-9.9629
ᐃᑣ	-9.96703
ᔂᓬ	-9.97024
ᕒᐄ	-9.97034
ᐁᒣ	-9.97046
ᐗᓂᔥᑳ	-9.97303
ᐁᑮᓂᐳ	-9.97674
ᐅᒌᒪᑲ	-9.9773
ᐎᑲᒥᑯ	-9.9802
ᒥᑲ	-9.98037
ᑎᐯᓂᒫ	-9.98053
ᓰᓈᐙ	-9.98126
ᑭᒋᐅᑭᒫᐎ	-9.9818
ᓬ	-9.98374
ᑌᐺᔦᑕᒧᐎ	-9.98543
ᐃᔑᓈᑯᓯ	-9.98674
ᑳᐐᐃᔑ	-9.98685
ᑭᓇᑕᐌᓂᒥ	-9.98757
ᓵᑭᐋ	-9.98938
ᐸᑭᑎᓈᓱ	-9.99034
ᓈᓇ	-9.99217
ᑶ	-9.99237
ᐊᐯᓂᒧ	-9.99243
ᐙᐹᐱᑯ	-9.99247
ᑭᑌᐃᐙ	-9.99249
ᓵᑲᐃᑲᓃ	-9.99304
ᑲᔥᑭᑕᒫᓱ	-9.99308
ᐅᒋᒋᓭᓂ	-9.99341
ᐌᔩ	-9.99391
ᐲᑑ	-9.99578
ᑎᐸᐊᒪᐎ	-9.99664
ᐱᓯᑕ	-9.99677
ᑑᑕᐙ	-9.99702
ᓰᐲ	-9.99929
ᒋᐊᐎ	-9.99954
ᓵᑭᒋ	-10
ᒥᓉᑕᒧ	-10.0052
ᓂᓱ	-10.0093
ᑮᒫᒌ	-10.0094
ᑎᓱ	-10.0128
ᐅᑎᓈ	-10.0139
ᐊᔨ	-10.0145
ᓂᓯᒥᓐ	-10.0147
ᑫᑮᐃᔑ	-10.015
ᓂᑳᑌ	-10.0151
ᐅᑖᐱᓂ	-10.0172
ᓇᒪᑕᐱ	-10.02
ᑲᑲᓅᓈ	-10.0202
ᑌᐺᑕ	-10.0217
ᐴᔔ	-10.0238
ᐅᑌᐺᑕᒧᐎᓂ	-10.0271
ᐐᒌᑎ	-10.0278
ᑭᒨᑎ	-10.0295
ᐄᒋᐸᑮ	-10.0295
ᐅᔑᐲᐃᑲ	-10.0295
▁¦12	-10.0295
ᐅᑮᐊᓂ	-10.0306
ᐊᔓᑕᒫᑫ	-10.0343
ᒧᔐ	-10.0344
ᑳᐃᓇᑌᓂ	-10.0346
ᐁᐊᓉ	-10.035
ᐃᓂᓃᐎ	-10.0352
ᑮᐃᔖᐗ	-10.0375
ᐊᔓᑕᒫᑎᐎ	-10.0383
ᑳᐃᔑᓈᑯᓯ	-10.0401
ᒋᑮᐌ	-10.0403
ᓂᑯᒋ	-10.0424
ᐃᓀᑖᑾᓂᓂ	-10.0451
ᐱᓈ	-10.0455
ᐌᐱᓈ	-10.0456
ᑎᐹᒋᒥ	-10.0479
ᑳᑮᐊᔮ	-10.0513
ᐁᐊ	-10.0516
ᑭᑭᑫᓂᒥ	-10.0541
ᐗᔦᔑ	-10.0543
ᑳᐃᔑᓂᑳᑌ	-10.0544
ᒋᐃᔑᓭ	-10.0545
ᐅᑎᓈᑯᓂᑫᐎ	-10.055
ᑳᐃᓂ	-10.0562
ᐃᔖᔮ	-10.0604
ᔪ	-10.0632
ᒫᓇᒑᓂᔕ	-10.068
ᐃᓀᓂᑎᓱ	-10.0681
ᐙᓴᑯᓀᒋᑲ	-10.0683
ᐃᓀᓂᒥ	-10.0687
ᑌᐱᑎ	-10.0697
ᑳᐙᐱᓯ	-10.0697
ᐱᓵᓂᓯᐎ	-10.0699
ᐱᓈᓯᑳᑰ	-10.07
ᐊᔮᔭ	-10.0718
ᑳᑲᓅᑕᒪᐙ	-10.0731
ᒋᑲ	-10.0737
ᑕᐎ	-10.0737
ᓂᐲ	-10.0743
ᐯᐯᔑ	-10.0751
ᒪᓯᓇᐃᑲᓂ	-10.0768
ᑕᒪᐎ	-10.0771
ᒥᒋᐯᔑᑯ	-10.0786
ᑎᐹᑯᓂ	-10.0814
ᒦᓂᓀ	-10.0818
ᑭᑲᐃᔑ	-10.0824
ᑭᑫᑕᒧᐙ	-10.0826
ᓈᓂᐗᓂᓂ	-10.0833
ᐁᑮᐃᑭᑐᓂ	-10.0884
ᑳᑮᐊᔮᓂ	-10.0896
ᓂᑎᓱ	-10.0899
ᒪᓯᓇᐃᑲ	-10.0904
ᓂᓵ	-10.0922
ᓈᓈ	-10.0925
ᐱᑕᑯᔑ	-10.0933
ᓀᐱ	-10.0935
ᒋᑕᑯ	-10.0955
ᑭᑫᑕᒫ	-10.0982
ᑭᑭᓄᐃᑫ	-10.0984
ᑲᓇᐙᐸᒫ	-10.099
ᐱᓯ	-10.1004
ᐅᑎᐹᒋᒧᐎ	-10.1011
ᑕᓂ	-10.1013
ᓉ	-10.1023
ᓇᒀ	-10.1034
ᐸᑭᓯ	-10.106
ᑭᑭᔥᑭᑲ	-10.1061
ᐁᑲᑴ	-10.107
ᑳᐸᐎ	-10.1079
ᑭᑑᔑᐲᐊᒪᐎ	-10.108
ᒦᑴᒋᐌᓂᒫ	-10.108
ᓇᐃᓂᑏᐎᑲᒥᑯ	-10.1085
ᐸᑭᑎᓇᒪᐙ	-10.1085
ᐅᐐᔭ	-10.1094
ᐊᐯ	-10.1106
ᒦᓂᓐ	-10.1108
ᐆᑌᓇᐗ	-10.1114
ᐸᑭᑎᓈᓱᐎ	-10.1139
ᓯᐎ	-10.1139
ᑳᑎᓄᐎ	-10.114
ᑕᑶᔑ	-10.1177
ᑕᒫᓱ	-10.1186
ᓂᑑ	-10.1193
ᐅᒪᔥᑲᐎᓰᐎ	-10.1219
ᑲᐎ	-10.1225
ᑮᒦᓈ	-10.123
ᑾᔭᒀᑎᓯᐎ	-10.1238
ᐁᑮᑭᒋ	-10.1261
ᑳᑮᑭᑐ	-10.1278
ᐁᑎᐱᑲᓂ	-10.1296
ᑕᐱ	-10.1297
ᒥᓄᓭ	-10.1297
ᑖᐙ	-10.1316
ᑕᓄ	-10.1325
ᐅᐱᒫᑎᓰ	-10.1326
ᓂᓇᑰ	-10.1326
ᓇᑲᓂᑯ	-10.1329
ᒥᔅ	-10.1338
ᐱᐅᒋ	-10.135
ᒋᐃᔑᒋᑫ	-10.1388
ᐃᔑᓈᑾᓂᓂ	-10.139
ᐅᑭᒫ	-10.1404
ᑎᔦ	-10.1405
ᐁᑑᑕ	-10.1409
ᒪᑲᓂᓂ	-10.142
ᐌᓂ	-10.1424
ᐱᓯᑕᐎ	-10.1442
ᐎᓂᓂ	-10.1447
ᒋᐐᒋ	-10.1454
ᓂᔑᐌ	-10.1454
ᓵᒥᓈ	-10.1457
ᑯᓰ	-10.1461
ᐋᐃᓭᔭ	-10.1496
ᐅᑎᔑᓂᔕᐙᑲᓇ	-10.1496
ᓲᑭᑌᐁ	-10.1496
ᐐᓀᑕ	-10.1497
ᓰᑲᐊᑖᓱ	-10.1498
ᓂᑮᐅᒋ	-10.1502
ᒑᑭ	-10.1505
ᑭᑎᓂ	-10.1511
ᓰᑲᐊᑖᑫᐎᓂᓂ	-10.1512
ᐅᑮᐊᑐᒫ	-10.1513
ᓂᐴᒪᑲ	-10.1514
ᑭᑭᑫᑕᓰ	-10.1516
ᐅᐱᒣ	-10.1517
ᑳᑮᐅᓈᐸᒫ	-10.1518
ᑯᓰᐙ	-10.1524
ᑯᑎ	-10.1533
ᑳᐅᑕᑳᓀᓯ	-10.1534
ᑳᑮᒦᔑ	-10.1534
ᓭᑭᓯᑫ	-10.1535
ᑕᐙ	-10.155
ᐋᑯᓯ	-10.1554
ᑎᐹᒋᒧ	-10.1555
ᑫᑕᔑ	-10.156
ᑳᒎᐎᐎ	-10.1609
ᐅᑕᔮ	-10.1615
ᒥᑖᓱ	-10.1634
ᔕᐌᓂᒥ	-10.1641
ᐅᑎᑕ	-10.1642
ᓅᑕ	-10.1643
ᑕᒧ	-10.1656
ᑌᐺᑕᒣ	-10.1657
ᑑᑕᒣ	-10.167
ᑮᐗᓂᒧ	-10.1684
ᐁᓂᑯ	-10.1688
ᑌᐱᓇ	-10.1691
ᑫᒋᓈᐅ	-10.1694
ᑳᐅᓂᔑᔑᓂᓂ	-10.1695
ᐁᑮᒫᒌ	-10.1707
ᐃᔥᒀᓭ	-10.1708
ᐃᓈᑎᓯ	-10.1716
ᐊᔮᓰ	-10.1726
ᓈᓯᑳᑯ	-10.1729
ᒌᒥ	-10.1747
ᐃᔑᒋᑫᐗ	-10.1748
ᑳᐃᑭᑐᐙ	-10.1756
ᑴᑭ	-10.1761
ᑫᐃᔑᒋᑫᔮ	-10.1765
ᑳᐃᒋᑳᑌ	-10.177
ᐐᒋᐃᑯ	-10.1771
ᐱᑮᐌ	-10.1777
ᑭᑭᓄᐊᒫᑫᐎ	-10.1795
ᑕᑯᔑᓅ	-10.1796
ᑌᐺᔦᓂᒥ	-10.1818
ᐸᓂᓂ	-10.1837
ᑮᐲᑎᑫ	-10.1841
ᐌᑕ	-10.1868
ᑭᑭᓄᐊᒪᐎ	-10.1872
ᐐᑎᑫᒫ	-10.1891
ᐸᑭᑎᓂᑎᓱ	-10.1901
ᑎᐯᑖᑯᓯᐙ	-10.1906
ᑎᐙ	-10.1909
ᒋᐊᔮ	-10.1917
ᒥᑲᐙ	-10.1926
ᐅᑌᒐᓬᐃᒪ	-10.1931
ᐁᓀᑖᑯᓯ	-10.1931
ᐗᓇᑯᔕ	-10.1931
ᑭᐴᔔᐃᑯᐙ	-10.1931
ᐋᐃᓯ	-10.1932
ᒥᑕᑲᒥ	-10.1932
ᐱᑾᒋᐊᔭᐋᐎᔕ	-10.1932
ᑭᒋᐅᔑᐲᐃᑫᐎ	-10.1932
ᐅᓵᐙᐱᑯ	-10.1935
ᑲᐯ	-10.1936
ᐸᑭᔑ	-10.1937
ᓈᐸ	-10.1944
ᐅᑮᐃᔑᓂᔕᐙ	-10.1956
ᐊᑐᒥ	-10.1961
ᑲᕒᐄ	-10.1961
ᐅᒪᒋᑑᑕᒧᐎᓂᐙ	-10.1962
ᓅᑖᑯᓯ	-10.1965
ᑭᑫᑖᑾ	-10.1982
ᐙᐸᒥᑯ	-10.1983
ᑭᑫᑕ	-10.1988
ᐃᔑᐌᐱᓯ	-10.1989
ᐁᐊᔮᓂ	-10.2
ᒫᒑᐙ	-10.2
ᑳᑎᐯᓂᒫ	-10.2001
ᐃᔑᒋᑫᓰ	-10.2032
ᐅᑑᓇᔓᐌᐎᓂ	-10.2037
ᑌᓂ	-10.2053
ᐱᓯᑕᒧ	-10.2057
ᐃᓇᑭᒫ	-10.2064
ᒪᓈ	-10.2071
ᓅᑕᐎ	-10.2073
ᑎᔭ	-10.211
ᐅᒑᓂᒥᓯ	-10.2135
ᑮᐐ	-10.2139
ᑳᒥᓄ	-10.2176
ᐗᑭᐸ	-10.2196
ᐐᑎᑫ	-10.2205
ᓈᓯᑲᐙ	-10.2214
ᐌᐱᓇ	-10.222
ᒋᐱᒫᑎᓯ	-10.2234
ᒀᓂ	-10.2239
ᑴᑕ	-10.2273
ᐅᔑ	-10.2287
ᒪᑗ	-10.229
ᐊᑐᒫ	-10.2319
ᐐᐎ	-10.232
ᐱᒫᒋᐋ	-10.2325
ᑌᐺᔦᓂᒫ	-10.2327
ᑮᑕᔑ	-10.2335
ᐱᐊᑕ	-10.2338
ᑖᑭ	-10.234
ᐐᒌᐎᑰ	-10.2343
ᑭᒋᐊᓇᒥᐁᐎᑲᒥ	-10.2344
ᑳᓬᐊᓬᐄᐎ	-10.2347
ᑲᓂᓂ	-10.2377
ᐋᓬᐃ	-10.2385
ᑳᐐᒋᐅᑌᐺᑕᒨᒥ	-10.2386
ᑭᐱᒫᑎᓯᐎᓂᐙ	-10.2386
ᑎᐹᑯᓈ	-10.2387
ᐱᒫᒋᐃ	-10.2397
ᐐᑕᒫᑰ	-10.2399
ᑳᓇᑲ	-10.2402
ᐗᓀ	-10.2406
ᑭᒋᐊᐱᐎᓂ	-10.2409
ᒫᒋᓭ	-10.2415
ᐅᑎᔑᒋᑫᐎᓂᐙ	-10.2418
ᓵᑭᐃᐌᐎ	-10.242
ᐅᔥᑮᔑᑯ	-10.2421
ᑳᑮᐃᓂ	-10.243
ᒎ	-10.2448
ᐃᑭᑐᐎ	-10.2457
ᐅᑎᐯᒋᑫᐎᓂ	-10.2472
ᐅᓂᔑᔑᓂᓂ	-10.2479
ᐅᑎᐯᒋᑫᐎᓂᓂ	-10.2485
ᐐᒌᐗ	-10.2486
ᓃᔮ	-10.2489
ᓯᐎᓐ	-10.2509
ᐸᓃ	-10.2515
ᑯᓂ	-10.252
ᐃᑳᑌ	-10.2536
ᐙᐸᒪ	-10.2545
ᑳᒪᒋ	-10.256
ᒋᐐ	-10.2561
ᐸᑭᑎᓇ	-10.2581
ᓂᔑᐗᓈᑎᓯ	-10.2581
ᑭᑭᒋ	-10.2587
ᐃᓇᓄᑮ	-10.2615
ᐃᔑᐎᓂ	-10.2626
ᑳᐃᔑᐊᔮ	-10.2687
ᒦᔑ	-10.2688
ᒋᐲᑎᑫ	-10.2692
ᓄᐙ	-10.2696
ᒋᑎᐯᑕ	-10.2712
ᐌᓅᒋ	-10.2717
ᑑᑖ	-10.2731
ᐃᔑᒋᑫᔮ	-10.274
ᑕᑾ	-10.276
ᐁᐃᔑᒋᑫ	-10.2764
ᑳᑮᐅᒌ	-10.2783
ᐋᐸᑕ	-10.2784
ᑭᑫᑖᓈᐙ	-10.2799
ᓈᑾᓂᓂ	-10.28
ᑎᐹᒋᒫ	-10.2802
ᐗᑮ	-10.2809
ᑎᐱᓇᐌᐎᓯ	-10.282
ᐙᐸᑕᐃᐌ	-10.2839
ᑭᑭᓄᐊᒪᐙᑲ	-10.2839
ᑴᑳᑎᓯ	-10.2849
ᐅᒥᔅᑸ	-10.2851
ᐅᑕᓇᒥᐁᐎᑲᒥᑯ	-10.2862
ᒪᒫᔒ	-10.2862
ᒫᒪᑳᒋᒋᑫ	-10.2862
ᓵᐃᓬᐊ	-10.2862
ᐁᑎᔮ	-10.2862
ᑭᐸᐅᑏᐎᑲᒥ	-10.2863
ᐊᓇᒥᐋᐎ	-10.2867
ᐱᒫᑎᓯᔭ	-10.2869
ᑳᐊ	-10.2874
ᑲᓇᐌᓂᒫ	-10.2878
ᐊᑖᐙᑫ	-10.2881
ᐐᑕᒫᑰᔦ	-10.29
ᐅᓇᔓᐌᐎᓂ	-10.29
ᑳᑮᐅᔑᑑ	-10.2907
ᑳᓃᑳᓀᑖᑯᓯ	-10.2913
ᑭᑎ	-10.2916
ᐁᓅᑕ	-10.2926
ᐊᔓᑕᒪᐙ	-10.2928
ᑭᑭᔥᑳᑯ	-10.2944
ᒋᐋ	-10.2966
ᐅᑮᑲᓅᓈ	-10.2985
ᐁᔮᐙ	-10.2988
ᑮᐊᓅᑮ	-10.2988
ᐅᑮᑲᑴ	-10.3002
ᐱᒥᓂᔕᐅᑯ	-10.3004
ᐁᔑᐊᔮᓂ	-10.3007
ᑲᑴᒋ	-10.3009
ᐁᒥᒋ	-10.3009
ᔥᑲᐙ	-10.3012
ᓀᑕᒣ	-10.3012
ᑭᒋᑮᔑ	-10.3031
ᑎᐯᓂᒥᑯ	-10.3035
ᒥᓍᐸᑕ	-10.3045
ᐊᑕᐌᓂᒥ	-10.3061
ᑮᐱᐅᒋ	-10.3065
ᑭᑌᓂᒥ	-10.3067
ᐊᑕᐌᑕ	-10.3068
ᑭᔒᐌ	-10.3076
ᒦᓂᓇ	-10.3085
ᒋᐅ	-10.3085
ᔕᔒᐱᑕ	-10.3125
ᓈᑯᓯᓂ	-10.3127
ᐲᑎᑫᐙ	-10.313
ᑕᒪ	-10.3143
ᑫᒀ	-10.3146
ᓵᑭᑑ	-10.3155
ᐅᑎᔑᒋᑫᐎ	-10.3174
ᐊᐲᒋ	-10.3183
ᒋᑫᐙ	-10.3186
ᒥᓴᐌᑕ	-10.323
ᒋᐐᒌᐎᑯ	-10.325
ᒋᑑ	-10.3262
ᐅᑑᓇᔓᐌᐎ	-10.3274
ᒋᐐᒋᐃ	-10.3282
ᓂᑯᑣ	-10.3305
ᐃᔅᕒᐃᔭᓬ	-10.331
ᐊᓇᒥᐁᑕᐙ	-10.3318
ᒋᒦᓂ	-10.3326
ᑳᐃᑭᑐᓂ	-10.3341
ᐃᑰᔦ	-10.3344
ᑲᑲᓅᓂᑎ	-10.3348
ᐅᑮᐐᑕᒪᐙ	-10.3355
ᑲᔥᑮᑎᐱᑲ	-10.3355
ᐊᐱᓅᒌ	-10.3356
ᒋᐃᑭᑐ	-10.3361
ᓃᑳᓇᔭᐄ	-10.3362
ᑭᑌᐺᑕᒧᐎᓂᐙ	-10.3362
ᒪᓂᑑᑳᓇ	-10.3362
ᒌᑫᑕ	-10.3362
ᐊᔭᐋᐎᔕ	-10.3362
ᒪᒀ	-10.3365
ᒥᑎᑰ	-10.3369
ᐱᒫᑎᓯᔦ	-10.337
ᐃᑎᐗ	-10.3372
ᐐᑕ	-10.3382
ᑲᒀᑕᑭᐋ	-10.3387
ᐊᓇᒥᐁᑕᐎ	-10.3392
ᐅᑭᔐᐙᑎᓯᐎᓂ	-10.3394
ᐁᐐᒌᐗ	-10.3403
ᒥᑎᑯ	-10.3407
ᐐᒋᐃᐌ	-10.3428
ᐊᔮᐎᓂ	-10.3429
ᐁᓃᐸᐎ	-10.344
ᐅᑮᒫᒌ	-10.3517
ᑳᑮᑕᔑ	-10.352
ᓵᑭᐃᐌᐎᓂ	-10.3524
ᒋᑑᑕ	-10.3538
ᑫᐱ	-10.356
ᓂᓯᑰ	-10.3589
ᑲᔥᑭᑑᔦ	-10.3592
ᐃᑭᑐᐗ	-10.3601
ᑳᐃᔑᐊᔮᓂ	-10.3602
ᐱᒫᑎᓯᔮ	-10.3611
ᐊᓉᐱ	-10.3612
ᐁᓀᑕ	-10.3641
ᕒᐃᔭ	-10.3645
ᓀᓂᒥ	-10.3648
ᐅᔑᐲᐃᑳᑌ	-10.3655
ᒪᒥᔑ	-10.3684
ᐱᒥᐊᔮ	-10.3696
ᒥᓂᒀᑲ	-10.3704
ᑫᐃᔑᒋᑫ	-10.3721
ᒋᐙᐸᒥ	-10.3739
ᐃᑕᐙ	-10.374
ᓬᐃ	-10.3742
ᑮᔖ	-10.3743
ᐱᒥᓂᔕᐅ	-10.3755
ᐅᐱ	-10.3759
ᑲᔥᑭᒋᑫ	-10.3771
▁¦1	-10.3782
ᔥᑲᐎ	-10.3795
ᒨᔥᑭᓀᔥᑳᑯ	-10.3803
ᕒᐊ	-10.3804
ᔨ	-10.3819
ᑭᑎᑳᓇ	-10.3828
ᓃᑳᓀᑖᑯᓯ	-10.3832
ᑲᓅᑕᒪᐙᐙ	-10.3842
ᐱᑾᑎᓈ	-10.3849
ᐱᒫᑎᓯᐗ	-10.3851
ᐸᑯᐲ	-10.3865
ᐅᑮᐅᑖᐱᓈ	-10.3867
ᐅᓈᐸᒫ	-10.3867
ᓬᐋᓴᕒᐊ	-10.3888
ᐲᑎᑲᓈ	-10.3888
ᒉᑲ	-10.3889
ᑭᑫᑌᔭᐋᒥᓈᐸᓃ	-10.3889
ᐊᔭᔮ	-10.389
ᐱᓯᑕᐎᔑ	-10.3893
ᓰᑲᐊᑖᑫ	-10.39
ᐅᑭᒫᐎ	-10.3908
ᑳᑭᑎᒫᑭᓯ	-10.3911
ᐁᑕᓱᐯᔑᑯ	-10.3913
ᑰᔮ	-10.3914
ᑭᑫᑕᒪ	-10.3919
ᐐᑕᒪᐎᔑ	-10.3928
ᒌᒥᓴ	-10.3931
ᐸᔦ	-10.3937
ᒋᐊ	-10.394
ᑎᔅ	-10.395
ᐊᓄᑮᒪᑲᓂᓂ	-10.3952
ᐅᑮᐃᑯᐙ	-10.3953
ᑲᓅ	-10.3992
ᐊᑌᓂ	-10.3994
ᑳᐌᓅᑎᓯ	-10.3995
ᐃᔖᐗ	-10.3995
ᓂᑎᑭᑐᐎ	-10.3995
ᑌᐺᑕᒥᓂ	-10.3996
ᑎᐯᑕᒥᓂ	-10.4002
ᑳᐃᔑᐲᐃᑳᑌ	-10.4005
ᒥᓈ	-10.4005
ᐱᒥᓂᔕᐙᐙ	-10.4014
ᐊᑯᓴᑲᐅ	-10.4016
ᓱᑮᔑ	-10.4023
ᐁᐐᐅᒋ	-10.4035
ᐱᓵᓀᑕᒧᐎ	-10.4067
ᑲᑴᒋᒥᑰ	-10.4071
ᐌᒌᓂ	-10.4087
▁¦4	-10.4087
ᒪᒥᔑᒥ	-10.4096
ᑫᐊᔮ	-10.4097
ᐌᐱᓂ	-10.4105
ᐃᓇᑭᒥ	-10.4119
ᑭᑮᐱ	-10.4133
ᒋᐲ	-10.4171
ᒋᑲᔥᑭᑑ	-10.4203
ᐊᓈᒥ	-10.4204
ᐅᓃᒑᓂ	-10.4213
ᐅᓈᐯᒥ	-10.423
ᒪᓂᑑ	-10.4236
ᒋᑑᑕᒫ	-10.4239
ᐊᑑ	-10.4246
ᐅᓈᐯ	-10.4274
ᑫᐃᔑᓭ	-10.4278
ᑮᓂᐳ	-10.428
ᐊᓈᒥᒥ	-10.4295
ᐎᑭᒫ	-10.4295
ᐃᔑᒋᑫᔭ	-10.431
ᒫᒌᑑ	-10.4326
ᑕᔑᒫ	-10.4331
ᓈᑾᑭ	-10.4333
ᐹᑏᓇᑎ	-10.434
ᐹᐱ	-10.4355
ᓵᑭᐃᐌ	-10.437
ᐐᔭ	-10.4372
ᑲᒀᑕᑭ	-10.4384
ᑕᒦᓈ	-10.4386
ᒋᒥᓄᐊᔮ	-10.4389
ᓇᔥᑫ	-10.4406
ᔛ	-10.4409
ᒦᓂᑯᐙ	-10.441
ᑑᒋᑳᑌ	-10.4413
ᐸᐹᒥ	-10.4414
ᐊᒦᐗ	-10.4418
ᑭᑕᔮ	-10.4424
ᑕᒫᑫ	-10.4433
ᐊᓇᒥᑑ	-10.4438
ᑕᒫᑯ	-10.444
ᐱᑾᒋᐊᔭᐋᐎ	-10.4442
ᐱᓀᔒᔕ	-10.4444
ᐸᔑᐸᐃᑫᐎᑯᒫ	-10.4444
ᒎᑏᔮ	-10.4444
ᓭᓴᕒᐄᔭ	-10.4444
ᑲᑮᓇᐎᔥᑭ	-10.4444
ᓇᓈᑯᒧ	-10.4444
ᑭᑭᔐᒪᓂᑑᒥᓈ	-10.4444
ᐲᒋᓂᔕᐙ	-10.4444
ᐊᑳᒥ	-10.4445
ᐱᒥᔑᓂᓂ	-10.4447
ᒪᒦᒀᓂᑎᓱ	-10.4449
ᑭᑫᑕᒥᓂ	-10.4453
ᐋᐸᑎᓯ	-10.4456
ᐅᑕᓄᑮᐎᓂᐙ	-10.4465
ᐅᓇᐱ	-10.4475
ᑳᑮᐊᔓᑕᒫᑫ	-10.4475
ᓭᓯ	-10.4491
ᓈᓈᑲᑕᐌᑕ	-10.4493
ᔭᐸ	-10.4494
ᓂᐴᔔᐋ	-10.4496
ᑑᑕᒫ	-10.4497
ᐃᔑᒋᑫᐎ	-10.4506
ᐐᔭᐎᓂ	-10.4506
ᐃᓀᑕᒫ	-10.4517
ᐸᑴᔑᑲᓂ	-10.4524
ᑕᑯᔑᓄᐙ	-10.4529
ᑎᐯᓂᒥ	-10.4538
ᐴᓀᑕᒪᐎ	-10.4543
ᐁᑮᐐ	-10.4554
ᓂᑭᑫᓂᒫ	-10.4556
ᐊᑕᐌᓂᒫ	-10.4573
ᐅᓇᔓᐌᐎᓂᓂ	-10.458
ᓬᐊ	-10.4586
ᓂᓯᑐᑕᓰ	-10.4592
ᓃᔓ	-10.4617
ᓀᑕᒥᓂ	-10.4621
ᐃᔑᑮᔗᐎ	-10.4651
ᐊᑲᒋ	-10.4652
ᐐᑾᑎ	-10.4654
ᐁᑮᒦᓈ	-10.4656
ᑫᐎᓐ	-10.4677
ᒀᐸ	-10.4698
ᐁᐃᔑᓭ	-10.473
ᑫᑕ	-10.4743
ᑮᑮᐌ	-10.4755
ᑭᑫᑕᓰ	-10.4756
ᒋᒥᓄ	-10.4807
ᐗᑭᒋ	-10.4814
ᐁᐱᒫᑎᓯ	-10.483
ᒌᑭ	-10.4839
ᓂᔑᐗᓈᒋᐃ	-10.485
ᑭᑫᓂᒫᓰ	-10.4855
ᑕᔑᑕ	-10.4867
ᒌᑫᑕᒧ	-10.4878
ᓈᓯᑲᐎ	-10.4881
ᓂᓱᑮᔑ	-10.4884
ᑭᒋᐊᓇᒥᐁᐎᑭᒫᐎ	-10.4907
ᑲᓅᓂᑯ	-10.4911
ᐐᓱᐎ	-10.4912
ᑮᔖᒋ	-10.4929
ᐃᓈᐙ	-10.4937
ᐊᒸ	-10.4942
ᒋᑎᓄᐎ	-10.4943
ᑎᐯᑕ	-10.4946
ᑮᐃᓈ	-10.4952
ᐲᒋᓂᔕᐅ	-10.496
ᑌᐺᔦᑖᑯᓯ	-10.4979
ᐁᐅᒌ	-10.4987
ᒪᒋᒋᑫ	-10.4996
ᑸᐎᓭ	-10.4997
ᔓ	-10.5003
ᐱᓯᑲ	-10.5004
ᔩ	-10.5007
ᓵᑭᐃᑎ	-10.5014
ᔥᑳᑯᐙ	-10.502
ᐁᐙᐸᑕ	-10.5021
ᐅᑭᒫᐎᐎ	-10.5021
ᓃᒥᑕᓇ	-10.5029
ᐅᓃᑭᐃᑰ	-10.5032
ᔔᒥᓇ	-10.5032
ᐅᓯᑎ	-10.5032
▁–	-10.5032
ᐋᐌᒋᑲ	-10.5035
ᓈᑲᒋᑑ	-10.5037
ᑯᑖᒋ	-10.5038
ᑭᑌᓂᒫ	-10.5057
ᑕᐃᑕ	-10.5057
ᑎᓄᐎᔮ	-10.5064
ᑭᐐᔭᐎᐙ	-10.5065
ᑲᑮᑖᐌᑕᒧᐎ	-10.5068
ᑳᐲ	-10.5074
ᑳᓃᔣᒋ	-10.5082
ᐃᔅᕒᐃᔭᓬᐃ	-10.5085
ᐊᑕᐌᑕᒥᓂ	-10.5087
ᑮᐃᓀᑕᒨ	-10.5095
ᐁᐃᔑᓂᑳᑌᓂ	-10.5097
ᒪᒋᐊᒑ	-10.51
ᐅᑌᑌᒫ	-10.5105
ᓅᑕᒥᓂ	-10.5112
ᑳᐋᑯᓯ	-10.5112
ᑲᓅᒋᑫᑕᒪᐙ	-10.5113
ᒪᑭ	-10.5117
ᒋᐊᑕ	-10.5121
ᑌᐺᑕᒧᐎᓂ	-10.5125
ᑌᐺᑕᒧᐙ	-10.5131
ᑣᐸ	-10.5137
ᓈᑲ	-10.5142
ᓇᑲᑕ	-10.5142
ᑳᒦᑭᐌ	-10.5151
ᒋᐃᔑᓈᑯᓯ	-10.5153
ᐁᑌᐺ	-10.5182
ᑲᓂ	-10.5194
ᑫᒦᒋ	-10.5198
ᐙᐸᑖ	-10.5207
ᑕᔑᑕᒧᐙ	-10.5212
ᐁᑭᑑᒪᑲ	-10.522
ᐎᓰ	-10.523
ᐅᑕᑳᓀᓯ	-10.5239
ᓂᑮᐱ	-10.5249
ᑲᓅᑕᒪᐙ	-10.5258
ᐅᑖᐱᓇᒪᐙ	-10.526
ᑳᐃᑕ	-10.5264
ᑾᔭᒀᑎᓯ	-10.5285
ᐱᓀ	-10.5291
ᐅᑑᓂ	-10.5299
ᐅᑎᒀᓂ	-10.53
ᐅᐐᓱᐎ	-10.5306
ᐅᐌᓂ	-10.532
ᑳᐃᓀᑕ	-10.5329
ᐁᑮᔑᑲ	-10.5332
ᐐᑑᑳᓱ	-10.5332
ᑯᓵ	-10.5352
ᐐᔭᐎ	-10.5358
ᐱᔑᒀᑎᓯ	-10.5364
ᐳ	-10.5427
ᐌᓂᔑᔑ	-10.5456
ᐁᐸᐹ	-10.5467
ᑌᐺᑕᐎ	-10.5471
ᑮᐃᓀᑕᓰ	-10.5476
ᐁᑮᐊᑕ	-10.55
ᐋᐎ	-10.5513
ᒋᐙᐱ	-10.5525
ᓀᑖ	-10.5536
ᑭᑫᓂᒥᑰ	-10.5539
ᐁᑮᓅᑕ	-10.5542
ᐱᑑ	-10.5558
ᐁᒀ	-10.5565
ᓇᒧᐙ	-10.5568
ᑌᐺᑕᒧᐎ	-10.5573
ᐌᓅᑎᓯᐎ	-10.5574
ᑭᑫᑖᓱ	-10.5575
ᒪᔥᑲᐌᑖᑯᓯ	-10.5597
ᐅᑭᑭᔥᑭᑲ	-10.5607
ᓂᑌᐺ	-10.5609
ᑳᔒᑫᓂᒥ	-10.5627
ᐸᑭᑎᓂᑰ	-10.5642
ᓂᑑᑭᒫ	-10.5643
ᒫᐗᒋ	-10.5651
ᒣᓬᑭᓯᑌ	-10.5657
ᑰᑰᔕ	-10.5657
8	-10.5657
ᒥᓈᑾᐅ	-10.5657
ᐅᑎᔑᓂᑳᓱᐎᓂ	-10.5657
ᓇᑭᒋᑳᓱ	-10.5657
ᑭᓅᔐ	-10.5657
ᓂᔑᐗᓈᒋᑑ	-10.5657
ᐊᔕᐙᐱ	-10.5657
ᑭᑫᓂᒪ	-10.5657
ᐙᐱᔥᑭ	-10.5658
ᐊᓅᓈ	-10.5659
ᐸᑭᓈᑫ	-10.5659
ᒥᔕᑳ	-10.5662
ᐅᑾᔭᒀᑎᓰᒪ	-10.5662
ᑭᑎᑰ	-10.5663
ᑳᒫᒪᐌᓄ	-10.5666
ᒫᕒᑕ	-10.5668
ᑕᔑᑕᒥᓂ	-10.5669
ᐸᕒ	-10.5677
ᒫᒌᔮᔑ	-10.5677
ᒥᓯᐌᑲᒥ	-10.5684
ᒋᐴᓂ	-10.5684
ᑸᐎᓭᓴ	-10.5694
ᓇᑴᑖᑯ	-10.5695
ᐃᔑᓂᑳᓈ	-10.5697
ᑲᒀᑕᑭᑑᔮ	-10.5704
ᑭᑌᑌᐙ	-10.5707
ᐁᐸᕒᐊᐋᒥ	-10.5708
ᒋᐃᔑᐱᒫᑎᓯ	-10.5709
ᐗᑸ	-10.5716
ᒥᑖᔑ	-10.5733
ᑮᐌᐙ	-10.5733
ᓂᑕᔮ	-10.5752
ᒪᑲᑭ	-10.5754
ᓂᑯᑣᓱ	-10.5759
ᓅᑕᐙ	-10.5764
ᑭᔒ	-10.5765
ᐅᒌᓂ	-10.5769
ᑳᒫᒪᐎ	-10.5783
ᑰᐎ	-10.579
ᒪᔥᑲᐌᑕ	-10.579
ᑳᑮᓂᐳᓂ	-10.5797
ᑭᑯᓯ	-10.58
ᐊᒧ	-10.5801
ᑌᐱᓭ	-10.5809
ᑳᑮᐅᒌᓂ	-10.582
ᐊᑮᐎ	-10.5823
ᐁᐃᔑᓈᑯᓯ	-10.5825
ᐃᑭᑐᐙ	-10.5833
ᓂᐸ	-10.5836
ᐁᐊᓇᒥᐋ	-10.5847
ᑳᑮᐐᒌᐎᑯ	-10.5857
ᓈᐯ	-10.5864
ᐐᑾᑎᐎᓐ	-10.5869
ᐅᑮᒦᓈ	-10.5891
ᐱᔑᒀᑎᓯᐎ	-10.5896
ᒦᓂᑰᔦ	-10.5897
ᓀᓂᒫ	-10.5899
ᐃᔑᔭ	-10.5909
ᐁᐱᒥ	-10.5909
ᑖᐅᓂᔑᔑ	-10.5912
ᑖᑮ	-10.5939
ᑳᔑᐊᔮ	-10.5943
ᒥᓴᐌᑕᒫ	-10.5943
ᑳᑮᐃᑭᑐᓂ	-10.5944
ᐁᒥᓄ	-10.5954
ᒋᑲᔥᑭ	-10.5963
ᑕᑯᔑᓈ	-10.5966
ᑲᒀᑕᑭᑑᐎ	-10.5978
ᑎᐯᓂᒥᓀ	-10.5981
ᐗᓂᔑ	-10.599
ᐅᑕᔭᐄᒥ	-10.6017
ᑌᐺᑕᐙᐙ	-10.6024
ᐃᔑᒋᑫᓂ	-10.6055
ᑳᐅᒌᓂ	-10.6056
ᐸᑫ	-10.6056
ᐁᐐᐃᔑᒋᑫ	-10.6069
ᓅᑖᑯ	-10.6081
ᐱᓱ	-10.6082
ᑳᑎᐯᓂᒥᑯ	-10.6088
ᒥᓄᐊᔮᐃ	-10.609
ᑭᒋᐆᑌᓇ	-10.6096
ᓃᑕᓇᒥᐋ	-10.6109
ᒋᓂᓯ	-10.6118
ᑭᒋᐊᓄᑮ	-10.6129
ᑖᓂ	-10.613
ᑳᑮᓅᑕ	-10.6181
ᒥᓍᐸ	-10.6181
ᐅᔑᒋᑳᑌ	-10.619
ᒦᑲᓇ	-10.6205
ᓂᐗᓂᓂ	-10.6206
ᑭᑫᑕᓯ	-10.6228
ᑫᔭ	-10.6232
ᔕᔒᐯᑕ	-10.6238
ᓇᓈᑯᒫ	-10.6238
ᐋᑕ	-10.6242
ᐁᐐᐃᔑ	-10.6247
ᓅᑎ	-10.6266
ᑭᓱ	-10.6271
ᒥᒥᓐ	-10.6276
ᑭᑭᓄᐃᑫᐎ	-10.6282
ᑎᐹᑯᓂᐌ	-10.6293
ᐁᔖ	-10.6301
ᓂᑲᐱ	-10.6303
ᐁᓂᑖ	-10.6305
ᐊᓄᑮᒪᑲ	-10.6307
ᑭᑎᔑᒋᑫ	-10.6318
ᑭᑎᑳᓂ	-10.6323
ᑎᒫᔅᑲ	-10.6323
ᐴᓂᓭᓯᓂᓂ	-10.6323
ᓭᑲᕒᐋᔭ	-10.6323
ᑭᓀᐱᑰ	-10.6323
ᒞᕒᑕ	-10.6323
ᒥᒋᓇᐌᓯ	-10.6323
ᑫᐃᔥᒀᓭᓯᓄ	-10.6323
ᐯᑳᑎᓯ	-10.6324
ᓬᐄᐹ	-10.6325
ᐌᓅᑕᓂᓂ	-10.6325
ᐃᓉᐎ	-10.6325
ᑫᓅᑕᒪᐙ	-10.6325
ᐐᒋᐊᔮᒫ	-10.6326
ᐸᑯᓭᓂᒫ	-10.6327
ᓯᓄᑭ	-10.6327
ᓂᑮᓅᑖ	-10.6328
ᓂᑮᓅᑕᐙ	-10.6329
ᐐᑾᑫ	-10.6329
ᓂᑮᐙᐸᑖ	-10.6329
ᒪᓂᔑᑫ	-10.6329
ᐅᔑᓯᑑ	-10.6331
ᒫᓯᑑᓂᔮ	-10.6331
ᓃᔣᒋ	-10.6332
ᑭᐸᐅᑰᔮ	-10.6333
ᑭᑎᑫᐎᓂᓂᐗ	-10.6339
ᒪᒫᔑ	-10.6339
ᒋᐗ	-10.6342
ᓱᓂ	-10.6343
ᑮᐲᔖᐗ	-10.6344
ᐃᑴᓭ	-10.6348
ᐹᑏᓄᐗ	-10.635
ᒋᓂᔑᐗᓈᑎᓯ	-10.6361
ᐊᔭᐄ	-10.6365
ᑫᐊᐲᒋ	-10.637
ᐱᑕᑶᔑ	-10.638
ᓂᓯᑯ	-10.6386
ᐅᐐᒋ	-10.6391
ᐁᓇᒪᑕᐱ	-10.6394
ᒥᒋᓃ	-10.6396
ᑲᑮᐹᑎᓯ	-10.64
ᐅᑮᓈᓯᑲᐙ	-10.6415
ᐗᓂᑑ	-10.6427
ᐱᓯᑲᒧ	-10.6428
ᐙᐸᑕᐋ	-10.6428
ᐐᓈᑎᓯ	-10.6429
ᑳᓇᒪᑕᐱ	-10.6429
ᐁᓈ	-10.6431
ᐃᓂᑖᑯᓯ	-10.6442
ᐊᔨᑎ	-10.6443
ᐅᑎᓵ	-10.6445
ᒦᓂᑣ	-10.6445
ᑲᓅᑕᒫᑯ	-10.6454
ᑕᒫᑯᓈ	-10.6472
ᐳᐗ	-10.6476
ᐗᔭᐄ	-10.6479
ᐁᐱᒧᓭ	-10.6482
ᒪᑲᓂᓂᑭ	-10.6497
ᐙᐸᑕᒫ	-10.6519
ᓅᑕᒨ	-10.6526
ᑑᓂ	-10.6533
ᑳᑮᐃᔑᒋᑫᓂ	-10.6539
ᐁᑭᑭᔥᑲ	-10.6559
ᓂᔑᑫ	-10.6566
ᑳᐃᔑᓭᓂ	-10.6577
ᑎᓄᐗ	-10.6593
ᑳᒥᒋ	-10.6596
ᐅᑎᐹᒋᒧᐎᓂ	-10.661
ᒫᒑᐗ	-10.6618
ᑮᐃᔑᒋᑫ	-10.6618
ᓇᐹ	-10.6619
ᐁᐅᒋᒋᓭ	-10.6626
ᑕᑯᔑᓂ	-10.6633
ᑲᐎᓭ	-10.6644
ᐁᑮᑕᔑ	-10.6659
ᑕᐙᐙ	-10.666
ᑮᒫᒪᐎ	-10.6664
ᑌᐁ	-10.6667
ᐅᑎᒀ	-10.6667
ᐱᓈᓯᑳᑯ	-10.6675
ᑳᓵᑭᐊ	-10.6676
ᐎᔭ	-10.6683
ᓂᑮᐃᓈ	-10.6691
ᐁᔑᓭ	-10.6706
ᑑᑕᐙᐙ	-10.6721
ᓇᓈ	-10.6725
ᔕᐌᓂᒥᓇ	-10.6729
ᑭᐱᒌ	-10.6734
ᐐᑕᒫᑫᐙ	-10.676
ᒋᒥᒋ	-10.6776
ᐯᑕ	-10.6776
ᔑᔮ	-10.6778
ᑳᐱᒥ	-10.6779
ᐅᔕᐌᒋᑫᐎ	-10.6781
ᐅᐱᒫᑎᓯᐎᓂ	-10.6792
ᑳᐅ	-10.6797
ᐱᒫᑎᓰ	-10.68
ᓯᑌ	-10.6803
ᑑᑖᑰ	-10.6805
ᑕᕒ	-10.682
ᑲᓇᐙᐸᒥ	-10.6824
ᐅᒪᔥᑲᐎᓰᐎᓂ	-10.6842
ᐸᑭᑎᓇᒪᐎ	-10.6854
ᐊᒑᑯ	-10.6867
ᒋᒥᓄᓭ	-10.6868
ᒥᑕᑎ	-10.6875
ᑎᐸᐃᑫ	-10.6891
ᐸᑭᑎᓂᑫᐎ	-10.6895
ᐎᓂᓂᐗ	-10.69
ᑌᐱᓈ	-10.69
ᑳᑌᐺᑕ	-10.6902
ᐱᒥᓂᔕᐙ	-10.6907
ᑳᑮᔑᑲᓂᓂ	-10.6909
ᐱᑕᑯᔑᓂ	-10.6925
ᑫᐙ	-10.6927
ᑲᓅᓈᐙ	-10.6931
ᑸ	-10.6947
ᑖᐗ	-10.6956
ᓯᓅᓇ	-10.6966
ᓇᑲᓂ	-10.6981
ᒋᑎᐯᓂᒥᑯ	-10.6987
ᑭᑌᑌ	-10.6989
ᑳᐃᓇᑌ	-10.6993
ᐁᐋᐎ	-10.6998
ᐱᒫᒋᐃᑰᐎᓯ	-10.7
ᐅᕒᐆ	-10.7001
ᐲᑯᓇ	-10.7004
ᐙᐸᑖᓈᐙ	-10.7004
ᐋᔩᒋ	-10.7012
ᒋᐙᐸᑕ	-10.7028
ᐴᔥᑫ	-10.7032
ᐅᒻᐺ	-10.7036
ᐅᒪᒋᑑᑕᒨ	-10.7038
ᐄᐸᕒᐆ	-10.7038
ᑫᑎᒫᑭᓯ	-10.7038
ᒪᔥᑲᐎᑳᐸᐎ	-10.7039
ᐐᑕᐱᒫ	-10.7039
ᐅᑕᐌᒫ	-10.7039
ᐯᕒᐊᓰᐎᓂᓂᐗ	-10.7039
ᐅᑖᐱᓂᑳᑌ	-10.704
ᐴᓀᑕᒪᐙ	-10.7041
ᐱᓯᑖᑯ	-10.7041
ᒪᒋᑫᑰ	-10.7041
ᑲᑮᒀ	-10.7043
ᐅᐱᔥᑳ	-10.7043
ᓂᔕᐙ	-10.7051
ᑳᒫᐗᑑᓈ	-10.7053
ᓅᑕᒫ	-10.7056
ᐊᓯᓃᐎ	-10.7056
ᐸᕒᐊ	-10.7058
ᑕᔑᑕᒫ	-10.706
ᑮᒫᒪᑳᑌᑕᒨ	-10.7062
ᐊᔕ	-10.7068
ᑳᓂᑖᐎᑭ	-10.707
ᑳᓂᐳᐙ	-10.7073
ᒪᔭᑭ	-10.7081
ᑫᑫ	-10.7081
ᐁᑾᔭᒀᑎᓯ	-10.7083
ᐁᔑᑖᓂ	-10.7091
ᑭᑭᑫᑖᓈᐙ	-10.7099
ᒋᐃᓇᓄᑮ	-10.7104
ᒫᔑᒥᑕᑎᒨ	-10.7104
ᓂᓯᑐᑖ	-10.7105
ᑭᑎᑫᐎ	-10.7106
ᐊᐱᒧ	-10.7119
ᑳᒥᓍᐸᑕ	-10.7124
ᑮᐸᓯᑸ	-10.7148
ᐅᐱᑭ	-10.7154
ᑳᒥᑖᔑᓃᔑ	-10.7164
ᐁᐹᑏᓄ	-10.7171
ᐌᑖᑾᓂᓂ	-10.7174
ᑮᐃᔑᓭ	-10.7178
ᑭᒋᓂᑭ	-10.718
ᑳᑾᔭᑯᓈᑾ	-10.7194
ᐅᑕᔓᑕᒫᑫᐎ	-10.7198
ᒋᑮᐌᐱᒫᑎᓯ	-10.7206
ᒦᑳᑎ	-10.7208
ᐅᒪᒋ	-10.7235
ᒪᒋᑑᑕ	-10.7242
ᐃᔑᓂᔕᐙᑲ	-10.7246
ᐅᐐᔭᐎ	-10.7247
ᑳᐅᔫᓯ	-10.7249
ᐁᐃᔑᐲᐃᑳᑌ	-10.7267
ᑳᑮᓂᑖ	-10.7275
ᒥᓂᒀᑲᓂ	-10.7296
ᑳᑲᑴ	-10.7319
ᑳᑲᔥᑭᑑ	-10.7323
ᒋᑲᓂᐎᓂ	-10.7339
ᑭᑮᐅᒋ	-10.7359
ᐁᓵᑭᐃ	-10.7366
ᓯᐙᓈ	-10.7368
ᑮᐃᔑᓂᑳᓱ	-10.7369
ᒦᐗᑭ	-10.7377
ᐃᓇᔥ	-10.739
ᐁᑮᑲᑴ	-10.7392
ᐐᑕᒪᐙᐙ	-10.7414
ᑕᐃᔑᓭ	-10.7417
ᐊᓵ	-10.7426
ᑳᑮᒫᒌ	-10.7432
ᑯᓈᓂ	-10.7447
ᐁᑌ	-10.7496
ᒋᑭᑫᓂᒥ	-10.7506
ᐙᐸᑕᒪ	-10.7515
ᑳᑌᐺᑕᓯ	-10.7518
ᓀᑖᑾᓂᓂ	-10.7537
ᐁᑮᐙᐸᑕ	-10.7546
ᑫᓇ	-10.7555
ᐃᔑᐌᐸᓂᓂ	-10.7572
ᑳᐅᒋᑎᐯᑖᑯᓯ	-10.758
ᓂᐲᓂ	-10.7581
ᐃᔑᐌᐱᓯᐙ	-10.7592
ᐊᔮᓯ	-10.7602
ᑳᑮᒦᓂ	-10.7609
ᓈᑯᓂ	-10.7614
ᐁᒪᒋ	-10.763
ᒪᒋᑑᑕᐎ	-10.7631
ᐌᐱᓂᑳᑌ	-10.7636
ᐁᔑᐊᔮ	-10.7641
ᐌᔮ	-10.7641
ᑳᓵᑭ	-10.7642
ᐅᑕᒑᑯ	-10.7652
ᔔᓂᔮᐗ	-10.7674
ᐊᔑ	-10.7675
ᐁᑮᐅᒌ	-10.7731
ᑭᑖᑮ	-10.7744
ᒋᐲᔖ	-10.7745
ᓯᑑ	-10.7747
ᐃᓍᓂᑎᓱ	-10.7749
ᒋᑎᐹᑯᓂ	-10.775
ᑌᐺᑕᒨ	-10.776
ᒥᓴᐌᒋᑫ	-10.7762
ᐅᔑᐋ	-10.7774
ᑭᑲᐐᒌᐎᑯ	-10.7777
ᓅᔅ	-10.7779
ᐊᓄ	-10.7782
ᐋᓉᑕ	-10.7785
ᐙᐱᔥᑮᑭ	-10.7786
ᐅᓈᑯᔑᓂᓂ	-10.7792
ᓂᑰ	-10.7801
ᑲᐋᒀ	-10.7805
ᒪᔥᑯᓰ	-10.7806
ᓵᒐᓰ	-10.7807
ᐐᑕᓇᒥᐋ	-10.7807
ᐸᑾᒋᐱᑑ	-10.7807
ᓃᓵᑕᐌ	-10.7807
ᔮᐸᒋᑑ	-10.7807
ᔂᓬᐊᒪ	-10.7807
ᑳᐃᔑᒫᒫᐗᒋᐃᑎ	-10.7807
ᒥᓄᑑᑖᑫ	-10.7807
ᓴᒣᕒᐃᔭ	-10.7807
ᐅᑖᑯᓰ	-10.7811
ᐐᑕᒫᑫᔮ	-10.7811
ᑮᐗᔥᑴᐲ	-10.7811
ᐹᐱᓬᐊ	-10.7815
ᐅᑕᐗᑳ	-10.7817
ᓂᑎᓀᑕᓰ	-10.7819
ᓰᑭᓇ	-10.7822
ᐗᐙᓀᑕ	-10.7825
ᑕᐸᓰ	-10.7825
ᓴᓭᑳ	-10.7834
ᐁᓀᑕᒫ	-10.7835
ᐅᓇᑑ	-10.7836
ᑭᑫᑕᒨᓈ	-10.7837
ᐊᔕᒫ	-10.784
ᑳᐃᔑᑖᓂ	-10.7842
ᔕᔒᐯᑕᒧ	-10.7842
ᒑᐸ	-10.7842
ᐅᓇᔓᐌᐎᓂᓂᐗ	-10.7842
ᑳᑕᓶᐙᓇᑭᓯᐙ	-10.7851
ᒥᓉᑕᒨ	-10.7855
ᑭᒪᒋᑑᑕᒧᐎᓂᐙ	-10.7856
ᐐᓂᑯ	-10.7865
ᐁᒪᑗ	-10.7874
ᐃᔑᓂᔕᐅᑯ	-10.7883
ᑳᐃᔑᒫᐗᒋᐃᑎ	-10.7886
ᐁᐙᐸᒥᑯ	-10.7896
ᑯᑯ	-10.791
ᑳᑌᐺᔦᓂᒥ	-10.7912
ᓅᑖᑾ	-10.7921
ᓈᑾᓂᓂᑭ	-10.7923
ᓈᓯᑲᐙᐙ	-10.7923
ᐊᑣ	-10.7925
ᑕᔅ	-10.7943
ᑲᓇᐌᑕᒧᐙ	-10.7946
ᐁᑮᑭᑐ	-10.7952
ᑭᐐᒋ	-10.7954
ᐊᔭᐋᐎ	-10.7955
ᐌᑖᑯᓯ	-10.7956
ᑣᒪ	-10.7957
ᐲᑎᑫᔥᑳ	-10.7965
ᑕᔑᑖ	-10.7966
ᐱᓈᓯᑲᐙ	-10.7968
ᑳᔭ	-10.7978
ᒋᑑᑕᒣ	-10.7983
ᑑᓰ	-10.7998
ᑳᐱᐅᒋ	-10.8001
ᐯᔑᒀ	-10.8005
ᓈᑾᓯᓅ	-10.8009
ᑑᔦ	-10.8017
ᑳᑲᓇᐌᑕ	-10.803
ᐁᐱᓴ	-10.8035
ᐁᒫᒌ	-10.8039
ᐅᑎᔑᒋᑫᐎᓂ	-10.8049
ᑭᑭᔥᑲ	-10.805
ᐗᓂᑑᑕ	-10.8055
ᐐᒌᐎᑯᐙ	-10.8061
ᑭᒋᐅᑭᒫᐎᓂ	-10.8074
ᐅᑎᓈᑯᓂᑫᐎᓂ	-10.8077
ᐅᓂᔥᑳᑎᓯᐎ	-10.8077
ᐋᓇᑮ	-10.8083
ᐅᑮᐃᔑᐎᓈ	-10.8087
ᑳᑎᐯᓂᒥ	-10.8089
ᓬᐆ	-10.8101
ᐙᐸᑕ	-10.812
ᐅᒪᒋᑑᑕᒧᐎᓂ	-10.8122
ᐃᔑᒦᓈ	-10.8127
ᑫᑮᐅᒋ	-10.8137
ᒋᑎᐯᓂᒥᓀ	-10.8139
ᐁᑮᐃᔑᒋᑫ	-10.8145
ᐐᑾᑎᓈᓂᐗ	-10.8154
ᑲᓇᐌᓂᒥ	-10.8164
ᐃᔑᓭᓯᓅ	-10.8166
ᑳᐱᒫᑎᓯᓂ	-10.8173
ᑰᓰ	-10.8184
ᐙᐸᑕᐃ	-10.8189
ᑮᒪᒋᑑᑕ	-10.8206
ᑕᑯᓇ	-10.8218
ᐅᑭᑫᑖ	-10.8227
ᑳᑮᐃᓀᑕ	-10.8235
ᒪᒋᒋᑫᐎ	-10.8237
ᐁᐃᑯ	-10.8239
ᐃᔑᐌᐱᓯᐎ	-10.826
ᐋᓇᐌᓂᒥ	-10.8276
ᑳᒦᒋ	-10.8304
ᓂᑯᐙ	-10.8306
ᑮᐊᓂᐅᒋ	-10.8312
ᑫᐃᔑᓈᑾ	-10.8314
ᑭᑭᔥᑲᐙ	-10.8331
ᐁᐲ	-10.8344
ᐸᑑ	-10.8347
ᑮᓂᐳᐗ	-10.8352
ᐲᔖᔮ	-10.8353
ᑲᐌ	-10.8354
ᒥᓍᐸᒥ	-10.8361
ᒋᐅᑖᐱᓇ	-10.8366
ᐅᑮᐊᐎ	-10.8393
ᒥᓂᑴᔦ	-10.8398
ᑳᐃᑭᑑᒪᑲ	-10.8409
ᑕᒫᑯᐙ	-10.8418
ᐁᐐᒌᐎᑯ	-10.8426
ᑭᑫᓂᒫᐙ	-10.8444
ᐅᐐ	-10.8449
ᐃᓈᑯᓂᑫ	-10.845
ᑭᒋᐆᑌᓈ	-10.8451
ᐁᑾ	-10.8456
ᒪᒋᑑᑕᒧᐎᓂ	-10.8468
ᑎᓄᐎᓰ	-10.8474
ᑾᔭᑯᒋᑫ	-10.8478
ᐃᓂᓀ	-10.8484
ᒋᐃᓈ	-10.8502
ᑳᐐᐅᒋ	-10.8507
ᑮᑮᐌᐱᒫᑎᓯ	-10.8515
ᐃᔑᓂᑳᓱ	-10.8516
ᐅᒌᐗ	-10.8528
ᑭᑲᒦᓂᑯ	-10.8535
ᒋᑲᒀᑕᑭᐃ	-10.8541
ᐃᔑᐱᒧᓭ	-10.8547
ᑕᓰ	-10.8565
ᑕᐱᒫᑎᓯ	-10.8565
00	-10.8567
ᑳᐃᓀᑖᑯᓯ	-10.8578
ᐅᑌᒐᓬᐃᒥ	-10.8581
ᐃᔥᐯᑖᑯᓯ	-10.8581
ᔒᑫᓂᒫ	-10.8582
ᐃᓀᑖᑯᓯᓰ	-10.8582
ᓇᐃᑕ	-10.8588
ᔖᑲ	-10.8589
ᐱᒥᐎᑑ	-10.8599
ᐁᒋᑳᑌ	-10.86
ᑕᓰᓈᐙ	-10.8604
ᑯᓇᔦ	-10.8607
ᑮᐙᒋᑴ	-10.8614
ᐁᑭᑫᓂᒥ	-10.8614
ᒋᑲᓇ	-10.8616
ᐹᑏ	-10.8618
ᑰᐹᓯᓈ	-10.8624
ᑲᑮᑖᐎ	-10.863
ᑌᐺᐎᓂ	-10.8631
ᑭᑫᓂᑎᓱ	-10.864
ᐋᑲᕒᐃᐸ	-10.864
ᐁᑕᕒᐆ	-10.864
ᐃᓬᐃᓯᐸ	-10.864
ᓂᔑᐗᓈᒋᒋᑳᑌ	-10.864
ᑕᔭᕒ	-10.864
ᐋᓇᓈᔭ	-10.864
ᔖᐳᔥᑳ	-10.864
ᑳᒋᑎᓂ	-10.864
ᐯᑳᓂᓯ	-10.8641
ᑭᒋᐅᑳᑏᑭᓀᐱ	-10.8641
ᐱᑾᒐᔭᐄ	-10.8641
ᐅᓈᑯᓂᑫ	-10.8641
ᒫᒋᓂᔕᐙ	-10.8641
ᐸᕒᐋᐸ	-10.8641
ᑫᐃᑭᑐᔦ	-10.8641
ᐊᑕᐌᑖᑯᓯ	-10.8641
ᐅᒪᓂᑑ	-10.8642
ᐯᔅᑕ	-10.8642
ᒨᒋᑫᑕ	-10.8642
ᐅᓇᑭᒥ	-10.8643
ᓵᒥᓇ	-10.8643
ᐸᑭᑎᓂᑳᑌ	-10.8644
ᓇᓈᑯᒥ	-10.8644
ᐱᓂᔅᑴ	-10.8644
ᐃᔥᐯᓂᑎᓱ	-10.8645
ᔖᑰᒋᐋ	-10.8645
ᐃᔑᐲᐊ	-10.8646
ᐊᔓᑕᒫᑯ	-10.8646
ᐅᑭᒋᐅᑭᒫᒥᐙ	-10.8649
ᑲᔥᑮᑎᐱᑲᓂᓂ	-10.8652
ᐋᕒ	-10.8656
ᔖᑯᐌᐗ	-10.8657
ᐅᓀᓂᒫ	-10.8658
ᑮᐲᔖ	-10.8659
ᐁᓈᑎᓯ	-10.8659
ᑳᑮᐃᔑᐲᐃᑫ	-10.8659
ᒌᑲ	-10.8666
ᒪᒑᑎᓯ	-10.8668
ᐅᑲᑲᔥᑭᑑᓰ	-10.8669
ᔑᓄᐙ	-10.8672
ᐁᐸ	-10.8673
ᓂᓃᒑᓂᓴ	-10.8673
ᑲᐸᕒᓂᔭᒦ	-10.8676
ᑭᑫᓂᒫᓯᐙᐙ	-10.8678
ᐃᓈᐸᒋᑑ	-10.8682
ᐴᓂᑑ	-10.8687
ᐱᒫᒋᐃᑣ	-10.8697
ᒋᑫᓂ	-10.8703
ᐐᓂᓯ	-10.8703
ᓈᑯᒋᑳᑌ	-10.8704
ᑮᐅᒌ	-10.8706
ᐌᐱᓈᐙ	-10.8707
0	-10.8708
ᑳᑮᐃᑯ	-10.8709
ᐱᒥᑌ	-10.871
ᑎᐱᓭ	-10.8714
ᐲᐙᐱ	-10.8717
ᐅᐐᔭᐎᐙ	-10.8718
ᑳᒫᐗᒋ	-10.8719
ᐃᑰᔭ	-10.8721
ᑯᓵᐙ	-10.8722
ᐁᑮᐃᔑᓂᑳᓱ	-10.8735
ᑳᒪᒋᑑᑕ	-10.8748
ᑌᐺᔦᓂᒫᐙ	-10.875
ᒋᒫᒥᑲᐎ	-10.8759
ᐅᑮᐋᐸᒋᑑ	-10.876
ᓂᐐᔭᐎ	-10.8766
ᓇᐃᑕᐎ	-10.8767
ᐗᑭᑕ	-10.8767
ᓂᑭᑫᑕᓰ	-10.8772
ᑮᑰᔭ	-10.8777
ᑲᐙ	-10.8777
ᐐᑕᒫᑯ	-10.8787
ᑭᒋᐐᑎᑫ	-10.8793
ᐅᑖᐱᓇᒧᐙ	-10.8796
ᒋᐃᔑᒋᑫᔭ	-10.8797
ᐃᓀᓂᒫᐙ	-10.8807
ᑑᑖᑯ	-10.8812
ᐁᐐᑲᑴ	-10.8816
ᑳᑎᐯᓂᒥᒥ	-10.8824
ᑲᓇᐙᐸᑕ	-10.8828
ᓂᐐᔭ	-10.8833
ᐁᔑᔭ	-10.8834
ᒥᑕᑎᒨ	-10.8834
ᐐᒋᐊᔮᒥ	-10.8838
ᑎᐯᓂᒥᑯᓰ	-10.884
ᐅᑮᑮᐌ	-10.8849
ᐃᓀᑖᑯᓯᐎᓂ	-10.8849
ᐁᑮᒥᒋ	-10.8851
ᑑᑕᓰ	-10.8858
5	-10.8858
ᐃᔑᒫᒑ	-10.886
ᒥᓇᐋ	-10.8876
ᐁᑭᑭᓄᐊᒫᑫ	-10.8878
ᐅᑮᐙᐸᒫᐙ	-10.8891
4	-10.8892
ᐐᒌᐎᓇᑰ	-10.8895
ᒋᒥᓄᐐᒌᐎᑯ	-10.8919
ᑳᑮᒦᓈ	-10.8923
ᑭᒪᒋ	-10.8946
ᓂᔥᑳᑎᓯ	-10.8946
ᓰᑲᐊᑖᑰ	-10.8971
ᑌᐺᐎᓂᐗ	-10.8972
ᐱᓈᓯᑲᐎ	-10.8989
ᐊᓇᒥᐋᔮ	-10.901
ᑳᑮᐃᔖ	-10.9035
ᐃᓇᑌ	-10.9069
ᑎᐱᑲᓂᓂ	-10.908
ᐲᓈ	-10.9086
ᑭᑎᑳᑕ	-10.9086
ᐃᔑᐎᓂᑰ	-10.9113
ᓯᓂᓂᑭ	-10.9116
ᑮᓃᐸᐎ	-10.9125
ᐁᓀᑖᑾ	-10.9135
ᑕᑯᓂ	-10.9137
ᐊᓇᒥᐁᑕᒪᐎ	-10.9142
ᐁᒪ	-10.9149
ᑫᐃᔑᐌᐸ	-10.9157
ᑭᐸᑯᓭᓂᒥ	-10.9172
ᑳᓵᑭᐋ	-10.9177
ᑮᐱᑕᑯᔑ	-10.9198
ᒋᒫᒌ	-10.9222
ᐅᑲᔥᑭᑑ	-10.9227
ᐅᑕᔮᓰ	-10.9227
ᐁᐃᓀᑕ	-10.9238
ᐐᒌᐌ	-10.9249
ᑰᒥᓐ	-10.9272
ᐅᒪᒋᑑᑕᒧᐎ	-10.9277
ᓂᑳᑌᓂ	-10.928
ᐊᓇᒥᐁᐙᑎᓯ	-10.9283
ᑲᓅᓂᓇᑰ	-10.9286
ᓵᐃ	-10.9312
ᕒᐋ	-10.9327
ᓈᓯᑲ	-10.9335
ᓅᑖᑯᑑ	-10.9335
ᑮᐌᐗ	-10.9347
ᐱᐊᔮ	-10.9366
ᐐᒋᑣ	-10.9374
ᓂᐳᐙ	-10.9383
ᐐᑕᒫ	-10.9404
ᑮᐃᔑᓈᑾᓂᓂ	-10.9407
ᑲᒥᑲᓂᓂ	-10.9415
ᒫᒑᔮ	-10.9423
ᐃᑭᑐᓰ	-10.9435
ᐅᑌ	-10.9437
ᐅᐱᒫᒋᐃᐌ	-10.9437
ᔔᒥᓂ	-10.9439
ᑭᔥᑮᔑ	-10.945
ᑲᑖ	-10.945
ᓂᔑᐗᓈᑕ	-10.9454
ᓯᓃ	-10.9467
ᐅᓈᐸᒥ	-10.9469
ᓂᔑᐗᓈ	-10.947
ᑭᑫᒋᑳᑌ	-10.9475
ᐴᔔᐋ	-10.9476
ᐃᔑᐱᒫᑎᓯᐗ	-10.9487
ᐋᐲ	-10.9494
ᑭᑎᓂᓐ	-10.9496
ᑲᑮᑴ	-10.95
ᐐᒋᑭᐌ	-10.9503
ᑭᒋᐊᐱᐎ	-10.9506
ᑮᐃᔥᒀᓭ	-10.9511
ᔒᑫᓂᒥ	-10.9513
ᐊᓇᒥᐁᐎᑲᒥ	-10.9517
ᐃᔑᐲᐃᑫ	-10.9523
ᓵᑲᐃᑲ	-10.9534
ᐁᐅᒌᒪᑲ	-10.9534
ᐅᑮᑭᑫᓂᒫ	-10.9535
ᓂᑎᓀᑕ	-10.9535
ᑲᐯᔑ	-10.9536
ᒋᐸᑭᑎᓂ	-10.9538
ᐃᔅᑏᐱ	-10.9549
ᓂᓯᒥᑕᓇ	-10.9549
ᐅᑳᐎᒥᓇᑲᔒ	-10.9549
ᐲᓬᐃᑭ	-10.9549
ᑕᐸᓭᓂᒧ	-10.9549
ᒪᐗᑎᓯ	-10.9549
ᓭᐸᑏ	-10.9549
ᔾ	-10.9549
ᑫᑌᐃᓈᑎᓯᐎ	-10.9549
ᐅᒌᒫᑲᓇ	-10.9549
ᒣᒥᑕᑫ	-10.9549
ᐅᑑᑭᒫᐎᐎ	-10.9549
ᐸᑯᓭᓂᒧ	-10.955
ᐅᓈᑯᓈ	-10.955
ᐲᑯᐱᑑ	-10.955
ᓯᑌᑳᐸᐎ	-10.955
ᒀᕒᓃᓬᐃᔭ	-10.955
ᐅᒻᐺᑲᒥᑭᓯ	-10.955
ᑲᓇᐌᒋᑫᐎ	-10.955
ᐸᐸᑭᑌᐙᐙ	-10.9551
ᑳᒋᑎᓈ	-10.9551
ᑑᐳᐎᓈᑯ	-10.9553
ᑲᓇᐌᓂᑎᓱ	-10.9553
ᐃᔥᒀᓭᓯᓂᓂ	-10.9553
ᐸᑭᑎᓈᓱᐎᓈᐱ	-10.9554
ᒑᑭᓱ	-10.9555
ᑭᑎᑳᑌ	-10.9555
ᓂᓯᑐᑕᒧᐙ	-10.9556
ᐊᐌᒋᑫᐎ	-10.9557
ᒌᑫ	-10.9559
ᐁᔑᓂᑳᑌᓂ	-10.9563
ᐸᑭᒌ	-10.9564
ᐗᓃᑫ	-10.9564
ᐊᓄᑮᑕᐗ	-10.9567
ᐅᑮᐙᐸᒥᑰ	-10.9568
ᑳᑎᐸᐃᑫᐃᐌ	-10.9569
ᑭᒪᒋᑑᑕᒧᐎᓂ	-10.9578
ᐃᓇᓵ	-10.9578
ᒋᑑᑕᒧ	-10.9581
ᐅᑭᑫᑕᓰ	-10.9583
ᑭᑖᐸ	-10.9583
ᐯᑌ	-10.9584
ᓵᑭᒋᐌᐱᓈ	-10.9584
ᑭᒫᒫ	-10.9585
ᑭᑲᐙᐸᒥ	-10.9587
ᐁᐐᒌᐌ	-10.959
ᑲᔥᑭᒫ	-10.959
ᓵᐃᑕ	-10.9591
ᑳᐐᐱ	-10.9594
ᐅᑑᑭᒫᒥᐙ	-10.9597
ᐅᑎᓀᑕᒧᐎᓂᐙ	-10.9602
ᑮᑕᔑᐗ	-10.9602
ᐅᑭᔐᒪᓂᑑᒥᐙ	-10.9604
ᔔᓂᔮᐎ	-10.9609
ᒫᑰᔦ	-10.9614
ᐁᐐᐊᓂ	-10.9616
ᐅᐱᒫᑎᓯᐎᓂᐙ	-10.9629
ᐅᑮᐅᔑᑑ	-10.9629
ᑳᑭᑫᓂᒫᓯ	-10.9633
ᒋᐱᒥᓂᔕᐅ	-10.9643
ᑭᔥᑮᔑᑯ	-10.9652
ᒥᓴᐌᑕᒧᐙ	-10.9658
ᒫᓇᒑᓂᔐᓴ	-10.9664
ᑳᐸᐹ	-10.9664
ᑕᒪᐗ	-10.9668
ᐊᓇᒥᐁᑕᐙᐙ	-10.9668
ᐁᑲᑭᑐ	-10.967
ᓃᒌ	-10.9685
ᑕᓱᐱᐴ	-10.9686
ᑭᑭᓄᐊᒫ	-10.9692
ᐅᐐᔭᐎᓂ	-10.9699
ᐊᓇᒥᐁᐎᑭᒫᐎ	-10.9702
ᐅᓀᑕ	-10.9712
ᐱᑾ	-10.9719
ᐅᒋᑕᑯ	-10.9719
ᑭᔐᐙᑎᓯᐎ	-10.9725
ᐙᐸᒥᑰ	-10.9732
ᐁᒫᐗᒋᐃᑎ	-10.9745
ᒋᑫᐎ	-10.9752
ᑳᑑᑕᐎ	-10.9754
ᒪᓂᑑᑫ	-10.9759
ᒋᐃᔑᒋᑫᔦ	-10.976
ᑳᑮᐙᐸᑕ	-10.9762
ᓂᑎᓄ	-10.9763
ᐃᓀᑕᒧᐎ	-10.9766
ᑭᑲᔑ	-10.9771
ᐹᒫ	-10.9774
ᐃᒋᑲᓂᐎ	-10.9776
ᐅᒥᓍᒋᒧᐎ	-10.9796
ᒪᐙᐙ	-10.981
ᑖᑰ	-10.9815
ᑳᐃᓈᑎᓯ	-10.9816
ᐁᐋᐸᒋᑑ	-10.9817
ᑕᔑᑌᓂ	-10.9829
ᑳᑕᓱ	-10.9832
ᑭᑎᑫᐎᓂ	-10.9837
ᑭᑭᔥᑲᐙᓂ	-10.9849
ᒫᑰ	-10.9851
ᑳᒪᔥᑲᐎᓰ	-10.9863
ᑭᑭᓄᐊᒫᑯᐙ	-10.9865
ᒫᒫ	-10.9871
ᒥᓄᐊᔮᐋ	-10.988
ᐎᓀ	-10.9882
▁¦40	-10.9886
ᐸᑯᓭᓂᒥᑰ	-10.9889
ᐃᓈᐱ	-10.9925
ᑭᐸᐊ	-10.9933
ᐲᔖᓰ	-10.9946
ᒪᑲᒥ	-10.9953
ᓈᑲᑕᐌᑕ	-10.9965
ᐁᓅᑖᑯ	-10.9991
ᒋᒦᒋ	-10.9994
ᑭᒋᐎᓇ	-10.9995
ᐎᓇᑰ	-11.0007
ᑫᔮ	-11.0014
ᑲᔥᑭᑑᔮ	-11.002
ᔕᔒᐱᑕᒧ	-11.0021
ᑮᒋᐱᒫᑎ	-11.0022
ᑌᐺᔦᑕᒧ	-11.0035
ᐃᑭᑐᓂ	-11.0042
ᐅᔒᑖ	-11.0053
ᑎᐸᐊᒫᑰᐎ	-11.0071
ᐃᔑᑮᔗ	-11.0081
ᒎᓇ	-11.0098
ᐁᑮᐃᔑᐎᓈ	-11.0099
ᑭᑮᒦᓂᑯ	-11.0106
ᐐᑌ	-11.0108
ᑲᓅᓂᑯᐙ	-11.0112
ᑲᓇᐌᑕᒥᓂ	-11.0118
ᒦᑴ	-11.012
ᐅᑎᓯᓀ	-11.012
ᐊᓂᒫᒑ	-11.0132
ᑾᓂᓂ	-11.0135
ᑳᐱᒥᓂᔕᐅ	-11.0142
ᑮᐌᐱᒫᑎᓯᐋ	-11.0148
ᐅᔑᐲᐊ	-11.0153
ᑳᐃᓇ	-11.0165
ᒥᓍᒋᒧᐎᓂ	-11.0172
ᑭᒋᒪᓯᓇᐃᑲᓂ	-11.0172
ᐱᒫᒋᐃᓇ	-11.0178
ᐅᑖᑮ	-11.0204
ᐊᑌ	-11.0213
ᓰᓇ	-11.0218
ᑎᐸᐊᒫᑰ	-11.0222
ᐱᐅᒌ	-11.0226
ᐅᓇᔓᐌ	-11.0236
ᐃᔑᒋᑫᓯ	-11.0248
ᑲᓅᑕ	-11.0252
ᑑᑕᒪ	-11.0267
ᐊᑕᐌᑕᒫ	-11.0272
ᒋᓇᐃᑕ	-11.0292
ᑌᑭ	-11.0298
ᓇᒪᐙ	-11.0299
ᔥᑳᑰ	-11.0302
ᐃᑲ	-11.0303
ᐸᑯᓭᓂᒥ	-11.0305
ᑰᓯᐙ	-11.0305
ᒦᑳᓈ	-11.0306
ᒋᐃᔖᓂ	-11.0307
ᑾᔭᑾ	-11.0308
ᓈᓈᑲᒋᐃ	-11.0309
ᒋᒨᔥᑭᓀ	-11.031
ᑭᔐᐙᑎᓯ	-11.0339
ᐃᓈᐸᑕ	-11.0343
ᑮᐃᔑᓈᑯᓯ	-11.035
ᒪᒋᑭᑎᑳ	-11.0352
ᑳᐃᔑᐌᐱᓯ	-11.0355
ᐐᑎᑫᑎ	-11.0357
ᐅᑕᓄᑮ	-11.0365
ᐅᒋᑎᐯᑖᑯᓯ	-11.0368
ᐅᑭᔐᒪᓂᑑᒥ	-11.0372
ᑯᓀ	-11.039
ᐯᒫᑎᓯ	-11.0404
ᐁᑲᓇᐌᑕ	-11.0406
ᐅᓈᑲᓂ	-11.0422
ᐃᔥᑯ	-11.0465
ᐃᔥᒀᑌᒥᐗ	-11.0466
ᐊᐱᓂ	-11.0468
ᑎᐹᑯᓂᑫᐎ	-11.0468
ᐃᓀᑕᒨ	-11.0472
ᐊᓄᑮᑕᐙ	-11.0476
ᑲᒀᑕᑫᑕ	-11.0481
ᑭᐐᓱᐎ	-11.0483
ᒦᓂᑰᔮ	-11.0491
ᓭᐗ	-11.0498
ᐅᐙᑳᐃᑲ	-11.05
ᓅᑌᔅᑲᑌ	-11.0504
ᑳᑕᓶᐙᓇᑭᓯ	-11.0505
ᐁᐃᔑᓂᑳᓱ	-11.0506
ᑆ	-11.0507
ᒋᑲᑭᑐ	-11.051
ᑎᐸᐃᑲᓀᔮᓂ	-11.0514
ᑲᓅᔑ	-11.0516
ᑳᑮᓂᐳ	-11.0516
ᑮᐃᓈᐱ	-11.0518
ᒪᔥᑲᐌᑕᒧ	-11.0524
ᓵᒥᓂ	-11.0526
ᔑᒫᑲᓂᔒ	-11.0531
ᐙᐸᒋᑳᑌ	-11.0532
ᑭᑭᓇᐙᑕᔕᑫᔣ	-11.0533
ᓶ	-11.054
ᐅᓈᑯᔑ	-11.0543
ᐯᔓᓈᑾ	-11.0548
ᐐᑕᓄᑮᒫᑲ	-11.0549
ᓵᑭᒋᓂᔕᐙ	-11.0549
ᑳᐯᐸᑳᓉᐙᓇᑭᓯ	-11.0549
ᐅᔅᑲᑎᑯ	-11.0549
ᐲᐙᐱᑴᔮᐲ	-11.0549
ᑭᐱᔥᑭᐗᓯᑲ	-11.0549
ᐃᔅᑫᕒᐃᔭ	-11.0549
ᐅᑑᑌᓈᒥ	-11.0549
ᐋᓬᐃᑭᓵᑕᕒ	-11.0549
ᐯᑕᓬᐃᐁ	-11.0549
ᐱᔑᒀᒋᑴ	-11.0549
ᒪᒫᒋᑾᐱᓂ	-11.0549
ᑮᔖᐯᐎ	-11.0549
ᑲᒀᓂᓴᑫᑖᑾ	-11.0549
6	-11.0549
ᔒᐎᑖᑲ	-11.0549
ᔖᐗᓄ	-11.0549
ᑭᑎᑳᓈᑎᑯᑳ	-11.0549
ᑭᑌᑖᑯᓯᐎ	-11.0549
ᒥᓍᑎᓯ	-11.0549
ᑭᑌᐺᔦᑕᒧᐎᓂᐙ	-11.055
ᐱᑕᐊᓈ	-11.055
ᑌᓄᐎ	-11.055
ᑳᓃᑳᓂᔥᑲ	-11.055
ᒥᓋ	-11.055
ᐁᓈᒋᒥ	-11.0551
ᐅᑮᒨᒋᔥᑲ	-11.0551
ᒉᑲᐴ	-11.0551
ᐱᓀᓯᐗ	-11.0552
ᐅᑲᔥᑭᐁᐎᓯᐎᓂ	-11.0552
ᐅᑌᔥᑲ	-11.0553
ᑭᑌᓂᒧ	-11.0554
ᐃᔥᐸᑎᓈ	-11.0554
ᐸᑭᑕᐙ	-11.0555
ᑳᐅᔥᑳᑎᓯ	-11.0559
ᐃᓈᐸᑎᓯ	-11.0565
ᑕᓂᐳᓰ	-11.0566
ᑲᑴᒋᒪ	-11.0567
ᓵᑭᒋᓂᔕᐊᒪᐙ	-11.0568
ᐊᓅᓂ	-11.0569
ᑭᑫᓂᒣ	-11.0569
ᐅᒦᑭᐌᐎ	-11.057
ᑲᑕᐎ	-11.0571
ᑮᒫᐗᒋᐃᑎᐗ	-11.0574
ᑸᓄ	-11.0575
ᓇᐁᑕᒥ	-11.0577
ᐃᓇᒀ	-11.0578
ᑕᐴᓀᑕᒪᐙ	-11.058
ᔕᔒᐯᓂᒥ	-11.058
ᑮᐅᔑᒋᑳᑌ	-11.058
ᑲᓇᐌᑖ	-11.0581
ᑕᐹᑏᓄᐗ	-11.0582
ᐋᐸᒋᐃ	-11.0584
ᒋᐴᓀᑕᒪᐎ	-11.0586
ᑕᒪᐎᓇᑰ	-11.0588
ᓂᑖᓇᑮ	-11.0589
ᐊᑯᓴᑲᐙᐙ	-11.0589
ᐅᒌᒪᑲᓯᓅ	-11.059
ᐃᔑᑭᑭᓄᐊᒫᑫ	-11.059
ᑳᐸᒦᑖᑫ	-11.0592
ᐁᑮᓇᓈᑯᒫ	-11.0592
ᐁᐊᓄᑮᑕᐗ	-11.0592
ᑭᒥᐗ	-11.0595
ᑳᑌᓴᐱ	-11.0596
ᑫᔭᐸ	-11.0597
ᑳᑮᐊᑐᒫ	-11.0599
ᐱᒫᒋᐃᑯ	-11.0604
ᐃᔑᓂᔕᐊᒪᐎ	-11.0605
ᐅᑮᑲᓅᓂᑰ	-11.0608
ᓈᑯᓰ	-11.0614
ᑌᐺᔦᓂᒥᑰ	-11.0618
ᒋᐐᑕᒫᑫᔮ	-11.0618
ᒥᑲᒧᐙ	-11.0619
ᐐᑕᒫᑯᐙ	-11.0621
ᑌᐺᑖᑯ	-11.0621
ᔑᒫᑲᓂ	-11.0622
ᑳᐋᓇᐌᓂᒥ	-11.0623
ᒋᐐᒌᐙ	-11.0624
ᐁᐃᓈᐱ	-11.0626
ᑌᐺᑕᒪ	-11.0632
ᑌᐺᐎᓂᐎ	-11.0637
ᐅᓀᑖ	-11.0639
ᑳᐅᔑᒋᑳᑌ	-11.064
ᒋᑎᐱᓇᐌᐎᓯ	-11.0641
ᑳᑕᔑᑕᒫ	-11.0648
ᓇᐃᑖ	-11.0652
ᐃᓇᑭᒥᑯ	-11.0685
ᐊᑕᐌᑕᒧ	-11.0687
ᐁᑑᑕᒧᐙ	-11.0689
ᐁᓂᐹ	-11.069
ᐅᑕᓄᑮᐎ	-11.0699
ᓃᔑᓂ	-11.0702
ᐅᑮᐙᐸᑖ	-11.0704
ᓭᔮ	-11.0709
ᐸᒥᐃᑯ	-11.0709
ᒋᐐᑕᒫᑫ	-11.0717
ᑭᑫᑕᓯᒀ	-11.0717
ᐃᓀᑕᓰ	-11.0728
ᔂᑕ	-11.0745
ᓂᑎᓈ	-11.0745
ᐁᑮᐙᐸᒫ	-11.0747
ᐐᐃᔖ	-11.0758
ᐲᓈᓂ	-11.0759
ᒋᒥᓄᐐᒌᐙ	-11.0773
ᑮᔑᓈᑾᓂᓂ	-11.0796
ᐐᒌᐎᒪ	-11.0803
ᐐᑲᑴ	-11.082
ᐅᑎᓀᑕᒧᐎᓂ	-11.0821
ᐹᑌ	-11.0822
ᒪᒋᑑᑕᒥ	-11.0828
ᐲᑌ	-11.084
ᐅᑮᒥᑲᐙ	-11.0844
ᐱᓀᓂ	-11.0849
ᑳᑮᐐᒋ	-11.0862
ᑌᐱᓇᒧᐙ	-11.0864
ᐐᒌᐎᓀ	-11.087
ᒋᒪᔥᑲᐎᓰ	-11.0874
ᒋᓵᑭᐋ	-11.0877
ᑕᒪᐎᓇ	-11.0878
ᐅᑲᐃᔑ	-11.0886
ᐅᑲᐅᒋ	-11.09
ᐃᔑᐊᓄᑮ	-11.09
ᐲᑎᑲᓂ	-11.0903
ᐅᒌᒪᑲᓂᓂ	-11.0917
ᒫᔑᓭ	-11.0939
ᑕᑯᓂᑰ	-11.0947
ᐅᓃᒑᓂᓯᒥ	-11.0961
ᐃᓀᑖ	-11.0961
ᑌᐺᔦᑕᒧᐎᓂ	-11.0975
ᐸᐸᔕᔐᐅ	-11.0976
ᑳᑮᑭᒋ	-11.0979
ᒦᔑᔑ	-11.0983
ᓃᒋᑭᐌ	-11.0986
ᐙᐸᑕᐃᑯ	-11.0995
ᐁᑭᑫᓂᒫ	-11.1006
ᐐᒋᐋᐙ	-11.1012
ᒪᑲᒫ	-11.1013
ᑭᑫᑕᒨ	-11.1018
ᑭᑭᔥᑳᑯᓂ	-11.1036
ᐊᓯᓃᑳ	-11.1042
ᑳᑮᐐᑕᒪᐙ	-11.1043
ᑕᐱᓇ	-11.105
ᐊᑳᓯ	-11.1051
ᐁᔑᐱᒫᑎᓯ	-11.1053
ᐁᑲ	-11.1056
ᑮᐊᓇᒥᐋ	-11.1067
ᑳᓂᐎ	-11.1077
ᑲᒥᑳ	-11.1077
ᐁᑮᐊᔮ	-11.108
ᑮᑭᔒᐌ	-11.1094
ᐐᑕᒪ	-11.1096
ᔖᑰᓱᒫ	-11.1099
ᒋᐸᑭᑎᓇ	-11.1099
ᐅᑭᑭᓄᐊᒪᐙᑲᓂ	-11.1106
ᑲᐲ	-11.1126
ᒦᑭᐌᐎ	-11.1129
ᐸᑭᑌ	-11.113
ᒋᐃᔑᒋᑫᔮ	-11.1131
ᓂᔣᓱ	-11.1131
ᑎᐹ	-11.1139
ᐋᐸᑕᓂᓂ	-11.1141
ᑲᑲᓅᓂ	-11.1152
ᐎᔮ	-11.117
ᓂᑮᑭᒋ	-11.1173
ᐊᑕᐙᐸᒥ	-11.118
ᐯᒥ	-11.1181
ᒥᓄᓈᑾ	-11.1211
ᑮᐸᐹ	-11.1218
ᑲᓅᓇ	-11.1224
ᑎᐯᒋᑫᐎ	-11.1229
ᔑᔭ	-11.1239
ᑲᓇᐌᓂ	-11.1248
ᓵᔭ	-11.125
ᒥᑖᒋ	-11.1254
ᐁᐊᔮᐙ	-11.1261
ᒉ	-11.1274
ᐅᑑᒋ	-11.128
ᒫᒌᐸᐃᐌ	-11.129
ᑖᑾᑭ	-11.1327
ᐌᑴ	-11.1337
ᐃᓈᐸᑕᓯ	-11.1341
ᐅᔑᐲᐊᒪ	-11.1368
ᒦᒋᒥ	-11.1369
ᑲᒀᑕᑭᐃᑰᐎ	-11.137
ᒫᒌᓈ	-11.1376
ᑕᐱᔑᒧ	-11.1376
ᓯᓬ	-11.1385
ᑯᑖᓀᓂᒫ	-11.1396
ᑕᐊ	-11.1398
ᐐᐱ	-11.142
ᑮᐊᐸᑭ	-11.1423
ᒋᑭᐌᔭ	-11.1426
ᑳᑮᐃᔑᐊᔮ	-11.1427
ᒥᓄᑑᑕ	-11.1438
ᔕᔒᐱ	-11.1449
ᑾᔮᒌ	-11.1457
ᑏᒪ	-11.1473
ᒥᓇᑰ	-11.1474
ᓂᔥᑭ	-11.1483
ᓂᐙᐸᑖ	-11.149
ᓅᑕᒫᑯ	-11.15
ᔖᐳ	-11.1512
ᓅᑕᐙᐙ	-11.1518
ᓬᐋ	-11.152
ᓈᓈᐙ	-11.1524
ᐙᐸᑕᓰ	-11.1533
ᒥᑲᐙᐙ	-11.154
ᑳᐃᔑᒋᑫᔮ	-11.1559
ᐅᑲᐱ	-11.1567
ᐅᑖᐱᓇᒧ	-11.1569
ᐁᐃᔑᓂᑳᑌ	-11.1574
ᐅᑮᑭᒋ	-11.1579
ᒥᓉᑖ	-11.1584
ᐃᔑᒋᑫᒪᑲ	-11.1585
ᐸᐃᑎ	-11.1587
ᐁᓇᓄᑮ	-11.1588
ᑕᑯᓈ	-11.1599
ᑭᑭᓇᐙᑕᔕᑫᔑᑲᓂᐎ	-11.1599
ᑮᑌ	-11.1605
ᒋᑎᐱᓭ	-11.1612
ᐎᓂᓈᓂ	-11.1612
ᐁᐐᒋ	-11.1612
ᑮᐅᓇᐱ	-11.1617
ᐅᑌᐺᔦᑕᒧᐎᓂ	-11.1628
ᒋᒥᓍᐸᒥ	-11.1629
ᐃᑰᐎᓯ	-11.1633
ᐅᑎᑖ	-11.1636
ᑎᐹᑯᓂᑫ	-11.1638
ᑎᐹᑐᑕ	-11.1639
ᐅᑮᑭᑫᑖ	-11.1644
ᐅᑑᑭᒫᒥ	-11.1646
ᒫᓯᑑᓂ	-11.1647
ᐸᔥᑴᑭᓄ	-11.165
ᑭᐸᐅᑰ	-11.1654
ᐅᑕᓄᑮᐋᑲᓂ	-11.1656
ᒐ	-11.1659
ᐅᒋᒌᑾᓃᑕ	-11.166
ᐅᒑᓂᒣᑕ	-11.166
ᑭᓰᐲᑭᓯᑌ	-11.166
ᒋᔖᐾ	-11.166
ᐱᔑᑮᓴ	-11.1661
ᑭᑕᓄᑮᐋᑲ	-11.1661
ᒪᒫᒋᑾᐱᓱ	-11.1661
ᓂᓇᑕᐌᑖ	-11.1661
ᐅᑮᓇᑴᑖᑰ	-11.1661
ᓴᑭᓂᑫᓈ	-11.1661
ᑭᒋᒨᑯᒫ	-11.1661
ᐅᑲᓅᑕᒫᑫ	-11.1661
ᑾᔮᒋᑑ	-11.1661
ᒀᕒᐃ	-11.1661
ᓭᓴᑰ	-11.1661
ᐋᓇᐌᒋᑫ	-11.1661
ᑕᐸᓭᑖᑯᓯ	-11.1661
ᑮᓭᑭᓯᐗ	-11.1661
ᐙᑳᐃᑫ	-11.1661
ᐗᐌᔑ	-11.1661
ᑎᐱᑭᑮᓯ	-11.1661
ᑌᐸᑫᑖᑯᓯ	-11.1661
ᐅᑴᓄ	-11.1661
ᓯᒥᔭ	-11.1661
ᑸᓇᐎ	-11.1662
ᐋᐌᒋᑫ	-11.1662
ᓂᓯᑕᐎᓈ	-11.1662
ᑭᐐᔭᐎᓈᓂ	-11.1662
ᓇᑲᔑ	-11.1663
ᑲᓅᑕᒪᐎ	-11.1663
ᐯᐸᑳᓂᑮᔗ	-11.1663
ᐅᑎᐹᒋᒨ	-11.1664
ᐊᑰᒋ	-11.1664
ᐸᑲᒥᔥᑳᑯ	-11.1665
ᑭᐱᑎᓂ	-11.1665
ᐅᑲᓇᐎᒫᓇᒑᓂᔑᐌ	-11.1666
ᔒᑫᑕ	-11.1672
ᑲᑮᑖᐎᓯᐎ	-11.1673
ᐁᐱᓴᓯ	-11.1674
ᓂᓯᑐᑕᒨ	-11.1675
ᐱᒥᐎᓈ	-11.1677
ᑭᑎᑫᐗᑲᒥᑯ	-11.1679
ᓂᔥᑳᑎᓯᐎ	-11.1681
ᐁᓇᑌ	-11.1682
ᑲᔥᑮ	-11.1682
ᐅᑮᐃᓇᓵ	-11.1684
ᒪᑲᑌ	-11.1685
ᑮᐃᓈᑯᓂᑫ	-11.1685
ᐁᑲᓅᓈ	-11.1686
ᐐᒋᐐᓯᓃᒫ	-11.169
ᑌᐺᔦᑕᒣ	-11.169
ᒋᑴᑳᑎᓯ	-11.1693
ᓂᑕᔮᓰ	-11.1695
ᐊᓈᒪ	-11.1696
ᑕᓇᓈᑯᒫ	-11.1697
ᓀᓴ	-11.1699
ᒋᐊᑕᐎ	-11.1701
ᓵᑭᐋᐙ	-11.1703
ᐊᐌᓀᓂᐎ	-11.1704
ᐁᐃᔑᑮᔗ	-11.1706
ᐱᒫᑎ	-11.1713
ᐊᓄᑮᑕᐌ	-11.1713
ᑳᑮᐅᓈᐸᒥᑯ	-11.1714
ᓴᓇᑲᓂᓂ	-11.1714
ᑲᓅᑕᒪᐙᓂ	-11.1715
ᒥᓄᒋᑫᐎ	-11.1718
ᐲᐅ	-11.1719
ᐅᑌᐺᔦᑕᒧᐎᓂᐙ	-11.172
ᑳᐅᔑᐲᐊᒪᐎ	-11.1721
ᑳᐅᑌᐺᑕᒧᐎᓂᓯ	-11.1721
ᑳᐃᔑᑮᔗ	-11.1729
ᑮᑕᓇᒥᐋᓈᓂ	-11.173
ᑮᐅᒋᐅᔑᒋᑳᑌ	-11.1732
ᐊᔪ	-11.1732
ᑳᑮᐃᓈ	-11.1736
ᐁᔑᓈᑯᓯᔮ	-11.1741
ᐅᑭᑭᔥᑭᑲᓂ	-11.1745
ᓇᐃᑕᒧ	-11.1748
ᒋᒪᓈ	-11.1748
ᒥᓍᒋᒥ	-11.1752
ᑭᑎᑫᐎᓂᓂ	-11.1755
ᑕᒪᐙᐙ	-11.1762
ᐁᐃᔑᓂᑳᓱᓂ	-11.1763
ᐲᑎᑲᓂᑯ	-11.1764
ᓇᓈᑕ	-11.177
ᐁᔑᐸᑯᓭᓂᒥ	-11.1773
ᐁᐐᒌᐙ	-11.1773
ᔖᑰᒋᑣ	-11.1773
ᐱᒥᓂᔕᐊ	-11.178
ᑕᔕᐌᑖᑯᓯ	-11.1782
ᑳᐊᓄᑮ	-11.1785
ᑫᐃᔑᓈᑯᓯ	-11.1806
ᒥᓂᑴᐗ	-11.1814
ᒋᒦᓈ	-11.1815
ᑳᐊᑐᒥ	-11.1817
ᐋᓈᐙ	-11.1817
ᑭᒥᓄ	-11.1818
ᑮᐃᔑᒋᑫᐗ	-11.1821
ᑳᑮᐃᔑᓭᓂ	-11.1822
ᓃᒥ	-11.1832
ᓂᑲᐃᔑ	-11.1833
ᐅᑲᔑ	-11.1848
ᐅᑌᐺᑕᒧᐎᓂᐙ	-11.1848
ᐃᑴᐎ	-11.1861
ᐱᒧᓭᐙ	-11.1877
ᐐᑕᒪᐙᑫ	-11.188
ᐁᐊᔮᔭ	-11.1884
ᑫᑭᒋ	-11.1884
ᑳᑮᑑᑕ	-11.189
ᑳᐅᒌᒪᑲ	-11.1894
ᓵᑲᐊᒧ	-11.1908
ᑮᑮᐌᐱᒫᑎᓯᐃ	-11.1912
ᑳᑮᐊᓂ	-11.1925
ᔥᑳᓂ	-11.1926
ᐁᑮᐸᐹ	-11.1943
ᑮᒋᑭᐌᓯ	-11.1948
ᓈᓯᑳ	-11.1954
ᑲᑴᒋᐃᑰ	-11.1961
ᐃᓀᓂᒥᑯ	-11.1962
ᐊᐸᓂ	-11.1963
ᐁᐊᑕ	-11.1964
ᔒᔥ	-11.1965
ᑳᐃᔑᐊᑕᐌᑕ	-11.1972
ᐁᐃᓇ	-11.1974
ᑖᐎᓂ	-11.1983
ᒨᒪᑲ	-11.1994
ᒋᑭᑭᓄᐊᒫᑫ	-11.1994
ᐸᐸᑭᑌ	-11.1997
ᑮᑮᐌᐱᒫᑎᓯᐋ	-11.2012
ᐁᑭᑐᐙ	-11.2013
ᐸᑭᑎᓇᒫᑰ	-11.2033
ᐌᓂᔑᔑᓂᓂ	-11.2038
ᒋᐃᔑᒋᑫᐙ	-11.2043
ᑳᑮᒥᓄ	-11.2049
ᐸᐃᐌᐗ	-11.2058
ᐙᐸᑕᒧᐗ	-11.2067
ᐊᐎᐋ	-11.2074
ᒋᑭᑫᒋᑳᑌ	-11.2099
ᐃᑕᒧᐙ	-11.2104
ᑳᓱᐙ	-11.2108
ᑆᓇᐎᒋᑫ	-11.211
ᓃᒋᑭᐌᓯ	-11.2119
ᐲᓈᐙ	-11.2122
ᒋᑲᔥᑭᑑᔮ	-11.2127
ᐅᐐᑎᑫᒫᑲ	-11.2129
ᑲᒀᑕᑭᐃᑯ	-11.2131
ᓈᑕᒪᐎ	-11.2138
ᓈᑾᓯᓂᓂ	-11.2139
ᒪᑏ	-11.2143
ᓂᑖᒪᒋᑑᑕ	-11.2148
ᒥᓄᑑᑕᐎ	-11.2154
ᒋᑑᑕᐎ	-11.2178
ᐁᑲᔥᑭᑑ	-11.2197
ᑮᐊᑐᒥᑯ	-11.2217
ᐅᑕᔭᐄ	-11.2217
ᑭᑲᐱ	-11.2243
ᑮᐱᐅᒌ	-11.2253
ᐁᑎᐯᓂᒥᑯ	-11.226
ᒋᐅᒌ	-11.2266
ᐃᓀᓂᒥᑰ	-11.228
ᐁᑮᐃᔥᒀ	-11.2282
ᐁᑮᑌᐺᑕ	-11.2294
ᒫᕒ	-11.2296
ᑭᑮᓅᑖ	-11.2306
ᓃᔭ	-11.2307
ᐊᓉᐱᐎ	-11.2311
ᒋᑳᑌᑭ	-11.2311
ᑯᐲ	-11.2313
ᑳᐐᓀᑖᑾ	-11.2314
ᑳᑭᑭᔥᑳᑯ	-11.2315
ᑮᐗᓂᔥᑳ	-11.232
ᒫᑾ	-11.2322
ᐃᔑᒦᓂᑰᐎᓯ	-11.2324
ᑑᑕᒧ	-11.2332
ᒋᓈᑾᓂᓂ	-11.2348
ᒋᐐᑎᑫ	-11.2353
ᐸᑭᑎᓈᐙ	-11.2367
ᐅᔑᐲᐊᒪᐎ	-11.2369
ᒥᓄᐐᒌᑎ	-11.2374
ᒋᓂᔑᐗᓈᑕ	-11.239
ᑳᑮᐊᑐᒥ	-11.2393
ᐅᑭᒫᐗᐱ	-11.2396
ᑳᑮᓂᓯ	-11.24
ᐅᐐᑎᑫᒫᑲᓂ	-11.2408
ᓇᑲᒋ	-11.241
ᒥᓉᑕᒧᐎ	-11.2419
ᑮᒋᑭᐌ	-11.2427
ᓂᑖᐎᑭᐋ	-11.2429
ᓂᑮᐃᔑᒋᑫ	-11.2444
ᐃᓂᓀᒀ	-11.2448
ᒫᓀᑕᒧ	-11.2448
ᐃᑰᔮ	-11.2455
ᐊᑐᒥᑰ	-11.2472
ᐃᓂᐌ	-11.2482
ᐅᔑᑕᒪᐎ	-11.2487
ᒋᒥᓉᑕ	-11.2488
ᐅᑮᓅᑖ	-11.2493
ᐯᐸ	-11.2506
ᑮᐋᐸᑕᓂᓂ	-11.2512
ᐁᑮᐅᒋᒋᓭ	-11.2514
ᐱᒫᑎᓯᓰ	-11.2516
ᑭᑭᓇᐙᑕᔕᑫᔓ	-11.2522
ᑕᔑᒫᐙ	-11.2522
ᑕᐃᑭᑐ	-11.254
ᒫᒪᑳᑌᑕ	-11.2549
ᐁᒥᓉᑕ	-11.255
ᒪᐎᓀ	-11.2553
ᔔᒥᓈᑎ	-11.2568
ᐃᓀᑖᑯ	-11.2588
ᐗᑣ	-11.2592
ᑫᑑᑕᐎ	-11.2593
ᓵᐸ	-11.2612
ᐃᔑᐎᓈ	-11.2624
ᐸᓂᐅ	-11.2624
ᑭᑭᓄᐊᒪ	-11.2641
ᐎᓈ	-11.2643
ᓅᑳᑎᓯ	-11.2652
ᑖᓱ	-11.2674
ᐐᒋᐃᑯᐙ	-11.2684
ᑳᐐᒌᐎᑯ	-11.2684
ᒧᐎ	-11.2685
ᒥᓍᒋᐋ	-11.2689
ᓃᐸᐎᐗ	-11.2692
ᑲᑮᑖᐌᑕ	-11.2696
ᑎᐸᐊᒪ	-11.27
ᑎᐹᑯᓂᑫᐎᑮᔑᑲ	-11.2712
ᐅᑲᑴ	-11.2712
ᑎᐸᐊᒫ	-11.2718
ᐴᓀᑕᒫ	-11.2733
ᐸᑭᑎᓂᑯ	-11.2733
ᐃᔑᐊᔮᔮ	-11.2736
ᐐᓴᑫᑕ	-11.2756
ᐃᓀᑕᒧ	-11.276
ᒋᑲᓇᐌᓂᒥ	-11.2766
ᐁᔑᓯᓂᓂ	-11.2773
ᒋᐸᐹ	-11.2778
ᑌᓴᐱ	-11.2802
ᐁᐅᑖᐱᓇ	-11.2808
ᑭᐐᒌᐎ	-11.2812
ᒋᑕᔑᑕ	-11.2821
ᐸᑭᒌᓯ	-11.2826
ᓀᓈᐎ	-11.2831
ᒪᐎᓇᑰ	-11.2832
ᐅᑮᐸᑭᑎᓈ	-11.2834
ᑭᑭᓇᐙᒋᐃ	-11.2841
ᒥᓴᐌᑕᒪ	-11.2853
ᑭᑎᒫᑭᓯ	-11.2865
ᒦᒋᓈᑳᑌ	-11.2865
ᐯᔑᑴᑖᑯᓯ	-11.2866
ᒫᒪᑳᑌᑕᒨ	-11.2869
ᐁᑭᑫᑕᓯ	-11.287
ᑮᐋᐸᒋᐋ	-11.2872
ᐐᒋᑭᐌᔨ	-11.2875
ᒪᔥᑲᐙ	-11.2877
ᑲᔥᑮᑮᐎ	-11.2892
ᓂᓇᑕᐌᓂᒫ	-11.2895
ᐙᓴᑯᓀ	-11.29
ᐸᑴᐱᓈ	-11.2901
ᔔ	-11.2901
ᑰᐹᑌᓂᒥ	-11.2903
ᑮᐗᔥᑴ	-11.2904
ᒦᓂᑰᐎ	-11.2908
ᐐᑕᓄᑮᒥ	-11.291
ᐸᓯᑴᐱᓱ	-11.291
ᓃᔥᑕᓇᔑᓃᐎ	-11.291
9	-11.291
ᐅᓇᑕᐌᓂᒫ	-11.291
ᐐᓴᑳᐱᓀ	-11.291
ᑎᑎᐯᔩᑭ	-11.291
ᑳᑎᐯᓂᒪ	-11.291
ᓈᓂᒥᑕᓇ	-11.291
ᐌᑕᑳᓀᓯ	-11.2911
ᐸᑲᒫᔑ	-11.2911
ᑭᑑᔑᐲᐊᒫᑰ	-11.2911
ᒫᑲᑕᓬᐊᐎᑴ	-11.2911
ᓰᑲᐊᑕᐙ	-11.2911
ᑭᑫᑌᔭᐋᒥᐙ	-11.2911
ᒥᔑᐱᔑ	-11.2911
ᔔᒥᓈᐴ	-11.2911
ᐃᔑᓇᒧᐎ	-11.2911
ᐊᑳᓰᓄ	-11.2911
ᑭᑭᓇᐙᐸᒥ	-11.2911
ᑯᔥᒀᐙ	-11.2911
ᓇᓇᐁᑕᒥᐋ	-11.2911
ᐊᔨᔑᓭ	-11.2911
ᓅᑕᔮᐹᑴ	-11.2911
ᑭᑭᔥᑲᐙᐗᓱ	-11.2911
ᐸᑕᑯᔥᑳᑯ	-11.2911
ᑭᑕᓇᒥ	-11.2911
ᑭᐐᒋᐅᑌᐺᑕᒨᒥ	-11.2911
ᐊᑲᐙᑌ	-11.2911
ᐱᒥᓂᔕᐃᑫ	-11.2911
ᒪᐎᓀᔥᑲᐙ	-11.2911
ᐱᒋᑯᓇᔦ	-11.2911
ᒪᑕᐐᐃᑎᓱ	-11.2911
ᐙᓭᓈᑯᓯ	-11.2911
ᐅᑭᒋᐊᓇᒥᐁᐎᑲᒥ	-11.2911
ᑮᐃᔑᐎᒋᑲᓂᐎ	-11.2912
ᐅᓂᐴ	-11.2912
ᐙᑌᓭ	-11.2912
ᓈᐗᑴ	-11.2912
ᑳᑕᓱᐯᔑᑯ	-11.2912
ᐗᓂᒋᑫ	-11.2913
ᐁᑕᓶᐙᓇᑭᓯ	-11.2914
ᑰᓯᓈ	-11.2915
ᐊᐲᑌᑖᑯᓯᓰ	-11.2915
ᑳᐱᒥᓭ	-11.2915
ᐯᔑᑯᑎᐸᐃᑲ	-11.2915
ᑭᑎᔑᑲᓅᓂ	-11.2916
ᑭᑭᓇᐙᒋᒋᑲ	-11.2916
ᓈᑯᐃᑎᓱ	-11.2916
ᑭᑕᑭᒫ	-11.2916
ᐃᔥᑾ	-11.2916
ᑭᐱᑎᓈ	-11.2916
ᔖᑯᐙᓈ	-11.2917
ᑭᑫᑖᑯᓯ	-11.2917
ᐱᓱᑫᔑ	-11.2918
ᐅᑎᓇᐌᒫᑲᓇ	-11.2919
ᒫᔑᒋᑫ	-11.292
ᒋᐅᑭᒫᑲᑕ	-11.292
ᐱᒫᑎᓰᐋ	-11.2921
ᐅᑖᑲᔥᑭᑑᓰ	-11.2922
ᓇᑴᑕᒨ	-11.2922
ᑲᔥᑭᒋᑳᑌ	-11.2922
ᐯᔓᓈᑾᓂᓂ	-11.2923
ᑲᕒᐄᑲ	-11.2923
ᑭᒋᐊᓇᒥᐁᐸᒀᓀᑲᒥᑯ	-11.2924
ᐅᑮᐅᑎᑎᓈ	-11.2927
ᑳᔖᓂ	-11.2928
ᓂᐴᒥ	-11.2928
ᐃᓈᐸᒋ	-11.2928
ᐸᑯᓭ	-11.2928
ᑳᑲᔥᑭᐁᐎᓯ	-11.2929
ᐅᐴᑖᒋᑲ	-11.2929
ᐐᒋᐐᓯᓃᒥ	-11.293
ᑳᐅᑭᒫᐌᑖᑯᓯ	-11.293
ᑯᑖᑎ	-11.293
ᐸᒀᓀᑲᒥᑯ	-11.2931
ᐅᑮᒥᑲᓰ	-11.2932
ᑳᑮᐊᔓᑕᒪᐎ	-11.2932
ᑭᑭᔐ	-11.2934
ᔔᒥᓈᑎᑯ	-11.2935
ᑎᑎᐱ	-11.2937
ᐹᑏᓄᓈᓂᐗᓂᓂ	-11.294
ᑳᔭᔮ	-11.2943
ᑯᒋᐃᑰᐎ	-11.2943
ᑳᑮᐅᓀᓂᒫ	-11.2944
ᐁᑮᐋᐸᒋᐋ	-11.295
ᒣᓂᑲᓈ	-11.2953
ᐁᑎᐯᓂᒥᓇ	-11.2953
ᐅᓈᐯᒥᒫ	-11.2955
ᑭᑐᒋ	-11.2958
ᒋᑭᑫᑕᒧᐙ	-11.2959
ᑲᓇᐌᑕᒫᑯ	-11.2962
ᐅᑭᒋᐊᐱᐎᓂ	-11.2966
ᒋᐱᓯᑕ	-11.2972
ᑕᐃᓇᑭᒫ	-11.2975
ᓂᑎᔑᓂᑳᓱᐎ	-11.2978
ᐁᐅᑯᓯᓯᒥᑯ	-11.2979
ᑆᓇᐎᑑ	-11.298
ᐁᐲᑯᓇ	-11.2983
ᒋᐊᓄᑮ	-11.2987
ᐁᓇᓈᑯᒫ	-11.2987
ᑫᐸᑭᑎᓇ	-11.2988
ᐐᑾᑎᐎ	-11.2988
ᒋᐃᓀᑕ	-11.2988
ᑮᓃᐸᐎᐗ	-11.2994
ᒥᓂᑴᓰ	-11.2994
ᐗᔦᔑᐋ	-11.3
ᐲᐎᑌᐎ	-11.3002
ᐅᑌᒐᓬᐃᒥᐙ	-11.3002
ᐃᔑᓂᑳᓱᐗ	-11.3003
ᐁᑕᔑᒫ	-11.3006
ᐅᑮᐅᑎᓯᑯ	-11.3006
ᒥᓍᐸᒥᑯᐙ	-11.3007
ᓂᓯᑕᐎᓇᓰ	-11.301
ᐁᑭᔒᐌ	-11.3015
ᐃᔑᐐᒋᐃ	-11.3019
ᑳᑲᑮᐹᑎᓯ	-11.3023
ᑮᔑᑭ	-11.3024
ᑕᐃᔑᐌᐸ	-11.3026
ᑎᓯᐙ	-11.303
ᐁᐋᑯᓯ	-11.3034
ᑳᑾᔭᒀᑎᓯ	-11.3037
ᐯᑭᓯ	-11.3044
ᐁᑮᐃᓀᑕ	-11.3044
ᐲᒋᓂᔕᐅᑯ	-11.306
ᐅᑖᐱᓇᒪᐎ	-11.3062
ᒋᑎᐯᓂᒫ	-11.307
ᑮᑳᑎᐎ	-11.3072
ᐁᑮᐅᑖᐱᓈ	-11.3074
ᑎᐹᒋᒫᐙ	-11.3075
ᒥᑳᑯ	-11.3076
ᐁᐋᐎᓂ	-11.3076
ᓅᑖᓈᐙ	-11.3077
ᐁᑮᒦᓂᑯ	-11.3078
ᐊᔓᑕᒪᐎ	-11.3079
ᑎᐹᑯᓂᑲᓂᐎ	-11.3084
ᐁᒪᔥᑲᐎᓰ	-11.3084
ᐃᔥᒀᑌᒥ	-11.3086
ᑕᓯᑭ	-11.3092
ᐐᒋᐃᑯᓰ	-11.3092
ᑳᓂᔑᐌ	-11.3097
ᑳᐅᑖᐱᓇ	-11.3101
ᑮᐌᐱᒫᑎ	-11.3108
ᑎᐹᒋᒥᑯ	-11.3111
ᓂᐐᓱᐎ	-11.3115
ᑮᐴᓯ	-11.3117
ᑮᓂᑖ	-11.3119
ᑫᑌᒪᓯᓇᐃᑲ	-11.312
ᒫᒋᑑ	-11.3122
ᑎᐸᐃᑫᐎ	-11.313
ᑮᑕᑯᔑ	-11.3131
ᐃᔑᒫᒌ	-11.3132
ᐋᔕᐗᐊ	-11.3134
ᐅᒦᓂᑰ	-11.3137
ᐃᔑᐎᓈᐙ	-11.3144
ᑭᑭᓄᐊᒫᑰ	-11.3154
ᒋᐯᑭ	-11.3156
ᐸᑭᓯᓂᓂ	-11.3166
ᔥᑳᒪᑲ	-11.3169
ᑭᑭᓄᐊᒫᑎ	-11.3175
ᑌᐐᓯᓂ	-11.318
ᐅᑲᔥᑮᑮᐎᓂ	-11.3191
ᐅᑭᒋᐊᓇᒥᐁᐎᑲᒥᑯ	-11.3206
ᐅᑎᑭᑐᐎᓂᐙ	-11.3207
ᐁᑮᐃᔑᓈᑯᓯ	-11.3212
ᑕᔑᑕᒪᐙ	-11.3213
ᓂᑲᐅᒋ	-11.3214
ᑏ	-11.3215
ᑭᒫᐎ	-11.3221
ᐙᐱᑾ	-11.3223
ᒫᓀᑕᒣ	-11.3224
ᑳᐃᔑᐲᐃᑳᑌᓂ	-11.3231
ᒋᒪᒋ	-11.3237
ᒋᒪᔥᑲᐌᑕ	-11.3245
ᑳᐃᔑᓂᑖ	-11.3248
ᑕᑯᓈᐙ	-11.3249
ᐗᔦᔑᑫ	-11.325
ᐊᑕᐌᑕᒪ	-11.3263
ᐐᒋᐃᑰ	-11.3267
ᑳᑲᑮᑖᐌᑕ	-11.3284
ᐲᑑᓂ	-11.33
ᑫᐊᓂ	-11.3305
ᑭᒋᓅᑎ	-11.3308
ᐃᔑᑭᑭᓄᐃᑫ	-11.331
ᒥᓄᐊᓄᑮᐎ	-11.3319
ᐃᔑᒋᑫᓈᓂᐗ	-11.3323
ᐸᐲ	-11.333
ᑳᐊᔮᔭ	-11.3338
ᑮᒦᑭᐌ	-11.3353
ᑕᔂ	-11.3357
ᑭᑎᑭᑐᐎ	-11.3359
ᑑᑕᐎᔭ	-11.3362
ᑳᐙᓭᔮ	-11.3381
ᑮᒥᒋ	-11.3382
ᐅᔕᐌᒋᑫᐎᓂ	-11.339
ᒋᐐᒋᐃᑯ	-11.3395
ᔕᐌᑖᑯᓯᐎ	-11.3402
ᑾᐃᑲ	-11.341
ᑳᑮᑭᑫᒋᑳᑌᓯ	-11.3414
ᑳᐃᒋᑳᑌᓂ	-11.3419
ᐅᓇᔓᐌᐎᑭᒫ	-11.3422
ᒦᑳᑎᐎ	-11.3424
ᑳᐃᔑᑯᑖᓀᑖᑾ	-11.3442
ᓂᐳᔮ	-11.3443
ᒋᑎᐯᓂᒥᑯᓯ	-11.3444
ᒌᑫᑕᒧᐎ	-11.3446
ᐱᓯᑕᐙᓯ	-11.3469
ᒋᐅᑎᓯ	-11.347
ᐙᐸᒣ	-11.3492
ᔥᑭᓀ	-11.3492
ᒋᐐᒋᐋ	-11.35
ᓱᐙ	-11.3503
ᐁᑭᑭᔥᑳᑯ	-11.3506
ᐅᑭᒫᑲᑕᐙ	-11.3521
ᑮᓃᑳᓂ	-11.3525
ᐃᔥᐸ	-11.3534
ᑳᐙᐸᑕ	-11.3534
ᐐᑕᒪᐎᑣ	-11.3548
ᐊᐗᑳ	-11.3548
ᐸᑭᑎᓈᓰ	-11.3549
ᐅᑕᓇᒥᐋᐎᓂ	-11.3556
ᐱᒥᔑ	-11.3588
ᑖᐃᑭᑐᓰ	-11.3589
ᑲᓬ	-11.359
ᐸᑭᑎᓇᒫ	-11.3615
ᓇᓇᐊ	-11.3616
ᐸᒦᑖᑫ	-11.3624
ᐃᓇᑭᒥᑰ	-11.3639
ᐊᑕᐙᐸ	-11.3645
ᐃᑭᑑᒪᑲᓂᓂ	-11.3647
ᓂᑮᐐ	-11.3661
ᒣᔮ	-11.3664
ᑲᓂᓂᑭ	-11.3671
ᐊᓄᑳᑕ	-11.3674
ᑭᒋᑫᑰ	-11.3676
ᒋᑫᒪᑲᓂᓂ	-11.3681
ᓰᑲᐊᑖ	-11.3683
ᑭᑭᔥᑳᑯᓰ	-11.3685
ᓇᑲᓈᐙ	-11.3688
ᐐᑕᒧᐙ	-11.3714
ᐊᔮᓰᐗ	-11.3715
ᐙᐸᒫᓰ	-11.3733
ᑭᑫᑕᒧᐎ	-11.3742
ᒋᐸᑭᑎᓈ	-11.3751
ᒋᐃᔑᐊᔮ	-11.376
ᑑᑕᐎᓀ	-11.3761
ᑑᔭ	-11.3763
ᓬᐄ	-11.3777
ᑳᑾᔭᑯ	-11.3778
ᑯᑖᓀᑖᑾᓂᓂ	-11.378
ᑭᓵᑭ	-11.3804
ᒋᐃᔑᐎ	-11.3804
ᑭᑎᓈ	-11.3814
ᑳᐊᐲᑌᑖᑯᓯ	-11.3831
ᑳᒪᒋᓈᑾ	-11.3833
ᐊᓂᑮᐌ	-11.3834
ᒨᔥᑭᓀᔥᑳᑯᐙ	-11.3876
ᐙᐸᑕᐃᔑ	-11.3893
ᑌᐺᑕᓯ	-11.3914
ᑮᐃᔑᒋᑫᓰ	-11.3916
ᐯᐹ	-11.3927
ᒥᓄᐃᔑᐌᐱᓯ	-11.3945
ᑳᐱᒧᓭ	-11.3947
ᐐᑕᒪᐗ	-11.3949
ᐊᓅᑮ	-11.3958
ᐅᔑᐲᐃᑫ	-11.4016
ᑳᑮᐃᔑᒋᑫᐙ	-11.4045
ᐙᐱᑲᓂ	-11.4048
ᐁᐐᐱ	-11.4058
ᐋᓇᐌᑕ	-11.4065
ᐅᑯᓯᓯᒥᑯ	-11.4074
ᐅᓇᔓᐙ	-11.4082
ᐊᕒ	-11.4083
ᔑᑑ	-11.4088
ᓂᓯᑎ	-11.4096
ᒋᐸᒥᐃ	-11.4097
ᔑᒫ	-11.4098
ᑮᑲᑴᑗ	-11.4099
ᓅᑖᑎᓯ	-11.4104
ᑫᒦᓂ	-11.4106
ᑕᐙᓯᐙᐙ	-11.414
ᑮᒥᑯᔥᑳᑌᑕ	-11.4146
ᑳᐊᐱ	-11.4155
ᐅᑌᐺᑕᒧ	-11.4161
ᐅᑖᐱᓇᒣ	-11.4163
ᐱᒫᒋᐃᐌ	-11.4166
ᒋᓂᑖᐎᑭ	-11.4167
ᐸᒥᐃ	-11.4176
ᑎᓄᐎᒥ	-11.4182
ᐅᓵᑭᐃᐌᐎ	-11.4195
ᐊᑯᓈ	-11.4218
ᑮᐃᑭᑐᑯᐸ	-11.4224
ᑕᑕᔑ	-11.4235
ᐃᓀᓂ	-11.4262
ᓯᐙᓈᓂ	-11.4263
ᐲᐎᑌ	-11.4266
ᐅᔫᓯ	-11.4268
ᐊᐹ	-11.4271
ᓈᓈᑲᑕᐌᑕᒧ	-11.4288
ᐃᓀᑖᑾᑭ	-11.4292
ᒫᒥᑲᐎᓄᑕᐎ	-11.4295
ᑌᓂᒫ	-11.4298
ᐐᓯᓃᒫ	-11.4301
ᑮᐊᓂᒫᒑ	-11.4302
ᒋᔕᔒᐯᑕ	-11.4309
ᐅᔥᑭᓃᑭ	-11.431
ᕒᐄᔭ	-11.431
ᐅᑕᔕ	-11.4311
ᐅᓈᑲ	-11.4311
ᑯᑖᓀᑖᑾ	-11.4317
ᔒᐹ	-11.4319
ᒥᓉᑕᒥᐃ	-11.4321
ᐅᑎᑎᓈ	-11.4321
ᐃᔥᐯᓂ	-11.4332
ᑭᑎᓀᑖ	-11.4339
ᐱᓬᐃᐹ	-11.4339
ᐊᑶᓬᐊ	-11.4339
ᐌᑭᒫᐌᑖᑯᓯ	-11.4339
ᐸᐹᒣᓂᒥ	-11.4339
ᐸᕒᐃᓯᓬᐊ	-11.4339
ᑳᐅᓅᑕᒫᐎᓂ	-11.4339
ᒋᐸᐹᒣᑕᓯ	-11.4339
ᓃᑳᓇᑭᓱ	-11.4339
ᐗᓯᑖᐎᓭ	-11.4339
ᐱᐁᓬᓯᐳᓬ	-11.4339
ᐸᐸᑭᓀ	-11.4339
ᐹᐹᐗᐃᑫ	-11.4339
ᒦᑴᒋᐌᓂᒥ	-11.4339
ᓂᑕᓄᑮᐋᑲ	-11.4339
ᓂᑖᐎᑭᓈᐗᓱ	-11.4339
ᓂᑯᑣᓯᒥᑕᓇ	-11.4339
ᐅᐱᓯᑲᓂᐎᓯ	-11.4339
ᐅᒥᓴᑖ	-11.4339
ᐊᔨᔑᒋᑫ	-11.4339
ᑭᑕᒑᑯᐙ	-11.4339
ᑭᔑᓱᐙᐱᓀ	-11.4339
ᒍ	-11.4339
ᒥᓍᑐᑌ	-11.4339
ᒪᔥᑲᐎᑮᔗ	-11.4339
ᓰᑲᐊᑕᐎ	-11.4339
ᐅᐱᓯᑲᓀ	-11.4339
ᐅᑎᓇᐌᒫᑲᓂ	-11.4339
ᐅᑰᐹᓯᓈᑫᐎ	-11.4339
ᐱᔅᑲᓀ	-11.4339
ᐴᓂᓭᓯᓄ	-11.4339
ᐸᐲᑾᑎᓈ	-11.4339
ᑮᔥᑭᔑᑲ	-11.4339
ᑲᒀᑕᑫᑖ	-11.4339
ᑳᑭᑌᑖᑯᓯ	-11.4339
ᑎᑎᐲᑭᓂᑲᓂ	-11.4339
ᒀᐱᑭᓯ	-11.4339
ᐅᑎᑎᓂᑯ	-11.4339
ᓂᒫᓇᒑᓂᔑᒪ	-11.4339
ᐁᔑᐌᐱᓯ	-11.4339
ᐅᔥᑲᔭᐄ	-11.4339
ᐊᔨᔑᑖ	-11.4339
ᑯᔥᑯᓭ	-11.4339
ᐅᑳᑭᑲᓂ	-11.4339
ᐅᓃᑭᐃᑯ	-11.4339
ᐸᑕᑭᑌ	-11.4339
ᑭᑌᐃᓈᓂ	-11.4339
ᐃᓇᑭᑎᓱ	-11.4339
ᓃᒥᓂᑫᓂ	-11.4339
ᑌᐺᔦᑖᑾ	-11.4339
ᓂᐯᐎᓂ	-11.4339
ᐃᔑᓂᑳᒋᑲᓂᐎ	-11.4339
ᓯᔮᑭᐃ	-11.434
ᐁᑲᓇᐙᐸᒥᑯ	-11.434
ᑲᓇᐌᒋᑳᑌ	-11.434
ᑳᐅᓃᒑᓂᓯᒥᑯ	-11.434
ᓇᓇᐊᓵ	-11.434
ᓂᓯᑐᑕᒧᐎ	-11.434
ᑴᑭᑳᐸᐎ	-11.434
ᓂᔑᐗᓈᒋᐋ	-11.434
ᑭᓇᑕᐌᑖ	-11.434
ᓇᑭᔥᑳᑰ	-11.434
ᑭᑌᐺᑕᒧᐎᓂᓈ	-11.4341
ᑭᔑᑌ	-11.4341
ᑳᐅᑌᑌᒫᐎ	-11.4341
ᐱᒫᒋᐃᑎᓱ	-11.4341
ᐅᒥᓍᑎᓰᔑᑑ	-11.4341
ᒥᑖᔑᓃᐎ	-11.4341
ᓃᓀᑕ	-11.4341
ᑭᑎᑫᐗᑮ	-11.4341
ᑭᑎᔑᒋᑫᐎᓂᐙ	-11.4342
ᐙᓄᒀ	-11.4342
ᑕᓀᑖᑯᓯ	-11.4342
ᑳᐃᓇᒧ	-11.4342
ᐱᓬᐃᔭ	-11.4343
ᐊᔨᓈᐱ	-11.4343
ᑳᒥᓍᑎᓰᔑᑑ	-11.4344
ᐅᑖᓂᓴ	-11.4344
ᑕᓇᓄᑮ	-11.4344
ᐯᑭᐃᑎᓱ	-11.4345
ᓂᔥᑫᓂ	-11.4345
ᑕᑾᑭᒥ	-11.4347
ᑭᒋᐅᓇᔓᐌᐎᑭᒫ	-11.4348
ᑰᓂᑫ	-11.4348
ᑯᐹᑌᓂ	-11.4348
ᑭᐐᔭᐎ	-11.4349
ᐊᒑᑯᐎ	-11.4349
ᓬᐄᐸ	-11.4349
ᑳᐃᔑᐐᐸᑲᒥᑳ	-11.435
ᒌᑲᑲᒥᑭᓯ	-11.435
ᐅᓈᐸᒥᑯ	-11.435
ᑳᑮᐃᔑᓂᑳᑌᓂ	-11.435
ᐊᔮᒀᒥᒫ	-11.4351
ᐅᑮᐅᑖᐱᓈᓈᐙ	-11.4351
ᒌᑫᑕᒨ	-11.4351
ᐸᑫᒋᑲ	-11.4351
ᑮᓀᑕ	-11.4352
ᒥᓈᓯᑲ	-11.4355
ᑲᑴᔖᑰᓱᑎ	-11.4355
ᐱᔑᑭᐗ	-11.4357
ᒪᓯᓇᐊᒪᐙ	-11.4357
ᑳᐐᑕᒪ	-11.4358
ᐅᐸᒦᑖᑫ	-11.436
ᐊᑖᐙ	-11.4361
ᑮᑮᔑᒋᑳᑌ	-11.4361
ᑮᐊᓄᑮ	-11.4362
ᐸᐸᑴᐱᓈ	-11.4362
ᒋᑭᐌᓯᐗ	-11.4363
ᐅᔑᒫᑲᓂᔒ	-11.4364
ᐅᔥᑭᓃᑭᐗ	-11.4365
ᐐᒌᐙᑲᓇ	-11.4366
ᔖᔖᑯᐌ	-11.4366
ᐅᒋᒌᑾᓇᐲᑖ	-11.4367
ᐅᓯᑯ	-11.4368
ᑲᓇᐌᑖᑯᓯ	-11.4368
ᐊᓂᑲᑮᔑᑲ	-11.4369
ᑮᒋᐱᒫᑎᓰ	-11.4373
ᐃᓇᓯᑯ	-11.4376
ᓂᓯᑐᑕᒣ	-11.4376
ᐹᐱᓄᑕᐙᐙ	-11.4381
ᑕᒥᓉᑕ	-11.4383
ᐙᐱᓰ	-11.4383
ᑮᐋᓉᑕ	-11.4384
ᓂᑲᒦᓈ	-11.4384
ᑲᑳᓱᒫ	-11.4386
ᒋᓂᐳᔮ	-11.4387
ᔖᔖᑯᐌᐗ	-11.4387
ᑭᑫᑖᑾᓯᓅ	-11.4388
ᐐᓯᓂᐗ	-11.4392
ᐁᑮᐊᓇᒥᐋ	-11.4393
ᔕᐌᓂᒥᑯᐙ	-11.4394
ᐁᐐᐊᑕ	-11.4395
ᒫᒫᑕᐆ	-11.4398
ᒌᑫᑕᒫ	-11.4398
ᑌᐊᐲᑌᑖᑯᓯᓰ	-11.4398
ᐅᓃᒑᓂᓯᐙ	-11.4399
ᑲᓅᑕᒫᓱ	-11.4399
ᑳᐅᑯᓯᓯᒥᑯ	-11.44
ᔨᔥ	-11.4403
ᑮᑕᓇᒥᐋᓈ	-11.4403
ᐁᐙᐸᒥ	-11.4405
ᐁᐱᒫᒋᐃᑰᐎ	-11.4406
ᐁᐅᒋᑎᐯᑖᑯᓯ	-11.4407
ᑮᐊᐸᑑ	-11.4409
ᑳᑮᐙᐸᒪ	-11.4411
ᐁᔮᐎᓂ	-11.4417
ᐅᑭᑭᔥᑭᑲᓂᐙ	-11.4418
ᐱᒫᒋᐃᐌᐎ	-11.4424
ᑭᑭᑫᓂᒥᑰ	-11.4424
ᑭᒋᐴᑖᒋᑲ	-11.4425
ᒦᑳᓱᐎ	-11.4426
ᑳᑑᑕᐙ	-11.4426
ᐸᑫᓯᐎ	-11.4426
ᐊᓄᑮᑕᐎ	-11.4427
ᑫᐃᔑᒋᑫᐙ	-11.4428
ᐊᑮᐗᓂᓂ	-11.4429
ᐃᓇᑭᓱ	-11.4429
ᓇᐃᓭ	-11.4429
ᐙᐱᔥᑳᓂ	-11.4433
ᐁᑮᐊᑐᒫ	-11.4433
ᑮᑕᑯ	-11.4434
ᐁᑮᑮᐌᐱᒫᑎᓯᐃ	-11.4434
ᐐᑑᑳ	-11.4434
ᑳᑾᔭᑾ	-11.4437
ᐐᔭᐎᐙ	-11.4441
ᐁᐊᓇᒥᐋᔮ	-11.4441
ᒦᑭᐙ	-11.4442
ᑳᐃᔥᐯᑖᑯᓯ	-11.4445
ᔒᑫᓂᒫᐙ	-11.4446
ᒋᑾᔭᒀᑎᓯ	-11.4447
ᐁᑮᐊᐲᒋ	-11.4448
ᒋᐊᒸ	-11.445
ᑮᔐᑕ	-11.4454
ᑳᑮᐱᐅᒌ	-11.4456
ᑳᑮᐙᐱ	-11.4463
ᑮᐅᒌᐗ	-11.4464
ᓂᑎᑭ	-11.4467
ᒋᐱᒫᒋᐋ	-11.4468
ᐙᐸᑕᒧ	-11.4468
ᓂᑕᔮᐙ	-11.4471
ᑳᑮᐅᔑᒋᑳᑌ	-11.4476
ᐊᑐᒪᒀ	-11.4483
ᒪᑭᓯ	-11.4484
ᒋᐙᐸᒋᑳᑌᓂ	-11.4487
ᐐᑑᑲ	-11.4488
ᑳᑌᐺᔦᑖᑯᓯ	-11.4491
ᐁᑮᐃᔑᐎᓂ	-11.4493
ᐋᐱᑖ	-11.4497
ᒋᐴᓂᑑ	-11.4497
ᐅᑎᓯᑰ	-11.4501
ᒪᓂᑑᐎ	-11.4503
ᒋᑕᑯᔑ	-11.4504
ᑳᐙᐸᑕᒪ	-11.4504
ᔒᑫᓂᒥᑯᐙ	-11.4505
ᐃᓀᑕᑫ	-11.4506
ᐅᒦᒦ	-11.4509
ᑳᐗᓂᔑ	-11.4509
ᑕᒪᐎᓀ	-11.4512
ᒋᐅᑎᑕ	-11.4512
ᑕᐊᔮᐗ	-11.4513
ᐅᑭᒫᐎᓂ	-11.4519
ᑳᒪᑗ	-11.4538
ᑳᑮᐃᔥᒀᐱᒫᑎᓯ	-11.4539
ᓵᑭᐃᑎᐎᓂ	-11.4543
ᑭᑫᑌ	-11.4544
ᐴᓀᑕᒫᑰ	-11.4546
ᑳᑭᑭᓄᐊᒪᐎ	-11.4548
ᑭᑑᒋᑎᐯᑖᑯᓯ	-11.455
ᐁᒦᑭᐌ	-11.4552
ᒥᑯᔥᑳᑌᑕᒧ	-11.4556
ᐅᑕᔮᐙ	-11.4556
ᐱᓈᓯᑲᐙᐙ	-11.4561
ᐅᑕᓄᑮᐎᓂ	-11.4565
ᑮᐌᓂᔕᐙ	-11.4574
ᑮᒫᒥᑲᐎ	-11.4576
ᐎᓂᓃᒪ	-11.4579
ᑕᑮᐌ	-11.4582
ᑭᒪᒋᑑᑕᒧᐎ	-11.4585
ᐁᒥᔅ	-11.4597
ᑳᑮᒦᓂᓇ	-11.4615
ᑎᐹᒋᒧᐗ	-11.4622
ᐅᔑᐲᐃᑳᑌᑭ	-11.4628
ᑫᑲᔥᑭᑑ	-11.4628
ᑭᑭᔥᑳ	-11.4635
ᔑᔑᓈ	-11.4635
ᐅᑮᑕᑯ	-11.4651
ᐱᒥᓂᔕᐅᑰ	-11.4669
ᑯᓂᑫ	-11.4678
ᒋᐃᔑᓈᑾ	-11.4686
ᓵᑭᐊ	-11.469
ᐁᐐᐐᒋ	-11.4692
ᑲᐹ	-11.4694
ᐗᒌ	-11.4702
ᒥᑯᔥᑳᒋᐃ	-11.4728
ᑕᔑᑯ	-11.4734
ᐁᒪᐎ	-11.4742
ᒋᐊᔮᐗ	-11.4744
ᑌᐺᐗᓂᓂ	-11.475
ᒦᓴᑯ	-11.4756
ᑭᑎᓄ	-11.4779
ᒋᐊᐲᒋ	-11.4785
ᓀᑕᒧᐙ	-11.4789
ᑳᑑᑕᒪ	-11.4804
ᐃᔑᓂᑳᑌ	-11.4821
ᒋᐋᐸᒋᑑ	-11.4824
ᐅᑖᐱᓂᑯ	-11.4825
ᓇᐃᑖᑯ	-11.4826
ᐊᓄᑮᔮ	-11.4831
ᐅᑮᓅᑕᐙ	-11.4842
ᑳᑮᒪᒋᑑᑕ	-11.4855
ᑑᑖᑯᐙ	-11.4855
ᑳᐃᔑᓈᑾᓂᓂ	-11.4856
ᑭᑮᐐᒋ	-11.4864
ᓈᓃᐸᐎ	-11.4871
ᑳᐙᐸᒥ	-11.4873
ᓰᐱ	-11.4874
ᐅᑎᓇᒧ	-11.488
ᐊᑕᐎ	-11.4881
ᓈᑕᒫᑯ	-11.4886
ᑕᓇᑖ	-11.4886
ᑕᔑᒋᑳᑌ	-11.4894
ᒋᐅᑎᓇ	-11.49
ᐅᓵᑭᐋ	-11.4909
ᐃᔑᒋᑫᑫ	-11.4913
ᑳᐃᔑᐎᓂ	-11.4929
ᓅᒋᑑ	-11.4947
ᑭᑫᑕᒫᐎ	-11.4955
ᐃᓀᑕᓯ	-11.4957
ᐸᑭᑎᓇᒧ	-11.4964
ᐁᑮᓂᑖ	-11.4965
ᒦᓂᓇᑰ	-11.497
ᑯᓯᔦ	-11.4974
ᐃᔑᐊᔮᐗ	-11.4985
ᐅᕒ	-11.4997
ᒥᑲᓰ	-11.502
ᐅᑖᓇ	-11.5023
ᐲᕒᐃ	-11.5061
ᑌᑖᑾᓂᓂ	-11.507
ᒋᐱᒧᓭ	-11.5071
ᐁᒨᔥᑭᓀᔥᑳᑯ	-11.5137
ᑮᐅᑕᑳᓀᓯ	-11.5138
ᑮᓅᑕ	-11.514
ᐅᔑᐃ	-11.5145
ᐊᐱᐎ	-11.5161
ᐅᑮᐐᒌᐙ	-11.5163
ᐱᒫᒋᐃᑰᔭ	-11.5168
ᐱᒫᔑ	-11.5193
ᑌᓯᓅ	-11.5196
ᓂᔑᐗᓈᑎᓯᐎ	-11.5215
ᐊᓇᒥᐁᑕᒪᐎᔑ	-11.5221
ᐅᔑᐲᐃᑳᑌᓂ	-11.5223
ᒋᒪᔥᑲᐌᑕᒥ	-11.5251
ᑲᒀᑕᑭᐃᑰ	-11.5263
ᑆᓇᐎ	-11.5263
ᐊᓄᑮᑕᐙᐙ	-11.5275
ᑎᐯᓂᒥᐌ	-11.5279
ᑳᑮᐃᓈᑯᓂ	-11.5288
ᐁᑲᓅᓂᑯ	-11.5288
ᐱᒥᓂᔕ	-11.5291
ᓂᔕᐅᑯ	-11.5301
ᓂᔑᐗᓈᑕᓂᓂ	-11.5302
2	-11.5303
ᓈᑾᓯᓄᑭ	-11.5317
ᑭᑭᔥᑲᒣ	-11.5328
ᑮᓂᔥᑳᑎᓯ	-11.5339
ᑕᐃᓈ	-11.5364
ᐙᐸᒫᓯᐙᐙ	-11.5384
ᓂᒫᓰ	-11.5402
ᐐᑕᒪᐎᓀ	-11.5431
ᑭᑎᑭᑐ	-11.5433
ᐁᑮᐐᑕᒪᐙ	-11.5435
ᒋᒦᓂᓀ	-11.5437
ᑭᑫᑕᒧᐗ	-11.544
ᑾᔭᑴᓂ	-11.5443
ᑲᓇᐙᐸᒫᐙ	-11.546
ᑭᑫᒋᑳᑌᓯᓄ	-11.5461
ᑭᐙᐸᒫ	-11.5466
ᑫᑮᐃᔑᒋᑫ	-11.5467
ᓬᐋᐃ	-11.5484
ᐅᓃᒑᓂᓯ	-11.5497
ᓯᐗᒀ	-11.5502
ᒥᓂᒀᑕ	-11.5506
ᓇᓈᑕᐙᐸ	-11.5518
ᒥᑖᒋᓂ	-11.552
ᐐᓴᑫᑕᒧᐎ	-11.5522
ᐁᐐᒌᐎᓇ	-11.5531
ᒋᐊᔮᐙ	-11.5555
ᒋᓂᔕᐅ	-11.5575
ᓇᔓᐌ	-11.5578
ᐱᓯᑕᓯ	-11.5582
ᑌᓂᑭ	-11.5593
ᐅᑕᔓᑕᒫᑫᐎᓂ	-11.5624
ᑕᓂᔑᐗᓈᑕ	-11.5627
ᐁᑲᑮᐹ	-11.5657
ᒋᑑᑕᒥ	-11.5665
ᐎᓂᓃᐎ	-11.5665
ᐅᒋᒥᓄᓭ	-11.5667
ᐊᔓᑕᒫᑎ	-11.5687
ᐅᑮᓰᑭ	-11.569
ᑕᓂᑖ	-11.5692
ᐃᔑᒋᑫᐋ	-11.571
ᐁᑮᓂᓯ	-11.5733
ᓰᑭᓈ	-11.5741
ᒪᑲᓯᓅ	-11.5763
ᒋᐊᔮᔭ	-11.5768
ᐴᓀᑕᒪ	-11.5768
ᑯᑖᓀᓂᒥ	-11.5772
ᑳᓱᐗ	-11.578
ᐅᑎᐹᒋᒧ	-11.579
ᒥᓍᒋᐃ	-11.5819
ᑮᑕᓇᒥᐋ	-11.5825
ᒫᔑᒥᑕᑎ	-11.5847
ᐁᑮᓇᑲᑕ	-11.5848
ᒥᓴᐌᓂ	-11.5857
ᓂᑎᓀᑕᒧᐎᓂ	-11.5864
ᐴᑖᒋᑲ	-11.588
ᑮᔖᑯᐌ	-11.589
ᓇᑲᑕᒧᐙ	-11.5902
ᐅᔑᐲᐊᒫ	-11.5903
ᑎᔑᓂᑳᓱᐎ	-11.5915
ᑎᐸᐃᑲᓀᔮ	-11.5916
ᓈᓯᑳᑰ	-11.5917
ᑳᑮᓇᑲᑕ	-11.5924
ᑳᑮᐅᔑᐲᐊ	-11.5926
ᓇᑴᑖ	-11.5927
ᑲᐸᕒᓂᔭ	-11.5931
ᐸᔭᑌ	-11.5931
ᑭᑫᓂᒫᓯ	-11.5938
ᐃᓈᓴᒥᑳᐸᐎ	-11.5939
ᐊᑯᓴᑲᐙ	-11.5947
ᓇᑭᔥᑲᐙ	-11.5948
ᑲᓇᐌᑕᒪ	-11.5957
ᐅᓀᓂᒥᑯ	-11.5957
ᑫᐃᔑᒋᑫᐃ	-11.5965
ᑭᔐᐹᐗᑲ	-11.5966
ᒸ	-11.5971
ᐊᐱᓅᒌᔑ	-11.5976
ᐋᓇᐌᓂᒫ	-11.5978
ᑭᑲᑴᒋᒥ	-11.5978
ᑲᓇᐌᒋᑫ	-11.5982
ᓇᐃᓂᑏᐎᑲᒥ	-11.5983
ᔖᑰᓱᒥ	-11.5983
ᐲᐌᓰᒪ	-11.5985
ᑭᐙᐸᑖ	-11.5988
ᐁᐅᑯᓯᓯᒥ	-11.5989
ᔣ	-11.599
ᓱᐎ	-11.5995
ᑰᐹᑌ	-11.5997
ᑭᑖᐅᒋ	-11.5997
ᓂᑖᐸᒋ	-11.5998
ᒫᓇᒑᓂᔑ	-11.5998
ᑕᐸᓯ	-11.6
ᑭᑎᓀᑕᒧᐎ	-11.6001
ᓈᑲᒋᐋ	-11.6002
ᒪᑲᑗ	-11.6003
ᐃᕒᐆᑎᔭ	-11.6006
ᑭᑭᓇᐙᒋᒋᑫ	-11.6006
ᐌᑭᒫᐙᑎᓯ	-11.6006
ᐐᑯᐲᒪᑲ	-11.6006
ᐲᓯᑲᐙᑲ	-11.6006
ᑕᐸᓭᓂᑎᓱ	-11.6006
ᑕᑌᐱᓇᒫᓱ	-11.6006
ᑰᐹᓯᓇᐙ	-11.6006
ᑳᐊᑳᓭᑖᑯᓯ	-11.6006
ᐅᔖᐗᔥ	-11.6006
ᐋᐃᑰᓂᔭ	-11.6006
ᐋᔕᐎᔥᑳ	-11.6006
ᐌᑯᓯᓯᒥ	-11.6006
ᐐᓯᓂᐎᓈᑎ	-11.6006
ᐙᓴᑯᓀᒋᑲᓈᑎᑯ	-11.6006
ᑭᓰᔩᑴ	-11.6006
ᒐᕒᐆᐗ	-11.6006
ᒑᑭᓯᑳᑌ	-11.6006
ᒪᓯᓇᐃᑫ	-11.6006
ᒫᒪᑳᓯᓈᑾ	-11.6006
ᓬᐃᔅᑕᕒᐊ	-11.6006
ᐊᔮᒀᒥᓰᑲᑕ	-11.6006
ᐋᐸᒋᑖᐗ	-11.6006
ᐐᒋᑳᐸᐎᑖᑯ	-11.6006
ᐲᑕᒪᐎᔑ	-11.6006
ᑌᐯᓂᒥ	-11.6006
ᑭᑎᒫᑫᓂ	-11.6006
ᓇᓃᓵᓀᑕ	-11.6006
ᐱᒀᐎᑲᓀ	-11.6006
ᐅᒫᓇᒑᓂᔑᒪ	-11.6006
ᑎᐹᑐᑌ	-11.6006
ᓵᒥᓇᒪᐙ	-11.6006
ᒨᔕᑭᓂᑫ	-11.6006
ᐊᑐᑕᒫᑫ	-11.6006
ᐲᑎᑲᔑ	-11.6006
ᒥᓴᐌᑖ	-11.6006
ᐅᑮᔑᑳᒥ	-11.6006
ᑲᑮᐹᓯ	-11.6006
ᒪᒐᑭ	-11.6006
ᐅᑎᐯᑖ	-11.6006
ᓂᐱᒫᑎᓯᐎᓂᓈᓂ	-11.6006
ᐸᑕᑭᓱ	-11.6006
ᐊᓄᑲᐗ	-11.6006
ᓈᓯᐲ	-11.6006
ᐅᑲᐱᓯᑕᐙ	-11.6006
ᐸᐹᐱᓯᔅᑫᑕᓰ	-11.6006
ᐸᑕᑭᑑ	-11.6006
ᓂᒥᑲᒧᐙᓰ	-11.6006
ᐅᑎᓇᓰ	-11.6006
ᒥᔕᐗ	-11.6006
ᐐᒋᔭᔮᒥ	-11.6006
ᑲᓬᐁᔑᔭ	-11.6006
ᑲᒀᓂᓴ	-11.6006
ᑕᐃᔥᒀᓭᓯᓅ	-11.6006
ᐗᑫᑕᒧ	-11.6006
ᓈᐱᔥᑭᑲ	-11.6006
▁¦14	-11.6006
ᐸᑴᔑᑲᓂᑳᓇ	-11.6006
ᑮᒥᓄᐊᔮᐗ	-11.6006
ᑫᐅᑎᓇ	-11.6006
ᐃᓇᒪᒋᐅ	-11.6006
ᓂᑕᒑᑯ	-11.6006
ᑭᑭᔥᑭᑫ	-11.6006
ᓴᑲᐊ	-11.6007
ᓵᐃᕒᐄ	-11.6007
ᒋᐃᔑᐊᓈᒣᑖᑯᓯᓯ	-11.6007
ᐋᔩᒋᑳᐸᐎ	-11.6007
ᑳᒫᑭᓯ	-11.6007
ᐲᑎᑲᐙ	-11.6007
ᒪᔥᑲᐎᑌᐁ	-11.6007
ᐅᑕᔮᐎᓂᓂ	-11.6008
ᓂᑌᐃᓈᓂ	-11.6008
ᑮᑭᒋᒫᒪᑳᑌᑕᒨ	-11.6008
ᑳᑮᐋᓂᑫ	-11.6008
ᑳᑮᐙᐱᓯᓂ	-11.6008
ᐅᑾᔭᒀᑎᓰ	-11.6008
ᐊᐗᓱ	-11.6009
ᐱᓯᑕᐙᐙ	-11.6009
ᐋᒋᒋᑳᑌ	-11.6009
ᑎᐹᑐᑕᒧᐙ	-11.6009
ᐅᑲᑮᑖᐌᑕᒧᐎᓂ	-11.6009
ᐊᓈᒥᒫᐙ	-11.6009
ᑮᓯᓲ	-11.6009
ᐅᓯᑕ	-11.6009
ᐱᑾᑕᑮ	-11.601
ᑕᑯᓂᑲᓇ	-11.601
ᑭᐴᔔᐃ	-11.601
ᑭᑕᑭᒥ	-11.601
ᑭᑎᑯᐙ	-11.6011
ᓵᑳᑌ	-11.6011
ᐃᔑᐌᐱᓯᐎᓂᐙ	-11.6011
ᒋᑾᔭᑾᑭᒥ	-11.6011
ᓂᑎᐹᒋᒧᐎᓂ	-11.6012
ᐃᔑᐊᔮᐎ	-11.6012
ᐊᓂᒥᑯᑖ	-11.6013
ᐊᑯᓈᑾ	-11.6013
ᑫᑌᑖᑯᓯ	-11.6013
ᐅᔑᐲᐃᑳᓱ	-11.6013
ᐹᑭᑌᓇᒫ	-11.6013
ᑭᒋᐗᒋ	-11.6014
ᓭᕒᐊ	-11.6014
ᐅᑮᐊᑕᐌᑖ	-11.6016
ᓂᑎᓀᑖ	-11.6016
ᐅᓈᑯᓇ	-11.6017
ᑐᑴ	-11.6017
ᓵᑭᐃᑎᓱᔭ	-11.6017
ᐅᑌᑎ	-11.6017
ᒥᑴᑖ	-11.6017
ᒋᐅᒋᔥᑲᐎ	-11.6018
ᓂᑎᑭᑐᓰ	-11.6018
ᓂᑌᐃ	-11.6018
ᐱᒥᐗᓈ	-11.6018
ᑆᑕᐐ	-11.6018
ᐐᒌᐎᔭᒥ	-11.602
ᐸᑴᔑᑲᓂᐎ	-11.6021
ᑰᐹᑌᓂᒫ	-11.6021
ᑕᐲᑎᑫᓰ	-11.6022
ᐗᓇᑯ	-11.6023
ᐁᒥᑴᓂᒥ	-11.6024
ᐁᑎᐯᑕ	-11.6025
ᐃᔑᑣᐎ	-11.6025
ᑳᐅᒋᓈᓈᑲᑕᐌᑕ	-11.6025
ᐁᐐᐐᑑᑳᓱ	-11.6026
ᔔᒥᓂᑭᑎᑫᐎ	-11.6027
ᓇᑕᐌᓂᒫᓯᐙᓈ	-11.6027
ᐁᐙᐱᓯ	-11.6028
ᐅᒥᔅᑸᒥ	-11.6028
ᑲᒀᑕᑭᐃᑰᔮ	-11.603
ᒪᒫᑳᔥᑳᓂ	-11.6032
ᓂᓂᑭᔥᑳ	-11.6032
ᑮᐱᑕᑯᔑᓅ	-11.6032
ᓇᐃᑕᐙᐙ	-11.6033
ᑎᔪ	-11.6033
ᓃᑳᓂᓂᔕᐙ	-11.6036
ᐅᑖᓂᓯ	-11.6036
ᐃᓀᒋᑲᓂᐎ	-11.6038
ᒌᑫᑖ	-11.604
ᒥᓋᑭᒥᑰ	-11.6041
ᒋᐃᔑᓂᔕᐗ	-11.6042
ᑑᑖᑰᔮ	-11.6043
ᓵᑭᓯᐃ	-11.6043
ᐐᒌᐎᑯᓈᐙ	-11.6043
ᑳᐅᑭᒫᑲᑖᑫ	-11.6044
ᐁᑭᔐᐹᐗᑲ	-11.6046
ᑳᓂᐳᐙᐱᓀ	-11.6047
ᐅᐲᐌᓰᒥᓂ	-11.6048
ᐸᑭᒌᓰ	-11.6049
ᒋᓇᑲᑕᒧᐙ	-11.605
ᓴᑲᐅᓈ	-11.6051
ᐙᐱᔥᑮᑭᓅ	-11.6054
ᑌᓴᓬᐊᓇᐃᑳ	-11.6055
ᐃᓉᒪᑲ	-11.6055
ᑳᐱᓯᓂ	-11.6056
ᐁᑮᒥᓄᐊᔮᐋ	-11.6058
ᐁᑌᐺᒪᑲᓂᓂ	-11.6059
ᐸᑭᒌᑫ	-11.6059
ᐁᑭᑎᒫᑭᓯ	-11.6061
ᐁᑲᑮᑖᐌᑕ	-11.6062
ᑭᑮᐐᑕᒪᐎ	-11.6062
ᒋᓂᐳᓯ	-11.6064
ᒉᓴ	-11.6065
ᑭᐱᒫᑎᓯᐎᓂᓈᓂ	-11.6065
ᓇᑭᔥᑲᐙᐙ	-11.6067
ᑭᑭᑫᓂᒫᐙ	-11.6067
ᐁᔖᐳ	-11.6069
ᐅᑮᐊᑕ	-11.607
ᐁᒦᑴᒋᐌ	-11.607
ᑮᐸᓯᑸᐗ	-11.607
ᑳᐃᓈᒋᒥ	-11.607
ᑕᐎᓇᒪᐎ	-11.6072
ᑮᐌᓄᑕᐙ	-11.6073
ᑌᑕᒧ	-11.6077
ᓃᑳᓂᓰ	-11.6077
ᐐᓯᓂᓯᒀ	-11.6079
ᓴᓇᑲ	-11.6079
ᔕᐌᓂᒥᑯ	-11.6079
ᐁᑕᐌᑕ	-11.6079
ᐁᑌᐺᑕᓯ	-11.608
ᒋᐸᐸᔕᔐᐅ	-11.608
ᐁᑮᐃᔑᓂᑖᐎᑭ	-11.6081
ᒦᑭᓴ	-11.6082
ᐴᓂᓭᓂ	-11.6083
ᓈᓈᑲᑕᐌᑕᒧᐙ	-11.6084
ᐁᑮᓇᐃᑕ	-11.6085
ᑲᓇᐌᓂᒥᑯᐙ	-11.6086
ᒥᓄᑯᓇᔦ	-11.6087
ᑕᓱᐱᐴᓉ	-11.6087
ᑕᐱᒫᒋᐋ	-11.6093
ᑭᓂᒌ	-11.6094
ᒋᐱᒥᐎᑑ	-11.6097
ᐅᐐᒋᐃᐌ	-11.6097
ᐅᑎᐯᓂᒫ	-11.6106
ᐅᓂᒌᒫ	-11.6107
ᒋᐅᒋᑎᐯᑖᑯᓯ	-11.6108
ᑖᕒ	-11.6108
ᑳᐅᑭᒫᑲᑕ	-11.6108
ᓇᐃᓈᐙ	-11.6109
ᑭᑎᑭ	-11.6109
ᐁᓃᔣᒋ	-11.6112
ᐁᑎᓄᐎᔭ	-11.6113
ᐃᔑᐌᐱᓯᐗ	-11.6113
ᐊᔛ	-11.6115
ᐁᑮᐊᔮᐙᓯ	-11.6116
ᐱᑕᑯᔑᓅᒪᑲ	-11.6121
ᐁᑌᐺᑕᐎ	-11.6122
ᐅᑎᔑᐊᔮᐎ	-11.6122
ᑯᒋᐃ	-11.6124
ᒋᑭᒋᐊᓇᒥᐁᐎᑭᒫᐎ	-11.6125
ᑮᔖᑯᐌᐗ	-11.6125
ᑳᑭᑎᑳᑕ	-11.6126
ᐸᐹᐐᑕᒫᑫ	-11.6127
ᐅᒥᔅᑸᒥᓂ	-11.6128
ᑮᑭᑑᑕᒪᐙ	-11.6129
ᑴᑭᐱᒫᑎᓯ	-11.6135
ᒥᓴᐌᑕᒧ	-11.6136
ᐁᑎᓄᐗ	-11.6137
ᑭᑭᔥᑲᐙᐙ	-11.6138
ᒥᓂᑴᔮ	-11.6138
ᐃᔥᐱᔥᑳ	-11.6139
ᑲᔥᑭᑑᔭ	-11.614
ᑮᑕᑯᔑᓅ	-11.6142
ᐁᐱᑾᑎᓈ	-11.6142
ᑳᐃᓍᓂᑎᓱ	-11.6143
ᓭᒀ	-11.6144
ᐅᑕᒑᑯᐙ	-11.6147
ᒋᑎᐹᑯᓂᑯ	-11.6148
ᑭᒋᐎᓈ	-11.6148
ᐅᒫᒪᑳᒋᒋᑫᐎ	-11.6149
ᓂᑮᑲᑴ	-11.615
ᐱᒥᐗᓀ	-11.6151
ᑳᐸᑭᑎᓇᒪᐎ	-11.6155
ᑳᑮᐃᓂᓇᑰ	-11.6155
ᑫᑑᑕᒪ	-11.6157
ᐲᑑᓇ	-11.6157
ᐊᔮᓈᐙ	-11.6158
ᐁᑭᑐᔭ	-11.6163
ᐅᒋᒫᒌᑭ	-11.6165
ᑭᐐᓱᐎᓂ	-11.6168
ᑭᑲᐐᒌᐎᑯᐙ	-11.6169
ᑑᑕᐙᓰ	-11.6173
ᑳᒪᔥᑲᐌᑖᑯᓯ	-11.6177
ᐁᓵᒥᓈ	-11.6179
ᑳᐱᔑᒀᑎᓯ	-11.6181
ᐃᕒᐊ	-11.6182
ᑮᐊᒸᐙ	-11.6183
ᑳᐃᔑᓅᑌᓭ	-11.6184
ᐅᑎᒀᓂᐙ	-11.6186
ᒋᐸᑭᑎᓂᑎᓱ	-11.6189
ᐁᑾᔭᑯ	-11.6193
ᐁᑮᐱᐅᒌ	-11.6194
ᐅᔥᑭᐱᒫᑎᓯᐎ	-11.6196
ᑭᑕᔮᐙ	-11.6202
ᒋᐃᔑᐌᐸ	-11.6204
ᐊᑕᐙᐸᒫᐙ	-11.6212
ᐅᑮᐅᑖᐱᓈᐙ	-11.6213
ᒫᐗᒋᐃᑎᐗ	-11.6216
ᒦᓂᑯᓰ	-11.6219
ᑲᓇᐌᓂᒫᐙ	-11.6236
ᑮᓅᑕᐙᐙ	-11.6239
ᒋᒫᒪᐎ	-11.6243
ᑳᐃᓇᓄᑮ	-11.6251
ᐁᐊᑌᓂ	-11.6251
ᑕᒥᒋ	-11.6251
ᑳᒦᔑ	-11.6254
ᐯᑭᑑ	-11.6259
ᑭᑭᓇᐙᑕᔕᑫᔓᑰᐎ	-11.6265
ᐸᑭᑎᓈᑫ	-11.6266
ᐁᓇᐃ	-11.6271
ᐊᔮᒪᑲᓯᓄ	-11.6271
ᐃᔑᐌᐱᓂ	-11.6284
ᑌᐸᑫ	-11.6284
ᒋᐅᒋᑭᒋ	-11.6285
ᔖᑰᒋᐃᑯ	-11.6289
ᑳᓂᐗ	-11.6289
ᐁᐅᓵᐎ	-11.6292
ᒫᓀᑕᒧᐎ	-11.6292
ᑳᑮᐃᔑᓅᑕ	-11.6298
ᑳᑮᒫᒪᐎ	-11.6302
ᑳᐃᓂᓃᐎ	-11.6307
ᑭᒥᓄᒋᑫ	-11.6308
ᐃᔫ	-11.6318
ᐁᑮᐃᑭᑐᔮ	-11.6321
ᐃᔑᒋᑫᓯᒀ	-11.6322
ᑮᐅᒌᒪᑲᓂᓂ	-11.6326
ᐸᑲᒥ	-11.6328
ᐅᓵᑭᐃᐌᐎᓂ	-11.6329
ᐐᒋᐊᔮᒪ	-11.633
ᑳᑮᐅᓈᐸᒥ	-11.6333
ᑑᑕᑫ	-11.6338
ᐅᑎᓈᐙ	-11.6339
ᐹᑏᓇᑎᓂᓂ	-11.6342
ᐅᑕᒋᑫ	-11.6344
ᓃᑳᓀᑖᑾ	-11.6355
ᓂᑮᑲᓅᓂ	-11.6361
ᐸᑯᓭᓂᒥᑯ	-11.6365
ᒋᑎᐹᒋᒥ	-11.6365
ᐅᒌᒥ	-11.6366
ᐅᑌᐺᐎ	-11.637
ᐅᓇᔓᐌᐎᑲᒥ	-11.638
ᑮᒫᒪᑳᑌᑕ	-11.6389
ᐁᐃᔑᒋᑫᔦ	-11.6389
ᐊᓇᒥᐁᑕᐌ	-11.639
ᒋᓈᑯᑑ	-11.6396
ᒦᓂᑰᐎᓯᐎ	-11.6399
ᐐᑕᐱᒥ	-11.6418
ᒋᒪᒋᑑᑕ	-11.6421
ᑳᑮᐃᔥᒀ	-11.6441
ᔔᒥᓈᑎᑰ	-11.6456
ᐐᒌᐎᔑ	-11.646
ᐌᒋᓭ	-11.6461
ᐱᒫᒋᐃᐌᒥ	-11.6461
ᐙᐸᑕᐃᑰ	-11.6462
ᑳᐃᔑᓵᑭᐃ	-11.6486
ᑳᐃᓇᑲᒥᑲ	-11.6488
ᑳᑮᐱᐅᒋ	-11.6496
ᑕᑯᔑᓅᒪᑲ	-11.6496
ᑎᐱᑑᑕ	-11.6499
ᐅᑎᐹᑯᓂᑫ	-11.6532
ᑮᐅᒋᑮᑭᑐ	-11.6538
ᓃᑕᓇᒥᐋᓈ	-11.6592
ᐯᑭᐋ	-11.6603
ᐃᓈᑯᓈ	-11.6607
ᐁᐱᒥᓂᔕᐅ	-11.661
ᑕᒥᓄ	-11.6617
ᑎᐯᒋᑫᐎᓂ	-11.6635
ᐁᑾᔭᑴ	-11.6638
ᐴᓀᒋᑳᑌ	-11.6642
ᑫᓂᒥᑯ	-11.6652
ᐙᐸᒥᓀ	-11.6659
ᓇᑴᑕᐎ	-11.6682
ᑳᑮᐅᓀᓂᒥᑯ	-11.669
ᐁᔑᓵᑭᐃ	-11.6696
ᑭᑑᒌ	-11.6698
ᐊᔦᒀᒥ	-11.6699
ᐅᔫᓯᒫ	-11.6715
ᐴᓀᒋᑳᑌᑭ	-11.6766
ᑕᔑᑌ	-11.6769
ᑳᐃᔥᒀᓭ	-11.6784
ᐅᔑᑕᒪᐙ	-11.6799
ᑎᓈᓂ	-11.6808
ᐁᔑᐊᑕᐌᑕ	-11.6809
ᑎᐹᑯᓂᑎ	-11.6825
ᑴᑲᓂ	-11.6857
ᓈᓅᑕ	-11.6874
ᑳᐃᓀ	-11.6887
ᑖᐸᒋᑑᓰ	-11.6909
ᑲᓈᑎ	-11.6917
ᑮᐅᔒᑖ	-11.6926
ᑲᓂᐎᓰ	-11.693
ᐊᔮᒀᒥ	-11.6931
ᑕᔑᒥᑰ	-11.6947
ᒋᐱᒫᒋᐃᑰ	-11.6959
ᓇᓈᑕᐙᐸᒥ	-11.6977
ᑳᐅᒋᑲᔥᑭᑑ	-11.6978
ᕒᑲ	-11.7015
ᑭᑫᑕᒨᓂ	-11.7019
ᑳᓵᑭᐃᑯ	-11.7055
ᑮᐗᓂᒧᐎ	-11.7096
ᓈᐹ	-11.7097
ᑖᐱᓇᓰᓈᐙ	-11.7098
ᐁᐃᔑᒋᑫᓯ	-11.7109
ᐊᐲᑌᑖᑯᓯᓯ	-11.7134
ᑭᑌᓂᒥᑰ	-11.7142
ᒋᐱᒫᒋᐃᑰᐎᓯ	-11.7144
ᓈᑲᒋᐃ	-11.7149
ᒪᒋᑑᑕᒧ	-11.7167
ᐅᓃᑳᓂᓰᒥ	-11.7202
ᐐᑾᑎᐗᑲᒥᑭᓯᓈᓂᐗ	-11.7234
ᑭᐸᐅᒥ	-11.7243
ᐅᑭᑭᓄᐊᒫᑫᐎᓂ	-11.7247
ᒋᑌᐱᓇᒧ	-11.7247
ᐅᓀᑕᒧ	-11.7262
ᓂᑮᒦᓂ	-11.7275
ᑮᐅᔑᐲᐃᑳᑌᓂ	-11.7289
ᐊᑐᓀᐊ	-11.731
ᑳᑭᑭᓄᐊᒫᑯ	-11.7311
ᐅᓂᔥᑳᑎᓯᐎᓂ	-11.7329
ᐲᑕᒪ	-11.7338
ᐋᑯᓯᐎ	-11.7373
ᐃᓈᔑ	-11.7373
ᐅᑮᓇᑲᓈ	-11.7374
ᐁᑮᐊᑕᐌᑕ	-11.738
ᐃᔥᒀᐱᒫᑎᓯ	-11.7383
ᑮᐃᔑᓂᑖᐎᑭ	-11.7391
ᐊᔓᑕᒫᑫᐎ	-11.7406
ᐊᐯᓂᒧᓄᑕᐎ	-11.7414
ᒥᑯᔥᑳ	-11.7415
ᑲᓅᑖ	-11.7431
ᓂᑮᐙᐸᑕᐃ	-11.7441
ᓱᓰ	-11.7452
ᐸᑭᑌᐅ	-11.7463
ᐊᓇᒥᐁᑕ	-11.7485
ᑮᒫᓀᑕ	-11.7485
ᐸᑭᑎ	-11.7505
ᑌᐊᐲᑌᑖᑯᓯ	-11.7518
ᑭᑌᑖᑾ	-11.753
ᑭᑎᓇᐌᒫᑲ	-11.7545
ᒋᐐᑕᒫ	-11.7562
ᑎᓱᔦ	-11.7565
ᐅᑮᒫᒌᓈ	-11.7582
ᐅᑲᔥᑮᑮᐎ	-11.7588
ᐊᓇᒥᐁᑕᒫ	-11.759
ᒋᓈᓯᑲᐙᐙ	-11.7601
ᐅᐱᒫᑎᓰᒥ	-11.7604
ᑮᐅᒋᐅᔑᐋ	-11.7611
ᐹᔑ	-11.7624
ᒪᑲᓯᓄ	-11.7636
ᒋᒫᓀᑕ	-11.7656
ᒋᑑᑕᒪ	-11.7666
ᑲᓇᐌᑕᐃᓐ	-11.7695
ᐃᓀᑕᒪ	-11.7704
ᓂᐳᓰ	-11.7721
ᐊᔓᑕᒪ	-11.7722
ᐅᐸᑴᔑᑲᓂᒪ	-11.7734
ᑯᓰᓈ	-11.776
ᒋᓵᑭᐃᑎ	-11.7763
ᐗᐙᓀᑕᒥ	-11.7771
ᐲᑕᒪᐙᐙ	-11.7774
ᓴᑲᐅ	-11.7786
ᑕᒪᐎᑣ	-11.7809
ᔥᑲᒧᐙ	-11.7809
ᓂᑮᒥᑲᐙ	-11.784
ᐅᔥᑮᔑ	-11.7841
ᐌᐱᓂᑲᓂᐎ	-11.7845
ᒋᐅᓀᑕ	-11.7847
ᐸᑕᓯᓅ	-11.7861
ᐊᒫᑯ	-11.7866
ᒋᓂᐴᑕᒪᐙ	-11.7888
ᑮᐱᐊᔮ	-11.7902
ᓂᓯᑕᐎᓇ	-11.7904
ᑲᓇᐌᑕᒫ	-11.7911
ᒦᑴᒋᐌᑕ	-11.7911
ᐱᐴᓉ	-11.7911
ᑌᑕᒨ	-11.7912
ᐐᓯᓂᔮ	-11.7916
ᑭᑎᒫᑭ	-11.7917
ᐁᑕᓱᐯᔑ	-11.7933
ᑌᓴᓬᐊᓇᐃ	-11.7946
ᐁᒦᑳ	-11.7953
ᐃᔑᐐᒋᐃᐌ	-11.7963
ᑲᑖᑯᐙ	-11.7963
ᒥᓋᑭᒥ	-11.7966
ᒌᐯᑲᒥ	-11.7969
ᐸᒀᓀᑲᒥ	-11.7971
ᐃᔑᓂᔕᐗ	-11.7972
ᑎᐯᓂᒥᑰ	-11.7972
ᐐᓯᓃᒥ	-11.7976
ᑭᑎᑳᓇᑲᒥ	-11.7976
ᑮᐃᑭᑑ	-11.7977
ᐱᔑᑭ	-11.7981
30	-11.7982
ᑳᐃᔑᒋᑫᓯ	-11.7982
ᑭᑎᑳᓱ	-11.7983
ᑌᐺᑕᒧ	-11.7984
ᐊᓴᐲ	-11.7985
ᓇᒪᑎᓂᑭ	-11.7986
ᐊᑑᐹᓇ	-11.7986
ᑭᑎᓀᑕ	-11.7987
ᓃᓇᒥᓯ	-11.7988
ᐗᓂᔥᑴ	-11.7988
ᐃᓈᑯᓂᑰ	-11.7989
ᓇᓃᓵᓂᓯ	-11.7991
ᒫᒪᑳᒋ	-11.7992
ᒥᔅᑯ	-11.8002
ᑏᐎᑲᒥᑯ	-11.8002
ᐱᔑᒀ	-11.8004
ᐊᑳᓭᑖᑾ	-11.8005
ᑭᐹᑾ	-11.8005
ᐅᔒᒣᔑ	-11.8005
ᐸᔕᔐᐙ	-11.8006
ᐱᔑᒀᑎᓰ	-11.8006
ᑎᑎᐲᑭ	-11.8006
ᐁᓈᓴᒪᐱ	-11.8006
ᐸᑴᔑᑲᓂᑳᓀᓴ	-11.8006
ᑎᐹᒋᑎᓱ	-11.8006
ᑭᒋᐙᒥᑲᐃᑲ	-11.8006
ᑰᐹᓯᓇᐎᔑ	-11.8006
ᑳᑮᐅᑫᑌᔭᐋᒥ	-11.8006
ᑳᑲᑴᓇᑳᔥᑲᐙ	-11.8006
ᑳᓴᓰᑭᓯ	-11.8006
ᒪᒋᑭᓀᐱᑯ	-11.8006
ᐅᑑᓃᒑᓂᓯᒥ	-11.8006
ᐅᑑᓈᐸᒫᑲᓇ	-11.8006
ᐊᔨᔑᑮᔗ	-11.8006
ᑭᑕᔮᒀᒥᒥ	-11.8006
ᑲᑴᒋᑲᔑᐌ	-11.8006
ᑲᔥᑭᐃᑯᓰ	-11.8006
ᒪᒫᒋᑾᐱᓈ	-11.8006
ᓵᑲᐃᑲᓂᑳᓀ	-11.8006
ᐁᕒᐃᔅᑖᕒᑲ	-11.8006
ᐃᓈᓴᒥᑳᐸᐐᑕ	-11.8006
ᐃᔥᐯᑖᑾᓂᓂ	-11.8006
ᐅᓈᑲᑕᐌᑕᒧᐎᓂᐙ	-11.8006
ᐊᔫᑾᐱ	-11.8006
ᐋᐹᐱᑲᐃᑲ	-11.8006
ᐲᑴᑕᒧᐎ	-11.8006
ᐸᐲᒶᓯᓇᐋᐙ	-11.8006
ᐹᐱᓄᑖᑫ	-11.8006
ᑖᔥᑮᑭᓭ	-11.8006
ᑭᑭᓄᐎᓈ	-11.8006
ᑭᓃᒑᓂᓯᐙ	-11.8006
ᒥᔅᑯᒥᓂᑫᓯ	-11.8006
ᒨᒀᐱᓀ	-11.8006
ᒪᓂᒎᔕ	-11.8006
ᓇᑖᓂᔭᓬ	-11.8006
ᐅᑎᑎᓂᑰ	-11.8006
ᐊᑕᐗᓄᑮ	-11.8006
ᐋᔮᓂᑫ	-11.8006
ᐙᓭᒋᑲᓈᐱ	-11.8006
ᐸᑭᑕᓈᒧ	-11.8006
ᐸᓰᑴᑲᓈᒥ	-11.8006
ᑕᐸᓭᓂᒫ	-11.8006
ᑭᑫᑕᒨᔑᐌ	-11.8006
ᑮᒋᑯᔥᑲ	-11.8006
ᑲᒀᑕᑲᓄᑮ	-11.8006
ᑲᔥᑭᐁᐎᓰᒪᑲ	-11.8006
ᔕᔒᐯᓂᒫ	-11.8006
ᔖᑰᓱᑖᑯᓯ	-11.8006
ᐁᓈᓴᒥᑳᐸᐎ	-11.8006
ᑭᐲᑭᓂᑲ	-11.8006
ᑮᑭᒋᓭᑭᓯᐗ	-11.8006
ᑳᐗᓂᑭᑭᓄᐃᑫ	-11.8006
ᒑᔓᐙ	-11.8006
ᒦᑭᓱᒫᐙ	-11.8006
ᔖᑴᓂᒧᓰ	-11.8006
ᑯᑖᐎᑭ	-11.8006
ᐯᑫᑖᑯᓯ	-11.8006
ᓇᑕᐌᑕᓰ	-11.8006
ᐊᓂᒥᑯᐸᓂᐅ	-11.8006
ᐸᑯᓀᔮ	-11.8006
ᓃᔥᑕᓇ	-11.8006
ᑳᓂᔥᑫᓂᒥ	-11.8006
ᐲᑎᑲᑑ	-11.8006
ᐊᑕᐌᑖᑾ	-11.8006
ᒥᓍᐸᒫᓰ	-11.8006
ᐊᒀᐸᑌ	-11.8006
ᐋᔑᑌ	-11.8006
ᐊᓇᒥᒋᑳᑌ	-11.8006
ᓀᐗᒋᑮᔑ	-11.8006
ᓂᔑᐗᓈᒋᑕᒪᐙ	-11.8006
ᒋᔖᑰᒋᐊ	-11.8006
ᓲᑭᑳᐸᐎ	-11.8006
ᑫᐃᓈᒋᒥ	-11.8006
ᐅᑕᐃᐹ	-11.8006
ᐴᔔᐃᑎ	-11.8006
ᒉᐃᕒᐊ	-11.8006
ᓰᑭᓂᑳᑌ	-11.8006
ᐅᑮᓇᑲᑖ	-11.8006
ᒪᓂᐱᑑ	-11.8006
ᔕᐌᒋᑫ	-11.8006
ᐸᐹᐱᓯᔅ	-11.8006
ᐅᓈᑯᓂᐌ	-11.8006
ᑮᐲᑕᒪᐙ	-11.8006
ᔖᑯᐙᓂ	-11.8006
ᓵᑮᔭ	-11.8006
ᒋᐱᒫᒋᐊ	-11.8006
ᐅᑌᓇᓂ	-11.8006
ᒎᒎᔖ	-11.8006
ᑮᓇᒪᑕᐱᐗ	-11.8006
ᐴᑖᒋᑫ	-11.8006
ᒋᐅᓇᔓᐙᓂ	-11.8007
ᐊᐌᑴᓇ	-11.8007
ᐊᔕᐙᐸᑖ	-11.8007
ᑲᕒᐃ	-11.8007
ᑲᓅᑕᒪᐗ	-11.8007
ᒥᓈᑯᐅ	-11.8007
ᓵᑭᒋᐌᐱᓂ	-11.8007
ᑎᓄᐙᑎ	-11.8007
ᒥᑖᔑᓃᔓ	-11.8007
ᑭᐐᐎᐙ	-11.8007
ᐅᐐᔮᓯ	-11.8007
ᐃᓉᑑ	-11.8007
ᑳᑕᓶᐙᓇᑭᓈᑯᓯ	-11.8007
ᐯᕒᐊᓯᐗ	-11.8007
ᑭᑎᓀᑖᑯᓯ	-11.8007
ᐅᑮᐅᒻᐺᐋ	-11.8007
ᓵᑭᒋᐎᓈ	-11.8007
ᐁᓈᑯᓂᑫ	-11.8007
ᐊᐯᓂᒧᓄᑖ	-11.8008
ᓵᑲᑮ	-11.8008
ᑭᒋᐅᑭᒫᒥᐙ	-11.8008
ᑭᐱᒫᒋᐃᑰᐎᓂ	-11.8008
ᑫᓂᔑᐗᓈᒋᐃᑯ	-11.8008
ᐐᒋᑖᒫᑲ	-11.8008
ᓰᑲᐊᑖᑯᐙ	-11.8008
ᐲᑾᐊ	-11.8008
ᒥᑳᓈᐙ	-11.8008
ᐅᐱᔑᒀᑎᓯᐎᓂ	-11.8009
ᐗᔦᔑᑎᓱ	-11.8009
ᓇᑲᔥ	-11.8009
▁¦200	-11.8009
ᓂᑕᐌᒫ	-11.8009
ᐅᑌᓂᑎ	-11.8009
ᑲᓇᐌᒋᑫᐎᔑᒫᑲᓂᔕ	-11.8009
ᐅᓇᑭᒫ	-11.8009
ᒪᓂᑑᑳᓂ	-11.8009
ᒪᔥᑯᓰᒪᑲ	-11.8009
ᒫᒦᓄᐸᔕᔐ	-11.8009
ᑭᑕᐯᓂᒧᐎᓂ	-11.8009
ᐱᒥᓂᔕᐊᒧᐙ	-11.801
ᑭᒪᒋᒋᑫᐎᓂ	-11.801
ᐲᑖᐸᓂᓂ	-11.801
ᒫᐗᒋᒋᑫ	-11.801
ᑕᐎᓇᒫᑰ	-11.801
ᒨᑯᓀ	-11.801
ᑲᒀᑕᑭᐃᐌᐎ	-11.801
ᐸᐹᒧᓭ	-11.801
ᓬᐁᔮᑎᓰᔮ	-11.8011
ᐃᔑᒋᑳᓂᐗ	-11.8011
ᓂᐐᔭᐎᓈᓂ	-11.8011
ᐅᑖᐱᓂᑲᓂᐎ	-11.8011
ᑳᑮᐃᔑᓂᑳᓱᓂ	-11.8011
ᐅᑕᓴᐲ	-11.8012
ᓂᔑᐗᓈᑕᑲᒥᑭᓯ	-11.8012
ᓃᑳᓃᑕᒫᑫ	-11.8013
ᐁᑌᐺᑕᐗ	-11.8013
ᐯᓬᐊ	-11.8013
ᐃᔑᐌᐱᓰ	-11.8014
ᑕᑯᐱᓱ	-11.8014
ᒪᔥᑭᑮᐎᓂᓂᐗ	-11.8015
ᑭᑖᓱᐎ	-11.8015
ᒫᒦᑳᑎᓈᓂᐗ	-11.8016
ᐅᒋᒌᑾᓇᐱᑖ	-11.8016
ᒫᓇᒑᓂᔑᐌ	-11.8016
ᓴᑳᐹ	-11.8016
ᐌᓅᑎᓯᐎᓂᐙ	-11.8016
ᐁᐅᓃᒑᓂᓯᒥᓇ	-11.8016
ᒋᑕᑯᓂᒥ	-11.8017
ᐃᓀᓂᒪ	-11.8017
ᔕᐌᓂᒥᑰᐎ	-11.8018
ᐸᒥᐋ	-11.8018
ᓰᑭᓭ	-11.8019
ᐊᐲᑌᑖᑾᓯᓂᓂ	-11.8019
ᑕᐱᓇᐎ	-11.802
ᐅᑎᓈᑎᓯᐎ	-11.802
ᐁᓂᑖᑯᓯ	-11.802
ᒋᐅᑭᒫᑲᑖᑯ	-11.8021
ᑯᔥᑯᓯ	-11.8021
ᐁᓵᑭᐁ	-11.8021
ᐊᐲᑌᑖᑾᓯᓅ	-11.8021
ᓇᓃᓵᓂᓯᔮ	-11.8022
ᒨᔥᑭᓇᑑ	-11.8023
ᐸᔥᑴ	-11.8023
ᑮᐊᐸᐃᐌ	-11.8023
ᐗᓂᐎᓂ	-11.8023
ᒥᓄᑑᑖᑎ	-11.8024
ᑮᐸᑭᑌᐙ	-11.8024
ᒋᓵᑭᐃᑎᔭ	-11.8024
ᓇᓇᐊᓯ	-11.8024
ᑭᑎᓀᑕᓰ	-11.8025
ᑲᓇᐙᐸᒥᑰ	-11.8025
ᑌᐯᑕ	-11.8026
ᒉᕒᐊᑯ	-11.8026
ᐙᓭᔥᑲ	-11.8026
ᐅᓇᒪᑎᓂᑭ	-11.8026
ᑳᒥᔕᑮᔮᓯ	-11.8026
ᑳᐐᓴᑳᐸᓱᐌ	-11.8026
ᑳᒫᒪᐐᓄ	-11.8026
ᐅᑮᐙᑎᓰᑴ	-11.8027
ᒫᒥᑲᐎᓰ	-11.8028
ᒋᓈᓯᑲᐗ	-11.8029
ᑭᑫᒋᑫ	-11.803
ᐌᐱᓈᓈᐙ	-11.803
ᐅᑲᓇᐌᒋᑫ	-11.803
ᑭᑌᐺᑕᓰ	-11.8031
ᐅᔔᓂᔮᒥ	-11.8031
ᑲᑴᒋᑎᐗ	-11.8031
ᐅᓃᒑᓂᓯᒫ	-11.8032
ᐅᑖᐱᓂᑰ	-11.8033
ᐹᑭᓇ	-11.8033
ᑳᒦᓂᒥ	-11.8033
ᐅᑮᐊᔮᒀᒥᒫ	-11.8035
ᑲᑮᑭᒫ	-11.8036
ᑳᑮᐃᔑᐊᔓᑕᒪᐙ	-11.8036
ᒪᓯᓇᐃᑲᓀ	-11.8037
ᐁᑌᐺᔦᓂᒪ	-11.8038
ᓈᔕ	-11.8038
ᑳᑕᔑᒫᐗᒋᐃᑎ	-11.8038
ᑭᑎᑳᓇᑲᒥᑯ	-11.804
ᑳᐱᒫᑎᓰᔥᑳᑫᒪᑲ	-11.804
ᐋᑕᐌᓯ	-11.8042
ᓂᑮᐃᔑᓂᔕᐙ	-11.8042
ᐃᔅᑌ	-11.8042
ᐅᑎᔑᓈᑯᓯᐎ	-11.8043
ᒪᓈᒋᐋ	-11.8044
ᐅᒥᓉᑖ	-11.8044
ᑳᐐᒋᑖ	-11.8044
ᑎᐹᑐᑕᒫ	-11.8044
ᓈᓯᑲᐗ	-11.8045
ᑭᔒᑲᓅᓈ	-11.8045
ᑳᑮᐃᔑᐊᔓᑕᒫᑫ	-11.8045
ᒋᒫᒑᔮ	-11.8045
ᐅᓂᑖᐎᑭᑑᓰ	-11.8046
ᔒᑯᔥ	-11.8046
ᒋᓈᓈᑲᒋᑑ	-11.8049
ᑎᔫ	-11.805
ᔒᑫᓂᑎ	-11.805
ᐁᐸᓬ	-11.805
ᐋᑲᐗ	-11.805
ᐋᔅᑯ	-11.8051
ᒫᒪᑳᑌᑕᑫ	-11.8055
ᑳᑮᐃᓇᑲᒥᑲ	-11.8055
ᐐᓯᓂᓰᐗ	-11.8057
ᑎᐹᑯᓂᑰᔮ	-11.8058
ᑮᔒᑖ	-11.8058
ᐲᐃᑲ	-11.8059
ᑫᔖᑰᒋᑣ	-11.8059
ᓈᒋᐐᑯᐱ	-11.806
ᐅᑎᓇᑭ	-11.8061
ᐐᒋᑴ	-11.8061
ᐱᑭᔑ	-11.8062
ᐙᐱᓰᐗ	-11.8062
ᐁᑌᐺᔮ	-11.8062
ᐅᕒᐋ	-11.8062
ᐅᑲᓇᐎ	-11.8066
ᐐᒋᑭᐌᔨᑎ	-11.8066
ᑳᑮᐊᐎᐃ	-11.8068
ᒋᒫᒥᑲᐎᓄᑕᐎ	-11.807
ᒋᑎᓄᐎᔭ	-11.807
ᐅᑮᓂᓯᑯ	-11.8073
ᑮᐙᒋᑴᐗ	-11.8074
ᒋᐅᔑᐲᐊᒪᐎ	-11.8075
ᓀᑳᒥ	-11.8077
ᑭᑭᓇᐙᑕᔕᑫᔓᑰ	-11.8077
ᐲᒋᑯ	-11.808
ᒋᒦᒋᓈᑳᑌ	-11.808
ᒋᐯᔑᑴᑖᑯᓯ	-11.808
ᐃᔭᓬ	-11.8082
ᐁᐊᓇᒥᐁᑮᔑᑲ	-11.8082
ᑲᑲᓅᓇ	-11.8087
ᐅᑮᒫᒪᑳᓯᑖ	-11.8088
ᑕᒀᑭ	-11.809
ᑮᐐᒋᑭᐌᑎ	-11.809
ᑳᑮᐲᒋᓂᔕᐅ	-11.809
ᐁᑲᓅᔑ	-11.8093
ᑳᐅᔑᐲᐃᑳᑌᓂ	-11.8094
ᐃᔑᑮᑭᑐ	-11.8094
ᒥᓄᓈᑾᓂᓂ	-11.8096
ᓈᓄᑮ	-11.8097
ᒋᒥᓄᐐᒌᐗ	-11.8099
ᑕᓬᐃ	-11.81
ᑳᒪᔥᑲᐙ	-11.8101
ᒋᑌᐺᑕᒨ	-11.8101
ᑮᓅᑌᔅᑲᑌ	-11.8101
ᒑᑭᑌ	-11.8101
ᐁᑲᑮᑴ	-11.8102
ᓃᔪ	-11.8102
ᐐᐎᒫ	-11.8103
ᐅᑮᐐᒌᐎᑰ	-11.8104
ᐅᑕᐱᓅᒌᔑᒥ	-11.8105
ᑳᐃᔑᐊᑐᒥ	-11.8106
ᐁᑮᐱᑕᑶᔑ	-11.8106
ᑮᓂᔑᐗᓈᑕ	-11.811
ᒨᐎ	-11.8114
ᐊᔕᒥᑰ	-11.8116
ᐊᑕᐙᐸᒫ	-11.8116
ᐃᔑᐎᑕᐙ	-11.8118
ᒥᓉᑖᑾ	-11.812
ᐐᓯᓂᓰ	-11.8121
ᑳᑭᑭᓇᐙᑕᔕᑫᔑᑲᓂᐎ	-11.8122
ᐁᑭᔐᒪᓂᑑᐎ	-11.8123
ᑳᑮᐃᔑᒪᒋᑑᑕ	-11.8124
ᐅᕒᐁ	-11.8124
ᑭᑲᑲᔥᑭᑑᓰ	-11.8124
ᐅᒪᓂᑑᑫ	-11.8125
ᐊᒀᓰ	-11.8127
ᓂᑖᐎᑭᓯ	-11.813
ᒪᒋᒥᓴᐌᒋᑫ	-11.813
ᐐᓴᑭ	-11.8133
ᒪᔥᑲᐎᒋᑫ	-11.8134
ᐃᓇᐊᒧ	-11.8138
ᐅᔑᒋᑲ	-11.8138
ᑮᓂᒋᑲᓂᐎ	-11.8139
ᐅᑮᑲᑴᒋᒫᐙ	-11.8143
ᓂᓂᒌ	-11.8146
ᐁᑮᑮᐌᐱᒫᑎᓯᐋ	-11.8148
ᑳᓅᓂ	-11.8149
ᐅᑌᐺᑕᒧᐎ	-11.8149
ᐁᑮᐙᐸᒥᑯ	-11.8149
ᓂᓴᑭ	-11.815
ᐐᒋᐱᒫᑎᓰ	-11.8152
ᐸᑭᑌᑕ	-11.8154
ᓈᑲᑕᐌᑕᒧ	-11.8165
ᐁᑮᐅᑕᑳᓀᓯ	-11.8165
ᑳᓂᑖᐎᑭᑑ	-11.8166
ᑕᒪᐙᓰ	-11.8175
ᑭᑎᒥ	-11.8176
ᑳᐃᓀᓂᒥᓇ	-11.8187
ᐅᑲᐃᓈ	-11.819
ᐅᒫᐗᒋ	-11.8201
ᓂᔕᐅᑣ	-11.8201
ᑕᔑᑕᒫᑎ	-11.8202
ᑫᑫᑕ	-11.8207
ᐅᒋᒌᑾᓇᐲᑕᐙ	-11.821
ᓇᐃᓈᑾ	-11.821
ᓇᑭᔥᑳᑯ	-11.8215
ᐃᔑᓂᔕᐅᐌ	-11.8218
ᑮᑲᔥᑭ	-11.8222
ᐅᑮᒫᒪᐎ	-11.8224
ᒥᓄᑕᔑᒥᑰ	-11.823
ᔕᔒᐯᑕᒧᐎᓂ	-11.8231
ᐁᔮᐎ	-11.8244
ᔔᒥᓂᐎ	-11.8255
ᓃᑳᓀᓂᑎᓱ	-11.827
ᐊᔮᒪᑲᓂᓂ	-11.8273
ᑭᑭᑯᓇᔦᓯ	-11.8278
ᐃᔑᒥᓴᐌᑕ	-11.8279
ᒋᑭᑭᓇᐙᑕᔕᑫᔓ	-11.8285
ᐅᓇᔓᐙᓈ	-11.8296
ᑎᐹᒋᒧᑕ	-11.8297
ᑭᒋᐊᓄᑮᔮ	-11.8299
ᐴᔔᐃᑯ	-11.8306
ᐱᓂᑎᓱ	-11.8309
ᐅᑲᒦᓈ	-11.8315
ᒪᒋᓭ	-11.832
ᑌᐱᓇᓰ	-11.8321
ᐁᐲᐋ	-11.8321
ᑭᑭᔥᑲᒧᐙ	-11.833
ᐹᓱ	-11.8334
ᐌᐱᓇᒧ	-11.8335
ᑳᑮᐃᓈᑯᓂᑫ	-11.8345
ᒫᒋᑖ	-11.8354
ᓂᐴᑕᒫ	-11.8361
ᐁᑮᐗᐙᓀᑕ	-11.8376
ᒎᐎᐎ	-11.8396
ᑎᐹᒋᒥᑰ	-11.8398
ᐊᓂᐊᔮ	-11.8412
ᐯᑭᒋᑳᑌ	-11.8419
ᑲᑴᒋᑎ	-11.8434
ᓅᑳᑎᓯᐎ	-11.8457
ᑮᐊᔨᑭᑐ	-11.846
ᑕᑯᓂᑯ	-11.8481
ᑾᔭᑯᒋᑫᐎ	-11.8482
ᐅᔑᐲᐃᑫᐎ	-11.8483
ᒪᒋᑕᔑᒥ	-11.8487
ᒦᑳᓱᔮ	-11.8493
ᐸᐹᐃᔖ	-11.8495
ᓇᔓᐌᐎ	-11.8498
ᑑᑖᑎ	-11.8522
ᐌᐱᓂᑰ	-11.8541
ᓂᑖᐎᑭᒋᑫᒪᑲ	-11.8546
ᑳᑕᔑᑌ	-11.8546
ᒥᑰᔭ	-11.8547
ᑮᔑᓈᑾ	-11.856
ᑭᑎᔑᐱᒫᑎᓯ	-11.8562
ᑕᕒᐊ	-11.8564
ᐱᓯᑕᒣ	-11.8578
ᑲᒥᓂᓂ	-11.8582
ᑭᓂᑲᐎ	-11.8586
ᐊᑕᐌᓂᒥᓀ	-11.8588
ᒋᐴᓀᒋᑳᑌᓂ	-11.8589
ᑲᓇᐌᓂᒥᑰ	-11.8593
ᒋᐃᔖᔭ	-11.8597
ᐅᑭᑭᓄᐊᒫᑫᐎ	-11.8606
ᑮᐃᔑᓂᑫ	-11.8638
ᐙᐸᒥᓇᑰ	-11.8682
ᐃᔥᑯᑌᐎ	-11.8695
ᐲᐃᑫᔮ	-11.8735
ᒦᑳᓂᑯ	-11.8746
ᓵᒥᓯ	-11.8748
ᐁᐲᒋᓵᑭᐃ	-11.8756
ᓵᑭᐃᐌᓯ	-11.8758
ᐃᔑᑌᐺᑕ	-11.8762
ᓂᔑᐗᓈᒋᐃᑰ	-11.8797
ᒥᒋᒥ	-11.8797
ᒋᐗᑲᐎ	-11.8806
ᐅᑲᑑᑖ	-11.8813
ᓵᑭᐃᑎᐎ	-11.8814
ᑳᑭᑕᑭᑌ	-11.8818
ᐅᑖᐱᓇᒥᓂ	-11.8847
ᑳᐅᒌᒪᑲᓂᓂ	-11.8861
ᑳᑭᐸᐅ	-11.8872
ᐊᑲᒋᐌᑖᑾ	-11.8875
ᓂᑎᐹᑐᑖ	-11.8895
ᐐᓴᑫᑕᒧ	-11.8911
ᑖᑮᐅᓂᔑᔑ	-11.8935
ᒋᑭᑫᑕᒧᐗ	-11.8938
ᑕᔑᑕᒪᐎ	-11.8938
ᑮᐃᔑᐌᐱᓈ	-11.895
ᑾᔭᑯᒋᑫᓯ	-11.8966
ᐃᔑᑎᐯᑖᑯᓯ	-11.8968
ᐁᒪᒋᑑᑕ	-11.8969
ᑮᓂᓱᑮᔑᑾᑳ	-11.8989
ᑭᑎᑳᑕᓯ	-11.9021
ᑎᔖ	-11.9026
ᓀᐳ	-11.903
ᑭᐱᒌᓰ	-11.9059
ᓂᑖᐸᒋᑑ	-11.9076
ᐱᒫᑎᓰᐃᑰ	-11.9079
ᓂᔣᓱᑮᔑ	-11.9086
ᑭᑫᓂᒥᑯᐙ	-11.9109
ᓇᓄᑮᒪᑲ	-11.9117
ᔑᓂᑳᓂ	-11.9134
ᐅᑭᑭᓄᐊᒪᐙᑲᓂᒥ	-11.9147
ᑫᒋᓈᐅᐌᑖᑾ	-11.9163
ᑲᑴᔖᑰᓱ	-11.9165
ᐌᐱᓇᒪᐙ	-11.9167
ᑎᓯᔦ	-11.9197
ᑳᐃᔑᒥᓴᐌᑕ	-11.9212
ᒪᒍᑌᐌᐱᓂ	-11.9236
ᓂᒥᓈᐌ	-11.9245
ᑭᓰᓂᒌ	-11.9257
ᐁᐊᓄᑮᑕᐙ	-11.9259
ᐁᑲᓅᑕᒪᐙ	-11.9282
ᐅᒋᒪᒋᑑᑕ	-11.9287
ᐹᑎ	-11.9294
ᒋᑫᒪᑲ	-11.9321
ᓂᓱᑮᔑᑾᑳ	-11.9371
ᐲᑎᑲᓂᑰ	-11.9391
ᑳᑮᐅᒋᐅᔑ	-11.9391
ᐅᑕᒥᓄ	-11.9416
ᑕᒫᓱᓰ	-11.9453
ᑕᑶᔑᓈ	-11.9521
ᐃᔑᐊᐱ	-11.9531
ᐃᔭᒥ	-11.9559
ᐹᐱᓄᑕᐙ	-11.9573
ᐊᓂᒨ	-11.9582
ᑲᑴᑲᔥᑭ	-11.9583
ᒪᒍᑌ	-11.9602
ᐅᒋᑭᑫᒋᑳᑌ	-11.9605
ᐅᒋᑎᐯᑖᑾ	-11.9609
ᐐᑕᒪᐎᒥ	-11.9609
ᐊᓈᒥᒥᑰ	-11.9609
ᓈᐯᒥᐙ	-11.9616
ᐯᕒᐊ	-11.9626
ᐱᓵᑲᐊ	-11.9677
ᐃᑕᒥᓂ	-11.9738
ᓃᔓᐅ	-11.9753
ᐅᑖᔑᑌᔮᑎᑯ	-11.9769
ᑳᒦᑳᓂ	-11.9778
50	-11.9825
ᑮᑳᑎ	-11.9857
ᒋᒥᓄᐐᒌ	-11.9876
ᓈᓯᑫ	-11.9886
ᒥᓄᐐᒌᐎ	-11.9888
ᑕᔑᒥᐌ	-11.9935
ᓂᑎᑭᑐ	-11.9957
ᑳᑮᐅᓈᐸ	-11.9965
ᓅᑖᑾᓂᓂ	-11.9976
ᐃᔑᐐᑕᒪ	-11.9979
ᐐᒋᐊᔮᒥᑰ	-12.004
ᐗᐱᐎᓂ	-12.0063
ᒪᕒ	-12.0065
ᑑᒋᑎᐯᑖᑯᓯᓰ	-12.0136
ᒋᐃᔑᓂᑳ	-12.0145
ᒉᕒᐊ	-12.015
ᐃᓇᑲᒥᑲ	-12.0151
ᐸᑫᐎᓂᑎ	-12.016
ᐁᐊᔓ	-12.0164
ᐅᐸᐹᒥᓯᐎ	-12.0183
ᑮᒦᑳᓱ	-12.0199
ᓈᐱᑭᓯ	-12.0236
ᐗᓃᑫᓄᑕ	-12.024
ᐙᓯᑌᓂ	-12.0243
ᔕᐌᑖᑯ	-12.0246
ᐐᓯᓂᓯ	-12.0318
ᐅᑑᑭᒫ	-12.0334
ᒥᔑᔭ	-12.0339
ᐅᑕᑖᐌ	-12.0372
ᐅᑮᐅᒋᒌᑾᓃᑕᐙ	-12.0385
ᑎᐯᑖᑯ	-12.0391
ᒥᑭᑳᑌ	-12.0404
ᒋᐊᔕᒥ	-12.041
ᒫᐗᑑᓈ	-12.0416
ᑭᐱᒫᑎᓯᐎᓂᓈ	-12.0417
ᒪᔥᑲᐌᑖᑾ	-12.0421
ᑕᐎᓇᒪᐙ	-12.0428
ᐅᒑᓂᒥ	-12.0434
ᐅᑾᔭᒀᑎ	-12.0437
ᒋᑴᑮ	-12.0443
ᑲᑳᓱ	-12.0446
ᐅᑭᒫᑲᑖᑫ	-12.0446
ᑕᔒᑫ	-12.0447
ᐅᓂᑖᐎᑭᑑ	-12.0454
ᑕᐯᓂᒧᓄᑕᐙ	-12.0454
ᔥᒀᑌᒥ	-12.0455
ᔥᑯᑌ	-12.0463
ᐐᓴᑲ	-12.0463
ᑌᐺᔦᓂᒪ	-12.0465
ᑭᓰᓯᐸ	-12.0467
ᐊᐲᑌᑖᑾ	-12.047
ᑳᐊᐯᓂᒧᓄᑕ	-12.0474
ᓇᒥᐋᓂ	-12.0474
ᐲᓯᐴᒋ	-12.048
ᐐᐸᑲᒥᑳ	-12.049
ᑳᐃᔑᐅᔑᐲ	-12.0495
ᐳᑾ	-12.0496
ᔭᒀᑎᓯ	-12.0496
ᐅᓵᐙᐱ	-12.0497
ᓶᐙᓇᑭᓯ	-12.0497
ᓂᔥᑫᑕ	-12.0498
ᓂᒪᓂᓂ	-12.0498
ᐁᐃᓍ	-12.0499
ᐅᑮᒨᒋᔥ	-12.0503
ᓂᑕᓄᑮᐎ	-12.0504
ᐹᑮᑭ	-12.0504
ᓇᒥᐁᐗᓄᑮ	-12.0504
ᑭᑎᑳᓈᑎ	-12.0505
ᐊᑕᐌᓂᒥᑰ	-12.0506
ᐱᔪᓬᐊ	-12.0506
ᐴᓃᓴᑖᑯ	-12.0506
ᑮᐴᑯᓂᑳᑌ	-12.0506
ᑳᐊᑳᔒᔑ	-12.0506
ᑳᐯᐸᑳᓇᑎ	-12.0506
ᑳᑾᔭᑴᑖᑯᓯ	-12.0506
ᒫᓇᑎᑾ	-12.0506
ᓰᓯᐹᑾ	-12.0506
ᐅᑎᔑᑮᔗᐎᓂ	-12.0506
ᐱᒶᓯᓇᐃ	-12.0506
ᐹᐱᓄᑕᐎ	-12.0506
ᑕᐸᓭᑖᑾ	-12.0506
ᒋᑎᐯᓂᑎᓱ	-12.0506
ᓂᑲᐅᔑᐲᐊᒧᐙ	-12.0506
ᓃᔗᐙᓇᑭᓯ	-12.0506
ᓇᓈᑐᓂᑫ	-12.0506
ᐁᑮᐅᑕᐗᑳᓂᒥᑯ	-12.0506
ᐃᓬᐋᔭᑭ	-12.0506
ᐅᑑᑖᐱᓈ	-12.0506
ᐅᑑᔑᐲᐃᑲᓂ	-12.0506
ᐅᑳᐎᒥᓇᑭᔒ	-12.0506
ᐅᒨᑕᔮᐱ	-12.0506
ᐅᒪᒋᒋᑫᐎᓂᐙ	-12.0506
ᐅᓂᑸᑲᓂ	-12.0506
ᐙᐹᑲᒣᑕ	-12.0506
ᐙᓴᑯᓀᒋᑲᓈᑎᑰ	-12.0506
ᐯᕒᐆ	-12.0506
ᐱᒣᑕᑫ	-12.0506
ᐸᑲᒫᓂᒪ	-12.0506
ᐹᐹᐎᓯᑌᔑᒨᓄ	-12.0506
ᑭᐲᑲᐃᑲ	-12.0506
ᑭᑕᓄᑮᐎᓂᐙ	-12.0506
ᑭᑫᑌᐃᓈᑎᓯᐎᓂᐙ	-12.0506
ᑭᑭᓅᓄᐎ	-12.0506
ᑭᑳᓄᒀᓀ	-12.0506
ᑭᓃᑭᐃᑯᐙ	-12.0506
ᑯᔥᑴᑕᒨ	-12.0506
ᑳᐃᔑᐎᔑᐌᒪᑲ	-12.0506
ᒥᑌᓇᓂ	-12.0506
ᒥᑖᔀᔑᓃᔑ	-12.0506
ᒥᒋᒪᐱᓂᑯ	-12.0506
ᒥᒑᐱᑭᓯ	-12.0506
ᒥᓯᑌᔥᑳᒪᑲ	-12.0506
ᒪᒫᑖᐎᒋᑫ	-12.0506
ᓀᐗᑕᑎ	-12.0506
ᓂᑑᔑᐲᐃᑲᓂᓈ	-12.0506
ᓂᓯᑖᐌᑕᓰ	-12.0506
ᓇᓇᐃᓯᑑ	-12.0506
ᓬᐱᔭ	-12.0506
ᓯᕒᐊᐸᐸᓬ	-12.0506
ᓴᓰᒀᓈᐙ	-12.0506
ᔑᔮᓬᑏᔭᓬ	-12.0506
ᐁᓇᒥᐁᑕ	-12.0506
ᐃᔑᐐᔮᓯᐎ	-12.0506
ᐅᑮᓈᑯᓰᑕᐙ	-12.0506
ᐊᔨᔑᐌᐸ	-12.0506
ᐱᒫᔕᑳᒣ	-12.0506
ᑭᑭᓇᐙᒋᐲᐅ	-12.0506
ᑭᑮᐋᐸᐅᑯ	-12.0506
ᒫᑕᑖᔭ	-12.0506
ᒫᒦᓄᒥ	-12.0506
ᓅᑌᐐᒥᓂᑴ	-12.0506
ᔀ	-12.0506
ᐅᑮᒪᓈᒋᐋᓰ	-12.0506
ᐅᑮᓇᑲᓂᑰ	-12.0506
ᐅᑲᒨᓇᐋ	-12.0506
ᐅᓃᑳᓂᔥᑲᐙ	-12.0506
ᐙᑳᔮᐱᑭ	-12.0506
ᐹᕒᑖᓬᐊᒥ	-12.0506
ᑎᔦᐺᔦᓂ	-12.0506
ᑗᔮᐱᑌ	-12.0506
ᑭᒦᑭᐌᐎᓂᐙ	-12.0506
ᑳᐋᑾᑭᓱ	-12.0506
ᑳᑎᐯᓂᑎᓱ	-12.0506
ᑳᑮᒫᑕᓄᑮ	-12.0506
ᑳᒋᒋᐋᐙ	-12.0506
ᒦᑴᒋᐎ	-12.0506
ᓈᓈᑲᑕᐌᓂᑎ	-12.0506
ᓴᑲᑲᑭ	-12.0506
ᓵᓬᒪ	-12.0506
ᐅᒥᑮᐎ	-12.0506
ᐹᑭᑌᓇᒪᐙ	-12.0506
ᑳᐹᔥᑭᓀ	-12.0506
ᑾᔮᑕᑌ	-12.0506
ᒪᑲᑌᒥᔅᑴ	-12.0506
ᐅᑮᒥᓍᐸᒥᑰ	-12.0506
ᐲᑕᒫᑰ	-12.0506
ᓂᑮᓇᑲᑖ	-12.0506
ᐸᑲᒫᑲ	-12.0506
ᑭᑑᑭᒫᐎᐎ	-12.0506
ᓂᐯᐎᓈ	-12.0506
ᓂᑎᔑᒋᑫᓰ	-12.0506
ᓂᒦᑴᒋᐎᐋ	-12.0506
ᑮᑌᐺᑕᓰᐗ	-12.0506
ᑳᐐᑕᓄᑮᒪ	-12.0506
ᑖᐱᑕᐎ	-12.0506
ᐯᑫᑖᑾ	-12.0506
ᒫᑲᑕᓬ	-12.0506
ᐁᑮᐊᐸᑭᓱ	-12.0506
ᐱᒫᒋᒋᑳᑌ	-12.0506
ᐊᒥᓇᑖ	-12.0506
ᐃᔥᐹᓂ	-12.0506
ᐊᑯᓴᑲᐅᑰᒫ	-12.0506
ᑮᓂᓯᓯᐙ	-12.0506
ᑲᑮᑖᐌᑖ	-12.0506
ᒋᐊᓄᑳᑕᒫ	-12.0506
ᓃᓯᐌᐱᓈ	-12.0506
ᐐᒋᒥᓉᑕᒨᒥ	-12.0506
ᑭᐱᑎᓇ	-12.0506
ᐅᐐᑕᓄᑮᒫᑲᓇ	-12.0506
ᐌᔑᐅᐙᑫ	-12.0506
ᒫᐗᑑᓂᑫ	-12.0506
ᐅᑮᔑᑲᓄ	-12.0506
ᓴᒣᕒᐃᔮᐎᓂᓂᐗ	-12.0506
ᐋᒀᑎᓯ	-12.0506
ᐅᔒᒣᔑᒫᐎ	-12.0506
ᒣᓬᑳ	-12.0506
ᓲᑫᑖᑯᓯ	-12.0506
ᑲᑮᑴᓄᑕ	-12.0506
ᓂᑎᐯᑖ	-12.0506
▁¦144	-12.0506
ᐁᓂᓱᑎᐸᐃᑲᓀᔮ	-12.0506
ᓂᐸᑯᓭᑖ	-12.0506
ᐁᐹᑭᓯ	-12.0506
ᐅᒦᒋᒥᒥ	-12.0506
ᐅᑎᒀᓂᑫᑲ	-12.0506
ᐊᑯᓴᑲᐃᑲᓂᐎ	-12.0506
ᐋᔩᑌᑕ	-12.0506
ᑮᒋᑯᓇᔦᐱ	-12.0506
ᐲᐎᑌᐌᑖᑯᓯ	-12.0506
ᓴᒣᕒᐃᔮ	-12.0506
ᒪᓀᓯ	-12.0506
ᑮᓃᔣᒋᐗ	-12.0506
ᐁᐋᐗᓂᓂ	-12.0506
ᑮᐃᔥᑯᓭᓂ	-12.0506
ᐃᓈᐸᑕᒧᐎ	-12.0506
ᑮᑌᐐᓯᓂᐗ	-12.0506
ᐌᑌᑌ	-12.0506
ᐃᔑᓂᑳᓂᑰ	-12.0506
ᑮᓰᑲᐊᑖᓱᐗ	-12.0506
ᒥᓋᑭᓱ	-12.0507
ᑳᑮᐅᑎᓇ	-12.0507
ᑭᑎᓀᑕᒧᐎᓂᐙ	-12.0507
ᔖᑰᒋᐃᐌ	-12.0507
ᐲᓇᐊ	-12.0507
ᑭᒨᑎᔥᑭ	-12.0507
ᑲᑳᓱᒥᑯ	-12.0507
ᑭᑎᒫᑭᓈᑫ	-12.0507
ᐋᒋᓭ	-12.0507
ᑭᑫᒋᑲᓂᐎ	-12.0507
ᒋᐐᓯᓂᔭ	-12.0507
ᓇᑲᓀ	-12.0507
ᑭᐸᐙᑲᓇ	-12.0507
ᐅᒌᒫᓂᐙ	-12.0507
ᐐᓯᓃᒪ	-12.0507
ᐁᓍᑌ	-12.0507
ᑾᔮᒋᑕᒪᐎ	-12.0507
▁¦15	-12.0507
ᑳᓇᐁᑕᒥᐃ	-12.0507
ᐊᔫᑯ	-12.0507
ᑳᒦᓂᑰᔭ	-12.0507
ᐗᓂᔑᒥᐌ	-12.0507
ᑭᑌᐺᔦᑕᒧᐎᓂᓈ	-12.0507
ᓭᓭᑲ	-12.0507
ᐁᑭᑭᓯ	-12.0507
ᑌᐊᐲᒌ	-12.0507
ᑮᒫᒌᐊᓇᒥᐁᐙᑎᓯ	-12.0507
ᓇᑳᔥᑲᐎ	-12.0507
ᑳᐋᐸᒋᑑᔮ	-12.0507
ᐱᓯᑖᑰ	-12.0508
ᐋᐌᒋᑳ	-12.0508
ᒀᔥᑾᓂ	-12.0508
ᐊᑮᐎᐅᑭᒫ	-12.0508
ᐴᓂᓭᐗ	-12.0508
ᑳᒦᒋᓈᑳᑌᓂ	-12.0508
ᑭᑎᓀᓂᒥ	-12.0508
ᐸᐸᑭᑌᐅᑰ	-12.0508
ᔮᐸᒋᐋ	-12.0508
ᐃᓈᒋᒫ	-12.0508
ᑎᒀᓀ	-12.0508
ᐁᑐᓀ	-12.0508
ᑭᑭᓄᐊᒫᑎᐎᓂᐙ	-12.0508
ᐊᑖᓱᐎᑲᒥ	-12.0508
ᓇᓈᑯᒪ	-12.0508
ᑭᑮᐃᓀᑖ	-12.0508
ᑮᒫᓀᑕᒨ	-12.0508
ᐊᒧᒥᓀ	-12.0508
ᐱᒪᑎᓯ	-12.0508
ᔕᔒᐱᑕᐙᐙ	-12.0508
ᑳᑲᑮᑖᐎᓯ	-12.0509
ᒧᔐᓈᑾᓂᓂ	-12.0509
ᑮᐃᓇᐊ	-12.0509
ᐴᓀᑕᒫᑯᐙ	-12.0509
ᑌᐺᔦᓂᒥᑯᓰ	-12.0509
ᐱᒪᒧ	-12.0509
ᐗᓈᑕ	-12.0509
ᐁᓀᑕᒧᐗ	-12.0509
ᒪᓯᓇᐊᒪᐎ	-12.0509
ᓵᑭᐃᑎᓱ	-12.0509
ᑳᑭᑭᔥᑲᐎ	-12.051
ᑳᐃᔑᓂᑳᓂ	-12.051
ᐊᔪᒌ	-12.051
ᑮᒋᐅᑌᐺᑕᒨᒥ	-12.051
ᑭᑌᐺᑖ	-12.051
ᒫᓈᑕ	-12.051
ᒪᔥᑯᓯᐗ	-12.051
ᑭᑎᑳᓈᑎᑰ	-12.051
ᑭᑭᑫᓂᒫᓈ	-12.0511
ᐁᐐᐙᐸᒫᐗᓱ	-12.0511
ᐁᓂᓯᑐᑕᓯ	-12.0511
ᐅᒪᑲᑗᔥ	-12.0511
ᐱᑮᐌᓄᑕᐎ	-12.0511
ᑲᔥᑮᑎᐱᑭᓯᐎ	-12.0512
ᑳᐃᔑᐐᓱ	-12.0512
ᑲᑳᒋᐋ	-12.0512
ᐹᑮᑭᓂᑳᑌ	-12.0512
ᐋᐸᐅᑰ	-12.0512
ᑎᓅᐎ	-12.0512
ᒋᐅᑖᐱᓂᒥ	-12.0513
ᑎᐸᐊᒧ	-12.0513
ᑳᑭᑖᑎᓯ	-12.0514
ᐯᒋᒪ	-12.0514
ᐁᐐᐙᐸᒥᓇᑰ	-12.0514
ᐅᐙᓭᓯᐎ	-12.0515
ᑳᔑᓇᐃᓂ	-12.0515
ᐅᒪᒑᑎ	-12.0515
ᐅᑖᐱᓀ	-12.0515
ᑲᑳᒋ	-12.0516
ᓈᓈᑲᒋᐋ	-12.0516
ᐁᐙᓭᔮᓂ	-12.0517
ᐅᑮᑎᐹᑐᑖ	-12.0517
ᐱᑭᑭᓯ	-12.0517
ᒦᑴᒋᐌᓂᒪ	-12.0517
ᑲᓇᐌᑖᓈᐙ	-12.0517
ᐸᑭᔑᒧ	-12.0517
ᓈᑯᑕᒪᐙ	-12.0517
ᐗᓂᑑᑕᒧᐙ	-12.0518
ᑭᑑᓇᔓᐌᐎᓂᓈ	-12.0519
ᒫᒦᒀᓂᑎ	-12.0519
ᐁᑮᐅᒋᑲᐙᐱ	-12.0519
ᐊᒶ	-12.0519
ᓂᑮᐅᑎᑖ	-12.0519
ᑭᑑᑎᓯ	-12.052
ᑳᐃᔑᒨᑭᒋᐗ	-12.052
ᒨᔥᑭᓀᒪᑲ	-12.0521
ᓈᑐᓀ	-12.0521
ᒪᑕᐐ	-12.0521
ᐁᐱᒥᐊᔮᓂ	-12.0522
ᑭᑎᓂᓯᓅ	-12.0522
ᐲᑾᑲᒥᑭ	-12.0522
ᐐᒋᐱᒫᑎᓰᒥ	-12.0523
ᓂᑮᒦᓂᑯᓈ	-12.0523
ᐁᐯᑲ	-12.0523
ᓯᑑᓈᐙ	-12.0523
ᑭᐐᐐᑕᒪᐎ	-12.0524
ᐌᑭᒫᐎ	-12.0524
ᐗᓂᔥᑴᐃᑯ	-12.0524
ᑰᐹᑌᓂᒥᐌ	-12.0524
ᔖᑰᒋᑑ	-12.0524
ᐱᑑᓈᐙ	-12.0525
ᒪᒋᑑᑕᒧᐃᑯ	-12.0525
ᐁᑭᑭᔥᑲᐎ	-12.0526
ᑫᐅᒋᑭᑫᑕᒪ	-12.0527
ᐱᒋᑲᓂᐎᓂ	-12.0527
ᐊᔮᒀᒥᒥᑰ	-12.0527
ᑳᐙᐸᒫᓯ	-12.0527
ᐃᓇᓯᑰ	-12.0528
ᑮᐃᓈᒋᒧ	-12.0528
ᒪᔥᑲᐙᑎᓯ	-12.0529
ᓂᑕᔮᐙᓰ	-12.053
ᑮᐅᓶ	-12.053
ᐐᒋᐱᒫᑎᓰᒫ	-12.0531
ᑮᐊᔦᒀᒥᒫ	-12.0531
ᑭᑮᐊᓇᒥᑑ	-12.0532
ᑳᐃᔑᓃᓇᒥᓯ	-12.0532
ᑭᑭᓇᐙᐸᒋ	-12.0532
ᓈᓯᑲᐌ	-12.0532
ᐅᑾᔭᑯᒋᑫᐎ	-12.0533
ᓃᒥᑕᓇᔑᓃᐎ	-12.0534
ᑫᐃᔑᑲᔥᑭᑑ	-12.0534
ᐊᑖᒥ	-12.0534
ᑲᑴᐗᓈ	-12.0535
ᑭᑲᐐᑕᒫᑯᐙ	-12.0536
ᑳᑮᑭᑎᑳᓱ	-12.0536
ᐯᑭᐃᑰᔭ	-12.0537
ᐅᐲᐌᓰᒪ	-12.0538
ᒋᒥᓂᑴᔭ	-12.0539
ᓃᔣᓯᒥᑕᓇᔑ	-12.0539
ᐸᐹᒣᓂᒫᑫ	-12.054
ᑳᑳᒋᑳᑌ	-12.0541
ᐗᓂᐋ	-12.0541
ᑕᔑᑖᓈᐙ	-12.0541
ᑖᐸᒋᐋ	-12.0543
ᑭᑭᓄᐊᒫᑰᔭ	-12.0543
ᐊᐯᓂᒧᓄᑕᐙᐙ	-12.0545
ᑭᓰᓯᐸᑑ	-12.0545
ᑭᒋᐅᑭᒫᐌᑖᑯᓯ	-12.0545
ᓂᑎᔑᐊᔮ	-12.0547
ᒋᐊᓈᒥᒥᓀ	-12.0548
ᒥᒋᒥᓇᒧ	-12.0549
ᐊᓇᒥᐁᐎ	-12.0552
ᒌᐯᑲᒥᑯ	-12.0553
ᐊᔭᐋᐎᔑ	-12.0555
ᔥᑭᑫ	-12.0556
ᑎᐸᐃᑫᐃᐌ	-12.0556
ᑖᑎᓰ	-12.0556
ᓇᒫᑯ	-12.0556
ᓬᐃᓯ	-12.0557
ᑭᑖᐎᓂᐙ	-12.0558
ᐁᑮᓇᓇ	-12.0559
ᓃᑳᓃᑕᒪᐎ	-12.0559
ᐃᔑᐎᔑ	-12.0559
ᐌᓅᑕ	-12.056
ᑰᐹᓯᓈᑯᓯ	-12.056
ᒋᑮᒦᒋ	-12.0561
ᐊᓂᒧ	-12.0561
ᑮᐃᓂᑖᑾ	-12.0562
ᑾᔭᑯᐱᒫᑎᓯ	-12.0564
ᑭᑎᔑᒋᑫᐎᓂᓈ	-12.0565
ᐅᑑᔥᑭ	-12.0566
ᒋᐅᐱᓂ	-12.0568
ᒥᓉᑕᒥᐃᑎᓱ	-12.0572
ᐊᐱᓅᒌᔑᐎ	-12.0576
ᑌᐱᓇᒪ	-12.0578
ᐙᓭᓈᑾ	-12.058
ᓇᐃᓂᑳᑌ	-12.058
ᐙᑳᔥᑳᑯ	-12.0581
ᔑᑖᐗ	-12.0582
ᐊᔓᑕᒫᑰ	-12.0588
ᐸᐃᑲᓂᐎ	-12.0589
ᐋᔩᒋᐊᔓᑕᒫ	-12.0589
ᒪᔥᑲᐌᑖᑾᓂᓂ	-12.0591
ᑳᑮᐃᒋᑳᑌ	-12.0592
ᑲᓇᐙᐸᒪ	-12.0602
ᑲᔦᔑᒥ	-12.0603
ᓴᑳᑲᒥ	-12.0608
ᒥᑭᑳᑌᓯ	-12.0609
ᐱᔭᔮ	-12.061
ᒫᒪᑳᑌᑕᒧ	-12.0615
ᒋᒥᓉᑕᒪ	-12.0617
ᐱᒥᑌᓴᐱ	-12.0618
ᐗᔦᔑᒥᑯ	-12.0622
ᑭᑮᐅᓈᐸᒥ	-12.0625
ᐅᒋᒌᑾᓃᑕᐙᐙ	-12.0628
ᒎᐎᐎᓯ	-12.0629
ᒫᔑᑑᑕᐎ	-12.0631
ᐸᑭᑎᓂᑳᓱ	-12.0633
ᐊᓇᒥᐁᑳᓱ	-12.0637
ᐊᑕᐙᐸᒥᓇᑰ	-12.0642
ᑮᐃᔥᒀᓂᐳ	-12.0643
ᐯᑭᐃᑰᐎᓯ	-12.0647
ᐐᐱᑎ	-12.0671
ᐁᔑᐊᓇᒥᐁᑕ	-12.0675
ᐅᒋᐱᒫᒋᐃᑰ	-12.0679
ᐁᐊᓂᐱᒥ	-12.068
ᑮᐅᓇᑑᓂ	-12.069
ᑲᒀᑕᑫᑕᒧ	-12.0692
ᑳᑮᐊᑐᒥᑣ	-12.0704
ᑕᔑᒥᑯᐙ	-12.0706
ᑮᑮᐌᐃᔖ	-12.071
ᓀᑕᒨ	-12.0713
ᐸᐲᒶᓯᓇᐃᑯ	-12.0716
ᐃᓈᑯᓂᑰᔭ	-12.0717
ᑎᐹᑯᓂᑫᐎᓂᓂ	-12.0726
ᑳᐅᒋᐅᔑᐲᐊ	-12.0727
ᓰᒋᔥᑳ	-12.0735
ᒥᓴᐌᓂᒫ	-12.0737
ᑳᓀᑖᑾ	-12.074
ᑕᓱᑎᐸᐃᑲᓀᔮ	-12.0745
ᓂᑮᒥᑲᐙᓈ	-12.0757
ᒋᓅᑌᓭᓯ	-12.0763
ᓂᔑᐗᓈᑕᓯᓂᓂ	-12.0766
ᓰᑭᓇᒪᐎ	-12.0771
ᔖᐳᔥᑲ	-12.0774
ᐊᔭᐱ	-12.0779
ᐁᐙᓯᑌ	-12.078
ᑮᐌᐱᒫᑎᓯᐃᑣ	-12.078
ᐸᑭᑎᓂᑰᐎ	-12.0784
ᐃᓀᑖᑯᐋ	-12.0797
ᐊᓂᐅᒋᒋᓭᓂ	-12.0823
ᐅᒦᒦᓯ	-12.0824
ᐸᐹᒥᓯᐎᓂ	-12.0839
ᑲᑮᑭᒥ	-12.0849
ᒉᕒ	-12.0851
ᐸᑫᐎᓂᑎᐎ	-12.0863
ᓱᐎᑲᒥᑯ	-12.089
ᓱᐱᐴ	-12.0897
ᑭᓇᑕᐌᓂᒥᑰ	-12.0907
ᑲᔥᑭᐊ	-12.0917
ᐊᓂᒪᒋᑑᑕ	-12.0918
ᐸᒥᐃᐌ	-12.1029
ᐱᐊᑕᐙᐸᒥ	-12.1033
ᑭᒋᐅᓈᑲ	-12.104
ᑮᒫᒌᑭᑭᓄᐊᒫᑫ	-12.1043
ᐋᓇᐌᑕᒧ	-12.106
ᑮᐸᑭ	-12.1069
1	-12.1081
ᑳᐅᑎᓇ	-12.1089
ᐌᒌᒪᑲᓂᓂ	-12.1105
ᑎᓇᐌᒫᑲᓇ	-12.111
ᐁᑕᔑᒥ	-12.1131
ᑕᐗᑳ	-12.1142
ᑲᐎᐌᐱ	-12.1142
ᒋᓈᓈᑲᒋ	-12.1145
ᓃᒑᓂᓴ	-12.117
ᑳᐊᓇᒥᐋᓯ	-12.1172
ᐊᓈᒣᑖᑯᓯ	-12.1178
ᑕᒦᓈᓰ	-12.119
ᐅᒌᓯᓅ	-12.1194
ᒫᓀᑕᒥᐃ	-12.1216
ᑏᐎ	-12.1251
ᐁᐊᔮᓯᓂ	-12.1265
ᐅᑖᔑᑌᔮᑎᑯᒥ	-12.1301
ᐃᔑᒋᑫᓈᓂᐗᓂᓂ	-12.1309
ᐁᐊᐯᓂᒧᓄᑕ	-12.1319
ᑮᐌᓄᑕ	-12.1328
ᑏᒪᑲ	-12.1333
ᑲᐯᔑᐎ	-12.1337
ᐐᒋᐁᒀ	-12.1355
ᑮᐅᒋᓅᑖᑾ	-12.136
ᑮᐃᓈᑯᓂᑯ	-12.1368
ᐐᓯᓂᐎ	-12.1378
ᒉᓯ	-12.1386
ᐊᓇᒥᐁᐙᑎᓯᐎ	-12.1418
ᑐᓀᐊᒧᐙ	-12.1443
ᐁᐹᐱᓄᑕ	-12.1449
ᒋᒥᓂᒀ	-12.1471
ᒋᑌᐱᓇᒧᐗ	-12.1506
ᔑᓭᐙ	-12.1535
ᑑᑖᓈᐙ	-12.1557
ᓅᑖᑰ	-12.1616
ᒋᒥᓍᒋ	-12.162
ᐅᔑᑕᒫ	-12.1625
ᐋᐸᒋᒋ	-12.165
ᐅᓲᐎ	-12.1696
ᒋᐅᒋᒥᓂᑴ	-12.171
ᐁᐋᑾᑭ	-12.1789
ᑕᓄᑮᐊᑲ	-12.1884
ᐅᒋᐊᑲᒋ	-12.1885
ᑮᔑᒋᑳᑌ	-12.1913
ᐁᑭᑫᓂᒥᓯ	-12.192
ᓴᓰᓶ	-12.1923
ᑭᓰᓂᒌᓯ	-12.1932
ᓂᓵᐹᐌ	-12.1964
ᒦᓂᑯᓈ	-12.1979
ᒋᐸᑭᔑᒫ	-12.2031
ᔑᐐᑑᑳᓱᔦ	-12.2079
ᐃᓀᓂᒥᔑ	-12.2092
ᔖᑲᓯᒥᑕᓇᔑ	-12.2111
ᑮᐌᐱᒫᑎᓰᐃ	-12.2182
ᑮᐅᒋᐸᑭᔑ	-12.2186
ᐊᑰᑌᓂ	-12.2215
ᐃᔑᐌᐱ	-12.2227
ᐅᒑᓂᒥᓯᐎ	-12.2271
ᐄᓬᐋ	-12.2317
ᒋᓇᐃᑕᐌ	-12.2341
ᐹᑭᓭᓂ	-12.2389
ᐁᑯᑖᓀᓂ	-12.2412
ᐊᔦᒀᒥᒥ	-12.2445
ᑮᐅᓀᓂᒥᑯᐙ	-12.2585
ᐸᑲᑭ	-12.2616
ᐁᐅᑕᒥ	-12.2616
ᐱᓵᓀᑕᒧ	-12.2618
ᓯᓇᐊᒪᐗ	-12.265
ᒪᑲᓄᑴ	-12.2707
ᐯᔑᑴᐙᓇᑭᓯ	-12.2716
ᓈᑯᓯᐎᓂ	-12.2738
ᓂᓯᑕᐎᓇᐙᐙ	-12.2753
ᑭᑲᑳᓱᒥ	-12.2767
ᑭᑭᓇᐙᒋᑑ	-12.2809
ᐱᐅᒋᒋᓭ	-12.2813
ᔑᓯᑑ	-12.2822
ᑌᐱᓇᒧᐗ	-12.2842
ᒥᓄᑑᑖᑯ	-12.2883
ᑳᑯᑖᓀᓂ	-12.2914
ᒋᓵᑭᐁ	-12.2926
ᐊᓈᒣᑖᑯᓯᓯ	-12.297
ᑕᐃᔑᓈᑾᓯ	-12.3017
ᑲᑮᑖᐌᑕᒧ	-12.3065
ᒫᐗᑑᓇ	-12.3066
ᐊᔨᑭᑐ	-12.3076
ᐊᔕᐙᐸᑕ	-12.3152
ᑌᐊᐲᑌ	-12.3172
ᓂᑕᓇᒥᐁ	-12.3235
ᒋᐅᒋᐐᓯᓂ	-12.3272
ᑲᑮᑭ	-12.3305
ᒥᓄᐐᒌᐎᑯᐙ	-12.3305
ᑎᓯᓯᒀ	-12.3316
ᒪᔥᑲᐎᓰᒪᑲᓂᓂ	-12.3325
ᑎᓯᐎᓂ	-12.3349
ᑭᑭᑯᓇᔦ	-12.3377
ᐁᑮᔖᑰᒋ	-12.338
ᐴᓀᑕᒪᐎᔑ	-12.3421
ᑲᑳᓱᒥᑰ	-12.3445
ᐅᒥᑮᐙᐱᓀᓂ	-12.3479
ᑳᐃᔑᑕᔑᑌ	-12.3499
ᑎᔑᓂᔕᐙᑲᓂᒥ	-12.354
ᐅᑑᓇᔓᐌ	-12.3551
ᓄᑮᔮ	-12.3591
ᒋᐅᔑᑕᒪ	-12.3596
ᓇᐌᓂᒥᑯ	-12.3615
ᓅᑖᑳᓂᐗ	-12.3621
ᐃᔑᓂᔕᐊᒪ	-12.3628
ᑳᓃᑳᓃ	-12.3639
ᑭᑲᓇᓈᑐ	-12.3643
ᓇᒪᐎᑣ	-12.3643
ᓈᐸᑕᓯᓄ	-12.3652
ᐋᑾᑭᑌᓂ	-12.3654
ᒋᑲᓅᑕᒫ	-12.3693
ᒪᐎᓯᓅ	-12.3712
ᐅᑭᒫᐌᑖᑯᓯ	-12.3741
ᒋᐱᓈᓯᑲ	-12.3743
ᐙᐱᔥᑳ	-12.3744
ᐅᐲᐌᓰᒥ	-12.3747
ᐸᒥᓇᒧᐃ	-12.3753
ᓃᑳᓂᓂᔕ	-12.3757
ᓇᑭᓱᓰ	-12.3757
ᑫᐃᓈᑯᓂ	-12.3773
ᐱᒫᑎᓰᔥᑳᑫᒪᑲ	-12.3778
ᓵᑭᒋᓂᔕᐊᒪ	-12.3781
ᒫᒪᐌᓄ	-12.3783
ᐸᐹᒣᓂᒫ	-12.3792
ᑭᑌᐺᔦᑖ	-12.3794
ᑲᒥᑭᓯᐙ	-12.3795
ᒥᑴᓂᒥ	-12.3799
ᑭᒋᐊᓇᒥᐁᐸᒀᓀᑲᒥ	-12.3799
ᑗ	-12.3802
ᑮᐃᓉ	-12.3803
ᓂᓃᒑᓂ	-12.3804
ᐸᐸᑴᐱ	-12.3808
ᐊᔭᐋᒥᓈᐸ	-12.381
ᑾᔭᒀᑎᓰ	-12.3812
ᑮᐊᑕᐌᑖ	-12.382
ᓈᑯᔑᓂᓂ	-12.382
ᐅᒋᒌᑾᓇᐱ	-12.3821
ᑕᒑᑾ	-12.3824
ᒫᒌᓂᔕ	-12.3824
ᐺ	-12.3827
ᒨᑭᒋᐗ	-12.3828
ᓋ	-12.383
ᑎᓲᒪᑲ	-12.3831
ᑲᔥᑮᑎᐱᑭ	-12.3831
ᐙᐸᒫᐗᓱ	-12.3832
ᐁᑮᓇᓃᓵᓂ	-12.3835
ᐊᑕᐌᓂᒣ	-12.3836
ᒫᒪᑳᑌᑖ	-12.3836
ᐲᑖᐸ	-12.3836
ᑾᔮᒋᑕᒫ	-12.3837
ᐅᔥᑲᐱᓅᒌ	-12.3838
ᑭᐸᐅᑏᐎ	-12.3838
ᐋᓂᑫᐎᑭᒫ	-12.3839
ᓯᒫᐎ	-12.3839
ᐅᒥᓍᑎᓰ	-12.3839
ᐅᒥᑮᐙᐱᓀᐙ	-12.3839
ᑭᔑᐹᔥᑳ	-12.3839
ᑮᐸᔑᐸᐙ	-12.3839
ᑳᐅᒌᓱᐌᐎᓂ	-12.3839
ᑳᔮᓇᐌᑖᑯᓯ	-12.3839
ᐃᔅᑲᐃᐹ	-12.3839
ᐊᐹᐃᒐ	-12.3839
ᐗᓂᐎᔑᐌ	-12.3839
ᐸᐸᑭᐗᔮ	-12.3839
ᐸᐹᒣᑕᓰ	-12.3839
ᐸᑭᑎᓈᔂᓂᐎ	-12.3839
ᐹᑭᑌᓇᒪᐎ	-12.3839
ᑫᓀᓴᕒᐃ	-12.3839
ᑭᐙᐎᔐᓂᒥ	-12.3839
ᑭᔑᐗᔥᑲᑌ	-12.3839
ᑲᑮᐹᒋᑮᔗ	-12.3839
ᑳᐃᔑᑲᒀᑕᑭᓭᔮ	-12.3839
ᒥᓄᒫᓯᑲ	-12.3839
ᓃᐲᔑᐗᓂᓂᑭ	-12.3839
ᓃᓵᒪᒋᐌ	-12.3839
(	-12.3839
)	-12.3839
ᐁᑲᐗᔅᑲᑌ	-12.3839
ᐁᒪᑲᑌᒥᔅᒀ	-12.3839
ᐁᓇᒥᐁᐙᑎᓯ	-12.3839
ᐁᔑᒥᓴᐌᑕᒨᒪᑲ	-12.3839
ᐁᔥᐯᑖᑯᓯ	-12.3839
ᐁᕒᐃᔮᐸᑲ	-12.3839
ᐃᔒᑭᓄ	-12.3839
ᐃᔥᐱᒦᑲᑌ	-12.3839
ᐅᐐᐋᐸᒋᐋ	-12.3839
ᐅᐸᑫᐎᓯᐎ	-12.3839
ᐅᑮᐐᐴᓂᑑᓰᓈᐙ	-12.3839
ᐅᑮᒫᒪᑳᓯᑕ	-12.3839
ᐅᑮᓈᑯᓰᑲᑕᐙ	-12.3839
ᐅᓀᓯᒪ	-12.3839
ᐅᔥᑭᐅᔑᒋᑲᓂᐎ	-12.3839
ᐊᑳᓴᑌᔮ	-12.3839
ᐊᓀᓯᑆᕒᐊ	-12.3839
ᐊᓃᐲᔑᐎ	-12.3839
ᐋᑰᐱᓱ	-12.3839
ᐌᒥᑮᐙᐱᓀ	-12.3839
ᐌᔫᓯᒪ	-12.3839
ᐐᒋᑳᐸᐐᑕᐙ	-12.3839
ᐐᓴᑳᐱᓇᓂ	-12.3839
ᐯᑎᒀᔅ	-12.3839
ᐯᔣᐸᑖ	-12.3839
ᐯᕒᓇᐃᓯ	-12.3839
ᐱᐅᒋᓈᔑᔥᑳ	-12.3839
ᐸᐹᒣᑕᑫ	-12.3839
ᐸᓯᑶᒋᓭ	-12.3839
ᐸᕒᐃᒋᔭ	-12.3839
ᐹᐱᓄᑖᑰ	-12.3839
ᑕᐊᐲᒋᐅᓂᔑᔑᐌᒋᑲᓂᐎ	-12.3839
ᑕᐸᓴᑲᒥᑳ	-12.3839
ᑕᒀᑲᒥᓂᑳᑌ	-12.3839
ᑫᐴᓂᐊᔮᓯᓂᓂ	-12.3839
ᑭᑑᓃᒑᓂᓯᒥᑯ	-12.3839
ᑭᑑᓇᔓᐌᐎᓂᐙ	-12.3839
ᑭᑕᐲᑌᑖᑯᓯ	-12.3839
ᑭᑖᐸᑫᐎᓂᑯ	-12.3839
ᑭᑭᓇᐙᒋᐋ	-12.3839
ᑭᑭᓇᐙᓯᓈᑯ	-12.3839
ᑭᑭᓇᐙᓯᓈᑾ	-12.3839
ᑭᔕᑾᓀᓂ	-12.3839
ᑮᓀᓈᐎᓇᒫᑎ	-12.3839
ᑮᔥᑳᔭᐙ	-12.3839
ᑯᔥᑯᐎᓂᑯ	-12.3839
ᑯᔥᑾᑲᒥᑭᓭ	-12.3839
ᑲᑳᓍᐲᑲᐊᔐ	-12.3839
ᑳᐅᐐᒋᑭᐌᑎ	-12.3839
ᑳᔕᐌᓂᒪ	-12.3839
ᒉᑭᐲᓈ	-12.3839
ᒋᐋᐸᐊᒧᐗ	-12.3839
ᒋᐱᒥᐎᑕᒪᐙ	-12.3839
ᒋᒧᔐᔮᐸᒋᑳᑌ	-12.3839
ᒎᓬᐃᔭ	-12.3839
ᒐᕒᐆᐱᒪ	-12.3839
ᒣᓉᑕᒥ	-12.3839
ᒥᑖᔀᔑᓃᔓ	-12.3839
ᒥᓯᑌᔥᑳᓂ	-12.3839
ᒦᑴᒋᐌᑖᑯᓯ	-12.3839
ᒦᓂᔖᑎ	-12.3839
ᒪᐗᑎᔑᐌ	-12.3839
ᒪᒉᑖᑯᓯ	-12.3839
ᒫᐃᓬᐄᑕ	-12.3839
ᓂᑑᑕᑳᓀ	-12.3839
ᓃᓵᐲᑭᓂ	-12.3839
ᓵᑲᐊᒨᒪᑲᓂᓂ	-12.3839
ᓵᑳᓯᑫ	-12.3839
ᓵᓰᑲᐅᑯ	-12.3839
ᔕᔒᐯᑖ	-12.3839
ᔕᔒᐯᓂᑎ	-12.3839
ᐃᔥᐹᐸᑌ	-12.3839
ᐋᑌᑕᓰ	-12.3839
ᐋᔮᔐᓂᑎ	-12.3839
ᐗᓂᐎᓈᐙ	-12.3839
ᐙᓵᑯᓇᐌ	-12.3839
ᐲᑖᓂᑳᓀᓭ	-12.3839
ᐲᒋᓂᔕᐊᒪᐎ	-12.3839
ᑭᑎᒫᑭᓈᑰ	-12.3839
ᑭᑮᐊᔕᒥ	-12.3839
ᑮᒥᓄᔭᔮ	-12.3839
ᑮᒪᑌᑳᐸᐎ	-12.3839
ᑮᔖᑴᓂᒧ	-12.3839
ᑯᑖᓀᑖᑯᓯ	-12.3839
ᑲᑮᓇᐎᔥᑳᒋ	-12.3839
ᑳᐃᓍᑌ	-12.3839
ᒣᔥᑲᐌᑖᑯᓯ	-12.3839
ᒥᑕᔅᑭᑎᒀᓀ	-12.3839
ᒥᓴᐎᓈᑫ	-12.3839
ᒫᒦᑳᑏᒪᑲ	-12.3839
ᓵᒥᔫ	-12.3839
ᐅᔾᐆᓯ	-12.3839
ᐊᑾᓇᐃᑳᑌ	-12.3839
ᐊᔫᓵᒥᓯ	-12.3839
ᐊᔮᔐᓂᑎ	-12.3839
ᐋᓇᐌᓂᑎᓱ	-12.3839
ᐐᒋᐅᑕᑳᓀᓰ	-12.3839
ᐗᓯᔀᓂ	-12.3839
ᐯᔣᐸᑕ	-12.3839
ᐱᒨᑲᐊ	-12.3839
ᐲᒋᓂᔕᐗ	-12.3839
ᐸᑭᑖᐲᑭ	-12.3839
ᑫᕒᐊᓵ	-12.3839
ᑭᑫᑌᔭᐋᒥᓈᓂ	-12.3839
ᑮᔫᑕᒥᑰ	-12.3839
ᑲᓬᐋᑎᔭ	-12.3839
ᑳᐊᒑᑴᑖᑯᓯᓂ	-12.3839
ᑳᓂᔑᐗᓈᒋᐃᐌᒪᑲ	-12.3839
ᒋᑎᐯᓂᒪ	-12.3839
ᓂᑑᔑᐲᐊᒪᐙ	-12.3839
ᓴᒣᕒᐃᔮᐎᑴ	-12.3839
ᓵᔨᒪ	-12.3839
ᐃᓇᑲᒥᑭᓯ	-12.3839
ᐅᑕᔮᒀᒣ	-12.3839
ᐅᑭᔐᒪᓂᑑᐙᑎᓯᐎ	-12.3839
ᐅᒋᒌᑾᓃᑖ	-12.3839
ᐊᔨᔑᓂᑫ	-12.3839
ᐋᒀᑎᓰᑲᑕ	-12.3839
ᐗᑫᐎᑭᑖᓱ	-12.3839
ᑭᑫᑌᐃᓈᑎᓯᐎᓂᓈ	-12.3839
ᑮᒨᒋᔥᑮᐎᓂ	-12.3839
ᑳᒪᔥᑲᐎᑌᐺᑕᓯ	-12.3839
ᒋᐸᐹᑾᒋᐱᑑ	-12.3839
ᒋᑎᐹᒋᒪ	-12.3839
ᒑᑳᑭᓱ	-12.3839
ᒪᐄᑲᓂ	-12.3839
ᓃᔓᑮᔑᑾᑳ	-12.3839
ᐃᓈᓴᒪᐲᑕ	-12.3839
ᐅᒋᔥᑲᐗᐊᒫ	-12.3839
ᐐᒋᔭᔮᒫ	-12.3839
ᐗᓇᔥᑴ	-12.3839
ᐹᐃᓬᐄ	-12.3839
ᑕᓇᒥᐋᐎᓂᓈ	-12.3839
ᑮᐊᐲᑖᔭᐙ	-12.3839
ᑮᑫᔩᑲ	-12.3839
ᑳᐊᒑᑴᑖ	-12.3839
ᒋᑭᑭᓄᐎ	-12.3839
ᒪᔥᑲᐗᓄᑮ	-12.3839
ᓃᑳᓈᒋᒧ	-12.3839
ᓴᑭᓂᑫᓂ	-12.3839
ᑎᐹᐹᐗ	-12.3839
ᑭᑮᑎᐸᐅᑯ	-12.3839
ᒋᒣᓂᔐᑕ	-12.3839
ᓃᓴᒋᐌ	-12.3839
ᐅᑖᓇᐌᓂᒫ	-12.3839
ᐅᑮᐊᑖᐙᑫᓈᐙ	-12.3839
ᐸᑭᑎᓂᑎᓱᑲᑕᐙ	-12.3839
ᑎᐸᐃᑳᑫ	-12.3839
ᑫᑮᑖᐌᑕ	-12.3839
ᒋᐅᑎᓵᐸᑕ	-12.3839
ᐲᑲᒧ	-12.3839
ᐴᑯᑳᑌ	-12.3839
ᑕᒫᒌᒋᑲᓂᐎ	-12.3839
ᓵᕒᑎ	-12.3839
ᐁᒫᒥᑴᓂᒥ	-12.3839
ᐅᓱᓵ	-12.3839
ᐊᑐᑕᒪᐎ	-12.3839
ᐗᓯᑖᐌ	-12.3839
ᒪᒌᐗᑮ	-12.3839
ᒫᒌᔥᑳᒪᑲᓂᓂ	-12.3839
ᒫᒥᑲᐙᓱ	-12.3839
ᓂᑕᔮᒀᒥ	-12.3839
ᓂᑲᑮᑴᐎᓂ	-12.3839
ᓅᓯᓈᐸ	-12.3839
ᐊᔓᐎ	-12.3839
ᐱᒪᓄᑮ	-12.3839
ᒫᒨᔕᑭᓈ	-12.3839
ᐸᐸᔕᔐᐙᐙ	-12.3839
ᐎᑰᒋᑲ	-12.3839
ᑭᑆᐸ	-12.3839
ᑳᑮᐅᒋᒥᓉᑕᒫ	-12.3839
ᒋᑯᓇᔮ	-12.3839
ᓂᔑᔑᐌᑖᑯᓯᐎᓂ	-12.3839
ᓯᓬᐆᐗ	-12.3839
ᔔᓂᔮᐗᔑᐙ	-12.3839
ᐅᑑᑭᒫᐗᐱᐎᓂ	-12.3839
ᑮᓯᓶ	-12.3839
ᑫᑮᐹᑎᓯ	-12.3839
ᑮᓂᓵᐹᐌᐗ	-12.3839
ᒋᒪᐎᔂ	-12.3839
ᐅᒌᑳᑯᐙ	-12.3839
ᓂᑮᐙᐸᒥᒫ	-12.3839
ᒋᒥᓄᔭᔮ	-12.3839
ᐅᑭᒋᒪᔥᑲᐎᓰᐎᓂ	-12.3839
ᐅᔑᑰᒋᑲ	-12.3839
ᐋᐱᔅᑯᓂ	-12.3839
ᐁᑮᓈᓈᑲ	-12.3839
ᑰᑰᔑ	-12.3839
ᒪᓯᓂᔑ	-12.3839
ᒪᔥᑲᐎᑭᐋ	-12.3839
ᔕᐌᓂᑎ	-12.3839
ᐁᐐᑎᑫᐋ	-12.3839
ᑭᐱᔑᑮ	-12.3839
ᑮᑭᐸᐃᑳᑌ	-12.3839
ᑳᐅᒋᒥᒋᒥᔥᑳ	-12.3839
ᐃᓈᑯᓂᑲᓂᐎ	-12.3839
ᐲᓇᐃᑲ	-12.3839
ᑎᐱᓴᑣ	-12.3839
ᑭᒋᐊᔭᐋᒥᐙᐸᓃ	-12.3839
ᑳᐅᑎᓂᑳᑌ	-12.3839
ᑳᑮᐃᓈᒋᒥᑰ	-12.3839
ᓰᑲᐊᑖᑰᐎᓯ	-12.3839
ᓵᒥᔥᑳᑯ	-12.3839
ᐃᓈᑲᒥᓭ	-12.3839
ᐁᑲᑮᐹᑌᑖᑾᓂᓂ	-12.3839
ᐋᒪᒋᐌ	-12.3839
ᐹᕒᑎ	-12.3839
ᒋᐸᐹᒥᑕᓯ	-12.3839
ᒪᔥᑲᐗ	-12.3839
ᐅᑎᓉᐎ	-12.3839
ᐋᓇᒥᓯᐎ	-12.3839
ᒥᑌᐎ	-12.3839
ᑎᓄᐙᑲᒥ	-12.3839
ᐁᔑᑌᐺᔦᑕᒫ	-12.3839
ᐸᑲᑫᑕ	-12.3839
ᑖᔥᑭᓭ	-12.3839
ᑭᓃᑳᓂᓰᒥ	-12.3839
ᑳᑮᐅᓇᑭᒥᑯ	-12.3839
ᔖᐴᔥᑲ	-12.3839
ᓃᑲᑌ	-12.384
ᑕᑾᑭᒫ	-12.384
ᓇᑲᒌ	-12.384
ᐁᑮᒫᓈᐸ	-12.384
ᐁᒥᔖ	-12.384
ᑭᑭᓄᐊᒪᐗᑣ	-12.384
ᑴᑮᓄᑕᐙᓂ	-12.384
ᑭᑎᐹᒋᒥᑯᐙ	-12.384
ᐅᔑᐲᐊᒫᑰᓰ	-12.384
ᒋᒣᒀᔥᑲ	-12.384
ᑳᓃᑳᓂᓰᑲ	-12.384
ᐲᑯᔥᑳ	-12.384
ᑭᑭᔥᑲᒨᓂ	-12.384
ᒦᑭᐙᓂᐗ	-12.384
ᐱᑯᑯᐹ	-12.384
ᑳᑖᓄᑕ	-12.384
ᑭᒋᓅᒋᐃ	-12.384
ᑮᔥᑭᔕ	-12.384
ᑳᑮᐊᔨᑑᑕ	-12.384
ᒥᑴᑕᒧ	-12.384
ᐅᑑᔑᒋ	-12.384
ᐱᒫᐅᑯ	-12.384
ᑲᐋᐸᒋᐋ	-12.384
ᐙᐸᑕᐃᑰᐎᓯ	-12.384
ᐊᔫᒌ	-12.384
ᐅᑎᓇᒫᓱ	-12.384
ᑳᓬᐃᐅ	-12.384
ᒋᑎᐹᑐᑕᒪ	-12.384
ᐊᐹᓬᐊ	-12.384
ᐸᔭᑌᓈᑾᓂᓂ	-12.384
ᑫᑭᔥᑳᑯ	-12.384
ᑭᒑᐱᐌᐸ	-12.384
ᓬᐆᔑᔭ	-12.384
ᐸᑫᐎᓈ	-12.384
ᑮᔑᑲᓄᑫ	-12.384
ᔑᒨᓄ	-12.384
ᓃᑳᓂᓰᑲᑕᐙ	-12.384
ᑳᐅᒋᑎᐯᑖᑾᑭ	-12.384
ᒋᐴᓀᑕᒫᑫ	-12.384
ᕒᐋᔅᑕ	-12.384
ᓂᑖᐎᑮ	-12.384
ᑖᐲᐸ	-12.384
ᓵᑭᓯᐋ	-12.384
ᑳᐸᐹᒥᓭ	-12.384
ᑳᐊᒑᑯᐗ	-12.384
ᒋᑭᐱᔥᑲ	-12.384
ᐅᔥᑲᐱᓅᒌᔕ	-12.384
ᐸᑲᑲᒥᑳ	-12.384
ᐐᒋᓂᐴᒫ	-12.384
ᒥᑯᔥᑳᒋᐋ	-12.384
ᓵᒐᓰᐎᓂᓂᐗ	-12.384
ᐁᐗᓂᒫ	-12.384
ᓅᑌᐃᔥᒀᐱᒫᑎᓯ	-12.3841
ᐁᔑᐯᐯᔑᑯ	-12.3841
ᐅᒫᓇᒑᓂᔑᒥ	-12.3841
ᑴᑭᑳᐸᐎᑕᐙ	-12.3841
ᐅᑖᐱᓇᒫᑫ	-12.3841
ᐯᔭᑕ	-12.3841
ᓂᓯᑖᐎᓈ	-12.3841
ᐙᓭᔥᑳᑯᐙ	-12.3841
ᑭᑎᑳᓈ	-12.3841
ᐯᑌᓈᑾᓂᓂ	-12.3841
ᑮᐙᐱᐗ	-12.3841
ᒪᒪᔦ	-12.3841
ᑎᓈᒋᒧᐎ	-12.3841
ᑭᒋᓅᒋᐋ	-12.3841
ᐊᑲᑌᑕ	-12.3841
ᑮᐌᐱᒫᑎᓯᐋᓯᐎ	-12.3841
ᐅᑮᒥᓄᑕᐙ	-12.3841
ᑮᐊᐱᐗ	-12.3841
ᒦᑭᐙᓂᐎ	-12.3841
ᐌᐱᔥᑲ	-12.3841
ᐅᔑᐲᐋ	-12.3841
ᐎᔮᐱᓯ	-12.3841
ᓂᑮᐐᒌᐎᑯᓈ	-12.3841
ᓈᓈᑲᒋᐃᑎᓱ	-12.3841
ᑮᓅᑖᑎᓰᐗ	-12.3841
ᑳᓵᑭᐐᒌᐗ	-12.3841
ᑮᐃᔑᓈᑾᓅ	-12.3841
ᑳᑕᓱᐃᔑᓈᑯᓯ	-12.3841
ᓃᓴᔭᐄ	-12.3841
ᑾᔮᒋᑕᒫᓱ	-12.3841
ᐁᐙᐱᔥᑭᓯ	-12.3841
ᒥᓍᐸᒥᑯᓰ	-12.3841
ᑭᑭᑭᔥᑭᑲᓂ	-12.3842
ᒋᐙᑲᐎ	-12.3842
ᓇᓃᓵᓀᑖᑾ	-12.3842
ᔖᑆ	-12.3842
ᐹᑭᓂᑳᑌ	-12.3842
ᐸᒦᑕᐙ	-12.3842
ᓂᓯᑐᑖᑯᓰ	-12.3842
ᑳᑮᒪᓯ	-12.3842
ᓵᑭᒋᐌᐱᓂᑲᓂᐎ	-12.3842
ᐅᑭᑫᑕᒫᐎᓂ	-12.3842
ᓵᓵᑭᒋᓂᔕᐙ	-12.3842
ᑎᐹᒋᒧᐎᓂᓂᐗ	-12.3842
ᑭᑎᐯᒋᑫᒥ	-12.3842
ᑮᐋᓇᐌᑖᑯᓯ	-12.3842
ᑳᑮᐃᔑᐲᐊᒪᐎ	-12.3842
ᐊᔕᑎᓱ	-12.3842
ᒋᐅᒋᑲᔥᑭ	-12.3842
ᑯᑌᓂᒥ	-12.3842
ᑭᑎᒫᑭᓈᑯᓯ	-12.3842
ᒨᔥᑭᓀᔥᑳᑰ	-12.3842
ᒥᓉᑕᒥᐋ	-12.3842
ᐱᒥᔑᒫᐙ	-12.3842
ᑭᐱᔥᑳ	-12.3842
ᓇᑲᒋᑲᓂᐎ	-12.3842
ᒌᑭᑳᐸᐎ	-12.3842
ᑯᑌᓂᒫᓰ	-12.3842
ᐱᒥᐸᑑ	-12.3842
ᐅᐗᑌ	-12.3842
ᐙᑳᑳᐸᐎ	-12.3843
ᐅᓰᑲᐊᑖᑫᐎ	-12.3843
ᑭᓵᑭᐃᑯᐙ	-12.3843
ᓂᔑᐗᓈᒋᐃᑎᓱ	-12.3843
ᑳᑮᐅᔑᐃᑯ	-12.3843
ᔑᑕᑯᐐᒌᐙ	-12.3843
ᒨᔥᑭᓀᐸᑑ	-12.3843
ᑳᐅᓈᐯᒥᓯ	-12.3843
ᐅᓇᓯᑰ	-12.3843
ᑕᐅᒋᑭᑫᓂᑎᓱ	-12.3843
ᒫᒪᑳᑌᑖᑾ	-12.3843
ᐁᑮᐃᓇᓅ	-12.3843
ᐁᐅᑕᓄᑮᐋᑲᓂᒥ	-12.3843
ᐯᔑᑴᐙ	-12.3843
ᐐᒋᑲᑭᑑ	-12.3843
ᒋᐲᑕᒪᐎ	-12.3844
ᐐᑕᓄᑮᒥᑯᐙ	-12.3844
ᐋᐸᐙᐙ	-12.3844
ᔮᑐᑌ	-12.3844
ᑎᐸᐊᒫᑯᐙ	-12.3844
ᓂᑰᒋᑲᓂ	-12.3844
ᑭᐱᔥᑲᐎ	-12.3844
ᑳᑮᐃᔑᓂᑳᓂ	-12.3844
ᐅᒋᑭᑫᑖᑾᓂᓂ	-12.3844
ᐅᑲᒀᑕᑭᑑᐎᓂ	-12.3844
ᑳᐸᐎᑕᐎ	-12.3844
ᒋᐐᑕᒪᐎᒪ	-12.3844
ᑭᐐᐙᐸᑕᐃ	-12.3844
ᐸᑯᓭᑕᒫ	-12.3844
ᐊᑕᐌᓂᒪ	-12.3844
ᑳᐃᔑᐲᐊᒪᐎ	-12.3844
ᓂᐐᑕᔑᑕᒧᐙ	-12.3844
ᓇᓈᑕᐙᐸᒫᐙ	-12.3844
ᐁᑮᒥᑲᐎ	-12.3844
ᒨᔑᑑ	-12.3844
ᐅᐸᑴᔑᑲᓂᒥ	-12.3844
ᐅᒋᐱᓂᑯ	-12.3845
ᐸᐯᒌ	-12.3845
ᓵᑭᓯᑑ	-12.3845
ᒫᒪᐎᐃᑎ	-12.3845
ᐃᓀᑕᒧᐎᓂᐙ	-12.3845
ᓂᑎᓉ	-12.3845
ᑕᐗᑌ	-12.3845
ᑎᐸᐃᑫᑕᒪᐙ	-12.3845
ᑯᓯᑾᓂᓂ	-12.3845
ᑕᑕᑯᑳ	-12.3846
ᑮᐯᑳᐹᐗᒋᑳ	-12.3846
ᑭᒪᔥᑲᐎᓰᐎᓂ	-12.3846
ᐹᑭᓇᒪᐎ	-12.3846
ᐗᓂᑭᑭᓄᐊᒫᑫ	-12.3846
ᐗᓂᔑᒥᑯ	-12.3846
ᐅᑭᑭᓄᐃᑫᐎᓂ	-12.3846
ᓂᔥᑮᔑᑯ	-12.3846
ᐁᐐᑎᑫᓯ	-12.3846
ᑭᒌᑫᑕᒧᐎᓂ	-12.3846
ᒥᑖᐗᑳ	-12.3846
ᑭᑕᑭᓱ	-12.3846
ᑎᐹᑯᓂᑰᔭ	-12.3846
ᒋᐅᓇᔓᐙᓇ	-12.3846
ᐃᓀᑖᑯᑑ	-12.3846
ᒋᑎᐸᐊᒪᐗ	-12.3846
ᑾᔭᑾᒧ	-12.3847
ᑭᒥᐗᓯᓂᓂ	-12.3847
ᒋᐅᑎᓂ	-12.3847
ᐙᑌᓇᒫ	-12.3847
ᒦᑴᒋᐌᑕᒧ	-12.3847
ᑮᑭᒋᐱᓱ	-12.3847
ᑭᑕᔨ	-12.3847
ᓈᐱᔥᑲᐎ	-12.3847
ᐙᓭᔥᑳ	-12.3847
ᐊᓇᒥᐁᓂᑲᒧ	-12.3847
ᐁᑮᐊᔮᓯᐙ	-12.3848
ᑯᔥᑯᐌᐱ	-12.3848
ᓈᐱᒋᑫᐙ	-12.3848
ᑮᓂᑭᐲ	-12.3848
ᓈᑯᑖᐗ	-12.3848
ᐎᑎᐸᐊ	-12.3849
ᐊᑭᐌᓯ	-12.3849
ᐅᓇᓵ	-12.3849
ᐁᑑᑕᒧᐗ	-12.3849
ᐃᓇᓯᓇ	-12.385
ᑭᓅᑖ	-12.385
ᑳᐃᔑᔭᔮ	-12.385
ᐱᔑᔑᒀᓂ	-12.385
ᑲᑮᑖᐗ	-12.3851
ᓄᑮᑕᐙ	-12.3851
ᒋᐅᑕᓄᑮᐋᑲᓂᒥ	-12.3851
ᐊᓄᑮᒪᑲᓯᓂᓂ	-12.3851
ᑕᑯᓂᑲᓂᐎ	-12.3851
ᑾᐃᑫ	-12.3851
ᐯᔭᑌᓈ	-12.3852
ᑮᐅᑯᓯᓯᒫᐎ	-12.3853
ᒣᒀᔥᑲᐙᐙ	-12.3853
ᔮᓇᐌᓂᒫᐙ	-12.3853
ᑾᔭᑴᑖ	-12.3853
ᑲᔥᑭᒋᑫᒪᑲᓂᓂ	-12.3854
ᐁᔖᐙᑎᓯ	-12.3854
ᐅᒋᒪᔥᑲᐌᑕᒫ	-12.3855
ᑳᑕᓀᑖᑾ	-12.3855
ᑲᔕᐌᓂᒥᑰ	-12.3855
ᑮᐃᓇᑭᑌ	-12.3856
ᐁᑮᒫᓀᓂ	-12.3857
ᐐᔖᒥ	-12.3858
ᓂᑌᒐᓬᐃ	-12.3858
ᓇᐃᓂᑫᐎ	-12.3859
ᐅᑎᓀᑖ	-12.3859
ᑕᑖᑯᑳ	-12.386
ᐋᔩᒋᒥᒋ	-12.386
ᒋᐅᒋᑾᔭᑾᑭᒥ	-12.386
ᐸᑾᐊ	-12.3861
ᐅᑖᑯᓯᐎ	-12.3862
ᓈᑲᒋᑕᒫ	-12.3863
ᑮᑭᒋᒫᒪᑳᑌᑕ	-12.3863
ᐱᐴᓂᔑ	-12.3864
ᔥᑫᑕᒧᐎ	-12.3864
ᓂᑫᑌᔭᐋᒥᓈᐸ	-12.3865
ᒥᑲᐎᓄᑖ	-12.3865
ᑳᑮᐃᓈᐱᓀ	-12.3865
ᓴᓇᑭᓯ	-12.3866
ᑎᑯᐎ	-12.3868
ᓂᑭᒋᐊᔭᐋᒥᓈ	-12.3868
ᐁᓇᑭᒥ	-12.3868
ᐐᒋᐙᑲᓇ	-12.387
ᓈᑐᑌ	-12.387
ᑮᓇᓈᑐ	-12.387
ᐐᓴᑫᑖᑾ	-12.3872
ᐅᒥᓴᐌᑕᒧᐎ	-12.3874
ᐅᑑᓇᔓᐌᐎᓂᓃᒥ	-12.3874
ᒋᑌᐱᓂᑯ	-12.3874
ᐲᑎᑳᑯ	-12.3874
ᐸᔥᑴᑭᓄᐊᑑᐹ	-12.3874
ᐃᓇᔓᑕᒪᐎ	-12.3877
ᑮᐅᒋᑭᑭᓇᐙᒋᐲ	-12.3878
ᒥᓄᐳᑾ	-12.3878
ᒋᐐᓯᓂᓈᓂᐗ	-12.3881
ᑮᐊᔨᓈᐙ	-12.3883
ᓬᐃᐱᔭ	-12.3884
ᒋᐸᑭᔑᓯ	-12.3889
ᐃᓇᑭᑌᓯ	-12.389
ᔥᑯᓯᐗ	-12.3891
ᐊᓯᑰ	-12.3892
ᑭᑮᒥᓇᐃ	-12.3893
ᐸᐹᑲᑮᑴ	-12.3895
ᐐᓀᑖᑯᓯ	-12.3896
ᑭᑭᓄᐊᒪᐙᓯᐎ	-12.3898
ᑕᑯᑮᐎ	-12.3899
ᑮᐋᓇᐌᓂᒫᐙ	-12.39
ᐸᒦᑕᐎ	-12.3905
ᐁᑮᓇᓈᑐᓀ	-12.3905
ᐊᔦᑯᓯ	-12.3909
ᑮᐊᑕᐎᐃᑯ	-12.391
ᒋᑾᔭᒀ	-12.3925
ᐱᒫᒋᐃᔑ	-12.3945
ᑭᑕᐯᓂᒧᓄ	-12.3946
ᑭᓰᔮᐹᐗᓱ	-12.3956
ᒋᑭᑌᑖᑯ	-12.3956
ᑳᐊᒑᑯᐌᑖ	-12.3969
ᓇᓈᑐᓀᐅ	-12.3975
ᒪᒋᒥᓴᐌᑕᒧᐎ	-12.3975
ᔑᑲᓅᓂᑎᐙ	-12.3976
ᐋᑕᐌᐊ	-12.3983
ᒋᐅᓇᔓᐙᓱ	-12.3991
ᓅᑖᒥ	-12.3994
ᓂᓃᒥᐙ	-12.3996
ᑕᐱᓅᒌᔑᒪ	-12.3998
ᑭᑭᓇᐙᐸᑕ	-12.3999
ᑳᑕᓯᓂᓂ	-12.4006
ᐱᔑᒀᒋᒋᑫᐎ	-12.4007
ᒫᑕᑲᒥᑲ	-12.4027
ᓂᐴᑕᒪᐙ	-12.4052
ᑳᐐᒌᐎᓯ	-12.406
ᑮᓅᑖᑳᓂ	-12.4062
ᑮᓇᐗᑭ	-12.4074
ᐅᑖᐸᒋᑑ	-12.4074
ᐃᓀᓂᒧ	-12.4084
ᒪᒫᑕᐎᒋᑫᐎ	-12.4094
ᐁᑯᑲᔥᑭᑑ	-12.4095
ᑑᑭᒫᒥᓈ	-12.4098
ᐁᑮᑲᔥᑭᑑᓯ	-12.4106
ᑮᓂᔥᑭᐃᑯ	-12.4107
ᑲᔥᑭᐃᑯᓈ	-12.413
ᐗᑭᒋᐙᑳᐃᑲ	-12.4138
ᓂᑮᐃᑯᓈ	-12.4143
ᒪᑗᔮᐲᑭᐱᒋᑲ	-12.416
ᑎᔑᐱᒫᑎ	-12.4161
ᒋᐐᒋᑳᑌ	-12.4163
ᑭᒋᐅᑭᒫᐗᐱᐎ	-12.4167
ᑲᓅᓂᑎᐗ	-12.4168
ᑲᐃᔑᐎᓂᑯ	-12.4192
ᐲᒋᐌᐱᓈ	-12.4198
ᐗᓃᑫᓄᑕᒧ	-12.4221
ᑭᑖᐸᑎᓯ	-12.4247
ᑴᑮᓄᑕ	-12.4294
ᐐᒌᐎᑯᓰᓈ	-12.4323
ᑲᔥᑭᒥᓀ	-12.4328
ᓵᑭᒋᓂᔕᐅ	-12.4388
ᐅᑖᐱᓇᒫᑯ	-12.4405
ᒥᑳᑰ	-12.4408
ᐁᐊᔕᐙᐸ	-12.4453
ᓂᑳᓱᓂ	-12.4459
ᑮᓅᑖᑎ	-12.4488
ᔕᔒᐱᑕᒧᐎᓂ	-12.4509
ᑾᔮᒌᑕᒪ	-12.4557
ᑮᔕᑭ	-12.4648
ᑲᔥᑭᐁᐎᓯ	-12.4659
ᐅᓈᑲᑕᐌᒋᑲᓂ	-12.4681
ᐁᐐᒫᐗᑑ	-12.4756
ᐁᐅᑎᓇ	-12.4779
ᑯᓈᓯ	-12.4781
ᑭᑲᓇᐌᑕᐃ	-12.4811
ᐱᔑᒧᓂ	-12.4857
ᐃᑭᑐᓈᓂᐗ	-12.4859
ᐃᔑᓇᑲᑕᒧ	-12.489
ᐐᑭᑑᐎ	-12.4957
ᑲᓇᐙᐸᑕᒧ	-12.4983
ᐅᑮᓂᓯᑕᐎᓇᐙ	-12.5057
ᐊᔨᓀᑕ	-12.509
ᒋᑳᑌᓯᓄᑭ	-12.5095
ᐅᒋᔥᑲᐗ	-12.5144
ᑭᑐᐎᓂᓂ	-12.5187
ᕒᐊᓬ	-12.5205
ᓂᒥᑰᓰ	-12.5232
ᑎᐯᑖᑾᓂᓂ	-12.5235
ᐊᑰᓯ	-12.5238
ᐁᑲᔥᑭ	-12.5355
ᑮᐹᑭᓭ	-12.5533
ᑮᐃᑭᑐᓂᑯᐸ	-12.5534
ᐅᑕᓄᑮᑕᐙ	-12.5552
ᒋᐊᔮᒀᒥᒥ	-12.5891
ᔑᓈᑲᑕᐌᑕ	-12.5959
ᐅᒋᒦᓂᑰᔮ	-12.6067
ᑳᑮᐃᔑᑭᑭᓄᐊ	-12.6091
ᒋᓂᓵᐹ	-12.6143
3	-12.6172
ᒋᐃᔑᒋᑫᑕᒪ	-12.6358
ᑳᑮᐅᑭᒫᑲᑕ	-12.6425
ᑎᐹᑐᑖ	-12.6598
ᒦᑳᑎᓈᓂᐗ	-12.6647
ᑳᐋᑾᑭᑌ	-12.6657
ᒥᓄᑑᑕᒧ	-12.6767
ᑭᑕᑭᑌᓂ	-12.6786
ᓈᑲᑕᐌᒋᑲᓂᐙ	-12.6935
ᑲᑴᒥᓄᑑ	-12.6997
ᐁᔑᐲᐃᑫ	-12.7007
ᐅᑲᔥᑭᐁᐎ	-12.7103
ᒥᓍᒋᒧ	-12.7367
ᐅᑕᒥᓭ	-12.7369
ᑳᑮᐊᑯᓴᑲ	-12.7391
ᐸᒋᑑᓰᓈᐙ	-12.7557
ᑳᔑᐐᑾᑎᐗᑲᒥ	-12.7564
ᐃᔑᓂᔕᐊᒫᑯ	-12.7565
ᒪᒍᑌᐌᐱ	-12.7683
ᒋᔖᑰᒋᐃ	-12.7915
ᐁᔑᓈᓈᑲᑕᐌ	-12.798
ᐁᑲᓅᒋᑫᑕᒪ	-12.8014
ᐸᐊᒪᐙ	-12.8076
ᓇᒥᐁᑖᑰ	-12.809
ᑲᑴᓃᑳᓀ	-12.8109
ᐋᓍᐸᒫ	-12.8131
ᒥᓄᑕᔑᒥ	-12.8226
ᒋᐊᑐᒪ	-12.8257
ᒪᑗᔮᐲᑭᐱᒋ	-12.8336
ᐅᑭᒫᑲᑕᒥ	-12.8365
ᓈᑎᓯᓰ	-12.8367
ᐸᐲᒶᓯᓇᐃ	-12.8377
ᐃᔑᑲᔥᑭᐃᑯ	-12.8381
ᒪᒋᑮᔣ	-12.8396
ᐊᐲᑌᑖᑯᓯ	-12.8431
ᒪᒫᑕᐎᒋᑫ	-12.8436
ᐗᓂᑎᐱ	-12.8478
ᓈᓈᑲᑕᐌᓂᒪ	-12.8478
ᐅᒦᑳᓱ	-12.8479
ᑌᐸᑫᓂᒧ	-12.8511
ᐊᔓᑕᒫ	-12.8525
ᔓᑕᒪᐎᓐ	-12.8537
ᐱᔑᒀᒋᒋᑫ	-12.8572
ᐯᑭᐃᑰᐎ	-12.8577
ᓂᑕᐱᓅᒌᔑ	-12.8585
ᒫᑕᐆᓈ	-12.8597
ᒪᒑᑎ	-12.8613
ᑮᑭᓰᔮᐹᐗ	-12.8651
ᑮᐅᐱᒣᐌᐱᓇ	-12.8654
ᔨᑎᐎ	-12.8682
ᒋᐐᑯᐱᓂ	-12.8683
ᑎᓰᑲᑕ	-12.8688
ᒋᓂᐴᒪ	-12.8718
ᔑᐲᐃᑳᑌ	-12.8727
ᑭᑎᑫᐗᑲᒥ	-12.874
ᒪᒫᑳᔥᑳ	-12.8748
ᑳᑭᑭᓇᐙᒋ	-12.875
ᓃᔣᓯᒥᑕᓇ	-12.877
ᓇᐌᑕᒫᑰ	-12.8775
ᐐᒪᒦᒀ	-12.8777
ᐋᔮᔐᑕᒧ	-12.8778
ᐐᓴᑳᐸᓱᐌ	-12.8779
ᒥᔕᑮᔮᓯ	-12.8779
ᒫᒪᐐᓄ	-12.8779
ᐅᔥᑳᑎᓯ	-12.8782
ᑫᐅᒌᒪ	-12.8787
ᒨᔥᑭᓇ	-12.879
ᓇᐌᑕᒥᓂ	-12.8794
ᒋᑯᑖᓀ	-12.88
ᐸᔕᔐᐃᑲ	-12.8805
ᒋᐃᔑᑲᔥᑭ	-12.8806
ᑾᔭᑾᑭᒥᑰ	-12.8807
ᔑᐲᐊᒪᐎ	-12.8807
ᓃᒥᑕᓇᔑᓃ	-12.8807
ᑑᓇᔓᐌᐎᓂᓈ	-12.881
ᑲᓇᐎᒫᓇᒑᓂᔑᐌ	-12.881
ᑭᓄᐊᒪ	-12.8811
ᒪᔥᑭᑮᐎᓂᓂ	-12.8813
ᓇᑕᐌᓂᒥ	-12.8813
ᐅᒋᑲᐙᐱ	-12.8814
ᑑᐳᐎᓈ	-12.8816
ᓂᑖᐎᑭᑑᓯ	-12.8819
ᐁᑮᓃᒫᑾᐊ	-12.8819
ᑭᑫᑌᔭᐋᒥᓈᐸ	-12.8824
ᐸᑳᓂᑮᔗᐎ	-12.8824
ᓬᐁᔮᑎᓰ	-12.8825
ᐯᑳᐹᐗ	-12.8828
ᑲᑮᐹᒋᒋᑫ	-12.883
ᒫᓇᒑᓂ	-12.8831
ᑮᒣᒀᔥᑲᐙ	-12.8832
ᓂᒫᓀᑕ	-12.8833
ᓇᒥᐁᐎᑲᒥ	-12.8833
ᓂᔕᐊᒪᐙᐙ	-12.8833
ᕒᓃᓬᐃᔭ	-12.8834
ᓇᓃᓵᓀᑖ	-12.8835
ᐌᐸᑲᓈ	-12.8838
ᑲᑲᒥᑭᓯ	-12.8838
ᑭᒋᐊᔭᐋᒥᐙ	-12.8839
ᔑᐌᐸᓂᓂ	-12.8839
ᑎᐹᒋᒨ	-12.8839
ᒋᒥᒋᒥᔥᑳ	-12.8839
ᐁᑮᐅᒑᓂᒪᐅᑯ	-12.8839
ᐅᑮᓃᓵᐲᑭ	-12.8839
ᐅᓇᑕᒫᑰᔭ	-12.8839
ᐊᔐᐳᔦ	-12.8839
ᐙᑳᑳᐸᐐᑖ	-12.8839
ᐱᑎᑯᐌᓅᑖᑯᓯ	-12.8839
ᐱᔮᑏᓄ	-12.8839
ᐸᐸᑭᑌᔮᑯᑎᒀᓀᐙᐙ	-12.8839
ᑕᐲᑎᑲᒋᑳᑌ	-12.8839
ᑫᐅᒋᒪᒦᒀᓱ	-12.8839
ᑫᑭᓄᐊᒫᑫ	-12.8839
ᑭᑭᓇᐙᒋᓈᑯᑑ	-12.8839
ᑮᐃᓇᑖᐙᑳᓂᐗ	-12.8839
ᑮᒋᑯᔥᑳ	-12.8839
ᑲᐐᑾᔑ	-12.8839
ᑲᔥᑭᒥᑯ	-12.8839
ᑳᑰᐹᑎᓯ	-12.8839
ᒉᐆᔕᐹ	-12.8839
ᓇᓇᐃᓯᑕᒪᐙ	-12.8839
ᐁᐅᒌᐱᑳᐗ	-12.8839
ᐁᐐᑲᑮᒀᑕᒫ	-12.8839
ᐁᐐᑾᑏᐗᑲᒥᑭᓯ	-12.8839
ᐁᑮᐊᑐᓀᐙ	-12.8839
ᐁᓬᐃᐁᓴᕒ	-12.8839
ᐁᓬᐃᐄᓴᕒ	-12.8839
ᐁᓬᒪᑖ	-12.8839
ᐄᒋᐱᔑᐎᓂᓂ	-12.8839
ᐅᐲᑯᓈᓈᐙ	-12.8839
ᐅᑎᔑᐌᐱᓯᐎᓂᐙ	-12.8839
ᐅᑎᔑᑲᑮᑴᓄᑕᐙ	-12.8839
ᐅᑑᑎᓇᓰᓈᐙ	-12.8839
ᐅᑑᑎᓈᓈᐙ	-12.8839
ᐅᑑᑖᐹᓈᑯ	-12.8839
ᐅᑑᓵᒣᑖ	-12.8839
ᐅᑕᒀᑲᒥᓂᑲ	-12.8839
ᐅᑖᔩᒋᐊᔓᑕᒫᑫᐎ	-12.8839
ᐅᑳᑭᑲᓀᐱᓱ	-12.8839
ᐅᒌᔑᐱᑑᓂ	-12.8839
ᐅᒑᓂᒪᑲᒥᑭᓯ	-12.8839
ᐅᒪᑭᓯᓀᔮ	-12.8839
ᐅᓂᔥᑫᑕᒧᐎᓂ	-12.8839
ᐅᓵᒣᑕᓰᓈᐙ	-12.8839
ᐅᔑᒋᑳᓱ	-12.8839
ᐅᕒᐄᔭᐴᐗ	-12.8839
ᐊᓇᒥᐁᐗᓄᑮᐋᑲ	-12.8839
ᐊᔫᑴᓄ	-12.8839
ᐋᔩᑕᑑ	-12.8839
ᐋᕒᐹᑭᓵ	-12.8839
ᐌᐱᓂᐌᐎᒪᓯᓇᐃᑲ	-12.8839
ᐗᓈᑑᓈᐙ	-12.8839
ᐯᐸᑳᓂᐃᑎᓲᒪᑲ	-12.8839
ᐱᐅᒋᓈᔕᑮ	-12.8839
ᐱᒋᐗᓀᐋᐙ	-12.8839
ᐱᒫᔒᐌᑭ	-12.8839
ᐱᓯᔅᑳᐸᑕ	-12.8839
ᐲᑌᐎᑑᓀ	-12.8839
ᐸᑭᔖᓈᐙ	-12.8839
ᐹᔑᒋᔥᑳ	-12.8839
ᐹᕒᓴᐸ	-12.8839
ᑐᓀᐙᓰ	-12.8839
ᑕᐱᓇᐎᔑᒨᓄᐎ	-12.8839
ᑖᔥᑭᐱᑑ	-12.8839
ᑫᐅᓈᑯᓂᑯ	-12.8839
ᑭᐲᑭᓂᑳᑌᓂ	-12.8839
ᑭᐹᐱᑲᐃᑳ	-12.8839
ᑭᑎᑫᐗᓄᑮᐋᑲ	-12.8839
ᑭᑎᔑᑮᔗᐎᓂ	-12.8839
ᑭᑮᓰᑭᓇᒫᑯ	-12.8839
ᑭᓍᐲᑲᐊᔐ	-12.8839
ᑮᐊᔮᔐᓂᒫᐙ	-12.8839
ᑮᐙᑳᔮᐸᒫ	-12.8839
ᑯᐹᓯᓈᑯᓯ	-12.8839
ᑲᑎᑾᓇᑭᓯ	-12.8839
ᑲᑮᑖᐐ	-12.8839
ᑲᑳᓍᓂᑴ	-12.8839
ᑲᓇᐎᔥᒀᑕᐌ	-12.8839
ᑲᓇᐙᐸᑎᓱ	-12.8839
ᑳᐃᔑᓴᓇᑭᓭᔮ	-12.8839
ᑳᐋᔂᑾᐃᑳᑳᓂᐗ	-12.8839
ᑳᐙᐱᔥᑭᐲᐃᑳᑌ	-12.8839
ᑳᑮᐃᔑᐅᓈᑯᓯᒋᑫ	-12.8839
ᑳᑮᑎᐹᒋᒪ	-12.8839
ᑳᑾᔭᒀᑎᓰᐌᑖᑯᓯ	-12.8839
ᒋᐃᓇᓄᑲᐗ	-12.8839
ᒋᐅᓈᑯᓀᒀ	-12.8839
ᒋᐊᐸᑭᓂᑰᔭ	-12.8839
ᒋᐐᒋᔭᔮᒪ	-12.8839
ᒋᑮᒪᒫᔑᑲᑕ	-12.8839
ᒋᓂᑆᑳᐱᒫᑎᓯ	-12.8839
ᒣᓍᑎᓯ	-12.8839
ᒥᓄᑲᑴᒋᑲᓂᑎᐎ	-12.8839
ᒦᑑᓴᓬᐊ	-12.8839
ᒪᒉᑖᑾ	-12.8839
ᒪᒋᑕᔑᑎᐎ	-12.8839
ᒪᒥᓄᑮᔗ	-12.8839
ᒫᑎᓰᔥᑳᑫ	-12.8839
ᒫᒫᑯᔥᑭᑲᓂᐎ	-12.8839
ᒶᓯᓇᐋ	-12.8839
ᓂᑑᑯᓯᓯᒥ	-12.8839
ᓂᑑᒋᒦᑴᒋᐎᐋ	-12.8839
ᓂᑲᔖᐾᐃ	-12.8839
ᓅᓂᐋᐗᓱ	-12.8839
ᓇᓃᓵᓂᑑ	-12.8839
ᓇᓇᒫᔦᓂᒥ	-12.8839
ᓴᑭᒌᓱᐌ	-12.8839
ᔒᐎᑖᑲᓂᐳᑾ	-12.8839
ᔮᑭᑲᓀᐅᑎᓱ	-12.8839
ᐁᑎᐯᓂᒪ	-12.8839
ᐁᑎᓄᐙᑎᑯᐎ	-12.8839
ᐁᑮᐋᑲᐗᑰᑌ	-12.8839
ᐁᒥᒋᒪᐱᓱ	-12.8839
ᐁᓈᓴᒥᐊᔮ	-12.8839
ᐁᓵᑭᒋᓂᔕ	-12.8839
ᐃᓀᑖᑯᓰᒥᓯᓄᐌ	-12.8839
ᐃᔑᐅᓇᔓᐙᔑᐌ	-12.8839
ᐅᑑᒋᑲᐙᐱᐎ	-12.8839
ᐅᑑᔑᐲᐃᑫᐎ	-12.8839
ᐅᑮᒫᒪᑳᑌᓂ	-12.8839
ᐅᒋᐱᓂᑯᐙᐱᓀ	-12.8839
ᐅᒋᒌᑾᓂᐸᓂᐅ	-12.8839
ᐅᒋᒦᓂᑯᐎᓯ	-12.8839
ᐅᒥᓍᒋᒨ	-12.8839
ᐅᒪᓯᓂᑰᒋᑲ	-12.8839
ᐊᑐᓀᐅᑯ	-12.8839
ᐊᔨᔑᓅᐌ	-12.8839
ᐋᑲᐙᑌᓯ	-12.8839
ᐋᓶᔮᐸ	-12.8839
7	-13.6323
ᒶ	-13.8761
–	-13.8826
"	-13.8839
/	-13.8839
[	-13.8839
]	-13.8839
a	-13.8839
u	-13.8839
z	-13.8839
~	-13.8839
ᐧ	-13.8839
ᐼ	-13.8839
ᑡ	-13.8839
ᒒ	-13.8839
.	-14.5441
ᔡ	-14.5442
ᐾ	-14.5443
;	-14.5444
ᔗ	-14.5445
!	-14.5446
?	-14.5447
:	-14.5448
,	-14.5449
᙮	-14.545
