<pad>	0
</s>	0
<unk>	0
▁	-3.26226
e	-3.7255
▁a	-3.72625
.	-3.87246
,	-3.92551
a	-3.98824
r	-4.03172
▁an	-4.0892
s	-4.18167
▁agus	-4.29161
▁ar	-4.4046
í	-4.45561
l	-4.5311
n	-4.54614
▁le	-4.57011
o	-4.57988
t	-4.66547
u	-4.72536
▁na	-4.75766
▁go	-4.76932
▁i	-4.80391
ú	-4.91911
▁c	-4.93886
▁do	-5.02315
d	-5.0325
-	-5.05502
ó	-5.06823
ar	-5.07269
é	-5.08443
c	-5.10166
▁t	-5.11607
á	-5.1519
is	-5.21713
▁d	-5.25449
ch	-5.25528
▁f	-5.30318
▁ag	-5.31516
in	-5.33486
an	-5.36233
il	-5.42379
ta	-5.42499
i	-5.4329
ach	-5.43628
iú	-5.47899
g	-5.48137
air	-5.5079
ir	-5.52469
▁s	-5.52682
▁ch	-5.5384
▁covid	-5.5578
bh	-5.56026
p	-5.5629
la	-5.56638
-19	-5.58478
▁nó	-5.59624
▁de	-5.59973
▁b	-5.65256
▁th	-5.65479
▁’	-5.67446
f	-5.68581
▁n	-5.69814
m	-5.70363
on	-5.7353
or	-5.73592
as	-5.75914
▁seo	-5.7963
na	-5.81217
adh	-5.81367
ra	-5.81545
th	-5.8237
▁sa	-5.83355
inn	-5.84186
id	-5.85474
ol	-5.85799
ad	-5.86141
▁mar	-5.86366
igh	-5.8932
▁g	-5.89777
aí	-5.913
ithe	-5.92355
▁tú	-5.92662
dh	-5.92724
▁p	-5.94045
▁chun	-5.94736
▁mh	-5.95629
▁eile	-5.96003
▁gc	-5.96009
os	-5.96118
▁fh	-5.9624
ann	-5.98012
▁h	-5.98175
it	-5.98375
te	-5.99058
im	-5.99728
áin	-6.0137
▁bhfuil	-6.02785
h	-6.0355
)	-6.0403
b	-6.0469
▁(	-6.05292
ic	-6.06177
eann	-6.08699
al	-6.09057
▁2	-6.09387
mh	-6.09594
▁sé	-6.10216
▁in	-6.12447
ais	-6.12456
▁bh	-6.12497
▁m	-6.13869
án	-6.14194
anna	-6.14353
▁r	-6.15823
▁tá	-6.17279
▁nío	-6.17399
aigh	-6.17516
▁atá	-6.18154
▁1	-6.18194
▁D	-6.18567
▁ó	-6.18721
áil	-6.19023
1	-6.21375
▁is	-6.21592
▁C	-6.2344
0	-6.24477
3	-6.26594
eas	-6.27629
8	-6.29261
▁é	-6.31641
aithe	-6.31979
▁Tá	-6.32275
▁sh	-6.33185
cov	-6.34488
2	-6.34729
ig	-6.3513
each	-6.36475
ag	-6.36669
7	-6.369
ith	-6.38427
9	-6.38644
▁féidir	-6.39053
idh	-6.39213
5	-6.39938
oir	-6.41126
▁lá	-6.43333
▁cás	-6.43941
íonn	-6.4435
▁daoine	-6.46228
▁faoi	-6.49861
▁sláinte	-6.49908
ac	-6.51448
tha	-6.5235
acha	-6.52534
▁sin	-6.52676
▁dh	-6.52911
▁mb	-6.53302
▁duine	-6.54191
imh	-6.54787
6	-6.55077
4	-6.55153
▁ná	-6.55178
ath	-6.56081
re	-6.56332
▁Is	-6.57018
▁leis	-6.57663
▁má	-6.58649
▁gh	-6.59776
▁T	-6.59926
▁vacsaín	-6.60603
acht	-6.60853
gh	-6.61181
▁aon	-6.61731
▁víreas	-6.62571
▁mó	-6.62673
ear	-6.63073
▁u	-6.63642
ion	-6.6481
ia	-6.65149
ála	-6.67911
▁S	-6.6825
▁raibh	-6.68782
cha	-6.70133
▁ba	-6.7065
▁sc	-6.71977
int	-6.72719
:	-6.73694
v	-6.74862
▁dt	-6.74924
le	-6.77097
eacht	-6.77205
▁bás	-6.77716
om	-6.77748
▁Má	-6.78273
▁ort	-6.79327
▁I	-6.79414
ill	-6.79661
▁co	-6.79716
▁sars	-6.79859
óg	-6.8123
ma	-6.81455
ian	-6.82338
▁Ní	-6.82764
▁bheith	-6.8308
▁4	-6.83667
io	-6.83814
▁á	-6.84298
▁dhéanamh	-6.85245
▁ní	-6.85918
eacha	-6.86522
▁úsáid	-6.86652
▁3	-6.87169
nach	-6.87713
▁rud	-6.87804
▁l	-6.88035
ín	-6.88144
lú	-6.88656
▁B	-6.89948
▁bhf	-6.91196
eidh	-6.9146
eadh	-6.91494
▁tar	-6.92324
▁An	-6.92357
▁éis	-6.9255
▁iad	-6.9359
▁gur	-6.93807
aoi	-6.94604
▁féin	-6.95209
ine	-6.96115
▁chóir	-6.9657
▁fhéadfa	-6.9795
aíonn	-6.98066
▁chur	-6.98376
▁2020	-6.98666
▁duit	-6.994
▁ph	-7.00853
▁bhí	-7.01584
▁roinnt	-7.01605
▁comharthaí	-7.01959
rú	-7.02464
▁dhaoine	-7.03446
óir	-7.03669
tar	-7.0455
▁siad	-7.04975
eachta	-7.05079
▁ón	-7.07344
úil	-7.07989
eart	-7.081
éir	-7.09042
▁orthu	-7.09265
am	-7.09859
gach	-7.09924
y	-7.10063
artha	-7.10111
▁den	-7.10932
achta	-7.11225
omh	-7.11873
%	-7.12096
▁ach	-7.12245
▁don	-7.12266
▁ina	-7.12282
▁líon	-7.12927
▁br	-7.13097
▁tr	-7.13458
▁trí	-7.13641
▁5	-7.14399
-2	-7.15168
▁thug	-7.15453
▁san	-7.15769
▁chomh	-7.16077
éim	-7.16586
ocht	-7.1822
▁márta	-7.19348
ras	-7.20571
▁tástáil	-7.20666
▁ráig	-7.2067
éin	-7.21435
amh	-7.21614
▁fu	-7.21778
sh	-7.22275
eanna	-7.22818
ip	-7.23381
tear	-7.23495
▁roimh	-7.24317
▁nua	-7.24565
▁leat	-7.25183
▁st	-7.25882
▁idir	-7.2628
oc	-7.27223
íocht	-7.27313
all	-7.27881
▁amach	-7.27978
▁mór	-7.29512
▁freisin	-7.30533
▁oibr	-7.30535
▁isteach	-7.30544
▁dóibh	-7.31527
▁ann	-7.32835
w	-7.34564
▁amháin	-7.34596
▁dí	-7.35198
▁dtí	-7.35204
▁mí	-7.35555
▁chás	-7.35653
▁fáil	-7.3566
▁nuair	-7.36079
▁air	-7.37798
▁cho	-7.37861
"	-7.38229
íodh	-7.38567
▁ionfhabhtaithe	-7.38764
▁tástála	-7.39302
▁gheall	-7.39306
▁chuig	-7.39853
ne	-7.41087
ola	-7.41149
▁as	-7.41869
▁sonraí	-7.4259
▁gan	-7.43598
▁bhíonn	-7.43804
▁coronavirus	-7.44275
▁Ba	-7.45946
▁Tuairiscíodh	-7.4599
▁ath	-7.47825
▁lámha	-7.48334
▁linn	-7.48497
áis	-7.4862
▁Mar	-7.50108
▁fanacht	-7.50114
mp	-7.50444
▁comh	-7.50492
▁aghaidh	-7.50553
▁mo	-7.51901
k	-7.51926
▁Déan	-7.51937
▁leor	-7.52103
teagmháil	-7.52539
▁ard	-7.52868
▁fháil	-7.5292
áirítear	-7.53157
▁Ag	-7.53157
▁me	-7.53342
▁tír	-7.53651
éil	-7.54077
▁déan	-7.54763
ib	-7.54951
▁chuid	-7.55052
▁acu	-7.55381
ite	-7.56158
▁dá	-7.56274
▁maidi	-7.56313
▁dul	-7.57044
▁measc	-7.57595
▁aontaithe	-7.57596
▁cásanna	-7.57638
fh	-7.58181
▁rial	-7.58271
▁neamh	-7.58459
▁feabhra	-7.58891
▁scaipeadh	-7.58924
réir	-7.59621
▁teaghlaigh	-7.60211
íoch	-7.60262
▁sp	-7.6167
íochta	-7.61696
if	-7.61981
▁haghaidh	-7.62224
00	-7.62812
at	-7.63475
▁chéad	-7.63605
▁aghaidhe	-7.63769
us	-7.65414
▁aip	-7.66088
▁víris	-7.66377
▁leith	-7.67538
osca	-7.67732
▁sna	-7.68126
▁tugadh	-7.6852
▁eanáir	-7.69245
▁bhaile	-7.69246
▁siú	-7.70611
▁hiomláin	-7.7071
▁10	-7.70727
▁fógra	-7.70775
;	-7.71451
▁riospráide	-7.72949
othar	-7.73055
▁20	-7.73354
éal	-7.73447
▁cé	-7.73639
▁tuairiscíodh	-7.73707
▁tsín	-7.73732
▁dó	-7.73787
cht	-7.74142
▁poiblí	-7.7447
▁thabhairt	-7.7447
óirí	-7.74786
▁6	-7.75359
▁am	-7.76104
▁mbeadh	-7.76372
▁bhfeidhm	-7.76796
eamh	-7.76926
▁cur	-7.77118
▁aois	-7.7804
'	-7.78377
▁maith	-7.78411
▁hcov	-7.78695
▁uair	-7.79112
▁cinn	-7.79507
▁Cuir	-7.79835
▁síne	-7.80103
▁cúram	-7.80796
▁bearta	-7.80951
eoirí	-7.82097
▁“	-7.82378
▁agat	-7.8239
▁galar	-7.84128
▁faoin	-7.84697
▁chuir	-7.85001
átha	-7.85723
▁pháiste	-7.85818
▁bhaineann	-7.8668
▁leighis	-7.86722
▁fad	-7.87142
ord	-7.87501
▁stáit	-7.87553
habh	-7.87797
▁feadh	-7.88056
▁shampla	-7.88427
▁leanaí	-7.88468
uithe	-7.88706
▁theas	-7.89416
▁dhochtúir	-7.90205
▁paindéim	-7.90205
▁gcásanna	-7.90205
eolaíoch	-7.90749
▁ionfhabhtú	-7.90965
▁tíortha	-7.92015
▁ionad	-7.92274
▁eis	-7.9245
ógraíodh	-7.92859
▁othair	-7.92934
,000	-7.92942
▁chaitheamh	-7.9386
oifig	-7.93861
▁léir	-7.94207
▁dhá	-7.94299
▁clúdach	-7.94793
▁scoileanna	-7.94853
▁iomlán	-7.95736
▁srianta	-7.96152
ing	-7.97306
▁14	-7.97547
rón	-7.9812
lár	-7.98141
▁dearfach	-7.98621
▁Ná	-7.99601
▁gá	-7.9983
▁chéile	-8.00608
faidh	-8.01275
▁Ar	-8.01591
▁aibreán	-8.01591
▁domhain	-8.03622
▁rialtas	-8.03638
▁bia	-8.05158
▁Dífh	-8.057
▁toradh	-8.05715
z	-8.06747
▁who	-8.06747
▁luath	-8.07492
▁bhféadfa	-8.07811
ireacht	-8.08341
▁ospidéal	-8.09973
▁sóisialta	-8.09973
▁comhairle	-8.09974
▁cuairt	-8.09975
▁beag	-8.10024
▁fhógair	-8.11076
úirt	-8.1119
▁déanaí	-8.11601
▁thástáil	-8.12183
▁mura	-8.12209
▁aer	-8.13354
illeadh	-8.13732
eagra	-8.13838
▁lua	-8.13922
▁srian	-8.13975
éifeacht	-8.14298
▁Ch	-8.14892
aíodh	-8.15236
▁fuair	-8.15572
▁Lé	-8.15592
▁minic	-8.15602
▁19	-8.15663
▁bhás	-8.15664
▁Bhí	-8.16106
▁bunús	-8.16755
▁thart	-8.16836
▁náisiúnta	-8.17932
▁ghnáth	-8.17932
▁ialtóg	-8.19122
▁milliún	-8.19122
▁wuhan	-8.19122
▁chosaint	-8.19122
▁tioncha	-8.19132
▁cosúil	-8.19134
▁teagmhála	-8.20327
▁éagsúla	-8.20327
▁mbaol	-8.20356
unaithe	-8.20417
▁glao	-8.20508
▁gníomh	-8.21547
▁léinn	-8.21561
▁riosca	-8.22783
agairt	-8.22832
▁háirithe	-8.24031
▁casacht	-8.24073
▁lasmuigh	-8.25297
▁sábháilte	-8.25297
▁mers	-8.26642
▁riachtana	-8.29194
▁óstach	-8.29196
▁láthair	-8.29206
▁suas	-8.29249
▁thuairisc	-8.2939
nío	-8.29558
▁céanna	-8.29659
▁caith	-8.30264
▁laghdú	-8.30527
▁fhéidir	-8.30527
▁obair	-8.30528
▁ghalair	-8.30533
▁ceal	-8.30936
▁coraintín	-8.31878
▁leibhéal	-8.31878
▁dúnadh	-8.31879
▁iarracht	-8.31879
▁Chuir	-8.31883
▁méad	-8.31895
▁scoil	-8.33093
ainm	-8.34245
coróinvíreas	-8.34637
▁bealtaine	-8.34637
▁eipidéim	-8.34637
▁taistil	-8.34637
▁gcuid	-8.34665
▁airde	-8.34697
▁choinneáil	-8.34778
▁rinne	-8.35154
▁príomh	-8.36046
▁laghad	-8.36046
▁cuireadh	-8.36141
▁roinn	-8.37412
x	-8.37474
▁torthaí	-8.37474
▁seachtain	-8.37516
ionfhabhtuithe	-8.38923
▁bliain	-8.38923
▁dearbhaithe	-8.38923
▁tarchur	-8.38924
▁masc	-8.38946
aonrú	-8.40125
▁bharr	-8.40515
j	-8.41886
▁2019	-8.41887
áistí	-8.41916
▁ráta	-8.41928
▁imní	-8.41985
▁fós	-8.42104
▁Mura	-8.43401
▁taisteal	-8.43401
▁éigeandála	-8.43401
▁dochtúir	-8.43402
▁frith	-8.43472
úsáid	-8.44249
▁cuir	-8.44961
onaid	-8.44969
aisnéis	-8.46503
▁eolas	-8.46511
?	-8.4809
▁iompar	-8.4809
▁cliath	-8.4809
▁rialtais	-8.48101
▁líne	-8.48121
▁síos	-8.48159
▁cosc	-8.48225
oisc	-8.48863
▁iodáil	-8.49703
▁láithreach	-8.49703
▁meitheamh	-8.49703
▁measa	-8.50636
seirbhís	-8.51298
▁Nua	-8.51342
▁fiabhras	-8.51342
▁sampla	-8.51347
▁dáileog	-8.54704
▁ndaoine	-8.54704
▁laistigh	-8.54704
▁gcoinne	-8.54704
▁cabhr	-8.54737
▁fliú	-8.54822
ráid	-8.54838
▁rianú	-8.5644
▁cionn	-8.56482
iagnóis	-8.58182
▁idirnáisiúnta	-8.58182
▁dhiaidh	-8.58184
▁chomharthaí	-8.58186
▁imeachta	-8.58249
▁cuid	-8.58284
▁sula	-8.58287
▁cúraim	-8.59968
▁chloig	-8.59968
▁ainmhithe	-8.59968
▁tapa	-8.59978
▁áirithe	-8.61794
▁díreach	-8.61818
▁éifeachtach	-8.62043
▁freastal	-8.63638
▁daonna	-8.63638
▁dhuine	-8.63646
▁galair	-8.63654
▁seirbhísí	-8.63687
theagmhála	-8.65525
▁chomhairle	-8.65527
▁deireadh	-8.65534
▁Tug	-8.65554
▁staidéar	-8.67448
▁Lean	-8.67448
▁riocht	-8.67454
▁réamh	-8.67455
▁stát	-8.67472
▁bhaint	-8.67479
víreas	-8.67568
▁mui	-8.6828
▁coitianta	-8.69409
▁pearsanta	-8.69409
▁básmhaireacht	-8.69409
▁áiteanna	-8.69411
▁fhág	-8.69446
▁cúig	-8.69465
▁foláireamh	-8.71408
▁eagraíocht	-8.71416
▁choinne	-8.73275
▁scaip	-8.73355
▁tábhachtach	-8.73449
▁fíneá	-8.73484
▁mbaile	-8.75535
▁tabhair	-8.75535
▁Amha	-8.7766
▁hairíonna	-8.7766
▁mhárta	-8.77661
údará	-8.77685
▁domhanda	-8.79834
▁daonra	-8.79835
▁feidhm	-8.79846
▁cheana	-8.80148
▁ghluaiseachtaí	-8.82056
▁míochaine	-8.82056
▁sraothartach	-8.82056
▁timpeall	-8.82056
▁éadrom	-8.82057
eiceáil	-8.82058
▁héireann	-8.8206
▁bpaindéim	-8.84329
▁géarmhíochaine	-8.84329
▁pobail	-8.84329
▁Úsáid	-8.84329
▁ndearna	-8.8433
▁cosanta	-8.8433
▁rianair	-8.84338
▁oiriún	-8.84344
▁treala	-8.84345
▁diúltach	-8.86655
▁drugaí	-8.86655
▁dhéanann	-8.86655
▁nollaig	-8.86655
▁ollscoil	-8.86655
aireanta	-8.86708
▁taighde	-8.86956
▁ospidéil	-8.89036
▁cófra	-8.89036
▁sheachaint	-8.89038
scoile	-8.89189
▁choróinvíris	-8.91475
▁dtugtar	-8.91475
▁tacaíocht	-8.91476
chúram	-8.91483
bhreith	-8.91576
▁niúmóine	-8.93975
▁eorpach	-8.93975
▁deacracht	-8.93975
▁leanúnach	-8.93975
▁2021	-8.93976
▁breise	-8.93977
gartheagmháil	-8.93991
iocfa	-8.94867
llmha	-8.95208
▁fhorbairt	-8.96539
▁suntasach	-8.96539
▁áireamh	-8.96541
▁chibear	-8.96542
▁reatha	-8.96544
▁dhomhanda	-8.9917
▁oideachais	-8.9917
▁siopadóireacht	-8.9917
▁chinntiú	-8.99171
▁gnáth	-8.99171
ormhór	-8.99171
▁cosaint	-8.99171
▁bliana	-8.99171
▁spreag	-8.99172
▁dúnta	-8.99172
▁cruinn	-8.99173
▁oiread	-8.99174
pháirtí	-9.01873
▁Oscailt	-9.04651
▁astrazeneca	-9.04651
▁eacnamaíoch	-9.04651
▁phaindéim	-9.04651
▁sholáthar	-9.04651
▁tógálach	-9.04651
▁liosta	-9.04651
uiscint	-9.04651
▁cóireáil	-9.04651
▁roghn	-9.04652
“	-9.42048
D	-11.6551
’	-12.1555
Ú	-13.156
P	-13.1561
O	-13.1562
–	-13.1563
”	-13.1564
R	-13.1565
/	-13.1566
G	-13.1567
L	-13.1568
F	-13.1569
S	-13.157
B	-13.1571
N	-13.1572
(	-13.1573
M	-13.1574
I	-13.1575
A	-13.1576
C	-13.1577
T	-13.1577
