<pad>	0
</s>	0
<unk>	0
▁¦	-0
ို	-1
▁်	-2
ော	-3
င်	-4
ား	-5
ည်	-6
ကို	-7
တို	-8
သော	-9
ကြ	-10
က်	-11
ရှ	-12
တော	-13
င်း	-14
▁အ	-15
ပြ	-16
သည်	-17
▁့	-18
▁သ	-19
န်	-20
တို့	-21
၏။	-22
▁မ	-23
နှ	-24
င့်	-25
တော်	-26
ုရ	-27
မျ	-28
မှ	-29
တ်	-30
ို့	-31
မူ	-32
ဘုရ	-33
ိမ	-34
ငါ	-35
▁့်	-36
ဖြ	-37
သူ	-38
▁ထ	-39
ခြ	-40
စ်	-41
ီး	-42
သည	-43
ိုး	-44
ေး	-45
ဘုရား	-46
မြ	-47
လျ	-48
ကျ	-49
ယ်	-50
ရှိ	-51
ပ်	-52
ုံ	-53
▁၊	-54
ည်း	-55
ောက်	-56
ရာ	-57
ဟု	-58
ပါ	-59
ချ	-60
▁လ	-61
▁ငါ	-62
ေါ	-63
သား	-64
စေ	-65
နှင့်	-66
မည်	-67
ကြော	-68
ကား	-69
သို့	-70
▁တ	-71
တော်မူ	-72
၍၊	-73
တို့သည်	-74
ာဝ	-75
နေ	-76
ာဝရ	-77
ခြင်း	-78
မျိုး	-79
▁ထို	-80
▁ယ	-81
▁သူ	-82
▁၏။	-83
ိမ်	-84
ာဝရဘုရား	-85
လျှ	-86
ပေါ	-87
??	-88
▁သင်	-89
လော	-90
▁စ	-91
အား	-92
သောသူ	-93
ုံး	-94
တို့ကို	-95
ွန်	-96
ွား	-97
ပြု	-98
▁ပ	-99
ောင်	-100
ဖြစ်	-101
ခါ	-102
သောအ	-103
ရေ	-104
တွ	-105
မည်။	-106
ုပ်	-107
အမျိုး	-108
သခ	-109
ောက	-110
မှာ	-111
သို	-112
မည	-113
ောင	-114
ဆို	-115
်း	-116
ခံ	-117
သင	-118
များ	-119
နှင	-120
လည်း	-121
▁်၊	-122
လူ	-123
ိန်	-124
▁ကို	-125
ကြီး	-126
ငှ	-127
▁ရ	-128
ထို	-129
▁က	-130
ဘုရားသခ	-131
လေ	-132
▁န	-133
▁။	-134
ကြ၏။	-135
▁ထာဝရဘုရား	-136
ခြင	-137
မျှ	-138
ရှေ	-139
▁မြ	-140
ငှါ	-141
▁ပြ	-142
င်း၊	-143
မ်း	-144
▁ဆ	-145
ကျွန်	-146
င်၊	-147
ိမ့်	-148
ုန်	-149
ိတ်	-150
သွား	-151
ွှ	-152
မြို့	-153
ပြီ	-154
ူး	-155
ဲ့	-156
လျက်	-157
မှု	-158
အဘ	-159
ထား	-160
သရေ	-161
▁ကိုယ်	-162
ဖြင့်	-163
လာ	-164
▁်။	-165
????	-166
မိ	-167
အပေါ	-168
ိမိ	-169
လိမ့်	-170
လို	-171
ွာ	-172
ထာဝရဘုရား	-173
▁၍	-174
ွန	-175
▁္	-176
ကား၊	-177
ွေ	-178
ဣသရေ	-179
ဣသရေလ	-180
ောင်း	-181
▁ရှ	-182
ဖြစ	-183
▁ခ	-184
လည	-185
ုပ	-186
▁လူ	-187
▁ကြ	-188
ရား	-189
▁၏	-190
ပေး	-191
ုတ်	-192
▁အဘ	-193
လုံး	-194
ိတ	-195
ုတ	-196
ကြောင	-197
ဘုရားသခင်	-198
အသ	-199
ော်	-200
နာ	-201
▁ငါ့	-202
ွေး	-203
ပြည်	-204
ကြောင့်	-205
ုန	-206
၎င်း၊	-207
သာ	-208
လော့	-209
ပါး	-210
တော်မူ၏။	-211
ိုင်	-212
ဉ်	-213
ပြီး	-214
ဝိ	-215
ေရ	-216
လျှင်၊	-217
▁ကျ	-218
စာ	-219
အရ	-220
ကျွန်ုပ်	-221
သန	-222
လိမ့်မည်။	-223
ကြောင်း	-224
▁်၌	-225
ိန့်	-226
သောအခါ	-227
သူတို	-228
မြို	-229
အမျိုးသား	-230
ရှု	-231
ကာ	-232
ပြော	-233
သေ	-234
သမျှ	-235
သတ	-236
ည်း။	-237
ထဲ	-238
စွာ	-239
ကိုယ	-240
ဟူ	-241
ခြင်းငှါ	-242
စား	-243
▁ဘုရားသခင်	-244
နှစ်	-245
တော်ကို	-246
▁အဘယ်	-247
▁၌	-248
ပျ	-249
▁အကျွန်ုပ်	-250
ွဲ	-251
▁သင်တို့	-252
ည့်	-253
▁ဗ	-254
▁ချ	-255
ရှင	-256
လော့။	-257
ခံရ	-258
ရှိသော	-259
ရှင်	-260
လည်း၊	-261
စကား	-262
အတို	-263
တရား	-264
လေ၏။	-265
▁အသ	-266
သက	-267
္တ	-268
▁မိမိ	-269
▁်၏	-270
းကို	-271
ွက်	-272
းမ	-273
ညာ	-274
▁သူတို့	-275
▁အာ	-276
ကျွန	-277
တတ်	-278
စုံ	-279
▁ဝ	-280
လျှင	-281
▁ဣသရေလ	-282
သိ	-283
▁ဒ	-284
▁်၍	-285
လိမ	-286
လွှ	-287
▁နေ	-288
ဇ်	-289
ပြည	-290
▁ဘ	-291
လှ	-292
ထံ	-293
ိုင	-294
အမှု	-295
နား	-296
လျက	-297
သော်	-298
ဖြင	-299
▁ဤ	-300
ပြီ။	-301
ုဒ	-302
ပြစ်	-303
မိန	-304
ရှေ့	-305
တွင်	-306
ဲ့သို့	-307
ဘဲ	-308
မီး	-309
တူ	-310
န်း	-311
အရာ	-312
ိုက်	-313
ယူ	-314
ရဲ	-315
ောင့်	-316
ံ့	-317
န့်	-318
▁၍၊	-319
ဘုရင်	-320
တိုင်	-321
▁မိန့်	-322
အာ	-323
▁ဟ	-324
ပေါ်	-325
အခါ	-326
ီရ	-327
▁ကိုယ်တော်	-328
ရိ	-329
လင်	-330
ကွ	-331
နိုင်	-332
ဘုရားသခင	-333
မူကား၊	-334
လက	-335
အပေါင်း	-336
ခု	-337
▁ဖ	-338
အစ	-339
▁သို့	-340
ယောက်	-341
သဖြင့်	-342
လက်	-343
ညီ	-344
ျက်	-345
▁ကောင်း	-346
များကို	-347
တွင	-348
ခြင်းကို	-349
ောဟ	-350
ကောင	-351
တပါး	-352
လျက်၊	-353
မရှိ	-354
▁သည်	-355
ဦး	-356
တည	-357
ရော	-358
????????	-359
ခေါ	-360
▁ဖြစ်	-361
တိ	-362
▁နှ	-363
ရှိသမျှ	-364
ဖန်	-365
▁မှ	-366
▁သား	-367
▁ပြု	-368
ူဇ	-369
▁ငါသည်	-370
▁ဧ	-371
▁ထိုသူ	-372
က၊	-373
ကြား	-374
နေ့	-375
မည်ဟု	-376
ဒ်	-377
▁်၍၊	-378
▁ယဇ်	-379
▁့။	-380
ေရှု	-381
မာ	-382
▁့်၊	-383
တံ	-384
ျား	-385
▁သော	-386
စ္	-387
ါဝိ	-388
ဘက်	-389
လု	-390
မင	-391
ပြီးမှ	-392
▁သင့်	-393
မင်း	-394
ရကြ	-395
အဘယ	-396
ခွ	-397
ေလ	-398
ေရု	-399
းတို	-400
ရှင်း	-401
အချ	-402
▁သင်သည်	-403
စေခြင်းငှါ	-404
လျှင်	-405
▁သင်၏	-406
▁်၏။	-407
ရှိ၏။	-408
ထောင်	-409
လင	-410
စရာ	-411
အကြောင	-412
▁၎	-413
မဟု	-414
ပုရ	-415
▁တော	-416
▁င	-417
အကျွန	-418
▁သင်တို့သည်	-419
အောင်	-420
တတ	-421
မိမိ	-422
▁မြေ	-423
ဝေး	-424
းငှါ	-425
စကားကို	-426
▁သူတို့သည်	-427
ကာလ	-428
တော်မူသည်	-429
နှစ	-430
ကဲ့သို့	-431
ပင်	-432
▁လက်	-433
ခြား	-434
▁ထိုသို့	-435
▁ရောက်	-436
▁အသက်	-437
ေးဇ	-438
ရမည်။	-439
ကြောင့်၊	-440
ိမ်း	-441
ကင်	-442
ပုရောဟ	-443
မူကား	-444
ေးဇူး	-445
ိလ	-446
ဆာ	-447
ရပ်	-448
▁ဂ	-449
ခြေ	-450
မြေ	-451
▁အကြောင်း	-452
သောအခါ၊	-453
အားဖြင့်	-454
▁မြို့	-455
ကြလော့။	-456
မျက်	-457
ွယ်	-458
▁့၌	-459
မြင	-460
အရပ်	-461
ရောက	-462
တော်မူသော	-463
ီရင်	-464
တိုင	-465
င်္	-466
▁ထာဝရဘုရားသည်	-467
▁သူ၏	-468
မှီ	-469
စဉ်	-470
ချင်း	-471
ောရှေ	-472
ပြစ	-473
ဘော	-474
သဖြင့်၊	-475
ပါ၏။	-476
ကြံ	-477
▁????????	-478
ဆယ်	-479
ရသော	-480
နှာ	-481
ကဲ	-482
▁အပြစ်	-483
ဇာ	-484
ရှာ	-485
တောင	-486
▁မီး	-487
▁ဘုရား	-488
ရောက်	-489
လမ	-490
ခါး	-491
▁ဆို	-492
▁ယုဒ	-493
တို့အား	-494
၎င်း	-495
ဟူသော	-496
မြင်	-497
ိုဃ	-498
ျာ	-499
အပေါင	-500
အတူ	-501
ဂုတ	-502
တည်း	-503
ဲဂုတ	-504
ပေါ်မှာ	-505
ကြွ	-506
နိုင	-507
ကလည်း၊	-508
ခရ	-509
ယောက	-510
▁ရှိ	-511
အလို	-512
ဆုံး	-513
ပါ။	-514
ေရုရှ	-515
ွတ်	-516
ိန	-517
တွေ	-518
▁နား	-519
ဘေး	-520
ဆောင်	-521
တော်၌	-522
▁ငါတို့	-523
ိပ်	-524
ရမည	-525
ိန်းမ	-526
ယဇ	-527
ငံ	-528
ူဇော်	-529
န့်ရှင်း	-530
လျှောက်	-531
ဆင	-532
▁တဖန်	-533
တိုက်	-534
ွက	-535
ငါတို	-536
မှစ	-537
သုံး	-538
ဆီး	-539
ပါစေ	-540
▁ကျွန်	-541
ယော	-542
ထဲက	-543
ဝါ	-544
▁အမ	-545
ယာ	-546
းက	-547
အန	-548
သက်	-549
စ္စာ	-550
တိုင်အောင်	-551
ာန	-552
▁စိတ်	-553
မျက	-554
ုလ	-555
ထက်	-556
လော။	-557
ါဝိဒ်	-558
စု	-559
▁ပေး	-560
ပြား	-561
▁ရှင်	-562
ဘုရင	-563
သမီး	-564
ဝိညာ	-565
▁ကောင်းကင်	-566
တို့၏	-567
▁ယော	-568
▁ထာဝရဘုရား၏	-569
ဆောင	-570
စီး	-571
ရှား	-572
▁အလ	-573
ဖန	-574
သဖြင	-575
းသော	-576
▁ဖြ	-577
▁ည	-578
ပင	-579
ကြလိမ့်မည်။	-580
တော်သည်	-581
အလ	-582
ပတ်	-583
▁သွား	-584
▁ထိုအခါ	-585
အသက	-586
▁ပြန်	-587
တု	-588
သောသူသည်	-589
ိုလ	-590
ခင်	-591
မေ	-592
တ္တ	-593
လိုက်	-594
▁ရေ	-595
▁့၊	-596
တကွ	-597
▁အမျိုး	-598
ပလ	-599
တို့နှင့်	-600
▁အို	-601
ရ။	-602
▁ရှင်ဘုရင်	-603
ရက်	-604
▁သေ	-605
နည်း	-606
▁အမှု	-607
ရောဖ	-608
လွှတ်	-609
▁့၏	-610
အတိုင	-611
တမ	-612
နှင့်။	-613
လေး	-614
▁သူ့	-615
စိတ	-616
တင်	-617
အကြောင်း	-618
▁တရား	-619
သည်ကို	-620
ပေါင်း	-621
ပြန	-622
စိုး	-623
အပြစ	-624
သံ	-625
ဏ်	-626
▁ဥ	-627
▁မိန့်တော်မူ၏။	-628
အဘို့	-629
ခြင်း၊	-630
▁ငါ့ကို	-631
ခိုး	-632
ကောင်း	-633
အရပ	-634
▁သန့်ရှင်း	-635
အတိုင်း	-636
ခဲ့	-637
ဖြစ်၏။	-638
ဟာ	-639
▁သူသည်	-640
သည်ဟု	-641
ဂလာ	-642
နေရာ	-643
သောအရာ	-644
အမှုကို	-645
ရု	-646
အသီး	-647
ထောင	-648
▁အကြောင်းမူကား၊	-649
ပုရောဟိတ်	-650
ဏာ	-651
ဘို့	-652
ဖြစ်၍၊	-653
▁ဒါဝိဒ်	-654
မတ်	-655
လိ	-656
နောက်	-657
ိုင်း	-658
မြောက်	-659
▁စေ	-660
▁စစ်	-661
သတ်	-662
အမြ	-663
မှား	-664
နှလုံး	-665
တို့၌	-666
မဟုတ်	-667
ငယ်	-668
ငါသည	-669
▁ဆောင်	-670
▁အဘယ်သူ	-671
▁ခံရ	-672
တိုင်း	-673
သတည်း။	-674
▁လေ	-675
▁ယေရှု	-676
▁်္	-677
ွှေ	-678
ဘက	-679
ုံကြ	-680
စေခြင	-681
ပြန်	-682
စ်ကို	-683
ဝတ်	-684
ွမ်း	-685
ုန်း	-686
▁စား	-687
▁ဘုရားသခင်၏	-688
သောအမှု	-689
ွန်း	-690
ကြလော	-691
▁ယဇ်ပုရောဟိတ်	-692
ရှင်ဘုရင်	-693
သူသည	-694
▁ပြော	-695
ဆွေ	-696
အိမ်	-697
အောင	-698
▁ငါ၏	-699
လင်မြို့	-700
▁ဣသရေလအမျိုး	-701
▁စကား	-702
ခွင့်	-703
္တု	-704
စရ	-705
အိမ	-706
တောင်	-707
▁နှုတ်	-708
စိတ်	-709
ိုက	-710
မူသော	-711
ကို၎င်း၊	-712
ွေ့	-713
ိုဃ်း	-714
ရွ	-715
▁အိမ်	-716
အပေါင်းတို့သည်	-717
ဟော	-718
ကောင်	-719
▁မျက်	-720
ဆဲ	-721
လူတို	-722
သော်လည်း၊	-723
ာလ	-724
နောက	-725
အတွ	-726
▁လှ	-727
ခဲ	-728
ထွက်	-729
တန်	-730
ဉ်း	-731
▁သိုး	-732
ဝင်	-733
▁နောက်	-734
ပြင်	-735
လိုက	-736
စွာသော	-737
ွင်း	-738
ပြီဟု	-739
ဲဂုတ္တု	-740
တတ်၏။	-741
ဇိ	-742
တဖန	-743
▁မောရှေ	-744
သင်	-745
ပည	-746
ယုဒ	-747
ကျိုး	-748
▁သခင်	-749
ိရ	-750
▁အား	-751
သနည်း။	-752
▁အဲဂုတ္တု	-753
နည	-754
လည်	-755
▁သူတို့ကို	-756
ီးမ	-757
ယား	-758
ထွက	-759
ငြ	-760
တယောက်	-761
မူသည	-762
ယေရှု	-763
အားဖြင	-764
သိမ	-765
▁ထား	-766
းတော	-767
▁ပြည်	-768
▁ယေရုရှ	-769
ဆိုး	-770
▁ကြား	-771
ကျေးဇူး	-772
ုစရ	-773
ဗြ	-774
▁ခေါ	-775
ဆယ	-776
ရှေ့မှာ	-777
ိပ	-778
နှုတ	-779
ထံသို့	-780
▁မိုဃ်း	-781
ငါး	-782
▁လာ	-783
စစ	-784
▁လုပ်	-785
▁အဘယ်သို့	-786
ထာဝရဘုရားသည	-787
▁ပူဇော်	-788
တံခါး	-789
အတိုင်း၊	-790
ေဒ	-791
ကိုမ	-792
ပြင	-793
္လင်	-794
▁မည်	-795
ထိုသို	-796
ဆင်း	-797
▁ကယ်	-798
▁ယခု	-799
တင	-800
လုပ	-801
▁ထွက်	-802
သခင	-803
▁တည်	-804
ဝိညာဉ်	-805
▁နှစ်	-806
▁နာ	-807
အမ	-808
▁မိ	-809
သောသူတို	-810
သီး	-811
▁မူ	-812
းကင	-813
▁ဣသရေလအမျိုးသား	-814
▁စီရင်	-815
ော့	-816
လုပ်	-817
▁အလွန်	-818
မမူ	-819
သိုး	-820
ကြလိမ	-821
▁ဆင်း	-822
▁ယေရုရှလင်မြို့	-823
သားတို	-824
ကြောင်း၊	-825
သောကြောင့်၊	-826
စီရ	-827
ဝင	-828
▁လျှောက်	-829
တည်း။	-830
ပွဲ	-831
သကဲ့သို့	-832
လမ်း	-833
ောင့်မတ်	-834
သနည	-835
ကြပါ	-836
▁သင့်ကို	-837
လွှတ	-838
စီရင	-839
ကျင	-840
တန	-841
▁ထာဝရ	-842
အပေါ်	-843
▁ရှော	-844
ဗိုလ	-845
ဗာ	-846
ရောဖက်	-847
▁မြင်	-848
ပြီးမှ၊	-849
အသက်	-850
▁မင်း	-851
တော်မူပါ။	-852
ာန်	-853
ကိုလည်း	-854
နှုတ်	-855
ကလည	-856
▁ကျေးဇူး	-857
▁ဗာ	-858
နေသော	-859
ခုန	-860
▁မြေကြီး	-861
မတ	-862
ဘက်၌	-863
ပြုသော	-864
ပတ	-865
ဆက်	-866
ရှို့	-867
▁ငါတို့သည်	-868
အပ	-869
အပြစ်	-870
းကြီး	-871
စီရင်	-872
လော့ဟု	-873
တွင်၊	-874
သော်၊	-875
▁မိန်းမ	-876
ရမည်	-877
ဖွ	-878
မေး	-879
ဝတ	-880
ပြီးလျှင်၊	-881
ကျင့်	-882
ဆီ	-883
ယဇ်	-884
စောင	-885
ုန့်	-886
တောင်း	-887
ကြောင်းကို	-888
အံ့	-889
နားမှာ	-890
▁ရန်	-891
တော်သို့	-892
မ္	-893
▁အစဉ်	-894
င်္ဂလာ	-895
ချင	-896
▁တံ	-897
မှန်	-898
တယောက	-899
လူမျိုး	-900
မှတပါး	-901
ံကို	-902
လွ	-903
ညှ	-904
ဘူး	-905
မက	-906
ရွာ	-907
မှစ၍	-908
စင်	-909
ခြင်းသို့	-910
၏သား	-911
▁များ	-912
နိ	-913
ထဲသို့	-914
▁အခြား	-915
▁ငြ	-916
သောသူ၊	-917
▁တောင်	-918
▁မေး	-919
▁အရှင်	-920
ပေ	-921
ချက်	-922
ထက	-923
မဟုတ	-924
▁ယာ	-925
▁ကိုယ်တော်သည်	-926
▁လိုက်	-927
တည်းဟူသော	-928
တည်	-929
ူဇော	-930
▁သက်	-931
သလော	-932
တို့၊	-933
▁ခရ	-934
ပူဇော	-935
ရှေ့တော်၌	-936
ပလ္လင်	-937
▁လွှ	-938
လျှောက	-939
အစ်ကို	-940
ဂါ	-941
ဗုလ	-942
ဟုဆို	-943
ရေး	-944
တွေ့	-945
▁စောင့်	-946
▁ဖြောင့်မတ်	-947
နာမ	-948
သည်လည်း	-949
မြှ	-950
▁သိ	-951
▁အရာ	-952
သိမ်း	-953
တခု	-954
အမျိုးသားတို	-955
ပါစေသော	-956
▁အချ	-957
ဖြစ်စေ	-958
စစ်	-959
▁ခေါ်	-960
သေး	-961
မှတ်	-962
ရှိရာ	-963
နက်	-964
လိမ့်မည်ဟု	-965
ဋိ	-966
မြို့၊	-967
မြောက	-968
▁ကြီး	-969
ကြည	-970
တကား	-971
▁အရပ်	-972
ကယ	-973
တိုက	-974
သတည	-975
ါဝိဒ	-976
▁ပရောဖက်	-977
▁မီးရှို့	-978
ဒါဝိဒ	-979
ဆွေအမျိုး	-980
ကြွေး	-981
င်သော	-982
အို	-983
▁သတ်	-984
ိမာန်	-985
▁ခံ	-986
ပျစ်	-987
ရိုး	-988
ဟူမူကား၊	-989
ဣသရေလအမျိုး	-990
္ခ	-991
ဘွယ်	-992
ုံကြည်	-993
ပြည်၌	-994
သော်လည်း	-995
▁နားထောင်	-996
သောကြောင	-997
နှင့်အတူ	-998
မိန့်	-999
အဘို	-1000
ိုးဘေး	-1001
ရက	-1002
ထာဝရ	-1003
▁့်။	-1004
▁ဟော	-1005
▁ကြည့်	-1006
ထိုအခါ	-1007
တို့တွင်	-1008
အရှင	-1009
ငွေ	-1010
▁မိန့်တော်မူသည်	-1011
ျက်ဆီး	-1012
ဘွား	-1013
နည်း။	-1014
သောသူသည	-1015
ွယ	-1016
စံ	-1017
သူရဲ	-1018
မပြ	-1019
▁ဝမ်း	-1020
မိန်းမ	-1021
▁အာရ	-1022
စောင့်	-1023
နိုင်ငံ	-1024
▁လူများ	-1025
မင်းကြီး	-1026
အကြောင်း၊	-1027
▁သင်တို့ကို	-1028
▁ကြောက်	-1029
ဖြစ်၍	-1030
တတ်သော	-1031
တပ	-1032
ပါဟု	-1033
ညီအစ်ကို	-1034
ရပ	-1035
စိ	-1036
ည်းဟု	-1037
▁ပည	-1038
▁မိမိတို့	-1039
သမ	-1040
▁မှာ	-1041
ုစရိုက်	-1042
ရည်	-1043
ခန	-1044
သောငှါ	-1045
နှင့်တကွ	-1046
▁ကျောက်	-1047
မောရှေ	-1048
ငယ	-1049
▁ဣ	-1050
ပျက်	-1051
ဖြေ	-1052
ရ၏။	-1053
းပ	-1054
ကုပ်	-1055
ရိမ်	-1056
သလော။	-1057
းမူကား	-1058
▁ယူ	-1059
▁လမ်း	-1060
ခေါ်	-1061
ရှော	-1062
ထဲမှာ	-1063
ရိမ	-1064
သားတို့သည်	-1065
သောသူတို့သည်	-1066
▁ကိုယ်တော်ကို	-1067
ကိုယ်	-1068
င်ရှား	-1069
ုရိ	-1070
သခင်	-1071
မယား	-1072
မော	-1073
္ကာ	-1074
အလုံး	-1075
▁ရွှေ	-1076
စေခြင်းငှါ၊	-1077
လဲ	-1078
▁ဘုရားသခင်သည်	-1079
ကိုလည	-1080
ပုရောဟိတ	-1081
အခြား	-1082
ဘို	-1083
င်းကို	-1084
▁တန်	-1085
▁အသီး	-1086
မြို့သို့	-1087
ရန	-1088
▁အလို	-1089
ကြ။	-1090
တရားကို	-1091
ရှဲ	-1092
ပညာ	-1093
္တိ	-1094
▁တပါး	-1095
င်လ	-1096
သဘော	-1097
▁တယောက်	-1098
ဟူ၍	-1099
ခြောက်	-1100
ကိုး	-1101
သည်ကား၊	-1102
အံ	-1103
းသည	-1104
နွား	-1105
▁စာ	-1106
သေခံ	-1107
ဆက	-1108
▁ပညာ	-1109
▁ကိုယ်တော်၏	-1110
နေ့၌	-1111
▁ကျိန်	-1112
▁မတရား	-1113
ီးမွမ်း	-1114
ဖျ	-1115
စည	-1116
မုန	-1117
ဝပ်	-1118
ိလိတ	-1119
တော်နှင့်	-1120
▁ထာဝရဘုရားကို	-1121
ကြယ်	-1122
ခွင	-1123
ပြေး	-1124
▁ဆုံး	-1125
သောသူကို	-1126
ခံရသော	-1127
မှာထား	-1128
▁ဇ	-1129
ကုန်	-1130
▁ပညတ်	-1131
လူတို့သည်	-1132
ဋိညာ	-1133
သားကို	-1134
တာ	-1135
▁ပြည့်	-1136
▁ဟေ	-1137
▁ဗိမာန်	-1138
စင	-1139
မက်	-1140
▁အသက်ရှင်	-1141
သစ	-1142
စည်း	-1143
အုပ်	-1144
ကြည့်	-1145
သက္ကာ	-1146
▁ရန်သူ	-1147
တော်မူပြီ။	-1148
▁အဘယ်ကြောင့်	-1149
းသို	-1150
တ္တာ	-1151
▁ဝင်	-1152
သွား၍	-1153
တော်မမူ	-1154
▁သင်္	-1155
ဘဲနေ	-1156
သား၊	-1157
ယေရုရှ	-1158
တဖန်	-1159
မြေကြီး	-1160
တစုံ	-1161
▁စပျစ်	-1162
ထုတ်	-1163
ရှိကြ	-1164
အညီ	-1165
ွမ	-1166
ပယ်	-1167
ကြောက	-1168
းနှင	-1169
သည်၊	-1170
စာကို	-1171
ဆို၏။	-1172
အရပ်၌	-1173
ဟံ	-1174
စွဲ	-1175
မြို့၌	-1176
အရှင်	-1177
ပူဇော်	-1178
ွန့်	-1179
ထင	-1180
ဌာန	-1181
လူများ	-1182
မျက်နှာ	-1183
အစဉ	-1184
တဲ	-1185
ရံ	-1186
▁မျက်နှာ	-1187
▁ငွေ	-1188
▁အဲဂုတ္တုပြည်	-1189
မသိ	-1190
ျာဒ	-1191
အမြဲ	-1192
▁သိမ်း	-1193
▁ကယ်တင်	-1194
ရွံ	-1195
▁နေ့	-1196
▁ဆင်းရဲ	-1197
ပြီးလျှင	-1198
အသရေ	-1199
မူပါ	-1200
လွတ်	-1201
တွင်း	-1202
▁မည်။	-1203
▁သုံး	-1204
သည်အတိုင်း	-1205
▁တပ်	-1206
ကယ်	-1207
မိုဃ	-1208
▁အခွင့်	-1209
အပ်	-1210
▁တဲ	-1211
▁ယေ	-1212
ပြု၍	-1213
▁ရှာ	-1214
းဟု	-1215
▁ဒုစရိုက်	-1216
▁မေ	-1217
▁သာ	-1218
တမန်	-1219
အဲဂုတ	-1220
မှတ	-1221
ယခု	-1222
မည်း	-1223
သနား	-1224
▁အမျက်	-1225
နက	-1226
ဖျက	-1227
မပြု	-1228
မှူး	-1229
အတွက်	-1230
ရိသတ်	-1231
အချိန်	-1232
ပတ်လုံး	-1233
နံ	-1234
ပေးတော	-1235
ကပ်	-1236
▁ကာလ	-1237
▁အပ်	-1238
စ္ဆာ	-1239
ပေါလု	-1240
▁နွား	-1241
▁အချင်း	-1242
ကြိုး	-1243
၏ဟု	-1244
ီးမြှ	-1245
ကြပြီ။	-1246
မေ့	-1247
ထိုသူ	-1248
▁တိုက်	-1249
်ခြေ	-1250
ပြည့်	-1251
ဥစ္စာ	-1252
▁ယာကုပ်	-1253
ငှာ	-1254
မှန	-1255
ရုဏာ	-1256
သောကြောင့်	-1257
ပျက	-1258
ကွယ်	-1259
မြတ်	-1260
ရှက်	-1261
လောက	-1262
ဖြောင	-1263
ယေရုရှလင	-1264
▁စေလွှတ်	-1265
ပု	-1266
အလျ	-1267
ရွေး	-1268
လတ	-1269
များ၊	-1270
▁ယနေ့	-1271
▁တို့ကို	-1272
▁သို့ရာ	-1273
▁သင်တို့၏	-1274
ဝမ	-1275
▁အပေါင်း	-1276
ချီ	-1277
ဆင်	-1278
▁သူ့ကို	-1279
▁နောက်တဖန်	-1280
ထံသို	-1281
▁နှင့်	-1282
▁အကျွန်ုပ်ကို	-1283
▁????????????	-1284
စေ့	-1285
ရွှေ	-1286
ဟုတ်	-1287
▁နန်း	-1288
သနည်းဟု	-1289
ိုကြွေး	-1290
▁အကျွန်ုပ်သည်	-1291
▁ရာ	-1292
ဉ်းဆဲ	-1293
အောက်	-1294
ထားသော	-1295
▁ရှောလု	-1296
▁လည်း	-1297
စေတော	-1298
မရှိ။	-1299
ကြီးသော	-1300
▁အမိန့်	-1301
▁ပယ်	-1302
▁ခရစ်	-1303
သမျှသော	-1304
အကျိုး	-1305
အရာကို	-1306
မြစ်	-1307
အလွန	-1308
စီ	-1309
ကျောက	-1310
ဖွဲ့	-1311
ဗြဟံ	-1312
▁တပ	-1313
▁သစ္စာ	-1314
▁ညှ	-1315
▁ဟာ	-1316
ကြွင်း	-1317
ရွက်	-1318
▁ယုံကြည်	-1319
ခြင်းနှင့်	-1320
ချက	-1321
သကဲ	-1322
အပေါင်းတို့ကို	-1323
စဉ	-1324
ဟေ	-1325
သည်အတိုင်း၊	-1326
အောက	-1327
ဗုလုန်	-1328
???	-1329
မ္မ	-1330
ရှောက်	-1331
ရှိသည	-1332
▁ပြင်	-1333
အမည်	-1334
▁လေဝိ	-1335
လျက်နေ	-1336
▁ဘုန်း	-1337
ုတောင်း	-1338
▁ကြည့်ရှု	-1339
အမျိုးမျိုး	-1340
ဒေါ	-1341
▁ပရိသတ်	-1342
ပယ	-1343
နန	-1344
းတ	-1345
အုပ	-1346
▁ဝတ်	-1347
ပြုရ	-1348
စ္ဆာန်	-1349
ဖြစ်သော	-1350
သည်ဖြစ်၍၊	-1351
ယျာ	-1352
▁ရွေး	-1353
ဝိညာဉ	-1354
▁ညီအစ်ကို	-1355
▁နိုင်	-1356
▁လိမ့်	-1357
ွင	-1358
▁ယောက်	-1359
တန်ဆာ	-1360
▁အိပ်	-1361
▁ပြည့်စုံ	-1362
▁ဝမ်းမြောက်	-1363
မည်အကြောင်း၊	-1364
ခို	-1365
ပညတ	-1366
▁အောက်	-1367
ပ်သိမ်း	-1368
▁ထိုသူသည်	-1369
ကြောက်	-1370
က္ခ	-1371
ပန်	-1372
▁တွေ့	-1373
ည့်တော်	-1374
▁ကိုယ်ကို	-1375
သွားကြ	-1376
ခရစ	-1377
သပ်	-1378
အာရ	-1379
ဘော်	-1380
▁တောင်း	-1381
▁ဝိညာဉ်	-1382
အဆွေအမျိုး	-1383
▁ယဇ်ပလ္လင်	-1384
▁မိန့်တော်မူ	-1385
မျှမ	-1386
▁ယေရ	-1387
တရု	-1388
မန်	-1389
ကပတ်	-1390
▁ဤသူ	-1391
▁ထိုသူတို့သည်	-1392
ဥစ	-1393
▁လူမျိုး	-1394
▁အာရုန်	-1395
▁သူတို့၏	-1396
▁ဆောင်ခဲ့	-1397
ရှို	-1398
မွေ	-1399
ရှိကြ၏။	-1400
ရွံ့	-1401
▁လွှတ်	-1402
ဟောပြော	-1403
▁လု	-1404
ထိုသူတို	-1405
▁ချီးမွမ်း	-1406
ြို	-1407
စေလွှတ	-1408
းခြင	-1409
စော	-1410
းဟူသော	-1411
▁ငြိမ်	-1412
ပြောဆို	-1413
▁အမျိုးသား	-1414
ပရောဖ	-1415
လင့်	-1416
ုနစ်	-1417
▁ခုနစ်	-1418
▁ထင်ရှား	-1419
ွင့်	-1420
နီး	-1421
ိယ	-1422
ပရောဖက	-1423
ဒုံ	-1424
▁မုန့်	-1425
ဆရာ	-1426
ရင်း	-1427
နားထောင	-1428
အပေါ်မှာ	-1429
ယေ	-1430
ညူး	-1431
မ်းသာ	-1432
▁ကျင့်	-1433
ဓမ္မ	-1434
ပါသော	-1435
ဖြစ်စေ၊	-1436
ဝန	-1437
ဖျား	-1438
▁စည်း	-1439
ဝတ်ကို	-1440
▁တို့သည်	-1441
ုလား	-1442
ရာယဇ်	-1443
▁ထိုနောက်	-1444
ရပါ	-1445
အရာ၌	-1446
တော်၏	-1447
ထုတ	-1448
ပိုး	-1449
သငယ်	-1450
▁ဧလိ	-1451
▁ဖျက်ဆီး	-1452
အကြီး	-1453
▁နာမ	-1454
▁နေရာ	-1455
တိရ	-1456
ဉ့်	-1457
ဗိမ	-1458
▁ပြစ်	-1459
▁ပြေး	-1460
မြစ	-1461
လွှဲ	-1462
▁ခါ	-1463
မည်အကြောင်း	-1464
နှံ	-1465
▁ဟု	-1466
▁မင်္ဂလာ	-1467
ရှိသမျှကို	-1468
ခုနစ	-1469
လယ	-1470
ပေါင	-1471
သောသူတို့ကို	-1472
▁ပူဇော်သက္ကာ	-1473
ေသ	-1474
မွေး	-1475
ခတ်	-1476
လတံ့	-1477
သောက်	-1478
▁သူတပါး	-1479
ပစ်	-1480
ကျိန	-1481
နေကြ	-1482
ကောင်းကင်	-1483
တား	-1484
ချစ်	-1485
ကုန	-1486
ရန်	-1487
ထဲသို	-1488
▁ခပ်သိမ်း	-1489
မခံ	-1490
ရလိမ့်မည်။	-1491
ရသောအ	-1492
အကြံ	-1493
အမွေ	-1494
လမုန်	-1495
မီးရှို	-1496
လုံ	-1497
▁ဇိ	-1498
▁ရှေ	-1499
▁အလျ	-1500
န့်ထား	-1501
▁ကျွန်တော်	-1502
▁ထိုကြောင့်	-1503
▁သန့်ရှင်းသော	-1504
တမန	-1505
ကန်	-1506
စေ။	-1507
ဆေး	-1508
ရှက	-1509
ုပ်တု	-1510
ဏ္	-1511
▁အထ	-1512
ဆိုင	-1513
လုံးကို	-1514
▁သံ	-1515
ရှုရိ	-1516
အလုံးစုံ	-1517
▁ဗာဗုလုန်	-1518
▁တပည့်တော်	-1519
ကွဲ	-1520
ိန်း	-1521
ကြော်	-1522
ဝေးရာ	-1523
သည်မဟုတ်	-1524
▁ဟောပြော	-1525
▁စစ်တိုက်	-1526
ချစ	-1527
နယ်	-1528
▁ခြေ	-1529
▁ပြစ်မှား	-1530
သောအမှုကို	-1531
ကြပြီ	-1532
▁ဩ	-1533
လွတ	-1534
အချိန	-1535
ကာလ၌	-1536
ခုနစ်	-1537
▁ပျက်	-1538
▁မဟုတ်	-1539
▁သို့ဖြစ်၍	-1540
ဆိတ်	-1541
ရှိသမျှတို	-1542
▁ဘုရားသခင်ကို	-1543
ရင	-1544
အခွင	-1545
သံကို	-1546
▁အရ	-1547
အခ	-1548
ပုံ	-1549
ဋိညာဉ်	-1550
ပါစေသော။	-1551
▁အခြားသော	-1552
အသက်ကို	-1553
▁နှုတ်ကပတ်	-1554
အသွေး	-1555
မိမိတို	-1556
▁တပါးအမျိုးသား	-1557
ဘွယ	-1558
▁ခြ	-1559
ကိုယူ	-1560
▁အထက်	-1561
▁ခမည်း	-1562
ချို	-1563
စပ်	-1564
▁တတ်	-1565
▁ဘေး	-1566
▁နားမ	-1567
ဍာ	-1568
ရည	-1569
▁ပျ	-1570
ီချင်း	-1571
▁ဆုတောင်း	-1572
▁ယောက်ျား	-1573
▁အသေ	-1574
▁ချစ်	-1575
ဘုံ	-1576
ယုံကြ	-1577
▁ပါ	-1578
▁မာ	-1579
တမ်း	-1580
▁တိရ	-1581
▁မော	-1582
ပေါက်	-1583
လောဟု	-1584
▁ဗိုလ	-1585
ဗိုလ်ခြေ	-1586
အမျက	-1587
▁မထ	-1588
ရှိသမျှတို့ကို	-1589
ဟူမူကား	-1590
ဌနာ	-1591
▁အမွေ	-1592
▁ဖိလိတ	-1593
▁ရှေ့တော်၌	-1594
▁စိတ်နှလုံး	-1595
တဘက	-1596
အဝတ	-1597
ဖုံး	-1598
သာ၍	-1599
ဲ့ရ	-1600
▁ဇာ	-1601
မူမည	-1602
▁????	-1603
ာဏ်	-1604
ုဏ်	-1605
▁ကောင်းကြီး	-1606
အထ	-1607
သင့်	-1608
စွန	-1609
းရဲ	-1610
မဲ့	-1611
လား	-1612
▁့၎	-1613
▁လေး	-1614
မြင့်	-1615
▁လိမ့်မည်။	-1616
ဘုန	-1617
ော်လင့်	-1618
ဌမ	-1619
ဘာ	-1620
ခရစ်	-1621
▁တစုံ	-1622
▁အုပ်	-1623
▁စကားကို	-1624
တော်မူမည်။	-1625
▁မျ	-1626
ဲ့ရဲ့	-1627
ျာဒိတ်	-1628
▁ဥစ္စာ	-1629
▁ဆက်	-1630
စေသော	-1631
▁တံခါး	-1632
သကဲ့သို့၊	-1633
▁ပြန်ပြော	-1634
ကိ	-1635
▁အာမ	-1636
မြော	-1637
ဆန	-1638
ဝဲ	-1639
ပျို	-1640
လူတို့ကို	-1641
ရှုံး	-1642
အသေ	-1643
ဆုံးမ	-1644
▁ကိုး	-1645
ွတ	-1646
ရှောက	-1647
▁စု	-1648
တုပြည	-1649
ပြည်သို့	-1650
ဝေ	-1651
ဖာ	-1652
းရှိ	-1653
ဗိမာန	-1654
ကိုမျှ	-1655
မြဲ	-1656
လာ၍၊	-1657
ော်ဒ	-1658
လူတို့	-1659
စေလွှတ်	-1660
ခြင်းငှါ၊	-1661
ပျစ	-1662
ကြွင	-1663
ဘိုးဘေး	-1664
မြည	-1665
ဿဟာ	-1666
စပျစ	-1667
တဘက်၌	-1668
ပါပြီ။	-1669
ဆိတ	-1670
လာ၍	-1671
သောက	-1672
▁စုံ	-1673
▁ဝန်	-1674
ကြပါ၏။	-1675
ိုးဆ	-1676
▁တော်	-1677
▁အကျိုး	-1678
တော်မူ၍၊	-1679
ထာဝရဘုရား၊	-1680
ထာဝရဘုရားကို	-1681
▁ထာဝရဘုရားအား	-1682
ေးဝါ	-1683
▁လှည့်	-1684
▁ကျွန်ုပ်	-1685
▁တိရစ္ဆာန်	-1686
▁သို့ရာတွင်	-1687
ထိုကြောင	-1688
▁ကျမ်း	-1689
ဗု	-1690
ညီအစ	-1691
▁အကယ်	-1692
ပြည်ကို	-1693
▁ညှဉ်းဆဲ	-1694
ခေါင	-1695
ငြိမ	-1696
ဆု	-1697
ပုသ	-1698
အမိန	-1699
ဿဟာယ	-1700
လျော့	-1701
▁တန်ခိုး	-1702
နည်းဟု	-1703
▁ဆုံးမ	-1704
ဆုံးသော	-1705
▁အဘယ်သူမျှ	-1706
ပစ	-1707
လောင	-1708
ဘဲ၊	-1709
သိတ	-1710
ဖြတ်	-1711
င်လယ်	-1712
သောစိတ်	-1713
သောအရပ်	-1714
လိမ့်မည်	-1715
▁ပေ	-1716
မတရား	-1717
▁ပင်လယ်	-1718
ဆံ	-1719
လွန	-1720
အများ	-1721
သားကား	-1722
ကန	-1723
▁စင်	-1724
သွားသော	-1725
ပြည့်စုံ	-1726
▁ပြောဆို	-1727
ကွယ	-1728
ဥယျာ	-1729
မှာ၊	-1730
▁နက်	-1731
▁ဘိုးဘေး	-1732
ကြယ	-1733
ပါရ	-1734
▁ဆီ	-1735
▁နံ	-1736
▁ယောသပ်	-1737
▁သို့သော်လည်း	-1738
မိုက်	-1739
င့်ဆို	-1740
▁မှာထား	-1741
ကြနှင့်။	-1742
အပေါင်းတို့	-1743
ဝံ	-1744
ပရိ	-1745
ထိုင	-1746
ပေးသော	-1747
ချိုး	-1748
ယုံကြည	-1749
သောအရာကို	-1750
▁အရှင်ထာဝရဘုရား	-1751
လှည	-1752
▁သူငယ်	-1753
▁ကောင်းကင်တမန်	-1754
ခရီး	-1755
▁ဧဖ	-1756
မုန်	-1757
ခြင်းရှိ	-1758
ုသာ	-1759
လှုံ	-1760
ုစရိုက	-1761
ကြွား	-1762
ီးမြှောက်	-1763
သားတို့ကို	-1764
သူကြီး	-1765
တ္တိ	-1766
▁ကြွ	-1767
ရကြ၏။	-1768
▁လော့	-1769
ကျောက်	-1770
ခေါင်း	-1771
သွား၍၊	-1772
▁တိုင်	-1773
ကို၎င်း	-1774
▁ဘုရားသခ	-1775
နှစ်ယောက်	-1776
လျက်ရှိ၏။	-1777
ောဗ	-1778
အမည	-1779
ဥပ	-1780
ကုပ	-1781
ဟစ်	-1782
အိပ	-1783
▁ကာ	-1784
▁ဖာ	-1785
ထံတော်သို့	-1786
ဆွဲ	-1787
ိမြ	-1788
▁အခ	-1789
မဲ	-1790
ရွှ	-1791
လွန်	-1792
မူပြီ	-1793
အရေ	-1794
ထိုင်	-1795
▁မြစ်	-1796
▁လောက	-1797
သောသူ၏	-1798
ဖြစ်ကြ၏။	-1799
ရှောလု	-1800
ဒုစရိုက	-1801
ကျွေး	-1802
နည်းတူ	-1803
▁နိုင်ငံ	-1804
▁အကျွန်ုပ်၏	-1805
ဝပ	-1806
စပါး	-1807
ပါမည	-1808
လာသော	-1809
သလောဟု	-1810
းမြောက	-1811
▁လျှ	-1812
▁အရေ	-1813
အနွယ်	-1814
▁မရှိ	-1815
စရာဘို့	-1816
ရကြမည်။	-1817
▁ငါတို့ကို	-1818
ဧလိ	-1819
ထုံး	-1820
▁ရပ်	-1821
▁အခါ	-1822
▁ယေရှုသည်	-1823
မြေး	-1824
ဂြို	-1825
▁တင်	-1826
ဂြိုဟ	-1827
ထံတော	-1828
▁ကျန်	-1829
ခွဲ	-1830
ွါ	-1831
▁ရှေ့	-1832
▁အောက်မေ့	-1833
ခုံ	-1834
တရာ	-1835
ယေရ	-1836
ဝန်	-1837
▁ကြ၏။	-1838
▁ဆိတ်	-1839
▁အဝတ်	-1840
၌၎င်း၊	-1841
လျက်ရှိ	-1842
▁ဖိလိတ္တိ	-1843
ချိန်	-1844
လက်မှ	-1845
ရှောင်	-1846
စေမည	-1847
▁ဒဏ်	-1848
▁သာ၍	-1849
တတ်ကြ၏။	-1850
စမ်း	-1851
ဆိုင်	-1852
ပြုကြ	-1853
▁ယောရှု	-1854
▁ဗျာဒိတ်	-1855
▁ကြောက်ရွံ့	-1856
ခြောက	-1857
လူ၊	-1858
မိုက	-1859
အဘယ်	-1860
▁အနာ	-1861
▁ထိုင်	-1862
အစဉ်	-1863
ချီးမ	-1864
အံ့သောငှါ	-1865
▁ကိုယ်တိုင်	-1866
လေဝိ	-1867
▁့်၎	-1868
ကျင်	-1869
ယာကုပ	-1870
▁သက်သေခံ	-1871
▁ရှောလမုန်	-1872
ရာတွင	-1873
ချီးမွမ	-1874
အားကြီး	-1875
▁စွန့်	-1876
ပြီးသော	-1877
မြို့နှင့်	-1878
▁ဣသရေလအမျိုး၏	-1879
တပ်	-1880
အတွက	-1881
▁မူ၏။	-1882
▁ကရုဏာ	-1883
▁ဒါဝိဒ်သည်	-1884
▁့်၍	-1885
ယ်၌	-1886
▁သစ်	-1887
တို့က၊	-1888
▁ထောင်	-1889
ခပ	-1890
တကား။	-1891
ပိုင်	-1892
စေမည်။	-1893
သောင်း	-1894
ရှိသော်	-1895
▁မင်းကြီး	-1896
ကင	-1897
ရှိပါ	-1898
င်ထုတ်	-1899
▁မြင်း	-1900
စမ	-1901
စေဟု	-1902
ရလိမ	-1903
ရှိမ	-1904
▁ချီ	-1905
▁ရေး	-1906
နာရှေ	-1907
▁အကြံ	-1908
နှင့်အညီ	-1909
▁နားမထောင်	-1910
▁ထာဝရဘုရားမိန့်	-1911
တပည	-1912
တစုံတခု	-1913
ကျူး	-1914
▁ပတ်	-1915
▁အံ့	-1916
▁ကင်း	-1917
▁မှတ်	-1918
▁ပျက်စီး	-1919
▁သခင်ဘုရား	-1920
▁ထိုကြောင့်၊	-1921
▁မိုဃ်းကောင်းကင်	-1922
မြတ	-1923
▁ရွှ	-1924
ော်ဟစ်	-1925
▁စုဝေး	-1926
လူအပေါင	-1927
မြို့ကို	-1928
မြို့သား	-1929
ရှိရာသို့	-1930
ရဟု	-1931
သွန	-1932
လောင်း	-1933
▁အသွေး	-1934
▁ငါ့အား	-1935
▁တဲတော်	-1936
▁အကယ်စင်	-1937
▁အိုထာဝရဘုရား၊	-1938
းဖြစ	-1939
ရာဌာန	-1940
နားမ	-1941
တကောင်	-1942
စင်ကြယ်	-1943
▁ဖြစ်၏။	-1944
ခြင်းငှာ	-1945
▁အတိုင်း	-1946
ဖွဲ	-1947
▁အစ	-1948
▁တက်	-1949
▁လွန်	-1950
တန်ခိုး	-1951
▁ကဲ့ရဲ့	-1952
▁ခန့်ထား	-1953
တော်မူလျှင်၊	-1954
သန်	-1955
အပြစ်ကို	-1956
အကြ	-1957
အချင	-1958
မရ	-1959
ောဇ	-1960
▁အကြ	-1961
စ်ညူး	-1962
ည်တမ်း	-1963
ပန	-1964
သမား	-1965
▁အာဗြဟံ	-1966
သို့ရောက်	-1967
▁ငိုကြွေး	-1968
▁မြော်လင့်	-1969
ထီး	-1970
အလိုငှါ	-1971
္ဒ	-1972
နှီး	-1973
လောက်	-1974
▁မယား	-1975
▁မိုက်	-1976
▁စပျစ်ရည်	-1977
▁အကယ်စင်စစ်	-1978
တုံ	-1979
မိုး	-1980
ထိုက်	-1981
လှုပ်	-1982
▁သင်၌	-1983
▁နံနက်	-1984
▁ပေါလု	-1985
▁အလုံး	-1986
ကျမ	-1987
ကျိပ်	-1988
နှစ်ဆယ်	-1989
စေ၍၊	-1990
ံ့သာ	-1991
သပ	-1992
ယနေ	-1993
ဆောက်	-1994
▁ဗင်္	-1995
▁သို့မဟုတ်	-1996
ဗန	-1997
လန	-1998
အနာ	-1999
ါရော	-2000
▁ငါမ	-2001
ပါမည်။	-2002
▁ကြွေး	-2003
တော်ရှိ	-2004
တို့သည်၊	-2005
လာကြ	-2006
သားသမီး	-2007
တိုးပ	-2008
▁လော့။	-2009
▁သေတ္တာ	-2010
သန့်ရှင်း	-2011
▁အပြစ်ဖြေ	-2012
ဂတိ	-2013
ွင်	-2014
ငှက်	-2015
မိန်	-2016
ဝမ်း	-2017
င်လန်း	-2018
၌ရှိသော	-2019
ဆိုင်သော	-2020
▁ဆင့်ဆို	-2021
▁ပဋိညာဉ်	-2022
ညံ	-2023
ယူ၍	-2024
လင်း	-2025
ပရိသတ	-2026
▁ဘွား	-2027
▁ခိုင်	-2028
▁သင်၏ဘုရားသခင်	-2029
နဲ	-2030
အရင	-2031
▁ဦး	-2032
▁ထုတ်	-2033
လျော	-2034
▁တမန်	-2035
အချို့	-2036
အသီးအသီး	-2037
▁သီချင်း	-2038
▁အကျွန်ုပ်တို့	-2039
ဆိုသော	-2040
းဆဲ	-2041
လှည့်	-2042
▁မောဘ	-2043
▁ဥာဏ်	-2044
ိမ့်ချ	-2045
ော်ဒန်	-2046
▁ထိုမိန်းမ	-2047
ဒိ	-2048
မနေ	-2049
အစရှိသော	-2050
▁ဂိလ	-2051
▁အရင်	-2052
ဖျက်ဆီး	-2053
ခင	-2054
သတိ	-2055
▁သတိ	-2056
ကောက်	-2057
ရေကို	-2058
ဘွယ်သော	-2059
နိုင်သော	-2060
▁ချမ်းသာ	-2061
▁အစဉ်အမြဲ	-2062
▁အဆွေအမျိုး	-2063
တော်မူသည်ကား၊	-2064
ဝါဒ	-2065
သခါ	-2066
ကျေးဇူးတော	-2067
▁ဖန်	-2068
▁လယ်	-2069
မပြတ်	-2070
ပြုတော	-2071
အထက	-2072
ခမည	-2073
ထဲ၌	-2074
ွာဘ	-2075
▁သမ	-2076
တွက်	-2077
ပြည်၊	-2078
မရှိ၊	-2079
ဖျားလှ	-2080
▁အောင်	-2081
မင်းသည်	-2082
▁ဧဖရိမ်	-2083
▁စင်ကြယ်	-2084
မထ	-2085
ပါပြီ	-2086
ဖျက်	-2087
မှတပါး၊	-2088
▁ရုပ်တု	-2089
တော်မူသဖြင့်၊	-2090
းသာ	-2091
ုလားကာ	-2092
ဒဏ	-2093
ဖူး	-2094
အိုး	-2095
▁ထမ်း	-2096
▁ပေတရု	-2097
▁ပြင်း	-2098
▁ငြိမ်ဝပ်	-2099
▁သင်တို့အား	-2100
တော်အားဖြင့်	-2101
▁မီးရှို့ရာယဇ်	-2102
ဏ္ဍာ	-2103
ပန်း	-2104
ချိုင	-2105
▁ရှိ၏။	-2106
▁မသိ	-2107
အာရုန	-2108
▁ယော်ဒန်	-2109
ဂေလ	-2110
အမိ	-2111
ငါ့	-2112
းစေ	-2113
▁ဂါ	-2114
ဘိုး	-2115
▁တည်း	-2116
ဉ်းကပ်	-2117
▁ကျွန်မ	-2118
▁ရှိသော	-2119
▁ဖန်ဆင်း	-2120
ဝှ	-2121
▁ဂုဏ်	-2122
▁အကြင်	-2123
▁အချိန်	-2124
ပေါ်သို့	-2125
အသံ	-2126
အနားမှာ	-2127
တက	-2128
အချို	-2129
▁ကြိုး	-2130
▁သွား၍	-2131
▁တော်မူ၏။	-2132
ခြင်းအားဖြင့်	-2133
ဗိုလ်ခြေအရှင်	-2134
ကြာ	-2135
ရွက	-2136
ုတိယ	-2137
ပျောက်	-2138
▁လုပ်ကြံ	-2139
အဝေး	-2140
တံခါးဝ	-2141
များပြား	-2142
▁ငါး	-2143
ချုပ်	-2144
ရှေ့၌	-2145
▁ဆိုး	-2146
ဘူးသော	-2147
ယာမိန်	-2148
သွားကြ၏။	-2149
▁မတရားသော	-2150
သွေး	-2151
သူတပါး	-2152
ပိုင	-2153
▁ဆယ်	-2154
▁စပါး	-2155
များနှင့်	-2156
▁ဗိမာန်တော်	-2157
▁ခပ်သိမ်းသော	-2158
ကျန	-2159
ွှေး	-2160
ိတရား	-2161
ရှိတော	-2162
စက	-2163
▁အန	-2164
▁သောက်	-2165
▁အစိုး	-2166
ပြည်သား	-2167
▁မျက်စိ	-2168
▁မြောက်	-2169
▁အချင်းချင်း	-2170
ကြဲ	-2171
ဗုလုန	-2172
ကတိ	-2173
ရာ၌	-2174
▁မရ	-2175
ပညတ်	-2176
▁သဘော	-2177
လေပြီ။	-2178
▁အဓမ္မ	-2179
လံ	-2180
▁ခရီး	-2181
▁လွတ်	-2182
▁နောင်	-2183
ထိုသူသည	-2184
လက်သို့	-2185
▁ရှိသမျှ	-2186
▁ကျိန်ဆို	-2187
▁အသက်ကြီး	-2188
ကိုင	-2189
ဝံဂေလ	-2190
ဆုတောင	-2191
▁အစာ	-2192
ောဟန်	-2193
▁လောကီ	-2194
▁သို့သော်လည်း၊	-2195
ချမ	-2196
စပ	-2197
ဟစ	-2198
ဆာန	-2199
းကြ	-2200
လက်၌	-2201
▁မှန်	-2202
နေ့ရက်	-2203
ရာအရပ်	-2204
အခွင့်	-2205
ပြစ်မှား	-2206
▁သူတို့အား	-2207
▁ထိုသို့သော	-2208
ရကြလိမ့်မည်။	-2209
းကပ	-2210
အခြားသော	-2211
မေလ	-2212
▁ဂိ	-2213
တိမ်	-2214
ထွက်၍	-2215
ပါစေ။	-2216
▁ငါပေး	-2217
များတို	-2218
မရှိသော	-2219
ခိုင	-2220
▁ရှောက်	-2221
မည်နည်း။	-2222
▁ကောင်းကြီးပေး	-2223
ဘိ	-2224
စုဝေး	-2225
လေပြီ	-2226
ရွံရှာ	-2227
ညှဉ	-2228
ရာ၊	-2229
တဘက်	-2230
တိရစ	-2231
▁အသံ	-2232
နှင့်၊	-2233
▁နံ့သာ	-2234
အမျိုး၊	-2235
ိုးဆော်	-2236
▁မကောင်း	-2237
▁သင်္ဘော	-2238
ောင်မိုက်	-2239
▁ချီးမြှောက်	-2240
မန	-2241
ထားတော	-2242
လမုန	-2243
ဆိုကြ	-2244
မြန်း	-2245
နိုင်။	-2246
▁ဗိုလ်	-2247
တို့ကို၎င်း၊	-2248
▁ယုဒရှင်ဘုရင်	-2249
တေ	-2250
ကပတ	-2251
းခံ	-2252
ကိုသာ	-2253
ပုသ်	-2254
▁ခွန်	-2255
▁စိုး	-2256
▁အရပ်ရပ်	-2257
▁ခမည်းတော်	-2258
တိုင်အောင်၊	-2259
ဒု	-2260
ဒန	-2261
သေ့	-2262
အုန်	-2263
င်္သေ့	-2264
ဒါဝိဒ်	-2265
▁မြင့်	-2266
▁မြည်း	-2267
သောသူတို့	-2268
အကြောင်းကို	-2269
ရာဇ	-2270
ဓမ	-2271
တနာ	-2272
ခြင်	-2273
ဖလား	-2274
သွင်း	-2275
ပြီးလျှင်	-2276
သောသူဖြစ်	-2277
▁သင်တို့၌	-2278
▁ဗင်္ယာမိန်	-2279
▁များစွာသော	-2280
သီ	-2281
တဲတော	-2282
ဒဲ	-2283
▁သိတ	-2284
▁ထိုအ	-2285
▁အမှုကို	-2286
▁ထိုသူကို	-2287
ခတ	-2288
ခိ	-2289
စိမ	-2290
လူများတို	-2291
ခံ့	-2292
ရုပ	-2293
ပွန်း	-2294
မုန့်	-2295
▁အလျင်	-2296
▁ပြင်ဆင်	-2297
▁မစင်ကြယ်	-2298
▁ဆောင်ရွက်	-2299
▁သို့ဖြစ်၍၊	-2300
အင	-2301
သငယ	-2302
စိမ်	-2303
▁ချို	-2304
မရှိဘဲ	-2305
▁အချို့	-2306
▁မောရှေသည်	-2307
တို့သည်လည်း	-2308
▁ကြွေးကြော်	-2309
ဗက	-2310
ဖိလိတ	-2311
ငိုကြွေး	-2312
ဖျားလှီး	-2313
ဝံဂေလိတရား	-2314
သရ	-2315
ဧဖ	-2316
ထူး	-2317
▁လျ	-2318
▁ထောက်	-2319
ကြလော့ဟု	-2320
▁အိမ်တော်	-2321
▁အုပ်စိုး	-2322
▁မောရှေအား	-2323
ဣသရေလအမျိုးသား	-2324
သွင	-2325
ချိန	-2326
တွား	-2327
ရမည်ဟု	-2328
▁အရှေ့	-2329
▁ညစ်ညူး	-2330
▁တော်မူ	-2331
အမျိုးကို	-2332
ဒါ	-2333
လတံ	-2334
ထောက	-2335
ရကြ။	-2336
ကုန်အံ့	-2337
ဟူ၍၎င်း၊	-2338
▁တော်ကို	-2339
▁ကိုးကွယ်	-2340
ရာယဇ	-2341
စက်	-2342
▁လဲ	-2343
ကရုဏာ	-2344
ဆိုသည	-2345
ထောက်	-2346
▁ချက်	-2347
▁ညဉ့်	-2348
▁ပြုရ	-2349
▁ဘော်	-2350
▁မပြု	-2351
▁ရှေး	-2352
▁ခြင်း	-2353
▁လက်ျာ	-2354
ချိုင်း	-2355
▁သိုးသငယ်	-2356
▁အသီးအသီး	-2357
ဆိုသည်ကား၊	-2358
ညစ	-2359
နယ	-2360
ကူး	-2361
ထမ	-2362
ဗင	-2363
ခုတ	-2364
မွေလ	-2365
ရိရှဲ	-2366
အမျက်	-2367
▁သွန်	-2368
သားတော	-2369
ယေလ	-2370
မပြော	-2371
ကိမ	-2372
စေ၏။	-2373
ရှောင	-2374
▁ပိတ်	-2375
▁လုယူ	-2376
▁သတ္တ	-2377
▁သနား	-2378
အတွင်း	-2379
▁သွန်း	-2380
▁ကြောင့်	-2381
စေတော်မူ၏။	-2382
တော်တို့ကို	-2383
ကဲ့သို့၎င်း၊	-2384
ကောက	-2385
သောအထ	-2386
ွံ	-2387
ွပ်	-2388
▁မခံ	-2389
အာဗြဟံ	-2390
▁ဆို၏။	-2391
▁စောင့်ရှောက်	-2392
ယုံ	-2393
ထိုနောက	-2394
သောသူဖြစ	-2395
ဓာ	-2396
▁ရဲ	-2397
▁ငါ၌	-2398
က်စား	-2399
ယွင်း	-2400
ရှိ၍၊	-2401
သူမျှ	-2402
▁လေ၏။	-2403
▁သမီး	-2404
ပြောသော	-2405
▁မိဿဟာယ	-2406
ပွဲကို	-2407
နု	-2408
ဟိ	-2409
ခံရကြ	-2410
စွန့်	-2411
ဂြိုဟ်	-2412
▁သွင်း	-2413
▁ကြေးဝါ	-2414
▁အကျင့်	-2415
ဆောင်ခဲ့	-2416
▁သင်တို့တွင်	-2417
မပေး	-2418
ဩဝါဒ	-2419
ရကြမည	-2420
သူငယ	-2421
▁အတူ	-2422
ဗာဗုလုန	-2423
▁အဲဂုတ္တုပြည်မှ	-2424
▁့၍	-2425
လွှား	-2426
ဖြတ	-2427
သစ်	-2428
▁ထ၍	-2429
▁လော	-2430
▁အကျ	-2431
ပျော်	-2432
္မုန်	-2433
▁မုသာ	-2434
▁လူသည်	-2435
▁ဇိအုန်	-2436
▁အော်ဟစ်	-2437
▁?????????	-2438
▁ကျန်ကြွင်း	-2439
ရထား	-2440
တကားဟု	-2441
ပြု၍၊	-2442
▁ဤသို့	-2443
ပါသည်ဟု	-2444
ကြည့်ရှု	-2445
တော်မမူ။	-2446
▁နှစ်သက်	-2447
▁ယုဒပြည်	-2448
▁တောင်းပန်	-2449
းလျက	-2450
▁်၎	-2451
နှောင	-2452
ဘုရား၊	-2453
▁ဝန်ခံ	-2454
ောဗောင်	-2455
မူလျှင	-2456
ဗေလ	-2457
လန့်	-2458
▁မှီ	-2459
ဦးစွာ	-2460
နာမတော	-2461
▁ခေါင်း	-2462
တို့နှင့်တကွ	-2463
ပူ	-2464
ချော	-2465
လှူ	-2466
▁ထူး	-2467
▁ပစ်	-2468
အမှန်	-2469
▁ရှက်	-2470
မှောက်	-2471
▁ပေါင်း	-2472
သည်လည်း၊	-2473
▁ခြင်္သေ့	-2474
▁ယေရှုခရစ်	-2475
လုယူ	-2476
စွာနေ	-2477
မူခြင	-2478
ိမိတ်	-2479
▁ရှိမ	-2480
တံပိုး	-2481
▁နေ့ရက်	-2482
▁သိမ်းယူ	-2483
စည်းဝေးရာ	-2484
▁မှောင်မိုက်	-2485
▁ကိုယ်တော်ကျွန်	-2486
ထံမှ	-2487
ိလဲ	-2488
ိုသေ	-2489
ကျမ်း	-2490
းမရှိ	-2491
သောအသံ	-2492
ထိုမြို	-2493
မြို့မှ	-2494
အချိန်၌	-2495
အဝတ်ကို	-2496
▁စည်းဝေး	-2497
ကြွလာ	-2498
တကောင	-2499
အကျိုးကို	-2500
ဂု	-2501
ရစ်	-2502
▁အဗ	-2503
ညဉ့်	-2504
အဆွေ	-2505
အတွင	-2506
အမြန်	-2507
အလယ်၌	-2508
▁ကား၊	-2509
ယောရှု	-2510
သားသည်	-2511
ုတ်သင်	-2512
▁နေကြ၏။	-2513
သောသူတို့၏	-2514
▁ယော်ဒန်မြစ်	-2515
ခရိ	-2516
လဒဲ	-2517
ကြနှင	-2518
ကြသည်	-2519
သူသည်	-2520
▁တော၌	-2521
▁ဧဒုံ	-2522
▁ကြွင်း	-2523
ယောက်ျား	-2524
သောအပြစ်	-2525
ထာဝရဘုရားအား	-2526
▁ကောင်းကင်ဘုံ	-2527
ဋိညာဉ	-2528
ပြုစု	-2529
ထ၍	-2530
တက်	-2531
ဒဏ်	-2532
းယူ	-2533
ကို၊	-2534
▁အမိ	-2535
ကိုင်	-2536
ထိုအရပ	-2537
▁ဂိလဒ်	-2538
▁တန်ဆာ	-2539
စဉ်တွင်၊	-2540
▁ရွှင်လန်း	-2541
▁ဘုရားသခင့်	-2542
▁ဒုစရိုက်ကို	-2543
အမှီ	-2544
ပို	-2545
ေရုဗ	-2546
▁နတ်	-2547
ချောင်း	-2548
▁သဖြင့်	-2549
ပယ်ရှင်း	-2550
▁ထိုအရပ်	-2551
▁အမင်္ဂလာ	-2552
ဖြူ	-2553
ထပ်	-2554
ရေလ	-2555
ဝေါ	-2556
အစု	-2557
စဉ်၊	-2558
သီချင	-2559
▁ဘမ်း	-2560
ပဋိညာဉ	-2561
▁မြွက်	-2562
▁ဖြစ်၍၊	-2563
▁ယောဟန်	-2564
▁ပညတ်တရား	-2565
ဖြစ်သတည်း။	-2566
▁ဣသရေလရှင်ဘုရင်	-2567
▁ယေရုရှလင်မြို့၌	-2568
ဒေ	-2569
သေရ	-2570
အကဲ	-2571
လှုပ	-2572
းကောင	-2573
ရကြလိမ	-2574
တပါးသော	-2575
အဆက်	-2576
ပျောက	-2577
မျက်စိ	-2578
▁၎င်း၊	-2579
အမှုအရာ	-2580
ကြားပြော	-2581
ဘုရားကို	-2582
▁ထမြောက်	-2583
▁ကြောင့်၊	-2584
▁ထိုအရပ်၌	-2585
ဖြန	-2586
ပေါက	-2587
များစွာသော	-2588
က်၊	-2589
ကျော	-2590
ကြသည	-2591
ခန်း	-2592
ဆောက	-2593
▁ဟေဇ	-2594
ပေတရု	-2595
လျှင်း	-2596
▁အထက်က	-2597
▁မနာရှေ	-2598
ဥစ္စာကို	-2599
ကျေးဇူးကို	-2600
တို့နှင့်အတူ	-2601
▁ယေရှုကလည်း၊	-2602
းတူ	-2603
ကင်း	-2604
▁ဂတိ	-2605
▁စီး	-2606
▁တို့	-2607
ဆင်းရဲ	-2608
▁ရှုရိ	-2609
ရှောလမုန	-2610
ကြကုန်အံ့	-2611
အပေါ်သို့	-2612
▁ယဇ်ပူဇော်	-2613
ာဏ	-2614
ချဉ	-2615
ဂုဏ	-2616
မြွက	-2617
ကိုတို	-2618
ကိုးကွယ	-2619
စည်	-2620
ဗျာဒ	-2621
ေဒနာ	-2622
▁ပေါ်	-2623
▁ပြီး	-2624
▁ရထား	-2625
နှောင်	-2626
မြေကို	-2627
အထံတော	-2628
▁ရိုက်	-2629
ခိုလှုံ	-2630
ကောင်ကို	-2631
▁လေဝိသား	-2632
▁နှင်ထုတ်	-2633
အမျိုးသား၊	-2634
▁ငါ့စကားကို	-2635
ညဉ	-2636
ဖတ်	-2637
▁တာ	-2638
ဖြန်	-2639
▁ပွဲ	-2640
ယောသပ	-2641
ရှလုံ	-2642
လ္လင်	-2643
အစိုး	-2644
▁အမှီ	-2645
ခါးကို	-2646
စီးသူရဲ	-2647
ရှိသောသူ	-2648
အိမ်သို့	-2649
▁သားတော်	-2650
တို့ကိုလည်း	-2651
တရ	-2652
သောင	-2653
ရာကို	-2654
ယေရှုသည	-2655
ခဏ	-2656
ဂိ	-2657
▁ဝါ	-2658
ချင်	-2659
မာရိ	-2660
▁ဆီး	-2661
ဗျာဒိတ	-2662
နှင့်တူ	-2663
နှင့်အညီ၊	-2664
သည်မဟုတ်။	-2665
တော်မူခြင်း	-2666
▁ကြီးစွာသော	-2667
ကော	-2668
ယုဒပြည	-2669
ထာဝရဘုရားမိန	-2670
ချုပ	-2671
▁လည်	-2672
မာရိမ	-2673
မြွက်	-2674
ဥယျာဉ်	-2675
သုံးဆယ်	-2676
▁နှလုံး	-2677
▁ပလ္လင်	-2678
တို့သမီး	-2679
▁ကျမ်းစာ	-2680
သော်၎င်း၊	-2681
ောင့်ရှက်	-2682
တော်မူပါဟု	-2683
▁အလျင်အမြန်	-2684
စေခြင်းငှါ၎င်း၊	-2685
ပကတိ	-2686
မောရိ	-2687
အရိုး	-2688
ချီးမြှ	-2689
နတ	-2690
ဂါလ	-2691
ကြဟု	-2692
ပဌနာ	-2693
ခရိုင်	-2694
▁ရှင်း	-2695
▁နက်ဖြန်	-2696
စိတ်နှလုံး	-2697
▁ထိုမှတပါး၊	-2698
▁ကျေးဇူးတော်ကို	-2699
ုရှ	-2700
ကိုရ	-2701
ညှိုး	-2702
ပါရုံ	-2703
စိုးစံ	-2704
ကြိုးစား	-2705
နေ၏။	-2706
အိပ်	-2707
▁ညဦး	-2708
▁ဗာလ	-2709
▁ခါနာ	-2710
▁ဆန့်	-2711
ထက်သာ၍	-2712
နောက်၊	-2713
▁ဥပုသ်	-2714
▁ရေးထား	-2715
▁အချည်း	-2716
▁ချဉ်းကပ်	-2717
▁အကြောင်း၊	-2718
▁ထာဝရဘုရား၊	-2719
တော်မူလိမ့်မည်။	-2720
ဥာဏ	-2721
ကြို	-2722
နေဇာ	-2723
အမှန	-2724
သားရဲ	-2725
သိတင	-2726
▁ယူ၍	-2727
လက်ကို	-2728
ယုံကြည်	-2729
▁ခြောက်	-2730
▁သိတင်း	-2731
▁ဆိုကြ၏။	-2732
▁သားသမီး	-2733
တယောက်သည်	-2734
▁သင်နှင့်	-2735
▁လူတို့သည်	-2736
ကွာ	-2737
ဗော	-2738
သေတ	-2739
အနား	-2740
ယေရှုခရစ	-2741
နင်း	-2742
▁စက်	-2743
▁ဆင်	-2744
ပေါ်၌	-2745
မသွား	-2746
းသွား	-2747
▁မှား	-2748
▁ငြင်း	-2749
အလျောက်	-2750
▁တံပိုး	-2751
▁ဘော်ပြ	-2752
ဗလ	-2753
ပါသည	-2754
ပွား	-2755
ူပါရုံ	-2756
????????????	-2757
ခွက	-2758
လယ်	-2759
အစာ	-2760
င့်တ	-2761
အကျင	-2762
းစွာ	-2763
▁မိဘ	-2764
ဆိုးမ	-2765
▁ကောက်	-2766
▁ဖါရော	-2767
▁ယေရမိ	-2768
နှင့်ဟု	-2769
▁အမ္မုန်	-2770
▁ဖြစ်ကြ၏။	-2771
▁မြေပေါ်မှာ	-2772
▁သင်္ဂြိုဟ်	-2773
▁လူများတို့သည်	-2774
ဗေ	-2775
အကယ	-2776
ွါး	-2777
မောဘ	-2778
စားသော	-2779
သောစိတ	-2780
သမျှကို	-2781
ဗုခ	-2782
▁ညီ	-2783
ဘာသာ	-2784
ရှစ်	-2785
ရှိ၍	-2786
သိမြ	-2787
▁ဗက်	-2788
ကြိမ်	-2789
▁ပို့	-2790
▁ယောန	-2791
▁အမည်	-2792
▁ကိုင်	-2793
▁မျိုး	-2794
▁စာရင်း	-2795
စေနှင့်။	-2796
▁အားဖြင့်	-2797
▁သိမ်းသွား	-2798
ဖြစ်တော်မူ၏။	-2799
▁အထံတော်သို့	-2800
▁ဣသရေလအမျိုးကို	-2801
▁ထာဝရဘုရားကလည်း၊	-2802
စုတ	-2803
မနာ	-2804
ငွေကို	-2805
လွင	-2806
အလယ	-2807
ခွက်	-2808
ထမ်း	-2809
အနွယ	-2810
းအရာ	-2811
ုတ်ချ	-2812
ပိုင်း	-2813
သောအရပ	-2814
ိတ်ဆိတ်	-2815
▁ခါနာန်	-2816
ပါနှင့်။	-2817
▁ခွန်အား	-2818
▁ငါနှင့်	-2819
▁တစုံတခု	-2820
▁ထိုသခင်	-2821
နောက်သို့	-2822
▁ကြားပြော	-2823
▁ကြိုးစား	-2824
▁ပယ်ရှင်း	-2825
▁မိုဃ်းတိမ်	-2826
▁ထာဝရဘုရားက၊	-2827
ဗာလ	-2828
လှံ	-2829
ယ၊	-2830
ခွန	-2831
▁ဗေ	-2832
ဆုပ်	-2833
ရုံး	-2834
မှုတ်	-2835
လောင်	-2836
မဟုတ်။	-2837
ုန်ကန်	-2838
မ်းမိုး	-2839
▁ဆင်းသက်	-2840
▁အာရှုရိ	-2841
▁ခိုင်ခံ့	-2842
▁ဘွားမြင်	-2843
▁ရှင်ဘုရင်သည်	-2844
▁မြေကြီးပေါ်မှာ	-2845
အကျ	-2846
ထသော	-2847
ထာဝရဘုရားရှေ	-2848
နီ	-2849
တိမ	-2850
လက္ခ	-2851
ထွန်း	-2852
▁??????????	-2853
▁ပရိသတ်စည်းဝေးရာ	-2854
စရာဘို	-2855
မစ	-2856
လျာ	-2857
▁၍၎	-2858
တဆယ်	-2859
ပွင့်	-2860
သတ္တိ	-2861
အိမ်၌	-2862
▁ချိုး	-2863
▁ဘုရား၏	-2864
▁အသေသတ်	-2865
ခင်ပွန်း	-2866
ုန်လှုပ်	-2867
ကြီးစွာသော	-2868
ရသောအခွင့်	-2869
▁မဟုတ်လော။	-2870
ဂေါ	-2871
ဖုရ	-2872
ထိုက	-2873
မွေ့	-2874
▁ပင်	-2875
ပ်ဝပ်	-2876
ိမြင်	-2877
▁ဘောဇ	-2878
▁ဟေဗြ	-2879
လက္ခဏာ	-2880
နားမထောင	-2881
▁စစ်သူရဲ	-2882
▁ထိုမြို့	-2883
▁နန်းတော်	-2884
▁မေးမြန်း	-2885
▁အလုံးစုံ	-2886
နေရ	-2887
ရောဂါ	-2888
ချီးမြှောက	-2889
လေ့	-2890
ရင့်	-2891
▁ငှါ	-2892
ပေးမည	-2893
▁အသရေ	-2894
▁ဖွင့်	-2895
ည်းတွား	-2896
▁ခံရသော	-2897
▁ဘောဇဉ်	-2898
များတို့သည်	-2899
▁ထိုနောက်မှ	-2900
တဝ	-2901
အသံကို	-2902
ရှိရာသို	-2903
မြန	-2904
▁သခ	-2905
လည်၌	-2906
ီမဲ့	-2907
▁့၍၊	-2908
ထိန်း	-2909
▁ဖုံး	-2910
ဆီသို့	-2911
နာမကို	-2912
▁ဘဏ္ဍာ	-2913
▁တိုင်း	-2914
▁ပညာရှိ	-2915
▁ရောက်လာ	-2916
▁ရှိကြ၏။	-2917
▁ဘုရားသည်	-2918
ပူဇော်သက္ကာ	-2919
▁နာမတော်ကို	-2920
ယံ	-2921
ဖွင	-2922
မြံ	-2923
ခံသော	-2924
ဖုရား	-2925
ရေးထား	-2926
များနှင	-2927
အော	-2928
▁	-2929
¦	-2930
်	-2931
ာ	-2932
ု	-2933
ိ	-2934
ေ	-2935
း	-2936
သ	-2937
က	-2938
င	-2939
မ	-2940
တ	-2941
့	-2942
ရ	-2943
ြ	-2944
အ	-2945
ှ	-2946
ည	-2947
န	-2948
လ	-2949
ပ	-2950
စ	-2951
၊	-2952
ျ	-2953
ူ	-2954
ခ	-2955
။	-2956
ါ	-2957
ွ	-2958
၏	-2959
ထ	-2960
ယ	-2961
ဘ	-2962
ံ	-2963
ီ	-2964
ဖ	-2965
၍	-2966
ဆ	-2967
ဝ	-2968
ဟ	-2969
ဲ	-2970
၌	-2971
?	-2972
္	-2973
ဒ	-2974
ဇ	-2975
ဗ	-2976
၎	-2977
ဉ	-2978
ဂ	-2979
ဣ	-2980
ဤ	-2981
ဏ	-2982
ဧ	-2983
ဥ	-2984
ဦ	-2985
ဃ	-2986
ဌ	-2987
ဩ	-2988
ဓ	-2989
ဋ	-2990
ဿ	-2991
-	-2992
ဍ	-2993
ဈ	-2994
ဠ	-2995
ဪ	-2996
