<pad>	0
</s>	0
<unk>	0
▁¦	-0
▁s	-1
st	-2
▁p	-3
▁𐋇	-4
▁j	-5
▁v	-6
ch	-7
▁,	-8
li	-9
▁n	-10
▁a	-11
ho	-12
te	-13
ov	-14
od	-15
▁k	-16
ou	-17
▁t	-18
▁m	-19
▁z	-20
by	-21
em	-22
ní	-23
ra	-24
ro	-25
ak	-26
ed	-27
▁d	-28
al	-29
ti	-30
ne	-31
▁je	-32
in	-33
na	-34
to	-35
še	-36
je	-37
ře	-38
il	-39
▁.	-40
že	-41
le	-42
▁o	-43
ce	-44
ud	-45
▁ne	-46
la	-47
▁po	-48
ři	-49
▁na	-50
rá	-51
ří	-52
▁se	-53
▁b	-54
ni	-55
▁A	-56
sp	-57
sk	-58
ně	-59
ého	-60
▁sv	-61
po	-62
no	-63
bo	-64
spod	-65
ko	-66
spodin	-67
se	-68
ví	-69
▁by	-70
mu	-71
ob	-72
ých	-73
▁u	-74
ji	-75
lo	-76
ter	-77
jí	-78
▁J	-79
en	-80
▁H	-81
dy	-82
do	-83
▁js	-84
lu	-85
▁I	-86
ám	-87
ru	-88
ka	-89
va	-90
el	-91
▁Ho	-92
za	-93
▁B	-94
yn	-95
▁i	-96
ude	-97
▁do	-98
▁P	-99
▁Hospodin	-100
sta	-101
ží	-102
dě	-103
sv	-104
▁za	-105
ým	-106
ci	-107
▁to	-108
lov	-109
ta	-110
▁vy	-111
▁pro	-112
vi	-113
▁od	-114
▁při	-115
▁jest	-116
ze	-117
vá	-118
řek	-119
▁jeho	-120
řed	-121
tě	-122
tí	-123
me	-124
ma	-125
da	-126
▁N	-127
ky	-128
▁S	-129
▁h	-130
ná	-131
vy	-132
ku	-133
▁kter	-134
▁č	-135
ova	-136
▁že	-137
sti	-138
cí	-139
vo	-140
mě	-141
vě	-142
▁pak	-143
▁T	-144
ha	-145
pro	-146
mi	-147
▁vše	-148
ší	-149
▁:	-150
dyž	-151
roz	-152
▁aby	-153
de	-154
js	-155
lé	-156
zra	-157
be	-158
sl	-159
řekl	-160
ve	-161
ové	-162
ako	-163
ži	-164
▁tak	-165
lid	-166
ovi	-167
né	-168
či	-169
ši	-170
▁K	-171
▁te	-172
ýž	-173
jich	-174
▁ob	-175
▁ji	-176
▁syn	-177
▁bude	-178
teří	-179
obě	-180
mo	-181
▁jsem	-182
▁M	-183
při	-184
pra	-185
če	-186
▁krá	-187
zrael	-188
▁Ne	-189
teříž	-190
▁st	-191
áš	-192
ím	-193
ůj	-194
hospodin	-195
▁zem	-196
vše	-197
ům	-198
▁ho	-199
nu	-200
▁Je	-201
éž	-202
ste	-203
▁své	-204
vé	-205
zal	-206
ká	-207
rd	-208
▁ně	-209
lí	-210
jest	-211
at	-212
kter	-213
▁ve	-214
čin	-215
bude	-216
lá	-217
co	-218
▁tě	-219
ny	-220
▁Bo	-221
sa	-222
ved	-223
▁mě	-224
▁před	-225
jeho	-226
ili	-227
▁vě	-228
rod	-229
▁D	-230
emu	-231
aby	-232
ské	-233
ství	-234
▁řekl	-235
▁;	-236
▁lid	-237
sí	-238
ný	-239
ale	-240
▁byl	-241
kr	-242
▁V	-243
šel	-244
▁jako	-245
nou	-246
ět	-247
▁všec	-248
tak	-249
▁E	-250
stu	-251
hl	-252
pak	-253
▁ch	-254
▁pra	-255
▁když	-256
cha	-257
▁jejich	-258
pa	-259
mé	-260
▁Z	-261
▁ná	-262
▁Izrael	-263
děl	-264
di	-265
ty	-266
ůh	-267
nebo	-268
žíš	-269
▁jed	-270
▁O	-271
▁roz	-272
tá	-273
vil	-274
▁ni	-275
▁mu	-276
udou	-277
du	-278
zi	-279
pov	-280
lik	-281
▁nebo	-282
ly	-283
syn	-284
▁kterýž	-285
alo	-286
lou	-287
▁kteříž	-288
žd	-289
tož	-290
ry	-291
krá	-292
▁ko	-293
pu	-294
dí	-295
an	-296
hu	-297
tr	-298
ník	-299
ště	-300
ád	-301
▁pod	-302
ri	-303
zem	-304
▁jsou	-305
ští	-306
▁tv	-307
jsem	-308
▁mne	-309
▁Nebo	-310
mí	-311
▁svého	-312
sto	-313
ním	-314
kou	-315
▁Pro	-316
luže	-317
lužeb	-318
což	-319
▁ka	-320
tv	-321
má	-322
ej	-323
án	-324
▁toho	-325
ských	-326
▁mo	-327
tu	-328
vu	-329
ného	-330
▁ale	-331
zd	-332
▁ani	-333
as	-334
oval	-335
▁ru	-336
sá	-337
ými	-338
bra	-339
▁?	-340
chá	-341
oj	-342
vid	-343
zá	-344
▁ten	-345
▁zá	-346
své	-347
byl	-348
bi	-349
▁Jo	-350
ck	-351
ův	-352
pe	-353
zí	-354
stí	-355
před	-356
ský	-357
▁jsi	-358
on	-359
▁me	-360
▁Bůh	-361
▁proti	-362
am	-363
▁kteréž	-364
▁jim	-365
▁země	-366
bu	-367
cho	-368
ského	-369
tom	-370
šli	-371
▁Po	-372
▁já	-373
když	-374
lově	-375
ilo	-376
hla	-377
ráž	-378
▁vám	-379
▁jemu	-380
stou	-381
dá	-382
▁ř	-383
▁zemi	-384
▁ty	-385
▁ú	-386
▁mlu	-387
▁pře	-388
val	-389
▁Da	-390
pl	-391
jed	-392
▁až	-393
▁také	-394
jako	-395
nám	-396
rou	-397
▁C	-398
ba	-399
pově	-400
▁pr	-401
▁dí	-402
▁ž	-403
▁pří	-404
▁kdo	-405
bě	-406
oud	-407
vedl	-408
zu	-409
▁tobě	-410
▁mí	-411
▁vá	-412
▁budou	-413
edy	-414
yna	-415
▁ti	-416
jící	-417
stě	-418
▁ví	-419
dali	-420
čí	-421
sly	-422
zalé	-423
kterýž	-424
▁praví	-425
sté	-426
ruzalé	-427
▁mi	-428
▁jej	-429
▁nad	-430
ckni	-431
šickni	-432
koli	-433
ovati	-434
▁Tedy	-435
jte	-436
ct	-437
re	-438
▁byli	-439
ných	-440
yp	-441
▁bra	-442
činil	-443
mlu	-444
▁tvé	-445
pá	-446
▁pa	-447
nost	-448
▁va	-449
pod	-450
▁dě	-451
ová	-452
▁Ale	-453
ovo	-454
teráž	-455
▁ot	-456
jejich	-457
▁král	-458
já	-459
izrael	-460
kteříž	-461
gyp	-462
neb	-463
▁mé	-464
▁svou	-465
▁sta	-466
nov	-467
▁slov	-468
▁vi	-469
▁domu	-470
pří	-471
stá	-472
▁ži	-473
▁služeb	-474
lení	-475
ruh	-476
vrá	-477
tří	-478
nosti	-479
su	-480
pí	-481
▁le	-482
▁každ	-483
bou	-484
vad	-485
ovali	-486
▁což	-487
▁dne	-488
▁poko	-489
udu	-490
eme	-491
jsou	-492
uje	-493
▁vš	-494
men	-495
▁svých	-496
všec	-497
▁hla	-498
▁ce	-499
lil	-500
akž	-501
▁má	-502
kdo	-503
▁L	-504
▁be	-505
jisté	-506
▁nem	-507
▁mno	-508
▁vás	-509
nem	-510
▁G	-511
oh	-512
stup	-513
tedy	-514
▁jmé	-515
▁sed	-516
▁obět	-517
▁tvá	-518
ar	-519
kázal	-520
▁David	-521
rdce	-522
▁všech	-523
▁(	-524
tel	-525
▁Boží	-526
proti	-527
▁du	-528
vr	-529
et	-530
ouž	-531
vám	-532
pr	-533
hro	-534
ten	-535
iáš	-536
▁sobě	-537
ot	-538
my	-539
▁jí	-540
mou	-541
stří	-542
▁dob	-543
▁bylo	-544
▁R	-545
▁kně	-546
▁Protož	-547
ali	-548
mne	-549
▁skr	-550
tek	-551
vý	-552
ani	-553
ků	-554
▁tu	-555
▁králov	-556
pře	-557
▁sm	-558
jíce	-559
svého	-560
▁člově	-561
▁Boha	-562
so	-563
žil	-564
svě	-565
▁lidu	-566
sil	-567
nad	-568
▁Sa	-569
▁mezi	-570
toho	-571
ctví	-572
té	-573
něm	-574
▁Jud	-575
▁F	-576
▁jste	-577
▁synů	-578
▁řek	-579
chu	-580
sla	-581
ců	-582
mno	-583
níci	-584
odí	-585
▁Moj	-586
bylo	-587
bí	-588
iti	-589
střed	-590
dal	-591
bý	-592
stoup	-593
▁těch	-594
kla	-595
jde	-596
sm	-597
▁velik	-598
▁můj	-599
▁všecky	-600
▁Jeruzalé	-601
led	-602
řel	-603
▁Já	-604
▁Ž	-605
áb	-606
ským	-607
▁Hospodinu	-608
▁dá	-609
dou	-610
▁té	-611
▁bý	-612
▁národ	-613
dob	-614
jsi	-615
um	-616
til	-617
▁synové	-618
▁tedy	-619
jo	-620
▁den	-621
▁svat	-622
kteréž	-623
vedli	-624
▁vz	-625
budou	-626
▁spra	-627
liže	-628
byli	-629
▁ra	-630
▁vo	-631
▁bez	-632
gypt	-633
▁nich	-634
dce	-635
▁ním	-636
bil	-637
lech	-638
▁Na	-639
▁mně	-640
▁Mojžíš	-641
jim	-642
▁on	-643
▁syna	-644
cháze	-645
▁jeden	-646
bůh	-647
▁oči	-648
jemu	-649
nž	-650
země	-651
pověděl	-652
sed	-653
řích	-654
▁její	-655
▁všickni	-656
▁kteráž	-657
▁dal	-658
níž	-659
▁či	-660
nil	-661
enství	-662
▁muž	-663
zo	-664
hled	-665
fa	-666
dne	-667
▁žád	-668
odil	-669
sy	-670
▁čin	-671
▁jsme	-672
ově	-673
také	-674
nal	-675
hromá	-676
až	-677
aj	-678
▁řka	-679
ěl	-680
nů	-681
praví	-682
▁Tak	-683
zemi	-684
řá	-685
vš	-686
ele	-687
▁mluvil	-688
stin	-689
slov	-690
▁skrze	-691
▁byla	-692
▁všecko	-693
▁něm	-694
nej	-695
▁Hospodina	-696
den	-697
▁jedno	-698
eli	-699
sou	-700
▁vod	-701
protož	-702
vili	-703
slal	-704
▁aniž	-705
▁svým	-706
br	-707
si	-708
stal	-709
▁U	-710
ned	-711
tra	-712
▁zajisté	-713
▁Ježíš	-714
▁krále	-715
▁něho	-716
▁nám	-717
ltá	-718
▁kra	-719
tvé	-720
pal	-721
tobě	-722
tý	-723
ská	-724
pě	-725
vali	-726
▁bo	-727
poko	-728
▁nebe	-729
▁oh	-730
zů	-731
znám	-732
ata	-733
▁š	-734
▁tvůj	-735
▁Aj	-736
vati	-737
ových	-738
▁srdce	-739
ovy	-740
jší	-741
▁sí	-742
▁proro	-743
▁učinil	-744
pět	-745
jej	-746
▁lo	-747
▁než	-748
ré	-749
ine	-750
▁To	-751
áše	-752
jin	-753
há	-754
▁čas	-755
▁vů	-756
liž	-757
ul	-758
daliž	-759
pou	-760
▁Ma	-761
edl	-762
tku	-763
král	-764
▁není	-765
spodine	-766
▁věci	-767
yní	-768
dli	-769
▁sedm	-770
▁jin	-771
srd	-772
žel	-773
▁jich	-774
im	-775
▁co	-776
▁Syn	-777
eled	-778
▁tebe	-779
vost	-780
boží	-781
ovu	-782
▁nás	-783
zy	-784
▁-	-785
cích	-786
▁budu	-787
▁svému	-788
služeb	-789
▁Od	-790
hou	-791
bož	-792
slou	-793
▁stra	-794
kol	-795
▁kdož	-796
každ	-797
stav	-798
pla	-799
jak	-800
ďte	-801
zna	-802
▁tam	-803
▁l	-804
▁sly	-805
▁milo	-806
ným	-807
ron	-808
▁tisí	-809
▁jakž	-810
▁nebude	-811
▁sto	-812
▁města	-813
dění	-814
kud	-815
▁ke	-816
▁svě	-817
slu	-818
boha	-819
lon	-820
▁aj	-821
svou	-822
řeč	-823
▁druh	-824
▁dva	-825
▁kterouž	-826
kem	-827
vod	-828
skému	-829
pů	-830
sob	-831
domu	-832
▁obě	-833
▁živo	-834
▁ta	-835
mně	-836
šk	-837
▁jméno	-838
desá	-839
ém	-840
▁ní	-841
sli	-842
ému	-843
▁ať	-844
▁nej	-845
▁stá	-846
▁králi	-847
chi	-848
děli	-849
▁usta	-850
▁více	-851
žto	-852
prav	-853
▁ro	-854
▁dce	-855
tvá	-856
čně	-857
činí	-858
sty	-859
bá	-860
▁tři	-861
jmé	-862
ila	-863
er	-864
svých	-865
▁každý	-866
táh	-867
tře	-868
▁bratří	-869
žeh	-870
▁prostřed	-871
ování	-872
žení	-873
▁tom	-874
kně	-875
spra	-876
tyři	-877
▁Když	-878
▁budeš	-879
zdvi	-880
▁již	-881
▁však	-882
šed	-883
▁no	-884
vadž	-885
tec	-886
dl	-887
vou	-888
elmi	-889
přá	-890
▁zla	-891
vás	-892
▁Egypt	-893
jem	-894
všech	-895
▁um	-896
ních	-897
▁mod	-898
tím	-899
šeho	-900
▁tomu	-901
viti	-902
▁de	-903
▁ma	-904
pat	-905
sva	-906
▁Kter	-907
řil	-908
alez	-909
pust	-910
éhož	-911
vosti	-912
▁Bohu	-913
žád	-914
▁Pá	-915
▁pokolení	-916
david	-917
▁r	-918
synové	-919
níka	-920
ložil	-921
chť	-922
vra	-923
čež	-924
hy	-925
tů	-926
vz	-927
vají	-928
▁Kri	-929
▁dědi	-930
▁slou	-931
sobě	-932
▁Vy	-933
▁ku	-934
muž	-935
šich	-936
▁pá	-937
něvadž	-938
obět	-939
synů	-940
tky	-941
stra	-942
nit	-943
▁ze	-944
níže	-945
kob	-946
ního	-947
▁Kdo	-948
žství	-949
▁pl	-950
▁nyní	-951
▁sil	-952
člově	-953
▁řkou	-954
što	-955
▁Š	-956
▁jenž	-957
▁nepo	-958
▁my	-959
▁učin	-960
▁poč	-961
▁Ka	-962
lal	-963
▁Pa	-964
▁budete	-965
ším	-966
níky	-967
králov	-968
▁Co	-969
národ	-970
▁abych	-971
mezi	-972
stech	-973
▁němu	-974
šť	-975
alomou	-976
▁vý	-977
mluvil	-978
▁hřích	-979
kra	-980
▁pe	-981
▁neu	-982
▁zástup	-983
lidu	-984
▁Be	-985
byla	-986
▁dům	-987
ilistin	-988
chom	-989
▁služebník	-990
bez	-991
▁ud	-992
▁shromá	-993
▁aneb	-994
▁stalo	-995
liko	-996
velik	-997
▁rou	-998
▁přišel	-999
obo	-1000
síce	-1001
▁mil	-1002
▁slu	-1003
▁hled	-1004
▁proto	-1005
tma	-1006
▁podlé	-1007
kl	-1008
šla	-1009
▁an	-1010
▁mého	-1011
jud	-1012
jste	-1013
▁Za	-1014
▁tebou	-1015
ala	-1016
čedl	-1017
▁býti	-1018
lého	-1019
všecky	-1020
▁otce	-1021
▁protož	-1022
ken	-1023
stý	-1024
skr	-1025
▁svá	-1026
▁muži	-1027
▁kníž	-1028
▁ruku	-1029
▁Potom	-1030
ven	-1031
kudž	-1032
▁Si	-1033
syna	-1034
▁oltá	-1035
moj	-1036
těch	-1037
▁Ř	-1038
▁Ži	-1039
▁svůj	-1040
byva	-1041
▁mnou	-1042
▁Hospodinova	-1043
chází	-1044
nější	-1045
▁měl	-1046
▁nimi	-1047
brž	-1048
ja	-1049
můj	-1050
káza	-1051
▁pou	-1052
▁všecken	-1053
srdenství	-1054
▁ned	-1055
▁ještě	-1056
▁řekli	-1057
tiž	-1058
▁tr	-1059
žíše	-1060
▁slovo	-1061
jeruzalé	-1062
▁království	-1063
▁sou	-1064
děla	-1065
▁nepra	-1066
všickni	-1067
kri	-1068
▁voj	-1069
oči	-1070
budeš	-1071
tého	-1072
stalo	-1073
nich	-1074
▁ode	-1075
▁syny	-1076
▁Hospodine	-1077
moc	-1078
▁svém	-1079
hně	-1080
nác	-1081
hospodinu	-1082
vů	-1083
▁místo	-1084
nice	-1085
žili	-1086
▁jak	-1087
dceti	-1088
dr	-1089
kon	-1090
▁neb	-1091
jeden	-1092
kteráž	-1093
▁slova	-1094
▁čeled	-1095
set	-1096
▁obrá	-1097
▁ruce	-1098
ují	-1099
▁soud	-1100
▁Le	-1101
▁oni	-1102
▁všelik	-1103
ede	-1104
▁Izra	-1105
▁zase	-1106
řka	-1107
aniž	-1108
▁Při	-1109
▁pravím	-1110
ůl	-1111
škvr	-1112
▁navrá	-1113
dež	-1114
kové	-1115
mení	-1116
dil	-1117
její	-1118
uch	-1119
ách	-1120
ůže	-1121
více	-1122
▁Izraelský	-1123
jsme	-1124
▁zů	-1125
pení	-1126
vého	-1127
▁ó	-1128
mojžíš	-1129
▁poslal	-1130
zení	-1131
braha	-1132
kdož	-1133
skrze	-1134
stane	-1135
hli	-1136
▁pov	-1137
všecko	-1138
▁abyste	-1139
působ	-1140
však	-1141
▁bu	-1142
vání	-1143
▁spo	-1144
▁vaše	-1145
▁podob	-1146
▁tvého	-1147
iž	-1148
pil	-1149
spo	-1150
vyš	-1151
voji	-1152
▁kněží	-1153
kona	-1154
sím	-1155
▁abys	-1156
zdra	-1157
sku	-1158
ke	-1159
zen	-1160
▁člověka	-1161
tam	-1162
▁mr	-1163
▁smr	-1164
▁moud	-1165
chod	-1166
▁ostří	-1167
▁tvých	-1168
chli	-1169
ovým	-1170
▁ře	-1171
▁Se	-1172
potom	-1173
tvých	-1174
▁věky	-1175
tili	-1176
jedno	-1177
proro	-1178
mil	-1179
zná	-1180
▁Eli	-1181
▁nic	-1182
▁slá	-1183
▁všecka	-1184
cem	-1185
▁brá	-1186
▁posta	-1187
▁spravedli	-1188
tele	-1189
jíti	-1190
fra	-1191
není	-1192
šení	-1193
kry	-1194
ati	-1195
▁jakož	-1196
▁oběti	-1197
▁Kterýž	-1198
plodil	-1199
lit	-1200
▁ci	-1201
▁svými	-1202
ara	-1203
šti	-1204
hem	-1205
měl	-1206
rak	-1207
tež	-1208
šil	-1209
hospodina	-1210
vím	-1211
▁rá	-1212
▁synům	-1213
▁sám	-1214
jdou	-1215
mého	-1216
prá	-1217
▁stří	-1218
▁toto	-1219
léta	-1220
▁uz	-1221
▁čtyři	-1222
zajisté	-1223
zali	-1224
alomoun	-1225
▁činí	-1226
rem	-1227
sem	-1228
▁pí	-1229
▁še	-1230
učinil	-1231
svým	-1232
▁sku	-1233
▁Izraelských	-1234
ina	-1235
zue	-1236
stoupil	-1237
▁Jest	-1238
▁muže	-1239
▁Zdaliž	-1240
▁spravedl	-1241
svob	-1242
krále	-1243
čem	-1244
▁ved	-1245
▁bezbož	-1246
dej	-1247
zef	-1248
jakž	-1249
ska	-1250
nce	-1251
ježíš	-1252
▁člověk	-1253
tem	-1254
dectví	-1255
než	-1256
sal	-1257
něho	-1258
▁Ty	-1259
budu	-1260
tři	-1261
srdce	-1262
▁velmi	-1263
rší	-1264
čení	-1265
níků	-1266
ýchod	-1267
▁rukou	-1268
eň	-1269
čné	-1270
▁ří	-1271
šlech	-1272
▁sebe	-1273
hře	-1274
živo	-1275
▁jednoho	-1276
lovi	-1277
nove	-1278
zla	-1279
čas	-1280
rost	-1281
tvůj	-1282
▁Ře	-1283
chem	-1284
▁man	-1285
loval	-1286
cen	-1287
▁Jákob	-1288
ech	-1289
▁přikázal	-1290
táhl	-1291
anov	-1292
▁let	-1293
▁duše	-1294
kři	-1295
▁smlou	-1296
uj	-1297
tev	-1298
ždění	-1299
▁vůkol	-1300
dům	-1301
nebe	-1302
milo	-1303
abylon	-1304
poví	-1305
▁ry	-1306
budete	-1307
▁Izraelští	-1308
skými	-1309
braham	-1310
▁mých	-1311
pustil	-1312
▁dědictví	-1313
pi	-1314
cové	-1315
▁šel	-1316
▁mou	-1317
liti	-1318
nech	-1319
),	-1320
věci	-1321
terak	-1322
šlechet	-1323
▁kr	-1324
telé	-1325
▁uči	-1326
▁nepřá	-1327
▁očima	-1328
▁tohoto	-1329
slyšel	-1330
prostřed	-1331
ab	-1332
us	-1333
kázaní	-1334
▁Takto	-1335
tud	-1336
klá	-1337
stře	-1338
▁dvě	-1339
▁ruky	-1340
▁též	-1341
stupu	-1342
▁domě	-1343
▁Panov	-1344
ejte	-1345
tebe	-1346
hé	-1347
ať	-1348
lů	-1349
řem	-1350
jméno	-1351
ádo	-1352
▁Filistin	-1353
zel	-1354
rý	-1355
nás	-1356
▁He	-1357
▁hně	-1358
▁spa	-1359
proto	-1360
▁žádného	-1361
slyše	-1362
nili	-1363
sled	-1364
▁srd	-1365
rozen	-1366
svému	-1367
usta	-1368
hyn	-1369
▁Leví	-1370
▁jísti	-1371
▁zástupů	-1372
plé	-1373
utí	-1374
druh	-1375
sko	-1376
▁neči	-1377
▁přišli	-1378
han	-1379
kterouž	-1380
návi	-1381
▁nim	-1382
▁vody	-1383
▁zápal	-1384
▁Mojžíšovi	-1385
dva	-1386
sse	-1387
města	-1388
přišel	-1389
již	-1390
tvr	-1391
nyní	-1392
hr	-1393
▁vámi	-1394
jal	-1395
lek	-1396
vní	-1397
nání	-1398
žen	-1399
▁	-1400
¦	-1401
o	-1402
e	-1403
a	-1404
i	-1405
n	-1406
t	-1407
s	-1408
l	-1409
v	-1410
d	-1411
m	-1412
k	-1413
u	-1414
,	-1415
p	-1416
h	-1417
r	-1418
j	-1419
í	-1420
b	-1421
c	-1422
y	-1423
á	-1424
z	-1425
ž	-1426
ě	-1427
ř	-1428
é	-1429
š	-1430
.	-1431
𐋇	-1432
ý	-1433
č	-1434
ů	-1435
:	-1436
A	-1437
ť	-1438
J	-1439
H	-1440
;	-1441
I	-1442
B	-1443
P	-1444
N	-1445
S	-1446
?	-1447
T	-1448
K	-1449
f	-1450
M	-1451
D	-1452
g	-1453
V	-1454
E	-1455
Z	-1456
O	-1457
ň	-1458
ú	-1459
ď	-1460
-	-1461
C	-1462
L	-1463
G	-1464
(	-1465
)	-1466
R	-1467
F	-1468
Ž	-1469
ó	-1470
U	-1471
Š	-1472
Ř	-1473
!	-1474
Č	-1475
Ó	-1476
[	-1477
]	-1478
1	-1479
x	-1480
3	-1481
2	-1482
4	-1483
5	-1484
8	-1485
0	-1486
9	-1487
6	-1488
Ú	-1489
7	-1490
Ď	-1491
#	-1492
𐊣	-1493
𐊼	-1494
Í	-1495
Ý	-1496
