<pad>	0
</s>	0
<unk>	0
¦	-1.2688
▁¦	-1.73658
▁	-2.92355
𐋇	-3.35409
s	-3.69096
the	-4.0264
a	-4.30493
▁.	-4.39248
▁,	-4.5364
in	-4.62226
ed	-4.82971
of	-4.86922
to	-4.87713
t	-4.94059
ing	-5.11403
d	-5.14796
is	-5.16273
and	-5.24332
c	-5.26858
at	-5.32269
e	-5.36748
th	-5.41368
p	-5.45593
y	-5.46206
be	-5.48014
m	-5.53273
i	-5.54161
f	-5.6403
g	-5.68271
on	-5.68371
n	-5.70029
r	-5.76307
for	-5.8105
b	-5.81586
𐊣	-5.84056
𐊼	-5.84056
it	-5.85736
k	-5.86854
al	-5.91273
u	-5.92191
w	-5.93034
en	-5.96757
re	-5.97093
or	-6.01375
v	-6.09923
-	-6.1267
ar	-6.14047
er	-6.14193
ly	-6.14878
are	-6.16761
an	-6.16871
o	-6.1843
corona	-6.27164
as	-6.29746
has	-6.30642
st	-6.31363
h	-6.31807
▁'	-6.37067
le	-6.38176
se	-6.39719
have	-6.42833
with	-6.46001
pe	-6.59194
vaccine	-6.59798
will	-6.62114
es	-6.62482
ra	-6.64578
from	-6.64643
not	-6.6571
was	-6.67097
patient	-6.70305
de	-6.7031
ce	-6.70811
he	-6.73552
ri	-6.74564
ic	-6.76091
co	-6.7758
by	-6.78553
ch	-6.79926
un	-6.80327
1	-6.82809
state	-6.82851
l	-6.829
2	-6.84324
il	-6.85574
ir	-6.85628
day	-6.90226
▁"	-6.92983
ur	-6.96984
te	-6.97097
ation	-6.97779
government	-6.99447
us	-6.9977
ople	-7.01417
said	-7.01648
covid	-7.02343
health	-7.0357
we	-7.03759
li	-7.04678
ion	-7.0484
am	-7.05058
3	-7.05768
ex	-7.06814
there	-7.07638
0	-7.09775
j	-7.09888
po	-7.10014
one	-7.12738
sh	-7.14537
if	-7.1503
ent	-7.1659
can	-7.16616
ies	-7.16878
so	-7.18921
ro	-7.19714
all	-7.21284
5	-7.21435
lo	-7.21803
other	-7.22552
vi	-7.2336
.	-7.23446
tion	-7.24113
but	-7.24929
test	-7.25495
number	-7.26091
la	-7.26393
ac	-7.27085
virus	-7.27645
no	-7.28458
were	-7.288
▁?	-7.29203
di	-7.29896
4	-7.30605
lso	-7.31423
ive	-7.31513
hospital	-7.33345
con	-7.34296
out	-7.34329
ct	-7.35739
ity	-7.36088
me	-7.36114
ment	-7.36175
8	-7.36219
how	-7.3627
6	-7.37637
after	-7.39075
ve	-7.39132
per	-7.39463
-19¦	-7.39698
minister	-7.4085
who	-7.40855
ers	-7.40983
dr	-7.41027
7	-7.4159
ul	-7.43184
age	-7.43505
had	-7.45908
el	-7.47549
do	-7.47639
tra	-7.49099
should	-7.49562
go	-7.50054
india	-7.5037
na	-7.5146
mo	-7.52014
ever	-7.55451
com	-7.55524
9	-7.56411
you	-7.56912
ho	-7.57422
pro	-7.5758
ne	-7.58381
id	-7.58476
maha	-7.59909
some	-7.60174
end	-7.60216
oxygen	-7.60964
time	-7.61352
▁)	-7.61652
pre	-7.61697
ma	-7.62126
use	-7.62198
hand	-7.63783
our	-7.64699
rashtr	-7.67909
new	-7.67923
▁:	-7.68766
up	-7.68794
more	-7.68908
et	-7.69021
ry	-7.69092
im	-7.69121
ill	-7.69408
infection	-7.6963
disease	-7.71264
ol	-7.715
um	-7.7217
than	-7.72265
ant	-7.72787
many	-7.73068
take	-7.73603
work	-7.74892
case	-7.75176
lockdown	-7.75343
vaccination	-7.75992
ight	-7.76243
har	-7.76938
hi	-7.78343
say	-7.78817
ay	-7.8052
may	-7.80592
ab	-7.80915
over	-7.80961
abou	-7.81047
bo	-7.82288
year	-7.83241
x	-7.84845
under	-7.86668
qu	-7.87524
,	-7.87608
z	-7.89833
district	-7.90243
ance	-7.90633
even	-7.91066
what	-7.91079
get	-7.92586
par	-7.93517
high	-7.96091
his	-7.96156
according	-7.9775
country	-7.98321
give	-7.98982
rate	-7.99511
clos	-8.00247
center	-8.00667
infect	-8.00684
lu	-8.01011
ten	-8.0107
symptom	-8.01542
being	-8.01862
em	-8.02415
hich	-8.02646
dis	-8.02706
need	-8.03792
come	-8.03984
last	-8.04174
hile	-8.04239
first	-8.05285
spread	-8.05891
includ	-8.06494
care	-8.0733
cent	-8.07557
dur	-8.08359
increase	-8.08753
two	-8.09175
second	-8.0938
found	-8.10013
old	-8.10049
est	-8.1096
app	-8.11588
mp	-8.11736
world	-8.11917
such	-8.12372
cause	-8.12581
when	-8.1343
develop	-8.15186
school	-8.1563
due	-8.15669
like	-8.15717
ous	-8.15779
iz	-8.16363
march	-8.16752
sars	-8.17003
able	-8.18611
ang	-8.19664
inter	-8.19821
han	-8.19861
ke	-8.20337
home	-8.21245
mumbai	-8.21352
start	-8.21364
man	-8.21893
any	-8.22383
children	-8.22537
chief	-8.23015
death	-8.23769
medical	-8.24222
person	-8.25218
coronavirus	-8.25697
doctor	-8.25931
treatment	-8.26448
vaccinat	-8.27333
now	-8.27575
ose	-8.28405
situation	-8.28428
▁¦10	-8.2877
▁¦2020¦	-8.29957
april	-8.30214
tic	-8.3079
tru	-8.31501
br	-8.31902
dose	-8.32172
wave	-8.32304
wh	-8.33303
ge	-8.33333
low	-8.33879
public	-8.34419
system	-8.34958
every	-8.35111
own	-8.35206
way	-8.35206
ja	-8.35656
hav	-8.36291
each	-8.36623
▁¦20	-8.36674
ph	-8.36691
countries	-8.37694
your	-8.40122
available	-8.40818
port	-8.41835
ll	-8.42608
most	-8.43029
drug	-8.43111
risk	-8.4317
part	-8.4482
ally	-8.4495
mask	-8.45552
control	-8.46686
announc	-8.4699
ary	-8.47229
know	-8.47498
chin	-8.47545
00¦	-8.48549
ness	-8.48836
place	-8.48995
week	-8.49149
-2	-8.49347
bas	-8.50079
twee	-8.51322
acker	-8.51358
pune	-8.51359
;	-8.51663
office	-8.51684
current	-8.52303
ical	-8.52538
through	-8.52626
sure	-8.53438
restriction	-8.53596
where	-8.54167
▁."	-8.55444
made	-8.55596
agains	-8.55641
formation	-8.55905
kar	-8.56269
effective	-8.57279
ask	-8.57969
unit	-8.58092
few	-8.58279
human	-8.58283
plan	-8.58302
,000	-8.58597
reported	-8.59372
did	-8.59619
large	-8.59629
provide	-8.59629
ough	-8.59871
issue	-8.60105
relat	-8.60156
worker	-8.60355
pur	-8.6058
round	-8.60673
central	-8.61021
produc	-8.6117
well	-8.61833
outbreak	-8.6243
prevent	-8.62431
report	-8.63011
beds	-8.6412
contact	-8.64222
direct	-8.66048
anti	-8.66547
order	-8.66862
prim	-8.67461
udd	-8.67607
follow	-8.67906
national	-8.67926
ould	-8.68064
hu	-8.68156
lakh	-8.6942
vari	-8.69546
travel	-8.70186
trans	-8.70213
/	-8.70567
student	-8.71341
level	-8.71343
important	-8.72513
area	-8.72775
log	-8.73165
month	-8.7414
municipal	-8.74899
call	-8.74985
long	-8.75289
present	-8.75713
administration	-8.76113
reduc	-8.76122
less	-8.76464
line	-8.76476
service	-8.76522
condition	-8.76932
side	-8.77141
allow	-8.77359
tter	-8.7736
ether	-8.7745
jan	-8.77506
research	-8.77756
result	-8.77756
affect	-8.78171
put	-8.78313
modi	-8.789
▁).	-8.79242
help	-8.80283
body	-8.80475
same	-8.80489
citizens	-8.80698
positive	-8.80698
education	-8.80698
demand	-8.80723
hour	-8.80742
ural	-8.81169
very	-8.82185
data	-8.82254
respirator	-8.8329
face	-8.83475
decision	-8.84169
supply	-8.84169
mean	-8.84216
rule	-8.84484
increasing	-8.84611
ture	-8.85894
million	-8.85952
before	-8.85992
does	-8.86088
jo	-8.862
question	-8.86854
meeting	-8.86855
though	-8.879
crore	-8.88231
late	-8.89526
three	-8.89651
department	-8.90079
action	-8.90587
make	-8.90786
washing	-8.91031
social	-8.91971
▁),	-8.92112
requir	-8.9245
could	-8.9408
delhi	-8.94878
thousand	-8.94882
▁¦19	-8.95948
▁¦15	-8.95983
read	-8.96266
speak	-8.96363
consider	-8.96862
severe	-8.96913
▁¦12	-8.97035
media	-8.97707
lance	-8.97824
ministr	-8.97869
possibl	-8.9787
uary	-8.98343
emergenc	-8.98377
period	-8.98377
private	-8.98377
since	-8.98621
trial	-8.98765
institute	-8.98887
open	-8.989
change	-8.98981
organization	-8.994
special	-8.99834
expert	-8.99918
▁¦50	-9.00024
local	-9.00455
addition	-9.00954
campaign	-9.00954
cell	-9.01036
sub	-9.01636
different	-9.02004
sample	-9.036
recommend	-9.04678
group	-9.04679
study	-9.05222
quarantine	-9.06318
shortage	-9.06318
approv	-9.07426
wide	-9.07462
effect	-9.07917
live	-9.08067
mmunity	-9.08548
phase	-9.08782
percent	-9.09857
came	-9.10593
rapid	-9.10828
clinical	-9.11403
continue	-9.11403
company	-9.11404
view	-9.11412
back	-9.1199
again	-9.12443
general	-9.1257
grow	-9.13188
complete	-9.1375
protect	-9.14345
impos	-9.14994
february	-9.15546
universit	-9.15546
reason	-9.1617
lack	-9.16774
▁¦24	-9.16893
wom	-9.16947
blood	-9.17375
discuss	-9.17992
measures	-9.17992
antibod	-9.1895
fee	-9.19329
▁¦11	-9.19459
among	-9.20511
early	-9.20512
▁¦14	-9.20639
pandemic	-9.21137
village	-9.21779
collect	-9.22424
official	-9.22424
regard	-9.22424
leader	-9.22426
total	-9.22643
market	-9.23073
ventilator	-9.23073
avoid	-9.23727
learn	-9.2374
surveil	-9.24384
limit	-9.24396
viral	-9.24399
acros	-9.24399
third	-9.24413
shop	-9.24447
commission	-9.25713
contain	-9.25714
response	-9.26385
term	-9.26452
facilit	-9.2706
transmission	-9.2706
decid	-9.27066
fire	-9.27267
heart	-9.2776
econom	-9.29809
essential	-9.30509
keep	-9.30517
treat	-9.30546
population	-9.31213
strict	-9.31854
problem	-9.31922
process	-9.31923
recover	-9.31964
creat	-9.31973
implement	-9.32636
kovid	-9.32637
conduct	-9.33356
receiv	-9.33454
corporation	-9.34081
soap	-9.34134
further	-9.35546
type	-9.35849
crowd	-9.36287
nagpur	-9.37033
confirm	-9.37785
water	-9.37834
difficult	-9.38542
medicine	-9.38542
advi	-9.38635
"	-9.38763
serious	-9.39306
sign	-9.39307
support	-9.39309
crisi	-9.39382
similar	-9.40075
associat	-9.40075
full	-9.40663
global	-9.4085
passenger	-9.41631
register	-9.41631
chinese	-9.41635
release	-9.41642
president	-9.42419
politic	-9.4242
free	-9.42918
count	-9.43177
manufactur	-9.43212
immediate	-9.43212
remain	-9.4323
half	-9.43234
class	-9.44017
experienc	-9.44819
lung	-9.44829
concern	-9.47278
marath	-9.4729
staff	-9.48112
animal	-9.48115
practice	-9.48952
operat	-9.48983
admitted	-9.49799
declin	-9.49871
common	-9.50664
touch	-9.50686
breath	-9.50755
industr	-9.50889
college	-9.51516
board	-9.51523
)	-9.52221
critical	-9.52385
scienti	-9.52385
epidemic	-9.53263
claim	-9.53266
!	-9.54148
laborator	-9.54148
major	-9.54149
young	-9.54156
just	-9.54185
injection	-9.5504
safety	-9.5504
monitor	-9.55941
room	-9.5595
companie	-9.56851
protein	-9.56857
remedesivir	-9.57768
factor	-9.58695
inciden	-9.58696
covac	-9.58697
organi	-9.58704
active	-9.58985
biotech	-9.59
producti	-9.59225
examination	-9.59628
estimate	-9.59629
immune	-9.60572
shield	-9.60572
happen	-9.60574
expected	-9.61524
necessar	-9.62486
suggest	-9.62486
capacit	-9.63457
election	-9.63457
diagnos	-9.64437
evidence	-9.64437
return	-9.64437
supplie	-9.64437
▁¦2019	-9.64437
mutation	-9.65427
guideline	-9.66427
project	-9.66427
speci	-9.66691
amravati	-9.68458
appear	-9.68463
pawa	-9.68632
sequenc	-9.69489
distribut	-9.7053
december	-9.7053
studie	-9.70534
europe	-9.71583
statistic	-9.71583
check	-9.71583
genome	-9.71583
deliver	-9.71625
individual	-9.72647
member	-9.72647
express	-9.72647
responsib	-9.73722
multi	-9.73725
decreas	-9.74809
program	-9.75908
”	-9.80428
“	-9.83958
–	-9.96714
q	-10.3802
[	-10.7528
]	-10.7528
&	-10.7832
$	-10.88
#	-10.9145
:	-11.0954
—	-11.1508
'	-11.3467
‘	-11.4021
•	-11.5901
≥	-11.5901
?	-11.683
+	-12.2488
°	-12.2488
*	-12.5583
ा	-12.5583
×	-13.0083
_	-13.0083
肺	-13.0083
武	-13.0083
्	-13.3416
~	-13.3416
á	-13.3416
í	-13.3416
α	-13.3416
β	-13.3416
े	-13.3416
स	-13.3417
=	-13.8416
ò	-13.8416
ü	-13.8416
č	-13.8416
ş	-13.8416
γ	-13.8416
क	-13.8416
र	-13.8416
汉	-13.8416
漢	-13.8416
炎	-13.8416
ब	-13.8417
ं	-13.8417
’	-14.8415
%	-14.8416
ल	-14.8416
£	-14.8416
å	-14.8416
é	-14.8416
ó	-14.8416
ई	-14.8416
ओ	-14.8416
त	-14.8416
द	-14.8416
ळ	-14.8416
श	-14.8416
′	-14.8416
火	-14.8416
眼	-14.8416
प	-14.8417
व	-14.8417
ो	-14.8417
(	-14.8417
च	-14.8417
