<pad>	0
</s>	0
<unk>	0
¦	-1.27128
▁¦	-1.64066
▁	-3.16183
𐋇	-3.57752
s	-3.65634
▁,	-3.71329
ų	-3.99344
▁.	-4.16672
i	-4.30453
o	-4.41989
ir	-4.64571
ą	-4.6785
e	-5.20467
as	-5.20608
kad	-5.32635
į	-5.33043
os	-5.51667
p	-5.67864
tai	-5.68451
us	-5.69937
u	-5.70703
dėl	-5.74675
a	-5.83438
ne	-5.89386
𐊼	-5.89422
𐊣	-5.89422
europo	-5.89674
je	-5.9539
su	-6.07046
es	-6.11536
kai	-6.18597
yra	-6.20642
to	-6.21851
me	-6.23187
ai	-6.28922
ę	-6.28989
iš	-6.31773
▁-	-6.32152
m	-6.47815
čiau	-6.52591
kuri	-6.53712
y	-6.65233
vis	-6.68007
▁(	-6.70141
pat	-6.72487
būt	-6.72842
ti	-6.75099
turi	-6.77126
ta	-6.79065
ši	-6.83072
▁)	-6.86058
ams	-6.89988
tik	-6.9089
už	-6.96993
parlament	-6.98074
labai	-7.01653
būti	-7.03033
jų	-7.04943
ar	-7.07036
▁"	-7.08853
buvo	-7.09656
savo	-7.09657
ji	-7.10624
pirmininke	-7.12887
ui	-7.12934
oje	-7.15133
mūs	-7.16552
api	-7.16691
mes	-7.17353
omis	-7.22937
is	-7.2385
per	-7.25452
norė	-7.25587
nes	-7.26696
ės	-7.2855
pranešim	-7.289
ems	-7.29896
be	-7.30753
bet	-7.3081
komisijo	-7.31094
dar	-7.34628
bus	-7.34826
t	-7.3524
au	-7.35694
pa	-7.35841
gali	-7.37688
k	-7.38945
turėt	-7.43872
d	-7.48831
reikia	-7.49878
šiuo	-7.50164
ais	-7.51298
nari	-7.51797
aus	-7.53859
nuo	-7.54505
šali	-7.55693
komisija	-7.56148
jau	-7.57402
valstybės	-7.57598
sąjungo	-7.60945
jos	-7.61026
nt	-7.62553
jo	-7.63172
te	-7.63385
kurios	-7.63723
darbo	-7.65868
kurie	-7.66293
svarbu	-7.6644
mano	-7.67372
aš	-7.67602
z	-7.694
▁:	-7.71914
ių	-7.72779
mana	-7.73191
metu	-7.73453
kur	-7.73924
j	-7.76376
uose	-7.76615
mum	-7.76855
pone	-7.79754
prieš	-7.81423
oms	-7.83146
pač	-7.83305
klausim	-7.83326
šį	-7.83571
daug	-7.84524
tų	-7.85681
valstybi	-7.86042
pasiūlym	-7.87605
teisės	-7.88315
šios	-7.88582
užtikrint	-7.89016
ant	-7.91478
jūs	-7.93466
n	-7.93567
prie	-7.9387
ame	-7.94503
narės	-7.94891
šio	-7.95703
dabar	-7.95706
▁?	-7.96178
g	-7.96222
ko	-7.96648
daugiau	-7.97098
sprendim	-7.98164
viena	-7.98656
susitarim	-8.01862
siekiant	-8.02481
gerb	-8.02754
ė	-8.03686
nėr	-8.04114
kit	-8.04155
▁.,	-8.05649
ys	-8.06024
tam	-8.06746
nor	-8.08174
politikos	-8.08829
ką	-8.08957
nori	-8.09438
visi	-8.09465
kas	-8.09483
biudžet	-8.09877
iki	-8.10046
man	-8.1104
jie	-8.11336
teisi	-8.11823
bei	-8.12464
pagal	-8.13531
klausimu	-8.14059
šis	-8.15178
padėti	-8.16126
galimyb	-8.16198
pilieči	-8.16721
sąjunga	-8.17281
de	-8.1742
komitet	-8.1767
šiandien	-8.17755
ekonomiko	-8.1804
taryba	-8.18975
region	-8.20296
ma	-8.20331
tarybo	-8.20391
žmog	-8.20537
veiksm	-8.2081
po	-8.20942
vien	-8.21112
kart	-8.21943
jei	-8.22281
mis	-8.24407
galima	-8.24563
mi	-8.2604
būtina	-8.26249
visiška	-8.26857
▁;	-8.27095
negali	-8.29171
arba	-8.30445
c	-8.30573
darb	-8.30643
srity	-8.30748
susijusi	-8.30964
l	-8.31302
rink	-8.33071
b	-8.33529
bendradarbiavim	-8.33943
in	-8.34374
metų	-8.345
iuosi	-8.34588
žmoni	-8.34595
tiksl	-8.3565
žemė	-8.35885
turim	-8.36657
tarp	-8.36822
europa	-8.37675
šalys	-8.38007
teis	-8.38482
š	-8.39823
nu	-8.40709
priemoni	-8.4131
čių	-8.4206
keli	-8.42083
dėmes	-8.43192
ją	-8.43251
r	-8.43805
energij	-8.44616
galėt	-8.44996
ume	-8.45366
jam	-8.45376
v	-8.45552
tuo	-8.46184
pasakyti	-8.46815
rinkos	-8.46953
ūki	-8.47045
ja	-8.4742
ties	-8.47566
pirma	-8.48689
igu	-8.49103
toliau	-8.49397
pv	-8.49568
am	-8.49686
čia	-8.49854
dali	-8.50454
mo	-8.50471
-	-8.51127
raštu	-8.51143
kuriuos	-8.52046
mas	-8.52247
tiek	-8.52667
pagrindini	-8.53763
nei	-8.54149
jog	-8.54503
nustatyt	-8.54539
kartu	-8.5456
projekt	-8.56115
problema	-8.5613
proc	-8.56232
prekybo	-8.5664
ūs	-8.56749
at	-8.57052
vard	-8.57131
politik	-8.57546
klimat	-8.58645
finans	-8.5867
moter	-8.59137
imti	-8.60179
kita	-8.60288
fond	-8.60523
atveju	-8.61416
lisabono	-8.61549
param	-8.61655
lėš	-8.61713
iau	-8.61904
šiam	-8.62573
tikrų	-8.62793
paslaug	-8.63055
pagalb	-8.63125
apsaugos	-8.63206
ponia	-8.63494
žinoma	-8.64133
politika	-8.64492
gal	-8.64801
ėme	-8.6487
klausima	-8.6604
šie	-8.66102
frakcijos	-8.66171
pona	-8.6664
priemone	-8.66752
svarb	-8.67113
poni	-8.67391
sistem	-8.68158
ms	-8.68204
ent	-8.68366
atsižvelgia	-8.6857
tyrim	-8.69072
proces	-8.69645
20	-8.69919
reglament	-8.72503
pasauli	-8.72722
li	-8.72761
eur	-8.73022
pasi	-8.73899
transport	-8.74036
pateikti	-8.74271
pirminink	-8.74378
atžvilgiu	-8.74572
balsav	-8.74926
mą	-8.74964
vida	-8.75081
padėko	-8.75094
net	-8.75096
taigi	-8.75194
padėt	-8.75521
sutarti	-8.75786
sime	-8.76332
vartotoj	-8.77163
sukurt	-8.77478
deryb	-8.7768
dideli	-8.78181
akt	-8.78304
vaik	-8.78404
pri	-8.78442
jum	-8.78615
na	-8.78915
įgyvendinti	-8.79041
osios	-8.79179
f	-8.798
ose	-8.79834
pakeitim	-8.80024
visos	-8.80132
produkt	-8.80135
reikal	-8.80556
darbuotoj	-8.8085
,	-8.81586
re	-8.817
diskusijos	-8.82201
laisv	-8.82489
aiškiai	-8.82565
tokia	-8.82568
maist	-8.82889
tikrai	-8.83
pritari	-8.83212
ųjų	-8.83542
susitikim	-8.83572
inės	-8.83592
padaryti	-8.8405
turėtum	-8.84354
toki	-8.84609
labiau	-8.8472
mėn	-8.85506
plan	-8.85655
priimti	-8.85728
reiškia	-8.86885
ateit	-8.86946
gyvenim	-8.87227
nuomone	-8.87252
kelia	-8.87489
kriz	-8.87653
pasiekti	-8.87895
svarbi	-8.88273
inių	-8.89517
dami	-8.89858
sveikat	-8.9002
tas	-8.90237
gyventoj	-8.90363
siekiama	-8.9053
balsavim	-8.90551
2	-8.90552
klausimai	-8.90603
informacij	-8.90975
požiūriu	-8.91269
pasaul	-8.9144
princip	-8.9187
mokesči	-8.919
iai	-8.92076
laik	-8.92281
5	-8.92587
šiuos	-8.93054
sektoriu	-8.93369
galiausia	-8.93518
institucijos	-8.93558
viet	-8.93608
mos	-8.93846
valstybėm	-8.93867
▁¦20	-8.94764
laiko	-8.94879
privalom	-8.95224
kuria	-8.95232
esu	-8.95394
susiję	-8.95566
du	-8.95592
pabrėžti	-8.95595
sistemos	-8.95721
šia	-8.96577
pradėt	-8.97233
saugum	-8.9725
pirmiausia	-8.97667
neturi	-8.97831
sąlyg	-8.98068
finansavim	-8.9819
sumažint	-8.98258
pažang	-8.98439
h	-8.98976
priemonės	-8.99844
spręsti	-9.00849
nariai	-9.00937
tą	-9.01215
pagrind	-9.01709
do	-9.01828
rezultat	-9.01912
reikė	-9.01931
ž	-9.01944
dokument	-9.02526
krizės	-9.02577
aplinkos	-9.02678
visa	-9.02735
veik	-9.02785
ni	-9.02839
iu	-9.03122
kurio	-9.0331
oro	-9.03731
suteikt	-9.04056
angi	-9.04198
pateik	-9.04222
imo	-9.04446
vaidmen	-9.04817
sąjungoje	-9.04825
taisykl	-9.05033
sistema	-9.05383
euro	-9.0642
tinkam	-9.06565
vietos	-9.06761
įskait	-9.07383
žmonė	-9.07454
program	-9.07485
žmonėm	-9.0763
bendrijo	-9.08433
lygmeni	-9.08559
daugeli	-9.0864
įgyvendinim	-9.0911
politini	-9.09282
valdym	-9.09661
0	-9.09847
ro	-9.09859
energetiko	-9.10679
kuo	-9.10776
veikti	-9.1084
juos	-9.11071
nepaisant	-9.11285
le	-9.11343
ištekli	-9.1146
finansini	-9.11569
kuriai	-9.11571
kuriuo	-9.11778
dažn	-9.11844
šalim	-9.12031
antra	-9.12743
9	-9.12869
plėtro	-9.13198
naudoti	-9.13496
kitos	-9.13548
metai	-9.13786
rezoliucij	-9.13992
ap	-9.14022
nare	-9.14394
kalbant	-9.14427
kiek	-9.14587
diskusij	-9.14901
vadov	-9.14917
al	-9.14972
kitai	-9.158
ing	-9.1602
narėm	-9.16043
/	-9.16268
įvairi	-9.16288
teism	-9.16324
teise	-9.16438
nebuvo	-9.1653
ri	-9.16815
da	-9.17227
sritys	-9.17334
įstatym	-9.17558
direktyvos	-9.1792
la	-9.18495
fr	-9.18517
kelet	-9.18865
iškai	-9.18902
vėl	-9.18945
augim	-9.19219
skatint	-9.19249
mus	-9.19638
pl	-9.19935
pramonė	-9.20229
rodo	-9.20242
skirti	-9.20282
bank	-9.20514
gerai	-9.20578
tu	-9.2058
svarbiausia	-9.20816
kuriam	-9.21019
parengt	-9.21462
naujų	-9.21518
ka	-9.22299
gauti	-9.2263
sąlyga	-9.23322
vakar	-9.23459
visuomenės	-9.2367
ra	-9.24201
skirt	-9.2426
▁".	-9.24331
socialini	-9.24355
.	-9.2457
ki	-9.24725
lygio	-9.24804
privalo	-9.2506
laikyti	-9.25085
veiklos	-9.25358
džiaug	-9.25504
4	-9.2557
valdžio	-9.25644
išlaid	-9.25742
diskusija	-9.25947
priežiūro	-9.26084
rd	-9.26123
gi	-9.2651
institucijų	-9.26532
pastang	-9.27048
įsipareigojim	-9.27165
asmen	-9.2727
požiūri	-9.2737
bendrą	-9.27409
▁¦2009	-9.27773
šiai	-9.28249
veikl	-9.28582
ch	-9.28703
problem	-9.28716
jūros	-9.28935
europ	-9.29141
daryti	-9.29157
jai	-9.29779
dialog	-9.29943
protokol	-9.29943
joki	-9.30061
rinkim	-9.30188
dien	-9.30255
dalyk	-9.30271
tinkamai	-9.30313
ū	-9.30581
dirbti	-9.30643
solidarum	-9.30679
aišku	-9.30887
standart	-9.31466
narys	-9.31898
jus	-9.32022
mažiau	-9.32081
tinkl	-9.32166
skirta	-9.32666
kovos	-9.32769
susi	-9.32919
užsieni	-9.33063
geriau	-9.3328
▁¦1	-9.33374
poveiki	-9.33473
sudaryt	-9.33723
pinig	-9.33799
žingsni	-9.33959
taikyti	-9.34027
galim	-9.34098
it	-9.34339
an	-9.34601
problemų	-9.34835
sien	-9.34848
įtraukti	-9.34874
tapt	-9.35111
strategij	-9.3535
aiški	-9.35465
kol	-9.35735
turės	-9.35904
toks	-9.36018
reikalavim	-9.36124
pranešėja	-9.36433
strategijos	-9.36437
siekia	-9.36556
šias	-9.36591
1	-9.36606
tikslu	-9.36694
skaidrum	-9.36798
galimybe	-9.36917
rasti	-9.36966
kain	-9.37199
ojo	-9.37502
sriti	-9.37664
didel	-9.37687
augumo	-9.37753
el	-9.37883
no	-9.37931
va	-9.38036
ryt	-9.38044
reikalinga	-9.38085
valstybe	-9.38092
tekst	-9.38334
ln	-9.38342
direktyv	-9.38342
ga	-9.38369
kalb	-9.38456
aspekt	-9.38599
dauguma	-9.38621
teisingum	-9.38935
dal	-9.39152
uoti	-9.39356
poveik	-9.39404
tvarko	-9.3952
koki	-9.39592
fakt	-9.39785
nary	-9.3983
pirmininkaujanči	-9.39971
ku	-9.40497
rezoliucijos	-9.40563
lo	-9.40614
investicij	-9.40748
piliečiai	-9.40764
6	-9.41453
šaly	-9.41516
pra	-9.41629
vyriausyb	-9.41957
versl	-9.42256
8	-9.42256
ur	-9.42296
stabilum	-9.42457
taikym	-9.42474
didesn	-9.42516
socialinė	-9.42943
bendra	-9.43165
vyksta	-9.4325
nacionalini	-9.4346
ragin	-9.43571
co	-9.43868
vystymo	-9.43895
naujas	-9.43896
teikti	-9.43932
ėms	-9.44003
ml	-9.44182
jūr	-9.44327
esni	-9.44438
kalbėti	-9.44646
mokslini	-9.44692
leisti	-9.44877
atlikti	-9.44961
itin	-9.45136
tarptautini	-9.45283
padidint	-9.45413
pasinaudot	-9.45541
čio	-9.45635
nuomon	-9.45827
atkreipti	-9.45837
umo	-9.46169
esmė	-9.46259
didžiausi	-9.46486
piet	-9.46526
užimtum	-9.46649
sudaro	-9.46993
kontrolė	-9.47181
w	-9.47517
dėmesi	-9.48011
maž	-9.48051
kyla	-9.48069
atsi	-9.48113
technologij	-9.48179
priežasti	-9.48263
pakeist	-9.48454
taikoma	-9.48472
rib	-9.48836
sanglaud	-9.49281
dama	-9.49406
viz	-9.49421
tokios	-9.49502
imas	-9.49614
straipsni	-9.4963
esam	-9.49938
sutart	-9.5004
sektori	-9.50162
ep	-9.50456
ėjo	-9.50682
iais	-9.5071
bendro	-9.50779
vertinim	-9.51031
paket	-9.51262
pozicij	-9.51438
įmoni	-9.51832
turiu	-9.51964
galimybė	-9.52013
siekti	-9.52025
nuolat	-9.52042
laisvė	-9.52217
didesni	-9.52379
sąjung	-9.52468
jas	-9.52537
atsižvelgt	-9.52735
daugel	-9.52809
tarptautinės	-9.52852
atrodo	-9.5307
▁¦2008	-9.53254
ama	-9.53374
sak	-9.53466
priemon	-9.53541
taut	-9.5359
duomen	-9.53748
inio	-9.53775
išspręst	-9.53926
veiksminga	-9.54006
pakankama	-9.54106
yb	-9.54372
kar	-9.54405
apsauga	-9.54533
kokia	-9.54571
remianti	-9.54647
koleg	-9.5476
kaitos	-9.54806
ada	-9.55108
procedūr	-9.55155
ekonomin	-9.55258
ekonominė	-9.55385
▁¦2	-9.55572
remti	-9.55799
komisij	-9.55894
žini	-9.55941
daro	-9.55989
kiti	-9.56004
tada	-9.56006
pateikta	-9.56022
veikla	-9.56044
direktyva	-9.56125
naudinga	-9.56131
pasiūlymu	-9.56402
ijos	-9.56444
nti	-9.56646
vartojim	-9.56657
pači	-9.56764
atvej	-9.5701
saugos	-9.57184
priklauso	-9.57365
sprendimu	-9.57382
susiduria	-9.57619
▁¦10	-9.57648
turėjo	-9.57652
pritaria	-9.57893
apsaugot	-9.5792
žinot	-9.58058
dej	-9.58172
interes	-9.58425
afriko	-9.58589
išorė	-9.58593
ten	-9.58719
pritart	-9.58817
pareiga	-9.58842
balsuot	-9.58892
veikia	-9.58945
uoja	-9.59144
galėtum	-9.59221
nuomonė	-9.59242
žinom	-9.59423
jav	-9.59471
santyki	-9.59556
reguliavim	-9.5957
mės	-9.60059
iniciatyv	-9.60074
teigiam	-9.60137
žr	-9.60222
iniciatyva	-9.60226
▁),	-9.6034
laiv	-9.60573
pasiekta	-9.6061
strategija	-9.60795
internet	-9.60869
ži	-9.60971
▁¦2010	-9.6156
siu	-9.61683
parlamentu	-9.61704
daugyb	-9.61729
suderint	-9.61771
tikslai	-9.61777
džio	-9.61912
svarbiausi	-9.61934
teisin	-9.61993
problemo	-9.62104
kompromis	-9.62118
neturėt	-9.62285
kokybė	-9.62348
ime	-9.62532
ju	-9.62642
atstov	-9.62649
miest	-9.62677
veiksming	-9.62789
kr	-9.62872
pus	-9.62937
rizik	-9.63162
gera	-9.63228
tampa	-9.6338
apsaug	-9.63462
būsim	-9.6354
dalyvaut	-9.6359
avimo	-9.63602
konkreči	-9.63604
airijo	-9.63686
politin	-9.63688
naują	-9.63744
bi	-9.63785
programos	-9.6379
teigiama	-9.63975
panaikint	-9.64624
vertu	-9.64847
lyg	-9.64927
skurd	-9.64944
pažeidim	-9.6501
ieji	-9.65046
būd	-9.65067
anksčia	-9.65297
iant	-9.65398
frakcija	-9.65495
naujo	-9.65563
dėkoju	-9.65594
rinka	-9.65671
sudėting	-9.65732
pagerint	-9.6588
uot	-9.65904
ve	-9.6591
sektoria	-9.65967
priežas	-9.6607
duj	-9.66112
siekdam	-9.6615
sutink	-9.66215
damas	-9.66225
demokrat	-9.66366
norint	-9.66543
pavyzdžiu	-9.66594
pagrįst	-9.66666
švietim	-9.66716
žin	-9.66737
matyti	-9.66826
bent	-9.66909
dabartin	-9.67063
auk	-9.67179
ntis	-9.67195
finansinė	-9.6731
šalimi	-9.67408
prioritet	-9.67433
ilg	-9.67965
patirti	-9.68003
rūm	-9.68031
būdu	-9.68049
er	-9.68172
ekonomika	-9.68252
aptart	-9.6859
padarini	-9.68614
pagrindin	-9.68957
3	-9.6896
pastar	-9.68992
žemi	-9.6947
kurti	-9.69575
prezident	-9.69826
ataskait	-9.69873
susirūpinim	-9.69977
informacija	-9.69989
atsakomyb	-9.70107
programa	-9.70219
mirti	-9.70317
priemonėm	-9.70353
tenka	-9.70422
imą	-9.70438
tokiu	-9.70653
vyko	-9.71117
leidim	-9.71176
šiol	-9.71191
ekonomini	-9.71266
kime	-9.71286
žmon	-9.71311
smurt	-9.71583
tikim	-9.71832
vykdyti	-9.71884
go	-9.71936
vidur	-9.7199
kriterij	-9.72235
abejo	-9.72333
kovot	-9.72403
centr	-9.7247
išvengt	-9.72701
dvi	-9.73046
prašym	-9.7311
aukščiausio	-9.73165
parama	-9.73217
vanden	-9.73257
ci	-9.73283
įmonės	-9.733
klausimo	-9.73327
vyr	-9.73424
ministr	-9.73786
kalba	-9.74041
inę	-9.74124
pajėg	-9.74262
pareiškim	-9.74321
ketina	-9.74462
atliek	-9.74486
juo	-9.75104
naudos	-9.75381
oji	-9.75461
ntys	-9.75592
daugiausia	-9.756
demokratijos	-9.75759
inti	-9.75964
pavyk	-9.75977
būtin	-9.76204
greičiau	-9.76375
priėmim	-9.76474
pirm	-9.76631
suprast	-9.76654
ryši	-9.76698
reform	-9.76798
pagrįsta	-9.76817
automobili	-9.76885
palankia	-9.76891
vertinu	-9.76931
šaltini	-9.77077
ger	-9.77106
vi	-9.77336
kok	-9.77781
medžiag	-9.779
konflikt	-9.779
▁¦000	-9.77902
laukia	-9.77937
tinkama	-9.78054
▁!	-9.78084
skaiči	-9.78216
ateiti	-9.78379
kitą	-9.78403
gamybo	-9.78603
leidžia	-9.78792
pokyči	-9.78795
požiūr	-9.7911
skaičiu	-9.79168
laika	-9.79207
tarptautin	-9.79356
lu	-9.79673
bendros	-9.80022
tok	-9.80039
visai	-9.80118
eb	-9.80212
judėjim	-9.80296
kovo	-9.80337
▁¦3	-9.80422
rimt	-9.80686
derybos	-9.80777
metod	-9.80861
priimta	-9.8092
vengrijo	-9.81081
panaudot	-9.81239
sąlygos	-9.8133
posėdži	-9.81521
dviej	-9.81543
ton	-9.81658
sustiprint	-9.81709
nebūt	-9.81928
akivaizdu	-9.8203
ver	-9.82038
kaita	-9.8217
poreiki	-9.82285
atsakomybė	-9.82562
sriči	-9.82816
inį	-9.82888
pasiūlyt	-9.82961
sias	-9.8315
trūkum	-9.83208
tariant	-9.83211
rusijo	-9.83265
valstyb	-9.8338
pozicijos	-9.83381
skiria	-9.83615
partnerystė	-9.83778
mažinim	-9.83876
savait	-9.84022
numatyta	-9.84027
pasveikin	-9.84046
taikom	-9.8411
įmonėm	-9.84112
ėte	-9.84149
kultūro	-9.84173
pajam	-9.84257
link	-9.84259
apima	-9.84437
tapo	-9.84734
tiesiog	-9.8479
vyriausybės	-9.85087
lygi	-9.85109
padės	-9.85236
prieglobsčio	-9.85265
šiaurė	-9.85266
prancūzijo	-9.85311
mu	-9.85389
taisyklės	-9.85418
kiekviena	-9.85639
jungtini	-9.85702
didelė	-9.85714
atsakyt	-9.859
kalbame	-9.85927
tiksla	-9.85929
parodyt	-9.85948
jokio	-9.8596
veiksmai	-9.86038
viso	-9.86141
uost	-9.86297
neabejotina	-9.86548
zon	-9.86885
turkijo	-9.87022
patvirtinti	-9.87049
kova	-9.87228
pačios	-9.8746
priemonė	-9.87653
eiti	-9.87751
audito	-9.87802
gyvyb	-9.87858
tokio	-9.88169
plėtra	-9.8833
avo	-9.88339
reikalauja	-9.8838
en	-9.88436
teisėm	-9.88745
nl	-9.88755
tiekim	-9.89023
angli	-9.89116
laikotarpiu	-9.89207
atskir	-9.89224
finansin	-9.89398
rimta	-9.89455
institucijom	-9.89548
sen	-9.89649
priėm	-9.8968
pateikt	-9.89693
reikalavimus	-9.89744
žino	-9.89791
partijo	-9.89806
kokyb	-9.90147
pasiek	-9.90165
neigiam	-9.90495
pasitikėjim	-9.90499
galiu	-9.90551
duomeni	-9.90557
vyks	-9.90695
dirba	-9.90852
tvirtai	-9.90883
tikr	-9.91023
gero	-9.91452
įsi	-9.91453
atsakym	-9.91535
tema	-9.91607
jt	-9.91695
nė	-9.91782
mechanizm	-9.91816
eksport	-9.91847
režim	-9.91847
kalbėjo	-9.91859
ėmi	-9.9187
puikia	-9.9197
siekdama	-9.91987
pranešėj	-9.92043
nuostat	-9.92047
žuvininkystė	-9.92048
institucija	-9.92232
galės	-9.92794
grėsm	-9.92797
nar	-9.92966
nio	-9.92995
skirtum	-9.93036
įmanoma	-9.93151
suteikia	-9.93207
mažai	-9.93209
efektyvum	-9.93347
taisykle	-9.93419
et	-9.93478
naudojimo	-9.93532
šal	-9.93581
pranešimu	-9.93763
sunkum	-9.93968
vaist	-9.93974
teisini	-9.94107
taiko	-9.94175
padar	-9.94263
jom	-9.94373
min	-9.94449
plat	-9.9455
konkurencingum	-9.94562
organizacij	-9.9458
atvejai	-9.94594
svarstym	-9.94595
pabaigo	-9.94612
laikotarpi	-9.94613
nieko	-9.94625
pozicija	-9.94734
gr	-9.94761
draudim	-9.94802
įtraukta	-9.94862
negalima	-9.94921
trumpa	-9.94933
mastu	-9.94969
nelyg	-9.9497
bendrosio	-9.95231
nebe	-9.95333
kiekvieno	-9.95713
praėjusi	-9.95883
globalizacij	-9.96036
palaik	-9.96098
įsitikinę	-9.96122
trečia	-9.96249
tikras	-9.96353
hu	-9.96366
nenori	-9.96441
mažum	-9.96491
tap	-9.96566
klaid	-9.9669
vieš	-9.96722
prisidėt	-9.97053
kiekvien	-9.9728
▁¦2007	-9.97443
teisėkūr	-9.97444
posėd	-9.97444
tarš	-9.97455
užkirst	-9.9746
vokietijo	-9.97541
priimt	-9.97581
prekyba	-9.97617
nepa	-9.97704
paremti	-9.97756
graikijo	-9.97893
leiski	-9.97895
mišk	-9.97898
ėti	-9.979
or	-9.97952
gamintoj	-9.9804
ūkinink	-9.98092
visuomen	-9.9854
vėliau	-9.98602
ameriko	-9.98658
žodži	-9.98772
rytoj	-9.98898
atlikt	-9.989
šeši	-9.98929
socialist	-9.98978
labiausia	-9.98986
vieno	-9.99225
minėt	-9.99373
dav	-9.99431
▁).	-9.99596
tikrą	-9.99692
kon	-9.997
nauja	-9.99871
atitinka	-9.99949
galėsi	-9.99951
pavoj	-10.0008
dė	-10.0011
kt	-10.0038
principu	-10.0042
ak	-10.0093
tar	-10.0098
organizacijos	-10.0105
usių	-10.0137
teritorij	-10.0174
gyvūn	-10.0185
pakeitimu	-10.0189
procedūra	-10.0196
valstij	-10.0197
skirting	-10.0204
pripažinti	-10.0212
integracij	-10.0218
aktyv	-10.0219
štai	-10.0226
nerim	-10.0228
naudojant	-10.024
tokie	-10.025
geresni	-10.0259
saug	-10.0267
tvar	-10.0274
fi	-10.0289
mok	-10.0296
darbotvarkė	-10.0307
pagrindinė	-10.0318
pritar	-10.0338
vy	-10.0351
eli	-10.0367
infrastruktūr	-10.0368
kontrol	-10.0373
pien	-10.0375
didelį	-10.0379
pastab	-10.0379
naujos	-10.0379
stiprint	-10.0381
▁¦4	-10.0392
negu	-10.0395
nesu	-10.0404
italijo	-10.0411
leis	-10.0415
bendrov	-10.0424
nustatyta	-10.0427
mėnesi	-10.0428
teisingai	-10.0433
pirmininka	-10.0437
atitinkam	-10.0446
pasak	-10.0462
ha	-10.048
anti	-10.0481
pagalba	-10.0489
▁¦2011	-10.0491
barro	-10.0492
teisinga	-10.0509
greita	-10.055
laikin	-10.0565
siūloma	-10.0565
pirmas	-10.0567
nčių	-10.0573
gruo	-10.0577
kūrim	-10.0597
teikiama	-10.061
taikomos	-10.0627
etap	-10.0633
inovacij	-10.0647
sąraš	-10.0647
rūši	-10.0647
našt	-10.0655
bu	-10.0679
pt	-10.0692
praneš	-10.0693
bendras	-10.0711
asis	-10.0712
il	-10.0715
atsižvelgdama	-10.0725
grupės	-10.0731
jungtinės	-10.0741
įgaliojim	-10.0766
pati	-10.0783
imigracij	-10.0803
lio	-10.0804
ginkl	-10.0805
pastanga	-10.0807
dalyvavim	-10.0814
pirmininkaujant	-10.0818
susijusios	-10.0819
didžiul	-10.082
sius	-10.0837
patvirtinim	-10.0842
narė	-10.0857
iniai	-10.0869
papildom	-10.0885
ekonomik	-10.0886
plėtr	-10.0888
reali	-10.0895
ači	-10.0897
sutarty	-10.0898
▁¦14	-10.09
nieka	-10.0902
skiriama	-10.0902
tęsti	-10.0919
šeim	-10.092
pareng	-10.0936
aktu	-10.0954
tri	-10.0961
tuos	-10.0965
uoju	-10.0966
▁¦12	-10.0967
keleivi	-10.0967
ome	-10.0969
paminėti	-10.0972
laiku	-10.0985
žvejybo	-10.0989
inink	-10.1021
ru	-10.1035
tikra	-10.1046
mv	-10.1047
▁¦11	-10.1047
užduoti	-10.108
ženkl	-10.1088
niu	-10.1092
vertinti	-10.1092
tikiu	-10.1094
kin	-10.1104
ge	-10.1112
van	-10.1119
vo	-10.1121
nr	-10.1122
suteikta	-10.1125
kieki	-10.1128
apskrit	-10.1131
koordinavim	-10.1131
pobūdži	-10.1131
aplinkosaug	-10.1138
bo	-10.1147
skatina	-10.116
griežt	-10.1169
taryb	-10.1181
palaiko	-10.1186
agentūr	-10.1195
ypating	-10.1199
balsavima	-10.1213
ate	-10.1213
inis	-10.1213
krikščioni	-10.1217
sėkmingai	-10.1229
mane	-10.1231
zonos	-10.1233
išmok	-10.1242
sunku	-10.1242
vert	-10.1256
par	-10.1263
pacient	-10.1265
bendrai	-10.1279
primin	-10.1283
omeny	-10.1298
konkret	-10.1298
referendum	-10.1298
spaudim	-10.1298
pensij	-10.1298
geležinkeli	-10.1298
bendradarbiaut	-10.1298
sek	-10.1324
nai	-10.1349
įvertint	-10.1358
ausio	-10.1399
partneri	-10.1406
sprendimai	-10.1411
socialine	-10.1418
neseni	-10.1421
padaryta	-10.1436
▁¦50	-10.1438
pasiūl	-10.1452
pagrindu	-10.1458
sveikin	-10.1464
vaidm	-10.1466
valstybė	-10.147
keturi	-10.1475
išreikšt	-10.1478
kinijo	-10.1492
kalbam	-10.1496
nių	-10.1517
nį	-10.1519
interesus	-10.1527
esama	-10.1528
ano	-10.1534
yn	-10.1543
gerint	-10.1543
usios	-10.1545
bals	-10.1547
svarst	-10.1553
jaunim	-10.1559
amžia	-10.1559
▁¦19	-10.1578
vieta	-10.1594
įtak	-10.1602
sakant	-10.1603
rezoliucija	-10.1614
tolesni	-10.1621
siek	-10.1637
pabėgėli	-10.164
šengen	-10.164
birželio	-10.164
policij	-10.1642
politinės	-10.165
bū	-10.1654
principai	-10.1676
tie	-10.1688
užtikrinant	-10.1691
klaus	-10.1713
pusiausvyr	-10.1715
atsakinga	-10.1722
prekyb	-10.1725
speciali	-10.1744
pro	-10.1761
inius	-10.1774
taik	-10.179
kosov	-10.1816
gamini	-10.1816
įgyvendinant	-10.1818
kos	-10.1822
būtinyb	-10.1822
aplinkybėm	-10.1833
aplink	-10.1833
sal	-10.1851
uojant	-10.1852
dr	-10.187
▁¦2006	-10.1884
on	-10.1893
reaguot	-10.1896
kalt	-10.1909
lank	-10.1916
niekad	-10.1922
nčio	-10.1924
bendrų	-10.1929
lyči	-10.193
dienos	-10.1933
išlaikyti	-10.194
lt	-10.1952
romų	-10.1967
balsavo	-10.1969
lengva	-10.1972
atidžia	-10.1994
plojimai	-10.1994
kapital	-10.1994
mokymo	-10.1994
tarpusav	-10.1994
termin	-10.1995
panaikinim	-10.1997
nacionalinės	-10.1999
kilmės	-10.1999
rug	-10.2003
vienod	-10.2003
praeit	-10.2009
moksl	-10.2011
patikim	-10.202
kito	-10.2028
izraeli	-10.203
elektro	-10.2033
pastaruo	-10.2043
ke	-10.205
pareig	-10.2055
praš	-10.2058
esant	-10.2076
idėj	-10.2084
▁¦25	-10.2093
ly	-10.2099
skol	-10.2106
mat	-10.2114
pagarb	-10.2119
ėm	-10.2128
nepriklausom	-10.2128
vykdym	-10.2133
škai	-10.2149
gu	-10.2157
minėjo	-10.2161
nacionaliniu	-10.2172
remia	-10.2172
sankcij	-10.2175
tuomet	-10.2176
žuv	-10.218
panaši	-10.2181
garantij	-10.2182
tarptautiniu	-10.2184
plėtoti	-10.2193
iausi	-10.22
humanitarin	-10.2221
ginti	-10.2239
reikšming	-10.2254
pradžio	-10.2255
leist	-10.2291
kolego	-10.2295
vykdoma	-10.2305
teikim	-10.2312
lig	-10.232
nuostata	-10.2321
▁¦13	-10.2324
sunki	-10.2333
nurodyt	-10.2338
tgi	-10.2352
galutini	-10.2352
val	-10.2356
dešimt	-10.2359
silpn	-10.2361
pareikšt	-10.2365
nam	-10.2373
ber	-10.2374
pavojing	-10.2381
laikomas	-10.2391
didžiausia	-10.2397
damos	-10.2403
atvyk	-10.2404
rezultatai	-10.241
kultūr	-10.2429
nusi	-10.2446
pavyzdy	-10.2451
pabrėžiama	-10.2463
daugeliu	-10.248
paaiškint	-10.2485
palikt	-10.2496
gynyb	-10.2549
sustabdyt	-10.2553
paprast	-10.2556
pavyzdži	-10.2572
pavoju	-10.2584
atsisakyt	-10.2593
juod	-10.2597
dalimi	-10.2608
srit	-10.2614
patvirtino	-10.262
tės	-10.2627
pasiūlymai	-10.2638
fa	-10.264
siūlom	-10.2642
tvirt	-10.2656
sprendžia	-10.2671
sukurta	-10.2679
lygiu	-10.2692
manymu	-10.2699
kalbos	-10.2718
nepriimtina	-10.2723
ino	-10.2733
konkurencijo	-10.2738
atsak	-10.274
nauju	-10.2742
pradeda	-10.2743
mokėjim	-10.2745
tebė	-10.2746
visuomene	-10.2752
baigdama	-10.2752
buvusi	-10.2759
teising	-10.2761
▁¦5	-10.2761
rengiant	-10.2769
integruot	-10.2772
iššūki	-10.279
remiam	-10.279
liep	-10.2795
▁¦6	-10.2801
trečių	-10.2804
padeda	-10.2821
darbuotojai	-10.2843
baigti	-10.2843
patenkint	-10.285
modeli	-10.2855
aukšt	-10.2878
struktūrini	-10.2896
pažanga	-10.2921
sutinka	-10.2923
minti	-10.2929
peln	-10.2932
malonu	-10.2938
penki	-10.2938
vykdant	-10.2947
didint	-10.295
skubiai	-10.2956
mast	-10.2958
kredit	-10.2967
ce	-10.2978
pradži	-10.2981
stebėti	-10.2981
sudėtinga	-10.2991
darbu	-10.2992
trij	-10.3006
rekomendacij	-10.3007
esanči	-10.301
turint	-10.301
atstovai	-10.3056
kokios	-10.3068
kam	-10.3069
iniam	-10.3083
padidin	-10.3098
susitarimu	-10.3108
tini	-10.3117
vietoj	-10.3133
é	-10.3138
gebėjim	-10.314
rumunijo	-10.3142
lankstum	-10.3151
vertė	-10.3151
gana	-10.3163
teisinės	-10.3164
sąnaud	-10.3177
geresn	-10.318
demokratija	-10.3182
nd	-10.3183
kopenhago	-10.3187
prioritetu	-10.3199
uosiu	-10.3234
demokratini	-10.3244
partija	-10.3257
met	-10.3261
straipsn	-10.3261
ilgalaiki	-10.3279
teikiam	-10.3284
suprant	-10.3288
reforma	-10.3291
rom	-10.3324
frakcij	-10.333
aljans	-10.3342
smulk	-10.3342
teršal	-10.3342
organ	-10.3342
skatinim	-10.3345
naudojimą	-10.3346
dalyka	-10.3351
pašalint	-10.3365
pranešėju	-10.3366
gauna	-10.3378
prevencij	-10.3382
sutarči	-10.3388
pareiškimai	-10.339
krize	-10.3394
įvykdym	-10.3397
vieninteli	-10.3445
ilgalaik	-10.3452
gyvena	-10.3467
ner	-10.3472
jėg	-10.3477
punkt	-10.3493
technini	-10.3504
atskirti	-10.3505
lab	-10.3505
grup	-10.3513
pabrėž	-10.3514
pastat	-10.352
užtikrin	-10.3535
moteri	-10.3538
potencial	-10.355
apsvarstyt	-10.3551
paprašyt	-10.3557
duomenys	-10.3558
viduri	-10.3559
regioninės	-10.3566
konvencijos	-10.3589
darbotvark	-10.3596
susitarimai	-10.36
būda	-10.3612
kartai	-10.3613
norėt	-10.3618
sulauk	-10.3622
jant	-10.3625
aktai	-10.3626
leido	-10.3627
tra	-10.3645
daly	-10.3646
č	-10.3649
didžiuli	-10.3654
nuostatos	-10.3656
geriausi	-10.3657
didži	-10.3661
balt	-10.3666
nę	-10.3667
aplinka	-10.3677
palaikyt	-10.3679
kitus	-10.3681
taikant	-10.3686
▁¦8	-10.3701
suma	-10.3722
status	-10.3724
esmini	-10.3725
žengt	-10.3731
veikim	-10.375
matome	-10.3755
vykt	-10.3759
diskriminacij	-10.3762
preki	-10.3762
paprasčiausia	-10.3763
respubliko	-10.3763
turizm	-10.3766
informuoti	-10.3771
peržiūr	-10.3787
try	-10.3788
žodžiu	-10.379
suteik	-10.379
nurod	-10.3796
bar	-10.3804
agentūros	-10.3826
kolega	-10.3827
neturėtum	-10.3828
nedels	-10.3831
atliko	-10.3833
rusija	-10.3834
mažint	-10.3839
reikaling	-10.3851
pakeitimai	-10.3862
tvark	-10.3886
praša	-10.3887
sėkmė	-10.389
stipri	-10.3893
ėmės	-10.3902
kaimyn	-10.3906
vykdom	-10.3909
įtrauk	-10.3911
priek	-10.3915
puik	-10.3934
turėsi	-10.3956
var	-10.3971
saugi	-10.398
konstruktyv	-10.398
kvalifikacij	-10.398
ispanijo	-10.398
balkan	-10.398
kalbėtoj	-10.3984
patiria	-10.3993
vaikai	-10.3993
socialinę	-10.3996
užbaigt	-10.3998
naud	-10.4002
patvirtinta	-10.4006
laisvi	-10.4016
kovojant	-10.4028
veiksmingum	-10.4035
ras	-10.4038
aspektu	-10.4047
paskutini	-10.4079
tris	-10.4086
užtikrinim	-10.4093
atsaking	-10.4097
karo	-10.4098
įvyki	-10.4101
reng	-10.4118
pasekm	-10.4124
ll	-10.4128
sėkming	-10.4147
gaut	-10.4166
nacionalin	-10.4173
vartotojai	-10.4179
gerą	-10.4181
galėjo	-10.4183
vasar	-10.4197
baltarusijo	-10.4202
akivaizdžiai	-10.421
sport	-10.422
pamat	-10.4223
ppe	-10.4224
produktai	-10.4229
gyvent	-10.4236
sako	-10.4237
stipr	-10.4239
pasakė	-10.4246
main	-10.4247
šeimo	-10.425
sutartimi	-10.4252
siūl	-10.4272
▁¦15	-10.4275
verčia	-10.4285
geriausia	-10.4285
bž	-10.4295
pagrindiniai	-10.4295
nauding	-10.4304
tikėti	-10.4308
procedūros	-10.4319
ter	-10.4321
tiesiogi	-10.4338
dabartini	-10.4338
amos	-10.4356
visuotin	-10.4359
kvot	-10.4361
tur	-10.4361
terorizm	-10.4367
nepavyk	-10.4367
pasaulinė	-10.4368
sąžining	-10.4377
bendrąj	-10.4381
antras	-10.4388
ūp	-10.4389
pačiu	-10.4395
dėti	-10.441
atkreip	-10.4413
lygybė	-10.4415
standartai	-10.4415
lė	-10.4415
baudžiam	-10.4424
paklaus	-10.4427
liaudi	-10.443
žiniasklaido	-10.443
sandori	-10.443
glaudžia	-10.443
abiej	-10.4431
ba	-10.4437
puiki	-10.4439
reikalaujama	-10.4444
keisti	-10.4445
pramon	-10.4448
tarnybo	-10.4456
paskatin	-10.4462
prieštarauja	-10.4462
menk	-10.4481
ėja	-10.4482
portugalijo	-10.4487
milijon	-10.4521
pirmą	-10.4524
analiz	-10.4525
kūr	-10.4541
sutelkt	-10.4554
idėja	-10.4554
visom	-10.4555
nčios	-10.4568
kov	-10.4569
sukelt	-10.4575
mėnes	-10.4583
operacij	-10.4585
pranešėjo	-10.4599
skiriam	-10.46
žal	-10.4615
galė	-10.4624
▁¦30	-10.4628
kalbu	-10.4637
visuomenė	-10.4641
eina	-10.4643
paskelbt	-10.4647
pasirengę	-10.4662
uždraust	-10.4662
pakistan	-10.4662
perkėlim	-10.4662
kinija	-10.4662
išpuoli	-10.4663
besi	-10.4663
baz	-10.4667
netruk	-10.467
mokyti	-10.4673
lenkijo	-10.4677
aišk	-10.4677
acijos	-10.4692
turkija	-10.4703
nurodyta	-10.4704
pasirinkim	-10.4704
ac	-10.4723
bendrovė	-10.4727
parodė	-10.4734
iška	-10.4739
pirmąj	-10.4755
suteiks	-10.4766
profesini	-10.4777
ragina	-10.4783
gerbiam	-10.4785
paskelb	-10.4789
išsaugot	-10.4789
bandym	-10.4797
susitart	-10.4815
vidutini	-10.4816
nuoširdžia	-10.484
poreik	-10.486
vyriausybe	-10.4861
ančių	-10.4861
tūkstanči	-10.4867
grįžt	-10.4868
patvirtina	-10.4888
yti	-10.4896
reikalaut	-10.4897
likusi	-10.4899
briusel	-10.49
lapkri	-10.49
precedent	-10.49
sukėl	-10.4911
struktūr	-10.4914
nuolatini	-10.4916
suprantama	-10.4916
didina	-10.4927
įsipareigojimu	-10.4929
eri	-10.493
situacij	-10.4935
tikslą	-10.4945
atsižvelg	-10.4948
karalystė	-10.4949
ash	-10.498
bulgarijo	-10.498
iausia	-10.499
projektu	-10.4991
išsi	-10.4997
skubi	-10.502
vienintel	-10.5022
supaprastint	-10.5024
visišk	-10.5028
papraš	-10.5037
00	-10.5042
lėt	-10.5054
abejon	-10.5061
abejonė	-10.5064
nutraukt	-10.5067
paskutin	-10.5083
įvykdyt	-10.5087
įsitikin	-10.5087
vertę	-10.5102
žod	-10.5105
pateikiam	-10.5106
išmetamų	-10.512
akto	-10.5122
pirmininkavim	-10.5123
partij	-10.5128
kokiu	-10.5131
▁¦2013	-10.5143
visapusišk	-10.5144
geguž	-10.5144
ombudsmen	-10.5144
palygint	-10.5145
komunikat	-10.5146
▁¦18	-10.5148
užmoj	-10.515
priimant	-10.5151
savi	-10.5153
mal	-10.5157
švedijo	-10.5162
sparčia	-10.5162
linij	-10.5174
išmetam	-10.5179
gair	-10.5181
grupi	-10.5183
išaug	-10.5213
apsi	-10.5215
griežtai	-10.5221
drąs	-10.5252
toli	-10.5252
nafto	-10.5258
čiai	-10.5265
santykiai	-10.5274
daroma	-10.5274
sv	-10.528
tinka	-10.5281
priežiūr	-10.5296
atlieka	-10.531
kel	-10.5323
▁.)	-10.5346
iesi	-10.536
ran	-10.5366
ekonomine	-10.5374
reiting	-10.5394
vaizd	-10.5394
priversti	-10.5395
pritaikyt	-10.5395
strategin	-10.5398
kasdien	-10.5398
nustatant	-10.54
paskol	-10.5404
angl	-10.5422
prasme	-10.5427
muit	-10.5435
bausm	-10.5436
prieig	-10.5436
įvykiai	-10.5444
neįmanoma	-10.5446
prisitaikym	-10.5446
atnaujint	-10.5446
ukraino	-10.5453
surengt	-10.5453
svarbios	-10.5461
svarstom	-10.547
norėtų	-10.5473
agentūra	-10.5476
panaudojim	-10.5477
išsami	-10.548
dž	-10.5487
aspektai	-10.5491
pavaduotoja	-10.5503
numatyti	-10.5519
finansuot	-10.552
pamiršt	-10.5523
perspektyv	-10.5539
siūlo	-10.5544
bendru	-10.5549
iškas	-10.5556
kuriant	-10.5577
išsam	-10.5581
kreipti	-10.5592
ankstesn	-10.5599
išvad	-10.5601
atliekam	-10.5601
pareigūn	-10.5605
import	-10.5613
europieči	-10.5621
žinia	-10.5621
registr	-10.5622
vidu	-10.5622
dirb	-10.5625
aukštos	-10.5628
užtikrinta	-10.5631
poreikiu	-10.5642
žodžiai	-10.5642
didinim	-10.5647
sakyti	-10.5649
á	-10.5651
konsultacij	-10.5651
▁¦2012	-10.5651
atlyginim	-10.5651
tvarkyti	-10.5651
jung	-10.5656
kryptimi	-10.566
galiojanči	-10.5672
konkurencija	-10.5673
turė	-10.5684
nepaprastai	-10.5685
kritik	-10.5686
praėjus	-10.5686
antys	-10.5707
raginama	-10.571
susijusiu	-10.571
susidar	-10.5724
ataskaita	-10.5725
leidžiama	-10.5735
atsarg	-10.5735
turt	-10.5737
pažad	-10.575
br	-10.5751
imu	-10.5758
nusikaltim	-10.5765
tvarka	-10.5768
skirtos	-10.5777
ankst	-10.5783
jungtin	-10.5801
dirbo	-10.5814
eniai	-10.5824
sesijo	-10.5825
teikia	-10.583
sveikatai	-10.5832
naudoja	-10.5836
nepakanka	-10.5842
ky	-10.5851
migracij	-10.5853
ingai	-10.5857
palanki	-10.586
prast	-10.5863
socialin	-10.5867
ginč	-10.5877
ding	-10.5884
prisideda	-10.5884
nustat	-10.5893
įstaig	-10.5899
uždavini	-10.59
mb	-10.5903
pateikiama	-10.5912
afganistan	-10.5914
kadencij	-10.5914
prancūzija	-10.5914
bendradarbiauja	-10.5914
dvej	-10.5914
trūksta	-10.5915
atkurt	-10.5915
mėgin	-10.5915
derėt	-10.5919
muo	-10.5925
50	-10.5928
vesti	-10.5931
svarstyt	-10.5935
dalyvauja	-10.5942
dešimtmeči	-10.5944
proga	-10.5955
priešinga	-10.5956
socialinį	-10.5963
tv	-10.5964
šaliai	-10.5966
religij	-10.5966
skatinama	-10.5967
pie	-10.5969
dalykai	-10.5976
terorizmu	-10.5987
didėja	-10.5988
autori	-10.599
apibrėžti	-10.601
esnės	-10.601
vil	-10.6013
nepakankama	-10.6023
sukūrim	-10.6026
konkrečiai	-10.6029
reg	-10.6038
škum	-10.6051
lauk	-10.6059
užsi	-10.6069
sudarym	-10.6075
viešų	-10.6087
moterim	-10.6095
baigta	-10.61
eism	-10.6102
susitik	-10.611
pinigai	-10.614
rezultatu	-10.6157
stengti	-10.6171
erdv	-10.6175
argument	-10.6184
išgirst	-10.6184
egipt	-10.6184
pavyzd	-10.6184
pradėjo	-10.6185
laikotarp	-10.6186
virš	-10.6186
persvarstyt	-10.6192
pažeidžiam	-10.6192
balan	-10.62
dabartinės	-10.6202
atsirad	-10.6204
branduolini	-10.6204
artim	-10.6227
iran	-10.6236
skurdu	-10.6239
įgyvendin	-10.6247
aptar	-10.6257
tikros	-10.6258
verta	-10.6262
imigrant	-10.6275
pramone	-10.6276
sudėt	-10.629
veikianči	-10.6292
paskatint	-10.6294
prieinam	-10.6307
santykiu	-10.6321
laisvai	-10.6325
kal	-10.6326
nės	-10.6344
galutin	-10.6355
žingsn	-10.6358
iškelt	-10.6358
form	-10.6359
vienu	-10.636
demokratij	-10.6364
saugumu	-10.6365
gamyba	-10.6366
įvairovė	-10.6369
▁¦40	-10.6373
pasiekt	-10.6379
priežiūra	-10.6394
įtako	-10.6402
apribojim	-10.642
atėj	-10.6431
įvairios	-10.6436
pilietin	-10.6436
pusės	-10.6437
konkurencij	-10.6443
umu	-10.6451
atsisak	-10.646
knyg	-10.6462
strasbūr	-10.6462
susidūr	-10.6462
pažymėti	-10.6462
nelegali	-10.6462
tikriausia	-10.6463
sraut	-10.6463
nauji	-10.6464
patobulint	-10.6465
aviacijo	-10.6467
kuriom	-10.6467
duoti	-10.6469
supranta	-10.6474
buv	-10.6475
išnagrinėt	-10.6475
pasaulini	-10.6476
suderinim	-10.6477
kolegom	-10.6478
sutarim	-10.6478
gim	-10.6489
rank	-10.649
der	-10.649
ištekliu	-10.6492
gail	-10.6494
demokratin	-10.6496
aug	-10.6496
ale	-10.6512
atkūrim	-10.6517
nukreipt	-10.6517
tvarum	-10.6518
vertybėm	-10.6526
ilgai	-10.654
vyn	-10.6548
veiksmingesn	-10.655
nuosavybė	-10.6556
keičia	-10.6556
suteikiama	-10.6556
mėnesiu	-10.6558
kreip	-10.6558
pripažinim	-10.656
ystės	-10.6561
paklaust	-10.6565
likti	-10.6578
nie	-10.6578
draug	-10.6599
grindžiama	-10.6605
laikau	-10.6625
mokykl	-10.6631
apgailestauj	-10.6643
uždaryt	-10.6643
kelti	-10.665
aktyvia	-10.6659
kil	-10.666
ribot	-10.6671
naudojamas	-10.6674
vertinam	-10.6679
paty	-10.6697
aukšto	-10.6708
nuolatin	-10.6711
privat	-10.6714
kenčia	-10.6722
baig	-10.6728
tariam	-10.673
konvencij	-10.673
minėja	-10.6741
investuot	-10.6744
pasirengusi	-10.6748
student	-10.6748
visapusiška	-10.6748
renka	-10.6758
kaimynystė	-10.6759
liberalizavim	-10.676
supaprastinim	-10.6778
peržiūrėt	-10.6781
patirt	-10.6785
klas	-10.6798
vystymui	-10.68
didžioj	-10.6809
blok	-10.6824
sužinot	-10.6825
istorij	-10.6836
neman	-10.6843
vad	-10.6868
gerovė	-10.687
gan	-10.6871
perduot	-10.6878
he	-10.6887
žem	-10.6901
efektyv	-10.6906
lygmen	-10.6908
tolesn	-10.691
krizė	-10.6913
atmet	-10.6918
numatoma	-10.6925
nusprend	-10.693
kategorij	-10.6933
kliūti	-10.6935
valstybnar	-10.6942
mini	-10.6949
jais	-10.695
pastaba	-10.696
didele	-10.697
prisi	-10.6979
stiprina	-10.6983
krypti	-10.6984
numat	-10.7004
regionini	-10.7007
gimt	-10.7021
jėga	-10.7027
tarptautinė	-10.7029
svarbiu	-10.7034
teritorin	-10.7042
ambicing	-10.7042
peticij	-10.7042
judum	-10.7042
spaudo	-10.7042
▁¦2005	-10.7043
stebėjim	-10.7043
kontekst	-10.7043
patikrinim	-10.7047
įrodym	-10.7047
branduolinės	-10.7048
namų	-10.7051
procent	-10.7057
palaikym	-10.7059
krovini	-10.7063
tikslia	-10.7065
diskutuoti	-10.707
patikimum	-10.7076
išeiti	-10.7082
apribot	-10.7089
mon	-10.7095
sėkm	-10.71
tikru	-10.7103
kompetencija	-10.7106
rat	-10.711
vyriausybi	-10.7116
forma	-10.7122
maistu	-10.7125
grėsmė	-10.7134
tarnyb	-10.7143
pagarba	-10.7145
patenka	-10.7151
antroj	-10.7167
vin	-10.7182
derin	-10.7183
kilo	-10.7186
sakoma	-10.7193
pasaulin	-10.7197
naujai	-10.72
truk	-10.7223
išrinkt	-10.7224
iššūkiu	-10.7224
pritarim	-10.7237
konferencijo	-10.727
kliū	-10.7277
išskyr	-10.7315
bausmė	-10.7317
lieka	-10.7327
numatyt	-10.734
atostog	-10.7345
vairuotoj	-10.7345
įgūdži	-10.7345
pridėtin	-10.7345
trečiosiom	-10.7345
stebėsen	-10.7345
reakcij	-10.7345
pripažin	-10.7346
paragint	-10.7347
biur	-10.7348
▁¦16	-10.7349
aptariam	-10.735
rinkėj	-10.735
stiprinim	-10.7352
pasisak	-10.7355
naryst	-10.7362
tol	-10.7365
įsteigt	-10.7369
nedarb	-10.7379
▁¦100	-10.7384
tikri	-10.7385
gen	-10.7387
cs	-10.7388
pirkim	-10.7391
nuosekli	-10.7394
tun	-10.7395
azijo	-10.7403
kitom	-10.741
raginim	-10.7411
spal	-10.7443
blog	-10.7449
europin	-10.7449
perdavim	-10.7452
vienodai	-10.7453
parengta	-10.7455
demokratinės	-10.7458
greit	-10.748
įmon	-10.7488
didesnė	-10.7489
antai	-10.7492
jėgos	-10.7497
neteisėta	-10.7497
turinči	-10.75
tarpvalstybini	-10.751
neteisėt	-10.7511
kokie	-10.7512
pakt	-10.7517
skaičiau	-10.7523
prival	-10.7527
nčią	-10.7537
kelianči	-10.7546
nelygyb	-10.7552
vadovaujant	-10.7556
saugoti	-10.7558
libijo	-10.7562
esmin	-10.7564
įtvirtint	-10.7579
sėkminga	-10.7583
minėta	-10.7601
kli	-10.7601
padariniai	-10.7603
stebi	-10.7609
visam	-10.762
pajėgum	-10.7637
tro	-10.7637
asmeny	-10.764
egzistuoja	-10.7657
frontex	-10.7657
subsidiarum	-10.7657
ekspert	-10.7657
lyderi	-10.7657
reklam	-10.7657
skund	-10.7657
ankstyv	-10.7657
valdžia	-10.7657
žaliav	-10.7657
baigto	-10.7663
makedonij	-10.7666
keliant	-10.7666
reikšt	-10.767
nusipeln	-10.7672
išskirtin	-10.7672
mažiausia	-10.7675
tvarkym	-10.7678
gri	-10.7684
pasirašyt	-10.7685
susiet	-10.7685
lengviau	-10.7685
brang	-10.7691
kilt	-10.7711
rašt	-10.7723
nčiu	-10.7733
oficial	-10.7735
mokėt	-10.7743
netinkama	-10.775
bendr	-10.775
kultūrin	-10.7754
nelaimė	-10.7758
įvairov	-10.7763
sunkiai	-10.7768
organizuo	-10.777
pranešėjai	-10.7798
element	-10.7808
umėt	-10.7815
situacija	-10.7818
čius	-10.7825
tyrimu	-10.7829
keliu	-10.783
strategini	-10.7832
tarnyba	-10.7833
and	-10.785
ištekliai	-10.7851
suteikim	-10.7854
išvada	-10.7857
savanorišk	-10.786
elgti	-10.7875
vykusi	-10.7876
alternatyv	-10.7898
politiniu	-10.7902
komercini	-10.7905
vertinama	-10.7908
atitikt	-10.7918
ienos	-10.792
iniciatyvo	-10.7923
skyrim	-10.7933
atvir	-10.7941
kriterijai	-10.7956
naujovi	-10.797
sukuria	-10.7971
efekt	-10.798
vystymą	-10.798
subsidij	-10.798
administravim	-10.798
lūkesči	-10.798
smark	-10.798
▁...	-10.798
paveld	-10.798
įspūd	-10.798
japonijo	-10.798
apibūdin	-10.798
etnin	-10.7981
kontroliuot	-10.7982
žemyn	-10.7982
raštišk	-10.7982
prisiimti	-10.7982
naujosios	-10.7984
acij	-10.7985
naujausi	-10.7987
abiem	-10.7988
patenkinta	-10.799
čekijo	-10.799
naudojamo	-10.7996
persvarstym	-10.7997
nustatym	-10.8001
svarstoma	-10.8003
dviem	-10.8003
puiku	-10.8008
žodini	-10.8017
byl	-10.8019
visuome	-10.8037
duoda	-10.8051
savai	-10.8055
technologija	-10.8061
vald	-10.8066
gyventojai	-10.808
naudojami	-10.8098
nuveikt	-10.8098
kylanči	-10.8104
papildoma	-10.8105
teisė	-10.8105
atskira	-10.8121
žuot	-10.8141
pagrindine	-10.8144
liko	-10.8152
erdvės	-10.8155
vizij	-10.818
reikalavimai	-10.8189
naikin	-10.819
kredito	-10.8197
tad	-10.8199
iššūkiai	-10.8203
kada	-10.8221
teigia	-10.8225
ymas	-10.8225
iausių	-10.8236
rūpi	-10.8237
tikrov	-10.8238
padaryt	-10.8242
galioja	-10.8249
karini	-10.8255
vyriausybė	-10.8255
lie	-10.8255
diena	-10.8264
gruzijo	-10.8271
branduolin	-10.8282
reglamentavim	-10.829
pasirinkti	-10.8291
įvest	-10.8293
vertybi	-10.8293
sumažėj	-10.8295
organizacija	-10.8297
asmeni	-10.8298
patekt	-10.8306
besivystančios	-10.8313
deklaracij	-10.8313
specifin	-10.8313
asignavim	-10.8313
narkotik	-10.8313
subjekt	-10.8313
primygtin	-10.8313
skaitmenin	-10.8313
pranašum	-10.8313
rumunija	-10.8313
vertybe	-10.8313
dvišali	-10.8313
įrang	-10.8314
komand	-10.8314
viešojo	-10.8315
įgaliotin	-10.8316
paskirstym	-10.8319
ėjim	-10.832
ratifikavim	-10.8323
įrod	-10.8327
fer	-10.8334
informuo	-10.8334
pirmojo	-10.8335
sakė	-10.8335
šv	-10.8335
ryš	-10.834
oficiali	-10.8341
valdyt	-10.8342
reiškin	-10.835
bv	-10.8355
planu	-10.8355
ati	-10.8356
nusikaltimu	-10.8363
tęsia	-10.837
abi	-10.8374
partneryst	-10.8377
užmokesči	-10.8378
mer	-10.8381
nama	-10.8398
vertina	-10.84
rengia	-10.8404
sudary	-10.8413
pilietinė	-10.8431
sena	-10.8431
paprastai	-10.8431
džiu	-10.8441
▁¦21	-10.8442
gav	-10.8457
nant	-10.8467
konkurencing	-10.8472
kandidat	-10.8472
tyrimai	-10.8472
palik	-10.8486
nauda	-10.8493
darbinink	-10.8501
būdai	-10.8507
efektyvia	-10.8507
atitinkamai	-10.8508
padidėj	-10.8519
alde	-10.8524
teigt	-10.8538
prot	-10.8538
keliam	-10.8546
serbijo	-10.8549
praktini	-10.8556
humanitarinė	-10.8571
davo	-10.8574
sieki	-10.858
reikiam	-10.8588
"	-10.8589
geros	-10.8591
graikija	-10.8605
ribos	-10.8605
stojim	-10.8609
neatsižvelgia	-10.8609
įgyvendinam	-10.8633
gaus	-10.8634
žvej	-10.865
skirstym	-10.8652
ketinim	-10.8652
septyni	-10.8658
signal	-10.8658
besivystančiom	-10.8658
kodeks	-10.8658
korupcij	-10.8658
penkeri	-10.8658
šiltnami	-10.8658
rekomenduo	-10.8658
imtasi	-10.8658
elgia	-10.8659
mažesni	-10.8661
trej	-10.8662
por	-10.8662
tikrinim	-10.8663
sukelia	-10.8665
vadina	-10.8668
lygin	-10.8671
kultūrini	-10.8681
vežim	-10.87
misij	-10.8701
mokėtoj	-10.8706
verslinink	-10.8719
ėjimo	-10.8725
nato	-10.8729
moka	-10.8733
ingum	-10.8738
inimo	-10.8738
pasakyta	-10.8742
tiesiogini	-10.8743
nga	-10.875
kipr	-10.8755
karin	-10.8756
centrini	-10.8765
visuotini	-10.8772
portugalija	-10.8772
ukraina	-10.8774
bloga	-10.8779
pasekmė	-10.8785
finansuojam	-10.8791
radi	-10.8815
politiniai	-10.8816
vykd	-10.883
san	-10.8836
protinga	-10.8839
grindžiam	-10.8843
svarba	-10.8845
pan	-10.8853
sprendžian	-10.8855
prioritetai	-10.887
laikymo	-10.8885
vos	-10.8888
indėli	-10.8889
nelaimi	-10.8899
procesu	-10.89
praktiška	-10.8908
land	-10.8909
padarė	-10.8911
vykstanči	-10.8935
ataskaitos	-10.8935
konstitucij	-10.8946
balsuosi	-10.8952
pripažįsta	-10.8964
ekonominiu	-10.8969
pereit	-10.8976
šak	-10.8978
lem	-10.8985
laimė	-10.8988
abipusi	-10.8995
perspektyvo	-10.9009
ratifikuot	-10.9015
technologin	-10.9015
operatori	-10.9015
tradicij	-10.9015
tradicin	-10.9015
žurnalist	-10.9015
susisiekim	-10.9015
vadovauti	-10.9015
parod	-10.9015
vyksianči	-10.9015
lių	-10.9015
įtrauktos	-10.9016
prisidėjo	-10.9019
manyti	-10.902
tunis	-10.9029
kelion	-10.903
sudan	-10.903
prisijungt	-10.903
pasaky	-10.9036
daugumo	-10.904
gyven	-10.9042
tęsi	-10.9047
gau	-10.9057
susitar	-10.9058
kultūra	-10.9063
komisare	-10.9068
post	-10.9082
irgi	-10.9083
sumažinim	-10.9086
struktūros	-10.9094
nustatytos	-10.9098
cr	-10.91
atvirai	-10.9105
elektronini	-10.9114
praktika	-10.9116
diskutuojam	-10.9125
turinčių	-10.9129
rekomendacija	-10.913
įgyvendinama	-10.913
žalo	-10.9135
kompetencijo	-10.9141
pasiekim	-10.9144
regionin	-10.916
mokyklos	-10.9163
ho	-10.9164
einanti	-10.9174
zona	-10.9175
nys	-10.9185
bandom	-10.9186
abejoj	-10.92
vienodo	-10.9202
netek	-10.9208
pirmininku	-10.9214
apimt	-10.9218
įgyvendinta	-10.9219
likim	-10.9232
motinyst	-10.9253
gavo	-10.9255
nepritari	-10.9274
asmenim	-10.9276
britanijo	-10.9277
paveik	-10.9285
reformo	-10.9293
rūma	-10.9297
skyr	-10.9298
nežino	-10.93
misijo	-10.9301
judėt	-10.9311
atitikti	-10.9325
išlaida	-10.9332
pasiraš	-10.935
kubo	-10.937
ketin	-10.9378
uosi	-10.9379
biologin	-10.938
tūkstant	-10.9386
pirmenyb	-10.9386
remdamasi	-10.9386
rūpest	-10.9386
seksualin	-10.9386
potvyni	-10.9386
universitet	-10.9386
nuostoli	-10.9386
informavim	-10.9386
pridur	-10.9387
konkrečios	-10.9388
funkcij	-10.9388
teikiant	-10.9396
įvedim	-10.9398
valdom	-10.9404
ženklinim	-10.9408
ryžtingai	-10.9408
plačiai	-10.9409
dalyvavo	-10.9409
trukmė	-10.9413
valiuto	-10.9413
pristatyt	-10.9417
galv	-10.943
islam	-10.9437
lin	-10.9438
išim	-10.9448
dėkinga	-10.945
supratim	-10.9459
ymo	-10.946
užtikrinama	-10.9463
pasiūlyta	-10.9464
gre	-10.9467
tem	-10.9479
geb	-10.9482
artimiausi	-10.9499
patent	-10.9508
taisyklėm	-10.9517
kaino	-10.953
papildomų	-10.9549
ketvirta	-10.9563
ligo	-10.9566
imai	-10.9595
pakankam	-10.9601
geri	-10.9603
pon	-10.9607
laukt	-10.9613
diplomatin	-10.9616
reikšm	-10.9618
norėjo	-10.9618
nepamiršt	-10.9626
įvertinim	-10.9627
lg	-10.9641
metin	-10.9647
dirbančių	-10.9649
istorijo	-10.9652
internetu	-10.9654
den	-10.9663
daugia	-10.9666
lemia	-10.9668
politine	-10.9672
uota	-10.9683
partneriai	-10.9684
viening	-10.9695
fondai	-10.9714
komisar	-10.9714
site	-10.9726
patvirtint	-10.973
imui	-10.9732
pristat	-10.9737
abu	-10.9738
dalyvi	-10.9739
raginam	-10.9751
vali	-10.976
priimtina	-10.976
iškil	-10.9766
brazilij	-10.977
deficit	-10.977
kompetenting	-10.977
milijard	-10.977
milžinišk	-10.977
nyderland	-10.977
taupym	-10.977
žaisl	-10.977
patikrint	-10.977
civilinės	-10.977
tarif	-10.9771
pasieni	-10.9773
▁¦2000	-10.9774
išsakyt	-10.9774
▁¦26	-10.9775
įgyt	-10.9775
gazo	-10.9775
▁¦24	-10.9775
gavėj	-10.9775
atsako	-10.9782
dokumentai	-10.9793
parduot	-10.9799
pavadinim	-10.9806
gyv	-10.981
forum	-10.9817
vadinama	-10.9818
minut	-10.9827
mažų	-10.9827
sukelianči	-10.9832
jaučia	-10.9833
lenk	-10.9834
teikėj	-10.9838
ind	-10.9851
institucin	-10.9851
dur	-10.9856
pirk	-10.9879
pasku	-10.9892
specialist	-10.9901
pradžia	-10.9911
palengvint	-10.9914
jk	-10.9921
inami	-10.9926
priklausomyb	-10.9928
naikinim	-10.9931
gerinim	-10.9938
tvirtą	-10.9947
efektyvi	-10.9948
leid	-10.9949
sunk	-10.9952
teisėj	-10.9957
sesij	-10.9963
paaiškinim	-10.9969
nic	-10.9969
duot	-10.997
kokybišk	-10.9979
nereikė	-10.9984
nagrinė	-10.9984
rin	-10.9984
sąskaita	-10.9994
kryp	-11.0002
laisve	-11.001
statyb	-11.0013
pasirod	-11.0014
nutrauk	-11.0022
atstovauja	-11.0033
pradini	-11.004
paverst	-11.0042
prasidėj	-11.0054
ngl	-11.0056
imtų	-11.006
kasmet	-11.0061
akr	-11.0073
koordinuot	-11.0074
tęs	-11.008
istorini	-11.0081
savarankiška	-11.0082
naudojam	-11.0084
regionu	-11.0095
nustatom	-11.0109
stoti	-11.0111
kampanij	-11.0112
liga	-11.0112
asmenin	-11.0114
ketinam	-11.0116
vilti	-11.0121
valstijos	-11.0138
naujoj	-11.0145
atsižvelgdam	-11.0147
ėjimas	-11.015
del	-11.0157
trūk	-11.0158
galvoj	-11.0167
objekt	-11.017
statistik	-11.017
apmokestinim	-11.017
dioksid	-11.017
london	-11.017
skrydži	-11.017
valdysen	-11.017
paspartint	-11.017
ištaisyt	-11.017
pardavim	-11.017
padėči	-11.017
bėg	-11.017
pašar	-11.0171
vidutinės	-11.0174
investuotoj	-11.0176
prašyti	-11.0176
sprag	-11.0178
pobūd	-11.0182
iškėl	-11.0183
išlikt	-11.0183
atlikta	-11.0185
papildyt	-11.0185
pačia	-11.0186
garantuot	-11.0187
sąveik	-11.0188
sudedam	-11.0191
atidėt	-11.0194
naudojimu	-11.0195
buvę	-11.0198
sutiko	-11.0205
dažniausi	-11.0206
nusikalstamum	-11.0216
pabrėžia	-11.0226
matė	-11.0227
įvykusi	-11.0232
grąžint	-11.0238
viešai	-11.0239
inter	-11.0247
nviena	-11.0255
svarbesni	-11.0257
vykstant	-11.0262
kong	-11.0264
išmetim	-11.0267
atsakingos	-11.0268
veikėj	-11.0282
lygiai	-11.0295
priima	-11.0297
socialiniu	-11.0302
nuspręst	-11.0307
vengrija	-11.0308
skyri	-11.0308
car	-11.0313
aukom	-11.0319
pašt	-11.0324
statybo	-11.033
bendrij	-11.033
fizin	-11.0331
skatin	-11.0335
patyr	-11.0337
indėl	-11.035
sąskait	-11.0363
avimą	-11.0364
rė	-11.0375
gili	-11.0389
asmenišk	-11.0392
ženg	-11.0398
konkrečiu	-11.0398
administracin	-11.0406
nemaža	-11.0409
ančia	-11.0411
gerbti	-11.0414
išvados	-11.0432
vadovai	-11.0437
įsigalioj	-11.0437
migrant	-11.0448
geografin	-11.0448
eib	-11.0452
gue	-11.0452
įgyvendint	-11.0453
gerbiamie	-11.0456
rinkimu	-11.0462
15	-11.0466
savaim	-11.0472
ūk	-11.0498
jungtinėm	-11.0502
turinti	-11.0508
susilaik	-11.0513
nagrinėt	-11.0515
grupe	-11.0521
išsamia	-11.0521
moksliniai	-11.0522
balsuoj	-11.0527
planuot	-11.0536
prog	-11.0541
tokiai	-11.0543
interesai	-11.0543
plači	-11.0553
valiut	-11.0564
veiksmingiau	-11.057
diskriminacija	-11.0574
dešimtmet	-11.0577
mažėja	-11.0581
pirmoj	-11.0583
▁¦199	-11.0584
gelbė	-11.0587
neišvengiama	-11.0587
tragedij	-11.0587
belgijo	-11.0587
ruož	-11.0587
stebėtoj	-11.0587
savinink	-11.0587
avarij	-11.0587
lenkija	-11.0587
apgalvot	-11.0588
airija	-11.0588
aiškinim	-11.0588
ekosistem	-11.0594
vel	-11.0612
teritorijos	-11.0619
iausios	-11.0621
liberalų	-11.0621
jūroje	-11.0628
aukščiausi	-11.0628
pageidaujam	-11.0642
grąžinim	-11.0645
cija	-11.0652
išimti	-11.0666
▁¦60	-11.0666
milijonai	-11.0666
trukd	-11.0678
ūkininkai	-11.069
atlik	-11.0695
generalini	-11.0713
būdama	-11.0714
kan	-11.0716
stabili	-11.0724
kiekvienai	-11.0725
▁¦0,	-11.0729
vertin	-11.0733
lan	-11.074
išplėsti	-11.0751
elgesi	-11.0752
įprasta	-11.0758
papild	-11.076
įdomu	-11.0772
lygyb	-11.0773
arab	-11.0776
bendrojo	-11.0802
sprendžiam	-11.0812
ministra	-11.0812
elementa	-11.0814
len	-11.0834
energetini	-11.0839
konferencij	-11.084
elges	-11.0852
apimti	-11.0857
padarys	-11.0874
vartojam	-11.0882
patvirtin	-11.0885
žlug	-11.0898
prireik	-11.0916
dalys	-11.0919
asociacijo	-11.092
dalyvaujant	-11.0927
geriausiai	-11.0933
pažeidžia	-11.0934
did	-11.0935
naudojama	-11.0949
nenu	-11.0956
žym	-11.0964
konvencija	-11.0966
grįž	-11.0966
rengiam	-11.0968
laikomi	-11.097
įprast	-11.097
tautos	-11.0974
jautr	-11.0977
niai	-11.098
pavojinga	-11.0981
sauga	-11.0991
sugebėjo	-11.0993
ryžting	-11.0995
skaidri	-11.0999
saky	-11.1015
mokesti	-11.1018
intelektin	-11.1022
atsidūr	-11.1022
atspindi	-11.1022
ispanija	-11.1022
koncepcij	-11.1022
▁¦2007-201	-11.1022
demografin	-11.1022
▁¦2004	-11.1022
kūryb	-11.1023
civili	-11.1023
motyv	-11.1023
įsipareigojo	-11.1026
pasisek	-11.1026
debat	-11.1028
perėjim	-11.1029
arešt	-11.103
nepriklausoma	-11.1031
kenkia	-11.1033
auginim	-11.1033
apibrėžim	-11.1039
išlieka	-11.1048
ieško	-11.1057
bad	-11.1067
reikalingi	-11.1068
bendri	-11.1075
orum	-11.1078
atsitik	-11.109
ker	-11.109
atskiros	-11.109
antr	-11.1101
prašom	-11.1111
pagamint	-11.1125
dera	-11.1127
įsigalio	-11.1129
padėtimi	-11.1148
sveikata	-11.1151
prasm	-11.1153
padidė	-11.1159
vykdo	-11.1169
įgaliojimai	-11.117
esnė	-11.1173
nagrinėjam	-11.1177
veikiant	-11.1178
serbija	-11.1179
ėra	-11.1179
stengia	-11.1181
motin	-11.1181
bulgarija	-11.1198
bendrovėm	-11.1199
dėjo	-11.1208
kalėjim	-11.1209
susipažint	-11.1212
minimali	-11.1214
vieninga	-11.1216
vadovaujam	-11.1222
užtikrina	-11.1224
žiūrėt	-11.1226
daugiašal	-11.1241
reikšmė	-11.1242
vykdyt	-11.1243
pasitelk	-11.1248
keliama	-11.1257
kalini	-11.1261
verts	-11.1265
auja	-11.1268
bendruomenės	-11.1274
profesinė	-11.1276
tarptautine	-11.129
išlik	-11.1302
išreišk	-11.1304
tyn	-11.131
skatinant	-11.1316
terorist	-11.1318
reikalingo	-11.1318
laikydam	-11.1319
oficialia	-11.1326
jungtinė	-11.1341
saugom	-11.1346
projektai	-11.1352
gamyb	-11.1361
planavim	-11.1362
plėtoj	-11.1363
globali	-11.1363
paminė	-11.1366
liberali	-11.137
veda	-11.1376
suderinta	-11.1401
finansine	-11.1401
tiesiogin	-11.1417
praktiko	-11.1418
dvidešimt	-11.1426
įmanom	-11.1432
energija	-11.1434
mėnesiai	-11.1437
plenarin	-11.1439
glaud	-11.1441
pastebim	-11.1444
▁¦80	-11.1453
sunaikin	-11.1457
nepamirš	-11.1467
lauki	-11.1472
maža	-11.1476
baronien	-11.1476
objektyv	-11.1476
pesticid	-11.1476
priklausanči	-11.1476
produkcij	-11.1476
alkoholi	-11.1476
mokymą	-11.1476
remdami	-11.1476
atneš	-11.1476
mikro	-11.1476
įnaš	-11.1477
vaidin	-11.1477
svar	-11.1479
jaunų	-11.1479
▁¦23	-11.148
tekstil	-11.148
mažosiom	-11.1482
birmo	-11.1482
slapt	-11.1483
slovakijo	-11.1483
ininkai	-11.1484
▁¦22	-11.1486
priims	-11.1489
protest	-11.1493
qu	-11.1493
nuoseklum	-11.1493
vidutinėm	-11.1496
atgal	-11.1501
pen	-11.1503
indijo	-11.1504
remiu	-11.1504
įdiegt	-11.1505
ekologini	-11.1506
nukentėjusi	-11.1506
naudojimas	-11.1506
kažk	-11.1529
registruot	-11.1529
prisijungim	-11.1542
išlyg	-11.1548
usiai	-11.1552
pareigūnai	-11.1559
patvirtintos	-11.1571
vietovės	-11.1572
būst	-11.1576
istorin	-11.1579
sutikt	-11.1603
atsakyma	-11.1607
derinim	-11.161
viešosio	-11.1612
varg	-11.1612
poli	-11.1629
neleisti	-11.1634
norm	-11.1639
reikš	-11.1653
moksliniu	-11.1664
priežast	-11.1676
kūrimą	-11.1679
tarti	-11.1679
rinkimai	-11.1684
socialiniai	-11.1701
imasi	-11.1703
dėk	-11.1718
bendruomenė	-11.1722
teigin	-11.1724
pagerė	-11.1726
rengt	-11.1744
akivaizd	-11.175
regionai	-11.1753
ypatinga	-11.1755
daliai	-11.1757
žv	-11.1763
kroatijo	-11.1771
atsinaujinančių	-11.1801
teisėtai	-11.181
irak	-11.1814
derama	-11.1823
kaina	-11.1827
atsinaujinanči	-11.1841
vertybė	-11.1842
partnerė	-11.1842
pasinaudoj	-11.1864
dina	-11.1873
įtikin	-11.1875
įsteig	-11.1885
veiksni	-11.1899
metam	-11.1909
prognoz	-11.1922
gresia	-11.1925
laikom	-11.1929
vystymas	-11.194
acqui	-11.1952
jugoslavij	-11.1952
atskaitomyb	-11.1952
lėktuv	-11.1952
aprūpinim	-11.1952
natūrali	-11.1952
prielaid	-11.1952
naujoves	-11.1952
fiskalin	-11.1953
schem	-11.1953
pasmerkt	-11.1953
trečiosios	-11.1953
pasirengim	-11.1953
žaliųjų	-11.1954
pradės	-11.1954
gėd	-11.1954
▁¦198	-11.1955
dydži	-11.1956
nelaiming	-11.1956
save	-11.1956
sujungt	-11.1956
pasisakym	-11.1957
paraišk	-11.1957
bendruomen	-11.196
tašk	-11.1965
uždavin	-11.1978
dedam	-11.1978
pažeidžiamiausi	-11.1982
juk	-11.1982
laipsniška	-11.1985
biurokratij	-11.1986
vaisi	-11.1993
išgyvena	-11.2001
nesėkm	-11.2008
kilim	-11.2009
įstojim	-11.2022
žmogišk	-11.2023
uždar	-11.2028
tobulin	-11.2029
didėjanči	-11.203
tenkina	-11.2047
darn	-11.2049
taikomų	-11.2054
gina	-11.2065
įsigaliojim	-11.2071
įvair	-11.2075
įvykiu	-11.2079
atsipraš	-11.2084
ėjusi	-11.2085
pel	-11.2087
konstitucini	-11.2102
išankstini	-11.2108
pateiktu	-11.2112
kelionė	-11.2112
rinkti	-11.2118
skirtumai	-11.2118
ilgiau	-11.2125
prisidė	-11.2125
apgint	-11.2128
užduot	-11.2134
švar	-11.2135
kanad	-11.2141
išorini	-11.2141
kontroliuojam	-11.2151
energetin	-11.2156
migracija	-11.2164
teisėt	-11.2179
susijus	-11.2192
ministre	-11.2194
sąvoka	-11.2203
smurtu	-11.2205
rado	-11.2206
įgyvendindam	-11.2206
imsi	-11.2208
suvokt	-11.2217
priklausy	-11.2218
atsinaujinančios	-11.2222
parodo	-11.2223
metodu	-11.2223
numatyto	-11.223
kortel	-11.2237
atitinkamos	-11.2246
smerk	-11.2256
nepriklausomyb	-11.2256
veiksn	-11.2257
ana	-11.2262
ppo	-11.2265
apibrėžt	-11.2265
teko	-11.227
bul	-11.2276
baud	-11.2283
laikysi	-11.2288
metinė	-11.2293
prievart	-11.2306
reik	-11.2318
valdymu	-11.2318
daugum	-11.2321
pilieti	-11.2323
dirbant	-11.2339
reikalai	-11.2343
institucini	-11.2345
teig	-11.2357
parody	-11.2369
praktik	-11.2377
suprat	-11.2381
praeiti	-11.2412
traukia	-11.2419
užima	-11.242
ekologin	-11.242
gamtos	-11.2424
įvykt	-11.2435
griežto	-11.2437
išimtin	-11.2444
avimu	-11.2448
reguliuot	-11.2449
tikėtina	-11.2451
bosnijo	-11.2452
stovykl	-11.2452
komentar	-11.2452
neatidėliotin	-11.2452
televizij	-11.2452
transatlantin	-11.2452
personal	-11.2452
aštuoni	-11.2452
gyvuli	-11.2452
prieštaring	-11.2452
grandin	-11.2452
politiška	-11.2452
apsunkin	-11.2453
ideal	-11.2453
ištirt	-11.2453
kalbėjusi	-11.2453
kūn	-11.2454
metr	-11.2454
▁¦200	-11.2457
nusprendžia	-11.2459
dvišal	-11.2459
pirmiau	-11.2461
išsaugojim	-11.2463
žaling	-11.2466
elektrinė	-11.247
tarptautiniai	-11.2472
balsuojam	-11.2477
padėjo	-11.2479
ekonomišk	-11.2491
sunkumai	-11.2492
žali	-11.2493
kilusi	-11.2493
paskirti	-11.2503
dalyvaujanči	-11.2509
įrodyt	-11.2513
privatum	-11.2513
kelios	-11.2516
gra	-11.2518
atnaujinim	-11.2518
bai	-11.2519
neatitinka	-11.252
pabrėžė	-11.2523
atitikim	-11.253
baigiant	-11.2535
priešingu	-11.2537
augal	-11.2547
konstitucijos	-11.2551
vengia	-11.2556
pasinaudodam	-11.2557
skirtinga	-11.2558
šiom	-11.2563
gyvenančių	-11.2569
tikrovė	-11.2575
miršta	-11.2576
lyn	-11.2581
griežtesni	-11.2582
gyvenam	-11.2586
pil	-11.2605
ančios	-11.2609
esanti	-11.261
derybom	-11.2612
rekomendacijos	-11.2626
avimas	-11.2633
mokam	-11.2648
jokiu	-11.2651
smerkia	-11.2653
prioritetini	-11.2671
turinčios	-11.2696
priimtos	-11.2696
iešk	-11.2708
erdvė	-11.2716
paprasta	-11.2718
grupė	-11.2731
pažiūr	-11.2749
pavaduotoj	-11.2751
jausm	-11.2754
lemiam	-11.2754
įtvirtinta	-11.2754
įdom	-11.2757
gamintoja	-11.2757
delegacija	-11.2765
neteisinga	-11.2782
tendencij	-11.2784
vertinimu	-11.2794
trūkumu	-11.2795
leidžiant	-11.2814
delegacijo	-11.2816
chartijo	-11.2822
laikanti	-11.2823
rami	-11.2834
jauni	-11.2836
amžiu	-11.2839
struktūra	-11.2839
pripažįstama	-11.2853
skirtingos	-11.2853
ilgalaikė	-11.2856
mažinam	-11.2858
pakartotin	-11.2867
steng	-11.2882
sieja	-11.289
atkreipia	-11.2891
įtikint	-11.2895
žiūrė	-11.2901
paaiškina	-11.2911
bal	-11.2912
nusikalstam	-11.2918
verting	-11.2929
pried	-11.2931
paskat	-11.2932
priimam	-11.294
atsiranda	-11.2947
tvirtina	-11.2952
blogiau	-11.2953
panašu	-11.2963
mažos	-11.297
įsipareigo	-11.2974
galing	-11.2976
pastebėj	-11.2977
administracij	-11.2979
dujotieki	-11.2979
persekiojim	-11.2979
apčiuopiam	-11.2979
draudžiama	-11.2979
drebėjim	-11.2979
informacin	-11.2979
institut	-11.2979
intervencij	-11.2979
kompensacij	-11.2979
mobilum	-11.2979
piktnaudžiavim	-11.2979
protekcionizm	-11.2979
sveikintina	-11.2979
susidoro	-11.2979
išgird	-11.2979
vėž	-11.2979
formul	-11.2979
liban	-11.2979
čekija	-11.2979
krauj	-11.298
order	-11.298
konkuruo	-11.2981
ramst	-11.2981
teisiniu	-11.2983
šimtai	-11.2983
švies	-11.2984
pagalvot	-11.2986
biologinė	-11.2986
mažinant	-11.2986
dešin	-11.2987
kanal	-11.2987
verslu	-11.2993
susidomėjim	-11.2999
varom	-11.3006
trukdyt	-11.3008
mažą	-11.3008
arkti	-11.3011
nelaim	-11.3023
pateiksi	-11.3045
pelno	-11.3045
reaguoja	-11.3058
tyv	-11.3065
dabartine	-11.3073
atitinkanči	-11.3079
vertinant	-11.3082
dalyku	-11.3085
mažina	-11.3111
lėm	-11.3123
prašoma	-11.3153
mc	-11.3157
salė	-11.3164
stamb	-11.3193
rėmim	-11.3205
rizika	-11.3208
model	-11.3211
bankai	-11.3212
kla	-11.3222
amži	-11.3238
akis	-11.3247
pasisakyt	-11.3255
lanksči	-11.3267
intensyv	-11.3273
sėd	-11.3281
sociali	-11.3284
paaiškinima	-11.3285
susipažin	-11.3295
minimal	-11.3302
trump	-11.3306
remiant	-11.3321
religini	-11.3323
priešing	-11.3326
palengvin	-11.3329
vykdomos	-11.3334
pareišk	-11.3336
apgailestau	-11.3337
pažeidimai	-11.3341
pateikia	-11.3351
sutaria	-11.3358
panaš	-11.3359
kurd	-11.336
kalbėt	-11.3375
žvejyba	-11.3383
palestino	-11.339
pse	-11.3394
reišk	-11.3397
pastebėt	-11.341
turk	-11.3411
infrastruktūra	-11.3418
perkelt	-11.3436
atleist	-11.3438
demokratiška	-11.3444
ekologišk	-11.3444
gerbiamas	-11.3466
žiūri	-11.3468
teisėto	-11.3477
siunčia	-11.3485
dvigub	-11.3501
džiaugiam	-11.3509
tarsi	-11.3527
dažniau	-11.3532
ribojim	-11.3533
dimensij	-11.3534
hercegovin	-11.3534
investuoja	-11.3534
kvalifikuot	-11.3534
nekantri	-11.3534
orientuot	-11.3534
patraukl	-11.3534
pažeist	-11.3534
represij	-11.3534
septint	-11.3534
è	-11.3534
ó	-11.3534
diegim	-11.3534
padengt	-11.3534
premij	-11.3534
įsipareigojusi	-11.3534
vadinamąj	-11.3534
aktuali	-11.3534
nuostab	-11.3535
prisiėm	-11.3535
taikydam	-11.3536
kaltinim	-11.3537
išsiaiškinti	-11.3539
išdavim	-11.3539
skurdžiausi	-11.354
galvot	-11.3542
būtinybė	-11.3543
serga	-11.3545
išraišk	-11.3549
atsitikim	-11.3574
special	-11.3575
cikl	-11.3577
ieškot	-11.358
degal	-11.3582
mokslinink	-11.3584
paminėjo	-11.3589
grupėm	-11.3596
lengvat	-11.3596
europiečiai	-11.3601
uojama	-11.361
žvejyb	-11.3612
kampanijos	-11.3616
bendruomene	-11.3621
gy	-11.3624
antrąj	-11.3624
trumpą	-11.3631
perka	-11.3635
geresnė	-11.3635
suteikiant	-11.3647
prekėm	-11.3647
nustatoma	-11.3655
nepriimtin	-11.3659
apimanči	-11.3672
pokyčiai	-11.3677
suvok	-11.3679
nereikaling	-11.3681
simboli	-11.3683
atlikus	-11.3685
;	-11.3688
bang	-11.3689
praktin	-11.3702
bandyt	-11.3703
aplinkybe	-11.3718
galiot	-11.3722
chartija	-11.3727
sąjunginink	-11.3731
situacijos	-11.3738
moldovo	-11.374
atviro	-11.3741
dyd	-11.3744
prasidė	-11.3746
valanda	-11.3752
tėv	-11.3756
skiriant	-11.3759
didėjant	-11.3759
centrinė	-11.3773
tvirtesn	-11.3782
pateiktos	-11.3788
kompetencij	-11.379
ron	-11.379
vystyti	-11.3794
teigė	-11.3797
pirmini	-11.3804
mokest	-11.3805
real	-11.3806
baigia	-11.3808
moralin	-11.381
būsima	-11.3816
proting	-11.3827
ministru	-11.3846
sugebėsi	-11.3847
cor	-11.3852
naft	-11.3854
technin	-11.3854
teismin	-11.3858
girdėj	-11.3858
pusėj	-11.3868
mint	-11.3872
sritim	-11.3872
išties	-11.3873
atsakingi	-11.3894
konferencija	-11.3916
liks	-11.3926
sąžininga	-11.3935
kilm	-11.3951
prasmė	-11.3956
bando	-11.3956
klaida	-11.3973
gars	-11.3994
gv	-11.3997
karalyst	-11.4
pasiektu	-11.401
pasauliniu	-11.401
laf	-11.4012
įmone	-11.403
gamt	-11.4036
išsivysčiusi	-11.4038
pereinam	-11.4049
pakeit	-11.4053
biurokratin	-11.4054
gerov	-11.4056
kritikuoja	-11.4065
pasiekė	-11.407
mato	-11.4072
galiojim	-11.4074
garb	-11.4075
tikimas	-11.4085
profesin	-11.4093
artėja	-11.4093
turting	-11.4097
bendradarbia	-11.4119
savę	-11.4122
atšilim	-11.4122
užuojaut	-11.4122
kaukaz	-11.4122
siaubing	-11.4122
stokholm	-11.4122
ström	-11.4122
komunist	-11.4122
nusikaltėli	-11.4122
palūkan	-11.4122
mėlyn	-11.4122
popieri	-11.4122
preke	-11.4123
martin	-11.4123
praranda	-11.4123
girdim	-11.4123
klastojim	-11.4123
darbdavi	-11.4123
gaisr	-11.4123
ginčyti	-11.4123
primena	-11.4124
ketvirtadien	-11.4124
atsakydama	-11.4124
dugn	-11.4124
haiči	-11.4126
dvejop	-11.413
valia	-11.4131
vandenyn	-11.4131
didžiąj	-11.4133
linkiu	-11.4135
skaičiavim	-11.4138
sutaupyt	-11.414
įrengini	-11.4143
audo	-11.4143
naujovišk	-11.4144
vyriausioj	-11.4154
aukštesni	-11.4156
nemokam	-11.4157
leidėj	-11.4161
apskait	-11.4161
antrą	-11.4162
atsisakym	-11.4165
bankinink	-11.4166
užtikrinanči	-11.4185
importuot	-11.4191
pasirūpint	-11.4197
veiksniai	-11.4199
bg	-11.4199
rašytinia	-11.4203
minu	-11.4207
▁¦1,	-11.4208
klo	-11.4216
tvario	-11.4216
įsitikinim	-11.4218
matom	-11.4221
amerik	-11.4222
žū	-11.4226
perkelti	-11.4245
raid	-11.4249
įstaigos	-11.4256
aiškum	-11.4258
aiškinam	-11.4264
vietov	-11.4271
sprendžiama	-11.4275
subalansuot	-11.4278
vienyb	-11.4282
atvyksta	-11.4282
hl	-11.4292
spart	-11.4294
misija	-11.43
libij	-11.4308
kolektyvini	-11.4311
kroatija	-11.4315
platesni	-11.4318
fin	-11.4329
ren	-11.4332
hol	-11.4333
sutar	-11.4335
laikai	-11.4335
įsitrauk	-11.4341
regioniniu	-11.4348
her	-11.4351
nusprendė	-11.4355
lk	-11.4378
kreipia	-11.4382
girdėjo	-11.4394
lytie	-11.4397
sumažė	-11.4399
atima	-11.44
nesąžining	-11.4404
savaitė	-11.4405
greito	-11.4416
kažka	-11.4423
derint	-11.4425
dra	-11.4429
30	-11.4434
vengti	-11.4441
krypt	-11.4477
atsižvelgiam	-11.4489
pritarta	-11.4508
valand	-11.451
veiksmingo	-11.4511
09	-11.4522
kompromisin	-11.4561
autoriu	-11.4565
spręs	-11.4566
baim	-11.4569
for	-11.4587
bendruomeni	-11.4588
struktūriniai	-11.4601
partner	-11.4617
paketu	-11.4617
prekė	-11.4621
imigracija	-11.4628
padėk	-11.4629
ateinanči	-11.4632
kaln	-11.4648
priimtin	-11.466
parlamentin	-11.4668
administracini	-11.4669
kėl	-11.4702
avusi	-11.4711
izacijos	-11.4722
prancūz	-11.4724
lankst	-11.4729
prižiūrėt	-11.4732
pažįsta	-11.4746
organizavim	-11.4747
triukšm	-11.4747
horizontal	-11.4747
prieglobst	-11.4747
pertekli	-11.4747
schulz	-11.4747
gydym	-11.4747
licencij	-11.4747
parduodam	-11.4748
eilut	-11.4748
xx	-11.4748
žaidim	-11.4748
pataisym	-11.4748
pažymi	-11.4748
pabaiga	-11.4748
chemin	-11.4748
keleri	-11.4748
reikalavo	-11.4749
įsivaizduo	-11.4749
variant	-11.475
tarpinstitucini	-11.4751
naujien	-11.4752
trečiadien	-11.4752
piršt	-11.4752
baudžiamosios	-11.4752
austrijo	-11.4752
realyb	-11.4752
▁¦31	-11.4753
▁¦28	-11.4755
įtraukiam	-11.4756
neleidžia	-11.4758
merc	-11.4764
formos	-11.4764
neturting	-11.4774
nebuvim	-11.4774
priešina	-11.4782
gavę	-11.4784
cc	-11.4786
minima	-11.4786
pasiryžim	-11.4787
avi	-11.4789
nevyriausybin	-11.4793
glaudesn	-11.4796
tėvai	-11.4797
galėdama	-11.4801
siejama	-11.4803
rodikliai	-11.4806
sukčiavimu	-11.4807
atitinkama	-11.4814
bendravim	-11.4814
gamtini	-11.4825
nepaiso	-11.4829
ketinimai	-11.4829
trečdali	-11.4837
rodikli	-11.484
svarbiau	-11.4842
suprantame	-11.4847
faktai	-11.4852
pertrauk	-11.4857
pažvelgt	-11.4867
reguliuojam	-11.4873
ženkla	-11.4879
geresne	-11.4881
pakartoti	-11.4882
didžiuoj	-11.4905
diskusijom	-11.4909
atitik	-11.491
bor	-11.4913
apibrėžta	-11.4919
siekianči	-11.4934
ginam	-11.4937
bat	-11.4942
monopolij	-11.4955
aplinkyb	-11.4959
pratęst	-11.4961
skatindam	-11.4962
savanoriška	-11.4988
pasauliu	-11.5011
atstovavim	-11.5015
ruoš	-11.5022
krant	-11.5033
uojamos	-11.5036
radikal	-11.5037
vertim	-11.5044
krikščion	-11.5048
sveiko	-11.5069
kliūt	-11.5072
kitok	-11.5083
eilė	-11.5085
pirmin	-11.5089
nepriklausomybė	-11.5093
reformuot	-11.51
įtraukim	-11.511
vadovavim	-11.511
neteising	-11.5115
stipresn	-11.5122
analizė	-11.513
žudym	-11.5132
dirbanči	-11.5139
žengia	-11.5141
pastaroj	-11.5145
surinkt	-11.515
nepritariam	-11.5153
ruošia	-11.5155
nacionaline	-11.516
tokiom	-11.5161
turėdam	-11.5165
pažangio	-11.5166
parlamentinė	-11.5173
trik	-11.5191
naujojo	-11.5199
problemom	-11.5204
katastrof	-11.5207
papildomo	-11.5209
delegacij	-11.5212
įsipareigojimai	-11.5229
vidutin	-11.5238
ateinančiu	-11.5243
turėdama	-11.5247
kūrimui	-11.5249
tikėj	-11.5253
band	-11.5264
integracija	-11.5266
kovoja	-11.5275
kartoju	-11.529
atliekama	-11.5301
naująj	-11.5312
užsien	-11.5365
konkurencin	-11.5368
atsirast	-11.5378
pripažinta	-11.5378
pareikalaut	-11.5385
vengr	-11.5392
platesn	-11.5406
tyl	-11.5411
stre	-11.5412
paryži	-11.5414
paskirstyt	-11.5414
apyvart	-11.5414
australij	-11.5414
demping	-11.5414
prasideda	-11.5414
reguliari	-11.5414
suinteresuotų	-11.5414
telefon	-11.5414
telekomunikacij	-11.5414
ö	-11.5414
škotij	-11.5414
atsispind	-11.5414
atspindėt	-11.5414
demonstracij	-11.5414
dirvožemi	-11.5414
korėja	-11.5414
nepilnameči	-11.5414
rezerv	-11.5414
studij	-11.5414
europietišk	-11.5414
mityb	-11.5414
dalyvaus	-11.5414
farmaci	-11.5414
kvieči	-11.5414
nepalankiausi	-11.5414
testavim	-11.5414
korėjo	-11.5414
būkl	-11.5414
apdair	-11.5414
pjū	-11.5414
nuosmuki	-11.5414
išaiškint	-11.5415
nurodoma	-11.5415
burg	-11.5415
marok	-11.5416
vandenili	-11.5416
tarpvyriausybin	-11.5419
liečia	-11.5419
▁¦142	-11.542
slovėnijo	-11.542
naudotoj	-11.5421
atvert	-11.5424
skyriu	-11.5427
laikoma	-11.5427
daugėja	-11.5427
mechanizmu	-11.5429
gairės	-11.5435
ratifikavo	-11.5436
priėmus	-11.5437
suderinamum	-11.544
trunka	-11.544
organizuoti	-11.544
taikiai	-11.5441
donor	-11.5442
graž	-11.5444
suvokiam	-11.5447
investavim	-11.5448
sunkiau	-11.5449
geneti	-11.5451
nežina	-11.5453
dvigubai	-11.5454
vietini	-11.5457
institucij	-11.5461
olika	-11.5462
išbandym	-11.5469
prisiima	-11.5469
kerta	-11.547
šeima	-11.547
dalyviai	-11.5472
planet	-11.5473
demokratišk	-11.5474
baigė	-11.5476
nacionaliniai	-11.5481
nesutarim	-11.5484
nukreipta	-11.5486
pajėgumu	-11.5486
treči	-11.5486
įkalin	-11.5486
teisėtum	-11.5489
auga	-11.5493
vidury	-11.5497
sumokėt	-11.5501
nepaprast	-11.5504
vertinga	-11.5524
skubiau	-11.5524
)	-11.5528
žymia	-11.5535
formuoti	-11.554
atliekant	-11.5549
dabartiniam	-11.5551
švedija	-11.5568
▁¦35	-11.5569
draud	-11.557
virt	-11.5577
grasin	-11.5582
vienoda	-11.5584
plėtojim	-11.5585
akl	-11.5594
nuoseklia	-11.5597
mirči	-11.5613
iškų	-11.5623
dvišaliu	-11.563
trim	-11.5631
steigim	-11.564
operacijos	-11.5644
buvim	-11.5646
formal	-11.5661
užmokest	-11.5667
religin	-11.5668
asamblėjo	-11.5671
aren	-11.5672
list	-11.5693
:	-11.5694
pareigos	-11.5694
didė	-11.5695
pakenk	-11.5697
perspektyva	-11.573
sutelk	-11.574
sąvok	-11.576
iššūk	-11.5762
tarpvalstybin	-11.5777
darysi	-11.5782
pusiausvyra	-11.5815
padedant	-11.5815
pakenkt	-11.5816
savaite	-11.582
vaistai	-11.5831
stabil	-11.5832
tobulint	-11.5838
bylos	-11.5873
vieningo	-11.5879
numatom	-11.59
nurodė	-11.5903
formuoja	-11.5913
teikdam	-11.5914
▁¦90	-11.5919
cz	-11.594
ekonominiam	-11.5954
įvairiai	-11.5954
skelbiam	-11.5956
pradin	-11.5956
tru	-11.597
makroekonomin	-11.5986
daryt	-11.6013
nagrinėjama	-11.6015
einant	-11.6023
vadovauja	-11.6029
nacionaliz	-11.6031
mokėtoja	-11.6041
išnaudot	-11.6055
masini	-11.607
lengv	-11.6071
nukentėj	-11.6081
įraš	-11.609
patiriam	-11.6091
spekuli	-11.6118
bau	-11.6121
gul	-11.6122
pažymėj	-11.6126
mobili	-11.6128
besivystančių	-11.6128
diktatori	-11.6128
eksploatavim	-11.6128
infliacij	-11.6128
išplėtim	-11.6128
orientacij	-11.6128
palydov	-11.6128
prevencin	-11.6128
privilegij	-11.6128
statykl	-11.6128
suverenum	-11.6128
barselono	-11.6128
biodegal	-11.6128
daržov	-11.6128
juodkalnijo	-11.6128
kompensuo	-11.6128
novatorišk	-11.6128
prieštaraut	-11.6128
respublika	-11.6128
vokieči	-11.6128
ü	-11.6128
kankinim	-11.6128
restruktūrizavim	-11.6128
banan	-11.6128
reglamentuojanči	-11.6128
stabilizavim	-11.6128
gynėj	-11.6128
išsilavinim	-11.6129
moderni	-11.6129
viršūn	-11.6129
neramum	-11.6129
egf	-11.6129
dunoj	-11.6129
gelbėjim	-11.6129
nagrinėjim	-11.6129
abipusiškum	-11.6129
tikėki	-11.6129
pasirinko	-11.6129
įvaikinim	-11.6129
vadinamoj	-11.6129
plačiajuos	-11.6129
grob	-11.613
atsilieka	-11.613
maloni	-11.6131
▁¦2002	-11.6131
ramsči	-11.6131
žav	-11.6131
įtraukiant	-11.6131
žiauri	-11.6132
pasirengt	-11.6132
laivyn	-11.6132
stebina	-11.6132
vežėj	-11.6133
klient	-11.6133
atrank	-11.6134
viešąj	-11.6136
logiška	-11.6137
geopolitin	-11.6138
ankstesnio	-11.6138
įstatymai	-11.6139
▁¦29	-11.614
plenariniam	-11.6142
mažosios	-11.6143
investicijom	-11.6143
didėjim	-11.6145
išsiųst	-11.6147
rodyt	-11.6147
žinodam	-11.6148
mag	-11.6157
aktyviau	-11.6159
aids	-11.616
žodin	-11.6163
lytin	-11.6165
nesugebėjo	-11.6176
nepalankio	-11.6177
gebėt	-11.618
būsi	-11.6184
keliaut	-11.6194
teik	-11.6205
sukčiavim	-11.6207
prezidentu	-11.6207
negalėjo	-11.6223
imeri	-11.6224
roj	-11.6227
teroristai	-11.6229
tūkstančiai	-11.6231
gruzija	-11.6234
the	-11.6242
ūky	-11.6244
elektroninė	-11.6257
neatsakinga	-11.6259
rūpina	-11.6266
skatinanči	-11.6268
gad	-11.6269
kalbėdam	-11.6273
pacientai	-11.6275
ribota	-11.628
jungia	-11.6288
priklausoma	-11.6294
galvoja	-11.6294
temos	-11.6294
ex	-11.6297
komercin	-11.63
byla	-11.6301
/2010	-11.6305
talo	-11.6309
temp	-11.631
nuoširdži	-11.6318
rengim	-11.6321
atstovaujama	-11.6327
prarast	-11.633
nutraukim	-11.6335
vizit	-11.6336
vokietija	-11.6353
baisi	-11.6353
greičiausi	-11.6357
ūkininkavim	-11.6362
vartoja	-11.6367
rusij	-11.6373
karinė	-11.6378
panašiai	-11.6386
nuoroda	-11.6404
auganči	-11.6414
balsuos	-11.6419
planuojam	-11.6427
tikėjim	-11.6429
ekonominiai	-11.643
mari	-11.6431
prisijung	-11.6449
klausyti	-11.6469
▁¦300	-11.6471
siųst	-11.6472
visum	-11.6486
bendroj	-11.6503
augant	-11.6513
esančios	-11.6516
paremta	-11.653
vyrai	-11.6531
dingst	-11.6532
aiškiau	-11.6542
administracinė	-11.6544
mokė	-11.6553
ketvirt	-11.656
laukiant	-11.659
dyti	-11.6601
tinkamum	-11.6604
poreikiai	-11.6605
asamblėj	-11.6608
išplėst	-11.6611
atskirt	-11.6622
lietuvo	-11.6624
techninė	-11.6636
nemat	-11.6639
nuosavyb	-11.6644
dabartiniu	-11.6646
dalyti	-11.6648
nedelsdam	-11.665
siūlyti	-11.6655
gaminti	-11.6666
),	-11.667
žala	-11.6698
skaidr	-11.6719
tarptautiniam	-11.6726
nuorod	-11.6731
kalbėdama	-11.6744
prevencija	-11.6745
atrod	-11.6766
skelbti	-11.6781
stengiam	-11.6786
prisimint	-11.6788
nink	-11.6789
imant	-11.6796
pageidauja	-11.6797
jaunimu	-11.6802
įgyvendinamo	-11.6819
profesional	-11.6822
staiga	-11.6824
bijo	-11.6825
sprend	-11.683
prasidėjus	-11.6834
bra	-11.6838
likt	-11.6838
diegt	-11.6848
kalbėsi	-11.686
tvirtino	-11.6871
ryšiu	-11.6872
deram	-11.6882
tiesioginė	-11.6887
ček	-11.6894
ignoruo	-11.6896
racional	-11.6896
klausym	-11.6897
redakcij	-11.6898
apytikri	-11.6898
atmosfer	-11.6898
atšaukt	-11.6898
diskriminuo	-11.6898
dvidegin	-11.6898
inicijuot	-11.6898
integravim	-11.6898
koncentracij	-11.6898
liūdna	-11.6898
mokytoj	-11.6898
palestinieči	-11.6898
pražūting	-11.6898
privačia	-11.6898
privačios	-11.6898
proporcingum	-11.6898
iškraipym	-11.6898
konkurent	-11.6898
pavėluot	-11.6898
suinteresuota	-11.6898
išdėstyti	-11.6898
sekretoriat	-11.6898
valdžią	-11.6898
žiniasklaida	-11.6898
prieštaravim	-11.6898
vakcin	-11.6898
liberalizuot	-11.6898
pagreitint	-11.6898
gatvė	-11.6898
santuok	-11.6898
slovėnija	-11.6898
tragišk	-11.6898
lobist	-11.6898
slovakija	-11.6898
suverenitet	-11.6898
susidurt	-11.6898
palankesn	-11.6898
skausm	-11.6898
gynim	-11.6898
prilygs	-11.6898
sudarant	-11.6898
centralizuot	-11.6898
aktualu	-11.6898
atlant	-11.6898
suomij	-11.6898
įspėjim	-11.6899
paragino	-11.6899
pasirašiusi	-11.6899
autobus	-11.6899
manuel	-11.6899
išlaisvint	-11.6899
dinamišk	-11.6899
apžvalg	-11.6899
pirmininkavusi	-11.69
pakak	-11.69
reglamentuojama	-11.69
budr	-11.69
burt	-11.6901
čad	-11.6901
pamatysi	-11.6901
kaltinam	-11.6902
švent	-11.6902
brok	-11.6903
2001	-11.6903
nesuderinam	-11.6904
doho	-11.6904
rajon	-11.6905
nusteb	-11.6905
nubaust	-11.6905
būdinga	-11.6906
smuk	-11.6907
visuotinė	-11.6907
skaud	-11.6908
drausm	-11.6908
valdanči	-11.6909
plačiau	-11.6912
susirinkim	-11.6913
naujajam	-11.6915
žvejot	-11.6918
pasidžiaug	-11.6918
kūrėj	-11.692
pirmadien	-11.6921
klaidinga	-11.6922
reikėj	-11.6926
patek	-11.6929
nvieno	-11.693
vystomoj	-11.693
siūlym	-11.693
aktyvist	-11.6932
sulaikym	-11.694
niam	-11.6941
nerimauj	-11.6942
kely	-11.6942
kirst	-11.6945
vežam	-11.6946
mann	-11.6953
ribojam	-11.6961
atvirum	-11.6961
atsitiktin	-11.6961
nešališk	-11.6963
puoselėja	-11.6967
nuspręsta	-11.6967
kairi	-11.697
cb	-11.6971
paband	-11.6975
apibrėžia	-11.6978
paminėta	-11.6985
pareiškė	-11.6998
fd	-11.7001
pasikeitė	-11.7003
panaudoj	-11.7008
išsivysčiusios	-11.701
patekim	-11.7026
pritariama	-11.7033
apribojimai	-11.7039
stipriai	-11.704
leidžianči	-11.7053
makro	-11.7055
diskutuo	-11.7077
aiškesn	-11.7087
prievarta	-11.7089
tobulinim	-11.7093
kančia	-11.71
alternatyva	-11.7101
padidėjim	-11.7153
pakartoj	-11.7164
būki	-11.7167
šiandienini	-11.7167
tvirta	-11.7173
lietuv	-11.7179
teror	-11.7184
andr	-11.7187
tendencija	-11.7194
kategori	-11.7195
rengiama	-11.7198
rytinė	-11.7201
nepripažįsta	-11.7203
taikytina	-11.7212
nagrinėja	-11.7214
nusikaltimai	-11.7237
milijonu	-11.7239
praleist	-11.725
šaltin	-11.726
darbin	-11.7282
pagerin	-11.7288
oriai	-11.7298
prieinama	-11.7326
nuosekl	-11.7339
baigsi	-11.7355
paskelbim	-11.7366
dėking	-11.7396
keičiant	-11.7397
kontroliuoja	-11.7416
atnaujin	-11.7446
demokratinė	-11.7452
netiesiogi	-11.7453
grąžin	-11.7463
išankstin	-11.7465
konstitucin	-11.747
vyriausybėm	-11.7474
norėdam	-11.7475
teisėta	-11.7492
kompromisu	-11.7505
mažėjim	-11.7523
skelbia	-11.7536
religija	-11.7563
vež	-11.7584
skyrė	-11.7589
graikij	-11.7594
dvasi	-11.7598
atgaivin	-11.7617
tran	-11.7621
pamiršta	-11.7653
rūpinti	-11.7659
pakeis	-11.7669
keliauja	-11.7674
balsuodam	-11.7682
sustabd	-11.7696
akivaizdži	-11.7705
mąstym	-11.7705
taupyt	-11.7706
serb	-11.7707
rumun	-11.7711
dimas	-11.7713
atskleid	-11.7731
futbol	-11.7731
latvijo	-11.7731
pilietyb	-11.7731
diagnoz	-11.7731
gamykl	-11.7731
imperialistin	-11.7731
spektr	-11.7731
í	-11.7731
žaidyn	-11.7731
akimirk	-11.7731
augintoj	-11.7731
bažnyči	-11.7731
besivystančia	-11.7731
diktatūr	-11.7731
direktori	-11.7731
ekstremist	-11.7731
neapykant	-11.7731
olimpin	-11.7731
pasiruošę	-11.7731
privačioj	-11.7731
propagand	-11.7731
stygi	-11.7731
įsikišt	-11.7731
amerikieči	-11.7731
reaktori	-11.7731
įpareigojim	-11.7731
pasibaigus	-11.7731
stavr	-11.7731
suinteresuoti	-11.7731
georg	-11.7731
sunkvežimi	-11.7731
vystant	-11.7731
gvinėj	-11.7731
kalbėjau	-11.7731
panaikinus	-11.7731
palaipsni	-11.7731
konservatori	-11.7731
tranzit	-11.7731
atsidavim	-11.7731
perdirbim	-11.7731
vėliav	-11.7731
įpareigot	-11.7731
alzh	-11.7731
statut	-11.7731
indija	-11.7731
užteršt	-11.7731
susilpnint	-11.7731
daikt	-11.7732
atokiausi	-11.7732
siuntim	-11.7732
atveria	-11.7732
▁¦2003	-11.7732
atskleist	-11.7732
kontakt	-11.7732
pateisina	-11.7732
mandat	-11.7733
sausumo	-11.7733
ignoruojam	-11.7734
svyravim	-11.7734
normali	-11.7734
baudžiamojo	-11.7734
susirūpinę	-11.7737
akmen	-11.7738
patobulinim	-11.7738
atominės	-11.7739
pateisint	-11.774
pareikalavo	-11.774
pakrantė	-11.774
taikytin	-11.7742
prašytoj	-11.7745
įgij	-11.7745
atleidim	-11.7746
somal	-11.7749
kandidatės	-11.7749
sacharov	-11.7753
jausti	-11.7754
padėsiant	-11.7754
vilk	-11.7755
trišali	-11.7758
apsirūpinim	-11.7772
aplinkoje	-11.7772
šūki	-11.7774
sužinoj	-11.7775
pamatyt	-11.7778
atskait	-11.778
elektrini	-11.7782
kitokia	-11.7785
kreipė	-11.7792
išduot	-11.7795
stiprinama	-11.7796
pabrėžta	-11.7798
kainuoja	-11.7799
platinim	-11.78
siunčiama	-11.7806
pagirtin	-11.7824
nacionalinėm	-11.7826
rašytin	-11.7828
gyvenanti	-11.7841
pašalin	-11.7856
saugojim	-11.7858
,3	-11.7863
dvasia	-11.7868
laimėjima	-11.7871
užtikrinam	-11.7876
mokestini	-11.7888
klausiau	-11.7888
diskutuoja	-11.7907
stebima	-11.7916
vedant	-11.7923
sumanym	-11.7927
abipus	-11.793
tapatybė	-11.7945
italij	-11.7947
katastrofa	-11.7959
italija	-11.7967
punkta	-11.7969
tiekėj	-11.7981
baimė	-11.7993
jemen	-11.7998
nutraukta	-11.8006
paremt	-11.8015
absurdiška	-11.8034
plot	-11.8053
griežta	-11.8062
rodikliu	-11.8067
kitokio	-11.8074
sisteminga	-11.8077
pritarė	-11.8088
struktūrin	-11.8111
con	-11.8114
atvira	-11.8118
ukrain	-11.8121
41	-11.8123
norma	-11.8129
sugebės	-11.814
sakydama	-11.815
stoko	-11.8156
fon	-11.8156
minči	-11.8171
griežtesnė	-11.8183
garant	-11.8209
vienbalsia	-11.8217
galinči	-11.8273
organizuoja	-11.8275
veiksniu	-11.8281
prisimena	-11.8325
kolektyvin	-11.8351
vietinė	-11.8366
artimiausiu	-11.8369
nesąžininga	-11.8372
sukurs	-11.838
užmiršt	-11.8391
kaup	-11.8447
pavadin	-11.8447
pasirinkta	-11.8451
sukčiavima	-11.8453
nepaisy	-11.8476
atsitikt	-11.8476
laimėjim	-11.8489
siekė	-11.8509
akci	-11.8521
likus	-11.8533
pagirti	-11.8539
privalė	-11.8557
išlaikyt	-11.8561
puoselė	-11.8563
kritiška	-11.8567
referent	-11.8573
laipsn	-11.8577
pasiteisin	-11.8589
derinama	-11.8601
grįst	-11.8609
plėsti	-11.8622
vyrauja	-11.8623
nesilaiky	-11.8626
šešėlin	-11.8636
konstatuojam	-11.8636
gaivinim	-11.8638
atomin	-11.8639
viršutin	-11.864
individual	-11.864
persekiojam	-11.864
ženevo	-11.864
deleguot	-11.864
gydytoj	-11.864
kompensavim	-11.864
nuolaid	-11.864
reagavim	-11.864
barnier	-11.864
belgija	-11.864
cukra	-11.864
darfūr	-11.864
doleri	-11.864
goldston	-11.864
gyvulininkystė	-11.864
incident	-11.864
jurisdikcij	-11.864
koridori	-11.864
medicino	-11.864
neutrali	-11.864
niujork	-11.864
nuogąstavim	-11.864
nusiteikę	-11.864
rasizm	-11.864
užmegzt	-11.864
įpareigojanči	-11.864
išryškin	-11.864
kapitalizm	-11.864
sąmoninga	-11.864
įsipareigoję	-11.864
atstum	-11.864
pasikliau	-11.864
revoliucij	-11.864
praradim	-11.864
nuodugnia	-11.864
patikinti	-11.864
vartoti	-11.864
paaiškėj	-11.864
tajani	-11.864
atotrūk	-11.864
automati	-11.864
afrika	-11.864
marž	-11.864
koloni	-11.864
kankūn	-11.864
žalojim	-11.864
trumpalaiki	-11.864
sugriežtint	-11.8641
gerinant	-11.8641
skandal	-11.8641
laivybo	-11.8641
valdyb	-11.8642
įvertino	-11.8642
▁¦1990	-11.8643
raket	-11.8644
šešėliniam	-11.8645
nužudyt	-11.8646
apklaus	-11.8646
dalyvavusi	-11.8647
įranki	-11.8647
tvarią	-11.8648
mąsta	-11.8649
neįtikėtin	-11.8649
susirūpinusi	-11.865
pavieni	-11.865
girdėt	-11.865
gėdinga	-11.865
susitaikym	-11.8651
vyksiant	-11.8653
pirmosios	-11.8653
pakop	-11.8654
▁¦32	-11.8655
nuosav	-11.8657
mašin	-11.8658
primest	-11.8661
skirs	-11.8662
paraš	-11.8663
žada	-11.8664
klausiu	-11.8666
pavasar	-11.8668
prisitaiky	-11.8669
mokslin	-11.8669
sustabdym	-11.8669
audit	-11.8672
popiet	-11.8676
tikrąj	-11.8677
garbing	-11.8681
parems	-11.8683
gaunama	-11.8689
siekiu	-11.8689
balsuodama	-11.8694
pristatym	-11.8695
zimbabvė	-11.8707
referenta	-11.8707
formavim	-11.8716
paskelbė	-11.8722
rėmėj	-11.8724
statistiniai	-11.8726
pateikiant	-11.8726
namuos	-11.8733
pažeidžiama	-11.8743
konkurencingumu	-11.8747
paplit	-11.875
apriboj	-11.8761
pataisa	-11.8767
laišk	-11.879
naujosiom	-11.8812
daugiametė	-11.8824
muitinė	-11.8837
platform	-11.8838
išsamesn	-11.8842
nepasieks	-11.8848
pabrėžiam	-11.8853
sulaukt	-11.8855
sekund	-11.886
rze	-11.8862
nepriklausomum	-11.8864
tvirtinama	-11.8881
aplinkybė	-11.8889
spręsdam	-11.8892
priimdama	-11.8906
eilini	-11.891
pasielg	-11.8921
ologin	-11.8923
pastatyt	-11.8942
versti	-11.8945
stovi	-11.8961
priežastimi	-11.8967
▁¦196	-11.8991
eiga	-11.9001
blogesn	-11.9004
trečioj	-11.9031
hama	-11.904
užsiimt	-11.9052
laikymas	-11.9053
ateinančia	-11.9059
baigiam	-11.9063
statyti	-11.9074
pasitiki	-11.9104
tvirtinti	-11.9106
skelb	-11.9109
sirijo	-11.9113
laikytų	-11.9113
pasinaudo	-11.9119
supras	-11.9121
pripažint	-11.9154
draugišk	-11.9158
keista	-11.9188
?	-11.9206
sušvelnint	-11.9232
planuojama	-11.924
pakran	-11.9242
36	-11.9251
drąsia	-11.9251
vokietij	-11.926
demokratiniam	-11.931
mažumom	-11.9311
žvalg	-11.9316
apsiribot	-11.9323
apgailestauja	-11.9343
norinči	-11.9369
simbolin	-11.9372
subalansuota	-11.9375
x	-11.9406
tapatyb	-11.9407
izrael	-11.9429
pasikeit	-11.9431
paskutinė	-11.9444
suinteresuotos	-11.9446
norėdama	-11.9447
pasitaik	-11.9457
moksliniam	-11.946
remt	-11.9467
nčiais	-11.9478
valstybini	-11.9491
matyt	-11.9495
nustatė	-11.9502
statistini	-11.9546
krov	-11.9556
artima	-11.957
naujovėm	-11.9575
naudodami	-11.9585
atstovaujam	-11.9585
paslaugom	-11.9595
dalini	-11.9605
rašyta	-11.9611
tenkint	-11.9631
atsinaujin	-11.9637
serbij	-11.9637
obligacij	-11.9639
bėd	-11.964
mauritanij	-11.964
užsibrėž	-11.964
▁¦2014	-11.964
autonomij	-11.964
baltarusija	-11.964
diskutavo	-11.964
federacij	-11.964
koalicij	-11.964
kompiuter	-11.964
konvergencij	-11.964
kruopščia	-11.964
liuksemburg	-11.964
madagaskar	-11.964
modifikuot	-11.964
musulmon	-11.964
nykim	-11.964
propaguoja	-11.964
suvaržym	-11.964
sąmoningum	-11.964
venesuelo	-11.964
visokeriop	-11.964
ambasad	-11.964
chemikal	-11.964
cunami	-11.964
ekstremali	-11.964
kūrybiškum	-11.964
rūpesči	-11.964
ä	-11.964
žmogžudys	-11.964
apgaul	-11.964
gaivalin	-11.964
smūg	-11.964
sustiprins	-11.964
užsitikrint	-11.964
apkaltint	-11.964
civilizacij	-11.964
klaidinanči	-11.964
modernizuot	-11.964
paneigt	-11.964
piratavim	-11.964
grupuotė	-11.964
atsidurt	-11.964
bruožai	-11.964
japonija	-11.964
progres	-11.964
apibendrint	-11.964
pasenusi	-11.964
vyresnio	-11.964
šalutin	-11.964
kraštutin	-11.964
išbris	-11.964
detali	-11.964
obama	-11.9641
jaunuoli	-11.9641
susidurs	-11.9641
nustatydam	-11.9641
read	-11.9641
trečiąj	-11.9641
lošim	-11.9641
euroobligacij	-11.9641
patikinim	-11.9641
įsidarbin	-11.9642
sąsaj	-11.9642
įvardyt	-11.9642
prižiūri	-11.9643
įproči	-11.9643
sumažino	-11.9644
pirmuosiu	-11.9644
galiojant	-11.9645
sukels	-11.9646
atskyrim	-11.9647
saugesni	-11.9647
paliekam	-11.9647
sukūrė	-11.9649
1999	-11.965
kosmos	-11.965
vaising	-11.9652
bedarbi	-11.9653
pateisinama	-11.9654
graf	-11.9654
valdytoj	-11.9655
perskaityt	-11.9656
pilna	-11.9657
žymėt	-11.9658
pragyvenim	-11.9659
apsisprendim	-11.966
įsikišim	-11.9663
pasiųst	-11.9664
vykdys	-11.9667
importuojam	-11.9675
žymėjim	-11.9682
artėjanči	-11.9692
įlanko	-11.9703
kroatij	-11.9703
plenarinė	-11.9707
pagaminta	-11.9708
vertybini	-11.9709
pasirašym	-11.971
pasisteng	-11.9719
mažesnė	-11.9733
atkaklia	-11.9737
tikrinam	-11.9755
taikomu	-11.9758
manim	-11.9766
nuvyk	-11.9766
prieinamum	-11.977
prisimin	-11.9773
sukuriama	-11.9781
ginčij	-11.9784
krit	-11.9799
tikslinga	-11.9837
politinėm	-11.9862
džiaugia	-11.9868
padalin	-11.9876
asociacij	-11.9885
koordinuo	-11.9891
teikianči	-11.9892
nuspręs	-11.9924
gh	-11.9932
britanij	-11.995
kaimynini	-11.9964
mintimi	-11.9982
geografinė	-11.9991
riboja	-11.9992
griežtesn	-12.0027
atak	-12.0038
supaprastin	-12.0058
prašydam	-12.0062
rinkini	-12.0076
von	-12.008
atsargia	-12.0083
didžiulė	-12.0092
atspi	-12.0108
karšt	-12.0111
bauda	-12.0133
tvaria	-12.0145
parengiam	-12.0148
teikt	-12.0154
38	-12.0168
pasitelkia	-12.0176
pavyzdin	-12.0197
įtamp	-12.0227
tėvyst	-12.0236
anamo	-12.0275
praėj	-12.0315
išorin	-12.0321
padidinim	-12.0325
nepasikarto	-12.0336
pritrauk	-12.0342
užtikrindam	-12.0349
fizi	-12.035
domina	-12.0356
ankstesnia	-12.0358
63	-12.0358
pastov	-12.0375
elektr	-12.0392
generalin	-12.041
prieštarauj	-12.0414
žvelgiant	-12.0464
šalinim	-12.0544
surengta	-12.0551
nuostatom	-12.0564
integruota	-12.0567
sušvelnin	-12.0573
olog	-12.0573
kartoja	-12.0611
atkakl	-12.0645
piktnaudžiau	-12.0662
įprastin	-12.0666
grąž	-12.0692
kovojam	-12.0692
vyriausi	-12.0695
mąstyt	-12.0696
chartij	-12.0701
atžvilgi	-12.0715
atstovauj	-12.072
alban	-12.0724
kreipiama	-12.0728
stabilizuot	-12.0738
skaityt	-12.0739
greiči	-12.0746
suvokia	-12.0746
ă	-12.0751
dėsty	-12.0751
aklavietė	-12.0751
pastraip	-12.0751
7/200	-12.0751
akcentuot	-12.0751
apgailėtin	-12.0751
apygard	-12.0751
epidemij	-12.0751
fragment	-12.0751
gaminama	-12.0751
higien	-12.0751
kalbėję	-12.0751
klysta	-12.0751
konsultavim	-12.0751
liudininkai	-12.0751
mergait	-12.0751
nusivylim	-12.0751
paradoksal	-12.0751
puolim	-12.0751
sinergij	-12.0751
trokšta	-12.0751
troškim	-12.0751
ugdym	-12.0751
advokat	-12.0751
azartini	-12.0751
biurokratizm	-12.0751
claud	-12.0751
energetika	-12.0751
grūd	-12.0751
harbour	-12.0751
informavo	-12.0751
komponent	-12.0751
maksimal	-12.0751
maršrut	-12.0751
nusiteikusi	-12.0751
standartizuot	-12.0751
totalitarin	-12.0751
drabuži	-12.0751
dramatišk	-12.0751
griauna	-12.0751
koordinatori	-12.0751
nutukim	-12.0751
realistišk	-12.0751
socialdemokrat	-12.0751
stereotip	-12.0751
tvarkarašči	-12.0751
aprėpt	-12.0751
interpretuo	-12.0751
ketveri	-12.0751
pradėjus	-12.0751
varikli	-12.0751
lyderė	-12.0751
autorė	-12.0751
islandijo	-12.0751
raund	-12.0751
wall	-12.0751
išdėstyta	-12.0751
slypi	-12.0751
byloja	-12.0751
klestėjim	-12.0751
atskleidžia	-12.0751
žaidėj	-12.0751
pagyvenusi	-12.0751
įsigyt	-12.0751
matydama	-12.0751
tbt	-12.0751
kryž	-12.0751
film	-12.0751
scenarij	-12.0751
devyni	-12.0751
išminting	-12.0751
basein	-12.0751
orlaivi	-12.0751
plinta	-12.0752
pasižymi	-12.0752
rompu	-12.0752
kongres	-12.0752
stichin	-12.0752
atstatym	-12.0752
sergančių	-12.0752
patenkinama	-12.0752
besąlygiška	-12.0752
pataisyt	-12.0752
eurojust	-12.0753
karjer	-12.0753
atlygint	-12.0753
flor	-12.0753
apsilank	-12.0753
teršėj	-12.0753
suvienyt	-12.0753
tabak	-12.0753
▁!"	-12.0753
prarado	-12.0753
svajo	-12.0753
trisdešimt	-12.0753
tėvyn	-12.0753
važiuo	-12.0754
susigrąžint	-12.0754
bls	-12.0754
žinut	-12.0754
išreiškiama	-12.0754
mafij	-12.0755
veid	-12.0755
pador	-12.0756
sukaupt	-12.0756
spėjam	-12.0756
atsiliep	-12.0756
grafik	-12.0757
pirmininknutrauk	-12.0758
neturtingiausi	-12.0759
vadinamų	-12.0759
tarpvalstybinė	-12.076
sekretoriu	-12.076
palinkė	-12.0761
▁¦48	-12.0761
jaustų	-12.0762
vidin	-12.0762
religinės	-12.0763
ištikusi	-12.0763
blogiausia	-12.0763
virst	-12.0763
sausr	-12.0764
rasmus	-12.0766
▁¦55	-12.0766
spekuliacijo	-12.0768
brit	-12.0769
vienija	-12.0769
nikos	-12.077
nurodym	-12.077
nabu	-12.0775
receptini	-12.0775
buvein	-12.078
įtempt	-12.0781
įvairiausi	-12.0787
reiškiniu	-12.0792
skyl	-12.0792
patyrusi	-12.0794
diplomatij	-12.0795
pasirodyt	-12.0798
lankstesn	-12.08
katastrofišk	-12.0804
gyvenanči	-12.0806
padaugė	-12.0806
baust	-12.0808
gėj	-12.0814
pasakydama	-12.0819
vengrij	-12.082
grąžinam	-12.0822
naujovė	-12.0825
europiniu	-12.0826
pigiau	-12.0834
piktnaudžiauja	-12.0841
reaguodam	-12.0847
kliūtimi	-12.0856
parengusi	-12.0891
kritišk	-12.0909
atgaivinim	-12.0909
terš	-12.0937
suinteresuotosio	-12.0972
skolinim	-12.0994
atidaryt	-12.1004
global	-12.1025
išsivystym	-12.1049
šaltiniu	-12.1059
atsargum	-12.1066
pasirinkt	-12.1077
danga	-12.1092
patraukt	-12.1096
privert	-12.11
aptarsi	-12.1106
kvota	-12.1111
iškesn	-12.1123
pramonini	-12.1124
efektyvesn	-12.1166
įtaria	-12.1177
pasikartot	-12.1184
sąžiningesn	-12.1199
tautom	-12.1218
akcij	-12.122
garantuoja	-12.122
kortelė	-12.1262
strateg	-12.1276
atsiras	-12.1366
priklausomybė	-12.1366
pildy	-12.14
tvarking	-12.1429
elektronin	-12.143
susitelkt	-12.1439
apsisaugo	-12.144
apsiribo	-12.1471
organizacijom	-12.1486
visuomenini	-12.149
teigdama	-12.151
išnaudojim	-12.1523
kirt	-12.155
perdavima	-12.1556
(	-12.1567
pasisakom	-12.16
suformuot	-12.1649
metimai	-12.1693
atsilik	-12.1699
priėmėm	-12.1738
daugiamet	-12.1751
mokini	-12.1758
įsiskolin	-12.1763
).	-12.1775
gerąj	-12.1834
paisom	-12.1843
pirmininkauja	-12.1872
veiksmingesnė	-12.1872
stengė	-12.1924
rašoma	-12.1931
senėja	-12.1949
metal	-12.1957
judė	-12.196
sacharo	-12.1967
kišimas	-12.1974
diskriminacin	-12.1985
savyb	-12.1996
viršija	-12.2001
federali	-12.2001
7-02	-12.2001
izoliuot	-12.2001
išdėstytu	-12.2001
absoliuči	-12.2001
atvirkš	-12.2001
detales	-12.2001
disbalans	-12.2001
filosofij	-12.2001
imunitet	-12.2001
kenksming	-12.2001
komitologij	-12.2001
pageidautina	-12.2001
pažabot	-12.2001
profesij	-12.2001
proporcinga	-12.2001
recesij	-12.2001
susiklosčius	-12.2001
tolerancij	-12.2001
toleruoti	-12.2001
traktori	-12.2001
transplant	-12.2001
adekvat	-12.2001
almuni	-12.2001
dvylik	-12.2001
formuluotė	-12.2001
išbraukt	-12.2001
konsolidavim	-12.2001
kurstym	-12.2001
kūdik	-12.2001
laikrašči	-12.2001
moratorium	-12.2001
nehumanišk	-12.2001
oettinger	-12.2001
pandemij	-12.2001
pasitenkinim	-12.2001
sukilėli	-12.2001
universal	-12.2001
verhofstadt	-12.2001
žiaurum	-12.2001
atspaud	-12.2001
aukcion	-12.2001
diegian	-12.2001
direktorat	-12.2001
medicinin	-12.2001
memorandum	-12.2001
optimist	-12.2001
penkiasdešimt	-12.2001
sąvartyn	-12.2001
drambli	-12.2001
dviprasmišk	-12.2001
pasėli	-12.2001
reagavo	-12.2001
aplankyt	-12.2001
skaitytuv	-12.2001
spekuliacija	-12.2001
sužeist	-12.2001
barjer	-12.2001
weber	-12.2001
pradėdam	-12.2001
solv	-12.2001
kareivi	-12.2001
psichi	-12.2001
biliet	-12.2001
pasipriešinim	-12.2001
poilsi	-12.2001
rehn	-12.2001
sukrėt	-12.2001
griuv	-12.2001
atsigavim	-12.2001
deginim	-12.2001
nusistatym	-12.2001
globėj	-12.2001
palyginam	-12.2001
išmetanči	-12.2001
madeiro	-12.2001
kvail	-12.2002
palyginim	-12.2002
savivaldyb	-12.2002
padrąsin	-12.2002
senyv	-12.2002
nigerij	-12.2002
vadovaudam	-12.2002
mišri	-12.2002
rūkym	-12.2002
remont	-12.2002
seminar	-12.2002
vykdydam	-12.2002
santrauk	-12.2002
užsitęs	-12.2002
vienašališka	-12.2002
eurostat	-12.2002
skland	-12.2003
peter	-12.2003
alyv	-12.2003
ligonin	-12.2003
hans	-12.2003
meninink	-12.2003
pekin	-12.2003
tiria	-12.2003
neginčija	-12.2004
pakom	-12.2005
nesugebėjim	-12.2005
įdarbinim	-12.2005
tikėdam	-12.2005
viešuosiu	-12.2005
robert	-12.2005
apmokėt	-12.2007
derli	-12.2007
klost	-12.2007
tolimoj	-12.2008
ginkluoti	-12.2008
įžeidima	-12.2009
šimtų	-12.201
suplanuota	-12.201
bach	-12.2012
sudarius	-12.2012
žaist	-12.2012
streik	-12.2014
tarnauja	-12.2015
vienkartin	-12.2016
konfidencialum	-12.2019
tolimesn	-12.2023
atrodyt	-12.2024
krikščionišk	-12.2029
albanijo	-12.2032
paplitusi	-12.2033
abort	-12.2033
atstovaujanti	-12.2035
skirsni	-12.2041
atvėrim	-12.2044
nesiima	-12.2049
programom	-12.205
naudojanči	-12.2052
uždarym	-12.2067
prievartavim	-12.2069
pareikalau	-12.2069
atsirandanči	-12.2079
estijo	-12.2079
pakviest	-12.2089
pasikeitim	-12.2094
pasiteisinim	-12.21
minutė	-12.2119
netikėt	-12.212
dingusi	-12.2121
profesionalia	-12.2128
tinkamesn	-12.2131
iškelta	-12.2139
naudingum	-12.215
dosn	-12.2159
pavadint	-12.2163
senėjim	-12.2164
skleist	-12.2169
atstatyt	-12.2171
gaunanči	-12.2171
kariuomenė	-12.2186
pasidalyt	-12.2189
radikalia	-12.2197
ateinant	-12.222
nepaisydam	-12.2241
įžvelg	-12.2266
ribojanči	-12.2271
kaupia	-12.2278
teroristini	-12.2282
kabin	-12.2283
paul	-12.2293
paleist	-12.2295
patenkin	-12.2315
garsia	-12.2323
nustot	-12.2354
bulgarij	-12.2377
pasitrauk	-12.2377
išsiskyr	-12.2379
vertindam	-12.2398
nelik	-12.2403
atkreipki	-12.2415
apsispręst	-12.2444
pasikeist	-12.2446
mažom	-12.2448
paaiškin	-12.2506
traukti	-12.2553
intensyvia	-12.2576
neįvyk	-12.2579
galutiniam	-12.2589
susitelk	-12.2597
anduo	-12.2666
turkij	-12.2704
kandida	-12.2711
moral	-12.2723
vietovė	-12.277
aukštesn	-12.2781
grindži	-12.2809
2006	-12.285
2008	-12.2858
žadėt	-12.2867
moldov	-12.2897
absurdišk	-12.2915
vf	-12.3002
neeilin	-12.3033
susidaryt	-12.307
darydam	-12.3108
žvelgt	-12.3124
plitim	-12.322
plėtot	-12.3281
taikyt	-12.3295
mokom	-12.3328
pasiryž	-12.3336
blogėja	-12.3375
pažeid	-12.3385
raiško	-12.3391
klesti	-12.3396
slovak	-12.3407
vedim	-12.3412
išsiaiškin	-12.3418
uoliai	-12.3426
pasidalijim	-12.343
abchazij	-12.343
aikštelė	-12.343
civilizuot	-12.343
dizain	-12.343
kalendori	-12.343
kibernetin	-12.343
profesor	-12.343
ugnikalni	-12.343
&	-12.343
akademini	-12.343
bakterij	-12.343
deklaruot	-12.343
deportacij	-12.343
dislokuo	-12.343
energing	-12.343
falsifikuot	-12.343
ferrero	-12.343
genocid	-12.343
globalizuot	-12.343
ideologij	-12.343
instrument	-12.343
išryškėj	-12.343
konsensus	-12.343
ksenofobij	-12.343
logistik	-12.343
ląstel	-12.343
ministerij	-12.343
mitchell	-12.343
mobilizuoti	-12.343
navigacij	-12.343
organizacini	-12.343
organizavo	-12.343
patogumu	-12.343
pragmatišk	-12.343
protestuotoj	-12.343
sekmadien	-12.343
sunkiasvor	-12.343
watson	-12.343
šveicarija	-12.343
žudyn	-12.343
atsiduria	-12.343
demagogi	-12.343
ideologini	-12.343
nesusipratim	-12.343
norvegij	-12.343
optimiz	-12.343
slepia	-12.343
verheugen	-12.343
baltyming	-12.343
biometrini	-12.343
demonstrant	-12.343
fiksuot	-12.343
išklausysi	-12.343
nekilnojamo	-12.343
neutralum	-12.343
sertifikavim	-12.343
šaudmen	-12.343
modernizavim	-12.343
nutolusi	-12.343
užkertant	-12.343
sustiprino	-12.343
mažesnį	-12.343
riebal	-12.343
ugando	-12.343
cohn	-12.343
michel	-12.343
santaup	-12.343
sueigo	-12.343
sugriaut	-12.343
suklastot	-12.343
wald	-12.343
viešajam	-12.343
švaistyt	-12.343
atidarym	-12.343
tarpininkavim	-12.343
sužlugdyt	-12.343
skamba	-12.343
samprat	-12.343
sklandžia	-12.343
sutrikim	-12.343
įsisavin	-12.343
tinklalap	-12.343
gydyti	-12.343
kintanči	-12.343
thom	-12.343
ypatum	-12.343
magreb	-12.343
suvienij	-12.343
diev	-12.343
bendit	-12.343
postūm	-12.343
svori	-12.343
šimtu	-12.343
ginkluotų	-12.343
ignorav	-12.343
pigesn	-12.343
adres	-12.343
susirinkusi	-12.343
centraliz	-12.3431
padėdam	-12.3431
bendradarbiavo	-12.3431
padvigubė	-12.3431
užduoči	-12.3431
išvardyt	-12.3431
nuramin	-12.3431
užpildyt	-12.3431
montavim	-12.3431
įgyja	-12.3431
pokalbi	-12.3432
pablogėj	-12.3432
įtarim	-12.3432
reikalaudam	-12.3432
neįgalių	-12.3432
pensinink	-12.3433
netikrum	-12.3434
cituoj	-12.3435
traktuo	-12.3435
perdėta	-12.3436
skirdam	-12.3437
tobula	-12.3437
atstovaut	-12.3438
pavirši	-12.3438
sunkiausia	-12.3438
suvienodin	-12.3443
užsienieči	-12.3444
požymi	-12.3446
savarankiškum	-12.3449
papildym	-12.345
patarim	-12.3451
baudžiamąj	-12.3452
karali	-12.3453
nustatanči	-12.3455
vienuolik	-12.3459
maišt	-12.346
david	-12.346
keturiasdešimt	-12.3468
ung	-12.3469
išleidžiam	-12.3469
kasdieniam	-12.3471
nuosprendži	-12.3473
kiekybi	-12.3487
aprūpint	-12.3498
biurokrat	-12.3499
laukianči	-12.3519
keičianči	-12.3521
armij	-12.3526
prognozuojam	-12.3527
tebesitęsia	-12.3528
padedanči	-12.354
pamąsty	-12.3548
pirmaut	-12.3551
pasiūlė	-12.3561
reikalaujanči	-12.3582
delsim	-12.3595
pereinamoj	-12.3619
jungianči	-12.3628
sakydam	-12.3656
sustiprė	-12.3666
suvokim	-12.3692
diskutuodam	-12.3711
laukinė	-12.3727
savarankišk	-12.3747
užsidirbt	-12.3781
grįžim	-12.3797
rengini	-12.3839
senosio	-12.3849
žlugim	-12.3869
viešum	-12.3914
šiandieninė	-12.392
visuomeninė	-12.3967
ieškodam	-12.3982
atlikdam	-12.3985
laisvoj	-12.4001
greitesn	-12.4012
stumti	-12.4031
svarbesn	-12.4081
portugalij	-12.4111
nacionalist	-12.4154
vienbalsi	-12.4154
pasitikėt	-12.4175
reikalauj	-12.4182
rack	-12.4204
išvystyt	-12.4313
skaitom	-12.4346
teisingesn	-12.4373
pakalbė	-12.4514
laikymą	-12.4529
monopoli	-12.4534
švedij	-12.4577
stinga	-12.4618
kopenhag	-12.4669
kurdam	-12.4685
veng	-12.4713
azij	-12.477
perskait	-12.4819
žuvininkyst	-12.4833
kariuomen	-12.485
žemesn	-12.4876
artimoj	-12.4941
zimbabv	-12.497
kviesti	-12.4978
vystom	-12.5023
siūlydam	-12.5056
produktyv	-12.5061
iškreipt	-12.5075
žeidim	-12.508
skaitym	-12.5081
laiminga	-12.5087
dubli	-12.5087
ginanči	-12.5089
geležin	-12.5092
skaitė	-12.5092
glob	-12.5095
lavinim	-12.5096
atgrasy	-12.5096
dominuojanči	-12.5096
eksploatacij	-12.5096
garcí	-12.5096
iliuzij	-12.5096
infekcij	-12.5096
koeficient	-12.5096
lampedūz	-12.5096
moldavij	-12.5096
orientacin	-12.5096
pasibaisėtin	-12.5096
pornografij	-12.5096
pralaimi	-12.5096
provokuo	-12.5096
publik	-12.5096
suinteresuotom	-12.5096
truput	-12.5096
akcentuojam	-12.5096
apibendrindama	-12.5096
azerbaidžan	-12.5096
aštuoneri	-12.5096
bankrutav	-12.5096
berlusconi	-12.5096
brutali	-12.5096
dirvožemį	-12.5096
dyzelin	-12.5096
emocij	-12.5096
fischer	-12.5096
gabenim	-12.5096
hierarchij	-12.5096
išnykt	-12.5096
išsilavinusi	-12.5096
jacques	-12.5096
kabotaž	-12.5096
konstrukcij	-12.5096
konsultuojama	-12.5096
kraštovaizdži	-12.5096
laboratorij	-12.5096
likvidum	-12.5096
liudija	-12.5096
lukašenko	-12.5096
nuotrauk	-12.5096
pademonstruot	-12.5096
painiav	-12.5096
propaguot	-12.5096
radioaktyvių	-12.5096
reinfeldt	-12.5096
reputacij	-12.5096
richard	-12.5096
rinkliav	-12.5096
schwab	-12.5096
separatist	-12.5096
septyneri	-12.5096
specifikacij	-12.5096
tannock	-12.5096
totalitarizm	-12.5096
traukini	-12.5096
žaizd	-12.5096
atidėlioj	-12.5096
besiformuojančio	-12.5096
diskriminavim	-12.5096
dislokavim	-12.5096
egzistav	-12.5096
ketvirči	-12.5096
konserv	-12.5096
kvepia	-12.5096
moduli	-12.5096
netoleruotina	-12.5096
pasiruošusi	-12.5096
protekcionist	-12.5096
saryusz	-12.5096
skalūn	-12.5096
ukrainieči	-12.5096
vadinamosios	-12.5096
dangu	-12.5096
dešimči	-12.5096
kalėd	-12.5096
kandidatūr	-12.5096
lūž	-12.5096
mobilizavim	-12.5096
muziko	-12.5096
neatsiejama	-12.5096
rekord	-12.5096
stumiam	-12.5096
subtil	-12.5096
černobyl	-12.5096
nukrypima	-12.5096
apmokestint	-12.5096
elgsen	-12.5096
madrid	-12.5096
neliečiamum	-12.5096
puslapi	-12.5096
teheran	-12.5096
versija	-12.5096
išdėstyto	-12.5096
agysl	-12.5096
galėję	-12.5096
papasakot	-12.5096
neatskiriama	-12.5096
peratyv	-12.5097
švaistym	-12.5097
parish	-12.5097
priartė	-12.5097
technik	-12.5097
užtekt	-12.5097
įstojus	-12.5097
medviln	-12.5097
pretekst	-12.5097
apskaičiuot	-12.5097
švenči	-12.5097
individ	-12.5097
bioduj	-12.5097
momenta	-12.5097
išvestini	-12.5097
leinen	-12.5097
atidėjim	-12.5097
skraidy	-12.5097
skambi	-12.5097
įstojo	-12.5097
pažeidėj	-12.5097
john	-12.5097
neapsiriboja	-12.5097
susiejim	-12.5097
geostrategin	-12.5097
maitinim	-12.5097
nežmonišk	-12.5097
nuvyl	-12.5097
išaiškėj	-12.5097
didžiaja	-12.5097
nuosaik	-12.5098
padėsianči	-12.5098
patikslint	-12.5098
paliekant	-12.5098
patogia	-12.5098
sąžinė	-12.5098
kvietim	-12.5098
vyriausiaja	-12.5098
5/200	-12.5098
patriot	-12.5098
nedeklaruojama	-12.5098
perduodam	-12.5099
formalum	-12.5099
owle	-12.5099
prekiaut	-12.51
ikimokyklin	-12.51
emocin	-12.5101
ordon	-12.5102
nusiaub	-12.5102
žaliąj	-12.5104
vykdytoja	-12.5104
konstatuojamąj	-12.5104
perduosi	-12.5104
sudaranči	-12.5104
nuteist	-12.5105
dubliavim	-12.5106
reguliuotoj	-12.5107
geriamo	-12.5108
komunikacij	-12.5113
plačiąj	-12.5117
atsiskaity	-12.512
asbest	-12.5124
skirstom	-12.5128
viešie	-12.5129
produktyvum	-12.5133
klestinči	-12.5136
prižiūrėtoj	-12.5146
funkcini	-12.5147
stabilizacij	-12.5152
žalioj	-12.5166
patikėt	-12.517
intensyvesn	-12.5175
liudyt	-12.5202
kritini	-12.5208
apei	-12.5217
viršyt	-12.5224
prisiminkim	-12.5265
kontroliav	-12.53
atstovaujanči	-12.5335
ekologiškesn	-12.5392
leisdam	-12.5397
tenkanči	-12.549
faktini	-12.5542
remianči	-12.5602
ekonomi	-12.5631
praktišk	-12.5649
valgyti	-12.5676
reaguo	-12.5689
stovė	-12.5721
prisimen	-12.5738
diplomat	-12.5768
išnaudoj	-12.5853
nužud	-12.5866
laikinoj	-12.595
aptardam	-12.6046
vidutinišk	-12.618
tvaresn	-12.6335
rašyti	-12.6379
uždang	-12.6494
laikymus	-12.6646
atrast	-12.6647
reguliuoja	-12.6658
vystymu	-12.6707
vietom	-12.6715
rastum	-12.675
pamači	-12.6795
paprastesn	-12.6833
dalyvav	-12.6834
investav	-12.6988
imtumė	-12.6998
susidomėj	-12.7014
laikytum	-12.7049
gruzij	-12.706
rašytoj	-12.7061
našum	-12.7065
skurdžia	-12.7075
didindam	-12.7076
sekretor	-12.708
pageidau	-12.7092
šimtmeči	-12.7094
einančia	-12.7095
natūr	-12.7096
6-04	-12.7096
6-00	-12.7096
ambicij	-12.7096
dalyvaudam	-12.7096
kambodžo	-12.7096
kolumbijo	-12.7096
lygiaverti	-12.7096
apgyvendint	-12.7096
funkcionavim	-12.7096
instancij	-12.7096
katalog	-12.7096
klasifikavim	-12.7096
logotip	-12.7096
naudodamasi	-12.7096
nusivylusi	-12.7096
nykstanči	-12.7096
pažvelki	-12.7096
persikėlim	-12.7096
pozityv	-12.7096
prerogatyv	-12.7096
provokacij	-12.7096
susiskaldym	-12.7096
ć	-12.7096
įšaldyt	-12.7096
▁¦2009-201	-12.7096
antibiotik	-12.7096
aptarinėjam	-12.7096
atsekamum	-12.7096
atsistatydin	-12.7096
ß	-12.7096
!	-12.9161
ú	-12.9596
°	-12.9596
ń	-12.9596
ţ	-12.9596
q	-13.2788
ê	-13.293
ł	-13.293
ň	-13.293
ķ	-13.293
à	-13.293
ç	-13.793
ż	-13.793
·	-13.793
ñ	-13.793
ý	-13.793
ő	-14.7922
ï	-14.7923
ø	-14.7924
[	-14.7925
ş	-14.7926
+	-14.7927
'	-14.7928
%	-14.7929
ī	-14.793
]	-14.793
_	-14.793
ò	-14.793
ľ	-14.793
ś	-14.793
̨	-14.793
έ	-14.793
π	-14.793
ρ	-14.793
υ	-14.793
”	-14.793
•	-14.793
7	-14.793
ř	-14.793
