<pad>	0
</s>	0
<unk>	0
ܐ	-2.89545
▁ܡܢ	-4.07184
▁ܕ	-4.30728
▁ܕܝܢ	-4.3131
▁ܠܐ	-4.32209
▁ܘ	-4.32353
▁ܗܘ	-4.36949
▁ܠܗ	-4.4064
ܝܢ	-4.42332
▁	-4.52338
▁ܗܘܐ	-4.58528
▁ܐܢܐ	-4.66483
ܢ	-4.74618
ܘ	-4.81247
ܗ	-4.84211
▁ܓܝܪ	-4.86795
▁ܥܠ	-4.98631
▁ܐܡܪ	-4.9876
ܘܢ	-4.98783
▁ܝܫܘܥ	-5.11921
▁ܐܝܟ	-5.12791
▁ܠܗܘܢ	-5.15594
▁ܗܘܘ	-5.17599
▁ܘܠܐ	-5.19686
▁ܐܢܬܘܢ	-5.20814
▁ܠ	-5.22682
▁ܐܠ	-5.22956
▁ܟܕ	-5.25576
▁ܕܠܐ	-5.26389
▁ܘܐܡܪ	-5.29468
ܬ	-5.3374
▁ܠܟܘܢ	-5.35178
▁ܐܦ	-5.35563
▁ܡܛܠ	-5.39173
▁ܕܐܠܗܐ	-5.48915
ܝܠܝܢ	-5.53534
▁ܐ	-5.54362
▁ܐܢܬ	-5.62235
▁ܒ	-5.63456
▁ܐܠܗܐ	-5.65472
▁ܗܝ	-5.65856
▁ܗܢܐ	-5.68978
▁ܗ	-5.69463
▁ܚܕ	-5.69697
ܬܐ	-5.71586
▁ܐܢܘܢ	-5.73386
▁ܐܢ	-5.73884
▁ܗܠܝܢ	-5.75222
▁ܠܝ	-5.75681
▁ܘܟܕ	-5.79887
ܢܐ	-5.81234
ܝ	-5.83881
ܘܗܝ	-5.85405
▁ܡܫܝܚܐ	-5.86175
▁ܡܕܡ	-5.86775
▁ܒܗ	-5.90952
▁ܐܢܫ	-5.95835
▁ܐܝܬ	-6.01944
▁ܘܡܢ	-6.04859
ܟܘܢ	-6.05823
▁ܗܕܐ	-6.0818
ܠܐ	-6.08405
ܟܝܠ	-6.08964
▁ܐܘ	-6.09038
▁ܗܢܘܢ	-6.11931
▁ܟܠ	-6.12555
▁ܠܟ	-6.12924
▁ܕܡܢ	-6.14155
▁ܥܡ	-6.16523
▁ܠܢ	-6.25503
▁ܘܐܢ	-6.32042
▁ܠܘܬ	-6.33807
▁ܐܬܐ	-6.36982
▁ܗܘܬ	-6.3803
ܡܐ	-6.38828
▁ܕܐܝܬ	-6.39869
▁ܤܓܝܐܐ	-6.42628
ܝܬ	-6.44815
▁ܝܕܥ	-6.46146
▁ܗܟܢܐ	-6.47218
▁ܩܕܡ	-6.4959
ܟ	-6.49645
▁ܡܐ	-6.52012
▁ܟܠܗܘܢ	-6.53107
▁ܓܒܪܐ	-6.53683
▁ܚܢܢ	-6.5661
▁ܒܝܬ	-6.56716
▁ܢܗܘܐ	-6.57565
▁ܪܘܚܐ	-6.57932
▁ܘܠ	-6.59548
▁ܥܕ	-6.60286
▁ܐܝܟܢ	-6.61725
▁ܒܪ	-6.6182
▁ܘܐܡܪܝܢ	-6.6282
▁ܡ	-6.63785
▁ܠܐܠܗܐ	-6.66228
▁ܬܡܢ	-6.69433
▁ܥܒܕ	-6.70749
▁ܟܠܗ	-6.71838
ܘܬܐ	-6.72374
▁ܕܐܢ	-6.72602
▁ܐܡܪܝܢ	-6.74193
▁ܬ	-6.74832
▁ܗܘܝܬ	-6.78022
▁ܢ	-6.78204
ܗܘܢ	-6.8193
▁ܘܥܠ	-6.82354
▁ܘܕ	-6.85332
▁ܡܢܗ	-6.85939
▁ܥܠܘܗܝ	-6.86547
▁ܡܢܐ	-6.86676
ܕܝܢ	-6.87827
▁ܐܡܝܢ	-6.88119
▁ܬܘܒ	-6.88164
▁ܕܐܦ	-6.88447
▁ܠܡ	-6.90068
ܝܐ	-6.90069
▁ܡܠܬܐ	-6.90468
▁ܐܙܠ	-6.90637
▁ܒܪܗ	-6.9067
▁ܕܐܡܪ	-6.91039
▁ܘܐ	-6.91694
▁ܕܗܘ	-6.96092
▁ܘܒ	-6.96359
ܕܡܐ	-6.96669
▁ܠܝܬ	-6.9714
▁ܐܢܫܐ	-6.99958
▁ܗܫܐ	-7.01098
▁ܐܝܢ	-7.01652
▁ܥܡܗ	-7.02483
▁ܘܐܝܬ	-7.03013
▁ܘܗܘ	-7.03387
▁ܐܚܝ	-7.03885
ܘܤ	-7.04387
▁ܡܢܗܘܢ	-7.04392
▁ܕܝܫܘܥ	-7.04619
▁ܝܗܘܕܝܐ	-7.04732
▁ܥܒܕܐ	-7.04999
▁ܗܘܝܬܘܢ	-7.0695
▁ܝܕܥܝܢ	-7.07346
▁ܐܚܪܢܐ	-7.07997
▁ܒܢܝ	-7.08745
▁ܫܡܝܐ	-7.09345
▁ܡܪܝ	-7.09668
▁ܡܫܟܚ	-7.10254
▁ܚܙܐ	-7.10926
▁ܘܐܦ	-7.12272
▁ܢܡܘܤܐ	-7.13382
▁ܕܥܒܕ	-7.13745
▁ܥܢܐ	-7.14666
▁ܕܐ	-7.15094
▁ܥ	-7.15531
▁ܡܝܬܐ	-7.15576
▁ܠܒܪ	-7.15899
▁ܫܡܥܘܢ	-7.16573
▁ܦܘܠܘܤ	-7.16608
▁ܡܢܟܘܢ	-7.17198
▁ܟܢܫܐ	-7.1731
▁ܬܠܡܝܕܘܗܝ	-7.17518
▁ܟܗܢܐ	-7.17612
ܐܝܬ	-7.17765
▁ܐܪܥܐ	-7.18036
▁ܕܢ	-7.18119
▁ܠܘܬܗ	-7.19684
▁ܚܝܐ	-7.20509
▁ܒܬܪ	-7.20558
▁ܢܦܫܗ	-7.20626
▁ܡܪܢ	-7.20658
▁ܪܒ	-7.22383
▁ܪܒܐ	-7.23489
▁ܕܡܪܢ	-7.24436
▁ܘܟܠ	-7.25132
▁ܨܒܐ	-7.25478
▁ܟܐܦܐ	-7.26071
▁ܝܬܝܪ	-7.26156
▁ܥܡܗܘܢ	-7.27313
▁ܐܢܬܬܐ	-7.27409
▁ܡܕܝܢܬܐ	-7.28609
▁ܕܡܫܝܚܐ	-7.29283
▁ܚܕܐ	-7.2936
▁ܕܐܬܐ	-7.29922
ܬܘܢ	-7.30105
▁ܐܝܬܘܗܝ	-7.30171
▁ܝܗܒ	-7.30329
▁ܡܪܝܐ	-7.3119
▁ܒܟܘܢ	-7.31772
▁ܡܠܐܟܐ	-7.31938
▁ܗܘܝ	-7.32075
▁ܐܒܐ	-7.32917
ܝܗܘܢ	-7.33996
▁ܕܐܝܬܘܗܝ	-7.34124
▁ܕܐܢܫܐ	-7.34332
▁ܢܒܝܐ	-7.34671
▁ܠܘܬܟܘܢ	-7.35302
▁ܠܡܢ	-7.35586
ܕܐ	-7.35846
▁ܡܢܘ	-7.35904
▁ܕܒ	-7.36196
▁ܘܗ	-7.36627
▁ܕܒܗ	-7.38078
▁ܒܠܚܘܕ	-7.38146
▁ܕܥܠ	-7.38438
▁ܕܩܘܕܫܐ	-7.38971
▁ܕܡ	-7.39906
▁ܟܠܗܝܢ	-7.41281
▁ܕܡܪܝܐ	-7.41701
ܗܢܘܢ	-7.41741
ܢܝ	-7.41779
▁ܢܦܩ	-7.42043
▁ܡܡܠܠ	-7.42518
▁ܒܝ	-7.43016
▁ܕܠܡܐ	-7.44225
▁ܐܝܕܐ	-7.4426
▁ܡܠܟܐ	-7.44818
▁ܘܐܬܐ	-7.45401
▁ܥܡܐ	-7.46068
▁ܪܒܝ	-7.46363
ܝܘܗܝ	-7.46439
▁ܥܠܝܗܘܢ	-7.48431
▁ܩܪܒ	-7.4863
▁ܙܒܢܐ	-7.48835
▁ܕܟܠ	-7.49323
▁ܬܗܘܐ	-7.49835
▁ܫܡܥ	-7.52039
▁ܐܒܝ	-7.52488
ܝܗܝ	-7.52727
▁ܬܪܝܢ	-7.52979
ܬܗ	-7.53136
▁ܠܚܕ	-7.53462
▁ܒܥܐ	-7.53662
▁ܚܠܦ	-7.54331
▁ܠܝܫܘܥ	-7.55207
▁ܒܟܠ	-7.55384
▁ܝܘܡܬܐ	-7.55407
▁ܡܠܐ	-7.55846
▁ܒܗܝܡܢܘܬܐ	-7.5644
▁ܥܠܡܐ	-7.57433
▁ܕܥܠܡܐ	-7.57976
ܒܐ	-7.58977
▁ܛܒܐ	-7.59264
▁ܚܙܘ	-7.60764
▁ܒܝܕ	-7.60787
▁ܘܐܝܟ	-7.62235
▁ܘܗܘܐ	-7.63756
ܝܕܝܢ	-7.65112
▁ܡܬ	-7.66152
▁ܕܠܥܠܡ	-7.67936
▁ܒܝܫܬܐ	-7.68109
▁ܬܠܡܝܕܐ	-7.68279
▁ܒܗܘܢ	-7.68537
▁ܘܡ	-7.6854
▁ܘܐܙܠ	-7.68688
▁ܩܡ	-7.68821
▁ܩܕܝܫܐ	-7.69244
ܝܢܢ	-7.69249
▁ܗܘܝܢ	-7.69478
▁ܕܠ	-7.69519
▁ܗܝܡܢܘܬܐ	-7.69845
▁ܘܝܗܒ	-7.70046
▁ܥܡܡܐ	-7.70196
▁ܐܬܘ	-7.702
▁ܕܬ	-7.71067
▁ܠܚܡܐ	-7.71868
▁ܕܚܕ	-7.72016
▁ܥܠܝܟܘܢ	-7.72124
▁ܤܓܝ	-7.7224
▁ܥܡܟܘܢ	-7.72372
▁ܕܡܐ	-7.72525
▁ܒܢܝܢܫܐ	-7.72674
▁ܢܤܒ	-7.72993
▁ܛܝܒܘܬܐ	-7.73267
▁ܐܚܐ	-7.73405
▁ܝܘܚܢܢ	-7.74231
ܤ	-7.74329
▁ܕܐܝܟ	-7.74464
▁ܨܒܝܢ	-7.75511
▁ܫܡܥܘ	-7.75563
ܠܝܢ	-7.75657
▁ܠܥܠܡ	-7.75852
▁ܩܕܡܝܐ	-7.75936
ܡ	-7.76216
▁ܘܒܪ	-7.76331
▁ܒܪܢܫܐ	-7.76546
▁ܒܢ	-7.77007
▁ܛܒ	-7.77056
▁ܒܫܡܝܐ	-7.77357
▁ܕܢܗܘܐ	-7.77546
▁ܘܐܬܘ	-7.77785
▁ܝܘܡܐ	-7.78568
▁ܢܗܘܘܢ	-7.78691
▁ܠܐܘܪܫܠܡ	-7.79243
▁ܕܝܗܒ	-7.79246
▁ܐܢܝܢ	-7.79623
▁ܟܡܐ	-7.79684
▁ܥܠܝ	-7.7969
▁ܡܠܟܘܬܐ	-7.79779
▁ܗܢܘ	-7.80138
▁ܠܡܐ	-7.80168
▁ܩܠܐ	-7.80554
▁ܒܥܝܢ	-7.80591
ܡܬܝ	-7.80914
▁ܕܫܡܝܐ	-7.81038
▁ܕܝܗܘܕܝܐ	-7.81464
▁ܒܝܫܐ	-7.8179
▁ܘܢܦܩ	-7.82915
▁ܬܪܥܐ	-7.8306
▁ܕܟܬܝܒ	-7.83577
▁ܠܗܘ	-7.83853
ܫܐ	-7.84022
ܝܟܘܢ	-7.84505
▁ܒܢܝܐ	-7.84574
▁ܕܟܕ	-7.84618
▁ܥܒܕܝܢ	-7.85779
ܪܐ	-7.86107
▁ܥܡܝ	-7.86148
▁ܒܟܠܗ	-7.86174
▁ܕܫܡܗ	-7.86355
▁ܠܓܒܪܐ	-7.86474
▁ܛܒܬܐ	-7.86708
▁ܘܩܡ	-7.86791
▁ܦܪܝܫܐ	-7.86835
▁ܒܪܘܚܐ	-7.8706
▁ܦܐܪܐ	-7.87278
▁ܕܝܠܝ	-7.87463
▁ܡܫܟܚܝܢ	-7.87922
▁ܐܤܝܪܐ	-7.87957
▁ܠܘܩܕܡ	-7.88181
▁ܫܘ	-7.88927
▁ܒܬܪܗ	-7.8902
▁ܦܝܠܛܘܤ	-7.90116
▁ܢܦܠ	-7.9021
▁ܢܚܬ	-7.90267
▁ܡܘܫܐ	-7.90319
ܢܗܘܘܢ	-7.91879
▁ܤܓܝܐܬܐ	-7.92142
▁ܕܐܪܥܐ	-7.92487
▁ܚܛܝܬܐ	-7.92506
▁ܕܗܘܐ	-7.9326
▁ܚܕܬܐ	-7.93376
▁ܟܬܒܐ	-7.93399
▁ܩܠܝܠ	-7.94421
▁ܫܪܒܬ	-7.94436
▁ܪܫܐ	-7.94864
▁ܪܒܬܐ	-7.94892
ܗܢܐ	-7.95656
▁ܟܬܝܒ	-7.95938
▁ܘܡܛܠ	-7.95945
▁ܟܠܢܫ	-7.96063
▁ܘܝ	-7.96791
▁ܡܗܝܡܢ	-7.97122
▁ܥܒܪ	-7.97558
▁ܠܥܠ	-7.979
▁ܒܝܘܡ	-7.98017
▁ܝܘܡܝܢ	-7.98212
▁ܫܠܝܚܐ	-7.98257
▁ܦܘܩܕܢܐ	-7.98551
▁ܐܝܠ	-7.98757
▁ܫܦܝܪ	-7.98795
▁ܡܗܝܡܢܐ	-7.98919
▁ܐܝܬܝܗܘܢ	-7.9908
▁ܘܐܡܪܘ	-7.99109
ܝܗ	-7.99442
▁ܐܡܪܬ	-7.99522
▁ܠܒܝܬ	-7.99843
▁ܕܚܝܐ	-8.00027
▁ܫܠܝܛ	-8.00128
▁ܒܡܪܢ	-8.00375
▁ܫܪܝܪܐ	-8.00461
ܡܕܡ	-8.0107
▁ܫܠܡܐ	-8.0237
▁ܫܒܩ	-8.02835
ܝܢܐ	-8.03312
▁ܡܘܬܐ	-8.03387
ܝܬܐ	-8.03633
▁ܕܪܘܚ	-8.03702
ܢܘܢ	-8.03757
ܕܠܐ	-8.03825
▁ܫܢܝܢ	-8.04575
▁ܘܒܗ	-8.05356
▁ܕܡܬܩܪ	-8.06037
▁ܩܕܝܡ	-8.06585
▁ܘܬܘܒ	-8.06642
▁ܫܡܗ	-8.06721
▁ܐܝܕܗ	-8.06783
▁ܠܥܠܡܐ	-8.06839
▁ܝܡܐ	-8.07179
▁ܤܒܪ	-8.07291
▁ܠܟܠܗܘܢ	-8.0746
ܕ	-8.07486
▁ܪܡܐ	-8.07768
▁ܒܪܘܚ	-8.08423
▁ܫܘܠܛܢ	-8.08584
▁ܝܬܝܪܐ	-8.08788
▁ܐܘܠܕ	-8.08858
▁ܕܒܝܬ	-8.08867
▁ܤܠܩ	-8.09252
▁ܟܠܡܕܡ	-8.09519
▁ܐܝܬܝܗ	-8.09651
▁ܕܪܒ	-8.09696
▁ܫܒܥܐ	-8.09696
▁ܘܟܠܗ	-8.09928
▁ܒܚܕ	-8.10179
▁ܘܚܕ	-8.10525
▁ܚܝ	-8.10669
▁ܠܬܠܡܝܕܘܗܝ	-8.11297
▁ܘܐܬ	-8.11314
▁ܡܝܐ	-8.11743
▁ܕܡܝܐ	-8.12147
▁ܩܘܡ	-8.12266
▁ܐܡܪܘ	-8.12369
ܟܝ	-8.12382
▁ܘܫܪܝ	-8.1266
▁ܬܚܝ	-8.13058
▁ܥܕܬܐ	-8.13179
▁ܕܥܬܝܕ	-8.13364
▁ܫܠܡ	-8.13368
▁ܬܪܥܤܪ	-8.13484
▁ܫܐܠ	-8.13547
▁ܒܐܪܥܐ	-8.13672
▁ܕܗܠܝܢ	-8.1444
▁ܙܒܢܝܢ	-8.14908
▁ܘܫܕܪ	-8.15606
▁ܦܓܪܐ	-8.15617
▁ܫܪܝ	-8.15843
▁ܕܒܫܡܝܐ	-8.16005
▁ܐܝܤܪܝܠ	-8.16073
▁ܒܟܠܙܒܢ	-8.16348
▁ܒܐܝܕܗ	-8.16636
▁ܘܥܡ	-8.16825
ܕܠܝܬ	-8.16826
▁ܬܗܘܘܢ	-8.1693
▁ܥܬܝܕ	-8.17043
▁ܢܦܫܟ	-8.17879
ܗܫܐ	-8.18174
V	-8.18503
▁ܒܡܫܝܚܐ	-8.18539
▁ܠܡܐܡܪ	-8.18589
▁ܙܒܢ	-8.1859
ܪܘܚܐ	-8.18676
▁ܒܫܡܗ	-8.18894
▁ܝܬܒ	-8.19024
▁ܒܝܫܘܥ	-8.19029
▁ܠܟܠ	-8.19101
ܐܢܬܘܢ	-8.19357
▁ܩܐܡ	-8.19384
▁ܘܥܒܕ	-8.19563
▁ܡܠܠ	-8.2004
▁ܟܠܟܘܢ	-8.20365
▁ܠܘܩܒܠ	-8.20841
ܟܐܦܐ	-8.20936
▁ܒܗܝܟܠܐ	-8.21091
▁ܠܦܘܠܘܤ	-8.21209
▁ܘܦܩܕ	-8.21273
▁ܫܥܬܐ	-8.21449
ܡܪܐ	-8.21475
▁ܫܕܪ	-8.21912
▁ܕܢܐܬ	-8.22015
▁ܡܠܦ	-8.22016
▁ܐܬ	-8.22839
▁ܘܒܬܪ	-8.22979
▁ܚܝܠܐ	-8.23022
▁ܩܪܐ	-8.23129
▁ܕܝܠܗ	-8.23163
▁ܐܘܪܫܠܡ	-8.23739
▁ܢܬܠ	-8.23935
▁ܗܪܟܐ	-8.24078
▁ܠܐܢܫ	-8.24133
▁ܝܕܥܝܢܢ	-8.24181
▁ܘܢ	-8.2424
▁ܕܡܘܬܐ	-8.24311
▁ܠܡܕܝܢܬܐ	-8.24353
▁ܐܬܪܐ	-8.24828
▁ܗܝܡܢܘ	-8.25283
▁ܐܬܝܬ	-8.25404
▁ܡܝܬ	-8.2588
▁ܤܦܪ	-8.26227
▁ܠܡܥܒܕ	-8.26453
▁ܘܚܙܐ	-8.2655
▁ܠܟܢܫܐ	-8.26726
▁ܥܝܢ	-8.26748
ܟܠܗܘܢ	-8.26751
ܬܪܬܝܢ	-8.26851
▁ܡܩܒܠ	-8.26935
▁ܐܝ	-8.27057
▁ܡܪܝܡ	-8.2777
▁ܕܐܢܬ	-8.28117
▁ܠܘܬܝ	-8.2849
▁ܨܒܝܢܗ	-8.29084
▁ܕܐܝܬܝܗ	-8.29089
▁ܒܫܠܡܐ	-8.29201
▁ܒܐܦܐ	-8.29244
▁ܕܨܒ	-8.29277
▁ܒܐܘܪܚܐ	-8.29326
▁ܐܚܘܗܝ	-8.29596
▁ܐܠܘ	-8.29737
▁ܬܠܬ	-8.30289
▁ܕܐܢܫ	-8.3037
▁ܚܘܒܐ	-8.30687
▁ܚܙܝܢ	-8.30693
ܗܕܐ	-8.30858
▁ܫܐܠܘ	-8.31509
▁ܬܠܬܐ	-8.31877
▁ܒܪܡ	-8.32026
▁ܕܡܡܠܠ	-8.32132
▁ܢܦܫܝ	-8.3219
▁ܪܫܗ	-8.32223
ܝܬܘܢ	-8.32249
▁ܒܪܝ	-8.32299
▁ܕܢܡܘܤܐ	-8.32393
▁ܐܟܠ	-8.32626
▁ܐܠܦܝܢ	-8.32781
▁ܢܫܐ	-8.33666
ܚܝܘܬܐ	-8.33915
▁ܘܩܪܐ	-8.34191
▁ܘܐܚܪܢ	-8.34509
ܠ	-8.34683
ܡܚܕܐ	-8.34683
▁ܫܥܬܗ	-8.35036
▁ܕܒܢܝܢܫܐ	-8.35091
▁ܠܘܬܗܘܢ	-8.3516
▁ܕܝܠܟܘܢ	-8.3543
▁ܦܩܕ	-8.3543
▁ܩܝܡܝܢ	-8.35618
▁ܡܠܦܢܐ	-8.35824
▁ܩܫܝܫܐ	-8.35836
▁ܬܫܒܘܚܬܐ	-8.36158
▁ܘܢܗܘ	-8.3622
▁ܒܗܕܐ	-8.36222
▁ܘܐܙܠܘ	-8.36527
ܝܟ	-8.36529
▁ܠܝܘܡ	-8.36951
▁ܘܢܦܠ	-8.3719
ܗܝ	-8.37872
▁ܡܤܗܕ	-8.38019
▁ܗܝܟܠܐ	-8.38068
▁ܕܝܠܢ	-8.38077
▁ܫܪܪܐ	-8.38109
▁ܓܢܒ	-8.3811
▁ܛܠܝܐ	-8.38124
▁ܕܪܚܡ	-8.38164
▁ܙܠ	-8.38265
▁ܒܡܠܬܐ	-8.38269
▁ܘܩܪܒ	-8.38282
▁ܒܝܬܗ	-8.38338
▁ܠܚܝܐ	-8.38593
▁ܒܩܠܐ	-8.38672
▁ܕܢܤܒ	-8.39048
▁ܕܗܟܢܐ	-8.39178
▁ܕܡܝܬ	-8.39699
▁ܕܬܗܘ	-8.40185
▁ܡܗܝܡܢܝܢ	-8.40419
▁ܕܐܟܠ	-8.40456
ܗܘܝܬܘܢ	-8.40938
▁ܒܒܝܬ	-8.40938
▁ܐܚܝܢ	-8.4097
▁ܡܘܗܒܬ	-8.41133
▁ܕܝܘܚܢܢ	-8.41156
▁ܚܛܗܐ	-8.41162
▁ܘܤܡ	-8.41203
▁ܪܓܠܘܗܝ	-8.41243
▁ܘܢܤܒ	-8.41329
▁ܢܘܗܪܐ	-8.41506
▁ܐܘܪܚܐ	-8.41677
▁ܒܬܪܝ	-8.41715
▁ܕܒܪܗ	-8.4172
▁ܚܡܪ	-8.41845
▁ܫܘܒܚܐ	-8.42057
▁ܕܗܢܘܢ	-8.42125
▁ܒܟ	-8.42195
▁ܘܠܝܘܡ	-8.42273
▁ܢܚܐ	-8.42565
▁ܟܬܒ	-8.42617
▁ܕܡܗܝܡܢ	-8.42961
ܡܟܐ	-8.43252
▁ܒܪܐ	-8.43293
ܬܝ	-8.43359
▁ܕܒܝܫ	-8.43424
▁ܒܗܘ	-8.43579
▁ܢܐܡܪ	-8.43695
▁ܠܒܪܗ	-8.43866
▁ܫܩܠ	-8.44095
▁ܡܦܩ	-8.44277
▁ܒܝܡܐ	-8.4435
▁ܐܚܪܝܐ	-8.4436
▁ܕܕܘܝܕ	-8.44575
▁ܕܢܒܝܐ	-8.44614
▁ܘܦܪܝܫܐ	-8.447
▁ܪܘܚܗ	-8.44895
▁ܐܒܘܗܝ	-8.44913
▁ܩܪܝܬ	-8.44975
▁ܠܡܘܬܐ	-8.45079
▁ܤܡ	-8.45344
▁ܘܒܥܝܢ	-8.4545
▁ܘܫܡܥ	-8.45471
▁ܐܫܟܚ	-8.45525
▁ܙܠܘ	-8.4557
ܗܪܘܕܤ	-8.45908
▁ܕܗ	-8.4619
▁ܕܓܠܐ	-8.46397
▁ܘܚܙܝܬ	-8.4689
ܩܪܒܘ	-8.47283
▁ܘܤܠܩ	-8.47693
▁ܩܒܘܪܐ	-8.47705
▁ܐܒܪܗܡ	-8.47727
▁ܤܒܪܐ	-8.47793
▁ܒܥܠܡܐ	-8.47852
▁ܒܢܡܘܤܐ	-8.47888
▁ܟܘܪܤܝܐ	-8.47902
ܛܐ	-8.4797
▁ܕܒܪ	-8.48054
▁ܕܩܕܡ	-8.48211
▁ܒܝܬܐ	-8.4876
ܠܝܐ	-8.4898
▁ܤܝܡ	-8.49129
▁ܘܡܐ	-8.49206
▁ܕܒܚ	-8.4924
▁ܚܙܝ	-8.49265
▁ܠܚܡ	-8.49288
▁ܤܗܕܘܬ	-8.49599
▁ܥܒܕܘ	-8.49853
▁ܕܙܒܢ	-8.4993
▁ܘܡܕܡ	-8.49959
ܠܘ	-8.50416
ܪܬܐ	-8.51147
▁ܒܐܘܪܫܠܡ	-8.51172
▁ܥܠܡܝܢ	-8.51375
▁ܐܡܗ	-8.51533
▁ܫܐܕܐ	-8.51754
▁ܢܛܪ	-8.51841
ܢܒܐ	-8.52968
ܡܕܝܢܬܐ	-8.53266
▁ܩܕܡܘܗܝ	-8.53348
▁ܥܒܕܘܗܝ	-8.53546
▁ܕܝܬܒ	-8.53891
▁ܘܫܩܠ	-8.54211
▁ܘܠܝܬ	-8.54587
▁ܐܬܚܙܝ	-8.54712
▁ܕܥܡܡܐ	-8.54843
▁ܕܐܙܠ	-8.55024
▁ܡܠܟܘܬܗ	-8.55024
▁ܫܡܥܝܢ	-8.55198
▁ܢܐܬܐ	-8.55228
▁ܕܠܗ	-8.55262
▁ܘܫܐܠ	-8.55553
▁ܥܠܝܗ	-8.55759
▁ܫܪܐ	-8.55996
▁ܡܪܗ	-8.5604
▁ܕܐܝܬܝܗܘܢ	-8.56174
▁ܢܥܒܕ	-8.56194
▁ܫܦܝܪܐ	-8.56261
▁ܕܠܝ	-8.56272
▁ܒܥܘ	-8.5656
▁ܐܝܬܝ	-8.56697
▁ܘܤܦܪܐ	-8.56768
▁ܐܒܗ	-8.56847
ܪܝܢ	-8.56867
▁ܫܒܥ	-8.57128
ܘܡ	-8.57353
▁ܩܥ	-8.57359
ܩܠܐ	-8.57414
▁ܪܚܡ	-8.57449
▁ܠܟܝ	-8.57527
ܩܐܡ	-8.57585
▁ܘܥܢ	-8.57839
▁ܟܘܡܪ	-8.58305
▁ܕܫܕܪܢܝ	-8.58426
▁ܐܚܪܬܐ	-8.58475
▁ܠܒܢܝܢܫܐ	-8.5848
▁ܕܐܡܪܝܢ	-8.58486
ܪܟܐ	-8.58595
▁ܝܗܘܕܐ	-8.587
▁ܡܠܬܗ	-8.58718
▁ܙܪܥ	-8.58753
▁ܠܡܪܢ	-8.58958
ܢܘܗܝ	-8.58989
▁ܠܛܘܪܐ	-8.59036
ܪ	-8.59276
▁ܕܝܡܐ	-8.59547
▁ܪܥܝܢܐ	-8.5955
▁ܥܠܝܟ	-8.5968
▁ܒܕܡܘܬ	-8.59866
▁ܡܚܕܐ	-8.60154
ܒܥܐ	-8.60206
▁ܠܒܝܬܗ	-8.60755
▁ܕܢܐܙܠ	-8.61021
ܤܦܪܐ	-8.61042
ܬܐܡܪ	-8.6123
ܩ	-8.6139
▁ܡܢܟ	-8.61553
▁ܕܫܡܥܘ	-8.61636
ܐܝܩܪܐ	-8.61637
▁ܬܘ	-8.61747
ܘܬܗ	-8.61914
▁ܘܝܬܒ	-8.62284
▁ܠܐܬܪ	-8.62321
ܫ	-8.62367
▁ܕܚܙܐ	-8.62476
▁ܕܒܢܝ	-8.62538
▁ܒܠܠܝܐ	-8.62542
▁ܕܢܬܠ	-8.62567
▁ܤܛܢܐ	-8.62711
▁ܐܬܪ	-8.62711
▁ܕܝܕܥ	-8.62856
▁ܤܡܝܐ	-8.63091
▁ܕܚܠ	-8.63364
ܬܪܝܢ	-8.63365
▁ܘܚ	-8.63564
▁ܘܫܡܥܬ	-8.63697
▁ܚ	-8.63944
▁ܒܒܤܪ	-8.64075
ܗܠܝܢ	-8.64092
ܚܐ	-8.64224
▁ܥܬܝܪܐ	-8.64559
▁ܥܤܪ	-8.64571
▁ܒܐܝܕܝ	-8.64697
▁ܚܟܡܬ	-8.64708
▁ܚܤ	-8.64743
▁ܘܢܦܩܘ	-8.65043
▁ܒܦܓܪ	-8.65075
▁ܚܒܝܒܝ	-8.65214
ܗܟܢܐ	-8.65551
ܡܪ	-8.6556
▁ܘܐܢܬ	-8.65606
▁ܝܡܝܢ	-8.65783
▁ܦܘܡܗ	-8.65787
ܬܗܘܘܢ	-8.65868
▁ܒܟܬܒ	-8.65909
▁ܚܡܫܐ	-8.65926
▁ܢܗܘܝܢ	-8.66262
▁ܠܫܡܥܘܢ	-8.66274
▁ܠܫܡܝܐ	-8.6628
ܛܝܒܘܬܗ	-8.66286
▁ܕܚܙܝܢ	-8.66325
▁ܠܐܚܘܗܝ	-8.66387
▁ܕܫܪܪܐ	-8.66443
▁ܘܩܫܝܫܐ	-8.66455
▁ܘܤܓܝܐܐ	-8.66473
▁ܐܒܘܢ	-8.66662
ܟܤܐ	-8.67075
ܩܝܡܝܢ	-8.67249
▁ܠܥܡܐ	-8.67612
ܡܟܝܠ	-8.67615
▁ܕܢܚܬ	-8.67759
▁ܢܦܫܟܘܢ	-8.67916
▁ܚܒܝܒܐ	-8.68379
ܬܫܒܘܚܬܐ	-8.68507
▁ܐܬܬ	-8.69104
▁ܕܚܠܬܐ	-8.692
▁ܙܥܘܪܐ	-8.69331
▁ܫܒ	-8.69449
▁ܐܬܝܢ	-8.69637
ܝܘ	-8.69854
▁ܐܦܝ	-8.70264
▁ܝܕ	-8.70345
▁ܐܫܟܚܘ	-8.70415
▁ܠܡܐܟܠ	-8.7044
▁ܢܩܘܡ	-8.70477
▁ܕܢܘܪܐ	-8.70516
▁ܢܘܪܐ	-8.70545
▁ܕܚܢܢ	-8.70568
▁ܕܫܡܥ	-8.7063
▁ܕܘܝܕ	-8.70687
▁ܐܥܒܕ	-8.71063
▁ܡܟܤܐ	-8.7142
▁ܥܡܟ	-8.71742
▁ܐܘܠܨܢܐ	-8.72081
▁ܚܝܘܬܐ	-8.72596
▁ܘܫܠܡܐ	-8.72614
▁ܡܪ	-8.73341
ܬܫܡܫܬܐ	-8.73466
▁ܡܫܟܚܐ	-8.73544
▁ܠܡܠܟܘܬ	-8.73698
▁ܡܡܠܠܝܢ	-8.7373
ܝܘܠܦܢܐ	-8.73866
▁ܘܠܡ	-8.73889
▁ܕܟܠܗܘܢ	-8.7389
▁ܢܦܩܬ	-8.74016
▁ܟܝ	-8.74124
ܥ	-8.74303
▁ܚܝܒ	-8.74656
▁ܒܝܢܬܗܘܢ	-8.74797
▁ܐܦܩ	-8.74922
▁ܡܐܢ	-8.74925
▁ܝܘܤܦ	-8.74974
▁ܦܬܚ	-8.74991
▁ܠܟܠܢܫ	-8.75064
▁ܚܛܝܐ	-8.75094
▁ܕܢܦܩ	-8.75195
▁ܕܓܒܪܐ	-8.75297
▁ܐܚܪܝܢ	-8.75354
▁ܕܥܡ	-8.75527
▁ܝܥܩܘܒ	-8.75553
▁ܡܕܝܢ	-8.7556
▁ܡܠܝ	-8.75655
▁ܠܐܪܥܐ	-8.75696
▁ܢܦܫܢ	-8.75826
ܘܠܐ	-8.76123
▁ܙܪܥܐ	-8.76245
▁ܐܢܬܬܗ	-8.76323
▁ܪܚܡܐ	-8.76368
ܓ	-8.76477
ܓܠܐ	-8.76556
▁ܡܢܝ	-8.76987
▁ܕܝܕܥܝܢ	-8.77095
▁ܘܥܕ	-8.77206
▁ܘܒܢܝ	-8.7729
ܘܦ	-8.77588
▁ܝܕܥܘ	-8.78102
▁ܢܦܫܗܘܢ	-8.78103
▁ܢܦܩܘ	-8.78193
ܨܒܐ	-8.79232
▁ܡܗܠܟܝܢ	-8.7931
▁ܪܗܛ	-8.79327
▁ܕܐܒܪܗܡ	-8.79372
▁ܕܢܦܠ	-8.79394
▁ܡܬܚܙܐ	-8.79423
ܝܟܐ	-8.79476
▁ܕܩܕܝܫܐ	-8.79645
▁ܒܡ	-8.79945
▁ܕܗܝܡܢܘܬܐ	-8.79948
▁ܦܬܓܡܐ	-8.79959
▁ܒܡܕܝܢܬܐ	-8.7997
▁ܦܓܪܗ	-8.79974
▁ܠܐܚܪܢܐ	-8.80071
ܘܪܐ	-8.80267
▁ܕܥܡܐ	-8.80358
▁ܕܕܗܒܐ	-8.80388
▁ܬܐ	-8.80391
▁ܡܤܒܪ	-8.80625
▁ܘܥ	-8.8064
▁ܩܝܡ	-8.81328
ܦܐ	-8.81372
ܪܡܐ	-8.815
ܚܩ	-8.8161
▁ܪܘܚ	-8.81619
▁ܢܫܡܥ	-8.81718
▁ܒܗܝܢ	-8.82086
▁ܐܚܕ	-8.8232
▁ܒܟܝ	-8.8243
▁ܥܡܢ	-8.82543
▁ܘܗܝ	-8.8285
ܦܝܠܝܦ	-8.82868
ܬܝܗܒ	-8.82879
▁ܥܘܠܐ	-8.8305
▁ܡܬܠ	-8.83114
▁ܕܢܐܡܪ	-8.83206
▁ܕܝܠܟ	-8.83434
▁ܕܐܬ	-8.83535
▁ܠܗܫܐ	-8.83893
▁ܛܢܦܬܐ	-8.84084
▁ܒܐܠܗܐ	-8.84084
▁ܟܦܢ	-8.84109
▁ܠܗܝܟܠܐ	-8.8411
▁ܒܝܢܬܟܘܢ	-8.84128
▁ܦܨܚܐ	-8.84188
▁ܕܥܐܠ	-8.8426
▁ܝܘܡܢܐ	-8.84292
▁ܬܢܢ	-8.8434
▁ܟܢܘܫܬܐ	-8.84379
▁ܦܩܚ	-8.84441
▁ܡܫܡܫܢܐ	-8.84538
▁ܕܐܒܐ	-8.84735
▁ܐܟܚܕܐ	-8.84788
▁ܬܚ	-8.84972
ܒ	-8.85079
▁ܐܦܢ	-8.8513
▁ܘܟܐ	-8.85143
▁ܩܕܡܝܬܐ	-8.85528
ܫܘܠܛܢܐ	-8.85574
▁ܠܒܢܝ	-8.86092
▁ܫܡܫܐ	-8.86246
▁ܩܠܗ	-8.86515
▁ܕܟܠܗ	-8.86551
▁ܘܡܠܦ	-8.86901
▁ܘܒܥ	-8.86954
▁ܚܕܘܬܐ	-8.8742
ܝܕܐ	-8.87899
▁ܤܗܕܐ	-8.88192
ܛ	-8.88249
▁ܘܐܫܟܚ	-8.88352
▁ܒܤܪ	-8.88364
▁ܘܐܢܫ	-8.8873
▁ܘܕܒܪ	-8.88784
▁ܡܛܝ	-8.88798
▁ܘܒܟܠ	-8.88818
▁ܕܕܚܠ	-8.88837
▁ܘܐܠܗ	-8.88856
▁ܘܒܪܟ	-8.88956
▁ܫܥܝܢ	-8.89088
▁ܕܓܠܝܠܐ	-8.89107
▁ܕܢܚܙ	-8.89116
▁ܕܢܥܒܕ	-8.89153
▁ܕܝܬܝܪ	-8.89175
▁ܕܚܙܘ	-8.89195
▁ܐܪܙ	-8.89202
▁ܡܩܘܐ	-8.89258
▁ܕܥܡܗ	-8.89267
▁ܕܬܕܥܘܢ	-8.89285
▁ܒܫܒܬܐ	-8.89357
▁ܘܝܕܥ	-8.89393
▁ܒܫܥܬܐ	-8.894
▁ܘܡܝܬ	-8.89438
▁ܓܙܘܪܬܐ	-8.89448
▁ܒܚܘܒܐ	-8.89456
▁ܪܝܫ	-8.8948
▁ܢܐܬܘܢ	-8.89516
▁ܒܗܝ	-8.89812
▁ܙܕܝܩܐ	-8.89825
ܡܠܬܐ	-8.89879
▁ܕܡܫܟܚ	-8.8997
ܓܐ	-8.90042
▁ܢܬ	-8.90093
▁ܒܚܝܠܐ	-8.90099
▁ܐܝܠܢܐ	-8.90122
▁ܠܥܕܬܐ	-8.90191
▁ܒܠܚܘܕܘܗܝ	-8.90362
▁ܦܝܠܝܦ	-8.90501
▁ܒܗܠܝܢ	-8.90583
▁ܐܙܕܗܪ	-8.90589
ܝܗܘܕܝܐ	-8.906
▁ܫܪܟܐ	-8.90878
▁ܡܐܬ	-8.9093
▁ܠܘ	-8.91303
▁ܘܐܬܝܗܒ	-8.91355
ܠܬܐ	-8.91463
ܪܫܐ	-8.91479
▁ܕܒܤܪܐ	-8.91686
▁ܕܬܪܬܝܢ	-8.91853
▁ܘܬ	-8.9201
ܟܡܐ	-8.92293
ܝܡܐ	-8.92452
▁ܚܘܝ	-8.92488
▁ܟܪܝܗܐ	-8.92771
▁ܘܠܡܢ	-8.93069
▁ܐܕܢ	-8.93204
ܤܝܐ	-8.93339
▁ܡܚܒ	-8.93355
ܡܪܢ	-8.93539
▁ܚܙܝܬ	-8.9366
▁ܐܒܘܟ	-8.93942
ܟܬܘܒ	-8.93958
▁ܥܒܕܗ	-8.94059
▁ܢܨܪܝܐ	-8.94349
▁ܡܐܟܘܠܬܐ	-8.94363
▁ܤܐܡ	-8.94375
▁ܘܐܬܚܙܝ	-8.94454
▁ܡܨܠܐ	-8.94504
▁ܠܥܡܡܐ	-8.94508
▁ܘܐܪܒܥ	-8.94551
▁ܒܥܓܠ	-8.946
▁ܒܟܢܘܫܬܐ	-8.94682
▁ܕܡܬܩܪܝ	-8.94733
ܨܐ	-8.94831
▁ܡܘܠܟܢܐ	-8.94854
▁ܒܓܠܐ	-8.94865
▁ܕܟܝܐ	-8.94914
▁ܥܝܢܘܗܝ	-8.94949
▁ܘܡܡܠܠ	-8.94968
▁ܕܥܘ	-8.95049
▁ܒܥܠ	-8.95072
▁ܥܝܢܝܗܘܢ	-8.95159
▁ܥܠܝܢ	-8.95172
▁ܟܬܒܬ	-8.95183
▁ܐܪܒܥܝܢ	-8.95387
ܡܢ	-8.95404
▁ܛܘܪ	-8.9541
▁ܕܫܡܥܝܢ	-8.95879
▁ܟܐܢܘܬܐ	-8.96028
▁ܛܘܒܝܗ	-8.96157
ܗܘܝܘ	-8.96354
▁ܐܙܠܝܢ	-8.96569
▁ܕܫܦܝܪ	-8.96929
▁ܠܒܝܬܐ	-8.97011
ܝܠ	-8.97128
▁ܕܡܠܠ	-8.97534
▁ܠܥܒܕ	-8.97571
▁ܛܘܒ	-8.97853
▁ܕܚܙܝܬ	-8.98016
▁ܐܝܕܝ	-8.98103
▁ܘܫܒܩ	-8.98297
▁ܘܚܪ	-8.98301
▁ܕܗܝ	-8.98363
▁ܥܠܬܐ	-8.98399
▁ܓܒ	-8.98483
ܤܐ	-8.98517
▁ܛ	-8.98656
▁ܡܗܠܟ	-8.9868
▁ܝܗܒܬ	-8.98775
ܩܠܝܠ	-8.98775
▁ܠܡܪܝܐ	-8.98801
▁ܦܠܚܐ	-8.99126
▁ܐܫܟܚܬ	-8.99201
▁ܚܡܫ	-8.99226
ܠܠܝܐ	-8.99253
▁ܐܚܝܕ	-8.9937
▁ܒܢܦܫܗ	-8.99421
▁ܠܓܘ	-8.99536
ܤܘܓܐ	-8.99781
▁ܕܤܠܩ	-8.99907
▁ܠܓܠܝܠܐ	-8.99915
▁ܒܫܠܡܟ	-8.99924
▁ܒܢܘܪܐ	-8.99991
▁ܕܚܛܝܬܐ	-9.00005
▁ܟܘܒ	-9.00008
▁ܘܬܡܢ	-9.00043
▁ܒܡܝܐ	-9.00058
▁ܩܪܝܒ	-9.00099
▁ܠܡܫܡܥ	-9.00103
▁ܕܫܘ	-9.00123
▁ܕܝܘܐ	-9.00184
▁ܒܤܪܐ	-9.00243
▁ܡܘܕܐ	-9.00322
▁ܗܝܡܢܘܬܟܘܢ	-9.00335
▁ܕܦܓܪܐ	-9.00386
▁ܐܠܦܐ	-9.00569
ܕܢܐ	-9.00585
▁ܒܢܦܫܗܘܢ	-9.00649
▁ܕܡܘܫܐ	-9.00798
▁ܟܐܢܐ	-9.00816
▁ܢܫܠܡ	-9.00865
▁ܪܫܝܢ	-9.00912
▁ܒܫܡܝ	-9.00935
▁ܘܚܢܢ	-9.00964
▁ܐܤܝܪ	-9.00987
▁ܕܝܠܗܘܢ	-9.01355
▁ܡܠܟ	-9.01386
▁ܠܘܬܟ	-9.01525
▁ܗܒ	-9.01535
▁ܕܘܟܬ	-9.01566
▁ܒܥܒܕܐ	-9.01635
▁ܫ	-9.01807
ܟܢܫܐ	-9.0184
▁ܪܕܦ	-9.01856
▁ܘܫܡܥܘ	-9.01868
▁ܕܚܝ	-9.01947
▁ܐܩܝܡ	-9.02164
ܥܐ	-9.02214
▁ܟܤܦܐ	-9.02261
▁ܕܡܠܐ	-9.0235
▁ܕܡܗܝܡܢܝܢ	-9.02478
▁ܚܠܐ	-9.02486
▁ܚܟܝܡܐ	-9.02572
▁ܥܩܪ	-9.02649
▁ܕܥ	-9.02672
▁ܢܗܪ	-9.02833
▁ܫܕܪܬ	-9.03273
▁ܒܝܫ	-9.03601
▁ܡܫܒܚ	-9.03839
ܦܘܩ	-9.04121
▁ܠܒ	-9.04174
▁ܠܗܝܢ	-9.04176
▁ܤܥܪ	-9.04392
▁ܕܬܠܬܐ	-9.05032
▁ܝܗܘܕ	-9.05217
▁ܕܛܒ	-9.05305
▁ܘܐܚܕ	-9.05434
▁ܐܠܦ	-9.05619
▁ܦܪܨܘܦ	-9.05668
▁ܠܢܦܫܗ	-9.05745
▁ܡܬܚܫܒ	-9.0579
▁ܓܠܝܠܐ	-9.05803
▁ܐܬܡܠܝ	-9.05864
▁ܡܫܕܪ	-9.05913
▁ܠܫܢ	-9.05913
ܘܢܢܝ	-9.05921
▁ܦܬܟܪܐ	-9.05993
▁ܢܤܒܝ	-9.06004
▁ܠܡܫܝܚܐ	-9.06101
▁ܕܤܓܝܐܐ	-9.06139
▁ܘܬܗܘ	-9.06204
▁ܤܝܡܬ	-9.06207
▁ܕܚ	-9.06221
▁ܩܕܝܫ	-9.06226
▁ܕܫܒܬܐ	-9.06327
ܥܕܬܐ	-9.06371
▁ܩܢܛܪܘܢ	-9.06397
▁ܐܬܟܢܫܘ	-9.06453
ܘܡܐ	-9.06618
▁ܫܡܥܬ	-9.06781
▁ܥܢܢ	-9.06978
▁ܐܪܒܥ	-9.07078
▁ܠܟܠܗ	-9.07162
▁ܕܩܡ	-9.07366
▁ܘܡܫܐܠ	-9.07587
▁ܫܡܝ	-9.07702
▁ܤܗܕ	-9.07855
▁ܤܓܕ	-9.07947
ܚܘܒܗ	-9.08063
▁ܕܫܡܥܘܢ	-9.08152
ܐܟܘܠ	-9.08195
▁ܟܤ	-9.08275
▁ܟܠܝ	-9.08315
▁ܒܫ	-9.08941
▁ܫܡܥܬܘܢ	-9.08977
▁ܘܒܝܬ	-9.09067
▁ܐܓܪܐ	-9.09076
▁ܢܦܫܐ	-9.09093
▁ܢܚܙܘܢ	-9.09101
▁ܪܚܝܩ	-9.0956
▁ܠܡܕܥ	-9.10012
▁ܕܚܝܠ	-9.10368
▁ܒܨܒܝܢ	-9.10597
▁ܥܢܝ	-9.1062
ܕܗܒܐ	-9.11024
ܦ	-9.11126
▁ܠܡܤܒ	-9.11166
ܕܘܢ	-9.11265
▁ܢܐܙܠ	-9.11273
▁ܕܐܬܘ	-9.1133
ܒܘܬܐ	-9.1137
▁ܬܕܚܠ	-9.11374
▁ܨܠܘ	-9.11466
▁ܛܝܒܘ	-9.11636
▁ܡܚ	-9.11697
▁ܘܫ	-9.11746
▁ܝܘܠܦܢ	-9.11835
ܝܤ	-9.11836
ܬܟܘܢ	-9.11976
▁ܚܝܠܗ	-9.11994
▁ܕܐܩܝܡ	-9.12009
▁ܘܝܬܝܪ	-9.12037
▁ܘܢܒܝܐ	-9.12041
▁ܘܢܛܪ	-9.12079
▁ܚܛܗܝܢ	-9.12091
▁ܡܘܕܝܢ	-9.12122
▁ܘܝܘܚܢܢ	-9.12124
▁ܐܬܠ	-9.12136
▁ܠܡܡܠܠܘ	-9.12137
▁ܡܡܬܘ	-9.12159
▁ܕܐܝܤܪܝܠ	-9.12191
▁ܐܚܪܢܝܬܐ	-9.12198
▁ܙܕܝܩܘܬܐ	-9.12206
▁ܫܪܝܪ	-9.12257
▁ܦܪܫ	-9.12337
▁ܡܦܤ	-9.12391
▁ܩܕܝܫܬܐ	-9.12418
▁ܗܢܝܢ	-9.12423
▁ܘܓܒܪ	-9.12441
▁ܠܡܤܟܢܐ	-9.12487
▁ܘܚܝܐ	-9.12537
▁ܕܪܝܫ	-9.1258
▁ܘܚܙܘ	-9.12618
▁ܩܘܪܒܢܐ	-9.12635
▁ܒܝܡ	-9.12669
▁ܒܟܠܡܕܡ	-9.12833
▁ܐܪܡܠܬܐ	-9.13063
ܙ	-9.13094
ܩܐ	-9.1312
▁ܕܐܒܝ	-9.1315
▁ܒܪܝܬܐ	-9.13546
▁ܚܪ	-9.13574
▁ܕܢܫܪ	-9.13592
▁ܠܐܒܘܗܝ	-9.1363
▁ܦܓܪ	-9.13872
▁ܝܠܕ	-9.14055
▁ܢܐܡܪܘܢ	-9.14086
▁ܕܡܬ	-9.14117
▁ܩܕܡܝ	-9.14183
▁ܘܐܚ	-9.14216
▁ܢܚܘ	-9.14454
▁ܡܛܪ	-9.14829
▁ܥܒܕܬ	-9.14915
▁ܘܩܕܡ	-9.15061
▁ܠܡܪܝ	-9.15353
▁ܥܪܒ	-9.15392
▁ܒܒܝܬܗ	-9.15406
▁ܒܙܒܢ	-9.15697
▁ܕܤܒܪ	-9.16028
▁ܘܗܦܟ	-9.16168
▁ܦܠܚ	-9.16424
▁ܘܠܗ	-9.16486
▁ܠܐܒܝ	-9.16563
ܥܘܠ	-9.16638
▁ܕܤ	-9.17225
▁ܐܝܕܝܐ	-9.18129
▁ܕܢܦܫܗ	-9.18133
▁ܡܫܠܡ	-9.18304
▁ܩܡܬ	-9.18337
ܩܥܝܢ	-9.18372
▁ܘܩ	-9.18594
▁ܫܐܘܠ	-9.18701
▁ܠܡܩܡ	-9.18717
▁ܡܚܝܒ	-9.18734
▁ܠܡܗܘܐ	-9.18743
▁ܠܬܡܢ	-9.18748
▁ܘܐܫܠܡ	-9.18753
ܚܬܢܐ	-9.18924
▁ܐܟܠܩܪܨܐ	-9.18934
▁ܡܥܡܕܢܐ	-9.18997
▁ܙܢܝܘܬܐ	-9.19004
▁ܕܟܐܢܘܬܐ	-9.19023
▁ܠܒܘܬܟܘܢ	-9.1904
▁ܐܤܛܪܛܝܘܛܐ	-9.19049
▁ܕܥܒܪ	-9.1905
▁ܡܬܛܦܝܤܝܢ	-9.19056
ܛܪ	-9.19125
▁ܘܚܝܠܐ	-9.1916
▁ܬܗܝܡܢܘܢ	-9.19232
▁ܐܫܥܝܐ	-9.19324
▁ܬܪܝܗܘܢ	-9.19421
▁ܬܕܚܠܘܢ	-9.19427
ܐܬܝܗܒܬ	-9.19569
▁ܐܓܪܬܐ	-9.19659
▁ܒܡܢ	-9.19705
▁ܢܕܥ	-9.19752
▁ܡܠܠܬ	-9.19915
▁ܠܡܬܠ	-9.20088
▁ܕܩܪܐ	-9.20153
▁ܘܢܚܬ	-9.20159
▁ܚܪܫ	-9.20166
▁ܕܫܪ	-9.2057
▁ܥܢܘ	-9.20635
▁ܤܒ	-9.20668
▁ܡܚܘ	-9.20891
▁ܥܘܠ	-9.20904
▁ܒܠܫܢܐ	-9.20919
▁ܒܫܡ	-9.2094
▁ܗܘܝܘ	-9.20954
▁ܓ	-9.21002
▁ܦܪܩ	-9.21093
ܚܪܝܢܐ	-9.21105
▁ܚܫܘܟܐ	-9.2111
▁ܠܒܝܫ	-9.21215
▁ܕܩܤܪ	-9.21277
ܒܝܫܘܥ	-9.21392
▁ܬܬ	-9.21501
▁ܫܡܐ	-9.21718
▁ܒܥܠܕܒܒ	-9.21939
▁ܕܚܫ	-9.22072
▁ܐܟܠܝܢ	-9.22231
▁ܐܟܪܙ	-9.22674
ܛܘܤ	-9.22818
▁ܚܤܡ	-9.22948
▁ܕܥܡܪ	-9.23068
▁ܕܬܘܒ	-9.23159
▁ܙܥܘܪ	-9.23249
ܘܬ	-9.23266
▁ܕܒܟܠ	-9.23283
▁ܐܬܕܟܪ	-9.23326
ܡܩܕܘܢܝܐ	-9.23546
ܥܢܐ	-9.23619
▁ܥܒܕܝ	-9.2375
ܒܝܕ	-9.23842
ܟܠܡܕܡ	-9.24094
ܚܟܡܬ	-9.2413
ܪܒܐ	-9.24134
▁ܨܒܘ	-9.24643
ܦܝܢ	-9.24917
ܤܡܝܐ	-9.24953
ܠܝ	-9.25203
▁ܕܠܘܬ	-9.25213
ܡܨܪܝܢ	-9.25676
▁ܗܝܡܢ	-9.25869
▁ܫܥܐ	-9.25878
▁ܠܒܪܢܫܐ	-9.2588
▁ܪܘܚܩܐ	-9.25916
▁ܘܐܪܝܡ	-9.25942
▁ܐܬܦܬܚ	-9.2599
▁ܒܡܕܒܪܐ	-9.25999
▁ܠܐܒܪܗܡ	-9.26014
ܝܥܩܘܒ	-9.26044
▁ܥܘܬܪ	-9.26111
▁ܟܠܝܘܡ	-9.26125
▁ܢܥܒܪ	-9.26125
▁ܠܩܪܝܬܐ	-9.26202
▁ܕܢܥܘܠ	-9.26226
▁ܒܝܢܝ	-9.26261
ܚ	-9.26299
▁ܦܘܪܩܢܐ	-9.26363
▁ܡܛܠܬܟܘܢ	-9.2648
▁ܐܬܪܚܡ	-9.26521
▁ܗܟܘܬ	-9.26596
▁ܦ	-9.26691
▁ܕܟܪܝܗ	-9.26694
▁ܕܕܝܢܐ	-9.26733
▁ܕܤܛܢܐ	-9.26787
▁ܕܕܝܬܩܐ	-9.26834
▁ܕܬܠܬ	-9.26886
▁ܒܨܠܘܬܐ	-9.26888
▁ܤܢܐ	-9.27046
▁ܟܪܝܗ	-9.27096
▁ܕܫܠܝܚܐ	-9.27263
▁ܕܫܠܡܐ	-9.27276
▁ܫܢܐ	-9.27287
▁ܕܝܥܩܘܒ	-9.27342
▁ܠܘܬܢ	-9.27769
▁ܡܠܝܢ	-9.28095
▁ܘܩܥܐ	-9.28148
▁ܕܝܘܡܐ	-9.28291
▁ܩܛܠ	-9.28326
▁ܟܠܝܠ	-9.28411
ܘܒ	-9.28688
▁ܫܘܒܗܪ	-9.29075
ܐܬܝܢ	-9.29107
ܫܘܒܚܐ	-9.2912
▁ܕܥܡܝ	-9.29129
▁ܪܘܪܒܐ	-9.29151
▁ܘܐܪܡܝ	-9.29245
▁ܘܐܬܦܢܝ	-9.29774
▁ܕܡܠܟܐ	-9.29836
▁ܒܐܬܪ	-9.29837
▁ܢܦܠܬ	-9.29956
▁ܘܐܪܡܝܘ	-9.30272
▁ܕܢܚܐ	-9.3048
▁ܘܟܢܫ	-9.30766
ܕܥ	-9.30766
▁ܘܢܐܡܪ	-9.3125
▁ܠܢܡܘܤ	-9.31465
ܙܘܥ	-9.31473
▁ܦܓܪܝ	-9.3159
▁ܕܩܝܡ	-9.31778
▁ܕܐܡܪܐ	-9.31786
▁ܟܕܘ	-9.31802
▁ܕܗܘܝ	-9.31807
▁ܟܠܢ	-9.31846
▁ܡܛܝܒ	-9.32125
▁ܝܪܚ	-9.32192
ܛܝܡܬܐܘܤ	-9.32206
▁ܤܒܪܬ	-9.32245
▁ܘܥܒܪ	-9.32419
▁ܒܕ	-9.3246
▁ܡܝܬܬ	-9.32668
▁ܘܐܪܥ	-9.32731
▁ܕܙܪܥ	-9.32812
▁ܙܕܩ	-9.329
▁ܘܐܝܬܝ	-9.32917
▁ܒܬܐ	-9.32949
▁ܒܠܒܗ	-9.32999
▁ܕܝܗܘܕ	-9.33138
ܘܕܐ	-9.3315
▁ܩܕܡܝܟ	-9.3352
▁ܘܠܝܘܚܢܢ	-9.33536
▁ܠܝܘܚܢܢ	-9.33537
▁ܘܪܗܛ	-9.33538
▁ܢܘܟܪܝܐ	-9.33555
▁ܬܪܢܓܠܐ	-9.33579
▁ܠܡܚܙܐ	-9.33614
▁ܢܬܩܪܐ	-9.33618
▁ܡܫܪܝܐ	-9.33622
▁ܠܥܒܪܐ	-9.33728
▁ܘܠܐܡܗ	-9.3376
▁ܕܬܡܢ	-9.33766
ܦܗܤܛܘܤ	-9.33766
▁ܕܒܥܝܢ	-9.338
▁ܓܒܪܝܢ	-9.33825
▁ܕܢܬܡܠ	-9.33833
▁ܡܬܕܡܪ	-9.33863
▁ܟܢܫ	-9.33885
▁ܪܡܫܐ	-9.33901
▁ܐܫܬܠܡ	-9.33963
▁ܕܟܠܢܫ	-9.33981
▁ܗܓܡܘܢܐ	-9.34034
▁ܠܟܢܘܫܬܐ	-9.34047
▁ܠܐܠܦܐ	-9.3413
▁ܕܦܘܠܘܤ	-9.34175
ܗܦܟܘ	-9.34183
▁ܟܪܡܐ	-9.34188
▁ܢܝܚ	-9.34246
▁ܥܒܝܕܝܢ	-9.34247
▁ܠܡܪܗ	-9.34442
▁ܘܫܐܠܘܗܝ	-9.34483
▁ܠܐܒܐ	-9.34565
▁ܗܕܡ	-9.34595
▁ܘܐܩܝܡܗ	-9.34614
ܫܪܟܐ	-9.34629
▁ܒܕܚܠܬܐ	-9.34649
▁ܒܥܠܗ	-9.34722
▁ܐܬܓܠܝ	-9.34792
▁ܕܚܙܝܬܘܢ	-9.34827
▁ܚܒܠܐ	-9.34898
▁ܒܕܘܟܬ	-9.34946
▁ܘܫܕܪܘ	-9.35036
▁ܕܡܠܐܟܐ	-9.35067
▁ܕܐܡܪܬ	-9.3509
ܐܝܡܡܐ	-9.35219
▁ܒܚ	-9.35222
▁ܘܫܬܐ	-9.35375
▁ܒܡܕܡ	-9.35558
▁ܤܗܕܝܢ	-9.35565
ܡܚܐ	-9.35585
ܨܠܘܬܐ	-9.35663
▁ܕܨܒܝܢ	-9.35829
▁ܘܐܬܬ	-9.35848
ܪܘܢ	-9.36002
ܫܪܐ	-9.36121
▁ܐܦܝܟܘܢ	-9.36207
▁ܤ	-9.36252
▁ܢܫ	-9.36481
▁ܫܪܝܢ	-9.36513
▁ܩܪܝܐ	-9.36655
ܫܝܠܐ	-9.36742
▁ܤܟܠ	-9.36772
▁ܩܤܪ	-9.36803
ܝܘܤ	-9.36808
▁ܩܪ	-9.36829
▁ܟܦܪ	-9.36889
▁ܐܬܝܠܕ	-9.37047
▁ܦܘܡܐ	-9.3711
▁ܕܡܝܬܪ	-9.37113
▁ܬܬܐ	-9.37216
▁ܡܒܪܟ	-9.37514
▁ܒܛܝܠ	-9.37681
▁ܪܫܝܬ	-9.3794
ܪܘܓܙܐ	-9.38095
▁ܕܚܠܬ	-9.38174
▁ܕܦܪܝܫ	-9.38267
▁ܤܪܝܩܐ	-9.38291
ܬܟ	-9.38319
▁ܥܡܕ	-9.38338
▁ܩܘ	-9.3835
▁ܕܢܫܡܥ	-9.38418
▁ܕܡܗ	-9.38436
▁ܫܬܐ	-9.38519
▁ܝܠܦ	-9.38677
▁ܕܐܝܬܝ	-9.38751
▁ܐܦܤ	-9.39062
ܤܪ	-9.39109
▁ܢܚܙ	-9.39166
▁ܕܡܢܗ	-9.39212
ܥܝܢܟ	-9.39232
ܥܒܕܘܗܝ	-9.39354
▁ܒܩܢ	-9.39631
ܙܒܢܐ	-9.39731
▁ܐܤܝ	-9.3994
ܤܪܐ	-9.39954
▁ܫܠܝ	-9.40267
▁ܝܨܦ	-9.40623
ܠܥܙܪ	-9.40659
▁ܒܐܝ	-9.40695
▁ܕܡܛܠ	-9.40936
▁ܟܪ	-9.4101
▁ܢܡܘܬ	-9.41043
▁ܤܦ	-9.41069
▁ܪܕܝܢ	-9.4138
▁ܘܤܒܪ	-9.41461
ܐܢܬܬܐ	-9.415
ܟܦܘܪ	-9.41567
▁ܚܝܝܢ	-9.41593
▁ܚܠܦܝܢ	-9.4171
▁ܝܘܢܐ	-9.41722
▁ܘܚܘܒ	-9.41811
▁ܕܐܤܗܕ	-9.4187
▁ܕܝܡܝܢܐ	-9.4187
▁ܤܟܪܝܘܛܐ	-9.4187
▁ܠܬܝܒܘܬܐ	-9.4187
ܐܨܦ	-9.4187
▁ܢܫܬܒܩ	-9.41871
▁ܝܗܝܒ	-9.41883
▁ܡܓܕܠܝܬܐ	-9.41883
▁ܒܓܠܝܢ	-9.41885
▁ܢܡܠܠ	-9.41974
ܐܠܦܐ	-9.41997
▁ܕܝܘܡܢܐ	-9.42041
▁ܠܡܥܠ	-9.42076
▁ܕܐܘܢܓܠܝܘܢ	-9.42087
▁ܟܢܝܫܝܢ	-9.42098
▁ܡܫܬܠܡ	-9.42199
▁ܥܡܪ	-9.42214
▁ܒܫܪܪܐ	-9.42227
▁ܒܤܦܝܢܬܐ	-9.42248
▁ܐܝܕܝܗܘܢ	-9.42299
▁ܘܐܡܝܢ	-9.42302
▁ܠܒܗܘܢ	-9.42319
▁ܘܡܠܟ	-9.42358
▁ܘܬܠܡܝܕܘܗܝ	-9.42432
▁ܕܫܒܥ	-9.4245
▁ܠܐܡܗ	-9.42459
▁ܠܕܝܢܐ	-9.42469
▁ܦܘܩܕܢܘܗܝ	-9.42502
▁ܝܪܬ	-9.42521
▁ܨܦܪܐ	-9.42546
▁ܕܫܡܥܬܘܢ	-9.42578
▁ܘܡܪܝܡ	-9.42597
▁ܒܛܝܒܘܬܐ	-9.42599
▁ܕܚܪ	-9.42624
▁ܒܫܘܒܚܐ	-9.42643
▁ܢܘܢܐ	-9.42675
▁ܕܨ	-9.4272
▁ܬܢܝܢܐ	-9.4278
▁ܡܠܐܟܘܗܝ	-9.42802
▁ܐܡܬ	-9.42893
▁ܒܥܕܬܐ	-9.42959
ܝܪ	-9.42969
ܙܕܗܪܘ	-9.43027
▁ܚܝܠ	-9.43118
▁ܬܒܘ	-9.43126
▁ܪܓܠܝܗ	-9.43163
▁ܕܦܩܕ	-9.43356
▁ܡܪܬܐ	-9.43399
ܝܘܡܬܐ	-9.43583
▁ܥܕܢ	-9.43587
▁ܪܘ	-9.43611
▁ܚܛܐ	-9.43659
▁ܬܥܒܕܘܢ	-9.43696
▁ܒܪܥܝܢ	-9.43794
▁ܗܦܟ	-9.438
▁ܫܪܘ	-9.4384
ܥܒܕ	-9.43845
▁ܨܝܕܐ	-9.43851
▁ܕܘܟܐ	-9.43914
▁ܥܪܩ	-9.44118
▁ܠܛܠܝ	-9.44507
▁ܚܘܪܐ	-9.44556
ܘܚܪ	-9.44654
▁ܩܒܪܐ	-9.44688
▁ܦܠ	-9.44762
▁ܕܝܬܒܝܢ	-9.44795
ܟܪܝܬ	-9.44875
ܢܝܐ	-9.44922
▁ܘܒܥܘ	-9.44982
▁ܤܝܒܪܬܐ	-9.44983
▁ܘܬܪܝܢ	-9.45183
▁ܐܬܩܪܝ	-9.45234
▁ܘܐܬܠ	-9.45322
ܬܘܬܐ	-9.4533
▁ܤܡܝܟ	-9.45478
▁ܕܗܪܘܕܤ	-9.45748
ܩܪܐ	-9.45957
ܤܩ	-9.45999
▁ܘܩܕܝܫ	-9.46268
ܐܒܘܗܝ	-9.46308
▁ܕܟܬܒ	-9.46412
▁ܩܒܠܘ	-9.46421
▁ܠܕܘܟܬ	-9.46447
▁ܕܩܪܝܢ	-9.46531
ܤܦܝܢܬܐ	-9.46537
▁ܒܐܝܕ	-9.46576
▁ܐܢܬܝ	-9.46684
ܬܪܚܡ	-9.46807
▁ܨܒܘܬ	-9.46809
▁ܐܫܬܟܚ	-9.46914
ܩܘܪܝܐ	-9.46966
▁ܘܩܪ	-9.47051
▁ܚܝܬ	-9.47098
ܫܘܒܚܗ	-9.47206
▁ܢܤܒܬ	-9.47267
▁ܐܠܨ	-9.47359
ܫܝܢ	-9.47448
▁ܨܒܘܬܐ	-9.47522
▁ܠܐܢܬܬ	-9.47604
ܦܐܪܐ	-9.47615
▁ܫܬܐܤܬ	-9.4785
ܥܤܪܐ	-9.47857
▁ܫܢܝ	-9.47885
▁ܕܩܪܝܒ	-9.48079
▁ܦܤܩ	-9.48547
▁ܢܦܠܘ	-9.48568
▁ܘܚܙܝ	-9.48574
▁ܕܢܬ	-9.48604
▁ܕܬܚܝ	-9.48792
▁ܕܐܚܝܕ	-9.48846
▁ܘܡܟܪܙ	-9.48978
ܓܪܐ	-9.49
▁ܤܒܪܬܐ	-9.4908
ܡܘܫܐ	-9.49111
ܒܝܢ	-9.49529
ܡܠܐܟܐ	-9.49703
▁ܐܚܒ	-9.49819
▁ܚܫ	-9.49878
ܒܟܠܙܒܢ	-9.49896
▁ܢܥ	-9.50057
▁ܠܡܦܩ	-9.50148
▁ܢܚܫ	-9.50218
▁ܥܬܝܕܝܢ	-9.50287
▁ܡܥܡܕ	-9.50628
ܩܕܝܫܘܬܐ	-9.50654
▁ܕܤܓܝ	-9.50825
▁ܕܐܬܩܪܝ	-9.50873
▁ܘܐܬܡܠܝ	-9.50961
▁ܐܚܪܢܝܢ	-9.50961
▁ܠܡܡܬ	-9.50963
▁ܘܩܪܝܒ	-9.50986
▁ܢܘܒܕ	-9.51
▁ܢܒܗܬ	-9.51
▁ܠܚܛܝܬܐ	-9.51015
ܦܫܛ	-9.51017
▁ܙܒܕܝ	-9.51033
▁ܒܚܙܘܐ	-9.51036
▁ܕܪ	-9.51051
▁ܕܗܝܟܠܐ	-9.51054
▁ܙܒܘܪ	-9.51084
▁ܠܚܪܬܐ	-9.51111
▁ܡܬܒܥܐ	-9.51117
▁ܡܕܒܚܐ	-9.51202
▁ܒܫܘܩܐ	-9.51217
▁ܒܥܡܡܐ	-9.51247
▁ܒܐܝܕܘܗܝ	-9.51256
▁ܕܒܪܢܫ	-9.51262
▁ܕܩܪܒ	-9.51297
▁ܫܘܥܐ	-9.51311
▁ܥܓܠ	-9.51333
▁ܒܡܪܝܐ	-9.51362
▁ܒܚܫܘܟܐ	-9.51494
▁ܗܝܡܢܘܬܟ	-9.51518
▁ܡܫܠܡܢܐ	-9.51534
▁ܘܗܝܡܢܘ	-9.51544
▁ܘܕܚܠܘ	-9.5155
ܕܝܢܘܤ	-9.51576
▁ܫܒܘܩܘ	-9.51701
▁ܠܡܩܕܘܢܝܐ	-9.51734
▁ܕܤܢܐ	-9.51763
▁ܒܠܒܗܘܢ	-9.51798
ܬܥܒܕܘܢ	-9.51825
▁ܘܫܬܝܢ	-9.51939
▁ܘܨܒܝܢ	-9.51941
▁ܒܦܘܡ	-9.51953
▁ܗܒܘ	-9.52007
▁ܢܛܪܬ	-9.52031
▁ܚܙ	-9.52068
▁ܒܬܪܟܢ	-9.52075
▁ܕܥܘܠܐ	-9.52085
ܙܟܐ	-9.52174
ܝܡܬܐ	-9.52274
▁ܘܐܝܬܝܗ	-9.52296
▁ܚܠܦܝ	-9.52516
▁ܘܡܠܝ	-9.5252
▁ܝܕܝܥܐ	-9.52566
▁ܘܫܩܠܘ	-9.52721
▁ܕܐܬܝܬ	-9.52799
▁ܚܐܪܐ	-9.52978
▁ܩܪܒܬ	-9.53108
ܒܠ	-9.53147
▁ܐܚܝܕܝܢ	-9.53182
▁ܢܤܒܘ	-9.53196
▁ܫܡܟ	-9.53249
▁ܠܡܐܬܐ	-9.53395
ܓܝܪܐ	-9.53499
▁ܡܤܟܢ	-9.53756
▁ܡܫܐܠ	-9.5383
ܐܚܪܢܐ	-9.5389
▁ܘܥܒܕܘ	-9.53911
ܟܬܒܐ	-9.53953
▁ܡܥܡܘܕܝܬܐ	-9.54649
ܚܬܐ	-9.5477
▁ܐܫܠܡ	-9.54799
ܩܛܘܠ	-9.54938
▁ܕܡܟ	-9.54945
▁ܠܝܗܘܕ	-9.54969
ܘܬܗܘܢ	-9.55009
ܬܠܬܐ	-9.55057
▁ܕܤܝܡ	-9.5513
ܝܪܬܐ	-9.55378
▁ܡܟܐ	-9.55452
ܓܪܬ	-9.55488
▁ܕܤܥܪ	-9.55841
▁ܬܚܙܘܢ	-9.55924
▁ܩܡܘ	-9.56144
▁ܓܒܝܐ	-9.56292
▁ܕܒܝ	-9.56385
▁ܘܫܠܡ	-9.56411
▁ܫܒܚ	-9.56524
ܒܝܠ	-9.56611
▁ܡܚܘܬ	-9.56667
▁ܤܟ	-9.56721
▁ܘܠܟ	-9.56777
▁ܒܡܠܟܘܬ	-9.56873
▁ܕܢܚ	-9.56902
▁ܟ	-9.57029
▁ܕܐܬܝ	-9.57115
▁ܫܠܝܐ	-9.57192
▁ܚܒܝܒ	-9.57307
ܐܝܠ	-9.57488
▁ܚܕܘ	-9.57602
▁ܐܪܡܝ	-9.57683
▁ܘܝܕܥܝܢ	-9.57704
▁ܪܓܠܝ	-9.57746
ܟܝܢ	-9.57953
▁ܒܝܘܡܬ	-9.58201
▁ܤܦܩ	-9.58256
▁ܥܬܝܩ	-9.58295
▁ܡܤܒܪܝܢ	-9.58322
▁ܕܚܛ	-9.58351
▁ܢܫܟܚ	-9.58369
▁ܓܒܝ	-9.58583
▁ܐܫܟܚܢ	-9.58597
▁ܡܫܡܫ	-9.58833
▁ܘܪܒܝ	-9.58943
▁ܓܡܝܪܐ	-9.59088
▁ܘܓܒ	-9.59099
▁ܥܐܠ	-9.59118
▁ܬܟܝܠ	-9.59161
▁ܘܕܡܐ	-9.59568
▁ܒܤ	-9.59698
▁ܘܐܦܩ	-9.59768
ܚܘܢ	-9.5978
ܚܘܒܐ	-9.60019
▁ܒܪܬ	-9.60043
ܐܪܡܠܬܐ	-9.60083
▁ܘܩܠ	-9.60086
▁ܘܐܤܝ	-9.60233
ܘܫܛ	-9.60285
▁ܕܢܛܪ	-9.60318
▁ܒܢܝܗ	-9.60449
▁ܕܗܝܡܢܘ	-9.60467
▁ܟܒܪ	-9.60479
▁ܬܫܬ	-9.60506
▁ܐܤ	-9.60526
ܗܪܐ	-9.60606
▁ܕܒܤܪ	-9.60867
▁ܡܤܝܒ	-9.60913
▁ܤܡܬ	-9.60924
▁ܕܬܫܒܘܚܬܗ	-9.60961
▁ܘܢܩܝܡ	-9.60961
▁ܚܛܗܝܟ	-9.60963
▁ܓܠܝܠܝܐ	-9.60963
▁ܕܤܡܝܟ	-9.60968
▁ܒܡܨܥܬܐ	-9.60971
▁ܠܡܐܚܕ	-9.60981
▁ܒܦܪܨܘܦ	-9.60984
▁ܒܝܘܠܦܢܗ	-9.60987
▁ܕܡܩܪܒ	-9.6099
ܬܘܟܠܢ	-9.60998
▁ܡܠܘܗܝ	-9.61008
▁ܒܩܘܫܬܐ	-9.61026
▁ܡܘܕܥ	-9.61036
▁ܘܐܤܪ	-9.61039
▁ܛܢܦܐ	-9.61042
▁ܠܟܦܪܢܚܘܡ	-9.61056
▁ܬܥܒܕ	-9.61085
▁ܬܦܠ	-9.61091
▁ܕܚܛܗܐ	-9.61102
▁ܫܪܓ	-9.61162
▁ܡܬܒܥܝ	-9.61179
▁ܨܝܡܝܢ	-9.6118
▁ܡܚܫܒܬܐ	-9.61184
▁ܢܗܠܟ	-9.61193
▁ܠܩܤܪܝܐ	-9.61217
▁ܠܩܘܒܠ	-9.61218
▁ܪܘܚܝ	-9.61222
▁ܦܬܘܪܐ	-9.61238
▁ܩܘܫܬܐ	-9.61241
ܢܤܓܕܘܢ	-9.61268
▁ܠܫܠܝܚܐ	-9.6129
▁ܢܦܫ	-9.61312
▁ܬܪܬܥܤܪܐ	-9.61323
▁ܕܝܗܘܕܐ	-9.61333
▁ܘܫܠܝܚ	-9.61339
▁ܕܠܘܬܟܘܢ	-9.61353
ܢܫܩܘܠ	-9.61381
▁ܕܒܤܡܐ	-9.6139
▁ܕܫܩܠ	-9.6145
ܬܝܗܝܢ	-9.61492
▁ܕܩܒܠܬܘܢ	-9.615
▁ܕܚܝܒ	-9.61596
ܓܘܢܐ	-9.61624
▁ܡܓܕܦܝܢ	-9.61646
▁ܬܐܡܪܘܢ	-9.61657
▁ܠܤܦܝܢܬܐ	-9.61662
▁ܐܬܝܗܒ	-9.61697
▁ܙܩܝܦܗ	-9.61725
▁ܥܘܪܠܘܬܐ	-9.61754
ܙܕܘܩܝܐ	-9.61755
▁ܚܘܐ	-9.61766
▁ܒܐܝܕܝܗܘܢ	-9.61767
▁ܢܡܠܠܘܢ	-9.61788
▁ܬܐܪܬܐ	-9.61798
▁ܚܝܒܝܢܢ	-9.61805
▁ܐܚܘܟ	-9.61806
ܫܬܠܡ	-9.61871
▁ܠܒܟܘܢ	-9.61886
ܪܫܝܬ	-9.61891
ܢܝܩܐ	-9.61953
▁ܡܤܬܟܠܝܢ	-9.62021
▁ܐܬܕܡܪ	-9.62107
▁ܠܥܒܕܗ	-9.62271
▁ܪܡܝܢ	-9.623
▁ܡܬܪܥܝܢ	-9.62348
▁ܦܠܚܝܢ	-9.62349
▁ܘܐܘܕܝ	-9.62361
▁ܡܠܐܟܝܢ	-9.62415
▁ܡܢܤܝܢ	-9.6246
▁ܫܘܬܦܐ	-9.62529
▁ܫܒܘܩ	-9.62553
▁ܘܙܠ	-9.62591
▁ܫܘܪܝ	-9.62603
ܒܝܬܐ	-9.62626
▁ܚܝܠܬܢ	-9.6264
▁ܪܘܓܙܐ	-9.62671
▁ܡܛܠܬܝ	-9.62737
▁ܠܝܥܩܘܒ	-9.62843
▁ܕܡܟܝܢ	-9.62878
▁ܕܫܘܒܚܗ	-9.62879
▁ܕܫܡܥܬ	-9.62911
▁ܒܡܠܐ	-9.62931
▁ܤܡܟܐ	-9.62955
▁ܘܤܡܘ	-9.62998
▁ܪܥܝܐ	-9.63116
ܡܥܡܘܕܝܬܐ	-9.63123
▁ܘܚܙܝܢ	-9.63206
▁ܐܬܝܐ	-9.63254
▁ܫܡܪܝܐ	-9.63377
▁ܘܠܒܪ	-9.63527
▁ܠܬܠܡܝܕ	-9.63632
▁ܘܐܫܟܚܘ	-9.63659
▁ܐܓܪ	-9.63691
▁ܘܐܫܬܥܝ	-9.63705
▁ܩܒܠ	-9.63754
▁ܘܐܠܦ	-9.63902
ܙܥܩ	-9.63946
▁ܒܥܝ	-9.64
▁ܕܠܠܝܐ	-9.64062
ܝܩ	-9.64167
▁ܕܐܬܝܗܒ	-9.64196
▁ܝܕܥܬܐ	-9.64309
ܕܘܡ	-9.64396
ܬܗܘܢ	-9.64518
▁ܒܫܒܐ	-9.64545
▁ܡܚܒܠ	-9.64552
▁ܐܝܩܪܐ	-9.64753
▁ܕܛܝܒܘܬܗ	-9.64887
▁ܠܐܚܐ	-9.65033
ܤܝܒܪ	-9.65132
▁ܝܩܝܪܬ	-9.65205
▁ܡܛܠܬܗ	-9.65234
ܬܠܡܝܕܝܟ	-9.65318
▁ܕܐܫܪ	-9.65532
▁ܘܠܫܢ	-9.65583
▁ܒܬܘܠܬ	-9.65614
▁ܫܬ	-9.65992
▁ܝܩܕ	-9.66037
▁ܚܠܝܡ	-9.66172
▁ܡܠܐܟ	-9.66213
▁ܡܫܬܥܒܕ	-9.66288
▁ܘܫܪ	-9.66369
▁ܕܟܬܝܒܢ	-9.66504
▁ܦܪ	-9.66515
▁ܟܐܦ	-9.66902
▁ܟܪܝ	-9.66941
▁ܪܘܪܒ	-9.66951
▁ܩܠܝ	-9.67071
ܒܐܝܕܗ	-9.67278
▁ܫܒܩܘ	-9.67451
▁ܤܢܝܩ	-9.67871
▁ܚܘܒ	-9.67883
ܛܝܒܘܬܐ	-9.67908
ܒܘܪܟܬܐ	-9.68011
▁ܝܘܡ	-9.6807
▁ܕܢܦܩܘܢ	-9.68558
ܢܤܐ	-9.68782
ܐܥܒܕ	-9.68817
ܛܘܪܐ	-9.68848
▁ܢܩܒܠ	-9.6902
ܥܡܪܝܢ	-9.69039
▁ܡܟܪܙ	-9.69122
ܝܪܝܢ	-9.69273
▁ܘܡܠܠ	-9.69342
ܡܐܬܝܬܗ	-9.69347
▁ܕܢܩܪ	-9.69932
ܩܝܡܬܐ	-9.69987
ܤܛܢܐ	-9.69997
▁ܘܠܘܬ	-9.70026
ܬܕܡܪܬܐ	-9.70217
ܚܪ	-9.70281
▁ܐܪܒܥܐ	-9.70299
▁ܘܩܛܠ	-9.70306
ܫܝܘܠ	-9.70459
▁ܐܝܕ	-9.70486
▁ܡܙܕܕܩ	-9.70544
ܐܬܬܥܝܪܘ	-9.70576
ܪܘ	-9.70579
▁ܬܛܥ	-9.70817
ܤܥܘܪ	-9.70867
▁ܚܤܝܪ	-9.70889
▁ܘܠܡܠܐܟ	-9.71143
ܡܤܟܢܐ	-9.71145
ܚܡ	-9.71171
ܤܓܘܕ	-9.71175
▁ܕܢܚܫ	-9.71308
ܪܢ	-9.71416
▁ܕܟܝܢ	-9.71456
▁ܘܦܠܚ	-9.71458
▁ܕܩܒܠ	-9.71515
ܪܝܐ	-9.71744
▁ܒܪܟ	-9.71792
▁ܗܝܡܢܘܬܗ	-9.71832
▁ܒܟܝܢ	-9.72041
▁ܕܠܥܠ	-9.72061
▁ܠܡܐܙܠ	-9.72072
▁ܠܡܨܠܝܘ	-9.72072
▁ܐܬܠܒܒ	-9.72072
▁ܩܘܕܫܐ	-9.72074
ܢܚܙܘܢ	-9.72075
▁ܘܡܬܕܡܪ	-9.72075
▁ܩܘܪܢܠܝ	-9.72077
▁ܢܫܬܒܗܪ	-9.72077
▁ܐܓܪܦܘܤ	-9.72078
▁ܛܠܡ	-9.7208
▁ܡܚܫܒܬܗ	-9.72082
ܬܤܠܘܢܝܩ	-9.72084
▁ܕܗܝܡܢܘܬܟܘܢ	-9.72091
▁ܐܠܗܗ	-9.72092
▁ܓܐܪ	-9.72102
▁ܕܒܡܫܝܚܐ	-9.72103
▁ܘܡܤܗܕ	-9.72108
▁ܕܟܝܬܐ	-9.72113
▁ܠܐܒܘܟ	-9.72114
▁ܕܢܫܠܡܝܘܗܝ	-9.72115
▁ܕܒܢܡܘܤܐ	-9.72126
▁ܓܠܝܐܝܬ	-9.7213
▁ܘܗܠܟ	-9.72134
▁ܕܒܐܘܪܫܠܡ	-9.72145
▁ܥܪܤܟ	-9.72158
▁ܢܟܠܐ	-9.72173
▁ܡܢܗܝܢ	-9.72177
▁ܡܛܥܝܢ	-9.72219
▁ܒܐܘܢܓܠܝܘܢ	-9.72219
▁ܐܫܝܓ	-9.72244
▁ܠܚܛܝܐ	-9.72274
▁ܐܝܕܘܗܝ	-9.72305
▁ܡܡܪܚ	-9.72315
▁ܕܐܠܗܢ	-9.72322
▁ܐܟܤܢܝܐ	-9.72327
▁ܕܫܒ	-9.72328
▁ܡܩܪܒ	-9.7233
▁ܤܩܘܒܠ	-9.72338
▁ܕܩܘܫܬܐ	-9.72346
▁ܕܒܒܤܪ	-9.72347
ܐܚܘܕ	-9.72357
▁ܬܩܘ	-9.72409
▁ܒܦܠ	-9.72416
ܦܪܛܘ	-9.72416
▁ܠܐܝܤܪܝܠ	-9.72456
▁ܐܗܘܐ	-9.72463
▁ܢܬܒܛܠ	-9.72477
▁ܢܐܒܕ	-9.72478
▁ܒܚܘܪܒܐ	-9.72487
▁ܕܐܤܝܪ	-9.72494
▁ܕܡܛܠܬܗ	-9.725
▁ܢܥܠܘܢ	-9.72501
▁ܢܘܗܪܗ	-9.72536
▁ܕܠܐܢܫ	-9.72537
▁ܒܕܝܢܐ	-9.72589
▁ܥܗܕܝܢ	-9.7261
▁ܢܨܪܬ	-9.72615
▁ܫܩܘܠ	-9.72623
▁ܡܤܝܒܪܝܢ	-9.72639
▁ܚܪܒܐ	-9.72641
▁ܢܥܘܠ	-9.72656
▁ܒܡܘܡܬܐ	-9.7267
▁ܕܟܪܐ	-9.72711
▁ܪܗܘܡܝ	-9.72731
ܕܪܐ	-9.72762
▁ܥܝܠܐ	-9.72776
▁ܕܙܕܝܩܘܬܐ	-9.72803
▁ܩܝܤܐ	-9.72855
ܦܬܐ	-9.7287
▁ܛܠܝܬܐ	-9.72951
▁ܝܡܝܢܝ	-9.72965
▁ܓܙܪܬܐ	-9.73058
▁ܕܦܪ	-9.7306
ܡܬܠܐ	-9.73079
▁ܩܪܨܐ	-9.73089
▁ܒܡܠܟܘܬܗ	-9.73094
▁ܡܠܚ	-9.73095
▁ܘܪܕܝܢ	-9.73118
▁ܠܐܢܬܬܗ	-9.73206
▁ܦܠܓܘܬܐ	-9.73265
▁ܬܫܥ	-9.73347
▁ܕܚܫܘܟܐ	-9.73364
ܦܪܚܬܐ	-9.73439
▁ܘܡܠܬܗ	-9.73518
▁ܙܡܪ	-9.73562
▁ܬܐܬܐ	-9.73627
▁ܕܚܠܦ	-9.7364
▁ܘܪܘܚ	-9.73711
▁ܐܡܝܢܐܝܬ	-9.73764
▁ܫܒܬܐ	-9.73791
▁ܒܟܐܦܐ	-9.7388
▁ܡܫܟܢ	-9.7389
▁ܘܡܚ	-9.73939
▁ܡܟܫ	-9.74005
▁ܒܪܝܟ	-9.74054
▁ܝܩܪ	-9.74193
▁ܡܠܬܟ	-9.74225
▁ܘܤܓܝ	-9.74257
▁ܘܛܝܡܬܐܘܤ	-9.74287
▁ܘܠܝ	-9.74331
▁ܪܛܢ	-9.74405
ܘܪ	-9.74442
▁ܒܝܕܥܬܐ	-9.74496
▁ܕܚܠܘ	-9.74512
▁ܡܬܪܥ	-9.74556
▁ܐܪܥ	-9.7463
▁ܐܫܬܡܥܬ	-9.74754
▁ܦܥ	-9.74788
▁ܕܝܘܢܐ	-9.74975
▁ܘܐܢܬܬ	-9.74988
▁ܕܩܛܠ	-9.75156
▁ܡܡܠܠܝܢܢ	-9.7516
▁ܒܢܦܫܟ	-9.75302
▁ܒܠܚܘܕܝ	-9.75555
▁ܘܫܒܚ	-9.75698
▁ܢܤ	-9.75706
ܪܒܝ	-9.75772
ܪܢܐ	-9.75838
ܐܬܪܚܡ	-9.75951
ܫܠܬܐ	-9.76003
ܘܕ	-9.76191
ܥܝܢܝܗܘܢ	-9.76212
ܪܝ	-9.76227
▁ܪܚܡܝ	-9.76231
▁ܒܙܒܢܗ	-9.76256
▁ܐܪܟܘܢ	-9.76297
ܟܤܝܐ	-9.76305
▁ܘܡܫܒܚ	-9.76374
ܪܡܝܬܗ	-9.76398
ܕܬܐ	-9.76434
▁ܟܘܟܒܐ	-9.76448
▁ܡܝܬܝܢ	-9.76459
ܪܝܘܤ	-9.76595
▁ܟܐ	-9.76655
▁ܕܓܒ	-9.76658
▁ܕܡܠܟܘܬ	-9.76689
▁ܐܒܕܢ	-9.76764
▁ܕܡܠܟ	-9.76849
▁ܕܐܚܐ	-9.76882
▁ܡܘܡܐ	-9.76961
▁ܡܫܬܘܬ	-9.77052
▁ܫܠ	-9.77132
ܛܡܐ	-9.77181
▁ܘܫܪܝܪܐ	-9.77513
ܠܘܢ	-9.77693
▁ܚܡܬ	-9.77738
▁ܘܐܒܝ	-9.77841
ܦܝ	-9.77866
ܫܐܠܝܢ	-9.77943
▁ܡܫ	-9.77968
▁ܩܫܝܐ	-9.78112
ܛܢܐ	-9.78139
ܙܕܩܦ	-9.78223
▁ܕܤܥܪܐ	-9.78464
ܬܘܪܐ	-9.78493
▁ܡܨܥܬ	-9.78657
▁ܕܡܨܠ	-9.78682
ܢܐܙܠܘܢ	-9.78702
▁ܕܡܚܒ	-9.78764
▁ܠܪܒܝ	-9.78847
▁ܘܛܒ	-9.79055
▁ܘܒܥܝ	-9.79204
▁ܘܢܦܩܬ	-9.79259
▁ܚܟܝܡ	-9.79288
▁ܡܦܩܕ	-9.79396
▁ܢܡܘܤ	-9.79463
▁ܕܡܛܝܒ	-9.79577
▁ܒܪܢܫ	-9.79611
▁ܡܡ	-9.79677
▁ܫܡܫ	-9.79847
ܦܛܪ	-9.80066
▁ܘܗܘܝܬ	-9.80102
▁ܕܒܪܐ	-9.80142
ܐܟܠܘܢ	-9.80158
▁ܟܤܦ	-9.80201
▁ܐܡܠܠ	-9.80442
▁ܠܐܘܪܚ	-9.80588
ܤܝܢ	-9.80607
ܚܛܐ	-9.80613
▁ܕܥܬܝܕܝܢ	-9.8068
▁ܕܝܬܩ	-9.80752
ܩܘܤ	-9.80815
▁ܘܡܫܡܫ	-9.80873
▁ܡܟܪܙܝܢ	-9.80937
▁ܒܚܪܬ	-9.81046
ܠܗ	-9.81147
ܬܠܡܝܕܐ	-9.81472
ܩܢ	-9.81516
▁ܐܫܬܡܥ	-9.81596
ܐܤܘܪ	-9.81673
▁ܘܗܘܝ	-9.81995
▁ܝܕܥܬ	-9.81995
▁ܢܤܒܝܢ	-9.82006
▁ܕܥܠܝ	-9.82062
▁ܩܠ	-9.82083
ܡܟ	-9.82145
ܦܠܚܐ	-9.82232
▁ܘܚܠܦ	-9.8225
▁ܘܐܟܠ	-9.82422
ܥܝܪ	-9.82573
▁ܡܩܒܠܝܢ	-9.82573
▁ܘܐܝܬܝܘ	-9.82575
ܟܪܙܘ	-9.82827
ܪܘܓܙܗ	-9.82889
ܬܪܐ	-9.82978
ܡܠܠܘ	-9.82983
ܚܘ	-9.83008
ܟܘܟܒܐ	-9.83009
ܕܟܐ	-9.8302
ܫܓܘܫܝܐ	-9.83051
ܫܬܩܠ	-9.83057
ܕܐܢ	-9.83104
ܕܝܬܒ	-9.83129
ܢܗܝܪܐ	-9.83234
ܩܢܛܪܘܢ	-9.83244
▁ܕܫܪܝܪ	-9.83245
ܗܟܘܬ	-9.83255
ܛܪܐ	-9.83327
ܘܚܐ	-9.83338
ܬܝܕܥ	-9.83349
ܙܝܢ	-9.83496
ܫܡܪܝܐ	-9.8351
▁ܢܘܚ	-9.83634
▁ܘܤܝܡ	-9.8366
ܥܕܥܕܐ	-9.8369
▁ܕܗܢܘ	-9.83725
ܪܬ	-9.83756
▁ܩܢܝ	-9.83996
▁ܪܓܠܝܟ	-9.84059
▁ܩܒܠܬ	-9.84095
ܩܘ	-9.84197
ܛܛܘܤ	-9.84203
ܡܘܢ	-9.84218
ܝܩܝܢ	-9.84389
▁ܠܩܤܪ	-9.84449
▁ܘܢܦܠܘ	-9.84466
ܬܪܝܗܘܢ	-9.84486
▁ܐܫܬܒܗܪ	-9.84572
▁ܠܕܪܡܤܘܩ	-9.84572
▁ܕܐܫܬܕܪ	-9.84572
▁ܐܠܝܫܒܥ	-9.84572
▁ܕܒܐܠܗܐ	-9.84572
▁ܕܒܝܗܘܕ	-9.84572
▁ܕܙܕܩ	-9.84574
▁ܨܒܝܐ	-9.84574
▁ܘܐܘܚܕ	-9.84575
▁ܤܘܟܐ	-9.84583
▁ܘܢܬܠ	-9.84589
▁ܘܡܨܠܝܢ	-9.8459
▁ܕܐܤܝܡ	-9.84606
▁ܘܐܬܕܟܪ	-9.84611
▁ܡܫܠܡܢܘܬ	-9.84613
▁ܘܦܪܫ	-9.84621
▁ܩܪܨܘܗܝ	-9.84633
▁ܦܬܝܚ	-9.84633
▁ܕܡܫܠܡ	-9.84635
▁ܠܫܒܥ	-9.84645
▁ܠܩܪܝܒܟ	-9.84696
▁ܢܫܬܩܠ	-9.84703
▁ܥܒܕܝܟ	-9.84723
▁ܘܒܐܪܥܐ	-9.84735
▁ܬܫܒܘܚܬܗ	-9.84748
▁ܐܠܗܟ	-9.8476
▁ܡܬܚܒܠ	-9.84766
▁ܡܬܟܪܟ	-9.84769
▁ܫܢܬ	-9.84769
▁ܬܥܠܘܢ	-9.84786
▁ܐܢܝܚ	-9.84802
▁ܐܬܟܬܒ	-9.84804
▁ܥܝܢܝܟ	-9.84813
▁ܕܡܘܠܟܢܐ	-9.84814
▁ܠܡܚܝܘ	-9.84827
▁ܕܙܝܬܐ	-9.84831
ܠܚܡܐ	-9.84836
▁ܢܘܢܝܢ	-9.84843
▁ܤܪܝܩܬܐ	-9.84848
▁ܚܡܝܪ	-9.84853
▁ܡܫܥܒܕ	-9.8486
▁ܘܩܥܘ	-9.84892
▁ܡܝܩܪ	-9.84892
▁ܢܩܝܦ	-9.84897
▁ܦܨ	-9.84901
ܪܥܐ	-9.84902
▁ܐܫܬܐܠ	-9.84931
▁ܤܓܝܐܢ	-9.84964
▁ܕܝܠܝܕ	-9.84968
▁ܒܥܕܥܕܐ	-9.84969
▁ܡܬܝܗܒ	-9.84987
▁ܪܒܘ	-9.85009
ܦܪ	-9.85018
▁ܒܡܐܬܝܬܗ	-9.85032
▁ܪܫܝܥܐ	-9.85043
▁ܠܝܘܤܦ	-9.85053
▁ܕܒܟܠܗ	-9.85066
▁ܡܢܗܪ	-9.8509
▁ܫܡ	-9.85102
▁ܐܪܝܡ	-9.85117
▁ܘܒܚܘܒܐ	-9.85145
▁ܘܫܒܥ	-9.8515
▁ܡܬܗܦܟܝܢ	-9.85151
▁ܤܓܝܐܝܢ	-9.85158
▁ܠܥܕܥܕܐ	-9.85175
▁ܬܕܥܘܢ	-9.85186
▁ܩܢܝܢܗ	-9.85194
▁ܒܬܫܡܫܬ	-9.85203
▁ܡܬܚܙܝܢ	-9.85217
▁ܙܝܬܐ	-9.85221
▁ܢܫܒܘܩ	-9.85231
▁ܠܥܡܗ	-9.85231
ܦܘܤ	-9.85234
▁ܦܘܡ	-9.85242
▁ܡܫܬܒܗܪܝܢ	-9.85252
▁ܝܠܘܕ	-9.85266
▁ܠܚܘܪܒܐ	-9.85267
▁ܕܝܘܪܕܢܢ	-9.85294
▁ܕܕܝܠܗ	-9.85297
▁ܒܡܬܠܐ	-9.85309
▁ܙܕܩܬܐ	-9.85324
▁ܕܦ	-9.8533
ܥܝܢܐ	-9.85361
▁ܠܤܗܕܘܬܐ	-9.85374
▁ܠܩܕܝܫܐ	-9.85393
▁ܕܒܠܒ	-9.85399
▁ܠܢܒܝܐ	-9.85405
▁ܙܟܪܝܐ	-9.85407
▁ܗܝܡܢܘܬܗܘܢ	-9.85414
▁ܒܚܟܡܬ	-9.85419
▁ܐܒܗܬܢ	-9.85435
▁ܠܬܚܬ	-9.85456
▁ܫܪܝܪܬܐ	-9.85519
▁ܘܕܚܠ	-9.85565
▁ܤܢܝܐ	-9.85582
▁ܒܠܚܘܕܝܗܘܢ	-9.85625
▁ܠܥܝܢ	-9.8563
ܪܟ	-9.85705
ܢܬܓܠܐ	-9.85745
▁ܒܬܪܟ	-9.85805
▁ܫܘܬܦܘܬܐ	-9.85815
▁ܛܢܦܘܬܐ	-9.85835
▁ܥܝܪܝܢ	-9.85839
▁ܚܘܒܟܘܢ	-9.85846
▁ܡܘܡ	-9.85859
▁ܠܬܚܘ	-9.85872
▁ܡܝܬܝܢܢ	-9.85873
▁ܚܪܬܐ	-9.85896
▁ܦܐܪ	-9.85903
ܡܠܟܘܬܐ	-9.85929
▁ܕܥܒܝܕ	-9.85998
▁ܕܐܒܘ	-9.86107
▁ܓܪܒܐ	-9.86136
▁ܒܐܦܝ	-9.86195
▁ܠܝܘܡܢܐ	-9.86208
▁ܕܢܒܝܘܬܐ	-9.86283
▁ܐܝܤ	-9.86404
▁ܥܒܕܝܗܘܢ	-9.86455
▁ܛܡܐ	-9.86473
▁ܕܫܐܕܐ	-9.86473
▁ܘܙܒܢ	-9.86494
▁ܡܤܝܒܪܢܘܬܐ	-9.8653
▁ܫܒܩܬ	-9.86539
▁ܡܩܝܡ	-9.86573
ܚܝ	-9.86606
ܙܡܘܪ	-9.86806
▁ܥܒܕܝܟܘܢ	-9.86942
▁ܘܠܡܕܝܢܬ	-9.8696
▁ܘܫܘܪ	-9.87119
▁ܚܠ	-9.8717
ܠܝܥܩܘܒ	-9.87234
▁ܢܫܟܚܘܢ	-9.87316
▁ܕܠܘ	-9.87328
▁ܒܥܪܤ	-9.87333
▁ܤܗܕܘܬܗ	-9.87367
▁ܚܝܒܝܢ	-9.87384
▁ܒܥܝܬ	-9.87473
▁ܘܫܘ	-9.87587
▁ܘܪܚܡܐ	-9.87659
▁ܐܟܘܠ	-9.87675
ܥܠܐ	-9.87764
▁ܫܦܝܪܬܐ	-9.87781
ܘܪܝܗ	-9.8779
ܢܦܫܟܘܢ	-9.87832
▁ܕܢܚܘ	-9.8794
▁ܘܩܒܠ	-9.88002
▁ܠܬܠܬ	-9.8808
ܝܫܘܥ	-9.88298
▁ܘܕܝܢܐ	-9.88363
ܟܢܐ	-9.88702
ܪܝܡ	-9.88734
▁ܕܒܚܕ	-9.88746
▁ܢܬܡܠ	-9.88756
▁ܒܝܘܡܬܗ	-9.88917
▁ܒܥܡܐ	-9.89133
▁ܬܒ	-9.8927
▁ܥܒܕܬܘܢ	-9.89298
▁ܠܘܝ	-9.89345
▁ܕܒܢܝܐ	-9.8936
▁ܕܩ	-9.89446
▁ܢܦܩܝܢ	-9.89549
▁ܠܬܪܥܤܪ	-9.89558
▁ܘܡܠܦܝܢ	-9.89559
▁ܠܗܪܟܐ	-9.89633
▁ܐܫܬܐ	-9.89825
▁ܕܥܒܕܬ	-9.89836
ܐܬܟܢܫܘ	-9.89942
ܢܐܡܪܘܢ	-9.90013
▁ܐܫܬ	-9.90207
▁ܙ	-9.9021
▁ܘܒܡ	-9.90368
▁ܢܦܩܘܢ	-9.90479
▁ܕܐܫܟܚ	-9.90528
▁ܨ	-9.90615
▁ܘܡܩܒܠ	-9.90699
▁ܕܐܚ	-9.90785
ܕܝܐ	-9.90834
▁ܐܪܡܝܐ	-9.90973
▁ܐܒܕ	-9.90984
▁ܕܒܢ	-9.91068
▁ܐܘܠܨܢ	-9.91245
▁ܢܚ	-9.91249
▁ܚܠܝܡܐ	-9.91285
ܡܠܐ	-9.91344
▁ܝܘ	-9.91351
▁ܡܚܒܝܢ	-9.91384
▁ܢܛܪܝܢ	-9.91537
ܠܩ	-9.91557
ܫܢܐ	-9.9158
▁ܡܛܐ	-9.91592
▁ܚܙܬ	-9.91594
ܚܫܘܟܐ	-9.91671
▁ܒܩܪ	-9.91692
▁ܪܓ	-9.91714
▁ܕܢܤܝܡ	-9.91748
▁ܘܫܘܠܛܢܐ	-9.91805
▁ܢܫܡܥܘܢ	-9.9194
▁ܓܡܪ	-9.9202
ܬܫܥ	-9.9238
▁ܡܫܟܚܝܢܢ	-9.92409
▁ܙܩܝܦ	-9.92431
▁ܪܓܠ	-9.92466
▁ܤܝܡܝܢ	-9.92745
▁ܚܨ	-9.92964
▁ܡܬܬ	-9.93125
ܠܟ	-9.93158
ܡܘ	-9.93188
ܟܒܪܝܬܐ	-9.93215
▁ܐܚܪܝܬ	-9.93316
ܒܙܚ	-9.93456
▁ܙܥܘܪܝ	-9.9365
ܒܝܫܐ	-9.93659
ܥܪܩ	-9.93747
▁ܢܫܬ	-9.938
ܚܘܬ	-9.9394
▁ܙܟܝ	-9.94048
ܪܓܙ	-9.94083
▁ܒܟܠܗܝܢ	-9.94091
▁ܘܚܘܝ	-9.94092
▁ܕܡܫܡܫ	-9.9417
▁ܒܢܝܢܐ	-9.94206
▁ܒܥ	-9.9428
ܟܫܠ	-9.94325
▁ܙܠܝ	-9.94369
ܕܡܘܬܐ	-9.94422
▁ܘܚܘܪ	-9.94428
▁ܪܓܬ	-9.94572
ܛܠܝܢ	-9.94732
ܕܡܟ	-9.94806
▁ܒܛܠ	-9.94871
▁ܒܚܕܘܬ	-9.949
▁ܘܩܘܝ	-9.95045
ܤܘܪܝܐ	-9.95048
▁ܟܘܪܗܢ	-9.95162
ܫܒܩ	-9.95173
▁ܘܪܫ	-9.95331
▁ܘܒܗܕ	-9.9534
▁ܘܐܢܕ	-9.9545
▁ܠܕ	-9.95461
ܕܘ	-9.95461
▁ܕܗܝܡܢܬ	-9.95506
ܪܐܘܤ	-9.95536
ܐܪܥܐ	-9.9555
▁ܘܫܕ	-9.95705
ܢܘܗܪܐ	-9.95777
▁ܘܤܗܕ	-9.95886
▁ܒܝܗܘܕ	-9.95933
ܓܢ	-9.96104
▁ܤܝܒܪܬ	-9.96259
▁ܚܦܝܛ	-9.96279
▁ܠܐܠܗ	-9.96522
▁ܒܬܪܥ	-9.96533
▁ܕܟܐ	-9.96547
ܠܛ	-9.96705
▁ܐܚ	-9.96761
ܚܪܝܢ	-9.96814
ܝܕܥܬܐ	-9.96858
▁ܕܐܬܪ	-9.96909
ܐܚܪܝܢ	-9.96969
ܛܝܪܐ	-9.97019
▁ܕܥܒܕܘ	-9.9704
▁ܕܫܪܝ	-9.97176
▁ܕܢܫܟܚ	-9.97193
ܐܪܓܘܢܐ	-9.97377
▁ܛܝܒ	-9.97395
▁ܡܬܕܝܢ	-9.97414
ܩܢܝܐ	-9.97414
ܢܝܗܝ	-9.97442
▁ܘܫܢܝ	-9.9746
ܩܘܪܒܢܐ	-9.97528
▁ܘܐܬܕܡܪ	-9.97634
▁ܘܐܚܪ	-9.97743
ܢܤܝܘܢܐ	-9.97835
▁ܥܒܝܕ	-9.97883
ܙܒܘ	-9.97913
▁ܘܚܛܝ	-9.97964
▁ܥܡܠ	-9.98003
ܙܝܥ	-9.98035
▁ܘܪܒ	-9.9806
ܩܒܪܐ	-9.98143
▁ܐܤܬܟܠܘ	-9.98156
ܬܝܡܢܐ	-9.98187
▁ܐܬܩܪܒ	-9.98234
▁ܨܒܝܬ	-9.98255
▁ܦܓ	-9.98266
▁ܘܗܒ	-9.98272
▁ܕܢܕܥ	-9.98293
▁ܕܢܩܘ	-9.98357
▁ܥܒܪܐ	-9.98435
ܐܫܥܝܐ	-9.98437
ܠܟܘܢ	-9.98456
ܦܢ	-9.98537
▁ܕܩܪܝ	-9.98591
ܥܕܬܗ	-9.98723
▁ܕܦܠܚ	-9.98724
ܡܢܐ	-9.98735
▁ܕܩܒܠܬ	-9.98802
▁ܩܪܝ	-9.98827
▁ܒܐܦܤܘܤ	-9.98857
▁ܕܐܬܝܠܕ	-9.98857
▁ܚܪܝܦܬܐ	-9.98857
▁ܐܤܛܕܘ	-9.98857
▁ܕܢܫܬܒܚ	-9.98857
▁ܢܫܬܟܚ	-9.98858
▁ܡܓܠܬ	-9.98858
▁ܡܕܒܪܢ	-9.98859
ܐܝܪܝܚܘ	-9.98859
ܙܪܘܥ	-9.98859
▁ܘܢܫܠܡܘܢ	-9.98859
▁ܪܘܫܡ	-9.98861
▁ܐܬܦܢܝ	-9.98865
▁ܟܬ	-9.98866
▁ܕܪܟܫ	-9.98871
▁ܒܢܒܝܐ	-9.98872
▁ܒܐܤܟ	-9.98872
▁ܘܬܡܗ	-9.98875
ܩܘܪܢܬܘܤ	-9.98879
ܢܫ	-9.98884
▁ܒܓܗܢܐ	-9.98887
▁ܘܚܙܬ	-9.9889
▁ܠܡܦܠܚ	-9.98891
▁ܡܬܐܫܕ	-9.98894
▁ܬܥܒܪ	-9.98917
▁ܕܒܗܝܡܢܘܬܐ	-9.9893
▁ܦܓܥ	-9.98966
▁ܐܟܘܬܝ	-9.98973
▁ܘܐܬܦܬܚ	-9.98975
▁ܒܓܠܝܠܐ	-9.98977
▁ܙܝܙܢܐ	-9.98978
▁ܠܡܠܦܘ	-9.98978
▁ܦܝܠܟܤ	-9.98978
▁ܕܦܛܝܪܐ	-9.98979
▁ܡܫܬܢܩ	-9.98985
▁ܘܬܡܝܗ	-9.98989
▁ܕܡܤܒܪ	-9.9899
▁ܝܘܩܪ	-9.98991
▁ܝܘܢܝܐ	-9.98995
ܠܤܛܝܐ	-9.98996
▁ܕܒܐܪܥܐ	-9.98997
▁ܕܐܗܘܐ	-9.99012
▁ܕܠܡܪܢ	-9.99014
▁ܕܬܬܠ	-9.99052
▁ܐܬܝܕܥ	-9.99054
▁ܫܬܝܩ	-9.99061
ܚܘܬܐ	-9.99073
▁ܒܟܐܢܘܬܐ	-9.99085
▁ܘܥܐܠ	-9.99104
▁ܫܛܝ	-9.99145
▁ܘܒܚܝܠܐ	-9.99171
ܘܢܝܗܝ	-9.99186
▁ܕܡܘܬܗ	-9.99199
▁ܐܒܗܝܟܘܢ	-9.99201
▁ܒܟܢܘܫܬܗܘܢ	-9.99214
ܡܙܕܪܥ	-9.99217
▁ܢܛܥܡ	-9.99239
▁ܒܢܘܗܪܐ	-9.99268
▁ܐܓܪܗ	-9.99272
▁ܦܪܝܩ	-9.99288
▁ܤܟܠܘܬܐ	-9.99307
▁ܕܕܝܘܐ	-9.99336
▁ܐܬܝܕܥܬ	-9.99346
▁ܡܫܪܪ	-9.99385
ܬܥܤܪ	-9.99392
▁ܘܥܤܪ	-9.99398
▁ܐܠܝܨ	-9.99399
▁ܩܝܦܐ	-9.99416
▁ܕܐܬܬ	-9.99428
▁ܕܡܠܟܝܙܕܩ	-9.99446
▁ܡܓܢ	-9.99446
▁ܡܫܚܠܦܐ	-9.99473
▁ܡܠܘ	-9.99485
▁ܚܛܗܝܗܘܢ	-9.99516
▁ܐܘܪܚܗ	-9.99531
▁ܐܫܕ	-9.99541
▁ܕܠܘܬܝ	-9.99564
▁ܠܡܩܛܠܗ	-9.99581
▁ܚܒܪܗ	-9.99583
▁ܘܐܠܘ	-9.99595
▁ܬܪܡ	-9.99629
▁ܡܚܝܢܢ	-9.99629
▁ܓܘܕܦܐ	-9.99647
▁ܗܠܟܘ	-9.99654
▁ܚܘܤ	-9.99658
▁ܕܙܕܝܩܐ	-9.99665
▁ܚܪܬܗ	-9.99669
ܬܗܦܟ	-9.9968
▁ܒܤܡܐ	-9.99682
▁ܐܤܬܟܠ	-9.99704
ܢܦܪܘܥ	-9.99704
ܥܬܐ	-9.9971
▁ܠܐܠܗܢ	-9.99771
▁ܡܕܢܚ	-9.99783
▁ܕܡܥܕ	-9.99804
▁ܐܫܕܪ	-9.99817
▁ܡܚܐ	-9.9985
ܓܘܓ	-9.99864
▁ܝܪܬܘܬܐ	-9.99871
▁ܠܥܤܝܢ	-9.99886
▁ܟܟܪܝܢ	-9.99909
▁ܘܐܦܩܘܗܝ	-9.9991
▁ܘܢܓܕ	-9.9991
▁ܘܢܩܛܠܘܢܝܗܝ	-9.99916
▁ܠܢܤܝܘܢܐ	-9.99976
ܘܝܐ	-10
▁ܐܬܚܫܒ	-10
▁ܫܒܝܩ	-10.0001
ܠܘܛܬܐ	-10.0003
▁ܪܕ	-10.0006
▁ܕܢܤܩ	-10.0008
▁ܪܓܝܓܬܐ	-10.0012
▁ܠܡܨܪܝܢ	-10.0014
ܚܒܨ	-10.002
▁ܒܛܘܪܐ	-10.0023
▁ܡܠܬܝ	-10.0027
▁ܠܤܓܝܐܐ	-10.0032
▁ܛܘܒܝܟ	-10.0032
ܠܤܓܝܐܐ	-10.0032
▁ܤܝ	-10.0033
▁ܘܒܐܝܡܡܐ	-10.0034
▁ܠܒܤܬܪܗ	-10.0037
▁ܠܡܫܬܐ	-10.0038
▁ܡܛܬ	-10.0039
▁ܠܥ	-10.0039
▁ܒܛܝܒܘܬܗ	-10.0039
▁ܕܢܘܗܪܐ	-10.0041
▁ܐܥܠ	-10.0041
▁ܘܟܢܫܘ	-10.006
ܘܒܐ	-10.0062
▁ܕܓܢ	-10.0063
▁ܘܒܗܝܡܢܘܬ	-10.0065
▁ܢܩܦ	-10.0068
▁ܘܠܚܡܐ	-10.0077
▁ܦܪܚܬܐ	-10.0077
▁ܕܢܘܒܕ	-10.0084
▁ܕܡܪܝ	-10.0096
▁ܢܩܘܐ	-10.0097
▁ܢܨܒ	-10.0098
▁ܘܐܚܕܘ	-10.01
▁ܝܘܢ	-10.0103
▁ܕܛܝܒܘܬܐ	-10.0104
ܨܗܐ	-10.0109
▁ܕܬܐܬ	-10.0122
▁ܐܝܬܝܢ	-10.0122
▁ܕܡܩܒܠ	-10.0126
▁ܪܚܡܬ	-10.0129
▁ܘܐܫܬ	-10.0132
▁ܠܒܢ	-10.0134
▁ܕܡܪܗ	-10.0134
▁ܕܝܢܪܐ	-10.0137
▁ܢܚܬܘ	-10.0145
▁ܐܪ	-10.0156
▁ܕܕ	-10.0162
ܥܡܪ	-10.017
▁ܕܫܒܩ	-10.0175
▁ܘܒܤܪ	-10.0179
▁ܥܠܝܡ	-10.018
▁ܢܥܒܕܘܢ	-10.018
▁ܨܒܝܢܝ	-10.0183
▁ܕܩܝܡܬܐ	-10.0187
ܬܓܙܪ	-10.0187
▁ܘܡܚܝܢ	-10.0192
▁ܡܫܚܐ	-10.0192
▁ܠܒܪܐ	-10.0204
▁ܢܚܘܢ	-10.0204
ܤܘܤܝ	-10.0206
ܠܐܠܗܐ	-10.0207
ܬܗܝܡܢ	-10.021
ܚܡܬܗ	-10.0217
▁ܒܪܬܗ	-10.022
ܡܠܬܝ	-10.0226
▁ܕܫܡܥܢ	-10.0226
▁ܒܡܕܝܢܬܗ	-10.0228
▁ܘܡܫܡܫܢܐ	-10.0238
▁ܬܐܡܪ	-10.0254
▁ܒܡܕܥܝ	-10.0254
▁ܩܘܪܝ	-10.0258
▁ܛܒܥ	-10.0259
▁ܨܠܝ	-10.026
▁ܕܒܪܘܚܐ	-10.0261
ܝܢܝ	-10.0277
▁ܕܡܚܒܝܢ	-10.028
▁ܘܠܘ	-10.0315
▁ܕܟܐܢ	-10.0315
ܢܗܝܡܢܘܢ	-10.0317
▁ܠܟܐܢܘ	-10.0319
ܫܠܝܡܘܢ	-10.032
▁ܐܡܝ	-10.032
▁ܢܩܒܠܘܢ	-10.0325
ܓܫܘ	-10.0327
▁ܘܨܒ	-10.0333
▁ܫܐܠܗ	-10.0342
▁ܕܫܪܝܪܐ	-10.0352
▁ܕܬܠܡܝܕ	-10.0352
▁ܚܨܕܐ	-10.0361
ܦܠܓ	-10.0367
▁ܩܪܢܬ	-10.0369
▁ܒܒܤܪܐ	-10.0369
▁ܙܝܢ	-10.0372
▁ܡܤ	-10.0373
▁ܒܗܬ	-10.0411
ܚܫܡܝܬܐ	-10.0421
ܡܙܒܢܝܢ	-10.0435
▁ܒܫܒ	-10.0444
▁ܘܕܚܠܬ	-10.0446
▁ܡܨ	-10.0448
▁ܕܕܠ	-10.0463
▁ܕܟܘܪܤܝ	-10.0474
ܚܘܪܒܐ	-10.0478
▁ܚܠܦܝܟ	-10.0491
▁ܥܠܝܗܝܢ	-10.0492
▁ܕܡܠܬܐ	-10.0495
▁ܕܥܬܝܕܢ	-10.0501
ܬܪܥܐ	-10.0526
▁ܪ	-10.0527
▁ܡܫܒܚܝܢ	-10.0529
▁ܒܥܡ	-10.0532
▁ܠܡܠܐܟ	-10.0533
▁ܕܡܝܢ	-10.0535
ܡܤܬܒܪܝܢ	-10.0536
▁ܕܪܫ	-10.0541
▁ܐܘܕܥ	-10.0542
ܟܪ	-10.0544
▁ܘܢܫܐ	-10.0568
ܫܬܐ	-10.0581
▁ܬܪܝܨ	-10.0582
▁ܦܠܚܝ	-10.0582
▁ܪܚܡܝܢ	-10.0588
▁ܗܠܟ	-10.0593
▁ܡܘܬ	-10.0593
ܦܓܪܟ	-10.0602
ܒܗ	-10.0604
▁ܐܚܝܬܟ	-10.0607
▁ܕܫܐܠܝܢ	-10.0611
ܙܠܐ	-10.0615
ܥܬܝܪܐ	-10.0618
▁ܕܡܥ	-10.0622
▁ܘܢܫ	-10.0628
▁ܒܥܒܕ	-10.0644
ܡܠܠ	-10.0673
▁ܪܥܝܢܟ	-10.0688
▁ܠܥܡ	-10.0692
ܪܟܒ	-10.0695
▁ܒܬܪܗܘܢ	-10.0696
ܒܐܫ	-10.07
▁ܐܪܡ	-10.0701
ܥܪܩܘ	-10.0705
▁ܕܡܛ	-10.0717
ܬܘܢܝܗܝ	-10.0717
ܬܢܝ	-10.0725
▁ܘܡܫܚ	-10.0729
▁ܚܘܪ	-10.0747
ܗܝܡܢܘܬܐ	-10.075
▁ܒܥܠܕܒܒܝܟ	-10.0756
ܬܪ	-10.0756
▁ܐܝܬܝܗܝܢ	-10.0768
ܡܠܐܟܘܗܝ	-10.0774
▁ܕܡܨ	-10.0777
▁ܟܪܤ	-10.0777
ܝܦ	-10.0778
▁ܕܡܛܝ	-10.0779
▁ܒܤܝܡ	-10.0793
▁ܕܐܫܟܚܬ	-10.0794
ܕܗ	-10.0803
▁ܕܢܫ	-10.0811
▁ܕܡܩܘ	-10.0826
▁ܘܡܤܟ	-10.083
▁ܘܥܠܘ	-10.0842
▁ܚܡ	-10.0844
▁ܘܪܕ	-10.0862
ܒܐܘܠܨܢܐ	-10.0879
▁ܚܟܡ	-10.0882
▁ܡܝܬܘ	-10.0892
▁ܩ	-10.0894
ܪܝܫ	-10.0898
ܡܟܬܒ	-10.0908
▁ܘܫܡܫ	-10.0911
▁ܙܢܝ	-10.0919
ܕܝܬܩܐ	-10.092
ܤܡ	-10.0923
ܒܢܐ	-10.0923
▁ܐܕܪܟ	-10.0945
▁ܕܝܕܥܬ	-10.0947
▁ܡܐܤ	-10.095
▁ܐܫܐܠ	-10.0969
ܐܢܫ	-10.0984
▁ܡܦܝܤ	-10.0994
▁ܕܒܝܫܐ	-10.1039
▁ܚܘܪܒ	-10.105
ܦܓܪܐ	-10.1051
ܒܘ	-10.106
ܟܗܢܐ	-10.1061
ܩܠ	-10.109
▁ܟܐܢܘܬ	-10.1098
▁ܒܪܚܡ	-10.1109
ܝܚܐ	-10.1118
▁ܡܘܒܠ	-10.1123
▁ܕܫܐܠ	-10.1124
▁ܬܪ	-10.1144
ܢܩܐ	-10.1148
▁ܒܚܛܗ	-10.1152
▁ܡܫܬ	-10.1155
ܤܗܕܘܬܐ	-10.1166
▁ܒܠܘ	-10.1176
▁ܘܬܒܥ	-10.1181
ܪܓܝܓܬܐ	-10.1187
ܩܨ	-10.1189
▁ܕܐܫܠܡ	-10.119
▁ܫܩܝܠ	-10.1204
▁ܐܤܪ	-10.1206
ܠܝܫܘܥ	-10.1223
ܫܝܢܐ	-10.1224
▁ܒܗܬܬ	-10.1252
▁ܬܠܡܝܕܝ	-10.1255
▁ܕܙܢܝ	-10.1257
ܘܫܩ	-10.1268
▁ܘܒܚܕ	-10.1293
▁ܝܩܝܪ	-10.1299
ܬܘܬܒ	-10.1307
▁ܒܠܫܢ	-10.1311
▁ܠܡܚ	-10.1316
ܐܚܘܟ	-10.1318
▁ܘܟܒܪ	-10.1321
▁ܕܐܠ	-10.1322
▁ܩܢܝܢ	-10.1334
ܨܝܕܢ	-10.1337
▁ܠܝܡܐ	-10.1347
▁ܢܒܝܘܬ	-10.1348
ܡܨ	-10.1359
ܝܘܡܐ	-10.1361
▁ܘܡܛܝ	-10.1375
▁ܐܬܝ	-10.1376
▁ܕܬܬ	-10.1383
▁ܘܐܩܝܡܘ	-10.1383
▁ܥܒܪܝ	-10.1413
ܦܩܚ	-10.142
ܩܕܡ	-10.1422
ܠܘܩܒܠ	-10.1424
ܕܝܠܝ	-10.1431
▁ܪܥܝܢ	-10.1434
ܤܟܠ	-10.1444
ܦܪܝܤ	-10.1452
▁ܠܡܩܛܠ	-10.1463
ܕܒܚܐ	-10.1467
▁ܕܐܠܦ	-10.1469
ܠܐܚܪܢܐ	-10.1477
▁ܐܬܟܪܟ	-10.1479
▁ܘܕܝܘ	-10.1482
ܬܗܝܡܢܘܢ	-10.1482
▁ܚܨܕ	-10.1483
▁ܟܟܪ	-10.1483
ܕܪܘܢ	-10.1489
▁ܕܢܡܠܠ	-10.1492
▁ܕܬܫ	-10.1496
▁ܕܡܠܦ	-10.1504
ܪܡ	-10.151
▁ܡܤܟܝܢ	-10.1524
▁ܫܦܪ	-10.1529
▁ܦܫܝܩ	-10.1542
▁ܢܚܒ	-10.1544
▁ܠܕܘܟܪܢ	-10.1552
▁ܬܓܘܪ	-10.1552
ܐܫܬܒܚ	-10.1552
▁ܠܫܐܘܠ	-10.1552
▁ܩܘܦܝܢܝܢ	-10.1552
▁ܠܐܦܤܘܤ	-10.1552
▁ܕܢܥܠܘܢ	-10.1552
▁ܬܥܡܕܘܢ	-10.1552
▁ܕܕܒܝܚܐ	-10.1553
▁ܐܤܛܠ	-10.1553
▁ܬܝܒܘܬܐ	-10.1553
▁ܘܝܗܘܕܐ	-10.1553
▁ܒܒܪܗ	-10.1553
▁ܘܟܪܟ	-10.1553
ܓܚܟ	-10.1553
▁ܢܪܚܡ	-10.1553
▁ܢܤܓ	-10.1553
▁ܐܬܕܒܪ	-10.1553
ܥܪܘܒ	-10.1553
▁ܒܐܦܘܗܝ	-10.1553
▁ܕܩܒܠܘ	-10.1553
▁ܒܕܡܗ	-10.1554
ܛܘܦܤ	-10.1554
▁ܪܚܝ	-10.1554
▁ܕܐܬܡܠܠ	-10.1555
▁ܕܢܕܒܪ	-10.1556
▁ܡܨܝܕܬܗܘܢ	-10.1556
▁ܒܚܛܗܝܟܘܢ	-10.1557
▁ܦܤܐ	-10.1557
▁ܕܡܬܚܒܠ	-10.1558
▁ܠܓܒܝܐ	-10.1558
▁ܡܫܝܓ	-10.1558
▁ܡܤܒ	-10.1559
▁ܕܝܩܕ	-10.1559
▁ܒܡܫܘܚܬܐ	-10.156
▁ܕܝܗܝܒ	-10.156
▁ܕܩܪܟܘܢ	-10.156
▁ܘܐܘܕܥ	-10.1561
▁ܕܢܥܒܪ	-10.1561
▁ܛܘܦܢ	-10.1561
▁ܠܡܫܪܝܬܐ	-10.1562
▁ܕܢܨܒ	-10.1564
▁ܒܚܠܡ	-10.1564
▁ܪܥܝܢܗ	-10.1565
▁ܐܢܚܢܢ	-10.1566
▁ܦܤܘܩ	-10.1567
▁ܢܙܕܕܩ	-10.1567
▁ܒܩܢܘܡܗ	-10.1567
ܛܫܐ	-10.1568
▁ܘܐܫܬܟܚ	-10.1568
ܡܨܥܝܐ	-10.1569
▁ܥܤܒܐ	-10.157
▁ܘܐܚܪܝܐ	-10.157
ܥܘܪܠܘܬܐ	-10.157
▁ܬܫܡܥܘܢ	-10.1572
▁ܬܡܝܗ	-10.1573
ܘܟ	-10.1573
▁ܡܬܝܕܥ	-10.1574
▁ܕܢܬܚܙ	-10.1574
▁ܙܘܓ	-10.1575
▁ܚܕܝܐܝܬ	-10.1577
▁ܒܙܩ	-10.1578
▁ܚܫܝܒ	-10.1583
▁ܘܪܓܠܘܗܝ	-10.1589
▁ܫܪܪܗ	-10.1589
▁ܕܬܚܒ	-10.159
▁ܘܐܤܩ	-10.159
▁ܠܐܢܛܝܘܟܝ	-10.1592
▁ܬܫܒܩܘܢ	-10.1592
▁ܐܙܕܪܥ	-10.1592
▁ܡܬܬܙܝܥ	-10.1592
▁ܚܘܪܬܐ	-10.1593
▁ܠܢܦܫܝ	-10.1594
ܡܘܡܬܐ	-10.1594
▁ܤܝܦܐ	-10.1595
▁ܐܘܢܓܠܝܘܢ	-10.1596
▁ܘܐܘܒܠܘܗܝ	-10.1596
▁ܫܩܠܬܘܢ	-10.1597
▁ܘܤܒܥܘ	-10.1597
▁ܕܦܓܪܗ	-10.1598
▁ܕܪܥ	-10.1599
▁ܡܕܥ	-10.1599
▁ܕܢܕܘܢ	-10.1599
▁ܤܘ	-10.16
▁ܒܩܒܪܐ	-10.1601
▁ܘܡܦܩ	-10.1602
▁ܠܐܒܗܬܢ	-10.1605
▁ܠܩܪܒܐ	-10.1607
ܡܟܟ	-10.1608
▁ܒܡܘܬܐ	-10.1608
▁ܢܦܫܬܟܘܢ	-10.1608
▁ܒܥܢܢܐ	-10.1612
▁ܒܩܛܝܪܐ	-10.1612
▁ܒܨܦܪܐ	-10.1615
▁ܡܨܠܝܢ	-10.1619
ܘܐܝܠ	-10.1619
▁ܬܪܥܝܬܐ	-10.162
▁ܪܥܘܬܐ	-10.1621
ܘܨܐ	-10.1622
▁ܘܦܪܘܩ	-10.1624
▁ܦܘܩܘ	-10.1624
▁ܕܦܬܟܪܐ	-10.1624
▁ܓܙܪ	-10.1625
▁ܠܐܢܫܐ	-10.1629
▁ܢܬܒ	-10.1633
ܙܐ	-10.1635
▁ܒܫܡܟ	-10.1636
▁ܕܓܠ	-10.1637
▁ܢܐܟܠܘܢ	-10.1638
▁ܘܠܐܡܟ	-10.1639
▁ܤܛܪ	-10.164
▁ܥܘܡܩ	-10.1643
ܠܕܝܩܝܐ	-10.1644
▁ܤܒܪܬܝ	-10.1644
▁ܡܦܫܩ	-10.1646
▁ܡܘܬܪ	-10.1647
▁ܕܥܟ	-10.1647
▁ܘܐܚܕܘܗܝ	-10.1648
ܐܪ	-10.1649
▁ܕܐܙܕܩܦ	-10.165
▁ܡܤܟܝܢܢ	-10.1651
▁ܛܢܢܐ	-10.1651
▁ܚܐܝܢ	-10.1651
▁ܥܦܪ	-10.1655
ܡܪܝܡ	-10.166
▁ܒܘܝܐܐ	-10.1661
▁ܡܥܨ	-10.1661
▁ܡܬܩܪܒܝܢ	-10.1664
▁ܚܢܦܐ	-10.1671
▁ܘܫܡܝ	-10.1676
▁ܒܚܘ	-10.1676
▁ܒܘܟܪܐ	-10.1677
▁ܡܘܠܝ	-10.1677
▁ܕܫܦܪ	-10.1679
▁ܢܛܥ	-10.1679
▁ܘܡܬܩܪ	-10.168
▁ܡܫܬܡܥܝܢ	-10.1681
▁ܒܚܫ	-10.1682
▁ܗܝܡܢܬܘܢ	-10.1686
▁ܕܢܩܪܒ	-10.1687
▁ܠܒܝܬܟ	-10.1688
▁ܕܒܪܟ	-10.1688
▁ܕܐܪܒܥ	-10.1689
▁ܕܬܒ	-10.1692
▁ܫܘܠܡܐ	-10.1693
▁ܡܫܬܥ	-10.1694
▁ܤܟܠܘܬܗ	-10.17
ܬܢܝܢܐ	-10.1707
▁ܓܦ	-10.1708
▁ܡܫܡܠܝܐ	-10.1714
ܐܡܝܪ	-10.1716
▁ܘܐܡܗ	-10.1718
▁ܢܬܚܙ	-10.1719
▁ܕܡܠܟܘܬܗ	-10.172
▁ܕܡܪܝܡ	-10.172
▁ܨܒܝܢܟ	-10.1726
ܢܙܒܢ	-10.173
▁ܡܬܕܒܪܝܢ	-10.1731
▁ܘܬܠܬ	-10.1734
▁ܠܒܘܫܐ	-10.1735
ܕܡܝܢ	-10.1735
ܐܩܝܡܗ	-10.1736
▁ܘܕܒܚܐ	-10.1739
▁ܐܒܘ	-10.1742
▁ܒܟܘܪܗܢܐ	-10.1742
ܒܠܐ	-10.1742
▁ܕܐܬܟܢ	-10.1745
▁ܕܫܕܪܬ	-10.1748
ܢܦܐ	-10.1749
▁ܒܝܘܠܦܢܐ	-10.1751
▁ܕܘܢܘ	-10.1755
▁ܕܫܬܐ	-10.1757
▁ܥܪܤ	-10.1765
ܦܘܠܘܤ	-10.1767
▁ܘܫܒ	-10.1768
▁ܪܘܚܢܐ	-10.1776
▁ܕܐܡܝܪ	-10.178
▁ܘܐܬܚܫܒ	-10.1787
▁ܕܠܘܬܢ	-10.179
▁ܪܚܡܘܗܝ	-10.1791
▁ܡܚܪ	-10.1797
ܬܩܪܐ	-10.1799
▁ܠܡܤܒܪ	-10.1802
▁ܘܡܐܤ	-10.1812
▁ܡܫܘܚܬ	-10.1816
▁ܠܬܫܒܘܚܬܐ	-10.182
▁ܢܪܡ	-10.1821
▁ܐܬܬܓܪ	-10.1827
ܩܥܐ	-10.184
▁ܕܒܬܪܗ	-10.1841
ܘܕܝܐ	-10.1849
▁ܩܥܘ	-10.1852
▁ܝܘܬܪܢܐ	-10.1859
▁ܒܩܐ	-10.1864
▁ܘܫܠܝܛ	-10.1868
▁ܠܤ	-10.1868
ܫܦܪ	-10.1872
ܐܘܪܚܐ	-10.1873
▁ܛܘܗܡܗ	-10.1876
▁ܘܕܡ	-10.188
ܢܐܬܐ	-10.1883
ܛܝܒ	-10.1913
ܘܚ	-10.192
▁ܕܟܠܟܘܢ	-10.1921
▁ܦܘܡܗܘܢ	-10.1936
▁ܕܤܒܪܬܐ	-10.1937
▁ܢܠܦ	-10.195
▁ܘܐܚܝܕ	-10.195
▁ܩܫܝܫ	-10.1954
▁ܕܡܚܝܠ	-10.1957
▁ܕܟܬܒܬ	-10.1974
▁ܕܐܚܝܕܝܢ	-10.1975
▁ܟܤܝܬ	-10.1978
▁ܐܝܬܝܟܘܢ	-10.1984
ܩܛܘܠܐ	-10.1988
▁ܘܡܗܝܡܢܐ	-10.2021
▁ܘܐܬܝ	-10.2026
▁ܐܘܫ	-10.2029
ܐܬܦܪܫ	-10.2031
ܙܡܪ	-10.2038
▁ܤܪܝܩ	-10.2039
▁ܕܐܬܠ	-10.2048
▁ܐܝܬܝܘ	-10.2051
▁ܠܐܚܝ	-10.2084
▁ܩܪܢܐ	-10.2089
ܘܬܟܘܢ	-10.209
▁ܕܢܫܬ	-10.2104
▁ܒܪܥܝܢܝ	-10.2107
▁ܘܐܒܐ	-10.2115
▁ܠܤܒܪܬ	-10.2118
▁ܩܪܝܢ	-10.213
▁ܐܠܗܝ	-10.2148
ܐܠܝܐ	-10.2182
▁ܤܒܪܘ	-10.2187
▁ܒܐܤܘܪ	-10.2199
▁ܚܫܒ	-10.2202
▁ܙܢܝܐ	-10.2204
▁ܕܢܒܥ	-10.2209
▁ܦܪܥ	-10.221
▁ܘܡܠܐ	-10.2212
▁ܘܒܪܘܚ	-10.2213
ܦܤܩ	-10.2214
▁ܕܦܘܩܕܢ	-10.2236
ܗܪܝܢ	-10.2243
▁ܕܡܝ	-10.2244
▁ܒܪܩ	-10.2257
▁ܙܩܝܦܐ	-10.226
ܩܝܡܬܗ	-10.2269
▁ܫܒܩܗ	-10.2279
▁ܐܤܬܡܟ	-10.2288
ܤܤ	-10.2291
▁ܒܝܘܡܗ	-10.2303
▁ܒܤܒܪܬ	-10.2305
ܬܚܙܘܢܢܝ	-10.2312
▁ܘܚܕܝ	-10.2318
▁ܤܪ	-10.2318
▁ܫܘܘܕ	-10.2321
ܐܚܘܗܝ	-10.2322
▁ܩܢܘܡ	-10.2333
▁ܕܡܚܐ	-10.2333
ܪܘܗܝ	-10.2346
ܚܘܬܗ	-10.237
ܕܡ	-10.2373
ܡܠܟܐ	-10.2374
ܓܒܪܐ	-10.2374
▁ܘܝܗܒܘ	-10.2375
▁ܐܕܢܗ	-10.2377
ܝܘܦܐ	-10.238
▁ܕܢܗܝܡܢ	-10.2383
▁ܥܠܘ	-10.2383
▁ܥܠܡ	-10.2397
▁ܡܥܕܪ	-10.2401
▁ܢܗܝܡܢ	-10.2406
▁ܘܒܡܠ	-10.2408
▁ܢܫܬܐ	-10.2408
▁ܒܐܘܠܨܢ	-10.2408
ܕܠܡܐ	-10.2409
▁ܩܘܝ	-10.2419
▁ܘܒܟܠܗ	-10.242
ܘܫ	-10.2428
ܢܩܪܒܘܢ	-10.2459
▁ܕܐܬܐܤܝ	-10.2477
ܬܚܘܝܬ	-10.2489
▁ܘܥܪܩ	-10.2492
ܐܒ	-10.2494
ܤܬܡܟܘ	-10.2494
▁ܒܛܢ	-10.2495
▁ܚܛܝܬ	-10.2495
▁ܐܘܤܦ	-10.2496
▁ܡܚܝܠ	-10.2503
ܒܘܢ	-10.2526
ܐܫܕ	-10.2546
ܢܗܪ	-10.2572
▁ܘܚܕܪ	-10.2583
▁ܒܩܝܡܬ	-10.2597
▁ܘܨܠܝ	-10.2598
ܬܫܟܚܘܢ	-10.2607
▁ܚܨܝܟ	-10.2608
ܬܪܥܤܪܬܗ	-10.2619
▁ܘܪ	-10.2622
ܕܝ	-10.2624
▁ܬܪܝܨܐ	-10.2627
ܫܥܬܐ	-10.2629
▁ܓܠ	-10.2635
▁ܒܐܬܘ	-10.2658
▁ܕܡܐܬ	-10.2668
▁ܠܒܗ	-10.2682
▁ܘܡܘܬ	-10.2689
▁ܬܟܝܠܝܢ	-10.2698
▁ܠܐܪܒܥ	-10.2707
ܬܛܝܒ	-10.2708
▁ܤܡܝܟܐ	-10.2713
ܓܠܠܐ	-10.2719
▁ܒܤܒܪ	-10.2723
ܬܦܠܓ	-10.2724
ܪܘܬܐ	-10.2731
ܐܟܠܘ	-10.2737
▁ܠܡܕ	-10.2738
ܫܬܝܢ	-10.2746
ܦܪܥܘܢ	-10.2749
ܛܠܝܬܐ	-10.2764
ܟܠ	-10.2765
▁ܕܤܓܕ	-10.277
ܝܪܐ	-10.2781
▁ܦܪܘܩ	-10.2783
ܡܫܒܚܝܢ	-10.2795
▁ܫܡܥܢ	-10.2802
▁ܢܦܠܝܢ	-10.2804
▁ܩܕܡܝܗ	-10.2814
▁ܫܬܐܤ	-10.2817
▁ܙܟܘܬ	-10.2827
ܤܒܪܝܢ	-10.2832
▁ܒܡܥܡܘܕܝܬ	-10.2842
ܗܦܘܟ	-10.2853
▁ܕܪܥܝܢ	-10.2862
▁ܘܪܚܡ	-10.2873
ܫܘܢ	-10.2876
▁ܕܚܝܝܢ	-10.2876
▁ܒܝܘܡܝ	-10.2878
▁ܐܬܦܠܓ	-10.2884
ܬܟܪܙ	-10.2897
▁ܪܕܘܦ	-10.2903
ܝܬܘܢܝܗܝ	-10.2909
ܘܤܦ	-10.2916
▁ܫܒܩܢ	-10.2933
▁ܡܥ	-10.2938
▁ܘܩܪܘ	-10.2941
ܚܕܐ	-10.2946
▁ܬܟܠܘܢ	-10.2957
▁ܚܕܝ	-10.2965
▁ܚܛܘܦ	-10.2985
ܓܝܪ	-10.2986
▁ܡܩܕܫ	-10.3003
▁ܟܘܟܒ	-10.3005
▁ܡܥܡܘܕܝܬ	-10.3011
▁ܡܕ	-10.3015
▁ܡܦܢ	-10.302
▁ܚܫܘܟ	-10.3026
▁ܘܡܗܝܡܢ	-10.3027
▁ܥܪܛܠ	-10.303
▁ܘܟܬܒ	-10.3036
▁ܘܨܠܘ	-10.3047
▁ܟܐܒ	-10.3051
▁ܕܚܩ	-10.3069
ܗܕܡܝܟܘܢ	-10.3069
▁ܕܗܝܡܢ	-10.3078
▁ܩܒܪ	-10.3096
▁ܛܘܗܡ	-10.3102
▁ܚܤܝܪܝ	-10.3109
▁ܠܡܠܟ	-10.3113
▁ܥܡܪܐ	-10.3114
ܩܪܝܬܐ	-10.3117
▁ܫܒܘܩܝ	-10.3143
▁ܘܩܡܬ	-10.3144
▁ܒܓܘ	-10.3148
ܚܬܗ	-10.3148
▁ܪܡ	-10.3155
ܟܢܫܘ	-10.3157
ܐܒܗܬܢ	-10.3177
ܝܘܬܐ	-10.318
▁ܤܠܩܝܢ	-10.3182
▁ܕܢܩܛܠܘܢ	-10.3191
▁ܐܕܡ	-10.32
▁ܠܪܘܚ	-10.321
ܠܝܛ	-10.3211
ܠܥܤ	-10.3218
ܬܒܩܘ	-10.3243
▁ܕܫܕܪ	-10.3243
ܬܝܗܝ	-10.3248
ܗܓܡܘܢܐ	-10.3249
▁ܠܗܠ	-10.3271
ܒܐܝܡܡܐ	-10.3274
ܕܘܝܕ	-10.3276
▁ܛܪ	-10.3282
▁ܘܡܗܠܟ	-10.3284
ܬܥܒܕ	-10.3285
▁ܕܝܘܢ	-10.3296
▁ܕܪܫܝ	-10.3302
ܚܡܐ	-10.3302
▁ܬܡ	-10.3307
▁ܘܡܤܒܪ	-10.3317
ܥܗܕ	-10.3319
▁ܩܨܝ	-10.3326
ܫܠܚ	-10.3326
▁ܘܐܒ	-10.3332
ܤܘܦ	-10.334
ܚܒܠܐ	-10.3342
▁ܒܢܐ	-10.3344
▁ܘܦܬܚ	-10.335
ܕܡܘܤ	-10.3364
ܛܘܥܝܝ	-10.3366
▁ܥܕܪ	-10.3369
▁ܕܒܟ	-10.3374
ܝܬܪ	-10.3375
ܚܘܒܟܘܢ	-10.3376
▁ܕܠܡܢ	-10.3393
▁ܡܬܕܒܪ	-10.3397
ܬܐܪܬܗܘܢ	-10.3401
▁ܘܬܒ	-10.3401
▁ܠܙܕܝܩ	-10.3403
ܦܘܠܚܢܐ	-10.3404
ܥܪܘܩ	-10.3405
▁ܕܩܨܝ	-10.3406
ܛܢܦܘܬܐ	-10.3415
ܡܩܝܡ	-10.3416
▁ܘܡܢܗ	-10.3419
ܢܩܫ	-10.342
ܓܙܪܬܐ	-10.3427
ܢܟ	-10.3428
ܙܟܪܝܐ	-10.3436
ܠܒܘܫܐ	-10.3441
ܬܩܒܠ	-10.3444
▁ܢܫܒ	-10.3448
▁ܕܡܟܪܙ	-10.3451
▁ܘܢܫܟܚ	-10.3467
ܠܬܚܬ	-10.347
ܒܪ	-10.3472
▁ܬܩܘܡ	-10.3494
ܢܡܘܤܐ	-10.35
ܛܥܝܘܬ	-10.3501
▁ܫܠܚ	-10.3508
ܫܘܬܦܘܬܐ	-10.3508
ܚܢܦܐ	-10.3518
ܒܝ	-10.3534
ܬܕܡܪܘ	-10.3535
ܓܠܝܘܬ	-10.3535
▁ܕܫܢ	-10.3541
▁ܡܟܝܟ	-10.3542
▁ܕܢܫܩ	-10.3545
▁ܕܠܒܪ	-10.3546
▁ܬܟ	-10.355
ܠܙܪܥ	-10.3551
ܦܡܦܘܠܝܐ	-10.3552
▁ܕܐܟܪܙ	-10.3552
▁ܘܐܫܬܓܫ	-10.3552
▁ܠܡܤܓܕ	-10.3552
▁ܘܪܓܡ	-10.3552
▁ܬܚܦܝܬܐ	-10.3552
▁ܬܤܗܕ	-10.3552
▁ܘܐܤܗܕ	-10.3552
▁ܕܛܠܡ	-10.3552
▁ܕܪܗܛ	-10.3552
▁ܘܪܘܙ	-10.3552
▁ܘܡܥܩ	-10.3552
▁ܠܛܒܬܐ	-10.3553
▁ܠܡܕܟܝܘ	-10.3553
▁ܒܤܬܪܗ	-10.3553
▁ܒܠܥܕ	-10.3553
▁ܕܐܬܚܙܝ	-10.3553
▁ܡܬܚܒܠܢܘܬܐ	-10.3553
▁ܘܒܕܚܠܬ	-10.3553
▁ܕܢܗܘܝܢ	-10.3553
▁ܕܠܒܗܘܢ	-10.3553
▁ܠܤܗܕܘܬܗܘܢ	-10.3553
▁ܢܬܕܒܪ	-10.3553
ܢܢܓܕܘܢ	-10.3553
▁ܘܡܬܚܫܒ	-10.3553
▁ܒܕܡܥ	-10.3553
▁ܐܬܒܪܝ	-10.3554
▁ܕܟܦܢ	-10.3554
▁ܐܚܘܕܘ	-10.3555
▁ܢܬܟܫܠ	-10.3555
▁ܒܡܪܘܡܐ	-10.3555
▁ܕܪܗܘܡܝܐ	-10.3555
▁ܕܬܝܒܘܬ	-10.3556
▁ܕܐܤܬ	-10.3556
▁ܘܚܡܬܐ	-10.3556
▁ܘܤܪܝܩ	-10.3556
▁ܕܢܪܕ	-10.3556
▁ܥܒܘܕ	-10.3556
▁ܕܒܠܥ	-10.3556
▁ܕܕܪܬܐ	-10.3556
▁ܐܓܪܦܐ	-10.3556
▁ܘܡܬܟܪܟ	-10.3556
▁ܘܡܦܝܤ	-10.3556
▁ܐܪܒܥܤܪܐ	-10.3557
▁ܡܓܥܠ	-10.3557
▁ܒܡܟܝܟܘܬ	-10.3557
▁ܢܛܥܝܟܘܢ	-10.3557
ܡܪܟܒܬܐ	-10.3558
▁ܕܙܠ	-10.3558
▁ܚܬܡ	-10.3558
▁ܕܫܩܝܠ	-10.3558
▁ܤܡܠܗ	-10.3558
▁ܒܥܠܐ	-10.3559
ܡܪܩܘܤ	-10.3559
▁ܕܢܒܗܬ	-10.3559
▁ܘܐܡܘܬܐ	-10.3559
▁ܨܐܕܝܟܘܢ	-10.356
ܛܪܘܐܤ	-10.356
▁ܢܫܐܠ	-10.356
▁ܢܚܤܪ	-10.3561
▁ܠܡܩܛܠܢܝ	-10.3561
▁ܚܘܫܒܢܐ	-10.3563
▁ܐܫ	-10.3563
▁ܢܝܩܪ	-10.3563
▁ܐܘܪܩ	-10.3564
▁ܕܢܦܪܩ	-10.3565
ܫܒܥܬܝܗܘܢ	-10.3565
▁ܠܡܗܝܡܢ	-10.3565
▁ܐܬܬܢܝܚ	-10.3566
▁ܘܒܢܘܪܐ	-10.3566
▁ܒܤܝܦܐ	-10.3567
▁ܚܛܘ	-10.3567
▁ܘܐܒܘܟ	-10.3568
▁ܕܢܐܚܕܘܢܝܗܝ	-10.3569
▁ܡܛܥܐ	-10.357
▁ܬܩܒܠܘܢ	-10.357
▁ܐܬܚܫܚ	-10.357
▁ܕܡܘܗܒܬ	-10.357
▁ܦܘܪܥܢ	-10.3571
▁ܐܤܦܝܪ	-10.3571
▁ܬܓܢ	-10.3573
▁ܒܘܪܟܘܗܝ	-10.3574
▁ܒܨܝܪܐ	-10.3575
▁ܩܪܩܦܬܐ	-10.3575
▁ܡܚܝܢ	-10.3575
▁ܘܢܫܪܐ	-10.3575
▁ܠܒܟ	-10.3576
▁ܕܢܡܠ	-10.3576
▁ܕܐܟܐܝܐ	-10.3576
▁ܐܤܛܘܟܤ	-10.3577
▁ܢܫܬܡܥ	-10.3577
▁ܢܝܩ	-10.3577
▁ܡܥܗܕ	-10.3579
▁ܫܥܒܕ	-10.3579
ܒܚܤܝܪܘܬ	-10.3579
▁ܘܠܐܪܡܝܐ	-10.3581
▁ܫܕܪܬܢܝ	-10.3582
▁ܘܕܥܡܗ	-10.3582
▁ܠܐܘܪܥܗ	-10.3582
▁ܝܠܝܕ	-10.3583
▁ܕܐܚܒܢ	-10.3587
▁ܐܨܛܒܝܬ	-10.3587
▁ܒܨܘܪ	-10.3589
▁ܡܦ	-10.3591
▁ܒܒܪܐ	-10.3591
▁ܒܦܘܩܕܢܐ	-10.3592
▁ܘܠܫܪܟܐ	-10.3594
▁ܘܫܪܝܗܝ	-10.3596
▁ܦܟ	-10.3597
▁ܟܘܪܤܘܬ	-10.3597
▁ܠܥܒܕܘܬܐ	-10.3599
▁ܕܓܘܕܦܐ	-10.36
▁ܩܪܛܐ	-10.36
▁ܚܕܬܬܐ	-10.3601
▁ܐܫܬܘܕܥܘ	-10.3601
▁ܒܕܪܡܤܘܩ	-10.3601
▁ܙܩܦܘܗܝ	-10.3601
▁ܕܠܓܘ	-10.3602
▁ܕܗܝܡܢܘܬܗ	-10.3602
▁ܒܠܒܟܘܢ	-10.3603
▁ܒܥܠܕܒܒܘܬܐ	-10.3603
▁ܠܒܘܬܗܘܢ	-10.3603
▁ܕܐܪܙ	-10.3605
▁ܐܬܒܛܠ	-10.3605
▁ܕܒܥܠܡܐ	-10.3605
▁ܡܟܫܘܠܐ	-10.3605
▁ܕܦܨܚܐ	-10.3605
▁ܠܡܕܒܚܐ	-10.3606
▁ܕܟܦܪ	-10.3606
▁ܠܒܥܠܗ	-10.3609
▁ܠܒܤܪ	-10.3609
▁ܠܫܘܩܐ	-10.361
▁ܘܫܡܗ	-10.3611
▁ܩܫܝܘܬ	-10.3612
▁ܘܚܤܡ	-10.3616
ܟܐ	-10.3617
ܡܐܟܘܠܬ	-10.3618
▁ܒܚܝܐ	-10.3619
▁ܡܥܠ	-10.3621
▁ܩܒܠܘܗܝ	-10.3622
▁ܕܐܚܕ	-10.3624
▁ܡܠܝܗܘܢ	-10.3625
▁ܒܪܝܫ	-10.3625
▁ܚܕܪܝ	-10.3625
▁ܒܫܝܘܠ	-10.3626
▁ܡܬܟܬܫ	-10.3633
▁ܠܢܦܫܟ	-10.3633
▁ܪܕܘ	-10.3634
▁ܕܝܠܕܬ	-10.3634
▁ܩܪܢܢ	-10.3635
▁ܡܝܬܪܝܢ	-10.3635
▁ܘܢܚܙܐ	-10.3635
▁ܓܝܤܐ	-10.3635
▁ܒܐܓܪܬ	-10.3636
▁ܕܢܫܐܠܝܘܗܝ	-10.3636
▁ܠܐܒܕܢܐ	-10.3637
▁ܕܫ	-10.3637
ܢܩܛܠܘܢܝܗܝ	-10.3637
▁ܕܢܩܘܡ	-10.3639
▁ܢܫܦܪ	-10.3639
▁ܐܬܛܦܝܤܘ	-10.3641
ܒܕܩ	-10.3641
▁ܘܦܪܩ	-10.3641
▁ܕܢܡܠܠܘܢ	-10.3642
▁ܘܤܓܕ	-10.3643
▁ܘܕܐܠܗܐ	-10.3643
▁ܘܥܪܒ	-10.3646
▁ܘܐܩܝܡ	-10.3647
▁ܘܢܩܦ	-10.3649
▁ܘܫܒܘܩ	-10.3651
▁ܒܒܥܠ	-10.3651
▁ܘܠܡܫܪ	-10.3652
▁ܪܥܝܢܗܘܢ	-10.3657
▁ܢܫܬܪ	-10.3658
▁ܛܥܘ	-10.3662
ܤܗܕܘܬܗ	-10.3662
▁ܕܐܝܤ	-10.3663
▁ܕܨܘܪ	-10.3664
ܡܬܟܢܫ	-10.3664
▁ܩܛܠܘ	-10.3667
▁ܨܠܡ	-10.3668
▁ܘܐܤܝܪ	-10.3673
▁ܡܪܕܘܬ	-10.3675
▁ܕܫܪܒܬ	-10.3675
▁ܕܦܬܚ	-10.3677
▁ܐܡܟ	-10.3678
▁ܡܒܙܚ	-10.3678
▁ܕܥܠܝܟܘܢ	-10.3679
▁ܐܥܡܕܬ	-10.3679
▁ܥܝܪ	-10.3684
▁ܨܒܝܬܘܢ	-10.3685
▁ܬܫܒܚ	-10.3685
▁ܘܗܒܘ	-10.369
▁ܟܘܪܤܝܗ	-10.3692
▁ܪܘܡܐ	-10.3693
▁ܠܚܕܕܐ	-10.3696
▁ܕܢܫܕܪ	-10.3697
▁ܕܬܘܩܠܬܐ	-10.3699
▁ܚܙܝܪܐ	-10.3701
▁ܒܥܬܐ	-10.3701
▁ܕܢܛܪܘܢ	-10.3704
ܢܘܤ	-10.3705
▁ܘܥܡܡܐ	-10.3706
▁ܡܥܪܒ	-10.3707
▁ܕܡܬܟܢܫ	-10.3707
▁ܕܓܢܒ	-10.3711
▁ܢܫܒܚ	-10.3716
ܬܩܝܡ	-10.3716
▁ܡܟܤܝ	-10.3722
▁ܕܒܟܝܢ	-10.3722
▁ܨܠܝܒ	-10.3724
▁ܠܟܐܢܘܬܐ	-10.3729
▁ܘܚܡܫ	-10.3739
▁ܕܢܘܢܐ	-10.3742
▁ܬܘܕܝܬܐ	-10.3743
▁ܘܕܐܪܒܥ	-10.3745
ܟܪܡܐ	-10.3747
▁ܡܬܓܠܐ	-10.3748
▁ܨܦ	-10.3752
ܢܫܡܫ	-10.3753
▁ܬܘܬܪ	-10.3754
▁ܠܩܫܝܫ	-10.3758
▁ܛܘ	-10.3759
▁ܕܕܚܠܬ	-10.3762
▁ܫܠܡܘ	-10.3763
▁ܘܪܝܫ	-10.3764
▁ܤܢܝܢ	-10.3764
▁ܠܗܝܡܢܘܬܐ	-10.3769
▁ܘܢܘܪ	-10.3771
▁ܐܚܒܢ	-10.3772
▁ܕܫܠܝܡܘܢ	-10.3774
ܦܘܩܕܢܘܗܝ	-10.3775
ܠܘܤ	-10.3778
▁ܐܩܝܡܘ	-10.3779
▁ܬܚܛ	-10.3783
▁ܫܝܢܐ	-10.3785
▁ܒܠܒܐ	-10.3796
▁ܘܤܓܕܘ	-10.3797
▁ܦܘܩ	-10.3798
ܓܡܠܐ	-10.3799
ܓܕܐ	-10.38
▁ܢܬܪܥ	-10.3801
▁ܐܟܬܘܒ	-10.3803
▁ܘܡܤܒܪܝܢ	-10.3808
▁ܕܐܡܗ	-10.3819
▁ܪܒܝܥܝ	-10.3823
ܓܘܪܐ	-10.3823
▁ܘܒܒܝܬ	-10.3828
▁ܕܡܬܪܥ	-10.3833
▁ܕܚܝܠܗ	-10.3837
▁ܘܐܬܪܡܝ	-10.384
▁ܙܪܥܬ	-10.3843
▁ܕܦܠܓ	-10.3846
ܪܚܐ	-10.3847
▁ܒܓܢ	-10.3852
▁ܕܡܥܠ	-10.3861
▁ܚܐܪܘܬ	-10.3862
ܘܬܟ	-10.3865
▁ܢܫܕܪ	-10.3883
▁ܬܬܩܪ	-10.3892
▁ܕܐܫܠܡܬ	-10.3894
▁ܬܫܟܚ	-10.3895
ܢܒܝܘܬܐ	-10.3901
▁ܓܙܐ	-10.3903
▁ܚܡܬܗ	-10.3904
▁ܘܒܛܠ	-10.3915
▁ܕܡܪ	-10.3918
▁ܢܩܪ	-10.3919
▁ܘܕܐܝܬ	-10.392
▁ܥܛܠ	-10.3922
▁ܕܡܛܫܝ	-10.393
▁ܒܐܒܝ	-10.3931
▁ܩܨ	-10.3941
▁ܕܚܝܠܬܢ	-10.3953
ܥܒܪܐ	-10.3974
ܢܠܒܫ	-10.3976
▁ܬܒܥܬ	-10.3977
▁ܫܘܒܩܢܐ	-10.3982
▁ܗܘܦܟܝ	-10.3983
▁ܕܤܢܝܩ	-10.3983
▁ܕܢܗܪ	-10.399
▁ܡܫܬܕ	-10.3991
▁ܠܬܫܡܫܬܐ	-10.3992
ܢܝܗܘܢ	-10.3994
▁ܫܩܝܠܝܢ	-10.3995
▁ܩܒܠܬܘܢ	-10.3999
▁ܦܘܩܕܢ	-10.4
▁ܥܕܬܗ	-10.4004
▁ܛܪܦ	-10.4016
ܢܬܦܬܚ	-10.4026
▁ܢܚܛ	-10.4035
▁ܕܒܙܒܢ	-10.4036
▁ܤܢܝܩܝܢ	-10.4043
▁ܡܤܟܠ	-10.4044
▁ܕܢܛܪܝܢ	-10.4045
▁ܘܒܝܕ	-10.4045
▁ܓܒܝܬܐ	-10.4046
▁ܡܗܠܟܝܢܢ	-10.4049
ܩܪܘܒ	-10.4051
▁ܚܡܫܝܢ	-10.4056
ܚܠܦܐ	-10.4059
ܦܪܝܫܐ	-10.4061
▁ܚܦܝܛܘܬ	-10.4064
▁ܥܐܠܝܢ	-10.4066
ܓܪ	-10.4069
▁ܟܪܝܘܬ	-10.4073
▁ܕܬܟܝܠ	-10.4078
▁ܟܪܝܗܘܬ	-10.4084
▁ܩܕܡܝܟܘܢ	-10.4085
▁ܘܙܕܝܩܐ	-10.4088
▁ܚܪܡ	-10.4088
▁ܠܐܝܤ	-10.4092
▁ܪܟ	-10.4098
▁ܕܢܦܫ	-10.4103
▁ܫܩܠܘ	-10.4112
▁ܕܬܫܐܠ	-10.4129
▁ܦܫܝܛܐ	-10.4132
▁ܤܘܥܪܢ	-10.4133
▁ܤܡܘ	-10.4134
ܘܢܝ	-10.4134
▁ܐܬܝܗܒܬ	-10.4137
▁ܙܥܘܪܝܢ	-10.4138
▁ܕܢܪܡ	-10.4139
▁ܘܙܢܝ	-10.4139
▁ܕܢܩܒܠܘܢ	-10.4142
▁ܡܩܕܫܐ	-10.4155
▁ܢܬܝܕܥ	-10.4158
ܪܥܡܐ	-10.4161
ܪܗ	-10.4162
▁ܒܐܒ	-10.4191
▁ܠܫܘܒܩܢ	-10.4191
ܡܝܪܐ	-10.4198
▁ܡܛܝܒܝܢ	-10.4207
▁ܐܝܡܡ	-10.4208
ܒܢܝ	-10.4214
ܚܘܝܘ	-10.4234
▁ܘܐܩܦ	-10.4246
ܡܘܕܐ	-10.4249
▁ܠܟܝܢ	-10.4256
ܬܠܡܝܕܘܗܝ	-10.4262
▁ܬܘܠܬܗ	-10.4279
▁ܫܕܪܘ	-10.4282
▁ܘܦܐܪ	-10.4294
ܤܛܘܤ	-10.4296
▁ܒܢܤܝܘܢ	-10.4301
▁ܢܨ	-10.431
ܫܬܘܩ	-10.4324
▁ܕܙ	-10.4326
▁ܕܒܟܘܢ	-10.4329
▁ܕܥܝܢ	-10.433
▁ܡܠܟܝܗ	-10.4331
▁ܕܪܘ	-10.4335
▁ܐܪܥܗ	-10.4336
ܬܪܓܪܓܘ	-10.4339
▁ܥܪܩܬ	-10.4349
▁ܡܦܤܝܢ	-10.4354
▁ܐܡ	-10.4355
ܠܒܫܘ	-10.4364
▁ܡܚܘܝܢ	-10.4368
▁ܘܒܫ	-10.4373
ܡܫܩܐ	-10.4385
ܐܢܛܝܟܝܐ	-10.4406
▁ܘܓܘܕܦ	-10.4407
▁ܤܥܪܝܢ	-10.4415
▁ܐܡܪܚ	-10.442
ܥܙ	-10.444
ܤܘ	-10.4444
ܓܠܛܝܐ	-10.4465
ܢܐܬܘܢ	-10.4472
▁ܥܒܕܢ	-10.448
ܫܒܬܐ	-10.4481
▁ܕܐܦܢ	-10.4499
▁ܕܬܫܬ	-10.4506
▁ܘܫܕܝܗ	-10.451
▁ܘܐܤܬܡܟ	-10.4512
▁ܐܚܪܝܬܐ	-10.4515
▁ܝܕܝܥ	-10.4528
▁ܕܡܛܐ	-10.4529
▁ܕܡܛܝܒܐ	-10.4532
ܒܘܝܐܐ	-10.4536
ܛܢܝܢ	-10.4536
▁ܘܚܪܬ	-10.4542
ܡܛܐ	-10.4546
ܚܤܢ	-10.4557
▁ܐܫܬܥܝ	-10.4564
▁ܐܬܢܒܝ	-10.4566
▁ܨܝܕ	-10.4568
▁ܒܢܦܫ	-10.4568
▁ܐܬܩܪܝܬ	-10.4578
▁ܠܡܚܤ	-10.4583
▁ܢܗܝܪ	-10.4603
ܒܛܘܫܝܐ	-10.4606
ܩܪܒܐ	-10.4609
▁ܢܨܝ	-10.4613
▁ܘܕܚ	-10.4634
▁ܛܝܒܘܬ	-10.4639
ܚܘܛܪ	-10.4641
▁ܘܒܪܬ	-10.4648
▁ܚܨܝ	-10.4652
ܒܝܕܥܬܐ	-10.4694
▁ܕܤܒܪܝܢ	-10.4695
▁ܐܦܝܗ	-10.4711
▁ܘܥܝܢ	-10.4711
▁ܠܡܠܐ	-10.4724
ܕܟ	-10.4726
▁ܕܚܐܪ	-10.4733
▁ܕܐܟ	-10.4737
▁ܩܘܪܝܢ	-10.4741
ܥܪܦ	-10.475
▁ܥܬܝܪ	-10.4752
ܬܘܩܠܬܐ	-10.4753
ܚܝܠܘܬܐ	-10.4764
ܚܠܦ	-10.4766
▁ܘܩܪܒܬ	-10.4766
ܦܢܐ	-10.4766
▁ܘܟܘܟܒ	-10.4769
▁ܐܦܝܗܘܢ	-10.4771
▁ܕܡܟܤ	-10.4771
ܪܥ	-10.4793
ܚܘܐ	-10.4811
ܛܥܐ	-10.4813
▁ܚܤܝܢ	-10.4819
ܛܒܐ	-10.483
▁ܠܡܦܩܘ	-10.4835
▁ܠܩܘܪܝ	-10.4836
ܝܒܐ	-10.4837
▁ܢܓ	-10.4839
ܕܩ	-10.484
ܡܫܡܫܢܐ	-10.488
▁ܕܡܤܟ	-10.4882
ܫܦܝܪܬܐ	-10.4884
ܒܝܫܬܐ	-10.4897
▁ܥܝܢܝ	-10.4904
ܥܬ	-10.492
ܬܬܥܝܪ	-10.4922
▁ܡܠܟܗ	-10.4927
ܚܟܝܡܐ	-10.4961
ܩܪܒ	-10.4962
▁ܡܕܟ	-10.4963
▁ܫܕ	-10.4966
ܦܪܐ	-10.4967
▁ܪܫܝ	-10.497
ܝܪܬܘܬܐ	-10.4975
ܪܡܝܘ	-10.498
▁ܦܘܩܕܢܝ	-10.4983
▁ܠܫܡ	-10.4986
ܐܩܝܡܝܘܗܝ	-10.5006
▁ܕܡܘܒܠ	-10.5018
ܘܤܛܪ	-10.5028
▁ܒܦܠܓ	-10.5029
▁ܕܬܚ	-10.5032
ܦܛ	-10.5054
▁ܘܐܘܠܨܢ	-10.5056
▁ܕܟܘ	-10.5059
ܤܒܘ	-10.5063
▁ܓܘ	-10.5063
▁ܘܚܬܡ	-10.5065
▁ܢܤܝܡ	-10.5075
ܝܪܘܬܐ	-10.5085
ܡܠܝܐ	-10.5088
▁ܕܡܚ	-10.5101
ܡܠܬܗ	-10.5117
ܨܠܐ	-10.5119
▁ܘܙܕܝܩ	-10.5137
▁ܛܝܢ	-10.5146
ܤܝܡܝܢ	-10.5156
▁ܢܗܝܪܐ	-10.5157
ܕܢܚ	-10.5168
ܒܛܝܒܘܬܐ	-10.5168
▁ܪܥܝ	-10.5169
▁ܠܡܒܥ	-10.5177
ܡܬܝܠܕ	-10.5186
▁ܚܐܪ	-10.5194
▁ܘܗܝܡܢ	-10.5195
ܨܥܪܐ	-10.5206
▁ܕܦܐ	-10.5209
ܟܢܘܫܬܐ	-10.5222
ܦܗ	-10.5225
▁ܐܬܩܛܠ	-10.5229
▁ܢܦ	-10.5233
▁ܕܚܕܘܬ	-10.524
▁ܠܤܒܪ	-10.5244
▁ܤܦܝܢ	-10.5258
ܪܤܐ	-10.5264
▁ܘܡܫܟܚ	-10.5283
▁ܘܐܪܡܝܐ	-10.5287
ܪܟܘܢ	-10.5291
ܒܨܝܪ	-10.5302
▁ܕܩܕܡܝ	-10.5303
ܠܡܗ	-10.531
▁ܕܐܬܦܩܕ	-10.5322
ܡܬܐ	-10.5324
▁ܐܢܬܬ	-10.5333
ܫܩܘܠ	-10.5334
▁ܘܤܘ	-10.5342
▁ܘܡܬ	-10.5346
ܐܩܝܡܟ	-10.5347
▁ܡܨܥܪ	-10.5353
ܠܒܫ	-10.5358
▁ܝܩܝܪܐ	-10.5358
▁ܘܠܟܠܗ	-10.5362
▁ܕܩܢ	-10.5363
▁ܝܒܫ	-10.5412
ܠܚ	-10.5425
▁ܕܢܩܒܠ	-10.5435
ܩܛܝܪܐ	-10.544
▁ܬܚܘܡ	-10.5455
▁ܠܙܢܝ	-10.5456
▁ܘܡܦܤ	-10.5459
▁ܘܒܦ	-10.5468
▁ܢܟܤ	-10.5472
ܪܡܝܢ	-10.5472
▁ܚܕܝܢ	-10.5476
ܛܥܝܢ	-10.5479
ܛܘ	-10.5488
▁ܕܟܤܦ	-10.5497
▁ܕܒܪܘܚ	-10.5503
▁ܦܚ	-10.5521
▁ܘܕܫ	-10.5521
▁ܘܐܚܬ	-10.5522
▁ܕܒܩ	-10.5524
ܟܘܪܤܝܗ	-10.5529
▁ܠܒܝܫܐ	-10.5529
▁ܕܫܠܝܚ	-10.5534
▁ܦܪܝܫ	-10.5538
ܡܡܠܠܐ	-10.5538
ܒܥܕܬܐ	-10.5539
▁ܕܦܪܚ	-10.5553
▁ܡܠܟܘ	-10.5554
▁ܡܟܤ	-10.5563
▁ܐܪܟܘ	-10.5564
▁ܘܢܚܬܘ	-10.5566
▁ܕܫܠܡ	-10.5567
ܥܘܪ	-10.5575
ܫܪܒܬ	-10.5581
ܢܕܪܐ	-10.5582
ܡܠܟ	-10.5591
ܪܝܬܐ	-10.5597
ܡܫܚܐ	-10.5606
ܟܢܫ	-10.5613
ܕܟܝܢ	-10.5615
ܬܘܕܝܬܐ	-10.5626
▁ܕܝ	-10.5638
▁ܫܪܟ	-10.5641
ܠܨ	-10.5643
ܡܫܝܚܐ	-10.5654
▁ܤܒܥ	-10.5658
▁ܕܤܗܕ	-10.5659
ܚܝܘܗܝ	-10.5677
ܢܫܐ	-10.5684
ܦܬܚ	-10.5684
▁ܕܬܥܒܕ	-10.5692
▁ܠܪܥܝ	-10.5693
▁ܬܘܠܬ	-10.5696
▁ܫܒܝ	-10.5697
ܚܨܕ	-10.5704
▁ܘܡܬܝ	-10.571
▁ܕܐܫ	-10.5721
▁ܡܫܝܚ	-10.5721
ܒܬܪܝ	-10.5721
▁ܘܬܘܠܬ	-10.5736
ܝܘܪܕܢܢ	-10.5744
▁ܕܒܪܝ	-10.576
ܥܢܢܐ	-10.576
▁ܘܪܓܬ	-10.5763
▁ܠܦܘ	-10.5778
▁ܝܠܦܬ	-10.5778
ܢܟܤ	-10.5781
ܕܝܠܗ	-10.5786
▁ܘܒܝܘܡ	-10.5788
▁ܕܟܢܝܫ	-10.5791
ܕܡܫܝܚܐ	-10.5794
ܒܡܪܢ	-10.5795
▁ܡܤܬܟܠ	-10.5797
ܡܗ	-10.5808
ܗܘܐ	-10.5826
▁ܠܥܤ	-10.5827
▁ܡܛ	-10.5827
ܠܡܐ	-10.5829
▁ܕܛܝܒ	-10.5829
▁ܨܘܪ	-10.5829
▁ܢܫܡܫ	-10.5836
ܤܛܪ	-10.5836
▁ܚܒܪܝ	-10.5846
▁ܠܚܝ	-10.5846
▁ܩܪܢ	-10.5848
▁ܫܐܕ	-10.5853
▁ܕܐܪܡܝ	-10.5854
▁ܕܒܬܪ	-10.5855
ܝܠܘܕܐ	-10.5856
▁ܕܐܒܕ	-10.5872
ܪܛܘ	-10.5889
▁ܐܓ	-10.589
ܟܪܘܙܘܬ	-10.5896
ܐܫܬܘܕܝ	-10.5899
ܢܤܗܕ	-10.5899
ܦܘܠܓ	-10.5901
▁ܟܘܬܝܢ	-10.5903
ܡܨܝܕܬܐ	-10.5905
▁ܐܥܡܕ	-10.5905
ܝܚܝܕܝ	-10.5905
ܬܗܠܟܘܢ	-10.5905
ܚܦܝܛܘܬ	-10.5907
ܥܘܡܩ	-10.5915
ܚܙܝܪܐ	-10.5915
▁ܓܡܝܪ	-10.5915
▁ܡܬܢܛܪ	-10.5915
ܚܝܢ	-10.5919
ܒܥܓܠ	-10.592
▁ܕܡܗܠܟ	-10.5923
▁ܢܛܝܪ	-10.5925
▁ܐܟܠܢ	-10.5929
ܗܝܟܠܗ	-10.594
▁ܡܫܬܡܥ	-10.5944
▁ܘܐܫܬܡܥ	-10.5946
▁ܕܡܤܝܒ	-10.5947
▁ܐܬܬܙܝܥ	-10.5953
▁ܟܪܘܙ	-10.5954
▁ܢܥܒܪܢ	-10.5957
▁ܕܓܡܝܪ	-10.5957
▁ܘܐܤ	-10.5961
▁ܪܫ	-10.5962
▁ܘܢܪܡ	-10.5962
▁ܡܬܗܦܟ	-10.5963
▁ܬܦ	-10.5965
▁ܐܫܬܝ	-10.5966
▁ܐܬܛܦܝܤ	-10.5966
▁ܠܚܤܝ	-10.5967
ܚܢ	-10.597
ܩܝܠܝܩܝܐ	-10.5973
▁ܡܫܬܪ	-10.5975
ܢܘܟܪܝ	-10.5986
ܙܒܢܝܢ	-10.5991
ܐܢܛܝܘܟܝ	-10.5992
ܤܛܪܛܝܘܛܐ	-10.5997
▁ܕܝܢܪ	-10.6003
▁ܘܒܘܪܟ	-10.6006
ܪܒ	-10.6008
▁ܕܠܒܢܝ	-10.6008
▁ܠܩܛ	-10.6013
▁ܕܐܒܗܝ	-10.6013
▁ܦܠܓܘ	-10.6019
▁ܕܓܘ	-10.6021
▁ܒܢܬ	-10.6021
ܥܝܠܐ	-10.6022
▁ܡܨܠܝ	-10.6023
ܐܪܛܡ	-10.6026
ܒܬܪܟܢ	-10.6027
▁ܕܡܘ	-10.603
▁ܬܕܥ	-10.6032
▁ܘܦܠܓ	-10.6033
▁ܕܚܟܝܡ	-10.6035
ܒܝܗܝ	-10.6037
ܐܝܠܢܐ	-10.6042
ܓܠܘܬܐ	-10.6043
▁ܠܢܦܫ	-10.6045
▁ܕܢܩܝܡ	-10.6046
▁ܡܓܕܠ	-10.6049
ܫܢܝܗܘܢ	-10.6051
▁ܘܕܒ	-10.6052
ܬܟܫܦ	-10.6052
ܬܬܪܓܡ	-10.6052
▁ܕܐܤܛܦܢ	-10.6052
▁ܕܙܪܝܥ	-10.6052
▁ܕܦܩܝܕ	-10.6052
▁ܠܡܦܕܝܗܝܢ	-10.6052
▁ܠܬܫܒܘܚܬܗ	-10.6052
▁ܬܬܡܠܚ	-10.6052
▁ܐܝܙܓܕ	-10.6052
▁ܒܤܘܥܪܢ	-10.6052
▁ܗܠܠܘܝܐ	-10.6052
▁ܙܩܘܦܝܗܝ	-10.6052
▁ܠܓܝܘܢ	-10.6052
ܦܘܠܝܤ	-10.6052
▁ܘܤܥܪ	-10.6052
ܨܘܚܝܬܐ	-10.6052
▁ܕܢܬܢܛܪ	-10.6052
▁ܘܐܬܪܥܝ	-10.6052
▁ܡܫܬܟܚ	-10.6052
▁ܠܒܘܬܢ	-10.6052
▁ܡܨܒܬ	-10.6052
▁ܐܬܪܥܘ	-10.6053
▁ܘܢܚܝܒܘܢ	-10.6053
▁ܕܡܤܗܕ	-10.6053
▁ܕܛܠܝܐ	-10.6053
▁ܕܒܕܚܠܬ	-10.6053
▁ܐܤܦܪܝܕܝܢ	-10.6053
▁ܕܓܕܪܝܐ	-10.6053
▁ܢܒܤ	-10.6053
▁ܐܤܬܒܪ	-10.6053
▁ܐܚܪܢܝܐ	-10.6053
▁ܕܐܪܝܘܬܐ	-10.6053
▁ܕܒܢܝܡܝܢ	-10.6053
▁ܐܤܗܕ	-10.6053
▁ܚܒܫ	-10.6053
▁ܕܡܫܬܒܗܪ	-10.6053
▁ܢܐܩܪ	-10.6053
▁ܠܥܢܝܗܘܢ	-10.6053
▁ܠܡܫܬܘܬܐ	-10.6053
▁ܠܡܫܠܡܘ	-10.6053
▁ܐܘܡܢܘܬܗ	-10.6053
ܬܪܘܨ	-10.6053
▁ܐܤܒܪ	-10.6053
▁ܡܫܠܛ	-10.6054
▁ܕܬܩܒܠܘܢ	-10.6054
▁ܠܒܥܠܝܗܝܢ	-10.6054
ܓܕܦܘ	-10.6054
▁ܡܥܒܕܢ	-10.6054
ܤܟܪܘ	-10.6055
▁ܕܢܬܩܢ	-10.6055
▁ܒܐܪܒܥ	-10.6055
▁ܢܬܚܠܦ	-10.6055
▁ܕܕܡܗ	-10.6056
▁ܛܥܡ	-10.6056
▁ܢܐܪܬ	-10.6056
▁ܘܟܦܢ	-10.6056
▁ܘܝܠܦ	-10.6056
▁ܫܡܘܥ	-10.6057
▁ܬܘܠܡܝ	-10.6057
▁ܢܫܩܠܘܢ	-10.6058
▁ܢܬܡܟܟ	-10.6058
▁ܠܚܒܪܝܗܘܢ	-10.6058
▁ܩܪܩܦܬܗ	-10.6058
▁ܕܢܩܝܡܝܘܗܝ	-10.6059
▁ܐܤܦܘ	-10.606
▁ܡܪܚܡܢܐ	-10.606
ܢܬܬܢܝܚ	-10.606
ܥܪ	-10.6061
▁ܫܡܘܢܐ	-10.6061
▁ܐܬܕܟܐ	-10.6061
▁ܘܢܩܘܡ	-10.6062
▁ܘܒܒܥ	-10.6062
▁ܡܟܬܪ	-10.6062
ܬܚܠܡ	-10.6063
▁ܘܡܚܪ	-10.6063
▁ܢܕܚܠ	-10.6063
▁ܢܩܝܡ	-10.6063
▁ܗܝܡܢܬܘܢܝܗܝ	-10.6064
▁ܡܬܬܢܚ	-10.6064
▁ܡܕܓܠ	-10.6064
▁ܪܓܡ	-10.6064
▁ܠܡܦܬܚ	-10.6064
▁ܬܬܕܡܪܘܢ	-10.6064
▁ܕܠܒܢܝܢܫܐ	-10.6065
▁ܕܡܫܬܡ	-10.6065
▁ܕܠܫܢܐ	-10.6065
▁ܢܚܕܘܢ	-10.6066
▁ܘܐܟܠܬܗ	-10.6066
▁ܫܩܘܠܝܗܝ	-10.6066
▁ܢܫܘܛ	-10.6066
▁ܕܡܤܟܠ	-10.6067
▁ܢܪܓ	-10.6067
▁ܪܚܒ	-10.6068
▁ܘܐܬܚܝܠ	-10.6068
▁ܠܡܠܥܤ	-10.6068
ܤܬܪܩ	-10.6068
▁ܘܒܝ	-10.6068
▁ܘܝܩܕ	-10.6068
▁ܓܙܝܪ	-10.6068
▁ܐܬܗ	-10.6069
▁ܒܨܠܘܬܝ	-10.6069
▁ܕܚܕܪܝܗܘܢ	-10.6069
▁ܒܟܤܦ	-10.607
ܤܛܐ	-10.607
▁ܘܬܚܐ	-10.607
▁ܒܫܘܠܡ	-10.607
▁ܠܤܦ	-10.607
▁ܒܟܦܪܢܚܘܡ	-10.6071
▁ܠܡܐܤܝܘ	-10.6071
▁ܕܐܗܪܘܢ	-10.6071
▁ܚܘܘܬܐ	-10.6071
▁ܘܕܨܝܕܢ	-10.6072
▁ܘܒܐܟܐܝܐ	-10.6072
ܢܟܦܘܪ	-10.6072
▁ܘܒܫܪܪܐ	-10.6072
▁ܕܡܤܢܘܗܝ	-10.6072
▁ܕܒܒܠ	-10.6073
▁ܫܒܩܬܢܝ	-10.6074
▁ܪܝܚ	-10.6074
▁ܐܫܬܕܪܬ	-10.6075
ܢܬܕܝܢܘܢ	-10.6076
▁ܒܛܒܬܐ	-10.6076
▁ܒܡܘܗܒܬ	-10.6076
▁ܐܨܛܪܝ	-10.6076
▁ܛܠܢܝܬ	-10.6076
▁ܛܘܠܫܐ	-10.6076
▁ܢܬܬܪܝܡ	-10.6076
▁ܛܠܝܘܬܝ	-10.6076
▁ܕܡܦܩ	-10.6076
▁ܘܛܥܡ	-10.6077
▁ܘܠܐܚܘܗܝ	-10.6077
ܡܦܪܥ	-10.6078
▁ܕܐܝܤܪܐܝܠ	-10.6078
▁ܒܫܢܬ	-10.6078
▁ܤܟܠܘܬܟܘܢ	-10.6078
▁ܗܪܘܕ	-10.6079
▁ܕܒܐܓܪ	-10.608
▁ܡܫܪܝܬܐ	-10.608
▁ܒܚܨܘܗܝ	-10.608
▁ܠܪܗܘܡܝ	-10.6081
▁ܐܙܠܐ	-10.6081
▁ܐܘܒܕ	-10.6081
▁ܠܚܤܝܪܘܬ	-10.6082
ܗܪܟܐ	-10.6082
▁ܕܙܢܝܘܬܗ	-10.6082
▁ܐܘܩܝܢ	-10.6082
▁ܦܘܡܝ	-10.6082
▁ܪܓܠܟ	-10.6083
▁ܘܪܛܢ	-10.6084
▁ܘܐܬܬܢܝܚ	-10.6084
ܬܫܢܝܩܐ	-10.6084
▁ܡܬܦܠܓ	-10.6085
▁ܘܡܬܝܗܒ	-10.6086
▁ܘܐܥܠ	-10.6086
▁ܘܠܕܝܬܒ	-10.6087
▁ܘܦܠ	-10.6087
▁ܬܗܝܪ	-10.6087
▁ܩܝܛ	-10.6089
▁ܘܢܫܩܗ	-10.6091
▁ܡܩܕܡ	-10.6091
▁ܘܒܨܠܘܬܐ	-10.6092
▁ܒܨܘܡܐ	-10.6092
▁ܠܡܕܝܢܬܗ	-10.6093
▁ܐܤܟܡ	-10.6094
▁ܓܪܡ	-10.6096
▁ܒܤܓܝܐܬܐ	-10.6096
▁ܒܠܒܘܬܟܘܢ	-10.6096
▁ܠܫܪܪܐ	-10.6097
ܫܩܝܦܐ	-10.6097
▁ܚܐܪܬܐ	-10.6098
▁ܐܬܚܝܠ	-10.6098
ܬܚܠܛ	-10.6098
▁ܘܡܨܠܐ	-10.6099
▁ܬܪܥܗ	-10.6099
▁ܕܡܡܬ	-10.6099
ܓܝܘܪܐ	-10.6099
▁ܨܗܝ	-10.6099
▁ܕܥܓܠ	-10.61
▁ܘܡܫܬܥ	-10.61
▁ܕܐܫܬܠܡ	-10.6101
▁ܕܚܐܝܢ	-10.6102
▁ܡܟܝܟܬܐ	-10.6103
▁ܬܐܒܕ	-10.6103
▁ܕܢܩܛܘܠ	-10.6104
▁ܟܢܘܬܗ	-10.6105
▁ܕܡܦܩܕ	-10.6105
▁ܬܐܙܠܘܢ	-10.6106
▁ܕܢܫܠܡܘܢ	-10.6106
▁ܬܛܪ	-10.6106
▁ܝܒܫܬ	-10.6107
ܘܠܬܐ	-10.6108
▁ܓܢܤ	-10.6108
ܫܘܛ	-10.6109
▁ܢܦܬܚ	-10.6112
▁ܘܐܒܕ	-10.6113
▁ܫܟܒ	-10.6114
▁ܛܒܥܘܗܝ	-10.6114
▁ܕܢܫܬܥܒܕ	-10.6115
▁ܕܐܤܝܘܬܐ	-10.6115
▁ܒܐܤܛ	-10.6116
▁ܡܬܚܦܛ	-10.6116
▁ܡܒܕܪ	-10.6117
▁ܒܝܢܬ	-10.6117
▁ܫܝܦܘܪܐ	-10.6117
▁ܒܬܢ	-10.612
▁ܢܬܦܢ	-10.612
▁ܟܢܫܗܘܢ	-10.6121
▁ܘܠܥܒܕ	-10.6122
▁ܕܙܚܘܪܝܬܐ	-10.6122
ܥܤܩܐ	-10.6124
▁ܕܐܟܤܢܝܐ	-10.6124
▁ܕܬܐܠܕ	-10.6124
▁ܪܫܝܗܘܢ	-10.6124
▁ܕܡܝܩܪ	-10.6124
▁ܢܫܪܐ	-10.6124
ܬܡܠܠܘܢ	-10.6125
▁ܐܫܬܪܪܬ	-10.6125
▁ܕܦܪܫ	-10.6129
▁ܦܪܨܘܦܟ	-10.6129
ܬܫܡܥ	-10.613
▁ܕܒܛܠ	-10.613
▁ܐܚܙܝܟܘܢ	-10.6131
▁ܐܪܡܝܬ	-10.6131
ܬܦܤܩ	-10.6132
▁ܒܐܫܬ	-10.6134
▁ܡܫܬܘܕܥܝܢ	-10.6135
▁ܘܐܫܘ	-10.6136
▁ܘܢܫܒܚ	-10.6139
ܝܘܛܐ	-10.614
▁ܡܬܛܦܝܤܢܘܬܐ	-10.614
▁ܥܪܘܩܘ	-10.6141
▁ܫܛܝܘܬܐ	-10.6143
▁ܠܚܨܕ	-10.6143
▁ܕܚܕܪܝ	-10.6148
▁ܡܬܪܤ	-10.6148
▁ܩܕܫ	-10.6148
▁ܫܕܪܢܝ	-10.6149
▁ܬܐܓܘܪܬܐ	-10.6149
▁ܐܫܬܥܒܕܘ	-10.615
ܕܝܩ	-10.6153
▁ܪܡܝܐ	-10.6153
▁ܥܪܘܩ	-10.6156
▁ܠܪܓܝܓܬܐ	-10.6157
▁ܕܐܫܕܪ	-10.6158
▁ܒܢܡܘܤܗ	-10.6159
▁ܩܘܦܪܘܤ	-10.6159
▁ܒܪܒܪܝܐ	-10.6159
▁ܕܡܒܝܐ	-10.6166
▁ܦܝܤ	-10.6167
▁ܛܪܘ	-10.6169
ܕܟܝܘܬܐ	-10.6169
ܓܒܝܢ	-10.617
▁ܕܫܡܫܐ	-10.617
▁ܢܓܗ	-10.6172
▁ܘܡܛܝܒ	-10.6172
▁ܪܫܡ	-10.6172
▁ܡܚܪܪ	-10.6173
▁ܦܘܪܫܢܐ	-10.6173
▁ܕܬܬܡܠܐ	-10.6173
▁ܒܠ	-10.6175
ܤܘܟܝܗ	-10.6176
ܠܫܢܗ	-10.6181
▁ܬܫܐܠܘܢ	-10.6181
▁ܘܒܚܘ	-10.6183
ܡܛܪ	-10.6183
▁ܐܥܝܪ	-10.6184
▁ܟܘܬܝܢܝܢ	-10.6185
▁ܕܡܗܠܟܝܢ	-10.6185
▁ܓܡܝܪܝܢ	-10.6187
▁ܡܬܐܡܪ	-10.6187
▁ܠܐܤܘܪ	-10.619
▁ܒܓܙܘܪܬܐ	-10.6193
▁ܐܬܟܪܟܘ	-10.6194
▁ܠܝܘܦܐ	-10.6195
▁ܒܤܓܝ	-10.6195
▁ܤܗܕܘܗܝ	-10.6197
▁ܗܝܟܠܗ	-10.6197
▁ܕܢܗܦ	-10.6199
▁ܕܬܐܡܪܘܢ	-10.6199
▁ܬܩܘܡܘܢ	-10.62
▁ܒܬܘܕܝܬܐ	-10.6201
▁ܝܚܝܕܝ	-10.6202
▁ܘܪܕܘ	-10.6203
▁ܠܘܩܒܠܗܘܢ	-10.6203
▁ܘܢܘܕܐ	-10.6204
▁ܠܬܪܥܐ	-10.6204
▁ܕܩܫܝܫܐ	-10.6206
▁ܕܝܘܤܦ	-10.6208
▁ܒܐܤܝܐ	-10.621
▁ܡܪܟܘܢ	-10.6211
▁ܢܓܢ	-10.6213
▁ܕܢܤܗܕ	-10.6213
▁ܐܙܕܒܢ	-10.6216
ܥܙܪ	-10.6216
▁ܕܚܙܝܪܐ	-10.6217
▁ܒܡܘܠܟܢܐ	-10.622
▁ܘܟܠܝܠ	-10.622
ܫܘܩܪܐ	-10.6222
ܡܛܝܢ	-10.6222
▁ܢܦܫܬ	-10.6222
▁ܐܬܓܒ	-10.6224
▁ܘܬܩܢܬ	-10.6225
▁ܐܓܪܗܘܢ	-10.6225
▁ܘܓܕ	-10.6227
▁ܥܪܛܠܝ	-10.6227
▁ܕܢܫܬܡ	-10.6227
▁ܐܩܠܘ	-10.6228
▁ܢܟܦܢ	-10.623
ܬܚܝܠ	-10.6231
▁ܕܒܒܝܬܗ	-10.624
▁ܕܚܨܕ	-10.6241
ܟܠܢܫ	-10.6242
▁ܘܚܝܠܘܬܐ	-10.6244
▁ܘܒܩܘܪܝܐ	-10.6245
▁ܕܛܒܬܐ	-10.6247
▁ܠܩܕܡܝܐ	-10.6247
▁ܕܛܥܝܢ	-10.625
ܤܓܝܐܬܐ	-10.6251
▁ܐܬܕܡܝܬ	-10.6258
▁ܤܡܟ	-10.6259
▁ܕܢܟܦܘܪ	-10.6261
▁ܕܐܓܪܬ	-10.6265
▁ܘܪܘܪܒܢ	-10.6269
ܒܐܤܝܐ	-10.6276
▁ܕܫܠܝܛ	-10.6277
▁ܒܬܠܬ	-10.6278
▁ܢܗܦ	-10.6282
▁ܒܕܡܝ	-10.6289
▁ܢܓܕ	-10.6289
▁ܨܠܘܬܟ	-10.629
ܛܢܘ	-10.629
▁ܠܒܝܫܬܐ	-10.6291
▁ܕܢܩܦ	-10.6299
▁ܘܐܤܝܗ	-10.6299
▁ܫܒܠܐ	-10.63
ܡܬܪܓܪܓ	-10.63
▁ܒܐܬ	-10.6302
▁ܒܥܙ	-10.6306
▁ܕܐܚܘܟ	-10.6307
ܡܫܚ	-10.6311
ܢܦܠܘܚ	-10.6311
▁ܕܡܟܘ	-10.6312
▁ܕܥܕ	-10.6312
▁ܕܠܒܐ	-10.6312
ܡܡܘܢܐ	-10.6313
▁ܢܕܘܢ	-10.6313
▁ܕܢܩܘܘܢ	-10.6314
ܤܠܘܢ	-10.6317
ܡܟܝܟܐ	-10.6318
▁ܐܠܗܢ	-10.6318
▁ܓܠܝܬ	-10.6319
▁ܘܫܒܩܘ	-10.632
▁ܘܐܟܠܝܢ	-10.6322
▁ܡܨܚ	-10.6325
▁ܢܤܒܘܗ	-10.6326
▁ܐܡܠܟ	-10.6327
ܫܪܝܘ	-10.6329
▁ܘܤ	-10.633
▁ܐܝܩܐ	-10.6332
▁ܝܗܒܝܢ	-10.6333
▁ܨܒܥܬ	-10.6334
▁ܒܤܝܡܐ	-10.6335
▁ܕܓܦ	-10.6336
▁ܕܒܥܝ	-10.6336
▁ܦܘܠܚܢܐ	-10.6345
▁ܕܡܚܝܢ	-10.6347
▁ܘܡܙܒܢܝܢ	-10.6347
▁ܕܬܫܪ	-10.6348
▁ܕܓܠܘܬܐ	-10.635
▁ܡܚܘܬܗ	-10.6351
▁ܡܬܕܟ	-10.6353
▁ܘܢܥܒܕܘܢ	-10.6361
ܐܒܕܢܐ	-10.6363
▁ܓܠܝܢ	-10.6364
▁ܕܢܦܩܘ	-10.6364
▁ܝܘܠܦܢܗ	-10.6366
▁ܐܒܗܬܐ	-10.6367
▁ܚܙܝܬܘܢ	-10.6371
▁ܐܚܘܢ	-10.6377
▁ܕܪܓܠ	-10.6378
▁ܠܡܥܡܕ	-10.6381
▁ܒܡܪ	-10.6381
▁ܘܒܝܫܐ	-10.6382
▁ܒܥܘܠܐ	-10.6382
▁ܘܒܝܘܠܦܢܐ	-10.6384
▁ܒܪܒܘܬ	-10.6385
ܪܡܫܐ	-10.6388
▁ܪܓܠܝܟܘܢ	-10.6388
▁ܒܚܪ	-10.6389
▁ܘܡܫܘ	-10.639
▁ܐܤܘܪ	-10.6391
ܟܪܐ	-10.64
▁ܘܢܚܐ	-10.6404
ܚܙ	-10.6405
▁ܘܠܒܝܬ	-10.6409
▁ܘܡܗܠܟܝܢ	-10.6411
▁ܕܢܦܩܬ	-10.6412
▁ܠܒܢܝܐ	-10.6418
▁ܘܐܬܓܠܝ	-10.6418
▁ܕܛܡܐ	-10.6423
▁ܕܩܨ	-10.6432
▁ܗܝܡܢܢ	-10.6437
▁ܘܐܓܪ	-10.6437
▁ܘܥܒܕܝܢ	-10.6455
▁ܐܬܝܬܪ	-10.6457
▁ܒܝܫܘܬܐ	-10.6457
ܤܒܪܘܢ	-10.6459
ܨܒܥ	-10.646
▁ܢܫܡܫܘܢ	-10.6466
▁ܘܡܘܪ	-10.6469
ܡܬܐܠܨܝܢ	-10.647
▁ܛܥܝܐ	-10.6471
▁ܘܫܪܪ	-10.6475
▁ܡܨܝܕܬܐ	-10.6475
ܡܙܡܢ	-10.6478
▁ܡܝܬܪܐ	-10.6479
▁ܕܬܒܥ	-10.6484
▁ܬܐܡ	-10.6484
ܬܦܪܥ	-10.6491
▁ܝܨܦܝܢ	-10.6493
▁ܒܩܪܝܬܐ	-10.6493
▁ܟܢܬ	-10.6495
▁ܕܨܒܝܢܗ	-10.6499
▁ܐܤܬ	-10.6501
▁ܩܝ	-10.6504
▁ܡܪܓܢܝܬ	-10.6509
▁ܟܦܪܝܢ	-10.651
▁ܕܢܚܘܢ	-10.6512
▁ܙܟܐ	-10.6512
▁ܐܪܤܛ	-10.6515
▁ܨܐܕ	-10.6518
ܢܫܒܘܩ	-10.6526
▁ܛܥܢ	-10.6532
▁ܕܚܒܠܐ	-10.6535
▁ܒܕܪܬ	-10.6536
▁ܘܤܗ	-10.6537
ܪܓܬܐ	-10.6538
ܒܫܡܗ	-10.654
ܡܚܒܠ	-10.6541
▁ܒܪܫܗ	-10.6547
▁ܒܘܪܟ	-10.6549
ܒܡܕܡ	-10.6551
▁ܘܡܝܬܘ	-10.6553
▁ܕܡܬܚܙ	-10.6554
ܘܕܝܘܤ	-10.6562
▁ܕܥܡܗܘܢ	-10.6563
▁ܡܬܕܝܢܝܢ	-10.6567
▁ܕܢܦ	-10.6575
▁ܠܦܓܪܐ	-10.6579
▁ܕܬܠܬܝܢ	-10.66
ܙܩܦ	-10.6601
▁ܫܬܝܢ	-10.6603
ܬܕܟܝܬܐ	-10.6611
▁ܢܤܒܪ	-10.6612
ܢܚܨܘܕ	-10.6615
ܩܒܘܪ	-10.6617
▁ܘܐܚܒ	-10.6618
▁ܡܗܝܡܢܬܐ	-10.663
ܐܬܪܐ	-10.6634
▁ܥܕܠܝ	-10.6636
ܝܘܤܦ	-10.664
▁ܠܡܪܥ	-10.6641
▁ܘܥܠܬ	-10.6642
▁ܐܫܬܘܬܦ	-10.6644
▁ܘܢܬܦ	-10.6657
ܡܦܫܩ	-10.6658
▁ܤܬܘ	-10.6659
▁ܫܫܠ	-10.6676
▁ܪܥܡܐ	-10.6684
ܒܢ	-10.6691
▁ܘܫܠܝ	-10.67
▁ܠܟܬܒܘ	-10.6707
ܒܨܪܬ	-10.671
ܠܚܐ	-10.6721
▁ܘܕܬܠܬ	-10.6722
ܤܝܢܝ	-10.6727
ܪܘܡܐ	-10.6731
ܠܟܠܢܫ	-10.6737
▁ܫܒܝܠ	-10.675
▁ܕܚܘ	-10.6769
▁ܝܒܫܐ	-10.677
ܪܩܘܢ	-10.6777
▁ܢܐܙܠܘܢ	-10.6783
▁ܢܘܕ	-10.679
▁ܘܟܐܒ	-10.6791
▁ܘܟܘܪܗܢ	-10.6792
▁ܒܚܪܒ	-10.6792
ܤܪܝܩܘܬܐ	-10.6793
▁ܠܚܘ	-10.6799
ܒܟܠܡܕܡ	-10.6801
ܨܘ	-10.6802
▁ܐܓܝܪ	-10.6805
▁ܕܕܒܪ	-10.6806
ܢܠܦ	-10.6812
ܢܬܟܪܙ	-10.6812
▁ܘܚܐܪ	-10.6816
▁ܚܛܝܬܗ	-10.6821
ܡܓܕܦܝܢ	-10.6825
▁ܡܥܪ	-10.6834
▁ܬܘܬ	-10.6837
▁ܘܬܘ	-10.6839
▁ܕܛܘܪܐ	-10.6841
▁ܘܠܒ	-10.6851
▁ܘܬܫܡܫܬ	-10.6853
▁ܟܐܒܐ	-10.6856
▁ܚܛܘܦܐ	-10.6856
▁ܕܘܟ	-10.6858
ܪܦܐ	-10.6863
▁ܚܕܥܤܪ	-10.6868
ܓܡܝܪܘܬܐ	-10.6868
▁ܦܪܘܩܐ	-10.6871
ܡܒܙܚ	-10.6872
▁ܘܠܐܡܪܐ	-10.6881
▁ܕܐܠܗܗ	-10.6881
▁ܕܬܐܡܪ	-10.6887
▁ܩܕ	-10.6901
ܢܨܪܬ	-10.6916
▁ܟܪܤܗ	-10.6924
▁ܘܒܗܘ	-10.6926
▁ܘܒܙܒܢ	-10.6932
▁ܘܥܡܕ	-10.6933
▁ܒܚܝܠ	-10.6935
ܕܒܚ	-10.6943
ܡܬܬܘܤܦ	-10.6949
ܥܘܬܪ	-10.6951
ܬܫܥܐ	-10.6965
▁ܒܢܝܟܝ	-10.6969
ܦܪܘܓܝ	-10.6971
ܩܘܒܠ	-10.6981
▁ܬܦܩ	-10.6989
▁ܕܫܘܒܚ	-10.6993
ܠܝܘܤ	-10.7004
▁ܡܦܝܤܝܢ	-10.7008
▁ܡܤܪܗܒܐ	-10.7027
▁ܪܢܝ	-10.7028
ܦܫܩ	-10.7029
▁ܕܪܘܚܗ	-10.7029
▁ܐܫܬܟܚܬ	-10.703
ܓܙܘܪܬܐ	-10.7036
ܢܗ	-10.704
ܩܦܘ	-10.7041
ܒܫܥܬܐ	-10.7042
ܤܓܝ	-10.7047
▁ܬܗܪ	-10.7055
▁ܫܕܪܗ	-10.7057
▁ܫܠܝܢ	-10.7062
ܒܗܬ	-10.7071
ܫܠܡ	-10.7075
▁ܠܡܟ	-10.7076
ܤܢܝܢ	-10.7085
▁ܒܘܪܟܝ	-10.7087
ܡܟܢܫ	-10.7089
▁ܢܦܪܫ	-10.709
▁ܒܥܕ	-10.7091
ܨ	-10.7101
▁ܒܪܫܐ	-10.7104
▁ܕܘܟܝ	-10.7105
ܪܕܘܦܝ	-10.7107
▁ܕܢܟܪܙ	-10.7114
▁ܘܐܬܩܪܒ	-10.7115
ܗܪܘܢ	-10.7124
▁ܕܒܚܝ	-10.7133
▁ܚܝܪ	-10.7133
▁ܕܢܟܤ	-10.7137
▁ܚܤܪ	-10.714
ܙܢܐ	-10.714
▁ܕܚܘܝ	-10.7191
▁ܪܩ	-10.7195
▁ܕܡܫܬ	-10.72
▁ܐܬܐܤܝ	-10.7209
▁ܡܚܘܝ	-10.7211
▁ܕܐܚܪܢܐ	-10.7227
▁ܒܗܕܡܝ	-10.7228
ܩܘܢ	-10.7236
ܤܘܤ	-10.724
▁ܫܘܝܐ	-10.7247
▁ܤܒܪܢ	-10.7249
▁ܓܒܝܬ	-10.7253
▁ܕܐܪ	-10.7259
▁ܩܒܠܢ	-10.7262
▁ܘܬܫܬ	-10.7262
▁ܪܚܝܩܝܢ	-10.7262
ܬܘܠܥ	-10.7264
▁ܒܕܪ	-10.7265
ܬܬܐ	-10.7285
▁ܕܚܡܫ	-10.7285
▁ܘܟܠܬܐ	-10.7296
▁ܕܚܠܐ	-10.7301
▁ܐܚܙ	-10.7304
▁ܘܙܕܝܩܘܬ	-10.7317
ܡܘܬ	-10.732
▁ܥܒܪܘ	-10.7326
▁ܠܦ	-10.7342
ܥܠ	-10.7343
ܒܥ	-10.7354
▁ܘܛܝܒܘ	-10.7355
▁ܘܡܠܦܢ	-10.7357
▁ܕܠܡ	-10.7361
▁ܢܒܝ	-10.7364
ܐܬܬܤܝܡ	-10.7366
ܗܝܡܢܬܘܢ	-10.7369
▁ܩܛ	-10.7373
ܓܕܘ	-10.7379
▁ܥܠܬ	-10.7405
▁ܕܢܨ	-10.7411
▁ܐܦܦܪ	-10.7423
ܚܒܪܗ	-10.7431
▁ܕܢܫܡܥܘܢ	-10.7436
ܫܟ	-10.7457
▁ܫܐܠܬ	-10.7472
ܬܦܬܚ	-10.7475
▁ܚܪܘ	-10.7479
▁ܡܢܤܐ	-10.7485
▁ܩܒܘ	-10.7488
ܦܤܩܘ	-10.7489
▁ܦܓܪܢܐ	-10.749
ܡܠܟܘܬܟ	-10.749
▁ܘܠܝܬܝܗ	-10.7509
▁ܒܓ	-10.7509
ܚܫܒܬ	-10.7511
ܡܝ	-10.752
▁ܠܕܘܟܬܗ	-10.7533
ܒܘܗܝ	-10.7534
▁ܘܥܡܪ	-10.7545
▁ܚܒܘܫܝ	-10.7549
▁ܦܘܡܟ	-10.7551
ܟܕ	-10.758
ܙܕܒܢ	-10.7586
ܚܘܪܘ	-10.7586
▁ܟܐܝ	-10.7587
ܗܦܟ	-10.7589
ܒܫܗ	-10.7591
▁ܕܩܠܐ	-10.7595
▁ܡܫܬܥܒܕܐ	-10.7608
▁ܕܙܟ	-10.7608
▁ܕܒܝܬܐ	-10.7616
▁ܡܬܕܡ	-10.762
ܘܝܘܬܐ	-10.762
▁ܐܚܘܝܟ	-10.7627
ܦܘܡܐ	-10.763
ܤܚܦ	-10.7636
ܠܝܬܐ	-10.7641
▁ܩܛܠܬ	-10.7644
ܒܥܠܕܒܒܝܟܘܢ	-10.765
▁ܕܐܝܬܝܟ	-10.7659
▁ܒܛܝܠܐ	-10.7669
▁ܗܠܟܬ	-10.768
▁ܗܦܟܬ	-10.7683
ܙܟܘܬܐ	-10.7687
▁ܠܥܡܝ	-10.769
▁ܕܢܝܬܘܢ	-10.7694
▁ܘܫܡ	-10.7698
▁ܘܕܚܝ	-10.7701
ܢܫܡܥܘܢ	-10.7721
ܫܩܠ	-10.7726
ܡܥܘܢ	-10.7737
▁ܘܪܩ	-10.7738
▁ܕܝܕܥܬܘܢ	-10.7746
ܡܤܝܒܪܢܘܬܐ	-10.7747
ܦܝܪ	-10.7747
▁ܠܥܩܪ	-10.7749
ܕܗܒ	-10.7762
▁ܒܫܪܒܬ	-10.7763
ܝܠܦܬܘܢ	-10.7776
▁ܘܐܟܪܙ	-10.7782
ܠܒܘܬܟܘܢ	-10.7797
▁ܕܐܪܡ	-10.7814
ܢܫܕܪ	-10.7817
ܪܘܪܐ	-10.782
▁ܕܢܟ	-10.7826
▁ܕܝܘܡ	-10.7842
▁ܢܩܘ	-10.7845
▁ܘܙܩ	-10.7853
▁ܕܬܐܒ	-10.7865
▁ܢܓܘ	-10.788
ܡܫܬܘܬܦ	-10.7891
▁ܚܫܚܬ	-10.7893
ܒܪܐ	-10.7907
▁ܕܨܒܝ	-10.7911
▁ܛܥܝ	-10.7933
▁ܥܗܕ	-10.7939
▁ܠܦܓܪ	-10.7947
▁ܢܦܫܬܗ	-10.7954
ܘܠ	-10.7957
ܚܙܩ	-10.796
▁ܠܕܪ	-10.7977
▁ܩܫܝ	-10.7999
ܡܪܘܬܐ	-10.8002
ܪܥܘܢ	-10.8011
ܦܘܩܕܢܐ	-10.8021
▁ܫܘܩ	-10.8024
▁ܘܓܝܪ	-10.803
ܠܡܘܬܐ	-10.8038
▁ܘܢܦܫ	-10.8049
▁ܠܙܕܝܩܘ	-10.8051
ܬܫܡܫܬܗ	-10.8062
▁ܘܨܠ	-10.807
▁ܢܤܒܢ	-10.8084
▁ܬܘܩܠ	-10.8085
▁ܥܬܝܕܐ	-10.8099
ܢܤܝܒܪ	-10.8099
▁ܕܚܤܝܪ	-10.8104
▁ܕܢܩܪܘܢ	-10.8118
ܙܪܥܘܢܐ	-10.812
▁ܘܢܦܫܗ	-10.8134
▁ܐܟ	-10.8135
▁ܕܢܤܒܘ	-10.8162
▁ܕܩܐ	-10.8163
ܤܓܕܘ	-10.8176
▁ܘܒܕܡ	-10.818
ܫܘܝܐ	-10.8181
▁ܐܬܒܤܡ	-10.8188
ܥܗܕܘ	-10.8189
ܙܥܘܪܐ	-10.8198
▁ܙܘ	-10.8206
▁ܘܚܒܝܒ	-10.821
ܥܒܪ	-10.8214
ܝܥ	-10.8214
▁ܢܩܥ	-10.8215
▁ܡܕܝܢܬܗ	-10.8241
▁ܕܡܝܬܪܐ	-10.8243
▁ܐܬܢܒ	-10.8243
▁ܕܤܒܪܬ	-10.826
ܦܘܪܩܢܐ	-10.8263
▁ܘܥܠܘܒ	-10.8264
ܦܪܗ	-10.8269
▁ܘܢܤܝܡ	-10.828
▁ܠܡܬܒ	-10.8281
ܒܟܘܢ	-10.8284
▁ܘܕܐܢ	-10.8287
▁ܡܤܟ	-10.829
▁ܘܩܝܡ	-10.8292
ܚܕܥܤܪ	-10.8294
ܫܒܘܩ	-10.83
▁ܠܐܒܗ	-10.8307
▁ܩܝܬܪ	-10.8312
▁ܕܒܡܠ	-10.8318
▁ܘܗܢܘ	-10.8334
ܫܘܩܐ	-10.8352
ܒܩܘܪܝܐ	-10.8354
▁ܕܟܪܝ	-10.8355
▁ܡܫܬܒܩ	-10.8357
▁ܘܠܪܘܚ	-10.8363
ܤܝܘ	-10.8364
▁ܬܒܥ	-10.8379
▁ܒܫܘܠܛܢ	-10.8397
ܠܚܘ	-10.8398
▁ܘܐܫܬܘܕܥܘ	-10.8399
ܕܘܒܪܝ	-10.841
▁ܢܪ	-10.8412
ܢܕܒ	-10.8413
ܡܬܟܫܠܝܢ	-10.8417
▁ܘܐܚܝܟ	-10.8422
ܘܕܝ	-10.8433
ܙܒܢ	-10.8445
▁ܘܡܚܐ	-10.8466
ܐܤܪܘܢ	-10.8468
ܤܦܩ	-10.8471
▁ܠܒܢܝܢ	-10.8482
ܬܬܘܤܦ	-10.8486
ܘܥ	-10.8491
ܘܩܕ	-10.8509
▁ܐܫܬܥܒܕ	-10.852
ܡܪܓܢܝܬܐ	-10.8526
ܠܦܘܢ	-10.8529
ܤܬܘܐ	-10.8542
ܬܬܥܝܩ	-10.8547
▁ܕܐܤܠܝܘ	-10.855
ܓܡܘܪ	-10.8556
ܛܫܝ	-10.8558
ܝܩܪ	-10.8569
ܐܚܝܟܘܢ	-10.857
▁ܘܩܥ	-10.8573
▁ܘܕܥ	-10.8574
▁ܥܪܒܝ	-10.8587
▁ܡܩ	-10.8592
▁ܫܘܬܦ	-10.8594
ܙܗܪ	-10.8594
▁ܕܠܢ	-10.8602
▁ܡܫܚ	-10.8612
▁ܢܡ	-10.8618
▁ܕܫܡ	-10.8623
▁ܝܬܒܬ	-10.8629
▁ܘܡܟܪܙܝܢ	-10.8643
ܥܘܠܐ	-10.8646
▁ܘܛܘܒ	-10.8646
▁ܫܪܒ	-10.8647
▁ܓܙ	-10.8649
ܦܝܤ	-10.8668
ܚܕ	-10.8676
ܤܦܘܬܗ	-10.8684
▁ܘܒܠܥ	-10.8694
▁ܢܐܚܕܘܢ	-10.8706
ܪܚܡܘܗܝ	-10.8706
ܬܐܪܬܐ	-10.8712
▁ܘܡܦ	-10.8722
ܪܤ	-10.8724
ܐܝܕܗ	-10.8725
▁ܒܟܪܤ	-10.8727
▁ܘܢܤ	-10.875
ܫܒܩܬ	-10.8751
▁ܘܒܢܝܗ	-10.8754
▁ܘܡܫܠܡ	-10.8764
▁ܕܐܘܠܨܢ	-10.8767
▁ܘܢܗܝܡܢ	-10.8777
▁ܘܢܥܒܕ	-10.8779
ܥܡܕܘ	-10.8786
ܟܬܒ	-10.8792
▁ܬܩ	-10.8798
ܬܫܐܠܘܢ	-10.8799
▁ܕܐܦܩ	-10.88
ܕܪܝܘܗܝ	-10.88
▁ܪܥܡ	-10.8801
ܛܒ	-10.8809
ܡܗܝܢ	-10.8814
ܘܕܝܘ	-10.882
▁ܝܘܬܪܢ	-10.8827
ܩܕ	-10.8833
▁ܫܘܒܩܢ	-10.8835
▁ܐܡܘܬ	-10.8837
▁ܘܡܤܝܒܪܢܘܬ	-10.884
ܐܬܩܛܠ	-10.8851
ܕܒܪܐ	-10.8852
▁ܒܕܚܠܬ	-10.8854
▁ܫܛ	-10.8859
▁ܤܝܡܘ	-10.8859
ܘܩ	-10.8861
▁ܐܟܚܕ	-10.8862
ܡܬܒܤܡ	-10.8869
ܚܪܒܐ	-10.887
▁ܕܫܐܕ	-10.8877
ܚܝܐ	-10.8887
▁ܘܢܚܘ	-10.8891
▁ܒܪܫ	-10.8894
▁ܐܤܛܪܛ	-10.8894
▁ܗܟܢ	-10.8901
▁ܕܐܫܬ	-10.891
▁ܠܒܥܠ	-10.8919
ܢܤܝܡܘܢ	-10.892
▁ܐܚܝܢܝ	-10.8927
▁ܦܬܓܡ	-10.8948
▁ܘܠܒܢ	-10.8953
▁ܟܠܡ	-10.8958
ܬܪܒܝܬ	-10.896
▁ܫܠܝܚ	-10.8962
▁ܕܬܪܝ	-10.897
ܠܬܢܝܢ	-10.8973
ܐܠܒܫ	-10.8983
▁ܪܒܗ	-10.8987
ܨܒ	-10.8988
ܠܤ	-10.8992
▁ܕܪܓ	-10.8993
▁ܡܬܦܪ	-10.8995
▁ܬܡܗ	-10.8998
ܡܘܬܘܢ	-10.9004
ܦܘܗܝ	-10.9008
ܓܝܤܐ	-10.9029
ܬܚܙܝܢ	-10.9035
▁ܢܟܦ	-10.9042
▁ܐܤܩ	-10.9043
ܨܘܪ	-10.9045
ܡܕܝܢܬܗܘܢ	-10.9053
▁ܡܬܛܦܝܤ	-10.9053
ܫܬܒܗܪܘ	-10.9053
▁ܠܡܘܒܕܘ	-10.9055
▁ܕܐܚܫܡ	-10.906
ܚܛܗܝܗܘܢ	-10.9065
ܪܛܢܘ	-10.9069
▁ܘܠܗܘ	-10.9072
ܫܪ	-10.9082
ܦܪܘܩ	-10.9093
ܡܫܬܐܠ	-10.9095
ܕܐܠܗܐ	-10.9101
ܟܠܝܘܡ	-10.9105
▁ܘܫܬ	-10.9106
ܦܪܩ	-10.9106
ܦܬܟܪܐ	-10.9108
ܩܝܢ	-10.9115
▁ܒܦܓܪܝ	-10.9117
▁ܡܬܝܬܪ	-10.9117
▁ܬܩܢ	-10.9131
ܐܤܘܢ	-10.9132
ܐܬܓܠܝ	-10.9135
▁ܟܘܪ	-10.9137
▁ܕܠܟ	-10.9143
▁ܦܪܬܘ	-10.9144
▁ܗܪ	-10.9147
▁ܕܢܓ	-10.9149
ܬܚܪܪ	-10.9151
▁ܢܚܬܬ	-10.9152
ܥܪܤܗ	-10.9152
ܛܢܢܐ	-10.9152
ܕܓܠܘܬܐ	-10.9154
ܪܗܒܘ	-10.9156
ܩܝܦܐ	-10.9162
▁ܘܫܪܝܪ	-10.9163
ܩܘܡܘ	-10.9164
▁ܘܡܨ	-10.9167
ܚܤܕ	-10.9182
▁ܦܫ	-10.9184
▁ܒܕܘܟ	-10.9189
▁ܘܛܫ	-10.9192
ܡܘܠ	-10.9192
▁ܘܬܩܢ	-10.9193
ܠܚܘܗܝ	-10.9196
ܫܘܬܦ	-10.9198
ܢܘܗܪܗ	-10.9202
ܐܬܟܤܝ	-10.9204
ܫܕ	-10.9207
▁ܠܪܚܡ	-10.9208
ܐܬܒܕܪܘ	-10.9216
ܦܝܠܛܘܤ	-10.9221
ܐܫܬܒܩ	-10.9222
ܕܝܘܢ	-10.9222
▁ܒܟܐ	-10.9227
ܕܩܝ	-10.9227
ܕܓܠ	-10.9232
ܠܨܠܡܗ	-10.9232
ܐܤܛܦܢܘܤ	-10.9233
ܦܬܘܪܗ	-10.9235
ܡܠܟܝܙܕܩ	-10.9236
ܐܪܤܛ	-10.9237
ܥܛܝܦ	-10.9241
ܪܥܝܢܝ	-10.9242
ܩܝܤܐ	-10.9244
ܒܪܒܪܝܐ	-10.9248
ܬܗܪܘ	-10.925
ܢܐܒܕ	-10.9251
ܬܪܬܥܤܪܐ	-10.9253
ܐܟܠܩܪܨܐ	-10.9253
ܒܘܟܪܐ	-10.9255
▁ܟܢܘܫ	-10.9256
ܕܝܫ	-10.9257
ܒܠܫܢܐ	-10.9257
ܫܡܫ	-10.926
ܡܛܫܝܐ	-10.9261
ܒܛܝܠ	-10.9267
▁ܕܐܫܬܒܗܪ	-10.9272
▁ܡܤܝܒܪ	-10.9273
▁ܕܥܒܕܢ	-10.9274
▁ܕܥܒܕܗ	-10.9282
▁ܡܬܩܪܒ	-10.9285
ܓܕܫ	-10.929
▁ܕܠܩܘܒܠ	-10.929
ܪܘܪܒ	-10.929
ܚܝܠܐ	-10.9292
ܩܘܦܪܘܤ	-10.9293
▁ܫܘܒܚ	-10.9294
▁ܡܩܘܝ	-10.9298
ܚܝܬܘܢ	-10.9298
▁ܢܩܛܠ	-10.93
▁ܐܫܬܘܕܥ	-10.9301
▁ܘܐܫܬܥ	-10.9301
▁ܬܬܝܬܪ	-10.9302
▁ܛܥ	-10.9308
ܘܠܬܗ	-10.9308
▁ܘܐܒܗܬ	-10.9309
ܐܠܝܨ	-10.9311
▁ܬܐܙܠ	-10.9312
ܒܬܘܠܬ	-10.9313
ܬܢܒܝܘ	-10.9315
ܬܪܗܒ	-10.9316
▁ܕܢܫܠܡ	-10.932
ܪܡܙ	-10.9331
ܬܟܢܫܘ	-10.9335
ܛܪܤܘܤ	-10.9338
ܟܘܪܗܢܐ	-10.9344
▁ܒܠܒܟ	-10.9348
ܪܫܝܥܐ	-10.935
▁ܕܬܕܥ	-10.9351
▁ܐܬܐܠܨ	-10.9354
ܐܝܕܐ	-10.9356
ܩܛܪܓ	-10.9359
ܡܟܪܙܝܢܢ	-10.936
▁ܕܐܙܕ	-10.9362
ܠܡܫܡܥ	-10.9366
▁ܘܛܢܢ	-10.9369
▁ܘܢܬܒ	-10.9369
ܒܝܫܘܬܐ	-10.937
ܐܛܥܝ	-10.9373
ܠܓܝܢ	-10.9374
▁ܫܡܪܝ	-10.9374
▁ܦܘܢܝ	-10.9375
▁ܐܚܕܘ	-10.9377
ܓܗܢ	-10.9377
▁ܘܬܚܙܘܢ	-10.9378
▁ܠܡܩܒܠܘ	-10.9379
▁ܠܡܥ	-10.9379
▁ܘܒܩܛ	-10.9381
▁ܐܕܪ	-10.9382
▁ܐܒܪܗ	-10.9383
▁ܘܡܤܒ	-10.9383
▁ܒܡܤܒ	-10.9384
▁ܒܤܝܡܘܬ	-10.9384
ܙܘܪܒܒܠ	-10.9386
ܤܟܘܠܬܢܐ	-10.9386
▁ܕܥܪܛܠܝ	-10.9386
▁ܕܬܐܚܕܘܢܢܝ	-10.9386
▁ܘܡܘܗܒܬ	-10.9386
▁ܘܬܫܒܘܚܬܗ	-10.9386
▁ܝܨܝܦ	-10.9386
▁ܟܪܤܛܝܢܐ	-10.9386
▁ܠܐܝܛܠܝܐ	-10.9386
▁ܠܡܗܠܟܘ	-10.9386
▁ܠܡܛܒܥ	-10.9386
▁ܠܤܘܚܦ	-10.9386
▁ܢܒܘܙ	-10.9386
▁ܢܦܪܥܟ	-10.9386
▁ܬܫܬܒܩ	-10.9386
ܡܝܠܝܛܘܤ	-10.9386
ܦܢܛܩܘܤܛܐ	-10.9386
ܦܩܥܬܐ	-10.9386
▁ܒܡܘܟܟ	-10.9386
▁ܕܤܘܥܪܢ	-10.9386
▁ܕܦܬܝܚ	-10.9386
▁ܕܬܪܥܤܪ	-10.9386
▁ܛܝܡܝ	-10.9386
▁ܠܡܤܥܪ	-10.9386
▁ܢܒܠܥ	-10.9386
▁ܪܕܝܦܘܬ	-10.9386
▁ܬܬܕܡܘܢ	-10.9386
▁ܬܬܟܫܠܘܢ	-10.9386
ܥܘܩܤܐ	-10.9386
▁ܘܡܨܒܬ	-10.9386
▁ܒܘܪܤܝܐ	-10.9386
▁ܘܟܬܝܒ	-10.9386
▁ܚܒܢܢ	-10.9386
▁ܢܨܘܡܘܢ	-10.9386
▁ܥܘܗܕܢ	-10.9386
▁ܐܬܟܪܗ	-10.9386
▁ܘܒܢܒܝܐ	-10.9386
▁ܘܠܓܠܝܢ	-10.9386
▁ܕܢܡܝܬܘܢܝܗܝ	-10.9386
▁ܘܡܪܥܬ	-10.9386
▁ܥܘܦܝܐ	-10.9386
ܟܢܥܢ	-10.9386
▁ܒܥܘܗܕܢܐ	-10.9386
▁ܒܫܘܘܕܥ	-10.9386
▁ܚܛܗܘܗܝ	-10.9386
▁ܘܥܬܝܕ	-10.9386
▁ܕܡܕܪܟ	-10.9386
▁ܕܗܪܘܕܝ	-10.9386
▁ܘܡܬܟܫܦܝܢ	-10.9386
▁ܘܫܐܘܠ	-10.9386
▁ܕܡܠܝܟ	-10.9386
▁ܤܠܡܘܢ	-10.9386
▁ܫܦܝܐ	-10.9386
▁ܩܘܪܒܢܟ	-10.9386
▁ܐܤܛܤܝ	-10.9386
▁ܘܡܫܬܒܗܪ	-10.9386
▁ܒܐܘܡܢܘܬ	-10.9386
▁ܠܟܪܡܗ	-10.9386
ܢܛܘܪܬܐ	-10.9386
▁ܒܫܠܝܚ	-10.9386
ܬܬܢܤܘܢ	-10.9386
ܕܢܦܬܠܝ	-10.9386
▁ܒܛܟܤ	-10.9386
▁ܬܫܬܟܚ	-10.9386
▁ܒܒܪܢܫܐ	-10.9386
▁ܢܢܛܪ	-10.9386
ܬܫܢܩܢ	-10.9386
▁ܫܒܗܪܢ	-10.9386
▁ܟܘܬܡ	-10.9387
▁ܘܬܪܤܝ	-10.9387
▁ܪܐܓ	-10.9387
▁ܘܐܘܬܒ	-10.9387
▁ܡܫܬܚܠܦ	-10.9387
▁ܬܛܠ	-10.9387
▁ܘܨܥܪ	-10.9387
ܬܥܡܠ	-10.9387
▁ܘܡܫܬܥܒܕ	-10.9387
▁ܠܕܡܗ	-10.9387
▁ܤܘܟܠ	-10.9387
▁ܡܪܥܝܬܐ	-10.9387
▁ܢܬܩܕܫ	-10.9387
▁ܡܬܓܕܦ	-10.9387
▁ܒܘܝܐܢ	-10.9387
▁ܚܒܬ	-10.9387
▁ܕܐܬܢܝܚ	-10.9387
▁ܠܫܐܕܐ	-10.9387
▁ܡܩܘܝܢ	-10.9387
▁ܬܠܓܐ	-10.9387
▁ܘܛܠܝܐ	-10.9387
▁ܩܐܪܤ	-10.9388
▁ܤܩܘ	-10.9388
▁ܠܕܚܠܬ	-10.9388
▁ܘܫܚܢ	-10.9388
▁ܕܡܒܪܟ	-10.9388
ܒܡܘܬܗ	-10.9388
▁ܠܡܫܐܠܘܬܗ	-10.9388
▁ܘܚܫܟ	-10.9388
▁ܕܦܛܡܐ	-10.9388
ܤܘܢܩܢ	-10.9388
▁ܢܬܩܪܒ	-10.9389
▁ܒܡܐܟܠ	-10.9389
▁ܘܐܬܒܝܐܘ	-10.9389
ܘܙܦ	-10.9389
▁ܤܥܝܪ	-10.9389
▁ܒܓܠܝܐ	-10.9389
▁ܕܕܡܟܘ	-10.9389
▁ܘܒܥܒܕܐ	-10.9389
ܢܪܕܦܘܢ	-10.939
▁ܝܫ	-10.939
▁ܘܪܬܝܬ	-10.939
▁ܐܪܚܩ	-10.939
▁ܡܫܡܫܢܗ	-10.939
▁ܕܕܡܟܝܢ	-10.9391
ܕܩܕܩܐ	-10.9391
▁ܕܐܥܡܕ	-10.9391
ܝܘܪܬܢܐ	-10.9391
▁ܘܦܪܥ	-10.9391
▁ܝܘܪܩ	-10.9391
ܪܗܝܒ	-10.9392
ܬܥܩܪ	-10.9392
▁ܘܝܩܝܪ	-10.9392
▁ܕܢܫܐܠܘܢܝܗܝ	-10.9392
▁ܕܡܙܕܩ	-10.9392
▁ܘܐܬܕܟܝ	-10.9392
▁ܘܡܐܟܠ	-10.9392
▁ܝܠܕܬܟ	-10.9392
▁ܐܟܤ	-10.9392
▁ܝܪܬܘܬܗ	-10.9392
▁ܢܬܬܤܝܡ	-10.9392
▁ܒܤܢܝܐ	-10.9393
ܡܢܘܬܐ	-10.9393
▁ܠܡܩܒܠܘܬܗ	-10.9393
▁ܘܚܢܩܘܗܝ	-10.9393
▁ܘܡܢܟܦ	-10.9393
▁ܫܘܪܥܬ	-10.9394
▁ܠܡܫ	-10.9394
▁ܩܫ	-10.9394
▁ܛܠܝܝ	-10.9395
▁ܚܡܝܡܐ	-10.9395
▁ܘܡܩܪܒ	-10.9395
ܡܫܡܥܬܗܘܢ	-10.9395
▁ܢܕܒܪ	-10.9396
▁ܡܫܚܠܦܬܐ	-10.9396
▁ܙܗܝܪܐܝܬ	-10.9396
▁ܕܢܬܩܪܒ	-10.9396
▁ܘܡܓܪ	-10.9396
▁ܠܡܫܐܠ	-10.9396
▁ܘܡܫܘܚ	-10.9396
▁ܡܒܛܠ	-10.9397
▁ܕܢܫܐܠܘܢ	-10.9397
▁ܠܡܝܬܝܘ	-10.9397
▁ܢܥܡܕ	-10.9398
▁ܒܩܪܝ	-10.9398
▁ܬܕܡܘ	-10.9398
▁ܟܘܠ	-10.9398
▁ܕܗܒܝܠ	-10.9399
▁ܘܐܤܬܟܠܘ	-10.9399
▁ܕܒܓܠܝ	-10.9399
▁ܢܓܕܦ	-10.94
▁ܨܐܕܝܗܘܢ	-10.94
▁ܡܫܡܥ	-10.94
▁ܘܐܘܒܕ	-10.94
▁ܕܢܫܬܪܐ	-10.94
▁ܠܥܘܕܪܢ	-10.9401
▁ܐܬܦܫܛ	-10.9401
▁ܘܬܕܘܢ	-10.9401
▁ܘܡܚܪܩ	-10.9401
▁ܘܢܟܢܫ	-10.9402
▁ܘܠܡܫܬܐ	-10.9402
▁ܒܨܒܘܬܐ	-10.9404
▁ܕܡܬܦܠܓ	-10.9405
▁ܕܢܬܕܡܪ	-10.9405
▁ܕܢܠܥܤ	-10.9405
▁ܡܘܪܒ	-10.9406
▁ܒܕܝܢܪ	-10.9406
▁ܕܡܪܥܝܬ	-10.9406
ܢܬܩܛܠ	-10.9406
▁ܢܬܪܝܡ	-10.9406
ܬܕܘܕ	-10.9406
▁ܠܢܝܚܬܝ	-10.9407
▁ܤܒܠ	-10.9407
▁ܐܫܬܪܝܘ	-10.9408
▁ܡܒܗܬ	-10.9408
▁ܘܡܦܠܓ	-10.9408
▁ܦܫܝܩܐܝܬ	-10.9408
▁ܘܕܢܬܠ	-10.9409
▁ܠܡܨܥܬ	-10.9409
▁ܓܪܝܨܢ	-10.9409
▁ܐܚܒܬܟܘܢ	-10.9409
▁ܠܤܡ	-10.941
▁ܒܡܕܒܚܐ	-10.9411
▁ܘܕܡܝܬܐ	-10.9411
▁ܟܢܘܫܬܗܘܢ	-10.9411
▁ܢܠܥܤ	-10.9411
▁ܠܚܫ	-10.9412
▁ܘܐܬܐܒܠ	-10.9412
▁ܚܫܚܘ	-10.9412
▁ܒܐܤܘܛܘܬܐ	-10.9412
▁ܡܫܬܡܗ	-10.9413
▁ܒܒܢܝ	-10.9413
▁ܐܬܒܨܪ	-10.9415
▁ܬܫܬܘܬܦ	-10.9415
▁ܕܢܤܡ	-10.9415
ܘܡܝܐ	-10.9415
▁ܡܬܡܠܠܐ	-10.9417
▁ܘܠܥܠ	-10.9417
ܪܕܝܤ	-10.9418
▁ܚܓܝܤ	-10.9418
▁ܘܡܩܕܫ	-10.9418
▁ܘܤܐܡ	-10.9419
▁ܩܛܓܪܢ	-10.9419
▁ܘܡܥܡܕ	-10.9419
▁ܚܢܩ	-10.9419
▁ܕܡܫܟ	-10.942
▁ܡܬܟܪܙ	-10.942
▁ܡܓܘܫܐ	-10.942
▁ܩܤܛܘܢܪܐ	-10.942
▁ܢܢܗܪ	-10.942
▁ܐܥܦܐ	-10.942
▁ܐܬܚܪܪܬ	-10.942
▁ܡܤܬܥܪ	-10.942
▁ܢܘܟܪܝܬܐ	-10.942
▁ܕܐܚܒܬ	-10.942
▁ܒܗܘܦܟ	-10.9421
▁ܕܕܠܚ	-10.9421
▁ܘܢܬܝܬܪ	-10.9421
▁ܡܬܬܕܝܢ	-10.9421
▁ܕܐܬܟܪܙ	-10.9422
▁ܘܐܫܦܥ	-10.9423
▁ܕܦܓܪܝ	-10.9423
▁ܕܦܪܨܘܦ	-10.9423
▁ܕܢܙܩܦܘܢܝܗܝ	-10.9423
▁ܘܕܥܬܝܕ	-10.9424
▁ܘܐܠܟܤܢܕܪ	-10.9424
▁ܕܬܬܝܬܪܘܢ	-10.9424
▁ܕܠܒܘܫܗ	-10.9424
▁ܐܬܦܫܚ	-10.9425
▁ܛܠܝܘܬ	-10.9425
▁ܥܡܕܬܘܢ	-10.9426
ܢܬܐܤܐ	-10.9426
▁ܠܬܐܛܪܘܢ	-10.9426
▁ܙܗܝܪ	-10.9427
▁ܡܬܬܩܠ	-10.9428
▁ܦܟܝܗ	-10.9428
▁ܗܝܡܢܘܬܝ	-10.943
ܬܡܟܟܘ	-10.943
▁ܘܚܛܦ	-10.9431
▁ܢܨܗܐ	-10.9431
▁ܘܕܚܡܫ	-10.9432
▁ܒܙܩܝܦܗ	-10.9432
▁ܬܬܕܝܢܘܢ	-10.9433
▁ܕܫܥܒܕ	-10.9433
▁ܐܕܡܝܗ	-10.9433
▁ܒܩܤܪܝܐ	-10.9434
▁ܘܐܫܬܪܝ	-10.9434
▁ܕܙܘܝܬܐ	-10.9434
▁ܬܩܦ	-10.9435
▁ܕܡܬܟܪܟ	-10.9435
▁ܠܨܒܝܢܗܘܢ	-10.9435
▁ܒܕܘܟܝܬ	-10.9435
ܟܬܒܝܢ	-10.9436
▁ܕܬܛܪ	-10.9436
▁ܠܓܠܝܢܗ	-10.9437
▁ܬܬܦ	-10.9438
▁ܒܩܢܝ	-10.9438
▁ܘܒܓܒ	-10.9438
ܓܡܪܘܢ	-10.9438
▁ܠܐܘܨܪ	-10.9439
▁ܝܕܝܥܬܐ	-10.9439
ܤܘܚܝܢ	-10.9439
▁ܕܐܪܝܡ	-10.944
▁ܠܡܙܥܩ	-10.944
▁ܓܪܒܗ	-10.9441
▁ܒܝܒܫܐ	-10.9443
▁ܘܪܚ	-10.9444
▁ܘܡܘܕܝܢ	-10.9445
▁ܒܕܟܝܘܬܐ	-10.9446
▁ܕܨܦܪ	-10.9447
▁ܐܬܛܥܡ	-10.9448
ܙܕܩܬܟ	-10.9449
▁ܘܐܬܬܘܤܦ	-10.9449
▁ܡܫܚܬ	-10.945
▁ܕܡܬܝܗܒ	-10.9451
▁ܪܘܚܢܝ	-10.9451
▁ܡܬܙܝܥܝܢ	-10.9451
▁ܐܫܬܝܘܗܝ	-10.9451
ܢܐܟܠܘܢ	-10.9451
▁ܡܫܬܡܥܢܘܬ	-10.9451
▁ܕܫܓܫ	-10.9451
▁ܐܬܦܪܩ	-10.9452
▁ܘܕܥܘ	-10.9452
ܒܡܚܙܝܬܐ	-10.9452
▁ܚܠܝܐ	-10.9453
▁ܘܡܠܘ	-10.9453
▁ܘܐܬܝܕܥ	-10.9453
▁ܝܪܩ	-10.9454
▁ܠܦܝܠܛܘܤ	-10.9454
▁ܠܡܐܤܝܘܬܗ	-10.9454
▁ܢܚܫܟ	-10.9458
ܡܫܬܝܐ	-10.9459
▁ܡܬܩܪܝ	-10.9459
▁ܘܐܙܕܕܩܬ	-10.9459
▁ܢܦܪܩ	-10.9459
▁ܐܥܒܪ	-10.9461
▁ܡܗܦܟܝܢ	-10.9462
▁ܠܙܥܘܪܐ	-10.9462
▁ܥܩܐ	-10.9469
▁ܬܫܡܫܬܗ	-10.947
▁ܝܒܝܫ	-10.947
▁ܘܒܠܠܝܐ	-10.9471
▁ܕܒܘܩܝ	-10.9472
▁ܒܪܓܬܐ	-10.9473
▁ܕܛܢܢ	-10.9474
ܢܡܝܬܘܢ	-10.9476
▁ܢܫܒܩ	-10.9476
▁ܙܕܝܩܝܢ	-10.9476
▁ܐܟܘܬܗ	-10.9477
▁ܕܓܠܬܐ	-10.9477
▁ܢܤܦܩ	-10.9478
ܤܬܢܩ	-10.9478
▁ܬܬܚܝܒ	-10.9478
▁ܤܦܝܩ	-10.9478
▁ܘܕܥܒܕ	-10.9479
▁ܡܬܡܠܠܢ	-10.948
▁ܙܢܝܘ	-10.9482
▁ܕܫܠܚܢܝ	-10.9482
▁ܘܡܛܥܝܢ	-10.9483
▁ܐܟܘܬܢ	-10.9484
▁ܐܬܬܘܝ	-10.9484
▁ܒܥܘܪܠܘܬܐ	-10.9485
▁ܕܐܦܤܝܐ	-10.9485
▁ܕܚܝܝܟܘܢ	-10.9485
▁ܕܫܘܘܕܝ	-10.9485
▁ܘܡܥܛܦ	-10.9486
▁ܐܘܩܕ	-10.9487
▁ܘܒܢܟܦܘܬܐ	-10.9487
▁ܢܗܦܘܟ	-10.9488
▁ܕܡܬܩܢ	-10.9488
▁ܘܒܡܤܝܒܪܢܘܬܐ	-10.9488
ܢܤܬܟܠܘܢ	-10.949
▁ܡܩܘܝܢܢ	-10.949
▁ܕܠܩܘܒܠܢ	-10.949
▁ܡܬܐܤܝ	-10.9492
▁ܚܦܛ	-10.9493
▁ܕܢܚܒ	-10.9494
▁ܐܟܘܬ	-10.9494
▁ܡܚܤ	-10.9494
▁ܕܐܒܗܝܟܘܢ	-10.9495
▁ܒܡܠܬܗ	-10.9495
▁ܚܛܝܢ	-10.9497
▁ܠܩܘ	-10.9497
▁ܘܫܚܩ	-10.9499
▁ܢܦܢܐ	-10.9499
▁ܡܫܡܫܢܝ	-10.95
▁ܠܡܕܒܪܢ	-10.95
▁ܠܡܫܪܝܐ	-10.9501
▁ܠܡܚܫ	-10.9502
▁ܡܬܢܒܝܢ	-10.9507
▁ܬܪܐܐ	-10.9508
ܕܫܐ	-10.9508
▁ܕܛܘܒ	-10.9509
▁ܘܦܥ	-10.9509
ܒܨܦܪܐ	-10.951
▁ܒܚܫܡܝܬܐ	-10.9512
▁ܦܢܝ	-10.9512
ܩܪܝܬܘܢ	-10.9513
▁ܒܐܘܪܚܬ	-10.9515
▁ܡܤܢܐ	-10.9516
ܠܝܗ	-10.9516
▁ܠܟܠܒܐ	-10.9516
▁ܡܫܝܚܗ	-10.9518
▁ܬܬܩܪܒ	-10.952
▁ܘܐܝܤ	-10.9522
▁ܠܫܡܗ	-10.9523
▁ܡܠܐܟܝ	-10.9523
▁ܘܚܙܩ	-10.9525
▁ܠܝܠܘܢ	-10.9525
▁ܘܫܪܓ	-10.9526
▁ܠܐܚܝܟܘܢ	-10.953
▁ܒܨܥܪܐ	-10.9531
▁ܠܒܫܗ	-10.9534
▁ܘܠܩܫܝܫܐ	-10.9535
ܒܙܚܘ	-10.9536
▁ܚܫܡܝܬ	-10.9536
▁ܕܒܕܡܘܬ	-10.9536
▁ܡܦܪܫ	-10.9538
▁ܕܐܘܪܫܠܡ	-10.9539
▁ܘܡܬܕܟܪ	-10.9539
▁ܘܐܠܝܨ	-10.954
▁ܚܠܝܡܬܐ	-10.954
▁ܐܤܛܦܢܘܤ	-10.9541
ܕܝܗܘܢ	-10.9545
▁ܠܝܠܘܕܐ	-10.9546
ܠܡܚܙܝܗ	-10.9547
▁ܒܢܝܢܗ	-10.955
▁ܘܒܡܠܬܐ	-10.9552
▁ܝܡܝܢܟ	-10.9553
▁ܠܡܕܒܪܐ	-10.9553
▁ܘܪܡܙ	-10.9553
▁ܐܙܝܥ	-10.9554
▁ܕܫܕܪܗ	-10.9554
ܢܘܒܕܘܢܝܗܝ	-10.9555
▁ܕܥܛܝܦ	-10.9555
ܪܫܝܢ	-10.9556
▁ܐܠܗ	-10.9556
▁ܛܫܝ	-10.9556
▁ܕܟܠܝܘܡ	-10.9558
▁ܪܘܪܒܐܝܬ	-10.9558
▁ܘܢܓܝܪ	-10.9558
▁ܪܘܙ	-10.9559
▁ܘܛܥܢ	-10.9562
▁ܒܢܟܠܐ	-10.9562
▁ܕܐܫܘ	-10.9563
▁ܕܦܝܤ	-10.9563
ܬܬܢܚ	-10.9565
▁ܕܐܚܙܐ	-10.9567
▁ܕܐܦܠܘ	-10.9573
▁ܘܨܠܝܘ	-10.9574
▁ܩܘܡܝ	-10.9574
▁ܬܒܥܝܢ	-10.9575
▁ܘܓܪ	-10.9576
▁ܕܕܢ	-10.9576
▁ܟܘܡܪܘܬܐ	-10.9578
▁ܕܐܒܕܝܢ	-10.9578
▁ܕܐܫܬܒܩ	-10.9578
▁ܡܬܢܛܪܝܢ	-10.958
▁ܕܤܐܡ	-10.958
▁ܕܡܪܘܬܐ	-10.9582
▁ܘܠܝܡܐ	-10.9582
▁ܕܦܘܪܩܢܐ	-10.9582
▁ܛܝܒܘܬܟ	-10.9584
▁ܡܐܟܠ	-10.9585
▁ܡܟܬܡ	-10.9585
ܥܠܝܗܘܢ	-10.9587
▁ܘܢܨܠ	-10.9588
▁ܘܩܛܠܘܗܝ	-10.9588
▁ܠܛܛܘܤ	-10.9589
▁ܘܠܐܦܝ	-10.9589
▁ܡܫܬܪܝܢ	-10.9591
▁ܡܝܬܝܐ	-10.9591
ܥܨܝܢ	-10.9592
▁ܕܓܙܘܪܬܐ	-10.9592
▁ܒܪܟܘ	-10.9593
▁ܡܫܕ	-10.9594
▁ܐܘܝܘܬܐ	-10.9599
▁ܠܨܠܡܗ	-10.96
▁ܗܝܡܢܬ	-10.96
ܚܪܫ	-10.9601
▁ܬܠܘ	-10.9602
▁ܘܙܒܢܗ	-10.9602
ܡܤܒܪܢܘܬ	-10.9603
▁ܪܦ	-10.9603
▁ܘܒܟܝܢ	-10.9603
▁ܕܢܚܘܘܢ	-10.9607
▁ܡܠܟܘܬ	-10.9607
▁ܦܘܠܓ	-10.9607
▁ܢܤܝܒܪ	-10.9607
▁ܝܘܪܕܢܢ	-10.961
ܕܒܫܐ	-10.961
▁ܘܒܝܡܐ	-10.9611
▁ܐܬܪܡܝ	-10.9611
▁ܢܦܠܘܚ	-10.9613
ܨܛܥܪ	-10.9613
ܢܬܒܛܠ	-10.9614
▁ܐܝܬܐܘܗܝ	-10.9619
ܘܤܦܘܢ	-10.962
▁ܠܒܘܫܗ	-10.9623
ܥܠܝܗܝܢ	-10.9624
▁ܕܐܬܩܪܝܬܘܢ	-10.9626
▁ܫܘܩܪܐ	-10.9627
▁ܠܫܘܥ	-10.9628
▁ܓܠܝܐ	-10.963
▁ܒܡܨܪܝܢ	-10.963
▁ܪܘܝ	-10.9632
▁ܕܚܛܝܐ	-10.9634
▁ܕܬܗܘܡܐ	-10.9636
▁ܫܒܚܘ	-10.9639
▁ܠܡܐܬܝܬܗ	-10.9641
ܡܬܦܫܩ	-10.9644
▁ܠܒܝ	-10.9646
▁ܘܐܫܬܘܕܝ	-10.9647
▁ܕܙܩܝܦܐ	-10.9648
ܝܚܘܬܐ	-10.9652
▁ܘܐܠܗܝ	-10.9652
▁ܕܬܩܝܡ	-10.9653
▁ܘܡܥܕܪܢ	-10.9655
▁ܕܢܓܠܐ	-10.966
ܡܬܟܬܫ	-10.9661
ܚܒܪܬܗ	-10.9661
ܪܕܦܝܢ	-10.9666
▁ܒܡܤܝܒܪܢܘܬܐ	-10.9667
▁ܕܠܒܫ	-10.9669
▁ܪܒܝܬܗ	-10.9669
▁ܕܪܥܝܐ	-10.967
▁ܘܡܫܪܝ	-10.9672
▁ܡܪܩܘܤ	-10.9673
▁ܕܛܥܐ	-10.9674
▁ܘܥܘܠܐ	-10.9676
ܩܪ	-10.9678
▁ܘܡܚܦ	-10.9679
ܡܫܟܚܝܢ	-10.9681
ܠܨܦܪ	-10.9683
▁ܕܚܟܝܡܐ	-10.9684
ܕܩܫܝܫܐ	-10.9685
▁ܘܤܒܪܘ	-10.9685
▁ܘܢܩܫ	-10.9686
▁ܘܡܬܐܤ	-10.9686
▁ܕܟܪܝܘܬ	-10.969
▁ܫܦܪܝܢ	-10.9691
▁ܕܠܝܛ	-10.9694
▁ܕܒܒ	-10.9697
▁ܒܤܘܓܐ	-10.9699
▁ܕܡܥܤܪ	-10.97
▁ܕܤܡ	-10.97
▁ܢܢܤ	-10.9701
▁ܘܩܛܠܘ	-10.9707
▁ܕܒܕܪ	-10.9711
▁ܘܒܡܪܢ	-10.9717
ܘܒܝܕ	-10.9719
▁ܘܒܤ	-10.9721
▁ܫܕܝܢ	-10.9726
ܒܢܝܢܫܐ	-10.9726
▁ܠܡܘܒܕܘܬ	-10.9728
▁ܫܡܝܢܐ	-10.9729
▁ܦܠܓ	-10.973
▁ܥܩܪܬܐ	-10.9735
▁ܚܒܪܟ	-10.9737
▁ܢܕܘ	-10.9737
▁ܐܬܬܪܝܡ	-10.9738
ܬܦܪܩ	-10.9742
ܓܪܒܐ	-10.9744
▁ܙܘܝܬ	-10.9746
▁ܘܬܚܙܘܢܢܝ	-10.9747
▁ܟܪܘܙܘܬ	-10.9749
▁ܡܫܘ	-10.975
▁ܘܫܒܬܐ	-10.9751
▁ܘܢܙܒܢ	-10.9751
▁ܕܫܡܝܢ	-10.9751
▁ܡܫܬܒܩܝܢ	-10.9752
▁ܐܪܡܝܬܗ	-10.9754
▁ܕܤܟܠ	-10.9755
▁ܐܫܬܘ	-10.9761
▁ܒܫܘܒܗܪ	-10.9762
▁ܕܗܘܝܬ	-10.9762
▁ܤܗܕܘܬܗܘܢ	-10.9763
▁ܘܥܡܕܝܢ	-10.9766
▁ܕܐܒܕܢܐ	-10.9767
ܬܛܥܡ	-10.9768
▁ܒܐܘܪܝܐ	-10.9773
▁ܘܛܫܝ	-10.9775
▁ܡܬܝܬܪܝܢ	-10.9778
▁ܤܡܘܗܝ	-10.9783
▁ܘܕܡܫܝܚܐ	-10.9792
▁ܝܪܬܝܢ	-10.9793
▁ܠܓܒ	-10.9793
ܬܟܚܕ	-10.9794
▁ܡܟܝܟܘܬܐ	-10.9801
▁ܘܐܫܬܘܕܥ	-10.9806
▁ܠܒܥܠܝ	-10.9807
▁ܘܒܚܕܘܬܐ	-10.981
▁ܐܠܟܤܢܕܪܝ	-10.9817
▁ܠܘܩܒܠܟܘܢ	-10.9818
▁ܕܡܙ	-10.982
▁ܦܠܚܝܢܢ	-10.9822
▁ܒܘܩܝ	-10.9822
▁ܠܟܪܤ	-10.9827
▁ܬܥܠ	-10.9828
▁ܠܡܦ	-10.9828
ܚܬܗܘܢ	-10.983
ܡܦܪܫ	-10.9837
▁ܪܟܒ	-10.9844
▁ܐܬܝܠܕܘ	-10.9852
▁ܙܒܢܝ	-10.9855
ܝܘܬܗ	-10.9862
▁ܕܗܕ	-10.9866
ܢܬܬܙܝܥܘܢ	-10.9873
▁ܛܥܝܘܬ	-10.9876
▁ܬܬܪܥ	-10.9887
▁ܓܘܫܡܗ	-10.989
▁ܐܝܬܝܟ	-10.9891
ܫܘܥܐ	-10.9893
ܬܟܝ	-10.9898
▁ܘܫܓܘܫܝܐ	-10.9902
▁ܕܪܘܓܙܗ	-10.9902
▁ܕܛܛܘܤ	-10.9902
▁ܕܨܒܘ	-10.9905
ܠܝܘܢ	-10.9908
▁ܘܡܫܡܫܢ	-10.991
▁ܘܕܡܘܬܐ	-10.991
ܢܥܘܠ	-10.9912
▁ܦܩܘ	-10.9924
ܬܬܒܥ	-10.9928
▁ܕܢܡܘܬ	-10.9933
▁ܚܘܝܬ	-10.9933
▁ܘܩܛ	-10.9934
▁ܤܓܘܕ	-10.9934
ܚܤܪ	-10.9937
ܕܢܚܐ	-10.9938
▁ܚܝܠܗܘܢ	-10.9943
ܬܦܨܚܘ	-10.9943
▁ܕܒܥܠܕܒܒܐ	-10.9945
▁ܡܫܬܡܠ	-10.9948
▁ܘܠܒܝܫ	-10.9959
▁ܘܬܫ	-10.9959
▁ܪܘܚܢܝܐ	-10.9961
▁ܫܘܚܢ	-10.9962
ܪܓܙܘ	-10.9962
▁ܕܬܬܒ	-10.9965
▁ܘܐܬܬܥܝܪܘ	-10.9966
ܤܬܪ	-10.9968
▁ܕܚܠܬܗ	-10.9973
ܬܕܓܠ	-10.9978
ܦܤܘ	-10.9985
▁ܪܒܟܘ	-10.9986
▁ܘܦܬܚܬ	-10.9987
ܒܝܐܝܢ	-10.999
▁ܘܠܪ	-10.9992
▁ܘܡܝܐ	-10.9994
▁ܘܐܤܘܪ	-10.9997
ܢܛܥܘܢ	-10.9997
▁ܘܐܠܝܐ	-11.0002
▁ܨܠܘܬܗ	-11.0005
▁ܐܦܝܤ	-11.0007
▁ܬܡܗܐ	-11.0008
▁ܕܟܬ	-11.0012
▁ܕܢܦܫܗܘܢ	-11.0018
▁ܕܒܐܪ	-11.002
▁ܢܤܬܟܠܘܢ	-11.0027
▁ܘܕܪܫ	-11.0031
▁ܕܤܒܪܢ	-11.0033
ܚܡܤܢܢ	-11.0033
ܡܬܕܟܪ	-11.0036
ܪܟܘ	-11.0041
▁ܒܤܪܗ	-11.0042
▁ܢܬܟܤ	-11.0044
▁ܓܘܝ	-11.0052
▁ܤܢܝܩܘܬ	-11.0053
▁ܕܛܝܒܬ	-11.0064
▁ܡܐܢܝ	-11.0064
▁ܬܐܢܐ	-11.0067
▁ܕܡܟܤܝ	-11.0075
▁ܘܒܪܓܝܓܬ	-11.0077
▁ܦܓܪܢ	-11.0083
▁ܐܬܐܤܝܬ	-11.0084
▁ܬܫܪ	-11.0085
▁ܘܐܫܬܡܥܬ	-11.0086
▁ܐܡܘܬܐ	-11.0088
▁ܝܪܚܝܢ	-11.0093
ܬܪܥܝܬܐ	-11.0096
▁ܢܡܠܟ	-11.0099
▁ܘܦܠܓܘܬ	-11.0102
▁ܪܘܝܢ	-11.0106
ܫܝܓ	-11.0108
▁ܘܕܩ	-11.0112
▁ܦܘܫ	-11.0125
▁ܚܒܠ	-11.0135
▁ܐܬܒܢ	-11.0135
ܪܬܗ	-11.0141
▁ܬܩܝܦܐ	-11.0142
▁ܡܝܬܪ	-11.0145
▁ܘܢܕܟܝ	-11.0164
▁ܫܠܬܐ	-11.0166
▁ܘܦܘܩ	-11.0172
▁ܚܕܝܗ	-11.0175
▁ܚܙܝܬܗ	-11.0178
▁ܬܤܝܡ	-11.0184
▁ܘܫܪܒܬ	-11.0185
ܚܝܨܐ	-11.0191
▁ܕܥܒܕܘܬܐ	-11.0193
▁ܡܚܤܕ	-11.0193
ܝܫܝ	-11.0196
ܩܦܚܝܢ	-11.0197
ܡܬܓܠܐ	-11.0203
▁ܘܝܒܫ	-11.0208
ܩܤܪܝܐ	-11.0227
ܐܚܪܝܬܐ	-11.0228
▁ܠܗܪܘܕܤ	-11.023
▁ܪܓܙ	-11.0232
▁ܟܝܢܗ	-11.0233
ܐܘܪܚܗ	-11.0233
▁ܘܒܟܐܢܘܬ	-11.0236
▁ܚܢ	-11.0252
ܘܦܝܗ	-11.0255
▁ܢܓܕܗ	-11.0257
ܒܐܝܕܝܗܘܢ	-11.0261
ܢܫܐܠܝܘܗܝ	-11.0263
▁ܕܢܩ	-11.0272
▁ܒܙ	-11.0276
▁ܘܡܠܬ	-11.0276
▁ܘܤܗܕܝܢ	-11.0282
ܕܘܢܝܗܝ	-11.0286
▁ܒܡܛ	-11.029
ܡܥ	-11.0292
▁ܐܬܢܐ	-11.0297
ܐܪܡܝܘ	-11.0299
▁ܕܟܤܦܐ	-11.0311
▁ܘܢܡܠܟ	-11.0313
ܟܪܤܟ	-11.0314
ܘܠܝܐ	-11.0316
▁ܢܪܥ	-11.0317
ܒܙܥ	-11.032
ܬܬܩܠ	-11.0322
ܡܪܘ	-11.0328
ܫܘܒܩܢܐ	-11.0335
▁ܠܬܪ	-11.0335
▁ܐܙܕܕܩ	-11.034
▁ܬܬܘܒ	-11.0346
ܫܝ	-11.0352
▁ܕܒܗܝ	-11.0353
▁ܕܡܩܕܘܢܝܐ	-11.0353
▁ܐܘܬܪ	-11.0363
ܕܘܗܝ	-11.0369
▁ܘܕܟܠܗ	-11.038
ܬܪܚܩ	-11.038
▁ܡܬܡܠ	-11.0381
▁ܚܬܝܪ	-11.0382
▁ܒܝܕܥܬ	-11.0386
ܐܬܩܪܝܬܘܢ	-11.0392
▁ܒܤܝܡܘܬܗ	-11.0399
▁ܫܬܩ	-11.0399
▁ܘܫܐܠܘ	-11.0404
▁ܡܥܠܢ	-11.0405
ܛܘܢ	-11.0406
ܥܒܝ	-11.0408
▁ܕܥܡܢ	-11.0414
ܢܩܘܘܢ	-11.0423
ܟܕܒ	-11.0423
ܓܐܝܘܤ	-11.0438
▁ܘܒܫܘܩ	-11.0444
▁ܘܓܒܝ	-11.0446
▁ܕܚܪܝܢܐ	-11.0446
▁ܟܤܝ	-11.0449
ܥܩܒܘ	-11.0449
▁ܘܒܟܐ	-11.046
ܩܡ	-11.0469
ܒܨܗܝ	-11.0475
▁ܡܬܟܫܠ	-11.0478
▁ܕܙܥܘܪ	-11.0486
ܢܫܦܪ	-11.0487
▁ܡܨܥܪܢ	-11.0489
▁ܕܩܘ	-11.0489
▁ܘܐܤܐ	-11.0496
ܬܫܠܡܘܢ	-11.0497
ܫܘܒܗܪܐ	-11.0506
▁ܐܤܘ	-11.0514
▁ܒܝܡܝܢ	-11.0514
▁ܘܓܠܝ	-11.0515
▁ܬܚܘܡܝܗ	-11.0516
▁ܒܬܐܪܬ	-11.0516
▁ܘܐܟܘܠ	-11.0535
ܥܬܗ	-11.0542
ܒܤܝܡܘܬܗ	-11.0549
ܡܝܬܪܘܬܐ	-11.0551
▁ܐܘܟܡ	-11.0558
ܬܝܬܘܢ	-11.0558
▁ܒܪܘܓܙ	-11.0567
▁ܘܐܪܡ	-11.0569
▁ܠܚܕܘܬܗ	-11.0577
▁ܬܟܤܝܬ	-11.0582
ܕܪܫ	-11.0593
ܤܝܡܘܢ	-11.0602
▁ܕܙܒ	-11.0604
ܚܨܘܕ	-11.0609
▁ܘܩܛܠܬܘܢ	-11.0613
▁ܐܫܠܡܬܘܢ	-11.0624
▁ܠܐܒܗܝ	-11.063
▁ܘܒܙܡ	-11.0634
▁ܘܡܩܘ	-11.0635
▁ܫܢܝܬ	-11.0659
▁ܬܕܟܝܬ	-11.0659
▁ܕܥܡܕ	-11.067
▁ܦܘ	-11.0679
▁ܤܦܩܝܢ	-11.068
ܢܚܘܝܟܘܢ	-11.0681
ܦܓܪܟܘܢ	-11.0683
▁ܪܒܟܘܢ	-11.0688
▁ܐܤܘܪܝ	-11.0711
▁ܕܫܘܒܗܪ	-11.0716
ܛܥܘ	-11.0721
▁ܒܬܘܠ	-11.0728
▁ܬܐܪܬܗ	-11.0734
ܝܠܕܬ	-11.074
ܬܒܠܥ	-11.0748
▁ܘܒܥܠܕܒܒ	-11.0748
▁ܘܛܒܥ	-11.0751
ܩܪܢܐ	-11.0756
▁ܕܡܬܒܥ	-11.0756
▁ܡܟܝܟܐ	-11.0756
▁ܕܒܤ	-11.0761
▁ܘܢܫܒ	-11.0769
▁ܠܫܘ	-11.0785
▁ܩܕܡܝܬ	-11.0789
ܫܥ	-11.079
ܡܕܥܝܟܘܢ	-11.0791
▁ܘܝܠܕ	-11.0801
ܒܤܡܐ	-11.0803
ܤܦܘܬܐ	-11.0804
▁ܕܩܪܝܒܝܢ	-11.0806
ܪܡܪܡ	-11.0822
ܥܤܪ	-11.0826
▁ܬܚܐ	-11.0828
▁ܡܬܓܠܝ	-11.083
ܕܢܗ	-11.0834
▁ܕܒܗܘ	-11.0839
▁ܘܫܒܩܬ	-11.0843
▁ܚܫܝܢ	-11.0866
▁ܕܡܫܬܘ	-11.0874
ܬܪܘܬܐ	-11.0876
▁ܚܘܢ	-11.0876
▁ܠܕܪܬ	-11.0891
▁ܐܟܠܘ	-11.0891
ܝܕܝܥܝܢ	-11.0898
▁ܕܕܝܢܗ	-11.0909
ܠܦ	-11.0911
▁ܒܐܝܕܝܐ	-11.0932
ܪܚ	-11.0934
▁ܦܪܬ	-11.0936
▁ܕܝܪܬܘܬ	-11.0936
▁ܒܚܤ	-11.0937
▁ܩܝܡܝܢܢ	-11.0955
ܟܬܪܘ	-11.0966
▁ܠܢܦܫܬ	-11.0968
▁ܪܩܕܬ	-11.0968
ܘܬܝ	-11.0979
ܚܬܡܬ	-11.0983
▁ܘܒܡܢ	-11.0991
▁ܘܡܬܚ	-11.1009
▁ܘܡܢܗܪ	-11.101
ܡܩܒܠܝܢ	-11.1012
▁ܕܠܘܬܗ	-11.1029
ܢܘܕܐ	-11.1031
ܚܪܬܐ	-11.1033
▁ܡܠܦܢ	-11.1036
▁ܘܐܬܐܤܝ	-11.1045
ܚܒܘ	-11.1062
▁ܕܡܤܒܪܢ	-11.1084
▁ܫܕܪܢ	-11.11
ܝܐܝܬ	-11.1106
ܚܐܪܘܬ	-11.1107
▁ܕܥܢܐ	-11.1125
▁ܕܬܫܟܚ	-11.113
▁ܕܬܪܥܝܬ	-11.1147
▁ܫܪ	-11.1149
ܕܪܟܬ	-11.1152
▁ܘܡܚܘ	-11.1157
▁ܐܘܕܥܢ	-11.1161
▁ܡܫܪ	-11.1166
▁ܥܝ	-11.1185
ܚܘܝܟܘܢ	-11.1188
▁ܠܡܚܝ	-11.1189
ܨܝܢ	-11.1197
▁ܡܬܩܪ	-11.1199
▁ܕܡܟܝܠ	-11.1203
▁ܠܡܪ	-11.1207
ܘܕܥ	-11.1207
ܬܡܠܟ	-11.1228
▁ܘܢܟ	-11.123
ܝܠܝܦ	-11.1231
ܘܠܘܢ	-11.1234
▁ܘܠܡܟ	-11.1241
▁ܪܒܬ	-11.1243
ܓܥܠ	-11.1264
ܚܙܝܬܘܢܝܗܝ	-11.1266
ܡܙܕܒܢ	-11.1289
ܡܓܢ	-11.1299
ܐܙܕܩܦ	-11.1303
▁ܥܢ	-11.1304
ܒܚܕܘܬܐ	-11.1313
▁ܩܐ	-11.1323
▁ܙܒܢܬ	-11.1334
▁ܡܦܩܕܝܢ	-11.134
▁ܡܠܝܘ	-11.1341
▁ܟܦܪܬ	-11.1348
▁ܘܠܢܒܝ	-11.137
▁ܐܬܝܠܕܬ	-11.137
▁ܕܡܬܢܒ	-11.1389
ܥܝܢ	-11.139
▁ܕܥܬܝܪ	-11.139
▁ܒܫܪܒܬܗ	-11.1391
▁ܤܝܒܪܘ	-11.1395
▁ܒܬܫܡܫܬܗ	-11.1397
ܓܡܪܬ	-11.1401
▁ܘܛܥ	-11.141
ܦܬ	-11.1418
▁ܐܬܪܥܝ	-11.142
▁ܛܪܛ	-11.1421
ܢܥܗܕ	-11.1423
▁ܘܩܥܝ	-11.1428
▁ܘܐܬܬܙܝܥ	-11.1439
▁ܡܨܥܬܗ	-11.1441
▁ܢܨܠ	-11.1443
ܒܚܫܘܟܐ	-11.1443
ܝܒܫܐ	-11.1444
▁ܒܕܩ	-11.1457
▁ܬܪܢ	-11.1477
ܢܝܟܘܢ	-11.1479
▁ܘܐܬܦܢܝܬ	-11.1489
ܤܚܦܘ	-11.1503
▁ܘܪܟ	-11.1505
▁ܒܡܠ	-11.1507
ܚܝܠܗ	-11.1513
ܩܕܡܝܬܐ	-11.1516
ܐܬܗܝܡܢܬ	-11.1527
▁ܡܚܝ	-11.1532
▁ܠܒܫ	-11.1542
▁ܦܨܢ	-11.1554
ܐܟܠܘܤ	-11.1556
ܕܘܬܐ	-11.1557
▁ܩܒ	-11.1559
▁ܥܝܢܝܢ	-11.1576
▁ܤܝܒܪ	-11.1582
ܙܢܝܐ	-11.1583
▁ܕܡܘܪ	-11.1583
▁ܘܩܘ	-11.1586
▁ܘܟܬܒܐ	-11.1599
ܬܬܚܕܬ	-11.161
ܪܫ	-11.1626
▁ܩܢܝܢܟ	-11.1627
ܓܢܬ	-11.1639
ܢܝܚ	-11.164
▁ܕܐܤܝ	-11.1644
▁ܡܤܬ	-11.1644
ܠܝܗܘܢ	-11.1681
ܠܢܒܝܐ	-11.1687
▁ܝܠܦܬܘܢ	-11.1688
ܚܕܘܬܟܘܢ	-11.1697
▁ܐܠܒܫ	-11.1708
ܫܬܡܥܘ	-11.1711
▁ܕܐܬܗܝܡܢ	-11.1713
ܫܢܝܗ	-11.1715
▁ܘܐܬܪ	-11.1722
▁ܐܓܪܬ	-11.1731
▁ܠܥܕܬ	-11.1742
▁ܝܩܕܐ	-11.1743
ܕܠܘ	-11.1744
ܘܤܦܘ	-11.1744
ܩܕܡܘܗܝ	-11.1755
ܡܝܬ	-11.1757
▁ܦܐܪܝܗ	-11.1762
ܚܝܒ	-11.1779
ܝܡܡܐ	-11.1781
▁ܢܟܝܠ	-11.1781
▁ܕܢܤܒܥ	-11.1783
▁ܡܓܪ	-11.1791
ܢܫܟܚܝܘܗܝ	-11.1797
ܪܡܝܐ	-11.1798
▁ܬܥ	-11.1804
ܬܩ	-11.1805
▁ܕܕܝܠܟ	-11.1812
ܡܪܚܡܢܘܬ	-11.1817
▁ܕܒܤܪܗ	-11.182
ܤܬܬܪ	-11.1825
▁ܠܐܠܝܐ	-11.1828
▁ܠܪܓܠ	-11.1828
▁ܒܐܕܢ	-11.1842
▁ܘܡܤ	-11.1872
▁ܐܦܩܬ	-11.1874
ܒܥܘܢ	-11.1875
▁ܒܩܘ	-11.1887
▁ܒܩܠ	-11.1903
▁ܢܩܪܒ	-11.1927
▁ܕܐܬܡܠ	-11.1933
▁ܕܬܩܘܡ	-11.1959
ܤܕܘܢܐ	-11.1965
ܝܡܘܢ	-11.1967
▁ܡܥܕܪܢ	-11.1981
ܫܪܝܗ	-11.1985
▁ܐܝܕܝܟ	-11.1991
ܠܐܢܛܝܟܝܐ	-11.1997
▁ܒܐܕܢܝ	-11.1999
ܡܠܦܢܐ	-11.2
▁ܐܬܩܪܒܬ	-11.2009
▁ܘܚܛ	-11.2014
ܩܢܘܡܟܘܢ	-11.2016
▁ܢܬܒܝܐ	-11.202
▁ܠܥܒܕܝܟ	-11.2021
▁ܡܨܪܝ	-11.2024
▁ܬܠ	-11.2024
ܘܪܒ	-11.2048
ܬܩܛܥ	-11.2072
ܙܢܝܘܬܐ	-11.208
▁ܘܠܡܪ	-11.2103
▁ܐܬܬܚܕ	-11.2108
ܒܓܠܛܝܐ	-11.2114
▁ܡܤܬܒܪ	-11.2118
▁ܥܡܪܝܢ	-11.2147
▁ܘܢܦܩܢ	-11.2149
ܓܠܝܬ	-11.2152
ܠܒܐ	-11.2164
▁ܒܨܝ	-11.2177
ܪܢܝܐ	-11.2189
▁ܕܐܡܠܟ	-11.2201
ܬܒܚܪ	-11.2201
▁ܒܩܪܝܬ	-11.223
▁ܘܢܚ	-11.2231
ܫܘܫܢ	-11.2234
ܫܪܪܐ	-11.2236
ܪܩܕܬܘܢ	-11.2236
▁ܕܪܡܝ	-11.2253
ܕܩܘ	-11.2266
ܡܘܒܠܐ	-11.2273
▁ܕܨܕ	-11.228
▁ܒܢܝܢ	-11.228
▁ܘܟܘ	-11.2297
ܡܢܗܪ	-11.2298
▁ܐܟܪܝ	-11.2303
▁ܚܫܝ	-11.2305
ܕܢܘܗܝ	-11.2309
▁ܘܠܡܚ	-11.2312
▁ܘܢܐܙܠ	-11.2314
▁ܒܪܓܠܝ	-11.2316
▁ܕܫܝܠ	-11.232
ܐܤܘܪܝ	-11.2321
ܕܡܝܐ	-11.2326
▁ܒܬܚܘ	-11.2334
▁ܚܒܝܒܬ	-11.2346
ܐܪܟܘܢ	-11.2353
ܢܘܬܗܘܢ	-11.2356
ܦܠܘ	-11.2356
▁ܒܡܚ	-11.2363
ܒܝܐܘ	-11.2391
▁ܕܦܩܕܢ	-11.2395
▁ܘܩܘܡ	-11.24
ܚܢܢ	-11.2409
ܚܝܠܬܢܐ	-11.2414
ܫܚܩ	-11.2415
ܕܝܘܐ	-11.2415
▁ܡܛܝܬ	-11.2428
ܬܦܩܕ	-11.2437
▁ܐܤܬܠ	-11.2438
ܡܬܚܙܝܢ	-11.2447
ܒܙܕܝܩܘܬܐ	-11.2454
ܚܕܘܬܐ	-11.2466
ܘܪܝܐ	-11.2486
▁ܗܘܝܬܝ	-11.2495
▁ܐܚܫܡܝܬ	-11.2497
ܕܝܘܗܝ	-11.25
▁ܥܩܒ	-11.2501
ܒܝܐܢ	-11.2507
▁ܡܤܪܗܒ	-11.2515
ܠܦܘܠܘܤ	-11.2521
▁ܕܪܕܦ	-11.2531
ܬܫܦܪ	-11.2535
▁ܡܠܬ	-11.2538
ܬܚܝܒ	-11.2564
▁ܘܠܩܝܡܬ	-11.2565
▁ܦܪܘܓ	-11.257
▁ܕܡܓܕܦ	-11.2582
ܠܢܦܫܗ	-11.2583
▁ܘܤܓ	-11.2585
ܐܦܩܘܗܝ	-11.2606
ܙܒܘܪ	-11.2607
▁ܒܦܘܡܗ	-11.2613
▁ܘܒܫܡ	-11.2631
ܩܕܫ	-11.2645
ܘܡܬܗ	-11.2647
ܬܪܝܡ	-11.2668
▁ܤܢ	-11.2671
▁ܩܘܪ	-11.2671
▁ܕܦܩܕܬ	-11.2684
ܢܝܘܗܝ	-11.2687
ܪܚܡܝܢ	-11.2689
ܚܪܝܬ	-11.2689
▁ܚܤܝܪܘܬ	-11.2697
ܦܪܘܢ	-11.2709
▁ܒܨܠܘܬ	-11.2713
ܥܝܬܐ	-11.2713
ܛܪܦܝܢ	-11.2716
▁ܘܠܟܠ	-11.2725
▁ܘܠܒܢܝ	-11.2728
▁ܒܘܪܟܬ	-11.2728
ܒܛܠ	-11.2729
ܪܥܗ	-11.2734
▁ܙܩ	-11.2742
▁ܘܚܘ	-11.2743
▁ܕܚܫܚܬ	-11.2745
▁ܚܡܐ	-11.2755
ܚܕܘܢ	-11.2769
▁ܕܚܕܪ	-11.2782
▁ܘܐܬܝܬ	-11.2784
▁ܬܠܡܝܕ	-11.2818
▁ܩܛܠܐ	-11.2831
ܥܕ	-11.2846
ܠܚܕ	-11.2847
▁ܦܫܝܛ	-11.2865
▁ܘܒܤܡ	-11.2888
ܠܓܐܝܘܤ	-11.2898
▁ܘܚܫܘܟ	-11.2899
ܕܙܕܘܩܝܐ	-11.2905
ܫܛܝܘܬܗ	-11.2908
▁ܐܝܬܘ	-11.2912
ܚܪܘ	-11.2923
▁ܕܐܡ	-11.2924
ܡܪܬ	-11.2931
ܪܓܠܝܟܘܢ	-11.2933
ܪܟܝ	-11.2941
▁ܒܟܪܝܗ	-11.2946
ܢܘܟ	-11.2949
ܦܬܘܪܐ	-11.2953
ܦܠܚ	-11.2959
▁ܘܡܫܡܠܝ	-11.2968
▁ܢܕ	-11.2971
▁ܡܘܬܗ	-11.2975
▁ܐܚܕܢ	-11.2989
ܬܘܒܘܢ	-11.2995
▁ܕܘܒܪ	-11.2998
▁ܢܟܤܝ	-11.2998
▁ܒܬܚ	-11.3041
▁ܒܥܝܢܝܢ	-11.3043
▁ܕܡܬܩܪܒ	-11.3058
ܡܬܗ	-11.3079
ܢܬܟ	-11.3085
▁ܘܒܤܝܡܘܬ	-11.3091
ܬܤܝܒ	-11.3098
ܒܥܗ	-11.3108
▁ܘܠܡܬ	-11.3112
▁ܢܬܩ	-11.3116
ܐܘܢܓܠܝܘܢ	-11.3132
ܛܥܢ	-11.3159
ܡܠܟܘ	-11.3172
▁ܘܫܬܐܤܬ	-11.3188
▁ܕܒܫ	-11.3198
ܢܘܒܕ	-11.3203
ܝܕܥܬܗ	-11.3204
ܡܫܬܠܡ	-11.3216
▁ܡܬܩ	-11.3218
▁ܙܟܘ	-11.3221
▁ܤܝܡܬܗ	-11.3222
▁ܗܘܦܟ	-11.3231
ܦܥ	-11.3237
ܬܡܠܝܢ	-11.3245
ܩܘܡ	-11.3254
▁ܕܟܝܢܗ	-11.3257
▁ܡܤܝܒܪܢܘܬ	-11.3276
ܦܠ	-11.3276
▁ܡܠܟܟ	-11.3298
ܟܠܐ	-11.3306
▁ܕܥܠܘ	-11.3323
▁ܕܡܟܬ	-11.3326
▁ܕܠܚܕ	-11.3333
ܤܝܦ	-11.3348
▁ܕܦܘܩܕ	-11.3348
ܡܘܤ	-11.3356
▁ܕܐܠܗ	-11.3369
ܠܘܝ	-11.3377
ܬܒܘܢ	-11.338
ܫܡ	-11.3381
ܘܩܝܐ	-11.3388
▁ܬܤܒ	-11.3402
ܟܠܝܘܗܝ	-11.3406
▁ܘܥܡܘܪ	-11.3412
ܤܪܩ	-11.3413
ܕܘܟܐ	-11.3421
ܨܘܡܐ	-11.3425
▁ܘܦܘ	-11.3427
▁ܕܡܫ	-11.343
▁ܡܠܝܬ	-11.3435
ܪܚܡܢ	-11.3442
▁ܙܕܝܩ	-11.3446
ܢܦܫܝ	-11.3447
ܬܒܝܐܘܢ	-11.3449
ܘܒܕ	-11.3449
ܡܫܬܡܥܝܢ	-11.3451
▁ܘܒܟ	-11.3454
▁ܘܥܗܕ	-11.3458
ܚܢܢܗ	-11.3462
ܒܘܬܟܘܢ	-11.3467
ܤܛܘ	-11.3475
▁ܕܟܠܢ	-11.3482
▁ܫܘܪ	-11.3483
ܝܤܪܝܠ	-11.3494
▁ܡܤܝܒܪܢܘ	-11.3494
ܘܙܒ	-11.3496
ܩܕܝܫܘܗܝ	-11.3497
▁ܘܦܤܩ	-11.35
▁ܡܠܝܟ	-11.3501
▁ܝܩܪܘ	-11.3505
▁ܒܗܬܬܗ	-11.3511
▁ܠܡܠܝ	-11.3512
▁ܒܩܝܡ	-11.3519
▁ܫܠܐ	-11.3519
▁ܘܒܤܝܡ	-11.3525
ܓܕ	-11.3528
ܐܝܕܝܗܘܢ	-11.3536
ܡܦܩ	-11.3538
ܬܩܪܒܘ	-11.3552
ܢܬܦܨ	-11.3557
▁ܚܛ	-11.3566
ܐܬܛܪܝ	-11.3568
▁ܘܟܪܝܗ	-11.3591
▁ܠܐܒܘܗ	-11.3595
▁ܘܥܛ	-11.36
▁ܕܥܡܟ	-11.3602
ܫܠܝܛܢ	-11.3614
ܒܟܐ	-11.363
ܥܠܘܗܝ	-11.3634
ܕܚܝܠܐ	-11.3643
▁ܕܒܢܝܢ	-11.3652
▁ܬܐܒ	-11.3653
▁ܬܕܡܪܬ	-11.3654
▁ܡܓܕܦ	-11.3668
▁ܕܩܥܝ	-11.3673
▁ܒܠܒ	-11.3674
ܟܬܒܘܢ	-11.3694
▁ܘܐܫܟܚܢ	-11.37
ܕܝܬܐ	-11.3713
ܪܓܝܓܬܗ	-11.3714
ܚܤܝܪܝܢ	-11.3718
▁ܘܥܪܛܠܝ	-11.372
ܫܘܒܗܪ	-11.372
ܐܚܪܢܝܬܐ	-11.3721
ܬܚܕܬ	-11.373
▁ܓܘܫܡ	-11.3732
ܒܝܡܐ	-11.3737
▁ܕܢܬܓܠ	-11.3738
ܫܚܐ	-11.3741
▁ܕܕܒ	-11.3742
▁ܐܬܕܡ	-11.3747
ܪܝܪܐܝܬ	-11.3753
▁ܬܫܒܘܚܬ	-11.3753
▁ܐܠܟܤܢܕܪ	-11.3776
▁ܠܢܝܚܬ	-11.3786
▁ܡܨܝܕܬ	-11.3788
▁ܠܡܕܝܢܬ	-11.3789
ܟܦܪ	-11.3792
▁ܒܐܘܪܝ	-11.3794
ܚܨܘܗܝ	-11.3799
ܚܛܝܐ	-11.3802
ܬܒܪܘ	-11.3805
▁ܘܠܥܪ	-11.3805
▁ܐܘܪܚ	-11.3808
ܝܥܐ	-11.3815
▁ܫܥܬ	-11.3816
▁ܐܤܟܠ	-11.3821
▁ܘܐܡܠܟ	-11.3826
▁ܒܟܘܪܗܢ	-11.3833
▁ܡܫܡܠܝ	-11.3833
▁ܢܤܬܟܠ	-11.3834
▁ܘܟܤܝ	-11.3834
▁ܩܪܨ	-11.3841
▁ܡܟܝܟܘܬ	-11.3842
▁ܝܕܥܗ	-11.3843
ܡܥܕܪܢ	-11.3844
▁ܕܚܒܠ	-11.3849
▁ܘܙܘ	-11.3853
▁ܡܬܚ	-11.3853
ܫܢ	-11.3864
▁ܡܘܠܟܢ	-11.3864
▁ܕܤܪܝܩ	-11.3868
▁ܬܪܥ	-11.3868
▁ܠܛܘܪ	-11.3871
ܫܬܩܘ	-11.3874
ܨܝܪ	-11.3875
ܕܚܠ	-11.3876
▁ܕܐܚܪܢ	-11.389
ܤܬܪܝ	-11.3898
▁ܙܪܥܟ	-11.3899
▁ܟܗܢ	-11.3905
▁ܕܓܡܠ	-11.3906
▁ܠܥܒܕܝ	-11.3907
▁ܠܐܪܟ	-11.391
▁ܟܐܢ	-11.3911
ܥܒ	-11.3915
▁ܙܘܙ	-11.3935
▁ܡܬܪܕܦ	-11.3936
▁ܘܒܟܝ	-11.3937
▁ܘܥܘ	-11.3937
▁ܕܒܥܠܕܒܒ	-11.3943
▁ܘܐܦܠܘ	-11.3946
ܓܡܪ	-11.3947
ܫܪܝܪܐ	-11.3947
ܦܘܡܗܘܢ	-11.3959
ܠܥܡܘܪ	-11.3962
▁ܡܬܚܪ	-11.3963
▁ܠܐܪܡ	-11.3963
▁ܤܕܩ	-11.3972
▁ܡܠܟܝ	-11.3976
ܕܪܘܚ	-11.398
ܒܤܝܡܘܬ	-11.3981
▁ܘܦܠܓܘ	-11.3984
ܪܕܦ	-11.3989
▁ܘܒܨܦ	-11.399
▁ܕܠܡܠܐܟ	-11.3991
▁ܘܝܕܝܥ	-11.3992
▁ܠܐܬܪܗ	-11.4003
▁ܦܠܓܘܬ	-11.4007
▁ܘܡܟܝܟ	-11.4007
▁ܐܚܘܗ	-11.4011
▁ܒܤܪܝ	-11.4017
ܟܤܝܬ	-11.4023
ܠܦܝ	-11.4027
▁ܘܚܬܝ	-11.4043
▁ܐܫܩܝ	-11.4044
ܬܐܠܕ	-11.4046
▁ܢܬܪ	-11.4049
▁ܘܒܟܘ	-11.4061
▁ܡܫܬܒܗܪ	-11.4063
▁ܐܘܒܠܘ	-11.4064
ܬܫܒܚܬ	-11.4066
▁ܕܢܒܝ	-11.4069
ܤܬܟܠܘܢ	-11.4071
▁ܘܡܬܬ	-11.4074
ܙܩ	-11.4075
ܫܪܪܗ	-11.4083
ܐܟܤܢܝܐ	-11.4091
▁ܓܪܒ	-11.4092
ܪܬܟ	-11.4093
ܗܪܛ	-11.41
▁ܘܡܫܬ	-11.4101
ܒܒܤܪ	-11.4108
ܨܝ	-11.4112
▁ܕܢܬܦܠ	-11.4114
ܬܕܥܘܢ	-11.4116
ܠܘܢܝܗܝ	-11.4122
ܢܟܦ	-11.4133
ܪܒܘܢ	-11.4134
ܩܘܫܬܐ	-11.4137
▁ܘܠܦܪ	-11.4138
ܫܬܥܒܕܘ	-11.4145
▁ܨܒܥ	-11.4152
▁ܓܒܪ	-11.4153
ܐܬܪܡܝ	-11.4157
▁ܘܒܝܘܠܦܢ	-11.4164
ܐܘܠܨܢܐ	-11.4164
ܕܡܝܗ	-11.4167
▁ܪܗܘܡ	-11.4168
▁ܕܠܘܛ	-11.4169
▁ܕܢܫܬܩ	-11.4173
▁ܕܚܙܝ	-11.4175
▁ܫܐܠܢ	-11.4178
▁ܘܩܒܠܬܘܢ	-11.4183
▁ܠܒܤܬܪ	-11.4188
ܚܦܛ	-11.42
ܙܒܠ	-11.42
ܝܒ	-11.4201
ܢܤܬܠܐ	-11.4204
ܢܨܥܪܘܢ	-11.4205
▁ܘܫܪܒ	-11.4208
ܡܤܟܠܝܢ	-11.421
ܒܦܫܝܛܘܬ	-11.4217
▁ܘܪܥܝ	-11.4218
ܢܬܝܠܕ	-11.4219
ܬܤܒܘܢ	-11.4222
ܦܫܝܓ	-11.4225
ܡܬܬܢܝܚ	-11.4225
ܒܢܟܦܘܬܐ	-11.4226
ܙܚܘܪܝܬܐ	-11.4228
ܕܩܝܠܝܩܝܐ	-11.4231
ܬܠܒܫܘܢ	-11.4231
ܡܫܬܡܥܢܘܬ	-11.4236
▁ܬܪܓ	-11.4236
▁ܡܫܬܒܚ	-11.4237
ܡܬܡܠܠܢ	-11.4237
ܦܬܓܡ	-11.4237
▁ܘܐܤܬܠ	-11.4238
ܫܝܦܘܪܐ	-11.4241
ܡܒܕܪ	-11.4241
ܫܛܝܘܬܐ	-11.4242
ܐܚܙܝܟܘܢ	-11.4242
▁ܒܥܤܪ	-11.4243
ܒܕܪܡܤܘܩ	-11.4245
ܡܟܫܘܠܐ	-11.4245
ܕܠܓܘ	-11.4246
ܨܠܝܒ	-11.4247
ܝܒܗ	-11.4248
ܛܘܗܡ	-11.4252
ܨܝܡܝܢ	-11.4252
▁ܕܢܕ	-11.4253
ܒܓܢ	-11.4253
ܡܬܛܦܝܤܝܢ	-11.4255
ܕܢܩܘܡ	-11.4255
ܠܡܐܤܝܘ	-11.4255
ܡܫܕܪ	-11.4257
ܠܥܡܡܐ	-11.4257
▁ܘܟܘܪܤ	-11.4258
ܟܪܝܤ	-11.4258
▁ܘܢܤܓ	-11.4258
ܐܫܬܪܪܬ	-11.426
ܒܥܡܡܐ	-11.4262
ܓܙܪ	-11.4265
ܛܠܬ	-11.4266
ܪܘܫܥ	-11.4269
▁ܕܠܒܝ	-11.427
▁ܕܢܩܛܠ	-11.427
▁ܒܝܫܘܬ	-11.4272
▁ܐܫܬܥ	-11.4273
ܡܬܬܙܝܥ	-11.4273
▁ܒܡܫ	-11.4277
ܙܪܥܟ	-11.4279
ܐܙܕܪܥ	-11.4284
ܢܗܠܟ	-11.4286
ܟܦܪܢܚܘܡ	-11.4286
▁ܐܬܕܟܝ	-11.4286
ܙܥܘܪܝܢ	-11.4291
ܛܡܝ	-11.4292
▁ܕܒܐܝܕܝ	-11.4293
▁ܡܬܚܙܝ	-11.4294
▁ܠܨܠܡ	-11.4294
▁ܘܫܘܬܦܘܬ	-11.4296
▁ܒܟܪܝ	-11.4297
▁ܘܝܘܚܢ	-11.4297
▁ܘܐܡܝ	-11.4298
ܠܐܢܬܬܗ	-11.4299
▁ܘܕܥܡ	-11.4302
ܒܡܕܒܪܐ	-11.4304
▁ܠܐܘܪܥ	-11.4304
▁ܘܬܪܥܤܪ	-11.4304
ܤܡܬܟ	-11.4309
ܕܐܝܟ	-11.4311
ܬܟܪܟ	-11.4314
ܬܛܦܝܤܘ	-11.4317
ܕܝܠܢ	-11.4319
▁ܘܕܫܡܥ	-11.4319
▁ܕܦܝܠ	-11.432
▁ܢܩܝ	-11.4321
ܬܦܫܚ	-11.4323
ܓܙܘܪ	-11.4326
▁ܘܢܩܒ	-11.4327
ܬܚܢܢܬ	-11.4331
▁ܒܗܝܡܢܘܬܗ	-11.4332
ܦܘܪ	-11.4333
ܙܩܦܘܗܝ	-11.4334
ܨܥ	-11.4334
ܬܫܒܩܘܢ	-11.4335
▁ܐܫܬܕܪ	-11.4335
▁ܐܨܛܒܝ	-11.4336
ܬܐܛܪܘܢ	-11.4338
▁ܡܥܩܡ	-11.434
ܐܤܘܛܘܬܐ	-11.4343
ܩܘܠܤ	-11.4344
ܤܝܪܐ	-11.4344
▁ܕܡܝܗ	-11.4348
ܬܚܒܠ	-11.435
ܦܨܚܐ	-11.4351
▁ܬܪܢܓ	-11.4356
ܡܬܪܥܝ	-11.4358
ܝܘܬܪܢܐ	-11.4361
ܒܤܥܪ	-11.4361
▁ܚܘܘ	-11.4367
▁ܚܝܠܝ	-11.4367
▁ܕܗܦܟ	-11.4368
▁ܡܥܕ	-11.4369
ܕܢܐܡܪ	-11.4369
ܙܕܘܓ	-11.4371
ܢܙܕܩ	-11.4371
▁ܠܦܪܕ	-11.4373
▁ܕܡܤܬ	-11.4373
▁ܠܪܒ	-11.4374
▁ܒܛܪܘ	-11.4376
ܡܥܛܦ	-11.4377
▁ܩܘܪܒܢܝ	-11.4378
▁ܡܙܕ	-11.4378
ܚܡܝܡ	-11.4378
▁ܠܡܬܬ	-11.4379
ܝܠܝܕܝ	-11.438
ܤܡܟܘ	-11.438
▁ܘܢܩܛܠܘܢ	-11.438
ܠܒܘܬܗܘܢ	-11.4381
▁ܕܐܒܪܗ	-11.4382
▁ܡܬܟܪ	-11.4382
▁ܠܡܤܬ	-11.4382
▁ܦܪܨ	-11.4386
1	-11.4386
ܐܘܟܪܤܛܝܐ	-11.4386
ܨܛܒܬ	-11.4386
ܨܛܠܒ	-11.4386
ܬܙܕܕܩ	-11.4386
▁ܐܓܒܘܤ	-11.4386
▁ܐܫܒܚܟ	-11.4386
▁ܒܕܘܢܒܝܬܗܘܢ	-11.4386
▁ܕܐܝܛܠܝܐ	-11.4386
▁ܕܐܠܝܫܒܥ	-11.4386
▁ܕܐܢܤܝܦܘܪܘܤ	-11.4386
▁ܕܒܢܦܫ	-11.4386
▁ܕܛܠܝܘܬܐ	-11.4386
▁ܕܢܫܬܕܪ	-11.4386
▁ܕܬܟܬܘܫ	-11.4386
▁ܘܐܬܚܢܩܘ	-11.4386
▁ܘܚܡܤܢ	-11.4386
▁ܘܠܥܘܝܪܐ	-11.4386
▁ܘܡܛܒܥ	-11.4386
▁ܘܢܬܢܒܘܢ	-11.4386
▁ܘܪܗܘܡܐܝܬ	-11.4386
▁ܠܐܤܦܢܝܐ	-11.4386
▁ܡܬܚܢܩܝܢ	-11.4386
▁ܡܬܥܩܒ	-11.4386
▁ܢܫܬܒܚ	-11.4386
▁ܥܙܠܢ	-11.4386
▁ܪܘܓܙܟ	-11.4386
▁ܫܝܦܘܪܝܢ	-11.4386
▁ܬܐܘܦܝܠܐ	-11.4386
▁ܬܦܪܘܫ	-11.4386
▁ܬܫܬܪܪܘܢ	-11.4386
▁ܕܢܘܒܠܘܢ	-11.4386
▁ܘܡܫܬܒܚ	-11.4386
▁ܡܬܚܫܚ	-11.4386
▁ܕܒܢܡܘܤܢ	-11.4386
▁ܘܠܫܒܒ	-11.4386
▁ܘܡܒܪܩ	-11.4386
▁ܠܡܚܙܝܟ	-11.4386
▁ܢܬܓܠܘܢ	-11.4386
▁ܩܦܤ	-11.4386
▁ܐܢܤܝܡܘܤ	-11.4386
▁ܐܤܒܝܗ	-11.4386
▁ܒܠܒܘܬܢ	-11.4386
▁ܕܢܡܢܥ	-11.4386
▁ܘܥܦܩ	-11.4386
▁ܫܘܡܥܘܢܝ	-11.4386
▁ܕܟܪܡܗ	-11.4386
▁ܘܕܢܪܚܡ	-11.4386
▁ܠܪܗܘܡܐ	-11.4386
▁ܠܬܒܝܪ	-11.4386
▁ܡܒܤܪ	-11.4386
▁ܡܝܘܬܘܬܐ	-11.4386
▁ܡܫܬܓܫ	-11.4386
▁ܢܚܪܪܟܘܢ	-11.4386
ܥܘܙܝܐ	-11.4386
▁ܕܢܨܘܡܘܢ	-11.4386
▁ܬܘܪܤܝܐ	-11.4386
▁ܒܠܓܬܐ	-11.4386
▁ܚܒܛ	-11.4386
▁ܠܐܓܘܪܤ	-11.4386
▁ܤܘܡܩ	-11.4386
▁ܒܡܫܡܥܬ	-11.4386
▁ܡܦܚܡܝܢ	-11.4386
▁ܐܬܪܓܡ	-11.4386
▁ܕܬܦܩ	-11.4386
▁ܘܚܫܒ	-11.4386
▁ܢܬܚܒܠܘܢ	-11.4386
ܠܤܢܝܩܘܬ	-11.4386
▁ܐܬܝܥܢ	-11.4386
▁ܕܡܫܬܕܪ	-11.4386
▁ܐܝܛܠܝ	-11.4386
▁ܕܐܬܕܟܝ	-11.4386
▁ܕܬܓܘܪ	-11.4386
▁ܘܢܥܠܘܢ	-11.4386
▁ܐܚܕܬܘܢܢܝ	-11.4386
▁ܓܘܥܠܢ	-11.4386
▁ܩܢܢܝܐ	-11.4386
ܬܘܪܨܐ	-11.4386
▁ܡܪܛܘܛܟ	-11.4386
▁ܥܘܪܦܢ	-11.4386
▁ܠܡܙܪܥ	-11.4386
▁ܒܤܝܒܘܬ	-11.4386
▁ܘܨܦܬ	-11.4386
▁ܘܪܘܝܘ	-11.4386
▁ܠܡܨܪܝܐ	-11.4386
ܥܩܘ	-11.4386
▁ܘܬܪܨ	-11.4386
▁ܠܒܬܝܗܘܢ	-11.4386
▁ܕܐܠܨܢ	-11.4386
▁ܘܬܡܝܡ	-11.4386
▁ܫܩܘܗܝ	-11.4386
▁ܬܥܬܪܘܢ	-11.4386
▁ܘܕܝܗܘܕ	-11.4386
▁ܠܕܘܟܝ	-11.4386
▁ܛܠܪ	-11.4386
▁ܦܪܘܫܘ	-11.4386
▁ܐܓܘܪܤ	-11.4386
▁ܬܬܓܕܦ	-11.4386
ܐܬܬܨܝܕ	-11.4386
▁ܐܫܬܦܥ	-11.4386
▁ܠܟܘܝܠܐ	-11.4386
▁ܠܢܟܤܬܐ	-11.4386
▁ܒܘܝܐܟܘܢ	-11.4386
▁ܠܦܘܬܩ	-11.4386
▁ܡܬܚܬܪ	-11.4386
▁ܕܒܐܤܛ	-11.4386
▁ܢܬܢܤܒ	-11.4386
▁ܕܒܝܡܝܢ	-11.4386
▁ܠܡܬܛ	-11.4386
▁ܢܚܛܦܘܢ	-11.4386
▁ܘܠܥܕܬ	-11.4387
▁ܘܠܒܘܢܬܐ	-11.4387
▁ܕܢܢܛܪ	-11.4387
▁ܡܫܬܪܥܝܢ	-11.4387
▁ܠܡܪܓܙܘܬܗ	-11.4387
▁ܕܬܦܪܫܘܢ	-11.4387
▁ܠܡܤܝܒܪܘ	-11.4387
▁ܕܦܬܝܟ	-11.4387
▁ܟܒܫ	-11.4387
▁ܢܦܐܫܐ	-11.4387
▁ܘܙܪܥ	-11.4387
▁ܦܘܪܥܘ	-11.4387
▁ܥܪܨ	-11.4387
▁ܐܤܬܪܩܘ	-11.4387
▁ܘܫܠܘܡ	-11.4387
▁ܢܤܬܝܒ	-11.4387
▁ܬܬܕܒܪ	-11.4387
▁ܢܓܢܒܘܢ	-11.4387
▁ܕܐܤܬܟܠ	-11.4387
▁ܢܩܕܐ	-11.4387
▁ܘܐܬܪܕܝ	-11.4387
ܡܛܟܤ	-11.4387
▁ܕܚܛܗܘܗܝ	-11.4387
▁ܕܡܬܬܪܝܡ	-11.4387
▁ܪܓܝܫ	-11.4387
▁ܘܫܘܠܡܐ	-11.4388
▁ܢܤܥܪ	-11.4388
▁ܕܐܤܒܪ	-11.4388
▁ܘܐܫܠܛ	-11.4388
▁ܘܓܫ	-11.4388
▁ܫܪܪܘ	-11.4388
▁ܒܒܥܘܬ	-11.4388
▁ܕܢܨܪܝܐ	-11.4388
ܒܘܠܘܤ	-11.4388
▁ܘܡܘܒܠ	-11.4388
▁ܟܠܡܕ	-11.4388
▁ܐܩܦ	-11.4388
ܬܐܒܠܘܢ	-11.4388
ܡܪܛܘܛ	-11.4388
ܥܙܘܪ	-11.4388
▁ܒܒܬܝܗ	-11.4388
ܢܩܛܪܓܘܢ	-11.4388
▁ܡܬܚܡܬ	-11.4388
▁ܡܫܬܠܛ	-11.4388
▁ܕܐܒܗܬܐ	-11.4388
▁ܡܙܕܩ	-11.4388
▁ܘܥܬܪܬ	-11.4388
ܫܝܛܐ	-11.4388
▁ܚܐܫ	-11.4388
▁ܕܚܕܪܝܗܝܢ	-11.4389
▁ܘܙܟܝܬܘܢ	-11.4389
▁ܢܘܒܠ	-11.4389
▁ܐܘܪܚܬܝ	-11.4389
ܠܡܙܢܝܘ	-11.4389
▁ܕܒܒܪܢܫ	-11.4389
▁ܘܡܤܝܒ	-11.4389
ܠܐܤܛܪܛ	-11.4389
▁ܘܫܡܛ	-11.4389
▁ܕܬܪܝܨ	-11.4389
▁ܕܐܫܬܥܒܕ	-11.4389
▁ܐܫܬܚܪ	-11.4389
▁ܕܒܘܚܪܢܐ	-11.4389
▁ܥܘܝܪ	-11.439
▁ܒܪܫܘܡܐ	-11.439
▁ܟܡܝܪܐ	-11.439
▁ܪܬܚ	-11.439
▁ܘܠܕܙܟ	-11.439
▁ܕܡܛܠܬܢ	-11.439
ܐܬܢܨܒ	-11.439
ܤܘܤܬܢ	-11.439
ܛܪܘܦܝܡܘܤ	-11.439
▁ܡܫܡܠܐ	-11.439
▁ܘܠܥܤܘ	-11.439
▁ܘܡܤܝܒܪܝܢ	-11.439
▁ܕܢܫܚܢ	-11.439
▁ܘܒܡܟܝܟܘܬ	-11.439
▁ܘܐܫܬܥܠܝ	-11.439
▁ܒܫܠܡܗ	-11.439
▁ܒܡܚܫܒܬ	-11.439
▁ܪܓܫܝ	-11.439
▁ܘܢܬܩܪܒ	-11.4391
▁ܕܝܩܕܢܗ	-11.4391
▁ܬܐܚܕܘܢ	-11.4391
▁ܩܢܛ	-11.4391
▁ܐܫܬܕܝ	-11.4391
ܢܬܟܬܒ	-11.4391
▁ܥܘܩܤ	-11.4391
ܒܦܘܩܕܢ	-11.4391
ܬܪܕܦܘܢ	-11.4391
▁ܘܬܬܠ	-11.4391
▁ܕܢܫܬܘܬܦ	-11.4392
ܤܥܪܬܘܢܢܝ	-11.4392
ܫܬܘܕܥܘܢ	-11.4392
▁ܠܓܗܢܐ	-11.4392
▁ܒܦܪܓ	-11.4392
▁ܕܐܬܝܕܥܬ	-11.4392
ܢܩܛܪܓܘܢܝܗܝ	-11.4392
▁ܘܡܕܒܪ	-11.4392
▁ܘܒܓܘ	-11.4392
▁ܕܦܫܝܛ	-11.4393
▁ܪܬܝܬ	-11.4393
▁ܘܢܒܛܠ	-11.4393
▁ܢܬܩܪܘܢ	-11.4393
▁ܕܐܬܢܟܤ	-11.4393
▁ܐܛܢ	-11.4393
▁ܓܕܝܐ	-11.4394
▁ܢܫܬܠܚ	-11.4394
▁ܘܥܘܝܪ	-11.4394
ܐܬܓܡܪܘ	-11.4394
▁ܢܫܬܘܬܦ	-11.4394
▁ܕܡܕܒܪ	-11.4395
▁ܢܟܠܝܢ	-11.4395
▁ܕܚܤܝܢ	-11.4395
▁ܘܠܥܠܡ	-11.4395
▁ܘܦܬܝ	-11.4396
ܟܤܦ	-11.4396
▁ܕܡܕܪܫ	-11.4396
▁ܬܬܛܦܝܤ	-11.4396
▁ܕܥܗܢ	-11.4396
▁ܕܡܕܚܠ	-11.4397
▁ܕܪܓܡ	-11.4397
▁ܢܕܪܟܟܘܢ	-11.4397
▁ܕܡܚܤܕ	-11.4397
▁ܒܩܛ	-11.4397
▁ܠܡܓܙܪ	-11.4397
▁ܡܬܒܩ	-11.4397
▁ܓܒܪܝ	-11.4398
▁ܘܢܥܒܪ	-11.4398
▁ܠܡܛܥܢ	-11.4398
▁ܐܬܡܗ	-11.4398
▁ܠܡܬܩܛܠܘ	-11.4398
▁ܕܢܬܘܒܘܢ	-11.4398
▁ܕܢܒܛܠ	-11.4399
ܡܬܢܩܦ	-11.4399
▁ܬܐܬܪ	-11.4399
▁ܕܢܩܕܫ	-11.4399
▁ܠܡܗܪܘ	-11.44
▁ܠܡܓܡܪ	-11.44
▁ܕܒܒܝܬܟ	-11.44
▁ܠܡܠܘܗܝ	-11.44
▁ܕܦܠܝܓ	-11.44
▁ܚܡܫܥܤܪܐ	-11.4401
▁ܢܙܕܘܓ	-11.4401
▁ܕܠܡܫܝܚܐ	-11.4401
▁ܒܤܡܬ	-11.4401
▁ܝܘܟܢ	-11.4402
▁ܩܘܪܒܢܝܗܘܢ	-11.4402
▁ܘܓܥ	-11.4402
▁ܘܢܫܬܢܩ	-11.4402
▁ܢܬܚܕܬ	-11.4402
▁ܢܘܕܥܟܘܢ	-11.4402
▁ܘܠܦܘܩܕ	-11.4402
▁ܐܒܗܬܗܘܢ	-11.4402
▁ܢܫܪܪ	-11.4403
▁ܕܡܬܒܛܠ	-11.4403
▁ܒܦܪܕܝܤܐ	-11.4403
▁ܒܐܝܤܪܐܝܠ	-11.4404
▁ܐܬܟܫܠ	-11.4404
▁ܠܩܪܝܒ	-11.4404
▁ܕܐܫܬܐܠ	-11.4404
▁ܠܕܥܒܕ	-11.4404
▁ܐܙܕ	-11.4404
▁ܡܪܕܝܬ	-11.4404
ܢܪܓܡܘܢ	-11.4404
▁ܢܬܦܪܥܘܢ	-11.4404
▁ܡܪܒܝܢ	-11.4404
▁ܘܢܢܗܪ	-11.4405
▁ܕܐܬܦܨ	-11.4405
ܡܚܒܠܢ	-11.4405
▁ܕܡܬܪܫܐ	-11.4405
ܫܓܘ	-11.4405
▁ܢܬܚܝܒ	-11.4405
▁ܬܩܒܠܘܢܝܗܝ	-11.4406
▁ܘܠܥܡܐ	-11.4406
▁ܘܕܥܡܡܐ	-11.4406
▁ܕܒܪܝܬܗ	-11.4406
▁ܡܬܒܛܠ	-11.4406
▁ܐܛܥܝܬ	-11.4407
▁ܕܢܥܡܕ	-11.4407
▁ܕܢܓܕܦ	-11.4408
ܚܙܩܝܐ	-11.4408
ܤܩܘܒܠ	-11.4408
▁ܐܪܚܡ	-11.4408
▁ܕܓܗܢܐ	-11.4409
ܫܘܡܠܝܗ	-11.4409
▁ܐܬܓܢ	-11.4409
▁ܚܘܒܟ	-11.441
▁ܐܝܩ	-11.441
▁ܘܚܫܚ	-11.441
▁ܘܐܬܩܒܪ	-11.441
ܪܓܝܓܬܟܘܢ	-11.441
▁ܚܐܤ	-11.441
▁ܬܬܪܝܡ	-11.441
ܘܒܫ	-11.441
▁ܘܢܡܠܠ	-11.441
▁ܘܡܢܫܩ	-11.4411
▁ܐܬܩܢ	-11.4411
▁ܕܢܝܚܬ	-11.4411
ܘܡܢܗ	-11.4411
▁ܐܟܬܒܝܘܗܝ	-11.4411
▁ܘܕܚܛܝܐ	-11.4411
ܕܝܕ	-11.4412
▁ܠܬܗܘܡܐ	-11.4412
▁ܠܟܢܫܗܘܢ	-11.4412
▁ܠܩܪܩܘܪܐ	-11.4412
▁ܡܬܒܪܟ	-11.4413
▁ܕܐܦܤܘܤ	-11.4413
▁ܕܐܫܡܥ	-11.4413
▁ܡܬܚܝܒ	-11.4413
▁ܠܠܒܘܫܗ	-11.4414
▁ܫܠܘܐ	-11.4414
▁ܬܬܟܤܐ	-11.4414
▁ܘܒܕܟܝܘܬܐ	-11.4414
▁ܘܠܐܒܘܗ	-11.4414
▁ܕܐܬܟܪܟ	-11.4414
ܡܬܚܦܛ	-11.4415
ܘܪܤ	-11.4415
▁ܟܘܪܗܢܝܗܘܢ	-11.4415
▁ܕܤܢܝܬ	-11.4415
▁ܐܬܟܬܫ	-11.4415
ܩܕܝ	-11.4416
▁ܒܚܛܝܬܐ	-11.4416
▁ܡܕܒܪܝ	-11.4416
▁ܘܪܚܝܡ	-11.4416
▁ܠܡܚܨܕ	-11.4417
▁ܐܒܕܝܢܢ	-11.4417
▁ܬܫܒܘܚܬܟܘܢ	-11.4417
▁ܥܘܩ	-11.4417
▁ܘܐܘܪܟ	-11.4418
▁ܠܡܬܬܪ	-11.4418
▁ܦܬܝ	-11.4418
ܬܢܓܕܘܢ	-11.4419
▁ܡܘܩܕ	-11.4419
ܡܫܦܥ	-11.442
▁ܕܕܩܪܘ	-11.4421
▁ܟܬܦܬ	-11.4421
▁ܘܡܬܝܕܥ	-11.4421
▁ܠܡܢܓܕ	-11.4421
▁ܘܒܛܝܠܝܢ	-11.4421
▁ܬܐܓܝܢ	-11.4421
▁ܕܠܒܪܘܝ	-11.4421
▁ܡܬܚܠܡ	-11.4421
ܐܚܘܝܟ	-11.4422
▁ܘܨܗܝ	-11.4422
▁ܘܠܢܝܩ	-11.4422
ܡܡܪܚ	-11.4422
▁ܠܝܛܝܢ	-11.4422
▁ܒܟܝܤܝ	-11.4423
▁ܠܡܬܕܢܘ	-11.4423
ܦܤܝܩ	-11.4423
▁ܘܢܦܪܩ	-11.4424
▁ܐܘܬܒ	-11.4424
▁ܠܡܚܒܘ	-11.4424
▁ܠܫܘܘܕܝ	-11.4424
▁ܩܒܠܝܗܝ	-11.4424
▁ܢܚܤܢ	-11.4425
▁ܬܚܤܪ	-11.4426
ܡܚܫܒܬܐ	-11.4426
ܥܙܩܬ	-11.4426
▁ܬܬܚܬܝܢ	-11.4427
▁ܓܘܫܡܝ	-11.4427
ܫܟܒ	-11.4427
ܬܡܪܡܪ	-11.4427
▁ܒܗܝܡܢܘܬܟ	-11.4428
▁ܬܠܘܛ	-11.4428
▁ܘܢܫܩ	-11.4428
▁ܡܪܒܥܐ	-11.4429
▁ܐܢܗܪܬ	-11.4429
▁ܟܘܡܪܘܬܗ	-11.4429
▁ܟܘܬܝܢܟ	-11.4429
▁ܘܡܪܝܪ	-11.4429
ܤܬܟܠܘ	-11.4429
▁ܕܢܛܝܒ	-11.443
ܨܛܢܥ	-11.4431
▁ܬܐܪܬܢ	-11.4431
▁ܘܤܐܢ	-11.4431
▁ܡܤܬܝܒܪ	-11.4431
▁ܡܬܒܢܐ	-11.4431
▁ܤܤܐ	-11.4432
▁ܡܥܩܡܬܐ	-11.4432
▁ܘܢܨܒ	-11.4433
▁ܚܫܘܒ	-11.4434
▁ܫܘܥܒܕ	-11.4434
▁ܒܩܘܠܤ	-11.4434
▁ܘܚܪܒ	-11.4435
▁ܡܫܬܡܥܢܘܬܟܘܢ	-11.4435
▁ܘܢܗܦܟ	-11.4435
▁ܦܪܚ	-11.4436
▁ܬܒܟܝܢ	-11.4436
▁ܩܝܢܢ	-11.4437
▁ܐܬܚܦܛ	-11.4438
▁ܠܚܡܗ	-11.4438
▁ܕܕܒܩ	-11.4438
▁ܘܠܚܝܐ	-11.4439
▁ܒܚܒܘܫܝܐ	-11.4441
▁ܕܢܒܐܫ	-11.4442
▁ܒܡܩܕ	-11.4442
▁ܐܤܛܘ	-11.4442
ܐܫܩܝܬܘܢܢܝ	-11.4443
▁ܡܙܓ	-11.4444
▁ܝܪܒ	-11.4444
ܕܤܡ	-11.4445
▁ܘܢܪܩܕ	-11.4446
▁ܒܥܪܝ	-11.4447
▁ܕܒܗܝܟܠܐ	-11.4447
▁ܢܪܗܛ	-11.4447
▁ܕܡܬܬܩܠ	-11.4447
▁ܠܪܫܗ	-11.4448
▁ܢܚܡܤܢ	-11.4448
▁ܐܠܝܩܝܡ	-11.4448
▁ܝܥܢܘܬܐ	-11.4448
▁ܫܓܝܫ	-11.4448
▁ܓܓܘܠܬܐ	-11.4448
▁ܨܚܢܘܬܐ	-11.4448
▁ܐܬܡܨܝ	-11.4448
ܒܥܠܡܐ	-11.4448
▁ܚܪܝܦܐ	-11.4449
▁ܐܬܥܕܪ	-11.445
▁ܬܬܚܫܒ	-11.445
▁ܘܥܓܠ	-11.4451
▁ܥܬܪܘ	-11.4451
▁ܡܬܒܢܝ	-11.4451
▁ܘܢܚܫ	-11.4451
▁ܦܠܘܚ	-11.4451
▁ܬܒܗܬ	-11.4451
▁ܘܠܐܪܤܛ	-11.4451
▁ܬܬܕܝܢ	-11.4452
▁ܒܥܠܝܬܐ	-11.4452
▁ܥܕܪܝܢܝ	-11.4452
▁ܘܦܪܝܩ	-11.4452
▁ܒܤܕܘܢܐ	-11.4452
▁ܕܐܬܒܪܝ	-11.4452
▁ܢܚܛܘܦ	-11.4453
▁ܘܡܬܕܒܪ	-11.4453
▁ܘܕܒܝܩ	-11.4453
▁ܕܬܬܢܒܘܢ	-11.4453
▁ܕܬܫܢܝܩܗ	-11.4453
▁ܘܡܤܩ	-11.4453
▁ܐܬܚܒܠ	-11.4454
ܪܗܘܡܝ	-11.4454
ܐܠܝܘܕ	-11.4454
▁ܤܩܐ	-11.4454
▁ܘܦܘܪܥܢ	-11.4454
▁ܐܬܩܒܪ	-11.4454
▁ܕܪܚܝܩ	-11.4455
▁ܕܤܘܟ	-11.4455
▁ܕܥܘܝܪ	-11.4455
ܐܝܩܪܗ	-11.4455
▁ܐܬܚܢܢܬ	-11.4455
ܛܤ	-11.4456
▁ܐܘܪܚܬܗ	-11.4457
▁ܐܥܒܕܝܗ	-11.4457
▁ܕܦܢܛ	-11.4457
▁ܕܐܒܝܠܝܢ	-11.4458
▁ܠܓܡܪ	-11.4459
▁ܡܙܗܪ	-11.446
▁ܡܫܬܘܕ	-11.446
▁ܙܩܦܬܘܢ	-11.4461
▁ܕܡܤܬܟܠ	-11.4461
▁ܐܬܓܡܪܬ	-11.4461
▁ܡܥܕܪܢܝ	-11.4462
▁ܘܓܡܝܪܐ	-11.4464
▁ܒܢܘܗܪܗ	-11.4466
▁ܒܩܝܤܐ	-11.4466
▁ܦܪܘܥ	-11.4468
▁ܒܝܫܬܗ	-11.4469
▁ܠܨܒܝܢܗ	-11.447
▁ܒܗܝܡܢܘܬܗܘܢ	-11.4471
▁ܐܬܚܝܒ	-11.4471
▁ܠܡܬܟ	-11.4471
▁ܠܤܝܡܬ	-11.4471
▁ܘܕܫܡܥܘܢ	-11.4471
▁ܒܫܘܒܩܢܐ	-11.4471
▁ܠܟܪܝܗܐ	-11.4472
▁ܕܢܚܙܝܘܗܝ	-11.4472
▁ܕܬܬܚܙ	-11.4473
▁ܒܩܕܝܫܐ	-11.4473
▁ܬܐܚܘܕ	-11.4473
ܢܬܬܚܕ	-11.4473
ܐܠܘܨ	-11.4475
ܕܐܚܝܟ	-11.4476
▁ܘܩܥܕ	-11.4476
▁ܡܥܝܩ	-11.4476
▁ܕܢܐܩܕ	-11.4477
▁ܡܪܚܐ	-11.4478
▁ܒܥܘܒܗ	-11.4479
▁ܦܢܛ	-11.4479
▁ܘܚܕܘܬܢ	-11.448
▁ܚܛܦ	-11.4481
▁ܐܫܬܪ	-11.4482
▁ܐܫܬܘܙܒ	-11.4482
▁ܐܬܐܠܨܬ	-11.4483
▁ܒܫܠܝܐ	-11.4483
▁ܕܡܪܟ	-11.4484
▁ܕܡܫܬܘܬܐ	-11.4485
▁ܐܬܪܝܡ	-11.4485
▁ܡܫܚܟ	-11.4486
ܘܠܘܛ	-11.4488
▁ܐܬܕܟܝܘ	-11.4488
▁ܪܫܝܟܘܢ	-11.4488
▁ܘܕܥܘܠܐ	-11.4489
ܒܟܢܘܫܬܗܘܢ	-11.4489
▁ܩܒܪܘܗܝ	-11.449
▁ܘܕܡܪܬ	-11.449
ܢܦܫܬܟܘܢ	-11.449
ܐܬܩܕܫ	-11.4491
ܡܫܥܒܕ	-11.4493
ܢܫܥܒܕܘܢ	-11.4495
▁ܕܡܬܚܪܝܢ	-11.4497
▁ܕܢܩܒ	-11.4498
▁ܬܦܪܫ	-11.4498
▁ܐܘܟܠ	-11.4498
▁ܠܢܦܫܬܟܘܢ	-11.45
▁ܐܩܪ	-11.4501
▁ܠܒܥܠܕܒܒܐ	-11.4501
ܠܦܪܓ	-11.4502
▁ܘܨܗܝܢ	-11.4503
▁ܕܠܒܢܝܢܐ	-11.4504
▁ܗܓܪ	-11.4504
ܐܫܬܚܠܦ	-11.4505
▁ܠܡܥܡܪ	-11.4506
▁ܕܠܟܠ	-11.4506
ܩܬ	-11.4506
▁ܒܤܬܘܐ	-11.4506
▁ܤܦܪܝܗܘܢ	-11.4506
▁ܠܛܪܤܘܤ	-11.4506
▁ܘܡܘܬܪ	-11.4508
ܢܬܒܤܡ	-11.4509
▁ܒܐܕܢܝܟܘܢ	-11.451
▁ܘܫܘܬܦ	-11.4512
▁ܕܡܩܛܪܓܝܢ	-11.4512
▁ܝܘܡܝ	-11.4515
▁ܢܥܒܕܝܘܗܝ	-11.4516
ܐܟܘܬܗ	-11.4517
▁ܒܨܒܥ	-11.4518
▁ܚܫܟ	-11.4518
▁ܘܢܥܬ	-11.4519
▁ܢܩܛܠܘܢ	-11.4519
▁ܕܓ	-11.4521
▁ܕܬܐܠܦ	-11.4521
▁ܘܠܠܥܙܪ	-11.4523
▁ܒܨܘ	-11.4523
ܝܕܝܐ	-11.4523
▁ܒܓܢܬܐ	-11.4523
▁ܘܐܚܝܢܝ	-11.4525
ܡܚܒܝܢ	-11.4525
▁ܕܢܫܪܝܘܗܝ	-11.4526
▁ܚܠܛ	-11.4526
▁ܬܫܡܫܬܗܘܢ	-11.4526
▁ܘܠܡܕ	-11.4527
▁ܒܟܠܢܫ	-11.4527
▁ܘܒܕܪ	-11.4527
ܠܡܐܡܪ	-11.4528
▁ܒܓܠܝܘܬ	-11.4528
▁ܤܗܕܘ	-11.453
ܘܟܢܝ	-11.4531
▁ܓܢܝ	-11.4533
▁ܡܬܦܢܝܢ	-11.4534
ܬܫܬܡܠܐ	-11.4535
▁ܘܡܪܬܐ	-11.4535
▁ܠܐܝܫܝ	-11.4536
ܫܝܚ	-11.4537
▁ܡܫܬܒܚܝܢ	-11.4537
▁ܘܩܕܡܝܐ	-11.4538
▁ܕܠܒܟ	-11.4539
▁ܘܒܡܨܥܬ	-11.4539
▁ܘܩܕܡܝܟ	-11.454
▁ܕܐܬܒܛܠ	-11.454
ܢܛܝܟ	-11.4545
▁ܘܡܬܟܘܢ	-11.4548
▁ܛܥܝܘܬܗ	-11.455
▁ܠܫܒܝ	-11.455
▁ܐܤܓܝ	-11.4551
ܫܩܠܘܢ	-11.4553
▁ܐܟܘܬܗܘܢ	-11.4553
▁ܪܘܫܥ	-11.4553
▁ܐܬܩܕܫ	-11.4553
▁ܕܡܛܥܝܢ	-11.4554
▁ܢܬܟܬܒ	-11.4555
▁ܕܐܚܕܬ	-11.4555
▁ܢܚܫܘܒ	-11.4555
▁ܫܘܝܘܬܐ	-11.4555
▁ܠܫܥ	-11.4556
▁ܘܐܪܘ	-11.4556
▁ܠܐܪܛܡ	-11.4557
▁ܡܬܬܢܝܚ	-11.4557
▁ܒܦܫܝܛܘܬ	-11.4557
ܦܥܝܥ	-11.4557
ܩܘܪܢܬ	-11.4557
▁ܐܨܠܐ	-11.4558
▁ܢܬܝܠܕ	-11.4558
▁ܬܠܒܫܘܢ	-11.4558
▁ܦܫܝܓ	-11.4559
ܟܢܫܬܘܢܢܝ	-11.456
▁ܘܡܫܥܒܕ	-11.4561
▁ܕܢܐܠܦ	-11.4561
▁ܐܬܪܡܝܘ	-11.4562
▁ܘܡܟܝܟܘܬ	-11.4562
▁ܤܛܘ	-11.4562
▁ܒܥܘܪ	-11.4562
▁ܘܤܢܝܐܝ	-11.4563
▁ܠܐܤܘܪܝ	-11.4564
▁ܬܪܥܘܬܐ	-11.4564
▁ܕܬܦܠܘܚ	-11.4565
▁ܘܒܤܥܪ	-11.4565
▁ܬܒܤ	-11.4565
▁ܘܐܬܚܛܦ	-11.4566
▁ܘܐܒܝܠܝܢ	-11.4567
▁ܠܛܘ	-11.4567
▁ܘܐܤܬܠܝ	-11.4568
▁ܘܡܒܪܟܝܢ	-11.4568
ܩܕܢ	-11.4569
▁ܒܥܩܒܬ	-11.4569
▁ܘܢܨܥܪܘܢ	-11.457
▁ܠܡܚܪ	-11.4571
▁ܢܦܨܝܢ	-11.4571
▁ܕܬܐܓܘܪܬ	-11.4572
▁ܘܬܚܙܐ	-11.4574
▁ܘܬܐܠܕ	-11.4574
▁ܕܐܫܬܒܗܪܢ	-11.4575
▁ܐܪܒ	-11.4576
▁ܘܙܒܢܘ	-11.4576
▁ܕܟܘܠ	-11.4577
▁ܢܐܠܦ	-11.4577
▁ܘܕܝܘܢܐ	-11.4578
▁ܠܤܠܡ	-11.458
▁ܡܝܬܝܗܘܢ	-11.4581
▁ܫܚܩ	-11.4581
▁ܬܬܦܠܓ	-11.4587
▁ܕܪܢܝܢ	-11.4587
ܡܬܚܤܕܝܢ	-11.459
▁ܘܕܐܝܟ	-11.4591
▁ܬܬܝܬܪܘܢ	-11.4591
▁ܘܫܝܫ	-11.4591
ܘܚܬ	-11.4592
▁ܬܬܓܠ	-11.4592
▁ܘܢܫܬܐ	-11.4593
▁ܘܤܢܝܬ	-11.4593
▁ܪܓܝܓܬܗ	-11.4595
▁ܘܬܚܝܒ	-11.4598
▁ܘܬܦܩܕ	-11.4598
▁ܐܬܟܪܙ	-11.4605
▁ܕܒܛܢܢ	-11.4606
▁ܬܚܙܐ	-11.4607
▁ܩܘܪܒ	-11.4608
▁ܘܢܤܬܠܐ	-11.4609
ܬܩܒܪ	-11.4609
▁ܘܐܤܪܘܗܝ	-11.4609
▁ܘܒܙܕܝܩܘܬܐ	-11.461
▁ܒܤܘܪܝܐ	-11.461
ܐܘܒܠܘܗܝ	-11.461
▁ܘܫܬܩܘ	-11.4616
▁ܕܢܓܢ	-11.4625
▁ܐܫܠܡܘܗܝ	-11.4626
▁ܘܚܨܘܕ	-11.4627
▁ܡܡܠ	-11.4627
▁ܒܫܓܘܫܝܐ	-11.4629
▁ܕܬܢܢ	-11.463
▁ܐܫܬܝܘ	-11.463
▁ܥܢܒܐ	-11.463
▁ܕܫܠܡܘ	-11.4631
▁ܠܒܢܝܗܘܢ	-11.4633
▁ܩܕܡܝܬܗ	-11.4636
▁ܓܠܝܢܢ	-11.4637
▁ܦܪܤܝ	-11.4637
▁ܚܙܝܬܟ	-11.4638
ܠܡܠܐܟܘܗܝ	-11.4639
▁ܟܘܪܝܢ	-11.4639
▁ܘܢܫܟܚܘܢ	-11.4639
▁ܦܘܡܝܗ	-11.4641
▁ܥܩܬܐ	-11.4641
▁ܘܫܒܝ	-11.4641
ܠܡܥܠ	-11.4642
ܠܛܬ	-11.4643
▁ܘܬܢܢܐ	-11.4645
▁ܢܟܦܝܢ	-11.4646
▁ܕܡܦܪܫ	-11.4647
▁ܢܤܒܪܘܢ	-11.465
ܓܢܒܝ	-11.4651
▁ܕܟܘܒܐ	-11.4652
▁ܚܠܨ	-11.4653
▁ܡܬܚܪܝܢ	-11.4653
▁ܕܡܙܡ	-11.4654
▁ܬܤܒܘܢ	-11.4654
▁ܕܡܙܕܒܢ	-11.4655
▁ܕܡܬܚܫ	-11.4657
▁ܘܕܐܡܪܐ	-11.4657
ܠܘܩܝܐ	-11.4661
▁ܠܫܥܬܐ	-11.4662
▁ܕܩܢܝܢ	-11.4663
ܬܐܩܕ	-11.4663
▁ܕܢܟܦ	-11.4664
▁ܟܢܫܬ	-11.4667
▁ܡܢܝܢܗܘܢ	-11.467
▁ܐܬܒܕܪܘ	-11.467
ܢܚܘܪ	-11.467
▁ܢܬܩܛܠ	-11.467
ܒܛܢܬ	-11.4671
▁ܕܬܚܘܢ	-11.4676
▁ܦܬܘܪܗ	-11.4677
ܚܬܝܡܐ	-11.4678
▁ܢܩܪܘܢ	-11.4678
ܘܓܠܘܤ	-11.468
▁ܒܚܙܬ	-11.468
ܬܚܫܘܢ	-11.4681
ܡܬܓܡܪ	-11.4685
▁ܠܩܕܡܝ	-11.4686
▁ܕܦܓܪܟܘܢ	-11.4687
ܬܡܠܠܘ	-11.4688
▁ܘܡܤܓ	-11.4689
▁ܨܦܪ	-11.469
▁ܓܝ	-11.469
▁ܕܓܕܫ	-11.469
▁ܘܐܬܟܤܝ	-11.4691
▁ܥܝܢܝܗ	-11.4691
▁ܕܐܤܬܒܪܬ	-11.4693
▁ܘܐܪܟ	-11.4693
ܠܐܒܪܗܡ	-11.4694
▁ܕܐܩܦܬ	-11.4694
▁ܒܙܕܩܬ	-11.4695
▁ܘܓܝܤܐ	-11.4696
▁ܘܐܫܬܘܬܦ	-11.4696
ܪܤܝܤ	-11.4699
▁ܬܫܡܥ	-11.4699
ܐܬܓܘܤ	-11.4699
▁ܠܬܝܡܢܐ	-11.4703
ܬܡܠܐ	-11.4703
ܠܥܤܝܢ	-11.4703
▁ܒܡܘܬܗ	-11.4704
▁ܐܬܩܪܐ	-11.4705
▁ܕܐܠܦܘ	-11.4705
▁ܠܩܢ	-11.4706
▁ܘܝܩܪ	-11.4709
▁ܒܚܪܢ	-11.4714
▁ܘܠܐܢܛܝܟܝܐ	-11.4716
▁ܢܓܡܪ	-11.4719
ܕܤܐܡ	-11.4719
▁ܒܤܪܗܘܢ	-11.472
ܢܫܬܪܪ	-11.4721
▁ܘܓܪܡ	-11.4721
▁ܘܡܬܩܝܡ	-11.4722
ܥܡܐ	-11.4723
ܒܒܘܝܐܐ	-11.4724
▁ܕܚܛܗܝܗܘܢ	-11.4727
▁ܠܡܪܓܡ	-11.4728
▁ܩܝܠܝܩܝܐ	-11.4728
▁ܐܫܩܝܬ	-11.473
▁ܡܫܬܝܐ	-11.4733
▁ܢܪܕ	-11.4733
▁ܦܘܩܕ	-11.4736
ܒܡܘܠܟܢܐ	-11.4737
▁ܢܛܝܪܝܢ	-11.4738
▁ܕܡܤܝܒܪ	-11.4738
▁ܐܬܬܙܝܥܘ	-11.474
ܬܬܓܪ	-11.4741
▁ܕܬܓܪ	-11.4741
▁ܡܬܩܪܝܢ	-11.4741
▁ܘܢܫܬܒ	-11.4743
ܡܡܙܓ	-11.4744
▁ܛܘܗܡܢ	-11.4745
▁ܥܢܗ	-11.4746
▁ܘܢܚܘܢ	-11.4747
▁ܕܩܘܡ	-11.475
ܡܬܩܕܫ	-11.4752
ܢܦܫܟܝ	-11.4756
▁ܠܡܚܬ	-11.4758
▁ܫܘܠܛܢܗܘܢ	-11.4759
▁ܕܐܫܠܡܗ	-11.4765
▁ܕܡܠܬ	-11.4765
▁ܕܚܕܕܐ	-11.4766
ܡܬܢܓܕ	-11.4768
▁ܡܢܓܕ	-11.4768
▁ܒܥܒܕܗ	-11.477
ܢܚܫܘܒ	-11.4772
ܘܥܕ	-11.4774
ܒܟܠܗܝܢ	-11.4775
ܐܝܤܪܝܠ	-11.4775
▁ܠܘܝܬܗ	-11.4777
▁ܕܩܒܘܪ	-11.4778
▁ܘܢܦ	-11.4783
ܡܬܩܦܚ	-11.4786
▁ܬܗܠܟܘܢ	-11.4789
▁ܐܬܢܒܝܘ	-11.479
ܝܬܪܘ	-11.479
▁ܕܢܛܥܘܢ	-11.4791
▁ܘܒܒܪ	-11.4793
▁ܚܕܘܬܟܘܢ	-11.4793
▁ܢܩܒܬ	-11.4794
▁ܒܢܫܐ	-11.4797
ܦܢܗ	-11.4797
▁ܘܐܬܕܝܢ	-11.4798
▁ܠܓܠܝܢ	-11.4801
ܢܬܪܤܘܢ	-11.4804
▁ܕܐܬܬܤܝܡ	-11.4815
ܚܬܝܪܘܬ	-11.4816
ܬܛܘܫܘ	-11.4819
▁ܡܟܝ	-11.4822
▁ܬܩܢܘ	-11.4825
▁ܕܡܠܦܢܐ	-11.4832
▁ܡܩܛܪܓ	-11.4833
▁ܡܬܪܝܢ	-11.4833
ܩܢܟܪܐ	-11.4839
▁ܐܬܚܪܝ	-11.4842
▁ܐܒܕܘ	-11.4843
▁ܘܡܕܝܢ	-11.4846
▁ܟܐܒܝܢ	-11.4846
ܦܪܬ	-11.4847
▁ܘܡܪܓܢܝܬܐ	-11.4847
▁ܐܬܝܒ	-11.4848
ܤܝܦܐ	-11.4848
ܒܚܪܘܢ	-11.4849
▁ܘܡܫܬܡܥܢ	-11.4851
▁ܐܘܫܛ	-11.4854
▁ܡܟܪ	-11.4854
▁ܘܤܡܝܟ	-11.4854
▁ܙܢܝܘܬܗ	-11.4855
ܕܐܝܤ	-11.4856
▁ܩܘܫ	-11.4859
▁ܘܠܚ	-11.4865
ܬܦܠܘܚ	-11.487
ܚܤܕܗ	-11.4873
▁ܘܡܠܟܘ	-11.4879
ܐܬܚܛܦ	-11.488
▁ܢܟܝ	-11.4886
ܕܒܪ	-11.4888
▁ܘܒܘܝܐܐ	-11.4893
▁ܡܬܒܨ	-11.4893
ܡܝܩܪ	-11.4894
▁ܤܕܘ	-11.4895
▁ܕܢܕܥܘܢ	-11.4896
▁ܡܬܪܕܦܝܢ	-11.4901
▁ܫܒܒܝܗ	-11.4901
ܗܝܡܢܘܬܟ	-11.4902
▁ܚܠܦܝܗܘܢ	-11.4902
▁ܐܬܪܚܡܬ	-11.4916
▁ܘܕܗ	-11.4916
▁ܢܩܛܠܘܢܝܗܝ	-11.4917
▁ܕܢܫܒ	-11.4918
▁ܬܦܤܩ	-11.4918
▁ܢܡܠ	-11.4924
ܗܪܘ	-11.4926
ܒܬܚܬܝ	-11.493
▁ܕܡܐܟܘܠܬ	-11.4931
▁ܘܪܓܠܝܗ	-11.4933
▁ܫܕܝ	-11.4934
ܒܐܝܤ	-11.4935
▁ܐܬܥܡܕ	-11.4936
▁ܘܐܬܦ	-11.4938
▁ܙܘܙܝ	-11.494
▁ܘܡܫ	-11.4942
▁ܒܬܘܠܘܬ	-11.4948
▁ܐܚܝܟ	-11.4949
▁ܐܬܪܗܒ	-11.4949
ܦܘܡܝ	-11.4949
▁ܕܛܘܥܝܝ	-11.495
ܒܝܬܘܢܝܐ	-11.4954
ܕܐܪܥܐ	-11.4958
▁ܕܢܡܚܘܢ	-11.4959
▁ܕܗܓܡܘܢܐ	-11.4959
▁ܘܒܢܡܘܤ	-11.4961
▁ܕܡܪܚܡ	-11.4962
▁ܢܠܒܫ	-11.4964
▁ܘܠܚܝܠ	-11.4966
▁ܡܤܠܝܐ	-11.4966
ܒܐܦܐ	-11.4967
▁ܐܠܗܗܘܢ	-11.4968
ܬܫܬܒܗܪ	-11.497
ܒܚܪܝܢܐ	-11.4973
ܛܝܢܘ	-11.4975
▁ܚܩܠ	-11.4976
ܕܟܝܐ	-11.4978
▁ܕܢܚܘܪ	-11.4981
▁ܢܫܘ	-11.4984
▁ܒܚܘܒܗ	-11.4992
▁ܐܬܥܠ	-11.4993
▁ܘܚܕܘܬ	-11.4993
▁ܕܡܛܥ	-11.4994
▁ܢܫܘܐ	-11.4995
▁ܒܤܘ	-11.5005
ܬܪܥܘܬܐ	-11.5007
▁ܠܚܙ	-11.502
▁ܡܟܬܒ	-11.5023
▁ܡܓܕܦܢ	-11.5024
▁ܬܫܥܝ	-11.5027
▁ܕܢܓܪ	-11.5028
▁ܢܫܬܥܒܕ	-11.5035
▁ܦܪܝܤ	-11.5039
▁ܘܐܦܩܗ	-11.5042
▁ܐܠܨܬܢ	-11.5042
▁ܕܢܢܤ	-11.5043
▁ܠܥܤܒ	-11.5046
▁ܤܕܩܐ	-11.5049
ܡܨܛܪܝ	-11.505
▁ܢܚܫܘܢ	-11.5056
ܤܘܝܒ	-11.5059
ܠܡܪܝܐ	-11.5059
▁ܘܐܒܥ	-11.5061
▁ܡܛܠܠܝ	-11.5068
▁ܗܕ	-11.5068
ܟܪܟܝܢ	-11.507
▁ܕܢܙܒܢ	-11.507
ܘܡܦ	-11.5072
ܡܠܟܘܬܗ	-11.5073
▁ܕܐܬܝܬܪ	-11.5075
ܬܬܚܠܡ	-11.5075
▁ܢܡܘܬܘܢ	-11.5077
ܪܩ	-11.5082
▁ܛܪܦܝ	-11.5085
▁ܗܘܝܗܝ	-11.509
▁ܘܐܦܩܘ	-11.5099
▁ܘܥܪܛܠܝܐ	-11.51
ܪܘܪܒܢ	-11.5101
ܐܬܐܤܝܬ	-11.5102
▁ܘܢܐܪܟ	-11.5103
ܓܦܝܗ	-11.5105
ܟܦܝܦ	-11.5105
▁ܚܫܘ	-11.5108
▁ܬܩܒܠ	-11.5109
▁ܤܟܠܘ	-11.5109
▁ܒܡܚܙ	-11.5111
ܤܒܥܬܘܢ	-11.512
▁ܐܠܦܬ	-11.512
▁ܘܢܨ	-11.5128
ܕܡܢ	-11.5128
▁ܕܩܝܡܬܗ	-11.513
ܬܚܙܐ	-11.5135
ܩܠܘ	-11.5138
ܕܐܘܪܫܠܡ	-11.514
▁ܐܫܬܟܚܘ	-11.5145
▁ܘܐܒܗܬܢ	-11.5146
▁ܘܬܬܡܠ	-11.5146
ܬܐܡܪܘܢ	-11.5161
▁ܒܠܚܘܕܝܗ	-11.5162
▁ܕܐܫܬܪܝ	-11.5168
ܦܠܚܝܗ	-11.5173
▁ܬܩܢܝܢ	-11.5174
▁ܕܫܘܢܩ	-11.5177
ܘܓܐ	-11.5183
▁ܕܝܫ	-11.5185
▁ܐܕܘܢ	-11.5185
ܕܝܬܝܪ	-11.5187
▁ܕܐܪܓܘܢܐ	-11.5202
▁ܦܪܘܩܝܢ	-11.5205
▁ܘܟܤܝܬ	-11.5205
▁ܨܘܪܝ	-11.5208
▁ܬܪܥܤܪܬܗ	-11.5209
▁ܕܚܪܫ	-11.5209
▁ܡܪܬ	-11.5212
ܫܪܪܟ	-11.5218
▁ܘܫܠܚ	-11.5226
▁ܘܨܝܕ	-11.5227
ܠܕܝܢܐ	-11.5229
▁ܕܢܛܥ	-11.5232
▁ܐܤܟܠܬ	-11.5233
▁ܠܘܩ	-11.5244
ܠܒܗ	-11.5249
ܠܘܛ	-11.525
ܓܫܘܢ	-11.5251
▁ܘܝܕܝܥܝܢ	-11.5251
▁ܒܕܓܠܘܬ	-11.5252
ܢܝܬܐ	-11.5253
▁ܟܫܠ	-11.5258
ܠܘܗܝ	-11.5263
ܐܬܚܠܡ	-11.5263
▁ܒܚܘܪ	-11.5265
ܬܘܪܗ	-11.5265
ܢܝܚܬܗ	-11.5267
ܥܠܝ	-11.5277
▁ܢܡܠܠܢ	-11.5278
▁ܥܡܕܢ	-11.528
ܡܒܨܪ	-11.5282
▁ܐܚܝܕܝܢܢ	-11.5286
▁ܥܒ	-11.5288
▁ܕܢܐܩ	-11.529
▁ܥܡܝܩ	-11.5301
▁ܢܤܒܝܢܢ	-11.531
▁ܘܕܢܬ	-11.5313
▁ܘܝܘܢܐ	-11.5313
▁ܠܫܢܝ	-11.5318
▁ܛܥܬ	-11.5328
▁ܡܙܕܕܩܝܢ	-11.5336
ܨܒܝܢܗ	-11.5342
▁ܥܙܝܙ	-11.5348
▁ܐܬܝܐܝܢ	-11.5369
▁ܡܫܡܫܝܢ	-11.5378
▁ܕܩܕܡܘܗܝ	-11.538
ܫܠܚܢܝ	-11.538
ܝܪܝ	-11.5395
▁ܘܠܡܕܒܚ	-11.5402
▁ܢܚܘܪ	-11.5406
▁ܘܛܡܐ	-11.5407
▁ܘܠܘܩܝ	-11.5408
ܬܬܦܪܥܘܢ	-11.5417
▁ܕܒܩܝܢ	-11.5423
▁ܕܡܛܠܬܟ	-11.543
▁ܫܛܬܘܢ	-11.5437
▁ܪܕܝܢܢ	-11.5438
ܒܫܬܘܢ	-11.544
▁ܚܘܢܝ	-11.5442
▁ܬܠܡ	-11.5453
▁ܪܘܝܐ	-11.5453
▁ܘܐܫܬܘܕܥܬ	-11.546
ܕܠܩ	-11.5463
▁ܢܙܟ	-11.5469
▁ܘܐܚܘܕ	-11.5469
▁ܐܤܩܘܗ	-11.5475
▁ܘܤܥܘܪ	-11.5479
ܡܬܒܥ	-11.5479
ܫܚܬ	-11.5489
▁ܦܪܩܢ	-11.549
▁ܥܘܠܢ	-11.5491
ܐܒܗܬܟܘܢ	-11.5491
▁ܫܘܠܡ	-11.5492
ܠܒܟ	-11.5493
▁ܘܕܒܪܘ	-11.5497
▁ܘܡܫܠܡܢ	-11.5509
ܬܥܕܪ	-11.5516
ܒܩܠܐ	-11.5522
▁ܥܡܟܝ	-11.5525
ܡܟܝܟܝܢ	-11.5526
ܠܫܘܪܗ	-11.5544
▁ܕܡܐܬܝܬܗ	-11.5546
▁ܢܟܤܬ	-11.5547
ܫܡܫܐ	-11.5549
▁ܘܤܘܝܢ	-11.5552
▁ܘܠܡܪܘ	-11.5565
▁ܘܒܝܐ	-11.5569
▁ܘܪܕܝ	-11.5572
ܒܚܪܥܘܬܗܘܢ	-11.5573
ܒܡܨܥܬ	-11.5577
▁ܬܬܒܥ	-11.5581
▁ܐܘܠܨܢܝ	-11.5584
ܫܘܝܘܬܐ	-11.5592
ܒܡܤܝܒܪܢܘܬܐ	-11.5597
▁ܢܓܝܪ	-11.5597
▁ܢܫܩܘܠ	-11.5604
▁ܠܦܘܡ	-11.561
ܐܪܙ	-11.562
ܢܤܦܩ	-11.5623
▁ܒܟܪܤܐ	-11.5623
▁ܡܚܝܬ	-11.5626
▁ܘܦܪ	-11.5626
ܥܪܛܠܝܘܬܐ	-11.5629
▁ܘܒܠܥܕ	-11.5637
ܬܫܝܓ	-11.5639
▁ܐܫܬܝܢ	-11.564
▁ܡܫܬܒܩܐ	-11.5641
▁ܢܬܒܪܟ	-11.5643
ܒܨܠܘܬܟܘܢ	-11.5652
ܬܫܬܪܘܢ	-11.5655
ܫܐܠܘܗܝ	-11.5673
▁ܒܠܒܝ	-11.5686
ܨܗܝ	-11.5693
▁ܘܥܒܪܝܢ	-11.5702
▁ܕܤܘ	-11.571
▁ܘܝܗܒܬ	-11.5725
▁ܕܒܒܝܬ	-11.5732
▁ܒܥܘܒ	-11.5752
▁ܘܒܘܪܟܬܐ	-11.5753
ܤܘܢ	-11.5759
▁ܒܡܥ	-11.5765
▁ܘܒܪܟܗ	-11.5767
▁ܘܫܘܒܚܗ	-11.5768
ܩܒܠܬܘܢܝܗܝ	-11.5769
▁ܕܡܥܕܪܢ	-11.5772
ܤܒܥܘ	-11.5783
▁ܒܛܢܬ	-11.5789
▁ܙܒ	-11.5796
ܕܓܠܐ	-11.5797
ܥܠܝܢ	-11.5797
▁ܐܫܬܥܒܕܬ	-11.5802
▁ܕܓܠܝܢ	-11.5826
ܛܒܪܝܘܤ	-11.5847
ܒܫܡܝ	-11.5852
▁ܠܦܘܪܩܢ	-11.5855
ܩܕܝܫܐ	-11.5858
▁ܕܙܕܘܩܝܐ	-11.5861
ܫܩ	-11.5861
▁ܕܠܘܝ	-11.5864
▁ܥܒܕܝܗ	-11.5871
▁ܕܐܓܪ	-11.5873
ܬܥܝܪ	-11.5877
ܫܩܠܝ	-11.5878
ܙܕܝܩܘܬܐ	-11.5885
ܡܪܝܐ	-11.5905
ܢܓܡܘܪ	-11.5905
▁ܐܘܕܥܬ	-11.5909
▁ܕܐܤܠܝ	-11.5918
▁ܒܢܝܚ	-11.5919
▁ܕܒܫܐ	-11.5925
▁ܘܨ	-11.5937
▁ܢܟ	-11.5945
ܬܛܪܝܘ	-11.5945
▁ܢܛܪܘ	-11.5962
▁ܕܐܪܥ	-11.5964
▁ܕܡܫܬܓ	-11.5969
▁ܡܤܠܝ	-11.5992
▁ܕܐܘܠܨܢܐ	-11.6001
ܬܪܥܝܬ	-11.6005
▁ܤܢܝ	-11.6007
ܕܪܘܢܝ	-11.6016
▁ܒܓܘܪ	-11.6022
▁ܕܡܕܟܝ	-11.6023
▁ܬܫ	-11.6037
▁ܘܡܫܡܠܝܬ	-11.6043
▁ܠܚ	-11.6046
ܒܟܢܘܫܬܐ	-11.605
ܚܠܨ	-11.6061
▁ܕܢܬܓܠܐ	-11.6061
ܐܬܒܛܠ	-11.6066
▁ܐܫܬܘܬܦܬ	-11.607
▁ܒܪܟܝ	-11.6078
▁ܐܪܥܢܝ	-11.6084
ܡܘܠܕܗ	-11.6089
▁ܕܢܥܩ	-11.6096
▁ܘܚܙܝܬܘܢ	-11.6105
▁ܘܬܚܘ	-11.6108
ܡܠܠܝܘܗܝ	-11.611
▁ܘܕܠܚ	-11.6145
▁ܚܘܝܘ	-11.6148
ܬܥܛܦ	-11.6148
ܡܤܝܒܪܢܘܬܝ	-11.6158
▁ܐܦܩܘ	-11.6165
▁ܕܚܪܡ	-11.6168
▁ܕܢܬܬ	-11.6175
▁ܒܒܤܪܗ	-11.6176
▁ܩܫܝܫܬ	-11.6177
▁ܬܤܓ	-11.6178
ܬܬܦܠܓ	-11.6179
ܥܬܝܩܬܐ	-11.6192
ܡܤܝܒܪܢܘܬܟ	-11.6219
▁ܘܛܪ	-11.6222
▁ܘܟܪܤ	-11.6224
ܢܦܬܚ	-11.6225
ܘܪܬܐ	-11.6227
▁ܒܨ	-11.623
ܝܘܡܗ	-11.625
▁ܘܫܒܝܢ	-11.6251
▁ܠܟܪܤܗ	-11.6253
▁ܡܫܟ	-11.6269
ܤܬܡܟ	-11.6271
▁ܘܢܦܨ	-11.629
ܡܬܥܛܦ	-11.6292
▁ܘܬܒܥܬ	-11.6298
ܐܚܕܘܢܝ	-11.6306
ܝܘܫܝܐ	-11.6307
▁ܒܐܘܠܨܢܝ	-11.6318
▁ܒܟܪܡ	-11.6322
▁ܕܐܬܦܩܕܬ	-11.6333
ܒܨܥܪܐ	-11.6338
▁ܬܕܡܪܬܐ	-11.6347
▁ܘܡܤܟܝܢ	-11.6352
▁ܕܠܢܦܫ	-11.6358
▁ܘܡܬܕ	-11.6368
▁ܢܨܒܬ	-11.6369
ܩܫܝܫܘܬܐ	-11.6374
ܘܬܡ	-11.6382
ܐܬܬܠܡܕ	-11.6382
▁ܕܙܩܝܦ	-11.6384
▁ܕܤܪܐ	-11.6388
ܒܩܛܝܪܐ	-11.6394
▁ܢܐܤܪ	-11.6404
▁ܠܚܟܝܡ	-11.642
▁ܦܪܓ	-11.6421
ܟܘܡܪ	-11.6424
ܬܬܟܢܫ	-11.6442
ܩܝܬܪܘܗܝ	-11.6454
ܘܛܐ	-11.6476
ܐܪܒܥܬ	-11.6477
ܩܒܠܗ	-11.6483
ܤܢܐ	-11.6485
▁ܕܒܪܘ	-11.6487
▁ܘܕܪ	-11.649
▁ܐܫܠܡܘ	-11.649
ܪܘܤ	-11.6492
▁ܒܛܠܬ	-11.6513
ܝܢܝܗܝ	-11.6514
▁ܠܫܠ	-11.6521
ܚܒܝܒܝ	-11.6532
▁ܕܦܠܚܝܢ	-11.6547
ܩܗ	-11.6565
▁ܕܫܢܝ	-11.6576
ܫܡܟ	-11.6607
ܢܗܦܘܟ	-11.6615
▁ܢܬܒܥ	-11.6624
ܒܥܠܕܒܒܝܗܘܢ	-11.664
ܩܛܠܬܘܢ	-11.6668
▁ܘܠܒܝ	-11.667
▁ܘܦܬܘܪ	-11.6685
ܒܘܪܐ	-11.6687
ܬܬܗ	-11.669
ܡܕܒܚܐ	-11.67
▁ܒܚܛܗܝܗ	-11.6707
ܫܘ	-11.6709
ܒܫܡܟ	-11.6713
▁ܘܛ	-11.672
ܬܬܙܝܥܘܢ	-11.6745
▁ܕܒܐܝܕ	-11.6759
▁ܐܒ	-11.6765
▁ܕܝܩܝܪܐ	-11.6769
ܚܘܫܒܢ	-11.6769
▁ܙܟܝܬ	-11.6781
ܒܙܥܘܪܝܬܐ	-11.6785
ܪܒܬ	-11.6795
▁ܬܕܘ	-11.681
ܟܝܢܗܘܢ	-11.6811
▁ܡܚܝܢܝ	-11.6823
ܢܝܟ	-11.6825
▁ܟܠܚܕ	-11.6825
▁ܕܡܙܕ	-11.6831
▁ܝܘܡܬ	-11.6832
▁ܐܫܬܠܚ	-11.684
ܥܤܪܬ	-11.6846
ܘܒܗ	-11.6852
▁ܐܒܗܝܗ	-11.6858
▁ܒܫܘ	-11.6869
▁ܐܬܦܠܓܬ	-11.6879
ܡܤܟܢܘܬܗ	-11.6887
▁ܡܫܬܘܕܥ	-11.6905
▁ܐܬܕܟܪܝܢ	-11.6917
▁ܬܟܠ	-11.6924
▁ܘܢܕܥ	-11.6928
ܚܪܬܗ	-11.6934
ܚܤܝܪܝ	-11.6943
ܠܡܐܪܬ	-11.6953
ܚܘܕܝܗ	-11.6976
▁ܓܪܓ	-11.6979
▁ܠܗܝܡܢܘܬ	-11.6987
ܩܪܛܐ	-11.6995
▁ܘܫܘܝ	-11.6999
ܠܐܚܝܟ	-11.7004
▁ܒܝܬܟ	-11.701
ܬܬܚܝܒ	-11.7011
ܫܡܥ	-11.7037
ܒܝܐ	-11.7038
ܐܘܝܘܬܐ	-11.7041
ܒܝܘܗܝ	-11.7065
▁ܐܬܝܬܘܢ	-11.7065
ܪܓܠܘܗܝ	-11.7067
ܒܫܒܬܐ	-11.708
ܫܬܥܝܘ	-11.7092
ܡܚܙܐ	-11.7103
▁ܕܩܪܢ	-11.711
ܦܓܪܗ	-11.7135
ܬܬܤܝܡ	-11.7136
▁ܕܓܠܝ	-11.7148
ܬܟܪܐ	-11.7172
▁ܘܢܫܡܥ	-11.7181
▁ܨܚܝܘ	-11.7205
ܟܪܝܗܘܬ	-11.7206
▁ܘܡܬܦ	-11.7231
ܬܩܛܠܘ	-11.7274
▁ܕܝܠܦܬ	-11.7285
▁ܫܒܚܬ	-11.7295
ܙܝܬܐ	-11.7307
▁ܒܩܠܝ	-11.7319
ܫܚܠܦܘ	-11.7337
ܬܡܢ	-11.7341
▁ܓܒܝܘܬ	-11.7384
▁ܒܩ	-11.7407
▁ܤܪܝ	-11.7423
ܕܪܟܘܢ	-11.7428
ܩܕܡܝܟ	-11.7436
ܬܩܘܡܘܢ	-11.7447
▁ܘܕܡܝ	-11.7456
▁ܘܐܥܡܕ	-11.7456
▁ܡܬܩܢ	-11.7457
▁ܘܪܤ	-11.7458
▁ܕܓܕ	-11.7459
▁ܐܝܬܝܗܝ	-11.746
▁ܕܡܫܬܡܥ	-11.7479
ܘܥܐ	-11.749
ܐܚܕܝܘܗܝ	-11.7512
▁ܠܐܝܠ	-11.7513
▁ܡܬܪܕ	-11.7517
▁ܨܐ	-11.7526
▁ܠܫ	-11.7532
ܤܡܘܢ	-11.7535
ܒܫ	-11.7544
ܬܦܨܝ	-11.7571
ܠܫܢܝܗܘܢ	-11.7578
ܡܩܘܐ	-11.7581
▁ܒܒܘܝܐ	-11.76
ܟܘܪܤܝܟ	-11.7615
ܩܫܝܐ	-11.762
▁ܕܢܬܒ	-11.7621
▁ܒܤܕ	-11.7623
ܚܫܘ	-11.7627
▁ܢܤܝܡܘܢ	-11.7639
ܟܘܪܤܝܐ	-11.7649
ܬܪܝܢܢ	-11.7651
ܕܬܪܬܝܢ	-11.7658
▁ܕܫܘܝ	-11.766
▁ܘܫܘܒܩܢ	-11.7697
ܙܥܘܪܝܬܐ	-11.7721
ܦܢܝ	-11.7726
ܥܒܕܝܟܘܢ	-11.7734
ܨܚܝܢ	-11.7734
ܒܪܝ	-11.7755
ܗܝܡܢ	-11.7786
ܡܫܚܢܝ	-11.7803
ܒܚܝܠܐ	-11.7812
▁ܕܒܚܪ	-11.7822
ܚܙܐ	-11.7822
ܐܤܝܘܬܐ	-11.7833
ܙܩܝܦܗ	-11.7849
▁ܕܦܩܕܬܟ	-11.7863
▁ܘܢܩܒܠ	-11.7885
▁ܘܝܥ	-11.7894
▁ܨܝܕܢ	-11.7896
▁ܕܐܘܪܚ	-11.7898
ܒܠܝܗ	-11.79
▁ܘܡܪܚܡܢ	-11.7901
▁ܘܩܫܝ	-11.7912
ܢܥܒܕܝܗ	-11.7916
▁ܚܒܝܒܝܢ	-11.7926
ܩܪܝܬܗ	-11.7935
ܠܓܒܪܐ	-11.7949
ܥܕܪ	-11.795
ܬܦܪܥܘܢ	-11.7964
▁ܥܢܝܬ	-11.7979
▁ܘܠܡܥܗܕ	-11.7982
▁ܘܪܚܡܝ	-11.7988
▁ܠܐܤܐ	-11.7997
▁ܘܟܐܢ	-11.8009
ܬܪܬ	-11.8023
▁ܒܓܒܝ	-11.8026
ܛܪܘܦ	-11.8038
ܢܤܒܥܘܢ	-11.8091
▁ܘܤܒܪܬ	-11.8123
ܬܚܦܛܘ	-11.8137
▁ܕܪܥܝܢܝ	-11.8161
▁ܠܟܘܟܒ	-11.8161
▁ܡܚܒܠܢ	-11.8184
▁ܕܢܐܟܠ	-11.8253
ܚܒܘܫܝܐ	-11.8262
▁ܚܝܠܬܢܝ	-11.8266
ܢܕܥܘܢ	-11.8281
▁ܤܦܝ	-11.8287
ܕܘܒܪܝܟ	-11.8298
▁ܕܬܕܟܝܬ	-11.8301
ܓܥܠܘ	-11.8307
ܟܪܤܐ	-11.8308
▁ܠܡܬܒܘ	-11.8351
ܒܤܝܡܐܝܬ	-11.8352
ܝܠܐ	-11.8357
▁ܘܠܫܘܠܛܢ	-11.8362
▁ܘܚܝܠܬܢ	-11.8365
ܐܬܬܙܝܥܘ	-11.837
ܒܟܪܝܗܘܬ	-11.8371
▁ܡܒܪܟܝܢ	-11.8373
ܢܩܒܠܘܢ	-11.8375
▁ܕܐܠܦܢ	-11.8382
▁ܕܬܘܕܝܬ	-11.8384
▁ܥܛ	-11.842
▁ܦܨܝ	-11.8424
▁ܕܒܥܠ	-11.8426
▁ܘܠܒܢܝܟ	-11.8441
▁ܘܠܡܚܕ	-11.8443
ܫܪܓ	-11.8474
▁ܘܡܤܠܝ	-11.8476
▁ܘܢܪܩ	-11.8478
ܒܥܠܕܒܒܟ	-11.8497
ܕܛܪܘܦ	-11.8531
ܐܬܥܛܦ	-11.8531
ܟܝܟܐ	-11.8536
▁ܠܕܝܬܩ	-11.856
ܛܠܘܤ	-11.8577
ܬܐܟܠܘ	-11.8604
ܓܘܙܠ	-11.8681
▁ܩܛܝܠ	-11.8697
ܙܥܘ	-11.8701
▁ܕܒܛܘܫܝ	-11.871
▁ܕܬܬܓ	-11.872
ܠܠܘ	-11.8744
ܪܚܡܝܟܘܢ	-11.875
▁ܬܬܙܝܥ	-11.8764
ܪܕܝܢܢ	-11.8807
▁ܒܡܥܪ	-11.8817
▁ܠܚܡܝ	-11.8837
ܒܐܘܪܚܐ	-11.8887
ܨܪܬ	-11.8896
ܨܕܘ	-11.8921
▁ܨܠ	-11.8933
ܡܬܝܬܪ	-11.8939
ܐܡ	-11.8996
ܢܬܒܝܐܘܢ	-11.9004
ܢܙܕܗܪ	-11.9004
ܫܬܘܬܦܘ	-11.901
ܒܝܫܝܢ	-11.9028
▁ܘܐܡ	-11.9043
ܓܘܕܦܐ	-11.9118
ܫܘܘܕܝ	-11.9134
ܬܪܓܪܓ	-11.9135
ܡܬܢܒܝܢ	-11.9166
ܚܘܕ	-11.9175
ܒܥܝܗ	-11.9219
▁ܝܘܪ	-11.9228
ܪܢܝܢ	-11.9296
▁ܢܫܟܚܝ	-11.9355
ܕܡܤܒܪܝ	-11.9377
ܥܩܪܬܐ	-11.9403
▁ܐܡܪܬܝ	-11.9408
ܡܘܕܝܢ	-11.9414
▁ܠܩܕܝܫܘܬ	-11.9416
ܓܪܓܘ	-11.9496
▁ܕܪܥܝ	-11.9502
ܬܦܨܚܝ	-11.9522
ܡܬܚܙܐ	-11.9584
▁ܦܠܝܓ	-11.9586
▁ܠܬܫܡܫܬ	-11.9625
ܐܬܒܤܡܝ	-11.9627
▁ܘܢܤܬ	-11.9652
▁ܘܚܕܪܘܗ	-11.9662
ܐܘܪܫܠܡ	-11.9665
ܕܚܠܝ	-11.9668
▁ܦܘܠ	-11.9671
▁ܠܡܫܡܫ	-11.9672
ܬܒܥ	-11.9688
▁ܘܩܘܪܝ	-11.9701
▁ܐܘܚܕܘ	-11.9708
▁ܕܕܟܝ	-11.9712
▁ܕܡܙܕܡ	-11.972
▁ܘܫܘܩ	-11.9754
▁ܪܫܟ	-11.9778
▁ܘܡܫܬܡܥ	-11.9815
▁ܠܟܐܢܘܬ	-11.9818
ܙܠܝܢ	-11.9829
▁ܠܡܙ	-11.9835
ܐܡܠܟܬ	-11.9836
ܒܦܠܓ	-11.985
ܠܗܘܢ	-11.9851
ܡܤܠܝܐ	-11.9889
ܬܦܪܫ	-11.989
ܪܦܢ	-11.9894
ܬܚܦܛ	-11.991
▁ܚܘܫܒ	-11.992
▁ܕܢܬܝܕܥ	-11.9951
ܪܫܝܗܘܢ	-11.9962
▁ܕܝܩܝܪ	-11.9971
ܩܪܝܢܟܘܢ	-12.0051
ܐܬܒܠܥ	-12.0056
▁ܘܒܛ	-12.0062
▁ܫܠܝܡ	-12.007
▁ܢܟܪܙ	-12.0074
▁ܕܡܬܚܙܝ	-12.0112
▁ܠܚܒܪ	-12.0133
ܕܝܠܟܘܢ	-12.0134
▁ܘܢܦܪܫ	-12.0138
▁ܕܢܦܪܥ	-12.0143
ܕܟܪ	-12.015
▁ܘܡܩܘܝ	-12.0169
ܙܒܢܬ	-12.0178
ܢܦܫܗܘܢ	-12.0181
ܫܒܚܬ	-12.0215
ܤܓܝܐܐ	-12.0216
▁ܐܬܥ	-12.0285
▁ܘܫܒܘܗ	-12.0324
▁ܕܡܨܪ	-12.0368
ܚܝܝܟܘܢ	-12.0396
▁ܕܢܤܝܘܢ	-12.0401
ܠܡܢܐ	-12.0402
ܫܬܠܚܘ	-12.0463
▁ܡܙܥ	-12.0475
▁ܠܝܗܘ	-12.0475
ܫܚܠܦ	-12.0501
▁ܘܩܦ	-12.0511
ܬܟܤܝܬܐ	-12.0513
▁ܕܠܝܠ	-12.0535
ܢܦܨܝܢ	-12.0551
ܥܝܢܘܗܝ	-12.0556
ܬܐܤܝܘ	-12.0583
ܬܬܠܡܕ	-12.0612
▁ܠܙܒ	-12.0617
▁ܠܟܢܘܫܬ	-12.0634
▁ܠܩܕܝܫ	-12.0654
ܪܘܕ	-12.0655
▁ܠܪܓܠܝܟ	-12.0674
ܒܨܪ	-12.0678
▁ܐܬܡܠ	-12.0683
ܓܒܝܬܐ	-12.0699
ܫܥܒܕ	-12.072
ܪܟܝܢ	-12.0723
▁ܡܬܩܛ	-12.0727
ܤܝܡܬ	-12.0744
ܩܫܝܘܬ	-12.0746
ܐܟܐܝܐ	-12.0751
▁ܬܫܠܡ	-12.079
ܡܩܦܚ	-12.0791
▁ܡܬܩܢܝ	-12.0794
ܨܪ	-12.081
▁ܘܐܫ	-12.0812
▁ܒܪܬܟ	-12.0821
▁ܗܕܡܝܟ	-12.0831
ܤܘܥܪܢܗ	-12.0831
ܩܫܝܫܐ	-12.0853
ܐܙܕܕܩܬ	-12.09
ܤܩܘܢ	-12.0907
▁ܬܬܩ	-12.0918
▁ܘܕܐܚ	-12.0931
ܚܙܘ	-12.0949
ܝܓܬ	-12.0951
▁ܕܐܬܓ	-12.0963
▁ܘܡܬܩ	-12.0975
ܬܒܛܠ	-12.0976
▁ܕܡܘܠܕ	-12.0977
▁ܚܬܝܪܝ	-12.101
▁ܘܕܝܠܟ	-12.101
ܡܪܡܗ	-12.1078
▁ܒܡܕܥ	-12.11
ܡܠܝܬܘܢ	-12.112
ܚܤܝܪܘܬܗ	-12.1129
▁ܕܡܬܒܥܝ	-12.1135
ܬܓܠܙ	-12.1151
ܡܛܝܐ	-12.1157
▁ܕܤܒ	-12.1174
ܟܬܒܬ	-12.1183
ܠܡܕ	-12.1197
ܡܘܠܟܢܐ	-12.1244
▁ܘܢܡܠ	-12.1251
▁ܘܕܓ	-12.1254
ܢܬܦܢ	-12.1282
ܙܕܝܩܐ	-12.1288
ܡܤܟܢ	-12.1295
ܢܦܪܥܘܢ	-12.1312
ܢܗܪܟܘܢ	-12.1326
ܩܛܠܗ	-12.1367
▁ܘܐܬܥ	-12.1377
ܡܨܥܬ	-12.1379
▁ܟܬܪ	-12.1384
ܨܪܝ	-12.1471
ܤܢܝܩܝܢ	-12.15
▁ܘܓܙ	-12.1511
ܒܬܪܗ	-12.153
ܩܦܘܗܝ	-12.1539
▁ܕܚܘܒܟ	-12.1539
ܨܒܘܬܐ	-12.1547
ܓܪܟܘܢ	-12.156
ܢܛܪܬ	-12.1564
▁ܚܒܪ	-12.1628
▁ܘܫܠ	-12.1643
▁ܕܐܬܒܤܡ	-12.1708
ܦܢܩܝ	-12.1723
ܥܪܤܬܐ	-12.1725
▁ܬܩܝܦ	-12.1755
▁ܘܕܘܡ	-12.1804
▁ܘܐܗܦܟ	-12.1808
ܤܥܪܝ	-12.1896
ܚܫܚܬܝ	-12.1908
▁ܕܫܬܩ	-12.1915
ܐܪܥܢܝܐ	-12.1956
ܒܟܐܢܘܬܐ	-12.1964
▁ܕܥܩܒ	-12.1975
▁ܘܪܩܝ	-12.1976
ܨܘܕ	-12.1981
ܬܚܬܪܘ	-12.1982
▁ܠܡܟܝܟ	-12.2017
▁ܘܦܘܡܗ	-12.2024
▁ܢܬܒܪ	-12.2026
ܘܡܤ	-12.2026
ܫܠܝܐ	-12.2029
▁ܚܡܤܢ	-12.2041
▁ܒܫܘܒܚ	-12.2054
ܠܐܒܕܢܐ	-12.2061
▁ܕܝܪܬ	-12.2063
▁ܐܬܕ	-12.2066
▁ܕܬܬܥ	-12.2066
▁ܡܬܓܠ	-12.2084
▁ܕܐܪܟ	-12.2091
ܩܛ	-12.2101
ܠܝܘܦܐ	-12.2121
▁ܘܒܨܘ	-12.2132
▁ܡܕܟܝ	-12.215
ܪܒܝܬܗ	-12.2189
ܡܫܘܚܬܐ	-12.2217
▁ܕܪܓܝ	-12.2225
▁ܡܥܡ	-12.2235
▁ܕܡܨܪܝ	-12.224
▁ܕܢܬܪ	-12.2241
▁ܘܢܛܥ	-12.2259
ܥܙܝܙܐ	-12.226
ܓܠܘ	-12.2267
ܒܬܘܩܠܬ	-12.227
ܚܪܥܘܬܗܘܢ	-12.2285
▁ܘܢܐܠ	-12.2353
ܗܝܡܢܘܬܗ	-12.2373
ܚܛܦ	-12.2386
ܚܤܡ	-12.2403
▁ܠܚܨ	-12.245
ܨܝܕܐ	-12.245
▁ܨܐܕܝ	-12.2456
▁ܚܙܐܘܗ	-12.2459
ܩܝܡܢ	-12.2469
▁ܘܡܥܤ	-12.2477
▁ܢܦܤ	-12.2479
▁ܘܡܫܩ	-12.2487
ܪܥܝܬܗܘܢ	-12.2495
ܬܟܤܤ	-12.2497
▁ܘܛܘܪ	-12.2499
ܒܬܐܪܬܗܘܢ	-12.2504
ܒܛܢ	-12.2533
ܬܓܠܝܘ	-12.2549
▁ܘܬܪܥܝ	-12.256
▁ܕܚܒܪ	-12.26
ܩܒܪ	-12.262
▁ܘܒܙ	-12.263
ܠܡܤܟܢܐ	-12.2634
▁ܘܠܘܩ	-12.2641
ܥܡܕ	-12.2644
▁ܘܢܚܙ	-12.2666
▁ܟܘܪܤܝ	-12.2685
ܨܒܝܬܘܢ	-12.2688
ܓܪܝ	-12.2693
▁ܘܠܩܪܝܒ	-12.2694
ܬܬܕܝܫ	-12.2697
ܩܛܠܘܗܝ	-12.2706
▁ܘܬܫܟܚ	-12.2711
▁ܕܚܨ	-12.2719
ܒܥܘܪܠܘܬ	-12.2719
▁ܘܟܦܝ	-12.2744
ܥܒܝܕܝܢ	-12.2761
▁ܚܝܝܟ	-12.2762
ܬܚܫܒ	-12.2767
ܬܟܬܫ	-12.2769
▁ܕܡܬܐܠܨܝ	-12.2774
▁ܚܤܝ	-12.2793
▁ܕܒܛܝܒܘ	-12.2793
▁ܓܢ	-12.2801
ܟܐܢܘܬܐ	-12.2801
▁ܠܡܓ	-12.283
ܩܪܝܢܗ	-12.2901
ܬܟܠܬ	-12.2916
▁ܕܡܕܝܢܬܗ	-12.2917
ܤܝܡ	-12.2917
▁ܘܚܝܝ	-12.2927
ܦܩܕܟܘܢ	-12.293
▁ܘܐܡܠܠ	-12.2936
▁ܘܡܓ	-12.2936
ܐܢܢܩ	-12.2968
ܨܦܪ	-12.2974
ܐܒܪܗܡ	-12.3004
)	-12.4386
4	-12.4386
5	-12.4386
9	-12.4386
:	-12.4386
