<pad>	0
</s>	0
<unk>	0
,	-2.85859
▁	-3.36568
.	-3.83236
▁a	-3.8747
i	-4.033
m	-4.17968
a	-4.26034
u	-4.40491
▁v	-4.41435
r	-4.48968
ž	-4.51017
o	-4.51717
v	-4.55083
▁s	-4.61416
▁z	-4.6516
l	-4.66122
s	-4.70156
t	-4.70333
ch	-4.72763
▁se	-4.73001
e	-4.73668
á	-4.7399
▁na	-4.80688
k	-4.84372
d	-4.84524
í	-4.85937
▁k	-4.86262
▁po	-4.8923
z	-4.93105
p	-4.94679
h	-4.95111
y	-4.98039
▁A	-4.98145
š	-4.99775
b	-5.03869
ě	-5.08083
:	-5.12455
li	-5.142
te	-5.21236
ní	-5.23826
st	-5.32001
le	-5.36554
▁ne	-5.36646
j	-5.42432
ti	-5.42715
la	-5.45664
to	-5.4684
▁i	-5.49404
▁u	-5.49818
ni	-5.49949
ů	-5.53497
▁do	-5.53681
ť	-5.53755
▁vy	-5.57053
▁jeho	-5.5814
▁jest	-5.59778
ce	-5.62617
;	-5.62643
▁o	-5.62997
▁Hospodin	-5.63375
ho	-5.64472
▁za	-5.65162
ou	-5.65281
▁od	-5.65742
é	-5.67612
▁I	-5.69635
▁při	-5.70285
ra	-5.71017
▁že	-5.73095
ře	-5.73787
n	-5.73817
na	-5.74826
▁p	-5.75094
il	-5.75767
▁pak	-5.77071
ně	-5.77274
lo	-5.80251
▁m	-5.80864
em	-5.85437
č	-5.85684
▁by	-5.94234
▁to	-5.9656
▁aby	-5.98512
c	-6.00601
ná	-6.0271
▁jsem	-6.02894
▁řekl	-6.09415
ý	-6.10323
▁bude	-6.10335
ří	-6.10942
▁S	-6.11512
?	-6.11673
me	-6.14701
no	-6.14885
▁pro	-6.14953
en	-6.16382
ovi	-6.20077
dě	-6.20486
▁b	-6.20763
že	-6.21855
al	-6.24351
▁d	-6.24602
▁je	-6.25728
▁před	-6.26659
né	-6.27616
ko	-6.28864
ka	-6.29094
ku	-6.30812
▁tak	-6.31239
vá	-6.32349
▁byl	-6.32632
ne	-6.33507
▁své	-6.34811
▁jako	-6.36137
mu	-6.37587
▁ho	-6.38549
še	-6.38904
mi	-6.39172
an	-6.42975
▁když	-6.43568
▁jejich	-6.44229
ci	-6.4476
ma	-6.45284
at	-6.45465
lá	-6.47082
če	-6.48919
cí	-6.49899
▁roz	-6.50269
tě	-6.50542
ové	-6.5081
či	-6.52461
▁nebo	-6.52532
▁ob	-6.52673
▁kterýž	-6.53516
ř	-6.537
▁h	-6.54195
▁J	-6.54658
ze	-6.54802
je	-6.55092
▁kteříž	-6.55323
ví	-6.55895
▁mu	-6.56867
▁ve	-6.57428
ob	-6.57604
od	-6.58391
ší	-6.58693
▁tě	-6.59869
nu	-6.60253
▁O	-6.60836
po	-6.61835
da	-6.64244
▁jsou	-6.6442
▁K	-6.64734
lé	-6.66154
▁T	-6.67315
▁Nebo	-6.67541
▁mne	-6.67827
f	-6.68707
▁V	-6.69108
▁svého	-6.69961
za	-6.70605
▁lid	-6.7128
ky	-6.71842
ého	-6.72785
ud	-6.72805
▁B	-6.72977
lí	-6.7386
▁ji	-6.74138
ím	-6.74688
▁syn	-6.75362
ve	-6.75543
ili	-6.75638
▁toho	-6.75798
lu	-6.76806
el	-6.77014
▁Ne	-6.77319
tí	-6.79034
▁M	-6.80069
ost	-6.80334
ení	-6.81057
on	-6.81286
ta	-6.81673
▁ten	-6.82077
ný	-6.82114
mo	-6.83621
▁tvé	-6.83666
▁ale	-6.84902
ej	-6.8562
prav	-6.86491
dí	-6.86586
▁já	-6.86709
jí	-6.86798
br	-6.87003
▁jim	-6.87201
ád	-6.8753
▁jsi	-6.8818
ři	-6.88343
▁Bůh	-6.88659
▁obět	-6.88664
▁král	-6.89192
▁kteréž	-6.89395
▁proti	-6.89677
▁země	-6.89709
de	-6.89739
▁pod	-6.91711
ých	-6.91803
va	-6.92711
▁pře	-6.92751
▁jemu	-6.93834
di	-6.9466
▁zemi	-6.94958
▁vám	-6.95089
▁ty	-6.95532
ny	-6.96255
ova	-6.96489
uje	-6.96858
▁mi	-6.97011
▁také	-6.98437
▁nad	-7.00448
▁E	-7.01155
sa	-7.0138
▁má	-7.02525
ly	-7.02599
▁Z	-7.02648
▁tobě	-7.03259
▁budou	-7.03645
iáš	-7.03779
▁D	-7.03887
dá	-7.04226
▁P	-7.04653
ného	-7.05293
▁jej	-7.06329
ry	-7.06332
▁praví	-7.06519
ru	-7.07495
ají	-7.07624
nou	-7.07767
▁Tedy	-7.07792
ň	-7.07874
ed	-7.07892
ám	-7.07992
▁té	-7.10601
-	-7.11254
▁synů	-7.11846
oval	-7.1316
▁tr	-7.14089
▁David	-7.1493
▁byli	-7.15727
▁Ale	-7.16219
▁svou	-7.16327
er	-7.16704
šel	-7.16867
by	-7.17079
▁mé	-7.17414
▁pos	-7.1746
val	-7.17489
▁dne	-7.182
ad	-7.18469
▁domu	-7.18586
stav	-7.19109
▁Po	-7.20295
án	-7.20385
ali	-7.20655
vr	-7.21368
▁což	-7.21428
ům	-7.2161
iti	-7.21752
▁svých	-7.22737
▁až	-7.24846
ech	-7.253
▁svým	-7.25897
▁vás	-7.26462
ď	-7.26544
or	-7.26941
dy	-7.28143
▁pr	-7.28261
koli	-7.29309
ské	-7.29406
▁on	-7.29632
▁Boží	-7.30219
nost	-7.3062
ův	-7.30911
tá	-7.31301
▁Izraelský	-7.31731
▁pa	-7.31956
▁sobě	-7.32652
▁dá	-7.32682
ský	-7.32696
▁tu	-7.33207
▁os	-7.33723
▁Protož	-7.34576
▁R	-7.35893
▁Ježíš	-7.36104
▁vz	-7.3701
▁Izrael	-7.37122
▁Je	-7.38245
▁Jo	-7.38395
šli	-7.38618
ují	-7.38858
▁Boha	-7.38897
ovati	-7.39012
ovo	-7.39387
sti	-7.40048
▁bylo	-7.40114
mezi	-7.40215
▁pří	-7.41593
▁ani	-7.41622
▁dí	-7.42068
▁lidu	-7.42366
▁měst	-7.42644
▁jste	-7.43064
osti	-7.43923
▁ro	-7.44098
▁Mojžíš	-7.44729
jde	-7.44944
es	-7.45197
▁N	-7.45502
▁služebník	-7.45938
▁dal	-7.46047
as	-7.46321
ští	-7.46342
▁L	-7.46436
lad	-7.46957
▁Jeruzalém	-7.47161
▁všecky	-7.47161
▁můj	-7.47172
▁těch	-7.48259
▁mluvil	-7.48553
ství	-7.5038
▁národ	-7.50668
ání	-7.50871
▁člověk	-7.51693
▁cest	-7.51945
▁učinil	-7.5208
čí	-7.52282
▁tedy	-7.52365
▁synové	-7.52399
▁měl	-7.53116
▁Tak	-7.53161
ných	-7.53175
▁nás	-7.53398
▁den	-7.53786
▁všech	-7.54503
▁jeden	-7.5525
▁nich	-7.55525
▁ním	-7.55778
▁nev	-7.55927
ků	-7.56644
vedl	-7.57389
▁Hospodinu	-7.57874
▁krále	-7.58031
▁mně	-7.58462
▁oči	-7.58833
▁všickni	-7.58901
▁kteráž	-7.59178
vý	-7.59678
▁syna	-7.60013
ovali	-7.60157
▁kdo	-7.60464
▁jsme	-7.61282
▁její	-7.61405
▁jedno	-7.61857
▁řka	-7.62156
▁Pán	-7.62559
vše	-7.6324
▁něm	-7.63263
skrze	-7.63439
▁Na	-7.63787
ově	-7.64323
▁srdce	-7.64451
▁jí	-7.64474
▁Syn	-7.64482
▁všecko	-7.65332
▁Ma	-7.65986
▁slov	-7.66041
▁sta	-7.66236
▁soud	-7.67363
ým	-7.68522
▁zajisté	-7.68785
▁aniž	-7.68786
▁nebe	-7.69099
▁čas	-7.69722
▁něho	-7.69789
▁vod	-7.6981
)	-7.7048
▁nám	-7.70591
dlé	-7.71678
bil	-7.71738
kou	-7.71794
stup	-7.7199
▁To	-7.72905
tý	-7.72946
▁tvůj	-7.72998
▁byla	-7.73218
▁Pro	-7.7354
▁neb	-7.74123
ských	-7.74316
g	-7.75581
▁ta	-7.75748
▁dva	-7.75863
▁nej	-7.76363
▁Hospodina	-7.76743
▁Ch	-7.7773
▁co	-7.77852
▁tebe	-7.79078
▁věci	-7.7938
▁Aj	-7.80058
▁budu	-7.8062
dali	-7.8087
▁jich	-7.80922
▁živ	-7.8093
▁nebude	-7.81131
▁svému	-7.8147
▁sedm	-7.81791
ského	-7.82249
▁kdož	-7.82834
stal	-7.8316
▁tisíc	-7.83225
▁není	-7.83652
▁jakž	-7.84277
▁tam	-7.84726
▁bez	-7.8561
▁kterouž	-7.85908
▁města	-7.86045
▁tři	-7.86536
ejte	-7.86846
▁jméno	-7.87186
▁věc	-7.87296
▁každý	-7.8737
▁nepo	-7.87441
▁tvář	-7.87908
▁Se	-7.8799
▁více	-7.88619
▁boj	-7.88926
▁moc	-7.89728
▁hřích	-7.898
ská	-7.92001
▁bratří	-7.92272
▁prorok	-7.92278
▁prostřed	-7.92465
▁králi	-7.92769
ování	-7.9312
▁Když	-7.93245
▁sto	-7.93341
▁však	-7.9344
ným	-7.93558
▁dcer	-7.94499
▁nebyl	-7.95232
▁život	-7.95288
▁pokoj	-7.95399
▁vaše	-7.96118
▁pokolení	-7.96213
rátil	-7.9686
▁již	-7.96887
▁hlas	-7.97043
▁budeš	-7.97526
▁Bohu	-7.9763
mluv	-7.97815
▁tomu	-7.98172
▁hle	-7.98483
ových	-7.98534
▁aneb	-7.98935
dal	-7.99375
▁Vy	-7.99936
ložil	-8.00127
▁slou	-8.00536
▁protož	-8.00835
▁kněz	-8.01284
▁vol	-8.01393
▁Kdo	-8.01826
ovy	-8.02383
▁nyní	-8.02486
▁jenž	-8.03314
▁každé	-8.03509
▁němu	-8.03659
ovu	-8.04435
▁Egypt	-8.04619
▁otce	-8.04635
ó	-8.04814
▁rad	-8.04927
▁hor	-8.06293
▁Za	-8.06525
▁svět	-8.06593
▁Izraelské	-8.06992
▁tvá	-8.07675
▁modl	-8.07891
▁vaši	-8.08389
▁mou	-8.09304
▁dům	-8.09486
▁nez	-8.09761
▁stalo	-8.10086
▁let	-8.10116
▁přišel	-8.10867
▁Saul	-8.1092
slyšel	-8.11396
▁stř	-8.11571
▁tebou	-8.11613
▁býti	-8.11854
dělal	-8.12478
▁poslal	-8.12881
▁stran	-8.13354
▁Potom	-8.13522
▁ruku	-8.13527
▁mého	-8.13789
▁všem	-8.13906
▁oltář	-8.13985
▁svůj	-8.14225
▁knížat	-8.14466
▁meč	-8.14598
▁všelik	-8.14711
▁viděl	-8.14727
▁slovo	-8.15041
▁činil	-8.15202
vati	-8.15243
▁všecken	-8.15435
trh	-8.15495
▁mnou	-8.15573
▁Hospodinova	-8.15654
▁ještě	-8.15931
▁království	-8.16414
▁úst	-8.16907
▁hlav	-8.17966
▁Jak	-8.18102
▁jedn	-8.18384
▁řeč	-8.18386
▁místo	-8.19412
▁díl	-8.21453
▁čeled	-8.21464
▁bratr	-8.21727
▁Při	-8.21802
▁ruce	-8.22024
▁činí	-8.2339
▁zase	-8.23422
▁druhé	-8.24082
▁veliké	-8.24615
▁Jákob	-8.24881
ající	-8.25052
▁duch	-8.2578
▁abyste	-8.27137
▁nepravost	-8.28175
▁kněží	-8.28425
▁dobré	-8.2859
táhl	-8.28707
▁jak	-8.28872
▁smrt	-8.29942
▁tvých	-8.30103
▁věky	-8.30708
▁Aron	-8.30714
▁nic	-8.30954
▁vzal	-8.30957
▁všecka	-8.31522
věř	-8.31716
▁spravedliv	-8.31809
▁slyš	-8.32575
▁Kterýž	-8.33545
▁noh	-8.33764
▁vojsk	-8.34131
▁buď	-8.34728
jdou	-8.35151
▁veliký	-8.36509
▁spravedlnost	-8.37112
▁Zdaliž	-8.37114
▁měsíc	-8.37415
▁Žid	-8.3772
▁pět	-8.37876
pustil	-8.38042
ujte	-8.38389
stane	-8.38565
▁velmi	-8.39587
▁rukou	-8.40818
▁duše	-8.40832
▁sebe	-8.41358
▁přikázal	-8.4144
▁učiní	-8.41457
▁vůkol	-8.41757
nesl	-8.41886
▁čtyř	-8.42074
ován	-8.4302
věděl	-8.44449
▁Izraelští	-8.44495
ovým	-8.44531
▁dědictví	-8.44651
▁zákon	-8.45987
▁noc	-8.45989
▁Babylon	-8.46295
▁zástupů	-8.46296
▁nepřátel	-8.46628
mysl	-8.46845
▁Šalomoun	-8.47295
▁ruky	-8.47652
▁dvě	-8.47701
▁domě	-8.48151
▁Duch	-8.48351
bychom	-8.49747
▁anděl	-8.50027
▁hněv	-8.50285
chází	-8.5036
▁jísti	-8.50545
▁zápal	-8.51051
nější	-8.51695
▁milost	-8.52314
▁nádob	-8.52452
padl	-8.528
▁řkouce	-8.52805
▁Egyptské	-8.53475
▁množství	-8.53515
▁odpověděl	-8.53873
▁potom	-8.54128
▁tím	-8.55087
▁Bet	-8.55489
volal	-8.56345
▁svatý	-8.56419
▁Panovník	-8.56776
▁obyvatel	-8.56776
▁manžel	-8.56776
▁Farao	-8.57887
▁Jestliže	-8.57887
▁otců	-8.57888
▁Řekl	-8.59011
▁který	-8.59448
cházel	-8.60924
▁Odpověděl	-8.61297
▁milosrdenství	-8.61297
▁stál	-8.61442
▁umřel	-8.62076
▁mluví	-8.63375
▁svaté	-8.63655
▁míti	-8.63707
▁které	-8.64937
▁šest	-8.65168
▁dnů	-8.6525
▁první	-8.6525
▁nepři	-8.66052
▁Abraham	-8.66843
▁Bože	-8.66858
▁Že	-8.66883
práv	-8.67156
▁Jozef	-8.68486
▁bydlil	-8.68502
▁moře	-8.68626
▁Kristu	-8.69736
▁kdež	-8.70639
▁tvoji	-8.71427
▁všeho	-8.7151
▁chleb	-8.71873
▁mohl	-8.7276
▁jestliže	-8.73176
▁mnoho	-8.736
▁vesel	-8.73613
▁hned	-8.74916
▁kteréhož	-8.75345
Ž	-8.7574
▁žádný	-8.76233
▁shromáždění	-8.77583
▁Jozue	-8.77583
▁způsob	-8.78037
▁silný	-8.79616
▁spolu	-8.79889
▁prchlivost	-8.80341
▁všechněm	-8.81302
▁příbyt	-8.81331
▁zplodil	-8.82224
krát	-8.82427
▁svědectví	-8.827
▁chrám	-8.82704
▁otec	-8.83215
▁Judské	-8.83246
▁léta	-8.8393
▁tvým	-8.84148
▁bývá	-8.84149
▁tvou	-8.8415
▁Pane	-8.84652
▁Judský	-8.84658
▁mluviti	-8.85613
▁místě	-8.86099
▁Zákon	-8.861
▁postavil	-8.86181
▁Moáb	-8.86594
▁moudrost	-8.87591
▁poušti	-8.87593
▁příčin	-8.87712
▁pln	-8.88284
▁poněvadž	-8.88599
▁služebníci	-8.88599
▁dvanáct	-8.88599
▁jménu	-8.89106
▁Pročež	-8.89112
▁Jordán	-8.9013
▁ustanovení	-8.91684
▁oheň	-8.91684
▁srdci	-8.91685
▁starší	-8.9169
▁nešlechetn	-8.92207
▁krajin	-8.93263
▁kraloval	-8.93795
▁duši	-8.93797
▁přikázaní	-8.94329
▁stánku	-8.9433
▁Pakli	-8.95408
▁učiněn	-8.95954
Š	-9.05673
!	-9.27016
[	-9.65538
P	-9.66602
1	-9.84758
x	-9.98967
N	-10.1218
3	-10.2697
2	-10.354
A	-10.4121
4	-10.4954
J	-10.596
5	-10.8218
8	-11.0146
T	-11.024
0	-11.0581
9	-11.1512
6	-11.2012
M	-11.2198
S	-11.3342
7	-11.3682
E	-11.7861
I	-11.9972
V	-11.9972
O	-12.4313
Z	-12.4318
D	-12.4318
L	-13.2153
R	-13.2153
#	-14.7474
Ď	-14.7475
Ú	-14.7476
]	-14.7477
Ó	-14.7478
Č	-14.7479
Ř	-14.748
(	-14.7481
U	-14.7482
F	-14.7483
G	-14.7484
C	-14.7485
ú	-14.7486
K	-14.7487
B	-14.7488
Ý	-14.7489
H	-14.7489
Í	-14.7489
