<pad>	0
</s>	0
<unk>	0
¦	-1.29146
▁¦	-1.71269
▁	-2.87733
𐋇	-3.27575
ˈ	-3.37971
▁̈	-3.84911
▁,	-4.0792
ˈ¦	-4.20976
▁.	-4.48306
comam	-4.49835
naj	-4.76883
an	-4.80199
tu	-4.95071
ebnaj	-4.97742
yin	-4.98428
k	-5.05671
a	-5.20089
ha	-5.25568
ti	-5.25958
e	-5.2906
caw	-5.31175
xin	-5.35052
is	-5.40748
yul	-5.53069
anma	-5.53473
yu	-5.62693
hune	-5.62986
c	-5.68685
n	-5.69069
yet	-5.69702
o	-5.69754
ay	-5.70692
dios	-5.71543
tet	-5.77365
tzet	-5.78197
yeb	-5.81052
to	-5.89224
chi	-5.9626
mach	-6.01657
ta	-6.04446
▁:	-6.07671
isc	-6.09535
wal	-6.1016
ch	-6.10398
ẍi	-6.13794
ul	-6.16585
han	-6.17185
u	-6.22681
i	-6.23597
haca	-6.25928
al	-6.3523
mac	-6.38445
ni	-6.39909
ab	-6.40876
tz	-6.41241
jes	-6.42934
s	-6.44903
sunil	-6.45847
sat	-6.45914
en	-6.46012
he	-6.46244
yuto	-6.48224
ya	-6.49535
p	-6.50819
co	-6.51255
te	-6.514
yalni	-6.51504
in	-6.51597
yaj	-6.52174
tato	-6.53956
isk	-6.56089
yuxin	-6.56179
tx	-6.56587
ix	-6.57079
xa	-6.58468
yi	-6.5888
con	-6.61872
can	-6.65917
no	-6.66879
hac	-6.68201
on	-6.69185
y	-6.69639
ban	-6.70117
j	-6.73613
bey	-6.74422
isba	-6.75579
ek	-6.75644
cat	-6.76549
il	-6.77309
hunt	-6.79546
ob	-6.80278
ye	-6.85632
bal	-6.85942
,	-6.87254
lax	-6.8894
jan	-6.90957
hunu	-6.92307
bay	-6.92327
ma	-6.95989
yal	-6.97314
chu	-6.99269
cristo	-7.00388
paxo	-7.02567
ú	-7.02786
tic	-7.03491
cano	-7.06284
¿	-7.07276
oj	-7.08915
▁?	-7.1334
chal	-7.13396
ulal	-7.13624
machi	-7.18389
hex	-7.1937
lahwi	-7.21018
inal	-7.21636
lo	-7.2518
wi	-7.25499
xol	-7.26103
nan	-7.27435
yoc	-7.2866
ayco	-7.28962
chin	-7.30584
teyet	-7.32402
r	-7.35422
tzoti	-7.36154
watx	-7.37412
.	-7.39601
che	-7.39621
bil	-7.402
israel	-7.40682
we	-7.40792
oc	-7.41034
cha	-7.41172
ec	-7.43225
tan	-7.43413
ilo	-7.48336
wa	-7.48841
lan	-7.4904
yip	-7.50216
hey	-7.51598
b	-7.52103
mam	-7.53097
istx	-7.54457
ischejab	-7.54892
el	-7.55571
chiwal	-7.59204
yun	-7.60505
la	-7.6158
niman	-7.62746
ah	-7.66685
”	-7.67417
ojan	-7.70264
mo	-7.71308
na	-7.74342
matxa	-7.74509
ca	-7.75359
h	-7.76358
t	-7.77926
otx	-7.77974
ayto	-7.78473
ayic	-7.80618
ojal	-7.80708
tajil	-7.80846
ib	-7.81457
isya	-7.81807
iswi	-7.83485
hunun	-7.84621
taj	-7.85189
chex	-7.85495
ojab	-7.87012
atan	-7.88601
ton	-7.88917
je	-7.89175
ho	-7.89545
▁;	-7.89548
ja	-7.89602
w	-7.90458
yilni	-7.91172
yatut	-7.91509
haxa	-7.92222
ayo	-7.92331
yelapno	-7.92541
iswatx	-7.9345
heba	-7.94041
ic	-7.94449
ebix	-7.94654
yilal	-7.94956
ablo	-7.95245
munil	-7.96664
yahawil	-7.97517
xan	-7.97903
wet	-7.97965
ba	-7.99049
pax	-7.99989
hanin	-8.01798
espíritu	-8.01817
isto	-8.02602
ixim	-8.03069
yehi	-8.03324
istz	-8.03389
ista	-8.03884
ico	-8.03902
sata	-8.04475
yapni	-8.04922
xahan	-8.05247
é	-8.0532
ley	-8.05659
wan	-8.05962
texol	-8.06275
icham	-8.06771
isbi	-8.08197
ej	-8.0983
yel	-8.09943
maca	-8.10635
jet	-8.10879
cuywom	-8.10929
yaben	-8.11078
chiwa	-8.1111
ahol	-8.14977
chon	-8.1499
xaco	-8.15336
ex	-8.1558
as	-8.15675
chico	-8.16695
om	-8.16752
nabal	-8.17171
apni	-8.17257
quin	-8.17998
maẍto	-8.18274
le	-8.18444
és	-8.19001
howal	-8.19792
sa	-8.20109
x	-8.20365
anil	-8.20377
m	-8.21083
lahan	-8.21429
ap	-8.23184
hi	-8.23268
ju	-8.23852
chis	-8.24533
chia	-8.24829
¡	-8.2558
santo	-8.26091
win	-8.26684
edr	-8.2717
‐	-8.2717
cuybanile	-8.27911
juẍta	-8.2867
teyin	-8.29586
hach	-8.29811
l	-8.29931
matzwalil	-8.30016
▁!	-8.30273
wetan	-8.30892
choche	-8.31264
tom	-8.31473
haw	-8.31897
hec	-8.32313
li	-8.32851
ón	-8.33185
yah	-8.33338
yebpaxo	-8.33347
yinta	-8.33687
inan	-8.33923
canoj	-8.33956
yo	-8.34459
mi	-8.35097
jin	-8.35827
ismul	-8.36844
ismajul	-8.36879
maẍ	-8.37807
ángel	-8.38175
chah	-8.38613
lah	-8.39153
nich	-8.39365
yuninal	-8.40765
janma	-8.42933
juan	-8.43295
yeli	-8.43735
um	-8.44086
amben	-8.45245
cam	-8.45839
hun	-8.4677
yalnipaxo	-8.46955
babel	-8.47161
waxa	-8.49383
yechel	-8.51569
yahaw	-8.52507
xil	-8.53401
maẍtaj	-8.53674
hul	-8.5373
ac	-8.5504
quex	-8.55761
yec	-8.57537
camic	-8.57934
yay	-8.58413
paxoj	-8.58542
anmahil	-8.58605
ham	-8.59458
yan	-8.60408
bi	-8.60506
yanico	-8.61305
es	-8.61315
chiyij	-8.61658
chalni	-8.62211
chiswatx	-8.62329
rus	-8.62925
toj	-8.63494
hal	-8.63897
chioc	-8.63915
go	-8.64453
sacerdote	-8.64658
chiyu	-8.6477
am	-8.64834
eb	-8.64942
ra	-8.65093
col	-8.65113
tiempo	-8.65225
inc	-8.65329
nico	-8.65506
anxa	-8.6598
yohta	-8.66172
me	-8.66237
macta	-8.66376
f	-8.66403
colbanil	-8.67018
isnimanil	-8.67019
aypaxo	-8.67997
heyu	-8.68022
ayoj	-8.68995
wu	-8.70096
inti	-8.70199
coba	-8.70373
xiw	-8.70743
man	-8.71137
inmam	-8.71164
rey	-8.72651
isti	-8.73336
hunelxa	-8.73402
lin	-8.75368
iloj	-8.76362
yum	-8.76702
ar	-8.76885
winaj	-8.76915
cheyute	-8.7711
isyelal	-8.79735
z	-8.80018
wanma	-8.80641
cheyil	-8.80642
chito	-8.80958
jahawil	-8.81789
ehal	-8.81877
wuẍtaj	-8.82743
istzotel	-8.8301
camom	-8.83312
machojab	-8.83982
xahanbal	-8.8555
hunxa	-8.85737
nican	-8.86846
chihul	-8.87111
yil	-8.87352
bar	-8.88367
ayat	-8.89464
ist	-8.9029
cuywawom	-8.91216
chahni	-8.91746
ayical	-8.91748
machoj	-8.91827
chala	-8.91851
yije	-8.92312
cheya	-8.92696
pa	-8.9302
diosal	-8.93524
ayex	-8.93554
g	-8.94458
loj	-8.95479
laxi	-8.9593
yaco	-8.95975
yabe	-8.96759
mar	-8.97157
chute	-8.9777
yoj	-8.97857
yoche	-8.98092
lal	-8.98096
cach	-8.98249
yute	-8.98256
ayc	-8.98434
ule	-8.98494
tzujan	-8.9913
unin	-8.99588
beh	-8.99766
coc	-8.99834
preso	-8.99951
txahli	-9.0085
helanil	-9.00902
colwa	-9.0098
heya	-9.01354
ji	-9.01566
nipaxo	-9.0173
yaw	-9.01857
yeco	-9.01876
walni	-9.02239
chic	-9.02702
chiec	-9.02923
paxto	-9.03309
ach	-9.03821
hanic	-9.04063
tiempohal	-9.04635
wanab	-9.04748
wuh	-9.0485
oji	-9.05102
fariseo	-9.05936
chitit	-9.06365
bilxa	-9.06592
camo	-9.06674
hunel	-9.06742
nito	-9.07069
xe	-9.08188
ebilcano	-9.08426
melyu	-9.08619
anc	-9.09288
chejab	-9.10006
ebil	-9.10311
obal	-9.1038
xinto	-9.10563
hunuxa	-9.10751
itzitz	-9.11213
chaco	-9.11521
ismi	-9.1159
ip	-9.11674
at	-9.1174
chul	-9.12064
culus	-9.13245
í	-9.14098
elo	-9.14754
heyalni	-9.1489
iscam	-9.15243
ocan	-9.157
lek	-9.15975
ías	-9.17953
saj	-9.18514
len	-9.1892
tzotel	-9.19474
em	-9.1973
sic	-9.19913
cancano	-9.21354
chija	-9.21978
soldado	-9.22162
chihalni	-9.22351
aj	-9.22801
tzalahilal	-9.23204
chisje	-9.23409
yulaj	-9.23645
yila	-9.2397
yixal	-9.24343
aybal	-9.25184
conimanil	-9.25321
canico	-9.2585
anico	-9.26296
istoholal	-9.26527
itz	-9.26757
ij	-9.26891
yijem	-9.2692
niẍte	-9.27482
sim	-9.27705
juẍtaj	-9.27795
nilo	-9.27907
chil	-9.27961
nicano	-9.2808
yetbi	-9.2821
chischah	-9.28347
haba	-9.28636
cuy	-9.28655
woc	-9.2887
wah	-9.29012
muj	-9.29734
heyohta	-9.31142
si	-9.31302
wintaj	-9.31705
aban	-9.31913
selel	-9.31962
jichmam	-9.32007
nime	-9.32299
wohtaj	-9.32328
yichico	-9.32416
cuyni	-9.32552
á	-9.32601
utxba	-9.33601
itzitzbi	-9.34215
tzujno	-9.34264
ambe	-9.34426
hawu	-9.34437
isbej	-9.34534
istiempohal	-9.34871
ría	-9.35389
inalo	-9.36479
ulo	-9.36665
oht	-9.3698
q	-9.36993
chiwoche	-9.37837
chim	-9.37904
yuẍta	-9.38005
tzalah	-9.38109
chijal	-9.3885
ayicto	-9.3915
chaẍ	-9.39319
chitz	-9.39516
gali	-9.40291
carta	-9.40316
ilni	-9.40507
enilo	-9.406
chawal	-9.40733
herod	-9.4154
taxca	-9.41611
poh	-9.41663
aco	-9.41867
laxcan	-9.41938
tzala	-9.42258
ayilo	-9.42324
wej	-9.42675
ispaj	-9.42808
isyeni	-9.42883
huno	-9.42892
lea	-9.43588
alom	-9.43977
anayo	-9.44068
paxico	-9.44234
wilni	-9.44436
inba	-9.44928
tawin	-9.45337
mule	-9.4546
nahat	-9.45501
ischahni	-9.45617
bel	-9.46206
tit	-9.46364
ilwe	-9.46668
roma	-9.46708
aycano	-9.47176
mil	-9.47216
ahto	-9.4729
pila	-9.47306
nino	-9.47368
yilax	-9.47415
chitzala	-9.47535
jilni	-9.48171
án	-9.48434
chiapni	-9.48996
ispi	-9.49761
ilcha	-9.50153
bilin	-9.5021
chawa	-9.5038
chiel	-9.5042
potx	-9.50535
cablah	-9.50767
hil	-9.50795
capilla	-9.50838
xewi	-9.5093
yijni	-9.51668
caj	-9.5194
jalni	-9.52615
chip	-9.53445
ixnam	-9.53556
jacob	-9.53557
chach	-9.53687
halni	-9.54324
machiswalil	-9.54983
pulta	-9.54994
chielico	-9.55078
wip	-9.55138
chihallax	-9.55159
istohol	-9.5522
yinito	-9.55277
chejbanile	-9.55365
cheyal	-9.5558
heyohtaj	-9.55963
isbeybal	-9.56462
mohyi	-9.56662
cheyaco	-9.5685
cheyala	-9.57098
johtaj	-9.57176
issaj	-9.57303
titna	-9.58289
way	-9.58742
abr	-9.58927
chicam	-9.59213
ayojab	-9.60193
isyijen	-9.6058
alaxico	-9.61381
majan	-9.62416
tri	-9.62449
jos	-9.62468
chitzotel	-9.63414
ahil	-9.63623
cachan	-9.63862
tohol	-9.63994
ismay	-9.64032
hum	-9.64878
masant	-9.65202
munlawom	-9.65599
ischuquil	-9.65599
yawten	-9.65614
issay	-9.66632
hawalni	-9.66785
hitzico	-9.67076
abxubal	-9.67212
walex	-9.68248
halbilcano	-9.68855
chijil	-9.68897
lomal	-9.68963
munlah	-9.69359
yalno	-9.69391
weco	-9.70466
coxol	-9.70582
yabil	-9.7204
xic	-9.72134
apno	-9.72979
yunin	-9.73631
jabe	-9.73924
islahobal	-9.73937
echma	-9.74068
jahno	-9.75693
oxeb	-9.75694
tioẍ	-9.75695
yichamil	-9.75721
ás	-9.75937
ayayo	-9.76065
canilo	-9.76212
munla	-9.76449
quexchi	-9.76566
heyehi	-9.76577
ẍ	-9.766
oro	-9.77174
chabe	-9.77524
comon	-9.77565
chiq	-9.77864
wican	-9.77955
techa	-9.77984
cawxo	-9.78146
johta	-9.78648
asi	-9.79061
chislo	-9.7965
chisyije	-9.79982
insata	-9.80183
ispotx	-9.80679
meltzo	-9.80699
comul	-9.81152
ischejni	-9.81214
tohla	-9.81214
ismeltzo	-9.81601
helan	-9.82562
hetxumni	-9.83034
trato	-9.83046
hujeb	-9.83051
iscawil	-9.83087
ayinic	-9.83095
etoj	-9.84132
huj	-9.84957
buch	-9.8498
iscawxi	-9.85126
cuybanil	-9.85269
lto	-9.85736
istxumni	-9.86091
bejtzo	-9.86484
istit	-9.88203
camoj	-9.88583
meẍa	-9.88919
subchaho	-9.88929
chejn	-9.88989
isyenilo	-9.90352
ejholo	-9.90958
chicawxi	-9.90959
chitxumcha	-9.91111
ischejbanil	-9.91125
tzotelo	-9.91486
?	-9.91596
quil	-9.91739
xu	-9.92755
cua	-9.92782
mulum	-9.93043
yicta	-9.94007
cheyabe	-9.94487
wabe	-9.95038
hallax	-9.95122
awtebil	-9.95169
haltebil	-9.95186
bé	-9.95537
belwi	-9.9572
heyanico	-9.95933
yanayto	-9.96014
berna	-9.97343
chicolwa	-9.98019
hajlo	-9.99661
heyijen	-9.9967
elico	-9.99854
waben	-9.99952
chiitzitzbi	-10.0006
chimunla	-10.0017
chawil	-10.0051
tzeh	-10.0062
chintoh	-10.0081
que	-10.0147
payxa	-10.0185
chiocnico	-10.0191
elip	-10.0198
jehi	-10.0208
halwe	-10.0209
cuar	-10.0424
yohtajo	-10.0569
etza	-10.0612
circuncisión	-10.0654
naba	-10.0671
cheyoche	-10.0673
chexoc	-10.0718
yeniloj	-10.0805
ichmam	-10.084
elicoj	-10.0842
istxum	-10.0861
fes	-10.0906
cuywi	-10.0918
how	-10.0994
isnani	-10.1015
chijoche	-10.1148
erto	-10.1151
iscolni	-10.1155
egi	-10.1164
hechahni	-10.1257
iscuywa	-10.1405
binaho	-10.1405
intoh	-10.141
txiquin	-10.1418
wohta	-10.1511
colchah	-10.1577
ó	-10.1785
;	-10.8713
!	-11.3819
’	-11.7755
(	-12.085
)	-12.085
‘	-13.3678
v	-13.3679
“	-13.368
―	-13.3681
:	-13.3682
d	-13.3683
ñ	-13.3684
̈	-13.3684
