<pad>	0
</s>	0
<unk>	0
▁¦	-0
▁።	-1
▁፥	-2
▁፤	-3
እን	-4
ንም	-5
ቸው	-6
አብ	-7
እግ	-8
ሔር	-9
እግዚ	-10
እግዚአብ	-11
እግዚአብሔር	-12
ንድ	-13
ወደ	-14
ሁሉ	-15
ነበ	-16
ርሱ	-17
ችሁ	-18
እንደ	-19
ነው	-20
አለ	-21
የሚ	-22
እስ	-23
ነገ	-24
አን	-25
ላይ	-26
ዘንድ	-27
እነ	-28
ለሁ	-29
እርሱ	-30
እንዲ	-31
ስለ	-32
ኤል	-33
ግን	-34
አል	-35
ውን	-36
ድር	-37
▁?	-38
ትን	-39
እኔ	-40
ትም	-41
መን	-42
ዎች	-43
ሰው	-44
ጊዜ	-45
የተ	-46
ልጆ	-47
አም	-48
ዚህ	-49
አይ	-50
ነገር	-51
እስራ	-52
ውም	-53
እስራኤል	-54
ምን	-55
ንጉ	-56
ልጆች	-57
ጋር	-58
መል	-59
ልጅ	-60
ይህ	-61
እና	-62
ነበር	-63
ዚያ	-64
ሕዝ	-65
በት	-66
ምድር	-67
ርስ	-68
ከተ	-69
አንተ	-70
ደረ	-71
ሪያ	-72
አት	-73
ነበረ	-74
ያስ	-75
ችን	-76
እንዲህ	-77
ለም	-78
አምላ	-79
ፊት	-80
ላቸው	-81
ሰማ	-82
እንዳ	-83
ደር	-84
ለው	-85
ያን	-86
ኢየ	-87
ስም	-88
መጣ	-89
ሆነ	-90
ዋል	-91
ድረ	-92
ሆን	-93
ንተ	-94
ቤት	-95
ላችሁ	-96
እርሱም	-97
ለት	-98
ወይ	-99
ጌታ	-100
ቃል	-101
ንና	-102
እነርሱ	-103
እናንተ	-104
በአ	-105
ላል	-106
በመ	-107
እጅ	-108
ተኛ	-109
ናገ	-110
ቀን	-111
ደግ	-112
ድን	-113
መለ	-114
አስ	-115
ሥራ	-116
ነት	-117
ሠራ	-118
እግዚአብሔርም	-119
ቸውም	-120
ሆይ	-121
ለህ	-122
ደግሞ	-123
ቶች	-124
ስጥ	-125
ቱም	-126
ይሁ	-127
ስት	-128
አባ	-129
በዚያ	-130
ሰዎች	-131
እነሆ	-132
ወጣ	-133
ብር	-134
በእ	-135
ወር	-136
ህን	-137
ሆና	-138
ለች	-139
አንድ	-140
የም	-141
አለው	-142
ንጉሥ	-143
የእግዚአብሔር	-144
ብሎ	-145
ገባ	-146
ነበሩ	-147
ልና	-148
ንጉሡ	-149
አምላክ	-150
ድረስ	-151
ወንድ	-152
በሰ	-153
ህም	-154
ቸውን	-155
ዳዊ	-156
ተቀ	-157
ቱን	-158
ካከ	-159
ኃጢ	-160
ዓመ	-161
እስከ	-162
ፍራ	-163
አገ	-164
ውስጥ	-165
ዳን	-166
ግብ	-167
ያለ	-168
ያው	-169
ኋላ	-170
ይወ	-171
አድር	-172
ችኋ	-173
ይላል	-174
ሳሌ	-175
ናቸው	-176
ተው	-177
በል	-178
ደስ	-179
ርም	-180
ሕዝቡ	-181
ኢየሱ	-182
መንገ	-183
የእስራኤል	-184
ምም	-185
ነሣ	-186
ባት	-187
መጡ	-188
ሉት	-189
ባሪያ	-190
በእግዚአብሔር	-191
ድም	-192
በታ	-193
ከተማ	-194
ውያን	-195
በኋላ	-196
ሕዝብ	-197
ይሆና	-198
ቀር	-199
ልም	-200
ትና	-201
ፈር	-202
ስለዚህ	-203
መካከ	-204
አሳ	-205
አላ	-206
ብዙ	-207
በር	-208
ወገ	-209
የሚያ	-210
ምና	-211
ነፍ	-212
በተ	-213
ችም	-214
ሙሴ	-215
ይሁዳ	-216
ደረገ	-217
የአ	-218
ልን	-219
ልብ	-220
ካህ	-221
የማ	-222
እነርሱም	-223
መስ	-224
ስን	-225
ኢየሩ	-226
ውንም	-227
ኢየሩሳሌ	-228
መካከል	-229
ከፍ	-230
እነዚህ	-231
ወይም	-232
ዛብ	-233
መጥ	-234
ማን	-235
ይህን	-236
በላ	-237
ሕዛብ	-238
በረ	-239
ሁለት	-240
ሰጠ	-241
አው	-242
ዓመት	-243
በም	-244
ሁለ	-245
መልካ	-246
ቤቱ	-247
ኢዮ	-248
ክፉ	-249
ቹም	-250
ወን	-251
ቻቸው	-252
ራት	-253
ዓይ	-254
ጠፋ	-255
ለመ	-256
ዋዕ	-257
ስፍራ	-258
በደ	-259
እንዲሁ	-260
በው	-261
እንግ	-262
እኔም	-263
እርስ	-264
ሥዋዕ	-265
አታ	-266
ተናገ	-267
ረው	-268
አሁ	-269
ፍር	-270
መሥዋዕ	-271
ታላ	-272
አይደ	-273
ገለ	-274
ይል	-275
ንን	-276
አቸው	-277
ክርስ	-278
ቢያ	-279
ይሆናል	-280
ኞች	-281
ርያ	-282
ጠብ	-283
ማል	-284
ዋም	-285
መቶ	-286
እኛ	-287
ርባ	-288
ዘላ	-289
እግዚአብሔርን	-290
ናት	-291
ገና	-292
አላቸው	-293
ሞች	-294
ሆኑ	-295
ለማ	-296
በሚ	-297
ራራ	-298
ዲህ	-299
ባል	-300
ታል	-301
ወለ	-302
የመ	-303
እንጂ	-304
ዘላለም	-305
መንገድ	-306
ገብ	-307
አለቆ	-308
ዋለሁ	-309
ሮች	-310
ቀረ	-311
ለን	-312
ይሰ	-313
ያል	-314
መንፈ	-315
ግሥ	-316
ድቅ	-317
ሰማይ	-318
ያደር	-319
ታው	-320
ክርስቶ	-321
ሳት	-322
ኢየሱስ	-323
ኢየሩሳሌም	-324
መሰ	-325
ብን	-326
እጅግ	-327
ባቸው	-328
በዚህ	-329
በምድር	-330
ጠላ	-331
በዚያም	-332
ሥጋ	-333
ሩት	-334
መጠ	-335
የሰ	-336
ለእግዚአብሔር	-337
ተኛው	-338
አሕዛብ	-339
ለሚ	-340
ጠራ	-341
ባለ	-342
ሠራዊ	-343
ቅር	-344
ሕይወ	-345
ሆነው	-346
መሥዋዕት	-347
ነኝ	-348
ውኃ	-349
ጀራ	-350
ሌላ	-351
ምስ	-352
እው	-353
ቅዱ	-354
በማ	-355
ቸዋል	-356
የእግዚአብሔርን	-357
መልካም	-358
በእስራኤል	-359
ብም	-360
ስድ	-361
በግ	-362
ሥር	-363
እንደሚ	-364
ዋን	-365
ፍሬ	-366
ብት	-367
ታቸው	-368
ዴት	-369
ቀድ	-370
ኃጢአት	-371
ተነ	-372
አልና	-373
ለምን	-374
ዳዊት	-375
ሩም	-376
አቤቱ	-377
የምት	-378
ክርስቶስ	-379
በፊ	-380
ጀም	-381
ታችሁ	-382
ብላ	-383
ነውና	-384
ኑም	-385
ቶቻ	-386
እንግዲህ	-387
ሺህ	-388
በጎ	-389
አምላካ	-390
ከራ	-391
ኢያ	-392
ሃለሁ	-393
መረ	-394
ወሰ	-395
ገደ	-396
ፈል	-397
በራ	-398
በየ	-399
ከአ	-400
ዘመን	-401
ፈረ	-402
ከዚያ	-403
ክር	-404
ኃጢአ	-405
አገር	-406
ከእርሱ	-407
አለቃ	-408
ቅም	-409
ወጡ	-410
ሄደ	-411
ቃጠ	-412
ተሰ	-413
ዛሬ	-414
አንዱ	-415
በሉ	-416
እንዳይ	-417
ያም	-418
አጠ	-419
ክት	-420
ወጥ	-421
ንጉሡም	-422
መንግሥ	-423
ታት	-424
ወዳ	-425
ችኋለሁ	-426
ፈራ	-427
ባሕ	-428
በዳ	-429
ቱንም	-430
አለቆች	-431
እንዲህም	-432
ከሚ	-433
እንድ	-434
ድንጋ	-435
በስ	-436
ያዕ	-437
ወለደ	-438
አደረገ	-439
ቹን	-440
ያዕቆ	-441
መና	-442
ወስ	-443
ሦስት	-444
ዶች	-445
ይሁን	-446
እዛ	-447
አሉ	-448
ከን	-449
ሃል	-450
ላም	-451
ሠዊ	-452
ይፍ	-453
ኖች	-454
ራቸው	-455
መቅ	-456
¦	-457
▁	-458
ን	-459
ም	-460
አ	-461
በ	-462
እ	-463
ር	-464
ው	-465
ል	-466
ት	-467
ለ	-468
ስ	-469
የ	-470
ይ	-471
።	-472
ነ	-473
መ	-474
ደ	-475
፥	-476
ብ	-477
ና	-478
ች	-479
ድ	-480
ተ	-481
ያ	-482
ከ	-483
ሁ	-484
ግ	-485
ላ	-486
ወ	-487
ህ	-488
ሰ	-489
ገ	-490
ራ	-491
፤	-492
ረ	-493
ባ	-494
ታ	-495
ዚ	-496
ሉ	-497
ማ	-498
ቸ	-499
ቀ	-500
ጠ	-501
ዘ	-502
ዳ	-503
ፍ	-504
ሆ	-505
ሱ	-506
ሔ	-507
ሳ	-508
ቅ	-509
ክ	-510
ጥ	-511
ሚ	-512
ዋ	-513
ፈ	-514
ቱ	-515
ሩ	-516
ጋ	-517
ጣ	-518
ሥ	-519
ቶ	-520
ሞ	-521
ቃ	-522
ሕ	-523
ካ	-524
ዲ	-525
ኤ	-526
ዝ	-527
ዓ	-528
ቤ	-529
ጅ	-530
ኛ	-531
ጉ	-532
ዛ	-533
ኝ	-534
ዎ	-535
ሌ	-536
ሎ	-537
ኑ	-538
ኔ	-539
ጆ	-540
ሙ	-541
ሮ	-542
ፋ	-543
ዱ	-544
ጊ	-545
ቢ	-546
ሴ	-547
ኢ	-548
ኖ	-549
?	-550
ፊ	-551
ሠ	-552
ሪ	-553
ዜ	-554
ቡ	-555
ዕ	-556
ቻ	-557
ዊ	-558
ቆ	-559
ሽ	-560
ጡ	-561
ዮ	-562
ኃ	-563
ጽ	-564
ቹ	-565
ኋ	-566
ጌ	-567
ሬ	-568
ዙ	-569
ቁ	-570
ሃ	-571
ሊ	-572
ዶ	-573
ሐ	-574
ሸ	-575
ቴ	-576
ሄ	-577
ፉ	-578
ጀ	-579
ሣ	-580
ጸ	-581
ሶ	-582
ሲ	-583
ጢ	-584
ሜ	-585
ሡ	-586
ሻ	-587
ጨ	-588
ዩ	-589
ጎ	-590
ኪ	-591
ጻ	-592
ቍ	-593
ኩ	-594
ቦ	-595
ጭ	-596
ኞ	-597
ዬ	-598
ዴ	-599
ኮ	-600
ጃ	-601
ቈ	-602
ሦ	-603
ጁ	-604
ቼ	-605
ፎ	-606
ቂ	-607
ፅ	-608
ጦ	-609
ጕ	-610
ኳ	-611
ኅ	-612
ኸ	-613
ዖ	-614
ኵ	-615
ጫ	-616
ሺ	-617
ጂ	-618
ኦ	-619
ሀ	-620
ጐ	-621
ኘ	-622
ዞ	-623
ኬ	-624
ፀ	-625
ጹ	-626
ጮ	-627
ጄ	-628
ጓ	-629
ዔ	-630
ፌ	-631
ሹ	-632
ሾ	-633
ቄ	-634
ቲ	-635
ፃ	-636
ሂ	-637
ኒ	-638
ቺ	-639
ኙ	-640
ቋ	-641
ጳ	-642
!	-643
ኰ	-644
ዐ	-645
ኣ	-646
ጩ	-647
ጤ	-648
ጴ	-649
ዌ	-650
ኀ	-651
ዉ	-652
ዑ	-653
ፁ	-654
ሤ	-655
ኹ	-656
ጾ	-657
ዣ	-658
ሖ	-659
ዥ	-660
ጵ	-661
ኽ	-662
ፆ	-663
ኜ	-664
ኻ	-665
ጪ	-666
ጲ	-667
ሑ	-668
ኆ	-669
ዪ	-670
ዒ	-671
a	-672
ሒ	-673
ሼ	-674
ዠ	-675
ጶ	-676
w	-677
ዢ	-678
ኡ	-679
ኚ	-680
ጼ	-681
ጺ	-682
𐋇	-683
ጬ	-684
k	-685
ዦ	-686
ዤ	-687
ሢ	-688
ቾ	-689
ሓ	-690
ዡ	-691
ፄ	-692
𐊣	-693
𐊼	-694
g	-695
ኄ	-696
r	-697
d	-698
ኾ	-699
ጰ	-700
ጱ	-701
ቧ	-702
ፔ	-703
ፕ	-704
t	-705
ኺ	-706
*	-707
1	-708
v	-709
"	-710
l	-711
ሷ	-712
ፐ	-713
ፓ	-714
2	-715
s	-716
3	-717
[	-718
]	-719
o	-720
ፑ	-721
ፒ	-722
(	-723
)	-724
-	-725
5	-726
e	-727
ቊ	-728
ዷ	-729
ፂ	-730
0	-731
4	-732
@	-733
b	-734
m	-735
u	-736
ሏ	-737
ቷ	-738
ቿ	-739
ኗ	-740
ኟ	-741
ኲ	-742
ኼ	-743
ጒ	-744
ጧ	-745
ፏ	-746
