<pad>	0
</s>	0
<unk>	0
¦	-1.37933
▁¦	-1.37957
▁.	-3.81222
ال	-3.85154
ا	-3.95033
ة	-4.20606
و	-4.29181
ي	-4.46435
ت	-4.69951
ه	-4.71309
وا	-4.86918
في	-4.906
ع	-4.9552
من	-4.95932
ف	-4.99617
ك	-5.00104
ب	-5.00301
ى	-5.08811
ل	-5.18024
ون	-5.26858
ان	-5.36805
م	-5.40545
ّ	-5.4273
لى	-5.53477
الرب	-5.62575
ين	-5.63363
ن	-5.7794
كل	-5.80488
لا	-5.81845
هم	-5.82169
د	-5.86807
ها	-6.01626
ج	-6.18382
الذي	-6.20975
ر	-6.25092
ما	-6.25118
نا	-6.27045
كم	-6.28024
لل	-6.31145
يا	-6.31339
س	-6.31743
وال	-6.33597
قد	-6.40952
ش	-6.47628
اسرائيل	-6.50147
لي	-6.50866
ح	-6.54858
لم	-6.56027
هذا	-6.63921
ولا	-6.64131
وي	-6.64223
ص	-6.64787
ق	-6.67089
الله	-6.68031
له	-6.6836
أ	-6.7062
هو	-6.70946
ذا	-6.73371
عن	-6.78071
اء	-6.79079
خ	-6.81273
ير	-6.83072
الارض	-6.83957
بن	-6.84165
ز	-6.85496
بيت	-6.86101
مع	-6.86167
رب	-6.86234
التي	-6.87469
جميع	-6.89415
ار	-6.91221
لان	-6.9277
فقال	-6.94685
الم	-6.96844
ملك	-6.97358
ته	-6.97656
بال	-6.99029
يضا	-7.0029
وت	-7.0148
ط	-7.02102
بني	-7.04043
كان	-7.07741
ام	-7.09275
وقال	-7.11137
وع	-7.11571
انا	-7.12498
ات	-7.1513
الملك	-7.15649
ث	-7.16374
ني	-7.17326
بل	-7.1802
قال	-7.18971
عند	-7.19355
ض	-7.19618
ذلك	-7.20294
واحد	-7.20329
لانه	-7.22947
امام	-7.23391
هنا	-7.23627
به	-7.25061
ذه	-7.2941
اود	-7.30722
فا	-7.31392
ثم	-7.31934
ذين	-7.3282
ارض	-7.33245
ول	-7.34229
مت	-7.34306
اذا	-7.34471
كذا	-7.35196
لهم	-7.35736
وه	-7.36307
وب	-7.36922
عل	-7.37032
غ	-7.37228
ئ	-7.3775
ور	-7.37878
يد	-7.39422
وكان	-7.39844
يهو	-7.40926
حت	-7.41649
ابن	-7.42055
تم	-7.42352
يسو	-7.45461
اليوم	-7.46617
مر	-7.48252
ايام	-7.50271
لك	-7.50755
الشعب	-7.50758
وم	-7.51392
كما	-7.51479
فت	-7.52755
موس	-7.52962
بعد	-7.54222
يكون	-7.54643
وكل	-7.54928
انت	-7.56252
ليس	-7.56781
مدين	-7.59417
قائلا	-7.59625
ء	-7.60192
شي	-7.60948
اور	-7.61026
بين	-7.61036
حسب	-7.6125
تك	-7.62196
تر	-7.62976
عليه	-7.63471
انه	-7.63477
كلام	-7.63484
عشر	-7.64511
شليم	-7.66046
ذهب	-7.66053
اد	-7.66091
وس	-7.66496
عمل	-7.66789
رجل	-7.67435
يم	-7.69876
يقول	-7.70724
تي	-7.71201
ومن	-7.71289
ولكن	-7.71753
كلم	-7.71954
اب	-7.74954
بنو	-7.75417
ولم	-7.76466
واما	-7.76569
حين	-7.76576
اني	-7.78062
عد	-7.78572
سا	-7.7899
شعب	-7.79222
لكي	-7.79514
لكم	-7.79516
دم	-7.80717
هي	-7.81481
كثير	-7.81995
ذ	-7.82685
او	-7.82701
بر	-7.83015
حي	-7.83055
يت	-7.84215
يس	-7.84239
ابي	-7.85248
وفي	-7.85355
سن	-7.86321
سمع	-7.86509
وان	-7.87558
مئ	-7.87667
مصر	-7.88386
آ	-7.89407
سر	-7.89722
را	-7.90463
اذ	-7.90983
وق	-7.91406
ست	-7.93548
احد	-7.93873
اس	-7.94362
يوم	-7.94387
مسيح	-7.95392
لت	-7.95828
يل	-7.96013
حر	-7.97127
اجل	-7.97875
يق	-7.98381
صوت	-7.98505
مثل	-7.9949
تهم	-7.99894
فان	-7.99965
قبل	-8.00424
اله	-8.01169
صل	-8.04116
يها	-8.0464
جر	-8.04735
فر	-8.0522
عبد	-8.05998
وسط	-8.06106
الآن	-8.06945
مس	-8.07325
سماء	-8.07615
ود	-8.07774
ثلاث	-8.08099
رأ	-8.08914
رجال	-8.09004
بي	-8.09894
صنع	-8.09902
اق	-8.10114
تكون	-8.10722
امم	-8.1191
هما	-8.12051
جعل	-8.12594
تكلم	-8.1314
اي	-8.13414
بها	-8.1361
سبع	-8.14985
وح	-8.14991
قائل	-8.14996
ضرب	-8.15047
تها	-8.16468
يف	-8.17254
وجه	-8.17534
نار	-8.17663
صار	-8.17917
تن	-8.19068
اح	-8.19989
است	-8.20151
مجد	-8.20453
انسان	-8.20545
اما	-8.2075
جمع	-8.20785
وش	-8.2096
معه	-8.21234
ظ	-8.21707
قدس	-8.22507
جاء	-8.2254
علي	-8.22639
عظيم	-8.22878
ولما	-8.23214
فيه	-8.23831
فلا	-8.2418
شر	-8.24265
كر	-8.24419
تقدم	-8.25898
فم	-8.26234
قل	-8.27105
لاجل	-8.28579
ولد	-8.28944
لاني	-8.29061
اخ	-8.29298
فعل	-8.29951
انتم	-8.3052
امر	-8.30564
تحت	-8.30853
اليه	-8.30976
ؤل	-8.31667
الانسان	-8.31953
عز	-8.32307
يعقوب	-8.32633
سيف	-8.3308
فرح	-8.33222
وهو	-8.3324
هل	-8.33288
وك	-8.33377
يش	-8.33589
ضع	-8.33773
رؤساء	-8.33835
بك	-8.34139
قدام	-8.34356
سكن	-8.34818
الشر	-8.34913
اربع	-8.36112
يين	-8.36237
ارسل	-8.36343
فل	-8.36346
فن	-8.36361
سي	-8.36418
قطع	-8.36737
طريق	-8.36901
سب	-8.37506
بيد	-8.37657
ماء	-8.3817
رجع	-8.39102
راس	-8.39245
قت	-8.39784
رئيس	-8.39814
دخل	-8.39925
طلب	-8.40087
صعد	-8.40153
الكاهن	-8.40303
ؤ	-8.40386
قي	-8.40477
رفع	-8.40778
خل	-8.40978
فلما	-8.41043
رج	-8.41114
از	-8.4119
غير	-8.41205
حص	-8.41289
در	-8.41291
صر	-8.41292
لد	-8.41323
عيني	-8.41559
عر	-8.42379
شاو	-8.42387
جه	-8.42587
بد	-8.43001
باب	-8.43052
شا	-8.43137
قو	-8.43312
قب	-8.4365
غضب	-8.44291
عبر	-8.44501
حق	-8.44591
جب	-8.44836
آخر	-8.45026
جدا	-8.4529
روح	-8.4533
حا	-8.45609
أت	-8.45895
لها	-8.46339
هرون	-8.46959
نحو	-8.47215
قر	-8.47266
كنت	-8.47287
اخذ	-8.48095
بعض	-8.48408
خارج	-8.48671
طي	-8.48891
البيت	-8.48979
ترك	-8.4918
واذا	-8.49214
خدم	-8.49529
الابد	-8.49653
فض	-8.49759
لنا	-8.50035
نزل	-8.50082
البحر	-8.50116
ابرا	-8.50672
الهك	-8.50828
وجد	-8.50836
قلب	-8.50868
نعم	-8.51067
الرجل	-8.51119
نحن	-8.51645
الكهن	-8.51827
وراء	-8.51881
تلك	-8.52294
اط	-8.5293
امرأ	-8.53167
غل	-8.53981
قا	-8.54003
حسن	-8.54137
السيد	-8.54395
فلم	-8.54553
آبائ	-8.5487
لانهم	-8.54887
الق	-8.55567
قتل	-8.55916
بت	-8.56481
مد	-8.56928
سل	-8.57089
نفسه	-8.57124
مض	-8.5808
نجس	-8.58244
خر	-8.58527
قام	-8.58578
بابل	-8.58844
ملوك	-8.59111
كانوا	-8.59287
كن	-8.5935
عرف	-8.59484
اص	-8.59507
قول	-8.59736
اخي	-8.59877
يده	-8.60326
حكم	-8.60913
سم	-8.60939
كتب	-8.61222
الناس	-8.61295
قم	-8.61891
عليهم	-8.61946
وقد	-8.62681
لحم	-8.63322
سليمان	-8.63779
مل	-8.6399
هيم	-8.64125
بق	-8.64241
سأل	-8.64583
رد	-8.64884
فرع	-8.65055
يسمع	-8.65361
ذكر	-8.65647
كانت	-8.65857
خيم	-8.66022
وها	-8.66227
عهد	-8.66245
عنه	-8.66522
بار	-8.66818
خذ	-8.67053
عظم	-8.67148
عين	-8.68054
قدم	-8.68279
علم	-8.68429
ثان	-8.68451
وج	-8.68629
مدن	-8.68632
عليك	-8.68657
شعوب	-8.68803
الروح	-8.69245
مح	-8.69442
جبل	-8.69695
خمس	-8.69804
لجنود	-8.69864
ئذ	-8.6998
دفع	-8.70109
سلام	-8.70594
فاجاب	-8.70807
نفسي	-8.7089
قص	-8.70916
الحق	-8.71249
خبر	-8.71274
لما	-8.71628
خرج	-8.71638
خت	-8.7196
ابا	-8.7202
نظر	-8.72122
موت	-8.72135
ابنه	-8.72396
صف	-8.72593
اليهود	-8.72727
مش	-8.72771
مياه	-8.731
كثر	-8.73164
لن	-8.73232
رحم	-8.73322
خير	-8.73479
وهم	-8.7353
فق	-8.73636
يكن	-8.73776
طلق	-8.73806
جد	-8.74
الفلسطيني	-8.74079
حول	-8.74641
اسمه	-8.74691
دعو	-8.75112
سموات	-8.75547
أمر	-8.75639
السن	-8.75658
وص	-8.75695
سقط	-8.76401
لكن	-8.7648
رت	-8.76622
اخرج	-8.76955
صب	-8.77276
غنم	-8.7736
يح	-8.77666
بقي	-8.78224
دين	-8.78277
خطي	-8.78306
ريح	-8.78908
صي	-8.79005
بارك	-8.79118
ايمان	-8.79147
نفسك	-8.79195
سار	-8.79358
اعط	-8.79674
ئيل	-8.79896
وط	-8.79936
فوق	-8.79961
ويكون	-8.80013
اللاوي	-8.80288
ذبيح	-8.80457
ذبح	-8.81026
نفس	-8.81089
رسل	-8.81132
وز	-8.81309
حيا	-8.81467
جل	-8.81507
حد	-8.82375
ذراع	-8.82413
قيم	-8.82923
سيد	-8.83032
فهم	-8.83423
يدي	-8.83636
رق	-8.83638
اذهب	-8.83662
قوم	-8.83968
اقول	-8.84458
وسف	-8.84645
تين	-8.84934
آله	-8.85094
مكان	-8.85565
حمل	-8.85574
اكثر	-8.85863
اسم	-8.86032
سبط	-8.86392
وجميع	-8.86831
زيت	-8.86862
محب	-8.86885
اعمال	-8.8693
خبز	-8.87093
نس	-8.87124
غر	-8.87153
شق	-8.87185
لانك	-8.87311
بكر	-8.87828
الاول	-8.88284
اليك	-8.88309
وقت	-8.88548
يأتي	-8.88759
يز	-8.88961
واخذ	-8.89023
حيث	-8.89072
اسمع	-8.8911
وانا	-8.89161
رم	-8.89721
البري	-8.90329
شوع	-8.90451
حن	-8.91064
جن	-8.91188
قسم	-8.91347
ئلا	-8.91374
سلم	-8.91433
رأيت	-8.91514
قض	-8.91531
تكم	-8.91828
ملاك	-8.92435
فتح	-8.92672
بط	-8.93126
يعطي	-8.93313
محرق	-8.93499
يخرج	-8.93641
حفظ	-8.94122
تقول	-8.94134
منه	-8.94145
سيدي	-8.94466
جلس	-8.94471
صرخ	-8.9498
انذا	-8.95243
حل	-8.95257
قلوب	-8.95653
اخو	-8.96107
قط	-8.96446
المذبح	-8.96646
مكتوب	-8.96711
ظهر	-8.96899
اولاد	-8.96934
شد	-8.97303
اخوته	-8.97614
وبنو	-8.98027
صور	-8.98067
بيته	-8.98238
عبيد	-8.98322
وني	-8.98544
يعمل	-8.9855
تعب	-8.98797
دار	-8.98835
ثبت	-8.98838
كرم	-8.99026
كسر	-8.99031
سك	-8.99157
رح	-8.99208
يه	-8.99672
هرب	-9.00133
قلت	-9.00251
وليس	-9.00255
بغض	-9.00396
اثم	-9.00409
نق	-9.00661
خمر	-9.00924
وانت	-9.01267
عي	-9.01904
معك	-9.01924
بقر	-9.02072
وعشر	-9.0227
نج	-9.02314
بيوت	-9.02368
شف	-9.0239
انظر	-9.02533
باسم	-9.02669
صالح	-9.02692
ثمر	-9.03326
عود	-9.03475
وضع	-9.03551
الجب	-9.03836
جز	-9.04061
انك	-9.04668
خرب	-9.04925
منهم	-9.0508
انبياء	-9.05235
طر	-9.05268
حارب	-9.0543
شرب	-9.05764
عاد	-9.05894
سكان	-9.06002
موآب	-9.06003
يعرف	-9.0616
كون	-9.06289
نساء	-9.06446
الطريق	-9.06513
سبي	-9.06974
خاف	-9.07211
اردن	-9.07285
نهار	-9.07298
يعلم	-9.07396
ثور	-9.0766
تابوت	-9.07743
موضع	-9.07752
ابيه	-9.08258
خلاص	-9.08304
وما	-9.08409
شرق	-9.08429
ولس	-9.0872
رام	-9.09009
قدر	-9.09068
نحاس	-9.09299
جيش	-9.09409
طا	-9.09528
فكان	-9.09736
الشهر	-9.10224
جسد	-9.10281
الموت	-9.10282
العالم	-9.10461
المرأ	-9.10782
اياه	-9.10902
وث	-9.10968
يأكل	-9.11202
يدك	-9.11246
شيئا	-9.11273
شريع	-9.11615
مات	-9.11656
سمعت	-9.11825
شيوخ	-9.11916
ولي	-9.11974
يدخل	-9.12295
وأ	-9.1235
الحقل	-9.12537
لبني	-9.12784
مسكن	-9.1291
والآن	-9.13149
وعمل	-9.13185
الفا	-9.13297
اهل	-9.13649
مست	-9.13779
قلبه	-9.14044
لح	-9.14047
اخر	-9.14267
ارام	-9.14409
قليل	-9.1461
طرق	-9.14856
بلا	-9.14962
رؤوس	-9.15113
نور	-9.15138
افرايم	-9.15625
حجر	-9.15982
حلف	-9.16044
تعمل	-9.16212
معي	-9.16271
احب	-9.16341
غط	-9.16507
بنيامين	-9.16734
يقتل	-9.171
اصعد	-9.17327
نصيب	-9.17363
سفر	-9.17543
وصايا	-9.17785
طرح	-9.17833
خلص	-9.1814
هيكل	-9.18213
النبي	-9.18265
الثاني	-9.19025
عبدك	-9.19141
لست	-9.19187
كذلك	-9.19283
مالك	-9.19392
البر	-9.19491
بري	-9.1958
ابواب	-9.20002
سلا	-9.20047
تخم	-9.20232
سير	-9.20559
مقدس	-9.20595
لبس	-9.20712
شبع	-9.20898
يفعل	-9.21001
وجاء	-9.21121
طرد	-9.21126
صباح	-9.21321
خطايا	-9.2135
طف	-9.2139
وادي	-9.21608
جانب	-9.21713
ذل	-9.2177
الهكم	-9.21816
امه	-9.21821
اعطي	-9.21916
وكانت	-9.21988
اليكم	-9.22024
يتكلم	-9.22077
الليل	-9.22239
نزع	-9.22428
الفض	-9.22465
بنت	-9.22526
تني	-9.22537
معا	-9.22542
منذ	-9.22593
زن	-9.22593
وخمس	-9.22663
امور	-9.22741
لوم	-9.2276
وزن	-9.22861
يمين	-9.23252
حدث	-9.23503
بكل	-9.23522
وكلم	-9.23523
حجار	-9.23616
ثق	-9.23809
ائه	-9.24182
ظلم	-9.24334
طرس	-9.24497
اخت	-9.24646
الباب	-9.24708
كذب	-9.24801
ضيق	-9.25093
اعدائ	-9.25501
وخ	-9.25515
العظيم	-9.25939
بهم	-9.25961
وجعل	-9.26091
اخبر	-9.26354
ساكن	-9.26802
قريب	-9.26807
فانه	-9.27089
الشمس	-9.27247
الجبل	-9.27275
آلا	-9.27319
صدق	-9.27461
بشر	-9.27469
عني	-9.27493
معهم	-9.27546
لكل	-9.27665
عليكم	-9.27777
الناموس	-9.2852
اثني	-9.28602
صهي	-9.28603
اشرار	-9.29107
وذهب	-9.29201
بعل	-9.29521
خي	-9.29524
انهم	-9.29642
يطلب	-9.29792
والم	-9.29854
وبعد	-9.2994
واقف	-9.29992
سلك	-9.30206
الآب	-9.30345
يئيل	-9.30763
قوا	-9.31028
تأكل	-9.31126
رث	-9.31175
وصي	-9.31293
وضرب	-9.3156
اجتماع	-9.31636
غريب	-9.31648
جالس	-9.32039
راح	-9.32303
موئيل	-9.32304
انفسهم	-9.32391
ردي	-9.32429
زوج	-9.32484
كور	-9.32592
واعط	-9.32605
آتي	-9.32905
باطل	-9.33059
الشرير	-9.33234
اجر	-9.33358
ابنا	-9.33643
وملك	-9.33681
فس	-9.3392
ائر	-9.33975
مسح	-9.34029
إ	-9.34241
لبن	-9.34272
تعلم	-9.34274
شهاد	-9.34286
تعد	-9.34629
مذبح	-9.34652
ابني	-9.34706
اشور	-9.34956
يموت	-9.35501
وقف	-9.35529
فرائض	-9.3557
كرسي	-9.35656
ولدت	-9.35795
بنات	-9.35852
ويل	-9.36018
الاخو	-9.362
افعل	-9.36207
يدع	-9.36524
الواحد	-9.36764
تصنع	-9.36902
اثنا	-9.36937
ليد	-9.36998
زرع	-9.37035
ابو	-9.37099
ثياب	-9.37646
تسمع	-9.37707
مطر	-9.37782
سور	-9.3782
وقل	-9.38682
وارسل	-9.3871
فاخذ	-9.38746
جلعاد	-9.38995
قلبك	-9.3903
ونها	-9.39059
وثلاث	-9.39226
عار	-9.39348
فارسل	-9.39839
شهد	-9.39923
آب	-9.40101
عزر	-9.40131
اعين	-9.4023
وجهه	-9.40476
تنا	-9.4086
يأخذ	-9.40906
عشير	-9.41115
طعام	-9.41174
يصنع	-9.41185
ارمي	-9.41504
خيل	-9.41527
عبيده	-9.41722
الهي	-9.41754
تلاميذه	-9.41917
زمان	-9.4208
كهن	-9.42136
الثالث	-9.42494
خشب	-9.4265
مساء	-9.43054
سنين	-9.43113
اخطأ	-9.43215
عوض	-9.43353
فخرج	-9.43956
معرف	-9.44377
دور	-9.44455
رجلا	-9.4451
سبت	-9.44649
سلطان	-9.44674
اجتمع	-9.44674
غش	-9.44745
دفن	-9.44842
داخل	-9.45395
ارجع	-9.45415
رض	-9.45416
احكام	-9.45425
غن	-9.4552
خزي	-9.45796
كثيرا	-9.46079
حزقيا	-9.46145
قلبي	-9.4617
الجسد	-9.46171
يوحنا	-9.46173
تعرف	-9.46221
آباء	-9.46252
فجاء	-9.46252
طوب	-9.46376
عدد	-9.46478
ملكوت	-9.46644
شعبه	-9.46782
عرض	-9.46927
اذن	-9.46985
نصف	-9.4722
عمون	-9.47436
فخ	-9.4745
بعيد	-9.47566
ووضع	-9.47593
الشمال	-9.47648
آم	-9.47687
أليس	-9.47742
شجر	-9.47908
فهو	-9.48075
لانكم	-9.48106
اجي	-9.48196
راسه	-9.48467
مملك	-9.485
ادوم	-9.48914
ايل	-9.48915
غي	-9.48915
قاد	-9.48928
الدم	-9.48986
حور	-9.49151
تنبأ	-9.49172
انكم	-9.49217
منس	-9.49226
اسحق	-9.49242
حما	-9.49317
شار	-9.49394
فضل	-9.49413
الصد	-9.49438
حرب	-9.49492
عصا	-9.49665
ملأ	-9.4973
يونا	-9.49868
الحرب	-9.49879
ذي	-9.50148
سجد	-9.50163
ظل	-9.50209
طول	-9.50435
قرع	-9.50793
دائم	-9.50937
ونزل	-9.51458
السابع	-9.51489
كتاب	-9.51583
برك	-9.5164
عيون	-9.51645
فقالت	-9.51677
صخر	-9.51933
تكن	-9.52044
مستقيم	-9.52302
زر	-9.52667
جلد	-9.52921
اعطيت	-9.52976
الذهب	-9.53119
مرد	-9.53551
يرجع	-9.53581
الجماع	-9.53861
السامر	-9.53897
انفس	-9.54232
يقدر	-9.54237
أما	-9.5427
شهو	-9.54588
سحاب	-9.54686
يوجد	-9.54696
جماع	-9.54745
باش	-9.54819
شهر	-9.54872
اعطاه	-9.5499
صغير	-9.55137
ذنب	-9.55143
فعلت	-9.55255
بهائم	-9.55549
اعلم	-9.55903
امرأت	-9.55965
اوص	-9.56279
بسبب	-9.5634
شرا	-9.56857
ميت	-9.56942
الساكن	-9.57269
اقام	-9.5728
نوح	-9.57306
يقولون	-9.57353
خبزا	-9.57368
ياء	-9.57503
المحل	-9.5823
غلام	-9.58248
عمله	-9.58525
لسان	-9.5856
مز	-9.58847
الامر	-9.59131
معكم	-9.59204
اجاب	-9.59221
يجد	-9.59306
النهر	-9.59359
حمد	-9.59703
وخرج	-9.59938
سخط	-9.59984
ابدي	-9.60426
ميراث	-9.60517
اليهم	-9.60627
السلام	-9.61175
كبش	-9.61194
بما	-9.61265
وصل	-9.61342
الجنوب	-9.61378
سق	-9.61489
المدن	-9.61589
فقام	-9.61863
اسمك	-9.62035
شاقل	-9.62412
ابشا	-9.62514
خوف	-9.62906
آني	-9.62913
يربع	-9.62952
ذبائح	-9.6312
الوقت	-9.63164
تفعل	-9.63233
جاد	-9.63445
شبه	-9.63641
حيوان	-9.63877
وآب	-9.64108
ثماني	-9.64121
وبين	-9.64247
اجعل	-9.6425
ائي	-9.64266
عيد	-9.6431
وجوه	-9.64371
واجعل	-9.64581
رنم	-9.6461
وأت	-9.64666
حمي	-9.64706
اضطجع	-9.64897
كبير	-9.65
جديد	-9.65067
نطق	-9.65141
قضاء	-9.65145
وتكون	-9.65361
مرض	-9.65428
حث	-9.65448
واربع	-9.65687
ايدي	-9.65768
حكيم	-9.65819
الخطي	-9.65845
جند	-9.65847
باد	-9.65872
قدوس	-9.65998
طم	-9.66216
يقوم	-9.6626
يصعد	-9.66299
آمن	-9.66536
شعر	-9.66581
الاثم	-9.66602
عجل	-9.66966
فاني	-9.67039
حلق	-9.67072
غسل	-9.67108
ومات	-9.67438
تعلمون	-9.67496
حز	-9.67621
ابتدأ	-9.67626
صرف	-9.67747
اموات	-9.67766
زم	-9.67828
أن	-9.68644
واسم	-9.68807
واذ	-9.68864
حزن	-9.69308
المصري	-9.69446
ضح	-9.69486
صاعد	-9.69505
فيكون	-9.696
جاز	-9.6975
عثر	-9.6976
واقام	-9.69798
واست	-9.69862
الحيا	-9.69891
وحده	-9.69962
وعد	-9.70067
مزم	-9.70489
فاط	-9.70686
آسا	-9.70704
قوي	-9.7105
اسباط	-9.71387
تسلط	-9.71412
قبر	-9.71413
وسبع	-9.7142
ثيابه	-9.71554
الحكم	-9.72325
للملك	-9.72373
رعا	-9.72518
حضر	-9.72589
تعط	-9.72968
مبارك	-9.73026
ثوب	-9.73205
صاحبه	-9.73399
تخرج	-9.73448
الدهر	-9.73691
ودعا	-9.73756
سكب	-9.73817
فقط	-9.74006
عينا	-9.74038
فرس	-9.7419
اشت	-9.74359
حديد	-9.74467
تقو	-9.74489
تأتي	-9.74793
ايليا	-9.7484
نسل	-9.74981
خيرا	-9.74993
سكر	-9.74998
جعلت	-9.75142
لنفسه	-9.7518
مركبات	-9.75377
ونني	-9.75436
عينيه	-9.75585
امان	-9.7564
ودخل	-9.75789
فرق	-9.75879
مكانه	-9.75932
ضد	-9.75961
ائل	-9.76014
ضل	-9.76077
وانتم	-9.76418
تدخل	-9.76549
وهي	-9.76573
الآخر	-9.76628
غفر	-9.76658
واخبر	-9.7682
كامل	-9.76968
كنعان	-9.77068
عظام	-9.77307
حواليه	-9.77397
صانع	-9.77416
الظلم	-9.77486
شاء	-9.77741
يعط	-9.77799
تحفظ	-9.77832
يتها	-9.78087
تلاميذ	-9.78116
اسمي	-9.78168
قضي	-9.78203
قربان	-9.78211
غني	-9.7822
جمهور	-9.78315
الرابع	-9.78316
خطئ	-9.78316
اذرع	-9.78335
بئر	-9.78338
جيد	-9.7838
تكلمت	-9.78602
كبر	-9.78666
المقدس	-9.78763
يهويا	-9.78887
امسك	-9.78907
ايديهم	-9.78921
مقابل	-9.79348
بحسب	-9.79364
خرجت	-9.7993
سحق	-9.80491
قرب	-9.80563
خروف	-9.80592
وصعد	-9.80703
شحم	-9.80751
كنتم	-9.80891
يحب	-9.81244
عبيدك	-9.81443
داني	-9.81663
يحفظ	-9.81749
المغن	-9.82129
تاج	-9.82208
تقر	-9.82724
علين	-9.82887
عامل	-9.83141
وست	-9.83305
وحش	-9.83544
يشرب	-9.83674
طاهر	-9.83687
قري	-9.83707
تصير	-9.83715
كرام	-9.83724
ووقف	-9.83794
رمل	-9.83902
ذو	-9.84195
ليكن	-9.84361
يحمل	-9.84655
وسجد	-9.84684
اقداس	-9.84721
عمود	-9.84805
نبو	-9.8483
وبنات	-9.84975
الغرب	-9.85113
رؤ	-9.85242
كروب	-9.85623
ملائك	-9.85789
نذر	-9.85805
يوآ	-9.85882
رفض	-9.859
اسد	-9.86158
نبي	-9.86694
شمعي	-9.86865
الفريسي	-9.86876
ارتحل	-9.86884
تسع	-9.86894
رأوبين	-9.86921
طهر	-9.86959
هلاك	-9.86999
خمسين	-9.87294
صرت	-9.87392
مكر	-9.87603
خراب	-9.8772
بطن	-9.8776
ائم	-9.88228
يهلك	-9.88762
تموه	-9.88787
حلم	-9.88891
نهاي	-9.88974
فأت	-9.89244
يضع	-9.89246
نير	-9.89353
عشائرهم	-9.89423
تاكل	-9.89587
بجانب	-9.89877
عجائب	-9.90285
يسقط	-9.90377
ربنا	-9.90433
منظر	-9.90514
فقلت	-9.9099
ضايق	-9.91163
فكر	-9.91259
ساق	-9.91389
محل	-9.91422
تخوم	-9.9148
خجل	-9.91529
بغي	-9.91618
داع	-9.91791
حض	-9.91901
انقذ	-9.91938
وقتل	-9.92001
صنعت	-9.9244
مرار	-9.92815
اؤه	-9.93016
يهوش	-9.93107
اصر	-9.93341
فدخل	-9.93372
ائد	-9.93381
الكلداني	-9.93829
خاصم	-9.9384
صحيح	-9.93928
الاموري	-9.94536
ركب	-9.95095
ائهم	-9.9523
فتخر	-9.95308
رجاء	-9.95456
هدي	-9.95662
فدعا	-9.95667
يرد	-9.95939
قفر	-9.95956
قرون	-9.96222
اصنام	-9.96252
بأس	-9.96352
ثام	-9.96467
تنظر	-9.97044
حبل	-9.97316
ترس	-9.97509
مرتفعات	-9.97553
جاري	-9.97706
حامل	-9.97777
قيل	-9.97808
محرقات	-9.97839
صاحب	-9.97899
ينظر	-9.98129
الغد	-9.98424
تدع	-9.98452
تأخذ	-9.98807
نفوس	-9.98872
دعي	-9.98902
طس	-9.98926
ابصر	-9.99448
كاهن	-9.99515
غنيم	-9.9964
بالحق	-9.99666
فصح	-9.9993
شيطان	-9.99998
حبيب	-10.0007
جئت	-10.0012
يديه	-10.002
تذكر	-10.003
قود	-10.0056
دعا	-10.0072
تعال	-10.0073
ميخا	-10.0128
حبرون	-10.0129
عصي	-10.014
آباؤ	-10.0141
اقوال	-10.015
سائر	-10.0207
نازل	-10.0242
اصغ	-10.0262
بتهج	-10.0262
ارز	-10.0265
كلمات	-10.0268
مشور	-10.0285
خراف	-10.0287
امير	-10.0304
ابناء	-10.0305
ياتي	-10.0306
لعام	-10.0308
مدخل	-10.0314
رجم	-10.0314
مريم	-10.0326
تعطي	-10.0356
نهب	-10.0389
الجليل	-10.0389
دقيق	-10.039
الباقي	-10.0398
كنيس	-10.0403
كشف	-10.0415
طيور	-10.0424
قاتل	-10.0441
سجن	-10.0448
سرور	-10.0449
مجي	-10.0511
عشب	-10.0552
حيات	-10.0557
بطل	-10.0564
بسط	-10.0567
حكماء	-10.0649
دخول	-10.0659
شاهد	-10.0672
حراس	-10.0683
رؤيا	-10.0683
طلع	-10.0695
جمال	-10.0698
خروج	-10.0703
حقل	-10.0737
طار	-10.0739
تخف	-10.0767
تسبيح	-10.0797
ظلام	-10.0867
نجاس	-10.0885
انجيل	-10.0938
حاز	-10.0953
شديد	-10.0954
قائم	-10.0984
نصب	-10.0988
داب	-10.0989
غرس	-10.1005
ظن	-10.1006
أخذ	-10.1045
نسلك	-10.1066
اراضي	-10.1074
افكار	-10.1075
بخور	-10.1076
تشدد	-10.1077
آيات	-10.1099
عابر	-10.1106
جاع	-10.1144
تضرع	-10.122
القديس	-10.1221
غز	-10.1239
الكنعاني	-10.1251
شكر	-10.1268
حفر	-10.1303
فريض	-10.1362
مائد	-10.1368
مسكين	-10.1376
دهن	-10.1441
فسد	-10.146
سريع	-10.1517
مديان	-10.152
شفتي	-10.1521
اعمد	-10.1569
غيظ	-10.1573
باع	-10.1614
لستم	-10.162
عشائر	-10.1621
برص	-10.1621
شكيم	-10.1661
جبابر	-10.1663
تعليم	-10.1672
قيام	-10.1674
طالب	-10.1681
حنط	-10.1692
غدا	-10.1713
فأخذ	-10.173
حاكم	-10.1784
اراد	-10.1787
اصاب	-10.1808
أعطي	-10.1811
يؤمن	-10.1833
رداء	-10.1868
لئك	-10.1881
اخوتك	-10.195
خزائن	-10.1963
حائط	-10.1963
المعدود	-10.1963
رائح	-10.1963
السفين	-10.1964
الصبي	-10.1986
زكري	-10.1994
نهر	-10.1996
صراخ	-10.2001
راعي	-10.2071
جموع	-10.2122
رجليه	-10.214
اختار	-10.2154
قرض	-10.217
يونان	-10.2213
يجي	-10.2246
مركب	-10.2259
آخذ	-10.2298
ثرو	-10.2361
قاس	-10.2361
رحمته	-10.2368
رفق	-10.2416
الخامس	-10.244
امتلأ	-10.2442
حصاد	-10.2481
تشت	-10.2603
حافظ	-10.2604
افواه	-10.2608
دمشق	-10.2627
العدل	-10.2664
اشتر	-10.2766
غلمان	-10.2779
مؤمن	-10.2787
حمار	-10.2804
نبوخذن	-10.294
اصحاب	-10.2941
رآه	-10.2944
فرغ	-10.3004
اسرع	-10.3017
قاوم	-10.3025
علام	-10.3027
رعب	-10.3075
اطفال	-10.3081
يستطيع	-10.3112
ارتفع	-10.3114
قرأ	-10.3114
بيض	-10.3118
ألعل	-10.3122
اعداء	-10.3123
لابس	-10.3156
خطا	-10.3236
ركض	-10.3254
انتظر	-10.3288
آذان	-10.3289
قائد	-10.3302
تجار	-10.3303
ليشع	-10.332
التفت	-10.3382
ثلث	-10.3427
مختار	-10.3468
تمثال	-10.347
وحوش	-10.3495
خيام	-10.3528
تمسك	-10.3588
احتم	-10.36
رجاسات	-10.3648
موجود	-10.3649
يوشي	-10.3664
مشيئ	-10.3673
صادو	-10.3698
يحرق	-10.3739
ذري	-10.3812
رائي	-10.3824
نفتالي	-10.384
اقترب	-10.3841
تعجب	-10.3856
مواشي	-10.4069
سدو	-10.4091
الاخير	-10.4097
رسول	-10.4116
ائك	-10.4135
سوف	-10.415
تحب	-10.4194
مرتفع	-10.4202
اشجار	-10.4214
عطش	-10.422
قرمز	-10.4221
القديم	-10.4223
خادم	-10.4226
▁	-10.7226
-	-12.3474
ً	-12.4902
i	-12.8569
(	-13.1069
)	-13.1069
:	-13.4402
𐋇	-13.4402
1	-13.9402
2	-13.9402
[	-13.9402
]	-13.9402
h	-13.9402
o	-13.9402
t	-13.9402
ـ	-14.9401
.	-14.9402
5	-14.9402
6	-14.9402
j	-14.9402
n	-14.9402
y	-14.9402
ٍ	-14.9402
𐊼	-14.9402
*	-14.9402
m	-14.9402
𐊣	-14.9402
