<pad>	0
</s>	0
<unk>	0
▁¦	-0
de	-1
▁𐋇	-2
▁,	-3
en	-4
oc	-5
ll	-6
an	-7
ar	-8
er	-9
och	-10
om	-11
tt	-12
▁.	-13
in	-14
ör	-15
är	-16
st	-17
ig	-18
sk	-19
för	-20
ti	-21
on	-22
ade	-23
ag	-24
till	-25
han	-26
all	-27
or	-28
som	-29
än	-30
ra	-31
et	-32
ed	-33
na	-34
vi	-35
ck	-36
så	-37
den	-38
el	-39
att	-40
av	-41
un	-42
der	-43
var	-44
det	-45
▁;	-46
ick	-47
da	-48
jag	-49
sa	-50
her	-51
herr	-52
▁:	-53
ing	-54
på	-55
fr	-56
ån	-57
skall	-58
ol	-59
va	-60
icke	-61
herren	-62
med	-63
hon	-64
ta	-65
pp	-66
▁𐊣	-67
du	-68
bl	-69
ut	-70
se	-71
▁»	-72
har	-73
ud	-74
rä	-75
dem	-76
ter	-77
dig	-78
ver	-79
där	-80
honom	-81
men	-82
äl	-83
då	-84
us	-85
sin	-86
äg	-87
upp	-88
kt	-89
es	-90
kom	-91
mo	-92
ka	-93
and	-94
ja	-95
si	-96
ung	-97
sig	-98
ju	-99
gud	-100
man	-101
mig	-102
ma	-103
eder	-104
ef	-105
sade	-106
ro	-107
år	-108
ss	-109
min	-110
från	-111
din	-112
åg	-113
över	-114
åt	-115
ri	-116
▁.»	-117
ty	-118
hade	-119
lig	-120
alla	-121
hans	-122
la	-123
jor	-124
is	-125
vid	-126
ett	-127
när	-128
it	-129
nu	-130
ur	-131
efter	-132
kon	-133
tta	-134
lä	-135
be	-136
bar	-137
sta	-138
skol	-139
hav	-140
le	-141
are	-142
li	-143
ga	-144
br	-145
konung	-146
olk	-147
itt	-148
folk	-149
bli	-150
gi	-151
re	-152
ning	-153
ock	-154
ba	-155
vad	-156
såsom	-157
ull	-158
män	-159
het	-160
▁?	-161
säg	-162
isra	-163
sam	-164
israel	-165
gen	-166
mot	-167
son	-168
hel	-169
ne	-170
må	-171
ska	-172
hö	-173
gör	-174
as	-175
någ	-176
allt	-177
ller	-178
dag	-179
hör	-180
fra	-181
gå	-182
dö	-183
of	-184
arna	-185
em	-186
barn	-187
fö	-188
skola	-189
ev	-190
detta	-191
äm	-192
hava	-193
ön	-194
dan	-195
hus	-196
og	-197
dr	-198
ras	-199
ens	-200
des	-201
eller	-202
mer	-203
fram	-204
skull	-205
yn	-206
erna	-207
ot	-208
deras	-209
te	-210
sina	-211
ort	-212
jäl	-213
gjor	-214
sl	-215
herrens	-216
vill	-217
ste	-218
jän	-219
oss	-220
nen	-221
här	-222
vara	-223
od	-224
vil	-225
tjän	-226
yck	-227
vit	-228
os	-229
tr	-230
väl	-231
mm	-232
vor	-233
ha	-234
få	-235
hu	-236
ni	-237
under	-238
israels	-239
jer	-240
ande	-241
edan	-242
göra	-243
inn	-244
vå	-245
mitt	-246
ord	-247
und	-248
▁'	-249
säger	-250
ken	-251
tag	-252
land	-253
andra	-254
genom	-255
al	-256
rätt	-257
kun	-258
vän	-259
sitt	-260
dina	-261
skulle	-262
själ	-263
äng	-264
äro	-265
ingen	-266
bliva	-267
komma	-268
ul	-269
del	-270
stä	-271
trä	-272
blev	-273
kr	-274
ifrån	-275
ader	-276
utan	-277
str	-278
ned	-279
någon	-280
ber	-281
vär	-282
yg	-283
bet	-284
kan	-285
lå	-286
fer	-287
sedan	-288
iga	-289
tal	-290
stad	-291
offer	-292
syn	-293
hå	-294
fa	-295
jär	-296
vet	-297
ly	-298
sön	-299
brö	-300
hen	-301
ab	-302
ft	-303
sten	-304
voro	-305
jo	-306
pa	-307
hand	-308
mn	-309
dess	-310
svar	-311
else	-312
konungen	-313
fader	-314
ätt	-315
männi	-316
hi	-317
dessa	-318
guds	-319
bort	-320
ann	-321
david	-322
tid	-323
folket	-324
ång	-325
därför	-326
bland	-327
väg	-328
mina	-329
ditt	-330
ena	-331
lö	-332
eg	-333
hela	-334
kte	-335
lj	-336
mån	-337
stor	-338
skolen	-339
lat	-340
sp	-341
inför	-342
fär	-343
jes	-344
ott	-345
gon	-346
rö	-347
lla	-348
herre	-349
giva	-350
jorden	-351
vin	-352
svarade	-353
hög	-354
lan	-355
dde	-356
först	-357
prä	-358
sen	-359
nes	-360
ukt	-361
gjorde	-362
far	-363
tet	-364
sän	-365
lag	-366
läg	-367
söner	-368
vä	-369
ligen	-370
▁-	-371
vår	-372
juda	-373
gick	-374
fä	-375
fi	-376
▁!	-377
namn	-378
beg	-379
bo	-380
ära	-381
människ	-382
något	-383
▁--	-384
hur	-385
tog	-386
aden	-387
mi	-388
tjänare	-389
lo	-390
lem	-391
ia	-392
mose	-393
mar	-394
hjär	-395
▁?»	-396
låt	-397
usa	-398
kommer	-399
ker	-400
fy	-401
ser	-402
slä	-403
ej	-404
huru	-405
skap	-406
blivit	-407
åd	-408
jesus	-409
jerusa	-410
nas	-411
éerna	-412
jerusalem	-413
je	-414
färdig	-415
ho	-416
sö	-417
stå	-418
nar	-419
gr	-420
yp	-421
edra	-422
henne	-423
ko	-424
lar	-425
landet	-426
star	-427
ger	-428
byg	-429
ten	-430
drag	-431
mmel	-432
får	-433
förb	-434
säga	-435
egyp	-436
am	-437
himmel	-438
gjort	-439
åter	-440
sä	-441
lät	-442
pro	-443
ster	-444
två	-445
går	-446
ögon	-447
sal	-448
fört	-449
själv	-450
gär	-451
ända	-452
sju	-453
denna	-454
at	-455
låta	-456
vatt	-457
dagen	-458
sådan	-459
ven	-460
nat	-461
frukt	-462
me	-463
gav	-464
änder	-465
fet	-466
kta	-467
dom	-468
mä	-469
baka	-470
hos	-471
bå	-472
rar	-473
hund	-474
satt	-475
liga	-476
rättfärdig	-477
skri	-478
tillbaka	-479
vis	-480
ställ	-481
ningar	-482
bes	-483
därefter	-484
ds	-485
höra	-486
haven	-487
svär	-488
ve	-489
hustr	-490
taga	-491
stod	-492
denne	-493
profet	-494
myck	-495
klä	-496
ännu	-497
öd	-498
bliver	-499
bel	-500
go	-501
hundra	-502
liv	-503
komm	-504
kunna	-505
också	-506
lade	-507
tro	-508
bor	-509
tar	-510
intet	-511
hem	-512
räck	-513
jäm	-514
dju	-515
ren	-516
hjärta	-517
bed	-518
fråg	-519
ansi	-520
tio	-521
samman	-522
kommit	-523
lik	-524
rik	-525
jud	-526
bröder	-527
samma	-528
huv	-529
emot	-530
slag	-531
talade	-532
lighet	-533
människor	-534
im	-535
dit	-536
nade	-537
fem	-538
lär	-539
fly	-540
lika	-541
kring	-542
tus	-543
berg	-544
ligt	-545
ighet	-546
kö	-547
eftersom	-548
föra	-549
tju	-550
ingo	-551
fri	-552
brän	-553
rist	-554
tusen	-555
dar	-556
bud	-557
dro	-558
mma	-559
äta	-560
full	-561
stra	-562
kän	-563
följ	-564
staden	-565
tän	-566
åstad	-567
kvar	-568
il	-569
bro	-570
många	-571
tit	-572
terna	-573
försam	-574
tala	-575
kor	-576
nad	-577
sag	-578
hålla	-579
stri	-580
ling	-581
plat	-582
uld	-583
allena	-584
kro	-585
omkring	-586
hä	-587
fick	-588
sak	-589
givit	-590
skar	-591
krist	-592
ansikte	-593
bef	-594
förde	-595
finn	-596
dagar	-597
vatten	-598
håll	-599
städer	-600
kommo	-601
himmelen	-602
dock	-603
edom	-604
såg	-605
jung	-606
igt	-607
tan	-608
rop	-609
vinn	-610
▁.'	-611
san	-612
fara	-613
ons	-614
gä	-615
sammans	-616
kär	-617
vem	-618
fast	-619
fäder	-620
igen	-621
vare	-622
hjäl	-623
mor	-624
gu	-625
mycket	-626
unn	-627
gång	-628
ben	-629
fräl	-630
sagt	-631
bör	-632
ner	-633
tre	-634
rå	-635
red	-636
präst	-637
eld	-638
sar	-639
näm	-640
hustru	-641
saul	-642
vitt	-643
sände	-644
hörde	-645
måste	-646
läng	-647
huvud	-648
pen	-649
mannen	-650
dd	-651
kob	-652
jakob	-653
fin	-654
tiden	-655
eli	-656
ske	-657
mun	-658
salom	-659
allenast	-660
tter	-661
bu	-662
döda	-663
hennes	-664
broder	-665
stora	-666
ets	-667
stån	-668
synd	-669
prästen	-670
höj	-671
vre	-672
sätt	-673
låg	-674
bygg	-675
våra	-676
kvinn	-677
händer	-678
ades	-679
els	-680
hag	-681
net	-682
blod	-683
varför	-684
moder	-685
kar	-686
kall	-687
svärd	-688
födde	-689
erligen	-690
dda	-691
port	-692
vilken	-693
djur	-694
arbet	-695
finnes	-696
främ	-697
enbar	-698
uppenbar	-699
ppar	-700
fall	-701
vilka	-702
äck	-703
dakt	-704
vilja	-705
fur	-706
före	-707
visa	-708
ans	-709
guld	-710
verk	-711
heller	-712
um	-713
nåd	-714
både	-715
ville	-716
fatt	-717
kött	-718
orna	-719
ff	-720
häm	-721
rade	-722
männen	-723
van	-724
seba	-725
glä	-726
pel	-727
mör	-728
dens	-729
nä	-730
teck	-731
bära	-732
bär	-733
natt	-734
plats	-735
sil	-736
själva	-737
gott	-738
drick	-739
drä	-740
gar	-741
fien	-742
tron	-743
gärningar	-744
ld	-745
kunde	-746
fili	-747
ad	-748
höv	-749
jon	-750
bba	-751
trö	-752
levi	-753
satte	-754
sy	-755
stam	-756
styck	-757
heliga	-758
ige	-759
välsig	-760
egypten	-761
gingo	-762
lu	-763
ring	-764
försk	-765
blevo	-766
varit	-767
föll	-768
död	-769
jämte	-770
kristus	-771
gläd	-772
kra	-773
röst	-774
hed	-775
makt	-776
giver	-777
nämligen	-778
skö	-779
otter	-780
står	-781
sidan	-782
vända	-783
ogu	-784
ogudakt	-785
ygg	-786
draga	-787
morgon	-788
prästerna	-789
ham	-790
fått	-791
sj	-792
gått	-793
rättfärdighet	-794
vag	-795
bränn	-796
framför	-797
for	-798
fördär	-799
sky	-800
abra	-801
öj	-802
offr	-803
onde	-804
konungens	-805
leva	-806
veta	-807
altar	-808
gudar	-809
aren	-810
helg	-811
dotter	-812
kläder	-813
hit	-814
oren	-815
vinna	-816
by	-817
begyn	-818
sex	-819
annan	-820
silver	-821
sån	-822
dött	-823
kraft	-824
råd	-825
dra	-826
ök	-827
huset	-828
éernas	-829
ont	-830
drog	-831
höll	-832
miss	-833
förstån	-834
fyra	-835
ången	-836
filist	-837
förbund	-838
vr	-839
rätta	-840
lev	-841
öm	-842
ningen	-843
lärjung	-844
sn	-845
llan	-846
havet	-847
vidare	-848
öpp	-849
båda	-850
kalla	-851
sätta	-852
alltså	-853
bjud	-854
undan	-855
nej	-856
kten	-857
frågade	-858
ry	-859
slog	-860
tens	-861
onda	-862
ny	-863
egyptens	-864
sef	-865
diga	-866
träd	-867
kropp	-868
fru	-869
funn	-870
vrede	-871
sådant	-872
yr	-873
ffa	-874
vägen	-875
len	-876
hövd	-877
vände	-878
sebaot	-879
ki	-880
ljus	-881
behag	-882
medan	-883
ua	-884
has	-885
ving	-886
ke	-887
gat	-888
▁»,	-889
stör	-890
lägga	-891
ban	-892
arve	-893
talat	-894
arvedel	-895
skil	-896
ycka	-897
to	-898
ts	-899
pet	-900
människa	-901
varandra	-902
vo	-903
konungar	-904
tack	-905
io	-906
sla	-907
ären	-908
jut	-909
bröd	-910
aron	-911
dör	-912
per	-913
inne	-914
run	-915
låtit	-916
tjugu	-917
jas	-918
barns	-919
lång	-920
bi	-921
vand	-922
läm	-923
mur	-924
äld	-925
josef	-926
lov	-927
sik	-928
offra	-929
öknen	-930
davids	-931
tjänst	-932
best	-933
he	-934
abraham	-935
reger	-936
bjudit	-937
val	-938
sång	-939
fiender	-940
bon	-941
mande	-942
salomo	-943
fann	-944
några	-945
sönder	-946
ek	-947
bod	-948
ältet	-949
döttrar	-950
människo	-951
profeter	-952
härlighet	-953
tillsammans	-954
giv	-955
digt	-956
falla	-957
förut	-958
dri	-959
fyll	-960
mäkt	-961
låter	-962
fyr	-963
bred	-964
runt	-965
mellan	-966
hjärtan	-967
nelse	-968
likasom	-969
sid	-970
hopp	-971
babel	-972
mmar	-973
värl	-974
rus	-975
räk	-976
förl	-977
kter	-978
tung	-979
fäng	-980
jord	-981
alnar	-982
arnas	-983
gn	-984
vart	-985
boskap	-986
hövding	-987
helgedom	-988
brännoffer	-989
ål	-990
därav	-991
fräls	-992
ende	-993
hört	-994
krig	-995
släkt	-996
kallade	-997
länge	-998
tol	-999
kvinna	-1000
ang	-1001
älsk	-1002
bodde	-1003
grä	-1004
tor	-1005
stade	-1006
ropade	-1007
veder	-1008
faders	-1009
jos	-1010
söka	-1011
viss	-1012
elser	-1013
bön	-1014
ika	-1015
tem	-1016
befall	-1017
altaret	-1018
häl	-1019
▁!»	-1020
ängel	-1021
orätt	-1022
folken	-1023
förskräck	-1024
kärle	-1025
redan	-1026
håller	-1027
stö	-1028
bä	-1029
given	-1030
marken	-1031
sett	-1032
togo	-1033
dat	-1034
därtill	-1035
god	-1036
hop	-1037
slut	-1038
josua	-1039
dricka	-1040
hän	-1041
pri	-1042
lipp	-1043
trett	-1044
gärning	-1045
mö	-1046
nor	-1047
fötter	-1048
äldste	-1049
hår	-1050
sor	-1051
strid	-1052
natten	-1053
därpå	-1054
fingo	-1055
följde	-1056
släkte	-1057
därifrån	-1058
stan	-1059
kasta	-1060
första	-1061
moab	-1062
utt	-1063
vån	-1064
mmal	-1065
döden	-1066
helig	-1067
rädda	-1068
gammal	-1069
let	-1070
vilk	-1071
farao	-1072
skam	-1073
jordan	-1074
månaden	-1075
pi	-1076
das	-1077
stygg	-1078
rän	-1079
efra	-1080
klag	-1081
överste	-1082
fot	-1083
jamin	-1084
glädje	-1085
jordens	-1086
vittnes	-1087
hor	-1088
goda	-1089
rike	-1090
edert	-1091
säd	-1092
hjälp	-1093
tagit	-1094
vittnesbör	-1095
fte	-1096
led	-1097
vat	-1098
edje	-1099
mått	-1100
skaffa	-1101
ru	-1102
besitt	-1103
jen	-1104
sår	-1105
fjär	-1106
hören	-1107
stodo	-1108
frukta	-1109
sm	-1110
fråga	-1111
ligger	-1112
tredje	-1113
bry	-1114
sann	-1115
känna	-1116
ningarna	-1117
bad	-1118
tolv	-1119
talar	-1120
ill	-1121
kam	-1122
par	-1123
alltid	-1124
ternas	-1125
föl	-1126
hung	-1127
ytter	-1128
berget	-1129
tjänar	-1130
leviterna	-1131
sol	-1132
annat	-1133
elset	-1134
lingen	-1135
po	-1136
gra	-1137
slå	-1138
sons	-1139
utro	-1140
lever	-1141
kommen	-1142
frid	-1143
ryck	-1144
bygga	-1145
hämta	-1146
benjamin	-1147
besittning	-1148
hug	-1149
kal	-1150
högra	-1151
hal	-1152
övr	-1153
efraim	-1154
vandra	-1155
vishet	-1156
kvinnor	-1157
nå	-1158
lamm	-1159
tare	-1160
sabba	-1161
tager	-1162
fl	-1163
sel	-1164
sänt	-1165
elsen	-1166
bätt	-1167
skyn	-1168
snar	-1169
spis	-1170
evinn	-1171
evinnerligen	-1172
iten	-1173
stånd	-1174
kärlek	-1175
nöd	-1176
rör	-1177
ibland	-1178
tempel	-1179
ställde	-1180
världen	-1181
gam	-1182
tra	-1183
förs	-1184
skän	-1185
lingar	-1186
ene	-1187
drig	-1188
mark	-1189
anden	-1190
est	-1191
tes	-1192
uel	-1193
gåvo	-1194
berna	-1195
tecken	-1196
mod	-1197
hett	-1198
begär	-1199
johan	-1200
larna	-1201
älska	-1202
fruktan	-1203
ften	-1204
strö	-1205
tade	-1206
vits	-1207
vårt	-1208
ligga	-1209
nings	-1210
stadgar	-1211
ge	-1212
oni	-1213
fröj	-1214
låten	-1215
aldrig	-1216
synder	-1217
konungs	-1218
bru	-1219
aram	-1220
ulus	-1221
drogo	-1222
sådana	-1223
missgärning	-1224
akt	-1225
fta	-1226
mat	-1227
vägar	-1228
offret	-1229
begynte	-1230
bil	-1231
lagen	-1232
paulus	-1233
släkter	-1234
fött	-1235
straff	-1236
bj	-1237
sim	-1238
kade	-1239
dande	-1240
hövits	-1241
ass	-1242
bas	-1243
döds	-1244
bedja	-1245
livet	-1246
intill	-1247
gas	-1248
barm	-1249
olja	-1250
våld	-1251
koppar	-1252
ark	-1253
egen	-1254
lott	-1255
förni	-1256
skatt	-1257
utval	-1258
övriga	-1259
hy	-1260
fåg	-1261
fanns	-1262
gören	-1263
petrus	-1264
lärjungar	-1265
grän	-1266
vädu	-1267
ligare	-1268
länder	-1269
furstar	-1270
juta	-1271
tagen	-1272
mär	-1273
beam	-1274
dade	-1275
lämn	-1276
sjun	-1277
täck	-1278
manas	-1279
stället	-1280
so	-1281
aft	-1282
amm	-1283
res	-1284
ski	-1285
andre	-1286
fastän	-1287
finnas	-1288
trädde	-1289
skrivet	-1290
vattnet	-1291
förstånd	-1292
lju	-1293
uck	-1294
väx	-1295
ått	-1296
levande	-1297
sannerligen	-1298
fång	-1299
jesu	-1300
skör	-1301
kristi	-1302
manasse	-1303
esa	-1304
afton	-1305
bestäm	-1306
förkun	-1307
profeten	-1308
skyl	-1309
steg	-1310
ting	-1311
flo	-1312
sti	-1313
boning	-1314
olycka	-1315
förnimma	-1316
himmelens	-1317
slu	-1318
utg	-1319
dräp	-1320
invån	-1321
jerem	-1322
klipp	-1323
sonen	-1324
sända	-1325
asa	-1326
fal	-1327
skå	-1328
förrän	-1329
förtör	-1330
tillhör	-1331
filistéerna	-1332
gla	-1333
varda	-1334
arbete	-1335
uppenbarelset	-1336
ok	-1337
öl	-1338
gile	-1339
huvu	-1340
vakt	-1341
lejon	-1342
däri	-1343
järn	-1344
skur	-1345
igenom	-1346
mycken	-1347
hustrur	-1348
akta	-1349
ände	-1350
finna	-1351
menighet	-1352
inga	-1353
joab	-1354
därmed	-1355
egypti	-1356
porten	-1357
vingår	-1358
sida	-1359
annade	-1360
uppfyll	-1361
blo	-1362
ret	-1363
vore	-1364
slakt	-1365
tjäna	-1366
församling	-1367
stol	-1368
befallning	-1369
fat	-1370
bjöd	-1371
likväl	-1372
visade	-1373
ält	-1374
fami	-1375
härt	-1376
lyss	-1377
barmhärt	-1378
allasammans	-1379
mål	-1380
rök	-1381
nära	-1382
hette	-1383
samuel	-1384
hedningarna	-1385
gås	-1386
rev	-1387
▁',	-1388
bäck	-1389
områ	-1390
skär	-1391
öster	-1392
iterna	-1393
fördärv	-1394
flö	-1395
åker	-1396
gamla	-1397
skuld	-1398
stort	-1399
uppstå	-1400
johannes	-1401
ytterligare	-1402
gån	-1403
kas	-1404
ahas	-1405
enda	-1406
förö	-1407
sorg	-1408
kvinnan	-1409
stycken	-1410
no	-1411
ran	-1412
asar	-1413
baal	-1414
lust	-1415
långt	-1416
samar	-1417
strax	-1418
fadern	-1419
stenar	-1420
mas	-1421
ond	-1422
isak	-1423
kros	-1424
hunger	-1425
högtid	-1426
tänkte	-1427
jeremia	-1428
frälsning	-1429
sågo	-1430
riket	-1431
höjder	-1432
känner	-1433
kastade	-1434
mön	-1435
inna	-1436
plan	-1437
slags	-1438
svara	-1439
varen	-1440
förgås	-1441
judarna	-1442
församlade	-1443
fo	-1444
dog	-1445
gre	-1446
mol	-1447
följa	-1448
läger	-1449
vänner	-1450
stannade	-1451
profeterna	-1452
mj	-1453
dyr	-1454
lagt	-1455
delse	-1456
byggde	-1457
namnet	-1458
utrota	-1459
trettio	-1460
flykt	-1461
grund	-1462
bernak	-1463
femtio	-1464
skrift	-1465
ställe	-1466
regering	-1467
tabernak	-1468
fån	-1469
evig	-1470
kret	-1471
marker	-1472
platsen	-1473
vittnesbörd	-1474
mes	-1475
tåg	-1476
tör	-1477
fullbor	-1478
fäll	-1479
sant	-1480
jonat	-1481
moses	-1482
solen	-1483
träda	-1484
bin	-1485
jan	-1486
tel	-1487
bara	-1488
hebr	-1489
jero	-1490
stig	-1491
vila	-1492
skick	-1493
floden	-1494
tionde	-1495
helgedomen	-1496
pl	-1497
föda	-1498
innan	-1499
varken	-1500
spisoffer	-1501
högt	-1502
sbyg	-1503
▁.'»	-1504
förviss	-1505
ärd	-1506
eget	-1507
lära	-1508
mjöl	-1509
undr	-1510
lämna	-1511
bättre	-1512
område	-1513
bord	-1514
josa	-1515
ljer	-1516
sion	-1517
bergen	-1518
sjunde	-1519
ug	-1520
hab	-1521
yri	-1522
åsn	-1523
bitt	-1524
kana	-1525
ovan	-1526
bedrö	-1527
jerusalems	-1528
arm	-1529
lit	-1530
lön	-1531
sad	-1532
hopa	-1533
plåg	-1534
pred	-1535
deles	-1536
sitta	-1537
stark	-1538
assyri	-1539
fyrtio	-1540
förson	-1541
syster	-1542
små	-1543
samt	-1544
evang	-1545
evangeli	-1546
förkunna	-1547
bos	-1548
lösa	-1549
rarna	-1550
stammar	-1551
människorna	-1552
aga	-1553
gna	-1554
isa	-1555
sär	-1556
just	-1557
unda	-1558
uppe	-1559
fången	-1560
helige	-1561
hästar	-1562
jakobs	-1563
vilket	-1564
lämnade	-1565
penningar	-1566
gri	-1567
uri	-1568
egna	-1569
gåva	-1570
hisk	-1571
inom	-1572
mätt	-1573
träl	-1574
året	-1575
dighet	-1576
funnit	-1577
fåfäng	-1578
gånger	-1579
hiskia	-1580
tillhopa	-1581
ox	-1582
smä	-1583
dels	-1584
sime	-1585
krigs	-1586
lovat	-1587
nästa	-1588
sjutt	-1589
altare	-1590
förgår	-1591
rat	-1592
oför	-1593
begav	-1594
ffade	-1595
särskil	-1596
alldeles	-1597
regeringsår	-1598
sv	-1599
levde	-1600
sökte	-1601
flydde	-1602
förtrö	-1603
mönstr	-1604
större	-1605
ahi	-1606
kia	-1607
nog	-1608
joja	-1609
stän	-1610
stäng	-1611
lägret	-1612
ställa	-1613
kunskap	-1614
främmande	-1615
syndoffer	-1616
pur	-1617
gräs	-1618
sägen	-1619
läppar	-1620
siklar	-1621
absalom	-1622
präster	-1623
utmarker	-1624
ias	-1625
iel	-1626
köp	-1627
berö	-1628
varar	-1629
älskade	-1630
kä	-1631
mju	-1632
ute	-1633
befä	-1634
bety	-1635
döma	-1636
kläd	-1637
stav	-1638
finner	-1639
jämväl	-1640
följande	-1641
invånare	-1642
mid	-1643
sål	-1644
post	-1645
unga	-1646
begra	-1647
bryta	-1648
stanna	-1649
förgöra	-1650
jonatan	-1651
sanning	-1652
ogudaktiga	-1653
kat	-1654
mis	-1655
öra	-1656
smäl	-1657
trol	-1658
väck	-1659
höllo	-1660
lands	-1661
sjung	-1662
släpp	-1663
berätt	-1664
slagna	-1665
vagnar	-1666
håg	-1667
kre	-1668
blyg	-1669
ropa	-1670
sked	-1671
tider	-1672
ammons	-1673
människobarn	-1674
barmhärtighet	-1675
bok	-1676
atur	-1677
kärl	-1678
vade	-1679
förgä	-1680
unden	-1681
ödmju	-1682
portar	-1683
jerobeam	-1684
morgonen	-1685
öt	-1686
hov	-1687
byte	-1688
spet	-1689
bröto	-1690
tunga	-1691
därvid	-1692
gilead	-1693
handen	-1694
räckte	-1695
rätter	-1696
stycke	-1697
bergsbyg	-1698
fördärva	-1699
utgjorde	-1700
föd	-1701
krä	-1702
likt	-1703
strä	-1704
fäkre	-1705
spill	-1706
dragit	-1707
inbygg	-1708
köttet	-1709
förvisso	-1710
fäkreatur	-1711
försoning	-1712
fångenskap	-1713
filistéernas	-1714
ir	-1715
fria	-1716
läto	-1717
basun	-1718
fasta	-1719
gåvor	-1720
planter	-1721
evangelium	-1722
eln	-1723
lös	-1724
alls	-1725
blin	-1726
elek	-1727
elje	-1728
sjuk	-1729
tält	-1730
öron	-1731
faris	-1732
otukt	-1733
skara	-1734
eljest	-1735
fjärran	-1736
egyptierna	-1737
församlingen	-1738
döm	-1739
lam	-1740
pan	-1741
dets	-1742
lögn	-1743
arken	-1744
funnos	-1745
syndat	-1746
förbann	-1747
styggelse	-1748
di	-1749
ym	-1750
bock	-1751
djup	-1752
kors	-1753
sela	-1754
sias	-1755
arons	-1756
föllo	-1757
helst	-1758
sauls	-1759
faller	-1760
förstå	-1761
herres	-1762
aftonen	-1763
utanför	-1764
sök	-1765
eser	-1766
styr	-1767
antal	-1768
förtr	-1769
överträ	-1770
hin	-1771
ida	-1772
ahab	-1773
bröt	-1774
psal	-1775
rädd	-1776
litet	-1777
seger	-1778
veten	-1779
förtär	-1780
uppteck	-1781
ingången	-1782
välbehag	-1783
eda	-1784
sto	-1785
▁».	-1786
gibe	-1787
keru	-1788
norr	-1789
ändå	-1790
elden	-1791
elisa	-1792
omskur	-1793
viljen	-1794
ack	-1795
gad	-1796
ton	-1797
moln	-1798
stof	-1799
skriv	-1800
fjärde	-1801
älskar	-1802
skyldig	-1803
båd	-1804
dal	-1805
ele	-1806
göm	-1807
häp	-1808
ram	-1809
väsen	-1810
fäders	-1811
hållen	-1812
mantel	-1813
rikedom	-1814
tillika	-1815
regerade	-1816
ogudaktig	-1817
get	-1818
seg	-1819
yll	-1820
buka	-1821
regn	-1822
rena	-1823
sken	-1824
skor	-1825
utom	-1826
samla	-1827
slogo	-1828
snart	-1829
kunnen	-1830
nebuka	-1831
lägrade	-1832
glö	-1833
jis	-1834
rov	-1835
skett	-1836
vredes	-1837
vänder	-1838
efraims	-1839
pe	-1840
tom	-1841
brev	-1842
vänd	-1843
trolö	-1844
bäcken	-1845
höjden	-1846
städerna	-1847
inbyggare	-1848
ai	-1849
yng	-1850
amor	-1851
fett	-1852
iska	-1853
mans	-1854
druck	-1855
stiga	-1856
tänka	-1857
drager	-1858
människors	-1859
tte	-1860
éer	-1861
aser	-1862
buro	-1863
dela	-1864
vild	-1865
söder	-1866
söker	-1867
evighet	-1868
konunga	-1869
vilkens	-1870
familjer	-1871
bal	-1872
båg	-1873
dån	-1874
hes	-1875
spå	-1876
jubel	-1877
orena	-1878
ringa	-1879
öppna	-1880
bränna	-1881
förhär	-1882
gäller	-1883
visste	-1884
inmönstr	-1885
hövdingar	-1886
oli	-1887
orda	-1888
resa	-1889
driva	-1890
därom	-1891
lärde	-1892
stund	-1893
bestän	-1894
domare	-1895
skaror	-1896
lärjungarna	-1897
rättfärdige	-1898
dre	-1899
fel	-1900
mal	-1901
bild	-1902
dörr	-1903
gade	-1904
gäll	-1905
haft	-1906
kung	-1907
vars	-1908
beläg	-1909
invid	-1910
mätta	-1911
såväl	-1912
fåglar	-1913
mörker	-1914
slakta	-1915
landets	-1916
rättfärdiga	-1917
sör	-1918
pris	-1919
slår	-1920
åtta	-1921
dräpa	-1922
fulla	-1923
heter	-1924
talen	-1925
blodet	-1926
hälften	-1927
striden	-1928
kommande	-1929
ama	-1930
bot	-1931
bul	-1932
ddor	-1933
gärd	-1934
lida	-1935
pläg	-1936
moabs	-1937
skåda	-1938
längre	-1939
avgudar	-1940
samaria	-1941
ada	-1942
efa	-1943
kis	-1944
apost	-1945
förban	-1946
starka	-1947
upphöj	-1948
vingar	-1949
josafat	-1950
assyrien	-1951
orättfärdig	-1952
fe	-1953
hud	-1954
kön	-1955
prö	-1956
öde	-1957
elds	-1958
fint	-1959
gråt	-1960
häng	-1961
kunn	-1962
livs	-1963
skug	-1964
tapp	-1965
avkom	-1966
naden	-1967
visar	-1968
daniel	-1969
faraos	-1970
mäktig	-1971
spillo	-1972
strida	-1973
frukten	-1974
kanaans	-1975
uppväck	-1976
benjamins	-1977
kald	-1978
röda	-1979
lyfte	-1980
ordet	-1981
ropar	-1982
delser	-1983
utvalt	-1984
fursten	-1985
offrade	-1986
somliga	-1987
fruktade	-1988
dröm	-1989
fing	-1990
gali	-1991
ihåg	-1992
redo	-1993
rött	-1994
smor	-1995
bevisa	-1996
smälek	-1997
rökelse	-1998
bs	-1999
era	-2000
öga	-2001
▁?'	-2002
gyll	-2003
nens	-2004
rent	-2005
vagn	-2006
äter	-2007
avdel	-2008
bedri	-2009
folks	-2010
ledes	-2011
sluta	-2012
förtäl	-2013
graven	-2014
staren	-2015
upptän	-2016
varder	-2017
folkets	-2018
huvuden	-2019
välsigna	-2020
berättade	-2021
profetera	-2022
lor	-2023
tim	-2024
illa	-2025
sjön	-2026
tukt	-2027
vind	-2028
dräkt	-2029
evärd	-2030
farit	-2031
förbi	-2032
ingar	-2033
sträv	-2034
dragen	-2035
förlåt	-2036
sitter	-2037
gyllene	-2038
ostraff	-2039
trofast	-2040
öppnade	-2041
församla	-2042
vandrade	-2043
beständigt	-2044
menigheten	-2045
slaktoffer	-2046
hat	-2047
kir	-2048
län	-2049
hast	-2050
ofta	-2051
skon	-2052
blygd	-2053
evigt	-2054
fikon	-2055
hända	-2056
tända	-2057
dräpte	-2058
frälsa	-2059
gående	-2060
moders	-2061
stilla	-2062
tankar	-2063
eleasar	-2064
gränsen	-2065
mästaren	-2066
därigenom	-2067
förbliver	-2068
tillbedja	-2069
dol	-2070
klo	-2071
ses	-2072
sna	-2073
jeri	-2074
nytt	-2075
dalen	-2076
olyck	-2077
räcka	-2078
skepp	-2079
bliven	-2080
dennes	-2081
gången	-2082
heligt	-2083
ondska	-2084
träden	-2085
utöver	-2086
havande	-2087
svärdet	-2088
människosonen	-2089
op	-2090
böj	-2091
vek	-2092
åto	-2093
doms	-2094
fter	-2095
omål	-2096
smör	-2097
vack	-2098
blick	-2099
förra	-2100
gälla	-2101
sidor	-2102
stare	-2103
drabba	-2104
skedde	-2105
gensträv	-2106
ogudaktige	-2107
tabernaklet	-2108
abi	-2109
ana	-2110
arv	-2111
bju	-2112
blå	-2113
nit	-2114
vak	-2115
vir	-2116
anja	-2117
hörn	-2118
svag	-2119
beder	-2120
betel	-2121
blott	-2122
givet	-2123
hjord	-2124
kände	-2125
liban	-2126
muren	-2127
ditupp	-2128
imelek	-2129
josefs	-2130
ovänner	-2131
förtryck	-2132
tillhöra	-2133
tillflykt	-2134
förtörnelse	-2135
aka	-2136
gry	-2137
väv	-2138
kron	-2139
råda	-2140
bröst	-2141
kanan	-2142
bringa	-2143
förakt	-2144
förman	-2145
galile	-2146
hållit	-2147
starna	-2148
mörkret	-2149
tjänares	-2150
likaledes	-2151
myckenhet	-2152
kai	-2153
års	-2154
bådo	-2155
hata	-2156
mord	-2157
rikt	-2158
öken	-2159
byggt	-2160
domar	-2161
prisa	-2162
unnit	-2163
bevara	-2164
kallas	-2165
tänker	-2166
därinne	-2167
förstör	-2168
främlingar	-2169
förstfödde	-2170
eb	-2171
▁(	-2172
byl	-2173
elia	-2174
grav	-2175
möda	-2176
sutt	-2177
tjug	-2178
ödem	-2179
babyl	-2180
göras	-2181
judas	-2182
sikem	-2183
simon	-2184
spjut	-2185
synag	-2186
fallit	-2187
förbar	-2188
hjälpa	-2189
klippa	-2190
krossa	-2191
vinden	-2192
bredvid	-2193
månader	-2194
främling	-2195
ax	-2196
jä	-2197
äd	-2198
dad	-2199
guda	-2200
joas	-2201
rika	-2202
vika	-2203
änga	-2204
sakar	-2205
ttaga	-2206
väster	-2207
sjuttio	-2208
höjderna	-2209
styggelser	-2210
välsignade	-2211
bus	-2212
cka	-2213
kim	-2214
belä	-2215
blom	-2216
goss	-2217
mask	-2218
angri	-2219
brott	-2220
givas	-2221
helga	-2222
brutit	-2223
djuret	-2224
ljuset	-2225
strids	-2226
sänder	-2227
abimelek	-2228
angående	-2229
drickoffer	-2230
lut	-2231
esau	-2232
horn	-2233
hölj	-2234
klar	-2235
sera	-2236
tjur	-2237
vikt	-2238
åsyn	-2239
ödel	-2240
dryck	-2241
vilse	-2242
honung	-2243
lovade	-2244
städes	-2245
betryck	-2246
gjordes	-2247
ljussta	-2248
mästare	-2249
abrahams	-2250
hungersn	-2251
ars	-2252
bak	-2253
drö	-2254
rak	-2255
säl	-2256
lyck	-2257
rytt	-2258
sköl	-2259
skön	-2260
darna	-2261
frimo	-2262
hände	-2263
trösk	-2264
vapen	-2265
ålder	-2266
bedröv	-2267
hebron	-2268
hemsök	-2269
tjurar	-2270
utföra	-2271
vandrar	-2272
upprätta	-2273
varifrån	-2274
eldsoffer	-2275
ku	-2276
pat	-2277
färd	-2278
förg	-2279
hämn	-2280
jubl	-2281
mika	-2282
suck	-2283
tram	-2284
tror	-2285
glada	-2286
murar	-2287
stjän	-2288
äkten	-2289
djuren	-2290
husets	-2291
sätter	-2292
galileen	-2293
tungomål	-2294
förgården	-2295
konungars	-2296
människan	-2297
sanningen	-2298
äktenskap	-2299
ogudaktigas	-2300
förskräckelse	-2301
uk	-2302
båt	-2303
osy	-2304
por	-2305
vna	-2306
våg	-2307
borg	-2308
förm	-2309
gent	-2310
läck	-2311
lägg	-2312
mörk	-2313
även	-2314
abner	-2315
fäste	-2316
storm	-2317
titen	-2318
furste	-2319
förfär	-2320
förråd	-2321
smorde	-2322
trodde	-2323
bittida	-2324
förutom	-2325
förvand	-2326
skänker	-2327
väsende	-2328
fängelse	-2329
omtalade	-2330
bergsbygd	-2331
tackoffer	-2332
alltsammans	-2333
skriftlärde	-2334
sia	-2335
bens	-2336
bile	-2337
ktet	-2338
vred	-2339
ätta	-2340
femte	-2341
handa	-2342
kamel	-2343
bedjen	-2344
bileam	-2345
bosatt	-2346
helgat	-2347
änglar	-2348
ångest	-2349
översteprästerna	-2350
ris	-2351
éen	-2352
▁»;	-2353
foro	-2354
helt	-2355
lyft	-2356
nuft	-2357
otvå	-2358
skål	-2359
abram	-2360
basan	-2361
fröjd	-2362
föras	-2363
judar	-2364
palat	-2365
begått	-2366
damask	-2367
förden	-2368
gjorda	-2369
kastat	-2370
ovanpå	-2371
seende	-2372
vänden	-2373
ängeln	-2374
förtära	-2375
markens	-2376
visning	-2377
babyloni	-2378
damaskus	-2379
äktenskaps	-2380
fåfänglighet	-2381
nö	-2382
nal	-2383
pas	-2384
skt	-2385
ljuv	-2386
lågo	-2387
pass	-2388
vänt	-2389
växa	-2390
borta	-2391
gräns	-2392
gästa	-2393
inner	-2394
löfte	-2395
mordo	-2396
predi	-2397
psalm	-2398
tiska	-2399
besvär	-2400
föddes	-2401
kallar	-2402
befästa	-2403
budskap	-2404
förfölj	-2405
huvudet	-2406
förbliva	-2407
dödsriket	-2408
trofasthet	-2409
välsignelse	-2410
lot	-2411
sko	-2412
fäst	-2413
jude	-2414
kast	-2415
lova	-2416
tänk	-2417
givna	-2418
herde	-2419
tacka	-2420
trygg	-2421
åsnor	-2422
östra	-2423
beskär	-2424
lyssna	-2425
lägger	-2426
trälar	-2427
fruktar	-2428
hjärtat	-2429
oomskur	-2430
predika	-2431
salomos	-2432
skatter	-2433
frambära	-2434
oförnuft	-2435
träffade	-2436
övergivit	-2437
jat	-2438
tas	-2439
dnes	-2440
ffar	-2441
krön	-2442
lukt	-2443
matt	-2444
sikt	-2445
utty	-2446
ernas	-2447
fören	-2448
kades	-2449
linne	-2450
mätte	-2451
orent	-2452
sutto	-2453
vädur	-2454
nelsen	-2455
samhet	-2456
sjunga	-2457
slagit	-2458
tretti	-2459
utgjut	-2460
väldig	-2461
dnessar	-2462
mäktiga	-2463
evärdlig	-2464
händerna	-2465
kanhända	-2466
ningsmän	-2467
skyndade	-2468
undervisa	-2469
brännoffret	-2470
nebukadnessar	-2471
tu	-2472
fog	-2473
gul	-2474
plö	-2475
såt	-2476
elän	-2477
hård	-2478
höga	-2479
isma	-2480
rakt	-2481
rann	-2482
vete	-2483
vist	-2484
ditin	-2485
ester	-2486
funno	-2487
slipp	-2488
tonde	-2489
fattig	-2490
förnäm	-2491
mmelse	-2492
iternas	-2493
mäktige	-2494
synagog	-2495
sabbaten	-2496
fördenskull	-2497
sångmästaren	-2498
ci	-2499
brä	-2500
iak	-2501
jde	-2502
job	-2503
ked	-2504
amen	-2505
byar	-2506
fisk	-2507
hugg	-2508
inre	-2509
kamm	-2510
ceder	-2511
delar	-2512
hedna	-2513
komme	-2514
latus	-2515
liten	-2516
nådig	-2517
räkna	-2518
sadok	-2519
sinne	-2520
förvär	-2521
vilkas	-2522
fattiga	-2523
förstår	-2524
händers	-2525
kroppen	-2526
ordning	-2527
pilatus	-2528
mordokai	-2529
småboskap	-2530
förståndig	-2531
upptecknat	-2532
babyloniske	-2533
döp	-2534
gan	-2535
gil	-2536
rym	-2537
vel	-2538
beer	-2539
brud	-2540
dans	-2541
drar	-2542
född	-2543
garn	-2544
gjut	-2545
jehu	-2546
väll	-2547
domen	-2548
drott	-2549
fullt	-2550
fåren	-2551
lehem	-2552
mjölk	-2553
orter	-2554
sebul	-2555
unnen	-2556
midjan	-2557
plundr	-2558
stjärn	-2559
stötte	-2560
helgade	-2561
samlade	-2562
tjänade	-2563
vingård	-2564
detsamma	-2565
världens	-2566
övertäck	-2567
hemlighet	-2568
upptändes	-2569
förkunnade	-2570
gudsmannen	-2571
jef	-2572
ket	-2573
nya	-2574
slö	-2575
besp	-2576
from	-2577
gods	-2578
otro	-2579
delen	-2580
flytt	-2581
förel	-2582
hatar	-2583
reste	-2584
skada	-2585
tamar	-2586
träng	-2587
tyrus	-2588
barnen	-2589
blotta	-2590
förlos	-2591
jeriko	-2592
lämnat	-2593
trädet	-2594
fullkom	-2595
hemsöka	-2596
kroppar	-2597
messias	-2598
vinning	-2599
ansikten	-2600
skaffade	-2601
araméerna	-2602
tjänstgör	-2603
fariséerna	-2604
bö	-2605
löv	-2606
väp	-2607
bala	-2608
band	-2609
fort	-2610
gads	-2611
ståt	-2612
äger	-2613
maria	-2614
orten	-2615
sköld	-2616
synda	-2617
varna	-2618
avfäll	-2619
dörren	-2620
frågar	-2621
förvar	-2622
kallat	-2623
purpur	-2624
rubens	-2625
räknas	-2626
klädnad	-2627
libanon	-2628
tjänste	-2629
vädurar	-2630
överflö	-2631
bröderna	-2632
försking	-2633
bedrövelse	-2634
konungarna	-2635
ks	-2636
pu	-2637
su	-2638
gag	-2639
kin	-2640
ler	-2641
nät	-2642
anat	-2643
gren	-2644
reha	-2645
amale	-2646
brunn	-2647
bästa	-2648
fästa	-2649
joram	-2650
råder	-2651
bjuder	-2652
förlor	-2653
förmår	-2654
glädja	-2655
gossen	-2656
herrar	-2657
sidkia	-2658
varmed	-2659
betyder	-2660
dottern	-2661
förakta	-2662
ryttare	-2663
rehabeam	-2664
sändebud	-2665
därutöver	-2666
kvinnorna	-2667
ala	-2668
ced	-2669
dru	-2670
saf	-2671
sod	-2672
bete	-2673
hals	-2674
kare	-2675
ljud	-2676
sker	-2677
flera	-2678
flick	-2679
ihjäl	-2680
krets	-2681
riken	-2682
anklag	-2683
dödade	-2684
familj	-2685
fiende	-2686
lammet	-2687
sextio	-2688
ställt	-2689
räddade	-2690
offereld	-2691
tillhörande	-2692
missgärningar	-2693
översteprästen	-2694
him	-2695
rit	-2696
behö	-2697
fjor	-2698
glöd	-2699
kort	-2700
lätt	-2701
ofem	-2702
ogär	-2703
pest	-2704
sema	-2705
seru	-2706
säll	-2707
ätte	-2708
anför	-2709
förmå	-2710
jisre	-2711
nader	-2712
närma	-2713
sista	-2714
sodom	-2715
vande	-2716
brände	-2717
fångar	-2718
följer	-2719
mankön	-2720
synden	-2721
söners	-2722
berömma	-2723
fattade	-2724
förlåta	-2725
skullen	-2726
enlighet	-2727
spetälska	-2728
avkomlingar	-2729
gos	-2730
grå	-2731
kry	-2732
käm	-2733
pil	-2734
vas	-2735
asaf	-2736
etio	-2737
fota	-2738
korn	-2739
påsk	-2740
sänd	-2741
bestå	-2742
hydda	-2743
rycka	-2744
rörde	-2745
upphä	-2746
etiopi	-2747
hoppas	-2748
livets	-2749
munnen	-2750
skilja	-2751
antalet	-2752
förstod	-2753
hämtade	-2754
uppstån	-2755
ödemark	-2756
eländiga	-2757
högtiden	-2758
iakttaga	-2759
strömmar	-2760
övermått	-2761
furstarna	-2762
främlingen	-2763
välbehaglig	-2764
ara	-2765
gal	-2766
pry	-2767
räd	-2768
syd	-2769
vik	-2770
ägo	-2771
höjd	-2772
ihop	-2773
ocka	-2774
skan	-2775
slöt	-2776
spän	-2777
tyck	-2778
barna	-2779
derna	-2780
dräpt	-2781
dödas	-2782
gärna	-2783
härom	-2784
konst	-2785
laban	-2786
lovad	-2787
oljan	-2788
sions	-2789
skänd	-2790
skära	-2791
ström	-2792
välde	-2793
beslut	-2794
draban	-2795
eligen	-2796
förbun	-2797
hyddor	-2798
sinnet	-2799
tjugut	-2800
tänder	-2801
vittne	-2802
fastmer	-2803
förundr	-2804
lydande	-2805
utgjuta	-2806
bättring	-2807
krossade	-2808
skickade	-2809
ståndakt	-2810
särskilt	-2811
jerobeams	-2812
undervisade	-2813
aln	-2814
bly	-2815
ela	-2816
kvi	-2817
las	-2818
lja	-2819
ves	-2820
äpp	-2821
drev	-2822
fred	-2823
gide	-2824
hjor	-2825
stöd	-2826
vise	-2827
andar	-2828
behöv	-2829
jelse	-2830
kläda	-2831
låtom	-2832
menar	-2833
plåga	-2834
profe	-2835
stoft	-2836
svårt	-2837
voren	-2838
barnet	-2839
bereda	-2840
fördri	-2841
syndar	-2842
hjärtas	-2843
stoftet	-2844
syndare	-2845
vällukt	-2846
ståndare	-2847
överträdelser	-2848
ky	-2849
bek	-2850
ged	-2851
myn	-2852
elja	-2853
gift	-2854
säck	-2855
änka	-2856
blods	-2857
burit	-2858
dömen	-2859
ftali	-2860
föret	-2861
gilea	-2862
hopen	-2863
innor	-2864
jebus	-2865
levan	-2866
loven	-2867
namns	-2868
berett	-2869
delade	-2870
frälst	-2871
häpnad	-2872
sjätte	-2873
altaren	-2874
bespott	-2875
däremot	-2876
fattige	-2877
naftali	-2878
orenhet	-2879
fienders	-2880
minnelse	-2881
ståthåll	-2882
förbannad	-2883
hövitsman	-2884
verkligen	-2885
övermåttan	-2886
inmönstrades	-2887
bb	-2888
dår	-2889
lån	-2890
noa	-2891
rad	-2892
rum	-2893
tav	-2894
tyg	-2895
bedr	-2896
hasa	-2897
hero	-2898
jämt	-2899
löft	-2900
pade	-2901
salt	-2902
stes	-2903
väkt	-2904
ätit	-2905
bekym	-2906
blått	-2907
fläck	-2908
fylla	-2909
klädd	-2910
utväl	-2911
velat	-2912
bryter	-2913
mindre	-2914
nödgas	-2915
räcker	-2916
rätten	-2917
tronen	-2918
folkens	-2919
förloss	-2920
herodes	-2921
isaskar	-2922
sabbats	-2923
folkslag	-2924
gästabud	-2925
tjänaren	-2926
keruberna	-2927
amoréernas	-2928
förbundsar	-2929
hungersnöd	-2930
ljusstaken	-2931
allsmäktige	-2932
begynnelsen	-2933
underlydande	-2934
drå	-2935
fön	-2936
ims	-2937
set	-2938
bena	-2939
dare	-2940
ford	-2941
glad	-2942
grön	-2943
gård	-2944
köpa	-2945
nads	-2946
omer	-2947
plet	-2948
sara	-2949
ssla	-2950
torr	-2951
dömer	-2952
heten	-2953
lunda	-2954
mötes	-2955
asarja	-2956
enligt	-2957
fältet	-2958
gården	-2959
likaså	-2960
person	-2961
sabbat	-2962
skjuta	-2963
slippa	-2964
stenen	-2965
tältet	-2966
bestämt	-2967
broders	-2968
hjältar	-2969
klippan	-2970
krönika	-2971
stycket	-2972
vinträd	-2973
förrätta	-2974
härefter	-2975
judarnas	-2976
tillfäll	-2977
underdån	-2978
förföljde	-2979
mörkblått	-2980
offergåva	-2981
huvudmännen	-2982
hövitsmännen	-2983
kn	-2984
nam	-2985
pal	-2986
ppa	-2987
tvi	-2988
▁'?	-2989
amas	-2990
båge	-2991
näst	-2992
strå	-2993
sökt	-2994
ttag	-2995
armar	-2996
bakom	-2997
behör	-2998
brett	-2999
gibea	-3000
haman	-3001
natan	-3002
skinn	-3003
varom	-3004
gideon	-3005
havets	-3006
lotten	-3007
pelare	-3008
skapat	-3009
bosatte	-3010
innande	-3011
profeti	-3012
utvalda	-3013
alltjämt	-3014
begraven	-3015
därjämte	-3016
översten	-3017
välsignad	-3018
åminnelse	-3019
fotstycken	-3020
sammalunda	-3021
israeliterna	-3022
do	-3023
fas	-3024
ors	-3025
tår	-3026
vål	-3027
yra	-3028
ytt	-3029
ebja	-3030
isai	-3031
lysa	-3032
lärt	-3033
löse	-3034
rott	-3035
ssar	-3036
urit	-3037
åsna	-3038
edoms	-3039
fyrti	-3040
komst	-3041
ljung	-3042
lycka	-3043
utför	-3044
utski	-3045
vinet	-3046
ägare	-3047
elsens	-3048
filipp	-3049
fördol	-3050
gilgal	-3051
ingång	-3052
mmarna	-3053
ringar	-3054
skräck	-3055
skugga	-3056
tuktan	-3057
arbetet	-3058
berätta	-3059
jojakim	-3060
nitälsk	-3061
plägade	-3062
templet	-3063
väldiga	-3064
vänstra	-3065
kärleken	-3066
någonsin	-3067
invånarna	-3068
tillbehör	-3069
uppenbarat	-3070
förbannelse	-3071
ogudaktighet	-3072
beh	-3073
dub	-3074
gir	-3075
hju	-3076
mel	-3077
pin	-3078
sma	-3079
tig	-3080
brut	-3081
döme	-3082
jesa	-3083
käll	-3084
känt	-3085
ovän	-3086
silo	-3087
skäl	-3088
skåd	-3089
svek	-3090
utta	-3091
besin	-3092
förne	-3093
hugga	-3094
husen	-3095
merar	-3096
modig	-3097
samme	-3098
söken	-3099
upphö	-3100
visst	-3101
avguda	-3102
fattas	-3103
fröjda	-3104
ismael	-3105
jungfr	-3106
styrka	-3107
tappra	-3108
träffa	-3109
tågade	-3110
förklar	-3111
högtids	-3112
jisreel	-3113
skrivit	-3114
bestämda	-3115
förlåten	-3116
huvudmän	-3117
tjugufem	-3118
allahanda	-3119
myndighet	-3120
offergärd	-3121
inmönstrade	-3122
ms	-3123
ub	-3124
eus	-3125
kol	-3126
rot	-3127
sur	-3128
bäva	-3129
dnad	-3130
grop	-3131
gäng	-3132
oliv	-3133
seir	-3134
skog	-3135
aktar	-3136
balak	-3137
bruka	-3138
båten	-3139
drevo	-3140
dömet	-3141
faren	-3142
föder	-3143
guden	-3144
hemma	-3145
leder	-3146
lutit	-3147
månad	-3148
ofärd	-3149
rakel	-3150
tarna	-3151
undfå	-3152
benaja	-3153
främst	-3154
förtor	-3155
judeen	-3156
klädde	-3157
saliga	-3158
allting	-3159
behöver	-3160
föremål	-3161
grunden	-3162
sakarja	-3163
vittnen	-3164
anförare	-3165
överallt	-3166
förgjorde	-3167
härskaror	-3168
hövdingen	-3169
vingårdar	-3170
kananéerna	-3171
föreskrivet	-3172
gensträviga	-3173
hövitsmannen	-3174
undervisning	-3175
▁)	-3176
efo	-3177
uns	-3178
kain	-3179
leda	-3180
oxar	-3181
rama	-3182
säng	-3183
vall	-3184
ädla	-3185
betän	-3186
boken	-3187
breda	-3188
envar	-3189
följd	-3190
hanan	-3191
hämnd	-3192
likna	-3193
norra	-3194
plöts	-3195
ruben	-3196
simei	-3197
sjuka	-3198
begjut	-3199
behöva	-3200
besatt	-3201
budbär	-3202
förord	-3203
tillsy	-3204
vittna	-3205
husfolk	-3206
kammare	-3207
väduren	-3208
förbarma	-3209
förlossa	-3210
gräshopp	-3211
gudstjän	-3212
tillfälle	-3213
vedergäll	-3214
tjänarinna	-3215
drabanterna	-3216
förskräckta	-3217
orättfärdighet	-3218
ers	-3219
jav	-3220
kna	-3221
mag	-3222
ägg	-3223
halv	-3224
kale	-3225
kalk	-3226
mäng	-3227
pres	-3228
spri	-3229
stäm	-3230
värn	-3231
assur	-3232
bredd	-3233
bring	-3234
jutit	-3235
krona	-3236
ktiga	-3237
mispa	-3238
saken	-3239
satan	-3240
uttyd	-3241
högste	-3242
jesaja	-3243
kreter	-3244
lämnas	-3245
skynda	-3246
släppa	-3247
stadga	-3248
svarar	-3249
ungdom	-3250
västra	-3251
begärde	-3252
behålla	-3253
fränder	-3254
israeli	-3255
omvända	-3256
tillred	-3257
väpnade	-3258
åttonde	-3259
dörrvakt	-3260
sekreter	-3261
styckena	-3262
talenter	-3263
amoréerna	-3264
hedningar	-3265
smörjelse	-3266
särskilda	-3267
fullbordas	-3268
stjärnorna	-3269
avdelningar	-3270
bergsbygden	-3271
förbundsark	-3272
välluktande	-3273
konungshuset	-3274
äktenskapsbrott	-3275
ib	-3276
kla	-3277
mme	-3278
mon	-3279
sis	-3280
bott	-3281
dråp	-3282
klok	-3283
kull	-3284
segg	-3285
topp	-3286
tvär	-3287
esaus	-3288
fånga	-3289
födda	-3290
gripa	-3291
hadad	-3292
härpå	-3293
kakor	-3294
räckt	-3295
skaff	-3296
syner	-3297
värde	-3298
åkern	-3299
aktade	-3300
amasja	-3301
angrip	-3302
arbeta	-3303
bitter	-3304
blygas	-3305
bröden	-3306
djupet	-3307
falska	-3308
fordom	-3309
föröka	-3310
herdar	-3311
hesbon	-3312
semaja	-3313
simson	-3314
själar	-3315
skaran	-3316
åkalla	-3317
beläten	-3318
boskaps	-3319
dagarna	-3320
gileads	-3321
liknade	-3322
pelarna	-3323
straffa	-3324
utrotas	-3325
vänster	-3326
framgent	-3327
förfölja	-3328
trygghet	-3329
hövitsmän	-3330
svärdsegg	-3331
kaldéernas	-3332
visserligen	-3333
överstepräst	-3334
ät	-3335
bom	-3336
hil	-3337
oro	-3338
plå	-3339
sai	-3340
sed	-3341
ahit	-3342
alja	-3343
förr	-3344
gagn	-3345
grät	-3346
jare	-3347
kant	-3348
keha	-3349
lopp	-3350
muns	-3351
mäns	-3352
röra	-3353
språ	-3354
tåga	-3355
ätas	-3356
ahabs	-3357
bered	-3358
betal	-3359
bords	-3360
böjde	-3361
elias	-3362
frisk	-3363
fritt	-3364
förhä	-3365
haden	-3366
hungr	-3367
intog	-3368
pilar	-3369
sihon	-3370
träff	-3371
tukta	-3372
utkrä	-3373
yttre	-3374
änden	-3375
anslag	-3376
betäck	-3377
blinda	-3378
bordet	-3379
bredde	-3380
kirjat	-3381
löften	-3382
skriva	-3383
ödelag	-3384
ögonen	-3385
härliga	-3386
jungfru	-3387
trolösa	-3388
upprätt	-3389
ödmjuka	-3390
härifrån	-3391
härskara	-3392
kallades	-3393
slaktade	-3394
brinnande	-3395
förbränna	-3396
storligen	-3397
djä	-3398
kru	-3399
lug	-3400
sir	-3401
sus	-3402
vul	-3403
öva	-3404
bett	-3405
cken	-3406
hall	-3407
ligg	-3408
länd	-3409
mmen	-3410
måst	-3411
uria	-3412
vett	-3413
vida	-3414
baner	-3415
följt	-3416
huden	-3417
höger	-3418
lägra	-3419
rosen	-3420
salen	-3421
skrym	-3422
skörd	-3423
slätt	-3424
snara	-3425
trång	-3426
ullen	-3427
vänta	-3428
begiva	-3429
djävul	-3430
dyrbar	-3431
förmer	-3432
guldet	-3433
handla	-3434
kamrar	-3435
kunnat	-3436
slutit	-3437
vandel	-3438
vinner	-3439
befallt	-3440
osyrade	-3441
sporten	-3442
stänger	-3443
tillbör	-3444
ävensom	-3445
cederträ	-3446
filippus	-3447
fötterna	-3448
kamrarna	-3449
lyssnade	-3450
molnskyn	-3451
uppstått	-3452
yttersta	-3453
årsgamla	-3454
avdelning	-3455
drottning	-3456
välsignat	-3457
leviternas	-3458
tabernakel	-3459
tillstädes	-3460
ak	-3461
jt	-3462
vu	-3463
ern	-3464
fre	-3465
inv	-3466
isk	-3467
maa	-3468
mos	-3469
näp	-3470
oxe	-3471
ved	-3472
abia	-3473
ares	-3474
dres	-3475
famn	-3476
hell	-3477
högg	-3478
raka	-3479
råds	-3480
ägde	-3481
ödda	-3482
blind	-3483
ensam	-3484
fatta	-3485
föräl	-3486
hälsa	-3487
jubla	-3488
lösen	-3489
skrev	-3490
stått	-3491
södra	-3492
tårar	-3493
undra	-3494
utsag	-3495
ändar	-3496
betala	-3497
dödens	-3498
fästen	-3499
jojada	-3500
kastar	-3501
ljudet	-3502
nalkas	-3503
nionde	-3504
ryktet	-3505
samari	-3506
trolös	-3507
brunnen	-3508
dressar	-3509
dyrbara	-3510
frivill	-3511
frälsar	-3512
gudarna	-3513
hjordar	-3514
lidande	-3515
penning	-3516
sjungen	-3517
ställen	-3518
utvalde	-3519
vandrat	-3520
befallde	-3521
begjutet	-3522
övergiva	-3523
förbundet	-3524
förkunnat	-3525
förnämsta	-3526
förstfött	-3527
tillrätta	-3528
förtröstar	-3529
moderlivet	-3530
tiondedels	-3531
upptecknade	-3532
överträdelse	-3533
nebukadressar	-3534
bat	-3535
buk	-3536
dor	-3537
kej	-3538
rab	-3539
jaga	-3540
knän	-3541
kära	-3542
mare	-3543
möta	-3544
rebe	-3545
sall	-3546
städ	-3547
trum	-3548
vita	-3549
angår	-3550
baals	-3551
benen	-3552
borde	-3553
duvor	-3554
dårar	-3555
falsk	-3556
innas	-3557
kötts	-3558
lorna	-3559
lyfta	-3560
strar	-3561
tröst	-3562
utplå	-3563
välan	-3564
begrov	-3565
bockar	-3566
botade	-3567
brödet	-3568
ditned	-3569
offren	-3570
rening	-3571
räddat	-3572
sattes	-3573
skörde	-3574
stoden	-3575
störta	-3576
tränga	-3577
uppsåt	-3578
vunnit	-3579
väggen	-3580
bevarar	-3581
dricker	-3582
frambär	-3583
frälsta	-3584
gammalt	-3585
gedalja	-3586
kameler	-3587
lovligt	-3588
sköldar	-3589
stadens	-3590
stående	-3591
trumpet	-3592
uppstod	-3593
österut	-3594
beslutit	-3595
kläderna	-3596
länderna	-3597
portarna	-3598
straffas	-3599
ägodelar	-3600
kaldéerna	-3601
plötsligt	-3602
stridbara	-3603
sydlandet	-3604
uppenbara	-3605
vedergälla	-3606
uppenbarade	-3607
vittnesbördet	-3608
cyp	-3609
dab	-3610
kys	-3611
lin	-3612
ryg	-3613
spr	-3614
tad	-3615
tär	-3616
uja	-3617
vde	-3618
ypp	-3619
grip	-3620
lita	-3621
nitt	-3622
sien	-3623
sinn	-3624
spel	-3625
vilo	-3626
änkt	-3627
allas	-3628
arter	-3629
beser	-3630
böner	-3631
börda	-3632
högre	-3633
ledde	-3634
märke	-3635
månen	-3636
nasar	-3637
sköna	-3638
stöte	-3639
sålde	-3640
sörja	-3641
veros	-3642
vålla	-3643
bestån	-3644
delsen	-3645
dubbel	-3646
flytta	-3647
gibeon	-3648
hållas	-3649
lemmar	-3650
märkte	-3651
måltid	-3652
svurit	-3653
utgöra	-3654
visdom	-3655
begrava	-3656
dagliga	-3657
däröver	-3658
förbrän	-3659
förgäta	-3660
handlat	-3661
skaffar	-3662
sträcka	-3663
frälsare	-3664
försmäkt	-3665
tillbådo	-3666
utskifta	-3667
utväljer	-3668
ahasveros	-3669
belägrade	-3670
sorgdräkt	-3671
apostlarna	-3672
förundrade	-3673
purpurrött	-3674
avfällighet	-3675
beståndande	-3676
rättfärdighetens	-3677
gö	-3678
bri	-3679
dod	-3680
jet	-3681
met	-3682
sjö	-3683
spi	-3684
tur	-3685
▁'.	-3686
adon	-3687
bliv	-3688
bund	-3689
elam	-3690
häst	-3691
hårt	-3692
nåda	-3693
obed	-3694
svår	-3695
veck	-3696
äkta	-3697
övre	-3698
befäl	-3699
betes	-3700
dödsk	-3701
eviga	-3702
femti	-3703
finge	-3704
gråta	-3705
jande	-3706
karna	-3707
lagan	-3708
levit	-3709
lycko	-3710
längd	-3711
lögna	-3712
ramot	-3713
stöta	-3714
säker	-3715
vakna	-3716
vikit	-3717
visat	-3718
växer	-3719
växte	-3720
andras	-3721
bugade	-3722
dårakt	-3723
dörrar	-3724
finger	-3725
förgry	-3726
gläder	-3727
grenar	-3728
hälsar	-3729
kejsar	-3730
lyfter	-3731
lämnar	-3732
månads	-3733
ryckte	-3734
sjutti	-3735
stolen	-3736
tjuren	-3737
tjänat	-3738
trösta	-3739
andarna	-3740
avkomma	-3741
ebjatar	-3742
flickan	-3743
platser	-3744
prisade	-3745
räkning	-3746
ungtjur	-3747
bekymmer	-3748
berättat	-3749
framgång	-3750
fåglarna	-3751
förbanna	-3752
förgäves	-3753
förtälja	-3754
jungfrur	-3755
kastning	-3756
skriften	-3757
störtade	-3758
tillstad	-3759
vederkvi	-3760
förkastat	-3761
förstling	-3762
helgedoms	-3763
nitälskan	-3764
oomskurna	-3765
dödsklagan	-3766
orenlighet	-3767
ostrafflig	-3768
skuldoffer	-3769
hövdingarna	-3770
penningarna	-3771
sabbatsdagen	-3772
efterkommande	-3773
--	-3774
rs	-3775
deg	-3776
gom	-3777
jed	-3778
nio	-3779
pad	-3780
sib	-3781
▁»?	-3782
brok	-3783
ebin	-3784
eden	-3785
glan	-3786
grep	-3787
heti	-3788
hets	-3789
löst	-3790
neba	-3791
nuns	-3792
spär	-3793
äten	-3794
akaci	-3795
begår	-3796
bjuda	-3797
bleve	-3798
bojor	-3799
brist	-3800
forna	-3801
gjuta	-3802
grann	-3803
grepo	-3804
hamat	-3805
källa	-3806
netan	-3807
vakta	-3808
yngre	-3809
änkor	-3810
öppet	-3811
▁----	-3812
avskil	-3813
begåvo	-3814
betyda	-3815
fettet	-3816
flyter	-3817
frågen	-3818
förste	-3819
hallel	-3820
insikt	-3821
mottag	-3822
nelser	-3823
omgjor	-3824
skörda	-3825
starkt	-3826
stigar	-3827
tjänen	-3828
uppslu	-3829
vinnas	-3830
ältets	-3831
ämbete	-3832
öjligt	-3833
dårskap	-3834
fyrfota	-3835
förströ	-3836
förvill	-3837
hustrun	-3838
rebecka	-3839
stunden	-3840
tacksäg	-3841
terebin	-3842
hörsamma	-3843
räddning	-3844
sångarna	-3845
tillsade	-3846
tillstäd	-3847
vilddjur	-3848
avkomling	-3849
människas	-3850
stötesten	-3851
tillhörde	-3852
barmhärtig	-3853
förhärliga	-3854
förskräckt	-3855
fruktansvär	-3856
förståndiga	-3857
himmelriket	-3858
ningsmännen	-3859
småboskapen	-3860
vittnesbördets	-3861
tå	-3862
vt	-3863
aim	-3864
bna	-3865
fun	-3866
gol	-3867
grö	-3868
ivr	-3869
jar	-3870
kos	-3871
ror	-3872
örn	-3873
bada	-3874
dagg	-3875
dåre	-3876
döpa	-3877
elns	-3878
gavs	-3879
sido	-3880
snör	-3881
unge	-3882
utgå	-3883
vift	-3884
vägg	-3885
allra	-3886
baesa	-3887
buden	-3888
budet	-3889
grott	-3890
gröda	-3891
kaleb	-3892
lidan	-3893
ljuda	-3894
naken	-3895
njuta	-3896
pelar	-3897
sidon	-3898
stjär	-3899
stret	-3900
synes	-3901
säden	-3902
väder	-3903
vålds	-3904
åkall	-3905
åttio	-3906
består	-3907
brudgu	-3908
druvor	-3909
fromma	-3910
förhus	-3911
förvir	-3912
ganska	-3913
helgar	-3914
hindra	-3915
hälsen	-3916
högmod	-3917
josias	-3918
kännen	-3919
räknat	-3920
samlar	-3921
stolta	-3922
akaciet	-3923
begynna	-3924
dragare	-3925
drömmen	-3926
därnäst	-3927
härtill	-3928
johanan	-3929
skaffen	-3930
upphöjd	-3931
ansiktet	-3932
arbetade	-3933
barnabas	-3934
högtider	-3935
korsfäst	-3936
liknelse	-3937
manasses	-3938
plantera	-3939
¦	-3940
▁	-3941
a	-3942
e	-3943
n	-3944
r	-3945
t	-3946
s	-3947
d	-3948
l	-3949
o	-3950
i	-3951
h	-3952
m	-3953
g	-3954
k	-3955
𐋇	-3956
v	-3957
ä	-3958
f	-3959
u	-3960
å	-3961
c	-3962
,	-3963
ö	-3964
b	-3965
j	-3966
p	-3967
.	-3968
y	-3969
»	-3970
;	-3971
:	-3972
𐊣	-3973
𐊼	-3974
?	-3975
-	-3976
'	-3977
é	-3978
!	-3979
x	-3980
(	-3981
)	-3982
2	-3983
0	-3984
4	-3985
6	-3986
1	-3987
8	-3988
9	-3989
ó	-3990
3	-3991
5	-3992
7	-3993
í	-3994
]	-3995
á	-3996
