<pad>	0
</s>	0
<unk>	0
▁¦	-0
्य	-1
्या	-2
▁.	-3
्र	-4
ार	-5
ां	-6
ना	-7
ात	-8
र्	-9
हे	-10
ला	-11
▁,	-12
कर	-13
क्	-14
च्या	-15
वा	-16
आहे	-17
ले	-18
प्र	-19
ही	-20
का	-21
ण्या	-22
ल्या	-23
सा	-24
स्	-25
चा	-26
ती	-27
सं	-28
्ह	-29
ची	-30
वि	-31
मा	-32
के	-33
या	-34
रो	-35
आण	-36
ली	-37
ने	-38
को	-39
ून	-40
आणि	-41
ता	-42
हो	-43
मध	-44
अस	-45
त्या	-46
ंत	-47
रा	-48
नि	-49
्ये	-50
णा	-51
ते	-52
पा	-53
क्ष	-54
पर	-55
कार	-56
चे	-57
ठी	-58
मध्ये	-59
मु	-60
वर	-61
नी	-62
साठी	-63
ित	-64
दे	-65
व्ह	-66
िक	-67
रु	-68
दि	-69
जा	-70
झा	-71
ग्	-72
लं	-73
वे	-74
ील	-75
ंद	-76
शी	-77
तर	-78
कोरो	-79
कोरोना	-80
म्ह	-81
ये	-82
करण्या	-83
यां	-84
्ट	-85
की	-86
सर्	-87
हि	-88
बा	-89
हा	-90
सी	-91
रुग्	-92
णे	-93
तात	-94
सि	-95
त्	-96
सु	-97
चं	-98
ळे	-99
कड	-100
वी	-101
स्थ	-102
लेल्या	-103
ऱ्या	-104
आहेत	-105
नाही	-106
पु	-107
शा	-108
सर	-109
भा	-110
मी	-111
णी	-112
िं	-113
गा	-114
द्	-115
जे	-116
ष्ट	-117
से	-118
शक	-119
लो	-120
ज्या	-121
तो	-122
सां	-123
सार	-124
णार	-125
0¦	-126
त्यां	-127
ाय	-128
रोग	-129
वार	-130
▁𐊣	-131
णां	-132
▁¦2	-133
▁¦1	-134
कां	-135
मुळे	-136
मो	-137
ति	-138
घे	-139
न्	-140
ंत्र	-141
मि	-142
ारा	-143
जन	-144
दा	-145
रे	-146
त्र	-147
री	-148
ल्	-149
उप	-150
ंतर	-151
ण्यात	-152
शि	-153
एक	-154
पू	-155
देश	-156
गे	-157
स्ट	-158
▁"	-159
ळा	-160
यो	-161
तील	-162
किं	-163
विष	-164
क्र	-165
रू	-166
लस	-167
▁(	-168
दु	-169
म्हण	-170
जी	-171
टी	-172
पे	-173
▁)	-174
9¦	-175
आरोग	-176
सरकार	-177
व्य	-178
्यां	-179
मे	-180
पास	-181
किंवा	-182
वर्	-183
पण	-184
परि	-185
टा	-186
▁'	-187
टे	-188
ार्	-189
तु	-190
आरोग्य	-191
निर्	-192
काही	-193
चार	-194
नंतर	-195
स्त	-196
्ही	-197
णू	-198
जात	-199
लाग	-200
मान	-201
यांनी	-202
मह	-203
धी	-204
रि	-205
वाढ	-206
संसर्	-207
डॉ	-208
▁?	-209
ंद्र	-210
िल	-211
सांग	-212
ळी	-213
असल्या	-214
श्	-215
रात	-216
करण्यात	-217
कमी	-218
िती	-219
जार	-220
अध	-221
्यंत	-222
सो	-223
होत	-224
णाऱ्या	-225
बं	-226
लक्ष	-227
व्हि	-228
संख	-229
विषा	-230
धा	-231
खा	-232
डे	-233
राज्या	-234
पूर्	-235
ष्ट्र	-236
णं	-237
विषाणू	-238
सर्व	-239
भार	-240
लशी	-241
-1	-242
दी	-243
्यू	-244
द्या	-245
गर	-246
असे	-247
क्षा	-248
असं	-249
लोकां	-250
पर्यंत	-251
मंत्र	-252
लसी	-253
ऊन	-254
केली	-255
ण्यासाठी	-256
चाच	-257
प्रमा	-258
रुग्णां	-259
नु	-260
क्त	-261
ंब	-262
ज्	-263
लि	-264
-19¦	-265
ृत	-266
दिव	-267
क्सि	-268
co	-269
ठा	-270
बत	-271
ताना	-272
गी	-273
नो	-274
्यात	-275
यु	-276
लॉ	-277
पो	-278
ोना	-279
पासून	-280
केंद्र	-281
ंट	-282
िट	-283
स्थिती	-284
मार्	-285
ईल	-286
कोव्हि	-287
बंध	-288
ांना	-289
करोना	-290
ंड	-291
दर	-292
ातील	-293
माहि	-294
माहिती	-295
आले	-296
कडे	-297
वारी	-298
करण	-299
क्ट	-300
बंद	-301
प्रति	-302
्स	-303
रुग्णा	-304
द्ध	-305
होते	-306
▁:	-307
आप	-308
सुरू	-309
▁¦20	-310
डी	-311
मृत	-312
संसर्ग	-313
प्रा	-314
दो	-315
केले	-316
वर्ष	-317
कोव्हिड	-318
ठे	-319
महारा	-320
रुग्ण	-321
आम	-322
र्थ	-323
शन	-324
मुख	-325
वापर	-326
व्हाय	-327
बो	-328
प्	-329
महाराष्ट्र	-330
कु	-331
कडा	-332
ण्याची	-333
हात	-334
स्प	-335
स्था	-336
काम	-337
लय	-338
राज	-339
्यु	-340
ऑक्सि	-341
काळ	-342
ब्	-343
क्ती	-344
उत्	-345
व्हायर	-346
ऑक्सिजन	-347
बी	-348
ग्र	-349
इतर	-350
वड	-351
करा	-352
झाल्या	-353
अने	-354
घेत	-355
संख्या	-356
कर्	-357
▁𐋇	-358
मात	-359
5¦	-360
डि	-361
सह	-362
लॉकडा	-363
आली	-364
केला	-365
आढ	-366
शे	-367
निय	-368
द्य	-369
व्हा	-370
एका	-371
ज्ञ	-372
काय	-373
दल	-374
होती	-375
जास्त	-376
दिस	-377
असलेल्या	-378
महि	-379
व्हायरस	-380
निक	-381
मंत्री	-382
पेक्षा	-383
करण्यासाठी	-384
अनेक	-385
भाग	-386
ांच्या	-387
व्या	-388
गो	-389
मृत्यू	-390
आता	-391
थे	-392
नं	-393
्रे	-394
ंना	-395
व्ही	-396
िका	-397
प्रमाण	-398
▁-	-399
vi	-400
नुसार	-401
कीय	-402
परिणा	-403
तय	-404
नस	-405
च्	-406
तयार	-407
बाबत	-408
योग	-409
आज	-410
क्षण	-411
मधील	-412
आढळ	-413
करत	-414
झाला	-415
2¦	-416
दर्	-417
जिल	-418
जिल्ह	-419
ाला	-420
▁¦3	-421
झाली	-422
झाले	-423
ांनी	-424
होता	-425
चाचणी	-426
पी	-427
र्स	-428
भी	-429
covi	-430
टक्	-431
शो	-432
अधिक	-433
कं	-434
covid	-435
पूर्ण	-436
डो	-437
व्यक्ती	-438
वात	-439
दोन	-440
वै	-441
करून	-442
ांमध्ये	-443
ीय	-444
4¦	-445
त्यांच्या	-446
कोण	-447
ंग	-448
लॉकडाऊन	-449
श्य	-450
सांगित	-451
औष	-452
समा	-453
स्क	-454
स्व	-455
म्हट	-456
क्रम	-457
परिणाम	-458
म्हणून	-459
कडून	-460
यांच्या	-461
मिळ	-462
पड	-463
सू	-464
फे	-465
लाव	-466
लोक	-467
आजार	-468
विद्या	-469
जि	-470
वश्य	-471
घट	-472
असेल	-473
वश्यक	-474
राह	-475
ांची	-476
म्हणा	-477
▁¦202	-478
झालेल्या	-479
तं	-480
पुढ	-481
ध्या	-482
विक	-483
लसीकरण	-484
बे	-485
तरी	-486
पुर	-487
मुख्य	-488
प्रवा	-489
मार्च	-490
तुम	-491
जो	-492
वळ	-493
केल्या	-494
ठेव	-495
सम	-496
असा	-497
दिली	-498
गेल्या	-499
गत	-500
अशा	-501
करणे	-502
महा	-503
मोठ	-504
कार्य	-505
न्स	-506
माग	-507
परिस्थिती	-508
वं	-509
राज्य	-510
त्यांना	-511
वेग	-512
उपचार	-513
उपल	-514
शोध	-515
ब्ध	-516
्हे	-517
देण्यात	-518
मुंब	-519
उपलब्ध	-520
मुंबई	-521
आपल्या	-522
खी	-523
गु	-524
टक्के	-525
टो	-526
नोंद	-527
शक्य	-528
म्हणजे	-529
सीओ	-530
पत्र	-531
धार	-532
म्हटलं	-533
राज्यात	-534
ष्	-535
आला	-536
मात्र	-537
आम्ही	-538
डॉक्ट	-539
येत	-540
सीओव्ही	-541
rs	-542
म्हणाले	-543
क्षे	-544
त्यामुळे	-545
शास	-546
पहि	-547
केलं	-548
दुस	-549
ण्याचा	-550
त्यांनी	-551
ब्र	-552
पै	-553
संप	-554
कोवि	-555
शह	-556
व्हे	-557
8¦	-558
सुरु	-559
अशी	-560
घा	-561
महिन	-562
हजार	-563
संसर्गा	-564
एप्र	-565
एप्रिल	-566
वेश	-567
1¦	-568
हॉ	-569
महत्	-570
रुग्णालय	-571
वाय	-572
▁%	-573
औषध	-574
रूग्	-575
ष्टी	-576
चाचण्या	-577
अभ	-578
चाल	-579
ारी	-580
मोठ्या	-581
बोल	-582
भारतात	-583
असून	-584
00¦	-585
कि	-586
व्यव	-587
क्रि	-588
सध्या	-589
डा	-590
मुल	-591
लया	-592
धो	-593
म्हाला	-594
शकतो	-595
असल्याचं	-596
धु	-597
लाख	-598
होतं	-599
प्रकार	-600
नवी	-601
कंप	-602
पुरव	-603
दाख	-604
जग	-605
ंभी	-606
श्व	-607
▁."	-608
सांगतात	-609
साथ	-610
प्रत	-611
वरील	-612
सात	-613
▁¦2020¦	-614
अॅ	-615
आठ	-616
माण	-617
भरात	-618
डॉक्टर	-619
वैद्य	-620
7¦	-621
धान	-622
कर्म	-623
पात	-624
पणे	-625
सरकारने	-626
फ्	-627
पैकी	-628
भू	-629
दिवसां	-630
फो	-631
मू	-632
कोविड	-633
वैद्यकीय	-634
निर्ण	-635
शकतात	-636
करणा	-637
ट्र	-638
प्रसार	-639
मद	-640
देख	-641
सुर	-642
होऊ	-643
डोस	-644
ण्यास	-645
येईल	-646
प्रभा	-647
चि	-648
म्या	-649
शाळा	-650
महाराष्ट्रात	-651
6¦	-652
चित	-653
आलं	-654
करे	-655
ांत	-656
आवश्यक	-657
होतो	-658
सांगितलं	-659
र्क	-660
आल्या	-661
फु	-662
बर	-663
साय	-664
ंभीर	-665
गंभीर	-666
सोबत	-667
लोकांना	-668
भर	-669
नवीन	-670
वाट	-671
मान्य	-672
संख्ये	-673
सेस	-674
▁¦5	-675
ंच्या	-676
योज	-677
अँ	-678
वान	-679
गरिक	-680
नागरिक	-681
चीन	-682
पॉ	-683
पूर	-684
ठिका	-685
मिळा	-686
कॉ	-687
देशात	-688
कारण	-689
होणार	-690
गरज	-691
दुसऱ्या	-692
जर	-693
ंदा	-694
हेर	-695
मास्क	-696
क्षम	-697
वेळी	-698
्री	-699
ांचा	-700
बाहेर	-701
पाल	-702
बदल	-703
पाद	-704
वाह	-705
्हा	-706
सारख	-707
विद्यार्थ	-708
असले	-709
ह्या	-710
यांना	-711
करू	-712
हान	-713
द्वार	-714
व्हॅ	-715
शकते	-716
महत्त्	-717
ंनी	-718
संबंध	-719
ण्याच्या	-720
पूर्वी	-721
परी	-722
निर्णय	-723
फार	-724
घ्या	-725
नाहीत	-726
धित	-727
उत्पाद	-728
मक	-729
पुन	-730
ळ्या	-731
ठाकरे	-732
िव्ह	-733
ईन	-734
ंचा	-735
द्दल	-736
पुढे	-737
क्षेत्र	-738
आय	-739
आपण	-740
मडे	-741
बद्दल	-742
म्यान	-743
राष्ट्र	-744
विरो	-745
उपा	-746
विचार	-747
संपर्क	-748
नियंत्र	-749
सुरुवात	-750
िंग	-751
▁¦4	-752
काळात	-753
दरम्यान	-754
च्छ	-755
हीर	-756
देखील	-757
शक्यता	-758
समावेश	-759
गतिक	-760
जागतिक	-761
हु	-762
क्स	-763
अभ्या	-764
परवान	-765
रेमडे	-766
आलेल्या	-767
बेड	-768
sa	-769
जाहीर	-770
3¦	-771
सरी	-772
पाहि	-773
निर्माण	-774
महत्त्वा	-775
सग	-776
िटल	-777
क्षित	-778
परवानगी	-779
जून	-780
आजारा	-781
द्वारे	-782
रेमडेसि	-783
मुख्यमंत्री	-784
ंची	-785
पसर	-786
ांवर	-787
आधी	-788
येणार	-789
म्हणतात	-790
असते	-791
स्त्र	-792
ल्यानंतर	-793
रुग्णालयात	-794
आर	-795
दिवस	-796
हॉस्प	-797
करण्याची	-798
केलेल्या	-799
मार	-800
्रा	-801
sars	-802
तुम्हाला	-803
जवळ	-804
आठवड	-805
लाटे	-806
बाधित	-807
अमे	-808
ग्रा	-809
लक्षणे	-810
मदत	-811
प्रशास	-812
निर्बंध	-813
ंबर	-814
मिक	-815
टप्	-816
भागा	-817
टर	-818
परा	-819
करणार	-820
अनु	-821
पाठ	-822
याचा	-823
ज्ज्ञ	-824
दिसून	-825
बोलताना	-826
प्रमाणात	-827
म्	-828
ध्य	-829
यत्	-830
लागू	-831
सेवा	-832
तीन	-833
हाय	-834
पहिल्या	-835
मर	-836
ूर	-837
जाते	-838
पद्ध	-839
प्रयत्	-840
ठर	-841
काढ	-842
नमु	-843
संच	-844
प्रश्	-845
योग्य	-846
अर	-847
रोजी	-848
तज्ज्ञ	-849
यी	-850
कोटी	-851
्व	-852
दाखल	-853
नियम	-854
िकार	-855
इं	-856
जाईल	-857
प्रो	-858
श्वस	-859
ऑफ	-860
गर्	-861
ठिकाणी	-862
ांसाठी	-863
अर्थ	-864
कोणत्या	-865
रुग्णांची	-866
मरा	-867
वली	-868
हवा	-869
च्च	-870
दर्भ	-871
अव	-872
पि	-873
ात्	-874
काळजी	-875
कोरोनाची	-876
मागणी	-877
शरी	-878
▁;	-879
दार	-880
र्ड	-881
प्रधान	-882
प्रयत्न	-883
बाब	-884
तपास	-885
पालि	-886
कंपनी	-887
उद	-888
अति	-889
करणाऱ्या	-890
बि	-891
पुरवठा	-892
हॉस्पिटल	-893
कारक	-894
याची	-895
लसीकरणा	-896
संबंधित	-897
करता	-898
विकस	-899
शिक्षण	-900
प्रमाणे	-901
धोका	-902
संक्रम	-903
ताप	-904
उद्ध	-905
इन्	-906
प्रश्न	-907
पुन्हा	-908
वले	-909
मधून	-910
ल्ली	-911
विध	-912
सूच	-913
▁¦1¦	-914
स्थाप	-915
रूग्णां	-916
नात	-917
दिले	-918
बीसी	-919
इत	-920
संक	-921
उद्धव	-922
घरी	-923
मोदी	-924
टेस्ट	-925
वापरा	-926
तः	-927
ंटर	-928
पंत	-929
भागात	-930
संदर्भ	-931
बै	-932
र्ट	-933
तेव्हा	-934
बीबीसी	-935
प्रत्ये	-936
घड	-937
साध	-938
नसल्या	-939
पंतप्रधान	-940
मला	-941
शेष	-942
मिती	-943
उद्रे	-944
सार्स	-945
चाऱ्या	-946
पद्धती	-947
कोरोनाचा	-948
भारत	-949
ांचे	-950
मार्ग	-951
कॅ	-952
▁¦10¦	-953
पातळी	-954
वण्यात	-955
कर्मचाऱ्या	-956
एन	-957
खो	-958
दान	-959
सार्व	-960
असताना	-961
दिल्ली	-962
ंतु	-963
असू	-964
र्म	-965
दिला	-966
स्थे	-967
संशोध	-968
जिल्हा	-969
जु	-970
चर्	-971
किती	-972
अमेरि	-973
तुम्ही	-974
विकसित	-975
अन	-976
वत	-977
जाने	-978
साथी	-979
विशेष	-980
हून	-981
बैठ	-982
टप्प	-983
शहरात	-984
सार्वज	-985
एच	-986
खास	-987
फाय	-988
आकडे	-989
नव्ह	-990
जानेवारी	-991
वाई	-992
ंमध्ये	-993
सार्वजनिक	-994
अं	-995
यन	-996
▁¦6	-997
भारता	-998
असल्याचे	-999
जाऊ	-1000
पॉझ	-1001
वास	-1002
▁¦7	-1003
डेटा	-1004
रुग्णांना	-1005
अंत	-1006
खे	-1007
घो	-1008
बहु	-1009
उपाय	-1010
उत्तर	-1011
टु	-1012
▁¦2¦	-1013
करतात	-1014
शिवाय	-1015
आधार	-1016
न्या	-1017
्यांनी	-1018
वेळ	-1019
उच्च	-1020
स्पष्ट	-1021
प्रभावी	-1022
राष्ट्रीय	-1023
वृ	-1024
्रो	-1025
द्धा	-1026
बंदी	-1027
सिंग	-1028
आढळून	-1029
अधिकार	-1030
मत	-1031
मल	-1032
जीव	-1033
फ्ल	-1034
यावर	-1035
वारं	-1036
महिन्यात	-1037
ूप	-1038
तुल	-1039
योजन	-1040
पॉझिट	-1041
माध्य	-1042
परीक्षा	-1043
सारख्या	-1044
अड	-1045
जन्य	-1046
निरी	-1047
लक्षणं	-1048
्यांना	-1049
यात	-1050
ांब	-1051
ृती	-1052
निया	-1053
होईल	-1054
कार्या	-1055
पाहिजे	-1056
ूक	-1057
नये	-1058
दुर्	-1059
ात्मक	-1060
सामान्य	-1061
ांग	-1062
ब्रु	-1063
म्यु	-1064
याबाबत	-1065
संपूर्ण	-1066
ओळ	-1067
मोर	-1068
चर्चा	-1069
दुसरी	-1070
उद्	-1071
तसंच	-1072
लहान	-1073
निट	-1074
झालं	-1075
पोहो	-1076
असतात	-1077
विविध	-1078
बन	-1079
ूण	-1080
अंदा	-1081
गेले	-1082
घोष	-1083
असतो	-1084
जगभरात	-1085
प्रतिबंध	-1086
ित्	-1087
▁¦9	-1088
आहोत	-1089
खाली	-1090
यंत्र	-1091
करण्यास	-1092
प्रक्रि	-1093
िकाऱ्या	-1094
तीव	-1095
कुटु	-1096
एस	-1097
यू	-1098
घाल	-1099
तीव्र	-1100
ण्याचे	-1101
जिक	-1102
त्रा	-1103
संघट	-1104
राज्यातील	-1105
ष्ठ	-1106
गोष्टी	-1107
बॉ	-1108
मॉ	-1109
-2¦	-1110
ओळख	-1111
तसे	-1112
नाग	-1113
रम	-1114
प्रशासना	-1115
एखा	-1116
तून	-1117
सल्	-1118
राजे	-1119
▁¦5¦	-1120
केसेस	-1121
कोव्हॅ	-1122
वट	-1123
जाण	-1124
भाव	-1125
▁¦8	-1126
क्षणा	-1127
पोहोच	-1128
प्रवास	-1129
झर	-1130
बायो	-1131
कालाव	-1132
घेतला	-1133
कालावधी	-1134
करण्याचा	-1135
संदर्भात	-1136
ज्ञा	-1137
देशा	-1138
विषयी	-1139
विभागा	-1140
सुद्धा	-1141
प्रत्येक	-1142
ब्रुवारी	-1143
शु	-1144
साद	-1145
सामा	-1146
योजना	-1147
्यक्ष	-1148
मंत्रा	-1149
यासाठी	-1150
तीत	-1151
थील	-1152
वीर	-1153
फक्त	-1154
समोर	-1155
▁¦201	-1156
सरकारी	-1157
क्षमता	-1158
त्यानंतर	-1159
कोरोनाच्या	-1160
फेब्रुवारी	-1161
एकूण	-1162
गाने	-1163
रुग्णाल	-1164
त्याच्या	-1165
पॉझिटिव्ह	-1166
वाद	-1167
विल	-1168
लागण	-1169
युक्त	-1170
शिफार	-1171
तुमच्या	-1172
नियंत्रण	-1173
पॅ	-1174
भे	-1175
धिक	-1176
दुका	-1177
मध्य	-1178
जाणार	-1179
मर्या	-1180
केंद्रीय	-1181
खूप	-1182
तुट	-1183
रोख	-1184
क्सिन	-1185
ग्रस्त	-1186
अमेरिके	-1187
न्न	-1188
पार	-1189
िया	-1190
कराय	-1191
ांचं	-1192
असल्याने	-1193
वण्यासाठी	-1194
लढ	-1195
अर्	-1196
पाच	-1197
बेड्स	-1198
विरोध	-1199
उन	-1200
जय	-1201
गेल	-1202
घर	-1203
दृ	-1204
बस	-1205
रोज	-1206
केवळ	-1207
पूर्व	-1208
वर्षी	-1209
कल	-1210
फि	-1211
िले	-1212
आढळले	-1213
जेव्हा	-1214
भव	-1215
मन	-1216
▁“	-1217
कुठ	-1218
संर	-1219
न्ही	-1220
वर्षा	-1221
स्वच्छ	-1222
होत्या	-1223
केंद्रा	-1224
कशी	-1225
चिक	-1226
तां	-1227
नेत	-1228
वून	-1229
प्रयोग	-1230
शरीरात	-1231
्यांच्या	-1232
रुग्णसंख्या	-1233
इट	-1234
ल्स	-1235
चारा	-1236
जातो	-1237
तसेच	-1238
कांना	-1239
खासगी	-1240
रिक्त	-1241
शय	-1242
टाळ	-1243
बात	-1244
अहवा	-1245
क्शन	-1246
तुटवड	-1247
व्यक्त	-1248
हर	-1249
२०	-1250
प्ट	-1251
रोप	-1252
ल्ड	-1253
दिसत	-1254
असतील	-1255
गर्दी	-1256
यांचा	-1257
स्टिट	-1258
कर्मचार	-1259
कोणत्याही	-1260
माझ	-1261
यला	-1262
निवड	-1263
▁¦3¦	-1264
▁¦50¦	-1265
याच्या	-1266
आकडेवारी	-1267
निर्मिती	-1268
ho	-1269
पाह	-1270
मां	-1271
येऊ	-1272
आर्थ	-1273
सूचना	-1274
अधिकाऱ्या	-1275
ce	-1276
शिक	-1277
वाढत	-1278
आर्थिक	-1279
दोन्ही	-1280
रात्री	-1281
उत्पादन	-1282
लशीच्या	-1283
एम	-1284
इंड	-1285
अजून	-1286
गरजे	-1287
घेऊन	-1288
जणां	-1289
नावा	-1290
श्वसन	-1291
येणाऱ्या	-1292
पट	-1293
परत	-1294
क्या	-1295
त्याचा	-1296
प्रमाणा	-1297
कर्मचारी	-1298
ड्र	-1299
दाय	-1300
चांग	-1301
श्वास	-1302
सांगितले	-1303
दूर	-1304
न्ट	-1305
साब	-1306
करणं	-1307
पेशी	-1308
ातून	-1309
कांनी	-1310
गीकरण	-1311
त्यात	-1312
त्रास	-1313
लागेल	-1314
आमच्या	-1315
कुटुंब	-1316
प्रमुख	-1317
सुरक्षित	-1318
सुरुवाती	-1319
ल्प	-1320
दर्श	-1321
वरून	-1322
राजेश	-1323
शिफारस	-1324
टि	-1325
यक	-1326
घात	-1327
रुप	-1328
विका	-1329
अधिकारी	-1330
शल	-1331
नगर	-1332
फुफ्	-1333
▁¦4¦	-1334
पर्या	-1335
सेंटर	-1336
करताना	-1337
स्थानिक	-1338
गृ	-1339
¦	-1340
▁	-1341
ा	-1342
्	-1343
र	-1344
य	-1345
त	-1346
े	-1347
क	-1348
ी	-1349
स	-1350
ल	-1351
न	-1352
ं	-1353
ि	-1354
व	-1355
ह	-1356
म	-1357
च	-1358
ण	-1359
प	-1360
ो	-1361
आ	-1362
द	-1363
ग	-1364
ज	-1365
ु	-1366
.	-1367
ट	-1368
श	-1369
अ	-1370
ू	-1371
ध	-1372
ब	-1373
ड	-1374
,	-1375
ष	-1376
ळ	-1377
ठ	-1378
ख	-1379
भ	-1380
थ	-1381
उ	-1382
घ	-1383
ए	-1384
झ	-1385
ॉ	-1386
फ	-1387
-	-1388
0	-1389
1	-1390
ढ	-1391
2	-1392
इ	-1393
ई	-1394
ॅ	-1395
ऱ	-1396
ऊ	-1397
ृ	-1398
c	-1399
"	-1400
𐊣	-1401
𐊼	-1402
9	-1403
ै	-1404
i	-1405
o	-1406
)	-1407
(	-1408
ऑ	-1409
'	-1410
𐋇	-1411
s	-1412
r	-1413
5	-1414
?	-1415
a	-1416
ओ	-1417
3	-1418
4	-1419
v	-1420
e	-1421
d	-1422
:	-1423
१	-1424
8	-1425
ँ	-1426
7	-1427
6	-1428
२	-1429
०	-1430
ञ	-1431
t	-1432
n	-1433
औ	-1434
p	-1435
छ	-1436
h	-1437
ौ	-1438
m	-1439
%	-1440
४	-1441
३	-1442
५	-1443
ः	-1444
९	-1445
l	-1446
u	-1447
/	-1448
;	-1449
g	-1450
w	-1451
६	-1452
८	-1453
७	-1454
़	-1455
b	-1456
f	-1457
“	-1458
‘	-1459
’	-1460
!	-1461
y	-1462
ऐ	-1463
”	-1464
‍	-1465
ऩ	-1466
k	-1467
x	-1468
–	-1469
•	-1470
[	-1471
]	-1472
#	-1473
ऍ	-1474
$	-1475
z	-1476
ऋ	-1477
q	-1478
j	-1479
<	-1480
≥	-1481
>	-1482
+	-1483
*	-1484
ॲ	-1485
_	-1486
×	-1487
α	-1488
=	-1489
β	-1490
ऎ	-1491
—	-1492
~	-1493
ß	-1494
å	-1495
γ	-1496
