<pad>	0
</s>	0
<unk>	0
、	-2.28918
の	-2.50979
。	-2.99068
は	-4.0651
▁	-4.07274
を	-4.22353
と	-4.3658
に	-4.40682
が	-4.58306
その	-4.91721
、「	-5.15828
」。	-5.25748
も	-5.32344
た	-5.47307
で	-5.54503
から	-5.54564
て	-5.5685
また	-5.59999
か	-5.69973
し	-5.75587
わたしは	-5.76217
る	-5.79118
い	-5.80777
である	-5.89895
よ	-5.97787
り	-6.009
あなたの	-6.022
き	-6.07656
な	-6.20675
わたしの	-6.24126
あなたは	-6.24685
言った	-6.26937
って	-6.29707
」	-6.30275
彼らは	-6.32166
した	-6.36936
み	-6.37565
った	-6.41384
この	-6.42897
く	-6.43771
これを	-6.46176
ことを	-6.46977
者	-6.47253
わたし	-6.55117
のために	-6.55868
して	-6.56345
いた	-6.56435
▁また	-6.5865
す	-6.58734
あなたがたは	-6.58853
彼は	-6.58953
および	-6.60935
すなわち	-6.61709
ら	-6.67205
をもって	-6.67365
によって	-6.68473
ように	-6.68522
ない	-6.69811
え	-6.70664
それを	-6.70696
人	-6.71178
すべての	-6.71735
▁しかし	-6.71838
なさい	-6.72471
お	-6.72484
主は	-6.75386
う	-6.77007
のように	-6.77329
わたしを	-6.77479
や	-6.77855
わたしが	-6.78525
の子	-6.78999
する	-6.80107
からである	-6.80715
ある	-6.8214
、『	-6.83941
そして	-6.84659
王	-6.85487
▁わたしは	-6.85525
であろう	-6.86042
▁そこで	-6.8624
め	-6.87129
』	-6.8743
者は	-6.87716
▁そして	-6.88835
時	-6.90554
主の	-6.91642
あなた	-6.91936
わたしに	-6.94857
自分の	-6.95164
あなたがたの	-6.9638
すべて	-6.97515
彼らを	-6.9764
しかし	-6.98049
であった	-7.01837
ている	-7.02357
わが	-7.025
ず	-7.0398
ま	-7.05399
神	-7.05966
こ	-7.06414
彼	-7.06832
に言った	-7.07813
これは	-7.08034
彼らの	-7.08355
彼ら	-7.08448
主が	-7.09608
ます	-7.10976
主	-7.11084
られた	-7.11209
なければならない	-7.11304
彼を	-7.12278
られる	-7.12328
あなたがた	-7.12902
れ	-7.13303
こと	-7.137
なかった	-7.13941
あなたが	-7.1421
▁彼らは	-7.14514
ル	-7.14566
ならば	-7.16165
▁「	-7.18157
「	-7.18282
いて	-7.19433
もし	-7.2094
・	-7.23164
日	-7.23437
いる	-7.23505
あなたに	-7.24407
一	-7.24605
物	-7.24697
です	-7.24889
には	-7.24896
あなたを	-7.25002
あ	-7.25346
であって	-7.25771
▁あなたは	-7.26005
とき	-7.26206
だ	-7.2733
つ	-7.27412
シ	-7.27767
行って	-7.2783
▁その	-7.2828
け	-7.28552
それは	-7.29099
地	-7.29337
と共に	-7.29591
び	-7.31169
ア	-7.32749
これ	-7.34163
彼らに	-7.34753
さ	-7.36374
そ	-7.36549
神の	-7.37231
もろもろの	-7.373
びと	-7.37576
言われた	-7.38397
主よ	-7.38767
あなたがたに	-7.39406
▁彼は	-7.39483
るであろう	-7.40417
ので	-7.40809
まで	-7.41192
▁主は	-7.41711
見よ	-7.42505
ば	-7.43443
ました	-7.43662
ン	-7.44483
テ	-7.44726
それ	-7.44981
イエス	-7.45506
の上に	-7.45622
手	-7.45825
主に	-7.4631
民	-7.46714
今	-7.46903
事	-7.47453
見	-7.48096
んで	-7.48443
ために	-7.48455
のか	-7.48911
行った	-7.50813
人々は	-7.51336
ヤ	-7.51427
のである	-7.51501
みな	-7.5269
十	-7.54075
として	-7.54124
なら	-7.54578
祭司	-7.54787
について	-7.548
てください	-7.55218
んだ	-7.55746
言う	-7.56591
された	-7.56605
神は	-7.57811
させ	-7.58827
む	-7.59171
こう	-7.59244
彼に	-7.60106
る者	-7.60303
にある	-7.60494
のうちに	-7.60768
来る	-7.60799
われわれは	-7.60845
キリスト	-7.61649
とを	-7.61774
彼の	-7.61927
じ	-7.62165
大	-7.63627
きた	-7.63642
あなたがたが	-7.63669
心	-7.63674
ダビデ	-7.63722
ラ	-7.64061
人は	-7.64149
地に	-7.64284
エ	-7.64813
力	-7.64894
悪	-7.64911
立って	-7.65693
よう	-7.65979
イスラエル	-7.66368
彼らが	-7.67333
国	-7.67486
の子孫	-7.67564
そこに	-7.68009
子	-7.68389
の中に	-7.68546
せ	-7.68641
を見	-7.68899
イ	-7.68954
年	-7.69015
女	-7.69157
わたしたちは	-7.71271
事を	-7.71563
マ	-7.71582
される	-7.72046
▁こうして	-7.72276
レ	-7.72281
道	-7.72796
人々	-7.72974
へ	-7.73274
▁あなたがたは	-7.73318
でしょう	-7.73582
きて	-7.73717
ぶ	-7.74181
大いなる	-7.74531
石	-7.74708
敵	-7.74921
父	-7.75386
者が	-7.7571
後	-7.75795
『	-7.75853
ど	-7.76148
てはならない	-7.76547
しい	-7.77278
デ	-7.77495
ところ	-7.78415
のです	-7.79141
している	-7.79158
罪	-7.79522
なお	-7.79607
行く	-7.79636
兄弟	-7.80228
喜び	-7.80325
彼が	-7.8038
人を	-7.80783
▁さて	-7.80817
全	-7.80911
どうして	-7.80938
べ	-7.81
ただ	-7.81046
上	-7.81594
▁それゆえ	-7.81862
イスラエルの	-7.82789
となり	-7.83014
ぎ	-7.83031
にも	-7.83105
所	-7.83149
ち	-7.83309
わ	-7.83443
王の	-7.83537
知恵	-7.83922
多くの	-7.84034
火	-7.84396
預言者	-7.84518
ください	-7.84825
一つ	-7.86007
を取り	-7.8618
たち	-7.86383
水	-7.86471
ハ	-7.86617
町	-7.86749
人の	-7.86872
銀	-7.87136
物を	-7.87136
▁すなわち	-7.87563
と言った	-7.88109
よりも	-7.88585
たので	-7.88767
からだ	-7.88822
ため	-7.88928
ことは	-7.89061
そう	-7.89734
ヤコブ	-7.89863
山	-7.90628
下	-7.90662
夜	-7.90795
天	-7.90824
愛	-7.90945
出	-7.91151
がある	-7.91322
の前に	-7.92139
なる	-7.92209
律法	-7.92436
あなたがたを	-7.92508
足	-7.92585
のですか	-7.93019
▁もし	-7.93035
います	-7.93061
イエスは	-7.93061
祭壇	-7.93148
口	-7.93159
部族	-7.94318
肉	-7.94918
神が	-7.95155
に向かって	-7.95377
に対して	-7.95467
っている	-7.95472
あなたの神	-7.95654
』。	-7.95971
行	-7.9665
分	-7.97093
かつ	-7.97391
われわれ	-7.9785
ではないか	-7.97933
人が	-7.98233
皆	-7.98289
者を	-7.98377
死	-7.98594
られ	-7.98725
出て	-7.98947
王は	-7.997
あった	-7.99761
器	-7.99909
目	-8.00239
思い	-8.00261
立ち	-8.00648
はならない	-8.00764
海	-8.00993
となる	-8.01082
ム	-8.0123
ブ	-8.01235
自分	-8.01258
命	-8.01437
らせ	-8.01466
ク	-8.01625
ひとり	-8.01852
ご	-8.01858
一つの	-8.01991
取り	-8.02176
の家	-8.03266
げ	-8.03396
手を	-8.03463
家	-8.03782
▁すると	-8.03909
われわれの	-8.04138
そこで	-8.04804
▁その時	-8.05097
があった	-8.05263
ものである	-8.05303
おり	-8.05562
リ	-8.05748
にむかって	-8.05893
エル	-8.05993
のだ	-8.06102
わたしたちの	-8.06246
実	-8.06249
という	-8.063
恐れ	-8.06417
▁この	-8.06501
月	-8.06679
ん	-8.0683
羊	-8.06853
サウル	-8.07205
世	-8.0722
金	-8.07294
聖なる	-8.07318
そうすれば	-8.07799
民は	-8.078
会	-8.08608
きょう	-8.08705
ナ	-8.08739
あり	-8.08846
バ	-8.09004
行き	-8.09031
牛	-8.09067
教え	-8.09489
間	-8.10136
かた	-8.10236
こうして	-8.10701
だれが	-8.10927
▁あなたの	-8.1102
わたしたち	-8.11135
獣	-8.11171
主の前に	-8.113
る者は	-8.1133
エルサレム	-8.11529
があり	-8.12704
に言われた	-8.12938
であり	-8.13676
にしたがって	-8.13697
二	-8.13707
され	-8.13738
義	-8.13768
これに	-8.14053
母	-8.14064
ス	-8.14108
でも	-8.14283
だけ	-8.14537
ものは	-8.1454
と言う	-8.14691
ことごとく	-8.15234
まだ	-8.1552
ものを	-8.15601
どうぞ	-8.16119
えて	-8.16559
心を	-8.1656
神に	-8.16713
とは	-8.16733
共に	-8.17456
霊	-8.17796
とが	-8.18033
七	-8.18113
▁イエスは	-8.18723
死んだ	-8.19067
言	-8.193
人の子	-8.19457
をも	-8.19795
川	-8.19893
夫	-8.19899
ていた	-8.20292
に従って	-8.205
道を	-8.20607
なく	-8.20628
これらの	-8.2117
とし	-8.21452
聞き	-8.21776
人々が	-8.2186
のもとに	-8.21891
門	-8.22254
ダビデは	-8.22427
になった	-8.22501
ひとりの	-8.22548
木	-8.2272
ふ	-8.23103
タ	-8.2311
える	-8.23333
▁これは	-8.23423
レビびと	-8.23498
所に	-8.23531
あるいは	-8.23635
ユダヤ人	-8.23674
恵み	-8.23695
もまた	-8.23779
だれ	-8.24114
ことが	-8.24239
をことごとく	-8.24462
よい	-8.24654
人たち	-8.24764
▁見よ	-8.2511
名を	-8.25161
ここに	-8.25346
行い	-8.25485
妻	-8.25839
モーセ	-8.26164
のうちから	-8.26618
わざ	-8.27251
つるぎ	-8.27252
正しい	-8.27365
香	-8.274
ユダ	-8.27651
となった	-8.27652
しもべ	-8.27707
戒め	-8.27934
怒り	-8.27976
その子	-8.28129
と一緒に	-8.28469
ついに	-8.28479
光	-8.28707
馬	-8.28953
聖所	-8.29209
男	-8.29452
互に	-8.29453
なぜ	-8.29458
信仰	-8.29814
祭	-8.29903
多く	-8.3007
食	-8.30125
ヨセフ	-8.3025
かせ	-8.30889
必ず	-8.30969
べき	-8.31033
など	-8.31141
血	-8.31196
定め	-8.31303
再び	-8.31482
からです	-8.31631
ながら	-8.32094
中	-8.32137
わせ	-8.32455
イスラエルの神	-8.32494
パン	-8.32912
残	-8.3327
よく	-8.33307
パ	-8.33339
三	-8.33509
はその	-8.3372
百	-8.34056
良い	-8.34174
前	-8.34252
▁それで	-8.34931
▁神は	-8.35244
るように	-8.35423
宮	-8.35597
の前で	-8.3561
不	-8.35619
ね	-8.35644
来て	-8.35644
ベ	-8.35882
エルサレムに	-8.3593
地の	-8.36108
れて	-8.36378
イスラエルの王	-8.36444
れる	-8.36654
悪い	-8.36776
すでに	-8.36805
者である	-8.36917
方	-8.37043
死ぬ	-8.3718
▁ところが	-8.37277
栄光	-8.37281
』」。	-8.37482
頭	-8.37592
言葉	-8.37783
せよ	-8.37815
数	-8.38032
と言って	-8.38326
富	-8.3836
ほかの	-8.384
兄弟たち	-8.38497
顔	-8.38575
カ	-8.38807
従	-8.3902
おのおの	-8.39078
言葉を	-8.39188
助け	-8.39381
ミ	-8.39412
手に	-8.39461
のゆえに	-8.39514
を取って	-8.39584
滅び	-8.39622
ろ	-8.40041
心に	-8.40053
えた	-8.40119
エジプト	-8.40181
生	-8.40206
五	-8.40241
とする	-8.40284
らない	-8.40494
信じ	-8.40541
イスラエルの人々	-8.40624
身	-8.40749
ぐ	-8.40784
さばき	-8.40819
は言った	-8.41024
になって	-8.41183
柱	-8.41239
ためである	-8.41402
アブラハム	-8.41489
幕屋	-8.41706
ましょう	-8.42016
人に	-8.42424
オ	-8.4261
めて	-8.42716
▁わたしが	-8.43127
身を	-8.43136
まず	-8.43252
あかし	-8.43368
教	-8.43427
るために	-8.43578
の娘	-8.43583
娘	-8.43587
はみな	-8.43687
を見て	-8.44096
または	-8.44302
他の	-8.44381
の子らは	-8.44382
セ	-8.44491
おられる	-8.44516
みずから	-8.44581
座	-8.4467
報い	-8.44782
ると	-8.44893
て言った	-8.45063
どんな	-8.45161
外	-8.45218
契約	-8.45334
ってはならない	-8.45351
ろば	-8.45417
語り	-8.4594
彼女は	-8.45954
かれ	-8.46255
を与え	-8.46419
ではなく	-8.46525
起	-8.46695
メ	-8.46781
戦い	-8.46854
畑	-8.47057
しく	-8.47272
聞く	-8.47535
代	-8.47698
知らせ	-8.4818
引き	-8.48515
主は言われる	-8.48848
のうち	-8.48863
イエスを	-8.49076
何を	-8.49097
使	-8.49262
悩み	-8.49354
望み	-8.49431
▁それから	-8.49672
者たち	-8.49731
を受け	-8.49857
シャ	-8.4987
無	-8.4995
産	-8.49989
ろう	-8.50377
成	-8.5058
群れ	-8.50581
燔祭	-8.50771
家に	-8.51071
おきて	-8.51092
救	-8.51329
何	-8.51453
子供	-8.51559
かな	-8.51614
二十	-8.51743
意	-8.51821
当	-8.5199
それで	-8.52072
渡	-8.52166
聞いて	-8.52262
にいる	-8.52334
王たち	-8.52484
すると	-8.52497
もはや	-8.52508
金の	-8.52563
時に	-8.52592
求め	-8.53215
祈	-8.53511
おまえ	-8.53537
来	-8.53615
▁わたしの	-8.5369
兵	-8.53725
異邦人	-8.5373
小羊	-8.53776
たちは	-8.54215
嗣業	-8.54281
では	-8.54365
長	-8.54472
アロン	-8.5462
雲	-8.5475
ペリシテびと	-8.54967
の門	-8.54969
地を	-8.5505
なんの	-8.55111
ニ	-8.55422
二つの	-8.55614
られて	-8.55736
日に	-8.55737
ではない	-8.55773
語る	-8.55838
その人は	-8.56118
風	-8.563
害	-8.56303
岩	-8.56319
しなさい	-8.56326
答え	-8.56574
ひ	-8.56734
ロ	-8.5674
▁ダビデは	-8.56862
大きな	-8.56978
を得	-8.57138
ネ	-8.57552
水を	-8.57588
種	-8.57614
打ち	-8.57633
偶像	-8.57639
主を	-8.5764
前に	-8.57731
着	-8.57889
あわれみ	-8.58305
町々	-8.58455
のところに	-8.58525
すべての民	-8.58843
土	-8.58968
とこしえに	-8.58976
第	-8.58993
させた	-8.59114
取	-8.59178
の間	-8.59514
時は	-8.59968
ふたり	-8.60046
れた	-8.60061
ザ	-8.60295
めた	-8.60338
の中で	-8.60491
自	-8.60554
の下に	-8.60593
下って	-8.60616
してはならない	-8.60631
のような	-8.6067
パロ	-8.60734
ようと	-8.60861
ること	-8.60865
万	-8.60867
バアル	-8.61085
あなたがたの神	-8.61161
それに	-8.61204
地は	-8.61218
食べ	-8.61416
ホ	-8.61606
であろうか	-8.61666
国々	-8.61686
帰って	-8.61937
このように	-8.62127
ほかに	-8.62374
神を	-8.62587
において	-8.62675
守	-8.62698
彼女	-8.62703
どうか	-8.62814
いだ	-8.62826
祝福	-8.6316
民を	-8.63353
上って	-8.6336
いない	-8.63595
入れ	-8.63635
東	-8.63724
神々	-8.63911
は皆	-8.64289
麦	-8.64454
真実	-8.64711
わたしたちが	-8.64915
主人	-8.6505
天に	-8.65264
それゆえ	-8.65295
▁モーセは	-8.65481
声	-8.65489
の上	-8.65514
ダ	-8.65772
彼らに言った	-8.65791
だれも	-8.65846
食物	-8.65855
見た	-8.65903
城壁	-8.65951
ような	-8.65962
顔を	-8.66003
と言われた	-8.66197
とした	-8.66848
人々に	-8.67036
北	-8.67273
彼に言った	-8.67293
その上に	-8.67316
める	-8.67364
台	-8.67367
者と	-8.6737
名	-8.67402
知	-8.67503
その人	-8.67552
あの	-8.6758
なし	-8.67593
荒野	-8.67871
高	-8.67963
がよい	-8.67963
病	-8.6802
四	-8.6809
フ	-8.68116
叫び	-8.68138
このような	-8.68175
させる	-8.68222
いで	-8.68563
万軍の主	-8.68626
攻め	-8.68776
朝	-8.68803
わか	-8.69053
その時	-8.69073
を得る	-8.69129
による	-8.69739
切	-8.69769
告げ	-8.69854
全地	-8.69897
の言葉	-8.70038
苦	-8.70277
ゼ	-8.70327
知識	-8.70377
骨	-8.70377
いま	-8.70385
を捨て	-8.70406
者も	-8.70494
あげ	-8.70654
内	-8.70673
になる	-8.70717
イスラエルの家	-8.70728
ソロモン	-8.70939
を見た	-8.71049
軍勢	-8.71136
大いに	-8.71151
サマリヤ	-8.71252
尋ね	-8.7143
願い	-8.71502
モーセは	-8.71516
と言い	-8.71677
の手から	-8.71678
ギレアデ	-8.71748
来た	-8.71836
ト	-8.71849
ケ	-8.71897
苦しみ	-8.71903
流れ	-8.72085
群衆	-8.72113
▁それは	-8.72176
ても	-8.72372
をお	-8.72373
を愛し	-8.72393
がない	-8.72401
▁時に	-8.72562
の妻	-8.7258
ヨハネ	-8.72666
非常に	-8.72668
わず	-8.72844
のうちで	-8.72902
ません	-8.73142
取った	-8.73204
出して	-8.73309
死に	-8.73404
妹	-8.73441
歌	-8.73495
われわれの神	-8.73556
んでいる	-8.73567
ことはない	-8.73821
不義	-8.73915
われ	-8.74067
ガ	-8.74088
イサク	-8.74128
十二	-8.74195
罰	-8.74298
そこ	-8.74325
雄羊	-8.74347
しるし	-8.74511
戸	-8.74526
エジプトびと	-8.75101
耳	-8.75136
ざ	-8.75188
▁あなたが	-8.75361
奪	-8.75405
取って	-8.75407
ことができる	-8.75451
家畜	-8.75684
皮	-8.75804
▁すべて	-8.75925
族	-8.7594
つく	-8.75969
しし	-8.75982
重	-8.76007
ることがない	-8.76085
帰	-8.76087
だろうか	-8.76088
しない	-8.76224
寝	-8.76374
同	-8.76464
角	-8.7656
穴	-8.76604
答えて	-8.76753
恥	-8.76793
僕	-8.77027
エリ	-8.77037
言え	-8.77158
サ	-8.77177
のがれ	-8.77226
花	-8.7741
女は	-8.77421
エルサレムの	-8.77461
の名は	-8.77982
子を	-8.78007
ベニヤミン	-8.78008
新しい	-8.78233
を離れ	-8.78296
長老たち	-8.78361
つけ	-8.78431
天の	-8.78436
パウロ	-8.78974
エドム	-8.78978
くだ	-8.79049
糸	-8.79053
素祭	-8.79072
イエスが	-8.79265
造	-8.79316
言い	-8.79373
弟子たち	-8.79432
の子たち	-8.79464
つかさたち	-8.79767
会衆	-8.79832
陰	-8.7987
の中から	-8.79974
王が	-8.79977
命じた	-8.80132
ユダの王	-8.80177
者に	-8.80256
ころ	-8.80331
汚れ	-8.80393
の間に	-8.80536
らなければならない	-8.80561
シオン	-8.80611
エフライム	-8.80652
先祖たち	-8.80788
示し	-8.8084
となって	-8.80875
ぶどう	-8.80875
があって	-8.81016
かれた	-8.81152
天幕	-8.81159
かつて	-8.81185
過	-8.81404
ド	-8.81447
ふたりの	-8.81451
何も	-8.81487
その中に	-8.81503
指	-8.81544
戦車	-8.81554
庭	-8.81831
ことである	-8.81895
していた	-8.81899
天から	-8.81988
答えた	-8.82231
ウ	-8.82357
字	-8.82391
マナセ	-8.82396
わたしたちに	-8.82467
酒	-8.82527
あって	-8.82535
気	-8.82684
正しい者	-8.82687
出し	-8.83022
同じ	-8.8306
傷	-8.83127
イエスの	-8.83197
だからである	-8.83223
移	-8.83244
草	-8.83245
慰め	-8.83246
ヨナタン	-8.83252
所有	-8.83287
出す	-8.83414
千	-8.83426
でしょうか	-8.8358
バビロン	-8.83582
ユダの	-8.83652
終り	-8.8367
逃げ	-8.83686
とおりに	-8.83863
ことができない	-8.83896
油	-8.83924
南	-8.83988
かえって	-8.84114
しめ	-8.84153
進み	-8.84171
持って	-8.84236
るでしょう	-8.84241
油を	-8.84247
ないでください	-8.84379
書	-8.84434
その家	-8.84438
全く	-8.8456
イスラエルの人々は	-8.84568
者ども	-8.84711
これが	-8.85135
もなく	-8.85326
の子である	-8.85531
生れた	-8.85595
ぶどう酒	-8.85636
道に	-8.8567
その日	-8.85759
なり	-8.85777
悪しき者	-8.85935
投げ	-8.86066
とその	-8.86103
られない	-8.86152
より	-8.86223
布	-8.86481
もろもろの民	-8.86512
わたしと	-8.8653
訴え	-8.866
せず	-8.86685
だれか	-8.86716
別	-8.86728
を集め	-8.86748
去って	-8.8685
宿営	-8.86882
それが	-8.87025
国の	-8.87156
与え	-8.87159
してください	-8.87289
さない	-8.87334
▁だから	-8.87372
三十	-8.8744
のを見て	-8.87467
ばかり	-8.87636
栄え	-8.87646
戦	-8.8766
王に	-8.87867
れば	-8.87981
行う	-8.88242
はいって	-8.88258
悲しみ	-8.88393
ヨ	-8.88422
宝	-8.88435
夕	-8.88531
っていた	-8.88533
われわれを	-8.88564
伝え	-8.88674
により	-8.8894
すべての人	-8.89063
出た	-8.891
生れ	-8.89102
落ち	-8.89278
さらに	-8.89281
墓	-8.8936
息	-8.89435
ないように	-8.89444
われわれに	-8.89474
ることを	-8.89503
やり	-8.89559
を造り	-8.89568
ほど	-8.89593
キリストの	-8.8965
強い	-8.89738
を攻め	-8.8975
ほ	-8.89795
獲	-8.89826
イエスに	-8.89918
たが	-8.90049
民の	-8.90211
ダン	-8.90256
約束	-8.90308
ヨルダン	-8.90345
主なる神はこう言われる	-8.90366
を守る	-8.9048
絶え	-8.90506
殺	-8.90679
キュビト	-8.90762
災	-8.90817
聞いた	-8.90839
つか	-8.90858
そのすべての	-8.90905
目に	-8.90973
場所	-8.91062
罪を	-8.91143
帰り	-8.91159
わたしたちを	-8.91273
ごとに	-8.91408
強	-8.91511
歩	-8.91563
の父	-8.91609
さあ	-8.91615
あなたと	-8.9168
誇	-8.91713
この世	-8.9174
となるであろう	-8.91792
明	-8.91794
ゆえ	-8.91801
イスラエルは	-8.91842
キ	-8.92116
官	-8.92201
雄牛	-8.92416
すれば	-8.92436
ヨシュア	-8.92473
目を	-8.92501
ものと	-8.92842
わたしはあなた	-8.92979
だろう	-8.93038
けて	-8.93042
ゲ	-8.93076
に対する	-8.93187
に仕え	-8.93188
語	-8.93199
知らない	-8.93211
憤り	-8.93226
▁そのとき	-8.93253
るならば	-8.93327
を行う	-8.93498
おのおのその	-8.93538
ける	-8.93542
もう	-8.93656
先に	-8.93911
山に	-8.94174
強く	-8.94223
働き	-8.94233
汚れた	-8.9431
た者	-8.94439
造った	-8.9457
知っている	-8.94622
わたしのために	-8.94834
出る	-8.94894
場	-8.94994
神よ	-8.95269
町の	-8.95376
自分を	-8.95533
きなさい	-8.95556
ゆえに	-8.95805
サウルは	-8.95837
断	-8.95998
配	-8.95999
空	-8.96048
エサウ	-8.96048
平安	-8.96053
去り	-8.96163
後に	-8.96213
じて	-8.96266
合わせて	-8.96291
あります	-8.96434
ることはない	-8.96495
々	-8.96686
野	-8.96801
命を	-8.96978
エレミヤ	-8.9699
またその	-8.97025
八	-8.97056
滅ぼし	-8.9707
ちり	-8.97084
仕え	-8.97143
立つ	-8.97164
立	-8.9724
まり	-8.97288
は次のとおりである	-8.97299
殺し	-8.97365
▁彼らが	-8.97489
をなし	-8.97494
受け	-8.97514
わたしはあなたの	-8.97596
上げ	-8.97598
救い	-8.97628
かった	-8.97683
作	-8.97818
るべき	-8.97856
ぬ	-8.97898
友	-8.98019
▁王は	-8.98042
らず	-8.98095
飲み	-8.98119
勇士	-8.98234
主の言葉	-8.98298
ヨアブ	-8.98305
とおり	-8.98342
立て	-8.98519
そこから	-8.986
これらは	-8.98618
相	-8.98672
▁彼が	-8.98719
あと	-8.98797
ビ	-8.98908
されて	-8.98949
食べる	-8.99007
グ	-8.99014
ききん	-8.99039
の子ら	-8.99117
を設け	-8.99193
結	-8.99316
得	-8.99319
主はこう言われる	-8.99335
どう	-8.99491
に命じて	-8.99557
宮の	-8.99808
部	-8.99867
その所で	-8.99904
追い	-8.99914
なぜなら	-9.00137
いのち	-9.00146
聖霊	-9.00178
保	-9.00262
ようになる	-9.00281
いなさい	-9.0035
衣服	-9.00398
だから	-9.00788
歳	-9.00878
を打ち	-9.00904
ヒゼキヤ	-9.01002
復	-9.01043
この民	-9.01108
預言者たち	-9.01173
▁その日	-9.01229
の名	-9.01253
いと	-9.01281
御霊	-9.01628
のため	-9.01663
くじ	-9.01697
親	-9.01779
わが民	-9.01813
務	-9.01902
造られた	-9.0194
去らせ	-9.01962
らなかった	-9.02016
らは	-9.02042
見ると	-9.02063
楽	-9.02074
聞け	-9.0208
あがない	-9.02118
荒	-9.02129
ひとりも	-9.0214
枝	-9.02418
国民	-9.02431
安息日	-9.02493
する者	-9.02597
変	-9.02625
通	-9.02644
前から	-9.02751
われらの	-9.02769
のうちの	-9.02776
につけ	-9.02888
にお	-9.03036
おられた	-9.03044
常に	-9.03115
目は	-9.03123
この町	-9.03164
出てきた	-9.03195
の人々	-9.03257
と主は言われる	-9.03647
その民	-9.0368
ったので	-9.03715
すぐ	-9.03753
命令	-9.03823
ああ	-9.03919
側	-9.04137
善	-9.04158
けれども	-9.04175
進んで	-9.042
さし	-9.04238
偽り	-9.04295
かれる	-9.04302
を見る	-9.04639
売	-9.0464
所へ	-9.0478
その子は	-9.04828
を受ける	-9.04931
服	-9.04935
囲	-9.04987
エジプトの	-9.05092
像	-9.05186
雨	-9.05232
語った	-9.05263
られました	-9.05286
教会	-9.05286
は彼	-9.05287
ばれ	-9.05301
たからである	-9.05496
切り	-9.0568
何か	-9.05817
首	-9.05868
先	-9.05976
かなければならない	-9.06043
見て	-9.06121
▁『	-9.06143
軍	-9.06183
待	-9.06273
死体	-9.06332
深い	-9.06413
▁このように	-9.06414
祭司たち	-9.06447
なす	-9.06449
高く	-9.06665
この事	-9.06711
争	-9.06936
開	-9.06977
かない	-9.0702
もない	-9.07043
の日に	-9.07048
暗	-9.07081
しよう	-9.07135
ささげる	-9.07147
六	-9.07206
時には	-9.07227
ことに	-9.07275
ヘ	-9.07316
鳥	-9.074
計	-9.074
ピ	-9.07401
真理	-9.0741
聖	-9.07434
いたが	-9.077
話	-9.07756
さきに	-9.07886
工	-9.07902
殺した	-9.07984
民に	-9.08194
ある者	-9.08199
思	-9.08333
心の	-9.08397
果	-9.08458
から出て	-9.08468
連れて	-9.08472
車	-9.08486
会見の幕屋	-9.08496
平和	-9.08504
三人	-9.0852
位	-9.08545
のだから	-9.08573
神の宮	-9.08636
遠く	-9.08776
出した	-9.08939
こそ	-9.08971
をとって	-9.09027
娘たち	-9.09382
の木	-9.0948
セラ	-9.09577
法	-9.09587
ジ	-9.09593
あらゆる	-9.09611
賜わった	-9.09611
ことはできない	-9.09617
激しい	-9.09619
正義	-9.09673
ぼ	-9.09722
嘆き	-9.09725
悪を	-9.09739
決して	-9.09772
たちが	-9.09938
アル	-9.09966
を忘れ	-9.10038
愛する者	-9.10052
いつも	-9.10054
一頭	-9.10141
魂	-9.10275
させてください	-9.10297
分け	-9.10559
身に	-9.10585
小	-9.10623
言いなさい	-9.1064
労	-9.10723
とその放牧地	-9.1074
とをもって	-9.10855
ないで	-9.10984
を追い	-9.11029
解	-9.11058
自ら	-9.11063
王と	-9.11124
ない者	-9.11193
四十	-9.11202
理	-9.11286
さえ	-9.11297
を聞いた	-9.11355
レビ	-9.11418
る時	-9.1156
おおい	-9.11568
うちに	-9.11613
つかわした	-9.11668
宣べ伝え	-9.11867
急いで	-9.11877
自身	-9.11919
に与え	-9.11983
少し	-9.12093
一緒に	-9.12219
主の宮	-9.1223
悟り	-9.1226
生き	-9.12321
乳	-9.12396
間に	-9.12418
わし	-9.12469
女たち	-9.12587
ことも	-9.12613
国に	-9.12652
の長	-9.12673
幕	-9.12974
見る	-9.13014
主である	-9.13023
くら	-9.13036
喜んで	-9.13099
そのように	-9.13112
人々を	-9.13134
置いた	-9.13384
にはいって	-9.13402
をする	-9.13441
せて	-9.13462
はずかしめ	-9.135
なければ	-9.13506
この事を	-9.13529
声を	-9.13684
愚かな者	-9.13844
所で	-9.13968
ませ	-9.14049
シケル	-9.14153
海の	-9.14168
舟	-9.14172
取る	-9.14176
の子孫は	-9.14254
初	-9.14303
ですか	-9.14337
したので	-9.14351
がなく	-9.14547
イスラエルを	-9.14642
くる	-9.14648
堅く	-9.14654
▁わが	-9.14718
つえ	-9.14808
箱	-9.14839
おこない	-9.1484
悪人	-9.1484
▁彼らの	-9.1491
イスラエルに	-9.14929
を建て	-9.15086
に満ち	-9.1518
さなければならない	-9.15186
に臨んだ	-9.15261
わたしはあなたを	-9.15321
災を	-9.15358
むしろ	-9.1536
高き所	-9.15363
を生んだ	-9.1537
のほとり	-9.15406
滅ぼす	-9.15436
だれでも	-9.15438
になり	-9.15481
見え	-9.15669
▁彼はまた	-9.15684
の氏族	-9.15903
わたしの民	-9.16092
放	-9.16161
モアブ	-9.16172
父は	-9.16197
に与えた	-9.16311
に告げ	-9.16332
のかたわらに	-9.16346
この地	-9.16411
ならびに	-9.16554
主なる神は言われる	-9.16558
正しく	-9.16561
その兄弟	-9.16589
ベル	-9.16661
あなたのしもべ	-9.16677
エジプトの地	-9.16706
つるぎを	-9.17011
地から	-9.17162
住む	-9.17255
金を	-9.17287
もろもろの国民	-9.17385
の家に	-9.17477
を助け	-9.17515
落	-9.17714
以上	-9.17754
離れ	-9.1788
尊い	-9.17922
内に	-9.17947
怒りを	-9.17965
をし	-9.18116
谷	-9.18188
しなければならない	-9.18267
の入口	-9.18285
主はこう仰せられる	-9.18373
を引き	-9.18629
ささげた	-9.18744
み名	-9.18793
コ	-9.18824
こさせ	-9.18921
あなたがたも	-9.18935
長さ	-9.18945
昼	-9.18965
バビロンの王	-9.19002
近	-9.19016
のろい	-9.19138
罪祭	-9.19266
に臨む	-9.19281
長子	-9.1941
死んで	-9.19571
者よ	-9.1966
ないであろう	-9.19698
割礼	-9.19699
除	-9.19744
の声	-9.1979
につ	-9.20207
ヤラベアム	-9.20209
ヨアシ	-9.2021
ぶどう畑	-9.20289
歩み	-9.20329
生きる	-9.20331
父の	-9.20348
あなたの前に	-9.20367
ることは	-9.20438
わない	-9.205
の手に	-9.20524
ベテ	-9.20535
サムエル	-9.20672
行きなさい	-9.20674
わり	-9.207
衣	-9.20731
大祭司	-9.20849
やみ	-9.20879
三日	-9.20997
弱	-9.21134
われわれが	-9.21225
堅	-9.21298
利	-9.21447
それぞれ	-9.21458
の言葉を	-9.21469
カルデヤびと	-9.2147
アサ	-9.21529
七つの	-9.21548
なかったので	-9.21549
供え物	-9.21605
を殺した	-9.21607
ゆるし	-9.21661
かけ	-9.21748
いたので	-9.2194
人間	-9.21944
舌	-9.22038
町を	-9.22057
ようとした	-9.22121
生きている	-9.22199
まし	-9.22247
ようか	-9.22254
を捕え	-9.22313
契約を	-9.22359
若者	-9.22452
わなければならない	-9.22466
なのである	-9.22526
に至る	-9.22567
ペ	-9.22644
食い	-9.22663
使者	-9.22682
を造った	-9.22701
まこと	-9.22723
の中	-9.22761
あなたがたのうちに	-9.22761
のようだ	-9.22877
負	-9.22898
信	-9.22939
人たちは	-9.23016
町に	-9.2308
を持って	-9.23173
若い	-9.23178
に属する	-9.23179
証人	-9.23318
言われる	-9.23355
臨	-9.23469
っ	-9.23517
青銅の	-9.23805
喜ぶ	-9.24007
しえたげ	-9.24085
の所に	-9.24127
女が	-9.24165
語って	-9.24514
定	-9.24528
モアブの	-9.24686
命じられた	-9.2484
彼と共に	-9.24972
ありません	-9.25082
わが神	-9.2516
わな	-9.25174
マリヤ	-9.25249
諸	-9.25255
告	-9.25264
学	-9.25305
エリヤ	-9.25305
近づいて	-9.25305
生きながらえ	-9.25307
シモン	-9.25332
多い	-9.25357
引いて	-9.25445
な者	-9.25631
まい	-9.25663
のを見た	-9.25668
▁わたしたちは	-9.2567
一日	-9.25729
その手	-9.25765
食物を	-9.25984
を呼び	-9.26063
子供たち	-9.26106
を離れて	-9.2624
したが	-9.26243
わたしの前に	-9.26404
数え	-9.26509
を求め	-9.26576
アビ	-9.26635
に行き	-9.26712
アッスリヤの王	-9.2679
彼女を	-9.2687
わけ	-9.26896
されている	-9.26921
牧者	-9.26952
言葉は	-9.27082
先祖	-9.27452
ノア	-9.27489
立った	-9.27497
こう言われる	-9.2758
あなたの父	-9.2764
その地	-9.27717
あなたの手	-9.2776
これら	-9.27764
外に	-9.27861
ことがない	-9.27894
にきた	-9.27913
記	-9.27927
ガリラヤ	-9.27954
を与えて	-9.27967
家来たち	-9.27981
しなかった	-9.27987
捕	-9.28029
地で	-9.28041
祭司は	-9.2806
あるもの	-9.28159
あなたのために	-9.28196
飲む	-9.28243
集まって	-9.28259
高い	-9.28264
アブサロム	-9.28376
エルサレムで	-9.284
を通	-9.28411
とも	-9.2848
したら	-9.28522
にはいる	-9.28557
捕え	-9.28597
命じる	-9.28904
張	-9.28947
におる	-9.28949
わざを	-9.28951
の住民	-9.28992
たとい	-9.29086
を携えて	-9.29124
四つの	-9.29142
わたしも	-9.29179
君	-9.29189
モ	-9.29246
永	-9.29282
難	-9.29287
けた	-9.29295
ヘブロン	-9.29306
むすこ	-9.29492
水が	-9.29627
に告げて	-9.29668
主の宮の	-9.2974
望	-9.29799
寄せ	-9.29831
るためである	-9.29864
書き	-9.29869
彼らはその	-9.29968
罪を犯し	-9.29994
家族	-9.29999
をした	-9.30041
よみがえ	-9.30096
動	-9.30124
もとに	-9.3017
ささげ	-9.30308
にあって	-9.30329
去る	-9.30359
ようになった	-9.30365
破	-9.30464
彼はその	-9.30527
問	-9.30555
青	-9.30659
兄	-9.30667
安らかに	-9.30724
領	-9.3076
ベテル	-9.3078
あなたの民	-9.30784
わたしの父	-9.30797
神の人	-9.31153
さず	-9.31197
悟	-9.31214
▁主が	-9.31246
去った	-9.31261
の町々	-9.31413
洗	-9.31608
用	-9.31713
救われる	-9.31732
その中	-9.31744
去	-9.31905
アハブ	-9.31919
離	-9.32031
アモリびと	-9.32064
のあいだ	-9.32095
礼拝	-9.32143
行こう	-9.32247
るとき	-9.32251
やぎ	-9.32307
ませんでした	-9.32392
て言われた	-9.32426
語られた	-9.325
くれ	-9.32518
るがよい	-9.32518
にして	-9.32581
宿	-9.32632
▁どうか	-9.32705
あるように	-9.32731
としなければならない	-9.32782
の境	-9.32825
帰らせ	-9.32907
住	-9.32972
事は	-9.33003
あなたがたのうち	-9.3303
二百	-9.33141
あなたはわたしの	-9.33163
はあなた	-9.33176
わたしの名	-9.33291
度	-9.33346
屋	-9.33359
真	-9.33362
倒れる	-9.33439
次	-9.33453
ラッパ	-9.33472
シケム	-9.33473
ピラト	-9.33473
レバノン	-9.33473
みこころ	-9.33474
起き	-9.33477
淫	-9.33607
モーセとアロン	-9.33728
そうと	-9.33868
およびその	-9.33985
争い	-9.34061
ようとする	-9.34107
隠	-9.34132
流	-9.34149
自分のために	-9.34171
民が	-9.34237
られている	-9.34257
わたしがあなた	-9.34308
ようとして	-9.34317
るもの	-9.34341
手で	-9.34351
については	-9.34362
もろもろの国	-9.34386
であることを	-9.3439
はない	-9.34427
異	-9.34618
その女	-9.34684
人であった	-9.34801
の血	-9.34804
重ねて	-9.34903
権威	-9.34903
さんび	-9.34904
聖なる物	-9.34946
ヨブ	-9.34955
きよめ	-9.35106
青銅	-9.35127
福音	-9.35163
われら	-9.35164
清め	-9.35187
物と	-9.35326
うち	-9.35338
▁ただ	-9.3536
人をつかわして	-9.35446
あなたがたのために	-9.35449
神の国	-9.35468
う者	-9.35539
へ行って	-9.35616
するであろう	-9.35764
わたしは彼ら	-9.3577
を連れて	-9.35837
ことなく	-9.36046
ささげ物	-9.36074
周囲の	-9.36094
ダビデが	-9.36152
すまい	-9.36215
出された	-9.36272
タラント	-9.36351
断食	-9.36387
日は	-9.36664
第二	-9.36704
御	-9.36733
愚かな	-9.36788
死人	-9.36912
すること	-9.36939
と言ったので	-9.37222
エリシャ	-9.37226
事が	-9.37279
にとって	-9.37382
ダビデに	-9.37404
ペテロ	-9.37412
を知る	-9.37417
家を建て	-9.37537
をささげ	-9.37674
らし	-9.37719
弟	-9.37732
むなしい	-9.37823
病気	-9.37851
のではない	-9.37879
ではありませんか	-9.37953
の方	-9.38024
カナンびと	-9.38089
感謝	-9.38099
いったい	-9.38155
父が	-9.38208
備え	-9.38271
ヤコブは	-9.38282
君たち	-9.38416
両	-9.38485
罪を犯した	-9.38494
を立て	-9.38525
示	-9.38533
熱	-9.38539
恐れる	-9.38552
おこなった	-9.387
それから	-9.38849
現れ	-9.38873
みわざ	-9.38876
悪しき	-9.38886
ユダの人々	-9.38888
します	-9.3891
の上で	-9.38985
声が	-9.39093
定めと	-9.39209
ズ	-9.39246
を滅ぼす	-9.3928
議	-9.39283
▁彼女は	-9.39287
隊	-9.39301
音	-9.39308
楽しみ	-9.39322
アンモンの人々	-9.3933
あげて	-9.39371
を守り	-9.39378
貧しい者	-9.39381
な子	-9.39416
モーセが	-9.39487
近く	-9.39512
もので	-9.39575
その名を	-9.39577
▁あなたがたが	-9.39602
買い	-9.3965
荒野に	-9.39669
自分たち	-9.39734
▁主はモーセに言われた	-9.39775
与えられた	-9.39784
聖別し	-9.39872
ついて	-9.39872
へ行った	-9.3993
境	-9.39957
われる	-9.40032
がきて	-9.401
に入れ	-9.40136
置いて	-9.40289
ほめ	-9.40398
仕	-9.40539
つかわし	-9.40543
パウロは	-9.40573
水の	-9.40579
求める	-9.40586
つかさ	-9.40596
様	-9.40675
その子ら	-9.40687
永遠の	-9.40781
誓い	-9.40795
おまえたち	-9.40823
隣り人	-9.40831
四方	-9.40877
あだ	-9.40901
激しく	-9.40949
飲	-9.41036
返し	-9.41085
ここ	-9.41178
ままに	-9.41181
を滅ぼし	-9.41237
長く	-9.41514
わたしの言葉	-9.416
彼は言った	-9.41649
を立てて	-9.41674
造り	-9.41692
▁あなたがたの	-9.41725
憎むべき	-9.4186
かすめ	-9.41876
を守って	-9.41876
起る	-9.42045
立っている	-9.42048
示す	-9.42089
水は	-9.42207
勝	-9.42287
ども	-9.42321
知る	-9.42352
いっさい	-9.42367
ういご	-9.42369
ときに	-9.42375
スリヤびと	-9.4239
ロン	-9.4244
わた	-9.42445
られるであろう	-9.42461
の前	-9.42552
むち	-9.42616
に従い	-9.42622
右の手	-9.42632
入	-9.42643
と名づけた	-9.42712
主の名	-9.42768
なされた	-9.42824
のところへ	-9.42881
火を	-9.42922
て下さる	-9.42971
定められた	-9.43014
のようで	-9.43016
ますます	-9.43195
立っていた	-9.43211
力を	-9.4323
つるぎをもって	-9.43249
この人	-9.43405
次の	-9.43429
かき	-9.43481
持ち	-9.43566
する者は	-9.43616
まま	-9.43619
主なる神は	-9.43662
注ぎ	-9.43677
ユダヤ人たち	-9.43677
ることができない	-9.43792
▁人々は	-9.43803
たちに	-9.43947
を生み	-9.43957
あらわ	-9.44026
の町	-9.44041
をして	-9.44041
偽りの	-9.44063
タン	-9.44075
さま	-9.44135
ものが	-9.44175
▁ただし	-9.44308
▁たとい	-9.4435
を聞いて	-9.44496
荒野で	-9.44518
何事	-9.4458
行かせ	-9.44664
らくだ	-9.44746
栄	-9.44871
ることができる	-9.44943
召し	-9.44953
国を	-9.45089
与えられる	-9.45141
子牛	-9.45153
人と	-9.45169
言いました	-9.45215
安	-9.45226
の谷	-9.4523
弟子	-9.4529
を与える	-9.45312
と同じ	-9.45382
られます	-9.4543
まことに	-9.45432
ッ	-9.45476
宣	-9.45495
ケルビム	-9.45517
ダマスコ	-9.45518
モルデカイ	-9.45518
大きい	-9.45522
その身	-9.45547
物は	-9.45556
見せ	-9.45611
かく	-9.4563
頭に	-9.45635
右	-9.45665
生かし	-9.45672
彼のために	-9.45826
てきた	-9.4591
燔祭と	-9.45944
を殺し	-9.45962
力ある	-9.46146
まさ	-9.46205
好	-9.46249
口に	-9.46279
▁わたしはまた	-9.46312
ペリシテびとの	-9.46396
怒	-9.46422
器を	-9.46439
アナ	-9.46526
エジプトから	-9.46613
ています	-9.46652
自分たちの	-9.46725
さいわい	-9.46853
せた	-9.46855
さば	-9.4689
満	-9.47007
すべき	-9.47035
ヒ	-9.47058
立たせ	-9.47142
返	-9.4733
すべてのもの	-9.47348
ふさ	-9.47449
衣を	-9.47466
命じて	-9.47498
置き	-9.47517
男の子	-9.47559
知らなかった	-9.47571
の供え物	-9.476
おまえは	-9.4763
ノ	-9.47641
んじ	-9.47755
その神	-9.4776
彼に言われた	-9.47886
ないのか	-9.48052
祈って	-9.48055
を恐れ	-9.48095
汚	-9.4817
ヨシュアは	-9.48171
われらは	-9.48315
に与える	-9.48365
みんな	-9.48458
らせた	-9.48475
アッスリヤ	-9.48561
たのである	-9.48673
場合	-9.48687
二つ	-9.48722
びとの氏族が出	-9.48775
先生	-9.48804
あなたがたと	-9.48958
迎え	-9.4904
子ら	-9.49074
るからである	-9.49124
ユダヤ	-9.49137
なった	-9.49162
これを聞いて	-9.49256
▁今	-9.4929
彼らと	-9.49295
わが魂	-9.4931
エリシャは	-9.49479
小さい	-9.49502
主君	-9.49743
のかしら	-9.49856
残っている	-9.49893
ゆ	-9.50006
撃	-9.50088
野の	-9.5012
されました	-9.50179
偽りを	-9.50244
領地	-9.50333
壁	-9.5043
恐るべき	-9.50446
いばら	-9.50472
出て行って	-9.50474
にまさる	-9.5052
送った	-9.50624
かに	-9.50652
その父	-9.5066
の方に	-9.50772
と思う	-9.50825
るのか	-9.50843
に従う	-9.50883
泣き	-9.50998
にまさって	-9.51066
に仕える	-9.51079
現	-9.51177
尋ねた	-9.51268
かしら	-9.5127
寄り	-9.51322
に与えて	-9.51531
七年	-9.5155
るまで	-9.51671
パロの	-9.51815
あなたも	-9.5183
出てきて	-9.51851
それらの	-9.51905
に住む	-9.52023
に住み	-9.52043
命じ	-9.52043
食事	-9.52052
ことをしない	-9.52067
この人は	-9.52104
ねばならない	-9.52119
ポ	-9.52131
を授け	-9.52131
にいた	-9.52145
ラバン	-9.52159
撃ち	-9.52195
なんと	-9.52271
を受けて	-9.52317
ただし	-9.52338
その上	-9.52421
務を	-9.52426
御使	-9.52478
されるであろう	-9.52518
とり	-9.52565
主にささげる	-9.52633
ヨセフは	-9.52646
彼女に	-9.52739
終った	-9.52811
十二人	-9.52966
エジプトの国	-9.53042
平	-9.53045
役	-9.53374
合	-9.53438
御子	-9.53555
に宿営し	-9.53568
たとき	-9.53586
するのか	-9.53623
いった	-9.53643
だと	-9.53644
の毛	-9.53709
み前に	-9.53743
を得させ	-9.5375
を行い	-9.53773
せる	-9.53798
者たちは	-9.53827
ツ	-9.53836
ハマン	-9.53856
カナンの地	-9.53915
イスラエルの人々の	-9.53918
らい	-9.53926
深く	-9.54008
絶えず	-9.54022
金銀	-9.54022
ことのない	-9.54057
かま	-9.54251
隠れ	-9.54292
受ける	-9.54343
その妻	-9.54344
言って	-9.54398
へび	-9.54406
は彼ら	-9.54497
入れた	-9.5455
続	-9.54578
に住んでいる	-9.5459
もど	-9.54635
日が	-9.54643
行われた	-9.54698
の目の前で	-9.5484
着物	-9.5485
ぜ	-9.54982
家来	-9.55043
かかって	-9.55047
思う	-9.55054
ヨアブは	-9.55103
頭を	-9.55141
犠牲をささげ	-9.55142
いつまで	-9.55172
を祝福し	-9.55216
飲ませ	-9.55295
てしまった	-9.55316
▁サウルは	-9.55476
レハベアム	-9.55609
アザリヤ	-9.5561
バラム	-9.55635
滅ぼされる	-9.55651
ることなく	-9.55715
大きく	-9.55738
▁あなたの神	-9.55741
驚き	-9.5575
もしあなたが	-9.55814
いつくしみ	-9.55993
を撃ち	-9.56
義と	-9.56043
わたしがあなたがた	-9.56071
のち	-9.56076
いつまでも	-9.56111
▁祭司は	-9.56269
愛する	-9.5639
今は	-9.56439
の書	-9.56462
殺され	-9.56567
主は言われた	-9.56625
りました	-9.56663
を造って	-9.56759
誓った	-9.56785
捨てられ	-9.568
わが主	-9.56804
あれ	-9.56902
与えた	-9.56919
証	-9.56923
右に	-9.56925
ことのないように	-9.56969
ほか	-9.5697
ことによって	-9.57
レア	-9.57098
主イエス	-9.57138
のつかさ	-9.57146
しても	-9.57167
七人	-9.57205
ことができようか	-9.5721
彼らのために	-9.57265
自分で	-9.57273
ところが	-9.5731
を焼き	-9.57332
に投げ入れ	-9.57356
山々	-9.57369
パンを	-9.57369
に住む者	-9.57383
に向け	-9.57395
計りごと	-9.57395
の書にしるされている	-9.57396
エステル	-9.57396
シメオン	-9.57396
ヘロデ	-9.57396
エポデ	-9.57397
おいて	-9.57399
公平	-9.574
まった	-9.57402
さなかった	-9.57412
王よ	-9.57438
▁われわれは	-9.57467
その所	-9.57534
民衆	-9.57652
のかたわら	-9.57664
ともに	-9.5776
はじめ	-9.57846
地方	-9.57905
神から	-9.57975
女の	-9.57979
得た	-9.58128
兄弟たちよ	-9.58323
彼女の	-9.58445
いた時	-9.58567
われた	-9.58654
安息日に	-9.58685
められる	-9.58687
仕事	-9.5869
ひと	-9.58724
地と	-9.58794
に着いた	-9.58853
失	-9.58886
獲た	-9.58977
一千	-9.59158
ソロモンは	-9.59176
があれば	-9.59201
陣	-9.59209
に乗って	-9.59213
よろしく	-9.59214
ヨシヤ	-9.59214
肉を	-9.59223
ヨラム	-9.59225
聞きいれ	-9.59226
ツロ	-9.59235
一同	-9.59281
しかも	-9.59289
おとめ	-9.59308
ホル	-9.59394
なわ	-9.59396
入れて	-9.5948
六十	-9.59588
破れ	-9.59659
はしため	-9.59784
ほかの人	-9.59834
主にささげ	-9.60018
すべての事	-9.60112
熱心	-9.60167
までは	-9.60232
しもべたち	-9.60309
なさ	-9.60317
荒れ	-9.60351
を得た	-9.604
降	-9.60543
から出る	-9.6057
にし	-9.60572
といった	-9.60686
のではなく	-9.60705
年に	-9.60746
てくれた	-9.60785
年の間	-9.60812
その国	-9.60824
てくれ	-9.60832
を呼んで	-9.6087
安息	-9.60877
あなたがたはわたし	-9.6091
ヨシャパテ	-9.60973
▁これらの	-9.61026
和	-9.61047
やもめ	-9.61064
ベツレヘム	-9.61066
そんな	-9.61066
に伏し	-9.61067
いなご	-9.61068
明らかに	-9.61069
滅ぼされ	-9.61074
暗やみ	-9.61083
エリコ	-9.6109
永遠に	-9.61098
わたしたちの主イエス	-9.61101
ぶどうの木	-9.61105
妻と	-9.6112
刈り	-9.61123
行かれた	-9.61147
を捨てて	-9.6116
置く	-9.61175
今日まで	-9.61186
そばに	-9.61208
力と	-9.6122
ロテ	-9.61233
をつかさど	-9.61346
使徒たち	-9.61375
彼と	-9.61382
わたしはあなたに	-9.61403
の中の	-9.61567
その子孫	-9.61589
今日	-9.61609
にはいった	-9.6161
その後	-9.61646
ちまた	-9.61688
いって	-9.61706
女を	-9.61721
二千	-9.61756
なって	-9.61776
男子	-9.61787
ることができ	-9.61895
ずつ	-9.61981
わき	-9.62098
さばきを	-9.62212
雄	-9.6222
しもべは	-9.62221
バビロンに	-9.62245
へや	-9.62344
下さい	-9.62365
その町	-9.62392
わら	-9.62409
報	-9.62411
滅びる	-9.62471
霊が	-9.62501
あす	-9.62535
耳に	-9.62652
正しい人	-9.62735
の名によって	-9.62743
渡し	-9.62827
を用い	-9.62858
アブラム	-9.6291
しばらく	-9.6293
すわって	-9.62936
連れ	-9.62941
城	-9.62945
倒れた	-9.62947
アブネル	-9.62952
ナフタリ	-9.62952
すみやかに	-9.62956
サタン	-9.62971
聖書	-9.62978
神殿	-9.63006
戦いに	-9.63014
やがて	-9.63021
かず	-9.63051
高さ	-9.63115
あなたと共に	-9.6316
この国	-9.63178
と思った	-9.63235
べて	-9.6327
おる	-9.63324
らす	-9.63389
に住んだ	-9.63411
上った	-9.63416
すであろう	-9.63428
民はみな	-9.63461
その罪	-9.63478
祭を	-9.63514
行け	-9.63552
その口	-9.6356
恐れてはならない	-9.63578
につき	-9.63579
を知って	-9.63613
ほしい	-9.63768
父の家	-9.63792
の子は	-9.63799
まれる	-9.6385
送り	-9.63887
のもとへ	-9.63892
神の子	-9.63949
われらを	-9.63968
ダニエル	-9.6428
を救う	-9.64301
自分が	-9.64352
あなたの家	-9.64373
第一	-9.64411
て下さった	-9.64415
つかわされた	-9.64454
しました	-9.645
眠	-9.64589
▁これらは	-9.64711
イスラエルの人々が	-9.64748
があるか	-9.64762
ガド	-9.64772
三百	-9.64773
おく	-9.64817
女に	-9.64843
ときは	-9.64857
プ	-9.64876
たくわえ	-9.64876
ラケル	-9.64876
のごとく	-9.64878
行わなければならない	-9.64929
帰った	-9.64982
ガテ	-9.65022
あざ	-9.65033
であるから	-9.65041
東の方	-9.65044
に至るまで	-9.65109
広	-9.65121
メル	-9.65129
エラ	-9.652
主をほめたたえよ	-9.65222
者には	-9.65312
られたので	-9.65482
多くの人	-9.65698
若	-9.65785
にあった	-9.65818
るのである	-9.65854
ペリシテびとは	-9.65909
残して	-9.65922
まれ	-9.65965
を殺す	-9.66
りなさい	-9.66067
歩む	-9.66079
ていない	-9.66087
わたしと一緒に	-9.66092
もと	-9.66105
むべき	-9.66125
主を恐れ	-9.66339
満ち	-9.66353
み言葉	-9.664
たる者	-9.664
殺す	-9.66492
わたしのしもべ	-9.66515
歩いて	-9.6653
のための	-9.66575
くつ	-9.66663
を治め	-9.66669
▁兄弟たちよ	-9.66744
五人	-9.66745
ためであった	-9.66784
ゼカリヤ	-9.66836
ヘテびと	-9.66836
ゼブルン	-9.66836
不思議	-9.66837
おいた	-9.66854
ごらんなさい	-9.66889
ご自身	-9.66894
サラ	-9.66908
いなかった	-9.66929
食べてはならない	-9.66941
どこに	-9.66961
ゲル	-9.67003
できる	-9.67042
を求める	-9.67079
を喜ばせ	-9.67106
ひとりは	-9.67126
作った	-9.67166
はず	-9.67259
山地	-9.6739
はいけない	-9.67407
その足	-9.67541
つけた	-9.67617
これらのことを	-9.67757
を備え	-9.67822
ったが	-9.67855
と答えた	-9.67915
建てた	-9.68
おられます	-9.68142
国は	-9.68242
町は	-9.68246
さき	-9.68251
ソロモンの	-9.6837
るなら	-9.68379
イム	-9.68473
しい者	-9.68533
石を	-9.68609
聖徒	-9.68626
を奪い	-9.68706
体	-9.68724
▁それ	-9.68798
土地	-9.68811
ゼデキヤ	-9.68822
を出立して	-9.68837
そむいて	-9.68842
諸国民	-9.68856
すべての者	-9.68865
用意	-9.68866
をさばく	-9.68885
ひろ	-9.68905
ミカ	-9.6893
ささえ	-9.6896
を産んだ	-9.69007
世々	-9.69051
かす	-9.69051
さいわいである	-9.69106
なか	-9.69128
いつ	-9.69151
すみか	-9.69211
わたしの子	-9.69213
を憎む者	-9.69213
神である	-9.6926
祭司たちは	-9.69291
を知らない	-9.69322
のようであった	-9.69343
しようと	-9.69433
人も	-9.69448
かい	-9.6945
のぼって	-9.69463
与えられ	-9.69483
他	-9.69502
テル	-9.69545
ユダは	-9.69583
エジプトに	-9.69583
恥じ	-9.69665
ましょうか	-9.6969
時代	-9.6985
しましょう	-9.69872
リム	-9.69904
ふたりは	-9.69917
与える	-9.69925
ここで	-9.69995
ろうと	-9.70001
いや	-9.70014
をつかわして	-9.70169
持	-9.70172
主の使	-9.70197
その母	-9.702
べた	-9.70249
わたしは彼	-9.70307
わたしはこの	-9.70427
同じように	-9.70551
とおりである	-9.70593
をかけ	-9.70719
ことについて	-9.70735
なくなる	-9.70741
までも	-9.70763
彼らの上に	-9.70836
きたので	-9.70876
アロンとその子たち	-9.70877
陣営	-9.7088
半ば	-9.70922
進んだ	-9.70924
初め	-9.70926
四百	-9.7094
た時	-9.71008
▁そのころ	-9.71079
に従った	-9.7108
高ぶり	-9.71081
所から	-9.71101
感謝し	-9.7111
捕えられ	-9.71113
主の宮に	-9.71132
いている	-9.71167
るのは	-9.71173
降り	-9.7125
声をあげて	-9.71279
に臨み	-9.71295
信じた	-9.71305
民と	-9.71358
をうけ	-9.71359
なくなった	-9.71383
罪の	-9.71482
国々の民	-9.71574
らい病	-9.71576
オン	-9.71646
ルベン	-9.71878
さわ	-9.71923
ソロモン王	-9.71945
次に	-9.72061
祈り	-9.72061
さお	-9.72133
られるように	-9.72203
弟子たちは	-9.72207
恐	-9.72261
の周囲	-9.72334
うる	-9.72395
人である	-9.72616
三年	-9.72633
を汚し	-9.72642
に行って	-9.72645
ことがなく	-9.72683
あなたがたの先祖	-9.72684
ことをやめ	-9.72699
対	-9.72793
祭の	-9.72805
シラ	-9.72821
民のうち	-9.72895
エレアザル	-9.72907
ギベオン	-9.7296
おおよそ	-9.7296
アハズ	-9.7296
アンモンびと	-9.72976
食べて	-9.72976
清い	-9.72994
ひざ	-9.73011
加わ	-9.73023
待ち	-9.73032
氏族の長	-9.73085
リヤ	-9.73116
隣人	-9.7313
上り	-9.73137
シロ	-9.73184
追	-9.73293
▁イスラエルの人々は	-9.73299
主にむかって	-9.73396
アイ	-9.73472
されたので	-9.73606
パリサイ人たち	-9.73654
これを見て	-9.73698
義人	-9.73761
歩き	-9.73818
割礼を受け	-9.7383
は答えて	-9.73919
若者たち	-9.73962
六百	-9.74026
その道	-9.74072
を撃って	-9.74134
御使が	-9.74234
治め	-9.7424
わたしはわが	-9.74259
信仰によって	-9.74282
出される	-9.74405
納	-9.74412
引	-9.74541
シバ	-9.74638
主なる神	-9.74646
だけで	-9.74698
そし	-9.74733
るため	-9.74743
木の	-9.74753
生きて	-9.74765
を治める	-9.74776
▁主はまたモーセ	-9.74783
間は	-9.74798
自分の家	-9.7488
すえ	-9.74902
したように	-9.74916
いる者	-9.74918
へ行き	-9.75009
守り	-9.7502
踏	-9.75026
▁ソロモンは	-9.75072
逆	-9.75073
福	-9.75074
同様に	-9.75087
ギベア	-9.75088
イザヤ	-9.75088
集まった	-9.75088
シメイ	-9.75088
コハテ	-9.75097
世を治めた	-9.75108
ともしび	-9.75117
ごろ	-9.75217
に会う	-9.75246
あなたの子	-9.7525
さばく	-9.7525
持っている	-9.75254
産んだ	-9.75255
その町々	-9.75395
出て行った	-9.75435
歩く	-9.75461
納め	-9.75564
のろわれ	-9.75667
この女	-9.75871
人々の	-9.75882
▁ユダ	-9.76006
に告げた	-9.76013
を迎え	-9.76156
であるか	-9.76226
彼女が	-9.76276
ラム	-9.76278
地に住む	-9.76387
これによって	-9.76497
わが主よ	-9.76503
パリサイ人	-9.76541
なかったからである	-9.76551
を覚え	-9.76646
とどまる	-9.76662
入る	-9.76696
べる	-9.76712
なるであろう	-9.76731
キリストは	-9.76777
長老	-9.76798
尊	-9.76945
求めた	-9.76972
正	-9.77012
しもべら	-9.77036
その兄弟たち	-9.77056
打	-9.77059
から取り	-9.77133
野に	-9.77162
のようになり	-9.77197
オリブ	-9.77243
ギ	-9.77262
選ばれた	-9.77262
バラク	-9.77262
アセル	-9.77262
アハジヤ	-9.77262
を選び	-9.77262
やぐら	-9.77263
雄やぎ	-9.77272
アラ	-9.77299
コラ	-9.77348
帰ってきて	-9.77486
祭司長たち	-9.77555
悪しき者の	-9.77613
座して	-9.77637
立てた	-9.77699
▁イエスが	-9.77758
テラ	-9.77877
残った	-9.78008
生き物	-9.7801
から離れ	-9.78027
日から	-9.78039
誓いを	-9.78045
を出て	-9.78048
覚え	-9.78163
と同じように	-9.78177
供え	-9.78204
とされた	-9.78331
示された	-9.78369
もしあなたがたが	-9.78512
るのですか	-9.78609
殺された	-9.78674
アダ	-9.78692
はいり	-9.7872
その人を	-9.7875
建て	-9.78868
▁その後	-9.78929
その人が	-9.79045
嘆	-9.79089
と思って	-9.79091
救い出し	-9.79104
うしろ	-9.79127
に住んでいた	-9.7915
から出た	-9.79231
ほどの	-9.79292
ことがある	-9.79331
あなたの子孫	-9.7936
連	-9.79381
イスラエルよ	-9.79409
アマジヤ	-9.79483
ミヅパ	-9.79483
空の鳥	-9.79486
にそむいた	-9.7949
主に仕え	-9.79497
ひそかに	-9.79517
どこへ	-9.79524
ることはできない	-9.79524
全体	-9.79529
そのような	-9.79542
ようにして	-9.79583
であれば	-9.79589
を捕えて	-9.79618
ハム	-9.79715
海に	-9.79733
せられる	-9.79802
イスラエルびと	-9.79896
▁あなたはまた	-9.79942
イスラエルの人々のうち	-9.80035
置かれ	-9.80037
ましたが	-9.80047
をほめたたえ	-9.80159
▁ヤコブは	-9.80208
消え	-9.80268
というのは	-9.80284
着物を	-9.80363
実を	-9.80408
見ている	-9.80416
この宮	-9.80441
てしまう	-9.80481
ってください	-9.80563
ものに	-9.80641
地のすべての	-9.80702
帰ってきた	-9.8073
続け	-9.80794
とどまって	-9.80803
すみ	-9.80985
このかた	-9.81047
これらのもの	-9.81054
ひも	-9.81198
たれ	-9.8122
まわり	-9.81251
サムエルは	-9.81327
あふれ	-9.81362
アヒ	-9.81366
わざわい	-9.81394
葉	-9.81424
子ども	-9.8145
わたしの所に	-9.81452
全部	-9.81465
メン	-9.81481
それによって	-9.81504
わたしの目	-9.81505
の心は	-9.81519
くなって	-9.81527
との間に	-9.81529
初めの	-9.8156
起きて	-9.81671
ヅ	-9.81756
イシマエル	-9.81756
シマヤ	-9.81757
誓願	-9.81758
もっと	-9.81771
散らし	-9.81772
バシャン	-9.81785
ヨルダンを渡	-9.81794
をおおう	-9.818
って言った	-9.81804
淫行	-9.81813
者で	-9.81844
万人	-9.81859
ぶんどり物	-9.81861
約束された	-9.81889
ぞ	-9.81896
はいる	-9.81902
日を	-9.8192
おき	-9.81936
主のために	-9.8194
の血を	-9.81963
エリヤは	-9.81965
に代って	-9.81974
だれにも	-9.81982
神の言	-9.82016
▁ヨセフは	-9.82027
されない	-9.82154
みもとに	-9.82213
毛	-9.82225
全き	-9.82235
そしり	-9.82302
たちと	-9.82382
かご	-9.82466
三つ	-9.825
気をつけ	-9.8258
戦う	-9.82644
こう仰せられる	-9.82893
▁あなたがた	-9.82939
出て行く	-9.82971
誇る	-9.83008
ひとりで	-9.83073
▁人は	-9.83095
目の前に	-9.83099
ことを知る	-9.83182
着せ	-9.83195
を食い	-9.83286
言葉に	-9.83425
定めた	-9.83439
のようになる	-9.83478
そこには	-9.83482
その血を	-9.835
告げた	-9.83549
のもとにきて	-9.83577
声をあげ	-9.8363
この言葉を	-9.83671
使徒	-9.83706
進	-9.83732
るな	-9.83859
頼み	-9.83871
を起し	-9.83881
おうと	-9.83894
を持っている	-9.83969
主があなた	-9.84
ボ	-9.84
べきである	-9.84029
を犯し	-9.84041
導き出し	-9.84074
ザドク	-9.84082
イッサカル	-9.84083
ナダブ	-9.84091
確かに	-9.84093
かせた	-9.84097
広場	-9.84098
まない	-9.84103
わざわいだ	-9.84169
五頭	-9.84181
はかり	-9.84217
者たちを	-9.84262
するように	-9.84299
▁ヨシュアは	-9.84312
言葉が	-9.84404
救を	-9.84424
ハテ	-9.84499
みんなの者	-9.84529
ることができようか	-9.84579
御使たち	-9.84584
のがれて	-9.846
お願い	-9.84689
近い	-9.84708
わたしはこれを	-9.84752
隠し	-9.84776
王の前に	-9.84957
えさせ	-9.84982
となえ	-9.85036
えている	-9.85136
所を	-9.85158
はしない	-9.85235
められた	-9.85322
知られ	-9.85332
第四	-9.85464
世に	-9.85499
を買	-9.85514
いたからである	-9.85564
するために	-9.85606
があっても	-9.85618
エヒウ	-9.85651
残りの	-9.85731
パンを食べ	-9.85826
彼らのうちに	-9.85869
あなたの心	-9.85873
でない	-9.85946
しるしを	-9.86028
が満ち	-9.86156
父よ	-9.86172
ゆる	-9.86304
すぐに	-9.86414
罪を犯す	-9.86464
キリア	-9.86464
ソ	-9.86464
石がき	-9.86483
り物	-9.86493
に当った	-9.86504
に行った	-9.86506
づけ	-9.86509
七日の間	-9.86514
をとり	-9.86518
五キュビト	-9.86522
全会衆	-9.86528
知り	-9.86543
良き	-9.86591
万軍の主は言われる	-9.86597
わたしはあなたがたを	-9.8661
建てる	-9.86614
主の言葉が	-9.86656
王に言った	-9.86739
告げる	-9.86745
殺される	-9.86763
主なる神よ	-9.86766
およびすべて	-9.86793
あらわれ	-9.86806
あなたの兄弟	-9.87032
ってきた	-9.87065
父なる神	-9.87086
いたく	-9.87086
バプテスマを受け	-9.87093
ことと	-9.87214
をあらわし	-9.87288
でなく	-9.87294
を汚す	-9.87307
られなかった	-9.87356
日には	-9.8743
尋ねて	-9.87433
アロンは	-9.87484
喜ばれ	-9.87539
羊を	-9.87575
終	-9.87648
に行く	-9.87868
他人	-9.87928
持ち物	-9.88001
霊を	-9.88125
づ	-9.88133
畑に	-9.88243
頼	-9.88252
そのしもべ	-9.88287
中で	-9.88349
守って	-9.88353
七日	-9.88405
三つの	-9.88441
悪霊	-9.8862
ことができず	-9.88641
を殺そうと	-9.88661
であれ	-9.88676
はことごとく	-9.88807
賜わる	-9.88816
ことができなかった	-9.88847
しみ	-9.88886
いちじく	-9.88886
ゴ	-9.8889
かたくな	-9.88901
地のおもて	-9.88902
ソドム	-9.88902
を選んで	-9.88902
に授け	-9.88902
主の言葉がわたしに臨んだ	-9.88903
と呼ばれる	-9.88903
近づいた	-9.88903
こんな	-9.88903
に向かい	-9.88904
たきぎ	-9.88911
つかわす	-9.88916
父ダビデ	-9.88926
ロト	-9.88964
十分の一	-9.88975
わたしはその	-9.89016
結び	-9.89062
できない	-9.89073
聖徒たち	-9.89167
宝石	-9.89171
預言して	-9.89241
パル	-9.89281
初めから	-9.89381
▁イエスは答え	-9.89399
きました	-9.89404
に逆らって	-9.89404
家から	-9.89441
させられた	-9.89481
ぜた	-9.89501
悟る	-9.89522
心から	-9.89567
おのが	-9.89599
火に	-9.89633
拝	-9.89662
怒って	-9.89773
められ	-9.89815
下り	-9.89824
時から	-9.89872
目が	-9.90057
いました	-9.90081
せられ	-9.90226
を信じる	-9.90232
七十	-9.90245
舌は	-9.90247
れない	-9.90251
▁ああ	-9.90496
その人に	-9.90522
かれて	-9.90524
ものです	-9.90548
をさして	-9.90581
足を	-9.90582
その前に	-9.90585
レビびとは	-9.90594
アブサロムは	-9.90611
話し	-9.90701
高ぶ	-9.90709
イスラエルの人々に	-9.90718
あがめ	-9.90769
行われる	-9.90847
逃げて	-9.90856
すべての物	-9.90882
数えられた	-9.91023
敵は	-9.91064
設け	-9.91072
時まで	-9.91094
清くな	-9.9112
アビメレク	-9.91151
問う	-9.91245
その嗣業	-9.91294
散	-9.91357
食べさせ	-9.91395
ひじょうに	-9.91402
シドン	-9.91402
ちょうど	-9.91402
ネゲブ	-9.91402
つまずき	-9.91403
むなしく	-9.9142
決	-9.91425
苦難	-9.91434
戦争	-9.91436
二度	-9.91454
しるしと	-9.9146
大水	-9.91472
と言われ	-9.9149
話して	-9.91498
の族長	-9.91554
と共にいる	-9.91555
▁エフライム	-9.91556
シャン	-9.9157
を受けいれ	-9.91575
われらの神	-9.91602
をとおって	-9.91616
カル	-9.91618
下の	-9.91623
望む	-9.91658
そのうちに	-9.91698
口から	-9.91704
住み	-9.91843
心が	-9.91845
あなたのいつくしみ	-9.91848
バル	-9.91882
それとも	-9.91993
一万	-9.92007
民は皆	-9.92018
自分の命	-9.92182
救う	-9.92201
まして	-9.92279
ダビデ王	-9.92339
日の間	-9.92354
恐れた	-9.92625
栄光を	-9.92635
天幕に	-9.9265
不義を	-9.92684
主はあなた	-9.92856
呼ばわり	-9.92875
ではなかった	-9.9288
喜ば	-9.92938
連れてきて	-9.92966
答	-9.92969
呼ばわる	-9.92983
食べた	-9.93071
二万	-9.93147
わなかった	-9.93167
食べることができる	-9.93213
群衆が	-9.93214
おのれの	-9.93219
いるのを見	-9.93288
わす	-9.93362
その血	-9.93388
万軍の	-9.93458
に言いなさい	-9.93576
パロは	-9.93579
数を	-9.93732
を切り	-9.93757
荒布	-9.93819
イスラエルのすべての	-9.93851
知者	-9.93903
るべきである	-9.93912
タマル	-9.93919
罪は	-9.93953
ギルガル	-9.93966
ピリポ	-9.93966
ほら穴	-9.93967
あまねく	-9.93967
散らされ	-9.93969
目をあげて	-9.93991
あなたがたに言っておく	-9.94
ヨナ	-9.94038
酒を	-9.94078
ゆるされ	-9.94093
五十人	-9.94123
これがために	-9.94146
この日	-9.94152
どろ	-9.94162
に納め	-9.94212
あだを	-9.94243
▁そこでイエスは	-9.94303
四人	-9.94377
渡って	-9.94395
を与えた	-9.94413
ただひとり	-9.94429
おのれを	-9.94522
高ぶる者	-9.94581
を数え	-9.94589
あなたがたに言う	-9.94675
のひとりが	-9.94734
これらの事を	-9.94756
▁わたしはあなたの	-9.94769
者となり	-9.94858
主人は	-9.94868
しまった	-9.94891
律法を	-9.94911
りなく	-9.94917
をする者	-9.95031
ってきて	-9.95035
あげる	-9.95076
もしわたしが	-9.95091
を変え	-9.95115
ならず	-9.95237
その地を	-9.95264
に帰する	-9.95292
火で	-9.95293
祈る	-9.95408
王を	-9.95434
加え	-9.95514
さとし	-9.9585
くびきを	-9.95875
その柱	-9.95897
かたが	-9.95899
葬った	-9.95942
離れて	-9.95973
と名づけ	-9.96009
の産物	-9.96021
滅ぼした	-9.96042
うもの	-9.961
▁またその	-9.9616
をつけ	-9.96192
合い	-9.96209
神と	-9.96274
ペテロは	-9.96302
せられた	-9.96315
いても	-9.96381
用いる	-9.96397
ギデオン	-9.96536
大ぜい	-9.96573
自分に	-9.9659
祝	-9.96591
めいめい	-9.96598
あざけり	-9.96598
いにしえ	-9.96598
いと高き者	-9.96598
ふたたび	-9.96598
ラッパを吹き	-9.96598
過越の祭	-9.96599
大声で	-9.96599
ヒルキヤ	-9.96599
たずね	-9.966
ウリヤ	-9.96617
死人の中から	-9.96626
アサフ	-9.96636
声は	-9.96676
ゼラ	-9.9677
現れた	-9.96803
恵みを	-9.96848
▁もし人が	-9.96884
サムソン	-9.96911
代々	-9.96919
であったが	-9.96941
主にあって	-9.96946
人には	-9.9698
れさせ	-9.97024
ラマ	-9.9706
ヒラム	-9.97103
律法学者たち	-9.97161
まって	-9.97217
言っている	-9.97233
万軍の神	-9.97252
のまわりに	-9.97372
にはいり	-9.97373
終え	-9.97387
を満たし	-9.97388
させて	-9.97446
のその他の	-9.97468
殺された者	-9.97558
わたしが彼ら	-9.97621
女と	-9.97666
木を	-9.97668
燔祭をささげ	-9.97689
光を	-9.97781
を知っている	-9.97792
の周囲に	-9.97795
ているのである	-9.97825
げる	-9.97831
立てて	-9.97952
祭壇を	-9.98064
罪人	-9.98089
父に	-9.98208
を撃った	-9.9822
娘を	-9.98233
遠	-9.98243
一部	-9.98256
▁その日には	-9.98273
があろうか	-9.98314
いかに	-9.98318
その枝	-9.98413
火が	-9.9846
ペテロが	-9.98481
にあずか	-9.98692
ねたみ	-9.98721
恐れて	-9.98725
十人	-9.98742
憎むべき事	-9.98746
に仕えた	-9.98903
洗い	-9.98946
置	-9.98994
ができ	-9.99042
不信	-9.99106
イエスは彼ら	-9.99112
千人	-9.99112
タイ	-9.99139
公	-9.99202
半	-9.99204
人で	-9.99241
いやし	-9.99247
いけにえ	-9.993
エブスびと	-9.993
リベカ	-9.993
ざくろ	-9.99301
そむく	-9.99301
ひねもす	-9.99301
そのいつくしみはとこしえに絶え	-9.99301
を施し	-9.99301
メラリ	-9.99301
に至り	-9.99302
喜んだ	-9.99303
まっすぐに	-9.99304
を汚した	-9.99309
三度	-9.99348
野の獣	-9.99357
父祖	-9.99363
他の神々	-9.99388
にまで	-9.99404
を負う	-9.99419
知恵ある者	-9.99429
スリヤの王	-9.99431
にならない	-9.99451
わが子よ	-9.9954
彼らも	-9.99582
起す	-9.99603
その言葉	-9.99605
わたしには	-9.99702
家畜と	-9.99727
心のうちに	-9.99731
連れてきた	-9.99732
むだ	-9.99743
死を	-9.99753
買	-9.99774
々に	-9.99819
あなたはわたしを	-9.99875
彼女に言った	-9.99957
を置き	-9.99978
かし	-9.99991
パウロが	-9.99993
見える	-10.0001
▁そうすれば	-10.0006
神の前に	-10.0006
数えられた者は	-10.0009
を負わ	-10.0011
知っています	-10.0018
ある人が	-10.0021
この所	-10.0022
そのとき	-10.0029
ユダの家	-10.0032
そのために	-10.0032
淫を行	-10.0032
あの人	-10.0034
の子孫である	-10.0043
したこと	-10.0051
とがを	-10.0052
つつ	-10.0056
貧しい者を	-10.0057
小さい者	-10.0084
まなければならない	-10.0086
をあけ	-10.0094
その所に	-10.0102
モーセと	-10.0109
わたしについて	-10.0116
に入り	-10.012
寄	-10.0121
現れる	-10.0135
▁そこで彼らは	-10.0138
ユダに	-10.0139
ダビデと	-10.0142
▁アブラハムは	-10.0143
カナン	-10.0149
主によって	-10.0159
彼らと共に	-10.017
▁人が	-10.0174
サムソンは	-10.0175
ささげなければならない	-10.0176
受けた	-10.0178
エルサレムを	-10.0195
はなはだ	-10.0206
おとずれ	-10.0208
あいさつ	-10.0208
たくさん	-10.0208
ほんとう	-10.0208
むさぼ	-10.0208
セイル	-10.0208
こちら	-10.0208
ボアズ	-10.0208
に感謝せよ	-10.0209
書きおく	-10.0209
めぐらし	-10.0209
不正	-10.0211
の代りに	-10.0211
を打つ	-10.0212
大いなる者	-10.0213
を作り	-10.0215
働く	-10.0216
絶や	-10.0217
ままで	-10.0217
いつくしみを	-10.0221
時にも	-10.0221
その他の	-10.0221
心にとめ	-10.0223
撃ち殺し	-10.0226
ユダとエルサレム	-10.0227
五十	-10.0227
動く	-10.0241
を愛する	-10.0242
を受けた	-10.0254
がなければならない	-10.0255
頼む	-10.0262
住む者	-10.027
わたしはあなたがたの	-10.0289
日々	-10.0294
のことで	-10.0301
エヒウは	-10.0304
を守ら	-10.031
それでは	-10.0317
老い	-10.0326
主の家	-10.0331
わたしを助け	-10.0332
ことになる	-10.0334
をもつ	-10.0335
もみな	-10.0336
の世に	-10.0338
を求めて	-10.0339
たちも	-10.0342
海を	-10.0342
明け	-10.0343
わからない	-10.0343
み手	-10.0344
ことはありません	-10.036
わたしは主である	-10.0365
につかわして	-10.0365
アブラハムは	-10.037
するためである	-10.037
を破	-10.0378
めなさい	-10.0388
かけた	-10.0388
を罰する	-10.0396
これは彼らが	-10.0397
者はみな	-10.0406
すべての事を	-10.0408
木と	-10.0414
次のとおりである	-10.0416
バプテスマ	-10.0418
御座	-10.0423
ますように	-10.0425
拝し	-10.0426
ないからである	-10.0427
墓に	-10.0431
門に	-10.0451
上から	-10.0452
に座し	-10.0453
ダビデの町	-10.0457
をおおい	-10.0471
有	-10.048
感	-10.0493
エホヤダ	-10.0494
に聞え	-10.0494
エズレル	-10.0494
かも知れない	-10.0494
うわさ	-10.0494
たちまち	-10.0494
エフタ	-10.0494
犯した罪	-10.0494
目をさまして	-10.0494
つながれ	-10.0494
ナタン	-10.0494
羊の群れ	-10.0495
報復	-10.0495
種入れぬパン	-10.0496
なにゆえ	-10.0496
を持つ	-10.0497
こられた	-10.0497
備	-10.0502
預言者エレミヤ	-10.0505
きたるべき	-10.0514
仰せ	-10.0517
御名	-10.0519
ならぬ	-10.0527
ほふら	-10.0527
耳を傾け	-10.0528
実な	-10.0531
よこしまな	-10.0533
わたしと共に	-10.0533
つえを	-10.0537
万国	-10.0539
ものではない	-10.054
の道に歩	-10.0551
召	-10.0561
▁イエスは彼らに	-10.0579
驚	-10.0584
あとに	-10.0594
いっ	-10.0604
目には	-10.0611
首を	-10.0614
む者	-10.0615
この地に	-10.0621
聖なる者	-10.0633
まれた	-10.0643
滅ぼさ	-10.0654
つかさたちは	-10.0655
ものも	-10.067
をささげなければならない	-10.0682
上着を	-10.0683
祈を	-10.0685
追い出し	-10.0706
しないで	-10.0706
あなたの敵	-10.071
をこわし	-10.0711
送る	-10.0728
にかけ	-10.0729
愚	-10.0729
王の家	-10.0748
祭司が	-10.0752
拝み	-10.0754
を攻める	-10.0757
知ら	-10.076
分け与え	-10.0762
▁弟子たちは	-10.0769
しさ	-10.0771
ハマテ	-10.0774
その頭	-10.0778
歌う	-10.0779
ナイ	-10.0779
五百	-10.0784
イスラエルのうち	-10.0785
あがなわ	-10.0786
あがなう	-10.0788
アムノン	-10.0788
ベエルシバ	-10.0788
マアカ	-10.0788
楽しむ	-10.0788
他国人	-10.0788
村々	-10.0789
七日のあいだ	-10.0789
その氏族によ	-10.0789
二頭	-10.0791
良く	-10.0791
にしたがい	-10.0791
つき	-10.0791
思って	-10.0792
悪を行う者	-10.0793
自分自身	-10.0797
のぼり	-10.08
一度	-10.0802
わたしのもとに	-10.0805
ユダの町々	-10.0808
大麦	-10.0808
打ち場	-10.0809
わが君	-10.0812
主の箱	-10.0815
にとどまってい	-10.0821
確	-10.0827
嗣業として	-10.0842
わされ	-10.0846
主のみ	-10.0849
が代って王となった	-10.085
することを	-10.0856
百人	-10.0857
方が	-10.0861
聞きなさい	-10.0864
うせ	-10.0866
おう	-10.0871
このことを	-10.088
思い出	-10.0895
ひれ伏して	-10.0902
アム	-10.0919
主なる	-10.0919
キリストが	-10.0931
帰る	-10.0938
足で	-10.0939
呼ばわって	-10.0944
われわれの先祖	-10.096
万物	-10.0969
てほしい	-10.0973
なるかな	-10.0984
アデ	-10.099
をやめ	-10.0994
食事をし	-10.1001
思われ	-10.1013
初めに	-10.1019
じた	-10.1022
力をもって	-10.1026
の上にある	-10.1027
をもって彼らを	-10.1035
ようとしている	-10.1044
ことができるか	-10.105
この人が	-10.1059
打たれ	-10.1061
殿	-10.1079
エルサレムから	-10.1082
のところにきて	-10.1083
ミデアン	-10.1084
得ない	-10.1088
ウジヤ	-10.1091
つかえめ	-10.1091
一歳の雄の小羊	-10.1091
オベデ	-10.1091
常	-10.1092
の手にわたされ	-10.1093
イスラエルの聖者	-10.1093
にむかい	-10.1093
軍隊	-10.1093
を断ち	-10.1093
臨ませ	-10.1094
衣服を洗	-10.1094
つぐ	-10.1096
誓われた	-10.1097
神を恐れ	-10.1101
キシ	-10.1102
アビヤ	-10.1104
知らず	-10.1106
軍の長	-10.111
きわめ	-10.1111
イスラエルの人々を	-10.1117
といい	-10.1119
好む	-10.1121
▁まことに	-10.1122
語っている	-10.1123
海べ	-10.1124
主の契約の箱	-10.1131
と書いてある	-10.1133
あわせ	-10.1134
へ行く	-10.1135
歳であった	-10.1135
んだので	-10.1137
わたしの心	-10.1139
高い所	-10.1146
その敵	-10.1154
落ちた	-10.1156
ないもの	-10.1158
おそれ	-10.1162
け所	-10.1164
ひき	-10.1179
わが子	-10.118
を撃ち殺した	-10.1199
重い	-10.1209
勝利を得	-10.1216
滅ぼされた	-10.1222
この地を	-10.1225
つるぎと	-10.1231
部分	-10.1233
の手に渡し	-10.1233
拝む	-10.1238
踏みつけ	-10.1244
人の心	-10.1247
主は彼らを	-10.1247
これらの事	-10.1252
ならなかった	-10.1257
消し	-10.1259
貧しい人	-10.1263
食べなければならない	-10.1271
仕える	-10.1284
捕われ	-10.1297
わたしにむかって	-10.1302
に会い	-10.1303
を見つけ	-10.1311
イスラエルのすべての人	-10.1313
とどまった	-10.1314
を加え	-10.1321
にかけて	-10.1322
長い	-10.1323
▁そこでわたしは	-10.1328
山で	-10.1332
そのうちの	-10.1337
律法学者	-10.1337
言わなければならない	-10.1343
を携え	-10.1343
を憎む	-10.1344
▁サムエルは	-10.1345
であったので	-10.1351
天国	-10.1356
いてはならない	-10.1356
を殺して	-10.1365
思っている	-10.1379
知れ	-10.1382
滅	-10.1387
はいった	-10.1392
えない	-10.1395
勇	-10.1399
を集めて	-10.14
急	-10.1401
はじめた	-10.1402
束	-10.1403
エズラ	-10.1403
寄留の他国人	-10.1403
恐ろしい	-10.1403
ひとりびとり	-10.1403
捕え移され	-10.1404
いずれ	-10.1404
刈入れ	-10.1404
確信	-10.1404
といって	-10.1405
君たる者	-10.1405
り物を	-10.1406
▁主はまた	-10.1406
箱舟	-10.1406
主はわたしに言われた	-10.1408
になっている	-10.1409
ながく	-10.1412
その境は	-10.1414
日が来る	-10.1414
返す	-10.1417
の手によって	-10.1421
つぼ	-10.1423
エパ	-10.1426
白	-10.1432
ひとりの人が	-10.1436
シオンの娘	-10.1439
ゆだね	-10.1443
わたし自身	-10.1444
眠り	-10.1444
良心	-10.1445
捨てる	-10.1446
留め	-10.145
なすべき	-10.1451
うしろに	-10.1454
宮を建て	-10.1458
されたのである	-10.147
金で	-10.1477
▁万軍の主は	-10.1479
ようなもの	-10.1479
上ってきて	-10.1487
役人	-10.1489
ご自分	-10.1491
王ひとり	-10.1492
を負わせ	-10.1494
を見たので	-10.1496
わたしはあなたがたの神	-10.1528
ひとりを	-10.1531
したのである	-10.1533
内で	-10.1534
二年	-10.1538
こわし	-10.1542
くなり	-10.1544
僕たち	-10.1555
わがしもべ	-10.156
あなたの所に	-10.1566
父母	-10.1569
をすえ	-10.158
ためではなく	-10.1584
知ってお	-10.1584
宮殿	-10.1584
でもない	-10.1589
人の子ら	-10.159
書いた	-10.1591
勝利	-10.1596
とりで	-10.16
これは主が	-10.1602
妻をめと	-10.1604
携えてきた	-10.1612
三十人	-10.1616
▁ペテロは	-10.1624
を治めた	-10.163
ほふり	-10.1632
ダビデの子	-10.1634
わたしの足	-10.1641
らせる	-10.1644
に耳を傾け	-10.1657
歌い	-10.1657
白く	-10.1664
福音を	-10.1666
行われ	-10.1669
あなたのうちに	-10.1681
災が	-10.1687
ようにしなければならない	-10.1691
御言を	-10.1693
これらの言葉を	-10.1697
礼	-10.1707
した事	-10.1708
から救い	-10.1713
おののい	-10.1714
らぬ	-10.1716
子孫	-10.1716
村	-10.172
工事を	-10.1721
エゼル	-10.1724
祭の犠牲	-10.1726
に油を注いで	-10.1726
エホヤキム	-10.1726
サウロ	-10.1726
へりくだ	-10.1726
に及んだ	-10.1726
ラモテ	-10.1726
しきりに	-10.1726
牧場	-10.1727
いちじくの木	-10.1729
いいえ	-10.1729
アマレクびと	-10.173
おののき	-10.1731
光栄	-10.1731
乳香	-10.1733
町から	-10.1734
安全	-10.1734
まなかった	-10.1736
恐れることはない	-10.174
火の中	-10.1741
の事について	-10.1743
驚く	-10.1744
をひき	-10.1748
身を清め	-10.1749
まとい	-10.1761
見張	-10.1779
泣いた	-10.1786
こともない	-10.1789
それを食べ	-10.179
ることができなかった	-10.18
しるされた	-10.1802
ろうとして	-10.1804
言われました	-10.1806
ハル	-10.1807
誓	-10.1809
の言葉を聞いて	-10.1815
に帰った	-10.1817
彼の手	-10.1824
わたしの口	-10.1824
その名は	-10.185
出かけ	-10.1852
野で	-10.1857
を守らなければならない	-10.1862
おおわれ	-10.1864
言おう	-10.1866
町の門	-10.1869
ひれ伏し	-10.1871
させなさい	-10.188
ておいた	-10.1883
ふえ	-10.1886
者は皆	-10.1889
どこで	-10.1894
んではならない	-10.1899
で満ち	-10.1907
いつくしみと	-10.1912
ということ	-10.1913
深	-10.1916
書物	-10.1917
でなければ	-10.1918
を持ち	-10.1923
を知り	-10.1932
引き出し	-10.1934
を送り	-10.1941
供え物をささげ	-10.1963
牧	-10.1974
持ってきた	-10.1975
これらを	-10.1985
代って王となった	-10.1989
に住んで	-10.1992
つれ	-10.1996
谷に	-10.2
十一	-10.2004
権	-10.2004
その子たち	-10.2006
くなった	-10.2007
助	-10.2007
を立てた	-10.2008
願って	-10.201
きます	-10.2017
わたしに答え	-10.2019
葬	-10.2049
三千	-10.205
しません	-10.2051
いろいろ	-10.2059
と呼ばれた	-10.2059
近づく	-10.2059
シャルム	-10.2059
祭壇の上で焼	-10.2059
ケルブ	-10.2059
ヘシボン	-10.2059
アシラ像	-10.2059
に及ぶ	-10.2059
くださった	-10.2059
モン	-10.206
あわれむ	-10.206
出身の	-10.2061
なんでも	-10.2062
ミデアンびと	-10.2066
泣く	-10.2067
アラバ	-10.207
に臨んで	-10.2071
どこから	-10.2074
老人	-10.2082
を追う	-10.2083
ハラ	-10.2093
かけて	-10.2095
受けいれ	-10.2129
先祖の神	-10.213
と言っている	-10.2131
ものであって	-10.2131
次は	-10.2134
召された	-10.2146
連れて行き	-10.2149
わが名	-10.2149
寝た	-10.2149
に分け	-10.2151
を造る	-10.2156
ダニエルは	-10.2164
知っているとおり	-10.2164
聖別	-10.2167
信心	-10.2176
重く	-10.218
売り	-10.2188
御言	-10.2188
が死んで	-10.2192
そのほか	-10.2194
よみがえらせ	-10.2203
その名	-10.2208
の中にある	-10.2217
入り	-10.2218
言わない	-10.222
びとの氏族	-10.222
を開いて	-10.2222
わが救	-10.2225
供え物を	-10.2236
をつけて	-10.2242
をとどめ	-10.2243
ないであろうか	-10.2249
くなる	-10.2257
わが神よ	-10.2273
バテ	-10.228
者にも	-10.2285
わたしの心は	-10.2288
となし	-10.2303
る者はない	-10.2303
おかれ	-10.2311
日まで	-10.2315
を送って	-10.2322
人の手	-10.2352
さら	-10.236
多くの民	-10.2363
主が命じられた	-10.2366
主の怒り	-10.2373
殺そう	-10.2381
に現れて	-10.2385
その日には	-10.2392
新	-10.2394
悲しむ	-10.2395
威	-10.2398
バルナバ	-10.2404
向かう	-10.2404
メシュラム	-10.2404
ナオミ	-10.2404
立ちあがり	-10.2404
住まわせ	-10.2404
カデシ	-10.2404
いなずま	-10.2404
歌うたう者	-10.2404
主がモーセに命じられたとおり	-10.2404
よろず	-10.2404
その部隊	-10.2404
みなしご	-10.2404
あわて	-10.2404
エフライムの山地	-10.2404
カルメル	-10.2405
ハナニヤ	-10.2406
ペルシャ	-10.2406
エシュア	-10.2407
青糸	-10.2408
イスラエルの人々に言いなさい	-10.2409
親族	-10.2409
地上の	-10.241
すぐれた	-10.2411
祭司エレアザル	-10.2413
地の果	-10.2413
つるぎに倒れ	-10.2413
七日目に	-10.2415
公義	-10.2416
んだ像	-10.2421
ペル	-10.2423
ない者は	-10.2424
コル	-10.2427
恵まれ	-10.2429
をおおって	-10.243
心の中で	-10.2431
開け	-10.2432
朝まで	-10.2433
地上に	-10.2434
つり	-10.2435
なくても	-10.2435
ナン	-10.2439
帰れ	-10.2442
わざわいである	-10.2447
五つ	-10.2448
さないでください	-10.245
預言した	-10.2454
広い	-10.2459
つかわされ	-10.2461
はこれである	-10.2462
になりました	-10.2466
工事	-10.2485
にあずかる	-10.2485
ものはない	-10.2497
くびき	-10.2501
いやされた	-10.2517
あなたの口	-10.2519
葬られ	-10.2543
が起って	-10.2544
使者をつかわし	-10.2546
書いて	-10.2548
者はひとりも	-10.2549
のうちにある	-10.2552
捨てられた	-10.2555
者です	-10.2559
ようとするのか	-10.2578
わたしたちのために	-10.2581
▁この時	-10.2582
上ってきた	-10.2584
汚れたもの	-10.2585
呼ばわった	-10.2602
を得て	-10.261
命じられたように	-10.2611
十六	-10.2614
と言うであろう	-10.2615
に与えられた	-10.2622
に当る	-10.2627
滅ぼそうと	-10.2678
言わせた	-10.2681
ためであり	-10.2684
ダビデの家	-10.2687
住んだ	-10.2688
孫	-10.2689
つぎ	-10.2698
としてささげ	-10.2707
こう言って	-10.2713
とともに	-10.2718
悲	-10.2758
士	-10.2759
アカシヤ	-10.2761
ヨタム	-10.2761
荒れすたれ	-10.2761
あらかじめ	-10.2761
を切り倒し	-10.2761
しゅろ	-10.2761
タルシシ	-10.2761
呼び集め	-10.2761
バビロンの王ネブカデレザル	-10.2761
わきまえ	-10.2761
消えうせ	-10.2762
告白	-10.2762
主をほめ	-10.2763
をおおった	-10.2765
書きしるし	-10.2766
ふところに	-10.2766
流出	-10.2771
ミカヤ	-10.2771
その周囲に	-10.2772
門を守る者	-10.2772
キリストにあって	-10.2775
勝つ	-10.2778
三日目に	-10.2778
手を伸べて	-10.2792
ラバ	-10.2792
ベニヤミンの人々	-10.2794
あなたをほめたたえ	-10.2795
白い	-10.2796
弟子たちが	-10.2796
サル	-10.2797
アビメレクは	-10.2798
遠い	-10.2802
何ゆえ	-10.2812
隠して	-10.2816
わたされ	-10.2817
清く	-10.2825
かわき	-10.2829
ないので	-10.2831
も共に	-10.2833
下す	-10.2835
のなかに	-10.2836
でさえ	-10.2837
を罰し	-10.2846
に聞き従わ	-10.285
そうとして	-10.2855
事実	-10.2858
隠れた	-10.2865
かどうか	-10.2866
者がある	-10.2866
アン	-10.2875
工人	-10.2881
取られ	-10.2882
をいやし	-10.289
彼の上に	-10.2893
神の栄光	-10.2896
いただき	-10.291
わたしに言った	-10.2941
これを攻め	-10.2943
妻たち	-10.2945
彼らの神	-10.2948
者はだれか	-10.2956
われわれのために	-10.2966
ほめたたえ	-10.2969
の数は	-10.299
イエスにあって	-10.2995
動か	-10.3002
あなたの足	-10.3005
罪所	-10.3012
地の上に	-10.3043
▁パロは	-10.3051
ようにしてください	-10.3059
あなたのもとに	-10.3069
わたしの家	-10.3069
らせてください	-10.3076
消	-10.3079
をかけて	-10.308
救われ	-10.3089
憤	-10.3107
もうけ	-10.3114
のかしらたち	-10.3117
祭司長	-10.3117
に帰る	-10.3118
めぐり	-10.313
さまざまの	-10.3131
カイザル	-10.3131
預言する	-10.3131
にすぎない	-10.3131
ベネハダデ	-10.3131
バアシャ	-10.3131
マアセヤ	-10.3131
マケドニヤ	-10.3131
カレブ	-10.3132
ナイル川	-10.3132
テモテ	-10.3132
ンの子ヨシュア	-10.3132
先見者	-10.3132
苦しむ	-10.3133
ヘブルびと	-10.3134
知っていた	-10.3134
さばかれる	-10.3135
出入り	-10.3135
人のように	-10.3136
証言	-10.3137
しるされている	-10.3139
分け前	-10.314
アヒヤ	-10.3141
▁悪しき者は	-10.3146
結ぶ	-10.3147
みつぎ	-10.315
ニム	-10.3151
おろし	-10.3153
主にささげなければならない	-10.3157
ガドの子孫	-10.3159
てくださるように	-10.3165
ベラ	-10.3166
ドル	-10.3168
ではありません	-10.3171
に起った	-10.3173
を失い	-10.318
その栄光	-10.3185
子を産む	-10.319
御国	-10.3194
理し	-10.3199
デヤ	-10.3207
に時があ	-10.3208
ギリシヤ人	-10.3209
四つ	-10.3213
罪びと	-10.3215
やせ	-10.322
場所で	-10.3221
おのれ	-10.3222
身を汚し	-10.3234
を荒し	-10.3234
ことがなかった	-10.3234
おのおの自分の	-10.3251
られたのである	-10.3256
よく言っておく	-10.3268
もうひとり	-10.3279
救われた	-10.3284
を思い出し	-10.3302
彼らに答え	-10.3315
荒れ地	-10.3316
驚いて	-10.3343
いません	-10.3357
祭壇の上に	-10.3357
八十	-10.3366
れる者は	-10.3373
終る	-10.3376
出せ	-10.3377
門の入口	-10.338
信じる者	-10.3382
分れ	-10.3382
数人	-10.3405
尋ね求め	-10.3406
あげた	-10.3413
受けいれる	-10.3416
わたしの命	-10.3418
られるでしょう	-10.3421
やかに	-10.3421
合わせ	-10.3422
そうである	-10.345
あげよう	-10.3452
かわいた地	-10.3453
留	-10.3456
決め	-10.3456
エッサイ	-10.3457
戒	-10.3459
ことを聞いた	-10.3467
しかった	-10.3474
むすこ娘	-10.3478
あなたの名を	-10.3485
彼女たち	-10.3488
にそむき	-10.349
貧しい	-10.3497
酒ぶね	-10.3516
アマサ	-10.3516
ヒビびと	-10.3516
導き出された	-10.3516
あやまち	-10.3516
エホアハズ	-10.3516
罪を犯させ	-10.3516
アビシャイ	-10.3516
カイン	-10.3516
ダリヨス	-10.3516
それに属する村々	-10.3516
エルカナ	-10.3516
ハザエル	-10.3516
に至らせ	-10.3516
きびしく	-10.3516
ベナヤ	-10.3516
どういう	-10.3516
かさね	-10.3516
信頼し	-10.3517
ひどく	-10.3517
実を結ぶ	-10.3517
偽善	-10.3517
立ちあがって	-10.3519
その先祖	-10.3519
を作って	-10.352
とその村々	-10.352
勇気	-10.3521
雄羊一頭	-10.3522
言われたように	-10.3522
を打って	-10.3523
同時に	-10.3525
願う	-10.3525
者があれば	-10.3525
ガザ	-10.3525
のようであり	-10.3531
エラム	-10.3532
神の御	-10.3534
引き上げ	-10.3535
この所に	-10.3536
ガデ	-10.3538
シセラ	-10.3541
ることのできる	-10.3541
いやす	-10.3545
とりこ	-10.3547
を起して	-10.3549
切れ	-10.355
全家	-10.3552
悪い事を	-10.3552
言うであろう	-10.3554
様子	-10.3556
愛する者たち	-10.356
を通らせ	-10.3561
主は生きておられる	-10.3562
権力	-10.3569
一年	-10.3571
▁第十	-10.3574
主の前で	-10.3577
歌え	-10.3579
近寄って	-10.358
イスラエルの子ら	-10.3581
それをもって	-10.3584
の中にいる	-10.3589
五日	-10.3589
しえたげる者	-10.3607
ていたので	-10.3612
あなたにむかって	-10.3615
物を食べ	-10.362
願った	-10.3623
このようにして	-10.3629
天地	-10.363
恥じる	-10.3656
置か	-10.3659
救主	-10.3669
ヤコブの神	-10.3682
その家来たち	-10.3688
平地	-10.3697
彼らのうち	-10.3702
供え物として	-10.3715
そうする	-10.3721
からのがれ	-10.3722
広く	-10.3728
下った	-10.3735
送	-10.3736
しまう	-10.3739
働いて	-10.375
させなければならない	-10.3754
悪事を	-10.3754
あなたに対して	-10.3758
動かされ	-10.3764
神の箱を	-10.3768
て下さるであろう	-10.3771
▁そこで王は	-10.3772
怒りをもって	-10.3772
かえて	-10.3778
携えてきて	-10.3781
とどまり	-10.3785
かったので	-10.3819
もろもろの山	-10.3823
真実な	-10.3829
かえし	-10.3842
おじ	-10.3847
ささげて	-10.3865
をのろっ	-10.3866
残りの者	-10.3867
彼の前に	-10.3878
心をつくし	-10.3881
の前から追い払	-10.3884
スリヤ	-10.3896
くださる	-10.39
わたしが主であることを知る	-10.3901
ならせ	-10.3901
徒	-10.3913
解き明かし	-10.3913
ユ	-10.3914
に及び	-10.3916
つむじ風	-10.3916
にもかかわらず	-10.3916
マナセの半部族	-10.3916
じゅうぶん	-10.3916
アドニヤ	-10.3916
ネバテの子ヤラベアム	-10.3916
寄留者	-10.3916
ことはできません	-10.3916
はっきり	-10.3916
リンモン	-10.3916
をかえりみ	-10.3916
主の目の前に悪を行	-10.3916
それだのに	-10.3917
主の栄光が	-10.3917
たましい	-10.3917
を守らせ	-10.3917
口づけし	-10.3917
イスラエルの人々の全会衆	-10.3918
兵士	-10.3918
てもらいたい	-10.3919
合わせて十二人	-10.3919
の治世	-10.392
歌をうた	-10.392
その所から	-10.3921
正月	-10.3922
ひとしく	-10.3922
が起り	-10.3922
ラキシ	-10.3923
妻にめと	-10.3923
ろうとする	-10.3923
書記	-10.3924
不法	-10.3925
二十キュビト	-10.3925
一エパ	-10.3925
いましめ	-10.3925
宿っている	-10.3926
が起った	-10.3929
▁ヒゼキヤは	-10.3929
スト	-10.3932
ひとつ	-10.3932
罪に定め	-10.3937
多かった	-10.3938
自分の罪	-10.3939
アベル	-10.3939
と戦った	-10.3949
伝えた	-10.3949
耳を傾けよ	-10.3953
聞いている	-10.396
一生	-10.3967
少なく	-10.3969
かわいた	-10.3983
破り	-10.3984
ことができましょう	-10.3995
み顔を	-10.3997
四日	-10.4
あなたの民イスラエル	-10.4003
気づ	-10.4026
りません	-10.4027
除かれ	-10.4028
し加え	-10.4029
泣いて	-10.4032
どうしてあなたは	-10.4048
近寄	-10.4077
攻め上	-10.4084
わたしに告げ	-10.4088
逃げ去った	-10.4094
感謝する	-10.4105
をあらわす	-10.4112
死んだ者	-10.4115
めとった	-10.4121
に先立って	-10.4124
を踏み	-10.4133
全きもの	-10.414
なくなり	-10.4161
上着	-10.4164
立ち去	-10.4164
に満たされ	-10.4165
苦しめられ	-10.4165
わたしもまた	-10.4168
神の霊	-10.4173
生ける神	-10.4184
をうける	-10.4185
ておく	-10.4197
よくよく	-10.4203
に下り	-10.4213
あなたとあなたの	-10.4237
あがる	-10.4237
させよう	-10.4253
行きます	-10.4269
ほむべきかな	-10.4273
羊の毛	-10.4282
隣	-10.4298
てくださる	-10.4316
しゅうと	-10.4322
糸で	-10.4324
貧	-10.4324
いくさ	-10.4327
につけて	-10.4327
を苦しめ	-10.4327
近づき	-10.4333
を憎んで	-10.4333
叫んで言った	-10.4333
必ず殺されなければならない	-10.4333
お助けください	-10.4333
ヤベシ	-10.4333
ペレテ	-10.4333
エクロン	-10.4333
身をかがめ	-10.4333
つまずく	-10.4333
断たれる	-10.4334
踏みにじ	-10.4334
通り過ぎ	-10.4334
そこへ	-10.4334
もう一度	-10.4335
はるかに	-10.4335
持たない	-10.4335
五十キュビト	-10.4336
▁それだから	-10.4336
ハナン	-10.4336
すわっていた	-10.4337
という名の	-10.4338
とびら	-10.4338
アモン	-10.4341
議会	-10.4342
清い者	-10.4342
くずれ	-10.4344
主が賜わる	-10.4347
望んだ	-10.4349
アラム	-10.4352
大勇士	-10.4354
ひげ	-10.4354
イスラエルの長老たち	-10.4356
声を聞いた	-10.4357
ゆるす	-10.4358
罪を犯しました	-10.4359
六つ	-10.436
おろして	-10.4361
嘆く	-10.4364
おさめ	-10.4369
にかなう	-10.4369
マナ	-10.4378
あなたがた自身	-10.4379
夜のうちに	-10.4398
北の方	-10.4401
王は言った	-10.4426
ようにしなさい	-10.4429
長たち	-10.4434
肉を食べ	-10.4444
ことを聞いて	-10.4448
弱い	-10.445
暗い	-10.4454
まっ	-10.4454
を強くし	-10.4462
をつくり	-10.4474
エルサレムにある	-10.4475
だからです	-10.4477
を撃ち破	-10.4483
見られる	-10.4492
呼び求め	-10.4512
ことがあろうか	-10.4513
連れ出し	-10.4518
四万	-10.4519
聖なる山	-10.4538
彼らにむかって	-10.4539
わたしに対して	-10.4544
捕われ人	-10.4547
をもち	-10.4555
なるもの	-10.4559
イスラエルの地	-10.4561
ないために	-10.4566
ついで	-10.457
彼のもとに	-10.4573
はいらせ	-10.4576
を結んで	-10.4578
エルサレムへ	-10.4578
イスラエルの民	-10.4592
ネブカデネザル	-10.4594
のうちにあって	-10.4603
そうではない	-10.4604
を知った	-10.4628
に下る	-10.4629
供	-10.4631
出させ	-10.4645
を持っていた	-10.4646
良	-10.4648
勇士たち	-10.4651
造られ	-10.4654
どうな	-10.4674
を満たしてい	-10.4684
今や	-10.4688
から出たもの	-10.4692
書いてある	-10.4692
彼らに与え	-10.4704
に敵し	-10.4705
あなたがたの信仰	-10.4711
主を求め	-10.4753
エジプトの王パロ	-10.4767
声を聞か	-10.4767
血を流す	-10.4767
ペリジびと	-10.4768
その子たちおよびその兄弟たち	-10.4768
みだらな	-10.4768
テムナ	-10.4768
ハガル	-10.4768
ピネハス	-10.4768
そばめ	-10.4768
ひずめ	-10.4768
さもないと	-10.4768
つづけた	-10.4768
の手に渡す	-10.4768
の子孫のうちでは	-10.4768
こういう	-10.4768
すわった	-10.4769
会見の幕屋の入口に	-10.4769
つかまえ	-10.477
あたり	-10.477
かしの木	-10.4771
オリブの木	-10.4771
解放	-10.4772
十二弟子	-10.4772
ナバル	-10.4773
を撃つ	-10.4773
内側	-10.4775
肉体	-10.4775
内庭	-10.4777
によらず	-10.4778
ハッ	-10.4779
土台	-10.4779
かわいて	-10.478
シオンの山	-10.4782
どおりに	-10.4783
ヨエル	-10.4783
スサ	-10.4784
救って	-10.4784
ルベンの子孫	-10.4789
セラヤ	-10.479
ユダのすべての	-10.479
ならわし	-10.4791
数にしたがって	-10.4792
のところへ行って	-10.4792
場合には	-10.4793
ものだからである	-10.4797
を着て	-10.4799
柱頭	-10.4806
アハシュエロス王	-10.4808
を呼んで言った	-10.4814
なさった	-10.4816
その心は	-10.4816
一方	-10.4828
飲んだ	-10.4833
となられた	-10.4833
命じたように	-10.4837
わが民イスラエル	-10.4841
を過ご	-10.4849
やかな	-10.4855
ごらん	-10.487
知らないのか	-10.4872
帰ってくる	-10.4875
ここにいる	-10.4875
をつくし	-10.4877
わたしは生きている	-10.4882
奪い去	-10.4883
を過ぎ	-10.4884
犠牲をささげる	-10.4886
を祝福して	-10.4899
あがって	-10.4902
に出会	-10.4921
生ける	-10.4922
主の宮で	-10.4924
よりも多く	-10.494
彼に答え	-10.4964
歩んだ	-10.4975
ルベンびと	-10.4977
定められ	-10.499
神の恵み	-10.5042
の庭に	-10.5055
あわれんで	-10.5055
撃たれ	-10.5055
に属する者	-10.5058
すべきである	-10.5062
主のみ名	-10.5084
神の箱	-10.5086
彼らはみな	-10.5089
歩む者	-10.5095
香ばしいかおり	-10.5095
エジプトの国から	-10.51
保証	-10.5116
刈る	-10.512
彼らの中に	-10.513
おうとして	-10.5142
主はその民	-10.5146
をつかさどる	-10.5156
に話した	-10.5165
あわれま	-10.5166
手を伸べ	-10.5183
もしなかった	-10.5185
ないうちに	-10.5192
祝福された	-10.5194
満たし	-10.5195
荒れ地とな	-10.5202
令	-10.5211
を造ら	-10.5212
エルサレムの住民	-10.5213
共	-10.5215
祝福される	-10.5221
エペソ	-10.5222
ゼルヤの子	-10.5222
ラザロ	-10.5222
ローマ	-10.5222
最も良い	-10.5222
イゼベル	-10.5222
ナザレ	-10.5222
乳ぶさ	-10.5222
おびただしい	-10.5222
トビヤ	-10.5222
にまで及んだ	-10.5222
ニネベ	-10.5222
ベテシメシ	-10.5222
身をめぐらして	-10.5222
アジヤ	-10.5222
油を注がれ	-10.5222
ゼルバベル	-10.5222
七たび	-10.5222
ユフラテ川	-10.5223
福音を宣べ伝え	-10.5224
をとおして	-10.5224
あかり	-10.5224
成長し	-10.5225
あがなわれた	-10.5225
ほまれ	-10.5225
心に留め	-10.5226
千人の長	-10.5226
にいたるまで	-10.5226
大ぜいの群衆	-10.5226
モーセの律法	-10.5227
ことのないためである	-10.5228
を結んだ	-10.5229
いくさびと	-10.5229
朝ごとに	-10.5231
されること	-10.5231
アキシ	-10.5232
無知	-10.5235
アロンの子孫	-10.5236
ゆえなく	-10.5236
おそく	-10.5237
を失う	-10.5238
生ける者	-10.5239
モアブびと	-10.5248
セム	-10.5249
義とされる	-10.525
天使	-10.5251
屋上	-10.5252
合う	-10.5254
取り去られ	-10.5257
めのう	-10.5259
心をつくして	-10.5267
と同じく	-10.5273
によるのである	-10.5275
さばきびと	-10.5276
▁この後	-10.5278
ネル	-10.5279
▁イサクは	-10.5279
主はほむべきかな	-10.5288
言葉をもって	-10.5291
下さった	-10.5303
売った	-10.5308
良いこと	-10.5309
死ぬであろう	-10.5315
行いなさい	-10.532
わたしのところに	-10.5321
に負わせ	-10.5328
すべての町々	-10.5332
人々はみな	-10.5333
あなたの上に	-10.5342
生命	-10.5351
いだいている	-10.5361
てはなりません	-10.5368
バニ	-10.5373
のある所	-10.5377
のぼる	-10.5384
しるされ	-10.5387
むすこたち	-10.5389
開かれ	-10.5393
を撃たれた	-10.5398
迎えた	-10.5401
勢い	-10.5403
に渡した	-10.5407
偽って	-10.5413
出て行き	-10.5415
ことをしなかった	-10.544
彼らの前に	-10.5456
することができる	-10.5471
ることができるか	-10.5478
みまえに	-10.5495
ことを知り	-10.5503
の前から逃げ	-10.5504
勢	-10.5511
言っておく	-10.552
荒れた	-10.5521
逃げる	-10.5543
にふさわしい	-10.5558
預言し	-10.5563
を守る者は	-10.5578
一緒にいる	-10.558
あなたのおきてを	-10.5594
打ち破	-10.5601
おこなって	-10.5605
行わない	-10.5607
ことはないであろう	-10.5614
ヤコブの家	-10.5627
確かな	-10.5629
を召して	-10.5634
の手に渡された	-10.5638
あなたの子ら	-10.5655
そこに住む	-10.5658
七十人	-10.5662
良い地	-10.5665
神のみまえに	-10.5666
あなたがたの父	-10.5668
弱い者	-10.569
オピヤ	-10.5692
放牧地	-10.5696
メレク	-10.5697
うたえ	-10.5698
ハダデゼル	-10.5698
ゲダリヤ	-10.5698
ひょう	-10.5698
同様である	-10.5698
アルノン	-10.5698
水に身をすす	-10.5698
アシドド	-10.5698
ナアマン	-10.5698
ヘヅロン	-10.5698
なければなりません	-10.5698
アビガイル	-10.5698
注意し	-10.5698
そそぎ	-10.5698
シナイ山	-10.5698
足なえ	-10.5699
わたしを怒らせ	-10.5699
たしかに	-10.5699
きっと	-10.5699
待ち望む	-10.5699
権利	-10.57
子を産み	-10.57
一生の間	-10.5701
の知事	-10.5701
第三の	-10.5702
両親	-10.5702
ゲバ	-10.5703
の子たちのつかさ	-10.5703
バルク	-10.5705
断じて	-10.5705
ひっ	-10.5706
小麦	-10.5706
ハラン	-10.5707
イタマル	-10.5707
シャンマ	-10.5707
立ち返	-10.5708
この子	-10.5708
長官	-10.5709
ウザ	-10.5709
々しく	-10.5709
わらべ	-10.5709
しかり	-10.571
サライ	-10.571
しゅうとめ	-10.5711
ることのできない	-10.5711
ヤリム	-10.5712
ホシャ	-10.5713
いやされる	-10.5713
パン種	-10.5716
大軍	-10.5721
を清める	-10.5723
あなたがた一同	-10.5724
の魂は	-10.5738
お告げにな	-10.5738
連れて行った	-10.5742
上って行って	-10.5749
下ってきて	-10.5749
六日	-10.5753
若き	-10.5757
されていた	-10.5757
く起きて	-10.5759
病人	-10.576
にいる人々	-10.5765
泣き悲し	-10.5768
エッサイの子	-10.5772
くちびるは	-10.5779
命じられる	-10.5781
あふれる	-10.5784
ためです	-10.5794
異なる	-10.5795
第六	-10.5811
立てられた	-10.5813
血を流した	-10.5816
山の上に	-10.5827
のようになって	-10.5832
火で焼き	-10.5839
少ない	-10.5841
遠く離れて	-10.5842
合った	-10.5846
ことができましょうか	-10.5857
開かれた	-10.587
用いた	-10.5877
に会った	-10.5885
ことを知っている	-10.5887
百キュビト	-10.5902
の訴えを	-10.5903
葬り	-10.5908
どうぞ主が	-10.5927
偽	-10.5928
そうだ	-10.593
あがめられ	-10.5934
老	-10.5947
ものとなる	-10.5947
イスラエルとユダ	-10.5949
こともなく	-10.5952
仰	-10.5958
の住む所	-10.5975
上がって	-10.5985
あなたのむすこ	-10.5998
戸口	-10.6002
送って	-10.6011
すべての国民	-10.6013
語られる	-10.6017
見えるようにな	-10.6029
はなりません	-10.6041
しえたげられ	-10.605
産んだ子	-10.6068
あなたと一緒に	-10.6071
あなたがたに対して	-10.6096
言います	-10.6116
にゆだね	-10.6135
となっている	-10.6137
と共におる	-10.6151
▁するとイエスは	-10.6186
あかしをし	-10.6189
アマレク	-10.6192
営	-10.6197
アナトテ	-10.6198
オバデヤ	-10.6198
受くべき	-10.6198
アビヤタル	-10.6198
アンテオケ	-10.6198
ふるまい	-10.6198
エホヤダの子ベナヤ	-10.6198
エホデ	-10.6198
エデン	-10.6198
香をたき	-10.6198
アヒトペル	-10.6198
メデア	-10.6198
その家族にしたがって	-10.6198
の子らのうちでは	-10.6198
めぐみ	-10.6198
非難	-10.6199
と言えば	-10.6199
外国人	-10.6199
ヨルダンの向こう側	-10.6199
つねに	-10.6199
実を結び	-10.62
ただちに	-10.62
をさして誓う	-10.6201
生き残った	-10.6201
立ち上がって	-10.6202
なおさら	-10.6205
とばり	-10.6206
ナホル	-10.6207
眠っている	-10.6208
悟らない	-10.6208
力づけ	-10.6209
にわかに	-10.6209
歳になって	-10.621
の氏族では	-10.621
ゆるされるであろう	-10.6212
ユダの地	-10.6214
て下さったのである	-10.6219
ののしり	-10.622
く起き	-10.622
注ぎ油	-10.622
のために備え	-10.622
悪をおこな	-10.6221
わたしをつかわされた	-10.6224
百人の長	-10.6226
建物	-10.6227
ようになるであろう	-10.6227
あがないをする	-10.623
主は仰せられる	-10.6233
一キュビト	-10.6238
終って	-10.6238
エドムびと	-10.6239
下って行って	-10.6252
自分の身	-10.6254
人をつかわし	-10.6255
に注ぎかけ	-10.626
イスラエルの部族	-10.6263
と思われる	-10.6265
ていたからである	-10.6273
恐れるな	-10.6291
地にひれ伏し	-10.6292
人を殺した者	-10.6292
子を産んだ	-10.6294
救う者	-10.6299
あざける者	-10.6308
のあとについて	-10.6313
良い物	-10.6323
わたしが見ている	-10.633
ないようにする	-10.6346
あなたがたの心	-10.6348
後の子孫	-10.6367
理した	-10.6368
国のうち	-10.6368
六千	-10.6368
くちびるを	-10.6371
相手	-10.6374
はずかしめられ	-10.6376
を好ま	-10.6384
家にはいって	-10.6387
祭をささげ	-10.6387
をはずかしめる	-10.639
ことができません	-10.64
これらはみな	-10.64
出され	-10.6429
を追って	-10.6439
と戦って	-10.6463
淫を行う	-10.6463
良い事	-10.6466
主なるわたしは	-10.6483
ことわざ	-10.649
すべてのわざ	-10.6498
ようではないか	-10.6514
ダイ	-10.6557
してはいけない	-10.657
下にある	-10.658
ごらんにな	-10.6586
若い者	-10.6607
あざける	-10.6615
ンの荒野	-10.6617
主をほめたたえ	-10.6651
ものであり	-10.6656
者があるか	-10.6666
に報いる	-10.668
産む	-10.6687
と言わせ	-10.6696
滅ぼす者	-10.6702
シュア	-10.6718
去れ	-10.6718
と共におられる	-10.6719
おいでになる	-10.6725
リブナ	-10.6725
オムリ	-10.6725
夜が明け	-10.6725
おつかわしになった	-10.6725
アラビヤ	-10.6725
よろしい	-10.6725
ラハブ	-10.6725
お命じになった	-10.6725
スコテ	-10.6725
実を結ば	-10.6725
ハンナ	-10.6725
酒を飲んで	-10.6725
ハシャビヤ	-10.6725
マッタニヤ	-10.6725
アタリヤ	-10.6725
ヘマン	-10.6725
一か月	-10.6725
分かち	-10.6725
宮に仕えるしもべ	-10.6725
羊と牛	-10.6725
みきらわ	-10.6725
まむし	-10.6725
富める者	-10.6725
かわく	-10.6726
アサヘル	-10.6726
バビロンの王ネブカデネザル	-10.6726
ゴグ	-10.6727
ペリシテびとの君たち	-10.6728
ユダの王ゼデキヤ	-10.6729
その解き明かしを	-10.6729
はなはだしく	-10.6729
罰せられる	-10.6729
貧しく	-10.6729
ままにしてお	-10.673
重んじ	-10.673
得ようか	-10.673
夕まで汚れるであろう	-10.6731
語ること	-10.6731
アダム	-10.6733
威光	-10.6734
服従	-10.6736
▁ギデオンは	-10.6737
永遠の命	-10.6737
進む	-10.6741
地に投げ	-10.6741
偽りを言う	-10.6742
が主であることを知るようになる	-10.6745
▁ヨシャパテは	-10.6747
多くの国民	-10.6747
主なるわたしが	-10.6747
かぎり	-10.6748
悪を行う	-10.675
心配	-10.6752
アマリヤ	-10.6753
そのかたわらに	-10.6756
に着いて	-10.6759
ヘル	-10.6763
かかる	-10.6764
イスラエルのすべての人々	-10.6768
ベニヤミンびと	-10.6768
を知ろうと	-10.6769
の四すみ	-10.6775
降らせ	-10.6775
いたします	-10.678
仰せられた	-10.678
傷つけ	-10.68
に誓って	-10.6813
広がっ	-10.682
やめさせ	-10.6832
わたしを捨てて	-10.6835
にとどま	-10.6849
この二つ	-10.6872
エジプト全国	-10.6878
追い払う	-10.689
の所へ行って	-10.6912
めかけ	-10.6915
男女	-10.6919
従わず	-10.6933
にむかって怒り	-10.6934
王の宮殿	-10.6966
を洗って	-10.6968
の中にあって	-10.6999
彼に告げ	-10.7014
次の日	-10.7016
両手	-10.7023
あなたに与える	-10.7049
むけ	-10.7067
らい病人	-10.7096
主はモーセに言われた	-10.7107
食ら	-10.7126
目に見	-10.7128
ことごとく滅ぼし	-10.7129
モアブの王	-10.713
ととなえられる	-10.7137
町を建て	-10.7157
かすめられ	-10.717
ものがある	-10.7171
寄って	-10.7182
行わせ	-10.7189
神をあがめ	-10.72
はいってきた	-10.7204
はずかしめを受け	-10.7207
服を着	-10.7217
過ぎて	-10.7222
行かない	-10.723
を着け	-10.7249
位につ	-10.7251
百五十	-10.7251
家に帰った	-10.7252
があろう	-10.7255
の十分の一を	-10.7263
激	-10.7273
約	-10.728
に聞き従う	-10.728
川向こうの	-10.728
クロス	-10.728
に及ばない	-10.728
レパイム	-10.728
ホセア	-10.728
若い雄牛一頭	-10.728
おそらく	-10.728
どこにいるのか	-10.728
ケイラ	-10.728
主はこう仰せられます	-10.728
業	-10.728
男子と女子	-10.728
ペレヅ	-10.728
彼がしたすべての事	-10.728
あやまって	-10.728
ウジエル	-10.728
焼きつくす	-10.728
わたしをお救いください	-10.728
男女の奴隷	-10.728
▁こういうわけで	-10.728
香をたいた	-10.728
八日目に	-10.728
なんという	-10.728
を呼び寄せて	-10.728
追いやられた	-10.728
と平安とが	-10.728
荒れはて	-10.7282
ほしいままに	-10.7283
ゆるしてや	-10.7283
新たに	-10.7283
に目をとめ	-10.7284
和解	-10.7284
肉なる者	-10.7284
罪のない者	-10.7286
テルザ	-10.7286
さとき者	-10.7286
におもむ	-10.7287
水を飲ませ	-10.7287
オピヤびと	-10.7288
と戦おう	-10.7289
ミカエル	-10.7289
おぼえ	-10.729
主権	-10.7294
によれば	-10.7294
東風	-10.7296
集まってきて	-10.73
行かせてください	-10.73
マノア	-10.73
キム	-10.7301
人はさいわいである	-10.7302
ほえる	-10.7302
ユダヤ人の王	-10.7304
あらし	-10.731
ひと言	-10.7311
を負い	-10.7316
のぼった	-10.7317
すべてのイスラエルびと	-10.7318
すわる	-10.7319
▁そののち	-10.732
えたもの	-10.7325
連れてきなさい	-10.7327
を除き	-10.7328
彼らに言いなさい	-10.7334
を囲み	-10.7335
取ろうと	-10.7339
アハブの家	-10.734
がたい	-10.734
南の方	-10.736
生きもの	-10.7361
あかしをする	-10.7361
ことがあるなら	-10.7365
建てられ	-10.7372
愚かで	-10.7388
働	-10.7409
から出た者	-10.743
少	-10.7441
十八人	-10.745
を放って	-10.746
主を恐れること	-10.7463
あなたがたの所に行	-10.7485
こともできない	-10.7522
下さる	-10.7534
願い求め	-10.7537
主の声に聞き従	-10.754
悲しんで	-10.7574
憎むべきもの	-10.7588
とどめ	-10.7623
てしまい	-10.7636
をめとって	-10.7644
願	-10.765
堅く立って	-10.7658
主を捨て	-10.7707
ことができよう	-10.7709
に手をかけ	-10.7723
血を流し	-10.7727
連れ帰	-10.7744
いの国々	-10.7766
はわたしのもの	-10.7772
に害を加え	-10.7775
ことができます	-10.7788
建	-10.7796
知りません	-10.7799
を共にし	-10.7802
に対し	-10.7809
全身	-10.7835
しっくい	-10.7868
昼も夜も	-10.7868
その父祖の家によ	-10.7868
しばしば	-10.7868
おびただしく	-10.7868
たびたび	-10.7868
火で焼かれ	-10.7868
エリアシブ	-10.7868
一万二千人	-10.7868
ここにおります	-10.7868
カペナウム	-10.7868
ホレブ	-10.7868
主を怒らせた	-10.7868
をお聞きください	-10.7868
はどこにいるか	-10.7868
罪を犯さない	-10.7868
ラブシャケ	-10.7868
カイザリヤ	-10.7868
ナジルびと	-10.7868
マルタ	-10.7868
デナリ	-10.7868
祭壇を築き	-10.7868
油そそがれた者	-10.7868
いとすぎ	-10.7868
神をつくして	-10.7868
ぬぐい	-10.7869
主の言葉を聞け	-10.7869
位に座する	-10.7869
断ち滅ぼされ	-10.7869
アヒメレク	-10.7869
よろい	-10.7869
拝殿	-10.7869
いよいよ	-10.7869
そこなう	-10.787
うめき	-10.787
すわらせ	-10.787
ヨハナン	-10.787
者はのろわれる	-10.7871
四十年の間	-10.7872
労役	-10.7872
かもしか	-10.7873
真昼	-10.7873
宿営の外に	-10.7873
あなたがたの間で	-10.7873
相続	-10.7873
永遠のいのち	-10.7873
住ませ	-10.7873
まん中に	-10.7874
新月	-10.7874
諸教会	-10.7874
あしら	-10.7874
香油	-10.7875
結果	-10.7875
彼はわたしに言われた	-10.7876
善を行う	-10.7876
思い起し	-10.7877
にあう	-10.7877
おののく	-10.7879
シケルの金	-10.7881
▁ところで	-10.7882
わたしの言うことを	-10.7883
時が来る	-10.7884
苦しんで	-10.7884
アロンの子たち	-10.7884
▁主の使は	-10.7884
上っていって	-10.7885
弟子たちに言われた	-10.7891
アズ	-10.7895
年々	-10.7898
口を開いて	-10.7898
はかりごと	-10.7903
あなたの前に恵みを得	-10.7909
を開く	-10.7911
ユダの部族	-10.7912
香の祭壇	-10.7933
安らかで	-10.7933
少女	-10.7933
に葬られた	-10.7937
をひく	-10.794
祭司はその人を	-10.7942
ライム	-10.7947
われわれのうち	-10.7948
書いてあるとおりである	-10.7956
▁イスラエルの王は	-10.7958
町の人々	-10.7961
主を拝	-10.7972
ほふる	-10.7978
子やぎ	-10.7981
ていく	-10.8005
住むべき	-10.8008
あなたに感謝し	-10.8013
くすしきみわざを	-10.8029
にわたって	-10.8034
追い出す	-10.8035
香ばしいかおりとし	-10.8036
着物を着	-10.8058
望んでい	-10.8095
ネブカデネザル王	-10.8109
の手に渡され	-10.8128
これらは皆	-10.8196
供えのパン	-10.8217
を囲んで	-10.8243
を解く	-10.8252
のこうべ	-10.8307
を獲る	-10.8308
集まってきた	-10.8327
伝	-10.8342
悲しんだ	-10.8367
を喜ばれる	-10.8377
ようになるためである	-10.8384
こうべに	-10.8426
あがないをしなければならない	-10.8435
心にかなう	-10.845
生きておられる	-10.8451
来るのを見	-10.8471
を祝福され	-10.8472
ヨルダンの向こう	-10.8492
割	-10.8493
シンバル	-10.8493
三分の一は	-10.8493
バシャンの王オグ	-10.8493
ゲゼル	-10.8493
シホン	-10.8493
アモリびとの王シホン	-10.8493
ハザル	-10.8493
聖会を開	-10.8493
わたしをあわれんでください	-10.8493
みごもって	-10.8493
くじを引いた	-10.8493
ハダデ	-10.8493
よかろうか	-10.8493
アシタロテ	-10.8493
アミナダブ	-10.8493
いと高き神	-10.8493
お与えになった	-10.8493
マルキヤ	-10.8493
かいせん	-10.8493
しっかり	-10.8493
エホヤキン	-10.8493
エフロン	-10.8494
たいまつ	-10.8494
うかがい	-10.8494
喜べ	-10.8494
ヘルモン	-10.8494
人をやって	-10.8494
主の言葉を聞きなさい	-10.8494
こがね	-10.8494
恥をこうむ	-10.8495
アムラム	-10.8495
数々の	-10.8496
を従えて	-10.8496
祭司とレビびと	-10.8496
くつがえ	-10.8496
七頭の	-10.8496
その氏族によれば	-10.8497
主の手が	-10.8497
めぐって	-10.8497
にこう言いなさい	-10.8498
諸君	-10.8498
小屋	-10.8499
ユダの王ヨシャパテ	-10.8499
誓いを立てて	-10.85
言わなかった	-10.8501
堅く立つ	-10.8501
しばらくの間	-10.8501
イスラエルの全家	-10.8501
滅びうせ	-10.8501
わたしをつかわされたかた	-10.8501
近寄ってきて	-10.8503
そのくちびる	-10.8503
かねて	-10.8504
イスラエルの全会衆	-10.8505
引き返し	-10.8505
四キュビト	-10.8506
ボテ	-10.8507
災害	-10.8507
寝台	-10.8508
ふるい	-10.8508
▁アブラムは	-10.8508
むかし	-10.8509
者の手	-10.8511
願っている	-10.8514
示される	-10.8515
出かけて行	-10.8515
のあとを追って	-10.8517
アブラハムの神	-10.8519
そむき	-10.8537
ユダとベニヤミン	-10.8555
を定めて	-10.8574
滅ぼしつく	-10.8602
行かれると	-10.8603
町の中	-10.8616
ことを知るようになる	-10.8625
の実を食べ	-10.8637
しもべども	-10.8642
家にはいった	-10.8654
流され	-10.8656
告げ知らせ	-10.8684
金でおお	-10.8732
ことを知った	-10.8751
聞き従わない	-10.8757
神にささげ	-10.8768
これに仕え	-10.8795
はいることができ	-10.8854
わたしたちの先祖	-10.8868
うたい	-10.8881
て下さ	-10.8943
をのがれる	-10.8982
追い払われ	-10.9007
覚	-10.9024
その残り	-10.9032
衆	-10.9059
契約の箱	-10.9071
ゆるさない	-10.9124
ることのないようにし	-10.9152
カルデヤ	-10.9155
種入れぬ	-10.9155
ゲハジ	-10.916
ごぞんじ	-10.916
散らす	-10.916
争に出ることのできる二十歳以上の	-10.916
エリアブ	-10.916
ペオル	-10.916
アヒマアズ	-10.916
ネタニヤの子イシマエル	-10.916
聖所のシケルによ	-10.916
にかかわる	-10.916
ミリアム	-10.916
年の間エルサレムで世を治めた	-10.916
解き放	-10.916
アホリバ	-10.916
クラグ	-10.916
産みの苦しみ	-10.916
主は恵みふか	-10.916
アルタシャスタ	-10.916
の長ネブザラダン	-10.916
閉じこめ	-10.916
どこにあるか	-10.916
アナニヤ	-10.916
ゴセン	-10.916
ビルハ	-10.916
メピボセテ	-10.916
シャデラク	-10.916
おゆるしください	-10.916
エフンネの子カレブ	-10.916
に信頼する	-10.916
エイエル	-10.916
ダゴン	-10.916
ヤイル	-10.916
なめらか	-10.916
ラッパの音	-10.916
天と地と	-10.916
心をかたくなにし	-10.916
バプテスマのヨハネ	-10.916
の流れる地	-10.916
第三は	-10.9161
人と獣と	-10.9161
頭に手を置	-10.9161
に使う	-10.9161
山ばと	-10.9162
飲み食いし	-10.9162
破滅	-10.9162
に変らせ	-10.9163
ナボテ	-10.9163
エリエゼル	-10.9163
とその村	-10.9164
のあまり	-10.9164
王となった時	-10.9165
が生じ	-10.9166
よく聞きなさい	-10.9166
あだを報い	-10.9166
仰せになった	-10.9167
モーセに命じられた	-10.9167
位に座し	-10.9167
言いあらわ	-10.9167
川を渡	-10.9169
半分	-10.9169
預言者ナタン	-10.917
宣教	-10.917
ユダの王ヒゼキヤ	-10.9171
ジフ	-10.9171
を失った	-10.9171
北側	-10.9172
もとの所に	-10.9173
に呼ばわって言った	-10.9174
強くなり	-10.9175
に心をとめ	-10.9175
もらう	-10.9175
かぶり	-10.9177
き去られ	-10.9183
働かせ	-10.9184
を打った	-10.9185
とどけ	-10.9202
を救った	-10.9211
その地の民	-10.9215
に当て	-10.9223
を張る	-10.9223
残れる者	-10.923
わたしのいのちを	-10.9248
を戒めて	-10.9258
はこうである	-10.9267
そこを去	-10.9272
十五年	-10.9288
ることができよう	-10.9293
ギレアデの地	-10.9296
を手に持って	-10.9369
住んでいた	-10.9381
酒を飲む	-10.94
命令を守	-10.9409
に渡して	-10.9414
さして誓	-10.9435
雲の中	-10.9448
ながめ	-10.9454
満たされる	-10.9473
に従わせ	-10.9483
宮にはい	-10.9511
ございま	-10.952
囲まれ	-10.9535
緒	-10.954
を隠す	-10.9552
に宿る	-10.956
泣	-10.9573
忘れられ	-10.9602
出会った	-10.964
手に渡される	-10.9658
友だち	-10.9679
をいだいて	-10.9687
に残し	-10.9798
激しく怒	-10.9821
負わせた	-10.9839
主は生きておられ	-10.9865
司	-10.9872
百三十シケル	-10.9874
さばきづかさ	-10.9874
香をたく	-10.9874
カレヤの子ヨハナン	-10.9874
バルジライ	-10.9874
なんであるか	-10.9874
ハモル	-10.9874
ケナズ	-10.9874
にふさわしく	-10.9874
願わくは	-10.9874
ヤゼル	-10.9874
マハナイム	-10.9874
しりぞけ	-10.9874
マキル	-10.9874
祭壇を築いた	-10.9874
ほかならない	-10.9874
パシュル	-10.9874
ヨッパ	-10.9874
主が選ばれる	-10.9874
二万五千キュビト	-10.9874
会見の幕屋の入口で	-10.9874
悪霊を追い出し	-10.9874
愚かさ	-10.9874
ジムリ	-10.9874
デビル	-10.9874
ささぐべき	-10.9874
エグロン	-10.9874
ゴモラ	-10.9874
ザカリヤ	-10.9874
シパテヤ	-10.9874
アドラム	-10.9874
民のうちから断たれるであろう	-10.9874
預言をし	-10.9874
でいらせられる	-10.9874
わたしに従ってきなさい	-10.9874
テコア	-10.9874
ベテホロン	-10.9874
戸を閉じ	-10.9874
ヤミン	-10.9874
エダヤ	-10.9874
エフラタ	-10.9874
エドトン	-10.9874
テトス	-10.9874
そうでないと	-10.9875
軍勢の長たち	-10.9875
異言を語	-10.9875
銀のさら	-10.9875
ベリア	-10.9875
シメア	-10.9875
一キュビト半	-10.9875
追撃し	-10.9875
とどろき	-10.9875
地上で	-10.9875
つづけて	-10.9876
労働	-10.9876
夕方にな	-10.9876
ほふって	-10.9876
悪霊ども	-10.9877
七十シケル	-10.9877
尊ばれ	-10.9879
を高める	-10.9879
み手のわざ	-10.9879
にあたって	-10.9879
生き返	-10.988
ネボ	-10.988
を張って	-10.9881
五千人	-10.9881
たいと思う	-10.9881
わたしに仕えさせ	-10.9882
まき散ら	-10.9882
アビウ	-10.9883
諸族	-10.9883
お怒りにな	-10.9885
投げすて	-10.9886
地のはて	-10.9886
このすべての言葉を	-10.9887
家の主人	-10.9889
ておきなさい	-10.9897
死なない	-10.9898
いただく	-10.9902
先祖たちの神	-10.9907
かぶと	-10.9913
つまずい	-10.9918
覚えられ	-10.9928
しおれ	-10.9931
に追いつ	-10.9965
呼ばわれ	-10.9967
誓っ	-10.9993
の定めに歩	-11.0013
にわたす	-11.0016
をふり	-11.0026
火祭とし	-11.0155
を切って	-11.0168
声をあげて泣	-11.0212
をわたしに与え	-11.0212
清	-11.0313
語ら	-11.0323
災の日	-11.033
多	-11.0363
の聖者	-11.042
悲しませ	-11.0437
訴	-11.0439
に投げ捨て	-11.0443
をかえして	-11.0451
を罪祭とし	-11.0539
なぞを	-11.0591
投	-11.0636
そうしなければ	-11.0641
その重さは	-11.0643
火ざら	-11.0643
ケニびと	-11.0643
くすしき	-11.0643
あたかも	-11.0643
は二万四千人	-11.0643
ベレキヤ	-11.0643
よろこび	-11.0644
罪なき者	-11.0644
みそなわし	-11.0644
報告した	-11.0644
じゅごんの皮	-11.0644
恥ずべき	-11.0644
▁また燔祭に使う	-11.0644
いちばん	-11.0644
を満たす	-11.0644
戦いの備えをした	-11.0644
ケレテ	-11.0644
むずかしい	-11.0644
をエジプトの地から導き出	-11.0644
シナイの荒野	-11.0644
罪祭に使う雄やぎ	-11.0644
いたずらに	-11.0644
ダビデとその従者たち	-11.0644
しろがね	-11.0644
デボン	-11.0644
下役ども	-11.0644
主がモーセに命じられたように	-11.0644
主のしもべモーセが	-11.0644
にまで及ぶ	-11.0644
勇ましく	-11.0644
イヅハル	-11.0644
互に愛し合	-11.0644
エノク	-11.0644
アシケロン	-11.0644
雨を降らせ	-11.0644
ヒンノムの谷	-11.0644
おおかみ	-11.0644
どれほど	-11.0644
イスラエルに罪を犯させた	-11.0644
祭司およびレビびと	-11.0644
エヒエル	-11.0644
と契約を結び	-11.0644
ステパノ	-11.0644
思いわずら	-11.0644
主がモーセによって	-11.0644
年老いた	-11.0644
と戦うために	-11.0644
にひとしい	-11.0644
ヨザバデ	-11.0645
受け入れられ	-11.0645
に従わなかった	-11.0645
に従わない	-11.0646
多数	-11.0646
ヘペル	-11.0646
エジプトから導き出し	-11.0646
今日に至るまで	-11.0646
若い時から	-11.0647
行動し	-11.0647
の治世の第	-11.0648
そうしないと	-11.065
から生れたもの	-11.065
に当り	-11.0651
聞いているところで	-11.0652
若い時の	-11.0655
を除いて	-11.0658
燔祭の祭壇	-11.0664
メリバ	-11.0666
に着き	-11.0688
をいだく	-11.0689
のぼらせ	-11.0691
の戒めを守り	-11.0691
その先祖たちと共に眠っ	-11.0697
の前に恵みを得	-11.0705
をつくって	-11.0729
備えをし	-11.0748
をさばいて	-11.0787
刈	-11.0794
水の中	-11.0804
メンと言	-11.0821
消え去	-11.0842
知ってい	-11.0868
を拝んで	-11.0915
その従者	-11.0997
に帰ろう	-11.1021
子たちよ	-11.1039
に加えられ	-11.1064
乳を飲	-11.1067
あなたの身から	-11.1102
残ってい	-11.1114
年の終り	-11.1142
合ってい	-11.1209
ギリシヤ	-11.1301
過ごす	-11.1321
よこしま	-11.1365
で満たされ	-11.1434
外に出	-11.1444
アンモン	-11.1462
ヘブル	-11.147
ペリシテ	-11.147
ザバデ	-11.1475
アポロ	-11.1477
エリアキム	-11.1477
バラクはバラム	-11.1477
家ばとのひな	-11.1477
つまずかせ	-11.1477
ケダル	-11.1477
香ばしい	-11.1477
タボル	-11.1477
祭の犠牲に使う雄牛二頭	-11.1477
ことになろう	-11.1477
六か月	-11.1477
レホブ	-11.1477
わたしが主であることを悟る	-11.1477
アヒカムの子ゲダリヤ	-11.1477
デボラ	-11.1477
ねんごろに	-11.1477
メギド	-11.1477
住まわれる	-11.1477
また雄やぎ一頭を罪祭としてささげ	-11.1477
ケデシ	-11.1477
三分の一を	-11.1477
テレビンの木	-11.1477
アロエル	-11.1477
エレモテ	-11.1477
テラピム	-11.1477
ヒソプ	-11.1477
主に憎まれ	-11.1477
▁なまけ者	-11.1477
遠い国から	-11.1477
先祖たちに誓われた	-11.1477
うかがう	-11.1477
はげたか	-11.1477
ゼパニヤ	-11.1477
ベタニヤ	-11.1477
を楽しませ	-11.1477
クプロ	-11.1477
どちらが	-11.1477
ゼバとザルムンナ	-11.1477
不信仰な	-11.1477
みだりに	-11.1477
かもしれない	-11.1477
を見つめて	-11.1477
正しき	-11.1477
を取り除き	-11.1477
きびしい	-11.1477
愚か者	-11.1477
なんら	-11.1478
強い手と	-11.1478
安んじて	-11.1478
光る所	-11.1478
手ずから	-11.1478
き足り	-11.1478
外庭に	-11.1479
つどい	-11.1479
あがなって	-11.1479
確かめ	-11.1479
見いだす	-11.1479
立ちどま	-11.148
まわった	-11.148
あかしの幕屋	-11.148
を放ち	-11.148
今の時代	-11.148
わたしを恐れさせ	-11.1482
誓わせた	-11.1482
を踏む	-11.1483
まわる	-11.1484
偽証	-11.1486
ひとりも残さ	-11.1487
をこうむ	-11.1488
つるぎで殺された	-11.1489
まわって	-11.1493
を生じ	-11.1493
その持ち主	-11.1497
に問うて	-11.1607
を頼みとし	-11.1618
ねたみを起	-11.1664
と知って	-11.1717
を奪う	-11.1749
の顔を見る	-11.1773
布を着	-11.1784
ととなえられ	-11.1792
をはぎ取	-11.184
起き上が	-11.1983
共にいる民	-11.2009
焼きつくし	-11.2149
をおおわ	-11.2167
恵	-11.23
ておいてはならない	-11.2303
先祖たちと共に眠	-11.2323
を祝福する	-11.2333
夕まで汚れる	-11.2375
ハナニ	-11.238
どこからきたのか	-11.2386
アグリッパ	-11.2386
ネルの子アブネル	-11.2386
ゆりの花	-11.2386
ー	-11.2386
けがれた霊	-11.2386
つぶやいて	-11.2386
に投げ込まれた	-11.2386
アクサ	-11.2386
マグダラのマリヤ	-11.2386
ミクマシ	-11.2386
ジクリ	-11.2386
マヘリ	-11.2386
ゼロペハデ	-11.2386
四十日四十夜	-11.2386
▁主の言葉がまたわたしに臨ん	-11.2386
常燔祭とその素祭	-11.2386
サドカイ人	-11.2386
シロミテ	-11.2386
ヨザダクの子	-11.2386
あめんどう	-11.2386
イスカリオテ	-11.2386
会見の天幕	-11.2386
二十歳以上	-11.2386
舟に乗り込	-11.2386
アミホデ	-11.2386
一歳の雄の全き小羊	-11.2386
今日に至ってい	-11.2386
喜び楽しま	-11.2386
ザドクとアビヤタル	-11.2386
ミルカ	-11.2386
こなたかなた	-11.2386
ひるがえ	-11.2386
り動かして	-11.2386
ザックル	-11.2386
ヤペテ	-11.2386
小さな	-11.2386
三か月	-11.2386
怒りと憤り	-11.2386
パンくず	-11.2386
水をくみ	-11.2386
の小葉	-11.2386
つかわそう	-11.2387
さそり	-11.2387
十八年に	-11.2387
国に生れた者	-11.2387
道ばた	-11.2387
同労者	-11.2387
子を産んで	-11.2387
とどろく	-11.2387
金でこれをおお	-11.2387
まぶた	-11.2387
いるのをごらんになっ	-11.2387
びかける	-11.2387
取り除いて	-11.2388
主にささげる火祭	-11.2388
年老いて	-11.2389
の手から救い出す	-11.2389
雨が降	-11.2393
を全うする	-11.2393
に下らせ	-11.2396
実行し	-11.2401
にさわった	-11.2408
であられる	-11.2409
助かる	-11.2412
から助け出し	-11.2415
に変え	-11.2416
かえらせ	-11.2417
を解いて	-11.246
を好み	-11.2464
を現し	-11.2472
に引き渡し	-11.2495
をあわれまれ	-11.2512
語り合っ	-11.267
を聖別する	-11.2701
を高くあげ	-11.2721
石で打	-11.2778
苦しめる	-11.2864
事どもを	-11.2869
をもとに返	-11.2995
かしこに	-11.3025
絶	-11.309
あなたのくちびる	-11.3106
ユフラテ	-11.3383
オテニエル	-11.3386
▁これらの事の後	-11.3386
種をまき	-11.3386
よく聞いておくがよい	-11.3386
その父祖の家にしたがって	-11.3386
十分の二	-11.3386
メラヨテ	-11.3386
非常な	-11.3386
つぶやき	-11.3386
エリサベツ	-11.3386
神のみまえで	-11.3386
ヤキン	-11.3386
んだことがないのか	-11.3386
アカヤ	-11.3386
その氏族にしたがって	-11.3386
アンデレ	-11.3386
レメク	-11.3386
つぶやく	-11.3386
ひきうす	-11.3386
りどよめ	-11.3386
エリコに近いヨルダンの	-11.3386
中風の者	-11.3386
出来事を	-11.3386
立ち上がり	-11.3386
おおぞら	-11.3386
はなんですか	-11.3386
アヤロン	-11.3386
主の言葉がエレミヤに臨んだ	-11.3386
父または母	-11.3386
祭のほかのものである	-11.3386
その先祖と共に眠って	-11.3386
世々かぎりなく	-11.3386
アッスリヤの王セナケリブ	-11.3386
サンバラテ	-11.3386
マムレ	-11.3386
アヒトブの子	-11.3386
ヘテの人々	-11.3386
だちょう	-11.3386
主に寄り頼む	-11.3386
主の目にかなう事を	-11.3386
言いひろめ	-11.3386
過越の食事	-11.3386
不信実な者	-11.3386
もみがらのように	-11.3386
アルパクサデ	-11.3386
ベトエル	-11.3386
ナハシ	-11.3386
インメル	-11.3386
パダンアラム	-11.3386
お立てになった	-11.3386
すばらしい	-11.3386
その家族にしたがって獲た嗣業であ	-11.3386
ツロとシドン	-11.3386
マルコ	-11.3386
バルネア	-11.3386
ベルテシャザル	-11.3386
立ちあがった	-11.3386
を見いだした	-11.3386
リウエル	-11.3386
メルキゼデク	-11.3386
人も獣も	-11.3386
力をつくして	-11.3386
かしこで	-11.3386
ねたむ	-11.3386
と向かい合っている所	-11.3386
香をたいて	-11.3386
清められる者	-11.3386
大事な	-11.3386
再	-11.449
逃	-11.4493
受	-11.5704
与	-11.7104
非	-11.7173
銅	-11.8841
加	-12.0506
素	-12.0765
祖	-12.0792
治	-12.3048
設	-12.3224
迎	-12.6521
喜	-13.1195
識	-13.1674
畜	-14.1596
慰	-14.1613
閉	-14.1614
要	-14.1615
招	-14.1616
施	-14.1617
ゅ	-14.1618
忘	-14.1619
込	-14.162
越	-14.1621
築	-14.1622
傾	-14.1623
授	-14.1624
燃	-14.1625
偶	-14.1626
裂	-14.1627
奴	-14.1628
隷	-14.1629
払	-14.163
吹	-14.1631
属	-14.1632
砕	-14.1633
伸	-14.1634
乗	-14.1635
邦	-14.1636
最	-14.1637
周	-14.1638
以	-14.1639
犠	-14.164
牲	-14.1641
―	-14.1642
互	-14.1643
及	-14.1644
賜	-14.1645
必	-14.1646
選	-14.1647
携	-14.1648
伏	-14.1649
至	-14.165
叫	-14.1651
燔	-14.1652
悩	-14.1653
注	-14.1654
氏	-14.1655
契	-14.1656
憎	-14.1657
攻	-14.1658
導	-14.1659
倒	-14.166
焼	-14.1661
犯	-14.1662
群	-14.1663
律	-14.1664
捨	-14.1665
壇	-14.1666
求	-14.1667
集	-14.1668
向	-14.1669
預	-14.167
呼	-14.1671
ュ	-14.1672
ャ	-14.1673
尋	-14.1674
ょ	-14.1674
嗣	-14.1674
聞	-14.1675
謝	-14.1675
