<pad>	0
</s>	0
<unk>	0
▁¦	-0
▁a	-1
ch	-2
ai	-3
ea	-4
th	-5
in	-6
na	-7
ar	-8
▁d	-9
bh	-10
▁s	-11
ir	-12
mh	-13
an	-14
dh	-15
il	-16
is	-17
ío	-18
▁c	-19
▁l	-20
ta	-21
gu	-22
▁t	-23
▁f	-24
▁g	-25
gus	-26
id	-27
▁an	-28
gh	-29
air	-30
▁m	-31
la	-32
▁ch	-33
ra	-34
▁n	-35
on	-36
each	-37
▁agus	-38
▁𐋇	-39
▁ar	-40
▁i	-41
eo	-42
▁r	-43
éa	-44
ás	-45
ach	-46
co	-47
nn	-48
▁le	-49
ao	-50
▁bh	-51
the	-52
tá	-53
▁.	-54
iú	-55
▁,	-56
▁co	-57
▁na	-58
▁b	-59
ain	-60
le	-61
inn	-62
▁go	-63
ine	-64
ear	-65
ia	-66
eas	-67
ei	-68
lá	-69
áil	-70
or	-71
▁do	-72
tha	-73
te	-74
agus	-75
os	-76
ais	-77
19	-78
ean	-79
ín	-80
ig	-81
▁-	-82
▁p	-83
vid	-84
un	-85
it	-86
uair	-87
cht	-88
fh	-89
as	-90
ír	-91
im	-92
▁th	-93
▁ag	-94
aithe	-95
ile	-96
éad	-97
▁’	-98
eadh	-99
▁dh	-100
▁fh	-101
igh	-102
aigh	-103
▁h	-104
eag	-105
anna	-106
sa	-107
ro	-108
idir	-109
go	-110
íonn	-111
ithe	-112
adh	-113
20	-114
al	-115
eann	-116
aidh	-117
▁de	-118
io	-119
óg	-120
▁bhf	-121
aoine	-122
uil	-123
áin	-124
óir	-125
▁T	-126
vír	-127
do	-128
eile	-129
▁é	-130
▁covid	-131
íos	-132
▁nó	-133
-19	-134
áid	-135
láin	-136
oi	-137
ac	-138
abh	-139
eacht	-140
▁(	-141
ag	-142
ail	-143
aith	-144
íodh	-145
de	-146
áir	-147
▁in	-148
▁ó	-149
ian	-150
ion	-151
isc	-152
cha	-153
ad	-154
eal	-155
ur	-156
ic	-157
uir	-158
ann	-159
eamh	-160
re	-161
án	-162
ug	-163
▁seo	-164
ála	-165
▁C	-166
ús	-167
▁is	-168
éir	-169
íoch	-170
▁du	-171
▁1	-172
ith	-173
▁D	-174
éidir	-175
nach	-176
taí	-177
▁gh	-178
▁mar	-179
▁mh	-180
cov	-181
sc	-182
ial	-183
ástá	-184
víreas	-185
nó	-186
▁gc	-187
artha	-188
▁sh	-189
rú	-190
éana	-191
tar	-192
aoi	-193
▁tú	-194
áis	-195
▁chun	-196
▁lá	-197
▁A	-198
▁eile	-199
ró	-200
eith	-201
▁I	-202
▁sa	-203
éim	-204
tú	-205
▁M	-206
mp	-207
sh	-208
eidh	-209
▁bhfuil	-210
lú	-211
láinte	-212
ud	-213
tr	-214
aint	-215
ol	-216
ghaidh	-217
omh	-218
▁mb	-219
▁or	-220
uairisc	-221
eanna	-222
éin	-223
tach	-224
▁2	-225
éadf	-226
aid	-227
ár	-228
saín	-229
aí	-230
▁tá	-231
acsaín	-232
éan	-233
▁cás	-234
▁sé	-235
mar	-236
19¦	-237
covid	-238
vacsaín	-239
bhf	-240
▁atá	-241
oib	-242
aon	-243
fhabh	-244
taithe	-245
▁níos	-246
▁mó	-247
oinn	-248
eagmh	-249
ná	-250
aibh	-251
íon	-252
airt	-253
ios	-254
tear	-255
úsáid	-256
iún	-257
thar	-258
ars	-259
▁¦19¦	-260
▁aon	-261
se	-262
oir	-263
▁N	-264
▁tr	-265
▁dt	-266
ua	-267
▁B	-268
ca	-269
dú	-270
raí	-271
imh	-272
seo	-273
▁20	-274
▁ph	-275
iad	-276
eor	-277
▁comh	-278
uid	-279
teach	-280
éar	-281
ástáil	-282
▁Tá	-283
▁lea	-284
du	-285
arthaí	-286
íomh	-287
éanamh	-288
mach	-289
ill	-290
ibh	-291
▁féidir	-292
▁¦1	-293
▁ion	-294
eoir	-295
íocht	-296
ph	-297
▁¦2	-298
▁sc	-299
éadfadh	-300
thair	-301
aip	-302
▁daoine	-303
thu	-304
uairiscíodh	-305
▁io	-306
ásanna	-307
ís	-308
íor	-309
▁o	-310
éal	-311
gur	-312
ras	-313
er	-314
idh	-315
eola	-316
▁faoi	-317
▁leis	-318
▁duine	-319
▁sláinte	-320
iom	-321
ainn	-322
▁Is	-323
▁sin	-324
ialta	-325
▁á	-326
ní	-327
lach	-328
rian	-329
árta	-330
mb	-331
mó	-332
chun	-333
sú	-334
ógra	-335
▁vacsaín	-336
▁ná	-337
st	-338
gc	-339
eir	-340
ghl	-341
▁víreas	-342
ma	-343
reis	-344
pr	-345
eabh	-346
aist	-347
aghaidh	-348
▁tar	-349
nadh	-350
úir	-351
if	-352
▁S	-353
íne	-354
eall	-355
▁raibh	-356
da	-357
lea	-358
coil	-359
ip	-360
▁bás	-361
at	-362
bhfuil	-363
▁u	-364
aile	-365
▁cú	-366
comh	-367
nacht	-368
00	-369
eis	-370
pid	-371
aim	-372
éis	-373
áig	-374
radh	-375
▁air	-376
eachta	-377
int	-378
vir	-379
▁ionfhabh	-380
iúil	-381
eagmháil	-382
▁chomh	-383
us	-384
eart	-385
▁dó	-386
▁F	-387
ítear	-388
chur	-389
▁roinn	-390
▁4	-391
acht	-392
má	-393
▁má	-394
▁ort	-395
▁sars	-396
lí	-397
▁ach	-398
atá	-399
ob	-400
▁3	-401
onraí	-402
eachtaí	-403
daoine	-404
ón	-405
eidhm	-406
▁)	-407
▁ta	-408
aine	-409
▁bheith	-410
eáil	-411
ástála	-412
sé	-413
▁dhéanamh	-414
sin	-415
en	-416
iar	-417
▁úsáid	-418
níos	-419
dach	-420
eacha	-421
▁idir	-422
naí	-423
▁aghaidh	-424
▁rud	-425
ru	-426
eic	-427
▁amh	-428
▁Má	-429
reisin	-430
déim	-431
lán	-432
aindéim	-433
▁iad	-434
rach	-435
navir	-436
▁An	-437
▁éis	-438
cu	-439
olá	-440
víris	-441
san	-442
▁gach	-443
uig	-444
▁as	-445
▁gur	-446
dt	-447
fach	-448
chtúir	-449
eá	-450
▁féin	-451
ronavir	-452
inic	-453
▁im	-454
▁meas	-455
▁chóir	-456
nas	-457
▁¦20	-458
aoin	-459
anacht	-460
▁nach	-461
0¦	-462
aol	-463
osc	-464
▁st	-465
▁chur	-466
▁2020	-467
▁duit	-468
mha	-469
ib	-470
▁la	-471
alar	-472
▁ann	-473
ath	-474
▁/	-475
4¦	-476
▁ní	-477
▁bhí	-478
ór	-479
rom	-480
▁Ní	-481
mpla	-482
oradh	-483
▁comharthaí	-484
uas	-485
▁dhaoine	-486
íochta	-487
▁L	-488
▁roinnt	-489
▁cl	-490
▁siad	-491
oibr	-492
chú	-493
bhairt	-494
▁den	-495
cú	-496
amh	-497
ram	-498
▁5	-499
▁don	-500
▁ina	-501
mu	-502
cás	-503
ois	-504
nad	-505
aidir	-506
ionfhabh	-507
eaghl	-508
eaghlaigh	-509
féidir	-510
eabhra	-511
▁fr	-512
▁san	-513
▁orthu	-514
íortha	-515
aig	-516
áisiún	-517
▁ón	-518
áirítear	-519
ead	-520
acha	-521
inne	-522
faoi	-523
▁G	-524
▁w	-525
ard	-526
dáil	-527
earbh	-528
eoirí	-529
▁trí	-530
▁fhéadfadh	-531
níomh	-532
áiste	-533
bhí	-534
pa	-535
▁¦3	-536
▁líon	-537
▁thug	-538
oiblí	-539
éil	-540
aipeadh	-541
duine	-542
ronavirus	-543
lu	-544
ábh	-545
igean	-546
eagmhála	-547
ospid	-548
ugadh	-549
aire	-550
óis	-551
ho	-552
easta	-553
▁márta	-554
▁¦2¦	-555
arr	-556
innt	-557
oimh	-558
-2	-559
sín	-560
▁ráig	-561
▁tástáil	-562
5¦	-563
▁lena	-564
lo	-565
leis	-566
airle	-567
déan	-568
áide	-569
▁rios	-570
dó	-571
ait	-572
sláinte	-573
iúla	-574
lúdach	-575
▁roimh	-576
áisiúnta	-577
thú	-578
▁ath	-579
▁thar	-580
fr	-581
ós	-582
aitheamh	-583
chomh	-584
tu	-585
▁tha	-586
coileanna	-587
▁amach	-588
aineann	-589
achta	-590
ál	-591
eac	-592
eanáir	-593
illiún	-594
eachas	-595
áirithe	-596
aic	-597
oc	-598
ort	-599
iomláin	-600
▁freisin	-601
▁isteach	-602
éile	-603
práide	-604
▁dóibh	-605
earfach	-606
uireadh	-607
tí	-608
tas	-609
tóg	-610
gach	-611
náth	-612
▁neamh	-613
sars	-614
éid	-615
asc	-616
▁domh	-617
▁leat	-618
li	-619
alair	-620
▁fáil	-621
am	-622
ola	-623
▁”	-624
▁amháin	-625
óirí	-626
▁“	-627
rios	-628
▁nuair	-629
▁bun	-630
rianta	-631
tais	-632
▁mór	-633
arth	-634
eala	-635
▁lagh	-636
el	-637
raibh	-638
bás	-639
óisialta	-640
áit	-641
▁sp	-642
ba	-643
álacha	-644
▁gheall	-645
▁tástála	-646
▁ionfhabhtaithe	-647
óin	-648
▁chuig	-649
liú	-650
ífh	-651
táit	-652
uairt	-653
las	-654
orb	-655
faidh	-656
och	-657
▁sonraí	-658
nú	-659
▁bhíonn	-660
▁"	-661
fig	-662
▁gco	-663
▁:	-664
ina	-665
iúl	-666
ighis	-667
sp	-668
meas	-669
▁mí	-670
▁gan	-671
▁áit	-672
ampla	-673
▁leor	-674
▁Tuairiscíodh	-675
▁tinn	-676
fidh	-677
▁linn	-678
anda	-679
éanna	-680
han	-681
▁br	-682
lagh	-683
ló	-684
eimh	-685
ochtúir	-686
oll	-687
ithr	-688
eagra	-689
ura	-690
▁Mar	-691
▁nua	-692
▁fanacht	-693
earta	-694
8¦	-695
lé	-696
ógraíodh	-697
rud	-698
▁Ch	-699
▁mo	-700
súil	-701
bheith	-702
▁fháil	-703
éag	-704
cl	-705
▁iar	-706
▁lámha	-707
oifig	-708
dhéanamh	-709
mpar	-710
reán	-711
▁tír	-712
othar	-713
eán	-714
▁réir	-715
bhís	-716
▁acu	-717
▁chuid	-718
ub	-719
únadh	-720
gann	-721
1¦	-722
thaí	-723
muigh	-724
ospidéal	-725
imhe	-726
▁dul	-727
▁fud	-728
▁rial	-729
▁roimhe	-730
▁cásanna	-731
ionch	-732
▁measc	-733
▁maidir	-734
▁aontaithe	-735
oil	-736
íní	-737
ábháil	-738
tuairiscíodh	-739
▁dá	-740
chuir	-741
oscail	-742
▁2020,	-743
eog	-744
▁có	-745
íobh	-746
▁feabhra	-747
▁scaipeadh	-748
lean	-749
-19.	-750
▁dtí	-751
▁teaghlaigh	-752
féin	-753
7¦	-754
▁sao	-755
ialtas	-756
▁chás	-757
▁uair	-758
▁aghaidhe	-759
20¦	-760
ist	-761
uath	-762
eimhn	-763
6¦	-764
ne	-765
▁aip	-766
▁haghaidh	-767
chóir	-768
comharthaí	-769
um	-770
eol	-771
▁6	-772
earr	-773
▁ard	-774
▁chéad	-775
iúd	-776
ealt	-777
mhair	-778
íochaine	-779
líon	-780
▁Déan	-781
▁coronavirus	-782
3¦	-783
iabh	-784
orthaí	-785
▁ba	-786
▁sna	-787
nóis	-788
róit	-789
santa	-790
aigheann	-791
ífhógraíodh	-792
▁R	-793
▁lean	-794
▁víris	-795
rón	-796
racha	-797
raim	-798
far	-799
den	-800
nann	-801
aisteal	-802
íochtaí	-803
▁choinn	-804
▁tugadh	-805
▁¦2020¦	-806
duit	-807
róin	-808
ers	-809
▁leo	-810
ionchar	-811
▁eanáir	-812
don	-813
oin	-814
▁Ba	-815
▁bp	-816
▁chos	-817
▁rian	-818
asacht	-819
rá	-820
éanaí	-821
▁bhaile	-822
▁–	-823
iath	-824
uhan	-825
aintín	-826
▁hiomláin	-827
táil	-828
roinnt	-829
lár	-830
inneadh	-831
nuair	-832
ógair	-833
▁fógra	-834
dhaoine	-835
▁riospráide	-836
thug	-837
ce	-838
all	-839
liain	-840
áinig	-841
▁tsín	-842
▁tuairiscíodh	-843
br	-844
▁nd	-845
siad	-846
▁poiblí	-847
náisiúnta	-848
▁thabhairt	-849
dar	-850
aill	-851
éanann	-852
▁ng	-853
▁su	-854
có	-855
imp	-856
trí	-857
úil	-858
ige	-859
▁mbeadh	-860
ss	-861
▁bhfeidhm	-862
súla	-863
laíonn	-864
▁7	-865
▁aois	-866
▁hcov	-867
▁leith	-868
ite	-869
▁ain	-870
▁cur	-871
▁oibr	-872
▁maith	-873
2¦	-874
eolas	-875
orthu	-876
ún	-877
▁chor	-878
▁faoin	-879
lena	-880
róitéin	-881
).	-882
▁iom	-883
iachta	-884
fhéadfadh	-885
sco	-886
▁tu	-887
racht	-888
iabhras	-889
ogh	-890
▁Th	-891
▁agat	-892
▁%	-893
lac	-894
▁¦4¦	-895
neamh	-896
éagsúla	-897
sí	-898
▁9	-899
▁ei	-900
▁lu	-901
▁ós	-902
▁chú	-903
pidéim	-904
▁am	-905
▁déan	-906
aistil	-907
tástáil	-908
▁10	-909
▁Ag	-910
dála	-911
▁fad	-912
▁galar	-913
paí	-914
oibre	-915
íonna	-916
lan	-917
ráig	-918
▁chuir	-919
bhr	-920
osaigh	-921
fa	-922
éine	-923
bhísí	-924
lacha	-925
raíonn	-926
eachais	-927
▁pháiste	-928
ríomh	-929
▁8	-930
▁feadh	-931
▁mhéad	-932
▁leighis	-933
▁bhaineann	-934
nacha	-935
▁aib	-936
▁stáit	-937
isteach	-938
raintín	-939
dhío	-940
▁¦1¦	-941
imhse	-942
márta	-943
▁leanaí	-944
▁éigean	-945
ealtaine	-946
▁shampla	-947
to	-948
000	-949
namh	-950
daigh	-951
iomlán	-952
),	-953
9¦	-954
ainne	-955
eachtain	-956
aib	-957
▁Bh	-958
ibhéal	-959
▁gcásanna	-960
▁paindéim	-961
▁dhochtúir	-962
▁ionfhabhtú	-963
tó	-964
aois	-965
▁al	-966
ionn	-967
róinvíreas	-968
dr	-969
▁tíortha	-970
eist	-971
,000	-972
éigh	-973
▁eis	-974
▁cinn	-975
▁cúram	-976
▁staid	-977
▁othair	-978
éif	-979
iomp	-980
▁oir	-981
▁léir	-982
▁chaitheamh	-983
▁clúdach	-984
▁scoileanna	-985
ich	-986
iana	-987
amach	-988
eanta	-989
ianta	-990
-19,	-991
▁éif	-992
cr	-993
dóibh	-994
bun	-995
ims	-996
onn	-997
▁14	-998
▁éir	-999
▁seir	-1000
ealach	-1001
tuithe	-1002
oireann	-1003
▁srianta	-1004
earbhaithe	-1005
mór	-1006
▁gá	-1007
raith	-1008
▁cóir	-1009
▁teagmháil	-1010
aisc	-1011
íreach	-1012
achtach	-1013
aiseachtaí	-1014
isce	-1015
▁daon	-1016
▁síne	-1017
▁dearfach	-1018
▁Ná	-1019
aise	-1020
igiú	-1021
oirm	-1022
obail	-1023
▁ionad	-1024
mo	-1025
feadh	-1026
fanacht	-1027
freisin	-1028
▁chéile	-1029
scoileanna	-1030
domh	-1031
gnóis	-1032
gan	-1033
tír	-1034
▁4,	-1035
▁Ar	-1036
▁lé	-1037
▁rá	-1038
sonraí	-1039
▁iomlán	-1040
▁aibreán	-1041
eath	-1042
néis	-1043
▁dhá	-1044
chúis	-1045
mhithe	-1046
nachta	-1047
leat	-1048
scoil	-1049
fáil	-1050
tinn	-1051
uine	-1052
▁domhain	-1053
▁rialtas	-1054
ionfhabhtaithe	-1055
saí	-1056
éamh	-1057
iaidh	-1058
liana	-1059
oláth	-1060
amháin	-1061
níomha	-1062
aistigh	-1063
uairiscigh	-1064
▁fhr	-1065
▁siúd	-1066
og	-1067
▁'	-1068
teacht	-1069
tástála	-1070
dá	-1071
▁cu	-1072
linn	-1073
onta	-1074
▁mhí	-1075
ugtar	-1076
álach	-1077
aisnéis	-1078
▁toradh	-1079
óireacht	-1080
measc	-1081
▁for	-1082
▁who	-1083
▁mbeidh	-1084
▁Dífhógraíodh	-1085
obal	-1086
bhaile	-1087
orbairt	-1088
eitheamh	-1089
eastaíonn	-1090
me	-1091
mí	-1092
▁ra	-1093
bair	-1094
éit	-1095
rí	-1096
eana	-1097
aighde	-1098
daithe	-1099
gheall	-1100
op	-1101
chuig	-1102
▁sco	-1103
▁beag	-1104
bhíonn	-1105
▁ospidéal	-1106
▁sóisialta	-1107
ene	-1108
faí	-1109
eastal	-1110
íol	-1111
▁¦5	-1112
▁gla	-1113
▁las	-1114
▁déanaí	-1115
ionfhabhtú	-1116
su	-1117
▁¦4	-1118
tair	-1119
lacht	-1120
airíonna	-1121
tóga	-1122
oladh	-1123
oláir	-1124
eagairt	-1125
▁thástáil	-1126
artheagmhála	-1127
gco	-1128
▁¦5¦	-1129
ionad	-1130
▁cuairt	-1131
▁fhógair	-1132
iond	-1133
leor	-1134
▁19	-1135
▁dí	-1136
▁aer	-1137
▁Cuir	-1138
▁mura	-1139
▁frith	-1140
▁fuair	-1141
▁luath	-1142
coronavirus	-1143
obh	-1144
rial	-1145
réir	-1146
▁v	-1147
▁cr	-1148
áirt	-1149
▁ial	-1150
chuid	-1151
▁minic	-1152
itianta	-1153
sna	-1154
aithn	-1155
▁bu	-1156
mhór	-1157
▁cov	-1158
ghabh	-1159
▁bunús	-1160
▁thart	-1161
ing	-1162
iagnóis	-1163
rachtaí	-1164
fear	-1165
maidir	-1166
▁náisiúnta	-1167
rna	-1168
loig	-1169
covanna	-1170
én	-1171
eap	-1172
▁os	-1173
chos	-1174
aigin	-1175
▁srian	-1176
▁wuhan	-1177
▁cosúil	-1178
▁ghnáth	-1179
paindéim	-1180
▁milliún	-1181
▁chosaint	-1182
dhíonachta	-1183
iachtanach	-1184
nua	-1185
sao	-1186
▁¦3¦	-1187
aonrú	-1188
lín	-1189
anta	-1190
lámha	-1191
▁bhás	-1192
▁mbaol	-1193
▁teagmhála	-1194
ág	-1195
anais	-1196
preag	-1197
tharl	-1198
raothar	-1199
eolaíoch	-1200
oláireamh	-1201
iúr	-1202
óid	-1203
▁ís	-1204
úirt	-1205
▁bia	-1206
fháil	-1207
▁léinn	-1208
▁bearta	-1209
▁vacsaíní	-1210
ll	-1211
irt	-1212
leath	-1213
ubst	-1214
chtaí	-1215
▁aith	-1216
▁éagsúla	-1217
dul	-1218
táin	-1219
údar	-1220
cásanna	-1221
ireadh	-1222
▁háirithe	-1223
▁tionchar	-1224
▁comhairle	-1225
▁bhféadfadh	-1226
cs	-1227
acu	-1228
ara	-1229
tát	-1230
oghl	-1231
seir	-1232
othair	-1233
ubstaint	-1234
▁24	-1235
▁Bhí	-1236
iodáil	-1237
riosca	-1238
▁sábháil	-1239
aontaithe	-1240
▁lasmuigh	-1241
ge	-1242
óil	-1243
uartha	-1244
▁O	-1245
fud	-1246
▁11	-1247
chla	-1248
cuir	-1249
mura	-1250
rtha	-1251
éann	-1252
▁Níl	-1253
áistí	-1254
▁mers	-1255
roimhe	-1256
éigean	-1257
▁theas	-1258
scaipeadh	-1259
raothartach	-1260
luaiseachtaí	-1261
ng	-1262
om	-1263
▁ts	-1264
ocht	-1265
▁lae	-1266
▁oibre	-1267
feabhra	-1268
▁cheart	-1269
▁riosca	-1270
▁thoradh	-1271
bhar	-1272
uill	-1273
ógais	-1274
éimhse	-1275
iúltach	-1276
earsanta	-1277
bhachtach	-1278
▁ais	-1279
▁suas	-1280
tugadh	-1281
▁Beidh	-1282
▁céanna	-1283
▁láthair	-1284
▁fhaigheann	-1285
dtí	-1286
teaghlaigh	-1287
aif	-1288
ioc	-1289
aoil	-1290
rúpa	-1291
éanó	-1292
ineál	-1293
reise	-1294
achtar	-1295
▁obair	-1296
oláthar	-1297
▁laghdú	-1298
eachtach	-1299
▁choróin	-1300
▁fhéidir	-1301
▁ghalair	-1302
che	-1303
chor	-1304
chás	-1305
aghaidhe	-1306
oscailte	-1307
ang	-1308
ladh	-1309
lúth	-1310
▁oid	-1311
ailte	-1312
▁méad	-1313
áileog	-1314
▁Chuir	-1315
▁dúnadh	-1316
haghaidh	-1317
▁leibhéal	-1318
nd	-1319
leo	-1320
abhrú	-1321
ailiú	-1322
aradh	-1323
eatha	-1324
leith	-1325
oltar	-1326
ontae	-1327
iscint	-1328
uarthas	-1329
ospidéil	-1330
ost	-1331
▁15	-1332
▁De	-1333
▁Go	-1334
aisp	-1335
▁nós	-1336
▁éad	-1337
chéad	-1338
▁tinnis	-1339
▁¦6	-1340
fra	-1341
ong	-1342
osú	-1343
eáin	-1344
iúmó	-1345
▁chl	-1346
▁sio	-1347
▁géar	-1348
ealamh	-1349
raithe	-1350
▁gcuid	-1351
▁teacht	-1352
▁taistil	-1353
▁eipidéim	-1354
▁bealtaine	-1355
▁choinneáil	-1356
▁dr	-1357
▁lú	-1358
▁um	-1359
óras	-1360
▁eor	-1361
▁mac	-1362
choinn	-1363
▁laghad	-1364
▁príomh	-1365
▁casacht	-1366
▁cuireadh	-1367
mhíochaine	-1368
óga	-1369
iúint	-1370
ruinn	-1371
ríobh	-1372
íocha	-1373
ialacha	-1374
iúmóine	-1375
romchla	-1376
éireann	-1377
uilleadh	-1378
iv	-1379
▁e	-1380
▁lár	-1381
chéim	-1382
▁oifig	-1383
▁torthaí	-1384
léir	-1385
óstach	-1386
rán	-1387
▁ré	-1388
ugaí	-1389
macha	-1390
▁masc	-1391
▁ceann	-1392
eantair	-1393
lúdaigh	-1394
▁bliain	-1395
▁óstach	-1396
artheagmháil	-1397
▁dearbhaithe	-1398
who	-1399
▁rogh	-1400
▁átha	-1401
▁airde	-1402
▁bharr	-1403
oscailt	-1404
▁tarchur	-1405
eang	-1406
líne	-1407
éasc	-1408
úint	-1409
fógra	-1410
uithe	-1411
iomptó	-1412
éadfaí	-1413
eiceáil	-1414
ianaise	-1415
hiomláin	-1416
romchúis	-1417
aireachas	-1418
▁j	-1419
fad	-1420
▁¦9	-1421
▁fós	-1422
cháin	-1423
galar	-1424
▁2019	-1425
tarchur	-1426
aithfidh	-1427
riospráide	-1428
ifr	-1429
dc	-1430
▁P	-1431
for	-1432
▁23	-1433
eich	-1434
fadh	-1435
tsín	-1436
éasú	-1437
faoin	-1438
▁deac	-1439
▁imní	-1440
▁sain	-1441
scoile	-1442
▁othar	-1443
eachaint	-1444
eolaíocht	-1445
▁dochtúir	-1446
eolaíochta	-1447
▁éigeandála	-1448
cur	-1449
rath	-1450
saint	-1451
poiblí	-1452
cuireadh	-1453
thabhairt	-1454
stáit	-1455
▁Mura	-1456
▁cuir	-1457
▁mheas	-1458
▁sláin	-1459
▁seacht	-1460
ógas	-1461
ónaí	-1462
untas	-1463
mbeadh	-1464
ollaig	-1465
ithreach	-1466
ubstaintí	-1467
artheagmhálaí	-1468
ior	-1469
▁más	-1470
aíonn	-1471
▁ceal	-1472
▁eolas	-1473
▁cheann	-1474
bhfeidhm	-1475
fhr	-1476
álaithe	-1477
úr	-1478
▁;	-1479
pad	-1480
raz	-1481
▁12	-1482
aolú	-1483
eicn	-1484
mheá	-1485
eneca	-1486
maith	-1487
▁cosc	-1488
▁síos	-1489
▁teor	-1490
ruithe	-1491
impeall	-1492
▁cliath	-1493
▁iompar	-1494
razeneca	-1495
thástáil	-1496
▁rialtais	-1497
eagraíocht	-1498
▁coraintín	-1499
iste	-1500
umas	-1501
aer	-1502
oigh	-1503
▁tóg	-1504
mhéad	-1505
▁iarr	-1506
▁líne	-1507
▁scoil	-1508
▁iodáil	-1509
▁taisteal	-1510
▁meitheamh	-1511
▁¦8	-1512
aing	-1513
nama	-1514
bhíse	-1515
ataigin	-1516
oghlaim	-1517
áireamh	-1518
óireachta	-1519
▁13	-1520
agat	-1521
▁oll	-1522
beidh	-1523
▁clinic	-1524
▁fiabhras	-1525
00¦	-1526
róm	-1527
áirg	-1528
mhí	-1529
use	-1530
▁cé	-1531
▁¦7	-1532
▁ár	-1533
eagh	-1534
imid	-1535
roma	-1536
fraic	-1537
ibear	-1538
rúpaí	-1539
tráil	-1540
inntiú	-1541
mhainn	-1542
íochán	-1543
iondróm	-1544
▁Cuireadh	-1545
ionfhabhtuithe	-1546
ts	-1547
leighis	-1548
ae	-1549
nat	-1550
▁ac	-1551
▁ae	-1552
cóir	-1553
▁fss	-1554
cúram	-1555
▁fliú	-1556
▁meán	-1557
▁2020.	-1558
▁Nuair	-1559
▁leath	-1560
▁sampla	-1561
▁dáileog	-1562
▁gcoinne	-1563
▁ndaoine	-1564
▁laistigh	-1565
▁dteagmháil	-1566
cho	-1567
irí	-1568
ách	-1569
treo	-1570
éach	-1571
éacs	-1572
ardaí	-1573
eiric	-1574
fuair	-1575
iméad	-1576
ónaith	-1577
clúdach	-1578
inneach	-1579
omhanda	-1580
pháiste	-1581
aireacht	-1582
1,	-1583
gla	-1584
níl	-1585
tru	-1586
▁22	-1587
▁Co	-1588
▁ró	-1589
iarr	-1590
▁chu	-1591
bhair	-1592
▁leag	-1593
leanaí	-1594
▁cionn	-1595
▁rianú	-1596
bhaineann	-1597
til	-1598
cinn	-1599
ghal	-1600
shla	-1601
nan	-1602
▁to	-1603
▁cho	-1604
▁thu	-1605
▁¦00	-1606
iosta	-1607
mheas	-1608
róidh	-1609
tacha	-1610
▁cuid	-1611
ainist	-1612
eannta	-1613
eacnama	-1614
iochtaí	-1615
shampla	-1616
eachtais	-1617
eaghlach	-1618
▁dhiaidh	-1619
▁tháinig	-1620
▁bunaithe	-1621
▁chomharthaí	-1622
▁idirnáisiúnta	-1623
eil	-1624
roinn	-1625
staid	-1626
abhair	-1627
nithe	-1628
▁Léigh	-1629
▁chloig	-1630
▁cúraim	-1631
gcásanna	-1632
▁mhéadar	-1633
dhochtúir	-1634
▁iarracht	-1635
▁ainmhithe	-1636
riachtanach	-1637
ast	-1638
idí	-1639
oils	-1640
sáid	-1641
téar	-1642
airtí	-1643
arasc	-1644
shlat	-1645
thóir	-1646
ugann	-1647
eithre	-1648
ibhéil	-1649
mparáid	-1650
dochtúir	-1651
chaitheamh	-1652
ibearshlat	-1653
▁18	-1654
▁baint	-1655
▁chosc	-1656
srianta	-1657
tíortha	-1658
▁gníomh	-1659
▁áirithe	-1660
comhairle	-1661
teagmháil	-1662
▁oibrithe	-1663
bu	-1664
úl	-1665
▁).	-1666
laghd	-1667
▁¦000¦	-1668
dearfach	-1669
▁30	-1670
llmh	-1671
eocht	-1672
órais	-1673
▁thóg	-1674
aithnid	-1675
eiriceá	-1676
▁daonna	-1677
▁dhuine	-1678
▁galair	-1679
▁freastal	-1680
▁seirbhísí	-1681
mers	-1682
teas	-1683
dí	-1684
lis	-1685
son	-1686
▁16	-1687
daon	-1688
▁saor	-1689
▁tapa	-1690
▁coinn	-1691
▁ndéan	-1692
▁díreach	-1693
▁deireadh	-1694
gá	-1695
dhá	-1696
dia	-1697
fss	-1698
eadú	-1699
itic	-1700
mhar	-1701
níor	-1702
róis	-1703
thao	-1704
ionsc	-1705
lanna	-1706
línte	-1707
olann	-1708
thúil	-1709
uirth	-1710
únach	-1711
ialach	-1712
mheánach	-1713
eidhmeanna	-1714
▁Sc	-1715
▁200	-1716
▁Ach	-1717
▁fiú	-1718
▁céim	-1719
▁stát	-1720
▁tíre	-1721
▁réamh	-1722
▁bhaint	-1723
ríobháid	-1724
▁staidéar	-1725
▁chomhairle	-1726
aimh	-1727
chán	-1728
síne	-1729
mhail	-1730
laghdú	-1731
29	-1732
cé	-1733
iz	-1734
▁í	-1735
icí	-1736
ter	-1737
ásta	-1738
imhir	-1739
ochta	-1740
seach	-1741
▁cúis	-1742
ionraí	-1743
toradh	-1744
illeadh	-1745
lachtaí	-1746
rialtas	-1747
údaráis	-1748
▁dhearbh	-1749
▁thagann	-1750
▁básmhair	-1751
▁próitéin	-1752
▁áiteanna	-1753
▁coitianta	-1754
coróinvíreas	-1755
▁imdhíonachta	-1756
oid	-1757
sain	-1758
▁¦14¦	-1759
chéile	-1760
cuairt	-1761
aibreán	-1762
bhreith	-1763
30	-1764
ré	-1765
lag	-1766
scrú	-1767
▁Tar	-1768
isiún	-1769
luath	-1770
▁dara	-1771
▁¦10¦	-1772
naíonn	-1773
▁rialú	-1774
▁glaoch	-1775
▁bunúsacha	-1776
▁pearsanta	-1777
▁foláireamh	-1778
bia	-1779
más	-1780
sta	-1781
áip	-1782
éas	-1783
eara	-1784
itis	-1785
uses	-1786
uirthi	-1787
éidear	-1788
eimhnithe	-1789
iallaíonn	-1790
tasubstaintí	-1791
áth	-1792
▁2,	-1793
bhun	-1794
▁sca	-1795
▁fíne	-1796
▁méid	-1797
▁déine	-1798
▁fearr	-1799
▁scaip	-1800
domhain	-1801
▁bheidh	-1802
▁cabhrú	-1803
eipidéim	-1804
▁ialtóga	-1805
ie	-1806
ly	-1807
siúd	-1808
▁z	-1809
eim	-1810
ein	-1811
roí	-1812
úis	-1813
▁26	-1814
aite	-1815
igin	-1816
álta	-1817
▁thr	-1818
eicis	-1819
naigh	-1820
oirch	-1821
▁pian	-1822
aifead	-1823
duithe	-1824
dúrtha	-1825
▁chúis	-1826
iodáile	-1827
▁mbaile	-1828
itheoirí	-1829
▁mbásanna	-1830
natóireacht	-1831
ronaviruses	-1832
mbeidh	-1833
dífhógraíodh	-1834
▁fu	-1835
▁sí	-1836
reid	-1837
éirí	-1838
▁Ina	-1839
▁eas	-1840
▁rna	-1841
▁Faoi	-1842
▁fola	-1843
▁gcás	-1844
dúnadh	-1845
eachtú	-1846
pháirt	-1847
▁amhras	-1848
▁mhárta	-1849
▁saotharl	-1850
▁hairíonna	-1851
bp	-1852
ism	-1853
beag	-1854
máin	-1855
ailís	-1856
iorra	-1857
uaire	-1858
éanóm	-1859
aitéis	-1860
lacadh	-1861
áraigh	-1862
chúraim	-1863
eannach	-1864
aitheann	-1865
untasach	-1866
uairisciú	-1867
▁Ú	-1868
▁25	-1869
▁nú	-1870
ainm	-1871
hcov	-1872
▁Osc	-1873
▁dta	-1874
▁eag	-1875
▁ainm	-1876
▁aire	-1877
▁níor	-1878
▁uait	-1879
▁ansin	-1880
▁beidh	-1881
▁ceart	-1882
▁cheana	-1883
▁daonra	-1884
▁choinne	-1885
sóisialta	-1886
▁domhanda	-1887
▁víreasach	-1888
▁thuairiscigh	-1889
ab	-1890
rogh	-1891
coinn	-1892
cosúil	-1893
déanaí	-1894
dhúnadh	-1895
oibrithe	-1896
ire	-1897
▁),	-1898
lann	-1899
nách	-1900
▁éil	-1901
ealaí	-1902
eoidh	-1903
frith	-1904
inear	-1905
rasaí	-1906
▁arís	-1907
▁bhrí	-1908
▁sula	-1909
daíonn	-1910
oiléir	-1911
▁ndear	-1912
▁seach	-1913
casacht	-1914
tacháin	-1915
teachas	-1916
▁Amhail	-1917
▁leanbh	-1918
▁mbíonn	-1919
achtarán	-1920
eisialta	-1921
shiomptó	-1922
vacsaíní	-1923
inearálta	-1924
▁héireann	-1925
▁míochaine	-1926
níomhaíocht	-1927
▁sraothartach	-1928
▁ghluaiseachtaí	-1929
lin	-1930
chtú	-1931
úile	-1932
▁¦6¦	-1933
airde	-1934
srian	-1935
thart	-1936
amhail	-1937
caíocht	-1938
fhógair	-1939
leathan	-1940
0%	-1941
cal	-1942
▁1,	-1943
minic	-1944
▁Níor	-1945
▁eorp	-1946
príomh	-1947
▁gcuir	-1948
▁measa	-1949
▁Úsáid	-1950
tháinig	-1951
▁ionaid	-1952
▁pobail	-1953
▁cosanta	-1954
▁covanna	-1955
▁chásanna	-1956
▁bpaindéim	-1957
▁géarmhíochaine	-1958
▁ionfhabhtuithe	-1959
chu	-1960
ipe	-1961
pro	-1962
méad	-1963
ocrú	-1964
stit	-1965
ubei	-1966
bunús	-1967
tanas	-1968
ghnáth	-1969
chosaint	-1970
iúrthóir	-1971
3,	-1972
▁Ó	-1973
fen	-1974
▁17	-1975
labh	-1976
▁202	-1977
▁ama	-1978
▁ast	-1979
aiste	-1980
▁Lean	-1981
▁baol	-1982
▁mhór	-1983
▁teas	-1984
▁conas	-1985
eireadh	-1986
▁drugaí	-1987
▁sláint	-1988
▁treoir	-1989
▁nollaig	-1990
ainmhithe	-1991
▁dhéanann	-1992
▁láithreach	-1993
▁tábhachtach	-1994
di	-1995
dta	-1996
nós	-1997
tor	-1998
▁¦7¦	-1999
wuhan	-2000
athair	-2001
bearta	-2002
cg	-2003
orn	-2004
▁28	-2005
▁ua	-2006
aide	-2007
airí	-2008
irim	-2009
obac	-2010
áine	-2011
áise	-2012
▁bhr	-2013
▁eol	-2014
▁mho	-2015
aisle	-2016
iacht	-2017
ruthú	-2018
ónóis	-2019
▁aims	-2020
▁scag	-2021
▁súil	-2022
stitiú	-2023
▁cófra	-2024
▁dhéan	-2025
milliún	-2026
sábháil	-2027
teachta	-2028
eimhnigh	-2029
próitéin	-2030
tionchar	-2031
traitéis	-2032
éadfaidh	-2033
eartaithe	-2034
▁ospidéil	-2035
▁rianaire	-2036
iachtanais	-2037
▁sheachaint	-2038
eid	-2039
laí	-2040
bhás	-2041
ille	-2042
suas	-2043
mbaol	-2044
cheart	-2045
ormhór	-2046
teagmhála	-2047
▁k	-2048
ice	-2049
uin	-2050
▁sín	-2051
▁¦8¦	-2052
léinn	-2053
raoin	-2054
▁Agus	-2055
▁dtús	-2056
bhaint	-2057
▁chéim	-2058
▁gcéad	-2059
▁rinne	-2060
▁dtugtar	-2061
▁timpeall	-2062
▁eagraíocht	-2063
▁choróinvíris	-2064
▁‘	-2065
cgp	-2066
hon	-2067
ainc	-2068
ealú	-2069
eans	-2070
éasca	-2071
iteach	-2072
ghalair	-2073
íocháin	-2074
eisteanna	-2075
ismitheoirí	-2076
níomhaíochtaí	-2077
▁V	-2078
dún	-2079
hio	-2080
lae	-2081
tán	-2082
▁21	-2083
▁3,	-2084
▁fó	-2085
únta	-2086
▁con	-2087
▁dío	-2088
aíodh	-2089
obair	-2090
▁fios	-2091
▁againn	-2092
▁breise	-2093
▁gceart	-2094
▁siopad	-2095
háirithe	-2096
lasmuigh	-2097
áiteanna	-2098
▁niúmóine	-2099
bhféadfadh	-2100
fiú	-2101
tin	-2102
nigh	-2103
iompar	-2104
ionaid	-2105
shláinte	-2106
eat	-2107
fan	-2108
óca	-2109
▁Cé	-2110
▁Dh	-2111
▁dé	-2112
gadh	-2113
imeá	-2114
isic	-2115
izer	-2116
onad	-2117
íche	-2118
llach	-2119
theas	-2120
éadfá	-2121
▁aige	-2122
▁bhun	-2123
▁glan	-2124
▁stop	-2125
uashon	-2126
▁Coinn	-2127
▁Dúirt	-2128
▁córas	-2129
▁rudaí	-2130
tranais	-2131
▁láimhe	-2132
▁reatha	-2133
ealadach	-2134
eicheamh	-2135
▁comhair	-2136
▁áireamh	-2137
▁faisnéis	-2138
▁fhorbairt	-2139
▁sábháilte	-2140
sio	-2141
deac	-2142
géar	-2143
nanna	-2144
thoradh	-2145
▁In	-2146
▁di	-2147
asta	-2148
aimid	-2149
dúirt	-2150
▁cúig	-2151
▁dian	-2152
▁fada	-2153
▁nasc	-2154
céanna	-2155
▁athrú	-2156
▁bhéal	-2157
▁dlúth	-2158
▁dúnta	-2159
▁gcomh	-2160
▁gnáth	-2161
▁méadú	-2162
láthair	-2163
▁amhail	-2164
▁bliana	-2165
▁oiread	-2166
▁spreag	-2167
leibhéal	-2168
▁cosaint	-2169
▁chinntiú	-2170
▁diagnóis	-2171
▁diúltach	-2172
▁riochtaí	-2173
▁tréimhse	-2174
fhaigheann	-2175
▁dhomhanda	-2176
▁imeachtaí	-2177
▁oideachais	-2178
hn	-2179
ohn	-2180
ceann	-2181
thadh	-2182
▁¦20¦	-2183
chúram	-2184
lanadh	-2185
naithe	-2186
choróin	-2187
fhéidir	-2188
aispeáin	-2189
úsáideann	-2190
aireachais	-2191
cdc	-2192
allú	-2193
álaí	-2194
▁fol	-2195
cumar	-2196
▁díobh	-2197
▁maisc	-2198
▁scamh	-2199
▁shrón	-2200
▁taobh	-2201
taisteal	-2202
▁thugann	-2203
oifigeach	-2204
▁paindéime	-2205
▁seirbhíse	-2206
▁tromchúis	-2207
▁seachtaine	-2208
▁theastaíonn	-2209
▁vacsaínithe	-2210
▁éifeachtach	-2211
▁chibearshlat	-2212
fó	-2213
tinnis	-2214
coraintín	-2215
éifeachtach	-2216
▁$	-2217
mac	-2218
niú	-2219
rsa	-2220
fliú	-2221
imní	-2222
iúin	-2223
masc	-2224
ordú	-2225
óirt	-2226
▁ear	-2227
dhíon	-2228
fizer	-2229
gcuid	-2230
iocht	-2231
oirne	-2232
rnach	-2233
sláin	-2234
uisce	-2235
▁bith	-2236
▁fhad	-2237
▁lámh	-2238
bhaidh	-2239
lachta	-2240
laghad	-2241
naíodh	-2242
reacha	-2243
▁uisce	-2244
taistil	-2245
torthaí	-2246
▁aonair	-2247
▁leagan	-2248
▁soláth	-2249
▁¦2019¦	-2250
achtóirí	-2251
eachtadh	-2252
fiabhras	-2253
iocfaidh	-2254
raoiníní	-2255
▁eacnama	-2256
bealtaine	-2257
ruinnithe	-2258
▁cóireáil	-2259
▁dtíortha	-2260
▁oscailte	-2261
▁trealamh	-2262
choinneáil	-2263
éigeandála	-2264
▁phaindéim	-2265
▁sholáthar	-2266
▁tástálacha	-2267
▁astrazeneca	-2268
▁coróinvíreas	-2269
fí	-2270
ord	-2271
lais	-2272
pháir	-2273
taobh	-2274
seacht	-2275
díreach	-2276
allúnach	-2277
chl	-2278
▁50	-2279
▁il	-2280
▁me	-2281
▁tí	-2282
aird	-2283
leag	-2284
▁Más	-2285
▁gar	-2286
▁gnó	-2287
▁nár	-2288
▁pol	-2289
▁cath	-2290
eoladh	-2291
▁eisigh	-2292
▁gardaí	-2293
▁ialtóg	-2294
▁liosta	-2295
▁phobal	-2296
bunaithe	-2297
▁scaradh	-2298
▁seachas	-2299
▁Oscailte	-2300
▁hcovanna	-2301
▁staidéir	-2302
▁tabhairt	-2303
▁vacsaíniú	-2304
▁úsáideann	-2305
▁cliniciúla	-2306
maí	-2307
mra	-2308
dráit	-2309
oinse	-2310
bliain	-2311
mhainní	-2312
rollach	-2313
imhseáil	-2314
leananna	-2315
tréimhse	-2316
éideartha	-2317
dearbhaithe	-2318
ant	-2319
tic	-2320
eála	-2321
átha	-2322
▁dhí	-2323
▁vír	-2324
bharr	-2325
bíonn	-2326
roimh	-2327
▁ráta	-2328
sampla	-2329
éirinn	-2330
▁bhfad	-2331
▁bíonn	-2332
▁caith	-2333
▁dócha	-2334
▁taire	-2335
▁toisc	-2336
▁curtha	-2337
▁fionraí	-2338
▁samplaí	-2339
▁fhéadfaí	-2340
▁thosaigh	-2341
▁fhoireann	-2342
▁rianaithe	-2343
ku	-2344
ul	-2345
ama	-2346
fós	-2347
org	-2348
cuid	-2349
ráid	-2350
conas	-2351
▁¦15¦	-2352
cheann	-2353
iniciúil	-2354
laistigh	-2355
uaireanta	-2356
tábhachtach	-2357
eam	-2358
mbr	-2359
nal	-2360
nar	-2361
oic	-2362
thr	-2363
wab	-2364
úla	-2365
▁29	-2366
▁”.	-2367
▁100	-2368
▁Cén	-2369
▁cor	-2370
aisin	-2371
léigh	-2372
ágann	-2373
▁fhág	-2374
afraic	-2375
aibéit	-2376
▁deara	-2377
▁gcaoi	-2378
▁rátaí	-2379
déantar	-2380
speicis	-2381
▁gcónaí	-2382
▁suíomh	-2383
▁uirthi	-2384
eachtáil	-2385
romchlaí	-2386
▁taighde	-2387
▁thógáil	-2388
▁tinneas	-2389
aibéiteas	-2390
eimhníodh	-2391
▁teastáil	-2392
▁tógálach	-2393
aireachtaí	-2394
▁seachtain	-2395
chomharthaí	-2396
imdhíonachta	-2397
▁antasubstaintí	-2398
eách	-2399
abhróidh	-2400
thuairiscigh	-2401
.5	-2402
.30	-2403
▁27	-2404
▁31	-2405
▁nu	-2406
ceal	-2407
láir	-2408
tech	-2409
teor	-2410
▁inn	-2411
maoin	-2412
▁céad	-2413
▁difr	-2414
▁samh	-2415
▁tosú	-2416
gníomh	-2417
treoir	-2418
▁eitil	-2419
▁domhan	-2420
▁ghalar	-2421
▁éirinn	-2422
eirbhísí	-2423
▁Déantar	-2424
▁bhfaigh	-2425
▁hiodáile	-2426
▁nádúrtha	-2427
▁theannta	-2428
▁leanúnach	-2429
▁fhreagairt	-2430
▁coronaviruses	-2431
cm	-2432
uí	-2433
▁&	-2434
▁?	-2435
▁[	-2436
bla	-2437
feá	-2438
aige	-2439
alta	-2440
annú	-2441
cair	-2442
cosc	-2443
eirt	-2444
síos	-2445
uail	-2446
illiú	-2447
oghla	-2448
raigh	-2449
rutha	-2450
throm	-2451
thúla	-2452
éimsí	-2453
íomhá	-2454
cliath	-2455
rasaíl	-2456
ualadh	-2457
oirchis	-2458
eolaithe	-2459
rialtais	-2460
iachtanacha	-2461
eidhmeannacht	-2462
2,	-2463
▁U	-2464
ghlu	-2465
meán	-2466
▁the	-2467
▁¦9¦	-2468
scaip	-2469
▁muid	-2470
▁slán	-2471
▁srón	-2472
▁tríd	-2473
▁ísle	-2474
fhógra	-2475
▁Bíonn	-2476
▁anois	-2477
▁dúirt	-2478
▁eacht	-2479
▁fhios	-2480
▁freag	-2481
▁stair	-2482
▁teach	-2483
▁éigin	-2484
dáileog	-2485
▁iaráin	-2486
▁Tháinig	-2487
▁tosaigh	-2488
imeachtaí	-2489
meitheamh	-2490
seirbhísí	-2491
▁beagnach	-2492
▁leibhéil	-2493
▁tuiscint	-2494
▁shóisialta	-2495
▁choróinvíreas	-2496
▁gartheagmhálaí	-2497
glan	-2498
sula	-2499
tosú	-2500
chosc	-2501
dhéan	-2502
rianú	-2503
scrúdú	-2504
hiodráit	-2505
ití	-2506
nel	-2507
oth	-2508
uga	-2509
únú	-2510
▁Mh	-2511
▁ca	-2512
ailí	-2513
aims	-2514
ichí	-2515
istí	-2516
lóid	-2517
tíre	-2518
éite	-2519
▁Fan	-2520
▁iúl	-2521
▁oil	-2522
▁tag	-2523
iforn	-2524
lúine	-2525
éithe	-2526
▁Léir	-2527
▁ithe	-2528
▁modh	-2529
▁riar	-2530
▁téar	-2531
igiúin	-2532
▁anseo	-2533
▁anála	-2534
▁ráige	-2535
▁íseal	-2536
eálacha	-2537
ialanna	-2538
laíocht	-2539
oiseach	-2540
thaosta	-2541
▁cinnte	-2542
▁leithr	-2543
▁oiriún	-2544
▁théann	-2545
arascáil	-2546
orbartha	-2547
áirgeadh	-2548
íollacha	-2549
▁bhailiú	-2550
▁ceithre	-2551
▁hiomlán	-2552
ineálacha	-2553
▁iarraidh	-2554
▁siondróm	-2555
▁tharchur	-2556
eoireachta	-2557
▁suntasach	-2558
▁speisialta	-2559
idirnáisiúnta	-2560
▁saotharlainne	-2561
▁básmhaireachta	-2562
18	-2563
ofa	-2564
▁¦13¦	-2565
gcoinne	-2566
imsíonn	-2567
ndaoine	-2568
dteagmháil	-2569
7,	-2570
21¦	-2571
ins	-2572
cúis	-2573
thóg	-2574
áinn	-2575
▁ant	-2576
▁níl	-2577
baint	-2578
caith	-2579
cionn	-2580
réamh	-2581
ábhar	-2582
▁Thug	-2583
▁mbás	-2584
achtaí	-2585
chumas	-2586
▁Fuair	-2587
▁fásta	-2588
ochtain	-2589
▁cúnamh	-2590
▁gceist	-2591
leachtaí	-2592
éarchéim	-2593
▁anailís	-2594
▁chineál	-2595
▁fíneáil	-2596
▁rinneadh	-2597
▁teorainn	-2598
bhreithniú	-2599
▁anaithnid	-2600
▁caitheamh	-2601
▁dhearfach	-2602
▁deimhnithe	-2603
▁idirmheánach	-2604
▁monatóireacht	-2605
▁neamhshiomptó	-2606
si	-2607
eál	-2608
gaí	-2609
órt	-2610
céim	-2611
eict	-2612
eoit	-2613
fhad	-2614
laim	-2615
osca	-2616
phen	-2617
ruth	-2618
róta	-2619
éard	-2620
asamh	-2621
níodh	-2622
oirth	-2623
ollag	-2624
reabh	-2625
rinne	-2626
ánach	-2627
éasúr	-2628
▁¦11¦	-2629
eapáin	-2630
eánann	-2631
igheas	-2632
lasáil	-2633
ohnson	-2634
dhearbh	-2635
dhiaidh	-2636
imisiún	-2637
iontech	-2638
laghdán	-2639
oghlama	-2640
ránaigh	-2641
aoileadh	-2642
eobhaidh	-2643
ghabháil	-2644
raitheann	-2645
éiniteach	-2646
ónóiseach	-2647
úinteoirí	-2648
1.	-2649
ga	-2650
rt	-2651
▁0	-2652
cén	-2653
ive	-2654
ána	-2655
▁dú	-2656
▁beo	-2657
▁brú	-2658
▁cdc	-2659
▁chr	-2660
▁dlí	-2661
▁rsc	-2662
▁tús	-2663
ansin	-2664
▁Comh	-2665
▁iomp	-2666
▁móra	-2667
▁núic	-2668
▁páip	-2669
chloig	-2670
cúraim	-2671
onrach	-2672
▁anuas	-2673
▁dhaon	-2674
▁gnách	-2675
▁hubei	-2676
▁tobac	-2677
mhéadar	-2678
▁déanta	-2679
▁uimhir	-2680
anntanas	-2681
iarracht	-2682
rinneadh	-2683
saotharl	-2684
staidéar	-2685
▁básanna	-2686
▁eorpach	-2687
▁Coinnigh	-2688
▁shláinte	-2689
▁tuairisc	-2690
▁chuireann	-2691
▁dheireadh	-2692
▁faireachas	-2693
▁riachtanach	-2694
%)	-2695
ana	-2696
caí	-2697
nár	-2698
airg	-2699
onch	-2700
stát	-2701
fheidhm	-2702
básmhair	-2703
niúmóine	-2704
cp	-2705
ash	-2706
ict	-2707
▁ío	-2708
▁”,	-2709
ango	-2710
cúnú	-2711
eamó	-2712
iail	-2713
éabh	-2714
▁Tóg	-2715
▁éin	-2716
imist	-2717
lisiú	-2718
reáin	-2719
scéal	-2720
▁Chun	-2721
▁cead	-2722
▁dtos	-2723
▁páir	-2724
▁siar	-2725
▁tríú	-2726
▁¦30¦	-2727
aicéit	-2728
daonna	-2729
dhuine	-2730
galair	-2731
tephen	-2732
eabhair	-2733
earmáin	-2734
iatháin	-2735
róiseas	-2736
▁afraic	-2737
▁chóiré	-2738
▁dearbh	-2739
▁eoraip	-2740
▁géanóm	-2741
▁leanas	-2742
▁ligean	-2743
▁mhaolú	-2744
▁nochta	-2745
▁rialta	-2746
▁ríocht	-2747
▁éadrom	-2748
deireadh	-2749
freastal	-2750
lódaithe	-2751
éabhlóid	-2752
▁nóiméad	-2753
aifeadadh	-2754
aithníodh	-2755
ialacháin	-2756
▁Rinneadh	-2757
▁clúdaigh	-2758
▁sháraigh	-2759
foláireamh	-2760
▁straitéis	-2761
▁tuilleadh	-2762
ataigineach	-2763
▁éigeantach	-2764
fe	-2765
irg	-2766
úin	-2767
fíor	-2768
osta	-2769
tapa	-2770
déine	-2771
áilte	-2772
glaoch	-2773
igiúirí	-2774
scaradh	-2775
seachas	-2776
thástála	-2777
,8	-2778
."	-2779
13	-2780
nl	-2781
eip	-2782
hku	-2783
par	-2784
▁Dá	-2785
▁Le	-2786
▁gu	-2787
iars	-2788
▁chó	-2789
▁tor	-2790
▁Meas	-2791
▁aice	-2792
▁chon	-2793
▁dáta	-2794
▁sine	-2795
▁siúl	-2796
▁¦16¦	-2797
▁¦24¦	-2798
▁baile	-2799
▁chorp	-2800
▁teicn	-2801
▁theor	-2802
▁ullmh	-2803
ghníomh	-2804
▁cógais	-2805
▁feidhm	-2806
▁tharla	-2807
▁tionsc	-2808
▁aithint	-2809
▁cónaith	-2810
▁phoiblí	-2811
▁údaráis	-2812
víreasach	-2813
▁ollscoil	-2814
▁vacsaíne	-2815
chomhairle	-2816
▁altranais	-2817
▁chóireáil	-2818
▁ndearnadh	-2819
▁rialuithe	-2820
▁éifeachtú	-2821
astrazeneca	-2822
▁athoscailt	-2823
▁chomhartha	-2824
▁tseachtain	-2825
▁dhearbhaigh	-2826
▁riachtanais	-2827
pp	-2828
ve	-2829
and	-2830
olg	-2831
ton	-2832
ual	-2833
álú	-2834
aipe	-2835
roch	-2836
roid	-2837
scag	-2838
thír	-2839
áidí	-2840
chail	-2841
derna	-2842
eamól	-2843
igiún	-2844
leách	-2845
nelly	-2846
athlas	-2847
icheál	-2848
ileáin	-2849
néithe	-2850
raíodh	-2851
ónaidh	-2852
angolin	-2853
eithimh	-2854
thagann	-2855
coitianta	-2856
aicéiteamól	-2857
ghluaiseachtaí	-2858
.2	-2859
.4	-2860
so	-2861
tús	-2862
▁Sa	-2863
▁fo	-2864
▁¦0	-2865
-229	-2866
dara	-2867
pian	-2868
samh	-2869
▁Gla	-2870
▁cal	-2871
▁par	-2872
athrú	-2873
rialú	-2874
▁Nigh	-2875
▁	-2876
a	-2877
¦	-2878
i	-2879
h	-2880
n	-2881
r	-2882
e	-2883
t	-2884
s	-2885
o	-2886
c	-2887
l	-2888
d	-2889
g	-2890
á	-2891
m	-2892
u	-2893
í	-2894
b	-2895
f	-2896
é	-2897
ú	-2898
ó	-2899
.	-2900
,	-2901
p	-2902
v	-2903
-	-2904
1	-2905
𐋇	-2906
2	-2907
0	-2908
9	-2909
’	-2910
3	-2911
4	-2912
T	-2913
5	-2914
)	-2915
(	-2916
C	-2917
D	-2918
6	-2919
8	-2920
A	-2921
7	-2922
I	-2923
M	-2924
N	-2925
B	-2926
w	-2927
:	-2928
y	-2929
S	-2930
%	-2931
F	-2932
"	-2933
/	-2934
L	-2935
k	-2936
G	-2937
z	-2938
“	-2939
;	-2940
”	-2941
'	-2942
R	-2943
–	-2944
j	-2945
x	-2946
?	-2947
O	-2948
P	-2949
Ú	-2950
Ó	-2951
q	-2952
‘	-2953
V	-2954
$	-2955
[	-2956
]	-2957
&	-2958
U	-2959
E	-2960
Á	-2961
€	-2962
+	-2963
≥	-2964
H	-2965
Í	-2966
É	-2967
#	-2968
~	-2969
×	-2970
W	-2971
@	-2972
α	-2973
β	-2974
|	-2975
£	-2976
°	-2977
ã	-2978
ç	-2979
γ	-2980
—	-2981
武	-2982
肺	-2983
K	-2984
=	-2985
_	-2986
­	-2987
à	-2988
å	-2989
′	-2990
汉	-2991
漢	-2992
炎	-2993
J	-2994
X	-2995
Y	-2996
