<pad>	0
</s>	0
<unk>	0
▁¦	-0
▁᙮	-1
▁,	-2
ᑕᔥ	-3
ᐃᔑ	-4
ᐙᒡ	-5
ᑲᔦ	-6
ᐃᐃ	-7
ᐐᓐ	-8
ᓂᒡ	-9
ᓂᓂ	-10
ᐁᑮ	-11
ᑳᑮ	-12
ᐅᑮ	-13
ᓂᑑ	-14
ᐎᓐ	-15
ᑭᔐ	-16
ᒪᓂᑑ	-17
ᑭᔐᒪᓂᑑ	-18
ᐃᑭ	-19
ᐅᒋ	-20
▁:	-21
ᑳᐐᓐ	-22
ᑭᒋ	-23
ᒋᑫ	-24
ᑎᓯ	-25
ᐗᒃ	-26
ᐃᓂ	-27
ᑯᓯ	-28
ᐊᔮ	-29
ᐃᑕᔥ	-30
ᒦᑕᔥ	-31
ᒋᓴ	-32
ᐋᓃ	-33
ᐃᐃᒫ	-34
ᐃᓈ	-35
ᐊᐎ	-36
ᑳᐃᔑ	-37
ᑭᓇ	-38
ᐎᓂ	-39
ᔦᒃ	-40
ᐊᐊ	-41
ᑌᐺ	-42
ᐅᐅ	-43
ᑕᒧ	-44
ᐊᐎᔭ	-45
ᐊᐲ	-46
ᐱᒫ	-47
ᐃᑭᑐ	-48
ᓇᐙ	-49
ᑭᑭ	-50
ᑲᑭᓇ	-51
ᓇᓐ	-52
ᓂᒃ	-53
ᑎᐯ	-54
ᒋᓴᔅ	-55
ᐃᑯ	-56
ᐌᓂ	-57
ᐁᔑ	-58
ᑕᒪ	-59
ᐙᓐ	-60
ᐙᐸ	-61
ᑰᓐ	-62
ᐃᓇ	-63
ᑭᑎ	-64
ᐯᔑ	-65
ᑳᑌ	-66
ᒥᓐ	-67
ᑕᒫ	-68
ᑭᔐᒪᓂᑑᓐ	-69
ᐗᓐ	-70
ᓇᒥ	-71
ᒥᑯ	-72
ᐋᓃᔥ	-73
ᑲᓂ	-74
ᔮᓐ	-75
ᑖᑯᓯ	-76
ᔥᑭ	-77
ᓂᓂᒃ	-78
ᐃᓀ	-79
▁?	-80
ᑲᓇ	-81
ᐱᒫᑎᓯ	-82
ᑭᑫ	-83
ᑖᐱ	-84
ᑭᒫ	-85
ᐗᐞ	-86
ᐊᓂ	-87
ᒪᒋ	-88
ᐃᐌ	-89
ᐁᑕ	-90
ᑭᑭᓄ	-91
ᐸᓐ	-92
ᐅᑎ	-93
ᐃᓂᓂ	-94
ᐅᑕ	-95
ᐊᓇᒥ	-96
ᔭᓐ	-97
ᑭᑲ	-98
ᑮᔑ	-99
ᑭᑭᓄᐊ	-100
ᑭᓐ	-101
ᔥᐱ	-102
▁!	-103
ᑾᓐ	-104
ᓈᓐ	-105
ᓂᑮ	-106
ᓬᐊ	-107
ᑲᓐ	-108
ᐊᐌ	-109
ᐁᐐ	-110
ᑫᑰᓐ	-111
ᑕᕽ	-112
ᐅᑮᐃᓈ	-113
ᐋᓃᓐ	-114
ᐎᓂᕽ	-115
ᔥᑲ	-116
ᐃᔑᒋᑫ	-117
ᓂᒥ	-118
ᑳᑎᐯ	-119
ᓂᒫ	-120
ᑮᔥᐱ	-121
ᑮᔥᐱᓐ	-122
ᐐᒋ	-123
ᓃᓐ	-124
ᑲᑴ	-125
ᓄᑮ	-126
ᑮᓇᐙ	-127
ᑲᓅ	-128
▁𐋇	-129
ᐊᑮ	-130
ᓂᓯ	-131
ᒦᔥ	-132
ᓀᓐ	-133
ᑕᔑ	-134
ᓂᔕ	-135
ᑮᐃᑭᑐ	-136
ᐎᓂᓂ	-137
ᓂᑯ	-138
ᐐᒌ	-139
ᔥᑳ	-140
ᐗᒡ	-141
ᐅᑲ	-142
ᑕᒨ	-143
ᔥᑰ	-144
ᒪᑲ	-145
ᐃᔥ	-146
ᐊᑮᕽ	-147
ᑖᐱᔥᑰ	-148
ᓴᓐ	-149
ᑯᓂ	-150
ᒥᓄ	-151
ᓂᔑ	-152
ᓂᑎ	-153
ᓲᓐ	-154
ᒣᒃ	-155
ᐯᔑᒃ	-156
ᑳᑮᐃᔑ	-157
ᒪᐙ	-158
ᓯᐌ	-159
ᐊᓇᒥᐁ	-160
ᑰᒃ	-161
ᐋᔕ	-162
ᐌᑎ	-163
ᑾᔭ	-164
ᑳᐅ	-165
ᒥᓐᒡ	-166
ᑭᑮ	-167
ᑕᒧᐙᒡ	-168
ᐸᑭᑎ	-169
ᒋᓴᓲᓐ	-170
ᓈᒡ	-171
ᓵᑭ	-172
ᑳᑎᐯᒋᑫ	-173
ᓂᑖ	-174
ᒦᓇᐙ	-175
ᓂᑕ	-176
ᐃᔖ	-177
ᑕᑯ	-178
ᓈᑾ	-179
ᐃᒫ	-180
ᐆᑌ	-181
ᑭᓯ	-182
ᑲᔥᑭ	-183
ᐅᓇ	-184
ᑯᒡ	-185
ᓈᕽ	-186
ᐋᐱ	-187
ᐅᔑ	-188
ᐊᑕ	-189
ᑕᒥ	-190
ᐎᓯ	-191
ᐃᑎ	-192
ᐃᑰ	-193
ᐱᓯ	-194
ᑯᕽ	-195
ᑳᐅᒋ	-196
ᑕᐙ	-197
ᐎᓇᓐ	-198
ᓈᐙ	-199
ᐯᒫ	-200
ᑳᔑ	-201
ᐯᒫᑎᓯ	-202
ᑭᑐ	-203
ᓂᑲ	-204
ᐊᓇᒥᐁᐎ	-205
ᕒᐊ	-206
ᐐᑕᒪ	-207
ᒋᑳᑌ	-208
ᑫᑯ	-209
ᒋᑑ	-210
ᓂᐳ	-211
ᐅᑌᐺ	-212
ᑮᐌ	-213
ᑲᓇᐞ	-214
ᐱᒥ	-215
ᔮᕽ	-216
ᐅᔕ	-217
ᐅᑯᓯ	-218
ᑭᑭᓄᐊᒪᐙ	-219
ᑖᑾ	-220
ᓰᓐ	-221
ᑕᒣᒃ	-222
ᐃᐃᐌ	-223
ᑭᑑ	-224
ᑭᐸᓐ	-225
ᐃᔥᒀ	-226
ᐁᑳ	-227
ᑎᓄ	-228
ᑕᒃ	-229
ᑯᒻ	-230
ᑲᒥ	-231
ᑮᐃᔑ	-232
ᔭᕽ	-233
ᒋᒧ	-234
ᑐᒃ	-235
ᐱᑯ	-236
ᑳᐐ	-237
ᑭᑌ	-238
ᓈᑯᓯ	-239
ᑕᐎ	-240
ᓀᒃ	-241
ᑳᓱ	-242
ᑮᓐ	-243
ᒫᒡ	-244
ᔕᒃ	-245
ᐗᕽ	-246
ᒪᔥᑲ	-247
ᑎᐹ	-248
ᐲᐃ	-249
ᓃᑳ	-250
ᐯᔑᑾᓐ	-251
ᓇᕽ	-252
ᐊᓄᑮ	-253
ᑳᐊᔮ	-254
ᐄᑐᒃ	-255
ᓅᑯᒻ	-256
ᐃᑴ	-257
ᓯᒃ	-258
ᔓᐌ	-259
ᓇᑰᒃ	-260
ᑭᑭᓄᐊᒫ	-261
ᐅᑭᒫ	-262
ᑫᑰ	-263
ᐅᑮᐃᓈᐞ	-264
ᐎᒡ	-265
ᒪᒋᑑ	-266
ᑯᑕᒃ	-267
ᐅᐌ	-268
ᐐᑫ	-269
ᒥᓍ	-270
ᒦᓂ	-271
ᐸᑳ	-272
ᔑᑾ	-273
ᐃᓈᒡ	-274
ᐋᐱᒋ	-275
ᑲᒥᑯ	-276
ᑎᑫ	-277
ᑕᒥᓂᒡ	-278
ᒫᒪ	-279
ᐅᒌ	-280
ᐋᓇ	-281
ᑳᑎᐯᒋᑫᒡ	-282
ᔥᑫ	-283
ᓇᐃ	-284
ᐙᐞ	-285
ᓈᑯ	-286
ᐅᑌᐺᑕᒨ	-287
ᒥᕽ	-288
ᕒᐆ	-289
ᐅᑮᐃᓈᓐ	-290
ᒪᓐ	-291
ᐅᑌ	-292
ᒥᓯᐌ	-293
ᑖᓐ	-294
ᓃᕽ	-295
ᕒᐃ	-296
ᐁᐃᔑ	-297
ᓅᓐ	-298
ᑎᐱ	-299
ᐅᐅᒫ	-300
ᒫᒌ	-301
ᐱᒫᒋ	-302
ᑭᒋᐊᓇᒥᐁᐎ	-303
ᐅᑖᐱ	-304
ᓈᓂ	-305
ᓐᒡ	-306
ᒥᓂ	-307
ᐋᐸ	-308
ᑳᐃ	-309
ᑕᒧᐎᓐ	-310
ᔑᓐ	-311
ᐎᓐᑦ	-312
ᒥᑯᒡ	-313
ᐋᒡ	-314
ᐐᑳ	-315
ᑭᑭᓄᐊᒫᑫ	-316
ᒣᒀ	-317
ᐅᑕᒑ	-318
ᐐᒌᐎ	-319
ᓇᐎᓐᑦ	-320
ᐌᒋ	-321
ᒋᐅᒋ	-322
ᓈᓯ	-323
ᑲᑴᒋ	-324
ᐌᑯ	-325
ᑕᓐ	-326
ᐅᑖ	-327
ᐁᑮᐃᔑ	-328
ᑎᓰ	-329
ᒀᑕ	-330
ᑲᓇᓐ	-331
ᒫᐗᒡ	-332
ᐅᑯ	-333
ᐙᕽ	-334
ᒋᐃᔑ	-335
ᒫᒑ	-336
ᐆᑌᓈᕽ	-337
ᒫᓐ	-338
ᑌᐺᔦ	-339
ᐃᑭᑐᒡ	-340
ᑲᔥᑭᑑ	-341
ᐅᓄ	-342
ᔮᐱ	-343
ᐃᓀᑖᑯᓯ	-344
ᑕᑲ	-345
ᐊᐊᐌ	-346
ᐅᓇᔓᐌ	-347
ᑳᑮᐅᒋ	-348
ᐅᑑ	-349
ᐊᐱ	-350
ᑎᐸ	-351
ᑕᒻ	-352
ᑲᓂᓂᒃ	-353
ᑫᐅᒋ	-354
ᑯᓂᑫ	-355
ᑲᒥᑯᕽ	-356
ᑫᔑ	-357
ᐸᑳᓐ	-358
ᐊᒑ	-359
ᑕᒫᓐ	-360
ᐅᐅᐌ	-361
ᐎᓰ	-362
ᐅᑭᑭᓄᐊᒪᐙ	-363
ᔭᐄ	-364
ᓭᒃ	-365
ᐃᑯᒡ	-366
ᑾᔭᒃ	-367
ᐊᐌᓀᓐ	-368
ᑮᔑᑯᕽ	-369
ᑕᒫᑫ	-370
ᐌᒃ	-371
ᐐᔭ	-372
ᑲᒀᑕ	-373
ᓇᐗᒡ	-374
ᒥᑰ	-375
ᒥᒋ	-376
ᐙᐱ	-377
ᑭᑖ	-378
ᑫᔮᐱ	-379
ᐗᐊ	-380
ᐊᐗ	-381
ᓃᐱ	-382
ᑕᓰ	-383
ᐹᑏ	-384
ᓯᒀ	-385
ᒨᔕᒃ	-386
ᑭᒋᐅᑭᒫ	-387
ᑭᐌ	-388
ᔭᐋ	-389
ᔔᓂ	-390
ᐊᐎᔭᒃ	-391
ᐗᓈ	-392
ᑮᐊᓂ	-393
ᓃᐱᐗᐞ	-394
ᑫᒃ	-395
ᑕᑯᔑ	-396
ᐲᐃᑳᑌ	-397
ᐅᑭᑭᓄᐊᒪᐙᑲᓇᐞ	-398
ᑌᐱ	-399
ᐃᓇᔥᑫ	-400
ᐯᒫᑎᓯᓂᒡ	-401
ᑳᐸ	-402
ᐙᐙᒡ	-403
ᒥᑖ	-404
ᒫᐗ	-405
ᐅᓈ	-406
ᐱᓵ	-407
ᓇᑴ	-408
ᐌᑯᓀᓐ	-409
ᔑᒣ	-410
ᐃᔑᓂᔕ	-411
ᐊᐗᔑᒣ	-412
ᐊᔮᓂᒡ	-413
ᐌᐱ	-414
ᑲᑮ	-415
ᐐᓇᐙ	-416
ᒪᐎ	-417
ᓬᐃ	-418
ᑮᐅᒋ	-419
ᒥᓴ	-420
ᐊᑖ	-421
ᐁᐸ	-422
ᐲᑕ	-423
ᒥᑲ	-424
ᓂᑎᓱ	-425
ᓂᑳᓱ	-426
ᐐᓯ	-427
ᑭᑕ	-428
ᓇᑲ	-429
ᐙᑳᐃ	-430
ᑕᒧᐎᓂ	-431
ᐅᑯᓯᓴᓐ	-432
ᒪᔮ	-433
ᐃᑰᓐ	-434
ᐲᑎᑫ	-435
ᓯᐌᒃ	-436
ᐲᓂ	-437
ᐁᒐ	-438
ᓇᐌ	-439
ᐙᒃ	-440
ᐱᔑ	-441
ᑲᓂᕽ	-442
ᒫᑲᓂ	-443
ᒫᒃ	-444
ᒪᓯ	-445
ᐋᓂᑕ	-446
ᐎᓂᒡ	-447
ᒦᒋ	-448
ᒪᑲᒃ	-449
ᐊᐎᔭᐞ	-450
ᒋᒧᐎᓐ	-451
ᑕᐌ	-452
ᒋᑯ	-453
ᔖᑰ	-454
ᑳᑕᔑ	-455
ᑲᒃ	-456
ᐊᐎᔭᓐ	-457
ᐊᔮᒡ	-458
ᐹᑏᓄ	-459
ᐱᒫᑎᓯᐎᓐ	-460
ᓯᓄ	-461
ᑭᑭᑫ	-462
ᓭᓂᒃ	-463
ᑭᒋᑮᔑᑯᕽ	-464
ᓯᓅᓐ	-465
ᐯᒫᑎᓯᐙᒡ	-466
ᐊᑐ	-467
ᐊᔓ	-468
ᓂᔑᐗᓈ	-469
ᐸᑴ	-470
ᒥᓂᒃ	-471
ᓂᑳᑌ	-472
ᐌᓂᐗᒃ	-473
ᓂᑫ	-474
ᓂᓂᑭᓐ	-475
ᑳᐱ	-476
ᒎᐎ	-477
ᓴᓬᐊ	-478
ᐅᑎᔑ	-479
ᐙᐸᒫ	-480
ᑕᒪᐎ	-481
ᑭᑎᑳ	-482
ᐌᑖᑯᓯ	-483
ᐁᐱ	-484
ᐅᑌᑌ	-485
ᐅᑮᐃᑰᓐ	-486
ᑮᐊᔮ	-487
ᑎᕽ	-488
ᑑᒡ	-489
ᐁᐊᓂ	-490
ᑫᐃᔑ	-491
ᐲᒋ	-492
ᐊᔭᐋ	-493
ᑲᒥᒃ	-494
ᑲᓇᒃ	-495
ᓂᑖᐎ	-496
ᐅᒫ	-497
ᑭᐸ	-498
ᓈᑲ	-499
ᑮᔑᒃ	-500
ᑲᓇᐌ	-501
ᒪᓯᓇᐃ	-502
ᒉᕒᐆ	-503
ᒉᕒᐆᓴᓬᐊ	-504
ᑫᒋ	-505
ᓂᒧ	-506
ᓰᒻ	-507
ᑳᐃᓈᒡ	-508
ᐅᑌᐺᑕᒨᒃ	-509
ᑆᓬ	-510
ᓈᑾᒃ	-511
ᑖᑯ	-512
ᑫᑰᓇᓐ	-513
ᒪᔥᑲᐎᓰ	-514
ᕒᐃᔭ	-515
ᑎᓯᐎᓐ	-516
ᑫᑰᓂᓂ	-517
ᒥᓉ	-518
ᐸᑴᔑ	-519
ᒎᐗᒃ	-520
ᐅᑯᓯᓯ	-521
ᔑᒫᑲᓂ	-522
ᐃᑫ	-523
ᐸᐹ	-524
ᑯᒫ	-525
ᐲᓂᔥ	-526
ᑰᔦᒃ	-527
ᒫᐗᒋ	-528
ᐅᑕᒑᑾᓐ	-529
ᑳᑎᐯᒋᑫᓂᒡ	-530
ᑭᒋᐊᓇᒥᐁᐎᑭᒫ	-531
ᒥᑕ	-532
ᒥᓈ	-533
ᐱᒫᑎᓰ	-534
ᑎᐯᒋᑫ	-535
ᐃᓴ	-536
ᐋᑎ	-537
ᒪᒃ	-538
ᓰᑲ	-539
ᓂᑕᒻ	-540
ᐃᓇᑫ	-541
ᓈᐙᓐ	-542
ᐅᓵ	-543
ᐱᒥᓂᔕ	-544
ᐃᓂᓂᐗᓐ	-545
ᑴᓐ	-546
ᐅᑮᐃᔑ	-547
ᐁᓈ	-548
ᐃᓂᐌᓂ	-549
ᓱᒡ	-550
ᐐᑕᒪᐎ	-551
ᐁᔮ	-552
ᑭᒡ	-553
ᑳᓂ	-554
ᑾᒃ	-555
ᓃᔣ	-556
ᓯᔅ	-557
ᐲᑕᕒ	-558
ᐃᐃᐌᓂ	-559
ᐲᐊ	-560
ᐸᓀᓐ	-561
ᐅᓇᔓᐌᐎᓐ	-562
ᑳᒋ	-563
ᐊᐲᒡ	-564
ᔥᑳᑯ	-565
ᐃᑭᐌᓂᐗᒃ	-566
ᐃᔅ	-567
ᐊᓯ	-568
ᑭᑭᓇ	-569
ᓈᓯᑲ	-570
ᒪᒋᐊᒑ	-571
ᑮᐱ	-572
ᐐᔭᐎ	-573
ᓰᐗᒃ	-574
ᐃᓈᑯᓂᑫ	-575
ᒉᕒᐆᓴᓬᐊᒥᕽ	-576
ᑫᓐ	-577
ᒥᔅ	-578
ᑖᑾᒃ	-579
ᓂᒥᑯ	-580
ᔫᓯ	-581
ᓃᔑᓐ	-582
ᔔᓂᔮ	-583
ᑰᐞ	-584
ᒋᑮ	-585
ᐊᓇᒥᐋ	-586
ᐌᐌᓂ	-587
ᑮᓇᐎᓐᑦ	-588
ᓃᓇᐎᓐᑦ	-589
ᐲᔖ	-590
ᑳᑮᐱ	-591
ᒋᐱ	-592
ᓀᒀ	-593
ᐎᓐᒡ	-594
ᒋᑳᑌᒃ	-595
ᓂᑌ	-596
ᐅᔥᑭ	-597
ᐙᐸᒥ	-598
ᔐᒫᒃ	-599
ᐅᑕᓄᑮ	-600
ᐎᓂᓂᒻ	-601
ᐌᓂᒥ	-602
ᑕᒨᒃ	-603
ᓈᐙᒡ	-604
ᑭᑫᓂᒫ	-605
ᐅᐐ	-606
ᐱᑾ	-607
ᑕᓯ	-608
ᒞᓐ	-609
ᓇᒪ	-610
ᓵᐃ	-611
ᐐᓯᓂ	-612
ᐯᔑᑯ	-613
ᑭᑎᔑ	-614
ᑳᒎᐎ	-615
ᑖᒻ	-616
ᒦᐃ	-617
ᒦᓴ	-618
ᒎᐗᐞ	-619
ᒦᓂᑰ	-620
ᑳᕽ	-621
ᓅᒌ	-622
▁;	-623
ᐹᓂᒫ	-624
ᐗᓂᓂᒃ	-625
ᓈᐞ	-626
ᐃᑰᐞ	-627
ᑕᒧᒃ	-628
ᑖᓈᐙ	-629
ᐊᑭ	-630
ᐙᓭ	-631
ᐸᑭ	-632
ᑑᓐ	-633
ᑎᓄᐎ	-634
ᑕᒪᐙ	-635
ᑕᒪᓐ	-636
ᓇᒃ	-637
ᓬᐄ	-638
ᒧᐙᒡ	-639
ᐎᓂᐙᓐ	-640
ᑕᐱ	-641
ᐅᑭᒋ	-642
ᑭᑭᓇᐙ	-643
ᒥᓍᒋᒧᐎᓐ	-644
ᒪᐞ	-645
ᓅᑌ	-646
ᓯᐙ	-647
ᓂᑭᓐ	-648
ᓂᔑᔑ	-649
ᓇᒑ	-650
ᑫᐐᓐ	-651
ᑎᒃ	-652
ᑭᐱ	-653
ᓇᒫ	-654
ᑎᐯᑖᑯᓯ	-655
ᓈᓂᒃ	-656
ᐁᐊ	-657
ᐁᓀ	-658
ᐌᓅ	-659
ᓯᓄᒃ	-660
ᑳᐃᔑᒋᑫ	-661
ᐯᕒᐊ	-662
ᑎᐸᐊ	-663
ᓂᓂᒻ	-664
ᐋᐸᒋᑑ	-665
ᑲᒀᑕᑭ	-666
ᒫᐗᒋᐃᑎ	-667
ᓰᒃ	-668
ᒪᑲᓐ	-669
ᓂᓯᑐ	-670
ᑕᒪᐙᒡ	-671
ᑮᐃᑭᑐᐗᒃ	-672
ᓂᕽ	-673
ᐅᑎᐹ	-674
ᐊᐲᒋ	-675
ᓇᒥᐋ	-676
ᐁᑮᐅᒋ	-677
ᑫᑮᓇᐙ	-678
ᐃᓂᓂᐗᒃ	-679
ᑌᐯ	-680
ᒋᐊ	-681
ᑫᒡ	-682
ᑳᐊ	-683
ᔕᔒ	-684
ᐁᐅᒋ	-685
ᐅᑎᓯ	-686
ᐙᐸᑕ	-687
ᓂᑯᒡ	-688
ᐊᔮᐙᒡ	-689
ᑾᔭᒀ	-690
ᒋᑲᓂ	-691
ᐁᒐᓬᐊ	-692
ᐱᒫᑎᓯᒡ	-693
ᓈᐱ	-694
ᐆᑌᓇ	-695
ᑕᐙᒡ	-696
ᐸᑮ	-697
ᑯᓭ	-698
ᓂᓐ	-699
ᔥᑮ	-700
ᐃᔖᒡ	-701
ᐊᑕᐌ	-702
ᑌᓂᒃ	-703
ᑳᓵᑭ	-704
ᕒᐊᐋ	-705
ᐁᐸᕒᐊᐋ	-706
ᐴᓀ	-707
ᓀᓯ	-708
ᓃᑳᓂ	-709
ᐁᑮᐊᓂ	-710
ᐊᐱᓅᒌ	-711
ᐗᓂ	-712
ᒋᐋ	-713
ᓃᐸ	-714
ᐸᑭᑎᓈ	-715
ᓰᑲᐊᑖ	-716
ᐁᑮᐃᓈᒡ	-717
ᐊᒦ	-718
ᓇᐎ	-719
ᑕᓱ	-720
ᑎᓯᒡ	-721
ᑖᒥᓐ	-722
ᒥᓴᐌ	-723
ᓈᑾᓂᓂᒃ	-724
ᔑᒃ	-725
ᐴᔔ	-726
ᐁᑕᓱ	-727
ᐃᔑᐌ	-728
ᐙᐸᓐ	-729
ᒋᒥᓄ	-730
ᒫᐙᒡ	-731
ᔥᑭᓀ	-732
ᐅᑎᑭᑐ	-733
ᑯᐸᓀᓐ	-734
ᐃᔅᕒᐃᔭ	-735
ᐱᒫᑎᓯᐙᒡ	-736
ᒀᒥ	-737
ᒫᐞ	-738
ᒫᔑ	-739
ᐃᑎᓱ	-740
ᓂᑌᑌ	-741
ᓂᒫᒡ	-742
ᑳᐊᔮᐙᒡ	-743
ᒋᐐ	-744
ᓃᒋ	-745
ᓵᑲ	-746
ᕒᐄ	-747
ᑭᑎᑫ	-748
ᒥᓂᑴ	-749
ᐙᓴ	-750
ᑳᑑ	-751
ᐋᓇᐐᓐ	-752
ᓯᓂᓂᒃ	-753
ᑌᒃ	-754
ᒥᒃ	-755
ᓃᒑ	-756
ᒫᓇᒑ	-757
ᓰᒥᓐ	-758
ᑌᐯᒋᑫ	-759
ᐅᑮᐃᑰᐞ	-760
ᑳᒎᐎᐎᓯ	-761
ᑭᐐ	-762
ᒋᑆ	-763
ᒫᒋ	-764
ᑕᒪᕽ	-765
ᑳᐃᓇ	-766
ᑳᐅᒌ	-767
ᒪᓯᓇᐃᑲᓐ	-768
ᔖᑯ	-769
ᓯᓂᒃ	-770
ᐁᓂ	-771
ᐋᐃ	-772
ᐎᔕ	-773
ᐯᔓ	-774
ᐲᐎ	-775
ᐹᐃ	-776
ᒪᔑ	-777
ᓀᐱ	-778
ᓴᐞ	-779
ᐁᑕᔑ	-780
ᐁᑮᐱ	-781
ᑳᑭᒋ	-782
ᒥᓍᐸ	-783
ᐎᑭᒫ	-784
ᓇᐙᐸ	-785
ᒨᔥᑭᓀ	-786
ᐃᑭᑐᐙᒡ	-787
ᐊᐸ	-788
ᒦᓈ	-789
ᒋᑎᐯ	-790
ᒦᑭᐌ	-791
ᐯᐸᑳᓐ	-792
ᐅᑎᐯᒋᑫ	-793
ᐅᑕᒑᑯᓂ	-794
ᐴᓂ	-795
ᑮᑭᒋ	-796
ᒋᑭᑫ	-797
ᑕᒧᐎᓂᕽ	-798
ᑯᑌ	-799
ᒧᓭ	-800
ᑖᑯᒡ	-801
ᒨᓯᔅ	-802
ᐃᔑᓂᔕᐙ	-803
ᐱᒫᒋᐃᑰ	-804
ᑮᐌᐱᒫᑎᓯ	-805
ᓈᒻ	-806
ᔑᕽ	-807
ᐊᐌᓀ	-808
ᓵᑭᒋ	-809
ᒋᑫᐎᓐ	-810
ᐊᓅ	-811
ᐸᓯ	-812
ᒋᓇ	-813
ᐁᐐᒌ	-814
ᐎᓂᐙ	-815
ᑾᔭᑯ	-816
ᒋᐐᒋ	-817
ᓈᓈᑲ	-818
ᑭᒋᐊᓇᒥᐁᐎᑲᒥᑯᕽ	-819
ᓯᕽ	-820
ᓰᐞ	-821
ᑎᑯᕽ	-822
ᑎᓯᐙᒡ	-823
ᑭᑭᔥᑲ	-824
ᑲᒀᑕᑭᑑ	-825
ᒪᑲᓂᓂᒃ	-826
ᑌᐯᒋᑫᔭᓐ	-827
ᑮᔑᑲᓂᓂᒃ	-828
ᐅᓀ	-829
ᓇᑫ	-830
ᓴᑲ	-831
ᒫᒪᐎ	-832
ᔔᒥᓈ	-833
ᑎᐱᓇᐌ	-834
ᓂᑖᐎᑭ	-835
ᐃᔑᒋᑫᒡ	-836
ᐃᓈᑯᓂᑫᐎᓐ	-837
ᐐᑾ	-838
ᑕᔅ	-839
ᒦᐗ	-840
ᓃᐎ	-841
ᓇᑭ	-842
ᔒᑫ	-843
ᑳᐸᐎ	-844
ᑭᓯᐙᒡ	-845
ᑲᓇᐙᐸ	-846
ᐎᑲᒥᑯᕽ	-847
ᐃᒃ	-848
ᒌᑫ	-849
ᓈᑫ	-850
ᐁᐙᐸ	-851
ᑭᔐᐙ	-852
ᓂᓂᒡ	-853
ᔖᑰᒡ	-854
ᐎᓂᓃᕽ	-855
ᑳᐃᔥᒀ	-856
2¦	-857
ᐃᑣ	-858
ᐅᓂ	-859
ᑫᑌ	-860
ᒥᒡ	-861
ᓃᑭ	-862
ᑖᑾᓐ	-863
ᐊᓄᑮᐋ	-864
ᑕᐙᐙᒡ	-865
ᐃᓂᐌᓂᐗᐞ	-866
ᑯᑖ	-867
ᑳᓬᐊ	-868
ᓈᓯᑳ	-869
ᐊᔮᔦᒃ	-870
ᐃᑭᑐᓂᒡ	-871
ᑖᑾᓂᓂᒃ	-872
ᐅᑌᐺᑕᒨᐞ	-873
ᐅᐱ	-874
ᐊᔨ	-875
ᑴᒋ	-876
ᑳᐐᒋ	-877
ᑳᓃᑳ	-878
ᑖᑯᓯᒡ	-879
ᑫᐐᓇᐙ	-880
ᓈᑯᓯᒡ	-881
ᑖᐌ	-882
ᑾᐞ	-883
ᐁᑭᒋ	-884
ᑎᐹᒋ	-885
ᒥᑖᔑ	-886
ᐅᐙᑳᐃ	-887
ᐅᑮᐅᒋ	-888
ᑳᑎᐯᓂᒥ	-889
ᑳᓬᐊᓬᐄ	-890
ᑮᔗ	-891
ᐁᓈᓴ	-892
ᑑᐙᒡ	-893
ᑲᓂᓂ	-894
ᑲᓅᓂ	-895
ᑮᐅᑌᑌ	-896
ᑮᔑᑲᒃ	-897
ᓵᑭᐃᐌ	-898
ᐹᐱ	-899
ᐹᓐ	-900
ᐄᓴᓐ	-901
ᐅᓈᐸ	-902
ᑕᐃᔑ	-903
ᑫᓃᓐ	-904
ᔔᓂᔮᓐ	-905
ᐅᑕᓄᑮᐋ	-906
ᐱᒫᒋᐃᐌ	-907
ᐐᑕᒪᐎᓂᓂᒻ	-908
0¦	-909
ᐊᓈ	-910
ᐴᓐ	-911
ᓇᒧ	-912
ᐁᒐᓬ	-913
ᑮᐃᔖ	-914
ᐊᔮᒀᒥ	-915
ᒋᑳᑌᓂᒃ	-916
ᑌᔮ	-917
ᓂᓵ	-918
ᐱᓵᓐ	-919
ᑕᒫᑯ	-920
ᒫᒥᑲ	-921
ᔖᑯᐌ	-922
ᑌᐺᐎᓐ	-923
ᒪᔥᑲᐎ	-924
ᑭᑭᓄᐊᒪᐙᑲᓇᒃ	-925
ᐲᑎ	-926
ᑳᑕ	-927
ᒦᔑ	-928
ᒫᑭ	-929
ᓂᒻ	-930
ᐋᐙᒡ	-931
ᑕᒫᕽ	-932
ᓇᓈᑯ	-933
▁¦3	-934
ᐃᔥᑯᑌ	-935
ᐁᓅ	-936
ᒋᐸ	-937
ᐁᑮᔑ	-938
ᐃᔥᐱ	-939
ᑲᓂᐎ	-940
ᓬᐊᓐ	-941
ᐹᐃᓬᐊ	-942
ᔦᑭᐸᓐ	-943
ᑳᐃᑭᑐᒡ	-944
ᐊᑯ	-945
ᐊᑲ	-946
ᑰᒻ	-947
ᐱᔑᒀ	-948
ᒦᒋᒻ	-949
ᓇᔓᐌ	-950
ᐃᑴᐗᓐ	-951
ᐅᑖᓈᕽ	-952
ᒥᒥᓐᒡ	-953
ᐅᑭᑭᓄᐊᒫᑫ	-954
ᑭᒋᒪᓯᓇᐃᑲᓐ	-955
ᑫᑳ	-956
ᐁᑌᐺ	-957
ᑎᐎᓐ	-958
ᒦᐗᓐ	-959
ᑲᓅᓈᒡ	-960
ᒫᒪᑳᒋ	-961
ᒋᐃᔑᒋᑫ	-962
ᒫᓄ	-963
ᓂᐐ	-964
ᓂᑭ	-965
ᔕᐞ	-966
ᐃᑭᑑ	-967
ᐯᓂᒧ	-968
ᑳᐃᓂ	-969
ᑕᒫᑯᒡ	-970
ᐲᐃᑳᑌᒃ	-971
ᒦᕽ	-972
ᔂᒃ	-973
ᐌᓂᒫ	-974
ᐌᔫᓯ	-975
ᑳᓂᑖ	-976
ᒞᓇᓐ	-977
ᐅᑑᑭᒫ	-978
ᒋᑫᐎᓇᓐ	-979
ᒪᒋᑑᑕᒧᐎᓐ	-980
ᐌᒌ	-981
ᐐᐸ	-982
ᒫᓀ	-983
ᓄᕽ	-984
ᔭᔮ	-985
ᐁᑭᑐ	-986
ᒦᓈᒡ	-987
ᓂᑎᔑ	-988
ᐅᔑᐲᐃ	-989
ᐎᓂᐙᕽ	-990
ᑕᑯᔑᕽ	-991
ᐃᓂᓂᐗᐞ	-992
ᐊᓇᒥᐁᑕ	-993
ᔕᐌᑖᑯᓯ	-994
ᐙᓇ	-995
ᐯᑭ	-996
ᑰᐹ	-997
ᑳᓅ	-998
ᔕᓐ	-999
ᔮᒃ	-1000
ᐃᓐᒡ	-1001
ᐅᐐᓱ	-1002
ᑎᐸᐃ	-1003
ᑳᓀᓯ	-1004
ᓉᐲᐎ	-1005
ᐁᔑᒋᑫ	-1006
ᒥᓇ	-1007
ᔥᑴ	-1008
ᐃᓈᐸ	-1009
ᐅᑮᐱ	-1010
ᐐᒌᐙ	-1011
ᐸᑯᓭ	-1012
ᐸᓯᑸ	-1013
ᑕᐙᓐ	-1014
ᑕᓰᓐ	-1015
ᒦᑴᒋ	-1016
ᒦᓂᑯ	-1017
ᓂᑭᑫ	-1018
ᐃᑯᐙᒡ	-1019
ᐐᒌᐎᑯ	-1020
ᑫᒋᓈᒡ	-1021
ᑭᑭᔥᑭ	-1022
▁¦3¦	-1023
ᐅᐱᒫᑎᓰ	-1024
ᒪᒋᐊᔭᐋ	-1025
ᑳᑭᑭᓄᐊᒫᑫ	-1026
ᐗᒀ	-1027
ᔭᔅ	-1028
ᑳᑌᐺ	-1029
ᓃᐸᐎ	-1030
ᓈᓂᕽ	-1031
ᓭᑭᓯ	-1032
ᔑᑌᔮ	-1033
ᐁᓈᓴᒦ	-1034
ᑳᐃᑯᒡ	-1035
ᒥᑖᔂᒃ	-1036
ᒫᒪᑳᑌ	-1037
ᓇᒪᑕᐱ	-1038
ᓈᓂᐗᕽ	-1039
ᐱᒥᓂᔕᐅ	-1040
ᐸᑭᑎᓈᓱ	-1041
ᑖᑯᓯᓂᒡ	-1042
ᐃᔑᐲᐃᑳᑌ	-1043
ᐐᑕᒪᐎᓇᑰᒃ	-1044
ᐌᒡ	-1045
ᐅᒋᒋ	-1046
ᑕᒫᓱ	-1047
▁¦1	-1048
ᑎᓯᓂᒡ	-1049
ᒫᒥᑲᐎ	-1050
ᐁᔑᓈᑾᒃ	-1051
ᑯᓀ	-1052
ᒦᑳ	-1053
ᐁᐲᒋ	-1054
ᑮᐃᓀ	-1055
ᒥᓀᒃ	-1056
ᒥᓴᐙ	-1057
ᒥᔅᑸ	-1058
ᓄᐙᒡ	-1059
ᔕᔒᐯ	-1060
ᑕᒫᑫᒡ	-1061
ᑫᐃᔑᒋᑫ	-1062
ᐱᒫᑎᓯᓂᒡ	-1063
ᐃᔅᕒᐃᔭᓬᐊ	-1064
ᐁᐋ	-1065
ᓂᐱ	-1066
ᐁᐊᔮ	-1067
ᑑᑕᐎ	-1068
ᑭᐸᐅ	-1069
ᑳᐊᓂ	-1070
ᑳᑮᔑ	-1071
ᒣᕒᐃ	-1072
ᓂᓐᑦ	-1073
ᓇᐃᓂ	-1074
ᑲᓅᓈᐞ	-1075
ᓂᑳᓱᒡ	-1076
ᓵᐃᒪᓐ	-1077
ᐃᔥᐱᒥᕽ	-1078
ᐐᒌᐎᑯᒡ	-1079
ᐹᑏᓄᓂᒡ	-1080
ᑳᐅᓂᔑᔑ	-1081
ᑳᐊᔮᓂᒡ	-1082
ᒪᔥᑲᐎᓰᐎᓐ	-1083
ᐸᑫ	-1084
ᓃᔑ	-1085
ᐁᑭᑫ	-1086
ᐐᑎᑫ	-1087
ᒦᐗᒃ	-1088
ᓯᓂᓂ	-1089
ᓰᓈᐙ	-1090
ᐅᑭᔐᐙ	-1091
ᐅᓄᐌᓂ	-1092
ᐅᔑᐲᐊ	-1093
ᐋᓂᓐᑦ	-1094
ᑎᐹᑯᓂ	-1095
ᑭᑎᑳᓀ	-1096
ᒥᓄᐊᔮ	-1097
ᓂᑳᑌᒃ	-1098
ᐅᑎᐹᒋᒧ	-1099
ᑳᑕᔑᔦᒃ	-1100
ᓂᔑᐗᓈᒋ	-1101
ᐁᐸᕒᐊᐋᒻ	-1102
ᓂᓱ	-1103
ᔅᑲ	-1104
ᒣᐎᔕ	-1105
ᓂᐳᒡ	-1106
ᓈᑾᓐ	-1107
ᐃᔥᒀᒡ	-1108
ᐲᒋᓂᔕ	-1109
ᓃᒑᓂᓯ	-1110
ᐃᓂᐌᓂᐗᓐ	-1111
ᐁᐅ	-1112
ᐋᐞ	-1113
ᑭᔒ	-1114
ᐁᐎᓯ	-1115
ᐅᑎᓀ	-1116
ᑭᑌᐺ	-1117
ᑲᔥᑮ	-1118
ᑳᐃᓀ	-1119
ᓈᓂᒡ	-1120
ᐅᒪᒋᑑ	-1121
ᐐᒋᑭᐌ	-1122
ᑕᓇᒥᐋ	-1123
ᓂᒥᑯᒡ	-1124
ᐁᑑ	-1125
ᒋᓂ	-1126
ᒎᑏ	-1127
ᒥᑣ	-1128
ᒥᔑ	-1129
ᒪᕽ	-1130
ᐊᐲᑌ	-1131
ᑕᓯᒀ	-1132
ᒥᓈᓐ	-1133
ᒫᐐᓐ	-1134
ᓅᑌᓭ	-1135
ᐅᐅᐌᓂ	-1136
ᐅᑮᓇᑴ	-1137
ᒦᓂᑰᐎᓯ	-1138
ᓂᑳᓱᓂᒡ	-1139
ᐋᓐ	-1140
ᐌᐸ	-1141
ᓂᔐ	-1142
ᔥᑾ	-1143
ᐎᓂᓃ	-1144
ᑕᐙᐞ	-1145
ᒥᑕᓇ	-1146
ᓃᔣᓱ	-1147
ᒪᔥᑲᐌ	-1148
ᐯᕒᐊᓰᒃ	-1149
ᔑᒫᑲᓂᔒ	-1150
ᒪᒋᐊᒑᑾᐞ	-1151
ᐃᕽ	-1152
ᐊᔕ	-1153
ᐗᔦ	-1154
ᒋᑲ	-1155
ᒎᓴ	-1156
ᒨᒋ	-1157
ᓃᓵ	-1158
ᐅᑎᓈ	-1159
ᑕᐅᒋ	-1160
ᑫᐙᒡ	-1161
ᑭᒋᑲ	-1162
ᒋᑲᓐ	-1163
ᕒᐆᓐ	-1164
ᐃᔑᓭᒃ	-1165
ᐃᔥᒀᑌ	-1166
ᐋᔑᑌᔮ	-1167
ᒥᑰᔦᒃ	-1168
ᐁᑮᐃᑭᑐᒡ	-1169
ᑳᒎᐎᐎᓯᒀ	-1170
ᐎᓭ	-1171
ᑎᑯ	-1172
ᑕᐸ	-1173
ᑕᔕ	-1174
ᒌᕽ	-1175
ᐊᐙᒡ	-1176
ᑎᐙᒡ	-1177
ᑕᓯᒃ	-1178
ᒥᓂᒡ	-1179
ᒫᒑᒡ	-1180
ᓯᐙᓐ	-1181
ᔕᐌᓂ	-1182
ᐃᓇᑰᒃ	-1183
ᐐᒌᐙᒡ	-1184
ᐸᑭᑎᓂ	-1185
ᓈᑾᓂᓂ	-1186
ᔔᒥᓈᐳ	-1187
▁¦2¦	-1188
ᐃᔑᐌᐱᓯ	-1189
ᐅᑕᑳᓀᓯ	-1190
ᑭᑭᓄᐃᑫ	-1191
ᐅᑮᐃᓈᐙᓐ	-1192
ᑫᑮ	-1193
ᑫᓂ	-1194
ᐐᔭᐤ	-1195
ᐗᔦᔑ	-1196
ᒫᐙᓐ	-1197
ᐃᑴᐗᒃ	-1198
ᐃᔥᒀᓭ	-1199
ᐋᐱᑎᕽ	-1200
ᐱᓵᓂᑯ	-1201
ᑲᓇᐌᓂ	-1202
ᐹᐃᓬᐊᑦ	-1203
ᑭᐐᑕᒪᐎᓂᓂᒻ	-1204
ᑭᓰ	-1205
ᐁᕒᐊ	-1206
ᒋᑕᔑ	-1207
ᐃᓈᐙᒡ	-1208
ᐅᑖᐱᓇ	-1209
ᐱᔑᔑᒃ	-1210
ᑕᒪᐙᐙᒡ	-1211
ᑖᑯᓯᐙᒡ	-1212
ᐅᓄᐌᓂᐗᓐ	-1213
ᑭᑭᓇᐙᑕᔕ	-1214
ᐋᔑᑌᔮᑎᑯᕽ	-1215
ᐁᓇ	-1216
ᑕᑶ	-1217
ᑭᓉ	-1218
ᑭᓱ	-1219
ᑮᒋ	-1220
ᒌᒫ	-1221
ᐗᑭᒡ	-1222
ᐴᔥᑫ	-1223
ᑮᑭᑐ	-1224
ᓵᑲᐊ	-1225
ᐃᔖᐙᒡ	-1226
ᐅᒫᒫᓐ	-1227
ᑳᐊᐲᒋ	-1228
ᓂᐳᐎᓐ	-1229
ᓂᐳᓂᒡ	-1230
ᐅᑑᓇᔓᐌ	-1231
ᐃᓀᑖᑯᓯᒡ	-1232
ᑕᒧᐎᓂᐙᓐ	-1233
ᐱᓱ	-1234
ᐸᕒ	-1235
ᑎᔅ	-1236
ᒪᑗ	-1237
ᐅᓈᑯ	-1238
ᐌᑯᓀ	-1239
ᐸᑭᑌ	-1240
ᑰᔮᓐ	-1241
ᒫᑭᔖ	-1242
▁¦7	-1243
ᐸᑭᑎᓇ	-1244
ᑳᐅᔫᓯ	-1245
ᒪᑲᓂᓂ	-1246
ᐁᑮᐃᑯᒡ	-1247
ᐅᔥᑭᓃᑭ	-1248
ᐸᑭᑎᓂᑫ	-1249
ᑭᑭᓇᐙᒋ	-1250
ᐱᒌ	-1251
ᒪᒫ	-1252
ᔮᐸ	-1253
ᐃᑯᐙ	-1254
ᑑᓂᒡ	-1255
ᑫᓂᒡ	-1256
ᒐᔭᐄ	-1257
ᔑᓈᒻ	-1258
ᐁᑮᐊᐎ	-1259
ᑆᓬᐊᓐ	-1260
ᑎᓯᔦᒃ	-1261
ᑲᓂᐎᒡ	-1262
ᐃᔑᓂᔕᐅ	-1263
ᓂᑳᑌᓂᒃ	-1264
ᓈᑯᓯᐙᒡ	-1265
ᑏᐎᑲᒥᑯᕽ	-1266
ᐲᑯ	-1267
ᐸᔅ	-1268
ᑎᓱ	-1269
ᑫᒫ	-1270
ᑳᓇ	-1271
ᒌᑾ	-1272
ᒪᒡ	-1273
ᓵᒥ	-1274
ᔥᑯ	-1275
00¦	-1276
ᐃᔑᓭ	-1277
ᑕᑫᒃ	-1278
ᑭᑫᑌ	-1279
ᑯᑖᓀ	-1280
ᑲᑴᑗ	-1281
ᑳᐅᔑ	-1282
ᑳᐙᐸ	-1283
ᒐᓬᐃ	-1284
ᒥᑕᑎ	-1285
ᒥᑰᐞ	-1286
ᓄᓂᒡ	-1287
ᔕᔒᐱ	-1288
ᔥᑳᑌ	-1289
ᔮᐹᓐ	-1290
ᐅᑮᐙᐸ	-1291
ᑭᔐᒪᓂᑑᕽ	-1292
ᓈᓂᐗᓂᓂᒃ	-1293
ᔑᒫᑲᓂᔕᒃ	-1294
ᔑᒫᑲᓂᔒᐎᑭᒫ	-1295
ᐊᒀ	-1296
ᐹᕒ	-1297
ᑮᕽ	-1298
ᑾᔮ	-1299
ᒣᑴ	-1300
ᒪᑎ	-1301
ᒪᒀ	-1302
ᒪᓈ	-1303
ᓇᐊ	-1304
ᐅᑭᑫ	-1305
ᐙᐱᓯ	-1306
ᐱᑾᒋ	-1307
ᑭᑑᒋ	-1308
ᑲᓇᑫ	-1309
ᑳᑲᓅ	-1310
ᐅᓂᔑᔑ	-1311
ᐐᑕᒫᑫ	-1312
ᑎᐯᓂᒥ	-1313
ᒋᑫᐙᒡ	-1314
ᑎᐯᓂᒥᑯ	-1315
ᐌᔫᓯᒥᓐᒡ	-1316
ᑎᐱᑲᓂᓂᒃ	-1317
ᑭᑎᑳᓀᓴᓐ	-1318
ᒪᒋᐊᒑᑾᓐ	-1319
ᐅᒑ	-1320
ᑲᓀ	-1321
ᑳᐋ	-1322
ᒋᑴ	-1323
ᐃᔥᐯ	-1324
ᑕᓄᑮ	-1325
ᑕᓰᒻ	-1326
ᑳᑌᒃ	-1327
ᒋᐊᔮ	-1328
ᓵᑲᐃ	-1329
ᔖᑰᒋ	-1330
ᐅᓃᑳᓂ	-1331
ᐊᔓᑕᒫ	-1332
ᐙᓴᑯᓀ	-1333
ᐱᒌᓇᒃ	-1334
ᒪᑲᑭᓐ	-1335
ᓵᑭᐃᑎ	-1336
▁¦7¦	-1337
ᒫᓇᒑᓂᔐ	-1338
ᓂᐳᐎᓂᕽ	-1339
ᐃᔑᒋᑫᐙᒡ	-1340
ᐅᑎᑭᑐᐎᓐ	-1341
ᐙᑳᐃᑲᓂᕽ	-1342
ᐊᓇᒥᐁᐎᑭᒫ	-1343
ᐱᓀ	-1344
ᐴᓯ	-1345
ᑑᑖ	-1346
ᓂᑳ	-1347
ᓂᔭ	-1348
ᓈᐸ	-1349
ᓈᒃ	-1350
ᔑᒡ	-1351
ᐃᓇᑭ	-1352
ᐅᓵᒻ	-1353
ᐙᓂᒡ	-1354
ᐙᓭᔮ	-1355
ᐱᒧᓭ	-1356
ᐲᑎᑲ	-1357
ᑎᐹᑯ	-1358
ᑰᔭᓐ	-1359
ᒋᐊᓂ	-1360
ᒋᐙᐸ	-1361
ᒋᑫᒡ	-1362
ᒦᐃᐌ	-1363
ᓂᑯᑣ	-1364
ᓂᒥᓯ	-1365
ᐅᑌᑌᓐ	-1366
ᑕᑯᔑᓐ	-1367
ᑭᑮᐃᔑ	-1368
ᑳᐊᔮᒡ	-1369
ᒥᑯᐙᒡ	-1370
ᐅᑌᒐᓬᐃ	-1371
ᐅᑕᓇᒥᐋ	-1372
ᑳᑮᐅᓈᐸ	-1373
ᑲᔥᑭᐁᐎᓯ	-1374
ᒋᐱᒫᒋᐃᐌ	-1375
ᐙᑳ	-1376
ᒀᓂ	-1377
ᐃᐌᒡ	-1378
ᐃᓇᕽ	-1379
ᐅᓈᐯ	-1380
ᐅᕒᐆ	-1381
ᐊᐸᓀ	-1382
ᐗᐐᑫ	-1383
ᑫᐎᓐ	-1384
ᑭᑎᒫ	-1385
ᑲᑭᑐ	-1386
ᑲᑮᐹ	-1387
ᒣᔥᑾ	-1388
ᒥᐙᓐ	-1389
ᓂᑎᓀ	-1390
ᓃᔣᒋ	-1391
ᓅᒋᑯ	-1392
ᐱᓯᑕᐎ	-1393
ᑭᓯᓂᒡ	-1394
ᑳᑮᐅᔑ	-1395
ᓂᓂᓂᒻ	-1396
ᐁᐃᑭᑐᒡ	-1397
ᑌᐺᔦᓂᒥ	-1398
ᑳᓃᑳᓂᓯ	-1399
ᒥᑯᔥᑳᑌ	-1400
ᐊᓄᑮᐋᑲᓐ	-1401
ᐸᑴᔑᑲᓇᓐ	-1402
ᑕᒧᐎᓂᐙᕽ	-1403
ᐅᑎᐯᒋᑫᐎᓐ	-1404
ᐅᑳ	-1405
ᐊᑳ	-1406
ᑯᐲ	-1407
ᒣᒬ	-1408
ᐅᓵᐎ	-1409
ᐊᑮᓂ	-1410
ᐯᐸᑳ	-1411
ᑕᐌᒃ	-1412
ᒣᒬᒡ	-1413
ᒥᓂᒀ	-1414
ᒫᓂᒡ	-1415
ᐁᕒᐊᑦ	-1416
ᐲᑎᑫᒡ	-1417
ᑎᐹᒋᒧ	-1418
ᑳᐃᑭᑐ	-1419
ᑳᑮᐅᒌ	-1420
ᓯᐙᐙᓐ	-1421
ᐸᑴᔑᑲᓐ	-1422
ᑎᓯᐎᓂᕽ	-1423
ᑭᐱᒫᑎᓯ	-1424
ᓈᑯᓯᓂᒡ	-1425
ᐱᑾᒋᐊᔭᐋ	-1426
ᐁᑮᔑᑲᓂᓂᒃ	-1427
ᑳᑎᐯᓂᒥᓇᕽ	-1428
ᐃᒡ	-1429
ᐱᒡ	-1430
ᑮᐗ	-1431
ᑮᔖ	-1432
ᑳᒃ	-1433
ᐅᐐᒋ	-1434
ᐊᒋᓇ	-1435
ᐊᓯᓐ	-1436
ᐐᐗᓐ	-1437
ᑯᓯᔅ	-1438
ᒎᑕᔅ	-1439
ᒎᓴᑉ	-1440
ᓈᓂᓐ	-1441
ᐁᐐᒌᐎ	-1442
ᐃᑯᓈᓐ	-1443
ᐊᑯᓴᑲ	-1444
ᐐᔭᐎᕽ	-1445
ᐁᒐᓬᐊᒃ	-1446
ᓈᓈᑲᑕᐌ	-1447
ᑲᔥᑭᑑᓰᓐ	-1448
ᐃᓀᑖᑯᓯᐎᓐ	-1449
ᐅᐱᒫᑎᓯᐎᓐ	-1450
ᒫᐗᒋᐃᑎᐙᒡ	-1451
ᐃᑯᒋ	-1452
ᐃᓀᒃ	-1453
ᐱᐴᓐ	-1454
ᐱᑾᑕ	-1455
ᑳᐃᓈ	-1456
ᐃᔑᐊᔮ	-1457
ᑎᐸᐃᑫ	-1458
ᑕᐙᐙᓐ	-1459
ᑕᑯᔑᓅ	-1460
ᐲᑕᕒᐆᓐ	-1461
ᑭᑭᓄᐊᒪ	-1462
ᑲᔥᑭᑑᒡ	-1463
ᐅᑎᓈᑯᓂᑫ	-1464
ᑮᐃᑭᑐᐗᐞ	-1465
ᐅᐱᒫᑎᓰᒪᐞ	-1466
ᑭᒋᐊᓇᒥᐁᐎᑭᒫᒃ	-1467
ᐃᓬ	-1468
ᐊᑾ	-1469
ᐗᑎ	-1470
ᐹᐗ	-1471
ᑲᐎ	-1472
ᐁᐱᒥ	-1473
ᐌᐱᓯ	-1474
ᐐᑕᒫ	-1475
ᑭᑎᓀ	-1476
ᑭᓉᔥ	-1477
ᑳᒥᓄ	-1478
ᒀᓂᒃ	-1479
ᒥᓇᕽ	-1480
ᓇᑲᓂ	-1481
ᔥᑮᔑ	-1482
ᐃᓇᓄᑮ	-1483
ᐃᔑᐌᐸ	-1484
ᐊᐯᓂᒧ	-1485
ᑲᑮᑖᐌ	-1486
ᒣᔥᑾᒡ	-1487
ᑳᑎᐯᑕᕽ	-1488
ᑳᒎᐎᐎᓯᓂᒃ	-1489
ᐅᓯ	-1490
ᐐᑑ	-1491
ᑕᓇ	-1492
ᒀᓀ	-1493
ᒋᔑ	-1494
ᒥᑎ	-1495
ᓇᔦ	-1496
ᐌᐙᒡ	-1497
ᐐᑾᑎ	-1498
ᑑᔦᒃ	-1499
ᑭᓇᑕ	-1500
ᑮᑕᔑ	-1501
ᒎᑏᔭ	-1502
ᓂᑭᕽ	-1503
ᓂᔕᐙ	-1504
ᓇᒥᐁ	-1505
ᔑᐲᐊ	-1506
ᐃᓀᓂᒫ	-1507
ᐗᓂᔥᑳ	-1508
ᑕᓰᓈᐙ	-1509
ᑮᐃᔥᒀ	-1510
ᑲᓂᓃᕽ	-1511
ᔕᐌᓂᒥ	-1512
ᐅᑎᔑᒋᑫ	-1513
ᐙᐸᒫᐙᒡ	-1514
ᐙᑳᐃᑲᓐ	-1515
ᐸᑴᔑᑲᓂ	-1516
ᐹᑏᓄᐙᒡ	-1517
ᑭᒋᑲᒦᕽ	-1518
ᒋᑲᓂᐎᒡ	-1519
ᐃᔑᒋᑫᔦᒃ	-1520
ᐅᑎᐹᒋᒧᐎᓂᓃ	-1521
ᐊᓇᒥᐁᐎᑲᒥᑯᕽ	-1522
ᐯᑳ	-1523
ᐲᕽ	-1524
ᑭᒨ	-1525
ᑭᓂ	-1526
ᑭᔑ	-1527
ᒦᑲ	-1528
ᓃᒃ	-1529
ᐅᑕᔮ	-1530
ᐋᒋᑯ	-1531
ᐙᐙᓐ	-1532
ᐱᓬᐊ	-1533
ᑭᐐᒋ	-1534
ᑭᓯᒡ	-1535
ᑮᒫᒌ	-1536
ᑮᓯᔅ	-1537
ᑳᑮᓅ	-1538
ᒋᑲᑴ	-1539
ᓃᒑᓂ	-1540
ᓶᐙᓇ	-1541
ᔥᑲᐎ	-1542
ᐁᔮᓂᒡ	-1543
ᐃᑰᔦᒃ	-1544
ᐃᓀᑕᕽ	-1545
ᐊᔮᓂᒃ	-1546
ᐅᑮᐅᑖᐱ	-1547
ᑕᒧᐎᓇᓐ	-1548
ᑕᒪᐙᓂᒡ	-1549
ᐁᔑᓈᑾᓂᓂᒃ	-1550
ᑭᑭᓇᐙᑕᔕᑫ	-1551
ᐗᓯ	-1552
ᑭᓄ	-1553
ᑮᓅ	-1554
ᓴᑫ	-1555
ᓴᒃ	-1556
ᐁᐅᒌ	-1557
ᐁᑮᓅ	-1558
ᐋᐸᒋ	-1559
ᑎᐹᑐ	-1560
ᑖᓂᒡ	-1561
ᑳᐱᒥ	-1562
ᒪᒥᔑ	-1563
ᓯᓲᓐ	-1564
ᓱᐎᓐ	-1565
ᐁᑮᐙᐸ	-1566
ᐃᓀᓂᒥ	-1567
ᐊᐴᔥᑫ	-1568
ᐊᔮᐗᒃ	-1569
ᐎᓂᓈᓐ	-1570
ᑕᓯᐌᒃ	-1571
ᑭᑫᓂᒥ	-1572
ᑭᑲᐅᒋ	-1573
ᑲᓅᓈᓐ	-1574
ᒦᓂᑯᒡ	-1575
ᓂᑮᐃᔑ	-1576
ᔭᒥᓐᒡ	-1577
ᐃᓀᑖᑾᒃ	-1578
ᑳᑮᐃᑭᑐ	-1579
ᐅᑯᐌᓂᐗᒃ	-1580
ᒪᓯᓇᐃᑲᓂᕽ	-1581
ᐅᑭᔐᐙᑎᓯᐎᓐ	-1582
ᒫᒪᑳᒋᒋᑫᐎᓇᓐ	-1583
ᐃᓉ	-1584
ᐊᐤ	-1585
ᐋᔩ	-1586
ᐎᓈ	-1587
ᐗᓇ	-1588
ᐙᓂ	-1589
ᑕᓂ	-1590
ᑮᐊ	-1591
ᔕᔐ	-1592
ᐅᑮᓅ	-1593
ᐊᓂᔖ	-1594
ᐐᓯᓃ	-1595
ᐱᓇᒫ	-1596
ᐹᕒᓇ	-1597
ᑌᐱᑦ	-1598
ᑑᑕᕽ	-1599
ᑰᐹᓯ	-1600
ᑲᑲᓅ	-1601
ᓃᑳᓀ	-1602
ᔖᑰᓱ	-1603
ᐁᑮᒫᒌ	-1604
ᐗᑭᐸᓐ	-1605
ᑳᑮᐃᓂ	-1606
ᒋᑫᓂᒡ	-1607
ᔥᑳᑯᒡ	-1608
ᐁᒐᓬᐊᓐ	-1609
ᐎᓂᓂᐗᒃ	-1610
ᓰᑲᐊᑖᑫ	-1611
ᑳᓬᐊᓬᐄᕽ	-1612
ᑭᑭᓄᐊᒫᑫᒡ	-1613
ᒫᐗᒋᐃᑎᓂᒡ	-1614
ᑳᑭᑭᓄᐊᒫᑫᐙᒡ	-1615
ᐄᒋ	-1616
ᑎᒫ	-1617
ᑭᐲ	-1618
ᑮᓂ	-1619
ᓃᔓ	-1620
ᐃᐙᕽ	-1621
ᐊᔮᒃ	-1622
ᐌᐱᓂ	-1623
ᐎᐙᒡ	-1624
ᐗᓂᑑ	-1625
ᑕᑯᓂ	-1626
ᑖᓇᓐ	-1627
ᑫᒋᓈ	-1628
ᑸᐎᓭ	-1629
ᒋᑭᒋ	-1630
ᒋᑮᐌ	-1631
ᐁᑎᓄᐎ	-1632
ᐃᑯᐙᓐ	-1633
ᐅᒥᔅᑸ	-1634
ᐱᓈᓯᑳ	-1635
ᑕᒧᐌᒃ	-1636
ᑳᐐᐃᔑ	-1637
ᑳᑮᐊᔓ	-1638
ᐁᑮᐃᔖᒡ	-1639
ᐹᑏᓄᐗᒃ	-1640
ᑭᑑᔑᐲᐊ	-1641
ᐱᒫᒋᐃᑰᐎ	-1642
ᑕᑯᔑᓂᓂᒡ	-1643
ᓃᒋᐅᑌᐺᑕᒨᒃ	-1644
ᐗᑭ	-1645
ᐙᐹ	-1646
ᑭᓅ	-1647
ᒪᔅ	-1648
ᒫᓂ	-1649
ᒫᓯ	-1650
ᓃᔥ	-1651
ᓇᑎ	-1652
ᓇᓈ	-1653
ᓈᓴ	-1654
ᓬᐋ	-1655
ᔖᐳ	-1656
ᑕᒧᐙ	-1657
ᑮᐃᓈ	-1658
ᒋᓂᓯ	-1659
ᓂᓯᕽ	-1660
ᓂᔑᐌ	-1661
ᓈᓇᓐ	-1662
▁¦4	-1663
ᐅᑲᔥᑭ	-1664
ᐊᑾᒌᕽ	-1665
ᐙᐸᑖᓐ	-1666
ᑭᒋᐊᐱ	-1667
ᐃᑭᑐᐎᓐ	-1668
ᐅᑭᑭᔥᑭ	-1669
ᐅᑮᐙᐸᒫ	-1670
ᑕᒧᐎᓂᐙ	-1671
ᑭᑫᑌᔭᐋ	-1672
ᑳᑮᔑᑲᒃ	-1673
ᒋᑲᔥᑭᑑ	-1674
ᒪᐎᓇᑰᒃ	-1675
ᓂᑎᓱᐙᒡ	-1676
ᐲᐃᑳᑌᓂᒃ	-1677
ᒫᓇᒑᓂᔐᔅ	-1678
ᐅᑎᑭᑐᐎᓂᓂ	-1679
ᐱᒫᑎᓯᐎᓂᕽ	-1680
ᐃᔅᕒᐃᔭᓬᐊᒃ	-1681
ᐅᑕᓄᑮᐋᑲᓇᐞ	-1682
ᑲᔥᑭᐁᐎᓯᐎᓐ	-1683
ᑫᓅ	-1684
ᒀᓐ	-1685
ᒉᑲ	-1686
ᒦᑖ	-1687
ᕒᐋ	-1688
ᐁᑲᑴ	-1689
ᐁᓵᑭ	-1690
ᐃᐌᓂ	-1691
ᐊᑖᐙ	-1692
ᐊᒪᐙ	-1693
ᐋᐱᑕ	-1694
ᐗᓂᔑ	-1695
ᐙᐱᑯ	-1696
ᐸᔕᔐ	-1697
ᑎᔦᒃ	-1698
ᑕᒨᐞ	-1699
ᑭᑌᐁ	-1700
ᑭᑌᑌ	-1701
ᑭᓀᐱ	-1702
ᑯᐙᒡ	-1703
ᑯᐸᓐ	-1704
ᑯᓯᒃ	-1705
ᑰᐎᓐ	-1706
ᑲᕒᐄ	-1707
ᑳᑭᑫ	-1708
ᒋᐃᔖ	-1709
ᒋᐸᐹ	-1710
ᓂᐗᓐ	-1711
ᓂᑮᓅ	-1712
ᓂᓯᓐ	-1713
ᔥᑭᒋ	-1714
ᐃᓀᑖᑾ	-1715
ᐎᑲᒥᑯ	-1716
ᑕᓂᓂᒃ	-1717
ᑭᑲᐃᔑ	-1718
ᑭᒪᒋᑑ	-1719
ᑳᑮᐙᐸ	-1720
ᒋᑲᓂᐎ	-1721
ᒦᓂᓀᒃ	-1722
ᒦᓂᓐᒡ	-1723
ᓇᒧᐙᒡ	-1724
ᐐᓯᓂᐙᒡ	-1725
ᑎᐹᑯᓂᑫ	-1726
ᑭᑭᑫᑖᒻ	-1727
ᓂᒥᑯᐙᒡ	-1728
ᐸᑭᑎᓂᑎᓱ	-1729
ᑫᑮᓇᐎᓐᑦ	-1730
ᐅᐙᑳᐃᑲᓂᓃᕽ	-1731
,0	-1732
ᐁᒣ	-1733
ᐊᒫ	-1734
ᑑᑕ	-1735
ᒥᐙ	-1736
ᒥᔕ	-1737
ᒻᐺ	-1738
ᓂᐴ	-1739
ᓈᐯ	-1740
ᔭᒃ	-1741
ᕒᑕ	-1742
ᐅᑎᑎ	-1743
ᐅᒋᑕ	-1744
ᐊᓈᒥ	-1745
ᐙᐱᓀ	-1746
ᐲᑎᒃ	-1747
ᐸᑭᓯ	-1748
ᑕᑭᒋ	-1749
ᑭᑭᒋ	-1750
ᒋᐊᑕ	-1751
ᒫᐗᑑ	-1752
ᐃᓬᐋᐃ	-1753
ᐅᑭᒫᑲ	-1754
ᐅᑾᔭᒀ	-1755
ᐆᑌᓇᐌ	-1756
ᐐᔭᐎᒫ	-1757
ᑕᒧᐗᒃ	-1758
ᑕᓰᒥᓐ	-1759
ᑫᑮᐃᔑ	-1760
ᑳᐅᒌᒡ	-1761
ᓂᑮᐃᒃ	-1762
ᐁᒐᓬᐊᐞ	-1763
ᐅᑯᓯᓯᒫ	-1764
ᐊᓇᒥᐋᒡ	-1765
ᐐᑕᒪᐙᒡ	-1766
ᑎᐸᐃᑲᓐ	-1767
ᑕᒧᐎᓂᓂ	-1768
ᑭᑭᔥᑳᑯ	-1769
ᓵᑭᒋᓂᔕ	-1770
ᐊᐱᓅᒌᔕᓐ	-1771
ᑳᐃᔑᒋᑫᐙᒡ	-1772
ᑳᐱᒫᑎᓯᐙᒡ	-1773
ᑭᒋᐊᓇᒥᐁᐎᑲᒥᒃ	-1774
ᐐᓀ	-1775
ᐗᑫ	-1776
ᑖᑮ	-1777
ᑫᐱ	-1778
ᑮᐐ	-1779
ᑮᐙ	-1780
ᒋᐲ	-1781
ᒧᒃ	-1782
ᒧᒡ	-1783
ᒧᔐ	-1784
ᓂᓇ	-1785
ᓃᐞ	-1786
ᓇᒀ	-1787
ᓯᑌ	-1788
ᓯᓅ	-1789
ᐊᒑᒃ	-1790
ᐗᓇᑯ	-1791
ᐴᓂᓭ	-1792
ᑭᐴᔔ	-1793
ᑯᓯᓯ	-1794
ᑲᓃᕽ	-1795
ᒪᑭᒡ	-1796
ᒫᒑᓐ	-1797
ᓂᑑᒋ	-1798
ᓂᑲᒧ	-1799
ᓂᒥᒃ	-1800
ᓯᐗᓐ	-1801
ᐃᒥᓐᒡ	-1802
ᐃᓇᑭᒫ	-1803
ᐱᒫᑎᔅ	-1804
ᑎᓄᐎᒡ	-1805
ᑳᐅᑭᒫ	-1806
ᒌᒫᓂᕽ	-1807
ᒣᑴᔭᐄ	-1808
ᒥᓂᓂᒻ	-1809
ᒨᓯᓲᓐ	-1810
ᓂᐳᐙᒡ	-1811
ᓂᑎᑭᑐ	-1812
ᓂᑮᐅᒋ	-1813
ᓯᓄᑭᓐ	-1814
,000¦	-1815
ᐃᓬᐋᐃᒐ	-1816
ᐎᓂᓂᐗᐞ	-1817
ᐐᒌᐙᐙᒡ	-1818
ᑮᐃᔑᒋᑫ	-1819
ᑲᔥᑮᑎᐱ	-1820
ᐃᑭᑑᒪᑲᓐ	-1821
ᐃᔑᒋᑫᓂᒡ	-1822
ᑎᐹᒋᒧᐎᓐ	-1823
ᑳᐃᔑᒋᑫᒡ	-1824
ᓵᑭᐃᐌᐎᓐ	-1825
ᐁᐸᕒᐊᐋᒪᓐ	-1826
ᐁᑮᐃᑭᑐᐙᒡ	-1827
ᑎᐯᑖᑯᓯᐙᒡ	-1828
ᐃᔑᓂᔕᐙᑲᓇᒃ	-1829
ᐁᒀ	-1830
ᐙᓀ	-1831
ᑑᓂ	-1832
ᑕᑾ	-1833
ᑯᓵ	-1834
ᑲᓈ	-1835
ᒋᒪ	-1836
ᒋᒫ	-1837
ᒦᒀ	-1838
ᐅᓂᔑ	-1839
ᐊᑖᐌ	-1840
ᐎᓈᒡ	-1841
ᐹᐱᓄ	-1842
ᑮᒨᒋ	-1843
ᑲᑮᑖ	-1844
ᑳᓱᒡ	-1845
ᒋᐊᐎ	-1846
ᒥᓄᓭ	-1847
ᒥᓈᐸ	-1848
ᓀᐱᒋ	-1849
ᓂᑕᔮ	-1850
ᓬᐊᔅ	-1851
ᐅᑮᐊᓂ	-1852
ᐊᔮᔮᓐ	-1853
ᐋᓃᓂᑯ	-1854
ᐐᑕᒪᐙ	-1855
ᑭᐐᔭᐎ	-1856
ᑲᔥᑭᒋ	-1857
ᒦᓇᐙᔥ	-1858
ᓂᒥᓐᒡ	-1859
ᓂᓵᐙᒡ	-1860
ᓇᑴᑕᒻ	-1861
ᓲᑭᑌᐁ	-1862
ᐅᕒᐆᒥᕽ	-1863
ᐊᓄᑮᐎᓐ	-1864
ᑎᐸᐊᒪᐙ	-1865
ᒋᑎᐯᓂᒥ	-1866
ᒋᑳᑌᑭᓐ	-1867
ᒋᓂᔑᐗᓈ	-1868
ᐃᔑᐱᒫᑎᓯ	-1869
ᑎᐱᓇᐌᐎᓯ	-1870
ᑲᑴᒋᒥᑯᒡ	-1871
ᐁᑎᐱᑲᓂᓂᒃ	-1872
ᐅᑎᓀᑕᒧᐎᓐ	-1873
ᑳᓵᑭᐃᓇᑰᒃ	-1874
ᐃᔅᕒᐃᔭᓬᐊᐞ	-1875
ᐃᔑᓂᔕᐙᑲᓇᐞ	-1876
ᐁᐲ	-1877
ᐃᓍ	-1878
ᐅᔒ	-1879
ᐌᔩ	-1880
ᐴᑖ	-1881
ᑕᐃ	-1882
ᑭᔅ	-1883
ᒋᓈ	-1884
ᒎᑕ	-1885
ᒥᑳ	-1886
ᓈᐗ	-1887
ᓭᓴ	-1888
ᐁᑲᓅ	-1889
ᐁᒥᒋ	-1890
ᐊᓅᑮ	-1891
ᐋᑯᓯ	-1892
ᐱᓯᑲ	-1893
ᐸᑭᒌ	-1894
ᑎᐗᒃ	-1895
ᑖᑯᔅ	-1896
ᑮᐲᔖ	-1897
ᑳᐌᓅ	-1898
ᑳᒪᒋ	-1899
ᒥᑎᒃ	-1900
ᒥᓍᒋ	-1901
ᒦᐃᒫ	-1902
ᒦᔑᒡ	-1903
ᓃᐎᓐ	-1904
ᕒᐄᔭ	-1905
ᐁᐊᔮᒡ	-1906
ᐁᑮᑭᒋ	-1907
ᐄᒋᐸᑮ	-1908
ᐅᑮᐊᑐ	-1909
ᐅᑮᒫᒌ	-1910
ᐊᓉᐲᐎ	-1911
ᐐᔭᐎᓂ	-1912
ᑕᓯᓂᒃ	-1913
ᑫᒀᓂᒃ	-1914
ᓂᑯᓯᔅ	-1915
ᓈᑾᑭᓐ	-1916
ᔑᓂᓂᒡ	-1917
ᐊᐌᓀᓇᓐ	-1918
ᑮᐊᔮᐗᒃ	-1919
ᑳᐊᔮᔦᒃ	-1920
ᐁᓈᓴᒦᓂᒡ	-1921
ᐅᑎᔑᓂᔕᐙ	-1922
ᐅᑑᑭᒫᒪᓐ	-1923
ᐊᐲᑌᑖᑯᓯ	-1924
ᑭᑭᔐᒪᓂᑑ	-1925
ᓵᑲᐃᑲᓃᕽ	-1926
ᐊᒪ	-1927
ᐌᒀ	-1928
ᐎᔥ	-1929
ᑐᓀ	-1930
ᑯᐙ	-1931
ᑳᓯ	-1932
ᓉᐱ	-1933
ᔂᓬ	-1934
ᐁᒣᓐ	-1935
ᐁᓂᑯ	-1936
ᐃᓂᓃ	-1937
ᐅᐱᒣ	-1938
ᐅᒻᐺ	-1939
ᐊᑲᐌ	-1940
ᐊᔨᔑ	-1941
ᐎᔕᓐ	-1942
ᐗᑮᕽ	-1943
ᑫᑕᔑ	-1944
ᑮᐅᒌ	-1945
ᑲᔦᔥ	-1946
ᑳᒋᑎ	-1947
ᑳᔒᑫ	-1948
ᑾᔭᑾ	-1949
ᒥᔭᓐ	-1950
ᒫᒋᑾ	-1951
ᓱᓂᒡ	-1952
ᓵᑭᐋ	-1953
ᔭᐸᓐ	-1954
ᕒᐊᔅ	-1955
ᐅᑭᒫᐎ	-1956
ᐅᒋᒋᓭ	-1957
ᐊᑕᐌᓂ	-1958
ᐊᒦᑕᔥ	-1959
ᐊᓅᒋᑯ	-1960
ᐌᑯᓀᔥ	-1961
ᐙᐹᐱᑯ	-1962
ᐱᓵᓂᓯ	-1963
ᑭᑌᐺᔦ	-1964
ᑳᑲᓇᐌ	-1965
ᒋᐅᑖᐱ	-1966
ᒥᑕᑎᒨ	-1967
ᒦᐗᓂᓂ	-1968
ᒦᓂᓇᕽ	-1969
ᐁᐊᓉᐲᐎ	-1970
ᐁᐙᐸᒫᒡ	-1971
ᐃᔑᓈᑾᓐ	-1972
ᐅᓂᔑᔑᓐ	-1973
ᐋᐸᒋᑑᒡ	-1974
ᑭᑎᑳᓇᓐ	-1975
ᒫᓇᒑᓂᔕ	-1976
ᓂᑭᑫᓂᒫ	-1977
ᐁᔑᓈᑯᓯᒡ	-1978
ᐃᑭᑐᐎᓇᓐ	-1979
ᐊᔮᒀᒥᓯᒃ	-1980
ᑫᓃᓇᐎᓐᑦ	-1981
ᑭᒋᐅᔑᐲᐃ	-1982
ᑳᐃᓇᑌᓂᒃ	-1983
ᒪᒋᐊᔭᐋᓐ	-1984
ᐅᑕᓄᑮᐋᑲᓇᓐ	-1985
ᐅᐲ	-1986
ᐊᐯ	-1987
ᑫᑑ	-1988
ᑭᒥ	-1989
ᑰᒋ	-1990
ᑲᑕ	-1991
ᒋᓭ	-1992
ᓭᔭ	-1993
ᔮᔑ	-1994
ᐁᐃᓇ	-1995
ᐅᑲᓇ	-1996
ᐅᓇᔓ	-1997
ᐋᓇᐌ	-1998
ᐌᓂᔑ	-1999
ᐌᔩᑉ	-2000
ᐯᔑᑴ	-2001
ᑖᑰᐞ	-2002
ᑭᑕᔮ	-2003
ᑮᐅᔑ	-2004
ᒋᐅᑎ	-2005
ᒋᑑᒡ	-2006
ᒋᑕᑯ	-2007
ᒋᓭᒃ	-2008
ᒥᐙᐞ	-2009
ᒥᐙᒡ	-2010
ᒦᓂᒃ	-2011
ᓂᑭᒋ	-2012
ᓈᓈᐙ	-2013
ᓭᑕᓐ	-2014
ᓯᐗᒃ	-2015
ᕒᐃᑎ	-2016
ᐅᑎᓯᑯ	-2017
ᐱᓬᐊᑉ	-2018
ᑳᑮᐊᑐ	-2019
ᑳᑮᑭᑐ	-2020
ᒣᑭᐸᓐ	-2021
ᓂᒫᐙᒡ	-2022
ᐁᑭᑭᔥᑲ	-2023
ᐁᓈᓴᒦᒡ	-2024
ᐃᑭᑐᔮᓐ	-2025
ᐄᒋᐸᑮᕽ	-2026
ᐙᐸᓂᓂᒃ	-2027
ᑎᐸᐃᑲᓀ	-2028
ᑭᑑᔑᐲᐊᒪ	-2029
ᑭᒋᐅᑭᒫᓐ	-2030
ᑳᐹᑏᓄᓂᒡ	-2031
ᒪᑲᓂᓂᑭᓐ	-2032
ᐁᑮᐃᑭᑐᓂᒡ	-2033
ᐁᔑᓂᑳᓱᓂᒡ	-2034
ᐅᐙᑳᐃᑲᓂᕽ	-2035
ᒨᔥᑭᓀᔥᑳᑯ	-2036
ᐋᑲ	-2037
ᐗᓃ	-2038
ᐙᑌ	-2039
ᐱᓂ	-2040
ᐸᑲ	-2041
ᑖᒡ	-2042
ᑖᓱ	-2043
ᑲᐯ	-2044
ᓯᐎ	-2045
ᔥᒀ	-2046
ᐁᐐᒋ	-2047
ᐁᐸᐹ	-2048
ᐁᑮᐐ	-2049
ᐅᒪᒋ	-2050
ᐅᓃᑭ	-2051
ᐌᐸᒃ	-2052
ᐌᓂᒡ	-2053
ᐸᒀᓀ	-2054
ᑎᐸᓐ	-2055
ᑎᒪᑎ	-2056
ᑰᐹᑌ	-2057
ᑲᑮᑴ	-2058
ᑳᑲᑴ	-2059
ᑳᒫᒪ	-2060
ᒋᑌᐱ	-2061
ᒋᒥᒋ	-2062
ᒌᑾᓇ	-2063
ᒥᑖᓱ	-2064
ᐁᐊᓄᑮ	-2065
ᐃᑎᓱᒡ	-2066
ᐃᓈᑎᓯ	-2067
ᐅᑕᔭᐄ	-2068
ᐊᓯᓃᓐ	-2069
ᐋᐃᓭᔭ	-2070
ᐯᕒᐊᓰ	-2071
ᑎᐯᓂᒫ	-2072
ᑎᐸᐊᒪ	-2073
ᑭᑫᑖᓐ	-2074
ᑮᐲᑎᑫ	-2075
ᑮᑎᓄᐎ	-2076
ᑲᒥᑭᓯ	-2077
ᑳᑾᔭᑯ	-2078
ᒥᓄᒋᑫ	-2079
ᒦᑭᐌᒡ	-2080
ᓂᑎᓱᒡ	-2081
ᓂᑯᑎᕽ	-2082
ᓂᓯᑕᐎ	-2083
ᓂᓯᓐᒡ	-2084
ᓃᒋᑭᐌ	-2085
ᕒᐃᑎᕽ	-2086
ᐃᔑᓈᑯᓯ	-2087
ᐃᔥᑯᑌᕽ	-2088
ᐅᒑᓂᒥᓯ	-2089
ᐅᓃᒑᓂᓯ	-2090
ᐐᑕᒪᐙᐞ	-2091
ᐸᑯᓭᓂᒥ	-2092
ᐹᑏᓄᐗᐞ	-2093
ᐹᕒᓇᐸᔅ	-2094
ᑭᑫᒋᑳᑌ	-2095
ᑭᑭᑫᓂᒥ	-2096
ᑳᑕᓶᐙᓇ	-2097
ᓂᑖᐎᑭᒡ	-2098
ᓂᑮᐙᐸᒫ	-2099
▁¦12¦	-2100
ᐱᒫᑎᓯᔦᒃ	-2101
ᐱᓵᓂᓯᐎᓐ	-2102
ᑖᑾᓂᓂᑭᓐ	-2103
ᑳᐅᑕᑳᓀᓯ	-2104
ᑳᑮᐊᔮᓂᒡ	-2105
ᒥᑖᔑᓃᔑᓐ	-2106
ᔑᒫᑲᓂᔕᐞ	-2107
ᐅᑎᐹᒋᒧᐎᓐ	-2108
ᐅᒪᔥᑲᐎᓰᐎᓐ	-2109
ᒋᐱᒫᒋᐃᐌᓂᒡ	-2110
ᓰᑲᐊᑖᑫᐎᓂᓂ	-2111
ᓇᐃᓂᑏᐎᑲᒥᑯᕽ	-2112
ᑭᒋᐊᓇᒥᐁᐎᑭᒫᐞ	-2113
ᐁᑎ	-2114
ᐁᑯ	-2115
ᐸᑕ	-2116
ᒥᑴ	-2117
ᒥᓋ	-2118
ᒫᑕ	-2119
ᓂᐹ	-2120
ᓯᒡ	-2121
ᓰᑭ	-2122
ᔑᐸ	-2123
ᐁᐃᓈ	-2124
ᐃᑯᓐ	-2125
ᐅᓐᒡ	-2126
ᐋᓬᐃ	-2127
ᐗᑎᑾ	-2128
ᐗᑭᒋ	-2129
ᐱᑮᐌ	-2130
ᑕᐸᓭ	-2131
ᑕᒥᓂ	-2132
ᑫᑮᓐ	-2133
ᑭᐱᑎ	-2134
ᑲᓅᓐ	-2135
ᒋᐴᓀ	-2136
ᒌᒥᔅ	-2137
ᒥᑰᓐ	-2138
ᒦᑳᓱ	-2139
ᓂᑎᐹ	-2140
ᓂᒪᒃ	-2141
ᓈᐙᐞ	-2142
ᓯᐗᕽ	-2143
ᐃᑯᐙᒃ	-2144
ᐃᔑᑮᔗ	-2145
ᐅᐐᔭᐤ	-2146
ᐅᑮᑲᑴ	-2147
ᐙᐸᒫᒡ	-2148
ᐸᐸᑭᑌ	-2149
ᑌᐱᑎᕽ	-2150
ᑕᒧᐗᕽ	-2151
ᑭᑫᑕᒨ	-2152
ᑳᐙᐱᓯ	-2153
ᑳᑑᑕᕽ	-2154
ᑳᓅᑕᕽ	-2155
ᒋᐱᒫᒋ	-2156
ᒋᑲᓇᓐ	-2157
ᒥᓇᑰᒃ	-2158
ᒦᑲᓈᕽ	-2159
ᒦᓂᑯᐙ	-2160
ᒪᑲᓅᓐ	-2161
ᒫᒑᐙᒡ	-2162
ᓃᒥᑕᓇ	-2163
ᓅᓂᓂᒻ	-2164
ᓈᑲᑕᐌ	-2165
ᔥᑲᐙᒡ	-2166
ᐃᑭᑐᔦᒃ	-2167
ᐅᑕᓇᒥᐁ	-2168
ᐆᑌᓇᐗᓐ	-2169
ᐌᑖᑯᓯᒡ	-2170
ᑫᐃᔥᒀᓭ	-2171
ᑭᑌᐃᐙᕽ	-2172
ᑭᑎᔑᒋᑫ	-2173
ᑮᐃᓀᑕᒻ	-2174
ᑮᐃᔖᐗᒃ	-2175
ᑲᑴᒋᒫᒡ	-2176
ᒪᑲᓯᓅᓐ	-2177
ᓂᑭᑫᑖᓐ	-2178
ᐅᔥᑭᓃᑭᑴ	-2179
ᐊᓇᒥᐋᐙᒡ	-2180
ᑭᑎᓂᓂᓂᒻ	-2181
ᑭᑭᑫᑖᒥᓐ	-2182
ᑳᐃᑭᑐᐙᒡ	-2183
ᐃᓀᑖᑯᓯᓂᒡ	-2184
ᐅᑮᓇᑴᑕᐙᐞ	-2185
ᒪᒋᑑᑕᒥᓂᒡ	-2186
ᑳᐐᒋᐅᑌᐺᑕᒨ	-2187
ᐁᑌ	-2188
ᐁᒪ	-2189
ᐊᕽ	-2190
ᐋᒃ	-2191
ᐗᐱ	-2192
ᑫᑫ	-2193
ᑯᑕ	-2194
ᑴᑭ	-2195
ᑴᑳ	-2196
ᒑᑭ	-2197
ᓂᐅ	-2198
ᓬᐆ	-2199
ᓴᔅ	-2200
ᔖᐾ	-2201
ᐁᑮᐊ	-2202
ᐃᑲᓐ	-2203
ᐃᓈᓐ	-2204
ᐅᑎᒀ	-2205
ᐅᑕᔓ	-2206
ᐅᑲᑮ	-2207
ᐅᒌᒡ	-2208
ᐅᔕᐌ	-2209
ᐱᐙᒡ	-2210
ᐱᓵᓀ	-2211
ᐴᓂᑑ	-2212
ᐸᐹᒥ	-2213
ᐸᑭᔑ	-2214
ᑆᓇᐎ	-2215
ᑎᓂᒡ	-2216
ᑑᓈᐙ	-2217
ᑕᒦᓈ	-2218
ᑭᑌᒃ	-2219
ᑭᑲᓂ	-2220
ᑯᓇᔦ	-2221
ᑳᑕᓱ	-2222
ᑳᓇᑲ	-2223
ᒋᑲᓅ	-2224
ᒪᐎᑣ	-2225
ᓂᑮᐱ	-2226
ᓂᑮᔗ	-2227
ᓂᒣᒃ	-2228
ᔔᒥᓂ	-2229
ᔭᒥᑣ	-2230
ᐁᑮᐃᓈ	-2231
ᐃᓂᓃᐎ	-2232
ᐅᑌᐺᔦ	-2233
ᐊᒑᑾᓐ	-2234
ᐯᐯᔑᒃ	-2235
ᐱᓈᓯᑲ	-2236
ᑖᑾᑭᓐ	-2237
ᑮᒋᑭᐌ	-2238
ᑳᑮᑕᔑ	-2239
ᑳᓃᑳᓀ	-2240
ᒥᑯᓂᒡ	-2241
ᒥᓍᒋᒧ	-2242
ᓂᑯᐙᒡ	-2243
ᓂᓂᐗᓐ	-2244
ᔥᑳᑎᓯ	-2245
ᐃᔑᐌᐸᒃ	-2246
ᐅᑯᓯᓴᐞ	-2247
ᐊᑕᐌᓂᒥ	-2248
ᐎᓂᓈᓂᕽ	-2249
ᐲᑎᑫᐙᒡ	-2250
ᐲᒋᓂᔕᐅ	-2251
ᐸᑭᑎᓈᒡ	-2252
ᑕᒪᐎᓐᒡ	-2253
ᑮᑕᓇᒥᐋ	-2254
ᔔᓂᔮᓴᐞ	-2255
ᐃᓀᑕᒧᐙᒡ	-2256
ᐅᑾᔭᒀᑎᓰ	-2257
ᐊᐱᓅᒌᔕᐞ	-2258
ᐱᑾᑕᑲᒥᒃ	-2259
ᐱᒫᑎᓯᔭᕽ	-2260
ᑮᐹᑏᓄᐗᐞ	-2261
ᑲᒥᑲᓂᓂᒃ	-2262
ᑳᐃᒋᑳᑌᒃ	-2263
ᑳᐃᓂᓇᑰᒃ	-2264
ᑳᓬᐊᓬᐄᐎ	-2265
ᑭᒋᐊᐱᐎᓂᕽ	-2266
ᔕᐌᑖᑯᓯᐗᒃ	-2267
ᐅᑎᐯᒋᑫᐎᓂᓂ	-2268
ᑳᑎᐯᓂᒥᑯᐙᒡ	-2269
ᐁᔖ	-2270
ᐸᒥ	-2271
ᑎᓐ	-2272
ᑕᐐ	-2273
ᑕᔭ	-2274
ᑾᑎ	-2275
ᒌᒥ	-2276
ᒦᑭ	-2277
ᓴᑭ	-2278
ᐁᑮᓇ	-2279
ᐅᐌᓂ	-2280
ᐊᐲᔥ	-2281
ᐎᓯᒃ	-2282
ᐱᒥᐎ	-2283
ᐸᔑᐸ	-2284
ᑕᐎᒃ	-2285
ᑕᐗᒃ	-2286
ᑖᐙᒡ	-2287
ᑖᑭᔅ	-2288
ᑭᑮᐱ	-2289
ᑭᓯᑌ	-2290
ᒌᒫᓐ	-2291
ᒥᐙᒃ	-2292
ᒥᑲᐙ	-2293
ᒪᒫᔒ	-2294
ᒫᒪᐤ	-2295
ᓂᑯᒋ	-2296
ᓂᔑᑫ	-2297
ᓃᑳᓇ	-2298
ᓃᑳᓐ	-2299
ᓃᔮᒃ	-2300
ᓈᓈᑫ	-2301
ᓬᐃᑭ	-2302
ᓭᐙᒡ	-2303
ᓰᑭᓇ	-2304
ᔥᑳᒃ	-2305
ᐁᐐᐅᒋ	-2306
ᐁᑕᑕᐌ	-2307
ᐃᑎᐗᒃ	-2308
ᐃᔑᐎᓂ	-2309
ᐅᑖᐱᓂ	-2310
ᐙᐱᔥᑭ	-2311
ᐯᓂᒧᓄ	-2312
ᐹᑏᓇᑎ	-2313
ᑕᐙᓂᒡ	-2314
ᑕᑭᐸᓐ	-2315
ᑕᑶᔑᕽ	-2316
ᑳᐊᓄᑮ	-2317
ᑳᑭᑎᒫ	-2318
ᑳᑮᐃᓈ	-2319
ᑳᒎᐎᐎ	-2320
ᑳᓱᐙᒡ	-2321
ᒋᓈᓯᑲ	-2322
ᒥᑰᐎᓐ	-2323
ᒥᑰᔭᓐ	-2324
ᒥᓍᑎᓰ	-2325
ᒫᑲᓇᓐ	-2326
ᐃᓀᑖᑾᓐ	-2327
ᐃᔑᓭᓂᒃ	-2328
ᐅᐱᒫᑎᓯ	-2329
ᑕᒫᑫᐎᓐ	-2330
ᑲᓇᐌᒋᑫ	-2331
ᒪᒋᑑᑕᕽ	-2332
ᒫᒥᑲᐎᒃ	-2333
ᓃᑕᓇᒥᐋ	-2334
ᓃᒑᓂᓴᐞ	-2335
ᓇᒪᑕᐱᒡ	-2336
ᐃᑭᑑᒪᑲᒃ	-2337
ᑮᐃᑭᑐᐗᓐ	-2338
ᐅᓇᔓᐌᐎᓂᓂ	-2339
ᐊᔓᑕᒫᑎᐎᓐ	-2340
ᑭᑭᓇᐙᑕᔕᑫᔓ	-2341
ᐅᑕᓇᒥᐁᐎᑲᒥᑯ	-2342
ᐱᑾᒋᐊᔭᐋᐎᔕᓐ	-2343
ᔑᒫᑲᓂᔒᐎᑭᒫᓐ	-2344
ᐅᒪᒋᑑᑕᒧᐎᓂᐙᓐ	-2345
ᑳᐐᒋᐅᑌᐺᑕᒨᒥᑰᔦᒃ	-2346
ᐅᓐ	-2347
ᐊᑑ	-2348
ᐌᓰ	-2349
ᐗᑣ	-2350
ᐸᔦ	-2351
ᑰᑰ	-2352
ᒣᓬ	-2353
ᓯᐸ	-2354
ᔭᐞ	-2355
ᐁᑕᒥ	-2356
ᐊᑮᐎ	-2357
ᐗᓄᑮ	-2358
ᑖᐗᒃ	-2359
ᑮᐃᓇ	-2360
ᑮᑮᐌ	-2361
ᑮᓂᐳ	-2362
ᑯᓈᓐ	-2363
ᑰᔭᕽ	-2364
ᑳᐊᑳ	-2365
ᑳᑭᑌ	-2366
ᑳᒥᒋ	-2367
ᑳᓂᒃ	-2368
ᒋᑌᐺ	-2369
ᒋᒫᒌ	-2370
ᒋᓇᐃ	-2371
ᒌᑾᓃ	-2372
ᒫᐙᐞ	-2373
ᒫᒑᒃ	-2374
ᓂᐴᔔ	-2375
ᓂᐸᓐ	-2376
ᓂᑌᐺ	-2377
ᓇᒪᐙ	-2378
ᐁᐐᐃᔑ	-2379
ᐁᑮᐐᒋ	-2380
ᐁᓂᑯᒃ	-2381
ᐃᐌᐙᒡ	-2382
ᐅᔥᑮᔑ	-2383
ᐊᔮᔭᓐ	-2384
ᐋᓇᐌᓂ	-2385
ᐲᑎᑲᓂ	-2386
ᑮᐸᓯᑸ	-2387
ᑳᑮᐅᓀ	-2388
ᒥᑯᓈᓐ	-2389
ᒫᑲᓇᐞ	-2390
ᓂᑑᑭᒫ	-2391
ᓃᔑᓂᒡ	-2392
ᓇᑲᓈᒡ	-2393
ᓇᒥᓂᒡ	-2394
ᓈᑯᑑᒡ	-2395
ᔭᑭᐸᓐ	-2396
ᐁᑲᓇᐙᐸ	-2397
ᐁᔑᓈᑯᓯ	-2398
ᐃᓀᑕᒣᒃ	-2399
ᐃᓂᓃᓈᕽ	-2400
ᐅᓵᐙᐱᑯ	-2401
ᐴᓀᑕᒪᐙ	-2402
ᐸᑭᑎᓇᒪ	-2403
ᑕᒫᑯᓈᓐ	-2404
ᑕᒫᑰᔦᒃ	-2405
ᑭᑭᑫᓂᒫ	-2406
ᑲᓅᓂᑰᓐ	-2407
ᑳᑭᑭᔥᑲ	-2408
ᒥᓍᐸᑕᕽ	-2409
ᓂᑯᐸᓀᓐ	-2410
ᓃᑳᓇᔭᐄ	-2411
ᔕᐌᓂᒫᒡ	-2412
ᔥᑳᑯᐙᒡ	-2413
ᐃᐃᐌᓂᐗᐞ	-2414
ᐅᐐᓱᐎᓂᓂ	-2415
ᐅᑮᐃᔑᓂᔕ	-2416
ᐅᓃᒑᓂᓴᐞ	-2417
ᐆᑌᓇᐌᓯᕽ	-2418
ᐊᐱᓅᒌᔕᒃ	-2419
ᐌᑖᑯᓯᓂᒡ	-2420
ᑭᒋᐅᑭᒫᒃ	-2421
ᑲᔥᑭᑕᒫᓱ	-2422
ᑳᐃᑭᑐᓂᒡ	-2423
ᑳᑮᐃᑭᑐᒡ	-2424
ᒋᑭᑫᑕᒣᒃ	-2425
ᓇᒪᑕᐱᓂᒡ	-2426
ᓈᑾᓂᓂᑭᓐ	-2427
ᐅᓇᔓᐌᐎᓂᕽ	-2428
ᐱᒥᓂᔕᐅᑯᒡ	-2429
ᐱᒫᒋᐃᑰᐎᓯ	-2430
ᑌᐺᔦᑕᒧᐎᓐ	-2431
ᑳᐃᔑᓂᑳᑌᒃ	-2432
ᑳᓃᑳᓂᓯᐙᒡ	-2433
ᐅᑎᓈᑯᓂᑫᐎᓐ	-2434
ᑭᑫᑌᔭᐋᒥᓈᐸ	-2435
ᑳᐐᑕᒪᐎᓇᑰᒃ	-2436
ᑭᒋᐊᓇᒥᐁᐎᑭᒫᓐ	-2437
ᐁᑲ	-2438
ᐁᒃ	-2439
ᐁᕒ	-2440
ᐊᒃ	-2441
ᐯᑕ	-2442
ᐱᐴ	-2443
ᐲᓐ	-2444
ᐸᐲ	-2445
ᐸᑾ	-2446
ᐸᓭ	-2447
ᑕᑐ	-2448
ᒋᓅ	-2449
ᒌᑲ	-2450
ᒥᐌ	-2451
ᒨᔕ	-2452
ᓄᐤ	-2453
ᓄᓄ	-2454
ᓭᑕ	-2455
ᓰᐙ	-2456
ᐁᒥᓄ	-2457
ᐁᔑᔭ	-2458
ᐆᑌᓈ	-2459
ᐊᒑᑯ	-2460
ᐊᒦᔥ	-2461
ᐊᓉᐱ	-2462
ᐋᐌᒋ	-2463
ᐌᑭᒫ	-2464
ᐗᐙᓀ	-2465
ᐱᓀᔒ	-2466
ᐱᓈᒡ	-2467
ᐱᓯᔅ	-2468
ᐸᐹᒣ	-2469
ᐸᒋᑑ	-2470
ᐸᔦᔥ	-2471
ᑕᐌᒀ	-2472
ᑕᐌᓂ	-2473
ᑕᑫᓐ	-2474
ᑭᒨᑎ	-2475
ᑭᒪᒋ	-2476
ᑭᔒᐌ	-2477
ᑮᒦᓈ	-2478
ᑳᒦᒋ	-2479
ᑳᓇᒃ	-2480
ᑾᔭᑴ	-2481
ᒉᑲᑉ	-2482
ᒥᑰᒻ	-2483
ᒪᒦᒀ	-2484
ᒪᒫᔑ	-2485
ᓀᐱᒡ	-2486
ᓇᒣᒃ	-2487
ᓇᒧᒃ	-2488
ᓬᐋᓴ	-2489
ᔅᑲᑌ	-2490
ᔑᑾᔥ	-2491
ᔥᑲᕽ	-2492
ᔭᓴᓐ	-2493
ᔮᓂᒃ	-2494
ᐁᑎᔮᒃ	-2495
ᐙᐱᔥᑮ	-2496
ᐯᔑᑯᒡ	-2497
ᑎᐸᐊᒫ	-2498
ᑖᓈᐙᓐ	-2499
ᑫᐴᓂᓭ	-2500
ᑭᑎᑳᓈ	-2501
ᑲᑭᑐᒡ	-2502
ᑳᑌᐺᔦ	-2503
ᑳᑌᓂᒃ	-2504
ᑳᑮᐃᓇ	-2505
ᑳᑮᐐᒋ	-2506
ᑳᓃᑳᓂ	-2507
ᒋᑎᓄᐎ	-2508
ᒌᒥᓴᓐ	-2509
ᒥᑯᔥᑳ	-2510
ᒫᒑᓂᒡ	-2511
ᓂᑯᑣᒃ	-2512
ᓇᐎᔥᑭ	-2513
ᓯᓅᓇᓐ	-2514
ᔥᑳᓂᒃ	-2515
ᐁᑮᔑᑲᒃ	-2516
ᐃᓀᓂᑎᓱ	-2517
ᐅᑖᐎᓂᕽ	-2518
ᐅᑭᒋᓂᑭ	-2519
ᐅᓃᑳᓂᓰ	-2520
ᐊᐱᓅᒌᔥ	-2521
ᐊᓇᒥᐁᐙ	-2522
ᐙᑯᐸᓀᓐ	-2523
ᐸᑭᑎᓇᕽ	-2524
ᑌᐺᒪᑲᓐ	-2525
ᑖᑯᓯᐎᓐ	-2526
ᑮᒫᒪᑳᑌ	-2527
ᑲᑲᓅᓂᑎ	-2528
ᓃᐸᐎᓂᒡ	-2529
ᓈᓯᑳᑯᒡ	-2530
ᐁᑮᐃᓈᐙᒡ	-2531
ᐃᔅᕒᐃᔭᓬ	-2532
ᐅᑭᔐᒪᓂᑑ	-2533
ᐅᑯᓯᓯᒫᓐ	-2534
ᐅᔑᐲᐃᑲᓐ	-2535
ᐊᓇᒥᐋᔦᒃ	-2536
ᐱᒫᑎᓯᐗᒃ	-2537
ᐹᐃᓬᐊᑑᓐ	-2538
ᒋᑳᑌᓂᑭᓐ	-2539
ᓈᓴᕒᐃᑎᕽ	-2540
ᔥᑳᑎᓯᐎᓐ	-2541
ᑳᐃᔑᓂᑳᓱᒡ	-2542
ᑳᐅᔫᓯᒥᓐᒡ	-2543
ᑳᑮᐃᔑᒋᑫᒡ	-2544
ᐅᑑᓇᔓᐌᐎᓂᓂ	-2545
ᑭᑭᓄᐊᒪᐙᑲᓐ	-2546
ᐋᓉ	-2547
ᐗᑳ	-2548
ᐱᒃ	-2549
ᑕᓄ	-2550
ᑖᓂ	-2551
ᒋᐃ	-2552
ᓄᐎ	-2553
ᓭᒡ	-2554
ᔛᓐ	-2555
ᔭᑌ	-2556
ᐁᐊᐞ	-2557
ᐁᑕᑯ	-2558
ᐃᑫᐎ	-2559
ᐅᓂᒌ	-2560
ᐊᐊᔥ	-2561
ᐋᐗᒃ	-2562
ᐋᔩᒋ	-2563
ᐎᔭᓐ	-2564
ᐗᓀᓐ	-2565
ᐙᐸᕽ	-2566
ᐱᓅᒌ	-2567
ᑭᐱᒌ	-2568
ᑭᑭᓐ	-2569
ᑮᐌᒡ	-2570
ᑮᑌᐺ	-2571
ᑲᐸᕒ	-2572
ᑾᔮᒋ	-2573
ᒋᐃᓈ	-2574
ᒥᑯᐙ	-2575
ᒦᐗᐞ	-2576
ᒪᔥᑯ	-2577
ᓄᑕᐎ	-2578
ᓇᔥᑫ	-2579
ᓱᐙᒡ	-2580
ᓵᑭᐃ	-2581
▁¦2	-2582
ᐁᑮᐊᑕ	-2583
ᐁᑮᑕᔑ	-2584
ᐃᑯᑎᕽ	-2585
ᐃᑯᔦᒃ	-2586
ᐃᑰᐎᓯ	-2587
ᐃᓂᓂᒻ	-2588
ᐅᐐᑎᑫ	-2589
ᐅᓇᔓᐙ	-2590
ᐋᓬᐃᑉ	-2591
ᑕᓯᐙᓐ	-2592
ᑕᓰᐗᒃ	-2593
ᑫᒋᓈᐅ	-2594
ᑭᑌᓂᒥ	-2595
ᑮᐃᔑᓭ	-2596
ᑳᒥᑖᔑ	-2597
ᒋᐊᓄᑮ	-2598
ᒋᑑᐙᒡ	-2599
ᒥᑕᑎᒻ	-2600
ᒫᒋᓂᔕ	-2601
ᓂᒫᐙᓐ	-2602
ᓂᓯᐙᒡ	-2603
ᓃᔑᐙᒡ	-2604
ᓯᒥᑕᓇ	-2605
ᐁᐃᔑᒋᑫ	-2606
ᐁᑮᓇᓈᑯ	-2607
ᐃᔑᒋᑫᒃ	-2608
ᐅᓈᐯᒪᓐ	-2609
ᐊᔮᐎᓂᕽ	-2610
ᑕᒪᐎᓇᕽ	-2611
ᑭᑫᓂᒫᐞ	-2612
ᑲᐸᕒᓂᔭ	-2613
ᑳᐊᔮᑭᓐ	-2614
ᑳᐸᐎᔦᒃ	-2615
ᑾᔭᒀᑎᓯ	-2616
ᒋᑫᐎᓂᕽ	-2617
ᒥᑕᑲᒥᒃ	-2618
ᒦᑴᒋᐌᓂ	-2619
ᓂᑖᐎᑭᑑ	-2620
ᓇᑴᑕᐙᒡ	-2621
ᓭᓴᕒᐄᔭ	-2622
ᔖᑯᐌᐗᒃ	-2623
ᐁᐃᑭᑐᐙᒡ	-2624
ᐁᐃᔑᓭᓂᒃ	-2625
ᐁᑕᓱᑮᔑᒃ	-2626
ᐁᓅᑕᒧᐙᒡ	-2627
ᐁᔑᓂᑳᓱᒡ	-2628
ᐅᑎᔑᓂᑳᓱ	-2629
ᐅᑮᐙᐸᒫᓐ	-2630
ᐊᔓᑕᒫᑫᒡ	-2631
ᐐᒋᑭᐌᔭᓐ	-2632
ᐙᐸᑕᒧᐙᒡ	-2633
ᐸᑭᑎᓇᒪᐙ	-2634
ᑭᒋᐅᑭᒫᐎ	-2635
ᑭᓇᑕᐌᓂᒥ	-2636
ᑲᑴᒋᒫᐙᒡ	-2637
ᑳᑎᐯᓂᒫᒡ	-2638
ᐁᔑᐲᐃᑳᑌᒃ	-2639
ᑳᑮᐅᓈᐸᒫᒡ	-2640
ᑳᓃᑳᓂᓯᓂᒡ	-2641
ᑾᔭᒀᑎᓯᐎᓐ	-2642
ᑭᑭᓄᐊᒫᑫᐎᓐ	-2643
ᑳᐃᔑᐲᐃᑳᑌᒃ	-2644
ᑭᐸᐅᑏᐎᑲᒥᑯᕽ	-2645
ᑳᑭᑭᓄᐊᒫᑫᓂᒡ	-2646
ᐅᑎᐹᒋᒧᐎᓂᓃᒪᐞ	-2647
ᐅᑎᐹᒋᒧᐎᓂᓃᒪᓐ	-2648
ᐅᑣ	-2649
ᐗᒋ	-2650
ᑖᐙ	-2651
ᑭᑦ	-2652
ᑮᐹ	-2653
ᑲᐙ	-2654
ᑳᓀ	-2655
ᒥᑮ	-2656
ᒧᐙ	-2657
ᒪᒑ	-2658
ᒶᓯ	-2659
ᓂᔣ	-2660
ᓇᐞ	-2661
ᓴᓰ	-2662
ᓵᒡ	-2663
ᔪᒃ	-2664
▁–	-2665
ᐁᑎᓄ	-2666
ᐁᑭᑑ	-2667
ᐁᒪᒋ	-2668
ᐅᑮᒦ	-2669
ᐅᓇᑭ	-2670
ᐊᑲᒋ	-2671
ᐊᔮᓰ	-2672
ᐋᐸᑕ	-2673
ᐎᔮᓐ	-2674
ᐙᐱᒃ	-2675
ᐱᑾᑎ	-2676
ᑌᑭᓐ	-2677
ᑑᑕᐙ	-2678
ᑑᔮᓐ	-2679
ᑕᑶᔑ	-2680
ᑖᑯᓰ	-2681
ᑫᒦᒋ	-2682
ᑭᑕᒑ	-2683
ᑳᐊᔨ	-2684
ᑳᐐᐱ	-2685
ᑳᐸᐹ	-2686
ᒋᓇᑲ	-2687
ᒣᕒᐄ	-2688
ᒥᓈᑾ	-2689
ᒪᑲᑌ	-2690
ᒪᓇᓐ	-2691
ᓭᑭᓐ	-2692
ᓯᐙᕽ	-2693
ᕒᐊᓐ	-2694
ᐁᐃᓈᒡ	-2695
ᐁᑌᐺᔦ	-2696
ᐁᔮᐙᒡ	-2697
ᐃᓀᑕᒻ	-2698
ᐃᓂᓃᕽ	-2699
ᐃᔖᔮᓐ	-2700
ᐅᑮᒨᒋ	-2701
ᐅᒪᓂᑑ	-2702
ᐊᒧᐙᒡ	-2703
ᐋᓃᔛᓐ	-2704
ᐌᒌᓂᒡ	-2705
ᐌᓄᓂᒡ	-2706
ᐐᒋᐃᐌ	-2707
ᐸᓯᑸᓐ	-2708
ᑎᐱᑲᒃ	-2709
ᑕᒫᓱᒡ	-2710
ᑭᑭᑭᓄ	-2711
ᑮᓃᐸᐎ	-2712
ᑰᑭᐸᓐ	-2713
ᑲᒀᑕᑫ	-2714
ᑳᐊᔮᒃ	-2715
ᑳᐋᑯᓯ	-2716
ᑳᑎᓄᐎ	-2717
ᑳᓃᔣᒋ	-2718
ᒋᐃᔖᒡ	-2719
ᒣᕒᐄᓐ	-2720
ᒥᓂᓯᕽ	-2721
ᒦᐗᑭᑭ	-2722
ᒪᒫᒋᑾ	-2723
ᒫᒪᑳᓯ	-2724
ᓇᒑᓂᔑ	-2725
ᓯᐙᓈᓐ	-2726
ᔑᓂᓂᒃ	-2727
ᐃᑎᓱᐙᒡ	-2728
ᐐᒌᐎᑯᒻ	-2729
ᐙᐸᑕᒣᒃ	-2730
ᐱᓯᑕᒧᒃ	-2731
ᑕᒪᐎᓀᒃ	-2732
ᑖᑾᓯᓅᓐ	-2733
ᑭᒋᑮᔑᒃ	-2734
ᑲᓂᐎᓂᒡ	-2735
ᒋᐐᑕᒫᑫ	-2736
ᒥᓂᒀᑲᓐ	-2737
ᐅᒑᓂᒥᓯᒻ	-2738
ᐸᔑᐸᐃᑫᐎ	-2739
ᑕᒪᐎᓇᑰᒃ	-2740
ᑮᐃᔑᓂᑳᓱ	-2741
ᑲᑴᒋᒫᐙᓐ	-2742
ᑳᐱᒫᑎᓯᒡ	-2743
ᑾᔭᒀᑎᓯᒡ	-2744
ᒋᐃᔑᓭᓂᒃ	-2745
ᒦᑴᒋᐌᓂᒫ	-2746
ᐃᓀᑖᑯᓯᐙᒡ	-2747
ᐃᔅᕒᐃᔭᓬᐃ	-2748
ᐅᑭᒋᓂᑭᓃᕽ	-2749
ᐅᑮᓇᑴᑕᐙᓐ	-2750
ᐊᑕᐌᑕᒥᓂᒡ	-2751
ᐌᔫᓯᒥᒥᓐᒡ	-2752
ᑫᐃᔑᒋᑫᔮᓐ	-2753
ᒉᕒᐆᓴᓬᐊᒻ	-2754
ᓂᑎᑭᑐᐎᓇᓐ	-2755
ᓵᑭᐃᐌᐎᓂᕽ	-2756
ᐊᓇᒥᐁᐎᑭᒫᒃ	-2757
ᐱᑾᒋᐊᔭᐋᐎᔥ	-2758
ᐅᑎᔑᒋᑫᐎᓂᐙᓐ	-2759
4¦	-2760
ᐁᐙ	-2761
ᐎᑖ	-2762
ᐗᑸ	-2763
ᐗᓀ	-2764
ᐹᑲ	-2765
ᐹᑾ	-2766
ᑌᑌ	-2767
ᑌᓈ	-2768
ᑑᒃ	-2769
ᑮᑌ	-2770
ᑳᐹ	-2771
ᒨᒃ	-2772
ᓀᓈ	-2773
ᓂᒌ	-2774
ᓄᑳ	-2775
ᓵᒐ	-2776
ᔅᑕ	-2777
ᔖᐗ	-2778
ᐁᓂᑖ	-2779
ᐃᑕᐙ	-2780
ᐅᑫᑌ	-2781
ᐅᔑᓯ	-2782
ᐊᑐᓀ	-2783
ᐊᑕᓐ	-2784
ᐋᓂᑫ	-2785
ᐋᓂᒡ	-2786
ᐐᓴᑫ	-2787
ᐗᑭᓐ	-2788
ᐯᔑᑾ	-2789
ᐲᐎᑌ	-2790
ᐸᓂᐅ	-2791
ᑭᓅᔐ	-2792
ᑮᔖᒋ	-2793
ᑯᒫᓐ	-2794
ᑲᑳᓱ	-2795
ᑲᒀᓂ	-2796
ᒋᐴᓂ	-2797
ᒋᑮᔑ	-2798
ᒋᒦᒋ	-2799
ᒥᑖᒋ	-2800
ᒦᐊᐌ	-2801
ᒦᓂᑣ	-2802
ᒫᕒᑕ	-2803
ᓂᐐᒋ	-2804
ᓂᐲᕽ	-2805
ᓂᒥᓐ	-2806
ᓄᑮᐋ	-2807
ᓇᑭᒡ	-2808
ᓯᐎᓐ	-2809
ᓯᐙᐙ	-2810
ᓰᐲᕽ	-2811
ᕒᐋᔭ	-2812
ᐁᐱᒧᓭ	-2813
ᐁᑮᑲᑴ	-2814
ᐃᐃᐌᔥ	-2815
ᐃᑯᑕᓄ	-2816
ᐃᑯᔮᓐ	-2817
ᐃᑴᐗᐞ	-2818
ᐅᑮᒥᑲ	-2819
ᐊᐊᐌᔥ	-2820
ᐊᑳᒥᕽ	-2821
ᐎᓈᐙᒡ	-2822
ᑕᐃᔑᓭ	-2823
ᑖᑾᓂᓂ	-2824
ᑭᑮᐅᒋ	-2825
ᑳᐅᑖᐱ	-2826
ᑳᑌᑭᓐ	-2827
ᑳᒫᐗᑑ	-2828
ᑳᒫᒪᐎ	-2829
ᒋᑲᔥᑭ	-2830
ᒋᑳᑌᓂ	-2831
ᒋᓭᓂᒃ	-2832
ᒦᐗᓄᓄ	-2833
ᒦᓂᑰᓐ	-2834
ᓂᑌᑌᓐ	-2835
ᓂᑮᐃᓈ	-2836
ᓂᑯᑣᓱ	-2837
ᓂᑯᓂᒡ	-2838
ᓯᐎᓐᒡ	-2839
ᓯᑭᐸᓐ	-2840
ᓰᑲᐊᑕ	-2841
ᔖᑰᒋᑣ	-2842
ᐁᕒᐊᑕᓐ	-2843
ᐃᔥᒀᑌᒻ	-2844
ᐅᐐᓱᐎᓐ	-2845
ᐅᑮᓈᓯᑲ	-2846
ᐋᓇᐌᓂᒥ	-2847
ᐐᓯᓂᓂᒡ	-2848
ᐗᑎᑾᓇᓐ	-2849
ᑕᑯᔑᓅᒃ	-2850
ᑲᑴᒋᒥᒃ	-2851
ᑲᓇᐌᓂᒥ	-2852
ᑳᑮᐅᒌᒡ	-2853
ᒋᑑᑕᒫᓐ	-2854
ᒋᑳᑌᐗᓐ	-2855
ᒋᒫᒥᑲᐎ	-2856
ᓈᑾᓯᓅᓐ	-2857
ᐁᔑᒋᑫᐙᒡ	-2858
ᐃᔑᓂᔕᐅᒡ	-2859
ᐃᔑᓈᑾᓂᓂ	-2860
ᐅᑕᓇᒥᐋᐞ	-2861
ᐅᑮᐃᑯᐙᓐ	-2862
ᐅᑮᐊᑐᒫᐞ	-2863
ᐱᒫᑎᓯᔮᓐ	-2864
ᑭᑫᑕᒧᐙᒡ	-2865
ᑭᑭᑫᑕᓰᒻ	-2866
ᑲᑮᓇᐎᔥᑭ	-2867
ᑲᒀᑕᑭᐃᑰ	-2868
ᑲᓇᐌᒋᑫᐎ	-2869
ᑳᐹᑏᓄᐙᒡ	-2870
ᑳᑮᐃᔑᒋᑫ	-2871
ᑳᑮᐅᔑᑑᒡ	-2872
ᒋᑲᓂᐎᓂᒡ	-2873
ᒋᓂᓯᒥᓐᒡ	-2874
ᒪᒋᐊᒑᑾᒃ	-2875
ᐅᑑᓇᔓᐌᐎᓐ	-2876
ᐅᑮᐅᑖᐱᓈᓐ	-2877
ᐊᓇᒥᐁᑕᒪᐎ	-2878
ᑭᑭᔥᑭᑲᓇᓐ	-2879
ᑳᑲᓅᑕᒪᐙᒡ	-2880
ᐅᑎᐯᒋᑫᐎᓂᕽ	-2881
ᑳᐅᓂᔑᔑᓂᓂᒃ	-2882
ᑭᑑᔑᐲᐊᒪᐎᓂᓂᒻ	-2883
ᐄᐸ	-2884
ᐅᐸ	-2885
ᐋᐲ	-2886
ᐎᒥ	-2887
ᐐᐱ	-2888
ᐲᑖ	-2889
ᐹᒡ	-2890
ᑭᓭ	-2891
ᑯᑯ	-2892
ᑯᓐ	-2893
ᑲᐃ	-2894
ᑲᓬ	-2895
ᑳᔭ	-2896
ᑴᑮ	-2897
ᑴᒡ	-2898
ᒪᔭ	-2899
ᓅᔅ	-2900
ᓭᑲ	-2901
ᓵᐞ	-2902
ᔑᐌ	-2903
ᔑᒻ	-2904
ᐁᑎᐯ	-2905
ᐃᑴᓭ	-2906
ᐃᓇᓯ	-2907
ᐃᓇᔥ	-2908
ᐃᔥᐸ	-2909
ᐅᑮᐐ	-2910
ᐊᔭᐄ	-2911
ᐌᐱᓈ	-2912
ᐎᐎᓐ	-2913
ᐗᓂᒧ	-2914
ᐗᓃᑫ	-2915
ᐲᐃᑫ	-2916
ᐲᔖᓐ	-2917
ᐸᑲᒥ	-2918
ᑑᓂᔮ	-2919
ᑑᓇᓐ	-2920
ᑑᓰᓐ	-2921
ᑕᓯᕽ	-2922
ᑫᐃᓈ	-2923
ᑫᑫᑦ	-2924
ᑮᔑᑾ	-2925
ᑯᐙᓐ	-2926
ᑯᑖᒋ	-2927
ᒋᓂᐳ	-2928
ᒥᔅᑶ	-2929
ᒥᔦᒃ	-2930
ᒦᑲᓇ	-2931
ᒪᒋᑫ	-2932
ᓂᑳᓂ	-2933
ᓂᒫᓐ	-2934
ᓈᐱᒃ	-2935
ᓯᐎᑣ	-2936
ᓰᓇᓐ	-2937
ᔥᑮᑮ	-2938
ᐁᑮᑌᐺ	-2939
ᐃᓈᐸᑕ	-2940
ᐅᑎᓇᐌ	-2941
ᐅᑕᔮᓐ	-2942
ᐅᑮᐅᔑ	-2943
ᐅᑮᐐᒋ	-2944
ᐅᑳᐎᒥ	-2945
ᐊᓯᓃᐞ	-2946
ᐙᓭᔮᒃ	-2947
ᐱᓯᔅᑫ	-2948
ᑎᒫᔅᑲ	-2949
ᑎᓯᐗᒃ	-2950
ᑕᐌᓂᒫ	-2951
ᑕᒫᑯᐙ	-2952
ᑫᐊᐲᒋ	-2953
ᑭᑌᑌᐙ	-2954
ᑮᐌᐙᒡ	-2955
ᑮᐗᔥᑴ	-2956
ᑮᐱᐅᒋ	-2957
ᑯᓯᐗᕽ	-2958
ᑲᓂᐙᓐ	-2959
ᑳᐅᓈᐸ	-2960
ᑳᐐᐅᒋ	-2961
ᑳᐯᐸᑳ	-2962
ᑸᐎᓭᔅ	-2963
ᒋᑯᓇᔦ	-2964
ᒥᓂᑴᒡ	-2965
ᒦᔑᔭᓐ	-2966
ᒫᒑᐗᒃ	-2967
ᒫᒑᔮᓐ	-2968
ᓂᑮᑭᒋ	-2969
ᐃᑭᑐᔭᓐ	-2970
ᐅᑮᐃᔑᐎ	-2971
ᐅᒋᒋᓭᒃ	-2972
ᐊᑕᐌᑕᕽ	-2973
ᐌᑯᓀᓂᓂ	-2974
ᐯᕒᐊᓰᐞ	-2975
ᐱᓀᔒᔕᒃ	-2976
ᐸᑭᑎᓈᓐ	-2977
ᑕᑯᔑᓈᓐ	-2978
ᑕᒫᑯᐙᒡ	-2979
ᑭᑫᑖᓈᐙ	-2980
ᑭᒋᑳᓱᒡ	-2981
ᑮᐅᒋᐅᔑ	-2982
ᑲᑴᒋᒫᐞ	-2983
ᑲᑴᒋᒫᓐ	-2984
ᑳᐅᑯᓯᓯ	-2985
ᑳᐅᒌᐙᒡ	-2986
ᒋᑲᒀᑕᑭ	-2987
ᒥᓍᑎᓰᔑ	-2988
ᒦᓂᑰᔦᒃ	-2989
ᒪᒋᐊᒑᒃ	-2990
ᒫᓯᑑᓂᔮ	-2991
ᓂᑮᓅᑕᐙ	-2992
ᓂᓱᑮᔑᒃ	-2993
ᓅᑌᔅᑲᑌ	-2994
ᓭᑲᕒᐋᔭ	-2995
ᐃᔑᒋᑫᐗᒃ	-2996
ᐅᑭᒋᐅᑭᒫ	-2997
ᐅᑮᐙᐸᒫᐞ	-2998
ᐅᒋᒋᓭᓂᒃ	-2999
ᐅᒪᔥᑲᐎᓰ	-3000
ᐊᓇᒥᐋᔮᓐ	-3001
ᐱᓯᑕᐎᔑᒃ	-3002
ᑎᐹᑯᓂᑫᐎ	-3003
ᑕᑯᔑᓄᐙᒡ	-3004
ᑮᐃᓀᑕᒨᒃ	-3005
ᑳᐃᑭᑐᔭᓐ	-3006
ᒥᓯᐌᑲᒥᒃ	-3007
ᓂᑭᔐᒪᓂᑑ	-3008
ᐁᐸᕒᐊᐋᒥᕽ	-3009
ᐃᓀᑖᑾᓂᓂᒃ	-3010
ᐅᑎᔑᒋᑫᐎᓐ	-3011
ᐅᓇᔓᐌᐎᑭᒫ	-3012
ᐊᓄᑮᐋᑲᓇᓐ	-3013
ᐱᓵᓀᑕᒧᐎᓐ	-3014
ᑭᑭᓄᐊᒪᐙᒡ	-3015
ᑮᑮᐌᐱᒫᑎᓯ	-3016
ᑲᔥᑭᑑᓰᓈᐙ	-3017
ᑳᐃᔑᐊᔮᓂᒡ	-3018
ᒋᐱᒫᒋᐃᐌᒡ	-3019
ᐁᐃᔑᓂᑳᑌᓂᒃ	-3020
ᐸᑭᑎᓈᓱᐎᓇᓐ	-3021
ᒪᒋᑑᑕᒧᐎᓇᓐ	-3022
ᐅᑎᔑᓂᔕᐙᑲᓇᐞ	-3023
ᑭᒋᐅᔑᐲᐃᑫᐎᓐ	-3024
ᐅᑰ	-3025
ᐅᒃ	-3026
ᐅᒦ	-3027
ᐊᒧ	-3028
ᐋᒋ	-3029
ᐋᔮ	-3030
ᐋᕒ	-3031
ᐌᑕ	-3032
ᐌᔑ	-3033
ᐯᑌ	-3034
ᑏᐎ	-3035
ᑫᔭ	-3036
ᑭᔥ	-3037
ᑯᒋ	-3038
ᑰᓯ	-3039
ᑲᐊ	-3040
ᑲᑖ	-3041
ᑳᒣ	-3042
ᑳᒫ	-3043
ᒦᓄ	-3044
ᒪᑣ	-3045
ᒸᒡ	-3046
ᓱᕽ	-3047
ᓵᐸ	-3048
ᐁᒪᑗ	-3049
ᐃᔖᒃ	-3050
ᐃᔖᓐ	-3051
ᐅᑎᓇ	-3052
ᐅᑕᐌ	-3053
ᐅᑲᓂ	-3054
ᐐᓀᑕ	-3055
ᐱᐊᑕ	-3056
ᐱᓂᒡ	-3057
ᐱᔑᑮ	-3058
ᐲᐙᐱ	-3059
ᐸᔥᑴ	-3060
ᑕᐱᒫ	-3061
ᑫᑎᒫ	-3062
ᑭᓰᐲ	-3063
ᑮᑭᑫ	-3064
ᑲᐯᔑ	-3065
ᑲᑮᒀ	-3066
ᑲᓄᕽ	-3067
ᑳᐅᑎ	-3068
ᑳᐸᐐ	-3069
ᒋᒥᓉ	-3070
ᒥᑾᒃ	-3071
ᒥᓄᑑ	-3072
ᒨᔕᑭ	-3073
ᒫᓈᓐ	-3074
ᓂᐲᓂ	-3075
ᓂᑲᐱ	-3076
ᓃᑳᓃ	-3077
ᓇᒫᓱ	-3078
ᓭᓯᒃ	-3079
ᓰᐗᐞ	-3080
ᔖᑯᐙ	-3081
▁¦5	-3082
ᐁᑮᐊᔮ	-3083
ᐁᑲᓇᐌ	-3084
ᐁᓅᑕᕽ	-3085
ᐃᐃᐌᑎ	-3086
ᐃᐌᓂᒡ	-3087
ᐃᑎᐙᒡ	-3088
ᐃᔖᓂᒡ	-3089
ᐅᐱᔥᑳ	-3090
ᐅᑲᓇᐎ	-3091
ᐊᓯᓃᐎ	-3092
ᐌᐱᓈᒡ	-3093
ᐙᐸᒫᐙ	-3094
ᐱᓯᑕᐙ	-3095
ᐲᔖᓂᒡ	-3096
ᑎᐎᓂᕽ	-3097
ᑕᒪᐎᑣ	-3098
ᑕᒪᐎᒃ	-3099
ᑫᑮᐅᒋ	-3100
ᑭᐸᑯᓭ	-3101
ᑭᑎᑭᑐ	-3102
ᑭᑭᔥᑳ	-3103
ᑮᐗᓂᒧ	-3104
ᑮᐙᒋᑴ	-3105
ᑲᒥᑳᒃ	-3106
ᑳᐃᔑᒫ	-3107
ᑳᑮᒫᒌ	-3108
ᑳᑮᓂᑖ	-3109
ᒋᐙᐸᒥ	-3110
ᒋᑑᑕᕽ	-3111
ᒋᑲᓇᐌ	-3112
ᒥᒋᓃᔥ	-3113
ᒥᓄᑑᑖ	-3114
ᒪᓯᓇᐊ	-3115
ᒫᑲᓇᒃ	-3116
ᓂᑮᐙᐸ	-3117
ᓅᑕᒣᒃ	-3118
ᕒᐊᓴᓐ	-3119
ᐁᐅᑯᓯᓯ	-3120
ᐁᐊᔮᓂᒡ	-3121
ᐁᑎᐯᓂᒥ	-3122
ᐃᓀᑕᒫᓐ	-3123
ᐅᑖᐱᓈᒡ	-3124
ᐊᐌᓀᓇᒃ	-3125
ᐗᓂᓂᑭᓐ	-3126
ᐸᑭᑎᓇᒫ	-3127
ᑭᒋᐆᑌᓇ	-3128
ᑭᓇᑕᐌᓂ	-3129
ᑲᔥᑭᑑᓐ	-3130
ᑳᐃᔑᑌᐺ	-3131
ᑳᐊᔮᓂᒃ	-3132
ᑳᑭᑫᓂᒫ	-3133
ᑳᒦᓂᓀᒃ	-3134
ᒋᐃᓇᓄᑮ	-3135
ᒋᑎᐯᑕᕽ	-3136
ᒋᒪᔥᑲᐌ	-3137
ᒦᓂᑯᓈᓐ	-3138
ᒪᑲᓯᓄᒃ	-3139
ᓂᔑᐗᓈᑕ	-3140
ᓭᑭᓯᑫᒃ	-3141
ᓯᓂᓂᑭᓐ	-3142
ᓰᑲᐊᑖᓱ	-3143
ᔖᑯᐌᓂᒡ	-3144
ᐁᑕᓱᐯᔑᑯ	-3145
ᐁᔑᐊᔮᓂᒡ	-3146
ᐃᓀᑕᒥᓂᒡ	-3147
ᐅᓃᑭᐃᑰᐞ	-3148
ᐐᒋᑭᐌᔭᐞ	-3149
ᑌᐺᑕᒥᓂᒡ	-3150
ᑌᐺᑕᒧᐎᓐ	-3151
ᑖᐅᓂᔑᔑᓐ	-3152
ᑭᐸᐅᑰᔮᓐ	-3153
ᑭᑭᑫᑖᓈᐙ	-3154
ᑭᑲᒦᓂᑯᐙ	-3155
ᑳᐃᑭᑐᔮᓐ	-3156
ᑳᑮᐃᔑᓂᔕ	-3157
ᑳᑮᐊᔮᐙᒡ	-3158
ᓃᑕᓇᒥᐋᒃ	-3159
ᔕᐌᓂᒥᓇᕽ	-3160
ᐅᑮᐐᑕᒪᐙᐞ	-3161
ᐅᔕᐌᒋᑫᐎᓐ	-3162
ᐐᑕᒪᐎᔑᓈᒻ	-3163
ᐱᒥᓂᔕᐙᐙᒡ	-3164
ᑌᐺᑕᒧᐎᓂᕽ	-3165
ᑭᔐᒪᓂᑑᓈᕽ	-3166
ᑳᐃᔑᐊᔮᔦᒃ	-3167
ᒫᐗᒋᐃᑎᐗᒃ	-3168
ᐅᑭᑭᔥᑭᑲᓇᓐ	-3169
ᐅᑾᔭᒀᑎᓰᒪᐞ	-3170
ᑎᐸᐃᑲᓀᔮᓂᒃ	-3171
ᑫᐃᔥᒀᓭᓯᓄᒃ	-3172
ᑭᑭᓇᐙᑕᔕᑫᔑ	-3173
ᑲᑮᑖᐌᑕᒧᐎᓐ	-3174
ᑭᐱᒫᑎᓯᐎᓂᐙᕽ	-3175
ᑭᑭᔐᒪᓂᑑᒥᓈᓐ	-3176
ᑭᓇᑕᐌᓂᒥᓂᓂᒻ	-3177
8¦	-3178
ᐁᐹ	-3179
ᐊᑣ	-3180
ᐊᒡ	-3181
ᐊᔫ	-3182
ᐐᐎ	-3183
ᐐᓈ	-3184
ᐙᐐ	-3185
ᑎᑎ	-3186
ᑕᓅ	-3187
ᑮᑳ	-3188
ᑮᓇ	-3189
ᑳᐲ	-3190
ᑳᒥ	-3191
ᑳᔮ	-3192
ᒀᕒ	-3193
ᒋᒦ	-3194
ᒑᐸ	-3195
ᓂᔅ	-3196
ᓇᑮ	-3197
ᓇᓂ	-3198
ᓭᑳ	-3199
ᓯᓐ	-3200
ᓰᑴ	-3201
ᓰᓂ	-3202
ᓴᒣ	-3203
ᔖᑲ	-3204
ᔫᓐ	-3205
ᐁᑮᓂ	-3206
ᐁᒫᒌ	-3207
ᐃᑭᔥ	-3208
ᐃᓀᒀ	-3209
ᐃᔑᓐ	-3210
ᐅᐱᓯ	-3211
ᐅᑖᑯ	-3212
ᐅᑮᔑ	-3213
ᐅᑳᑏ	-3214
ᐅᔥᑲ	-3215
ᐊᓈᒣ	-3216
ᐋᓃᑎ	-3217
ᐋᓇᑮ	-3218
ᐌᒌᒃ	-3219
ᐐᒋᐃ	-3220
ᐐᒋᐋ	-3221
ᐗᓂᓂ	-3222
ᐯᔑᒀ	-3223
ᐱᒥᑌ	-3224
ᑎᐱᒃ	-3225
ᑎᑰᓐ	-3226
ᑎᔭᕽ	-3227
ᑫᔦᒃ	-3228
ᑭᑭᑭ	-3229
ᑭᑮᓅ	-3230
ᑭᑲᔑ	-3231
ᑭᒋᐎ	-3232
ᑮᑮᔑ	-3233
ᑮᔥᑭ	-3234
ᑰᔮᕽ	-3235
ᑲᓅᓈ	-3236
ᑳᑳᓂ	-3237
ᒋᑲᓈ	-3238
ᒥᓀᒀ	-3239
ᒥᓇᐞ	-3240
ᒨᒋᑫ	-3241
ᒪᔥᑭ	-3242
ᒫᑲᑕ	-3243
ᒶᓯᓇ	-3244
ᓂᓯᑣ	-3245
ᓂᔣᓱ	-3246
ᓃᓇᒥ	-3247
ᓃᓬᐃ	-3248
ᓃᓵᓀ	-3249
ᓇᓈᑕ	-3250
ᓉᐙᓇ	-3251
ᓭᓂᒡ	-3252
ᓭᔦᒃ	-3253
ᓵᑭᓯ	-3254
ᔂᓬᐊ	-3255
ᔥᑯᓯ	-3256
ᔦᒀᒥ	-3257
ᐁᐱᓴᔅ	-3258
ᐁᐸᑯᓭ	-3259
ᐁᑭᑐᒡ	-3260
ᐁᑮᑭᑐ	-3261
ᐁᑮᒥᒋ	-3262
ᐁᑲᑮᐹ	-3263
ᐃᑰᔭᓐ	-3264
ᐃᔖᐗᒃ	-3265
ᐄᐸᕒᐆ	-3266
ᐅᐐᔭᐎ	-3267
ᐅᐲᐌᓰ	-3268
ᐅᑌᐃᕽ	-3269
ᐅᑎᐹᒋ	-3270
ᐅᑮᐊᐎ	-3271
ᐅᔑᑑᒡ	-3272
ᐊᐌᓀᓂ	-3273
ᐊᔭᐋᐎ	-3274
ᐋᐸᒋᐋ	-3275
ᐎᓈᑯᕽ	-3276
ᐐᒌᐌᒃ	-3277
ᐙᑳᔭᐄ	-3278
ᑌᐺᐎᓂ	-3279
ᑌᐺᑕᐙ	-3280
ᑑᑕᒣᒃ	-3281
ᑑᓈᐙᓐ	-3282
ᑕᒪᐙᐞ	-3283
ᑖᑯᓯᓰ	-3284
ᑭᑎᑫᐗ	-3285
ᑭᑎᒫᑭ	-3286
ᑭᑯᓯᔅ	-3287
ᑮᐊᓅᑮ	-3288
ᑮᔑᑲᓐ	-3289
ᑲᒥᑯᓂ	-3290
ᑳᐱᐅᒋ	-3291
ᑳᐱᒫᒋ	-3292
ᑳᐸᐎᒡ	-3293
ᑳᒪᒋᑑ	-3294
ᑳᒪᔥᑲ	-3295
ᒋᐙᐸᑕ	-3296
ᒋᐱᒥᐎ	-3297
ᒋᒥᓍᐸ	-3298
ᒋᓂᓯᑐ	-3299
ᒋᓈᓈᑲ	-3300
ᒎᓴᐴᓐ	-3301
ᒥᓉᑕᒥ	-3302
ᒥᓉᑕᒻ	-3303
ᒪᒋᑕᔑ	-3304
ᒫᒋᓭᒃ	-3305
ᓂᐴᔔᐋ	-3306
ᓂᒥᓀᒀ	-3307
ᓂᒥᓀᒃ	-3308
ᓂᓃᒑᓂ	-3309
ᓃᓵᑕᐌ	-3310
ᓃᔥᑕᓇ	-3311
ᓇᐁᑕᒥ	-3312
ᓬᐊᓴᓐ	-3313
ᓵᑭᐋᒡ	-3314
ᓵᒥᓈᒡ	-3315
ᔥᑳᐙᒡ	-3316
ᐁᑭᑐᔦᒃ	-3317
ᐁᑭᑫᓂᒫ	-3318
ᐁᑮᒦᓈᒡ	-3319
ᐁᓂᓇᑰᒃ	-3320
ᐃᑭᑐᔭᕽ	-3321
ᐃᓂᓇᑰᒃ	-3322
ᐃᔥᒀᑌᒥ	-3323
ᐅᑖᐱᓇᓐ	-3324
ᐅᑖᐱᓈᓐ	-3325
ᐅᑲᔥᑮᑮ	-3326
ᐊᑐᒥᓀᒃ	-3327
ᐊᔓᑕᒫᑫ	-3328
ᐙᐱᓀᓂᒡ	-3329
ᐙᐸᑕᒪᕽ	-3330
ᐴᑖᒋᑲᓐ	-3331
ᑑᑕᐎᓐᒡ	-3332
ᑕᒣᑭᐸᓐ	-3333
ᑖᑯᓯᐗᒃ	-3334
ᑖᑯᓯᔦᒃ	-3335
ᑭᑎᑳᓀᔅ	-3336
ᑭᑭᑫᑖᓐ	-3337
ᑮᐃᑎᐗᒃ	-3338
ᑮᐊᔮᐗᓐ	-3339
ᑲᔥᑭᒋᑫ	-3340
ᑳᐃᓂᓐᒡ	-3341
ᑳᐃᓇᑌᒃ	-3342
ᑳᐸᐎᓂᒡ	-3343
ᑳᑮᐃᔥᒀ	-3344
ᑳᓂᐳᐙᒡ	-3345
ᑳᓂᐳᓂᒡ	-3346
ᑾᔭᑯᒋᑫ	-3347
ᒋᐅᑭᒫᑲ	-3348
ᒋᑎᐹᑯᓂ	-3349
ᓂᑑᑭᒫᒻ	-3350
ᓇᑰᑭᐸᓐ	-3351
ᓇᑴᑕᐙᓐ	-3352
ᓈᑯᓯᔦᒃ	-3353
ᓴᒣᕒᐃᔭ	-3354
ᐁᑎᓄᐎᔮᓐ	-3355
ᐁᑮᐃᔖᐙᒡ	-3356
ᐃᔑᒋᑫᔮᓐ	-3357
ᐅᐐᓱᐎᓂᕽ	-3358
ᐅᑳᑏᑭᓀᐱ	-3359
ᐅᓃᑳᓂᓰᒃ	-3360
ᐌᑖᑯᓯᐙᒡ	-3361
ᐌᓅᑎᓯᐎᓐ	-3362
ᐎᓯᓅᓂᓂᒻ	-3363
ᐐᑕᒪᐙᐙᒡ	-3364
ᐱᓈᓯᑳᑰᐞ	-3365
ᐸᑴᔑᑲᓇᐞ	-3366
ᑭᐴᔔᐃᑯᐙ	-3367
ᑭᑎᑫᐎᓂᕽ	-3368
ᑭᑭᓄᐊᒪᐎ	-3369
ᑲᔥᑭᑑᐙᒡ	-3370
ᒫᓇᒑᓂᔕᐞ	-3371
ᒫᔑᒥᑕᑎᒨ	-3372
ᓵᑭᐃᑎᔦᒃ	-3373
ᐃᔑᒋᑫᐎᓇᓐ	-3374
ᐙᓴᑯᓀᒋᑲᓐ	-3375
ᑎᐯᑖᑯᓯᓂᒡ	-3376
ᑳᑮᐐᒌᐎᑯᒡ	-3377
ᑳᑮᔑᑲᓂᓂᒃ	-3378
ᑳᒎᐎᐎᓯᐌᒃ	-3379
ᑳᒫᒪᐌᓄᓂᒡ	-3380
ᒋᑮᐌᐱᒫᑎᓯ	-3381
ᒋᑲᔥᑭᑑᔦᒃ	-3382
ᒪᔥᑲᐎᓰᓂᒡ	-3383
ᐅᑌᐺᑕᒧᐎᓂᕽ	-3384
ᑫᐴᓂᓭᓯᓂᓂᒃ	-3385
ᑭᑭᓇᐙᑕᔕᑫᔣ	-3386
ᑮᐌᐱᒫᑎᓯᐋᒡ	-3387
ᑳᑮᐃᔑᒋᑫᓂᒡ	-3388
ᑳᑮᐊᔓᑕᒫᑫᒡ	-3389
ᑳᓃᑳᓀᑖᑯᓯᓂᒡ	-3390
ᐎᔅ	-3391
ᐙᐗ	-3392
ᐱᓐ	-3393
ᑌᐁ	-3394
ᑕᕒ	-3395
ᑖᐎ	-3396
ᑮᑕ	-3397
ᑮᑰ	-3398
ᑲᔅ	-3399
ᑳᒡ	-3400
ᒋᐙ	-3401
ᒫᑾ	-3402
ᓀᑕ	-3403
ᓂᒣ	-3404
ᓃᓴ	-3405
ᓄᑲ	-3406
ᓅᒋ	-3407
ᓇᑳ	-3408
ᓈᑕ	-3409
ᓴᒥ	-3410
ᔥᒃ	-3411
ᐁᐐᐱ	-3412
ᐁᑮᒫ	-3413
ᐃᐌᑎ	-3414
ᐃᓬᐃ	-3415
ᐅᑕᑮ	-3416
ᐅᑖᓂ	-3417
ᐅᑮᐋ	-3418
ᐊᐌᑎ	-3419
ᐊᐸᓐ	-3420
ᐋᐙᐞ	-3421
ᐋᐙᓐ	-3422
ᐋᒀᓐ	-3423
ᐋᓇᐲ	-3424
ᐋᓇᓈ	-3425
ᐎᓰᒻ	-3426
ᐐᑾᑫ	-3427
ᐐᓂᑯ	-3428
ᐗᑭᑕ	-3429
ᐙᐃᔑ	-3430
ᐱᔑᑭ	-3431
ᐲᑯᐱ	-3432
ᐲᔖᒡ	-3433
ᐸᑯᐲ	-3434
ᐹᑭᑌ	-3435
ᑎᑎᐲ	-3436
ᑑᔭᓐ	-3437
ᑭᑖᐸ	-3438
ᑭᑲᐱ	-3439
ᑭᓵᑭ	-3440
ᑯᓂᒡ	-3441
ᑰᒥᓐ	-3442
ᑳᐗᓂ	-3443
ᑳᑮᐐ	-3444
ᑾᔮᒌ	-3445
ᒋᐸᒥ	-3446
ᒋᑑᓐ	-3447
ᒋᒪᓈ	-3448
ᒎᑏᔮ	-3449
ᒞᕒᑕ	-3450
ᒥᒋᒥ	-3451
ᒦᑴᒡ	-3452
ᒦᒋᒥ	-3453
ᒪᐎᓀ	-3454
ᒪᒋᐅ	-3455
ᒪᓂᔑ	-3456
ᒫᐎᒡ	-3457
ᒫᑲᓐ	-3458
ᓀᓈᐎ	-3459
ᓂᑲᓂ	-3460
ᓂᒫᐞ	-3461
ᓃᐎᕽ	-3462
ᓃᔑᕽ	-3463
ᓇᐌᓯ	-3464
ᓇᒪᐎ	-3465
ᓇᒪᓐ	-3466
ᓈᐸᓐ	-3467
ᓈᑯᓰ	-3468
ᓈᑲᒋ	-3469
ᓉᑕᒻ	-3470
ᓬᐃᐁ	-3471
ᓴᐱᒡ	-3472
ᓴᑳᐱ	-3473
ᓴᓭᑳ	-3474
ᓵᒥᓈ	-3475
ᔅᑕᔅ	-3476
ᔒᐎᑖ	-3477
ᔥᑲᒃ	-3478
ᕒᐃᐸ	-3479
ᕒᐃᔅ	-3480
ᐁᐃᑯᒡ	-3481
ᐁᐐᑲᑴ	-3482
ᐁᑮᐃᓇ	-3483
ᐃᐌᐗᒃ	-3484
ᐃᑭᑐᓰ	-3485
ᐃᓉᐎᓐ	-3486
ᐅᐅᐌᔥ	-3487
ᐅᑎᑕᕽ	-3488
ᐅᑮᐃᓇ	-3489
ᐅᑮᑭᒋ	-3490
ᐅᑮᓇᑲ	-3491
ᐅᑲᐅᒋ	-3492
ᐅᒥᓐᒡ	-3493
ᐅᓇᐱᒡ	-3494
ᐊᒪᐙᒡ	-3495
ᐋᐃᓯᒃ	-3496
ᐌᐱᓇᕽ	-3497
ᐐᑑᑳᓱ	-3498
ᐐᒌᐎᒃ	-3499
ᐐᒌᐙᓐ	-3500
ᐐᓱᐎᓐ	-3501
ᐙᐸᓄᕽ	-3502
ᐙᓭᔮᕽ	-3503
ᐲᒐᔭᐄ	-3504
ᐸᐸᔕᔐ	-3505
ᐸᑫᐎᓂ	-3506
ᐸᕒᐋᐸ	-3507
ᑕᐃᑕᔅ	-3508
ᑕᒪᐙᓐ	-3509
ᑕᓰᓇᓐ	-3510
ᑖᑯᐙᒡ	-3511
ᑫᐊᔮᒡ	-3512
ᑭᐱᔥᑭ	-3513
ᑭᑎᓂᓐ	-3514
ᑭᑕᒑᑯ	-3515
ᑭᒋᑲᒻ	-3516
ᑭᔐᐹᐗ	-3517
ᑭᔥᑮᔑ	-3518
ᑮᑭᑐᒡ	-3519
ᑮᓭᑭᓯ	-3520
ᑯᓯᐌᒃ	-3521
ᑲᓅᒋᑫ	-3522
ᑲᓇᐌᑕ	-3523
ᑲᕒᐄᒃ	-3524
ᑳᐅᑌᐺ	-3525
ᑳᑮᐊᓂ	-3526
ᒋᐊᔮᒡ	-3527
ᒋᐐᑎᑫ	-3528
ᒋᐲᑎᑫ	-3529
ᒋᑎᐹᑯ	-3530
ᒋᑕᑯᓂ	-3531
ᒎᑕᓴᓐ	-3532
ᒦᐗᑯᑯ	-3533
ᒫᑲᓂᓂ	-3534
ᒫᑲᓂᔒ	-3535
ᓂᐐᔭᐤ	-3536
ᓂᑎᓄᐤ	-3537
ᓃᐸᐎᒡ	-3538
ᓇᑭᔥᑲ	-3539
ᓇᒪᐙᒡ	-3540
ᓴᑭᓂᑫ	-3541
ᔔᒥᓇᐞ	-3542
ᔥᑳᑰᓐ	-3543
ᐁᐊᔮᔦᒃ	-3544
ᐁᑮᓂᐳᒡ	-3545
ᐁᒨᔥᑭᓀ	-3546
ᐁᓀᑕᒫᓐ	-3547
ᐁᔑᑖᓂᒡ	-3548
ᐁᔑᒋᑫᒡ	-3549
ᐁᔑᒥᓴᐌ	-3550
ᐃᓬᐃᓯᐸ	-3551
ᐃᔑᒋᑫᓰ	-3552
ᐅᑖᐱᓇᕽ	-3553
ᐅᑮᐅᑎᑎ	-3554
ᐊᐌᓀᓇᐞ	-3555
ᐊᐯᓂᒧᓄ	-3556
ᐊᔕᐙᐱᒃ	-3557
ᐊᔮᒪᑲᓐ	-3558
ᐋᑲᕒᐃᐸ	-3559
ᐌᐱᓈᐙᒡ	-3560
ᐐᑾᑎᐎᓐ	-3561
ᐐᔭᐎᒫᕽ	-3562
ᐗᑭᒐᔭᐄ	-3563
ᐗᓂᔥᑳᓐ	-3564
ᐙᐸᒥᑯᒡ	-3565
ᐱᑾᒐᔭᐄ	-3566
ᐱᔑᒀᑎᓯ	-3567
ᐹᑲᐋᒀᓐ	-3568
ᑕᐱᒫᑎᓯ	-3569
ᑭᑎᑫᐎᓐ	-3570
ᑭᑎᑳᓂᕽ	-3571
ᑭᑫᑕᒧᒃ	-3572
ᑮᒥᓄᐊᔮ	-3573
ᑲᓅᓂᑯᒡ	-3574
ᑳᑎᐸᐃᑫ	-3575
ᑳᑮᐊᔮᒡ	-3576
ᑳᒦᑭᐌᒡ	-3577
ᒋᐐᑕᒪᐎ	-3578
ᒋᑭᑫᓂᒥ	-3579
ᒥᓂᑴᔦᒃ	-3580
ᓂᐐᔭᐎᕽ	-3581
ᓂᑮᓅᑖᓐ	-3582
ᓂᒥᓂᓂᒻ	-3583
ᓂᓯᒥᑕᓇ	-3584
ᓂᓯᒥᓐᒡ	-3585
ᓃᐸᐎᐙᒡ	-3586
ᓇᑴᑕᐙᐞ	-3587
ᓈᓯᑲᐙᒡ	-3588
ᐁᐅᒋᒋᓭᒃ	-3589
ᐁᐙᐸᒥᑯᒡ	-3590
ᐅᑎᓯᓇᑰᒃ	-3591
ᐅᑕᓇᒥᐋᒃ	-3592
ᐅᑕᔭᐄᒥᓂ	-3593
ᐅᑭᒋᓂᑭᕽ	-3594
ᐅᑭᔐᐙᑎᓯ	-3595
ᐅᑮᐋᐸᒋᑑ	-3596
ᐊᓇᒥᐋᐎᓐ	-3597
ᐊᔓᑕᒪᐙᒡ	-3598
ᐐᑕᒫᑫᐙᒡ	-3599
ᐐᑕᒫᑰᔦᒃ	-3600
ᑕᔑᑕᒧᐙᒡ	-3601
ᑭᑎᑫᐎᑭᒫ	-3602
ᑲᒀᑕᑭᑑᒡ	-3603
ᑲᒥᑭᓯᐙᒡ	-3604
ᑲᔥᑭᑑᔦᒃ	-3605
ᑳᐃᔑᐌᐱᓯ	-3606
ᑳᐃᔑᑯᑖᓀ	-3607
ᑳᐋᑯᓯᓂᒡ	-3608
ᑳᐙᐱᓯᓂᒃ	-3609
ᑳᐙᐸᑕᒣᒃ	-3610
ᑳᑌᐺᔦᓂᒥ	-3611
ᑳᑮᐃᔑᐲᐃ	-3612
ᑳᑮᐅᒌᓂᒡ	-3613
ᑳᑮᒦᔑᔭᓐ	-3614
ᑳᑮᓂᐳᓂᒡ	-3615
ᒫᓇᒑᓂᔕᒃ	-3616
ᓈᑾᓂᓂᐗᓐ	-3617
ᐁᑮᐋᐸᒋᑑᒡ	-3618
ᐃᔑᐌᐱᓯᐎᓐ	-3619
ᐅᑌᒐᓬᐃᒪᐞ	-3620
ᐅᑲᔥᑭᐁᐎᓯ	-3621
ᐅᓇᔓᐌᐎᓇᓐ	-3622
ᐊᐲᑌᑖᑯᓯᓰ	-3623
ᐊᓇᒥᐁᐸᒀᓀ	-3624
ᐱᔑᒀᑎᓯᐎᓐ	-3625
ᑕᒧᐎᓂᓈᓂᓐ	-3626
ᑭᑭᑭᓄᐊᒪᐙ	-3627
ᑭᑭᓄᐃᑫᐙᒡ	-3628
ᑳᐱᒫᑎᓯᓂᒡ	-3629
ᐁᐃᔑᐲᐃᑳᑌᒃ	-3630
ᐃᓈᑯᓂᑫᐎᓂᕽ	-3631
ᐃᓈᑯᓂᑫᐎᓇᓐ	-3632
ᐅᑕᔓᑕᒫᑫᐎᓐ	-3633
ᐅᓂᔥᑳᑎᓯᐎᓐ	-3634
ᑭᑌᐺᑕᒧᐎᓂᐙ	-3635
ᑭᒋᐅᑭᒫᐎᓂᒡ	-3636
ᑭᒋᐅᑳᑏᑭᓀᐱ	-3637
ᐃᔅᕒᐃᔭᓬᐃᑳᕽ	-3638
ᐅᔑᐲᐊᒪᐎᓇᑰᒃ	-3639
ᑳᑕᓶᐙᓇᑭᓯᐙᒡ	-3640
ᑳᑮᐃᑭᑐᑯᐸᓀᓐ	-3641
ᐅᑭᑭᓄᐊᒪᐙᑲᓇᓐ	-3642
ᐅᑕᓇᒥᐁᐎᑲᒥᑯᓃᕽ	-3643
ᐁᐯ	-3644
ᐃᓐ	-3645
ᐅᐙ	-3646
ᐊᓴ	-3647
ᐯᒥ	-3648
ᐱᒪ	-3649
ᐸᑏ	-3650
ᐹᑌ	-3651
ᐹᑴ	-3652
ᐹᒫ	-3653
ᑑᐳ	-3654
ᑕᔮ	-3655
ᑖᒃ	-3656
ᑖᕒ	-3657
ᑯᐱ	-3658
ᑯᓰ	-3659
ᑲᒋ	-3660
ᒋᐗ	-3661
ᒍᑌ	-3662
ᒎᓇ	-3663
ᒧᓐ	-3664
ᒨᓐ	-3665
ᒪᓂ	-3666
ᓂᐯ	-3667
ᓃᐳ	-3668
ᓃᒌ	-3669
ᓇᐤ	-3670
ᓍᐸ	-3671
ᓴᑳ	-3672
ᔕᐌ	-3673
ᔭᐤ	-3674
ᔮᑭ	-3675
ᐁᐐᓯ	-3676
ᐁᑾᐞ	-3677
ᐁᓈᒋ	-3678
ᐃᑎᒃ	-3679
ᐃᑯᓰ	-3680
ᐃᑰᒻ	-3681
ᐃᓇᑌ	-3682
ᐃᔅᑏ	-3683
ᐅᑑᔑ	-3684
ᐊᐲᑖ	-3685
ᐋᐃᓯ	-3686
ᐋᑕᒻ	-3687
ᐋᓯᒃ	-3688
ᐎᓀᒃ	-3689
ᐗᑎᓯ	-3690
ᐗᑸᕽ	-3691
ᐱᐴᓉ	-3692
ᐱᒥᔑ	-3693
ᐸᐊᒫ	-3694
ᐸᓴᓐ	-3695
ᑑᔮᕽ	-3696
ᑕᒨᓐ	-3697
ᑕᓂᐳ	-3698
ᑕᓯᓐ	-3699
ᑫᑕᑐ	-3700
ᑭᐌᑎ	-3701
ᑭᑖᑮ	-3702
ᑭᑲᓇ	-3703
ᑭᒫᒫ	-3704
ᑭᓂᑲ	-3705
ᑮᐊᐸ	-3706
ᑮᐊᔨ	-3707
ᑮᐌᑎ	-3708
ᑮᒥᒋ	-3709
ᑰᓰᒻ	-3710
ᑲᓀᔅ	-3711
ᑳᐐᓀ	-3712
ᑳᑭᑎ	-3713
ᑳᓇᐞ	-3714
ᒋᐅᑕ	-3715
ᒋᐊᔕ	-3716
ᒋᐙᐱ	-3717
ᒋᒪᒋ	-3718
ᒣᒥᑕ	-3719
ᒦᓂᓐ	-3720
ᓂᐙᒡ	-3721
ᓂᑕᒑ	-3722
ᓂᑮᐐ	-3723
ᓂᒥᒡ	-3724
ᓂᓐᒡ	-3725
ᓃᑳᕽ	-3726
ᓅᑎᓐ	-3727
ᓇᐹᒡ	-3728
ᓇᑲᔒ	-3729
ᓭᐸᑏ	-3730
ᐁᐐᐐᒋ	-3731
ᐁᑮᐊᑐ	-3732
ᐁᑮᒥᓄ	-3733
ᐁᑮᓇᑲ	-3734
ᐁᓇᓈᑯ	-3735
ᐃᓀᑖᑯ	-3736
ᐃᔑᐌᐱ	-3737
ᐃᔑᓈᑾ	-3738
ᐅᑎᓈᓐ	-3739
ᐅᑕᒑᑯ	-3740
ᐅᑮᐅᓇ	-3741
ᐅᑮᐊᔮ	-3742
ᐅᑮᑮᐌ	-3743
ᐅᑯᐙᒡ	-3744
ᐅᒋᑕᑯ	-3745
ᐅᒌᐗᒃ	-3746
ᐅᒌᓂᒡ	-3747
ᐅᓂᒌᕽ	-3748
ᐅᓈᑯᓂ	-3749
ᐅᔔᓂᔮ	-3750
ᐊᐱᓂᒡ	-3751
ᐌᓂᔑᔑ	-3752
ᐎᒥᓐᒡ	-3753
ᐎᓯᓂᒃ	-3754
ᐐᒋᐃᑯ	-3755
ᐐᓯᓂᓯ	-3756
ᐙᐸᒣᒃ	-3757
ᐱᓅᒌᔑ	-3758
ᐲᓬᐃᑭ	-3759
ᐲᔖᔮᓐ	-3760
ᐸᕒᐊᔅ	-3761
ᑌᒥᓂᒃ	-3762
ᑌᓂᑭᓐ	-3763
ᑌᓴᓬᐊ	-3764
ᑕᐎᓀᒀ	-3765
ᑕᐎᓐᒡ	-3766
ᑭᓱᓂᒡ	-3767
ᑭᔒᐌᒡ	-3768
ᑲᒥᑳᕽ	-3769
ᑲᓅᓂᑯ	-3770
ᑳᐃᔥᐯ	-3771
ᑳᐅᑌᑌ	-3772
ᑳᑕᐸᓭ	-3773
ᑳᑮᑭᒋ	-3774
ᑳᒫᐗᒋ	-3775
ᒋᐋᓂᒡ	-3776
ᒋᑌᐺᔦ	-3777
ᒋᑑᔦᒃ	-3778
ᒌᑾᓇᐲ	-3779
ᒥᑯᓰᓐ	-3780
ᒥᓉᑕᕽ	-3781
ᒥᔅᑸᓂ	-3782
ᒪᔥᑯᓰ	-3783
ᓂᑎᓱᓰ	-3784
ᓂᑕᔮᓐ	-3785
ᓂᑭᐸᓐ	-3786
ᓂᓇᑕᐌ	-3787
ᓃᐳᐗᐞ	-3788
ᓭᑕᓇᓐ	-3789
ᓯᐙᐙᐞ	-3790
ᓴᒣᕒᐃ	-3791
ᓵᑲᐊᕽ	-3792
ᔔᓂᔮᐎ	-3793
ᔥᑳᑯᓐ	-3794
ᔮᑭᐸᓐ	-3795
ᔮᔑᔮᕽ	-3796
ᐃᑭᑐᐗᒃ	-3797
ᐃᔑᓂᑳᓱ	-3798
ᐅᑭᑫᓂᒫ	-3799
ᐅᑯᓯᓯᓂ	-3800
ᐅᒥᔅᑸᒻ	-3801
ᐅᓈᑯᓂᑫ	-3802
ᐅᓈᑲᓂᕽ	-3803
ᐋᐸᒋᐋᒡ	-3804
ᐋᓇᓈᔭᔅ	-3805
ᐐᑕᓇᒥᐋ	-3806
ᐗᓇᑯᔕᒃ	-3807
ᐱᒥᓂᔕᐊ	-3808
ᐸᑭᓯᑭᓐ	-3809
ᐸᑴᐱᓈᒡ	-3810
ᑕᓱᑮᔑᒃ	-3811
ᑭᑎᑳᑕᕽ	-3812
ᑭᑫᑕᒫᓐ	-3813
ᑭᑲᐙᐸᒥ	-3814
ᑮᐃᓀᑕᓰ	-3815
ᑲᑮᑖᐎᓯ	-3816
ᑲᒀᓂᓴᑫ	-3817
ᑲᓂᐎᐙᒡ	-3818
ᑲᓂᓂᑭᓐ	-3819
ᑲᓇᐌᓂᒫ	-3820
ᑳᐃᑯᐙᒡ	-3821
ᑳᑮᐃᑯᒡ	-3822
ᑳᑮᒦᔑᒡ	-3823
ᑳᒪᔥᑲᐎ	-3824
ᑸᐎᓭᓴᓐ	-3825
ᒀᕒᓃᓬᐃ	-3826
ᒋᐃᔑᓂᔕ	-3827
ᒞᕒᑕᓇᐎ	-3828
ᒥᒋᑲᑭᓇ	-3829
ᒥᓈᑾᐅᓐ	-3830
ᓂᑳᑌᑭᓐ	-3831
ᓄᑮᐋᑲᓐ	-3832
ᓅᑌᓭᔦᒃ	-3833
ᓇᑴᑖᑯᒡ	-3834
ᓭᑭᓯᐙᒡ	-3835
ᓵᑲᐃᑲᓐ	-3836
ᔥᑳᑯᓈᐙ	-3837
ᐁᐃᑭᑐᓂᒡ	-3838
ᐃᓈᑎᓯᐎᓐ	-3839
ᐃᔥᒀᑌᒪᓐ	-3840
ᐅᐱᒫᒋᐃᐌ	-3841
ᐅᓂᔑᔑᓂᓂ	-3842
ᐅᓃᑳᓂᓰᐎ	-3843
ᐊᐯᓂᒧᐎᓐ	-3844
ᐊᑕᐌᓂᒫᒡ	-3845
ᐊᓄᑮᐎᓇᓐ	-3846
ᐌᑖᑾᓂᓂᒃ	-3847
ᐐᒌᐎᑯᐙᒡ	-3848
ᐐᒌᐎᓂᓂᒻ	-3849
ᐱᒥᓂᔕᐅᒡ	-3850
ᐲᒋᓂᔕᐙᒡ	-3851
ᐸᑭᑎᓈᓱᐎ	-3852
ᑌᓴᓬᐊᓇᐃ	-3853
ᑫᐃᑭᑐᔦᒃ	-3854
ᑫᐃᔑᓈᑾᒃ	-3855
ᑭᐱᔥᑭᐗᓯ	-3856
ᑭᒋᐅᑭᒫᐞ	-3857
ᑲᑴᒋᒥᑰᐞ	-3858
ᑲᒀᑕᑭᐃᑣ	-3859
ᑲᓅᓂᓇᑰᒃ	-3860
ᑳᐃᔑᐊᔮᒡ	-3861
ᑳᑑᑕᒧᐙᒡ	-3862
ᑳᑲᔥᑭᑑᒡ	-3863
ᑳᒥᓍᐸᑕᕽ	-3864
ᒋᐱᒫᑎᓯᒡ	-3865
ᒋᑑᑕᒧᐙᒡ	-3866
ᒪᓂᑑᑳᓇᒃ	-3867
ᒪᔥᑲᐎᓰᒡ	-3868
ᒫᓇᒑᓂᔑᐌ	-3869
ᓂᑮᐃᔑᒋᑫ	-3870
ᓂᓃᒑᓂᓴᒃ	-3871
ᓃᒋᑭᐌᔭᒃ	-3872
ᓵᐃᓬᐊᓴᓐ	-3873
ᐁᓀᑖᑾᓂᓂᒃ	-3874
ᐃᓈᐸᑕᓯᓅᓐ	-3875
ᐅᑌᒐᓬᐃᒥᓂ	-3876
ᐅᑌᒐᓬᐃᒪᓐ	-3877
ᐅᑮᐙᐸᒫᐙᓐ	-3878
ᐅᑳᐎᒥᓇᑲᔒ	-3879
ᐅᓈᑯᔑᓂᓂᒃ	-3880
ᐅᔥᑭᓃᑭᑴᓐ	-3881
ᐙᓴᑯᓀᒋᑲᓈ	-3882
ᑲᐸᕒᓂᔭᒦᕽ	-3883
ᑳᐃᑭᑑᒪᑲᒃ	-3884
ᒥᑯᔥᑳᑌᑕᒻ	-3885
ᒥᓍᒋᒧᐎᓂᓂ	-3886
ᒫᐗᒋᐃᑎᔦᒃ	-3887
ᐁᔑᐲᐃᑳᑌᓂᒃ	-3888
ᐅᑎᐹᒋᒧᐎᓂᓂ	-3889
ᐅᑕᓄᑮᐎᓂᐙᓐ	-3890
ᐅᑮᐃᔑᓂᔕᐙᓐ	-3891
ᐊᓇᒥᐁᐎᑲᒥᒃ	-3892
ᑭᐐᒋᐅᑌᐺᑕᒨ	-3893
ᑳᐃᔑᓂᑳᓱᓂᒡ	-3894
ᑳᐃᔑᓈᑯᓯᐙᒡ	-3895
ᑳᐅᑌᐺᑕᒧᐎᓂ	-3896
ᑳᑭᑎᒫᑭᓯᐙᒡ	-3897
ᑭᒋᐊᓇᒥᐁᐸᒀᓀ	-3898
ᑲᔥᑮᑎᐱᑲᓂᓂᒃ	-3899
ᑭᑭᑭᓄᐊᒪᐙᑲᓇᒃ	-3900
ᑳᐅᒋᑎᐯᑖᑯᓯᐙᒡ	-3901
ᑭᒋᐊᓇᒥᐁᐎᑭᒫᐎᒡ	-3902
ᐁᒫ	-3903
ᐁᓬ	-3904
ᐋᓂ	-3905
ᐐᔮ	-3906
ᐙᒻ	-3907
ᐲᒃ	-3908
ᐲᓯ	-3909
ᐸᒋ	-3910
ᐹᐸ	-3911
ᐹᒋ	-3912
ᑖᓀ	-3913
ᑫᑲ	-3914
ᑭᓀ	-3915
ᑮᐲ	-3916
ᑳᒦ	-3917
ᑴᔮ	-3918
ᒀᐱ	-3919
ᒦᓇ	-3920
ᒫᕒ	-3921
ᓅᑳ	-3922
ᓅᒃ	-3923
ᓇᐁ	-3924
ᓰᓄ	-3925
ᔨᕽ	-3926
ᐁᐊᑕ	-3927
ᐃᓂᒃ	-3928
ᐃᔅᑫ	-3929
ᐅᑌᔥ	-3930
ᐅᑎᐯ	-3931
ᐅᑖᑮ	-3932
ᐅᑲᐱ	-3933
ᐅᑲᓅ	-3934
ᐅᓇᐱ	-3935
ᐅᔅᑲ	-3936
ᐅᔑᐲ	-3937
ᐊᑑᐹ	-3938
ᐋᓈᓐ	-3939
ᐗᔭᐄ	-3940
ᐙᐅᒋ	-3941
ᐱᐅᒋ	-3942
ᐱᓀᓯ	-3943
ᐱᓬᐃ	-3944
ᐸᑭᓈ	-3945
ᐸᔭᑌ	-3946
ᐸᕒᐃ	-3947
ᐹᑭᓇ	-3948
ᑎᓯᓰ	-3949
ᑎᔭᔅ	-3950
ᑕᐗᒡ	-3951
ᑫᐴᓂ	-3952
ᑭᑑᒡ	-3953
ᑭᑕᑭ	-3954
ᑮᓂᓯ	-3955
ᑳᐱᓯ	-3956
ᑳᓂᐳ	-3957
ᒀᓇᓐ	-3958
ᒋᐃᓇ	-3959
ᒋᑎᐱ	-3960
ᒥᓂᑫ	-3961
ᒥᔅᑯ	-3962
ᒦᐅᐌ	-3963
ᒦᑳᑎ	-3964
ᒪᑲᑗ	-3965
ᓂᒪᒡ	-3966
ᓂᓂᔕ	-3967
ᓂᔥᑫ	-3968
ᓂᔥᑭ	-3969
ᓭᔮᓐ	-3970
ᓰᐗᓐ	-3971
ᔑᐗᓈ	-3972
ᔑᔮᕽ	-3973
ᕒᐃᑦ	-3974
ᐁᐐᐊᓂ	-3975
ᐁᑲᔥᑭ	-3976
ᐁᓇᓄᑮ	-3977
ᐃᑰᒥᓐ	-3978
ᐃᓂᓀᒃ	-3979
ᐃᔑᓂᑳ	-3980
ᐃᔑᓈᒻ	-3981
ᐃᔥᐸᑎ	-3982
ᐅᑎᒀᓂ	-3983
ᐅᑖᐱᓈ	-3984
ᐅᑲᐃᔑ	-3985
ᐅᒦᑭᐌ	-3986
ᐅᓈᐯᒥ	-3987
ᐊᐱᐙᒡ	-3988
ᐊᐸᓂᑯ	-3989
ᐊᓯᓃᒃ	-3990
ᐊᔮᐗᓐ	-3991
ᐊᔮᑭᓐ	-3992
ᐊᔮᔭᕽ	-3993
ᐋᓬᐃᑭ	-3994
ᐌᐱᓈᓐ	-3995
ᐎᓰᐗᒃ	-3996
ᐐᑾᑎᐗ	-3997
ᐐᒋᐋᒡ	-3998
ᐐᒌᐙᐞ	-3999
ᐐᓀᑕᐙ	-4000
ᐐᓯᓂᒡ	-4001
ᐱᓀᓂᒡ	-4002
ᐴᓀᑕᒫ	-4003
ᐸᑭᔑᕽ	-4004
ᐸᑾᒋᐱ	-4005
ᑎᑯᑳᕽ	-4006
ᑕᐗᑭᒡ	-4007
ᑕᒧᐙᓐ	-4008
ᑕᒪᐗᒃ	-4009
ᑕᔑᑖᓐ	-4010
ᑫᑑᑕᐎ	-4011
ᑭᑌᓂᒃ	-4012
ᑭᑎᑳᓇ	-4013
ᑭᑲᑴᒋ	-4014
ᑭᓇᑕᐌ	-4015
ᑮᒫᒪᐎ	-4016
ᑰᓯᐌᒃ	-4017
ᑲᑮᑖᐎ	-4018
ᑲᒥᑲᒃ	-4019
ᑲᓂᐙᕽ	-4020
ᑲᓂᑳᕽ	-4021
ᑳᐅᔥᑳ	-4022
ᑳᐸᒦᑖ	-4023
ᑳᑎᐹᒋ	-4024
ᑳᑑᑕᐎ	-4025
ᑳᑮᐊᐎ	-4026
ᑳᑮᒥᓄ	-4027
ᑳᑮᓇᑲ	-4028
ᑴᓄᓂᒡ	-4029
ᑾᔭᑾᑭ	-4030
ᒋᐅᑎᓯ	-4031
ᒋᑎᐹᒋ	-4032
ᒋᑫᐗᒃ	-4033
ᒋᑫᔦᒃ	-4034
ᒋᑲᑴᒋ	-4035
ᒌᑲᔭᐄ	-4036
ᒥᑎᑯᕽ	-4037
ᒥᑰᔮᓐ	-4038
ᒥᑲᐙᒡ	-4039
ᒥᑴᓂᒥ	-4040
ᒦᓂᑰᒻ	-4041
ᒪᐎᓈᓐ	-4042
ᒪᐎᔦᒃ	-4043
ᒪᐗᑎᓯ	-4044
ᒪᑲᒥᒃ	-4045
ᒪᒋᑫᑰ	-4046
ᓂᐸᑯᓭ	-4047
ᓂᑎᐎᓐ	-4048
ᓂᑎᔦᒃ	-4049
ᓂᑮᐊᓂ	-4050
ᓂᒫᓂᒡ	-4051
ᓃᓇᒥᓯ	-4052
ᓃᓵᓂᓯ	-4053
ᓇᓈᑯᒫ	-4054
ᓈᓈᐙᓐ	-4055
ᓈᓈᑲᒋ	-4056
ᓰᑭᓈᓐ	-4057
ᓰᕒᐃᔭ	-4058
ᕒᐃᔭᑦ	-4059
▁¦4¦	-4060
ᐁᐃᓈᐙᒡ	-4061
ᐁᐐᒌᐌᒃ	-4062
ᐁᐙᐸᑕᕽ	-4063
ᐁᑭᑐᔮᓐ	-4064
ᐁᑮᐃᔥᒀ	-4065
ᐁᒋᑳᑌᒃ	-4066
ᐃᓂᓃᑳᕽ	-4067
ᐃᓈᐸᒋᑑ	-4068
ᐅᐐᔭᐎᕽ	-4069
ᐅᑌᐃᐙᕽ	-4070
ᐅᑌᐺᑕᒧ	-4071
ᐅᑎᓯᓀᒃ	-4072
ᐅᑭᑫᑖᓐ	-4073
ᐅᒌᒪᑲᓐ	-4074
ᐅᒥᔅᑸᓂ	-4075
ᐅᓇᔓᐌᐎ	-4076
ᐆᑌᓈᑳᕽ	-4077
ᐊᑕᐙᐸᒥ	-4078
ᐊᓇᒥᐋᒃ	-4079
ᐊᔓᑕᒫᑎ	-4080
ᐋᓬᐃᑭᓵ	-4081
ᐌᐸᓂᓂᒃ	-4082
ᐌᓅᑎᓯᒡ	-4083
ᐎᓂᓈᓂᓐ	-4084
ᐐᒋᑭᐌᔨ	-4085
ᐐᓯᓂᐗᒃ	-4086
ᐙᐱᓯᓂᒃ	-4087
ᐙᐸᒥᔦᒃ	-4088
ᐯᑕᓬᐃᐁ	-4089
ᐯᔑᑯᓂᒡ	-4090
ᐱᒥᓂᔕᐙ	-4091
ᐱᔑᒀᒋᑴ	-4092
ᐲᐙᐱᑴᔮ	-4093
ᐸᑭᓯᓅᓐ	-4094
ᑌᐺᑕᒣᒃ	-4095
ᑌᐺᔦᑕᕽ	-4096
ᑑᑕᒥᓂᒡ	-4097
ᑑᑕᒧᐙᒡ	-4098
ᑕᒫᑫᓂᒡ	-4099
ᑭᑫᑕᒣᒃ	-4100
ᑭᒋᐐᑎᑫ	-4101
ᑮᐊᓂᐅᒋ	-4102
ᑮᐗᔥᑴᐲ	-4103
ᑰᐹᓯᓈᑫ	-4104
ᑲᓅᑕᒪᐙ	-4105
ᑲᓅᓂᓀᒃ	-4106
ᑳᑌᓂᑭᓐ	-4107
ᑳᓵᑭᐋᒡ	-4108
ᒋᐃᔖᐙᒡ	-4109
ᒋᐃᔖᓂᒡ	-4110
ᒋᐅᑖᐱᓇ	-4111
ᒋᐸᑭᑎᓂ	-4112
ᒋᑑᑕᒣᒃ	-4113
ᒋᒥᓄᐊᔮ	-4114
ᒥᑯᔥᑳᒋ	-4115
ᒦᑭᐌᔦᒃ	-4116
ᒫᓇᒑᓂᔑ	-4117
ᓂᑎᓀᑕᒻ	-4118
ᓃᑳᓂᓂᔕ	-4119
ᓅᑖᑯᓯᒡ	-4120
ᓈᑯᑑᐙᒡ	-4121
ᓭᑭᓯᑫᓐ	-4122
ᓯᒥᑕᓇᔑ	-4123
ᓵᐃᒪᓇᓐ	-4124
ᓵᐃᓬᐊᔅ	-4125
ᓵᑭᐃᑎᓱ	-4126
ᔂᓬᐊᒪᓐ	-4127
▁¦40¦	-4128
ᐁᐅᓃᒑᓂᓯ	-4129
ᐁᐙᐸᒫᐙᒡ	-4130
ᐁᑭᑑᒪᑲᒃ	-4131
ᐁᑮᑲᓅᓈᒡ	-4132
ᐃᔥᒀᓭᑭᓐ	-4133
ᐅᐱᒫᑎᓰᒃ	-4134
ᐅᑕᑳᓀᓯᒡ	-4135
ᐅᑮᑲᓅᓈᓐ	-4136
ᐅᔑᐲᐃᑳᑌ	-4137
ᐊᐌᒋᑫᐎᓐ	-4138
ᐊᑕᐌᑖᑯᓯ	-4139
ᐊᓈᒣᑖᑯᓯ	-4140
ᐌᓅᑕᓂᓂᒃ	-4141
ᐐᑕᓇᒥᐋᓐ	-4142
ᐯᑳᓂᓯᐙᒡ	-4143
ᐱᒫᑎᓰᔥᑳ	-4144
ᐹᕒᓇᐸᓴᓐ	-4145
ᑕᐴᓀᑕᒪᐙ	-4146
ᑫᐃᔑᐌᐸᒃ	-4147
ᑭᐐᔭᐎᐙᓐ	-4148
ᑭᑎᑫᐎᓂᓂ	-4149
ᑭᑭᔥᑳᑯᒡ	-4150
ᑮᐹᑏᓄᐗᒃ	-4151
ᑮᒋᐱᒫᑎᔅ	-4152
ᑲᓅᑕᒪᐙᒡ	-4153
ᑲᓅᑕᒫᑯᒡ	-4154
ᑳᐃᔑᑖᓂᒡ	-4155
ᑳᐃᔑᓭᓂᒃ	-4156
ᑳᐋᓇᐌᓂᒥ	-4157
ᑳᐱᒥᓂᔕᐅ	-4158
ᑳᑲᓇᐌᑕᕽ	-4159
ᒋᐐᒌᐎᑯᒡ	-4160
ᒋᑳᑌᓯᓅᓐ	-4161
ᒥᓉᑕᒧᐙᒡ	-4162
ᒥᓴᐌᑕᒫᓐ	-4163
ᓂᑖᐎᑭᓂᒡ	-4164
ᓂᑮᐙᐸᑖᓐ	-4165
ᓂᑳᑌᓂᑭᓐ	-4166
ᓬᐋᓴᕒᐊᔅ	-4167
ᔑᒫᑲᓂᔕᓐ	-4168
ᐁᐃᔑᓂᑳᓱᒡ	-4169
ᐁᑾᔭᒀᑎᓯᒡ	-4170
ᐁᔑᓈᑯᓯᐙᒡ	-4171
ᐃᔑᓂᔕᐙᑲᓐ	-4172
ᐅᐐᓱᐎᓂᓃᕽ	-4173
ᐅᑌᐺᑕᒧᐎᓂ	-4174
ᐊᓄᑮᐋᑲᓇᒃ	-4175
ᐊᓇᒥᐋᐎᓂᕽ	-4176
ᐱᑕᑯᔑᓂᓂᒡ	-4177
ᐱᑾᑕᑲᒥᑳᕽ	-4178
ᐲᐊᒪᐎᓇᑰᒃ	-4179
ᑫᓅᑕᒪᐙᐙᒡ	-4180
ᑭᐴᔔᐃᑯᐙᒃ	-4181
ᑭᑲᐐᒌᐎᑯᒻ	-4182
ᑲᒀᑕᑭᑑᐎᓐ	-4183
ᑲᒀᑕᑭᑑᔮᓐ	-4184
ᑲᓅᑕᒪᐙᐙᒡ	-4185
ᑳᐯᐸᑳᓉᐙᓇ	-4186
ᑳᐱᒫᒋᐃᓇᕽ	-4187
ᑳᑎᐯᑕᒥᓂᒡ	-4188
ᑳᑮᐃᑭᑐᓂᒡ	-4189
ᑳᑮᑭᑫᒋᑳᑌ	-4190
ᒋᐃᔑᒋᑫᔦᒃ	-4191
ᒋᑎᐱᓇᐌᐎᓯ	-4192
ᓂᑭᔐᒪᓂᑑᒻ	-4193
ᐊᓇᒥᐁᑕᐎᓐᒡ	-4194
ᐊᓇᒥᐁᑕᐙᐙᒡ	-4195
ᐸᔑᐸᐃᑫᐎᑯᒫ	-4196
ᑭᔐᐹᐗᑲᓂᓂᒃ	-4197
ᑮᐃᔑᓂᑳᓱᐗᓐ	-4198
ᑳᐅᔫᓯᒥᒥᓐᒡ	-4199
ᓃᑳᓀᑖᑯᓯᓂᒡ	-4200
ᐅᑭᒋᐅᑭᒫᒥᐙᓐ	-4201
ᑭᑭᓄᐊᒪᐙᑲᓇᐞ	-4202
ᒪᔥᑲᐎᑳᐸᐎᔦᒃ	-4203
ᑭᑫᑌᔭᐋᒥᓈᐸᓃᒃ	-4204
ᑭᒋᐊᓇᒥᐁᐎᑲᒥᑯ	-4205
ᑭᒪᒋᑑᑕᒧᐎᓂᐙᓐ	-4206
ᑭᒪᒋᑑᑕᒧᐎᓂᓈᓂᓐ	-4207
ᐃᔒ	-4208
ᐅᕒ	-4209
ᐊᑆ	-4210
ᐊᔪ	-4211
ᐋᓰ	-4212
ᐎᒃ	-4213
ᐎᕽ	-4214
ᐐᓂ	-4215
ᐗᑮ	-4216
ᐙᓄ	-4217
ᐯᑫ	-4218
ᐲᑌ	-4219
ᐲᑭ	-4220
ᑎᔭ	-4221
ᑑᒻ	-4222
ᑭᑣ	-4223
ᑮᒪ	-4224
ᑮᓯ	-4225
ᑮᔮ	-4226
ᑯᔑ	-4227
ᒀᐸ	-4228
ᒋᑌ	-4229
ᒌᐯ	-4230
ᒨᓄ	-4231
ᒪᐤ	-4232
ᒪᑏ	-4233
ᒫᕽ	-4234
ᓀᒡ	-4235
ᓅᐗ	-4236
ᓈᑐ	-4237
ᓈᒋ	-4238
ᓈᓅ	-4239
ᓯᓬ	-4240
ᓲᑭ	-4241
ᓴᑯ	-4242
ᐁᐱᓴ	-4243
ᐁᓂᐹ	-4244
ᐃᓂᐌ	-4245
ᐃᓈᐞ	-4246
ᐃᔑᔭ	-4247
ᐃᔥᑯ	-4248
ᐃᔭᓐ	-4249
ᐅᑑᓂ	-4250
ᐅᑕᐗ	-4251
ᐅᑕᒥ	-4252
ᐅᑮᐙ	-4253
ᐅᑯᒡ	-4254
ᐅᑲᑴ	-4255
ᐅᑲᔑ	-4256
ᐅᒥᑮ	-4257
ᐅᒥᓄ	-4258
ᐅᔑᓐ	-4259
ᐊᑕᐎ	-4260
ᐋᑕᐌ	-4261
ᐌᓂᔕ	-4262
ᐌᓅᒋ	-4263
ᐐᓂᓯ	-4264
ᐗᐌᔑ	-4265
ᐗᔥᑴ	-4266
ᐯᑭᔥ	-4267
ᐱᓂᑯ	-4268
ᑎᓯᒃ	-4269
ᑎᓱᒡ	-4270
ᑑᓂᔭ	-4271
ᑕᐗᕽ	-4272
ᑕᑕᑯ	-4273
ᑕᑾᑭ	-4274
ᑖᑰᓐ	-4275
ᑫᐊᓂ	-4276
ᑫᐗᒃ	-4277
ᑫᑭᒋ	-4278
ᑫᑲᐲ	-4279
ᑫᓇᓐ	-4280
ᑭᐙᐸ	-4281
ᑭᐸᐃ	-4282
ᑭᑲᐐ	-4283
ᑭᒥᓄ	-4284
ᑭᓅᓐ	-4285
ᑭᓈᐯ	-4286
ᑮᐌᓐ	-4287
ᑮᐙᐱ	-4288
ᑮᐸᐹ	-4289
ᑮᓂᑖ	-4290
ᑮᔖᒡ	-4291
ᑯᓯᒀ	-4292
ᑯᓯᒡ	-4293
ᑯᔥᑯ	-4294
ᑲᐎᓭ	-4295
ᑳᐃᓍ	-4296
ᑳᐐᒌ	-4297
ᑳᓂᕽ	-4298
ᑴᓂᒧ	-4299
ᑸᓇᐎ	-4300
ᒉᕒᐊ	-4301
ᒋᐅᒌ	-4302
ᒋᐐᒌ	-4303
ᒋᐯᑭ	-4304
ᒋᐲᔖ	-4305
ᒋᑴᑳ	-4306
ᒋᓂᐴ	-4307
ᒐᕒᐆ	-4308
ᒥᑯᓰ	-4309
ᒨᑭᒋ	-4310
ᒪᑭᓯ	-4311
ᒫᑫᓐ	-4312
ᒫᑰᒻ	-4313
ᓂᑑᔑ	-4314
ᓂᑲᑮ	-4315
ᓂᑳᒋ	-4316
ᓂᑴᓐ	-4317
ᓂᒣᒀ	-4318
ᓂᒪᒀ	-4319
ᓂᒫᒫ	-4320
ᓂᓵᒡ	-4321
ᓃᔣᒃ	-4322
ᓅᑎᓯ	-4323
ᓅᑕᒫ	-4324
ᓅᓇᓐ	-4325
ᓇᐃᓯ	-4326
ᓇᓰᓐ	-4327
ᓈᑯᔅ	-4328
ᓬᐃᔭ	-4329
ᓴᓇᑲ	-4330
ᓵᐙᒡ	-4331
ᔥᑲᐙ	-4332
ᐁᐊᓇᒥ	-4333
ᐁᑮᐸᐹ	-4334
ᐁᑮᓂᐳ	-4335
ᐁᓀᑕᕽ	-4336
ᐁᓂᓯᑐ	-4337
ᐁᔮᔦᒃ	-4338
ᐃᐃᒫᔥ	-4339
ᐃᑯᐙᐞ	-4340
ᐃᑰᐎᓐ	-4341
ᐃᑰᔭᕽ	-4342
ᐃᓀᑕᓰ	-4343
ᐃᔑᐲᐊ	-4344
ᐃᔑᒦᓈ	-4345
ᐅᑑᑌᓈ	-4346
ᐅᑮᐊᑕ	-4347
ᐅᑮᓂᓯ	-4348
ᐅᑯᓈᓐ	-4349
ᐅᒋᑭᑫ	-4350
ᐅᒌᐙᒡ	-4351
ᐊᐌᓀᔥ	-4352
ᐊᑮᐗᕽ	-4353
ᐊᓈᒥᕽ	-4354
ᐊᓯᓃᑳ	-4355
ᐊᔮᔮᕽ	-4356
ᐌᒋᑭᑫ	-4357
ᐐᒋᐃᒃ	-4358
ᐗᓯᓅᓐ	-4359
ᐱᒧᓭᒡ	-4360
ᐱᓯᑲᒧ	-4361
ᐸᑭᓈᑫ	-4362
ᐸᓯᑸᒡ	-4363
ᑌᐱᓇᒧ	-4364
ᑎᐱᑭᑮ	-4365
ᑎᓯᔮᓐ	-4366
ᑕᐎᔦᒃ	-4367
ᑕᐎᔭᓐ	-4368
ᑕᒧᐗᒡ	-4369
ᑕᓯᐗᓐ	-4370
ᑖᑯᓯᒻ	-4371
ᑭᑎᑰᒃ	-4372
ᑭᑑᑭᒫ	-4373
ᑮᐌᐗᒃ	-4374
ᑮᔗᐙᒡ	-4375
ᑰᑰᔕᐞ	-4376
ᑲᑴᑗᒡ	-4377
ᑳᐊᐲᑌ	-4378
ᑳᐊᑳᓭ	-4379
ᑳᐊᔨᔑ	-4380
ᑳᐐᑕᒪ	-4381
ᑳᐗᓂᔑ	-4382
ᑳᓂᑖᐎ	-4383
ᑳᓱᓂᒡ	-4384
ᒉᑲᐴᓐ	-4385
ᒋᐊᑕᐎ	-4386
ᒋᐋᐙᒡ	-4387
ᒋᐐᑕᒪ	-4388
ᒋᐐᒋᐃ	-4389
ᒋᐐᒌᐎ	-4390
ᒋᑎᐸᐊ	-4391
ᒋᑲᑭᑐ	-4392
ᒋᒥᓄᓭ	-4393
ᒋᓵᑭᒋ	-4394
ᒌᑫᑕᒻ	-4395
ᒣᒥᑕᑫ	-4396
ᒥᑎᑰᓐ	-4397
ᒥᓴᐌᓂ	-4398
ᒥᔅᑸᕽ	-4399
ᒦᑴᒋᐌ	-4400
ᒦᑴᒋᐎ	-4401
ᒪᔥᑭᑮ	-4402
ᒫᒑᔦᒃ	-4403
ᓂᑲᐃᔑ	-4404
ᓂᑲᐅᒋ	-4405
ᓃᐎᐙᒡ	-4406
ᓇᐃᑕᐎ	-4407
ᓈᐱᑯᕽ	-4408
ᓵᑲᐊᒻ	-4409
ᔖᐗᓄᕽ	-4410
ᔖᑯᐌᒡ	-4411
ᔥᑲᐙᓐ	-4412
ᔥᑳᓂᒡ	-4413
ᔥᑳᔦᒃ	-4414
▁¦8¦	-4415
ᐁᐃᔑᓭᒃ	-4416
ᐁᐅᓂᔑᔑ	-4417
ᐁᐊᔮᐙᒡ	-4418
ᐁᓀᑕᒣᒃ	-4419
ᐁᓀᑖᑾᒃ	-4420
ᐁᓅᑖᑯᒡ	-4421
ᐃᑴᓭᓴᓐ	-4422
ᐃᔅᑏᐱᓐ	-4423
ᐅᑕᒑᑯᕽ	-4424
ᐅᑭᒋᐊᐱ	-4425
ᐅᑮᒥᓍᐸ	-4426
ᐅᑲᑮᑖᐌ	-4427
ᐅᔑᓯᑑᒡ	-4428
ᐅᔥᑮᔑᑯ	-4429
ᐋᐃᓯᑰᓐ	-4430
ᐌᓂᔑᔑᕽ	-4431
ᐐᑕᒪᐎᓐ	-4432
ᐐᒌᐎᑰᐞ	-4433
ᐐᓯᓃᒫᒡ	-4434
ᐙᐸᑕᐃᐌ	-4435
ᐙᐸᒫᓈᓐ	-4436
ᐙᑎᓯᓂᒡ	-4437
ᐱᑕᑯᔑᕽ	-4438
ᐱᒫᒋᐃᑣ	-4439
ᐱᓬᐊᐴᓐ	-4440
ᐲᑕᕒᐊᓐ	-4441
ᐸᐲᒶᓯᓇ	-4442
ᑌᐺᐎᓂᕽ	-4443
ᑎᐯᓂᒫᒡ	-4444
ᑎᑎᐲᑭᓂ	-4445
ᑎᒫᔅᑲᔅ	-4446
ᑕᒧᐙᐸᓐ	-4447
ᑕᓱᐱᐴᓐ	-4448
ᑖᑯᓯᔭᓐ	-4449
ᑖᑾᓯᓂᓂ	-4450
ᑫᐃᔑᓭᒃ	-4451
ᑫᒦᒋᐙᒡ	-4452
ᑭᐐᓱᐎᓐ	-4453
ᑭᓯᑌᑰᓐ	-4454
ᑮᓅᑕᒨᒃ	-4455
ᑰᐹᑌᓂᒥ	-4456
ᑲᑲᓅᓈᐞ	-4457
ᑲᑴᔖᑰᓱ	-4458
ᑲᓅᓂᑰᐞ	-4459
ᑲᓇᐌᑕᕽ	-4460
ᑳᐃᓀᑕᕽ	-4461
ᑳᐅᒌᓂᒡ	-4462
ᑳᐋᐸᒋᑑ	-4463
ᑳᑕᔑᐙᒡ	-4464
ᑳᑮᐃᓂᑣ	-4465
ᑳᑮᒦᓈᒡ	-4466
ᑾᑎᓈᓂᒃ	-4467
ᒋᑲᓇᐌᓂ	-4468
ᒫᓯᑑᓂᔭ	-4469
ᓂᑎᓱᐗᒃ	-4470
ᓂᑮᒥᑲᐙ	-4471
ᓂᑲᒧᓇᓐ	-4472
ᓂᓱᑮᔑᑾ	-4473
ᓃᔥᑕᓇᔑ	-4474
ᓯᐙᓈᓂᒃ	-4475
ᓵᑭᒐᔭᐄ	-4476
ᔖᑯᐌᐙᒡ	-4477
ᐁᐃᔑᒋᑫᒡ	-4478
ᐁᐅᒌᒪᑲᒃ	-4479
ᐁᐐᒌᐎᑯᒡ	-4480
ᐁᑑᑕᒧᐙᒡ	-4481
ᐁᑮᐃᔑᒋᑫ	-4482
ᐁᑮᒥᓄᐊᔮ	-4483
ᐁᓅᑕᒥᓂᒡ	-4484
ᐁᔑᒋᑫᓂᒡ	-4485
ᐁᔑᒋᑫᔦᒃ	-4486
ᐃᓀᓂᒫᐙᒡ	-4487
ᐃᔑᒋᑫᐎᓐ	-4488
ᐃᔑᒋᑫᔭᓐ	-4489
ᐅᐸᑴᔑᑲᓂ	-4490
ᐅᑌᐺᑕᒨᓐ	-4491
ᐅᑌᔥᑲᓇᐞ	-4492
ᐅᑭᒫᐎᐎᓐ	-4493
ᐅᑮᑭᑫᑖᓐ	-4494
ᐅᑮᑭᑫᓂᒫ	-4495
ᐅᑮᑲᓅᓈᐞ	-4496
ᐅᑲᓅᑕᒫᑫ	-4497
ᐅᒫᓇᒑᓂᔑ	-4498
ᐅᓂᑖᐎᑭᑑ	-4499
ᐋᐌᒋᑲᓇᓐ	-4500
ᐙᐱᔥᑮᑭᓐ	-4501
ᐙᐸᑕᐃᐌᒡ	-4502
ᐱᒥᔑᓂᓂᒡ	-4503
ᑎᐯᑖᑯᓯᒡ	-4504
ᑎᐯᒋᑫᐎᓐ	-4505
ᑎᐯᒋᑫᓂᒡ	-4506
ᑑᐳᐎᓈᑯᕽ	-4507
ᑕᐹᑏᓄᐗᒃ	-4508
ᑕᒧᐎᓂᓈᓐ	-4509
ᑕᔑᑕᒥᓂᒡ	-4510
ᑖᓂᐗᓂᓂᒃ	-4511
ᑫᓂᔑᐗᓈᒋ	-4512
ᑫᓅᑕᒫᑯᒡ	-4513
ᑭᑲᐐᒌᐎᑯ	-4514
ᑭᓰᐲᑭᓯᑌ	-4515
ᑮᐃᔑᓈᑯᓯ	-4516
ᑮᐱᑕᑯᔑᓐ	-4517
ᑲᑮᑖᐌᑕᕽ	-4518
ᑳᐃᔑᒥᓴᐌ	-4519
ᑳᐌᓅᑎᓯᒡ	-4520
ᑳᑌᐺᑕᓯᒀ	-4521
ᑳᓃᔣᒋᐙᒡ	-4522
ᑳᓇᒪᑕᐱᒡ	-4523
ᑳᔑᐊᔮᔦᒃ	-4524
ᒋᓵᑭᒋᓂᔕ	-4525
ᒦᓂᑰᐎᓯᒡ	-4526
ᓂᑭᑫᑖᒥᓐ	-4527
ᓂᑭᑫᓂᒫᓰ	-4528
ᓂᑭᒋᓂᑭᕽ	-4529
ᓂᔑᐗᓈᒋᑑ	-4530
ᓵᑲᐊᒥᓂᒡ	-4531
ᔕᐌᑖᑯᓯᒻ	-4532
ᔕᔒᐯᑕᒣᒃ	-4533
ᐁᐃᔑᓂᑳᑌᒃ	-4534
ᐁᐙᐸᑕᒧᐙᒡ	-4535
ᐁᐱᒫᑎᓯᓂᒡ	-4536
ᐁᓀᑖᑯᓯᐙᒡ	-4537
ᐁᔑᐸᑯᓭᓂᒥ	-4538
ᐃᔅᑫᕒᐃᔭᑦ	-4539
ᐃᔑᐱᒫᑎᓯᒃ	-4540
ᐅᑕᓄᑮᐋᑲᓂ	-4541
ᐅᒥᓍᒋᒧᐎᓐ	-4542
ᐅᓂᔑᔑᓯᓅᓐ	-4543
ᐊᑯᓴᑲᐙᐙᒡ	-4544
ᐊᓇᒥᐁᑕᐙᒡ	-4545
ᐱᒥᓂᔕᐅᔑᓐ	-4546
ᐱᒫᒋᐃᑰᐎᓐ	-4547
ᑫᑎᒫᑭᓯᐙᒡ	-4548
ᑭᒋᐅᑭᒫᐎᒡ	-4549
ᑭᔐᐙᑎᓯᐎᓐ	-4550
ᑮᐌᐱᒫᑎᓯᒡ	-4551
ᑳᐃᓀᑕᒧᐙᒡ	-4552
ᑳᐃᔑᒋᑫᔮᓐ	-4553
ᑳᓂᑖᐎᑭᑭᓐ	-4554
ᒋᑎᐯᓂᒥᓀᒃ	-4555
ᒣᓬᑭᓯᑌᑰᓐ	-4556
ᒫᒪᑳᑌᑕᒨᒃ	-4557
ᓂᐱᒫᑎᓯᐎᓐ	-4558
ᓬᐋᓴᕒᐊᓴᓐ	-4559
ᔕᔒᐱᑕᒧᐙᒡ	-4560
ᐃᓀᑖᑯᓯᓰᐗᒃ	-4561
ᐅᑭᑭᔥᑭᑲᓂᓂ	-4562
ᑌᐺᔦᑕᒧᐎᓂᕽ	-4563
ᑫᑌᐃᓈᑎᓯᐎᓐ	-4564
ᑭᑎᑳᓈᑎᑯᑳᕽ	-4565
ᑭᑑᔑᐲᐊᒪᐎᓐ	-4566
ᑭᑭᓄᐃᑫᐎᓇᓐ	-4567
ᑳᐅᑕᑳᓀᓯᔭᓐ	-4568
ᑳᑎᐯᓂᒥᒥᓇᕽ	-4569
ᑳᒥᑖᔑᓃᔑᓂᒡ	-4570
ᓂᔑᐗᓈᑎᓯᐙᒡ	-4571
ᐃᔥᒀᑌᒥᐗᓂᓂᒃ	-4572
ᐅᑎᓈᑯᓂᑫᐎᓂᓂ	-4573
ᐅᑎᔑᓂᔕᐙᑲᓇᓐ	-4574
ᐅᑭᔐᐙᑎᓯᐎᓂᕽ	-4575
ᐯᕒᐊᓰᐎᓂᓂᐗᒃ	-4576
ᑭᒋᒪᓯᓇᐃᑲᓂᕽ	-4577
ᑮᐌᐱᒫᑎᓯᐃᓐᒡ	-4578
ᑳᑕᓶᐙᓇᑭᓯᓂᒡ	-4579
ᐅᑎᔑᓂᑳᓱᐎᓂᓃᕽ	-4580
ᐅᑲᓇᐎᒫᓇᒑᓂᔑᐌ	-4581
ᐸᑭᑎᓈᓱᐎᓈᐱᑯᕽ	-4582
ᐁᒥ	-4583
ᐁᓍ	-4584
ᐅᓶ	-4585
ᐊᑫ	-4586
ᐊᒸ	-4587
ᐊᔑ	-4588
ᐋᐎ	-4589
ᐋᑌ	-4590
ᐎᔑ	-4591
ᐗᔑ	-4592
ᐙᓰ	-4593
ᐱᑕ	-4594
ᐲᑑ	-4595
ᐸᐸ	-4596
ᑕᑖ	-4597
ᑕᑭ	-4598
ᑕᒀ	-4599
ᑖᐃ	-4600
ᑫᐐ	-4601
ᑭᒃ	-4602
ᑮᒨ	-4603
ᑲᑌ	-4604
ᑳᑯ	-4605
ᑾᓇ	-4606
ᒀᒃ	-4607
ᒌᑭ	-4608
ᒌᓐ	-4609
ᒑᐱ	-4610
ᒣᓇ	-4611
ᒫᑖ	-4612
ᓃᐲ	-4613
ᓃᔗ	-4614
ᓅᑖ	-4615
ᓇᑣ	-4616
ᓈᒥ	-4617
ᓴᒪ	-4618
ᓴᓇ	-4619
ᔒᔥ	-4620
ᐁᐃᓀ	-4621
ᐁᐅᓵ	-4622
ᐁᐱᓯ	-4623
ᐁᐲᑯ	-4624
ᐁᑮᓃ	-4625
ᐁᔮᒡ	-4626
ᐃᐙᒡ	-4627
ᐃᑰᒃ	-4628
ᐃᔥᑾ	-4629
ᐅᐱᑭ	-4630
ᐅᑕᔕ	-4631
ᐅᓂᐴ	-4632
ᐅᓯᑎ	-4633
ᐅᔫᓯ	-4634
ᐊᐯᔥ	-4635
ᐊᔭᔮ	-4636
ᐌᑴᓐ	-4637
ᐗᓅᓐ	-4638
ᐗᓯᑖ	-4639
ᐙᒥᓐ	-4640
ᐙᓀᓐ	-4641
ᐙᓰᓐ	-4642
ᐱᓵᓂ	-4643
ᐸᐸᑭ	-4644
ᑌᐱᓭ	-4645
ᑎᐯᔩ	-4646
ᑎᑎᐱ	-4647
ᑎᓄᐙ	-4648
ᑏᒪᔅ	-4649
ᑑᓰᒻ	-4650
ᑕᐸᓰ	-4651
ᑕᒥᒋ	-4652
ᑕᔭᕒ	-4653
ᑣᐙᒡ	-4654
ᑣᒪᔅ	-4655
ᑫᐃᓇ	-4656
ᑭᑕᑮ	-4657
ᑭᑭᔐ	-4658
ᑭᒋᒨ	-4659
ᑮᐴᓯ	-4660
ᑮᒫᒑ	-4661
ᑮᓅᑖ	-4662
ᑮᔑᑲ	-4663
ᑯᓈᐙ	-4664
ᑯᓴᑲ	-4665
ᑲᑳᒋ	-4666
ᑲᒧᐙ	-4667
ᑳᐅᓵ	-4668
ᑳᐋᑾ	-4669
ᑳᑕᓯ	-4670
ᑳᑮᒦ	-4671
ᑳᒪᑗ	-4672
ᑳᓇᓐ	-4673
ᑳᔭᔮ	-4674
ᑴᑕᑐ	-4675
ᒋᐱᓯ	-4676
ᒋᒫᔑ	-4677
ᒋᔖᑰ	-4678
ᒣᓂᑲ	-4679
ᒥᑎᑯ	-4680
ᒥᑰᒃ	-4681
ᒥᑳᓐ	-4682
ᒥᓋᑭ	-4683
ᒥᓴᑖ	-4684
ᒥᔅᑴ	-4685
ᒥᔕᑳ	-4686
ᒦᓈᒃ	-4687
ᒦᓴᐃ	-4688
ᒪᑕᐐ	-4689
ᒪᑭᑣ	-4690
ᒪᒫᑳ	-4691
ᒫᑕᐆ	-4692
ᓂᑫᒡ	-4693
ᓂᒧᒡ	-4694
ᓂᒪᕽ	-4695
ᓂᔑᓐ	-4696
ᓇᑭᑣ	-4697
ᓈᑫᒃ	-4698
ᓬᐊᐎ	-4699
ᓯᓄᐎ	-4700
ᓯᔮᑭ	-4701
ᔑᐙᒡ	-4702
ᔑᒨᓄ	-4703
ᔖᑲᓱ	-4704
ᔥᑯᑖ	-4705
ᔥᑳᒡ	-4706
ᐁᐐᐙᐸ	-4707
ᐁᐐᑎᑫ	-4708
ᐁᑑᑕᕽ	-4709
ᐁᑮᐃᓂ	-4710
ᐁᑲᑴᒋ	-4711
ᐃᑎᐸᓐ	-4712
ᐃᑯᓰᓐ	-4713
ᐃᑲᓇᓐ	-4714
ᐃᔑᓇᒧ	-4715
ᐅᑎᒀᓐ	-4716
ᐅᑑᓈᐸ	-4717
ᐅᑕᐗᑳ	-4718
ᐅᑮᐅᓀ	-4719
ᐅᑮᐙᑳ	-4720
ᐅᑮᑕᑯ	-4721
ᐅᑮᒥᓄ	-4722
ᐅᑯᓂᒡ	-4723
ᐅᑲᒀᑕ	-4724
ᐊᓄᑮᒡ	-4725
ᐊᓅᑮᒡ	-4726
ᐊᔦᒀᒥ	-4727
ᐊᔮᒥᓐ	-4728
ᐋᐸᑕᒃ	-4729
ᐋᔕᐗᐊ	-4730
ᐌᑯᓯᓯ	-4731
ᐎᓂᑯᒡ	-4732
ᐯᑕᓃᕽ	-4733
ᐱᓯᑲᓂ	-4734
ᐱᔑᒧᓐ	-4735
ᐴᒪᑲᒃ	-4736
ᐸᐹᒥᓯ	-4737
ᐸᑲᒫᔑ	-4738
ᑎᐯᑕᕽ	-4739
ᑎᑎᐯᔩ	-4740
ᑎᓱᐙᒡ	-4741
ᑕᐃᑭᑐ	-4742
ᑕᐲᑎᑫ	-4743
ᑕᒧᐙᒃ	-4744
ᑕᒪᐎᓐ	-4745
ᑕᒪᐗᒀ	-4746
ᑕᒫᐹᓐ	-4747
ᑕᓯᓂᓂ	-4748
ᑕᔑᑕᕽ	-4749
ᑕᔮᐹᑴ	-4750
ᑫᔭᐸᔅ	-4751
ᑭᑌᐃᓈ	-4752
ᑭᑕᑭᒫ	-4753
ᑭᑫᑕᒫ	-4754
ᑭᑫᑕᕽ	-4755
ᑭᑭᔐᑉ	-4756
ᑭᑮᐐᒋ	-4757
ᑭᓀᐱᑯ	-4758
ᑭᓂᓯᑐ	-4759
ᑭᓅᔐᐞ	-4760
ᑭᓰᓂᒌ	-4761
ᑭᓰᓯᐸ	-4762
ᑮᐃᓈᐱ	-4763
ᑮᐌᓂᔕ	-4764
ᑮᑭᔒᐌ	-4765
ᑮᔖᑯᐌ	-4766
ᑯᓵᐙᐞ	-4767
ᑲᓅᓂᒃ	-4768
ᑳᐃᑕᕽ	-4769
ᑳᐱᒧᓭ	-4770
ᑳᐸᐎᒃ	-4771
ᑳᑮᐃᓀ	-4772
ᑳᑮᓂᐳ	-4773
ᑳᑲᑮᐹ	-4774
ᑳᒦᒋᒡ	-4775
ᒋᐃᔑᓭ	-4776
ᒋᐐᓯᓂ	-4777
ᒋᐸᐹᒣ	-4778
ᒋᒫᒪᐎ	-4779
ᒋᓴᓱᕽ	-4780
ᒌᑾᓇᐱ	-4781
ᒥᑎᑰᒃ	-4782
ᒥᑯᐙᓐ	-4783
ᒥᓉᑕᒧ	-4784
ᒥᔑᐱᔑ	-4785
ᒪᓈᒋᐋ	-4786
ᓀᑭᐸᓐ	-4787
ᓂᑎᐗᒃ	-4788
ᓂᑕᓄᑮ	-4789
ᓂᒥᑕᓇ	-4790
ᓂᒥᑯᐙ	-4791
ᓂᓇᑰᒃ	-4792
ᓃᔣᒋᕽ	-4793
ᓇᒥᐁᑕ	-4794
ᓈᐗᔭᐄ	-4795
ᓈᑳᑌᒃ	-4796
ᓬᐄᐹᐃ	-4797
ᓱᐎᓂᕽ	-4798
ᓵᑭᐁᒀ	-4799
ᕒᐃᔭᔅ	-4800
ᐁᐅᑖᐱᓇ	-4801
ᐁᐋᐸᒋᑑ	-4802
ᐁᐐᒌᐗᒃ	-4803
ᐁᐐᒌᐗᕽ	-4804
ᐁᐱᓴᓯᕽ	-4805
ᐁᑎᓄᐎᒡ	-4806
ᐁᑕᓶᐙᓇ	-4807
ᐁᑕᔑᐙᒡ	-4808
ᐁᑭᑐᐙᒡ	-4809
ᐁᑭᑫᓂᒥ	-4810
ᐁᑮᐙᐸᑕ	-4811
ᐁᑲᑭᑐᒡ	-4812
ᐃᑎᓱᐗᒃ	-4813
ᐃᓀᑕᒨᒃ	-4814
ᐃᔑᐎᓂᒃ	-4815
ᐃᔥᒀᓭᒃ	-4816
ᐅᐐᔭᐎᓂ	-4817
ᐅᐱᒣᔭᐄ	-4818
ᐅᑕᔮᓰᓐ	-4819
ᐅᑖᑯᓰᐞ	-4820
ᐅᑖᔑᑌᔮ	-4821
ᐅᑫᑌᔭᐋ	-4822
ᐅᑮᐊᑕᐌ	-4823
ᐅᑮᒦᓈᓐ	-4824
ᐅᑮᓇᑲᓂ	-4825
ᐅᔅᑲᑎᑯ	-4826
ᐅᔑᑑᐙᒡ	-4827
ᐊᑆᓬᐊᔅ	-4828
ᐊᔮᒀᒥᓯ	-4829
ᐊᔮᓯᓄᒃ	-4830
ᐌᑕᑳᓀᓯ	-4831
ᐎᓂᓂᐗᓐ	-4832
ᐐᑕᒪᐎᒃ	-4833
ᐐᒌᐙᐙᓐ	-4834
ᐐᒌᐙᓂᒡ	-4835
ᐐᒌᐙᓈᓐ	-4836
ᐐᒌᑎᐎᓐ	-4837
ᐗᐱᐎᓂᕽ	-4838
ᐗᓇᑯᔕᐞ	-4839
ᐙᐸᒫᐙᓐ	-4840
ᐙᓭᔮᓂᒃ	-4841
ᐯᔑᑯᔦᒃ	-4842
ᐱᒧᓭᓂᒡ	-4843
ᐱᒫᑎᓯᒻ	-4844
ᐱᒫᒋᐋᐞ	-4845
ᐱᒫᒋᐋᒡ	-4846
ᐲᑎᑲᓈᒡ	-4847
ᐲᓬᐃᑭᔅ	-4848
ᐸᔥᑴᑭᓄ	-4849
ᐸᕒᐋᐸᔅ	-4850
ᐹᐱᓬᐊᓐ	-4851
ᑌᐺᑕᒨᒃ	-4852
ᑎᐯᒋᑫᒡ	-4853
ᑎᐹᑯᓈᒡ	-4854
ᑕᐃᓇᑭᒫ	-4855
ᑕᑯᔑᓅᐞ	-4856
ᑕᑯᔑᓅᓐ	-4857
ᑕᒦᓈᐗᒃ	-4858
ᑕᒧᐙᒥᓐ	-4859
ᑕᓇᓈᑯᒫ	-4860
ᑭᑎᔑᑲᓅ	-4861
ᑭᑭᓇᐙᓯ	-4862
ᑮᐗᓂᔥᑳ	-4863
ᑮᓇᒪᑕᐱ	-4864
ᑲᑴᑗᔦᒃ	-4865
ᑲᓂᐎᐗᒃ	-4866
ᑳᐃᔑᓂᑖ	-4867
ᑳᐊᑌᓂᒃ	-4868
ᑳᑎᓄᐎᒡ	-4869
ᑳᑮᐃᔖᒡ	-4870
ᑳᑮᐋᓂᑫ	-4871
ᑳᓵᑭᐊᒃ	-4872
ᒋᐃᔑᐊᔮ	-4873
ᒋᐅᓇᔓᐙ	-4874
ᒋᐲᑎᑫᒡ	-4875
ᒋᒨᔥᑭᓀ	-4876
ᒌᑫᑕᒧᒃ	-4877
ᒥᑲᒧᐙᒡ	-4878
ᒥᒋᐯᔑᑯ	-4879
ᒦᓂᑯᐙᒡ	-4880
ᒦᓂᑰᔭᕽ	-4881
ᒦᓂᑰᔮᓐ	-4882
ᒪᐎᒥᓐᒡ	-4883
ᒪᑲᓯᓂᓂ	-4884
ᒪᒋᑑᑕᒧ	-4885
ᒪᒫᒋᑾᐱ	-4886
ᓂᐗᓂᓂᒃ	-4887
ᓂᐙᐸᑖᓐ	-4888
ᓂᑎᓱᔦᒃ	-4889
ᓂᑮᐃᓈᑉ	-4890
ᓂᑳᑌᐗᓐ	-4891
ᓃᒋᑭᐌᓯ	-4892
ᓇᓇᐁᑕᒥ	-4893
ᓈᑯᓯᔮᕽ	-4894
ᓈᓴᕒᐃᑦ	-4895
ᓯᓬᐃᔑᔭ	-4896
ᓴᒣᕒᐃᔮ	-4897
ᔔᒥᓈᑎᒃ	-4898
ᔖᑰᒋᑣᒡ	-4899
ᔥᑲᐙᐙᒡ	-4900
ᔥᑲᒥᓂᒡ	-4901
ᐁᐱᒫᑎᓯᒡ	-4902
ᐁᑮᐙᐸᒫᒡ	-4903
ᐁᓀᑕᒥᓂᒡ	-4904
ᐁᓃᐸᐎᓂᒡ	-4905
ᐃᔑᓂᔕᐙᒡ	-4906
ᐅᐐᔭᐎᐙᓐ	-4907
ᐅᐙᑳᐃᑲᓐ	-4908
ᐅᑕᔓᑕᒫᑫ	-4909
ᐅᑕᔭᐄᒪᓐ	-4910
ᐅᑖᐱᓇᒪᐙ	-4911
ᐅᑮᐅᔑᑑᓐ	-4912
ᐅᑮᒫᒪᑳᓯ	-4913
ᐅᓄᐌᓂᐗᐞ	-4914
ᐅᔑᒋᑳᑌᒃ	-4915
ᐅᔑᒫᑲᓂᔒ	-4916
ᐊᑕᐌᑕᒣᒃ	-4917
ᐊᔭᐋᐎᔕᒃ	-4918
ᐯᐸᑳᓂᑮᔗ	-4919
ᐱᒥᓂᔕᐃᑫ	-4920
ᐱᓈᓯᑳᑰᓐ	-4921
ᐲᒋᓂᔕᐅᒡ	-4922
ᐹᑏᓇᑎᓅᓐ	-4923
ᑎᐱᑭᑮᓯᔅ	-4924
ᑭᐐᑕᒪᐎᓐ	-4925
ᑭᒋᐊᐱᐎᓐ	-4926
ᑭᔥᑮᔑᑰᓐ	-4927
ᑲᓇᐙᐸᒫᒡ	-4928
ᑲᔥᑭᑑᔮᓐ	-4929
ᑳᐃᓂᒥᓐᒡ	-4930
ᑳᐅᓃᒑᓂᓯ	-4931
ᑳᐅᓈᐸᒫᒡ	-4932
ᑳᐊᔮᓂᑭᓐ	-4933
ᑳᐐᒌᐎᑯᒡ	-4934
ᑳᐸᒦᑖᑫᒡ	-4935
ᑳᑮᐅᔑᐲᐊ	-4936
ᑳᑮᐊᑐᒫᒡ	-4937
ᒋᐃᔑᒋᑫᒡ	-4938
ᒋᑎᐯᓂᒥᑯ	-4939
ᒋᑑᑕᒥᓂᒡ	-4940
ᒋᑲᓂᐎᐗᒃ	-4941
ᒋᒪᔥᑲᐎᓰ	-4942
ᒋᓂᔑᐗᓈᒋ	-4943
ᒦᓂᑰᐎᓯᒻ	-4944
ᒪᑲᓯᓅᓇᓐ	-4945
ᒪᒋᑫᑰᓇᓐ	-4946
ᒪᒋᒋᑫᐎᓐ	-4947
ᒪᒥᔑᒥᑯᒡ	-4948
ᒫᑲᑕᓬᐊᐎ	-4949
ᓂᑎᔑᓂᑳᓱ	-4950
ᓂᑖᐎᑭᐙᒡ	-4951
ᓂᑖᐎᑭᓅᓐ	-4952
ᓂᑮᐙᐸᒫᒃ	-4953
ᓂᒫᓇᒑᓂᔑ	-4954
ᓂᓇᑕᐌᓂᒫ	-4955
ᓂᔑᐗᓈᑕᓐ	-4956
ᓵᐃᐸᕒᐊᔅ	-4957
ᐁᐃᔑᒋᑫᐙᒡ	-4958
ᐁᑮᓇᓈᑯᒧᒡ	-4959
ᐁᓇᒪᑕᐱᓂᒡ	-4960
ᐁᔑᓂᑳᑌᓂᒃ	-4961
ᐃᓀᑖᑯᓯᐗᒃ	-4962
ᐃᓀᑖᑯᓯᔭᓐ	-4963
ᐃᔑᐌᐱᓯᐙᒡ	-4964
ᐅᑑᑭᒫᐎᐎᓐ	-4965
ᐅᑖᔑᑌᔮᑎᑯ	-4966
ᐅᑮᓈᓯᑲᐙᓐ	-4967
ᐊᓄᑮᒪᑲᓂᓂ	-4968
ᐯᑕᓬᐃᐁᒦᕽ	-4969
ᐱᒫᑎᓰᔥᑳᑫ	-4970
ᐲᐙᐱᑴᔮᐲᓐ	-4971
ᐸᐸᑭᑌᐙᐙᒡ	-4972
ᑎᐯᑖᑯᓯᔦᒃ	-4973
ᑎᐯᓂᒥᑯᐙᒡ	-4974
ᑭᐸᑯᓭᓂᒥᓐ	-4975
ᑭᑌᑖᑯᓯᐎᓐ	-4976
ᑭᒋᐅᔑᐲᐃᑫ	-4977
ᑰᐹᓯᓈᑫᐎᓐ	-4978
ᑲᒀᑕᑭᑑᔦᒃ	-4979
ᑳᐃᔑᒋᑫᓂᒡ	-4980
ᑳᐃᔑᒋᑫᔦᒃ	-4981
ᑳᐅᓂᔑᔑᑭᓐ	-4982
ᑳᑎᐯᓂᒥᓀᒃ	-4983
ᑳᑮᐃᔑᓭᓂᒃ	-4984
ᑳᑮᐐᑕᒪᐙᒡ	-4985
ᑳᑲᔥᑭᐁᐎᓯ	-4986
ᒋᐃᔑᒋᑫᐙᒡ	-4987
ᒋᐃᔑᒋᑫᔮᓐ	-4988
ᒋᐐᑕᒫᑫᔮᓐ	-4989
ᒋᑎᐯᑕᒥᓂᒡ	-4990
ᒋᒫᒥᑲᐎᔦᒃ	-4991
ᒪᒋᑭᑎᑳᓇᓐ	-4992
ᒫᓇᒑᓂᔐᓴᓐ	-4993
ᓂᓱᑮᔑᑾᑳᒃ	-4994
ᓈᐯᐹᑲᐋᒀᓐ	-4995
ᐁᐃᔑᓂᑳᓱᓂᒡ	-4996
ᐁᑭᑭᓄᐊᒫᑫᒡ	-4997
ᐁᑮᐃᔑᓂᑳᓱᒡ	-4998
ᐅᐐᑎᑫᒫᑲᓂᓂ	-4999
ᐅᐐᑎᑫᒫᑲᓇᓐ	-5000
ᐅᑲᑲᔥᑭᑑᓰᓐ	-5001
ᐸᑭᑎᓈᓱᐎᓂᕽ	-5002
ᑭᑎᑫᐎᓂᓂᐗᐞ	-5003
ᑭᑑᒋᑎᐯᑖᑯᓯ	-5004
ᑭᑭᓄᐊᒫᑫᓂᒡ	-5005
ᑮᑕᓇᒥᐋᓈᓂᒃ	-5006
ᑮᒫᐗᒋᐃᑎᐗᒃ	-5007
ᑲᔥᑮᑎᐱᑲᓄᕽ	-5008
ᑳᐅᑕᑳᓀᓯᐙᒡ	-5009
ᑳᑲᓅᑕᒪᐙᐙᒡ	-5010
ᒋᒥᓄᐐᒌᐎᑯᒡ	-5011
ᒥᑯᔥᑳᑌᑕᑫᒃ	-5012
ᒪᒋᑑᑕᒧᐎᓂᕽ	-5013
ᒫᓯᑑᓂᔮᐗᑮᕽ	-5014
▁¦5,000¦	-5015
ᐅᑌᐺᔦᑕᒧᐎᓂᕽ	-5016
ᑳᐅᓂᔑᔑᓂᓂᑭᓐ	-5017
ᑳᑮᐃᔑᐲᐃᑫᓂᒡ	-5018
ᑭᑫᑌᔭᐋᒥᓈᐸᓃᐞ	-5019
ᑳᐅᔑᐲᐊᒪᐎᓇᑰᒃ	-5020
ᐅᑭᒋᐊᓇᒥᐁᐎᑲᒥᒃ	-5021
ᑳᐃᔑᒫᒫᐗᒋᐃᑎᓂᒡ	-5022
ᐅᑐ	-5023
ᐅᔥ	-5024
ᐊᐹ	-5025
ᐊᑶ	-5026
ᐊᓐ	-5027
ᐊᕒ	-5028
ᐋᐯ	-5029
ᐋᑯ	-5030
ᐌᒫ	-5031
ᐗᑶ	-5032
ᐗᔥ	-5033
ᐱᓇ	-5034
ᐲᐅ	-5035
ᐲᒡ	-5036
ᐸᐃ	-5037
ᐸᑑ	-5038
ᐸᔾ	-5039
ᑕᔂ	-5040
ᑖᓄ	-5041
ᑫᐎ	-5042
ᑫᓇ	-5043
ᑮᒡ	-5044
ᑮᓃ	-5045
ᑮᔐ	-5046
ᑮᔒ	-5047
ᑰᒡ	-5048
ᑰᔅ	-5049
ᑲᒣ	-5050
ᑳᑳ	-5051
ᑳᒻ	-5052
ᑳᓍ	-5053
ᒋᐅ	-5054
ᒋᒥ	-5055
ᒣᔑ	-5056
ᒥᑌ	-5057
ᒪᒉ	-5058
ᒫᑎ	-5059
ᓂᓅ	-5060
ᓇᓴ	-5061
ᓭᓂ	-5062
ᓯᐳ	-5063
ᓰᐱ	-5064
ᓰᒋ	-5065
ᓲᑫ	-5066
ᓵᐱ	-5067
ᓵᓐ	-5068
ᓵᔭ	-5069
ᔀᔑ	-5070
ᔅᑴ	-5071
ᔒᐹ	-5072
ᔥᐯ	-5073
ᔨᔥ	-5074
ᔩᒋ	-5075
ᔭᑭ	-5076
ᐁᐃᓂ	-5077
ᐁᐊᔨ	-5078
ᐁᐎᓰ	-5079
ᐁᐙᐱ	-5080
ᐁᑕᐌ	-5081
ᐁᑭᑌ	-5082
ᐁᑮᐋ	-5083
ᐁᒦᑳ	-5084
ᐁᓂᓱ	-5085
ᐃᐃᔥ	-5086
ᐃᑾᒃ	-5087
ᐃᔮᕽ	-5088
ᐅᐌᔥ	-5089
ᐅᐐᔭ	-5090
ᐅᑑᒋ	-5091
ᐅᑖᓇ	-5092
ᐅᑮᒪ	-5093
ᐅᒦᒦ	-5094
ᐅᓇᓯ	-5095
ᐅᓵᑭ	-5096
ᐊᐱᒡ	-5097
ᐊᒑᑴ	-5098
ᐊᓂᑲ	-5099
ᐊᔮᓐ	-5100
ᐋᐱᑖ	-5101
ᐋᒌᑫ	-5102
ᐋᔕᐎ	-5103
ᐋᔮᔐ	-5104
ᐌᒌᒡ	-5105
ᐎᐗᒃ	-5106
ᐎᑲᓀ	-5107
ᐎᓇᒫ	-5108
ᐎᔕᐞ	-5109
ᐎᔦᒃ	-5110
ᐗᔕᓐ	-5111
ᐙᑎᓯ	-5112
ᐙᑲᒥ	-5113
ᐙᑴᓐ	-5114
ᐙᓈᓐ	-5115
ᐯᑭᒋ	-5116
ᐯᓭᑕ	-5117
ᐯᔅᑕ	-5118
ᐱᐁᓬ	-5119
ᐱᓱᒡ	-5120
ᐲᑖᐸ	-5121
ᐲᑭᐱ	-5122
ᐲᔖᓰ	-5123
ᐴᑯᓂ	-5124
ᐸᑭᑕ	-5125
ᐸᑴᐱ	-5126
ᐸᓯᑴ	-5127
ᐹᑏᓍ	-5128
ᐹᔨᕽ	-5129
ᑌᐸᑫ	-5130
ᑎᐱᑭ	-5131
ᑎᐱᓭ	-5132
ᑎᒪᔅ	-5133
ᑎᓰᑲ	-5134
ᑎᓰᒃ	-5135
ᑑᑫᒃ	-5136
ᑕᐙᒃ	-5137
ᑕᑕᔑ	-5138
ᑕᑾᒡ	-5139
ᑕᓇᑲ	-5140
ᑕᓰᓂ	-5141
ᑕᔑᑯ	-5142
ᑖᑯᐙ	-5143
ᑭᑌᐃ	-5144
ᑭᑕᔑ	-5145
ᑭᑭᓯ	-5146
ᑭᑳᑌ	-5147
ᑭᒋᐙ	-5148
ᑭᓄᕽ	-5149
ᑭᓇᕽ	-5150
ᑭᓯᕽ	-5151
ᑭᔑᓱ	-5152
ᑭᔥᑲ	-5153
ᑮᐊᑐ	-5154
ᑮᑲᓅ	-5155
ᑮᒋᑯ	-5156
ᑮᒥᓄ	-5157
ᑮᒫᓀ	-5158
ᑮᓇᑴ	-5159
ᑮᔗᒡ	-5160
ᑮᔥᑳ	-5161
ᑯᔥᒀ	-5162
ᑰᐗᒃ	-5163
ᑰᒋᕽ	-5164
ᑰᓂᑫ	-5165
ᑲᓅᔥ	-5166
ᑳᐊᑕ	-5167
ᑳᐱᒫ	-5168
ᑳᐸᓱ	-5169
ᑳᑎᓄ	-5170
ᑳᑕᓇ	-5171
ᑳᑮᐃ	-5172
ᑳᓂᔑ	-5173
ᑾᒋᐱ	-5174
ᒋᐐᑑ	-5175
ᒋᐗᕽ	-5176
ᒋᑳᓂ	-5177
ᒑᑭᓱ	-5178
ᒥᐙᐸ	-5179
ᒥᑲᕽ	-5180
ᒥᓍᑐ	-5181
ᒥᔮᕽ	-5182
ᒦᑭᓱ	-5183
ᒦᓴᑯ	-5184
ᒪᐎᒃ	-5185
ᒪᒍᑌ	-5186
ᒪᓂᒎ	-5187
ᒪᔭᑭ	-5188
ᒫᒦᓄ	-5189
ᒫᕒᒃ	-5190
ᓂᑎᓈ	-5191
ᓂᑲᑴ	-5192
ᓂᒥᒀ	-5193
ᓂᒥᔅ	-5194
ᓂᓂᑭ	-5195
ᓂᓵᐹ	-5196
ᓃᓀᑕ	-5197
ᓄᐎᓐ	-5198
ᓄᑮᒡ	-5199
ᓇᒪᕽ	-5200
ᓈᐗᒃ	-5201
ᓈᑐᓀ	-5202
ᓈᓂᐞ	-5203
ᓬᐁᔮ	-5204
ᓬᐋᐃ	-5205
ᓯᓬᐊ	-5206
ᔂᑕᒻ	-5207
ᔖᓂᒃ	-5208
ᔥᑭᓇ	-5209
ᔮᐹᐗ	-5210
ᐁᐋᑯᓯ	-5211
ᐁᐐᐊᑕ	-5212
ᐁᐱᐅᒋ	-5213
ᐁᐹᐱᓄ	-5214
ᐁᑕᕒᐆ	-5215
ᐁᑮᐊᐸ	-5216
ᐁᑮᐊᔨ	-5217
ᐁᑮᓂᑖ	-5218
ᐁᓂᐌᒃ	-5219
ᐁᓈᓴᒥ	-5220
ᐁᔑᑭᒋ	-5221
ᐃᐌᐎᓐ	-5222
ᐃᑎᔦᒃ	-5223
ᐃᑯᓂᒡ	-5224
ᐃᓈᑯᓂ	-5225
ᐃᔑᐐᒋ	-5226
ᐃᔑᒫᒌ	-5227
ᐃᔖᐎᓐ	-5228
ᐃᔖᔮᕽ	-5229
ᐅᐸᒦᑖ	-5230
ᐅᑌᑌᓂ	-5231
ᐅᑑᑖᐱ	-5232
ᐅᑖᓂᓯ	-5233
ᐅᑮᑌᐺ	-5234
ᐅᑮᓵᑭ	-5235
ᐅᑲᐐᒋ	-5236
ᐅᒑᓂᒣ	-5237
ᐅᒥᓴᑖ	-5238
ᐅᒫᒫᓂ	-5239
ᐅᓀᑕᕽ	-5240
ᐅᓯᑎᕽ	-5241
ᐊᐱᒧᒡ	-5242
ᐊᑌᓂᒃ	-5243
ᐊᑐᒫᒡ	-5244
ᐊᑶᓬᐊ	-5245
ᐊᒑᑯᕽ	-5246
ᐊᒑᑾᒃ	-5247
ᐊᔓᑕᒪ	-5248
ᐊᔮᐎᓐ	-5249
ᐎᑲᒥᒃ	-5250
ᐎᓂᓐᒡ	-5251
ᐐᑕᒪᐤ	-5252
ᐐᑾᑎᕽ	-5253
ᐐᒌᐗᒃ	-5254
ᐗᓂᐎᓂ	-5255
ᐗᓂᔥᑴ	-5256
ᐗᓃᑫᓄ	-5257
ᐙᐸᒥᒃ	-5258
ᐙᓂᐸᓐ	-5259
ᐱᓂᔅᑴ	-5260
ᐱᓱᓂᒡ	-5261
ᐲᐊᓄᕽ	-5262
ᐲᓈᓂᒡ	-5263
ᐹᓂᒫᔥ	-5264
ᑌᐺᑕᐎ	-5265
ᑎᓯᔭᓐ	-5266
ᑑᑕᐙᒡ	-5267
ᑑᑕᒧᒃ	-5268
ᑕᐱᒫᒋ	-5269
ᑕᒪᐙᒃ	-5270
ᑕᒫᑰᓐ	-5271
ᑖᑯᐙᓐ	-5272
ᑖᑯᑑᓐ	-5273
ᑖᑯᓂᒡ	-5274
ᑖᑾᓅᓐ	-5275
ᑫᐃᑭᑐ	-5276
ᑭᐸᓃᓐ	-5277
ᑭᑎᓄᐤ	-5278
ᑭᑫᑖᒻ	-5279
ᑭᓯᐎᓐ	-5280
ᑭᓯᑌᒃ	-5281
ᑮᐃᑭᑑ	-5282
ᑮᐌᓂᒡ	-5283
ᑮᒥᓂᑴ	-5284
ᑮᔗᓂᒡ	-5285
ᑰᐹᓯᓈ	-5286
ᑰᑰᔕᒃ	-5287
ᑰᓯᓈᓐ	-5288
ᑲᒥᑰᓐ	-5289
ᑳᐃᓇᑭ	-5290
ᑳᐃᔑᐐ	-5291
ᑳᐅᔥᑭ	-5292
ᑳᒦᒋᓈ	-5293
ᑳᒦᓈᒡ	-5294
ᑳᒪᓂᑑ	-5295
ᑳᓃᑳᓃ	-5296
ᒋᐃᑭᑐ	-5297
ᒋᐃᓈᐸ	-5298
ᒋᐊᐲᒋ	-5299
ᒋᐯᔑᑴ	-5300
ᒋᐱᒧᓭ	-5301
ᒋᐴᓂᑑ	-5302
ᒋᑎᐹᑐ	-5303
ᒋᑑᓂᒡ	-5304
ᒋᑫᒋᓈ	-5305
ᒋᑮᐅᒋ	-5306
ᒋᑲᓂᕽ	-5307
ᒋᑳᒋᑎ	-5308
ᒋᑾᔭᑯ	-5309
ᒋᒦᓈᒡ	-5310
ᒋᒧᐙᒡ	-5311
ᒥᐌᐙᒡ	-5312
ᒥᑎᐸᓐ	-5313
ᒥᑖᔀᔑ	-5314
ᒥᓄᑕᔑ	-5315
ᒥᔕᑮᔮ	-5316
ᒦᔑᔑᓐ	-5317
ᒪᑲᑰᓐ	-5318
ᒪᒋᒋᑫ	-5319
ᒪᒫᒋᑯ	-5320
ᒫᐗᓱᒡ	-5321
ᓂᑎᐙᒡ	-5322
ᓂᑎᑭᑦ	-5323
ᓂᑖᓇᑮ	-5324
ᓂᑫᓂᒡ	-5325
ᓂᒥᑰᒃ	-5326
ᓂᒥᓇᕽ	-5327
ᓂᒫᓯᒃ	-5328
ᓂᒫᓰᓐ	-5329
ᓂᔕᐙᒡ	-5330
ᓃᐎᓂᒡ	-5331
ᓃᑳᓂᓯ	-5332
ᓅᑌᓭᒡ	-5333
ᓇᐌᐎᓯ	-5334
ᓇᒧᐌᒃ	-5335
ᓇᓈᑐᓀ	-5336
ᓈᓂᐗᓐ	-5337
ᓯᒥᔭᓐ	-5338
ᓰᑴᑲᓈ	-5339
ᓴᑳᐸᓱ	-5340
ᔔᓂᔮᒻ	-5341
ᔖᑴᓂᒧ	-5342
ᔥᑳᑰᐞ	-5343
ᐁᐋᐎᓂᒡ	-5344
ᐁᑕᔑᒫᒡ	-5345
ᐁᑭᑐᓂᒡ	-5346
ᐁᑮᐃᑭᑐ	-5347
ᐁᑮᐅᒌᒡ	-5348
ᐁᑮᐊᐲᒋ	-5349
ᐁᑮᓅᑕᕽ	-5350
ᐁᑲᓅᓈᒡ	-5351
ᐁᓀᑕᒪᓐ	-5352
ᐁᔑᐌᐱᓯ	-5353
ᐁᔑᑌᐺᔦ	-5354
ᐁᔮᓂᑭᓐ	-5355
ᐃᑯᓈᓂᒃ	-5356
ᐃᔑᐌᐸᓐ	-5357
ᐃᔑᒋᑫᓐ	-5358
ᐃᔥᑯᑌᓂ	-5359
ᐃᔥᒀᑌᕽ	-5360
ᐅᑎᒀᓂᕽ	-5361
ᐅᑎᓯᑯᒡ	-5362
ᐅᑕᐗᑳᓂ	-5363
ᐅᑖᐱᓇᒫ	-5364
ᐅᑮᑌᐺᔦ	-5365
ᐅᑮᓂᓯᑐ	-5366
ᐅᒦᓂᑰᓐ	-5367
ᐅᔑᐲᐊᒫ	-5368
ᐅᔥᑲᔭᐄ	-5369
ᐆᑌᓇᐌᔅ	-5370
ᐊᐌᓀᓂᑯ	-5371
ᐊᑖᐌᐙᒡ	-5372
ᐊᑯᓴᑲᐅ	-5373
ᐋᐸᒋᐋᓐ	-5374
ᐎᓂᓇᑰᒃ	-5375
ᐐᑕᒫᑫᒡ	-5376
ᐐᓂᓯᓴᓐ	-5377
ᐗᓯᑖᐎᓭ	-5378
ᐗᓯᓂᓂᒃ	-5379
ᐯᔓᓈᑾᓐ	-5380
ᐯᕒᐊᓰᓐ	-5381
ᐱᐁᓬᓯᐳ	-5382
ᐱᑾᑎᓈᕽ	-5383
ᐱᒧᓭᐙᒡ	-5384
ᐱᓯᑕᐎᒃ	-5385
ᐸᑭᑎᓂᑰ	-5386
ᐸᑭᑎᓂᒃ	-5387
ᐸᑭᑎᓈᔂ	-5388
ᐸᓯᑴᐱᓱ	-5389
ᑌᐱᓇᒫᓱ	-5390
ᑎᐯᓂᒫᐞ	-5391
ᑎᓄᐎᓂᒡ	-5392
ᑕᐃᔑᒋᑫ	-5393
ᑕᐃᔥᒀᓭ	-5394
ᑕᑯᔑᓀᒃ	-5395
ᑕᒪᐎᓈᓐ	-5396
ᑕᔑᑌᓂᒃ	-5397
ᑖᑯᓯᔮᓐ	-5398
ᑫᐅᒋᑭᑫ	-5399
ᑫᒦᓂᓐᒡ	-5400
ᑭᑑᓇᔓᐌ	-5401
ᑭᑫᓂᒥᑯ	-5402
ᑭᑭᑯᓇᔦ	-5403
ᑭᑮᓅᑖᒻ	-5404
ᑭᓀᐱᑰᓐ	-5405
ᑮᐊᓇᒥᐋ	-5406
ᑮᐲᔖᐗᓐ	-5407
ᑮᑕᑯᔑᓐ	-5408
ᑮᑕᔑᐗᒃ	-5409
ᑮᒋᑭᐌᓯ	-5410
ᑮᓂᐳᐗᒃ	-5411
ᑲᐯᑮᔑᒃ	-5412
ᑲᑲᓅᓈᒡ	-5413
ᑲᒥᑯᑳᕽ	-5414
ᑲᒥᑳᓂᒃ	-5415
ᑲᓅᓈᐙᒡ	-5416
ᑳᐃᑕᒫᓐ	-5417
ᑳᐃᓈᐙᒡ	-5418
ᑳᐃᓈᓂᒡ	-5419
ᑳᐃᔑᐐᐸ	-5420
ᑳᐅᑭᒫᑲ	-5421
ᑳᐅᒌᓂᒃ	-5422
ᑳᐅᓅᑕᒫ	-5423
ᑳᐅᔑᑑᒡ	-5424
ᑳᐐᑕᓄᑮ	-5425
ᑳᐙᐱᓯᒀ	-5426
ᑳᐙᓭᔮᒃ	-5427
ᑳᑌᐺᑕᕽ	-5428
ᑳᑌᓴᐱᒡ	-5429
ᑳᑕᔑᓂᒡ	-5430
ᑳᑕᔑᔭᕽ	-5431
ᑳᑮᐅᑌᑌ	-5432
ᑳᓅᑕᒣᒃ	-5433
ᑴᑭᑳᐸᐎ	-5434
ᒋᐃᔑᓭᒃ	-5435
ᒋᐊᑯᓴᑲ	-5436
ᒋᐋᐸᒋᑑ	-5437
ᒋᐱᒥᓂᔕ	-5438
ᒋᐸᐸᔕᔐ	-5439
ᒋᒥᒥᓐᒡ	-5440
ᒋᒥᓄᐐᒌ	-5441
ᒋᓂᑖᐎᑭ	-5442
ᒋᓰᑲᐊᑖ	-5443
ᒥᑕᑎᒨᒃ	-5444
ᒥᓉᑕᒣᒃ	-5445
ᒥᔭᒥᓐᒡ	-5446
ᒪᑎᓂᑭᕽ	-5447
ᒪᒋᒥᓴᐌ	-5448
ᓂᐱᒫᑎᓯ	-5449
ᓂᑎᓀᑕᓰ	-5450
ᓂᑎᔑᒋᑫ	-5451
ᓂᑑᔑᐲᐃ	-5452
ᓂᑕᔮᓰᓐ	-5453
ᓂᑖᐎᑭᒋ	-5454
ᓂᑖᐎᑭᓯ	-5455
ᓂᒥᓇᑰᒃ	-5456
ᓂᔥᑳᑎᓯ	-5457
ᓃᐸᐎᐗᒃ	-5458
ᓅᑕᒧᐙᒡ	-5459
ᓇᐃᓂᑏᐎ	-5460
ᓇᑲᓂᑯᒡ	-5461
ᓈᑯᑑᔦᒃ	-5462
ᓬᐁᔮᑎᓰ	-5463
ᓯᓄᑭᐸᓐ	-5464
ᓴᒥᑳᐸᐎ	-5465
ᔑᒫᑲᓂᔥ	-5466
ᔔᓂᔮᓴᒃ	-5467
ᔥᑲᒧᐙᒡ	-5468
▁¦24¦	-5469
ᐁᐹᑏᓄᓂᒡ	-5470
ᐁᑎᓄᐎᔦᒃ	-5471
ᐁᑭᑫᑕᒣᒃ	-5472
ᐁᑮᐃᓈᓂᒡ	-5473
ᐁᑮᐐᒋᐊᔮ	-5474
ᐁᑮᐙᐸᑕᕽ	-5475
ᐁᑮᒦᓂᑯᒡ	-5476
ᐁᑮᒫᒦᓈᒡ	-5477
ᐁᑮᓂᐳᓂᒡ	-5478
ᐁᑮᓂᓵᐙᒡ	-5479
ᐁᒦᑴᒋᐌᓂ	-5480
ᐁᓀᑖᑯᓯᒡ	-5481
ᐁᔑᐊᔮᓂᒃ	-5482
ᐁᔑᓯᓂᓂᒃ	-5483
ᐃᓀᑖᑯᓯᓰ	-5484
ᐃᓀᑖᑾᑭᓐ	-5485
ᐃᓇᑭᒥᑯᒡ	-5486
ᐃᓬᐃᓯᐸᑦ	-5487
ᐃᔑᑮᔗᐎᓐ	-5488
ᐅᑕᓄᑮᐎᓐ	-5489
ᐅᑭᑫᑖᓈᐙ	-5490
ᐅᑮᐃᓇᓵᐞ	-5491
ᐅᑲᔥᑭᑑᓐ	-5492
ᐅᒌᒪᑲᓅᓐ	-5493
ᐅᒌᒫᑲᓇᒃ	-5494
ᐅᒥᓍᑎᓰᔑ	-5495
ᐊᑕᐌᑕᒫᓐ	-5496
ᐊᓄᑮᒪᑲᒃ	-5497
ᐊᓈᒥᒥᓐᒡ	-5498
ᐊᔭᐋᐎᔕᐞ	-5499
ᐋᐃᓭᔭᐗᓐ	-5500
ᐐᑾᑎᐎᓂᕽ	-5501
ᐐᒌᐎᑯᓂᒡ	-5502
ᐙᐸᒥᓇᑰᒃ	-5503
ᐱᒫᑎᓯᐎᓂ	-5504
ᐸᐹᒥᓯᐎᓂ	-5505
ᐸᑭᑎᓂᑫᕽ	-5506
ᐸᑭᑎᓂᔑᓐ	-5507
ᐸᕒᐃᓯᓬᐊ	-5508
ᑌᐺᑕᒧᐙᒡ	-5509
ᑕᒧᐎᓂᓃᕽ	-5510
ᑕᒪᐎᒥᓐᒡ	-5511
ᑫᑮᐃᔑᒋᑫ	-5512
ᑭᐐᔭᐎᐙᕽ	-5513
ᑭᑌᓂᒥᑾᒃ	-5514
ᑭᑎᐯᓂᒥᑯ	-5515
ᑭᑎᒫᑭᓯᒡ	-5516
ᑭᑎᔑᒋᑫᒻ	-5517
ᑭᑭᓇᐙᐸᒥ	-5518
ᑭᑭᔥᑭᑲᓐ	-5519
ᑭᔥᑮᔑᑯᕽ	-5520
ᑮᐃᓈᑯᓂᑫ	-5521
ᑮᐌᐱᒫᑎᔅ	-5522
ᑮᒋᐱᒫᑎᓰ	-5523
ᑲᓇᐌᓂᑎᓱ	-5524
ᑲᔥᑭᑑᐸᓐ	-5525
ᑳᐅᑖᐱᓇᕽ	-5526
ᑳᐅᑴᓄᓂᒡ	-5527
ᑳᐅᒌᒪᑲᒃ	-5528
ᑳᐅᓂᔑᔑᒃ	-5529
ᑳᑮᐃᓀᑕᕽ	-5530
ᑳᑮᐃᓇᓄᑮ	-5531
ᑳᑮᓅᑕᒣᒃ	-5532
ᑳᒥᓍᑎᓰᔑ	-5533
ᒋᐃᑭᑐᐙᒡ	-5534
ᒋᐐᓯᓂᐙᒡ	-5535
ᒋᑫᐎᓂᐙᓐ	-5536
ᒋᒧᐎᓂᓈᓐ	-5537
ᒌᑫᑕᒧᐎᓐ	-5538
ᒣᓂᑲᓈᐱᒃ	-5539
ᒣᓬᑭᓯᑌᒃ	-5540
ᒥᓉᑕᒧᐎᓐ	-5541
ᒫᒪᑳᒋᒋᑫ	-5542
ᓂᑭᑫᑕᓰᓐ	-5543
ᓂᑳᐲᐊᓄᕽ	-5544
ᓂᓯᑕᐎᓇᐙ	-5545
ᓇᐃᑕᐎᑾᒃ	-5546
ᓇᑲᓂᑯᓂᒡ	-5547
ᓈᓯᑲᐙᐙᒡ	-5548
▁¦100¦	-5549
ᐁᐃᑭᑑᒪᑲᒃ	-5550
ᐁᐱᒥᔑᓂᓂᒡ	-5551
ᐁᐱᒫᒋᐃᑰᐎ	-5552
ᐁᑮᐊᓇᒥᐋᒡ	-5553
ᐁᑮᐋᐸᒋᐋᒡ	-5554
ᐁᑮᓅᑕᒧᐙᒡ	-5555
ᐁᑮᓇᓈᑯᒫᒡ	-5556
ᐁᔑᓈᑯᓯᔦᒃ	-5557
ᐃᓀᑖᑾᓯᓅᓐ	-5558
ᐃᓍᓂᑎᓱᐙᒡ	-5559
ᐃᓬᐋᐃᒐᐗᓐ	-5560
ᐃᔑᑮᔗᐎᓇᓐ	-5561
ᐃᔥᑾᒋᑲᓇᓐ	-5562
ᐅᑮᐙᐸᑖᓈᐙ	-5563
ᐅᑮᐙᐸᒥᑰᐞ	-5564
ᐅᒋᑎᐯᑖᑯᓯ	-5565
ᐅᒪᒋᑑᑕᒨᒃ	-5566
ᐅᓵᑭᐃᐌᐎᓐ	-5567
ᐅᔥᑭᔔᒥᓈᐳ	-5568
ᐊᓄᑮᐋᑲᓇᐞ	-5569
ᐊᓇᒥᐁᐗᓄᑮ	-5570
ᐊᔓᑕᒫᑫᐎᓐ	-5571
ᐐᒋᑭᐌᓯᐗᓐ	-5572
ᐱᒫᒋᐃᐌᐎᓐ	-5573
ᐱᔑᒀᑎᓯᐙᒡ	-5574
ᐸᑭᑎᓇᒪᐙᒡ	-5575
ᑌᐺᔦᓂᒥᑰᐞ	-5576
ᑎᐸᐊᒪᐙᐗᒃ	-5577
ᑎᑎᐲᑭᓂᑲᓂ	-5578
ᑭᑫᑌᐃᓈᑎᓯ	-5579
ᑭᑭᓄᐃᑫᐎᓐ	-5580
ᑭᑭᓄᐊᒪᐙᐞ	-5581
ᑭᑭᓄᐊᒫᑯᐙ	-5582
ᑭᑭᔥᑳᑯᓂᒡ	-5583
ᑭᑮᒦᓂᑯᓈᓐ	-5584
ᑮᐃᑭᑐᑯᐸᓐ	-5585
ᑮᐃᔑᒋᑫᐗᒃ	-5586
ᑮᐅᔑᐲᐃᑳᑌ	-5587
ᑮᐌᐱᒫᑎᓯᐋ	-5588
ᑮᑕᓇᒥᐋᓈᓐ	-5589
ᑲᑲᓅᓂᑎᓂᒡ	-5590
ᑲᓇᐌᓂᒫᓂᒡ	-5591
ᑲᔥᑮᑎᐱᑲᒃ	-5592
ᑳᐃᔑᒋᑫᔭᓐ	-5593
ᑳᐅᑭᔐᒪᓂᑑ	-5594
ᑳᐅᔑᐲᐃᑳᑌ	-5595
ᑳᑮᐅᓀᓂᒫᒡ	-5596
ᑳᑮᓅᑕᒧᐙᒡ	-5597
ᒋᑭᑫᑕᒧᐙᒡ	-5598
ᒋᑲᔥᑭᑑᔮᓐ	-5599
ᒦᑴᒋᐌᓂᒫᑖ	-5600
ᒦᓂᑰᐎᓯᔦᒃ	-5601
ᒫᑲᑕᓬᐊᐎᑴ	-5602
ᐃᓀᑖᑯᓯᐎᓂᕽ	-5603
ᐅᐱᒫᑎᓯᐎᓂᕽ	-5604
ᐅᑖᑲᔥᑭᑑᓰᓐ	-5605
ᐅᑮᐃᔑᓂᔕᐙᐞ	-5606
ᐯᔑᑯᑎᐸᐃᑲᓐ	-5607
ᑭᐱᔥᑭᐗᓯᑲᓐ	-5608
ᑭᑑᔑᐲᐊᒫᑰᒻ	-5609
ᑮᒫᒪᑳᑌᑕᒨᐞ	-5610
ᑮᒫᒪᑳᑌᑕᒨᒃ	-5611
ᑲᒥᑭᓯᓈᓂᐗᕽ	-5612
ᑳᐃᓇᑭᒋᑳᓱᒡ	-5613
ᑳᐃᔑᓂᑳᑌᓂᒃ	-5614
ᑳᐃᔑᓈᑯᓯᓂᒡ	-5615
ᑳᑮᐃᔑᒋᑫᐙᒡ	-5616
ᒫᒪᑳᒋᒋᑫᐎᓐ	-5617
ᐅᐱᒫᑎᓯᐎᓂᐙᓐ	-5618
ᐅᑭᑭᓄᐊᒪᐙᑲᓂ	-5619
ᐅᑭᔐᐙᑎᓯᐎᓂᓂ	-5620
ᐅᒪᔥᑲᐎᓰᐎᓂᕽ	-5621
ᐐᑕᒪᐎᓯᓅᓂᓂᒻ	-5622
ᐱᒫᒋᐃᑰᐎᓯᔦᒃ	-5623
ᐸᔑᐸᐃᑫᐎᑯᒫᓐ	-5624
ᐹᑏᓄᓈᓂᐗᓂᓂᒃ	-5625
ᑫᐃᔥᒀᓭᓯᓂᓂᒃ	-5626
ᑭᐱᒫᑎᓯᐎᓂᐙᓐ	-5627
ᑭᑎᔑᑲᓅᓂᓂᓂᒻ	-5628
ᑭᒋᐅᓇᔓᐌᐎᑭᒫ	-5629
ᑭᒪᒋᑑᑕᒧᐎᓇᓐ	-5630
ᑳᐃᔑᐲᐃᑳᑌᓂᒃ	-5631
ᐅᑌᐺᔦᑕᒧᐎᓂᐙᕽ	-5632
ᐅᑭᑭᓄᐊᒪᐙᑲᓂᓂ	-5633
ᐊᓇᒥᐁᐎᑲᒥᑯᑳᕽ	-5634
ᑭᒋᐊᓇᒥᐁᐎᑭᒫᐎ	-5635
ᑳᐃᔑᑎᐯᑖᑯᓯᐙᒡ	-5636
ᑳᑮᑮᐌᐱᒫᑎᓯᐋᒡ	-5637
ᑳᐯᐸᑳᓉᐙᓇᑭᓯᐙᒡ	-5638
ᑳᑮᑭᑫᒋᑳᑌᓯᓂᓂᒃ	-5639
ᑭᑭᓇᐙᑕᔕᑫᔑᑲᓂᐎᒡ	-5640
ᐁᔅ	-5641
ᐃᔫ	-5642
ᐅᑸ	-5643
ᐎᔐ	-5644
ᐐᓱ	-5645
ᐗᑌ	-5646
ᐗᑕ	-5647
ᐯᔭ	-5648
ᐯᕒ	-5649
ᐱᑭ	-5650
ᐱᒀ	-5651
ᐱᒣ	-5652
ᐱᓈ	-5653
ᐲᑾ	-5654
ᐸᑌ	-5655
ᐹᐹ	-5656
ᑌᐸ	-5657
ᑎᔦ	-5658
ᑕᓈ	-5659
ᑫᓰ	-5660
ᑭᑳ	-5661
ᑮᐋ	-5662
ᑮᑯ	-5663
ᑮᓈ	-5664
ᑮᔣ	-5665
ᑮᔫ	-5666
ᑯᐹ	-5667
ᑰᐎ	-5668
ᑳᐙ	-5669
ᑳᐯ	-5670
ᒀᒣ	-5671
ᒋᐹ	-5672
ᒌᓱ	-5673
ᒪᐄ	-5674
ᒫᒫ	-5675
ᒫᓰ	-5676
ᓂᑉ	-5677
ᓂᑣ	-5678
ᓂᑾ	-5679
ᓃᔡ	-5680
ᓄᒃ	-5681
ᓇᐋ	-5682
ᓇᑖ	-5683
ᓇᒡ	-5684
ᓇᔅ	-5685
ᓈᒧ	-5686
ᓈᔕ	-5687
ᓬᐁ	-5688
ᓬᐱ	-5689
ᓯᑐ	-5690
ᓴᐌ	-5691
ᓴᐱ	-5692
ᔖᐯ	-5693
ᔣᐸ	-5694
ᐁᐐᑑ	-5695
ᐁᐸᑭ	-5696
ᐁᓇᐃ	-5697
ᐁᔖᐳ	-5698
ᐃᐌᒃ	-5699
ᐃᒫᔥ	-5700
ᐃᓬᐋ	-5701
ᐃᔑᑣ	-5702
ᐃᔑᓇ	-5703
ᐃᔖᑖ	-5704
ᐃᕒᐆ	-5705
ᐅᑌᐃ	-5706
ᐅᑮᓇ	-5707
ᐅᒫᒫ	-5708
ᐅᓂᓂ	-5709
ᐅᓈᑲ	-5710
ᐅᔒᑖ	-5711
ᐊᐲᒌ	-5712
ᐊᐸᑭ	-5713
ᐊᑌᒃ	-5714
ᐊᑫᔮ	-5715
ᐊᑲᑌ	-5716
ᐊᓰᓐ	-5717
ᐋᐃᑰ	-5718
ᐋᐸᓐ	-5719
ᐋᓈᐙ	-5720
ᐌᐎᓐ	-5721
ᐎᑐᒃ	-5722
ᐎᓯᒀ	-5723
ᐐᑯᐲ	-5724
ᐙᐙᐞ	-5725
ᐙᓇᑭ	-5726
ᐙᓯᒃ	-5727
ᐲᑑᓐ	-5728
ᐲᔖᒃ	-5729
ᐴᓯᒡ	-5730
ᐸᑕᑯ	-5731
ᐸᑫᒋ	-5732
ᐸᒦᑖ	-5733
ᐹᑏᓇ	-5734
ᑎᔦᐺ	-5735
ᑑᔭᕽ	-5736
ᑕᐎᒀ	-5737
ᑕᐙᐙ	-5738
ᑕᐙᐸ	-5739
ᑕᐸᓯ	-5740
ᑕᐸᓴ	-5741
ᑕᑮᐌ	-5742
ᑕᑯᑮ	-5743
ᑕᒫᒃ	-5744
ᑕᓂᑖ	-5745
ᑕᓂᓂ	-5746
ᑕᔒᑫ	-5747
ᑖᐌᒃ	-5748
ᑖᐌᕽ	-5749
ᑖᔥᑭ	-5750
ᑖᔥᑮ	-5751
ᑣᐸᓐ	-5752
ᑫᑌᐺ	-5753
ᑫᔭᓐ	-5754
ᑭᐲᒃ	-5755
ᑭᐸᐙ	-5756
ᑭᐹᑾ	-5757
ᑭᑎᓈ	-5758
ᑭᑖᐱ	-5759
ᑭᑳᓄ	-5760
ᑭᓭᒃ	-5761
ᑭᓰᔩ	-5762
ᑮᐊᑕ	-5763
ᑮᐋᐸ	-5764
ᑮᐋᓉ	-5765
ᑮᐱᒥ	-5766
ᑮᑕᑯ	-5767
ᑯᑌᐁ	-5768
ᑰᓯᐙ	-5769
ᑲᐙᐱ	-5770
ᑲᑮᑭ	-5771
ᑳᐃᔥ	-5772
ᑳᑕᓀ	-5773
ᑳᑕᓶ	-5774
ᑳᑫᒡ	-5775
ᑳᑭᑖ	-5776
ᑳᑮᐌ	-5777
ᑳᑮᒫ	-5778
ᑳᒥᒡ	-5779
ᑳᒫᒌ	-5780
ᑳᒫᔑ	-5781
ᑳᓇᐃ	-5782
ᑳᓈᑾ	-5783
ᑳᔮᐸ	-5784
ᑴᑮᓄ	-5785
ᑴᓇᓐ	-5786
ᒀᔥᑾ	-5787
ᒋᐃᓀ	-5788
ᒋᐃᓂ	-5789
ᒋᐊᑣ	-5790
ᒋᐊᒸ	-5791
ᒋᐋᐸ	-5792
ᒋᐌᓅ	-5793
ᒋᐱᒥ	-5794
ᒋᐲᓂ	-5795
ᒋᐸᑫ	-5796
ᒋᒦᓂ	-5797
ᒋᒫᓀ	-5798
ᒋᓈᐱ	-5799
ᒑᑭᓯ	-5800
ᒥᓃᕽ	-5801
ᒥᓇᑖ	-5802
ᒥᓇᓐ	-5803
ᒥᓈᓯ	-5804
ᒥᓯᑌ	-5805
ᒦᓈᓐ	-5806
ᒦᔭᐤ	-5807
ᒧᓂᒡ	-5808
ᒪᐎᒡ	-5809
ᒪᐎᔂ	-5810
ᒪᐗᑎ	-5811
ᒪᓅᓐ	-5812
ᒫᒌᔮ	-5813
ᒫᒥᑴ	-5814
ᒫᓰᓐ	-5815
ᓂᐙᓐ	-5816
ᓂᐳᒻ	-5817
ᓂᑎᒃ	-5818
ᓂᑎᓇ	-5819
ᓂᑖᓇ	-5820
ᓂᑯᐙ	-5821
ᓂᑰᐞ	-5822
ᓂᑲᓐ	-5823
ᓃᐱᐗ	-5824
ᓃᐲᔑ	-5825
ᓃᓵᓂ	-5826
ᓅᑌᐐ	-5827
ᓅᑎᕽ	-5828
ᓅᑕᕽ	-5829
ᓇᐃᓈ	-5830
ᓇᐊᓯ	-5831
ᓇᓂᐤ	-5832
ᓇᓇᐊ	-5833
ᓈᐗᑴ	-5834
ᓈᑳᕽ	-5835
ᓭᕒᐊ	-5836
ᓯᐗᒀ	-5837
ᓯᑑᒡ	-5838
ᓯᕒᐊ	-5839
ᓱᐗᒃ	-5840
ᓴᓇᑭ	-5841
ᓵᒥᓇ	-5842
ᔑᑲᓐ	-5843
ᔑᓂᒡ	-5844
ᔥᒀᐱ	-5845
ᐁᐃᑭᑐ	-5846
ᐁᐃᔥᒀ	-5847
ᐁᐅᓵᐎ	-5848
ᐁᐊᔮᒃ	-5849
ᐁᐋᐎᒡ	-5850
ᐁᑮᑮᐌ	-5851
ᐁᑮᒥᑲ	-5852
ᐁᑮᒫᓀ	-5853
ᐁᑮᓇᐃ	-5854
ᐁᑯᑖᓀ	-5855
ᐁᒪᑲᑌ	-5856
ᐁᓃᔣᒋ	-5857
ᐁᓈᓴᒪ	-5858
ᐁᔑᓭᒃ	-5859
ᐁᔮᑴᓐ	-5860
ᐁᕒᐃᔅ	-5861
ᐃᐴᔥᑫ	-5862
ᐃᑰᔮᓐ	-5863
ᐃᑰᔮᕽ	-5864
ᐃᑴᓭᔅ	-5865
ᐃᔑᐊᐲ	-5866
ᐅᑌᑌᒫ	-5867
ᐅᑑᓂᕽ	-5868
ᐅᑮᐊᔕ	-5869
ᐅᑮᓈᑯ	-5870
ᐅᑲᐱᓯ	-5871
ᐅᑲᑭᒋ	-5872
ᐅᑲᑮᑖ	-5873
ᐅᒥᓍᐸ	-5874
ᐅᒥᓴᐌ	-5875
ᐅᒪᑲᑗ	-5876
ᐅᓂᒌᒫ	-5877
ᐅᓂᒌᓂ	-5878
ᐅᔒᒣᔑ	-5879
ᐅᕒᐆᒻ	-5880
ᐆᑌᓈᓂ	-5881
ᐊᐯᔪᒃ	-5882
ᐊᑐᒫᐞ	-5883
ᐊᑕᐙᐸ	-5884
ᐊᑯᓈᒃ	-5885
ᐊᑲᐙᑌ	-5886
ᐊᒥᓂᒡ	-5887
ᐊᓂᒥᑯ	-5888
ᐊᔮᓯᒃ	-5889
ᐋᐲᓐᒡ	-5890
ᐌᒌᐙᒡ	-5891
ᐌᓅᑎᓯ	-5892
ᐌᓰᒪᒃ	-5893
ᐎᑑᐙᒡ	-5894
ᐎᓂᓂᒡ	-5895
ᐎᓂᓃᐎ	-5896
ᐐᒋᐃᒡ	-5897
ᐐᒌᐗᒀ	-5898
ᐐᓄᓂᒡ	-5899
ᐗᑎᑾᓐ	-5900
ᐗᓂᑑᒡ	-5901
ᐗᓂᒋᑫ	-5902
ᐙᐸᒫᓐ	-5903
ᐙᓭᔥᑲ	-5904
ᐯᐸᑳᓂ	-5905
ᐯᔑᑾᒃ	-5906
ᐱᓱᑫᔑ	-5907
ᐱᔑᒀᒋ	-5908
ᐲᑕᒪᐎ	-5909
ᐲᑕᒪᐙ	-5910
ᐸᑕᑭᑑ	-5911
ᐹᐗᐃᑫ	-5912
ᑌᐱᑕᓐ	-5913
ᑎᐱᑲᓐ	-5914
ᑑᑕᐎᑣ	-5915
ᑕᐎᐙᒡ	-5916
ᑕᐎᓈᓐ	-5917
ᑕᐙᐙᐞ	-5918
ᑕᐱᓇᐎ	-5919
ᑕᒧᐙᒻ	-5920
ᑕᒪᐌᒃ	-5921
ᑕᒫᑰᒻ	-5922
ᑕᓂᐳᓰ	-5923
ᑕᔑᓂᒡ	-5924
ᑖᐎᓂᕽ	-5925
ᑖᑯᑑᒡ	-5926
ᑫᐃᔑᓭ	-5927
ᑫᐐᒌᐎ	-5928
ᑭᑌᓂᒧ	-5929
ᑭᑎᑫᒡ	-5930
ᑭᑎᑭᑦ	-5931
ᑭᑎᓇᐌ	-5932
ᑭᑕᓄᑮ	-5933
ᑭᑖᐅᒋ	-5934
ᑭᒋᐗᒋ	-5935
ᑭᒋᑮᔑ	-5936
ᑭᒋᑳᑌ	-5937
ᑭᓉᔒᔥ	-5938
ᑮᐃᑎᓱ	-5939
ᑮᐃᔑᐎ	-5940
ᑮᐃᔑᑖ	-5941
ᑮᐅᓇᐱ	-5942
ᑮᐋᐸᑕ	-5943
ᑮᐌᑎᐸ	-5944
ᑮᑌᐺᔦ	-5945
ᑮᑲᑴᑗ	-5946
ᑮᒦᑭᐌ	-5947
ᑮᒪᒋᑑ	-5948
ᑮᓃᔣᒋ	-5949
ᑯᓇᔦᒡ	-5950
ᑰᓰᒥᓐ	-5951
ᑲᐃᑲᓐ	-5952
ᑲᑮᑴᓄ	-5953
ᑲᓈᑎᒃ	-5954
ᑲᔥᑮᑮ	-5955
ᑲᕒᐄᑦ	-5956
ᑳᐅᓈᐯ	-5957
ᑳᐊᒑᑯ	-5958
ᑳᐊᒑᑴ	-5959
ᑳᐐᑎᑫ	-5960
ᑳᐙᑳᐃ	-5961
ᑳᑌᐗᓐ	-5962
ᑳᑮᐅᓇ	-5963
ᑳᑮᐊᔨ	-5964
ᑳᑯᑖᓀ	-5965
ᑳᑾᔭᒀ	-5966
ᑳᒥᓯᐌ	-5967
ᑳᓇᑲᓂ	-5968
ᑴᑳᑎᓯ	-5969
ᒋᐅᓈᑯ	-5970
ᒋᐯᔑᑯ	-5971
ᒋᐸᑭᑎ	-5972
ᒋᐸᑭᔑ	-5973
ᒋᑮᐃᔑ	-5974
ᒋᑮᐊᔮ	-5975
ᒌᑫᑕᒧ	-5976
ᒌᑭᐲᒃ	-5977
ᒎᑏᔮᐎ	-5978
ᒎᑏᔮᕽ	-5979
ᒐᕒᐆᐗ	-5980
ᒣᒀᔥᑲ	-5981
ᒥᑖᒋᕽ	-5982
ᒥᑰᓰᒻ	-5983
ᒥᓂᑴᓰ	-5984
ᒥᓉᑕᒨ	-5985
ᒦᑭᐙᓂ	-5986
ᒪᑎᐸᓐ	-5987
ᒪᓂᓂᒃ	-5988
ᒫᒌᔮᔑ	-5989
ᓂᑌᐃᓈ	-5990
ᓂᑎᐹᑐ	-5991
ᓂᑖᐸᒋ	-5992
ᓂᑮᐃᔖ	-5993
ᓂᑮᑲᑴ	-5994
ᓂᑮᓇᑲ	-5995
ᓂᑯᒋᑯ	-5996
ᓂᑳᑌᓂ	-5997
ᓂᓯᑯᒡ	-5998
ᓃᑳᓂᓰ	-5999
ᓃᔗᐙᓇ	-6000
ᓅᑖᑾᓐ	-6001
ᓇᓰᓈᐙ	-6002
ᓈᐱᔥᑭ	-6003
ᓬᐃᔅᑕ	-6004
ᓭᓴᑰᒡ	-6005
ᓰᓈᐙᓐ	-6006
ᓴᑲᐅᓈ	-6007
ᓵᐃᑕᓐ	-6008
ᓵᐃᕒᐄ	-6009
ᔑᐗᓈᒋ	-6010
ᔔᒥᓈᐴ	-6011
ᔥᑭᓀᒃ	-6012
ᔮᐸᒋᑑ	-6013
ᐁᐊᔮᓂᒃ	-6014
ᐁᐊᔮᔭᕽ	-6015
ᐁᐊᔮᔮᓐ	-6016
ᐁᐐᒋᐊᔮ	-6017
ᐁᐙᐱᔥᑭ	-6018
ᐁᑮᐅᑖᐱ	-6019
ᐁᑮᐅᓈᐸ	-6020
ᐁᑲᔥᑭᑑ	-6021
ᐁᒥᑴᓂᒥ	-6022
ᐁᔑᐊᔮᒡ	-6023
ᐃᐌᐎᓇᓐ	-6024
ᐃᑎᓱᔦᒃ	-6025
ᐃᑭᑐᐗᓐ	-6026
ᐃᓀᑕᑫᒃ	-6027
ᐃᔑᐊᔮᒡ	-6028
ᐃᔑᓈᑾᒃ	-6029
ᐃᔭᒥᓐᒡ	-6030
ᐅᐐᑕᓄᑮ	-6031
ᐅᑎᒀᓇᓐ	-6032
ᐅᑑᓂᐙᕽ	-6033
ᐅᑖᐱᓂᒃ	-6034
ᐅᑖᐱᓇᒧ	-6035
ᐅᑖᐸᒋᑑ	-6036
ᐅᑖᓂᓴᓐ	-6037
ᐅᑮᓅᑖᓐ	-6038
ᐅᑮᓈᑯᓰ	-6039
ᐅᑯᓯᓯᕽ	-6040
ᐅᑲᐙᐸᑕ	-6041
ᐅᒌᒪᑲᒃ	-6042
ᐅᒻᐺᑲᒥ	-6043
ᐅᓂᔑᔑᕽ	-6044
ᐅᓯᑎᓃᕽ	-6045
ᐊᓉᐱᐎᓐ	-6046
ᐊᔮᓂᑭᓐ	-6047
ᐋᐃᑰᓂᔭ	-6048
ᐋᑯᓯᓂᒡ	-6049
ᐋᓇᐌᒋᑫ	-6050
ᐋᕒᑎᒪᔅ	-6051
ᐌᑯᓀᓂᑯ	-6052
ᐐᑎᑫᒫᒡ	-6053
ᐐᑕᒫᑰᒻ	-6054
ᐐᒋᑭᐌᑎ	-6055
ᐐᒌᐎᑰᓐ	-6056
ᐐᒌᑎᔭᕽ	-6057
ᐐᓯᓂᐎᓈ	-6058
ᐐᓯᓂᔦᒃ	-6059
ᐐᓱᐎᓇᓐ	-6060
ᐗᑭᑕᑎᓐ	-6061
ᐙᐸᑕᐃᒃ	-6062
ᐙᐸᒥᑰᓐ	-6063
ᐯᒫᑎᓯᒡ	-6064
ᐯᔅᑕᓴᓐ	-6065
ᐱᒀᐎᑲᓀ	-6066
ᐱᒋᑯᓇᔦ	-6067
ᐱᒫᑎᓯᓰ	-6068
ᐱᓀᓯᐗᒃ	-6069
ᐱᓇᐌᐎᓯ	-6070
ᐱᔑᒀᑎᓰ	-6071
ᐲᑎᑫᓂᒡ	-6072
ᐸᑯᓭᓂᒧ	-6073
ᑆᓇᐎᒋᑫ	-6074
ᑌᐯᒋᑫᒡ	-6075
ᑕᐅᒋᒋᓭ	-6076
ᑕᐎᓂᓂᒻ	-6077
ᑕᐸᓭᓂᒧ	-6078
ᑕᑯᔑᓈᕽ	-6079
ᑕᒥᓉᑕᒻ	-6080
ᑕᒫᑫᔦᒃ	-6081
ᑕᒫᑫᔮᓐ	-6082
ᑕᒫᑯᓂᒡ	-6083
ᑕᒫᓱᔦᒃ	-6084
ᑭᐱᒫᑎᓰ	-6085
ᑭᐸᐅᑏᐎ	-6086
ᑭᑌᓂᑭᓐ	-6087
ᑭᑎᓀᑖᒻ	-6088
ᑭᑖᐃᑭᑐ	-6089
ᑭᑫᑕᓰᓐ	-6090
ᑭᓀᐱᑰᒃ	-6091
ᑭᓰᔮᐹᐗ	-6092
ᑮᐃᔥᒀᓭ	-6093
ᑮᐅᑯᓯᓯ	-6094
ᑮᐊᔮᐗᐞ	-6095
ᑮᐋᓉᑕᒻ	-6096
ᑮᑳᑎᐎᓐ	-6097
ᑮᒦᓈᐗᒃ	-6098
ᑲᐯᑎᐱᒃ	-6099
ᑲᓬᐁᔑᔭ	-6100
ᑲᔥᑭᑑᒻ	-6101
ᑳᐃᔑᑲᓅ	-6102
ᑳᐃᔑᓯᕽ	-6103
ᑳᐸᑭᑎᓇ	-6104
ᑳᑌᑭᐸᓐ	-6105
ᑳᑑᑕᐙᒡ	-6106
ᑳᑑᑕᒫᓐ	-6107
ᑳᑮᐃᓈᒡ	-6108
ᑳᑮᐱᐅᒋ	-6109
ᑳᑲᑮᑖᐌ	-6110
ᑳᑲᑴᓇᑳ	-6111
ᑳᑲᓇᐌᓂ	-6112
ᑳᓃᔑᐙᒡ	-6113
ᒋᐃᔖᔮᓐ	-6114
ᒋᐅᒋᑭᑫ	-6115
ᒋᐅᒋᑭᒋ	-6116
ᒋᐐᒌᐙᒡ	-6117
ᒋᐱᒫᑎᓯ	-6118
ᒋᐱᓈᓯᑲ	-6119
ᒋᐸᑭᑎᓇ	-6120
ᒋᑎᐱᓭᒃ	-6121
ᒋᑲᓂᐙᓐ	-6122
ᒋᑲᓇᐙᐸ	-6123
ᒋᒦᓂᓀᒃ	-6124
ᒋᒦᓂᓐᒡ	-6125
ᒋᒪᔥᑲᐎ	-6126
ᒋᓂᓵᐙᒡ	-6127
ᒌᑫᑕᒫᓐ	-6128
ᒎᑏᔮᑳᕽ	-6129
ᒥᐙᐸᓃᒃ	-6130
ᒥᑲᐎᓰᒻ	-6131
ᒥᓂᑴᐙᒡ	-6132
ᒥᓉᑖᓈᐙ	-6133
ᒥᓴᐌᑕᕽ	-6134
ᒦᓂᑰᒥᓐ	-6135
ᒦᓂᑰᔭᓐ	-6136
ᒦᓂᓇᑰᒃ	-6137
ᒦᔑᔑᓈᒻ	-6138
ᒪᑭᓯᓇᓐ	-6139
ᒪᔥᑲᐎᑭ	-6140
ᒫᑲᓂᐙᐞ	-6141
ᓂᐐᑕᓄᑮ	-6142
ᓂᐱᒫᑎᓰ	-6143
ᓂᑖᐸᒋᑑ	-6144
ᓂᒥᑲᒧᐙ	-6145
ᓂᒥᓉᑕᒻ	-6146
ᓂᒥᓯᐗᓐ	-6147
ᓂᓯᑎᐸᓐ	-6148
ᓂᔑᐌᑫᓐ	-6149
ᓃᒥᑕᓇᔑ	-6150
ᓅᑌᓭᔮᓐ	-6151
ᓇᓴᐗᔭᐄ	-6152
ᓈᑯᒋᑳᑌ	-6153
ᓈᑯᓯᐎᓐ	-6154
ᓈᑯᓯᐗᒃ	-6155
ᓈᓂᒥᑕᓇ	-6156
ᓭᑭᓯᐗᒃ	-6157
ᓯᓅᓂᓂᒻ	-6158
ᓵᐃᒪᓅᓐ	-6159
ᓵᑭᐃᑎᒃ	-6160
ᓵᑭᐃᑾᒃ	-6161
ᔔᓂᔮᐗᓯ	-6162
ᔔᓂᔮᓴᓐ	-6163
ᔕᐌᓂᒥᒃ	-6164
▁¦14¦	-6165
ᐁᐊᓇᒥᐋᒡ	-6166
ᐁᐐᒌᐎᓀᒃ	-6167
ᐁᐐᒌᐎᓇᕽ	-6168
ᐁᐹᑏᓄᐙᒡ	-6169
ᐁᑮᐃᓀᑕᕽ	-6170
ᐁᒋᑳᑌᓂᒃ	-6171
ᐁᓃᐸᐎᐙᒡ	-6172
ᐁᓇᒪᑕᐱᒡ	-6173
ᐁᓈᒋᒥᓐᒡ	-6174
ᐃᑰᐎᓯᔦᒃ	-6175
ᐃᓀᑕᒧᐎᓐ	-6176
ᐃᓇᑭᒥᓐᒡ	-6177
ᐃᓈᑯᓂᑫᒡ	-6178
ᐃᔑᐊᔮᐎᓐ	-6179
ᐃᔑᒋᑫᔮᕽ	-6180
ᐃᔑᓭᓯᓅᓐ	-6181
ᐃᔥᐯᑖᑯᓯ	-6182
ᐅᐴᑖᒋᑲᓐ	-6183
ᐅᑎᐹᑯᓂᑫ	-6184
ᐅᑖᐎᓂᓃᕽ	-6185
ᐅᑭᑭᔥᑳᑯ	-6186
ᐅᑮᐃᔑᐎᓂ	-6187
ᐅᑮᐙᐸᑖᓐ	-6188
ᐅᑮᒥᑲᐙᓐ	-6189
ᐅᑮᒦᓂᑰᓐ	-6190
ᐅᑮᓅᑖᓈᐙ	-6191
ᐅᒦᑭᐌᐎᓐ	-6192
ᐅᒪᓂᑑᒪᓐ	-6193
ᐅᓂᔥᑳᑎᓯ	-6194
ᐅᔥᑲᐱᓅᒌ	-6195
ᐊᑕᐌᑕᒪᓐ	-6196
ᐊᑫᔮᐗᑮᕽ	-6197
ᐊᑮᐗᓂᓂᒃ	-6198
ᐊᓄᑮᑕᐙᒡ	-6199
ᐊᓈᒪᑲᒥᒃ	-6200
ᐊᔓᑕᒫᑯᒡ	-6201
ᐊᔮᒀᒥᓰᑲ	-6202
ᐋᐸᒋᑑᓇᓐ	-6203
ᐋᓬᐃᑭᓵᑕ	-6204
ᐌᑖᑯᓯᔦᒃ	-6205
ᐐᑕᒫᑫᔮᓐ	-6206
ᐐᒋᐱᒫᑎᓰ	-6207
ᐙᐸᑕᒧᐗᕽ	-6208
ᐙᑳᐃᑲᓂᓂ	-6209
ᐱᒥᓂᔕᐙᒡ	-6210
ᐱᒫᑎᓯᔮᕽ	-6211
ᐱᔑᒀᑎᓯᒡ	-6212
ᐸᐸᑴᐱᓈᒡ	-6213
ᐸᐹᐱᓯᔅᑫ	-6214
ᐸᑭᑎᓂᑫᒡ	-6215
ᐸᑾᒋᐱᑑᓐ	-6216
ᑌᐺᑕᐙᐙᒡ	-6217
ᑎᐹᒋᒧᐙᒡ	-6218
ᑎᒫᔅᑲᓯᕽ	-6219
ᑕᐃᔑᐌᐸᓐ	-6220
ᑕᑌᐱᓇᒫᓱ	-6221
ᑕᑶᔑᓂᓂᒡ	-6222
ᑫᒋᓈᐅᔭᕽ	-6223
ᑭᐲᐌᓰᒪᒃ	-6224
ᑭᐸᐅᒥᓐᒡ	-6225
ᑭᑕᐱᔑᒧᓐ	-6226
ᑭᑫᑕᒧᐎᓐ	-6227
ᑭᑭᑫᓂᒥᑰ	-6228
ᑭᑭᓄᐊᒫᑎ	-6229
ᑭᑭᓇᐙᒋᐲ	-6230
ᑭᑲᐃᔑᒋᑫ	-6231
ᑭᒋᓃᐱᐗᐞ	-6232
ᑮᐌᐱᒫᑎᓰ	-6233
ᑮᑕᑯᔑᓅᒃ	-6234
ᑮᑮᔑᒋᑳᑌ	-6235
ᑮᓂᔥᑳᑎᓯ	-6236
ᑮᓭᑭᓯᐗᒃ	-6237
ᑲᓅᓂᑰᔦᒃ	-6238
ᑲᔥᑭᒋᑳᑌ	-6239
ᑳᐅᑭᒫᑲᑖ	-6240
ᑳᐅᓂᔑᔑᕽ	-6241
ᑳᐊᐯᓂᒧᓄ	-6242
ᑳᐐᓀᑖᑾᒃ	-6243
ᑳᐱᒥᓭᑭᓐ	-6244
ᑳᑎᓄᐎᐙᒡ	-6245
ᑳᑭᑭᓄᐊᒫ	-6246
ᑳᑮᐃᓈᑯᓂ	-6247
ᑳᑮᐙᐸᑕᕽ	-6248
ᑳᓅᑕᒧᐙᒡ	-6249
ᑴᑭᐱᒫᑎᓯ	-6250
ᒋᐅᒋᔥᑲᐎ	-6251
ᒋᐙᐸᑕᒣᒃ	-6252
ᒋᑎᐯᓂᒫᒡ	-6253
ᒋᑳᑌᑭᐸᓐ	-6254
ᒋᒥᓄᐊᔮᒡ	-6255
ᒋᓈᑾᓂᓂᒃ	-6256
ᒥᓴᐌᑕᒣᒃ	-6257
ᒦᑭᐌᐎᓇᓐ	-6258
ᓂᑖᐎᑭᔮᓐ	-6259
ᓂᓇᑕᐌᑖᓐ	-6260
ᓂᔑᐗᓈᑕᒃ	-6261
ᓈᑾᓯᓂᓂᒃ	-6262
ᓈᓂᐗᑭᐸᓐ	-6263
ᓬᐃᔅᑕᕒᐊ	-6264
ᓰᑲᐊᑖᓱᒡ	-6265
ᓵᑲᐊᒧᐙᒡ	-6266
ᔔᒥᓈᑎᑯᕽ	-6267
ᔕᔒᐯᑕᒧᒃ	-6268
ᐁᐊᓄᑮᑕᐗᒃ	-6269
ᐁᐊᓇᒥᐋᔮᓐ	-6270
ᐁᑮᐃᔑᐎᓈᒡ	-6271
ᐁᑮᐅᑖᐱᓈᒡ	-6272
ᐁᑮᐅᒋᒋᓭᒃ	-6273
ᐃᓀᑖᑯᓯᔦᒃ	-6274
ᐃᓂᑖᑯᓯᐎᓐ	-6275
ᐃᔥᐸᑎᓈᓂᒃ	-6276
ᐅᐱᒫᑎᓰᒥᓂ	-6277
ᐅᑑᑭᒫᒥᐙᓐ	-6278
ᐅᑕᓄᑮᐎᓂᐙ	-6279
ᐅᑭᑫᑕᓰᓈᐙ	-6280
ᐅᑭᒫᐎᐎᓇᓐ	-6281
ᐅᑮᐃᔑᐎᓈᓐ	-6282
ᐅᑮᐅᒋᒌᑾᓃ	-6283
ᐅᑮᐋᐸᒋᑑᓐ	-6284
ᐅᑮᑲᓅᓂᑰᓐ	-6285
ᐅᑮᓅᑖᑯᑑᓐ	-6286
ᐅᑮᓇᑴᑖᑰᐞ	-6287
ᐅᒌᒪᑲᓯᓅᓐ	-6288
ᐅᓂᔑᔑᓂᓂᒃ	-6289
ᐅᓃᒑᓂᓯᐙᐞ	-6290
ᐅᓈᑯᓂᑫᐙᒡ	-6291
ᐊᑕᐌᑕᒧᐙᒡ	-6292
ᐊᓇᒥᐁᐙᑎᓯ	-6293
ᐋᔕᐗᐊᒧᐙᒡ	-6294
ᐐᑾᑎᓈᓂᐗᕽ	-6295
ᐸᑭᑎᓂᑫᐎᓐ	-6296
ᑌᐺᔦᑕᒥᓂᒡ	-6297
ᑎᐯᑖᑯᓯᔭᕽ	-6298
ᑎᐸᐊᒪᐎᓐᒡ	-6299
ᑕᐴᓀᑕᒪᐙᓰ	-6300
ᑫᐃᔑᒋᑫᐙᒡ	-6301
ᑫᐴᓂᓭᓯᓄᒃ	-6302
ᑭᐐᔭᐎᓈᓂᕽ	-6303
ᑭᑭᓄᐃᑫᓂᒡ	-6304
ᑭᑭᔐᒪᓂᑑᒻ	-6305
ᑭᓇᑕᐌᓂᒥᓐ	-6306
ᑭᔕᐌᑖᑯᓯᒻ	-6307
ᑮᐃᔑᐲᐃᑳᑌ	-6308
ᑲᒀᑕᑭᐋᐗᒃ	-6309
ᑲᒀᑕᑭᑑᔮᕽ	-6310
ᑳᐃᒋᑲᓂᐎᒡ	-6311
ᑳᐃᒋᑳᑌᓂᒃ	-6312
ᑳᑌᐺᔦᓂᒥᒡ	-6313
ᑳᑎᐯᓂᒥᑯᒡ	-6314
ᑳᑮᐃᓂᒥᓐᒡ	-6315
ᑳᑾᔭᑯᓈᑾᒃ	-6316
ᑳᒫᐗᑑᓈᐙᒡ	-6317
ᑳᒫᐗᑑᓈᓂᒡ	-6318
ᑳᓇᒪᑕᐱᓂᒡ	-6319
ᒀᕒᓃᓬᐃᔭᔅ	-6320
ᒋᐃᔑᐱᒫᑎᓯ	-6321
ᒋᐃᔑᒋᑫᔭᓐ	-6322
ᒋᐙᐸᑕᒧᐙᒡ	-6323
ᒋᐱᒥᓂᔕᐅᒡ	-6324
ᒋᐱᒫᑎᓯᓂᒡ	-6325
ᒋᐸᑭᑎᓂᑎᓱ	-6326
ᒋᑭᑭᓄᐊᒫᑫ	-6327
ᒋᑳᑌᓯᓂᓂᒃ	-6328
ᒋᒥᓄᐐᒌᐙᒡ	-6329
ᒥᓍᒋᒧᐎᓂᕽ	-6330
ᒥᓴᐌᑕᒧᐙᒡ	-6331
ᒦᓂᑰᐎᓯᐎᓐ	-6332
ᒪᐎᓀᔥᑲᐙᓐ	-6333
ᒪᐗᑎᓯᓇᑰᒃ	-6334
ᒪᓯᓇᐃᑲᓇᓐ	-6335
ᒪᔥᑲᐌᑖᑯᓯ	-6336
ᓂᑕᓄᑮᐋᑲᓐ	-6337
ᓂᑯᑣᓯᒥᑕᓇ	-6338
ᓂᓯᑐᑕᒧᐎᓐ	-6339
ᓂᓯᑐᑕᓰᐗᒃ	-6340
ᓂᔥᑳᑎᓯᐎᓐ	-6341
ᓯᑌᑳᐸᐎᓂᒡ	-6342
ᓰᑲᐊᑖᑰᔦᒃ	-6343
ᓵᑭᐃᐌᐎᓂᐙ	-6344
ᔕᐌᑖᑯᓯᐎᓐ	-6345
ᐁᐃᓇᑭᒋᑳᓱᒡ	-6346
ᐁᐐᐃᔑᒋᑫᐙᒡ	-6347
ᐁᐐᑕᒪᐎᓇᑰᒃ	-6348
ᐁᑎᐯᓂᒥᓇᑰᒃ	-6349
ᐁᑮᐃᓀᑕᒧᐙᒡ	-6350
ᐁᑮᐃᔑᐎᓈᐙᒡ	-6351
ᐁᑮᐃᔑᑮᔑᑲᒃ	-6352
ᐁᑮᐃᔑᒋᑫᐙᒡ	-6353
ᐃᔑᑭᑭᓄᐊᒫᑫ	-6354
ᐅᑌᒐᓬᐃᒥᐙᓐ	-6355
ᐅᑎᓀᑕᒧᐎᓂᓂ	-6356
ᐅᑎᔑᒋᑫᐎᓂᕽ	-6357
ᐅᑰᐹᓯᓈᑫᐎᓐ	-6358
ᐅᒪᒋᑑᑕᒧᐎᓐ	-6359
ᐅᔑᒫᑲᓂᔒᒪᐞ	-6360
ᐅᔕᐌᒋᑫᐎᓂᕽ	-6361
ᐌᓂᔑᔑᓂᓂᑭᓐ	-6362
ᑭᑎᑫᐎᓂᓂᐗᒃ	-6363
ᑭᑭᑫᓂᒥᓂᓂᒻ	-6364
ᑲᒀᑕᑭᐃᑰᐎᓐ	-6365
ᑳᐃᔑᐊᑕᐌᑕᕽ	-6366
ᑳᐃᔑᓈᑾᓂᓂᒃ	-6367
ᑳᐃᔥᐯᑖᑯᓯᒡ	-6368
ᑳᐅᑯᓯᓯᒥᑯᒡ	-6369
ᑳᐅᒋᓈᓈᑲᑕᐌ	-6370
ᑳᑎᐸᐃᑫᐃᐌᒡ	-6371
ᑳᑮᐅᓈᐸᒥᑯᒡ	-6372
ᑳᑮᐙᐸᑕᒧᐙᒡ	-6373
ᑳᑮᐱᒫᑎᓯᐙᒡ	-6374
ᑳᒪᒋᑑᑕᒧᐙᒡ	-6375
ᑳᒪᔥᑲᐎᓰᓂᒡ	-6376
ᒋᓂᔑᐗᓈᑎᓯᒡ	-6377
ᒥᑯᔥᑳᑌᑕᒣᒃ	-6378
ᒪᔥᑲᐌᑖᑯᓯᒡ	-6379
ᒫᔑᒥᑕᑎᒨᓴᓐ	-6380
ᓂᑎᓀᑕᒧᐎᓂᕽ	-6381
ᓂᒫᓇᒑᓂᔑᒪᒃ	-6382
ᓃᔥᑕᓇᔑᓃᐎᓐ	-6383
ᐅᑎᐯᒋᑫᐎᓂᓃᕽ	-6384
ᐅᑎᔑᓂᑳᓱᐎᓂᕽ	-6385
ᐅᑭᑭᔥᑭᑲᓂᐙᓐ	-6386
ᐅᑭᔐᒪᓂᑑᒥᐙᓐ	-6387
ᐅᒪᒋᑑᑕᒧᐎᓂᓂ	-6388
ᐅᓇᔓᐌᐎᓂᓂᐗᐞ	-6389
ᑭᑌᐺᑕᒧᐎᓂᐙᕽ	-6390
ᑭᑌᐺᔦᑕᒧᐎᓂᐙ	-6391
ᑭᒋᐅᑳᑏᑭᓀᐱᒃ	-6392
ᑳᐃᔑᐱᒫᑎᓯᐙᒡ	-6393
ᑳᐃᔑᑯᑖᓀᑖᑾᒃ	-6394
ᑳᑭᑭᓄᐊᒫᑫᔦᒃ	-6395
ᑳᑮᐃᔑᓂᑳᑌᓂᒃ	-6396
ᑳᑲᔥᑭᐁᐎᓯᓂᒡ	-6397
ᑳᑾᔭᑯᓈᑾᓂᓂᒃ	-6398
ᑳᒥᓍᑎᓰᔑᑑᔦᒃ	-6399
ᒋᐃᔑᐊᓈᒣᑖᑯᓯ	-6400
ᒋᒪᔥᑲᐌᑕᒥᓂᒡ	-6401
ᓂᑎᔑᓂᑳᓱᐎᓂᕽ	-6402
ᓂᔑᐗᓈᑎᓯᐎᓂᕽ	-6403
ᑎᐹᑯᓂᑫᐎᑮᔑᑲᒃ	-6404
ᑭᒋᐅᔑᐲᐃᑫᐎᓂᕽ	-6405
ᑳᐃᔑᒫᐗᒋᐃᑎᐙᒡ	-6406
ᑳᑮᐃᑭᑐᓂᑯᐸᓀᓐ	-6407
ᔑᒫᑲᓂᔒᐎᑲᒥᑯᕽ	-6408
ᐅᑭᒋᐊᓇᒥᐁᐎᑲᒥᑯ	-6409
ᑳᐃᔑᑯᑖᓀᑖᑾᓂᓂᒃ	-6410
ᑳᑮᐃᔥᒀᐱᒫᑎᓯᐙᒡ	-6411
9¦	-6412
ᐁᐗ	-6413
ᐁᑏ	-6414
ᐁᒦ	-6415
ᐁᓃ	-6416
ᐃᑕ	-6417
ᐅᑴ	-6418
ᐅᒡ	-6419
ᐅᒨ	-6420
ᐊᔐ	-6421
ᐊᔭ	-6422
ᐋᕽ	-6423
ᐎᑣ	-6424
ᐎᒻ	-6425
ᐙᑦ	-6426
ᐯᑲ	-6427
ᐯᒋ	-6428
ᐱᒧ	-6429
ᐲᐸ	-6430
ᐲᑴ	-6431
ᐸᐙ	-6432
ᑌᓄ	-6433
ᑎᒀ	-6434
ᑎᒦ	-6435
ᑕᐲ	-6436
ᑕᓀ	-6437
ᑖᐹ	-6438
ᑣᒪ	-6439
ᑫᐃ	-6440
ᑭᐙ	-6441
ᑮᑫ	-6442
ᑮᓀ	-6443
ᑯᒃ	-6444
ᑳᐄ	-6445
ᑳᑭ	-6446
ᑳᕒ	-6447
ᑴᔭ	-6448
ᑾᐱ	-6449
ᑾᒡ	-6450
ᑾᓀ	-6451
ᒉᐃ	-6452
ᒉᑭ	-6453
ᒋᐴ	-6454
ᒎᒎ	-6455
ᒐᑭ	-6456
ᒐᕒ	-6457
ᒑᔓ	-6458
ᒥᒀ	-6459
ᒥᔭ	-6460
ᒨᐞ	-6461
ᒨᑮ	-6462
ᒨᓂ	-6463
ᒪᓅ	-6464
ᓀᐳ	-6465
ᓀᑖ	-6466
ᓂᑰ	-6467
ᓂᔥ	-6468
ᓃᓯ	-6469
ᓃᔅ	-6470
ᓅᐌ	-6471
ᓅᑎ	-6472
ᓈᓄ	-6473
ᓈᓰ	-6474
ᓈᔑ	-6475
ᓈᔒ	-6476
ᓉᔑ	-6477
ᓰᐲ	-6478
ᓱᓰ	-6479
ᓴᐲ	-6480
ᓵᑮ	-6481
ᔅᑯ	-6482
ᔑᐱ	-6483
ᔑᑌ	-6484
ᔒᑯ	-6485
ᔔᒥ	-6486
ᔮᑯ	-6487
60¦	-6488
ᐁᐃᓍ	-6489
ᐁᐅᑎ	-6490
ᐁᐊᔓ	-6491
ᐁᐊᔕ	-6492
ᐁᐊᔫ	-6493
ᐁᐐᓈ	-6494
ᐁᐯᑭ	-6495
ᐁᐯᔓ	-6496
ᐁᑎᐱ	-6497
ᐁᑏᔅ	-6498
ᐁᑐᓀ	-6499
ᐁᑮᐌ	-6500
ᐁᑮᐙ	-6501
ᐁᑮᐲ	-6502
ᐁᑮᒦ	-6503
ᐁᒥᓍ	-6504
ᐁᒥᔅ	-6505
ᐁᓈᑯ	-6506
ᐁᔑᐐ	-6507
ᐃᑭᐌ	-6508
ᐃᑭᑦ	-6509
ᐃᑯᒃ	-6510
ᐃᓂᔥ	-6511
ᐃᓈᑯ	-6512
ᐃᔑᐎ	-6513
ᐅᐐᔮ	-6514
ᐅᐱᓂ	-6515
ᐅᑕᐃ	-6516
ᐅᑮᐌ	-6517
ᐅᑮᒫ	-6518
ᐅᑲᑑ	-6519
ᐅᒑᓂ	-6520
ᐅᓈᐱ	-6521
ᐅᓯᑯ	-6522
ᐅᓵᒣ	-6523
ᐅᔒᑫ	-6524
ᐅᕒᐋ	-6525
ᐊᐌᔥ	-6526
ᐊᐱᒧ	-6527
ᐊᑭᒡ	-6528
ᐊᑳᓭ	-6529
ᐊᒦᐗ	-6530
ᐊᓄᑳ	-6531
ᐊᔑᒡ	-6532
ᐋᐹᐱ	-6533
ᐋᑎᓐ	-6534
ᐌᑯᑐ	-6535
ᐎᓯᑌ	-6536
ᐐᐎᓂ	-6537
ᐐᑲᑴ	-6538
ᐗᑭᑣ	-6539
ᐗᑳᒻ	-6540
ᐗᑴᓐ	-6541
ᐗᒌᕽ	-6542
ᐙᓯᒀ	-6543
ᐯᓬᐊ	-6544
ᐱᑑᒡ	-6545
ᐱᔑᔑ	-6546
ᐲᑲᐊ	-6547
ᐸᐃᑎ	-6548
ᐸᑯᓀ	-6549
ᐸᑳᓀ	-6550
ᐸᓃᓐ	-6551
ᐹᐱᓀ	-6552
ᑌᐱᒫ	-6553
ᑌᓄᐎ	-6554
ᑎᐙᓐ	-6555
ᑎᑭᑲ	-6556
ᑎᒪᑏ	-6557
ᑎᓯᒀ	-6558
ᑎᓰᑴ	-6559
ᑎᔮᓐ	-6560
ᑑᑕᒻ	-6561
ᑕᐊᔮ	-6562
ᑕᐎᓯ	-6563
ᑕᐗᑣ	-6564
ᑕᐴᓂ	-6565
ᑕᒥᓄ	-6566
ᑖᐎᓐ	-6567
ᑖᑰᒃ	-6568
ᑖᔦᒃ	-6569
ᑫᐃᓂ	-6570
ᑫᐃᔖ	-6571
ᑫᐅᑎ	-6572
ᑭᐐᐎ	-6573
ᑭᐸᐹ	-6574
ᑭᑑᒌ	-6575
ᑭᑖᓇ	-6576
ᑭᑖᓱ	-6577
ᑭᒥᒋ	-6578
ᑭᓈᓐ	-6579
ᑭᔑᐹ	-6580
ᑮᐃᓂ	-6581
ᑮᐊᐱ	-6582
ᑮᐌᓄ	-6583
ᑮᑭᐸ	-6584
ᑮᑲᑴ	-6585
ᑮᒑᑭ	-6586
ᑮᒥᓉ	-6587
ᑮᒪᒋ	-6588
ᑮᒫᒋ	-6589
ᑮᔗᕽ	-6590
ᑯᓀᒃ	-6591
ᑯᔭᕽ	-6592
ᑲᓄᑮ	-6593
ᑲᔦᔑ	-6594
ᑳᐅᓀ	-6595
ᑳᐅᓇ	-6596
ᑳᐊᐱ	-6597
ᑳᐊᑐ	-6598
ᑳᐐᒦ	-6599
ᑳᐗᑫ	-6600
ᑳᐯᑳ	-6601
ᑳᐴᓀ	-6602
ᑳᐴᔔ	-6603
ᑳᑕᑯ	-6604
ᑳᑭᑕ	-6605
ᑳᑮᑳ	-6606
ᑳᒪᓈ	-6607
ᑳᒪᔮ	-6608
ᑳᓀᔅ	-6609
ᑳᓴᓰ	-6610
ᑾᔮᑕ	-6611
ᒀᐱᓀ	-6612
ᒀᐸᓐ	-6613
ᒀᓀᒡ	-6614
ᒋᐅᔑ	-6615
ᒋᐊᑐ	-6616
ᒋᐋᐞ	-6617
ᒋᐌᐱ	-6618
ᒋᑑᒃ	-6619
ᒋᑫᒃ	-6620
ᒋᑭᑭ	-6621
ᒋᒋᑫ	-6622
ᒋᓂᓵ	-6623
ᒋᓈᑲ	-6624
ᒋᓵᑭ	-6625
ᒣᓂᔐ	-6626
ᒥᑲᐎ	-6627
ᒥᓂᔅ	-6628
ᒥᓈᑯ	-6629
ᒥᓰᒻ	-6630
ᒥᔑᒃ	-6631
ᒦᑭᐙ	-6632
ᒦᒋᒡ	-6633
ᒦᒋᓐ	-6634
ᒦᓈᐙ	-6635
ᒧᑭᓐ	-6636
ᒧᓐᒡ	-6637
ᒨᑯᓀ	-6638
ᒪᑲᒥ	-6639
ᒪᑲᓄ	-6640
ᒪᒋᐌ	-6641
ᒫᑎᔪ	-6642
ᒫᒌᐸ	-6643
ᒫᒑᑖ	-6644
ᓀᐗᒋ	-6645
ᓀᓂᒡ	-6646
ᓀᓯᓂ	-6647
ᓀᓴᓐ	-6648
ᓂᑎᐯ	-6649
ᓂᑕᑯ	-6650
ᓂᑖᑮ	-6651
ᓂᑯᓯ	-6652
ᓂᑯᓰ	-6653
ᓂᑰᓐ	-6654
ᓂᒥᓄ	-6655
ᓂᒥᓈ	-6656
ᓂᒫᓰ	-6657
ᓂᓂᓯ	-6658
ᓂᓵᑭ	-6659
ᓂᔕᐊ	-6660
ᓃᐙᒃ	-6661
ᓃᓯᐌ	-6662
ᓅᑕᐎ	-6663
ᓇᐊᕽ	-6664
ᓇᐎᒻ	-6665
ᓇᑭᔒ	-6666
ᓇᑲᔥ	-6667
ᓇᓈᐱ	-6668
ᓇᓈᑐ	-6669
ᓈᐱᒡ	-6670
ᓈᓈᓐ	-6671
ᓬᐃᑕ	-6672
ᓬᐄᔭ	-6673
ᓬᐆᓐ	-6674
ᓭᔮᕽ	-6675
ᓰᓈᓐ	-6676
ᓵᐃᑕ	-6677
ᓵᑳᑌ	-6678
ᔑᐌᒡ	-6679
ᔑᒥᓐ	-6680
ᔑᔦᒃ	-6681
ᔓᓐᒡ	-6682
ᔕᑳᒣ	-6683
ᔥᑲᑌ	-6684
ᔥᑲᓐ	-6685
ᔥᑳᓐ	-6686
ᕒᐃᕽ	-6687
ᐁᐊᐲᒋ	-6688
ᐁᐊᑕᐌ	-6689
ᐁᐯᔑᑯ	-6690
ᐁᐱᐊᑕ	-6691
ᐁᑎᐹᒋ	-6692
ᐁᑭᑐᕽ	-6693
ᐁᑮᐃᓀ	-6694
ᐁᑮᐅᑎ	-6695
ᐁᑮᐅᑕ	-6696
ᐁᑮᐊᔕ	-6697
ᐁᑮᐱᒥ	-6698
ᐁᑮᑌᐱ	-6699
ᐁᑮᑭᑫ	-6700
ᐁᑮᒪᒋ	-6701
ᐁᑮᓂᓯ	-6702
ᐁᑲᑮᑴ	-6703
ᐁᑾᔭᑯ	-6704
ᐁᑾᔭᑴ	-6705
ᐁᒫᒪᐎ	-6706
ᐁᓇᓈᑕ	-6707
ᐁᔑᓯᕽ	-6708
ᐁᔮᓂᒃ	-6709
ᐃᐌᔦᒃ	-6710
ᐃᑎᓱᓐ	-6711
ᐃᑕᓬᐃ	-6712
ᐃᑣᐸᓐ	-6713
ᐃᑯᐸᓐ	-6714
ᐃᑯᓈᐙ	-6715
ᐃᑯᔭᕽ	-6716
ᐃᓈᐗᒃ	-6717
ᐃᔑᑌᐺ	-6718
ᐃᔑᓇᑲ	-6719
ᐅᐐᒌᐙ	-6720
ᐅᑎᑖᓐ	-6721
ᐅᑕᒥᓄ	-6722
ᐅᑭᑎᑫ	-6723
ᐅᑮᐅᑎ	-6724
ᐅᑮᓂᓵ	-6725
ᐅᑲᐊᔮ	-6726
ᐅᑲᓂᓯ	-6727
ᐅᒑᓂᒥ	-6728
ᐅᓀᑖᓐ	-6729
ᐅᓂᐴᒃ	-6730
ᐅᓂᒌᓐ	-6731
ᐅᓂᓐᒡ	-6732
ᐅᓈᑯᓯ	-6733
ᐅᓯᑕᓐ	-6734
ᐊᐱᐎᓐ	-6735
ᐊᑐᒥᒃ	-6736
ᐊᑖᐌᒡ	-6737
ᐊᑲᓇᐞ	-6738
ᐊᑳᓰᓄ	-6739
ᐊᒑᑯᐎ	-6740
ᐊᒦᐗᒃ	-6741
ᐊᒦᐗᓐ	-6742
ᐊᒪᐙᐞ	-6743
ᐋᔮᓂᑫ	-6744
ᐌᐱᓇᓐ	-6745
ᐌᐸᑲᓈ	-6746
ᐌᓂᒥᒃ	-6747
ᐌᓂᒫᓐ	-6748
ᐎᓂᔦᒃ	-6749
ᐐᑕᐱᒫ	-6750
ᐐᑕᑫᓐ	-6751
ᐐᒋᐊᔮ	-6752
ᐐᓯᓂᓰ	-6753
ᐐᓴᑳᐱ	-6754
ᐗᐱᓂᒡ	-6755
ᐗᓂᑮᔗ	-6756
ᐗᓯᓄᒃ	-6757
ᐙᐱᓯᒀ	-6758
ᐙᐱᔥᑳ	-6759
ᐙᑳᔮᐱ	-6760
ᐙᓈᓂᒃ	-6761
ᐯᔅᑕᔅ	-6762
ᐱᑮᐌᓄ	-6763
ᐱᑾᑎᓈ	-6764
ᐱᒥᑌᓂ	-6765
ᐱᓯᑌᐱ	-6766
ᐱᓵᑲᐊ	-6767
ᐱᕒᐄᔭ	-6768
ᐲᑯᓇᕽ	-6769
ᐲᑲᐊᔐ	-6770
ᐸᑭᑌᐙ	-6771
ᐹᐱᓬᐊ	-6772
ᑌᐱᓇᕽ	-6773
ᑌᐱᓈᓐ	-6774
ᑌᓴᐱᒡ	-6775
ᑎᐎᓇᓐ	-6776
ᑎᒪᑏᓐ	-6777
ᑎᓄᐎᓰ	-6778
ᑑᑕᒪᓐ	-6779
ᑑᑖᓇᓐ	-6780
ᑑᓰᒥᓐ	-6781
ᑕᐙᓈᓐ	-6782
ᑕᑲᒀᑕ	-6783
ᑕᑶᔑᓐ	-6784
ᑕᒪᐎᒡ	-6785
ᑕᒪᐗᒡ	-6786
ᑕᓇᓄᑮ	-6787
ᑕᔑᑌᒃ	-6788
ᑖᑎᐙᒡ	-6789
ᑖᑯᓯᒃ	-6790
ᑖᕒᓴᔅ	-6791
ᑣᒪᓲᓐ	-6792
ᑫᐃᓈᒋ	-6793
ᑫᒪᑲᓐ	-6794
ᑭᐸᐅᑰ	-6795
ᑭᑌᑭᓐ	-6796
ᑭᑌᓂᒫ	-6797
ᑭᑎᒫᑫ	-6798
ᑭᑎᓄᐎ	-6799
ᑭᑎᓱᒡ	-6800
ᑭᑑᑌᓈ	-6801
ᑭᑭᓄᐃ	-6802
ᑭᑲᐃᓈ	-6803
ᑭᑲᑕᔑ	-6804
ᑭᑲᑭᒋ	-6805
ᑭᑲᑳᓱ	-6806
ᑭᑲᓇᐌ	-6807
ᑭᑲᔥᑭ	-6808
ᑭᒥᓍᐸ	-6809
ᑭᒫᐎᒡ	-6810
ᑭᓱᐎᓐ	-6811
ᑮᐊᔭᔮ	-6812
ᑮᐗᐙᓀ	-6813
ᑮᑭᑐᓰ	-6814
ᑮᑰᔭᐞ	-6815
ᑮᑲᔥᑭ	-6816
ᑮᓯᓲᓐ	-6817
ᑮᔑᑑᒡ	-6818
ᑮᔑᑑᓐ	-6819
ᑯᓈᓂᒃ	-6820
ᑲᐎᐌᐱ	-6821
ᑲᑮᑭᒫ	-6822
ᑲᑴᒥᓄ	-6823
ᑲᓅᑕᕽ	-6824
ᑲᓅᓈᓂ	-6825
ᑲᔥᑭᐋ	-6826
ᑳᐃᑭᑑ	-6827
ᑳᐃᓀᒃ	-6828
ᑳᐃᓂᑣ	-6829
ᑳᐃᓈᐸ	-6830
ᑳᐃᔑᒡ	-6831
ᑳᐐᒋᑖ	-6832
ᑳᐐᒌᐎ	-6833
ᑳᐸᑭᑎ	-6834
ᑳᑮᐅᑎ	-6835
ᑳᑮᐙᐱ	-6836
ᑳᑮᐱᒥ	-6837
ᑳᑮᑲᑴ	-6838
ᑳᑾᔭᑴ	-6839
ᑳᒥᓍᐸ	-6840
ᑳᒦᑭᐌ	-6841
ᑳᓂᔥᑫ	-6842
ᑳᓵᑭᐃ	-6843
ᑳᔑᑭᒋ	-6844
ᑾᑎᓈᒃ	-6845
ᒋᐊᓄᑳ	-6846
ᒋᐊᓈᒥ	-6847
ᒋᒥᓂᑴ	-6848
ᒋᓀᐱᒋ	-6849
ᒋᓂᐳᒡ	-6850
ᒋᓇᓈᑯ	-6851
ᒋᓵᑭᐋ	-6852
ᒋᔖᑰᒋ	-6853
ᒌᑫᑖᒻ	-6854
ᒥᐌᐎᓐ	-6855
ᒥᑣᐸᓐ	-6856
ᒥᒋᓇᐌ	-6857
ᒥᓈᐸᓐ	-6858
ᒥᓈᓂᐞ	-6859
ᒥᓈᓂᒃ	-6860
ᒥᓴᐙᑯ	-6861
ᒦᐗᐃᐃ	-6862
ᒧᓂᓂᒃ	-6863
ᒧᔐᔭᐄ	-6864
ᒨᔕᑭᓇ	-6865
ᒨᔥᑭᓇ	-6866
ᒪᐎᐙᒡ	-6867
ᒪᐎᓀᒃ	-6868
ᒪᐎᓂᒡ	-6869
ᒪᐙᐙᒡ	-6870
ᒪᑲᒫᒡ	-6871
ᒪᔥᑯᓯ	-6872
ᒫᐎᓂᒡ	-6873
ᒫᓀᑖᒻ	-6874
ᒫᓈᓂᒃ	-6875
ᓂᐐᐃᔖ	-6876
ᓂᐐᒌᐙ	-6877
ᓂᐐᔭᐎ	-6878
ᓂᐙᐸᒫ	-6879
ᓂᑌᐃᕽ	-6880
ᓂᑌᐺᔦ	-6881
ᓂᑎᐹᒋ	-6882
ᓂᑑᐙᒡ	-6883
ᓂᑮᐃᓀ	-6884
ᓂᑯᐙᓐ	-6885
ᓂᑯᓈᓐ	-6886
ᓂᑲᐐᒋ	-6887
ᓂᑳᓈᒡ	-6888
ᓂᒫᑫᓐ	-6889
ᓂᓂᓐᒡ	-6890
ᓂᓯᓂᒡ	-6891
ᓂᓵᐹᐌ	-6892
ᓄᑕᒣᒃ	-6893
ᓇᐃᑖᒃ	-6894
ᓇᐎᔑᓐ	-6895
ᓇᑖᓂᔭ	-6896
ᓇᒧᑴᓐ	-6897
ᓇᓃᓵᓀ	-6898
ᓈᐗᓱᒡ	-6899
ᓈᑫᔨᔥ	-6900
ᓭᐸᑏᓐ	-6901
ᓯᐙᐙᒃ	-6902
ᓯᒀᐸᓐ	-6903
ᓰᑭᓇᕽ	-6904
ᓵᑭᐃᒡ	-6905
ᓵᒐᓰᒃ	-6906
ᔔᒥᓇᒃ	-6907
ᔔᒥᓈᑎ	-6908
ᔔᓂᔮᔅ	-6909
ᔥᑲᒣᒃ	-6910
ᔮᐲᑭᐱ	-6911
ᐁᐋᐎᔮᓐ	-6912
ᐁᐐᒌᐙᒡ	-6913
ᐁᑎᐯᑕᕽ	-6914
ᐁᑎᐱᑲᒃ	-6915
ᐁᑑᑕᒫᓐ	-6916
ᐁᑕᑯᓇᕽ	-6917
ᐁᑕᕒᐆᓐ	-6918
ᐁᑭᑐᔭᓐ	-6919
ᐁᑭᔒᐌᒡ	-6920
ᐁᑮᐅᑎᑎ	-6921
ᐁᑮᐗᐙᓀ	-6922
ᐁᑮᐗᔥᑴ	-6923
ᐁᑮᒫᒪᐎ	-6924
ᐁᓂᐹᓂᒡ	-6925
ᐁᓃᐸᐎᒡ	-6926
ᐁᓇᑌᓂᒃ	-6927
ᐁᓈᑯᓂᑫ	-6928
ᐁᔮᐎᓂᒡ	-6929
ᐃᓀᑖᑯᔅ	-6930
ᐃᓂᓂᓂᒻ	-6931
ᐃᔑᐱᒧᓭ	-6932
ᐅᐐᒋᐃᐌ	-6933
ᐅᐱᒣᓇᐤ	-6934
ᐅᑌᐃᓃᕽ	-6935
ᐅᑌᑌᐙᓐ	-6936
ᐅᑎᐯᑖᓐ	-6937
ᐅᑎᓇᓰᓐ	-6938
ᐅᑎᓯᐸᓐ	-6939
ᐅᑎᓯᑯᒻ	-6940
ᐅᑕᐌᒫᐞ	-6941
ᐅᑖᑯᓰᒃ	-6942
ᐅᑭᑭᔥᑲ	-6943
ᐅᑭᒫᐎᒡ	-6944
ᐅᑮᐅᒻᐺ	-6945
ᐅᑮᒫᒪᐎ	-6946
ᐅᑯᓯᓯᒡ	-6947
ᐅᒋᒋᓭᓂ	-6948
ᐅᒋᒌᑾᓃ	-6949
ᐅᓇᔓᐙᓂ	-6950
ᐅᓈᐯᒥᒡ	-6951
ᐅᓈᑯᔑᓐ	-6952
ᐅᓈᑲᑕᐌ	-6953
ᐅᓈᑲᓇᓐ	-6954
ᐅᔑᐲᐊᓐ	-6955
ᐊᐱᓅᒌᔑ	-6956
ᐊᑑᐹᓇᓐ	-6957
ᐊᑖᐙᑫᒡ	-6958
ᐊᑯᓴᑲᐃ	-6959
ᐊᑯᓴᑲᐙ	-6960
ᐊᒪᐙᐙᒡ	-6961
ᐊᓂᑮᐌᓐ	-6962
ᐊᓂᒫᒑᓐ	-6963
ᐊᓄᑮᐙᒡ	-6964
ᐊᓄᑮᔮᕽ	-6965
ᐊᓯᓃᑳᒃ	-6966
ᐊᔭᐋᐎᔥ	-6967
ᐊᔮᐎᓇᓐ	-6968
ᐋᐸᑎᓯᒡ	-6969
ᐋᐸᒋᑑᓐ	-6970
ᐌᑯᑐᑴᓐ	-6971
ᐐᑕᒪᐙᒃ	-6972
ᐐᒌᐎᑰᒃ	-6973
ᐐᒌᐎᓀᒀ	-6974
ᐐᒌᐎᓈᓐ	-6975
ᐐᒌᐎᔦᒃ	-6976
ᐙᐸᑕᒫᓐ	-6977
ᐙᐸᑖᒥᓐ	-6978
ᐙᐸᑖᓈᐙ	-6979
ᐙᓭᓯᐎᓐ	-6980
ᐯᑭᐃᑎᓱ	-6981
ᐯᔑᑴᐙᓇ	-6982
ᐱᑾᑕᑮᕽ	-6983
ᐱᔑᑭᐗᐞ	-6984
ᐲᑎᑫᐗᒃ	-6985
ᐸᐸᑭᓀᒃ	-6986
ᐸᐹᒣᓂᒥ	-6987
ᐸᑭᓈᑫᒡ	-6988
ᐸᑭᔑᓅᒃ	-6989
ᐸᓰᑴᑲᓈ	-6990
ᑎᐯᑖᑯᓰ	-6991
ᑎᐹᑐᑖᓐ	-6992
ᑎᐹᑯᓂᐌ	-6993
ᑏᒪᑲᓅᓐ	-6994
ᑑᑕᐎᑾᒃ	-6995
ᑑᑕᐎᓀᒃ	-6996
ᑕᐃᓀᑕᓰ	-6997
ᑕᐊᔮᐗᒃ	-6998
ᑕᐎᓇᑰᒃ	-6999
ᑕᐱᒫᒋᐋ	-7000
ᑕᑶᔑᓈᓐ	-7001
ᑕᒨᒪᑲᒃ	-7002
ᑕᒪᑭᐸᓐ	-7003
ᑕᓯᑭᐸᓐ	-7004
ᑕᔑᑕᒫᓐ	-7005
ᑖᑯᓯᓯᒀ	-7006
ᑫᐅᒋᒥᓄ	-7007
ᑫᑯᐸᓀᓐ	-7008
ᑫᒋᓈᐅᐌ	-7009
ᑫᒦᒋᔦᒃ	-7010
ᑫᔑᒥᓍᐸ	-7011
ᑭᐐᔭᐎᕽ	-7012
ᑭᑌᐃᐙᓐ	-7013
ᑭᑎᓀᑕᒻ	-7014
ᑭᑕᐯᓂᒧ	-7015
ᑭᑕᓇᒥᐁ	-7016
ᑭᑕᔮᒀᒥ	-7017
ᑭᑕᔮᒥᓐ	-7018
ᑭᑫᓂᑎᓱ	-7019
ᑭᑭᓄᐎᓂ	-7020
ᑭᑭᓇᐙᐸ	-7021
ᑭᒋᐊᓄᑮ	-7022
ᑭᒋᐙᒥᑲ	-7023
ᑭᒋᑫᐙᒡ	-7024
ᑭᒥᓄᒋᑫ	-7025
ᑭᓂᑳᑌᒃ	-7026
ᑭᓃᒑᓂᓯ	-7027
ᑭᓯᐎᓂᕽ	-7028
ᑮᐊᔮᔮᓐ	-7029
ᑮᒋᑯᓇᔦ	-7030
ᑮᒨᔥᑭᓀ	-7031
ᑮᒪᔥᑲᐎ	-7032
ᑮᒫᒥᑲᐎ	-7033
ᑰᐹᓯᓇᐙ	-7034
ᑰᒋᑲᓂᓂ	-7035
ᑲᑴᒋᒪᕽ	-7036
ᑲᒀᑕᑭᐋ	-7037
ᑲᓇᐌᑖᓐ	-7038
ᑲᓇᐌᓂᒻ	-7039
ᑲᔥᑭᐋᐞ	-7040
ᑳᐃᑎᓱᒡ	-7041
ᑳᐃᓇᒧᒃ	-7042
ᑳᐃᔑᐲᐊ	-7043
ᑳᐃᔖᐙᒡ	-7044
ᑳᐅᒋᑎᐯ	-7045
ᑳᐅᔫᓯᒡ	-7046
ᑳᐊᓇᒥᐋ	-7047
ᑳᐊᔮᔭᓐ	-7048
ᑳᐙᐱᔥᑭ	-7049
ᑳᐱᓈᓯᑲ	-7050
ᑳᐱᓯᑕᐎ	-7051
ᑳᑌᐺᐎᓂ	-7052
ᑳᑎᐱᑲᒃ	-7053
ᑳᑑᑕᒪᓐ	-7054
ᑳᑕᓯᑭᓐ	-7055
ᑳᑮᐊᓄᑮ	-7056
ᑳᑮᒪᒥᔑ	-7057
ᑳᑮᒫᒪᐎ	-7058
ᑳᑲᓅᒋᑫ	-7059
ᑳᑳᓂᐗᕽ	-7060
ᑳᒥᔕᑮᔮ	-7061
ᑳᔑᐊᔮᒡ	-7062
ᒀᕒᐃᑎᕽ	-7063
ᒋᐃᔑᐎᓂ	-7064
ᒋᐊᔮᔦᒃ	-7065
ᒋᐐᒋᐊᔮ	-7066
ᒋᐲᔖᔦᒃ	-7067
ᒋᑭᑫᑕᒨ	-7068
ᒋᑲᓂᐎᓰ	-7069
ᒋᑲᓅᒋᑫ	-7070
ᒋᒪᒫᒋᑾ	-7071
ᒋᓂᐳᔮᓐ	-7072
ᒋᓵᑭᐃᑎ	-7073
ᒎᑏᔭᑮᕽ	-7074
ᒐᕒᐆᐗᔅ	-7075
ᒥᑖᒋᓂᒡ	-7076
ᒥᑖᔑᓃᔓ	-7077
ᒥᑮᐙᐱᓀ	-7078
ᒥᓂᑴᔮᓐ	-7079
ᒥᓈᐸᓃᒃ	-7080
ᒥᓈᓯᑲᓐ	-7081
ᒥᓉᑕᒧᒃ	-7082
ᒥᓍᒋᐋᒡ	-7083
ᒥᓯᑌᔥᑳ	-7084
ᒥᔕᑳᐙᒡ	-7085
ᒦᒀᓂᑎᓱ	-7086
ᒦᓂᓂᓂᒻ	-7087
ᒪᑲᑭᐸᓐ	-7088
ᒪᒋᑫᑰᓐ	-7089
ᒪᔥᑯᓰᓐ	-7090
ᒫᕒᑕᐗᓐ	-7091
ᓂᐯᐎᓂᕽ	-7092
ᓂᐴᔔᐋᒃ	-7093
ᓂᑎᑭᑐᓰ	-7094
ᓂᑮᐱᐅᒌ	-7095
ᓂᑮᒦᓂᒃ	-7096
ᓂᑲᑏᒪᔅ	-7097
ᓂᑲᓇᐙᐸ	-7098
ᓂᓯᑐᑕᒨ	-7099
ᓂᓯᑕᐎᓇ	-7100
ᓃᐱᐗᐋᕽ	-7101
ᓄᑕᐎᑾᒃ	-7102
ᓈᑫᒀᓂᒃ	-7103
ᓈᑯᓯᔭᕽ	-7104
ᓴᒥᑳᐸᐐ	-7105
ᓴᓇᑲᓂᓂ	-7106
ᓵᑭᐃᐌᒡ	-7107
ᓵᑲᐃᑲᓂ	-7108
ᔒᐎᑖᑲᓂ	-7109
ᔒᐎᑖᑲᓐ	-7110
ᔕᔒᐯᑕᕽ	-7111
ᔖᑯᐌᐗᐞ	-7112
ᔥᑳᑯᓂᒡ	-7113
ᔥᑳᑯᓰᓐ	-7114
ᔥᑳᒪᑲᒃ	-7115
ᔮᐸᓂᓂᒃ	-7116
ᐁᐃᑭᑐᔦᒃ	-7117
ᐁᑎᓄᐎᓂᒡ	-7118
ᐁᑎᓄᐎᔭᓐ	-7119
ᐁᑕᓱᐯᔑᒃ	-7120
ᐁᑭᔐᒪᓂᑑ	-7121
ᐁᑮᐃᔖᓂᒡ	-7122
ᐁᑮᐊᔮᐙᒡ	-7123
ᐁᑮᑭᑐᓂᒡ	-7124
ᐁᑲᓅᓂᑯᒡ	-7125
ᐁᒦᑭᐌᔦᒃ	-7126
ᐁᒪᔥᑲᐎᓰ	-7127
ᐁᓀᑕᒧᐙᒡ	-7128
ᐁᓈᓴᒦᐙᒡ	-7129
ᐁᕒᐃᔅᑖᕒ	-7130
ᐃᓀᑖᑾᓂᓂ	-7131
ᐃᓂᓃᐎᔦᒃ	-7132
ᐃᓇᑌᓯᓅᓐ	-7133
ᐃᔑᓇᒧᐎᓐ	-7134
ᐃᔥᒀᑌᒥᕽ	-7135
ᐅᐱᓯᑲᓀᔅ	-7136
ᐅᐱᔑᒀᑎᓯ	-7137
ᐅᐲᐌᓰᒥᓂ	-7138
ᐅᑎᐹᒋᒨᒃ	-7139
ᐅᑑᓃᒑᓂᓯ	-7140
ᐅᑕᐱᓅᒌᔑ	-7141
ᐅᑕᔮᐎᓂᓂ	-7142
ᐅᑖᐱᓇᒧᒃ	-7143
ᐅᑮᐅᑎᓯᑯ	-7144
ᐅᑮᐊᑐᒫᓐ	-7145
ᐅᑮᐊᔮᒀᒥ	-7146
ᐅᑮᐐᑕᒪᐙ	-7147
ᐅᑮᓰᑭᓈᓐ	-7148
ᐅᑮᔑᑳᒥᒡ	-7149
ᐅᑲᒀᑕᑭᑑ	-7150
ᐅᑲᓇᐌᒋᑫ	-7151
ᐅᒋᒌᑾᓇᐲ	-7152
ᐅᒌᒪᑲᓂᓂ	-7153
ᐅᒥᔅᑸᒥᓂ	-7154
ᐅᓂᔑᔑᐌᒋ	-7155
ᐅᓇᑕᐌᓂᒫ	-7156
ᐅᔑᐲᐊᒪᐤ	-7157
ᐅᔥᑮᔑᑯᕽ	-7158
ᐅᔥᑮᔑᑰᓐ	-7159
ᐊᐱᓅᒌᔑᕽ	-7160
ᐊᑳᓰᓄᐗᒃ	-7161
ᐊᓈᒥᒫᐙᒡ	-7162
ᐊᔭᐋᐎᔕᓐ	-7163
ᐋᐃᑰᓂᔭᒻ	-7164
ᐌᓅᑎᓯᐙᒡ	-7165
ᐎᓯᑌᔑᒨᓄ	-7166
ᐐᑑᑳᓱᔦᒃ	-7167
ᐐᑕᒪᐎᔑᓐ	-7168
ᐐᑕᒪᐙᑫᓐ	-7169
ᐐᑕᒫᑫᓂᒡ	-7170
ᐗᑫᑕᒧᐎᓐ	-7171
ᐗᓂᔑᓂᓂᒡ	-7172
ᐱᒫᑎᓯᔭᓐ	-7173
ᐱᒫᒋᐃᓐᒡ	-7174
ᐱᓈᓯᑲᐙᓐ	-7175
ᐱᓯᑕᐙᐙᒡ	-7176
ᐸᑭᑎᓈᐙᒡ	-7177
ᐸᑭᑎᓈᑫᒃ	-7178
ᐹᐱᓬᐊᓄᕽ	-7179
ᑌᐺᔦᑕᒣᒃ	-7180
ᑌᐺᔦᓂᒫᒡ	-7181
ᑎᐯᓂᒥᓀᒃ	-7182
ᑎᐸᐃᑲᓀᔮ	-7183
ᑎᐸᐊᒪᐙᒡ	-7184
ᑕᐙᓯᐙᐙᓐ	-7185
ᑕᒧᑯᐸᓀᓐ	-7186
ᑫᐸᑭᑎᓇᕽ	-7187
ᑭᐱᒫᒋᐃᑰ	-7188
ᑭᑎᑳᓱᓂᒡ	-7189
ᑭᑕᒑᑯᐙᕽ	-7190
ᑭᑫᑕᒥᓂᒡ	-7191
ᑭᑫᑕᓰᓈᐙ	-7192
ᑭᑭᑫᓂᒥᓐ	-7193
ᑭᑭᑫᓂᒫᐙ	-7194
ᑭᑭᒋᐅᑭᒫ	-7195
ᑭᑭᒋᐊᔭᐋ	-7196
ᑭᑭᔥᑲᐙᐗ	-7197
ᑭᑮᐃᔑᒋᑫ	-7198
ᑭᒋᐆᑌᓈᓂ	-7199
ᑭᒋᐆᑌᓈᕽ	-7200
ᑭᒋᑫᑰᓇᓐ	-7201
ᑭᒋᒨᑯᒫᓐ	-7202
ᑮᐅᑕᑳᓀᓯ	-7203
ᑮᐗᓂᒧᐎᓐ	-7204
ᑮᐱᒫᑎᓯᒡ	-7205
ᑮᑌᐺᑕᒨᐞ	-7206
ᑮᒋᑭᐌᔭᒃ	-7207
ᑮᓅᑌᔅᑲᑌ	-7208
ᑮᔑᑾᑳᓂᒃ	-7209
ᑲᓇᐙᐸᒫᓐ	-7210
ᑲᔥᑭᑑᓯᒀ	-7211
ᑲᔥᑭᑑᓰᒻ	-7212
ᑳᐃᓀᑖᑾᒃ	-7213
ᑳᐃᓈᑎᓯᒡ	-7214
ᑳᐃᔑᓈᑾᒃ	-7215
ᑳᐅᔫᓯᒪᕽ	-7216
ᑳᐐᒌᐙᐙᒡ	-7217
ᑳᐐᓴᑳᐸᓱ	-7218
ᑳᑌᐺᑕᓯᒃ	-7219
ᑳᑎᐯᑕᒪᓐ	-7220
ᑳᑑᑕᒥᓂᒡ	-7221
ᑳᑕᓶᐙᓇᑭ	-7222
ᑳᑕᔑᑕᒫᓐ	-7223
ᑳᑕᔑᒥᓐᒡ	-7224
ᑳᑭᑎᑳᑕᕽ	-7225
ᑳᑭᑭᔥᑳᑯ	-7226
ᑳᑭᒋᐅᑭᒫ	-7227
ᑳᑮᐃᔑᐅᓇ	-7228
ᑳᑮᐅᒋᐅᔑ	-7229
ᑳᑮᐱᐅᒌᒡ	-7230
ᑳᑮᒦᓂᓇᕽ	-7231
ᑳᑮᒦᓂᓐᒡ	-7232
ᑳᑮᓂᑖᐎᑭ	-7233
ᑳᑮᓂᓯᓐᒡ	-7234
ᑳᒎᐎᐎᔮᕽ	-7235
ᑳᒪᒋᓈᑾᒃ	-7236
ᑳᓂᑖᐎᑭᑑ	-7237
ᑳᓂᔑᐗᓈᒋ	-7238
ᑳᓵᑭᐃᐌᒡ	-7239
ᑳᔑᐊᔮᓂᒡ	-7240
ᒋᐃᓀᑕᒣᒃ	-7241
ᒋᐃᔑᓈᑾᒃ	-7242
ᒋᐊᓇᒥᐁᑕ	-7243
ᒋᐱᒫᒋᐃᑰ	-7244
ᒋᑎᓄᐎᔮᓐ	-7245
ᒋᑮᐃᔑᒋᑫ	-7246
ᒋᑲᔥᑭᑑᒡ	-7247
ᒋᑾᔭᒀᑎᓯ	-7248
ᒥᑖᔑᐯᔑᒃ	-7249
ᒥᓂᒀᑲᓂᕽ	-7250
ᒥᓄᑲᒥᑳᒃ	-7251
ᒥᓉᑕᒥᓂᒡ	-7252
ᒥᓍᑐᑌᓂᒃ	-7253
ᒥᓴᐌᑕᒪᓐ	-7254
ᒥᔅᑯᒥᓂᑫ	-7255
ᒦᒋᓈᑳᑌᒃ	-7256
ᒪᑲᓂᓂᐗᓐ	-7257
ᒪᑲᓯᓂᓂᒃ	-7258
ᒪᒋᑑᑕᒣᒃ	-7259
ᒪᒋᑭᓀᐱᑯ	-7260
ᒪᓂᑑᑳᓇᐞ	-7261
ᒫᔑᒥᑕᑎᒻ	-7262
ᓂᐐᓱᐎᓂᕽ	-7263
ᓂᑎᓀᑕᓰᓐ	-7264
ᓂᑮᐃᓀᑕᒻ	-7265
ᓂᑮᐊᔮᒥᓐ	-7266
ᓂᑲᐱᓈᓯᑳ	-7267
ᓂᓯᓅᓂᓂᒻ	-7268
ᓃᓇᒥᓯᔮᓐ	-7269
ᓇᐃᓂᒥᓐᒡ	-7270
ᓇᑭᔥᑳᑰᓐ	-7271
ᓈᑯᓯᓯᓂᒃ	-7272
ᓈᑲᑕᐌᑕᕽ	-7273
ᓈᓈᑲᑕᐌᓂ	-7274
ᓯᓄᐎᓇᑰᒃ	-7275
ᓴᑭᓂᑫᓈᒡ	-7276
ᓵᑭᐃᑎᐎᓐ	-7277
ᓵᑭᐃᑎᐙᒡ	-7278
ᓵᑭᒋᐌᐱᓂ	-7279
ᔕᐌᓂᒥᑯᐙ	-7280
ᔖᔖᑯᐌᐗᒃ	-7281
ᐁᐃᓀᑕᒧᐙᒡ	-7282
ᐁᐃᔑᒋᑫᔦᒃ	-7283
ᐁᐅᒋᒋᓭᓂᒃ	-7284
ᐁᐐᒌᐎᓇᑰᒃ	-7285
ᐁᐱᓈᓯᑳᑯᒡ	-7286
ᐁᑕᓱᐯᔑᑯᒡ	-7287
ᐁᑮᐃᑭᑐᔮᓐ	-7288
ᐁᑮᐃᔑᒋᑫᒡ	-7289
ᐁᑮᐌᓅᑎᓯᒡ	-7290
ᐁᔑᐱᒫᑎᓯᒡ	-7291
ᐁᔑᓈᑯᓯᔮᕽ	-7292
ᐃᓀᓂᑎᓱᑫᒃ	-7293
ᐃᓈᐸᑕᓯᓂᓂ	-7294
ᐃᓬᐃᓯᐸᑕᓐ	-7295
ᐃᔑᐌᐸᓂᓂᒃ	-7296
ᐃᔑᒋᑫᒪᑲᒃ	-7297
ᐃᔑᓂᔕᐅᑯᒡ	-7298
ᐃᔑᓈᑾᓯᓂᓂ	-7299
ᐃᔥᐯᑖᑯᓯᒡ	-7300
ᐅᐐᓱᐎᓂᐙᓐ	-7301
ᐅᑎᑭᑐᐎᓂᕽ	-7302
ᐅᑎᑭᑐᐎᓇᓐ	-7303
ᐅᑏᐎᑲᒥᑯᕽ	-7304
ᐅᑕᑳᓀᓯᓂᒡ	-7305
ᐅᑕᓄᑮᐎᓂᕽ	-7306
ᐅᑭᑫᓂᒫᓰᓐ	-7307
ᐅᑮᐃᔑᓂᔕᐙ	-7308
ᐅᑮᐸᑭᑎᓈᓐ	-7309
ᐅᑮᑌᐺᑕᐙᓐ	-7310
ᐅᑮᑭᑫᓂᒫᐞ	-7311
ᐅᑮᒥᑲᓰᓈᐙ	-7312
ᐅᑮᒨᒋᔥᑲᓐ	-7313
ᐅᑯᓯᓯᒥᑯᒡ	-7314
ᐅᑲᐱᓯᑕᐙᓐ	-7315
ᐅᑲᓅᑕᒫᑫᓐ	-7316
ᐅᑲᔥᑮᑮᐎᓐ	-7317
ᐅᒪᒋᑑᑕᒨᐞ	-7318
ᐅᒻᐺᑲᒥᑭᓯ	-7319
ᐅᓃᑭᐃᑯᐙᐞ	-7320
ᐅᔥᑭᓃᑭᐗᓐ	-7321
ᐅᔥᑭᓃᑭᑴᒃ	-7322
ᐅᔥᑮᔑᑯᓃᕽ	-7323
ᐊᓂᑲᑮᔑᑲᒃ	-7324
ᐋᐸᑕᓂᓂᑭᓐ	-7325
ᐋᓇᐌᓂᒥᑯᒡ	-7326
ᐐᒌᐎᑯᓈᓂᒃ	-7327
ᐐᓴᑫᑕᒧᐎᓐ	-7328
ᐱᒥᓂᔕᐅᑰᐞ	-7329
ᐱᒫᒋᐃᐌᓂᒡ	-7330
ᐱᒫᒋᐃᒥᓐᒡ	-7331
ᐱᓯᑲᒧᐋᐙᒡ	-7332
ᐱᓯᑲᓂᐎᓯᒃ	-7333
ᐲᑎᑫᔥᑳᔦᒃ	-7334
ᐴᑯᓂᑳᑌᑭᓐ	-7335
ᐸᐲᑾᑎᓈᓂᒃ	-7336
ᐸᑭᑎᓂᑎᓱᒃ	-7337
ᐸᑯᓭᓂᒥᑰᐞ	-7338
ᐸᑴᔑᑲᓂᑳᓀ	-7339
ᐸᒀᓀᑲᒥᑯᕽ	-7340
ᑌᓴᓬᐊᓇᐃᑲ	-7341
ᑎᐱᓇᐌᐎᓯᒡ	-7342
ᑎᐸᐃᑲᓀᔮᒃ	-7343
ᑕᐅᑖᐱᓇᒪᐙ	-7344
ᑕᑯᔑᓅᒪᑲᒃ	-7345
ᑕᒧᐎᓂᓈᓂᕽ	-7346
ᑫᑎᒫᑭᓯᓂᒡ	-7347
ᑫᓅᑕᒪᐙᓂᒡ	-7348
ᑭᑎᑳᓇᑲᒥᒃ	-7349
ᑭᑑᑕᒪᐙᐙᒡ	-7350
ᑭᑕᓄᑮᐋᑲᓐ	-7351
ᑭᑫᑖᑾᓯᓅᓐ	-7352
ᑭᑮᑎᐯᓂᒥᑯ	-7353
ᑭᑲᐙᐸᒥᓰᒻ	-7354
ᑮᐃᔑᓈᑾᓂᓂ	-7355
ᑮᒋᐅᑌᐺᑕᒨ	-7356
ᑲᒀᑕᑭᑑᐙᒡ	-7357
ᑲᓅᑕᒪᐙᓂᒡ	-7358
ᑲᓇᐌᓂᒫᐙᒡ	-7359
ᑲᔥᑮᑎᐱᑲᓐ	-7360
ᑳᐃᔑᐊᔮᐙᒡ	-7361
ᑳᐃᔑᐊᔮᓂᒃ	-7362
ᑳᐃᔑᓈᑯᓯᒡ	-7363
ᑳᐅᔑᒋᑳᑌᒃ	-7364
ᑳᐱᒫᑎᓯᔭᕽ	-7365
ᑳᑭᑎᒫᑭᓯᒡ	-7366
ᑳᑮᐃᓂᓇᑰᒃ	-7367
ᑳᑮᐃᓈᑯᓂᑫ	-7368
ᑳᑮᐃᔑᐊᔮᒡ	-7369
ᑳᑮᐃᔑᐌᐱᓯ	-7370
ᑳᑮᐅᑫᑌᔭᐋ	-7371
ᑳᔒᑫᓂᒥᓀᒀ	-7372
ᑾᔭᑯᒋᑫᐎᓐ	-7373
ᒋᐃᔑᓂᔕᐗᒃ	-7374
ᒋᑎᐹᑯᓂᑯᒡ	-7375
ᒋᑭᑫᑕᒥᓂᒡ	-7376
ᒋᑭᑫᒋᑳᑌᒃ	-7377
ᒋᑴᑳᑎᓯᓂᒡ	-7378
ᒋᓇᑲᑕᒧᐙᒡ	-7379
ᒋᓈᓯᑲᐙᐙᒡ	-7380
ᒋᔕᔒᐯᑕᒣᒃ	-7381
ᒥᓄᐊᔮᐃᓐᒡ	-7382
ᒥᔅᑴᑲᓂᓂᒃ	-7383
ᒪᒫᑳᔥᑳᓂᒃ	-7384
ᒪᓯᓇᐃᑲᓀᔅ	-7385
ᒫᒪᑳᑌᑕᒨᐞ	-7386
ᒫᒪᑳᒋᒋᑫᒡ	-7387
ᓂᐙᑳᐃᑲᓂᕽ	-7388
ᓂᑎᐹᒋᒧᐎᓐ	-7389
ᓂᑭᑫᑕᓰᒥᓐ	-7390
ᓂᑮᐙᐸᑕᐃᒃ	-7391
ᓂᒥᑲᒧᐙᓰᓐ	-7392
ᓂᒥᓯᓅᓂᓂᒻ	-7393
ᓂᓯᑐᑕᓯᐌᒃ	-7394
ᓂᔑᐗᓈᑕᓅᓐ	-7395
ᓵᑭᐃᑎᐎᓂᕽ	-7396
ᓵᑭᐃᑎᓱᔭᓐ	-7397
ᔕᐌᓂᒥᑯᓈᓐ	-7398
ᔕᔒᐱᑕᒥᓂᒡ	-7399
ᐁᐃᔑᓈᑯᓯᐙᒡ	-7400
ᐁᑌᐺᒪᑲᓂᓂᒃ	-7401
ᐁᑕᓱᐯᔑᑯᐙᒡ	-7402
ᐁᑕᓱᐯᔑᑯᔦᒃ	-7403
ᐁᑭᑑᒪᑲᓂᓂᒃ	-7404
ᐁᑮᐃᔑᐎᓂᑯᒡ	-7405
ᐁᑮᐅᒋᒋᓭᓂᒃ	-7406
ᐁᑮᐐᑕᒪᐙᐙᒡ	-7407
ᐁᑮᐙᐸᑕᒧᐙᒡ	-7408
ᐁᑮᒥᓄᐊᔮᐋᒡ	-7409
ᐁᑲᓇᐙᐸᒥᑯᒡ	-7410
ᐃᔑᐱᒫᑎᓯᐗᒃ	-7411
ᐅᐸᑴᔑᑲᓂᒪᓐ	-7412
ᐅᑎᑭᑐᐎᓂᐙᓐ	-7413
ᐅᑎᓇᐌᒫᑲᓇᐞ	-7414
ᐅᑎᔑᒋᑫᐎᓇᓐ	-7415
ᐅᑭᒋᐅᓈᑲᓂᕽ	-7416
ᐅᑮᓈᓯᑲᐙᐙᓐ	-7417
ᐅᒥᓍᑎᓰᔑᑑᒃ	-7418
ᐅᒫᓇᒑᓂᔑᒪᐞ	-7419
ᐊᐲᑌᑖᑯᓯᓯᒃ	-7420
ᐊᓄᑮᒪᑲᓂᓂᒃ	-7421
ᐌᑭᒫᐙᑎᓯᓂᒡ	-7422
ᐱᒫᒋᐃᐌᒥᓈᓐ	-7423
ᐸᑭᑎᓂᑫᐎᓇᓐ	-7424
ᑌᓴᓬᐊᓇᐃᑳᕽ	-7425
ᑎᐹᑯᓂᑎᐎᓂᕽ	-7426
ᑕᐃᓈᐸᑕᓯᓅᓐ	-7427
ᑕᔕᐌᑖᑯᓯᐗᒃ	-7428
ᑫᐃᔑᓈᑾᓂᓂᒃ	-7429
ᑭᑎᑫᐗᑲᒥᑯᕽ	-7430
ᑭᑭᑫᓂᒫᓯᐙᐙ	-7431
ᑭᑭᒋᐅᑭᒫᒥᐙ	-7432
ᑭᑭᓄᐊᒪᐙᐙᒡ	-7433
ᑭᑭᓄᐊᒫᑫᐙᒡ	-7434
ᑭᑭᓄᐊᒫᑫᔮᓐ	-7435
ᑭᑭᓄᐊᒫᑰᔦᒃ	-7436
ᑭᑭᓇᐙᒋᒋᑲᓐ	-7437
ᑭᑭᔥᑲᐙᓂᐸᓐ	-7438
ᑭᓵᑭᐃᐌᐎᓂᐙ	-7439
ᑮᐅᒋᐅᔑᒋᑳᑌ	-7440
ᑮᒥᑯᔥᑳᑌᑕᒻ	-7441
ᑲᒀᓂᓴᑫᑖᑾᓐ	-7442
ᑳᐃᓀᑖᑯᓯᐙᒡ	-7443
ᑳᐃᓍᓂᑎᓱᐙᒡ	-7444
ᑳᐅᓅᑕᒫᐎᓂᒡ	-7445
ᑳᐱᒫᑎᓰᔥᑳᑫ	-7446
ᑳᐱᔑᒀᑎᓯᐙᒡ	-7447
ᑳᑕᓱᐯᔑᑯᔦᒃ	-7448
ᑳᑭᑭᓄᐊᒫᑯᒡ	-7449
ᑳᑮᐅᓀᓂᒥᑯᒡ	-7450
ᑳᑮᐅᔑᒋᑳᑌᒃ	-7451
ᑳᑮᐐᑕᒫᑰᔦᒃ	-7452
ᑳᓂᐳᐙᐱᓀᓂᒡ	-7453
ᒀᕒᓃᓬᐃᔭᓴᓐ	-7454
ᒋᐃᔑᒋᑫᓯᐌᒃ	-7455
ᒋᐙᐸᒋᑳᑌᓂᒃ	-7456
ᒌᑲᑲᒥᑭᓯᐙᒡ	-7457
ᒪᒦᒀᓂᑎᓱᐙᒡ	-7458
ᒪᔥᑲᐎᓰᐎᓂᕽ	-7459
ᒫᒪᑳᒋᒋᑫᓂᒡ	-7460
ᓂᐱᒫᑎᓯᐎᓂᕽ	-7461
▁¦4,000¦	-7462
ᐁᑕᓶᐙᓇᑭᓯᐙᒡ	-7463
ᐁᑭᔐᐹᐗᑲᓂᓂᒃ	-7464
ᐃᔑᐌᐱᓯᐎᓂᐙᓐ	-7465
ᐅᐱᒫᑎᓯᐎᓂᓃᕽ	-7466
ᐅᑎᓀᑕᒧᐎᓂᐙᕽ	-7467
ᐅᑎᓈᑯᓂᑫᐎᓇᓐ	-7468
ᐅᑎᔑᒋᑫᐎᓂᓃᕽ	-7469
ᐅᑕᓇᒥᐋᐎᓂᐙᕽ	-7470
ᐅᑕᔓᑕᒫᑫᐎᓂᓂ	-7471
ᐅᑮᑌᐺᔦᓂᒥᑰᐞ	-7472
ᐅᑮᑌᐺᔦᓂᒫᐙᓐ	-7473
ᐅᑮᒨᔥᑭᓀᔥᑳᑯ	-7474
ᐅᒪᒋᑑᑕᒧᐎᓇᓐ	-7475
ᐅᒪᔥᑲᐎᓰᐎᓂᓂ	-7476
ᐅᓇᔓᐌᐎᑲᒥᑯᕽ	-7477
ᐅᔥᑭᐱᒫᑎᓯᐎᓐ	-7478
ᐐᑾᑎᓈᓂᐗᓂᓂᒃ	-7479
ᐙᓴᑯᓀᒋᑲᓂᐙᓐ	-7480
ᑫᑌᒪᓯᓇᐃᑲᓂᕽ	-7481
ᑭᑮᐐᑕᒪᐎᓂᓂᒻ	-7482
ᑮᐃᔑᓈᑾᓂᓂᐗᓐ	-7483
ᑳᐊᑳᓭᑖᑯᓯᐙᒡ	-7484
ᒋᑭᑭᓇᐙᑕᔕᑫᔓ	-7485
ᒨᔥᑭᓀᔥᑳᑯᔦᒃ	-7486
ᓂᑎᐹᒋᒧᐎᓂᓈᓐ	-7487
ᓂᑭᑭᓄᐃᑫᐎᓇᓐ	-7488
ᓈᓈᑲᑕᐌᑕᒧᐙᒡ	-7489
ᐁᔑᐸᑯᓭᓂᒥᑰᔦᒃ	-7490
ᐅᑭᔐᐙᑎᓯᐎᓂᓃᕽ	-7491
ᐅᑲᔥᑭᐁᐎᓯᐎᓂᓂ	-7492
ᐅᒪᒋᑑᑕᒧᐎᓂᓃᕽ	-7493
ᐅᒫᒪᑳᒋᒋᑫᐎᓇᓐ	-7494
ᐅᔥᑭᐊᔓᑕᒫᑎᐎᓐ	-7495
ᐙᓴᑯᓀᒋᑲᓈᑎᑯᕽ	-7496
ᐸᔑᐸᐃᑫᐎᑯᒫᓇᓐ	-7497
ᑭᒋᐅᑳᑏᑭᓀᐱᑰᓐ	-7498
ᑳᐃᔑᐊᑕᐌᑕᒥᓂᒡ	-7499
ᑳᐅᑌᐺᑕᒧᐎᓂᓯᒀ	-7500
ᑳᐅᑭᒫᐌᑖᑯᓯᓂᒡ	-7501
ᑳᑮᓃᑳᓀᑖᑯᓯᓂᒡ	-7502
ᓂᐱᒫᑎᓯᐎᓂᓈᓂᕽ	-7503
ᓰᑲᐊᑖᑫᐎᓂᓂᐗᓐ	-7504
ᑭᐐᒋᐅᑌᐺᑕᒨᒥᐙᒃ	-7505
ᐅᑭᒋᐊᓇᒥᐁᐎᑲᒥᑯᓃᕽ	-7506
ᑭᒋᐊᓇᒥᐁᐸᒀᓀᑲᒥᑯᕽ	-7507
5¦	-7508
ᐁᑭ	-7509
ᐁᓴ	-7510
ᐅᑭ	-7511
ᐅᓅ	-7512
ᐅᓱ	-7513
ᐅᓲ	-7514
ᐋᑰ	-7515
ᐋᒀ	-7516
ᐋᒨ	-7517
ᐌᑖ	-7518
ᐎᔮ	-7519
ᐐᑯ	-7520
ᐗᐙ	-7521
ᐗᑲ	-7522
ᐙᐙ	-7523
ᐙᑯ	-7524
ᐙᓯ	-7525
ᐱᔪ	-7526
ᐱᔭ	-7527
ᐳᑾ	-7528
ᐴᐙ	-7529
ᐴᒋ	-7530
ᐸᒡ	-7531
ᐸᓀ	-7532
ᐹᒻ	-7533
ᐹᔑ	-7534
ᑌᓂ	-7535
ᑏᔭ	-7536
ᑕᐊ	-7537
ᑕᐗ	-7538
ᑕᑮ	-7539
ᑕᔗ	-7540
ᑫᑭ	-7541
ᑫᒦ	-7542
ᑫᔫ	-7543
ᑭᐯ	-7544
ᑭᔕ	-7545
ᑮᐅ	-7546
ᑮᒑ	-7547
ᑮᒥ	-7548
ᑮᒦ	-7549
ᑮᒫ	-7550
ᑮᓵ	-7551
ᑯᓇ	-7552
ᑲᐞ	-7553
ᑲᓄ	-7554
ᑲᓯ	-7555
ᑳᑎ	-7556
ᑳᑫ	-7557
ᑳᑲ	-7558
ᑳᒪ	-7559
ᑳᓐ	-7560
ᑳᓬ	-7561
ᑴᑴ	-7562
ᒉᓴ	-7563
ᒉᕒ	-7564
ᒋᐌ	-7565
ᒋᔭ	-7566
ᒑᔅ	-7567
ᒥᐃ	-7568
ᒥᒻ	-7569
ᒥᓯ	-7570
ᒥᔮ	-7571
ᒦᐎ	-7572
ᒨᑌ	-7573
ᒨᔑ	-7574
ᓀᐌ	-7575
ᓀᓴ	-7576
ᓀᔮ	-7577
ᓂᐙ	-7578
ᓂᒀ	-7579
ᓂᓃ	-7580
ᓃᐗ	-7581
ᓃᔪ	-7582
ᓅᓯ	-7583
ᓇᒻ	-7584
ᓇᔥ	-7585
ᓈᐎ	-7586
ᓐᑦ	-7587
ᓭᓭ	-7588
ᓰᒡ	-7589
ᓰᓯ	-7590
ᓵᓬ	-7591
ᔅᑎ	-7592
ᔑᒧ	-7593
ᔑᓄ	-7594
ᔑᔮ	-7595
ᔒᐯ	-7596
ᔨᔑ	-7597
ᐁᐃᓉ	-7598
ᐁᐅᑌ	-7599
ᐁᐊᐎ	-7600
ᐁᐋᑾ	-7601
ᐁᐐᑾ	-7602
ᐁᐴᔔ	-7603
ᐁᐸᓬ	-7604
ᐁᑮᑌ	-7605
ᐁᑮᓈ	-7606
ᐁᒎᐎ	-7607
ᐁᒫᓀ	-7608
ᐁᓂᔑ	-7609
ᐁᓬᐃ	-7610
ᐁᔑᐅ	-7611
ᐁᔑᐊ	-7612
ᐃᑎᔅ	-7613
ᐃᑯᑣ	-7614
ᐃᑴᕽ	-7615
ᐃᓇᐃ	-7616
ᐃᓇᐊ	-7617
ᐃᓇᒃ	-7618
ᐃᓇᓵ	-7619
ᐃᓬᐄ	-7620
ᐃᔑᑖ	-7621
ᐃᔖᓰ	-7622
ᐃᔥᐹ	-7623
ᐃᔦᒃ	-7624
ᐅᐌᓅ	-7625
ᐅᐗᓂ	-7626
ᐅᐙᒡ	-7627
ᐅᑑᑎ	-7628
ᐅᑕᔑ	-7629
ᐅᑭᑕ	-7630
ᐅᑲᒦ	-7631
ᐅᑲᒨ	-7632
ᐅᒌᓂ	-7633
ᐅᒨᑕ	-7634
ᐅᒪᒑ	-7635
ᐅᓂᐳ	-7636
ᐅᓂᑸ	-7637
ᐊᐗᓯ	-7638
ᐊᐱᓐ	-7639
ᐊᑖᓱ	-7640
ᐊᑫᔭ	-7641
ᐊᑾᒋ	-7642
ᐊᒸᒡ	-7643
ᐊᓂᒧ	-7644
ᐊᔮᔐ	-7645
ᐋᐙᒃ	-7646
ᐋᒋᓭ	-7647
ᐋᒨᐎ	-7648
ᐋᓂᑲ	-7649
ᐋᓇᒥ	-7650
ᐋᓍᐸ	-7651
ᐋᓬᐱ	-7652
ᐌᑌᑌ	-7653
ᐌᑭᓐ	-7654
ᐎᓯᒡ	-7655
ᐎᔑᐌ	-7656
ᐐᑑᑳ	-7657
ᐐᑕᕽ	-7658
ᐐᒋᑣ	-7659
ᐗᔑᕽ	-7660
ᐙᐊᓂ	-7661
ᐙᐱᑾ	-7662
ᐙᐱᒡ	-7663
ᐙᓂᒃ	-7664
ᐯᐸᒋ	-7665
ᐯᑕᓂ	-7666
ᐯᑭᑑ	-7667
ᐱᓃᔑ	-7668
ᐱᓱᑫ	-7669
ᐱᔦᒃ	-7670
ᐲᓈᒡ	-7671
ᐸᑳᓂ	-7672
ᐹᔑᒡ	-7673
ᐹᔭᓐ	-7674
ᐹᕒᑖ	-7675
ᑆᑕᐐ	-7676
ᑌᑯᔑ	-7677
ᑎᓯᒻ	-7678
ᑑᑕᓐ	-7679
ᑕᐌᒋ	-7680
ᑕᐎᓂ	-7681
ᑕᐎᓐ	-7682
ᑕᐗᒀ	-7683
ᑕᐙᓰ	-7684
ᑕᐱᒥ	-7685
ᑕᑭᓐ	-7686
ᑕᒥᓉ	-7687
ᑕᒥᕽ	-7688
ᑕᒫᑰ	-7689
ᑕᒫᒌ	-7690
ᑕᓴᓐ	-7691
ᑕᕒᐱ	-7692
ᑖᐃᐲ	-7693
ᑖᐗᕽ	-7694
ᑖᓂᓐ	-7695
ᑫᐱᒥ	-7696
ᑫᑑᑕ	-7697
ᑫᑕᑯ	-7698
ᑫᑭᓄ	-7699
ᑫᒪᒋ	-7700
ᑫᔥᑭ	-7701
ᑭᐐᑑ	-7702
ᑭᐙᐱ	-7703
ᑭᑎᐹ	-7704
ᑭᑎᒥ	-7705
ᑭᑎᓄ	-7706
ᑭᑖᐤ	-7707
ᑭᑭᓅ	-7708
ᑭᑭᔅ	-7709
ᑭᑲᑮ	-7710
ᑭᑲᓅ	-7711
ᑭᒫᔑ	-7712
ᑭᓃᑭ	-7713
ᑭᓅᓂ	-7714
ᑭᓇᐙ	-7715
ᑭᓭᓂ	-7716
ᑭᔦᒃ	-7717
ᑮᐃᓉ	-7718
ᑮᐅᓇ	-7719
ᑮᐊᐲ	-7720
ᑮᐊᓅ	-7721
ᑮᐐᐎ	-7722
ᑮᐐᒋ	-7723
ᑮᑌᐱ	-7724
ᑮᑕᓱ	-7725
ᑮᒨᒡ	-7726
ᑮᒪᑗ	-7727
ᑮᔖᐯ	-7728
ᑯᐹᑌ	-7729
ᑯᑖᐎ	-7730
ᑯᓂᐌ	-7731
ᑯᓂᑣ	-7732
ᑰᐗᕽ	-7733
ᑲᑳᓍ	-7734
ᑲᓂᒡ	-7735
ᑲᓇᓯ	-7736
ᑳᐃᑴ	-7737
ᑳᐅᑕ	-7738
ᑳᐊᐎ	-7739
ᑳᐐᓈ	-7740
ᑳᐐᔥ	-7741
ᑳᐙᐱ	-7742
ᑳᐯᑭ	-7743
ᑳᐸᒦ	-7744
ᑳᑭᐱ	-7745
ᑳᑮᑑ	-7746
ᑳᑾᔭ	-7747
ᑳᒣᔮ	-7748
ᑳᒪᒑ	-7749
ᑳᒪᓯ	-7750
ᑳᒫᓈ	-7751
ᑳᓀᓰ	-7752
ᑳᓂᐎ	-7753
ᑳᓈᐙ	-7754
ᑳᓯᕽ	-7755
ᑴᐌᒡ	-7756
ᑴᑭᑖ	-7757
ᑴᓂᒡ	-7758
ᑴᔭᒀ	-7759
ᒀᕒᐃ	-7760
ᒋᐅᓀ	-7761
ᒋᐋᓐ	-7762
ᒋᐯᑳ	-7763
ᒋᐲᑾ	-7764
ᒋᑑᑖ	-7765
ᒋᑭᑌ	-7766
ᒋᑮᔗ	-7767
ᒋᒥᑲ	-7768
ᒋᒧᒡ	-7769
ᒋᒧᔐ	-7770
ᒋᓂᑖ	-7771
ᒋᓅᑌ	-7772
ᒋᔖᐾ	-7773
ᒌᐸᔾ	-7774
ᒌᑫᐤ	-7775
ᒌᒫᓀ	-7776
ᒌᒫᓃ	-7777
ᒌᓂᒡ	-7778
ᒑᓂᒣ	-7779
ᒑᔓᐙ	-7780
ᒣᔥᑯ	-7781
ᒣᔥᑲ	-7782
ᒥᐌᒡ	-7783
ᒥᐗᒃ	-7784
ᒥᐙᕽ	-7785
ᒥᒋᒪ	-7786
ᒥᓇᒀ	-7787
ᒥᓴᐎ	-7788
ᒦᑖᑴ	-7789
ᒦᓇᑫ	-7790
ᒧᐌᒃ	-7791
ᒪᑏᔭ	-7792
ᒫᐗᒃ	-7793
ᒫᐸᓐ	-7794
ᒫᑕᑖ	-7795
ᒫᓇᑎ	-7796
ᒸᕒᐊ	-7797
ᓀᐗᑕ	-7798
ᓂᐗᕽ	-7799
ᓂᐳᓰ	-7800
ᓂᑎᓲ	-7801
ᓂᑎᔅ	-7802
ᓂᑎᔖ	-7803
ᓂᑕᔑ	-7804
ᓂᑫᓂ	-7805
ᓂᑮᐙ	-7806
ᓂᑲᔑ	-7807
ᓂᒥᒋ	-7808
ᓂᒪᑣ	-7809
ᓂᒫᒃ	-7810
ᓂᒫᒑ	-7811
ᓂᒫᓀ	-7812
ᓂᓀᒀ	-7813
ᓂᓯᒃ	-7814
ᓂᔅᑴ	-7815
ᓂᔥᑳ	-7816
ᓃᔭᔅ	-7817
ᓄᑖᓐ	-7818
ᓅᑕᐙ	-7819
ᓇᐙᒃ	-7820
ᓇᒫᑯ	-7821
ᓇᒫᕽ	-7822
ᓈᑐᒃ	-7823
ᓉᐎᓐ	-7824
ᓬᐃᓯ	-7825
ᓬᐆᔭ	-7826
ᓬᐊᒥ	-7827
ᓬᐋᑦ	-7828
ᓬᑏᔭ	-7829
ᓭᐗᒃ	-7830
ᓭᐗᓐ	-7831
ᓯᐌᒀ	-7832
ᓯᑭᓐ	-7833
ᓯᓬᐆ	-7834
ᓴᑭᒡ	-7835
ᓴᑲᑲ	-7836
ᓴᑳᐹ	-7837
ᓴᓰᒀ	-7838
ᓴᓰᓶ	-7839
ᓵᑭᐞ	-7840
ᓵᒐᓰ	-7841
ᓵᒥᓂ	-7842
ᓵᒥᓯ	-7843
ᓵᔭᓐ	-7844
ᔑᐗᒃ	-7845
ᔑᔭᓐ	-7846
ᔑᔭᔅ	-7847
¦	-7848
▁	-7849
ᓂ	-7850
ᐃ	-7851
ᓐ	-7852
ᑭ	-7853
ᑕ	-7854
ᒋ	-7855
ᑮ	-7856
ᑳ	-7857
ᐅ	-7858
ᐊ	-7859
ᑲ	-7860
ᒡ	-7861
ᒃ	-7862
ᔥ	-7863
ᔑ	-7864
ᐙ	-7865
᙮	-7866
ᓇ	-7867
ᐎ	-7868
,	-7869
ᐁ	-7870
ᒫ	-7871
ᑯ	-7872
ᑫ	-7873
ᓯ	-7874
ᒥ	-7875
ᑎ	-7876
ᐱ	-7877
ᐌ	-7878
ᒪ	-7879
ᐐ	-7880
ᓈ	-7881
ᕽ	-7882
ᐗ	-7883
ᒦ	-7884
ᐸ	-7885
ᔦ	-7886
ᐋ	-7887
ᑑ	-7888
ᑌ	-7889
ᑖ	-7890
ᓴ	-7891
ᓃ	-7892
ᔮ	-7893
ᔭ	-7894
ᑰ	-7895
ᐯ	-7896
ᓀ	-7897
ᐲ	-7898
ᐞ	-7899
ᓄ	-7900
ᑾ	-7901
ᔐ	-7902
ᓰ	-7903
ᑐ	-7904
ᔅ	-7905
ᓅ	-7906
ᔕ	-7907
ᒧ	-7908
ᒻ	-7909
ᒀ	-7910
:	-7911
ᑴ	-7912
ᒌ	-7913
ᐹ	-7914
ᓱ	-7915
ᓭ	-7916
ᒣ	-7917
ᓵ	-7918
ᓬ	-7919
ᕒ	-7920
ᐺ	-7921
ᒨ	-7922
ᒑ	-7923
ᔖ	-7924
ᐄ	-7925
?	-7926
ᐆ	-7927
ᔓ	-7928
!	-7929
ᒎ	-7930
ᐴ	-7931
x	-7932
𐋇	-7933
ᑦ	-7934
ᓲ	-7935
ᑣ	-7936
ᐳ	-7937
ᔒ	-7938
ᔔ	-7939
ᓉ	-7940
ᑏ	-7941
ᓍ	-7942
ᒐ	-7943
ᑆ	-7944
ᐤ	-7945
ᒉ	-7946
ᑸ	-7947
ᒞ	-7948
ᔫ	-7949
ᔣ	-7950
ᑉ	-7951
ᔨ	-7952
0	-7953
ᔂ	-7954
ᔗ	-7955
;	-7956
ᑗ	-7957
ᔩ	-7958
2	-7959
ᑶ	-7960
3	-7961
ᓶ	-7962
1	-7963
ᔪ	-7964
4	-7965
7	-7966
ᒬ	-7967
ᒸ	-7968
ᓋ	-7969
ᐾ	-7970
ᔛ	-7971
ᒶ	-7972
5	-7973
ᒍ	-7974
–	-7975
8	-7976
ᔀ	-7977
ᔾ	-7978
6	-7979
9	-7980
ᔡ	-7981
(	-7982
)	-7983
.	-7984
"	-7985
/	-7986
[	-7987
]	-7988
a	-7989
u	-7990
z	-7991
~	-7992
ᐧ	-7993
ᐼ	-7994
ᑡ	-7995
ᒒ	-7996
