<pad>	0
</s>	0
<unk>	0
ܐ	-2.85
ܘ	-3.87533
ܝܢ	-4.03003
▁	-4.15152
ܢ	-4.17683
ܬ	-4.23442
▁ܡܢ	-4.24192
▁ܕ	-4.25445
ܗ	-4.27243
▁ܠܐ	-4.50008
ܝ	-4.50095
▁ܗܘ	-4.57871
▁ܕܝܢ	-4.58912
▁ܠܗ	-4.64073
▁ܘ	-4.64119
ܘܢ	-4.73306
ܟ	-4.80128
▁ܗܘܐ	-4.86835
▁ܒ	-4.88421
▁ܠ	-4.897
▁ܐܢܐ	-4.93897
ܬܐ	-5.01902
▁ܓܝܪ	-5.13558
ܒ	-5.17886
ܡ	-5.1792
ܪ	-5.18233
▁ܥܠ	-5.18733
ܕ	-5.20151
▁ܐ	-5.20303
ܫ	-5.21018
▁ܐܡܪ	-5.21906
▁ܡ	-5.27052
▁ܐܠ	-5.35559
ܩ	-5.36519
ܢܐ	-5.37198
ܤ	-5.3814
ܠ	-5.38291
ܥ	-5.38707
▁ܝܫܘܥ	-5.3871
▁ܐܝܟ	-5.39755
ܛ	-5.40591
▁ܘܠܐ	-5.40987
▁ܠܗܘܢ	-5.43178
ܘܗܝ	-5.45964
▁ܐܦ	-5.47134
▁ܗܘܘ	-5.4758
▁ܐܢܬܘܢ	-5.47783
▁ܢ	-5.49631
ܦ	-5.50427
▁ܟܕ	-5.50564
▁ܕܠܐ	-5.52633
▁ܘܐܡܪ	-5.54283
ܓ	-5.54666
ܘܬܐ	-5.56167
ܚ	-5.59257
▁ܡܛܠ	-5.60607
▁ܠܟܘܢ	-5.62246
▁ܬ	-5.64666
▁ܕܡ	-5.65232
ܝܠܝܢ	-5.71875
▁ܘܡ	-5.74493
▁ܕܐܠܗܐ	-5.75641
ܠܐ	-5.78002
ܝܐ	-5.78877
▁ܐܢܬ	-5.82113
▁ܚܕ	-5.82127
ܙ	-5.82295
▁ܠܡ	-5.8277
ܡܐ	-5.83957
▁ܕܢ	-5.85762
▁ܗ	-5.87677
▁ܗܝ	-5.9021
▁ܐܠܗܐ	-5.92273
▁ܕܐ	-5.94459
▁ܒܗ	-5.94632
▁ܐܢ	-5.95093
▁ܗܢܐ	-5.96039
▁ܠܝ	-5.96046
ܨ	-5.98473
▁ܐܢܘܢ	-6.00445
▁ܗܠܝܢ	-6.01977
▁ܘܐ	-6.03436
▁ܘܟܕ	-6.06644
▁ܘܠ	-6.07487
▁ܘܒ	-6.08528
▁ܡܫܝܚܐ	-6.13026
▁ܥܡ	-6.1361
▁ܡܕܡ	-6.1371
▁ܕܒ	-6.17889
▁ܘܕ	-6.18926
▁ܐܬ	-6.19358
▁ܟܠ	-6.20074
▁ܐܢܫ	-6.22243
ܟܝܠ	-6.22427
▁ܐܝܬ	-6.23499
ܬܗ	-6.24472
▁ܠܟ	-6.24639
▁ܐܘ	-6.25471
ܟܘܢ	-6.26478
▁ܡܬ	-6.26757
▁ܘܡܢ	-6.31681
ܝܬ	-6.34352
▁ܗܕܐ	-6.3503
ܢܝ	-6.37483
▁ܘܐܢ	-6.37509
▁ܗܢܘܢ	-6.3893
▁ܒܪ	-6.3912
ܗܘܢ	-6.39973
ܒܪ	-6.40407
▁ܕܡܢ	-6.40849
▁ܥܒܕ	-6.42201
ܬܘܢ	-6.44386
ܘܤ	-6.45166
ܕܝܢ	-6.45993
ܒܝ	-6.46977
▁ܠܘܬ	-6.47581
ܪܐ	-6.48377
▁ܠܢ	-6.48808
▁ܥܕ	-6.49991
▁ܩܕܡ	-6.50143
▁ܚ	-6.52736
▁ܘܢ	-6.52927
▁ܝܕܥ	-6.5436
ܫܐ	-6.55783
ܒܐ	-6.56576
▁ܕܠ	-6.56774
▁ܫ	-6.58969
ܝܬܐ	-6.59178
ܠܝ	-6.60338
▁ܕܐܝܬ	-6.60691
ܝܗܘܢ	-6.61077
ܘܪ	-6.63324
▁ܐܬܐ	-6.69128
▁ܤܓܝܐܐ	-6.69416
▁ܥ	-6.70232
ܝܪ	-6.72165
▁ܒܝܬ	-6.72181
▁ܗܘܬ	-6.73605
▁ܗܟܢܐ	-6.7394
ܝܢܢ	-6.75343
▁ܟܠܗܘܢ	-6.79974
ܩܘ	-6.79996
▁ܓܒܪܐ	-6.8035
▁ܚܢܢ	-6.8336
ܐܝܬ	-6.83777
ܝܟܘܢ	-6.83934
▁ܢܗܘܐ	-6.8432
ܪܝ	-6.84892
▁ܪܘܚܐ	-6.85869
▁ܕܐܡܪ	-6.86286
▁ܒܡ	-6.86399
▁ܕܬ	-6.87014
ܝܠ	-6.87889
▁ܐܝܟܢ	-6.88192
▁ܘܐܬ	-6.88754
ܛܪ	-6.88765
▁ܤ	-6.89011
ܝܗܝ	-6.90922
▁ܡܐ	-6.91504
ܪܥ	-6.91664
▁ܘܐܡܪܝܢ	-6.92228
ܩܪ	-6.9258
▁ܠܐܠܗܐ	-6.92765
ܝܗ	-6.93508
ܕܥ	-6.93637
▁ܦ	-6.95373
ܠܝܢ	-6.96064
▁ܬܡܢ	-6.96411
ܟܝ	-6.96703
ܠܟ	-6.97284
▁ܘܚ	-6.98201
▁ܟܠܗ	-6.99291
▁ܘܫ	-6.99922
▁ܘܥܠ	-7.00789
ܝܟ	-7.01086
ܝܘ	-7.01777
▁ܕܐܢ	-7.01849
▁ܘܗ	-7.01893
ܟܪ	-7.02193
ܦܪ	-7.0262
▁ܐܙܠ	-7.02636
ܒܥ	-7.03785
▁ܗܘܝܬ	-7.04074
▁ܐܡܪܝܢ	-7.05575
ܚܘ	-7.05661
▁ܕܐܬ	-7.05772
▁ܕܐܦ	-7.05905
▁ܢܬ	-7.07558
▁ܘܐܝܬ	-7.07836
ܒܠ	-7.08827
▁ܐܡܝܢ	-7.08944
ܬܪ	-7.10431
▁ܕܗܘ	-7.10448
ܥܒܕ	-7.1063
▁ܓ	-7.1193
▁ܡܢܗ	-7.13862
▁ܘܬ	-7.14116
▁ܥܠܘܗܝ	-7.14469
▁ܫܡܥ	-7.1476
ܫܠܡ	-7.14856
▁ܢܦܩ	-7.14908
▁ܬܘܒ	-7.15197
ܡܪ	-7.15635
▁ܝܬܝܪ	-7.16258
▁ܡܫܟܚ	-7.17104
▁ܘܗܘ	-7.17565
▁ܡܠܬܐ	-7.17761
ܘܬ	-7.1815
ܩܢ	-7.18444
▁ܒܢܝ	-7.19021
ܕܡ	-7.19339
▁ܒܪܗ	-7.19665
▁ܐܚܝ	-7.19738
ܘܡ	-7.20528
ܚܐ	-7.20578
▁ܕܥܒܕ	-7.22104
▁ܘܐܦ	-7.22225
ܫܝ	-7.22275
ܘܬܗ	-7.23121
ܒܘ	-7.24157
ܠܝܐ	-7.25042
ܪܘ	-7.2544
▁ܒܬܪ	-7.26313
ܤܪ	-7.26687
ܥܠ	-7.27276
▁ܪܒ	-7.27887
▁ܗܫܐ	-7.28349
▁ܠܝܬ	-7.28766
▁ܒܠܚܘܕ	-7.28864
▁ܐܤ	-7.28999
▁ܕܚ	-7.29326
ܪܡ	-7.2964
▁ܐܢܫܐ	-7.30001
▁ܢܦܫܗ	-7.3014
▁ܛ	-7.30166
ܚܪ	-7.30826
▁ܢܤܒ	-7.30914
ܬܝ	-7.31379
ܪܬܐ	-7.31473
▁ܥܡܗ	-7.31589
▁ܕܝܫܘܥ	-7.3159
▁ܝܗܘܕܝܐ	-7.31662
▁ܡܢܗܘܢ	-7.33008
▁ܐܝܢ	-7.34161
▁ܗܘܝܬܘܢ	-7.34475
▁ܐܚܪܢܐ	-7.34559
ܦܐ	-7.34768
▁ܘܩ	-7.35036
▁ܝܕܥܝܢ	-7.35306
▁ܡܪܝ	-7.35351
▁ܝܗܒ	-7.3627
ܠܘ	-7.36273
ܝܩ	-7.36333
▁ܫܡܝܐ	-7.3637
▁ܠܒܪ	-7.38571
▁ܘܟܠ	-7.38608
▁ܚܙܐ	-7.3947
▁ܥܒܕܐ	-7.39538
▁ܢܡܘܤܐ	-7.39707
ܡܠܠ	-7.40272
▁ܕܫܡܥ	-7.40601
ܓܕ	-7.40642
▁ܡܫܬ	-7.41569
▁ܥܢܐ	-7.41735
ܡܢ	-7.41872
▁ܐܫܬ	-7.42227
ܝܘܗܝ	-7.42783
ܠܦ	-7.42864
▁ܕܟܠ	-7.42954
▁ܫܘ	-7.43092
▁ܟܢܫܐ	-7.43373
ܪܝܢ	-7.43556
▁ܦܘܠܘܤ	-7.43598
▁ܡܢܟܘܢ	-7.43635
▁ܟܗܢܐ	-7.44221
▁ܫܡܥܘܢ	-7.44463
▁ܬܠܡܝܕܘܗܝ	-7.44485
▁ܐܪܥܐ	-7.44836
ܓܪ	-7.45301
ܥܐ	-7.45788
ܘܒ	-7.46284
▁ܡܝܬܐ	-7.46832
ܕܚܠ	-7.46884
▁ܚܠܦ	-7.46923
ܪܟ	-7.47456
▁ܕܥܠ	-7.4825
▁ܡܪܢ	-7.48653
▁ܠܘܬܗ	-7.4898
ܗܢܘܢ	-7.50677
▁ܕܦ	-7.51071
▁ܒܝ	-7.51076
▁ܚܝܐ	-7.51237
▁ܬܬ	-7.51336
▁ܕܡܪܢ	-7.51468
▁ܨܒܐ	-7.52088
▁ܡܚ	-7.52372
ܘܫ	-7.52604
ܠܬܐ	-7.52672
▁ܟܐܦܐ	-7.52681
▁ܩܪܒ	-7.53233
▁ܪܒܐ	-7.53313
ܫܡ	-7.53358
▁ܩܪ	-7.53541
▁ܙ	-7.54354
▁ܥܡܗܘܢ	-7.54754
▁ܡܕܝܢܬܐ	-7.55682
ܩܪܒ	-7.55967
▁ܐܢܬܬܐ	-7.56102
ܕܐ	-7.56336
▁ܕܡܫܝܚܐ	-7.56531
▁ܒܢ	-7.56699
▁ܐܝܬܘܗܝ	-7.57579
ܟܠ	-7.57679
▁ܤܒܪ	-7.58044
ܩܐ	-7.58186
ܥܘܠ	-7.58242
▁ܕܒܗ	-7.58657
▁ܡܪܝܐ	-7.59422
ܟܢܫ	-7.59564
▁ܘܢܦܩ	-7.60196
▁ܒܟܘܢ	-7.60719
▁ܡܠܐܟܐ	-7.60881
▁ܡܝܬ	-7.61066
▁ܐܒܐ	-7.61222
▁ܕܐܝܬܘܗܝ	-7.61346
▁ܢܒܝܐ	-7.61351
▁ܘܠܡ	-7.61521
▁ܕܐܢܫܐ	-7.61622
ܚܝ	-7.61642
▁ܠܘܬܟܘܢ	-7.62215
▁ܩܡ	-7.62435
▁ܠܒ	-7.62715
ܒܗ	-7.62798
▁ܕܥ	-7.63262
▁ܡܫ	-7.63326
▁ܕܤ	-7.63328
ܚܕ	-7.63672
▁ܚܝ	-7.63809
ܠܚ	-7.64028
▁ܕܥܡ	-7.64364
▁ܪܒܝ	-7.65719
▁ܕܩܘܕܫܐ	-7.65722
ܚܡ	-7.66071
▁ܚܕܐ	-7.66475
▁ܕܐܬܐ	-7.66899
▁ܡܡܠܠ	-7.67317
▁ܨ	-7.67515
▁ܗܘܝ	-7.67612
▁ܠܚܕ	-7.67699
▁ܕܡܪܝܐ	-7.68107
ܫܡܫ	-7.68263
▁ܢܦܠ	-7.68339
▁ܟܠܗܝܢ	-7.69407
ܬܟ	-7.69525
ܝܒ	-7.70102
▁ܫܦܝܪ	-7.70405
ܥܒܪ	-7.70549
ܕܝ	-7.70584
▁ܐܝܕܐ	-7.70758
▁ܘܒܪ	-7.71068
ܪܬ	-7.71205
▁ܕܕ	-7.71259
▁ܕܠܡܐ	-7.7147
▁ܐܫܟܚ	-7.71607
▁ܒܚ	-7.71735
ܗܦܟ	-7.72602
ܫܪ	-7.73236
▁ܡܠܟܐ	-7.73344
▁ܕܚܕ	-7.7347
ܪܤ	-7.73962
▁ܥܝܢ	-7.74371
▁ܤܓܝ	-7.74469
ܬܟܘܢ	-7.75503
▁ܒܝܘܡ	-7.75965
▁ܙܒܢܐ	-7.76207
▁ܥܠܝܗܘܢ	-7.76359
▁ܬܗܘܐ	-7.766
ܦܬܚ	-7.77042
▁ܒܝܕ	-7.77151
ܠܘܢ	-7.77438
▁ܘܥ	-7.7765
▁ܘܤ	-7.77732
▁ܪܚܡ	-7.7787
▁ܘܐܬܐ	-7.77929
▁ܫܒܩ	-7.78503
ܛܐ	-7.7863
▁ܟܐ	-7.79595
ܪܫ	-7.79609
▁ܠܡܢ	-7.79881
▁ܫܕܪ	-7.805
▁ܬܪܝܢ	-7.80677
▁ܒܟܠ	-7.80966
▁ܒܟ	-7.81123
▁ܐܒܝ	-7.81745
▁ܝܘܡܬܐ	-7.8181
▁ܠܝܫܘܥ	-7.8209
▁ܒܥܐ	-7.8232
▁ܨܒܝܢ	-7.82433
▁ܘܪ	-7.82456
▁ܒܗܝܡܢܘܬܐ	-7.83157
ܛܘ	-7.83748
▁ܠܒܝܬ	-7.8404
▁ܕܡܬ	-7.84228
▁ܥܡܐ	-7.84828
▁ܕܥܠܡܐ	-7.8501
ܪܝܡ	-7.8501
▁ܡܠܐ	-7.85232
▁ܫܪܝ	-7.85697
▁ܫܒ	-7.85924
▁ܘܝܗܒ	-7.85967
▁ܥܠܡܐ	-7.86471
ܝܤ	-7.86567
ܟܝܢ	-7.86636
ܓܠܐ	-7.86691
ܟܬܒ	-7.86943
▁ܐܝ	-7.8736
▁ܛܒܐ	-7.8766
ܦܠܓ	-7.87896
▁ܒܫ	-7.879
▁ܠܡܐ	-7.87901
ܫܡܥ	-7.88862
ܘܪܐ	-7.88874
▁ܚܙܘ	-7.89021
ܝܕܝܢ	-7.89051
▁ܕܨܒ	-7.8906
▁ܘܐܝܟ	-7.89542
ܤܐ	-7.90064
ܝܥܩܘܒ	-7.90203
ܪܝܫ	-7.90662
ܘܕܐ	-7.91062
▁ܛܒ	-7.91389
▁ܐܓܪ	-7.91475
▁ܝܘ	-7.91501
ܨܒ	-7.91525
ܘܦ	-7.92065
ܪܟܐ	-7.92435
ܒܥܐ	-7.92948
ܘܕܝ	-7.93544
▁ܘܗܘܐ	-7.94025
▁ܘܐܙܠ	-7.94125
ܘܚ	-7.94315
▁ܕܟܬܝܒ	-7.94681
▁ܕܠܥܠܡ	-7.94683
ܝܬܘܢ	-7.94689
ܢܝܐ	-7.94851
ܩܠ	-7.94921
▁ܦܪ	-7.94951
▁ܒܝܫܬܐ	-7.94983
▁ܦܓܪ	-7.95394
▁ܬܠܡܝܕܐ	-7.95429
▁ܡܪ	-7.95607
▁ܒܟܠܗ	-7.95661
▁ܕܡܬܩܪ	-7.96304
▁ܗܝܡܢܘܬܐ	-7.97068
▁ܥܒܪ	-7.97312
▁ܘܝ	-7.97556
▁ܕܢܬ	-7.97768
▁ܩܕܝܫܐ	-7.97867
▁ܕܝܠܝ	-7.97909
ܦܢ	-7.98099
▁ܥܡܡܐ	-7.98278
▁ܥܡܟܘܢ	-7.9906
ܡܬܝ	-7.99138
▁ܒܢܝܢܫܐ	-7.99381
▁ܠܚܡܐ	-7.99407
▁ܢܚܬ	-7.99542
ܬܗܘܢ	-7.99601
ܪܒܐ	-7.99653
▁ܫܐܠ	-7.99691
ܗܢܐ	-7.99737
▁ܥܠܝܟܘܢ	-8.00166
▁ܒܥܝܢ	-8.00174
ܤܝܐ	-8.00296
▁ܛܝܒܘܬܐ	-8.0048
▁ܘܐܫܬ	-8.0053
▁ܚܪ	-8.00788
▁ܝܘܚܢܢ	-8.00983
▁ܒܗܘܢ	-8.01002
▁ܢܦܫ	-8.01187
▁ܐܚܐ	-8.01195
▁ܒܤ	-8.01201
▁ܕܐܝܟ	-8.02023
▁ܠܥܠܡ	-8.02066
▁ܒܫܡܝܐ	-8.02629
▁ܒܪܢܫܐ	-8.02635
▁ܕܝܕܥ	-8.02673
▁ܩܕܡܝܐ	-8.02673
ܙܒܢ	-8.02873
▁ܘܚܕ	-8.04
ܡܠܐ	-8.0412
▁ܕܢܗܘܐ	-8.04304
▁ܝܘܡܐ	-8.04693
▁ܪܘܚ	-8.05079
▁ܘܩܡ	-8.05402
▁ܘܟܠܗ	-8.05522
ܝܦ	-8.05543
▁ܡܫܟܚܝܢ	-8.05623
▁ܢܗܘܘܢ	-8.05624
▁ܤܡ	-8.05786
▁ܠܟܠ	-8.05855
▁ܠܐܘܪܫܠܡ	-8.05987
▁ܫܡܥܘ	-8.06
▁ܕܝܗܒ	-8.0602
▁ܤܝܡ	-8.0607
▁ܟܡܐ	-8.06116
▁ܩܠܐ	-8.06157
▁ܙܪܥ	-8.06177
▁ܗܢܘ	-8.06471
▁ܡܠܟܘܬܐ	-8.06691
ܦܘܪ	-8.07389
▁ܤܗܕ	-8.07531
▁ܕܫܡܝܐ	-8.07717
ܥܡܕ	-8.08155
▁ܟܤ	-8.08211
▁ܕܝܗܘܕܝܐ	-8.08381
ܬܪܬܝܢ	-8.08481
▁ܐܟܠ	-8.09128
▁ܒܬܪܗ	-8.0917
▁ܕܥܬܝܕ	-8.09474
▁ܡܤ	-8.09731
▁ܕܒܪ	-8.09751
ܕܘܢ	-8.09941
ܤܝܒܪ	-8.09961
▁ܬܪܥܐ	-8.10285
▁ܒܝܫܐ	-8.10464
▁ܕܪܘܚ	-8.1079
▁ܘܫܪܝ	-8.10867
▁ܬܐ	-8.11151
ܛܝܒ	-8.11205
▁ܘܐܚ	-8.11216
▁ܕܢܫ	-8.11331
▁ܕܟܕ	-8.1146
▁ܕܝܠܗ	-8.11625
▁ܡܢܘ	-8.12184
ܥܕܬܐ	-8.12186
▁ܡܠܠ	-8.12733
ܬܐܡܪ	-8.12842
▁ܘܐܬܘ	-8.13063
▁ܠܓܒܪܐ	-8.13066
▁ܦܪܝܫܐ	-8.13076
▁ܐܤܝܪܐ	-8.13087
▁ܥܬܝܕ	-8.13099
▁ܕܫܡܗ	-8.13105
▁ܦܐܪܐ	-8.13109
▁ܐܢܝܢ	-8.13229
ܥܤܪ	-8.13282
▁ܟܪܝ	-8.13509
▁ܗܝܡܢܘ	-8.13694
ܕܩ	-8.13722
▁ܡܗܝܡܢ	-8.13955
ܓܢ	-8.13957
▁ܛܒܬܐ	-8.14025
▁ܥܠܝ	-8.14203
▁ܒܪܘܚܐ	-8.14759
▁ܠܘܩܕܡ	-8.14933
▁ܘܫܕܪ	-8.14945
ܕܢܐ	-8.15168
▁ܤܦܪ	-8.15291
ܤܡ	-8.15611
▁ܚܙ	-8.15875
▁ܘܥܒܕ	-8.15925
ܕܡܐ	-8.16245
▁ܘܥܡ	-8.16257
▁ܕܠܝ	-8.16289
▁ܕܚܠ	-8.16593
▁ܦܝܠܛܘܤ	-8.16804
▁ܡܘܫܐ	-8.16926
▁ܦܠܚ	-8.1702
ܬܝܗܒ	-8.17024
▁ܕܢܚ	-8.17259
▁ܫܪܝܪܐ	-8.17298
ܦܘܩ	-8.17351
▁ܒܢܝܐ	-8.17442
ܒܛܠ	-8.1846
▁ܕܐܢܬ	-8.18531
▁ܚܛܝܬܐ	-8.18731
▁ܙܥܘܪ	-8.18748
▁ܤܓܝܐܬܐ	-8.18796
▁ܘܢܫ	-8.19228
▁ܒܚܕ	-8.19593
▁ܫܘܠܛܢ	-8.19736
▁ܕܐܪܥܐ	-8.19875
▁ܥܒܕܝܢ	-8.20061
▁ܡܨ	-8.20343
▁ܥܡܝ	-8.20776
▁ܘܩܪܒ	-8.2081
▁ܟܬܒ	-8.20878
▁ܪܫܐ	-8.20889
▁ܕܬܗܘ	-8.21118
▁ܐܝܬܝܗ	-8.21181
▁ܫܪܒܬ	-8.21233
▁ܩܠܝܠ	-8.21251
▁ܪܒܬܐ	-8.22615
ܢܗܘܘܢ	-8.22688
▁ܟܬܝܒ	-8.22688
▁ܘܡܛܠ	-8.22718
▁ܐܪܒܥ	-8.22719
▁ܟܬܒܐ	-8.22765
▁ܚܡܫ	-8.22799
▁ܗܘܝܢ	-8.23205
▁ܟܠܢܫ	-8.23479
ܚܙܐ	-8.24103
ܘܡܐ	-8.24536
▁ܐܝܕܝ	-8.24549
▁ܕܡܗܝܡܢ	-8.24729
▁ܝܘܡܝܢ	-8.24744
▁ܤܠܩ	-8.24762
▁ܫܠܝܚܐ	-8.24786
▁ܕܗܘܐ	-8.24814
▁ܐܬܬ	-8.25166
▁ܚܕܬܐ	-8.25241
▁ܘܒܗ	-8.25951
▁ܠܥܠ	-8.26008
▁ܦܘܩܕܢܐ	-8.26103
▁ܪܫܝ	-8.26243
▁ܘܫܡܥ	-8.2647
▁ܢܛܪ	-8.26587
ܩܕ	-8.26771
▁ܐܝܬܝܗܘܢ	-8.26893
▁ܫܠܝܛ	-8.27104
ܩܕܡ	-8.27127
ܦܠ	-8.2714
▁ܡܗܝܡܢܐ	-8.27207
▁ܒܡܪܢ	-8.27458
▁ܒܒܝܬ	-8.27488
ܟܐܦܐ	-8.28351
▁ܩܒܠ	-8.28967
▁ܢܐܡܪ	-8.29046
▁ܩܘܪ	-8.29086
▁ܠܥܒܕ	-8.29208
▁ܘܤܡ	-8.2923
ܘܬܗܘܢ	-8.29864
▁ܩܘܡ	-8.30065
ܗܕܐ	-8.30191
▁ܕܚܝܐ	-8.30343
▁ܫܠܡܐ	-8.30695
▁ܕܒܝܬ	-8.30925
ܒܝܕ	-8.31036
▁ܚܤ	-8.31083
▁ܠܘܩܒܠ	-8.31114
ܚܫܘܟܐ	-8.31135
ܚܢ	-8.3123
ܚܠܦ	-8.31259
▁ܫܢܝܢ	-8.31289
▁ܫܠܡ	-8.32232
▁ܙܒܢ	-8.32249
ܛܘܤ	-8.32756
▁ܬܚܝ	-8.33334
▁ܩܕܝܡ	-8.33336
ܗܪܘܕܤ	-8.33338
▁ܡܩܒܠ	-8.33345
▁ܐܝܕܗ	-8.3335
▁ܫܡܗ	-8.33433
▁ܠܟܠܗܘܢ	-8.33584
▁ܘܬܘܒ	-8.33601
▁ܘܫܐܠ	-8.33702
▁ܪܡܐ	-8.33722
▁ܪܓܠ	-8.33729
ܡܟܐ	-8.34548
▁ܒܪܘܚ	-8.34688
ܫܒܘܩ	-8.34785
▁ܕܪܒ	-8.35001
▁ܒܤܪ	-8.35026
▁ܠܥܠܡܐ	-8.35049
▁ܝܡܐ	-8.35088
▁ܐܬܘ	-8.35221
▁ܠܕ	-8.35261
▁ܝܗܘܕ	-8.35271
▁ܢܫܬ	-8.35306
▁ܒܠܒ	-8.35393
▁ܐܘܠܕ	-8.3563
▁ܘܢܚ	-8.35883
▁ܚܫ	-8.35994
▁ܘܒܥ	-8.36054
▁ܠܝܘܡ	-8.36156
▁ܠܐܢܫ	-8.36352
▁ܕܬܬ	-8.36555
▁ܒܪܝ	-8.37016
▁ܟܠܡܕܡ	-8.37046
▁ܡܘܬܐ	-8.37497
▁ܫܒܥܐ	-8.37772
▁ܘܢܦܠ	-8.37835
▁ܝܬܒ	-8.38076
▁ܘܐܚܪܢ	-8.38077
▁ܬܪܥܤܪ	-8.38117
▁ܠܬܠܡܝܕܘܗܝ	-8.38336
ܛܝܒܘܬܗ	-8.38736
▁ܠܥܡ	-8.38839
▁ܕܫܪ	-8.39591
▁ܐܒܗ	-8.40164
ܝܡܐ	-8.40249
▁ܘܒܬܪ	-8.40479
▁ܕܗܠܝܢ	-8.4051
▁ܕܩܝܡ	-8.40675
ܦܝ	-8.40724
▁ܕܗ	-8.40895
▁ܒܐܪܥܐ	-8.41037
▁ܕܒܚ	-8.41258
ܪܘܚܐ	-8.41294
▁ܫܩܠ	-8.41385
▁ܡܦܩ	-8.41613
▁ܒܥܘ	-8.41813
ܠܨ	-8.41937
ܘܤܦ	-8.42084
ܬܝܕܥ	-8.42096
▁ܪܘ	-8.42186
▁ܙܒܢܝܢ	-8.42355
▁ܢܫ	-8.42747
▁ܕܒܫܡܝܐ	-8.42756
▁ܬܗܘܘܢ	-8.42761
ܦܝܠܝܦ	-8.42763
▁ܐܬܝܬ	-8.43
▁ܩܥ	-8.43064
▁ܐܝܤܪܝܠ	-8.43209
▁ܒܟܠܙܒܢ	-8.43215
▁ܡܠܟ	-8.43504
▁ܡܠܦ	-8.43696
ܫܬܠܡ	-8.43719
▁ܕܡܝܐ	-8.43898
ܡܠܐܟܐ	-8.43929
ܡܫܝܚܐ	-8.44022
▁ܒܐܝܕܗ	-8.44409
▁ܪܕ	-8.44767
▁ܚܝܒ	-8.45061
▁ܥܕܬܐ	-8.45197
V	-8.45254
▁ܒܫܡܗ	-8.45298
▁ܕܢܦܩ	-8.45326
▁ܠܡܐܡܪ	-8.45476
▁ܢܦܫܟ	-8.45625
▁ܒܝܫܘܥ	-8.45811
▁ܕܝܬܒ	-8.45828
▁ܕܒܝܫ	-8.45975
▁ܒܡܫܝܚܐ	-8.46041
▁ܩܐܡ	-8.46353
▁ܡܝܐ	-8.46439
ܘܬܟܘܢ	-8.46662
▁ܕܡܝܬ	-8.46818
▁ܟܠܟܘܢ	-8.47202
▁ܘܐܡܪܘ	-8.47639
ܤܓܝ	-8.47773
▁ܒܗܝܟܠܐ	-8.47823
▁ܘܦܩܕ	-8.47825
▁ܫܥܬܐ	-8.47841
ܙܝܥ	-8.47918
▁ܕܢܤܒ	-8.48045
▁ܒܥܠ	-8.48166
▁ܠܦܘܠܘܤ	-8.48231
ܕܒܚ	-8.48364
▁ܘܫܩܠ	-8.48569
▁ܚܒܝܒ	-8.48619
▁ܚܝܠܐ	-8.4869
ܡܕܡ	-8.48694
ܬܪܝܢ	-8.48697
▁ܕܐܫܬ	-8.489
ܡܪܐ	-8.48968
▁ܐܡܪܬ	-8.49078
ܡܠܬܐ	-8.4916
ܩܒܪ	-8.49235
▁ܦܓܪܐ	-8.49581
▁ܙܠ	-8.49926
ܐܪܥܐ	-8.50059
▁ܡܠܝ	-8.50185
▁ܐܘܪܫܠܡ	-8.50457
ܥܪܩ	-8.50568
▁ܕܒܢܝ	-8.50664
▁ܕܢܐܬ	-8.5067
▁ܗܪܟܐ	-8.51007
▁ܠܡܕܝܢܬܐ	-8.51177
ܡܘܢ	-8.51419
▁ܤܗܕܘܬ	-8.51769
▁ܠܢܦܫ	-8.52059
▁ܬܚ	-8.5265
▁ܝܡܝܢ	-8.53162
▁ܠܟܢܫܐ	-8.53291
▁ܢܬܠ	-8.53517
▁ܝܕܥܝܢܢ	-8.53774
▁ܠܡܥܒܕ	-8.54393
▁ܘܚܙܐ	-8.5462
▁ܩܝܡܝܢ	-8.54939
▁ܢܥܒܕ	-8.54959
ܢܒܐ	-8.54968
ܢܗܪ	-8.54979
▁ܕܩܕܡ	-8.55151
▁ܢܫܐ	-8.55304
ܝܕܐ	-8.55487
▁ܐܬܪܐ	-8.5549
▁ܬܠܬ	-8.55757
▁ܪܥܝ	-8.55866
▁ܒܐܘܪܚܐ	-8.55931
▁ܒܢܦܫܗ	-8.55931
▁ܕܐܝܬܝܗ	-8.55965
▁ܐܚܘܗܝ	-8.55984
▁ܒܫܠܡܐ	-8.56118
▁ܒܐܦܐ	-8.56148
▁ܗܝܡܢ	-8.56323
ܡܘܬ	-8.56346
▁ܘܢܗܘ	-8.5703
ܡܕܝܢܬܐ	-8.5721
▁ܠܡܚ	-8.57255
ܪܟܘܢ	-8.57276
▁ܩܕܝܫ	-8.57401
▁ܨܒܝܢܗ	-8.57578
▁ܡܪܝܡ	-8.57787
ܬܚܫܒ	-8.57899
▁ܕܡܘܬܐ	-8.5798
▁ܕܚܝ	-8.58031
▁ܠܡܪܝ	-8.58032
▁ܕܐܢܫ	-8.58498
ܡܪܢ	-8.58501
▁ܡܥ	-8.58502
ܤܛܪ	-8.58602
▁ܕܢܡܘܤܐ	-8.58788
▁ܪܫܗ	-8.58863
▁ܐܠܦܝܢ	-8.59022
▁ܐܬܪ	-8.59033
▁ܢܤ	-8.5951
ܐܝܩܪܐ	-8.59599
▁ܘܩܪܐ	-8.59742
▁ܕܐܚ	-8.5989
▁ܕܡܡܠܠ	-8.59976
▁ܚܙܝܢ	-8.60006
ܬܪܚܡ	-8.60089
▁ܚܘܒܐ	-8.60173
▁ܬܠܬܐ	-8.60265
▁ܕܡܐ	-8.60303
▁ܡܠܐܟ	-8.60454
ܒܘܢ	-8.6054
▁ܚܘܪ	-8.60604
ܟܠܡܕܡ	-8.60631
▁ܢܦܫܝ	-8.6072
▁ܒܪܡ	-8.61168
▁ܕܙܒܢ	-8.61336
▁ܕܒܢܝܢܫܐ	-8.61732
▁ܫܥܬܗ	-8.61736
ܤܦܝܢܬܐ	-8.6174
▁ܒܒܤܪ	-8.61748
▁ܕܪܚܡ	-8.61752
▁ܩܪܐ	-8.61854
▁ܦܩܕ	-8.61894
▁ܠܗܘ	-8.62106
▁ܕܬܠܬ	-8.62133
ܐܟܘܠ	-8.62225
▁ܠܚܡ	-8.62282
▁ܕܝܠܟܘܢ	-8.62324
▁ܘܒܡ	-8.62329
▁ܠܘܬܝ	-8.62333
ܚܩ	-8.62378
▁ܡܚܒ	-8.62394
▁ܡܠܦܢܐ	-8.62398
▁ܕܬܫ	-8.62411
▁ܫܐܠܘ	-8.62535
ܡܚܕܐ	-8.62574
▁ܐܝܬܝ	-8.62838
▁ܐܚܝܢ	-8.62996
ܟܫܠ	-8.63026
▁ܕܐܟܠ	-8.63106
▁ܩܫܝܫܐ	-8.63149
▁ܢܨ	-8.6329
ܝܩܪ	-8.63307
▁ܩܪܝܬ	-8.63574
ܪܘܪܒ	-8.63846
ܛܝܒܘܬܐ	-8.63854
ܟܤܐ	-8.63965
ܫܘܬܦ	-8.64019
▁ܡܫܠܡ	-8.64025
▁ܒܗܕܐ	-8.64144
▁ܥܠܝܗ	-8.64215
▁ܠܘܬܗܘܢ	-8.64314
▁ܕܠܘܬ	-8.64413
▁ܡܛܝ	-8.64513
▁ܫܪܪܐ	-8.64774
▁ܐܘܠܨܢ	-8.64781
▁ܘܕܡ	-8.64836
▁ܗܝܟܠܐ	-8.64854
▁ܡܤܗܕ	-8.64886
▁ܕܝܠܢ	-8.64898
▁ܒܩܠܐ	-8.64911
▁ܠܚܝܐ	-8.64958
▁ܛܠܝܐ	-8.65101
ܡܫܡܫܢܐ	-8.65231
▁ܬܫܒܘܚܬܐ	-8.65391
▁ܓܢܒ	-8.6551
▁ܕܗܟܢܐ	-8.65877
▁ܘܐܙܠܘ	-8.65926
▁ܒܡܠܬܐ	-8.66037
ܦܝܤ	-8.66599
ܗܘܝܬܘܢ	-8.66641
▁ܒܐܝܕܝ	-8.66773
ܠܥܤ	-8.67388
ܚܝܘܬܐ	-8.67718
▁ܕܝܘܚܢܢ	-8.67884
▁ܡܘܗܒܬ	-8.67885
▁ܐܩܝܡ	-8.67885
▁ܘܐܫܟܚ	-8.67885
▁ܚܛܗܐ	-8.67887
▁ܟܘܡܪ	-8.67892
▁ܕܚܙܝܬ	-8.67916
▁ܕܩܒܠ	-8.67922
▁ܘܢܤܒ	-8.67952
▁ܘܠܝܘܡ	-8.68097
▁ܘܝܕܥ	-8.68161
▁ܡܤܒܪ	-8.68225
▁ܪܓܠܘܗܝ	-8.68491
▁ܕܤܒܪ	-8.68497
▁ܘܐܪܡܝ	-8.68871
▁ܡܗܝܡܢܝܢ	-8.68936
▁ܢܘܗܪܐ	-8.68951
▁ܘܡܠܦ	-8.69111
ܚܫܒܬ	-8.69192
▁ܙܢܝ	-8.69284
▁ܫܘܒܚܐ	-8.69319
▁ܕܗܢܘܢ	-8.69438
▁ܤܟܠ	-8.69478
▁ܘܚܙܝܬ	-8.6958
ܝܬܪ	-8.69604
ܐܫܕ	-8.69994
▁ܒܝܡܐ	-8.70233
▁ܢܚܐ	-8.70364
▁ܐܘܪܚܐ	-8.70426
ܝܘܠܦܢܐ	-8.70628
▁ܕܒܪܗ	-8.70663
▁ܕܫܘ	-8.70914
ܝܡܬܐ	-8.70927
▁ܕܕܘܝܕ	-8.7111
▁ܘܦܪܝܫܐ	-8.7111
▁ܕܢܐܙܠ	-8.71119
▁ܐܚܪܝܐ	-8.71121
▁ܒܝܬܗ	-8.71182
▁ܐܒܘܗܝ	-8.71204
▁ܕܢܒܝܐ	-8.7132
▁ܘܠܝܬ	-8.71509
▁ܕܢܫܬ	-8.71858
▁ܦܘܡ	-8.71871
▁ܡܐܢ	-8.71989
▁ܚܡܪ	-8.71995
▁ܪܓ	-8.72041
▁ܓܒܝ	-8.72155
▁ܒܬܪܝ	-8.72192
ܩܘܡ	-8.72449
ܕܓܠ	-8.72617
ܬܫܒܘܚܬܐ	-8.72827
ܩܕܫ	-8.72937
▁ܐܚܕ	-8.7314
▁ܠܒܪܗ	-8.73324
ܬܫܡܫܬܐ	-8.73382
▁ܫܒܥ	-8.73691
▁ܪܘܚܗ	-8.73818
▁ܙܠܘ	-8.74034
ܠܒܫ	-8.74112
▁ܟܘܪܤܝܐ	-8.74443
ܐܘܢܓܠܝܘܢ	-8.74443
▁ܒܢܡܘܤܐ	-8.74443
▁ܩܒܘܪܐ	-8.74443
▁ܐܒܪܗܡ	-8.74443
▁ܘܤܠܩ	-8.74474
▁ܘܒܥܝܢ	-8.7472
▁ܕܓܠܐ	-8.74818
▁ܒܥܠܡܐ	-8.74886
ܬܘܢܝܗܝ	-8.74899
ܡܦܩ	-8.74964
▁ܡܡܠܠܝܢ	-8.7509
▁ܦܘܡܗ	-8.75679
▁ܠܐܬܪ	-8.75768
▁ܐܡܪܘ	-8.76031
▁ܫܬ	-8.76424
▁ܕܚܝܠ	-8.76608
ܥܗܕ	-8.76905
▁ܘܐܚܕ	-8.7696
ܡܤܟܢܐ	-8.76967
▁ܠܒܢܝ	-8.76989
ܝܤܪܝܠ	-8.77257
▁ܘܡܕܡ	-8.77478
▁ܒܐܘܪܫܠܡ	-8.77892
▁ܒܦܓܪ	-8.77906
▁ܫܐܕܐ	-8.77952
▁ܒܐܝܕ	-8.78108
▁ܥܠܡܝܢ	-8.78261
▁ܐܡܗ	-8.78356
ܪܕܦ	-8.78564
▁ܠܡܘܬܐ	-8.78764
ܒܗܬ	-8.78936
ܫܒܩ	-8.79154
▁ܢܫܡܥ	-8.79352
▁ܝܪܬ	-8.79374
ܝܫܘܥ	-8.79756
ܫܘܒܚܐ	-8.79873
▁ܫܠܝ	-8.80267
▁ܚܙܝܬ	-8.80289
ܦܤܩ	-8.80537
ܒܢܝ	-8.8104
ܥܝܪ	-8.81347
▁ܐܙܕܗܪ	-8.81463
▁ܐܬܚܙܝ	-8.81463
ܡܩܕܘܢܝܐ	-8.81467
▁ܘܤܦܪܐ	-8.81487
▁ܕܐܙܠ	-8.81633
▁ܡܠܟܘܬܗ	-8.81731
▁ܕܡܟ	-8.81974
▁ܘܥܢ	-8.8211
▁ܩܕܡܘܗܝ	-8.8219
▁ܘܥܕ	-8.82512
▁ܕܥܡܡܐ	-8.82518
▁ܢܚܙ	-8.82526
▁ܥܒܕܘܗܝ	-8.82603
▁ܢܐܬܐ	-8.83126
ܬܪܥܐ	-8.83433
▁ܫܪܐ	-8.83528
▁ܐܪܡܝ	-8.83637
▁ܘܟܐ	-8.83722
▁ܒܥܠܕܒܒ	-8.83762
▁ܕܐܝܬܝܗܘܢ	-8.83994
ܐܤܘܪ	-8.84174
▁ܩܝܡ	-8.84783
▁ܠܒܢܝܢܫܐ	-8.8517
▁ܠܛܘܪܐ	-8.85182
▁ܐܚܪܬܐ	-8.85201
▁ܕܫܕܪܢܝ	-8.85264
▁ܒܕܡܘܬ	-8.85438
▁ܥܤܪ	-8.85466
ܛܝܪܐ	-8.85648
ܩܨ	-8.859
▁ܪܥܝܢܐ	-8.85905
ܦܪܩ	-8.86214
▁ܡܠܬܗ	-8.86253
▁ܛܘܒ	-8.86296
▁ܠܡܪܢ	-8.86424
▁ܕܢܚܙ	-8.86668
ܩܐܡ	-8.8703
▁ܐܚܝܕ	-8.87267
ܚܨܕ	-8.87274
▁ܡܗܠܟܝܢ	-8.87391
▁ܡܚܕܐ	-8.87672
▁ܘܒܟܠ	-8.87768
▁ܕܝܡܐ	-8.87886
▁ܡܪܗ	-8.87966
▁ܥܬܝܪܐ	-8.89017
▁ܩܛܠ	-8.89017
▁ܤܛܢܐ	-8.89031
▁ܒܠܠܝܐ	-8.89041
ܦܬܟܪܐ	-8.89083
▁ܚܟܝܡ	-8.89101
▁ܘܝܬܒ	-8.89231
▁ܒܝܫ	-8.89373
▁ܤܡܝܐ	-8.89921
ܬܥܒܕܘܢ	-8.90132
▁ܒܥܡ	-8.9036
▁ܚܟܡܬ	-8.90469
▁ܠܒܝܬܗ	-8.90504
▁ܡܕܝܢ	-8.90612
▁ܥܠܝܟ	-8.90793
ܫܘܠܛܢܐ	-8.90926
▁ܒܟܬܒ	-8.91345
ܫܦܪ	-8.91658
▁ܚܒܝܒܝ	-8.91813
▁ܕܚܙܐ	-8.9193
ܚܒܠܐ	-8.92075
▁ܐܥܒܕ	-8.92877
▁ܘܩܫܝܫܐ	-8.93013
▁ܘܐܩܝܡ	-8.93013
ܫܘܒܚܗ	-8.93017
▁ܘܤܓܝܐܐ	-8.93019
▁ܠܫܡܝܐ	-8.93025
▁ܢܗܘܝܢ	-8.9303
▁ܠܫܡܥܘܢ	-8.93035
▁ܕܚܙܝܢ	-8.93047
▁ܕܡܛܠ	-8.93118
ܩܘܪܝܐ	-8.93123
▁ܠܐܚܘܗܝ	-8.93153
ܗܟܢܐ	-8.93232
▁ܕܫܪܪܐ	-8.9334
ܤܝܘ	-8.93437
▁ܗܕܡ	-8.93694
▁ܘܬܗܘ	-8.93719
▁ܘܫܡܥܬ	-8.93916
▁ܚܘܒ	-8.94053
▁ܕܢܬܠ	-8.94066
▁ܬܫܬ	-8.94085
▁ܐܒܘܢ	-8.94253
▁ܘܫܒܩ	-8.94278
▁ܢܚܘ	-8.94333
▁ܓܙ	-8.94507
▁ܒܙܒܢ	-8.94932
▁ܘܒܢܝ	-8.94972
▁ܢܦܫܟܘܢ	-8.95041
▁ܕܚܠܬܐ	-8.95065
▁ܩܢܝ	-8.95162
▁ܘܚܪ	-8.95506
ܡܨܪܝܢ	-8.95532
▁ܩܝ	-8.95629
▁ܕܗܝ	-8.96138
▁ܚܘܝ	-8.96302
▁ܨܠܘ	-8.96659
ܫܘܩܐ	-8.96818
▁ܘܟܢܫ	-8.96984
▁ܡܫܒܚ	-8.97192
▁ܕܘܝܕ	-8.97193
ܟܬܘܒ	-8.97243
ܥܕܥܕܐ	-8.97275
▁ܕܚܢܢ	-8.97396
▁ܠܡܐܟܠ	-8.97424
▁ܝܕ	-8.97432
▁ܕܢܐܡܪ	-8.97443
▁ܕܕܠ	-8.97539
▁ܘܫܠܡܐ	-8.97565
ܫܘܒܗܪ	-8.9764
▁ܠܡܠܟܘܬ	-8.97676
▁ܢܩܘܡ	-8.97825
▁ܡܟܤܐ	-8.97929
▁ܕܢܦܠ	-8.97993
▁ܕܟܠܗܘܢ	-8.98043
▁ܐܕܢ	-8.98272
▁ܕܢܘܪܐ	-8.98379
▁ܢܘܪܐ	-8.98885
▁ܢܡܠܠ	-8.99302
ܚܛܐ	-8.99881
▁ܚܐܪ	-9.00143
ܚܟܡܬ	-9.00228
ܤܬܪ	-9.00287
▁ܕܒܟܠ	-9.00317
▁ܚܝܘܬܐ	-9.01084
▁ܘܫܪ	-9.01172
▁ܕܝܗܘܕ	-9.01196
▁ܡܬܛܦܝܤ	-9.01528
ܪܘܓܙܐ	-9.01531
▁ܕܓܒܪܐ	-9.01532
▁ܚܛܝܐ	-9.01548
▁ܝܘܤܦ	-9.01566
▁ܒܝܢܬܗܘܢ	-9.01573
▁ܤܥܪ	-9.01605
▁ܐܚܪܝܢ	-9.01606
▁ܘܐܠܗ	-9.01679
▁ܠܒܝܫ	-9.01685
▁ܙܩܝܦ	-9.01762
ܟܠܢܫ	-9.01837
▁ܨܒܘܬ	-9.01855
▁ܕܗܝܡܢܘ	-9.02287
▁ܠܟܠܢܫ	-9.02314
ܗܫܐ	-9.02938
▁ܤܒܪܬ	-9.03096
▁ܠܐܪܥܐ	-9.03444
ܛܡܐ	-9.04352
▁ܛܝܒܘ	-9.04426
ܬܚܒܠ	-9.04434
▁ܕܢܚܬ	-9.05144
▁ܕܩܕܝܫܐ	-9.06073
▁ܦܬܓܡܐ	-9.06073
▁ܕܐܒܪܗܡ	-9.06073
ܛܝܡܬܐܘܤ	-9.06076
▁ܪܗܛ	-9.06081
▁ܒܠܫܢ	-9.06088
▁ܠܐܚܪܢܐ	-9.06111
▁ܛܘܪ	-9.06114
ܡܐܬܝܬܗ	-9.06165
▁ܗܒ	-9.0624
▁ܙܕܩ	-9.06245
ܩܛܘܠ	-9.06251
▁ܠܐܢܬܬ	-9.06374
▁ܕܛܒ	-9.06438
▁ܠܡܤܒ	-9.06519
▁ܡܬܚܙܐ	-9.06534
▁ܝܘܠܦܢ	-9.06787
ܠܒܘܬܟܘܢ	-9.06803
▁ܕܗܝܡܢܘܬܐ	-9.06866
▁ܕܕܗܒܐ	-9.07017
▁ܐܒܕ	-9.07061
▁ܒܡܕܝܢܬܐ	-9.07367
ܤܟܠ	-9.07689
ܐܬܝܗܒܬ	-9.07703
ܝܗܘܕܝܐ	-9.07892
▁ܘܡܝܬ	-9.08239
ܦܘܠܘܤ	-9.08472
▁ܘܚܙܝ	-9.08571
ܢܘܗܪܐ	-9.09291
ܫܩܠ	-9.09894
▁ܕܝܠܟ	-9.10216
▁ܟܢܘܫܬܐ	-9.10834
▁ܛܢܦܬܐ	-9.10835
▁ܦܪܨܘܦ	-9.10835
▁ܕܡܫܟܚ	-9.10835
▁ܐܟܚܕܐ	-9.10836
▁ܒܐܠܗܐ	-9.10836
▁ܦܨܚܐ	-9.10837
▁ܢܫܟܚ	-9.10844
▁ܝܕܝܥ	-9.10847
▁ܦܩܚ	-9.10856
▁ܝܘܡܢܐ	-9.10858
▁ܠܗܝܟܠܐ	-9.10868
▁ܒܝܢܬܟܘܢ	-9.10896
▁ܟܦܢ	-9.109
ܤܘܓܐ	-9.11049
▁ܐܚܒ	-9.112
▁ܩܠܗ	-9.11208
▁ܫܡܫܐ	-9.11255
▁ܐܒܘܟ	-9.11739
▁ܡܦܤ	-9.11921
ܤܦܩ	-9.11952
ܬܫܥ	-9.12105
▁ܕܥܐܠ	-9.12334
▁ܠܫܢ	-9.12717
ܩܝܦܐ	-9.1298
ܡܫܚ	-9.13091
▁ܥܩܪ	-9.13146
▁ܬܢܢ	-9.13187
ܐܒܗܬܢ	-9.1354
▁ܒܡܠܟܘܬ	-9.15057
ܡܝܪܐ	-9.15525
▁ܙܕܝܩܐ	-9.15835
▁ܕܓܠܝܠܐ	-9.15835
▁ܪܚܝܩ	-9.15835
▁ܓܙܘܪܬܐ	-9.15838
▁ܕܬܕܥܘܢ	-9.15846
▁ܢܐܙܠ	-9.15847
▁ܒܫܥܬܐ	-9.15848
ܗܓܡܘܢܐ	-9.1585
▁ܒܫܒܬܐ	-9.15851
▁ܝܩܝܪ	-9.15854
▁ܕܝܬܝܪ	-9.15869
▁ܒܚܘܒܐ	-9.15875
▁ܕܚܙܘ	-9.15877
▁ܐܝܠܢܐ	-9.1588
▁ܒܚܝܠܐ	-9.15892
ܪܗܘܡܝ	-9.15907
▁ܚܠܝܡ	-9.15918
▁ܘܐܬܝܗܒ	-9.15925
▁ܐܪܙ	-9.15934
▁ܕܒܤܪܐ	-9.15938
▁ܫܥܝܢ	-9.15947
ܙܩܦ	-9.16162
▁ܡܩܘܐ	-9.16193
▁ܫܡܝ	-9.16293
▁ܢܐܬܘܢ	-9.16376
▁ܓܡܝܪ	-9.1639
▁ܒܨܠܘܬ	-9.17637
ܐܬܓܠܝ	-9.17791
▁ܥܢܢ	-9.17824
▁ܘܪܕ	-9.20493
▁ܘܐܤܝ	-9.21097
▁ܒܟܢܘܫܬܐ	-9.21098
▁ܘܐܬܚܙܝ	-9.21098
▁ܡܘܠܟܢܐ	-9.21098
▁ܕܫܦܝܪ	-9.21098
▁ܒܥܓܠ	-9.21098
▁ܕܐܩܝܡ	-9.21099
ܪܓܝܓܬܐ	-9.21099
ܥܘܪܠܘܬܐ	-9.211
▁ܡܐܟܘܠܬܐ	-9.21105
▁ܡܟܪܙ	-9.21112
▁ܢܨܪܝܐ	-9.21113
▁ܕܤܥܪ	-9.21155
▁ܘܐܪܒܥ	-9.21161
▁ܢܛܥ	-9.21216
▁ܟܦܪ	-9.21226
▁ܝܠܕ	-9.2129
▁ܐܬܩܪܝ	-9.21311
▁ܝܠܦ	-9.21353
▁ܒܪܥܝܢ	-9.21456
▁ܠܒܥܠ	-9.21636
▁ܕܡܚܒ	-9.21704
▁ܠܓܘ	-9.2171
▁ܥܝܢܝܗܘܢ	-9.21737
▁ܤܝܒܪܬ	-9.21746
▁ܠܥܡܡܐ	-9.21862
▁ܤܓܕ	-9.21878
▁ܤܐܡ	-9.22027
ܬܩܒܠ	-9.22041
ܓܙܪ	-9.22066
▁ܡܨܠܐ	-9.22084
ܐܚܘܕ	-9.23036
ܦܪܘܩ	-9.23159
▁ܡܗܠܟ	-9.2345
▁ܕܟܝܐ	-9.237
ܐܚܘܟ	-9.25186
ܩܠܝܠ	-9.25599
ܙܟܐ	-9.2568
ܒܙܚ	-9.26138
▁ܠܓܠܝܠܐ	-9.26653
▁ܠܡܩܛܠ	-9.26654
▁ܕܢܦܫܗ	-9.26656
▁ܕܚܛܝܬܐ	-9.26658
▁ܐܬܝܠܕ	-9.26667
▁ܐܫܬܡܥ	-9.26669
ܬܗܝܡܢ	-9.26678
▁ܕܦܓܪܐ	-9.2668
▁ܕܤܠܩ	-9.26702
▁ܘܩܛܠ	-9.26719
▁ܘܓܒܪ	-9.2673
▁ܥܪܒ	-9.26737
▁ܘܢܐܡܪ	-9.26785
▁ܟܘܒ	-9.2679
▁ܕܦܩܕ	-9.2684
▁ܗܝܡܢܘܬܟܘܢ	-9.26853
▁ܢܚܫ	-9.2686
▁ܒܢܘܪܐ	-9.26993
▁ܕܘܟܬ	-9.27005
▁ܒܥܒܕܐ	-9.27046
▁ܩܪܝܒ	-9.27073
▁ܚܤܝܪ	-9.27102
▁ܘܚܢܢ	-9.27141
▁ܘܬܡܢ	-9.27431
▁ܘܤܒܪ	-9.27619
ܐܟܠܘܢ	-9.27676
▁ܕܝܘܐ	-9.27686
▁ܕܥܡܪ	-9.27705
ܚܪܝܢܐ	-9.27708
▁ܒܫܠܡܟ	-9.27845
▁ܘܨܠ	-9.28802
▁ܐܟܘܬ	-9.29159
ܫܪܒܬ	-9.29815
▁ܨܝܕ	-9.30506
▁ܛܘܒܝܗ	-9.31462
▁ܒܥܝ	-9.31711
ܗܘܝܘ	-9.32165
ܡܠܬܗ	-9.32294
ܡܤܬܟܠ	-9.32366
ܙܕܩܦ	-9.3254
▁ܓܠܝܠܐ	-9.3254
▁ܕܤܓܝܐܐ	-9.32548
▁ܡܫܕܪ	-9.32554
▁ܐܬܡܠܝ	-9.32556
▁ܤܢܝܩ	-9.32565
▁ܐܫܬܟܚ	-9.32589
▁ܒܨܒܝܢ	-9.32601
▁ܡܟܝܟ	-9.32638
▁ܘܡܫܐܠ	-9.32718
ܢܤܝܘܢܐ	-9.32747
▁ܘܪܚܡ	-9.32862
▁ܤܡܝܟ	-9.32952
ܬܠܡܝܕܘܗܝ	-9.32974
▁ܕܩܡ	-9.32991
ܬܟܪܙ	-9.33316
▁ܒܤܝܡ	-9.33528
▁ܛܥܝ	-9.33985
▁ܕܐܚܝܕ	-9.34151
ܙܥܘ	-9.35633
ܩܤܪܝܐ	-9.36647
ܨܠܘܬܐ	-9.38386
▁ܘܗܝܡܢܘ	-9.38422
▁ܙܕܝܩܘܬܐ	-9.38785
ܟܦܪܢܚܘܡ	-9.38786
▁ܐܚܪܢܝܬܐ	-9.38786
▁ܘܝܘܚܢܢ	-9.38786
▁ܚܛܗܝܢ	-9.38788
▁ܝܨܦ	-9.38788
▁ܐܬܕܟܪ	-9.38801
▁ܘܐܬܦܢܝ	-9.38819
ܡܠܟܘܬܐ	-9.3882
▁ܘܝܬܝܪ	-9.38826
▁ܒܛܝܠ	-9.38838
▁ܡܡܬܘ	-9.38852
▁ܠܡܡܠܠܘ	-9.38928
ܬܚܙܝܢ	-9.38952
▁ܘܢܒܝܐ	-9.39027
▁ܡܘܕܝܢ	-9.39053
▁ܝܪܚ	-9.39114
ܦܪܚܬܐ	-9.3915
ܚܦܛ	-9.40013
ܬܪܥܝܬ	-9.44541
ܥܕܪ	-9.45114
▁ܐܟܠܩܪܨܐ	-9.45452
ܝܘܪܕܢܢ	-9.45452
▁ܕܟܐܢܘܬܐ	-9.45453
ܒܐܝܡܡܐ	-9.45458
ܐܟܤܢܝܐ	-9.4546
▁ܠܕܘܟܬ	-9.45461
▁ܘܡܟܪܙ	-9.45464
▁ܡܥܡܕܢܐ	-9.45464
▁ܫܐܘܠ	-9.45465
▁ܬܗܝܡܢܘܢ	-9.4547
▁ܐܟܪܙ	-9.45475
ܠܥܙܪ	-9.45476
▁ܠܡܗܘܐ	-9.45518
▁ܠܬܡܢ	-9.45552
▁ܠܡܩܡ	-9.45553
▁ܘܚܝܠܐ	-9.45598
ܡܥܘܢ	-9.45807
ܫܝܘܠ	-9.45837
ܬܚܝܒ	-9.45862
ܦܘܩܕܢܘܗܝ	-9.45989
▁ܒܘܪܟ	-9.46087
▁ܠܡܬܠ	-9.46097
▁ܥܢܘ	-9.46615
ܤܬܟܠܘ	-9.4697
ܒܘܝܐܐ	-9.47144
ܕܢܚ	-9.47175
▁ܥܐܠ	-9.47866
▁ܘܪܘܚ	-9.48143
ܪܓܙ	-9.48639
▁ܘܐܢܬܬ	-9.49767
▁ܕܩܤܪ	-9.49986
▁ܕܫܕܪ	-9.52415
ܙܕܘܩܝܐ	-9.52595
ܢܩܛܠܘܢܝܗܝ	-9.52595
▁ܟܘܟܒ	-9.52596
▁ܒܡܕܒܪܐ	-9.52596
▁ܕܕܝܬܩܐ	-9.52596
▁ܕܐܫܟܚ	-9.52596
▁ܠܐܒܪܗܡ	-9.52597
▁ܒܢܦܫܟ	-9.52598
ܢܘܗܪܗ	-9.52602
▁ܤܪܝܩܐ	-9.52604
ܫܘܒܩܢܐ	-9.52607
▁ܕܩܪܝܒ	-9.52608
ܢܩܒܠܘܢ	-9.52611
▁ܠܩܪܝܬܐ	-9.52612
▁ܠܢܡܘܤ	-9.52618
▁ܠܒܪܢܫܐ	-9.52619
▁ܕܙܪܥ	-9.52657
▁ܕܐܬܩܪܝ	-9.52693
▁ܒܦܘܡ	-9.52717
▁ܕܝܘܡܐ	-9.52741
ܗܝܡܢܘܬܟ	-9.52761
▁ܟܪܤ	-9.52783
▁ܡܒܪܟ	-9.52792
▁ܕܟܪܝܗ	-9.52822
ܠܤܓܝܐܐ	-9.52926
ܚܬܢܐ	-9.52941
ܦܫܛ	-9.53131
▁ܡܥܡܘܕܝܬ	-9.53454
ܢܫܕܪ	-9.53506
ܡܠܬܝ	-9.53984
ܡܬܕܒܪ	-9.54008
▁ܐܘܪܚ	-9.54315
ܕܗܒܐ	-9.54438
ܚܤܕ	-9.5526
▁ܚܡܬ	-9.55579
ܫܬܩܠ	-9.57427
▁ܒܚܛܗ	-9.57829
▁ܘܠܝܘܚܢܢ	-9.60287
ܟܢܘܫܬܗܘܢ	-9.60288
▁ܬܪܢܓܠܐ	-9.60288
▁ܘܙܕܝܩ	-9.60288
▁ܘܡܫܒܚ	-9.60288
▁ܢܘܟܪܝܐ	-9.60288
▁ܠܝܘܚܢܢ	-9.60288
ܦܗܤܛܘܤ	-9.60289
▁ܒܕܘܟܬ	-9.60289
ܫܓܘܫܝܐ	-9.60289
ܙܕܒܢ	-9.60289
▁ܛܘܗܡ	-9.60298
ܛܢܦܘܬܐ	-9.60299
▁ܡܤܝܒܪܢܘ	-9.60302
▁ܪܡܫܐ	-9.60317
▁ܫܩܘܠ	-9.6032
▁ܒܕܚܠܬܐ	-9.60337
▁ܡܫܪܝܐ	-9.60364
▁ܡܬܕܡܪ	-9.60368
▁ܟܪܡܐ	-9.60369
▁ܢܬܩܪܐ	-9.60381
▁ܘܪܗܛ	-9.60394
ܚܫܡܝܬܐ	-9.60415
ܙܟܪܝܐ	-9.60431
ܡܩܝܡ	-9.605
▁ܟܟܪ	-9.60522
ܠܬܚܬ	-9.60762
ܦܪܥܘܢ	-9.60798
▁ܠܛܠܝ	-9.60862
▁ܠܟܐܢܘ	-9.61041
ܙܥܩ	-9.61054
▁ܕܫܐܠ	-9.61105
ܚܙܝܪܐ	-9.61231
ܚܛܦ	-9.61576
ܥܪܘܩ	-9.62346
▁ܬܫܒܘܚܬ	-9.62516
ܚܛܗܝܗܘܢ	-9.62865
▁ܕܢܬܡܠ	-9.6372
ܡܥܡܘܕܝܬܐ	-9.64709
ܬܚܝܠ	-9.64725
▁ܓܪܒ	-9.65351
▁ܘܩܕܝܫ	-9.65867
ܚܘܒܟܘܢ	-9.66067
▁ܩܤܪ	-9.66171
▁ܐܤܬܟܠ	-9.68123
ܤܗܕܘܬܗ	-9.68483
▁ܟܢܝܫܝܢ	-9.68621
▁ܤܟܪܝܘܛܐ	-9.68621
▁ܡܓܕܠܝܬܐ	-9.68621
▁ܠܬܝܒܘܬܐ	-9.68621
▁ܕܝܡܝܢܐ	-9.68622
▁ܕܐܤܗܕ	-9.68623
▁ܕܝܘܡܢܐ	-9.68624
▁ܚܦܝܛ	-9.68625
▁ܡܨܝܕܬ	-9.68626
▁ܚܝܠܬܢ	-9.68627
▁ܢܫܬܒܩ	-9.68632
▁ܒܫܪܪܐ	-9.68638
▁ܬܪܝܨ	-9.68639
▁ܫܬܐܤܬ	-9.68642
▁ܨܦܪܐ	-9.6867
▁ܢܘܒܕ	-9.6867
▁ܒܓܠܝܢ	-9.68674
1	-11.7061
)	-12.7061
4	-12.7061
5	-12.7061
9	-12.7061
:	-12.7061
