<pad>	0
</s>	0
<unk>	0
¦	-1.5425
▁¦	-1.54719
ም	-3.58936
በ	-3.96472
▁።	-4.04355
ን	-4.0624
▁፥	-4.22204
የ	-4.43983
ና	-4.60759
አ	-4.65038
ል	-4.70431
▁፤	-4.73213
ከ	-4.73541
ት	-4.75573
ይ	-4.78155
ለ	-4.8102
ስ	-4.98922
ው	-5.04469
ር	-5.04792
ያ	-5.10741
መ	-5.10811
ተ	-5.15726
ገ	-5.42507
ብ	-5.45863
ድ	-5.4587
ታ	-5.47857
ሰ	-5.49198
ማ	-5.50072
እ	-5.52533
ወደ	-5.55962
ደ	-5.58101
ንም	-5.6487
ህ	-5.64981
ባ	-5.65921
ጠ	-5.66787
ሁሉ	-5.672
ች	-5.69903
ረ	-5.70098
ራ	-5.70508
ላ	-5.7126
ግ	-5.72553
ቀ	-5.73641
ወ	-5.8557
ቅ	-5.86045
ጥ	-5.91149
ሉ	-5.93143
ሳ	-5.93909
እግዚአብሔር	-5.94104
ፍ	-5.96228
ነ	-6.03176
እንደ	-6.05414
ፈ	-6.07092
ዋ	-6.11134
ዘ	-6.12884
ነው	-6.14653
ዘንድ	-6.15164
ዳ	-6.15371
ላይ	-6.15854
ክ	-6.19466
ሩ	-6.21227
ኝ	-6.28766
የሚ	-6.28982
ጋ	-6.31434
ጣ	-6.33874
ሁ	-6.34438
ግን	-6.3468
▁?	-6.363
እርሱ	-6.40237
እኔ	-6.40432
ሰው	-6.42337
ውን	-6.47069
ጊዜ	-6.49996
አል	-6.51352
ችሁ	-6.51595
ዓ	-6.52541
ቃ	-6.53049
ሽ	-6.54571
ለሁ	-6.54893
ካ	-6.56264
ኑ	-6.57647
ነገር	-6.58916
እን	-6.59211
ዝ	-6.6008
ቱ	-6.61001
ሞ	-6.61154
ልጆች	-6.65992
ስለ	-6.67453
ጋር	-6.69026
ልጅ	-6.71053
ቸው	-6.73491
ሆ	-6.7386
ነበር	-6.75707
ዛ	-6.79285
በት	-6.79488
አንተ	-6.83044
የተ	-6.84402
ሮ	-6.85186
ነበረ	-6.85372
አለ	-6.88397
እንዲህ	-6.89823
ቁ	-6.90875
ቶ	-6.91041
ፋ	-6.91834
ፊት	-6.92053
ዱ	-6.94081
ሱ	-6.94415
ኖ	-6.954
አይ	-6.96191
ቢ	-6.96599
ሙ	-6.97184
ቆ	-7.00578
ቤ	-7.00861
ሊ	-7.01146
ቤት	-7.01361
መጣ	-7.02097
ቡ	-7.02893
ዕ	-7.0313
ሸ	-7.0345
ላችሁ	-7.05934
ውም	-7.06814
ትን	-7.0748
ጌታ	-7.07869
እናንተ	-7.08964
ምድር	-7.08998
ቀን	-7.09093
ዶ	-7.09391
ሌ	-7.09615
ቃል	-7.09683
ወይ	-7.10247
ጸ	-7.10698
አንድ	-7.13848
ህን	-7.14016
ሆነ	-7.17264
ቴ	-7.17968
ሲ	-7.18039
ደግሞ	-7.18176
ጽ	-7.18304
አት	-7.18514
ሜ	-7.19739
ዮ	-7.19805
ዎች	-7.20565
ችን	-7.20606
ያስ	-7.21918
ሬ	-7.22658
ሎ	-7.23368
በዚያ	-7.2416
ይህ	-7.25303
ሰዎች	-7.26033
ንና	-7.26595
እነሆ	-7.27064
ለህ	-7.27378
ለው	-7.2743
ጉ	-7.27574
ደር	-7.27611
አስ	-7.29171
ወጣ	-7.29744
ለች	-7.30713
ሐ	-7.31744
ጡ	-7.32766
ንጉሥ	-7.35527
እንዳ	-7.36014
አለው	-7.36544
ብሎ	-7.37963
ፊ	-7.38304
ቹ	-7.38423
እነርሱ	-7.39243
ዋል	-7.39252
ንጉሡ	-7.39373
ድረስ	-7.39639
ቦ	-7.39874
ዩ	-7.39958
ሪ	-7.41308
ምን	-7.4133
ናቸው	-7.41925
ጭ	-7.43113
እንዲ	-7.43412
እስራኤል	-7.44143
ሻ	-7.44682
ዬ	-7.4486
ሠራ	-7.466
ቶች	-7.47214
ገባ	-7.47626
ጨ	-7.47629
ላቸው	-7.4838
ሰማ	-7.48397
ሉት	-7.48411
ሕ	-7.48541
እስከ	-7.49439
ሚ	-7.50228
ሴ	-7.5045
ዳዊት	-7.50953
ውስጥ	-7.51063
እጅ	-7.52009
ተው	-7.52812
ኢ	-7.53029
ሆን	-7.54495
ሥ	-7.55601
ቱን	-7.56712
ይላል	-7.58207
ፉ	-7.5823
በእግዚአብሔር	-7.58851
ዙ	-7.59632
ኛ	-7.59769
ሕዝቡ	-7.60268
ኢየሱስ	-7.61094
መለ	-7.6154
ይሁዳ	-7.62882
ነት	-7.6298
ወር	-7.62981
የእስራኤል	-7.63241
ደረ	-7.63568
ህም	-7.64451
ጆ	-7.64464
ሶ	-7.64843
አን	-7.65047
በኋላ	-7.65126
የሚያ	-7.65487
ቈ	-7.65546
ስም	-7.66512
ለት	-7.66826
ማን	-7.67905
ሕዝብ	-7.68294
ኩ	-7.68388
ጎ	-7.68728
ቀር	-7.69934
ቤቱ	-7.70125
ነበሩ	-7.7027
የእግዚአብሔር	-7.70516
መካከል	-7.71004
ስለዚህ	-7.71349
ሥራ	-7.71357
ይህን	-7.71693
አምላክ	-7.71753
ባቸው	-7.71902
ትም	-7.72014
ቼ	-7.72156
ብዙ	-7.7241
ኤል	-7.72476
ታል	-7.72657
ልብ	-7.73976
ኤ	-7.74053
ሙሴ	-7.74145
አቸው	-7.74407
ፎ	-7.74499
አሳ	-7.74619
ተኛ	-7.75185
ጻ	-7.75558
ድን	-7.76499
ጦ	-7.76535
አላ	-7.7729
ውያን	-7.78314
ታቸው	-7.79172
ቻ	-7.79664
ራት	-7.7968
ሁለት	-7.79719
ቻቸው	-7.81093
ያለ	-7.81282
ዓመት	-7.81517
እነዚህ	-7.82134
ወንድ	-7.82701
ደስ	-7.84053
ሰጠ	-7.84368
አሕዛብ	-7.84595
ነገ	-7.85532
መጡ	-7.85891
ቱም	-7.87397
ጫ	-7.87522
ተቀ	-7.87585
እኛ	-7.88322
ክፉ	-7.88886
ዚ	-7.89674
ይሆናል	-7.904
ስፍራ	-7.90896
ጠፋ	-7.91611
ሠ	-7.91618
እንዲሁ	-7.91803
በላ	-7.92593
ጕ	-7.92791
ዊ	-7.93088
ከእርሱ	-7.93702
ጃ	-7.93791
ኅ	-7.9408
ለመ	-7.94486
ብር	-7.94749
አሁን	-7.95025
ጅ	-7.9539
ባለ	-7.95444
ከፍ	-7.96136
ራቸው	-7.96855
በመ	-7.97936
ኮ	-7.98183
ጂ	-7.98502
መስ	-7.98573
መቶ	-7.98736
ባሪያ	-7.98885
ነሣ	-7.9923
በር	-7.9931
ሣ	-8.00548
ውኃ	-8.00793
ቂ	-8.0094
ባት	-8.01225
ከተ	-8.01489
ኵ	-8.01563
ባል	-8.01855
ፈር	-8.01856
በረ	-8.02025
መንገድ	-8.02031
ኪ	-8.02309
ኃጢአት	-8.02343
ከተማ	-8.0252
እርስዋ	-8.02565
መሥዋዕት	-8.03129
ነፍ	-8.03716
አላቸው	-8.04003
ሃ	-8.04469
ሆኑ	-8.04595
እግዚአብሔርን	-8.05679
በል	-8.06797
ቀረ	-8.07251
ሃል	-8.08422
በሚ	-8.08708
ቸ	-8.0902
ለሚ	-8.09114
ጀ	-8.09143
ዲ	-8.09504
ኃ	-8.09808
እና	-8.10176
መልካም	-8.11352
ቍ	-8.11517
ዎቹ	-8.12422
ታው	-8.13125
ሮች	-8.1321
ክርስቶስ	-8.13779
ኳ	-8.13954
ታላቅ	-8.14145
ሰማይ	-8.14212
ጐ	-8.14484
ጌ	-8.14804
ዴ	-8.14834
ለእግዚአብሔር	-8.15324
ዞ	-8.16268
ወድ	-8.16589
በዚህ	-8.16825
እጅግ	-8.16892
የእግዚአብሔርን	-8.17365
ጠላ	-8.17474
ሥጋ	-8.18424
ሌላ	-8.18494
ጢ	-8.18636
እውነት	-8.21067
ኛል	-8.21676
ናገር	-8.21977
ዳን	-8.22046
በምድር	-8.2313
ነኝ	-8.23525
እሳት	-8.23598
ሺህ	-8.23706
ኛው	-8.23733
መረ	-8.23775
ታችሁ	-8.24404
እንግዲህ	-8.24912
ያል	-8.25106
ላል	-8.25332
ቸዋል	-8.26172
አለቆች	-8.27297
ኔ	-8.2811
እንደሚ	-8.28211
አገር	-8.28616
መሰ	-8.28665
ጠራ	-8.29143
ተናገረ	-8.29327
ብት	-8.29443
የምት	-8.299
ኸ	-8.30045
ሞት	-8.30078
ቢያ	-8.30286
ችኋል	-8.30775
ዘመን	-8.30899
ወጡ	-8.30912
በእስራኤል	-8.31123
ተራራ	-8.31863
ሳቸው	-8.32273
አሥራ	-8.32531
እንዳይ	-8.33529
ዖ	-8.33727
ከዚያ	-8.33835
ሃለሁ	-8.33923
ጮ	-8.3459
አብ	-8.34807
መንፈስ	-8.34808
ኋ	-8.35968
ኢየሩሳሌም	-8.35971
ይሁን	-8.3655
አለቃ	-8.36588
ሄደ	-8.37307
ማል	-8.3745
ዛሬ	-8.38019
አንዱ	-8.38159
ፈረ	-8.38557
አይደለም	-8.39238
ወዳ	-8.39244
መንግሥ	-8.39691
ሦስት	-8.40379
ይሆን	-8.40405
ኖሩ	-8.40774
ሰጥ	-8.4101
መታ	-8.41209
ጄ	-8.41993
አደረገ	-8.42236
ሕይወት	-8.4246
ከእነርሱ	-8.43293
ወለደ	-8.4344
ኖር	-8.43626
ራሱ	-8.43935
ያዕቆብ	-8.44111
ዔ	-8.44827
ከሚ	-8.44868
የሆነ	-8.44977
ፈሩ	-8.45073
ወገን	-8.45194
ሴቶች	-8.45215
ፌ	-8.46274
መሠዊያ	-8.46517
ሹ	-8.46761
ሾ	-8.47006
ፈራ	-8.48126
ቄ	-8.48237
ለዘላለም	-8.48437
ሰባት	-8.48971
ሠራዊት	-8.48985
ሳኦል	-8.49235
ሰብ	-8.49811
ወርቅ	-8.49938
ዊው	-8.50709
ፍርድ	-8.51341
ክብር	-8.51901
ፃ	-8.52283
ሰይፍ	-8.52587
ሁለቱ	-8.52729
ሄዱ	-8.52894
ጀምሮ	-8.53065
ሂ	-8.53582
ሴት	-8.53672
▁	-8.53981
ጁ	-8.54418
ሕግ	-8.55667
እንጀራ	-8.55697
ምድረ	-8.55901
እስኪ	-8.56236
ጊ	-8.5649
ሄ	-8.56903
ዕቃ	-8.57996
ድምፅ	-8.58681
የለም	-8.59128
ሆነው	-8.59837
ነግ	-8.60144
ስሙ	-8.60471
ሄድ	-8.60611
በኢየሩሳሌም	-8.60807
ግብፅ	-8.60903
ገዛ	-8.61079
ባሕር	-8.61191
ኙ	-8.6175
ዎ	-8.6184
ቍጣ	-8.62043
አሮን	-8.62373
ቻችሁ	-8.62626
ክንድ	-8.62688
ካህኑ	-8.62895
ከተሞች	-8.63468
ዙሪያ	-8.63757
ልጁ	-8.63965
ኬ	-8.64046
ቋ	-8.6492
ቃሉ	-8.65083
ገቡ	-8.65097
አባት	-8.65446
ብቻ	-8.65545
አጠገብ	-8.66693
ይልቅ	-8.67117
ሰላም	-8.67248
በታች	-8.67643
ሆኖ	-8.67955
ሰሙ	-8.68055
ቶቹ	-8.68257
ያለውን	-8.68425
ብለው	-8.69186
ደረግ	-8.69535
ነበሩት	-8.69601
እንዴት	-8.70029
አምስት	-8.70036
አምላክህ	-8.70177
መለሰ	-8.70325
ፀ	-8.70335
ቸዋለሁ	-8.70336
ሀያ	-8.70527
ከዚህ	-8.70818
ተነሥ	-8.72212
ፍሬ	-8.72346
አንቺ	-8.73167
በኩል	-8.73844
ተኞች	-8.74115
መከራ	-8.75061
ጓ	-8.75083
ጽድቅ	-8.75413
ሶች	-8.75882
ቶአል	-8.7608
ኒ	-8.76388
የተነሣ	-8.76635
ቍርባን	-8.76717
ሰሎሞን	-8.78044
ባቢሎን	-8.78714
ቢሆን	-8.7872
ችኋለሁ	-8.7905
ነገሥታት	-8.82133
ናገሩ	-8.82193
አባቱ	-8.82387
ተስፋ	-8.83262
ነገድ	-8.83994
ባሪያዎች	-8.84061
ፈርዖን	-8.84601
ከተማይቱ	-8.84618
ሌሊት	-8.84961
ግብጽ	-8.84962
መልሶ	-8.85332
ልጆቹ	-8.85675
ቅዱስ	-8.85688
ኸው	-8.87678
ድንጋይ	-8.88975
ቀመጥ	-8.89216
ሀ	-8.89486
ትእዛዝ	-8.89718
ዓለም	-8.89988
ሄዳ	-8.90391
አውራ	-8.91001
ኦ	-8.91228
ሠሩ	-8.91393
አይሁድ	-8.91621
ኃይል	-8.91629
ሔ	-8.93153
አድርገ	-8.93543
ያደርግ	-8.94095
ኰ	-8.94325
ቶቻቸው	-8.95086
ዮሴፍ	-8.95115
ኢያሱ	-8.95513
ሡ	-8.9671
አብርሃም	-8.96711
ከንቱ	-8.98724
ኋቸው	-8.99794
ካህናት	-9.00819
ነገሠ	-9.00937
ዐ	-9.01238
አድርጎ	-9.0166
ድንኳን	-9.02512
ኣ	-9.03797
ፍልስጥኤማውያን	-9.03797
ተቀመጠ	-9.03805
ኪዳን	-9.04317
ጩ	-9.04665
ተቀመጡ	-9.04824
ምንድር	-9.05565
ጥበብ	-9.06169
አምላካችን	-9.06423
ሁለተኛው	-9.07314
እያንዳንዱ	-9.07762
ሚስት	-9.07955
ዘላለም	-9.08303
ጤ	-9.08665
ካህናቱ	-9.0912
ወንድሞች	-9.09123
ዓይን	-9.098
መጀመሪያ	-9.10035
እርሻ	-9.11438
ሰልፍ	-9.11979
ነፍሴ	-9.12057
ቲ	-9.13306
ስድስት	-9.13308
ርስት	-9.13772
መልስ	-9.14641
አደረጉ	-9.14745
ምድሪቱ	-9.15226
በጎች	-9.15278
መቅደስ	-9.15724
ሕያው	-9.16725
አሥር	-9.17707
ዳርቻ	-9.18457
ወንዶች	-9.19176
ሕዝቤ	-9.19177
መጽሐፍ	-9.19681
ማደሪያ	-9.19681
ጠብቅ	-9.19723
ምርኮ	-9.19741
ሌዋውያን	-9.20189
ነቢያት	-9.202
በፊቱ	-9.20236
ዜ	-9.2068
አማልክት	-9.20699
ሌሎች	-9.2122
አባቴ	-9.21237
ዮርዳኖስ	-9.21727
ወዲያ	-9.21733
ሠላሳ	-9.22769
ክፋት	-9.23332
ዘይት	-9.23527
ጠብቁ	-9.2436
ሦ	-9.24864
ጥቂት	-9.24886
እርስ	-9.25372
ብርሃን	-9.25415
ያደርጉ	-9.25444
መጥቶ	-9.26342
መዛሙርቱ	-9.27033
ኤፍሬም	-9.27582
ወሰደ	-9.29845
ጹ	-9.30915
ወዴት	-9.30931
ሰጣቸው	-9.30932
ፀሐይ	-9.31492
ሥርዓት	-9.32062
ሞዓብ	-9.32647
መቅደሱ	-9.33215
አምላካችሁ	-9.33797
እንጨት	-9.33807
እምነት	-9.33861
መለከት	-9.33877
ፋንታ	-9.34005
አምላኬ	-9.3497
ዘረጋ	-9.34985
ጽዮን	-9.34986
ምሥራቅ	-9.3501
ምሳሌ	-9.35039
ሸለቆ	-9.35569
ነፋስ	-9.3559
ዌ	-9.36157
ይሆናሉ	-9.36157
ወንድሞቹ	-9.36157
ብላቴና	-9.36755
ትንቢት	-9.36772
ሺ	-9.39916
ኀ	-9.46859
ዉ	-9.58845
ዑ	-9.66631
ሤ	-9.72466
ኹ	-9.72466
ጾ	-9.74197
ፅ	-9.76839
ዣ	-9.77753
ሖ	-9.78662
ጳ	-9.7958
ዥ	-9.89249
ጵ	-9.89249
ኽ	-9.913
ኜ	-10.0109
ኻ	-10.034
ጪ	-10.0458
ጲ	-10.0819
ሑ	-10.1853
ኆ	-10.2128
ዪ	-10.2853
ዒ	-10.3159
a	-10.3474
ሒ	-10.3966
ሼ	-10.4843
ዠ	-10.5029
ቺ	-10.5403
ጶ	-10.601
w	-10.6648
ዢ	-10.687
ኡ	-10.733
ኚ	-10.8062
ጼ	-10.8319
ጺ	-10.8582
𐋇	-10.971
ጴ	-11.0013
ጬ	-11.0325
k	-11.0981
ዤ	-11.3255
ሢ	-11.369
ቾ	-11.4144
ሓ	-11.462
ፄ	-11.5647
𐊣	-11.6202
𐊼	-11.6202
g	-11.7415
r	-11.8796
ጰ	-11.9566
d	-11.9566
ጱ	-11.9566
ቧ	-12.0399
ፕ	-12.0399
ኺ	-12.2308
ፆ	-12.4669
*	-12.4669
1	-12.4669
v	-12.6098
ፐ	-12.7764
"	-12.7764
ፓ	-12.7764
l	-12.7764
s	-12.9764
2	-12.9764
ፒ	-13.5598
3	-13.5598
[	-13.5598
]	-13.5598
o	-13.5598
ፑ	-13.5598
፤	-14.0596
ዷ	-14.0598
ፂ	-14.0598
(	-14.0598
)	-14.0598
-	-14.0598
5	-14.0598
ቊ	-14.0598
e	-15.0584
ሷ	-15.0585
t	-15.0586
ፔ	-15.0587
ኾ	-15.0588
ኄ	-15.0589
ዡ	-15.059
ዦ	-15.0591
ፁ	-15.0592
!	-15.0593
ኘ	-15.0594
ኞ	-15.0595
?	-15.0596
፥	-15.0597
ቷ	-15.0598
ቿ	-15.0598
ኲ	-15.0598
ጒ	-15.0598
0	-15.0598
4	-15.0598
@	-15.0598
b	-15.0598
m	-15.0598
u	-15.0598
ሏ	-15.0598
ኗ	-15.0598
ኟ	-15.0598
ኼ	-15.0598
ጧ	-15.0598
ፏ	-15.0598
።	-15.0598
