<pad>	0
</s>	0
<unk>	0
▁ا	-0
▁ال	-1
▁و	-2
▁م	-3
▁ف	-4
▁ل	-5
▁ي	-6
▁ب	-7
ان	-8
ال	-9
▁ع	-10
ين	-11
▁ك	-12
▁في	-13
ون	-14
وا	-15
▁ت	-16
▁من	-17
رب	-18
ما	-19
لا	-20
▁ان	-21
▁ق	-22
▁ه	-23
را	-24
ها	-25
هم	-26
▁وا	-27
نا	-28
▁الم	-29
لك	-30
ذا	-31
▁ح	-32
يا	-33
▁س	-34
▁عل	-35
▁الى	-36
ار	-37
▁الرب	-38
▁ج	-39
▁وال	-40
كم	-41
يل	-42
▁ن	-43
لم	-44
▁لا	-45
يم	-46
▁اس	-47
دا	-48
▁ر	-49
يت	-50
▁الذ	-51
▁الا	-52
▁ش	-53
▁على	-54
ير	-55
▁كل	-56
▁لان	-57
ول	-58
ني	-59
▁خ	-60
▁اب	-61
تي	-62
ور	-63
له	-64
مي	-65
يد	-66
ائ	-67
قال	-68
▁ص	-69
▁الس	-70
عل	-71
اب	-72
ري	-73
ئيل	-74
▁وك	-75
رج	-76
▁عن	-77
▁لي	-78
مع	-79
▁الذي	-80
اء	-81
▁الش	-82
عب	-83
▁الي	-84
ود	-85
▁قد	-86
عد	-87
وم	-88
▁.	-89
▁مع	-90
▁وي	-91
وت	-92
رائيل	-93
ذه	-94
مل	-95
▁بن	-96
▁اسرائيل	-97
وب	-98
▁ث	-99
ية	-100
▁وم	-101
قد	-102
وس	-103
▁الب	-104
حد	-105
▁وت	-106
▁لل	-107
▁الج	-108
▁ار	-109
ام	-110
كون	-111
▁اي	-112
▁ول	-113
▁بال	-114
▁اخ	-115
▁وب	-116
▁الك	-117
▁ولا	-118
▁الله	-119
▁يس	-120
ضا	-121
ته	-122
▁الار	-123
جل	-124
▁هو	-125
▁يا	-126
تم	-127
▁ما	-128
هو	-129
ميع	-130
▁كان	-131
▁آ	-132
▁لم	-133
▁فا	-134
▁له	-135
مر	-136
▁علي	-137
▁هذا	-138
وع	-139
▁أ	-140
▁الح	-141
▁وس	-142
▁فقال	-143
كن	-144
لب	-145
▁وج	-146
▁الارض	-147
كل	-148
▁د	-149
▁التي	-150
▁ذ	-151
▁اله	-152
▁بيت	-153
فس	-154
▁اع	-155
عة	-156
نة	-157
عا	-158
▁اما	-159
دي	-160
▁يق	-161
▁ط	-162
بي	-163
رة	-164
با	-165
▁غ	-166
رف	-167
لام	-168
بر	-169
▁وان	-170
▁ايضا	-171
▁ملك	-172
▁الع	-173
خل	-174
▁وقال	-175
▁الف	-176
▁يع	-177
تك	-178
▁وع	-179
▁وق	-180
▁انا	-181
تى	-182
▁قائ	-183
▁الملك	-184
▁جميع	-185
▁لك	-186
سل	-187
سي	-188
ست	-189
صر	-190
سب	-191
▁الذين	-192
وح	-193
▁او	-194
نع	-195
في	-196
مة	-197
▁يد	-198
▁قال	-199
▁وكان	-200
بل	-201
وه	-202
رق	-203
▁دا	-204
يس	-205
اه	-206
جد	-207
▁به	-208
كر	-209
▁ثم	-210
▁الق	-211
يام	-212
▁لانه	-213
ذهب	-214
خذ	-215
▁الخ	-216
مس	-217
سان	-218
▁عند	-219
حا	-220
دين	-221
▁بني	-222
▁بل	-223
ليم	-224
▁ابن	-225
هر	-226
شر	-227
▁امام	-228
كذا	-229
فر	-230
▁ام	-231
وق	-232
▁يهو	-233
▁فت	-234
▁واحد	-235
ضع	-236
▁اق	-237
▁اليوم	-238
يين	-239
▁با	-240
▁هكذا	-241
بع	-242
▁ارض	-243
▁الن	-244
طي	-245
▁ومن	-246
ماء	-247
سا	-248
▁لهم	-249
▁داود	-250
خر	-251
▁الشعب	-252
▁هنا	-253
▁فان	-254
رك	-255
▁انت	-256
رع	-257
▁ون	-258
▁فل	-259
اد	-260
فت	-261
▁اح	-262
▁يسوع	-263
▁كما	-264
▁ز	-265
▁رب	-266
▁هذه	-267
▁الآ	-268
▁وكل	-269
تل	-270
▁ولك	-271
▁قائلا	-272
رت	-273
مه	-274
كان	-275
ذب	-276
وسى	-277
▁بعد	-278
▁الص	-279
▁حتى	-280
▁وص	-281
ورش	-282
▁تع	-283
▁اذ	-284
▁وح	-285
قل	-286
▁ذلك	-287
دينة	-288
به	-289
▁يكون	-290
ورشليم	-291
▁كث	-292
▁الر	-293
▁تح	-294
▁يهوذا	-295
▁نفس	-296
▁واما	-297
▁اج	-298
قط	-299
▁يقول	-300
خرج	-301
▁وفي	-302
ظر	-303
▁ين	-304
▁رج	-305
دم	-306
ساء	-307
▁ولم	-308
بت	-309
▁موسى	-310
▁اورشليم	-311
▁يح	-312
▁عب	-313
▁هناك	-314
فا	-315
▁را	-316
▁الت	-317
يه	-318
▁ولكن	-319
▁ليس	-320
▁بين	-321
فع	-322
▁الام	-323
وك	-324
يمة	-325
▁انه	-326
▁هي	-327
▁الغ	-328
يرة	-329
نت	-330
يق	-331
▁اش	-332
▁حسب	-333
حم	-334
▁وه	-335
ات	-336
▁شي	-337
▁امر	-338
زل	-339
▁عين	-340
لاث	-341
▁النا	-342
سم	-343
دن	-344
▁لكي	-345
▁بنو	-346
رون	-347
ضرب	-348
كلم	-349
ئة	-350
لق	-351
مال	-352
▁نح	-353
▁اليه	-354
▁يت	-355
▁لكم	-356
يف	-357
يب	-358
▁سب	-359
▁شعب	-360
طر	-361
ذلك	-362
يون	-363
▁الان	-364
ريق	-365
▁عليه	-366
كت	-367
وج	-368
حة	-369
▁بع	-370
▁قلب	-371
▁حين	-372
سيح	-373
▁مصر	-374
من	-375
▁عظ	-376
▁الث	-377
ينا	-378
▁عش	-379
▁اص	-380
▁رأ	-381
▁شا	-382
راء	-383
▁نا	-384
▁رجل	-385
فعل	-386
▁الرج	-387
▁باب	-388
▁قل	-389
▁ايام	-390
▁اذا	-391
▁وش	-392
طا	-393
▁يش	-394
▁سمع	-395
وف	-396
▁لت	-397
بة	-398
وات	-399
▁وخ	-400
أة	-401
▁لما	-402
▁المدينة	-403
▁يم	-404
آب	-405
▁مح	-406
▁اجل	-407
وة	-408
ثل	-409
ذبح	-410
▁تق	-411
ضة	-412
دخل	-413
▁يو	-414
▁الاب	-415
▁وجه	-416
اني	-417
▁اني	-418
قدس	-419
ياء	-420
▁المسيح	-421
▁اث	-422
حر	-423
▁بها	-424
▁وعل	-425
▁للرب	-426
خا	-427
▁وسط	-428
تها	-429
▁يوم	-430
▁احد	-431
يرا	-432
شا	-433
تهم	-434
لاء	-435
يدي	-436
▁رؤ	-437
▁ولما	-438
تا	-439
فظ	-440
▁لب	-441
▁ور	-442
▁يأ	-443
▁الشر	-444
هد	-445
▁لن	-446
جا	-447
▁يب	-448
رجع	-449
رية	-450
▁تس	-451
▁يص	-452
▁مئة	-453
كث	-454
▁فلا	-455
▁مل	-456
▁فيه	-457
▁وعلى	-458
▁الل	-459
▁عمل	-460
▁تن	-461
▁جاء	-462
▁وهو	-463
حق	-464
▁السماء	-465
▁اف	-466
▁كلم	-467
دع	-468
اهن	-469
▁عشر	-470
▁ايها	-471
طين	-472
▁ير	-473
▁لاني	-474
هما	-475
طلب	-476
▁كال	-477
ربع	-478
دة	-479
صا	-480
مت	-481
▁وأ	-482
▁واع	-483
يك	-484
▁قائل	-485
يش	-486
▁هم	-487
▁الجن	-488
قوب	-489
▁حي	-490
هنة	-491
▁تخ	-492
▁بق	-493
سر	-494
▁بي	-495
▁الامم	-496
▁كلام	-497
▁الانسان	-498
▁فلما	-499
سد	-500
▁ثلاث	-501
جر	-502
ارك	-503
رض	-504
ياه	-505
ؤلاء	-506
نين	-507
▁انتم	-508
▁هوذا	-509
▁والم	-510
▁الآن	-511
▁سنة	-512
بائ	-513
▁تكون	-514
▁يخ	-515
▁انسان	-516
▁واق	-517
سة	-518
▁فاج	-519
▁معه	-520
▁واذا	-521
ئيس	-522
قدم	-523
▁مثل	-524
▁قدا	-525
وضع	-526
▁شاول	-527
▁واخ	-528
لس	-529
▁الكاهن	-530
▁تر	-531
▁واح	-532
▁البيت	-533
تكلم	-534
▁الط	-535
بز	-536
مك	-537
حل	-538
▁للم	-539
▁ات	-540
▁فيها	-541
قا	-542
وها	-543
زع	-544
▁طريق	-545
▁هل	-546
▁لاجل	-547
▁ولد	-548
وش	-549
▁مس	-550
▁لذلك	-551
▁نع	-552
▁الد	-553
▁تأ	-554
▁مت	-555
▁قائلين	-556
▁عم	-557
جعل	-558
▁جدا	-559
▁الهك	-560
رام	-561
▁است	-562
▁فر	-563
▁كر	-564
ضي	-565
▁ارسل	-566
▁الابد	-567
دد	-568
وال	-569
▁الرجل	-570
▁يعقوب	-571
وني	-572
بال	-573
جع	-574
▁تحت	-575
▁لها	-576
قي	-577
ارة	-578
▁السيد	-579
▁ض	-580
لامي	-581
صي	-582
▁واب	-583
▁ابي	-584
▁وبن	-585
▁هؤلاء	-586
لاك	-587
▁ود	-588
معوا	-589
▁فار	-590
▁لانهم	-591
▁سا	-592
▁تكلم	-593
▁تت	-594
▁صوت	-595
▁فلم	-596
▁وث	-597
▁فال	-598
آن	-599
طع	-600
ضب	-601
نم	-602
مات	-603
مان	-604
▁وز	-605
▁شيء	-606
▁البحر	-607
يمان	-608
▁راس	-609
▁كنت	-610
ارج	-611
▁الز	-612
▁نحو	-613
طية	-614
شي	-615
▁فن	-616
▁بك	-617
▁فعل	-618
قة	-619
قول	-620
الم	-621
▁وراء	-622
▁صار	-623
حي	-624
▁اعط	-625
ضط	-626
يده	-627
راه	-628
▁فس	-629
▁ذهب	-630
عبد	-631
▁رئيس	-632
كثر	-633
لاو	-634
▁الكهنة	-635
▁لنا	-636
صعد	-637
▁الناس	-638
جت	-639
عوب	-640
▁ظ	-641
ائر	-642
▁فأ	-643
قر	-644
▁يدي	-645
▁لماذا	-646
▁كثير	-647
فن	-648
لت	-649
▁بابل	-650
▁عبد	-651
▁عليك	-652
هب	-653
صنع	-654
ولا	-655
▁الوا	-656
ئذ	-657
ورة	-658
▁قبل	-659
▁منه	-660
▁كانوا	-661
▁الجنود	-662
▁خمس	-663
▁وانا	-664
▁عليهم	-665
▁فاجاب	-666
▁كانت	-667
▁امرأة	-668
رد	-669
▁غير	-670
▁واس	-671
بك	-672
▁حا	-673
طل	-674
رائ	-675
لسطين	-676
ليمان	-677
▁آبائ	-678
وته	-679
▁الايام	-680
▁كثيرة	-681
بيحة	-682
صف	-683
▁أل	-684
▁يكن	-685
▁رجال	-686
خت	-687
▁ويكون	-688
سن	-689
مو	-690
انا	-691
▁السم	-692
▁نفسه	-693
انب	-694
طلق	-695
ونه	-696
▁والا	-697
رى	-698
قت	-699
وخ	-700
▁جبل	-701
▁سليمان	-702
علم	-703
▁بنا	-704
▁روح	-705
▁صنع	-706
▁المس	-707
▁وجميع	-708
▁اليهود	-709
▁الفلسطين	-710
▁جل	-711
▁آخر	-712
▁جعل	-713
هل	-714
▁بر	-715
رعون	-716
▁فوق	-717
ملك	-718
يلة	-719
▁تش	-720
▁وغ	-721
▁تلك	-722
▁السموات	-723
وي	-724
▁الهي	-725
صل	-726
▁وقد	-727
▁مكان	-728
ند	-729
▁وف	-730
▁لكن	-731
▁نحن	-732
مد	-733
ماع	-734
▁لانك	-735
فوا	-736
▁خرج	-737
▁عنه	-738
راب	-739
▁اد	-740
▁فكان	-741
وسف	-742
▁عيني	-743
شب	-744
قيا	-745
ونا	-746
▁عشرة	-747
▁نج	-748
راهيم	-749
▁ماذا	-750
فرح	-751
▁الحق	-752
▁عليها	-753
نب	-754
▁جه	-755
▁مو	-756
▁قدام	-757
▁لنفس	-758
▁رؤساء	-759
ئا	-760
عاد	-761
▁كن	-762
راع	-763
▁فد	-764
حت	-765
▁خبز	-766
جي	-767
ثان	-768
▁ست	-769
▁حينئذ	-770
ثا	-771
ذين	-772
رقة	-773
▁السا	-774
نى	-775
قام	-776
▁بم	-777
▁ابنه	-778
عون	-779
▁ارت	-780
▁انك	-781
▁وحد	-782
▁الاخ	-783
أل	-784
▁اولا	-785
▁الروح	-786
اح	-787
رس	-788
دائ	-789
وان	-790
ياة	-791
▁ها	-792
▁نفسي	-793
ئلا	-794
▁وانت	-795
▁الاول	-796
▁فرعون	-797
موس	-798
▁ايا	-799
▁اليك	-800
▁واخذ	-801
اس	-802
نان	-803
انذا	-804
▁بلا	-805
▁يده	-806
عمل	-807
▁مدينة	-808
هلك	-809
ماعة	-810
▁اقول	-811
اله	-812
زي	-813
كمة	-814
▁بح	-815
▁مدن	-816
▁القد	-817
▁الكلام	-818
رجل	-819
▁سي	-820
▁لئلا	-821
▁البرية	-822
▁منهم	-823
فة	-824
رار	-825
▁العظ	-826
قيم	-827
▁دم	-828
▁اسمه	-829
جمع	-830
طان	-831
دت	-832
وية	-833
كتوب	-834
▁مست	-835
▁المح	-836
▁هرون	-837
▁اخذ	-838
▁السنة	-839
قب	-840
▁والع	-841
وز	-842
▁والى	-843
ضر	-844
توا	-845
عبر	-846
نون	-847
▁هانذا	-848
▁حيث	-849
▁الاش	-850
▁المر	-851
▁يوسف	-852
▁واحدة	-853
▁مر	-854
▁والب	-855
▁دع	-856
▁وليس	-857
فل	-858
▁تب	-859
▁تم	-860
انية	-861
▁المذبح	-862
▁ابراهيم	-863
داء	-864
واب	-865
▁فم	-866
▁معك	-867
▁يست	-868
▁الآب	-869
وهم	-870
▁يز	-871
▁يغ	-872
▁وار	-873
▁الطريق	-874
الك	-875
يدة	-876
▁كت	-877
▁انفس	-878
طف	-879
وقت	-880
▁بعض	-881
▁اخرج	-882
أت	-883
لكم	-884
▁عظيم	-885
ضل	-886
كا	-887
لهة	-888
ورا	-889
ينة	-890
▁ضرب	-891
▁مجد	-892
▁اذهب	-893
▁المع	-894
▁وخمس	-895
هن	-896
▁فه	-897
▁مش	-898
▁وير	-899
▁ابنا	-900
▁اكثر	-901
▁سيدي	-902
▁سبط	-903
▁سبع	-904
▁الشعوب	-905
دون	-906
ابوت	-907
▁الكل	-908
▁يسمع	-909
▁يشوع	-910
▁حز	-911
▁بيته	-912
لف	-913
حاب	-914
▁عا	-915
ربوا	-916
▁ثيا	-917
▁حول	-918
▁لاب	-919
▁وعمل	-920
رايم	-921
▁اسم	-922
▁سر	-923
▁فح	-924
جميع	-925
يامين	-926
زم	-927
كب	-928
▁بالا	-929
▁الشهر	-930
▁اغ	-931
ربعة	-932
▁الفا	-933
▁وعشر	-934
ذي	-935
▁مب	-936
داود	-937
▁رأى	-938
▁سبعة	-939
▁القدس	-940
▁الهنا	-941
▁مكتوب	-942
▁اربع	-943
▁شعبي	-944
▁الحقل	-945
▁ثلاثة	-946
قدر	-947
▁شيئا	-948
▁واحدا	-949
فق	-950
▁الظ	-951
▁بكل	-952
▁كلمة	-953
ريب	-954
▁بيد	-955
▁كيف	-956
▁نس	-957
▁ومع	-958
▁وكلم	-959
▁اللاو	-960
▁والآن	-961
انيين	-962
▁الرا	-963
▁المن	-964
▁يخرج	-965
▁العالم	-966
حاس	-967
▁ذا	-968
▁وآ	-969
▁وكانت	-970
▁فج	-971
▁مخ	-972
▁ايل	-973
▁دخل	-974
▁وما	-975
▁يعرف	-976
وص	-977
هار	-978
يته	-979
بياء	-980
▁وملك	-981
بح	-982
جب	-983
غض	-984
غي	-985
دوا	-986
▁ماء	-987
▁متى	-988
▁الموت	-989
ئك	-990
رفع	-991
▁المت	-992
▁وجاء	-993
▁يأتي	-994
ؤمن	-995
▁نب	-996
▁سيد	-997
▁معي	-998
ضى	-999
نه	-1000
▁اين	-1001
▁جهة	-1002
▁مرا	-1003
▁تقول	-1004
▁عبيد	-1005
▁الاردن	-1006
زر	-1007
لمة	-1008
▁كا	-1009
▁قلوب	-1010
قطع	-1011
▁لكل	-1012
▁الجل	-1013
▁خارج	-1014
▁واعط	-1015
▁فضة	-1016
▁الاث	-1017
▁يعمل	-1018
خبر	-1019
▁تج	-1020
▁عد	-1021
▁مق	-1022
▁الواحد	-1023
▁وبعد	-1024
▁الرجال	-1025
▁وقالوا	-1026
▁الفلسطينيين	-1027
جن	-1028
عط	-1029
▁خيمة	-1030
▁الباب	-1031
▁الهكم	-1032
▁المرأة	-1033
حن	-1034
وث	-1035
سوا	-1036
قدمة	-1037
تكم	-1038
ضاء	-1039
▁يف	-1040
▁معا	-1041
▁ابني	-1042
▁الجميع	-1043
▁شر	-1044
ؤساء	-1045
▁منذ	-1046
▁حق	-1047
▁اخت	-1048
▁المص	-1049
▁لبني	-1050
▁اليكم	-1051
▁موآب	-1052
ذل	-1053
تين	-1054
رفة	-1055
▁الجبل	-1056
طئ	-1057
وى	-1058
ولس	-1059
يات	-1060
▁اعمال	-1061
▁بخ	-1062
▁يه	-1063
طايا	-1064
يتها	-1065
▁عبر	-1066
▁الكر	-1067
▁وضرب	-1068
▁يدخل	-1069
▁النبي	-1070
طرس	-1071
يلا	-1072
▁الها	-1073
▁عليكم	-1074
▁افرايم	-1075
دى	-1076
ربة	-1077
سيف	-1078
شعب	-1079
▁لح	-1080
جارة	-1081
▁آدم	-1082
▁ذبيحة	-1083
هيون	-1084
▁رؤوس	-1085
▁سكان	-1086
▁ملوك	-1087
سك	-1088
يما	-1089
ضطجع	-1090
▁ايدي	-1091
▁يعلم	-1092
ظم	-1093
نار	-1094
▁طرق	-1095
▁يتكلم	-1096
ئم	-1097
ابل	-1098
الح	-1099
ثبت	-1100
ميا	-1101
▁وجعل	-1102
تان	-1103
صرخ	-1104
وتي	-1105
ريعة	-1106
▁اعدائ	-1107
الث	-1108
الي	-1109
صوت	-1110
لاف	-1111
▁صهيون	-1112
▁مج	-1113
▁يدك	-1114
▁ابيه	-1115
▁تعلم	-1116
▁فانه	-1117
▁لداود	-1118
لاص	-1119
قذ	-1120
كلون	-1121
▁صاح	-1122
▁وين	-1123
جتماع	-1124
▁وثلاث	-1125
عطي	-1126
▁نص	-1127
موئيل	-1128
▁عبدك	-1129
طيع	-1130
لامة	-1131
▁وبنو	-1132
▁يفعل	-1133
▁الاجتماع	-1134
ظروا	-1135
▁قتل	-1136
▁ليد	-1137
▁وذهب	-1138
طة	-1139
ذكر	-1140
مار	-1141
▁جب	-1142
▁سل	-1143
▁بنت	-1144
▁قلت	-1145
▁ويس	-1146
▁قلبه	-1147
▁كذلك	-1148
▁منها	-1149
▁يعطي	-1150
▁الشمس	-1151
انة	-1152
ظهر	-1153
▁بس	-1154
▁تا	-1155
▁فهو	-1156
▁باسم	-1157
▁بطرس	-1158
▁يطلب	-1159
▁المياه	-1160
▁بولس	-1161
▁رأيت	-1162
▁فخرج	-1163
▁وارسل	-1164
مون	-1165
▁ويش	-1166
در	-1167
ده	-1168
باط	-1169
صير	-1170
مسك	-1171
جرة	-1172
سبب	-1173
▁عظيمة	-1174
باح	-1175
جلس	-1176
ولد	-1177
▁بغ	-1178
▁لس	-1179
▁سلا	-1180
▁صعد	-1181
▁غضب	-1182
▁ويت	-1183
▁اشور	-1184
▁فقالت	-1185
▁كثيرا	-1186
أوا	-1187
▁اكل	-1188
▁خطية	-1189
▁رجلا	-1190
لاميذه	-1191
▁فارسل	-1192
▁الأ	-1193
▁فمن	-1194
▁وهم	-1195
▁انهم	-1196
▁فاخذ	-1197
راف	-1198
عام	-1199
▁غن	-1200
▁قب	-1201
▁وضع	-1202
▁وقل	-1203
▁الاخوة	-1204
▁الناموس	-1205
تد	-1206
جس	-1207
دمة	-1208
ريح	-1209
كيم	-1210
موا	-1211
▁صر	-1212
▁قر	-1213
▁بهذا	-1214
▁فجاء	-1215
▁عشائر	-1216
اري	-1217
▁حد	-1218
▁رح	-1219
▁اخط	-1220
▁واذ	-1221
▁وقت	-1222
▁ولي	-1223
▁يدع	-1224
▁نعمة	-1225
تر	-1226
خلص	-1227
طرح	-1228
فتح	-1229
ونها	-1230
▁وجد	-1231
▁السيف	-1232
▁النار	-1233
▁لانكم	-1234
نية	-1235
وحنا	-1236
▁ولل	-1237
▁اعين	-1238
▁بيوت	-1239
▁قلبك	-1240
▁الساب	-1241
▁الفضة	-1242
▁علينا	-1243
▁الثالث	-1244
▁بنيامين	-1245
رح	-1246
قوا	-1247
وجد	-1248
▁بط	-1249
▁لع	-1250
▁منس	-1251
▁وام	-1252
▁وصا	-1253
▁اصعد	-1254
▁تعمل	-1255
▁والح	-1256
▁يقتل	-1257
▁الاشرار	-1258
مين	-1259
▁وط	-1260
▁للح	-1261
▁وخرج	-1262
شع	-1263
▁يج	-1264
امرة	-1265
▁جسد	-1266
▁ووضع	-1267
▁الامور	-1268
ناء	-1269
▁قام	-1270
▁كله	-1271
▁لست	-1272
▁الشي	-1273
▁يموت	-1274
▁الجبال	-1275
صب	-1276
▁عو	-1277
▁كم	-1278
▁لو	-1279
▁انما	-1280
▁والف	-1281
▁ارميا	-1282
▁تابوت	-1283
وء	-1284
▁أت	-1285
▁فب	-1286
▁مث	-1287
▁بما	-1288
▁ويل	-1289
▁الحي	-1290
▁الشمال	-1291
شف	-1292
▁عز	-1293
▁الض	-1294
▁اوص	-1295
▁خير	-1296
▁العا	-1297
▁قلبي	-1298
▁كلها	-1299
▁ملاك	-1300
▁الجسد	-1301
كام	-1302
كين	-1303
مام	-1304
▁حص	-1305
▁أما	-1306
▁رحم	-1307
▁عني	-1308
▁البر	-1309
▁ونزل	-1310
▁الشرير	-1311
خط	-1312
نوا	-1313
▁رجع	-1314
▁مات	-1315
▁ويع	-1316
▁يوآب	-1317
▁الحرب	-1318
حارب	-1319
▁للق	-1320
▁المل	-1321
وناثان	-1322
▁جلعاد	-1323
▁الثاني	-1324
باء	-1325
قون	-1326
قية	-1327
▁رس	-1328
▁غض	-1329
معون	-1330
▁المغ	-1331
▁كرسي	-1332
تة	-1333
زا	-1334
▁مص	-1335
▁بهم	-1336
▁عرف	-1337
▁وهي	-1338
▁حوال	-1339
▁وجهه	-1340
▁يصنع	-1341
▁الامر	-1342
انه	-1343
عات	-1344
علي	-1345
▁تف	-1346
▁دائ	-1347
▁سفر	-1348
▁فما	-1349
▁ارجع	-1350
▁معهم	-1351
▁منكم	-1352
▁الهيكل	-1353
▁الجماعة	-1354
▁بج	-1355
▁خط	-1356
▁ترك	-1357
▁فقل	-1358
▁للك	-1359
▁آلاف	-1360
▁الكت	-1361
▁نفسك	-1362
▁وبنا	-1363
▁وبين	-1364
▁يوجد	-1365
▁لانها	-1366
▁تز	-1367
▁فك	-1368
▁أمر	-1369
▁اول	-1370
▁قول	-1371
▁لحم	-1372
▁نار	-1373
▁تعرف	-1374
▁لاننا	-1375
▁وتكون	-1376
▁الموضع	-1377
بس	-1378
شق	-1379
ائل	-1380
شون	-1381
▁اه	-1382
ملكة	-1383
وبين	-1384
▁ارام	-1385
▁الاح	-1386
▁ذراع	-1387
▁فاني	-1388
▁مقدس	-1389
▁صموئيل	-1390
▁فقالوا	-1391
صد	-1392
أته	-1393
▁مي	-1394
▁باس	-1395
▁الصد	-1396
▁فقام	-1397
▁واست	-1398
بات	-1399
▁جد	-1400
▁نها	-1401
▁اسمع	-1402
▁يقدر	-1403
▁النهر	-1404
▁الوقت	-1405
▁بالسيف	-1406
▁قم	-1407
▁واش	-1408
▁آلهة	-1409
▁بالح	-1410
▁خبزا	-1411
▁والخ	-1412
▁والق	-1413
▁الانبياء	-1414
اك	-1415
نك	-1416
حها	-1417
يتك	-1418
▁اقت	-1419
▁اهل	-1420
▁فقد	-1421
▁ادوم	-1422
▁انكم	-1423
▁سمعت	-1424
▁سنين	-1425
▁والن	-1426
▁فالآن	-1427
▁فيكون	-1428
▁الساكن	-1429
▁السامرة	-1430
▁اللاويين	-1431
أتي	-1432
بون	-1433
▁فص	-1434
الوم	-1435
▁الاع	-1436
▁ملكا	-1437
▁وادي	-1438
▁الذهب	-1439
▁اليها	-1440
▁المكان	-1441
ارض	-1442
تني	-1443
▁ومل	-1444
▁ووق	-1445
▁الدم	-1446
▁معكم	-1447
▁وبني	-1448
سه	-1449
حفظ	-1450
واق	-1451
▁فلي	-1452
شالوم	-1453
▁بسبب	-1454
▁راسه	-1455
▁المدن	-1456
ذر	-1457
رتف	-1458
كار	-1459
▁بت	-1460
▁خا	-1461
▁يجد	-1462
▁افعل	-1463
▁جانب	-1464
حه	-1465
▁خر	-1466
▁واي	-1467
▁وتس	-1468
▁أليس	-1469
▁اخبر	-1470
▁انها	-1471
▁وهذه	-1472
▁المحل	-1473
▁اليهم	-1474
أس	-1475
ذان	-1476
فين	-1477
وجه	-1478
▁حل	-1479
▁خز	-1480
▁عه	-1481
يتهم	-1482
▁ارا	-1483
▁امه	-1484
▁قوم	-1485
▁وسمع	-1486
▁اربعة	-1487
▁حزقيا	-1488
▁عينيك	-1489
▁الخطية	-1490
الة	-1491
بار	-1492
مرا	-1493
مهم	-1494
▁طلب	-1495
▁اعطي	-1496
▁الارا	-1497
▁الماء	-1498
▁العظيم	-1499
▁تلاميذه	-1500
فض	-1501
أخذ	-1502
دهم	-1503
فون	-1504
كتب	-1505
▁فع	-1506
▁ينب	-1507
▁اخرى	-1508
▁والج	-1509
▁يمين	-1510
▁امامك	-1511
▁واقام	-1512
▁يوحنا	-1513
▁المساء	-1514
▁والذين	-1515
ثر	-1516
لة	-1517
وما	-1518
▁مغ	-1519
رائض	-1520
كلوا	-1521
نعان	-1522
▁قرب	-1523
▁تفعل	-1524
▁سلام	-1525
▁عيون	-1526
▁والت	-1527
▁للملك	-1528
▁آبائهم	-1529
▁الجنوب	-1530
▁بالنار	-1531
قين	-1532
وفا	-1533
▁مد	-1534
▁نق	-1535
برون	-1536
ربعام	-1537
▁اجاب	-1538
▁عمون	-1539
▁قالوا	-1540
▁ملكوت	-1541
▁وانتم	-1542
▁الحياة	-1543
بير	-1544
▁فق	-1545
▁فقط	-1546
▁والر	-1547
▁لانفس	-1548
ئر	-1549
الس	-1550
بوا	-1551
▁تغ	-1552
▁حس	-1553
▁قا	-1554
هرون	-1555
▁ثمر	-1556
▁عدد	-1557
▁للا	-1558
▁ونا	-1559
▁ويا	-1560
▁اخوت	-1561
▁البا	-1562
▁صارت	-1563
▁والس	-1564
▁الايمان	-1565
ربا	-1566
▁شف	-1567
▁ابد	-1568
▁تست	-1569
▁ليت	-1570
▁ورج	-1571
▁بنات	-1572
▁نصيب	-1573
▁واسم	-1574
▁وصعد	-1575
▁ومات	-1576
▁الدهر	-1577
▁الليل	-1578
▁عبيده	-1579
▁لنفسك	-1580
▁المقدس	-1581
بني	-1582
يسو	-1583
يدون	-1584
▁بحسب	-1585
▁الصباح	-1586
▁كثيرين	-1587
جار	-1588
زيت	-1589
فاط	-1590
كمل	-1591
▁حر	-1592
▁خذ	-1593
ريسي	-1594
▁بكر	-1595
▁مياه	-1596
▁والرب	-1597
اع	-1598
بعة	-1599
داس	-1600
كرا	-1601
ناك	-1602
نيا	-1603
يدا	-1604
▁يؤ	-1605
ربون	-1606
▁نبو	-1607
▁ويق	-1608
▁عوضا	-1609
▁واخبر	-1610
▁المصري	-1611
طه	-1612
هائم	-1613
▁اعلم	-1614
▁العد	-1615
▁داخل	-1616
▁جميعا	-1617
▁عظيما	-1618
بش	-1619
تون	-1620
▁ذكر	-1621
▁منا	-1622
▁موا	-1623
▁ورأ	-1624
▁اقام	-1625
▁شعبك	-1626
▁شعبه	-1627
▁ودخل	-1628
▁يرجع	-1629
▁الاله	-1630
▁والذي	-1631
▁اسمعوا	-1632
ئت	-1633
قيق	-1634
بعون	-1635
هادة	-1636
▁فيك	-1637
▁منك	-1638
▁ومس	-1639
▁اسحق	-1640
▁تصنع	-1641
▁حياة	-1642
▁السابع	-1643
طم	-1644
▁صد	-1645
▁جيش	-1646
▁لاس	-1647
▁مسا	-1648
▁ويد	-1649
▁ميرا	-1650
▁وبيت	-1651
▁وصايا	-1652
▁وفيما	-1653
▁انفسهم	-1654
يح	-1655
اهر	-1656
▁تد	-1657
▁خل	-1658
▁قص	-1659
▁بان	-1660
▁رفع	-1661
▁وعن	-1662
▁وسجد	-1663
▁الغنم	-1664
▁واربع	-1665
▁ابشالوم	-1666
عي	-1667
فك	-1668
ثال	-1669
جائ	-1670
ونة	-1671
▁اك	-1672
▁مز	-1673
▁شرا	-1674
▁واغ	-1675
▁المش	-1676
▁تقدم	-1677
▁السبت	-1678
▁عشيرة	-1679
▁عندما	-1680
▁عينيه	-1681
عر	-1682
عه	-1683
سلط	-1684
ضوا	-1685
غير	-1686
ملة	-1687
هنا	-1688
▁بد	-1689
▁سك	-1690
راعا	-1691
مهور	-1692
▁تعب	-1693
▁سقط	-1694
لاميذ	-1695
▁اذرع	-1696
▁فعلت	-1697
▁وهذا	-1698
▁يصعد	-1699
▁امامه	-1700
▁واجعل	-1701
اي	-1702
قى	-1703
راس	-1704
ياب	-1705
▁تل	-1706
ضايق	-1707
لائك	-1708
▁عهد	-1709
▁كلا	-1710
▁للخ	-1711
▁الاق	-1712
▁عيسو	-1713
▁وعند	-1714
▁يأكل	-1715
▁الاثم	-1716
▁خطايا	-1717
▁كنعان	-1718
▁لنفسه	-1719
▁الخارج	-1720
يها	-1721
▁عر	-1722
▁فاس	-1723
▁ويم	-1724
شافاط	-1725
▁وصنع	-1726
▁يقوم	-1727
▁امامي	-1728
▁جماعة	-1729
▁يهويا	-1730
▁النساء	-1731
▁وعشرين	-1732
▁يربعام	-1733
جة	-1734
طب	-1735
تنا	-1736
▁معل	-1737
▁ويح	-1738
يمالك	-1739
▁اذكر	-1740
▁تخرج	-1741
▁كنتم	-1742
▁تكلمت	-1743
▁ويقول	-1744
▁المسكن	-1745
▁المحرقة	-1746
▁يوناثان	-1747
وط	-1748
ركة	-1749
عدا	-1750
▁نف	-1751
▁يك	-1752
▁تخم	-1753
▁طوب	-1754
▁وعا	-1755
▁اجعل	-1756
▁انظر	-1757
▁اننا	-1758
▁لهما	-1759
▁ليست	-1760
▁والش	-1761
▁وامر	-1762
▁ودعا	-1763
▁الآخر	-1764
▁ايليا	-1765
▁ذراعا	-1766
▁مبارك	-1767
▁وهرون	-1768
صح	-1769
ارت	-1770
شان	-1771
واه	-1772
ودا	-1773
ولاد	-1774
▁زوج	-1775
▁لير	-1776
▁اسمك	-1777
▁عنده	-1778
▁فاذا	-1779
▁فدخل	-1780
▁الشرق	-1781
▁اولاد	-1782
▁ثيابه	-1783
▁الثلاث	-1784
▁كثيرون	-1785
مى	-1786
▁حن	-1787
▁لص	-1788
▁افت	-1789
▁تكن	-1790
▁مخت	-1791
▁الحص	-1792
▁فذهب	-1793
▁فقلت	-1794
▁مذبح	-1795
▁اخوته	-1796
▁الغرب	-1797
▁بالرب	-1798
▁جاءوا	-1799
▁محرقة	-1800
▁نبوخذ	-1801
▁وعشرون	-1802
عاة	-1803
▁احب	-1804
▁حما	-1805
▁فام	-1806
▁كنا	-1807
▁واث	-1808
▁بالم	-1809
▁تدخل	-1810
▁ساكن	-1811
▁القلب	-1812
▁لجميع	-1813
▁مقابل	-1814
▁مكانه	-1815
خرة	-1816
نوب	-1817
▁لآ	-1818
يسين	-1819
▁وعد	-1820
▁الكث	-1821
▁شيوخ	-1822
▁فدعا	-1823
▁والك	-1824
▁يذهب	-1825
▁الدار	-1826
▁الاموات	-1827
باؤ	-1828
لبس	-1829
▁دخ	-1830
▁اخي	-1831
▁حيا	-1832
▁فرح	-1833
▁قري	-1834
▁قوة	-1835
▁مرك	-1836
▁نزل	-1837
انيال	-1838
▁خمسة	-1839
▁زمان	-1840
▁لبيت	-1841
▁اسباط	-1842
عت	-1843
راخ	-1844
ظرت	-1845
▁رم	-1846
▁ضع	-1847
▁يل	-1848
▁اثم	-1849
▁ضيق	-1850
▁موت	-1851
▁ابنة	-1852
▁نحاس	-1853
▁وقتل	-1854
▁دائما	-1855
▁الكلمة	-1856
▁يقولون	-1857
تاز	-1858
وبة	-1859
وقد	-1860
▁حك	-1861
▁شه	-1862
عليم	-1863
▁اجت	-1864
▁تخا	-1865
▁الاس	-1866
▁بالك	-1867
▁بيتك	-1868
▁ويهو	-1869
▁ينبغي	-1870
▁والارض	-1871
تن	-1872
شت	-1873
عوا	-1874
▁قو	-1875
▁سيف	-1876
▁قطع	-1877
▁يرت	-1878
▁حكمة	-1879
▁لموسى	-1880
▁عشائرهم	-1881
قم	-1882
قه	-1883
زار	-1884
▁حم	-1885
رابا	-1886
▁آسا	-1887
▁امة	-1888
▁صاد	-1889
▁يفت	-1890
علمون	-1891
▁اخآب	-1892
▁اخطأ	-1893
▁المست	-1894
ره	-1895
طس	-1896
باب	-1897
روح	-1898
يوت	-1899
▁احت	-1900
▁الو	-1901
▁بام	-1902
▁صبا	-1903
▁فتح	-1904
▁فري	-1905
▁نصف	-1906
▁وصل	-1907
ذبيحة	-1908
▁تأتي	-1909
▁معنا	-1910
▁وحده	-1911
▁يأخذ	-1912
▁يوما	-1913
▁اياها	-1914
▁ايتها	-1915
▁النهار	-1916
▁امرأته	-1917
أكل	-1918
روا	-1919
ظلم	-1920
عها	-1921
يتم	-1922
▁بث	-1923
نيسة	-1924
▁ابا	-1925
▁فاب	-1926
▁يعل	-1927
▁الغد	-1928
▁امور	-1929
▁خيرا	-1930
▁مسكن	-1931
▁موضع	-1932
▁يحفظ	-1933
▁بالحق	-1934
▁تقدمة	-1935
▁صاحبه	-1936
▁فتكون	-1937
▁وهكذا	-1938
زن	-1939
صة	-1940
ثام	-1941
حون	-1942
نبأ	-1943
▁سن	-1944
ودية	-1945
▁اري	-1946
▁امت	-1947
▁وعب	-1948
▁ويب	-1949
▁يرى	-1950
▁آمين	-1951
▁فصعد	-1952
▁لهذا	-1953
▁يحمل	-1954
▁الكلد	-1955
▁وقالت	-1956
▁واللاو	-1957
▁ورؤساء	-1958
▁الهاوية	-1959
ئه	-1960
اف	-1961
جيء	-1962
▁زب	-1963
▁كف	-1964
رقات	-1965
مالك	-1966
▁صحي	-1967
▁طول	-1968
▁قدس	-1969
▁لاخ	-1970
▁لله	-1971
▁اسمي	-1972
▁بقية	-1973
▁سلاه	-1974
▁فضرب	-1975
▁فيكم	-1976
▁ههنا	-1977
▁وجهك	-1978
▁ورجع	-1979
▁واخرج	-1980
▁وايضا	-1981
▁ايديهم	-1982
ابر	-1983
الب	-1984
ربت	-1985
لاة	-1986
يقة	-1987
▁فض	-1988
فينة	-1989
ودين	-1990
▁هلم	-1991
لائكة	-1992
▁ابيك	-1993
▁اطلب	-1994
▁اعظم	-1995
▁اليم	-1996
▁برية	-1997
▁بصوت	-1998
▁والغ	-1999
▁آبائه	-2000
▁الجمع	-2001
▁ايمان	-2002
▁سلطان	-2003
▁عبيدك	-2004
▁قدامه	-2005
▁الملوك	-2006
زى	-2007
جون	-2008
جيل	-2009
سله	-2010
شيا	-2011
صاب	-2012
موت	-2013
▁بش	-2014
▁ته	-2015
▁عي	-2016
ائيل	-2017
▁دفع	-2018
▁مقد	-2019
▁مما	-2020
▁ليلا	-2021
▁ابواب	-2022
▁العهد	-2023
▁الجليل	-2024
طى	-2025
كي	-2026
حاز	-2027
طرد	-2028
عير	-2029
فان	-2030
▁جاد	-2031
▁صور	-2032
▁فين	-2033
▁لدى	-2034
▁ربنا	-2035
▁عمله	-2036
▁شريعة	-2037
▁واصعد	-2038
▁ونزلوا	-2039
رأ	-2040
اسا	-2041
جاب	-2042
رات	-2043
زوا	-2044
فرة	-2045
▁صل	-2046
▁آتي	-2047
▁وات	-2048
▁وتن	-2049
▁اصنع	-2050
▁اكون	-2051
▁بعضا	-2052
▁قليل	-2053
▁وبال	-2054
▁سمعوا	-2055
▁دانيال	-2056
▁قلوبهم	-2057
▁وكانوا	-2058
تب	-2059
رش	-2060
طق	-2061
ائه	-2062
انع	-2063
تيق	-2064
داب	-2065
داع	-2066
صنا	-2067
طير	-2068
▁عص	-2069
▁عق	-2070
▁لخ	-2071
اروا	-2072
لكوا	-2073
▁ثوب	-2074
▁جمع	-2075
▁للس	-2076
▁مخا	-2077
▁نصي	-2078
▁نوح	-2079
▁نور	-2080
▁القا	-2081
▁بنيه	-2082
▁خلاص	-2083
▁عهدا	-2084
▁لاوي	-2085
▁وجهي	-2086
▁ونحن	-2087
▁السجن	-2088
▁اربعين	-2089
▁السحاب	-2090
▁رأوبين	-2091
يني	-2092
▁ظل	-2093
ولون	-2094
ونني	-2095
▁ترت	-2096
▁عاد	-2097
▁عنك	-2098
▁قاد	-2099
▁لمن	-2100
▁آباء	-2101
▁ادخل	-2102
▁بالخ	-2103
▁بيده	-2104
▁فليس	-2105
▁يديه	-2106
▁يسقط	-2107
▁يسكن	-2108
▁الأمر	-2109
▁الحكمة	-2110
▁يسمعوا	-2111
▁العظيمة	-2112
حك	-2113
صم	-2114
اهل	-2115
بيب	-2116
قلا	-2117
موع	-2118
مير	-2119
ناه	-2120
▁تك	-2121
▁جا	-2122
داخل	-2123
ولدت	-2124
يئيل	-2125
▁تدع	-2126
▁دان	-2127
▁عنا	-2128
▁عندك	-2129
▁فسمع	-2130
▁كلهم	-2131
▁يسلم	-2132
▁عشرين	-2133
▁للشعب	-2134
▁ليكون	-2135
▁قلوبكم	-2136
▁واخوته	-2137
▁الرؤساء	-2138
جه	-2139
حب	-2140
غر	-2141
مز	-2142
لات	-2143
مائ	-2144
▁صن	-2145
▁مئ	-2146
حلوا	-2147
خذوا	-2148
▁بحر	-2149
▁بكم	-2150
▁لين	-2151
▁آباؤ	-2152
▁تطلب	-2153
▁شعوب	-2154
▁ففعل	-2155
▁نجسا	-2156
▁اضطجع	-2157
▁الخير	-2158
▁قائلة	-2159
▁وبقية	-2160
▁ارسلني	-2161
▁المغنين	-2162
ظل	-2163
اره	-2164
حوا	-2165
يتي	-2166
ذهبا	-2167
ودون	-2168
يران	-2169
▁اجي	-2170
▁حفظ	-2171
▁حكم	-2172
▁حلق	-2173
▁محل	-2174
▁ينا	-2175
▁اعرف	-2176
▁شجرة	-2177
▁صنعت	-2178
▁طوبى	-2179
رتفعات	-2180
▁اعطيت	-2181
▁حبرون	-2182
▁للحرب	-2183
خم	-2184
طن	-2185
بائح	-2186
▁حسن	-2187
▁ردي	-2188
▁فمه	-2189
▁ثياب	-2190
▁صالح	-2191
▁عنها	-2192
▁فكلم	-2193
▁لسان	-2194
▁وجوه	-2195
▁وعبد	-2196
▁وقلت	-2197
▁يقبل	-2198
▁الزيت	-2199
▁العمل	-2200
▁بعدما	-2201
▁الاولى	-2202
▁الساعة	-2203
▁الكلدانيين	-2204
▁الفلسطينيون	-2205
حص	-2206
الا	-2207
راد	-2208
شاي	-2209
طاء	-2210
فاة	-2211
ناص	-2212
وتك	-2213
يره	-2214
▁تذ	-2215
▁كس	-2216
كلمة	-2217
▁احش	-2218
▁بار	-2219
▁تخف	-2220
▁ثور	-2221
▁سبي	-2222
▁ليع	-2223
▁مرض	-2224
▁مني	-2225
▁يضع	-2226
▁اياه	-2227
▁تأكل	-2228
▁فمات	-2229
▁يكلم	-2230
▁الريح	-2231
▁المعد	-2232
▁وتصنع	-2233
▁الرابع	-2234
غا	-2235
غل	-2236
ائط	-2237
ائن	-2238
حدث	-2239
خور	-2240
صرف	-2241
فاء	-2242
▁بف	-2243
▁شد	-2244
ارجا	-2245
ملوا	-2246
نعمة	-2247
▁خشب	-2248
▁شمع	-2249
▁وتع	-2250
▁وحي	-2251
▁وفر	-2252
▁ارفع	-2253
▁اعطا	-2254
▁الحا	-2255
▁بارك	-2256
▁تسمع	-2257
▁جعلت	-2258
▁عنهم	-2259
▁غضبه	-2260
▁وحدث	-2261
▁يخطئ	-2262
▁اتكلم	-2263
▁الخبز	-2264
▁المجد	-2265
▁النفس	-2266
▁بكلام	-2267
▁بينهم	-2268
▁سمعان	-2269
▁لبنان	-2270
▁وتكلم	-2271
▁الفريسي	-2272
▁القديسين	-2273
ادع	-2274
دام	-2275
زيا	-2276
طاة	-2277
طهر	-2278
▁از	-2279
▁بب	-2280
تموه	-2281
جتمع	-2282
▁آمن	-2283
▁بشر	-2284
▁بعل	-2285
▁تمت	-2286
▁حار	-2287
▁سري	-2288
▁فيس	-2289
▁مزم	-2290
▁مكر	-2291
▁الوح	-2292
▁تخوم	-2293
▁خدمة	-2294
▁يثبت	-2295
▁يهلك	-2296
▁الخام	-2297
▁الههم	-2298
▁بجانب	-2299
▁رحمته	-2300
▁عندكم	-2301
▁فاخبر	-2302
▁وخمسة	-2303
▁الآباء	-2304
▁تعلمون	-2305
▁ابيمالك	-2306
▁الثلاثة	-2307
سى	-2308
بعض	-2309
خاي	-2310
▁لأ	-2311
تهما	-2312
وئيل	-2313
▁حجر	-2314
▁دعا	-2315
▁شري	-2316
▁طعا	-2317
▁قسم	-2318
▁ممل	-2319
▁نجس	-2320
▁ودع	-2321
ردخاي	-2322
▁اخيه	-2323
▁المخ	-2324
▁شعبا	-2325
▁عبدي	-2326
▁واله	-2327
▁ووقف	-2328
▁ينظر	-2329
▁اريحا	-2330
▁الفصح	-2331
▁النور	-2332
▁بجميع	-2333
▁ذبائح	-2334
▁كلامي	-2335
▁ميراث	-2336
▁الكتاب	-2337
▁مكتوبة	-2338
▁الاراضي	-2339
▁السفينة	-2340
▁يهوشافاط	-2341
فه	-2342
قض	-2343
بتد	-2344
ودي	-2345
يرون	-2346
▁بئر	-2347
▁حرا	-2348
▁سكن	-2349
▁علم	-2350
▁فمي	-2351
▁فهم	-2352
▁وها	-2353
▁ينت	-2354
▁احدا	-2355
▁اطلق	-2356
▁العش	-2357
▁باطل	-2358
▁بعيد	-2359
▁تنظر	-2360
▁شكيم	-2361
▁فاعط	-2362
▁فرجع	-2363
▁مدين	-2364
▁وابي	-2365
▁والص	-2366
▁وجدت	-2367
▁ونصف	-2368
▁سريعا	-2369
▁طريقه	-2370
▁فماذا	-2371
▁للذين	-2372
▁مزمور	-2373
▁انظروا	-2374
اتب	-2375
تهج	-2376
فهم	-2377
لاح	-2378
▁قط	-2379
راها	-2380
طفال	-2381
▁ارج	-2382
▁تقد	-2383
▁جئت	-2384
▁دور	-2385
▁راح	-2386
▁للج	-2387
▁وعش	-2388
▁ابتد	-2389
▁بيتا	-2390
▁دقيق	-2391
▁عندي	-2392
▁قدوس	-2393
▁مدخل	-2394
▁نساء	-2395
▁وشعب	-2396
▁يؤمن	-2397
▁يجعل	-2398
▁الجيش	-2399
▁الضرب	-2400
▁العلي	-2401
▁حينما	-2402
▁خارجا	-2403
▁معرفة	-2404
▁فلماذا	-2405
▁البهائم	-2406
▁الشريعة	-2407
▁المصريين	-2408
▁نبوخذناص	-2409
خدم	-2410
دعو	-2411
طلا	-2412
عدة	-2413
ومي	-2414
▁جث	-2415
▁جس	-2416
▁حو	-2417
▁رد	-2418
▁شم	-2419
▁ضد	-2420
آبائ	-2421
الوا	-2422
كثرة	-2423
▁ستة	-2424
▁شبه	-2425
▁فصا	-2426
▁مطر	-2427
▁نسل	-2428
▁نعم	-2429
▁وله	-2430
▁ابصر	-2431
▁حسنا	-2432
▁دمشق	-2433
▁فنزل	-2434
▁ميخا	-2435
▁والآ	-2436
▁والث	-2437
▁ورفع	-2438
▁وقام	-2439
▁يقال	-2440
▁اثنين	-2441
▁اياما	-2442
▁بينكم	-2443
▁حجارة	-2444
▁وبارك	-2445
▁وهوذا	-2446
▁ويجعل	-2447
▁الملاك	-2448
▁التلاميذ	-2449
صى	-2450
ارح	-2451
ودة	-2452
▁رآ	-2453
▁عج	-2454
▁فش	-2455
▁كب	-2456
ارية	-2457
انان	-2458
بعام	-2459
نتين	-2460
▁سلم	-2461
▁كام	-2462
▁للت	-2463
▁وبك	-2464
▁وجل	-2465
▁ياب	-2466
▁يحب	-2467
▁افضل	-2468
▁المو	-2469
▁الهه	-2470
▁بالت	-2471
▁تموت	-2472
▁خرجت	-2473
▁لصوت	-2474
▁نارا	-2475
▁وسكن	-2476
▁وولد	-2477
▁ياكل	-2478
▁يزرع	-2479
▁ينزل	-2480
▁الخمر	-2481
▁باشان	-2482
▁طعاما	-2483
▁الداخل	-2484
▁السلام	-2485
يع	-2486
ائد	-2487
اهد	-2488
دوم	-2489
فير	-2490
ناح	-2491
▁بص	-2492
▁جز	-2493
▁قت	-2494
▁لش	-2495
▁هد	-2496
ديان	-2497
كريا	-2498
لاطس	-2499
▁اضط	-2500
▁خدم	-2501
▁نجا	-2502
▁وحا	-2503
▁يكر	-2504
ارحها	-2505
▁آنية	-2506
▁ابنك	-2507
▁ايوب	-2508
▁بنين	-2509
▁مرات	-2510
▁وبنى	-2511
▁ابناء	-2512
▁بعضهم	-2513
▁جمهور	-2514
▁قليلا	-2515
▁لامام	-2516
▁والام	-2517
▁وسطهم	-2518
▁الخيمة	-2519
▁وهؤلاء	-2520
▁يكونون	-2521
▁المملكة	-2522
▁لاسرائيل	-2523
يط	-2524
ائي	-2525
تهز	-2526
هور	-2527
▁صف	-2528
▁نذ	-2529
الحة	-2530
ديدا	-2531
ذابح	-2532
نيمة	-2533
يرود	-2534
▁بقر	-2535
▁تعط	-2536
▁خلا	-2537
▁رائ	-2538
▁زيت	-2539
▁ظهر	-2540
▁قدم	-2541
▁ميت	-2542
▁نير	-2543
▁وبا	-2544
▁وتش	-2545
▁وكث	-2546
▁يصل	-2547
انسان	-2548
▁اثنا	-2549
▁تذهب	-2550
▁سرور	-2551
▁سيده	-2552
▁شاقل	-2553
▁معها	-2554
▁وارت	-2555
▁ياتي	-2556
▁الجيل	-2557
▁فرائض	-2558
▁فريضة	-2559
▁ناموس	-2560
▁نهارا	-2561
▁وبنيه	-2562
▁وتقدم	-2563
▁الظلمة	-2564
▁بالروح	-2565
▁تقولون	-2566
▁اللاويون	-2567
آش	-2568
ئون	-2569
نات	-2570
وكم	-2571
▁وو	-2572
جائب	-2573
واتي	-2574
▁ألم	-2575
▁جال	-2576
▁حقل	-2577
▁سرا	-2578
▁ففي	-2579
▁للع	-2580
▁ملت	-2581
▁يقت	-2582
▁اناس	-2583
▁بالع	-2584
▁فكيف	-2585
▁قريب	-2586
▁ليكن	-2587
▁ملكه	-2588
▁وابن	-2589
▁وعبر	-2590
▁ياهو	-2591
▁ابنير	-2592
▁افواه	-2593
▁الرسل	-2594
▁السور	-2595
▁الضيق	-2596
▁المرك	-2597
▁اليشع	-2598
▁وسطها	-2599
▁يوشيا	-2600
▁المجمع	-2601
▁انفسكم	-2602
▁بيلاطس	-2603
▁فصاعدا	-2604
نس	-2605
بعه	-2606
رعى	-2607
ساؤ	-2608
يبة	-2609
▁رف	-2610
▁قي	-2611
▁كع	-2612
رامة	-2613
▁حقا	-2614
▁حلف	-2615
▁زرع	-2616
▁طرف	-2617
▁غدا	-2618
▁قبر	-2619
▁هما	-2620
▁يخا	-2621
فتالي	-2622
▁بنفس	-2623
▁تصير	-2624
▁حامل	-2625
▁زوجة	-2626
▁صنعة	-2627
▁قرية	-2628
▁مريم	-2629
▁ولدت	-2630
▁يخبر	-2631
▁يقيم	-2632
▁العدو	-2633
▁بعضكم	-2634
▁مملكة	-2635
▁التراب	-2636
▁السبعة	-2637
▁الليلة	-2638
▁انسانا	-2639
▁مردخاي	-2640
▁ارتحلوا	-2641
▁الساكنين	-2642
مح	-2643
بلت	-2644
حمة	-2645
روف	-2646
مله	-2647
▁اض	-2648
▁فخ	-2649
▁فغ	-2650
▁وذ	-2651
ريبة	-2652
زريا	-2653
قامة	-2654
كونة	-2655
لمان	-2656
واحد	-2657
▁اجن	-2658
▁بأس	-2659
▁برج	-2660
▁حور	-2661
▁ذاك	-2662
▁قيا	-2663
▁محب	-2664
▁مرة	-2665
▁مرت	-2666
▁مشي	-2667
▁وتح	-2668
▁يخت	-2669
▁ابوه	-2670
▁احفظ	-2671
▁القل	-2672
▁حولي	-2673
▁خمرا	-2674
▁رجاء	-2675
▁علمت	-2676
▁عملت	-2677
▁عنكم	-2678
▁فانا	-2679
▁فوجد	-2680
▁لملك	-2681
▁يخدم	-2682
▁ارضهم	-2683
▁البقر	-2684
▁السبي	-2685
▁صدقيا	-2686
▁والاب	-2687
▁وثمان	-2688
▁الزمان	-2689
▁الوادي	-2690
▁اليمنى	-2691
▁ويهوذا	-2692
▁حواليها	-2693
▁بالايمان	-2694
▁الاموريين	-2695
رقا	-2696
صيا	-2697
ضرع	-2698
غوا	-2699
فرز	-2700
كله	-2701
لمي	-2702
▁أف	-2703
▁شق	-2704
كماء	-2705
▁رفض	-2706
▁سور	-2707
▁لاج	-2708
▁هام	-2709
▁وقف	-2710
▁يتم	-2711
▁ارضك	-2712
▁الجز	-2713
▁الفق	-2714
▁بزيت	-2715
▁رسلا	-2716
▁نفوس	-2717
▁هيكل	-2718
▁واقف	-2719
▁وسطك	-2720
▁وصار	-2721
▁ابرام	-2722
▁اقوال	-2723
▁بسلام	-2724
▁فكانت	-2725
▁وادخل	-2726
▁القائل	-2727
▁المحبة	-2728
▁رحبعام	-2729
▁وثلاثين	-2730
أن	-2731
بق	-2732
سط	-2733
سين	-2734
ناس	-2735
وائ	-2736
ويا	-2737
شرين	-2738
طيور	-2739
واعد	-2740
▁ألا	-2741
▁جند	-2742
▁شوا	-2743
▁صرت	-2744
▁فيح	-2745
▁منت	-2746
▁واص	-2747
▁وقر	-2748
▁ينج	-2749
▁اباه	-2750
▁العب	-2751
▁بالب	-2752
▁بذهب	-2753
▁بركة	-2754
▁رأوا	-2755
▁صراخ	-2756
▁ضربة	-2757
▁كتاب	-2758
▁لرجل	-2759
▁وآخر	-2760
▁ورأى	-2761
▁ومتى	-2762
▁يدعى	-2763
▁يفهم	-2764
▁الابن	-2765
▁السفر	-2766
▁الصبي	-2767
▁اولئك	-2768
▁بلعام	-2769
▁وجاءوا	-2770
▁الشهادة	-2771
▁الكنيسة	-2772
▁لانفسهم	-2773
▁المستقيم	-2774
قص	-2775
لع	-2776
يظ	-2777
أله	-2778
تاة	-2779
ثون	-2780
داد	-2781
شيء	-2782
طال	-2783
كلت	-2784
ورح	-2785
▁أس	-2786
▁نت	-2787
▁وض	-2788
بيدا	-2789
تيقظ	-2790
جدون	-2791
صرون	-2792
وجوه	-2793
▁خوف	-2794
▁شهر	-2795
▁ليش	-2796
▁ملج	-2797
▁ابوا	-2798
▁ارضه	-2799
▁اصاب	-2800
▁اقسم	-2801
▁تحفظ	-2802
▁فأخذ	-2803
▁فاجت	-2804
▁فيما	-2805
▁ودفع	-2806
▁ودفن	-2807
▁وطلب	-2808
▁يذبح	-2809
▁التخم	-2810
▁الثام	-2811
▁باسمي	-2812
▁بكثرة	-2813
▁عبيدا	-2814
▁فتقدم	-2815
▁كلامك	-2816
▁مملوء	-2817
▁هيرود	-2818
▁وراءه	-2819
▁الشيوخ	-2820
▁يستطيع	-2821
▁يسمعون	-2822
▁التابوت	-2823
▁الثانية	-2824
اج	-2825
بأ	-2826
ضت	-2827
ائح	-2828
بيح	-2829
تاج	-2830
مرة	-2831
▁صغ	-2832
▁مك	-2833
ملوك	-2834
هادا	-2835
▁تبر	-2836
▁ترى	-2837
▁خيم	-2838
▁دار	-2839
▁طال	-2840
▁فات	-2841
▁وكر	-2842
▁ويغ	-2843
سرحها	-2844
ماعيل	-2845
وانات	-2846
▁بيتي	-2847
▁تجعل	-2848
▁تذكر	-2849
▁ثورا	-2850
▁طعام	-2851
▁عامل	-2852
▁كثرة	-2853
▁وأتى	-2854
▁وقطع	-2855
▁ارتفع	-2856
▁اعداء	-2857
▁الكنع	-2858
▁لآبائ	-2859
▁لابان	-2860
▁نهاية	-2861
▁الغلام	-2862
▁يهوياداع	-2863
باش	-2864
حوت	-2865
صور	-2866
عين	-2867
نائ	-2868
يدك	-2869
يفة	-2870
▁اط	-2871
▁حج	-2872
▁غر	-2873
جدوا	-2874
راعي	-2875
▁أتى	-2876
▁اور	-2877
▁حشب	-2878
▁حمل	-2879
▁دين	-2880
▁غنم	-2881
▁فرأ	-2882
▁نهر	-2883
برياء	-2884
▁اخاه	-2885
▁اعطى	-2886
▁القت	-2887
▁بالس	-2888
▁حديد	-2889
▁عبده	-2890
▁فاست	-2891
▁قالت	-2892
▁ليهو	-2893
▁نسلك	-2894
▁نعلم	-2895
▁وحين	-2896
▁وسبع	-2897
▁يرفع	-2898
▁اجيال	-2899
▁احكام	-2900
▁اخبار	-2901
▁اخوتي	-2902
▁اصحاب	-2903
▁البار	-2904
▁الراس	-2905
▁العبد	-2906
▁القفر	-2907
▁الينا	-2908
▁رئيسا	-2909
▁واذهب	-2910
▁اعدائي	-2911
▁الآلهة	-2912
▁الصالح	-2913
▁الكروب	-2914
▁تسمعوا	-2915
▁يطلبون	-2916
▁السلامة	-2917
▁الشيطان	-2918
▁ومسرحها	-2919
▁اليهودية	-2920
▁ومسارحها	-2921
دب	-2922
ذن	-2923
شى	-2924
هي	-2925
ؤيا	-2926
ارد	-2927
جلة	-2928
طلع	-2929
عله	-2930
▁حض	-2931
▁رع	-2932
▁كه	-2933
جوني	-2934
حديد	-2935
عمال	-2936
وصية	-2937
يدهم	-2938
▁آله	-2939
▁ألي	-2940
▁بري	-2941
▁حرب	-2942
▁خال	-2943
▁سوف	-2944
▁سين	-2945
▁عار	-2946
▁عال	-2947
▁فخا	-2948
▁فخر	-2949
▁فلل	-2950
▁للش	-2951
▁متم	-2952
▁وصر	-2953
▁يعط	-2954
رائضي	-2955
▁احمد	-2956
▁اسفل	-2957
▁اصنا	-2958
▁العم	-2959
▁القر	-2960
▁المج	-2961
▁بماء	-2962
▁جبعة	-2963
▁سدوم	-2964
▁عظام	-2965
▁فأتى	-2966
▁فيهم	-2967
▁ورائ	-2968
▁وسقط	-2969
▁وعرض	-2970
▁يضرب	-2971
▁الثور	-2972
▁الساد	-2973
▁ثانية	-2974
▁جديدة	-2975
▁خرابا	-2976
▁رجليه	-2977
▁غنيمة	-2978
▁قدامك	-2979
▁واعطى	-2980
▁الخامس	-2981
▁الضربة	-2982
▁اللذين	-2983
▁ثلاثين	-2984
خة	-2985
تهن	-2986
حور	-2987
وار	-2988
وعة	-2989
▁أم	-2990
▁شل	-2991
حاكم	-2992
يهما	-2993
▁اصل	-2994
▁عصا	-2995
▁فهي	-2996
▁قيل	-2997
▁لعب	-2998
▁مذب	-2999
▁ومي	-3000
▁يرد	-3001
▁يعد	-3002
▁يقف	-3003
ذبائح	-3004
▁انقذ	-3005
▁تأخذ	-3006
▁جبال	-3007
▁خربة	-3008
▁راسي	-3009
▁قدمي	-3010
▁وزنة	-3011
▁يترك	-3012
▁يخلص	-3013
▁يصير	-3014
▁استير	-3015
▁افكار	-3016
▁الحجر	-3017
▁الغضب	-3018
▁باطلا	-3019
▁رائحة	-3020
▁عملها	-3021
▁قربان	-3022
▁الكاتب	-3023
▁بالحري	-3024
▁تكونوا	-3025
صو	-3026
قف	-3027
بها	-3028
تيه	-3029
سون	-3030
قلب	-3031
كسر	-3032
▁آه	-3033
▁تي	-3034
▁مؤ	-3035
ابرة	-3036
صايا	-3037
فتخر	-3038
ونان	-3039
ونهم	-3040
▁ارى	-3041
▁بيس	-3042
▁خائ	-3043
▁طرد	-3044
▁عدا	-3045
▁فرا	-3046
▁للب	-3047
▁للغ	-3048
▁وبر	-3049
▁الجب	-3050
▁العل	-3051
▁انته	-3052
▁تثبت	-3053
▁خروج	-3054
▁كهنة	-3055
▁لاست	-3056
▁وعاش	-3057
▁الخيل	-3058
▁الولد	-3059
▁تتكلم	-3060
▁سلامة	-3061
▁مساكن	-3062
▁واعطي	-3063
▁يعطيك	-3064
▁الجالس	-3065
▁القدوس	-3066
▁القضاء	-3067
▁امامهم	-3068
▁محرقات	-3069
▁الاقداس	-3070
▁الاولاد	-3071
▁الواحدة	-3072
اعد	-3073
حدر	-3074
دان	-3075
شوا	-3076
فني	-3077
ولة	-3078
▁آت	-3079
انها	-3080
عياء	-3081
وتهم	-3082
▁آية	-3083
▁ابو	-3084
▁اجر	-3085
▁ارد	-3086
▁اشت	-3087
▁حمو	-3088
▁شرك	-3089
▁صلا	-3090
▁فاح	-3091
▁فمك	-3092
▁كمن	-3093
▁لتس	-3094
▁مخل	-3095
▁نبي	-3096
▁ومت	-3097
▁يخل	-3098
▁يفن	-3099
فرعون	-3100
▁آذان	-3101
▁اشهر	-3102
▁اشير	-3103
▁بهذه	-3104
▁ترجع	-3105
▁جسده	-3106
▁طرقه	-3107
▁عرفت	-3108
▁فسقط	-3109
▁مملك	-3110
▁يجلس	-3111
▁ابدية	-3112
▁العين	-3113
▁الفهم	-3114
▁القبر	-3115
▁لهرون	-3116
▁هامان	-3117
▁وتجعل	-3118
▁اذهبوا	-3119
▁اشعياء	-3120
▁الكبير	-3121
▁النحاس	-3122
▁تعملوا	-3123
▁حواليه	-3124
▁كلاهما	-3125
▁وقراها	-3126
▁المرتفعات	-3127
دخ	-3128
ضح	-3129
فى	-3130
جال	-3131
راق	-3132
عرف	-3133
لمه	-3134
ملأ	-3135
هات	-3136
ونك	-3137
يوش	-3138
▁جم	-3139
▁خي	-3140
▁غل	-3141
ائهم	-3142
حرقة	-3143
زعزع	-3144
ونوا	-3145
▁خمر	-3146
▁شعر	-3147
▁صلب	-3148
▁فرق	-3149
▁مضى	-3150
▁وتخ	-3151
▁وتي	-3152
▁وخر	-3153
▁ورؤ	-3154
▁ولت	-3155
ياطين	-3156
▁الرس	-3157
▁الوع	-3158
▁بنوه	-3159
▁دخول	-3160
▁عالم	-3161
▁غضبي	-3162
▁فارس	-3163
▁لابي	-3164
▁وصية	-3165
▁يحسن	-3166
▁اجتمع	-3167
▁اسماء	-3168
▁العبر	-3169
▁خمسين	-3170
▁راحيل	-3171
▁شاقلا	-3172
▁لنفسي	-3173
▁مذبحا	-3174
▁وأتوا	-3175
▁واحرق	-3176
▁وهناك	-3177
▁يبارك	-3178
▁هيرودس	-3179
▁وصاياك	-3180
▁المسكونة	-3181
▁واورشليم	-3182
ثة	-3183
زة	-3184
ائم	-3185
بكة	-3186
ديا	-3187
ديب	-3188
ضاة	-3189
طيب	-3190
قتل	-3191
ومة	-3192
▁لج	-3193
▁يط	-3194
فعله	-3195
▁اعت	-3196
▁بدم	-3197
▁تقل	-3198
▁دعي	-3199
▁دما	-3200
▁عيد	-3201
▁فدع	-3202
▁قدر	-3203
▁كوش	-3204
▁ليم	-3205
▁مسر	-3206
▁مفت	-3207
▁ورب	-3208
▁وسا	-3209
▁ولب	-3210
▁يحل	-3211
▁ابغض	-3212
▁اريد	-3213
▁بغتة	-3214
▁جاءت	-3215
▁شمال	-3216
▁عملا	-3217
▁عينه	-3218
▁للام	-3219
▁وفعل	-3220
▁ومعه	-3221
▁يطلق	-3222
▁البشر	-3223
▁الخمس	-3224
▁الردي	-3225
▁المنا	-3226
▁صباحا	-3227
▁مشورة	-3228
▁واسحق	-3229
▁وبنوه	-3230
▁وبيوت	-3231
▁وسبعة	-3232
▁الرئيس	-3233
▁النعمة	-3234
▁انبياء	-3235
▁انفسنا	-3236
▁بالكذب	-3237
▁نفتالي	-3238
▁وخمسين	-3239
▁ويعقوب	-3240
▁اسماعيل	-3241
▁الجلجال	-3242
▁وثلاثون	-3243
▁المعدودون	-3244
اة	-3245
غت	-3246
اكر	-3247
بيا	-3248
بيع	-3249
تاف	-3250
دفع	-3251
ذنب	-3252
رسل	-3253
زوج	-3254
ضون	-3255
هام	-3256
واء	-3257
واح	-3258
وعا	-3259
▁تص	-3260
▁جر	-3261
▁ده	-3262
▁رك	-3263
▁فآ	-3264
لكون	-3265
ناها	-3266
ولوا	-3267
وهما	-3268
▁ابت	-3269
▁اتى	-3270
▁اجد	-3271
▁اذن	-3272
▁امس	-3273
▁حدث	-3274
▁ظلم	-3275
▁وتب	-3276
▁وتت	-3277
▁ورا	-3278
▁وست	-3279
▁اراد	-3280
▁اسما	-3281
▁اكتب	-3282
▁الجد	-3283
▁السب	-3284
▁السر	-3285
▁بشيء	-3286
▁تعطي	-3287
▁رحمة	-3288
▁شريع	-3289
▁فصرخ	-3290
▁لستم	-3291
▁لشعب	-3292
▁محبة	-3293
▁وارض	-3294
▁والي	-3295
▁وذبح	-3296
▁وسار	-3297
▁ولكل	-3298
انبياء	-3299
▁ابتدأ	-3300
▁البعل	-3301
▁الجوع	-3302
▁الدائ	-3303
▁المعز	-3304
▁بكلمة	-3305
▁كلامه	-3306
▁لملوك	-3307
▁ملعون	-3308
▁الصغير	-3309
▁المشرق	-3310
▁الاشياء	-3311
▁التقدمة	-3312
طح	-3313
عن	-3314
غة	-3315
كة	-3316
امة	-3317
ثار	-3318
زون	-3319
طمئ	-3320
لوا	-3321
منا	-3322
▁أه	-3323
▁ثر	-3324
▁لغ	-3325
ذراء	-3326
واري	-3327
يدوا	-3328
▁آكل	-3329
▁ادع	-3330
▁اعد	-3331
▁افس	-3332
▁تعد	-3333
▁جلد	-3334
▁خاد	-3335
▁فتن	-3336
▁نقي	-3337
▁وسل	-3338
▁وعظ	-3339
▁ولو	-3340
▁ونع	-3341
▁اجمع	-3342
▁اخوة	-3343
▁اسرع	-3344
▁الما	-3345
▁ذنوب	-3346
▁صاحب	-3347
▁صوته	-3348
▁عبدا	-3349
▁عهدي	-3350
▁فسأل	-3351
▁قرون	-3352
▁مجده	-3353
▁وجمع	-3354
▁ويست	-3355
▁يبغض	-3356
▁يحيا	-3357
▁يقدم	-3358
▁يقطع	-3359
▁رحمتك	-3360
▁شهادة	-3361
▁فاخرج	-3362
▁للقاء	-3363
▁ملتوت	-3364
▁وابتد	-3365
▁وانظر	-3366
▁وسكان	-3367
▁الجموع	-3368
▁القتال	-3369
▁امامكم	-3370
▁وخمسون	-3371
▁الابواب	-3372
▁الغرباء	-3373
▁لانفسكم	-3374
▁واللاويين	-3375
ؤه	-3376
شة	-3377
ضم	-3378
طت	-3379
برر	-3380
تلئ	-3381
حار	-3382
روس	-3383
سيس	-3384
صرة	-3385
كور	-3386
ليا	-3387
مدة	-3388
نطة	-3389
يلي	-3390
يور	-3391
▁لق	-3392
▁يث	-3393
اهرة	-3394
دعون	-3395
سبوك	-3396
▁خلق	-3397
▁ذبح	-3398
▁سأل	-3399
▁سار	-3400
▁فهل	-3401
▁نظر	-3402
▁وسب	-3403
▁وغش	-3404
▁يجب	-3405
▁اترك	-3406
▁اثما	-3407
▁احسن	-3408
▁اذني	-3409
▁بفرح	-3410
▁خيام	-3411
▁روحي	-3412
▁عابر	-3413
▁فصار	-3414
▁قادش	-3415
▁كالب	-3416
▁كاهن	-3417
▁كتبت	-3418
▁مبغض	-3419
▁وأمر	-3420
▁وكما	-3421
▁يحسب	-3422
▁يفرح	-3423
▁ابينا	-3424
▁ارسلت	-3425
▁ارسله	-3426
▁البكر	-3427
▁الجلد	-3428
▁القاد	-3429
▁القتل	-3430
▁الكذب	-3431
▁الموج	-3432
▁الولا	-3433
▁بالاق	-3434
▁بيسوع	-3435
▁جبعون	-3436
▁خرجوا	-3437
▁مقدسة	-3438
▁والمر	-3439
▁الرامة	-3440
▁القدير	-3441
▁جبابرة	-3442
▁وبينما	-3443
▁الابدية	-3444
▁الثالثة	-3445
▁الحكماء	-3446
▁المسكين	-3447
▁الملائكة	-3448
▁واسرائيل	-3449
▁الكنعانيين	-3450
جف	-3451
ظة	-3452
قك	-3453
نط	-3454
خذه	-3455
زلا	-3456
زير	-3457
صري	-3458
عنة	-3459
فيض	-3460
هاب	-3461
هوة	-3462
▁جن	-3463
▁عط	-3464
▁لد	-3465
▁يذ	-3466
▁اضع	-3467
▁بحد	-3468
▁خيل	-3469
▁كذب	-3470
▁لوح	-3471
▁وتغ	-3472
▁ونج	-3473
▁يمس	-3474
عازار	-3475
ماليق	-3476
▁ألعل	-3477
▁احكا	-3478
▁الال	-3479
▁التم	-3480
▁اليا	-3481
▁انزل	-3482
▁تصعد	-3483
▁جالس	-3484
▁حماة	-3485
▁دخلت	-3486
▁ساعة	-3487
▁طاهر	-3488
▁لاله	-3489
▁وصوت	-3490
▁وقلب	-3491
▁ومضى	-3492
▁يظهر	-3493
▁يعود	-3494
▁يغسل	-3495
▁يفتح	-3496
▁اثنان	-3497
▁الآتي	-3498
▁امصيا	-3499
▁ايامه	-3500
▁بماذا	-3501
▁حشبون	-3502
▁شمعون	-3503
▁عشرون	-3504
▁مديان	-3505
▁مذابح	-3506
▁ممالك	-3507
▁وكذلك	-3508
▁يأتون	-3509
▁يتنبأ	-3510
▁ابوابك	-3511
▁تخافوا	-3512
▁جميعكم	-3513
▁زبولون	-3514
▁فاجتمع	-3515
▁وسجدوا	-3516
▁الارامي	-3517
▁والكهنة	-3518
ثرة	-3519
خرى	-3520
ديك	-3521
زين	-3522
سلا	-3523
فعة	-3524
لون	-3525
ماث	-3526
ولي	-3527
▁تؤ	-3528
▁ذو	-3529
▁نث	-3530
بارك	-3531
▁برا	-3532
▁خبر	-3533
▁دمه	-3534
▁رعب	-3535
▁ريح	-3536
▁سبب	-3537
▁سبت	-3538
▁سخط	-3539
▁لتم	-3540
▁ولن	-3541
▁ومر	-3542
▁يتع	-3543
▁يجا	-3544
▁يلق	-3545
وريين	-3546
▁آحاز	-3547
▁ابيا	-3548
▁احدى	-3549
▁الجه	-3550
▁الخا	-3551
▁بالج	-3552
▁بدون	-3553
▁بلاد	-3554
▁تترك	-3555
▁رفعت	-3556
▁سائر	-3557
▁سحاب	-3558
▁صانع	-3559
▁لبعض	-3560
▁لحما	-3561
▁وتحت	-3562
▁وجلس	-3563
▁ومجد	-3564
▁ونظر	-3565
▁ويضع	-3566
▁ياخذ	-3567
▁يمكن	-3568
▁اقداس	-3569
▁الاسد	-3570
▁التاس	-3571
▁جالسا	-3572
▁زكريا	-3573
▁سمعتم	-3574
▁علامة	-3575
▁كاملا	-3576
▁كرسيه	-3577
▁نصيبا	-3578
▁والحق	-3579
▁وسطكم	-3580
▁وسمعت	-3581
▁ولكنه	-3582
▁وملوك	-3583
▁وولدت	-3584
▁اخوتهم	-3585
▁ارجعوا	-3586
▁الاربع	-3587
▁الجاهل	-3588
▁الغريب	-3589
▁القاتل	-3590
▁عليهما	-3591
▁والشعب	-3592
▁وصاياه	-3593
▁يأكلون	-3594
▁يزرعيل	-3595
▁الاحياء	-3596
▁العازار	-3597
▁المصفاة	-3598
▁للانسان	-3599
▁يتكلمون	-3600
▁لابراهيم	-3601
تت	-3602
صق	-3603
صن	-3604
عى	-3605
لث	-3606
ئين	-3607
ائك	-3608
راي	-3609
سكر	-3610
سها	-3611
ضيب	-3612
كرم	-3613
كنا	-3614
نجس	-3615
وقف	-3616
▁بأ	-3617
▁جت	-3618
▁زا	-3619
بائل	-3620
شيوخ	-3621
صيان	-3622
يلون	-3623
▁ابل	-3624
▁تضع	-3625
▁تعل	-3626
▁تقو	-3627
▁حبي	-3628
▁عاب	-3629
▁عري	-3630
▁فاذ	-3631
▁هرب	-3632
▁واف	-3633
▁وتق	-3634
▁ومش	-3635
▁ونس	-3636
▁ويز	-3637
▁يبق	-3638
ساكين	-3639
▁امتل	-3640
▁ترون	-3641
▁تهلك	-3642
▁رجلي	-3643
▁صوتا	-3644
▁مزمع	-3645
▁منظر	-3646
▁والز	-3647
▁وحسب	-3648
▁يبني	-3649
▁يشرب	-3650
▁ابديا	-3651
▁السبع	-3652
▁الصخر	-3653
▁الظلم	-3654
▁اوريا	-3655
▁باسمك	-3656
▁شمشون	-3657
▁عيناك	-3658
▁فيقول	-3659
▁للرجل	-3660
▁نفسها	-3661
▁واعطا	-3662
▁وتقول	-3663
▁ويأخذ	-3664
▁الرؤيا	-3665
▁الرداء	-3666
▁الكتبة	-3667
▁المؤمن	-3668
▁رؤوسهم	-3669
▁فرائضي	-3670
▁ميراثا	-3671
▁واضطجع	-3672
▁واربعين	-3673
حو	-3674
رث	-3675
ظن	-3676
فخ	-3677
كف	-3678
بته	-3679
رفض	-3680
فوس	-3681
كما	-3682
مرك	-3683
وير	-3684
يار	-3685
ينه	-3686
▁بآ	-3687
▁ذي	-3688
▁صو	-3689
▁نش	-3690
راري	-3691
ومون	-3692
يتين	-3693
▁بنى	-3694
▁تجد	-3695
▁تنج	-3696
▁رفي	-3697
▁سلك	-3698
▁فتم	-3699
▁فكل	-3700
▁مسح	-3701
▁ومح	-3702
▁يقر	-3703
▁اثني	-3704
▁اجنا	-3705
▁ارجل	-3706
▁اسأل	-3707
▁اعمل	-3708
▁الوس	-3709
▁برجل	-3710
▁تؤمن	-3711
▁تشدد	-3712
▁تعال	-3713
▁حاشا	-3714
▁سارة	-3715
▁صورة	-3716
▁فدور	-3717
▁قتلى	-3718
▁مسيح	-3719
▁والل	-3720
▁وامت	-3721
▁وطرح	-3722
▁ووجد	-3723
▁يحكم	-3724
▁يرسل	-3725
▁يمسك	-3726
▁يوآش	-3727
▁آخرين	-3728
▁اخزيا	-3729
▁اسمها	-3730
▁الدين	-3731
▁اللحم	-3732
▁بالله	-3733
▁حيثما	-3734
▁سيحون	-3735
▁صادوق	-3736
▁كلمات	-3737
▁واقطع	-3738
▁والمع	-3739
▁ولاجل	-3740
▁استيقظ	-3741
▁الحكيم	-3742
▁عماليق	-3743
▁فكانوا	-3744
▁ليعقوب	-3745
▁مدينته	-3746
▁والذهب	-3747
▁والفضة	-3748
▁وذبائح	-3749
▁اعدائهم	-3750
▁الحجارة	-3751
▁السابعة	-3752
▁المعرفة	-3753
▁واربعون	-3754
كس	-3755
ائب	-3756
اصي	-3757
تلع	-3758
حية	-3759
سيا	-3760
عدل	-3761
كير	-3762
ماد	-3763
ملت	-3764
وآب	-3765
ومه	-3766
ويل	-3767
▁تط	-3768
▁تو	-3769
▁كي	-3770
▁وإ	-3771
الون	-3772
دايا	-3773
رباء	-3774
ربين	-3775
مامة	-3776
هاية	-3777
يلوه	-3778
▁امي	-3779
▁جار	-3780
▁حلم	-3781
▁ضيا	-3782
▁عيب	-3783
▁فاع	-3784
▁كاس	-3785
▁للن	-3786
▁مرب	-3787
▁وعز	-3788
ماثيل	-3789
▁ارحم	-3790
▁اسلم	-3791
▁اقيم	-3792
▁اللب	-3793
▁امسك	-3794
▁اهلك	-3795
▁بهما	-3796
▁حوله	-3797
▁رديء	-3798
▁سعير	-3799
▁صخرة	-3800
▁غلام	-3801
▁فارت	-3802
▁فالت	-3803
▁فرفع	-3804
▁فضلا	-3805
▁فهذا	-3806
▁فوضع	-3807
▁فينا	-3808
▁قدسه	-3809
▁كانه	-3810
▁كلما	-3811
▁للاو	-3812
▁نجسة	-3813
▁واوص	-3814
▁وترك	-3815
▁وعرف	-3816
▁يبصر	-3817
▁يذكر	-3818
▁اخطأت	-3819
▁اقترب	-3820
▁الشحم	-3821
▁الوعر	-3822
▁حيوان	-3823
▁رجالا	-3824
▁سيناء	-3825
▁صعدوا	-3826
▁عملوا	-3827
▁فولدت	-3828
▁لتكون	-3829
▁للامم	-3830
▁للموت	-3831
▁مضايق	-3832
▁ويخرج	-3833
▁آبائكم	-3834
▁آبائنا	-3835
▁الاثني	-3836
▁الحائط	-3837
▁الحنطة	-3838
▁الخلاص	-3839
▁الفتاة	-3840
▁الفقير	-3841
▁عيونهم	-3842
▁لفرعون	-3843
▁وثلاثة	-3844
▁يكونوا	-3845
▁الخطايا	-3846
▁الفلسطيني	-3847
حش	-3848
خي	-3849
▁ـ	-3850
برا	-3851
تهي	-3852
جان	-3853
جيب	-3854
ناع	-3855
وري	-3856
وسي	-3857
▁لف	-3858
اريم	-3859
اسات	-3860
الهم	-3861
راصر	-3862
كرون	-3863
لسنة	-3864
والي	-3865
يادي	-3866
يتكم	-3867
يرام	-3868
▁ابر	-3869
▁ارز	-3870
▁تنت	-3871
▁جلب	-3872
▁رآه	-3873
▁عمي	-3874
▁غنى	-3875
▁فتع	-3876
▁ليا	-3877
▁واز	-3878
▁وحل	-3879
▁وشي	-3880
▁وعم	-3881
▁وقب	-3882
رتفعة	-3883
ناموس	-3884
ويروش	-3885
▁اقصى	-3886
▁الاغ	-3887
▁السل	-3888
▁دعوا	-3889
▁صعدت	-3890
▁عالي	-3891
▁فانت	-3892
▁فبال	-3893
▁فحين	-3894
▁فرأى	-3895
▁قبلا	-3896
▁قبله	-3897
▁قورح	-3898
▁وصرخ	-3899
▁وفرح	-3900
▁وكسر	-3901
▁يصرخ	-3902
▁يعبر	-3903
ستقامة	-3904
▁ابليس	-3905
▁الراب	-3906
▁المخت	-3907
▁المطر	-3908
▁الوحش	-3909
▁بالاب	-3910
▁ثماني	-3911
▁جدعون	-3912
▁خزائن	-3913
▁خيمته	-3914
▁رجلها	-3915
▁سمعنا	-3916
▁شديدة	-3917
▁مراري	-3918
▁وامسك	-3919
▁وبنات	-3920
▁ولبني	-3921
▁ولكني	-3922
▁اخوتكم	-3923
▁اعدائك	-3924
▁الظلام	-3925
▁الوجوه	-3926
▁الوراء	-3927
▁قربانه	-3928
▁وجوههم	-3929
▁ولماذا	-3930
▁اجتمعوا	-3931
▁الكثيرة	-3932
▁اللواتي	-3933
▁	-3934
ا	-3935
ل	-3936
ي	-3937
و	-3938
م	-3939
ن	-3940
ر	-3941
ب	-3942
ه	-3943
ع	-3944
ت	-3945
ك	-3946
ف	-3947
س	-3948
د	-3949
.	-3950
ق	-3951
ح	-3952
ج	-3953
ة	-3954
ذ	-3955
ش	-3956
خ	-3957
ى	-3958
ص	-3959
ط	-3960
ض	-3961
ئ	-3962
ث	-3963
ّ	-3964
ز	-3965
أ	-3966
ء	-3967
غ	-3968
آ	-3969
ظ	-3970
ؤ	-3971
إ	-3972
*	-3973
ـ	-3974
-	-3975
ً	-3976
(	-3977
)	-3978
I	-3979
:	-3980
1	-3981
2	-3982
[	-3983
]	-3984
h	-3985
o	-3986
5	-3987
6	-3988
J	-3989
T	-3990
i	-3991
m	-3992
n	-3993
t	-3994
y	-3995
ٍ	-3996
