<pad>	0
</s>	0
<unk>	0
▁ܕ	-0
▁ܐ	-1
▁ܘ	-2
▁ܠ	-3
ܝܢ	-4
▁ܡ	-5
ܘܢ	-6
▁ܗ	-7
▁ܒ	-8
ܬܐ	-9
ܢܐ	-10
▁ܗܘ	-11
▁ܥ	-12
ܠܐ	-13
ܝܬ	-14
ܡܪ	-15
ܝܐ	-16
▁ܘܐ	-17
▁ܕܐ	-18
▁ܐܢ	-19
▁ܡܢ	-20
▁ܟ	-21
▁ܢ	-22
▁ܠܗ	-23
▁ܚ	-24
▁ܠܐ	-25
ܪܐ	-26
ܗܝ	-27
ܡܐ	-28
ܠܗ	-29
▁ܫ	-30
▁ܝ	-31
ܟܘܢ	-32
▁ܬ	-33
ܫܐ	-34
▁ܕܝܢ	-35
▁ܐܝ	-36
▁ܩ	-37
▁ܓ	-38
ܡܢ	-39
ܠܝܢ	-40
ܚܐ	-41
ܘܗܝ	-42
ܕܐ	-43
ܝܪ	-44
ܫܘ	-45
▁ܗܘܐ	-46
ܗܘ	-47
▁ܥܠ	-48
ܘܬܐ	-49
▁ܪ	-50
▁ܐܢܬ	-51
ܘܬ	-52
ܒܐ	-53
▁ܐܢܐ	-54
ܠܗܐ	-55
▁ܤ	-56
▁ܕܡ	-57
ܗܘܢ	-58
ܪܝ	-59
ܕܡ	-60
▁ܐܡܪ	-61
▁ܕܢ	-62
ܫܘܥ	-63
▁ܦ	-64
ܠܝ	-65
▁ܓܝܪ	-66
ܒܪ	-67
ܠܡ	-68
▁ܐܝܟ	-69
ܝܕ	-70
ܒܕ	-71
▁ܡܫ	-72
ܛܠ	-73
▁ܘܐܡܪ	-74
ܘܪ	-75
ܘܤ	-76
ܥܐ	-77
▁ܠܡ	-78
▁ܘܠܐ	-79
▁ܘܡ	-80
▁ܝܫܘܥ	-81
▁ܠܗܘܢ	-82
▁ܗܘܘ	-83
▁ܐܬ	-84
▁ܕܒ	-85
ܫܡ	-86
ܟܐ	-87
▁ܐܦ	-88
▁ܐܠܐ	-89
▁ܐܢܬܘܢ	-90
▁ܕܠܐ	-91
▁ܟܕ	-92
▁ܥܡ	-93
ܝܠ	-94
ܘܠ	-95
▁ܘܟ	-96
ܢܝ	-97
▁ܘܒ	-98
▁ܠܟܘܢ	-99
▁ܡܛܠ	-100
▁ܘܢ	-101
▁ܕܥ	-102
ܕܥ	-103
▁ܠܝ	-104
▁ܒܪ	-105
▁ܕܚ	-106
▁ܙ	-107
ܒܝ	-108
▁ܗܝ	-109
ܬܪ	-110
▁ܛ	-111
ܝܚܐ	-112
▁ܐܝܬ	-113
▁ܕܝ	-114
ܟܠ	-115
▁ܐܚ	-116
▁ܕܐܠܗܐ	-117
ܕܝ	-118
ܘܡ	-119
▁ܡܠ	-120
ܗܘܐ	-121
ܕܝܢ	-122
▁ܢܦ	-123
ܘܒ	-124
ܫܬ	-125
▁ܫܡ	-126
▁ܠܘܬ	-127
▁ܚܕ	-128
ܝܡ	-129
ܒܘ	-130
ܬܗ	-131
▁ܐܠܗܐ	-132
ܢܘܢ	-133
ܬܝ	-134
▁ܒܗ	-135
▁ܗܟ	-136
▁ܒܐ	-137
ܦܐ	-138
▁ܠܟ	-139
▁ܗܢܐ	-140
ܥܝܢ	-141
ܠܘ	-142
▁ܟܠܗ	-143
▁ܐܢܘܢ	-144
ܒܪܐ	-145
ܢܢ	-146
▁ܒܝ	-147
▁ܕܬ	-148
▁ܗܠܝܢ	-149
▁ܕܩ	-150
ܟܚ	-151
▁ܘܚ	-152
▁ܘܥ	-153
▁ܡܬ	-154
ܪܘ	-155
▁ܘܟܕ	-156
ܡܠ	-157
ܝܢܐ	-158
▁ܟܠ	-159
ܝܬܐ	-160
ܪܒ	-161
▁ܨ	-162
▁ܕܠ	-163
▁ܝܕܥ	-164
▁ܕܐܝܬ	-165
▁ܡܫܝܚܐ	-166
▁ܡܕܡ	-167
▁ܘܠ	-168
▁ܘܩ	-169
ܗܒ	-170
▁ܘܫ	-171
▁ܤܓ	-172
▁ܕܟ	-173
ܢܫܐ	-174
ܗܝܡܢ	-175
ܢܝܢ	-176
▁ܐܘ	-177
▁ܩܕܡ	-178
▁ܠܥ	-179
▁ܥܒܕ	-180
ܬܘܢ	-181
ܪܥܐ	-182
▁ܠܢ	-183
ܕܪ	-184
▁ܐܢܫ	-185
ܦܩ	-186
ܙܐ	-187
▁ܪܘ	-188
ܚܘ	-189
▁ܘܕ	-190
ܝܟ	-191
ܪܝܢ	-192
▁ܘܡܢ	-193
ܘܩ	-194
▁ܥܕ	-195
ܝܒ	-196
▁ܗܕܐ	-197
▁ܠܚ	-198
ܠܡܐ	-199
▁ܐܝܠܝܢ	-200
ܝܐܐ	-201
ܝܪܐ	-202
▁ܕܫ	-203
▁ܗܢܘܢ	-204
ܝܠܝܢ	-205
▁ܕܡܢ	-206
▁ܡܐ	-207
ܠܦ	-208
▁ܒܥ	-209
▁ܘܬ	-210
▁ܡܪ	-211
▁ܘܐܬ	-212
ܝܬܘܢ	-213
ܝܗܘܢ	-214
▁ܘܐܢ	-215
ܫܬܐ	-216
ܩܐ	-217
ܘܬܗ	-218
▁ܘܗ	-219
ܡܝܢ	-220
▁ܫܡܥ	-221
ܝܗ	-222
▁ܒܢ	-223
▁ܘܤ	-224
ܫܡܥ	-225
ܙܠ	-226
▁ܒܡ	-227
ܒܠ	-228
ܝܢܢ	-229
ܤܪ	-230
ܘܪܐ	-231
ܫܠܡ	-232
▁ܐܬܐ	-233
▁ܠܒ	-234
▁ܐܝܟܢܐ	-235
▁ܢܦܫ	-236
▁ܡܢܐ	-237
ܕܝܐ	-238
ܩܘ	-239
ܥܒܕ	-240
▁ܗܟܝܠ	-241
ܒܝܢ	-242
▁ܗܘܬ	-243
ܘܚ	-244
ܘܡܐ	-245
▁ܒܟ	-246
ܢܫ	-247
ܪܢܐ	-248
▁ܕܤ	-249
▁ܐܤ	-250
▁ܒܠ	-251
ܒܢ	-252
▁ܕܗ	-253
ܦܪ	-254
▁ܕܡܪ	-255
▁ܤܓܝܐܐ	-256
ܤܐ	-257
▁ܒܚ	-258
ܡܘܤ	-259
ܒܝܐ	-260
▁ܒܝܬ	-261
▁ܗܟܢܐ	-262
ܝܟܘܢ	-263
▁ܢܬ	-264
ܒܬܐ	-265
ܠܬܐ	-266
ܝܘ	-267
▁ܟܠܗܘܢ	-268
ܟܪ	-269
ܢܘ	-270
ܫܟܚ	-271
▁ܓܒܪܐ	-272
ܡܘܤܐ	-273
ܒܕܐ	-274
▁ܡܠܐ	-275
ܫܝ	-276
ܗܘܕܝܐ	-277
ܒܗ	-278
ܕܘ	-279
ܛܪ	-280
▁ܪܘܚܐ	-281
ܠܟ	-282
▁ܚܢܢ	-283
▁ܢܗܘܐ	-284
▁ܥܕܡܐ	-285
▁ܘܐܡܪܝܢ	-286
ܓܪ	-287
▁ܒܬܪ	-288
▁ܕܐܡܪ	-289
▁ܫܒ	-290
ܕܝܢܬܐ	-291
▁ܝܬ	-292
ܫܡܝܐ	-293
▁ܕܐܬ	-294
▁ܬܠܡ	-295
▁ܚܙ	-296
ܗܘܘܢ	-297
ܝܕܝܢ	-298
▁ܚܛ	-299
▁ܘܝ	-300
▁ܡܤ	-301
▁ܢܤ	-302
▁ܡܢܗ	-303
ܡܠܠ	-304
▁ܗܝܡܢ	-305
▁ܠܐܠܗܐ	-306
ܠܗܘܢ	-307
ܝܕܘܗܝ	-308
ܒܪܗ	-309
▁ܟܐ	-310
▁ܡܚ	-311
ܗܕ	-312
ܪܥ	-313
ܫܝܚܐ	-314
▁ܠܡܐ	-315
ܬܚ	-316
ܒܢܐ	-317
▁ܐܡܪܝܢ	-318
▁ܬܡܢ	-319
▁ܡܫܟܚ	-320
▁ܗܐ	-321
ܘܠܘܤ	-322
ܠܝܐ	-323
▁ܢܚ	-324
ܘܢܐ	-325
▁ܘܗܘ	-326
ܘܕ	-327
▁ܢܐ	-328
▁ܗܘܝܬ	-329
▁ܕܗܘ	-330
ܦܠ	-331
ܕܗ	-332
ܝܗܝ	-333
▁ܕܓ	-334
▁ܕܐܦ	-335
▁ܝܘܡ	-336
ܛܐ	-337
▁ܕܐܢ	-338
▁ܘܐܝܬ	-339
ܟܝ	-340
ܩܪ	-341
ܚܡ	-342
ܗܢܐ	-343
ܩܪܐ	-344
▁ܒܫ	-345
▁ܥܠܘܗܝ	-346
▁ܘܪ	-347
ܛܢܐ	-348
▁ܡܪܝ	-349
▁ܐܢܫܐ	-350
▁ܕܦ	-351
ܟܢܐ	-352
▁ܫܐ	-353
▁ܩܕܝ	-354
ܡܗ	-355
▁ܘܥܠ	-356
ܦܫ	-357
▁ܐܡܝܢ	-358
▁ܬܘܒ	-359
▁ܡܠܬܐ	-360
▁ܒܪܗ	-361
ܘܪܫܠܡ	-362
ܝܠܐ	-363
ܥܬܐ	-364
▁ܡܘ	-365
ܠܬ	-366
▁ܕܡܬ	-367
ܚܬܐ	-368
▁ܒܤ	-369
ܝܤ	-370
ܝܕܐ	-371
▁ܬܐ	-372
ܘܚܢܢ	-373
▁ܐܫܬ	-374
▁ܠܝܬ	-375
ܢܝܐ	-376
ܩܝܡ	-377
▁ܕܙ	-378
▁ܕܪ	-379
ܝܬܗ	-380
▁ܠܓ	-381
▁ܠܐܝܠܝܢ	-382
▁ܠܬ	-383
ܢܝܢܫܐ	-384
▁ܥܒܕܐ	-385
▁ܗܝܕܝܢ	-386
▁ܕܢܐ	-387
ܪܬܐ	-388
▁ܒܢܝ	-389
▁ܗܫܐ	-390
▁ܘܐܚ	-391
▁ܡܟ	-392
▁ܥܡܗ	-393
▁ܡܢܗܘܢ	-394
ܘܐ	-395
ܟܠܐ	-396
▁ܩܪ	-397
▁ܒܠܚܘ	-398
ܕܢܐ	-399
ܥܡ	-400
▁ܕܕ	-401
▁ܟܬ	-402
ܦܪܐ	-403
▁ܡܠܟ	-404
▁ܕܝܫܘܥ	-405
▁ܝܗܘܕܝܐ	-406
ܚܙ	-407
ܪܡ	-408
ܪܬ	-409
ܡܪܐ	-410
▁ܗܘܝܬܘܢ	-411
▁ܡܫܬ	-412
▁ܕܥܒܕ	-413
▁ܝܕܥܝܢ	-414
ܕܘܢ	-415
ܫܒ	-416
ܠܘܢ	-417
ܦܢܐ	-418
▁ܚܕܐ	-419
▁ܐܚܪܢܐ	-420
▁ܫܡܝܐ	-421
▁ܪܓ	-422
▁ܚܙܐ	-423
▁ܢܦܩ	-424
▁ܕܐܬܐ	-425
▁ܒܩ	-426
▁ܘܐܦ	-427
▁ܠܒܪ	-428
ܦܝܢ	-429
▁ܐܚܝ	-430
▁ܫܠܝ	-431
ܗܝܡܢܘܬܐ	-432
▁ܒܟܠ	-433
▁ܡܢܟܘܢ	-434
▁ܢܡܘܤܐ	-435
ܛܘܤ	-436
ܡܪܢ	-437
▁ܐܙ	-438
▁ܥܢܐ	-439
▁ܡܝܬܐ	-440
ܫܒܘ	-441
▁ܠܩ	-442
ܢܘܬܐ	-443
ܤܝ	-444
ܬܢ	-445
ܪܝܬܐ	-446
▁ܫܡܥܘܢ	-447
ܬܟ	-448
ܓܪܐ	-449
▁ܫܪ	-450
▁ܟܢܫܐ	-451
▁ܦܘܠܘܤ	-452
ܘܗ	-453
ܘܟ	-454
ܬܝܒ	-455
▁ܡܢܘ	-456
ܘܬܟܘܢ	-457
▁ܐܪܥܐ	-458
▁ܟܗܢܐ	-459
▁ܬܠܡܝܕܘܗܝ	-460
▁ܚܝܐ	-461
▁ܝܗܒ	-462
▁ܪܒܐ	-463
▁ܠܘܬܗ	-464
ܫܝܢ	-465
▁ܘܦ	-466
▁ܐܙܠ	-467
▁ܚܠܦ	-468
ܝܒܘܬܐ	-469
ܫܡܗ	-470
▁ܕܨ	-471
ܝܡܝܢ	-472
▁ܡܪܢ	-473
▁ܐܝܢܐ	-474
▁ܢܦܫܗ	-475
▁ܒܠܚܘܕ	-476
ܟܝܢ	-477
ܪܝܐ	-478
▁ܕܛ	-479
ܪܝܫܐ	-480
▁ܠܘܩ	-481
▁ܕܡܪܢ	-482
ܕܩ	-483
▁ܨܒܐ	-484
▁ܟܐܦܐ	-485
▁ܡܪܝܐ	-486
▁ܐܢܬܬܐ	-487
ܨܐ	-488
ܬܝܕ	-489
▁ܥܡܗܘܢ	-490
▁ܤܡ	-491
▁ܕܝܠ	-492
▁ܚܝ	-493
▁ܕܟܠ	-494
▁ܡܕܝܢܬܐ	-495
ܒܥ	-496
ܩܠ	-497
ܘܕܫܐ	-498
▁ܥܡܐ	-499
▁ܐܝܬܘܗܝ	-500
▁ܕܡܫܝܚܐ	-501
ܤܪܐ	-502
▁ܒܟܘܢ	-503
▁ܘܐܬܐ	-504
ܗܐ	-505
▁ܡܠܐܟܐ	-506
ܥܩ	-507
ܟܪܙ	-508
▁ܐܒܐ	-509
▁ܕܐܢܫܐ	-510
ܓܐ	-511
▁ܘܠܡ	-512
▁ܘܢܦܩ	-513
▁ܕܐܝܬܘܗܝ	-514
ܩܒܠ	-515
ܝܘܗܝ	-516
▁ܕܫܡܥ	-517
▁ܢܒܝܐ	-518
▁ܠܘܬܟܘܢ	-519
▁ܩܡ	-520
▁ܪܒ	-521
▁ܕܢܬ	-522
▁ܘܟܠ	-523
▁ܕܐܢܐ	-524
▁ܒܬ	-525
▁ܡܛ	-526
▁ܫܦ	-527
▁ܗܘܝ	-528
▁ܡܝܬ	-529
ܐܡ	-530
ܕܒ	-531
ܚܗ	-532
ܙܒܢ	-533
▁ܐܡ	-534
▁ܡܨ	-535
▁ܘܒܪ	-536
▁ܫܪܝ	-537
▁ܟܠܗܝܢ	-538
▁ܕܩܘܕܫܐ	-539
ܩܝܢ	-540
▁ܠܤ	-541
ܚܝܢ	-542
ܤܝܐ	-543
▁ܠܦ	-544
ܪܘܚܐ	-545
▁ܕܚܙ	-546
ܝܪܐܝܬ	-547
▁ܕܡܪܝܐ	-548
ܤܒ	-549
ܩܕ	-550
ܫܢܐ	-551
▁ܒܓ	-552
ܒܪܝܢ	-553
ܬܗܘܢ	-554
▁ܥܝܢ	-555
▁ܗܘܝܢ	-556
ܬܟܘܢ	-557
▁ܕܡܐ	-558
▁ܐܝܕܐ	-559
▁ܕܠܡܐ	-560
▁ܡܠܟܐ	-561
ܝܕܥ	-562
▁ܚܡ	-563
▁ܬܚ	-564
ܠܝܠܐ	-565
▁ܦܘܩ	-566
▁ܪܒܝ	-567
▁ܐܫܟܚ	-568
▁ܨܒܝܢ	-569
▁ܡܗܝܡܢ	-570
ܘܠܐ	-571
▁ܒܒ	-572
▁ܬܬ	-573
▁ܙܒܢܐ	-574
▁ܘܓ	-575
ܘܪܚܐ	-576
▁ܘܚܙ	-577
▁ܠܚܕ	-578
▁ܥܠܝܗܘܢ	-579
ܢܗ	-580
▁ܦܪ	-581
ܠܡܕܡ	-582
▁ܒܝܕ	-583
▁ܕܥܠ	-584
ܥܪ	-585
▁ܒܐܝܕ	-586
▁ܬܗܘܐ	-587
ܘܦ	-588
▁ܒܦ	-589
ܒܘܗܝ	-590
▁ܕܒܗ	-591
ܡܢܐ	-592
▁ܐܪ	-593
▁ܒܨ	-594
▁ܚܘ	-595
▁ܦܠ	-596
▁ܐܘܠ	-597
▁ܒܥܐ	-598
▁ܡܬܚ	-599
▁ܬܪܝܢ	-600
ܗܠܟ	-601
▁ܕܠܥ	-602
▁ܡܡܠܠ	-603
ܪܟܐ	-604
▁ܕܒܝ	-605
▁ܕܝܬ	-606
▁ܛܒܐ	-607
▁ܠܡܪ	-608
▁ܐܝܟܐ	-609
▁ܘܗܘܐ	-610
▁ܥܠܡܐ	-611
▁ܝܘܡܬܐ	-612
▁ܠܝܫܘܥ	-613
ܠܩ	-614
ܘܚܐ	-615
ܡܡܐ	-616
ܩܪܒ	-617
▁ܐܟ	-618
▁ܐܒܝ	-619
▁ܒܗܝܡܢܘܬܐ	-620
ܟܢ	-621
▁ܘܛ	-622
ܠܘܗܝ	-623
ܫܝܫܐ	-624
▁ܘܠܝ	-625
▁ܕܥܠܡܐ	-626
ܬܝܗܒ	-627
▁ܤܓܝܐ	-628
ܒܩ	-629
ܦܟ	-630
ܕܡܐ	-631
ܗܝܢ	-632
ܠܝܠ	-633
ܝܡܬܐ	-634
▁ܢܤܒ	-635
▁ܫܕܪ	-636
ܩܝ	-637
ܦܩܕ	-638
ܪܝܠ	-639
ܥܘ	-640
ܫܗ	-641
ܒܪܗܡ	-642
ܥܩܘܒ	-643
▁ܒܝܢ	-644
▁ܠܐܚ	-645
▁ܠܗܘ	-646
▁ܠܟܠ	-647
▁ܒܗܘܢ	-648
▁ܥܪ	-649
▁ܢܫܬ	-650
ܛܦ	-651
ܕܡܪ	-652
ܬܝܢ	-653
▁ܦܐ	-654
ܒܝܬܐ	-655
▁ܤܒܪ	-656
▁ܥܠܝ	-657
▁ܐܦܠܐ	-658
ܓܕ	-659
ܩܦ	-660
▁ܒܛ	-661
ܒܢܝܢ	-662
▁ܕܒܐ	-663
▁ܘܫܡܥ	-664
▁ܒܝܫܬܐ	-665
▁ܕܠܥܠܡ	-666
▁ܩܕܝܫܐ	-667
▁ܬܠܡܝܕܐ	-668
ܕܬܐ	-669
ܠܦܐ	-670
ܝܘܬܐ	-671
ܠܘܬܐ	-672
▁ܚܒܝ	-673
▁ܫܘܒ	-674
ܘܬܗܘܢ	-675
▁ܠܚܡܐ	-676
▁ܥܡܡܐ	-677
▁ܗܝܡܢܘܬܐ	-678
ܢܬ	-679
ܡܬܐ	-680
▁ܠܛ	-681
▁ܨܒ	-682
▁ܕܢܚ	-683
▁ܫܘܠ	-684
▁ܐܢܝܢ	-685
▁ܕܝܠܝ	-686
▁ܘܝܗܒ	-687
ܫܒܘܚܬܐ	-688
▁ܥܡܟܘܢ	-689
▁ܥܠܝܟܘܢ	-690
▁ܝܬܝܪܐܝܬ	-691
ܘܤܦ	-692
▁ܚܤ	-693
ܡܠܬܐ	-694
▁ܐܚܐ	-695
▁ܐܬܬ	-696
▁ܘܗܐ	-697
ܗܝܡܢܐ	-698
▁ܒܥܝܢ	-699
▁ܝܬܝܪ	-700
▁ܒܢܝܢܫܐ	-701
▁ܛܝܒܘܬܐ	-702
ܥܠ	-703
▁ܘܙ	-704
▁ܪܚ	-705
▁ܕܒܪ	-706
▁ܩܪܒ	-707
▁ܒܢܝܐ	-708
▁ܘܐܙܠ	-709
▁ܝܘܚܢܢ	-710
▁ܩܕܡܝܐ	-711
ܕܚ	-712
ܘܕܝ	-713
ܛܠܝܐ	-714
▁ܒܗܝ	-715
▁ܕܐܤ	-716
▁ܕܚܕ	-717
▁ܤܗܕ	-718
▁ܦܝܠ	-719
▁ܫܒܩ	-720
ܘܢܝܗܝ	-721
▁ܘܐܝܟ	-722
▁ܘܐܫܬ	-723
▁ܫܡܥܘ	-724
▁ܒܪܢܫܐ	-725
▁ܒܫܡܝܐ	-726
ܟܬ	-727
▁ܠܫ	-728
ܢܘܗܝ	-729
▁ܘܡܚ	-730
▁ܘܩܡ	-731
▁ܝܘܡܐ	-732
▁ܕܢܗܘܐ	-733
▁ܢܗܘܘܢ	-734
ܠܡܝܕܘܗܝ	-735
ܡܠܐ	-736
▁ܘܨ	-737
▁ܕܫܘ	-738
▁ܚܙܘ	-739
▁ܟܡܐ	-740
▁ܩܠܐ	-741
ܢܘܫܬܐ	-742
▁ܒܝܫܐ	-743
▁ܡܠܟܘܬܐ	-744
▁ܠܐܘܪܫܠܡ	-745
ܥܝܐ	-746
▁ܢܨ	-747
ܓܝܐܐ	-748
▁ܗܢܘ	-749
▁ܟܘܪ	-750
▁ܕܗܘܐ	-751
▁ܘܐܬܘ	-752
▁ܠܥܠܡ	-753
▁ܕܫܡܝܐ	-754
▁ܕܝܗܘܕܝܐ	-755
ܒܘܢ	-756
ܒܥܐ	-757
ܓܠܝ	-758
▁ܤܓܝ	-759
▁ܬܪܥ	-760
▁ܕܝܗܒ	-761
▁ܬܪܥܐ	-762
▁ܒܪܘܚܐ	-763
▁ܘܐܝܠܝܢ	-764
ܓܘ	-765
ܓܠܐ	-766
ܢܢܐ	-767
ܦܘܤ	-768
ܕܝܢܐ	-769
▁ܘܕܐ	-770
▁ܠܡܢ	-771
▁ܕܐܝܟ	-772
ܓܠ	-773
ܘܬܝ	-774
▁ܚܪ	-775
ܢܝܬܐ	-776
▁ܐܟܠ	-777
▁ܕܝܢܐ	-778
▁ܛܒܬܐ	-779
▁ܦܐܪܐ	-780
▁ܐܤܝܪܐ	-781
▁ܘܗܢܘܢ	-782
▁ܠܓܒܪܐ	-783
▁ܦܪܝܫܐ	-784
▁ܡܫܟܚܝܢ	-785
ܦܤ	-786
ܪܪܐ	-787
ܫܐܠ	-788
ܘܪܬܐ	-789
▁ܕܟܕ	-790
▁ܥܡܝ	-791
▁ܩܘܪ	-792
▁ܫܪܒ	-793
▁ܒܟܠܗ	-794
▁ܒܬܪܗ	-795
▁ܫܦܝܪ	-796
▁ܘܐܡܪܘ	-797
▁ܠܘܩܕܡ	-798
▁ܥܒܕܝܢ	-799
ܕܝܩ	-800
ܟܝܠ	-801
ܫܝܐ	-802
▁ܐܠܦ	-803
▁ܕܫܡܗ	-804
▁ܘܫܪܝ	-805
▁ܚܕܬܐ	-806
▁ܟܬܒܐ	-807
▁ܡܘܫܐ	-808
▁ܫܪܝܪܐ	-809
▁ܦܝܠܛܘܤ	-810
ܢܒܐ	-811
▁ܐܫ	-812
▁ܫܘ	-813
ܘܗܪܐ	-814
▁ܐܪܒ	-815
▁ܕܐܚ	-816
▁ܘܡܐ	-817
▁ܘܡܬ	-818
▁ܐܡܪܬ	-819
▁ܒܢܦܫ	-820
▁ܕܠܝܬ	-821
▁ܘܐܢܐ	-822
▁ܠܒܝܬ	-823
▁ܕܐܪܥܐ	-824
▁ܚܛܝܬܐ	-825
▁ܤܓܝܐܬܐ	-826
ܓܝ	-827
ܤܬ	-828
ܦܬܐ	-829
ܩܘܡ	-830
ܩܛܠ	-831
ܗܘܕܐ	-832
ܝܪܝܢ	-833
▁ܘܒܗ	-834
▁ܪܘܚ	-835
▁ܪܫܐ	-836
▁ܪܒܬܐ	-837
▁ܪܥܝܢ	-838
▁ܕܪܘܚܐ	-839
▁ܡܗܝܡܢܐ	-840
ܩܘܐ	-841
ܪܝܡ	-842
▁ܛܒ	-843
▁ܢܥ	-844
ܘܪܒܐ	-845
▁ܘܗܝ	-846
▁ܘܫܘ	-847
▁ܟܠܢܫ	-848
▁ܡܟܝܠ	-849
▁ܩܠܝܠ	-850
▁ܐܝܬܝܗ	-851
▁ܕܟܬܝܒ	-852
ܟܘ	-853
ܝܒܪ	-854
ܝܠܝ	-855
ܦܠܓ	-856
ܡܪܘܢ	-857
▁ܐܓܪ	-858
▁ܐܝܤ	-859
▁ܕܬܪ	-860
▁ܘܐܙ	-861
ܫܡܥܘܢ	-862
▁ܐܡܪܘ	-863
▁ܕܚܝܐ	-864
▁ܘܡܛܠ	-865
▁ܤܦܪܐ	-866
▁ܫܠܡܐ	-867
▁ܬܚܝܬ	-868
▁ܝܘܡܝܢ	-869
▁ܫܠܝܚܐ	-870
▁ܦܘܩܕܢܐ	-871
▁ܫܘܠܛܢܐ	-872
▁ܐܝܬܝܗܘܢ	-873
ܕܤ	-874
ܘܡܗ	-875
ܛܝܐ	-876
ܟܘܠ	-877
▁ܟܘ	-878
ܟܐܦܐ	-879
▁ܐܬܪ	-880
▁ܒܫܘ	-881
ܡܠܠܝܢ	-882
▁ܒܡܪܢ	-883
▁ܠܥܠܡܐ	-884
ܒܬ	-885
ܥܬ	-886
ܥܘܢ	-887
▁ܠܪ	-888
ܘܡܬܐ	-889
▁ܕܬܐ	-890
▁ܢܦܠ	-891
▁ܩܘܡ	-892
▁ܡܘܬܐ	-893
ܗܪ	-894
ܪܝܗ	-895
▁ܙܥ	-896
ܫܘܟܐ	-897
▁ܐܬܘ	-898
▁ܘܡܤ	-899
▁ܠܡܬ	-900
▁ܪܚܡ	-901
ܪܝܗܘܢ	-902
▁ܘܥܒܕ	-903
▁ܫܢܝܢ	-904
▁ܕܡܗܝܡܢ	-905
ܒܠܐ	-906
▁ܡܥ	-907
ܠܝܬܐ	-908
ܪܘܕܤ	-909
▁ܝܡܐ	-910
▁ܪܡܐ	-911
ܘܠܦܢܐ	-912
ܝܒܘܬܗ	-913
▁ܐܝܕܗ	-914
▁ܠܡܢܐ	-915
▁ܡܗܠܟ	-916
▁ܩܕܝܡ	-917
▁ܫܒܥܐ	-918
▁ܠܟܠܗܘܢ	-919
ܗܘܕ	-920
ܝܟܐ	-921
ܤܝܡ	-922
ܥܬܗ	-923
▁ܕܘ	-924
▁ܕܢܫ	-925
▁ܘܝܬ	-926
▁ܘܢܐ	-927
▁ܠܡܚ	-928
▁ܡܫܡ	-929
▁ܥܬܝ	-930
▁ܦܓܪ	-931
▁ܫܠܡ	-932
▁ܐܘܠܕ	-933
▁ܘܬܘܒ	-934
▁ܫܠܝܛ	-935
▁ܒܝܘܡܐ	-936
▁ܟܠܡܕܡ	-937
▁ܬܪܥܤܪ	-938
ܒܚ	-939
ܡܬ	-940
ܕܒܪ	-941
▁ܓܙ	-942
▁ܛܘ	-943
ܕܝܫܐ	-944
ܘܪܝܐ	-945
▁ܒܕܡ	-946
▁ܕܡܠ	-947
▁ܕܥܡ	-948
▁ܡܝܐ	-949
▁ܕܡܝܐ	-950
▁ܘܒܬܪ	-951
▁ܥܕܬܐ	-952
▁ܠܬܠܡܝܕܘܗܝ	-953
ܩܢ	-954
ܩܘܢ	-955
ܬܒܐ	-956
▁ܟܪ	-957
▁ܢܫ	-958
▁ܘܒܐ	-959
▁ܡܥܡ	-960
▁ܡܬܪ	-961
▁ܥܒܪ	-962
▁ܒܪܘܚ	-963
▁ܕܒܝܬ	-964
▁ܠܗܢܐ	-965
▁ܦܓܪܐ	-966
▁	-967
ܐ	-968
ܘ	-969
ܢ	-970
ܝ	-971
ܠ	-972
ܕ	-973
ܡ	-974
ܗ	-975
ܬ	-976
ܪ	-977
ܒ	-978
ܟ	-979
ܫ	-980
ܥ	-981
ܚ	-982
ܩ	-983
ܦ	-984
ܤ	-985
ܓ	-986
ܛ	-987
ܙ	-988
ܨ	-989
V	-990
1	-991
)	-992
4	-993
5	-994
9	-995
:	-996
