<pad>	0
</s>	0
<unk>	0
▁¦	-0
de	-1
▁s	-2
en	-3
ll	-4
an	-5
ar	-6
ch	-7
▁h	-8
er	-9
och	-10
om	-11
tt	-12
in	-13
ör	-14
▁f	-15
▁𐋇	-16
är	-17
▁de	-18
ig	-19
▁och	-20
▁t	-21
▁m	-22
▁d	-23
▁v	-24
on	-25
▁,	-26
ill	-27
st	-28
ade	-29
▁a	-30
ka	-31
ag	-32
▁b	-33
or	-34
ck	-35
▁i	-36
et	-37
än	-38
ra	-39
ed	-40
na	-41
el	-42
▁för	-43
un	-44
▁g	-45
der	-46
▁till	-47
▁k	-48
▁l	-49
▁.	-50
▁han	-51
för	-52
▁e	-53
kall	-54
da	-55
ån	-56
jag	-57
▁som	-58
ing	-59
va	-60
på	-61
ol	-62
som	-63
▁u	-64
cke	-65
sa	-66
den	-67
▁H	-68
▁n	-69
pp	-70
▁att	-71
sk	-72
rä	-73
▁så	-74
vi	-75
ta	-76
ud	-77
ter	-78
till	-79
▁»	-80
onom	-81
ver	-82
han	-83
▁är	-84
▁O	-85
▁sk	-86
es	-87
▁en	-88
▁st	-89
▁den	-90
äl	-91
▁D	-92
▁skall	-93
us	-94
os	-95
▁det	-96
li	-97
▁jag	-98
så	-99
äg	-100
kt	-101
▁I	-102
var	-103
▁J	-104
▁Och	-105
▁på	-106
ri	-107
att	-108
▁av	-109
av	-110
itt	-111
▁icke	-112
and	-113
▁var	-114
ot	-115
▁S	-116
ung	-117
ER	-118
RE	-119
ERRE	-120
▁med	-121
▁vi	-122
lla	-123
▁HERRE	-124
ina	-125
det	-126
år	-127
▁HERREN	-128
rån	-129
ju	-130
åt	-131
▁har	-132
▁M	-133
re	-134
it	-135
▁ö	-136
åg	-137
ro	-138
ren	-139
mm	-140
▁dem	-141
▁honom	-142
▁du	-143
ja	-144
ad	-145
omm	-146
le	-147
els	-148
▁ut	-149
lig	-150
as	-151
fter	-152
jor	-153
▁G	-154
at	-155
al	-156
▁upp	-157
rö	-158
dig	-159
are	-160
▁;	-161
onung	-162
ru	-163
▁o	-164
▁där	-165
tta	-166
erren	-167
olk	-168
▁mig	-169
ning	-170
▁om	-171
▁p	-172
▁in	-173
änn	-174
▁sig	-175
▁dig	-176
em	-177
▁:	-178
▁A	-179
llt	-180
ut	-181
is	-182
▁sade	-183
skall	-184
het	-185
▁eder	-186
med	-187
▁Gud	-188
.»	-189
▁över	-190
▁hade	-191
ff	-192
ller	-193
lä	-194
ull	-195
icke	-196
herren	-197
du	-198
▁hans	-199
arn	-200
öra	-201
ram	-202
arna	-203
från	-204
▁𐊣	-205
am	-206
ång	-207
▁komm	-208
ola	-209
ens	-210
där	-211
ne	-212
▁då	-213
har	-214
vid	-215
eg	-216
ava	-217
dem	-218
▁sin	-219
ans	-220
id	-221
▁konung	-222
ön	-223
▁alla	-224
ras	-225
▁Men	-226
yn	-227
og	-228
honom	-229
erna	-230
då	-231
men	-232
ss	-233
▁gi	-234
od	-235
ort	-236
ande	-237
jäl	-238
oss	-239
und	-240
▁folk	-241
▁bli	-242
▁man	-243
äm	-244
▁åt	-245
▁E	-246
öd	-247
upp	-248
jän	-249
▁ett	-250
▁från	-251
eder	-252
sra	-253
▁såsom	-254
sig	-255
▁din	-256
ab	-257
▁min	-258
▁nu	-259
ord	-260
▁Isra	-261
vit	-262
▁när	-263
te	-264
äger	-265
▁efter	-266
äng	-267
ett	-268
ste	-269
▁någ	-270
efter	-271
land	-272
gud	-273
enom	-274
inn	-275
sade	-276
▁T	-277
edan	-278
under	-279
la	-280
▁allt	-281
ur	-282
mig	-283
lev	-284
▁Då	-285
gi	-286
ög	-287
▁hel	-288
▁skola	-289
ann	-290
▁vad	-291
över	-292
andra	-293
▁ty	-294
rätt	-295
ken	-296
▁N	-297
▁men	-298
se	-299
ulle	-300
yg	-301
▁dag	-302
il	-303
▁hava	-304
ock	-305
ul	-306
▁barn	-307
▁son	-308
ba	-309
▁r	-310
▁å	-311
▁ock	-312
▁vid	-313
komm	-314
ader	-315
isk	-316
oro	-317
▁må	-318
ingen	-319
alla	-320
ft	-321
sta	-322
▁fram	-323
▁li	-324
ätt	-325
▁be	-326
▁.»	-327
off	-328
ty	-329
▁mot	-330
▁B	-331
iga	-332
hade	-333
yck	-334
▁sina	-335
▁hus	-336
▁hu	-337
▁deras	-338
hans	-339
jär	-340
olen	-341
när	-342
del	-343
des	-344
▁detta	-345
be	-346
man	-347
bli	-348
ända	-349
aga	-350
öl	-351
▁vill	-352
ött	-353
▁-	-354
min	-355
else	-356
▁HERRENS	-357
ak	-358
ga	-359
ott	-360
folk	-361
mn	-362
▁tal	-363
ska	-364
▁oss	-365
▁tjän	-366
sin	-367
▁vil	-368
vär	-369
lag	-370
ast	-371
kte	-372
vå	-373
▁'	-374
konung	-375
▁gjor	-376
ände	-377
▁gå	-378
ti	-379
må	-380
▁Israels	-381
▁Ty	-382
sam	-383
tet	-384
cka	-385
ose	-386
▁eller	-387
vad	-388
mot	-389
hel	-390
▁sitt	-391
son	-392
varade	-393
fär	-394
gå	-395
▁få	-396
▁K	-397
nu	-398
jorden	-399
▁under	-400
▁vara	-401
öner	-402
all	-403
eru	-404
äll	-405
▁se	-406
offer	-407
ring	-408
▁säger	-409
räst	-410
imm	-411
uda	-412
nen	-413
äder	-414
im	-415
hu	-416
▁mitt	-417
nes	-418
▁Så	-419
▁na	-420
▁land	-421
▁V	-422
ligen	-423
eller	-424
▁F	-425
såsom	-426
dan	-427
▁äro	-428
▁själ	-429
allt	-430
▁här	-431
ännisk	-432
din	-433
▁genom	-434
▁göra	-435
▁dina	-436
ly	-437
▁skulle	-438
▁?	-439
▁--	-440
isra	-441
▁bliva	-442
åd	-443
dag	-444
▁blev	-445
▁komma	-446
▁le	-447
▁någon	-448
aden	-449
▁utan	-450
ara	-451
enne	-452
▁rätt	-453
stad	-454
lem	-455
barn	-456
rar	-457
hus	-458
inna	-459
esus	-460
sm	-461
änder	-462
väl	-463
▁dö	-464
gjor	-465
▁ar	-466
▁ned	-467
▁sta	-468
samm	-469
erusa	-470
éerna	-471
erusalem	-472
någ	-473
pa	-474
andet	-475
ron	-476
▁fi	-477
▁voro	-478
äga	-479
räd	-480
gon	-481
ygg	-482
ät	-483
hö	-484
färdig	-485
äst	-486
yp	-487
red	-488
hör	-489
vet	-490
▁dess	-491
edra	-492
nar	-493
▁brö	-494
▁hör	-495
▁väl	-496
här	-497
avid	-498
▁hand	-499
lar	-500
erre	-501
▁konungen	-502
rof	-503
▁David	-504
bet	-505
amm	-506
skola	-507
lå	-508
▁bort	-509
▁ord	-510
ia	-511
je	-512
lat	-513
▁beg	-514
▁syn	-515
ker	-516
erg	-517
▁hon	-518
▁kun	-519
▁än	-520
▁folket	-521
detta	-522
immel	-523
▁kom	-524
ära	-525
▁ur	-526
hava	-527
lade	-528
vara	-529
ven	-530
▁skolen	-531
▁ju	-532
▁ditt	-533
▁P	-534
▁hav	-535
▁inför	-536
▁hela	-537
▁Guds	-538
kun	-539
ifrån	-540
rukt	-541
terna	-542
fram	-543
vill	-544
▁Där	-545
▁De	-546
ölj	-547
▁all	-548
dr	-549
ssa	-550
rofet	-551
▁ifrån	-552
▁stor	-553
▁väg	-554
▁svarade	-555
▁an	-556
▁mina	-557
▁andra	-558
hå	-559
baka	-560
▁Israel	-561
bar	-562
undra	-563
▁först	-564
deras	-565
sina	-566
▁Han	-567
▁När	-568
ret	-569
▁Se	-570
ningar	-571
liga	-572
▁jorden	-573
ypt	-574
▁söner	-575
lö	-576
nat	-577
sen	-578
▁ingen	-579
▁or	-580
herrens	-581
rade	-582
orna	-583
jud	-584
▁namn	-585
▁dessa	-586
▁hög	-587
nade	-588
vinn	-589
lo	-590
▁L	-591
ob	-592
göra	-593
stru	-594
aren	-595
tjän	-596
kom	-597
▁Jag	-598
▁bland	-599
▁giva	-600
räl	-601
ry	-602
järta	-603
▁kan	-604
rik	-605
råg	-606
ännu	-607
▁något	-608
få	-609
ansi	-610
▁gick	-611
▁lå	-612
rist	-613
?»	-614
▁hå	-615
▁Juda	-616
si	-617
ma	-618
ånga	-619
▁fader	-620
▁sedan	-621
rog	-622
▁förb	-623
ger	-624
▁Herren	-625
▁al	-626
lighet	-627
▁fört	-628
kap	-629
▁hö	-630
vil	-631
▁tjänare	-632
jäm	-633
ligt	-634
usen	-635
ighet	-636
nad	-637
äta	-638
läd	-639
▁människ	-640
ingo	-641
▁vår	-642
agt	-643
▁män	-644
▁blivit	-645
kan	-646
▁kommer	-647
▁Jerusalem	-648
▁tog	-649
▁Jesus	-650
kta	-651
eld	-652
rid	-653
▁off	-654
▁präst	-655
uld	-656
åde	-657
▁gjorde	-658
sl	-659
▁henne	-660
▁bl	-661
opp	-662
▁sp	-663
kring	-664
▁	-665
¦	-666
a	-667
e	-668
n	-669
r	-670
t	-671
s	-672
d	-673
l	-674
o	-675
i	-676
m	-677
h	-678
g	-679
k	-680
v	-681
ä	-682
u	-683
f	-684
å	-685
c	-686
,	-687
ö	-688
b	-689
p	-690
j	-691
.	-692
𐋇	-693
y	-694
»	-695
E	-696
;	-697
R	-698
:	-699
H	-700
S	-701
D	-702
N	-703
O	-704
J	-705
I	-706
M	-707
G	-708
A	-709
?	-710
-	-711
𐊣	-712
𐊼	-713
'	-714
T	-715
V	-716
B	-717
F	-718
K	-719
é	-720
!	-721
x	-722
L	-723
P	-724
U	-725
Ä	-726
Å	-727
(	-728
Ö	-729
)	-730
C	-731
Y	-732
2	-733
0	-734
4	-735
6	-736
1	-737
8	-738
9	-739
ó	-740
3	-741
5	-742
7	-743
í	-744
]	-745
á	-746
