<pad>	0
</s>	0
<unk>	0
▁	-3.06025
i	-3.35658
s	-3.43858
,	-3.46468
.	-3.90272
k	-3.92083
o	-3.92905
u	-4.02262
a	-4.12523
e	-4.25634
d	-4.31239
ti	-4.39621
m	-4.40851
n	-4.41662
g	-4.44804
▁ir	-4.46498
ų	-4.56472
os	-4.56666
v	-4.61211
in	-4.64112
t	-4.64749
b	-4.73259
p	-4.73973
ė	-4.75491
ą	-4.83621
y	-4.90819
ai	-4.9698
j	-4.98033
l	-4.98056
▁pa	-5.03186
al	-5.04902
▁kad	-5.09754
as	-5.10589
es	-5.11661
r	-5.22137
ės	-5.22675
▁ne	-5.24165
▁su	-5.25784
š	-5.30013
en	-5.32059
▁į	-5.33396
us	-5.34323
te	-5.35514
to	-5.38991
is	-5.39605
▁k	-5.40926
an	-5.42079
ž	-5.45192
▁d	-5.49983
▁iš	-5.51597
ra	-5.53811
▁t	-5.5689
me	-5.58678
li	-5.59046
ma	-5.59187
▁m	-5.59627
au	-5.61782
ta	-5.61909
ri	-5.6923
į	-5.69472
tin	-5.7011
▁Europos	-5.73867
ių	-5.7565
tų	-5.77342
ir	-5.7889
si	-5.79342
▁v	-5.79477
er	-5.79568
z	-5.7992
ar	-5.79945
ę	-5.80511
ik	-5.81073
ek	-5.81692
ū	-5.83253
▁ši	-5.85344
▁kuri	-5.87476
tu	-5.87635
▁ko	-5.8808
▁dėl	-5.88635
jų	-5.90486
ja	-5.91236
f	-5.96888
▁tai	-5.9734
el	-5.97525
imo	-5.98596
▁yra	-6.01684
▁pri	-6.06071
or	-6.06675
▁at	-6.07209
išk	-6.08177
▁-	-6.09213
▁pat	-6.09547
▁P	-6.10338
▁vis	-6.10475
am	-6.10563
▁re	-6.12119
▁p	-6.12498
io	-6.13203
imą	-6.14923
ant	-6.16004
ijos	-6.16015
mo	-6.16246
yb	-6.17406
ci	-6.18591
ur	-6.19171
dži	-6.19576
ei	-6.19762
ing	-6.21482
imas	-6.21833
na	-6.23847
▁teis	-6.25372
▁g	-6.26158
▁K	-6.26429
mi	-6.2665
re	-6.27085
ni	-6.28119
▁už	-6.28333
▁tik	-6.28365
sta	-6.28856
▁A	-6.3408
ia	-6.35859
yti	-6.36226
iai	-6.36373
on	-6.39177
▁po	-6.39513
iu	-6.40298
čia	-6.41006
▁pas	-6.41326
▁ž	-6.42229
mą	-6.43693
tar	-6.44679
ty	-6.44835
mas	-6.45402
la	-6.45453
▁T	-6.45695
tas	-6.45867
ais	-6.46891
▁B	-6.48255
le	-6.49484
ūr	-6.49799
▁būti	-6.50753
)	-6.51109
▁(	-6.51476
▁dar	-6.51706
ak	-6.51932
▁M	-6.52147
▁nuo	-6.5239
ba	-6.53013
oje	-6.54567
▁nar	-6.55048
ame	-6.55646
▁kaip	-6.59296
▁V	-6.59878
var	-6.60024
▁ap	-6.60371
▁pra	-6.60379
inti	-6.60417
nt	-6.61668
mon	-6.61983
lo	-6.62644
▁nu	-6.63923
dar	-6.64411
c	-6.64957
imu	-6.65421
omis	-6.65526
▁per	-6.66659
čių	-6.68325
▁svarb	-6.68917
▁taip	-6.69141
aug	-6.69249
tą	-6.69278
ren	-6.69301
E	-6.70347
"	-6.70447
ka	-6.70503
▁S	-6.70942
1	-6.70993
▁š	-6.71235
▁jo	-6.71762
ją	-6.72133
et	-6.72622
ime	-6.72673
▁J	-6.73471
N	-6.7377
ama	-6.73978
▁turi	-6.74734
da	-6.75326
▁gali	-6.75464
▁pasi	-6.77202
▁praneš	-6.77596
▁sk	-6.78224
▁ES	-6.78381
vo	-6.7853
▁D	-6.78918
▁būtų	-6.78936
▁kai	-6.80214
ys	-6.81283
▁Tai	-6.81894
kl	-6.81955
iam	-6.83494
iausi	-6.83827
0	-6.85339
va	-6.86414
ams	-6.86516
▁prie	-6.87103
▁nes	-6.87579
▁to	-6.88423
▁ar	-6.88753
ter	-6.89204
pa	-6.89621
▁labai	-6.89711
inių	-6.89815
aus	-6.90084
audo	-6.90094
mų	-6.90683
tai	-6.91637
▁savo	-6.91697
▁vien	-6.91775
ius	-6.91919
▁klaus	-6.93866
▁par	-6.93946
ig	-6.9422
lai	-6.94528
▁buvo	-6.95023
▁kit	-6.95269
▁daug	-6.9536
▁l	-6.95441
▁susi	-6.95552
▁be	-6.96028
il	-6.96525
str	-6.96733
▁pro	-6.96827
uot	-6.96858
čio	-6.97007
▁apie	-6.97919
▁ji	-6.98718
umo	-6.98763
▁bendr	-6.9905
usi	-7.01149
▁nor	-7.02549
ran	-7.03038
▁mūsų	-7.03877
▁turėt	-7.04515
oms	-7.04605
▁Ši	-7.05117
▁pirm	-7.06282
tos	-7.06788
▁Komisijos	-7.0802
▁de	-7.08058
iau	-7.08091
inės	-7.08698
▁priemon	-7.09261
▁rink	-7.0934
▁R	-7.09967
▁G	-7.1121
imų	-7.11262
ėjo	-7.12395
ėms	-7.14142
▁pirmininke	-7.14153
iems	-7.14606
ro	-7.15361
uoti	-7.1571
▁atsi	-7.16833
veik	-7.1778
▁bet	-7.18168
rin	-7.19297
▁tikr	-7.19741
▁veik	-7.20719
gali	-7.2088
▁nauj	-7.21631
▁laik	-7.21792
▁reikal	-7.22054
cija	-7.22093
▁pasiūl	-7.22201
imai	-7.22346
▁gr	-7.23201
rod	-7.23623
ang	-7.2383
▁finans	-7.26715
20	-7.276
iant	-7.28418
ėja	-7.29508
▁gal	-7.29592
ome	-7.29918
▁bus	-7.29948
▁proc	-7.30972
▁jau	-7.31482
▁maž	-7.32275
▁I	-7.32636
uoja	-7.33165
joje	-7.34038
▁mes	-7.34134
P	-7.34275
yje	-7.34518
▁ju	-7.34905
▁reikia	-7.35372
▁kurie	-7.35566
dama	-7.36613
ymo	-7.36788
inink	-7.37512
uose	-7.38131
▁Komisija	-7.38364
▁nepa	-7.38638
▁L	-7.38832
▁darbo	-7.40032
▁pateik	-7.40225
▁valstybės	-7.40941
▁kurios	-7.41201
acijos	-7.41573
▁Sąjungos	-7.42383
▁norėčiau	-7.42569
▁keli	-7.42913
▁pagrind	-7.43131
2	-7.4359
▁pagal	-7.44158
▁šiuo	-7.44169
▁ga	-7.44439
:	-7.4541
tor	-7.46151
avimo	-7.46448
▁bū	-7.46463
ch	-7.46888
yr	-7.4829
▁lyg	-7.48751
▁metu	-7.48917
▁Parlamento	-7.49729
▁toki	-7.50065
▁prieš	-7.5008
▁susitar	-7.50222
▁siek	-7.50372
▁Todėl	-7.50737
h	-7.51626
▁skirt	-7.52105
▁galimyb	-7.52997
▁mok	-7.5562
▁saug	-7.55666
▁turime	-7.55972
▁gyven	-7.58094
▁įgyvendin	-7.60522
čiu	-7.60548
C	-7.6097
vert	-7.61149
▁narių	-7.61764
ėmis	-7.62103
▁dabar	-7.63701
der	-7.64329
▁daugiau	-7.64775
dami	-7.65064
trauk	-7.65123
▁valstybių	-7.67075
ėje	-7.68125
▁šį	-7.6829
▁atsak	-7.69915
region	-7.70389
9	-7.71369
S	-7.72003
?	-7.72622
O	-7.72622
▁Tačiau	-7.72622
▁pilieči	-7.73128
5	-7.73381
▁valstyb	-7.73484
▁mums	-7.73898
▁sociali	-7.74661
▁Pone	-7.74675
▁ypač	-7.75176
▁200	-7.75703
č	-7.75862
▁sek	-7.76038
▁jei	-7.76709
F	-7.77532
▁suteik	-7.79427
ojo	-7.79443
▁užtikrinti	-7.80259
▁tarp	-7.81225
T	-7.81366
▁tačiau	-7.8242
▁klausimu	-7.82464
▁didel	-7.84386
▁nėra	-7.84389
▁siekiant	-7.86209
▁politikos	-7.87555
▁jūs	-7.87856
▁susijusi	-7.8788
▁kriz	-7.88749
▁todėl	-7.89328
3	-7.89626
▁aplink	-7.89627
oji	-7.90845
▁laisv	-7.91148
▁žino	-7.91832
▁politin	-7.9391
L	-7.95281
▁šalių	-7.95801
-	-7.95943
D	-7.96279
▁padėti	-7.96432
▁priimt	-7.96834
▁biudžet	-7.97717
▁Sąjunga	-7.98368
▁Gerb	-8.00019
Pirminink	-8.00345
A	-8.00381
4	-8.00678
▁sav	-8.02347
;	-8.02361
R	-8.02499
7	-8.03043
8	-8.03043
Ž	-8.03385
▁frakcij	-8.03729
▁ekonomin	-8.04767
▁sąlyg	-8.04767
▁tarptautin	-8.04767
▁visiška	-8.04768
V	-8.05391
▁Taryba	-8.05466
▁vertin	-8.06419
▁ekonomikos	-8.06876
▁sutart	-8.07017
▁Parlamentas	-8.08307
▁nustatyt	-8.08669
▁tinkam	-8.09057
▁skatin	-8.09059
6	-8.09394
spręs	-8.09394
▁vykd	-8.09405
▁direktyv	-8.09759
▁srityje	-8.10126
▁bendradarbiavim	-8.10862
▁pabrėž	-8.12728
▁Tarybos	-8.13105
▁šiandien	-8.13105
program	-8.13151
▁kurį	-8.13498
užtikrin	-8.13808
▁žmogaus	-8.13864
▁rezoliucij	-8.154
▁pakeit	-8.16571
▁žmonių	-8.19752
▁Manau	-8.19758
▁šalys	-8.20158
Euro	-8.20989
U	-8.21378
I	-8.23002
▁plan	-8.23953
▁visuomen	-8.24718
▁veiksming	-8.24718
▁pasakyti	-8.24721
▁raštu	-8.26002
▁privalo	-8.26007
ystės	-8.26029
▁veiksmų	-8.28186
▁organ	-8.2906
H	-8.29948
▁prekybos	-8.30397
galėtų	-8.30553
▁nacionalin	-8.30847
▁toliau	-8.31768
▁sukurt	-8.3224
▁Europa	-8.32678
Š	-8.32797
▁produkt	-8.33131
▁asmen	-8.33147
▁atveju	-8.35941
▁Norėčiau	-8.36417
▁energijos	-8.36895
▁žemės	-8.38346
▁labiau	-8.39823
▁euro	-8.4033
▁Lisabono	-8.40808
▁problema	-8.41308
▁atstov	-8.42318
▁klimato	-8.42823
▁politika	-8.42823
▁valdy	-8.43354
▁apsaugos	-8.44362
K	-8.44932
▁stipr	-8.45928
▁įsipareigo	-8.4645
▁padėkoti	-8.47511
▁dėmesį	-8.48584
▁Bendr	-8.49126
▁kontrol	-8.50214
▁vyriausyb	-8.50214
B	-8.51695
▁Europoje	-8.51872
▁sumažin	-8.51875
▁politiką	-8.52992
▁pozicij	-8.53558
▁kiekvien	-8.54697
/	-8.65584
Į	-8.78527
M	-9.06137
G	-9.07146
J	-10.0371
(	-10.7436
