<pad>	0
</s>	0
<unk>	0
¦	-1.3048
▁¦	-1.33578
▁.	-4.06377
▁,	-4.63229
े	-5.09901
आहे	-5.10086
ी	-5.18062
च्या	-5.2256
आणि	-5.27023
त	-5.43246
ा	-5.44907
ची	-5.70176
ं	-5.73361
▁	-5.74085
चा	-5.74919
ला	-5.78586
ही	-5.79362
या	-5.87377
ल	-5.93746
न	-5.97692
मध्ये	-6.01577
क	-6.06931
च	-6.08468
चे	-6.10902
ील	-6.19096
कोरोना	-6.2272
वा	-6.22813
आहेत	-6.27209
ने	-6.27626
व	-6.28906
स	-6.28975
-	-6.36072
य	-6.40271
𐊼	-6.42942
𐊣	-6.42943
नाही	-6.4794
ात	-6.50236
ते	-6.50549
र	-6.53115
्या	-6.54442
हे	-6.55894
वर	-6.61952
साठी	-6.63239
ित	-6.64366
ून	-6.6555
▁"	-6.70533
ो	-6.70994
लस	-6.71771
▁(	-6.72661
पण	-6.7567
ना	-6.76487
𐋇	-6.76818
किं	-6.78605
▁'	-6.82201
▁)	-6.82561
अ	-6.83042
तर	-6.83082
काही	-6.85606
आरोग्य	-6.86123
की	-6.86827
यांनी	-6.90158
म	-6.90228
ज	-6.90772
▁?	-6.90821
हा	-6.92305
एक	-6.93885
करण्यात	-6.94869
ली	-6.97334
कमी	-7.01397
ले	-7.03496
का	-7.03637
ट	-7.04659
असं	-7.06709
केली	-7.08225
चं	-7.08964
-19	-7.09083
त्या	-7.10038
ड	-7.11323
होत	-7.13136
शी	-7.13223
प	-7.18278
ू	-7.18626
मुळे	-7.22039
विषाणू	-7.23943
माहिती	-7.24501
सर्व	-7.27293
होते	-7.2945
शकत	-7.29734
ल्या	-7.29763
▁:	-7.30204
फ	-7.30243
करोना	-7.31981
कोव्हिड	-7.32691
आ	-7.36004
ज्या	-7.36058
ता	-7.36076
संसर्ग	-7.36612
काम	-7.37781
सुरू	-7.38007
डॉ	-7.3889
पासून	-7.40929
ाच्या	-7.41131
ग	-7.43003
पर्यंत	-7.43049
ऑक्सिजन	-7.43172
केले	-7.44138
ु	-7.44224
अनेक	-7.46174
जास्त	-7.47941
इतर	-7.48624
आली	-7.49042
हात	-7.49365
द	-7.50198
होती	-7.50362
ब	-7.50394
्स	-7.51871
केला	-7.52083
आले	-7.52358
असलेल्या	-7.53221
बंद	-7.53615
ळ	-7.54183
करत	-7.5463
्	-7.55403
होता	-7.55948
करण्यासाठी	-7.56048
रुग्ण	-7.56094
श	-7.56133
लसीकरण	-7.56231
वापर	-7.57256
िक	-7.60075
राज्यात	-7.60843
प्र	-7.61792
▁-	-7.62337
झाला	-7.64118
एका	-7.6462
सा	-7.65172
झाली	-7.65214
चाचणी	-7.65778
राज्य	-7.66056
पेक्षा	-7.67217
वि	-7.67256
covid	-7.6755
केंद्र	-7.68001
ह	-7.68745
दोन	-7.69152
करून	-7.69784
नंतर	-7.69853
येत	-7.69893
लॉकडाऊन	-7.70985
आजार	-7.71821
मधील	-7.72789
असे	-7.72808
म्हणून	-7.73491
अधिक	-7.73696
मृत्यू	-7.73916
तो	-7.73989
जे	-7.74766
काय	-7.75226
.	-7.75712
असेल	-7.77416
करण्या	-7.77852
संख्या	-7.7801
अशा	-7.784
झालेल्या	-7.78796
नी	-7.79303
ती	-7.79795
सरकार	-7.79886
त्यांच्या	-7.80351
तरी	-7.82066
दिली	-7.82761
तयार	-7.82817
आता	-7.82902
ई	-7.83458
लं	-7.83821
व्हायरस	-7.85319
त्यांना	-7.85805
लशी	-7.85873
ण	-7.86081
देण्यात	-7.86363
ांना	-7.86938
परिणाम	-7.87723
ाचा	-7.88549
म्हणजे	-7.89199
थ	-7.89393
ांनी	-7.89903
म्हटलं	-7.89939
मात्र	-7.90199
गेल्या	-7.90545
री	-7.90747
ावर	-7.90772
आला	-7.91219
आम्ही	-7.91693
औषध	-7.91891
v	-7.922
म्हणाले	-7.92267
त्यामुळे	-7.9288
केलं	-7.93248
सं	-7.93449
त्यांनी	-7.93709
उपलब्ध	-7.94708
करणे	-7.94728
टक्के	-7.94793
सह	-7.94853
ाने	-7.95569
ाची	-7.95753
नुसार	-7.96579
अशी	-7.96601
एप्रिल	-7.96882
असा	-7.96948
उपचार	-7.97583
यांच्या	-7.97916
मोठ्या	-7.98827
ह्या	-7.99889
र्	-8.00015
महाराष्ट्रात	-8.00239
कडे	-8.00468
कडून	-8.00624
▁¦2020	-8.00683
असून	-8.00857
नि	-8.00954
सध्या	-8.01795
,	-8.02597
दर	-8.02603
मे	-8.02614
भारतात	-8.02636
i	-8.02807
कारण	-8.03107
असल्याचं	-8.03445
प्रकार	-8.03505
केल्या	-8.03529
रा	-8.03706
शाळा	-8.03783
होतं	-8.04293
जात	-8.04589
परिस्थिती	-8.0471
ाला	-8.04949
हजार	-8.05091
1	-8.05403
▁."	-8.0561
co	-8.06732
s	-8.0708
सांगता	-8.07572
तील	-8.08277
सरकारने	-8.08397
डोस	-8.09091
्य	-8.09201
मार्च	-8.09311
ि	-8.09342
कोविड	-8.09345
देशात	-8.09574
वैद्यकीय	-8.09648
मी	-8.09711
निर्णय	-8.09964
बाबत	-8.10364
होऊ	-8.10568
लक्षण	-8.11573
रुग्णां	-8.11951
प्रमाण	-8.12291
ंना	-8.12541
रि	-8.13054
आलं	-8.13117
सांगितलं	-8.13685
होतो	-8.13687
जर	-8.13879
गरज	-8.1402
क्	-8.1412
लोकांना	-8.14331
पा	-8.14546
ए	-8.14565
गंभीर	-8.1461
ासाठी	-8.15177
नवीन	-8.156
झाले	-8.15645
आढळ	-8.15912
चीन	-8.16425
बदल	-8.16721
लोक	-8.17402
मास्क	-8.17845
करण्याच	-8.17904
भर	-8.18011
इ	-8.18419
संसर्गा	-8.18691
8	-8.19487
होणार	-8.19923
२	-8.19969
दुसऱ्या	-8.20167
ांच्या	-8.21506
समावेश	-8.21871
दिवस	-8.21958
ेल	-8.22513
3	-8.22517
▁%	-8.22544
लक्ष	-8.22959
मा	-8.23387
रुग्णालयात	-8.23399
नं	-8.23959
करू	-8.24083
णे	-8.26187
शकते	-8.26669
मुंबई	-8.26954
व्यक्ती	-8.27138
सीओव्ही	-8.27484
ॅ	-8.27746
प्रवास	-8.27812
द्वार	-8.27849
आपल्या	-8.27956
झ	-8.28959
नाहीत	-8.29525
p	-8.29632
आपण	-8.29977
n	-8.29978
कर	-8.29984
विचार	-8.30084
लाख	-8.30115
आज	-8.3013
पुढे	-8.30423
स्थिती	-8.30445
ख	-8.30655
6	-8.30894
काळात	-8.31158
ध	-8.31435
प्रसार	-8.3149
दरम्यान	-8.31547
जी	-8.31851
देख	-8.31929
वाढ	-8.3227
शक्यता	-8.33101
जागतिक	-8.33832
ाचे	-8.34066
ातील	-8.34152
देश	-8.34209
आलेल्या	-8.34454
येई	-8.34757
ंड	-8.34969
जाहीर	-8.34996
सी	-8.35102
4	-8.35463
निर्माण	-8.35778
ण्यासाठी	-8.35943
उ	-8.36186
स्ट	-8.36482
येथ	-8.36596
ठाकरे	-8.36913
निर्बंध	-8.36964
पूर्ण	-8.37208
रोग	-8.37224
परवानगी	-8.37362
डी	-8.3775
बाहेर	-8.37762
को	-8.38093
प्रमाणात	-8.38266
येणार	-8.38577
होण्या	-8.38587
म्हणतात	-8.38601
ांची	-8.38838
असते	-8.39039
दा	-8.39249
भ	-8.39343
c	-8.39589
केलेल्या	-8.39623
सु	-8.39627
sars	-8.39786
तुम्हाला	-8.39787
सोबत	-8.39921
स्	-8.40184
महत्त्वाच	-8.4035
मदत	-8.40402
असल्याच	-8.40499
लागू	-8.41034
के	-8.41167
जाऊ	-8.41626
तीन	-8.42107
चाचण्या	-8.42149
ष	-8.42203
आवश्यक	-8.42971
▁¦10	-8.43119
दिले	-8.43175
a	-8.4327
9	-8.43304
दिसून	-8.43588
दाखल	-8.43963
वरील	-8.44185
प्रयत्न	-8.44819
राज	-8.4492
बोलता	-8.45091
लि	-8.45201
योग्य	-8.45258
जाई	-8.4528
असलेल	-8.4536
रोजी	-8.4585
से	-8.45861
जाते	-8.4587
यांना	-8.46115
आजारा	-8.4633
ांमध्ये	-8.46833
१	-8.46855
ंग	-8.46885
ठिकाणी	-8.47621
सेवा	-8.47687
कोणत्या	-8.47933
e	-8.48116
णाऱ्या	-8.48239
भारत	-8.48256
टी	-8.4836
दिसत	-8.4847
4¦	-8.49073
0¦	-8.49404
मागणी	-8.49674
▁;	-8.50625
संच	-8.50839
व्ह	-8.5104
भागात	-8.51101
करणाऱ्या	-8.51514
नियंत्रण	-8.51714
धोका	-8.5195
संबंधित	-8.51991
काळजी	-8.5243
याचा	-8.52474
विकस	-8.52487
कोरोनाची	-8.52488
िंग	-8.53147
मुख्यमंत्र	-8.53231
ेश	-8.5342
असताना	-8.54176
आधार	-8.54302
पुन्हा	-8.5476
उत्पादन	-8.54894
/	-8.54909
ीन	-8.54942
o	-8.55103
लेल्या	-8.55905
ओ	-8.56028
पूर्वी	-8.56179
ांवर	-8.57031
प्रश्न	-8.57141
पहिल्या	-8.57177
ंनी	-8.57201
संपर्क	-8.57517
करता	-8.57539
उद्धव	-8.57651
झालेल	-8.58481
m	-8.58563
परीक्षा	-8.58635
t	-8.58732
शोध	-8.5897
बीबीसी	-8.59129
तेव्हा	-8.59212
पंतप्रधान	-8.59627
ति	-8.59948
मंत्री	-8.60131
सार्स	-8.60164
डि	-8.60606
7	-8.60969
ै	-8.61082
रे	-8.61167
कोटी	-8.61512
करा	-8.61548
नोंद	-8.61816
महाराष्ट्र	-8.6209
असू	-8.62494
r	-8.62498
३	-8.62621
सि	-8.62744
राज्या	-8.62878
तुम्ही	-8.6318
किती	-8.63219
४	-8.63401
झाल्या	-8.63833
h	-8.63871
काढ	-8.63986
साथी	-8.64002
मान	-8.64226
तात	-8.64254
पुरवठा	-8.64733
होई	-8.6476
मधून	-8.65213
जानेवारी	-8.65269
सार्वजनिक	-8.65269
2¦	-8.65439
पैकी	-8.65564
क्त	-8.65649
बद्दल	-8.65723
लसी	-8.65768
डेटा	-8.6581
्र	-8.65866
मला	-8.66109
नव्हत	-8.66372
रुग्णांना	-8.66608
ंमध्ये	-8.66756
ऑफ	-8.67438
-2	-8.67638
पर	-8.67641
शकता	-8.67682
शहरात	-8.67762
ेंद्र	-8.68132
महिन्यात	-8.68525
भाग	-8.68834
प्रमाणे	-8.68842
लो	-8.68909
प्रत्येक	-8.69
आधी	-8.69203
वेळ	-8.69343
तून	-8.69479
ंच्या	-8.69508
d	-8.69785
स्पष्ट	-8.70132
राष्ट्रीय	-8.70139
लहान	-8.70164
उत्तर	-8.70183
करतात	-8.70196
नये	-8.70677
3¦	-8.70774
घा	-8.7136
चार	-8.71778
टेस्ट	-8.7184
ठर	-8.72761
याची	-8.7284
वाढत	-8.72924
लक्षणं	-8.73003
शिक्षण	-8.73106
आल्या	-8.7327
पॉझिटिव्ह	-8.74668
चर्चा	-8.74722
ांचा	-8.74733
ठ	-8.74763
याबाबत	-8.74782
संपूर्ण	-8.74846
2	-8.74958
मोदी	-8.75025
णं	-8.75044
णार	-8.75134
लागण	-8.75143
गेल	-8.7531
हून	-8.7544
ामध्ये	-8.75607
८	-8.75782
ण्यात	-8.75828
विविध	-8.75835
झालं	-8.7586
असतात	-8.76307
जा	-8.76514
गेले	-8.77008
उच्च	-8.77014
जगभरात	-8.77015
असतो	-8.77044
5¦	-8.77076
शा	-8.77095
क्ष	-8.77379
करण्यास	-8.77496
अंदाज	-8.7761
सामान्य	-8.77934
५	-8.7809
डॉक्टर	-8.7817
पड	-8.7875
▁¦20	-8.78832
दिला	-8.78857
टे	-8.79039
जिल्ह्यात	-8.79087
वेळी	-8.79091
७	-8.79404
जीव	-8.79696
मो	-8.79808
कंपनी	-8.79836
येऊ	-8.80027
करणार	-8.80398
50¦	-8.80531
पूर्व	-8.81311
प्	-8.81362
ांत	-8.81603
ंचा	-8.81621
जन	-8.81758
त्यात	-8.81793
केसेस	-8.81883
खा	-8.81929
सारख्या	-8.82139
अभ्यास	-8.82204
लोकां	-8.82225
रो	-8.82389
कार्य	-8.82449
ांसाठी	-8.82627
वे	-8.82831
▁¦1¦	-8.82887
ंची	-8.83061
समोर	-8.83133
प्रभावी	-8.83336
घेतला	-8.83354
ुद्धा	-8.83451
वाट	-8.83739
शे	-8.84019
l	-8.84223
ढ	-8.84457
प्रति	-8.84682
कु	-8.84965
राहत	-8.85059
आढळले	-8.85079
मोठ	-8.85142
7¦	-8.8537
व्या	-8.85476
फेब्रुवारी	-8.85689
अंतर	-8.85691
त्यानंतर	-8.85953
यासाठी	-8.86081
प्रतिबंध	-8.86178
काळ	-8.86298
एकूण	-8.86338
8¦	-8.8647
सरकारी	-8.86692
पाच	-8.86841
ताप	-8.86908
तुमच्या	-8.87091
शि	-8.87139
पी	-8.87422
ायला	-8.87679
केंद्रीय	-8.87698
सूचना	-8.87895
जाणार	-8.87902
ठेवण्या	-8.88084
वर्ष	-8.88218
खूप	-8.88312
शक	-8.88388
न्स	-8.88537
देत	-8.88738
परत	-8.88795
६	-8.88988
असल्याने	-8.89056
सेच	-8.89343
शिवाय	-8.89403
ीत	-8.89636
बेड्स	-8.89692
त्याच्या	-8.89849
णी	-8.90308
ीय	-8.90738
विशेष	-8.90766
मि	-8.90837
एस	-8.91015
धुण्या	-8.91043
नर	-8.91444
त्रास	-8.91699
जेव्हा	-8.91723
पाहिजे	-8.91935
पे	-8.91969
सेंटर	-8.91995
घरी	-8.92018
ातून	-8.92293
स्त	-8.9232
▁“	-8.92383
डे	-8.92635
0	-8.92828
शक्य	-8.93043
नाव	-8.93063
प्रतिसाद	-8.93075
रुग्णसंख्या	-8.93238
घ	-8.93515
खासगी	-8.93774
जवळ	-8.93814
जिल्हा	-8.9385
कार्यक्रम	-8.93964
ेवळ	-8.94107
जातो	-8.94126
रात्री	-8.94478
सांगितले	-8.94583
गा	-8.94609
बा	-8.95097
मत	-8.9517
b	-8.95187
गर्दी	-8.95187
असतील	-8.95212
गाव	-8.95536
शरीरात	-8.95556
आदेश	-8.95679
बी	-8.95742
तीव्र	-8.95835
आकडेवारी	-8.95901
निर्मिती	-8.95901
वर्षी	-8.95932
हि	-8.95954
ताना	-8.96143
वर्षा	-8.9617
बे	-8.96171
मिळत	-8.96359
9¦	-8.96949
व्यक्त	-8.97172
▁¦5	-8.97182
आर्थिक	-8.97346
दोन्ही	-8.97346
मुंबईत	-8.97694
येणाऱ्या	-8.98077
अजून	-8.98149
घेऊन	-8.98216
०	-8.98232
ण्याची	-8.98429
्यात	-8.98511
रुग्णांच	-8.98533
विभागा	-8.98608
5	-8.98673
कर्मचारी	-8.98811
शिफारस	-8.98812
लशीच्या	-8.99009
वी	-8.99107
दिल्ली	-8.99388
कि	-8.99532
प्रमुख	-8.99573
तास	-9.00199
पत्र	-9.0026
स्थानिक	-9.00321
वर्षां	-9.00734
लशीं	-9.00947
घर	-9.01064
यु	-9.011
त्र	-9.01387
कल	-9.01578
बस	-9.01599
माग	-9.01705
घ्या	-9.01908
▁¦14	-9.01918
सुरुवात	-9.01993
अधिकारी	-9.02017
त्याचा	-9.02089
▁¦19	-9.02184
मिळ	-9.02573
करताना	-9.02784
ट्र	-9.02946
कालावधी	-9.0316
वेगान	-9.03181
प्रवेश	-9.0334
ग्रामीण	-9.03341
चाचण्यां	-9.03576
क्षमता	-9.03697
ंवर	-9.03751
करावी	-9.04157
अर्थ	-9.04731
घेतली	-9.04979
भारता	-9.04998
संदर्भात	-9.05151
क्षेत्रात	-9.05163
हॉस्पिटल	-9.05381
00	-9.05382
दार	-9.05659
पुणे	-9.05706
▁¦15	-9.05732
नियम	-9.05835
नव्या	-9.05997
अस	-9.06455
आणखी	-9.06478
▁‘	-9.06497
आय	-9.0684
९	-9.0711
होण्याची	-9.0715
▁’	-9.07287
टोपे	-9.07288
टा	-9.07449
ामुळे	-9.07559
विद्यार्थ्यां	-9.07613
▁¦2¦	-9.07669
गरजेच	-9.07974
लॉकडाउन	-9.08084
कार	-9.08226
उपाय	-9.08371
पि	-9.08631
बरे	-9.0865
कधी	-9.089
▁¦12	-9.08997
आपल	-9.09142
सहा	-9.0941
जो	-9.09429
सुरक्षित	-9.09593
पर्याय	-9.09799
गेली	-9.09875
लाटे	-9.0989
मुख्य	-9.10011
होणाऱ्या	-9.10557
अन्य	-9.10602
परंत	-9.1063
u	-9.10906
तज्ज्ञ	-9.10934
घेण्यात	-9.10981
बि	-9.11157
आमच्या	-9.11454
प्रमाणावर	-9.11485
घेण्या	-9.1152
जि	-9.1168
करणं	-9.11753
स्व	-9.11857
ग्र	-9.12047
यामुळे	-9.12102
नागपूर	-9.12217
घोषणा	-9.12221
असणाऱ्या	-9.12236
दूर	-9.12285
त्यांची	-9.12311
▁¦30	-9.12946
मते	-9.12988
एचसीओव्ही	-9.13071
उद्रेका	-9.13199
कृती	-9.13356
पु	-9.13728
वय	-9.13738
लाट	-9.13747
महा	-9.14094
गृह	-9.14233
ीम	-9.14756
who	-9.14781
तुलने	-9.14781
बेड	-9.14827
फार	-9.14931
आतापर्यंत	-9.15004
वरून	-9.1509
लागत	-9.15205
र्ड	-9.15344
प्रदेश	-9.15504
आमच	-9.15587
घेत	-9.15678
जातं	-9.15826
सर	-9.15888
ब्	-9.16126
करतो	-9.16363
दुसरी	-9.1652
सुरु	-9.16542
क्वारंटाईन	-9.17413
यांचा	-9.17852
f	-9.17919
श्वसन	-9.18231
ऑ	-9.18237
र्स	-9.18266
भीती	-9.18306
गोष्टी	-9.18316
प्रक्रिया	-9.18325
ओळख	-9.18386
विषाणूच्या	-9.18492
पुण्यात	-9.18805
ृ	-9.18808
देशा	-9.19006
आपल्याला	-9.19071
भा	-9.19129
प्राथमिक	-9.19206
सुविधा	-9.19206
पुष्टी	-9.19207
फे	-9.19316
विरोधी	-9.19442
लशीचा	-9.19518
तः	-9.19525
महिन्या	-9.19589
संशोधन	-9.19712
वाद	-9.19741
मन	-9.19754
त्याची	-9.19771
सेल	-9.19845
द्द	-9.2001
रुग्णालया	-9.20066
रेमडेसिवीर	-9.20115
स्पर्श	-9.20115
झाल्यानंतर	-9.20204
रुग्णालय	-9.20524
भूत	-9.20572
डा	-9.20603
ांचे	-9.20889
ाय	-9.20976
श्वास	-9.2099
विरोधात	-9.2099
इन्स्टिट्यूट	-9.21033
इटली	-9.21033
असल	-9.21097
यात	-9.21703
संप	-9.21709
पसर	-9.21808
नागरिकां	-9.21826
ात्मक	-9.21878
अत्या	-9.21926
आम्हाला	-9.21959
तपासणी	-9.21967
घड	-9.22011
पोहोच	-9.22306
झा	-9.22331
व्हा	-9.22393
ंट	-9.2251
डॉक्टरां	-9.22651
त्याच	-9.22807
संभाव्य	-9.22893
▁¦11	-9.22937
जोख	-9.22959
अत्यं	-9.23206
बोल	-9.23269
न्	-9.23285
नियोजन	-9.23388
यावर	-9.23452
त्याला	-9.23471
दु	-9.23584
वश्यक	-9.23766
करते	-9.23795
तुटवडा	-9.23837
ंतर्गत	-9.23841
कोणती	-9.23861
थेट	-9.24259
ेईल	-9.24438
मोठा	-9.24492
सामाजिक	-9.24789
▁!	-9.24803
विषय	-9.25203
मग	-9.25223
जण	-9.25229
मर्याद	-9.25418
अॅ	-9.2561
टप्प्यात	-9.25663
योजना	-9.2568
इंजेक्शन	-9.25751
हळू	-9.25752
लवकर	-9.25752
शेवट	-9.25756
एखाद्या	-9.25832
नस	-9.25834
चालू	-9.25882
बल	-9.26079
ावी	-9.26326
▁¦24	-9.2676
असल्यास	-9.26838
त्	-9.26854
ग्	-9.27008
मु	-9.27268
दाखव	-9.27361
सुरक्षा	-9.27508
्व	-9.2754
लोकांच्या	-9.27658
आण	-9.27674
बरोबर	-9.27692
क्स	-9.27696
आव्हान	-9.27705
लोकांनी	-9.27881
जसे	-9.27933
विलगीकरण	-9.27986
करावा	-9.28175
निक	-9.2822
तज्ज्ञां	-9.28225
अवलंब	-9.28692
फ्लू	-9.28692
पालन	-9.28694
जवळपास	-9.28697
प्रकरणां	-9.28829
सोड	-9.28939
मध्य	-9.29173
मुलां	-9.29246
पद्धती	-9.29249
टाक	-9.29306
सर्वाधि	-9.29595
वुहान	-9.29692
सोश	-9.29693
खर्च	-9.29697
संस्था	-9.29699
नोंदणी	-9.29722
ेस	-9.29737
पो	-9.30146
येण्या	-9.30277
▁¦6¦	-9.30614
व्यवस्था	-9.30688
ार्थ	-9.30707
कोव्हॅक्सिन	-9.30716
ंत	-9.30797
लोकसंख्ये	-9.30849
ानुसार	-9.30857
पातळी	-9.31038
सरकारच्या	-9.31111
एन	-9.31156
पत्रकार	-9.31225
णा	-9.31355
पातळीवर	-9.31384
ठेव	-9.31524
वाहतूक	-9.31723
निदान	-9.31741
नगर	-9.31742
ल्यानंतर	-9.31742
म्	-9.31866
१९	-9.31891
वाढव	-9.32448
स्प	-9.32582
बाधित	-9.32592
तिथे	-9.32754
भारतीय	-9.32889
मराठी	-9.32945
विमान	-9.32953
त्यासाठी	-9.32973
बंदी	-9.33111
अमेरिके	-9.3315
संक्रमण	-9.33367
डिसेंबर	-9.33795
परिणामकारक	-9.33815
दिलं	-9.33816
दिल्या	-9.34053
साध	-9.34069
देता	-9.34264
बर	-9.34392
कोरोनाव्हायरस	-9.34407
असल्याची	-9.34437
तयारी	-9.34567
वून	-9.34616
दिलेल	-9.34655
ावं	-9.34783
प्रशासना	-9.34829
युके	-9.35005
अहवाल	-9.35049
संबंधी	-9.35317
साम	-9.3535
लाटेत	-9.3555
निश्चित	-9.35912
बहुतांश	-9.35912
सौम्य	-9.35912
सल्ला	-9.35912
सगळ्या	-9.36153
करावे	-9.36276
जाण	-9.36284
ावे	-9.36417
ंद	-9.36448
मुलांना	-9.36538
नागरिक	-9.36586
मार्ग	-9.3674
दिव	-9.3677
वेळा	-9.36842
रेल्वे	-9.36987
उदाहरण	-9.36987
आरोप	-9.36987
पद	-9.37007
गो	-9.3702
जनते	-9.37259
िन	-9.37396
देण्याच	-9.37771
आर	-9.37806
1¦	-9.37886
g	-9.37991
सांगत	-9.38015
मुल	-9.38042
होऊन	-9.3805
पोलीस	-9.38074
मुक्त	-9.38094
करावं	-9.381
जून	-9.3821
हॉस्पिटलमध्ये	-9.38416
शहर	-9.38538
िया	-9.38703
टो	-9.3884
तु	-9.38905
y	-9.39173
टास्क	-9.39179
त्यांचे	-9.3918
▁¦18	-9.39238
घट	-9.39577
गु	-9.39584
लोकांमध्ये	-9.39684
बन	-9.40207
विद्यार्थी	-9.40284
मोहीम	-9.4029
ऊ	-9.40302
दररोज	-9.40306
जातात	-9.40421
माझ्या	-9.40447
घेण्यासाठी	-9.40462
जाण्या	-9.40637
नल	-9.40967
उपस्थित	-9.41026
ास	-9.41111
बो	-9.41378
सकाळी	-9.41409
यामध्ये	-9.41565
संपर्कात	-9.41718
कार्यालय	-9.41786
प्रकरण	-9.41808
दाय	-9.41814
्यु	-9.41838
रित्या	-9.41947
टन	-9.4217
ौ	-9.42287
दुकान	-9.42395
ace	-9.42518
अध्यक्ष	-9.42543
अद्याप	-9.42544
दिवसात	-9.42545
सांगण्या	-9.42549
पवार	-9.4261
नमुने	-9.42851
देशांमध्ये	-9.4288
मानवी	-9.43149
रूग्णां	-9.43431
वापरा	-9.43634
घेता	-9.43649
अनुभव	-9.43694
मान्यता	-9.43737
दुसरा	-9.43876
कर्मचाऱ्यां	-9.44139
इं	-9.44665
तिसऱ्या	-9.44856
माध्यमातून	-9.44864
राहिल	-9.45009
साठा	-9.45041
स्ट्र	-9.45074
सरकारला	-9.45291
ेशन	-9.45411
▁).	-9.4545
साथ	-9.45503
कॅ	-9.45678
पूर	-9.45739
व्हेरियंट	-9.46032
प्रणाली	-9.46033
राजकीय	-9.46033
हो	-9.46131
यांची	-9.46317
घरात	-9.46926
रुपय	-9.47015
व्यक्तीं	-9.4702
लशीचे	-9.47153
थांब	-9.47158
पुढील	-9.47223
बायोटेक	-9.47223
उद्योग	-9.47229
नका	-9.47235
केअर	-9.47349
घटना	-9.47523
दिवसां	-9.47571
फि	-9.4763
टि	-9.47761
एम	-9.47847
जणां	-9.4795
धु	-9.48042
पाळी	-9.48111
यंत्रणा	-9.48212
▁¦200	-9.48279
सुमार	-9.48449
केल्यानंतर	-9.4865
जन्य	-9.487
पार	-9.48706
सत	-9.48753
बैठक	-9.48776
केंद्रा	-9.48839
मधल्या	-9.48863
आवश्यकता	-9.48919
ण्याच	-9.48965
िल	-9.48967
महिन्यां	-9.49164
रेट	-9.49166
विषयी	-9.49175
हर	-9.4918
हवा	-9.49404
उद्रेक	-9.49453
w	-9.49642
संचालक	-9.49647
समस्या	-9.4965
कडक	-9.49653
प्रसिद्ध	-9.49673
प्रभावित	-9.49741
नागरिकांना	-9.49741
म्हणण	-9.49789
समज	-9.49891
कुटुंब	-9.50391
होण	-9.50518
रुग्णांचा	-9.5058
कृत	-9.50704
करायच	-9.50826
सारखी	-9.50872
मिळाली	-9.50882
फोन	-9.50894
येते	-9.50961
िष्ट	-9.51004
▁¦16	-9.51182
जगात	-9.5152
पॅ	-9.5184
पाठव	-9.51853
▁¦60	-9.52015
मूळ	-9.52127
,000	-9.52132
दक्षिण	-9.52132
धोरण	-9.52133
लागली	-9.52135
रिपोर्ट	-9.52142
संरक्षण	-9.52144
gp	-9.52161
पूर्णपण	-9.52235
माल	-9.52324
आठवड्यात	-9.52374
द्या	-9.52411
सात	-9.52639
असणार	-9.52731
विशिष्ट	-9.53398
‍	-9.53398
कशी	-9.53404
अन्न	-9.53445
संनिरीक्षण	-9.53573
झाल्याचं	-9.53612
साबण	-9.53858
ाचं	-9.53927
र्म	-9.5418
लढ	-9.54204
फत	-9.54306
कर्मचाऱ्यांना	-9.54447
त्यांचा	-9.54616
पुर	-9.54669
सप्टेंबर	-9.5468
जिथे	-9.5468
भेट	-9.54697
लागणार	-9.54697
आवाहन	-9.54708
संसर्गजन्य	-9.54748
ज्यांना	-9.54924
केलेल	-9.55071
अॅप	-9.55556
परिस्थितीत	-9.55651
राव	-9.55764
प्राणवायू	-9.55978
सम	-9.56019
नाक	-9.56102
होम	-9.56386
यू	-9.56601
सर्	-9.56651
दीप	-9.5667
लावण्या	-9.56798
रु	-9.57032
घेऊ	-9.57042
परि	-9.57068
व्ही	-9.57128
सचिव	-9.57293
सॅनिटायझर	-9.57294
चिकित्सालय	-9.57294
मार्गदर्शक	-9.57294
▁¦5¦	-9.57379
क्रम	-9.57421
वर्ग	-9.57819
महाराष्ट्रा	-9.57867
मंत्रालया	-9.5793
्ट	-9.57931
जारी	-9.58021
राय	-9.58042
त्याचे	-9.58182
नसत	-9.58424
खरेदी	-9.58628
बऱ्याच	-9.58628
दशलक्ष	-9.58628
आढाव	-9.58628
देशभरात	-9.58631
▁%)	-9.58642
कमतरत	-9.58643
▁¦100	-9.58685
गेला	-9.58975
देव	-9.59298
ठिकाण	-9.59404
इंडिया	-9.59964
फायझर	-9.59979
करुन	-9.5998
धा	-9.59999
करणारे	-9.60019
रूग्ण	-9.60031
राहण्या	-9.60112
बाब	-9.60249
पाळ	-9.60356
बळ	-9.60417
्यावर	-9.60484
राम	-9.60581
आठवड्या	-9.60588
सूच	-9.60706
जाव	-9.60836
रक्त	-9.61129
स्वतः	-9.61143
विद्यापीठ	-9.61349
अगदी	-9.61349
जंतू	-9.61349
वाटतं	-9.61669
जरी	-9.61671
वाढली	-9.61688
देशांनी	-9.61792
वेगळ	-9.62008
मानवा	-9.62313
विकास	-9.62368
ऑक्सफर्ड	-9.62738
▁¦2021	-9.62738
प्राप्त	-9.62738
सिरम	-9.62738
फायद	-9.62741
साधारण	-9.62778
पेशी	-9.62799
दिन	-9.62804
पहिला	-9.6289
सुरुवातीला	-9.63007
दे	-9.63214
काल	-9.63253
यावेळी	-9.63371
सर्वां	-9.63399
▁¦17	-9.63423
देण्या	-9.63552
सोबतच	-9.63681
मागे	-9.63887
देण	-9.6394
व्यक्तीला	-9.63948
ंचे	-9.63995
टर	-9.64112
दर्शव	-9.64146
जिनोम	-9.64146
ज्ञात	-9.64146
मेडिकल	-9.64146
संक्रमित	-9.64146
सीरम	-9.64147
वेगवेगळ्या	-9.64222
मिळव	-9.64287
तोंड	-9.64484
महत्वाच	-9.64719
र्ट	-9.64894
दावा	-9.64937
जागा	-9.65146
जोड	-9.65239
देऊ	-9.65328
'	-9.65494
पत्रक	-9.65535
चित्र	-9.65569
अंमलबजावणी	-9.65575
प्रादुर्भाव	-9.65575
म्युटेशन	-9.65575
ट्वीट	-9.65575
व्यवस्थापन	-9.65578
नसलेल्या	-9.65643
इन्	-9.65693
देण्यासाठी	-9.65732
शिक	-9.65785
वार	-9.66255
संबंध	-9.66261
लेले	-9.66529
रुग्णा	-9.6653
rc	-9.66577
दिवसांत	-9.6659
वाड	-9.66653
प्रा	-9.66678
भाजप	-9.66848
आरोग्यमंत्र	-9.66903
वटवाघळ	-9.67024
फडणवीस	-9.67024
समुदाय	-9.67024
अर्ज	-9.67033
नसल्याचं	-9.67098
क्षेत्र	-9.67117
वाटत	-9.67132
मार	-9.67138
अमरावती	-9.67243
संख्ये	-9.67263
पद्धतीने	-9.67301
तपास	-9.67335
ज्यात	-9.67437
टाळ	-9.67553
था	-9.67737
आंतर	-9.67765
विभाग	-9.67984
नेते	-9.6799
ठा	-9.68259
अप	-9.68296
ंपैकी	-9.68339
रुग्णांमध्ये	-9.68358
रेमडेसिव्हिर	-9.68495
युनायटे	-9.68495
याच	-9.68551
करायला	-9.68552
धुण	-9.68576
शै	-9.68646
धर	-9.68872
कसं	-9.69541
▁्	-9.69689
फोर्स	-9.69759
अनु	-9.69844
सारखे	-9.69891
सू	-9.69901
निष्कर्ष	-9.69987
अडचणी	-9.7018
झाल्याने	-9.70538
ट्स	-9.70573
झाल्याचे	-9.70639
संकट	-9.70796
बाबतीत	-9.70857
येतो	-9.70895
छ	-9.70896
ः	-9.70943
गत	-9.71047
मात	-9.7111
उप	-9.71212
भाव	-9.71305
संघटने	-9.71327
ीकरण	-9.71401
ानंतर	-9.71406
त्व	-9.71486
एवढ	-9.71502
हॉटेल	-9.71502
कठोर	-9.71502
करण	-9.71506
कोणता	-9.71562
▁¦31	-9.7157
रोखण्यासाठी	-9.71574
साथरोग	-9.71589
कं	-9.71598
लागल्या	-9.71619
ण्यास	-9.7165
पट	-9.71738
होणं	-9.71931
य़ा	-9.71953
ासह	-9.72099
ूर	-9.72116
उघड	-9.72214
चिन	-9.72345
आधीच	-9.72564
अभि	-9.72578
थोड	-9.7259
निर्	-9.72774
दी	-9.72807
समाव	-9.73
हृदय	-9.73041
ऑनलाईन	-9.73041
शासकीय	-9.73041
उपयोग	-9.73046
येतील	-9.73073
दिवसांपासून	-9.73135
कोड	-9.73298
व्यक्तींना	-9.73328
बैठकीत	-9.73355
प्रशासनाने	-9.7337
एन्	-9.73417
िओ	-9.73451
फिर	-9.73457
al	-9.7347
वेळे	-9.73527
्युट	-9.73674
याविषयी	-9.73732
शरीरा	-9.73829
रुग्णांवर	-9.73836
ियन	-9.74062
काली	-9.74182
क्लिनिक	-9.74209
२०	-9.74258
दिवसा	-9.74272
ष्ट	-9.7446
वेग	-9.74555
▁¦40	-9.74566
रेमडेसिविर	-9.74603
भूमिका	-9.74603
सदस्य	-9.74603
द्रव	-9.74607
स्थळ	-9.74636
संवाद	-9.74669
विक	-9.74674
ब्रिटन	-9.74697
पुण्या	-9.75006
व्हायरसच्या	-9.75369
मर्स	-9.75428
▁¦2019	-9.75642
वृत्त	-9.75655
ापासून	-9.75838
असल्या	-9.75866
टीका	-9.7594
किट	-9.76075
रोगा	-9.76113
वळ	-9.76127
चिंता	-9.7619
म्हटले	-9.7619
हेल्थ	-9.7619
कारवाई	-9.76191
चौकशी	-9.76197
िश	-9.76238
आलेला	-9.76279
श्वसना	-9.76311
सोप	-9.76351
रोख	-9.76376
पडत	-9.76599
मॅ	-9.76636
आग	-9.76701
शन	-9.76767
दुख	-9.76808
प्रवाशां	-9.76923
खर	-9.76986
तुमच	-9.77181
70¦	-9.77194
भू	-9.77295
कामगार	-9.77371
in	-9.77453
ग्रस्त	-9.77628
स्थान	-9.77754
खालील	-9.77771
महाविद्यालय	-9.77803
विरुद्ध	-9.77803
कुठे	-9.77804
प्रथम	-9.77804
अजित	-9.77807
संशयित	-9.77856
घेतल्या	-9.77916
पेशीं	-9.77934
प्रसारा	-9.7808
बाल	-9.78135
देणार	-9.78227
फुफ्फुसां	-9.78475
सायन	-9.78515
सुरुवाती	-9.78728
एकाच	-9.78767
▁¦25	-9.7887
पालक	-9.7897
पुरव	-9.7906
घटक	-9.79064
अधिकाऱ्यांन	-9.7932
जग	-9.79377
शक्ती	-9.79441
icu	-9.79443
खोकला	-9.79443
टँकर	-9.79443
उपक्रम	-9.7945
घेतल्यानंतर	-9.79506
पाणी	-9.79514
एकत्र	-9.79526
मांड	-9.79555
समाज	-9.79675
रुग्णसंख्ये	-9.79755
दिल्लीत	-9.79808
कमीत	-9.79933
महाराष्ट्राला	-9.79938
कम	-9.80085
घेतले	-9.80137
रोज	-9.802
प्रदा	-9.80284
ाधिक	-9.80322
दहा	-9.80406
वापरण्या	-9.80784
ब्ल	-9.80798
आठवड	-9.80933
टक्क्यां	-9.81063
मृत्यु	-9.8108
पॉल	-9.81109
आकडा	-9.8111
पार्श्वभूमीवर	-9.8111
मूळा	-9.81116
आयोगा	-9.81117
घ्यावी	-9.8114
▁¦28	-9.81169
▁¦22	-9.81279
कोण	-9.813
योग	-9.81436
नेमक	-9.81454
छाती	-9.81769
पाण्या	-9.81816
स्थाप	-9.81866
ँ	-9.8197
भास	-9.82002
ांचं	-9.82004
मानव	-9.82008
क्षण	-9.82071
त्यावर	-9.82135
उभ	-9.82395
ठेवण	-9.82406
प्रशासन	-9.82539
अमेरिकेत	-9.82593
नियमावली	-9.82804
वारंवार	-9.82804
अतिशय	-9.82804
राहणार	-9.82806
स्ट्रेन	-9.82827
मार्चला	-9.82853
पुढच्या	-9.82857
गोळ	-9.8289
▁”	-9.82952
▁¦19¦	-9.82994
पहिली	-9.83049
गर्भ	-9.83109
अभ्यासा	-9.83224
▁¦23	-9.83261
न्यू	-9.83365
दुसरीकड	-9.83527
कोरोनाबाधित	-9.83574
कायम	-9.83608
प्रभाव	-9.83877
मुख	-9.8421
संस्थे	-9.84332
महिला	-9.84461
्यू	-9.845
rsc	-9.84528
वृद्ध	-9.84528
व्यवसाय	-9.84528
व्यावसायिक	-9.84528
धार्मिक	-9.84529
रविवार	-9.84529
उद्देश	-9.84538
बाजू	-9.84539
लागला	-9.8454
स्वच्छता	-9.84592
लागले	-9.84662
उपचारा	-9.84729
घेण्यास	-9.8492
आठवड्यां	-9.85345
अधिकाऱ्यां	-9.8536
स्थ	-9.85747
कसा	-9.85812
लसीं	-9.85836
प्राण्यां	-9.85942
आत	-9.8595
एखाद	-9.86136
जैविक	-9.86268
mers	-9.86283
जर्मनी	-9.86283
पश्चिम	-9.86283
प्रोटोकॉल	-9.86283
वाचव	-9.86287
सोनू	-9.86359
प्रकाशित	-9.86368
तल्या	-9.8637
आठ	-9.8647
केस	-9.86484
मंत्रालयाने	-9.86549
लसीकरणासाठी	-9.86579
जगा	-9.86589
किंमत	-9.86618
वाढू	-9.86747
बनव	-9.86759
▁...	-9.86806
येण	-9.86827
संकटा	-9.8711
एकदा	-9.87213
असले	-9.87489
टिक	-9.8756
ीण	-9.87695
स्वच्छ	-9.87856
ठेवाव	-9.87929
वाढवण्या	-9.87997
व्हेंटिलेटर	-9.88013
काँग्रेस	-9.88069
पुरवठ्या	-9.88069
महामारी	-9.88069
जाणवत	-9.88082
प्रक्रिये	-9.88092
पोस्ट	-9.8811
संघटना	-9.88128
मिळेल	-9.88134
पुरेस	-9.88166
डॉक्टर्स	-9.88235
त्यावेळी	-9.88331
महिन	-9.88369
पाय	-9.88478
१०	-9.88536
देशां	-9.88563
मुलांमध्ये	-9.88566
व्हि	-9.88866
अन	-9.88977
खाली	-9.89065
विद्यार्थ्यांना	-9.89305
गण	-9.89404
िमान	-9.89836
राख	-9.89844
rna	-9.89887
बातमी	-9.89888
ट्रेन	-9.89895
प्रोटीन	-9.89902
कुमार	-9.89906
बहु	-9.89935
आयुक्त	-9.89956
ाशी	-9.89966
लांब	-9.89973
नसल्याने	-9.90075
नॅश	-9.90171
ल्ल	-9.90172
▁,"	-9.90287
वापरासाठी	-9.90404
कंपनीने	-9.90461
णारे	-9.90493
अँप	-9.90685
मदती	-9.90813
धार	-9.91001
rt	-9.91013
लोकांची	-9.91015
साबणा	-9.91066
याला	-9.91152
तपासण्या	-9.91414
नसल्या	-9.91502
महापालिके	-9.91551
व्हॅक्सिन	-9.91715
अपेक्षित	-9.91739
इशारा	-9.91739
फ्रान्स	-9.91739
शुक्रवार	-9.91739
तुलना	-9.9174
निवडणूक	-9.9174
समिती	-9.9174
तरुण	-9.91743
भाष	-9.91784
अँड	-9.91849
प्रचार	-9.9193
प्राणी	-9.92122
गाय	-9.92133
जिल्ह्य	-9.92186
▁¦13	-9.92263
राज्यांना	-9.92277
स्थापन	-9.92675
ांशी	-9.92693
जम	-9.92831
२४	-9.92934
नमुन्यां	-9.93004
स्वत	-9.93032
पाठ	-9.93051
१५	-9.9316
cr	-9.93243
श्र	-9.93378
आपत्	-9.93574
आयसोलेशन	-9.93625
उत्पन्न	-9.93625
अडथळ	-9.93625
प्रारंभ	-9.93625
इथे	-9.93627
खात्री	-9.93628
उलट	-9.93633
cdc	-9.93637
जातील	-9.93717
व्हायरल	-9.93729
म्हणत	-9.93762
आल्यानंतर	-9.93896
सहभागी	-9.93908
मृत्यूदर	-9.93927
आलेल	-9.93995
वितरण	-9.94059
ंजय	-9.94262
नर्स	-9.94378
गटा	-9.94573
रुप	-9.94613
पडू	-9.94863
निर्देश	-9.94906
कंपन्यां	-9.94972
वाच	-9.94985
ाईन	-9.95228
वेल	-9.95278
तिरिक्त	-9.95291
थापि	-9.95507
कुठल्या	-9.95548
ज्येष्ठ	-9.95548
असतं	-9.95552
सर्दी	-9.95558
जोखमी	-9.95613
बायो	-9.95616
जाणाऱ्या	-9.95619
खुल	-9.95655
पक	-9.95694
वर्धन	-9.95731
भो	-9.95747
असण्याची	-9.95759
उद्भव	-9.95775
ल्ड	-9.95822
वेगळे	-9.9583
प्रकल्प	-9.95831
रण	-9.9593
जबाबदारी	-9.95962
मिळणार	-9.95979
न्य	-9.95983
लागतील	-9.96025
कंपन्या	-9.96185
तासां	-9.96247
गोष्टीं	-9.96255
सेवे	-9.96334
दि	-9.96397
ांकडून	-9.96826
साय	-9.97197
करोनाबाधित	-9.97208
माझ	-9.97345
मिनिट	-9.97434
धोक्या	-9.97509
अधिकृत	-9.9751
तंत्रज्ञान	-9.97513
त्यांचं	-9.97522
▁¦21	-9.9756
योजने	-9.97598
मेंट	-9.97608
कारक	-9.97619
संकल	-9.9764
सभा	-9.97645
नाशिक	-9.97674
मध्यम	-9.97708
सादर	-9.97832
पाहण	-9.97832
चौ	-9.97901
ॅक्ट	-9.97955
१८	-9.97972
धर्म	-9.98451
वगळ	-9.98483
वेत	-9.98814
अध	-9.98874
गट	-9.98927
िड	-9.98942
पोट	-9.99033
प्राधान्य	-9.99194
यंत्रणे	-9.99245
हॅ	-9.99296
नाहीये	-9.99322
स्त्र	-9.99412
परिषद	-9.99499
घोष	-9.99499
इतिहास	-9.99509
यशस्वी	-9.99509
युनिव्हर्सिटी	-9.99509
हर्ष	-9.99509
पाटील	-9.99511
मिळाल्या	-9.99578
पाहता	-9.99707
पाहिल	-9.99712
चुकीच	-9.99818
यांच्याशी	-9.99827
दान	-9.99902
आकडे	-9.99971
ल्याचं	-10.0002
स्वरूप	-10.0019
झाल्यास	-10.0025
जिम	-10.0026
कोणी	-10.0027
यर	-10.003
रुग्णालयां	-10.0042
्च	-10.0046
गोष्ट	-10.0079
लावल	-10.0094
बाबी	-10.0098
शिक्षणा	-10.012
वस्तू	-10.0137
साठव	-10.0146
अल्कोहोल	-10.0155
ऐवजी	-10.0155
सकारात्मक	-10.0155
मानसिक	-10.0155
महापालिका	-10.0156
जेवण	-10.0156
मूल	-10.0161
क्षणिक	-10.0161
कोणते	-10.0174
बाजार	-10.0178
सरकारनं	-10.018
सामना	-10.0181
सरकारकडून	-10.0186
मधल	-10.0197
लेख	-10.0204
मार्गा	-10.0208
क्शन	-10.0211
मनात	-10.0219
▁¦27	-10.0223
रक्ता	-10.0255
मार्	-10.0266
माध्यम	-10.0273
भार	-10.0273
क्ल	-10.0299
स्थितीत	-10.03
लागते	-10.0304
अधिकार	-10.0308
सगळ्यां	-10.0316
at	-10.0325
लोकल	-10.0326
आलेले	-10.0348
ठेवा	-10.0358
निरीक्षण	-10.036
शनिवार	-10.0363
phe	-10.0363
अनिवार्य	-10.0363
क्रमांक	-10.0363
झपाट्यान	-10.0363
पीसीआर	-10.0363
इतकी	-10.0364
बारावी	-10.0364
रशिया	-10.0364
मासिक	-10.0364
संयुक्त	-10.0366
यासंदर्भात	-10.0372
मोज	-10.0378
५०	-10.0399
मार्चपर्यंत	-10.0405
ma	-10.0409
हु	-10.0415
आई	-10.0421
मर्यादा	-10.0436
अति	-10.0438
खास	-10.0472
जिल्ह्या	-10.0482
भरती	-10.0483
महिलां	-10.0486
येतं	-10.0491
▁/	-10.0509
ंदा	-10.0525
यांचे	-10.0526
अहवाला	-10.0535
विकार	-10.0536
काळा	-10.055
नियंत्र	-10.0565
चेहऱ्या	-10.0576
इतक्या	-10.0576
कॉलेज	-10.0576
प्रत्यक्ष	-10.0576
बातम्या	-10.0576
विश्लेषण	-10.0576
सिक्वेंसिंग	-10.0576
स्थगित	-10.0576
घ्यायला	-10.0576
पुरावा	-10.0576
लागलं	-10.0576
निवड	-10.0577
शिंक	-10.058
सुरूवात	-10.0587
घेतलेल्या	-10.0589
मोहिमे	-10.0592
अभाव	-10.0592
यश	-10.0592
यूके	-10.0603
घेणं	-10.0607
उपचारासाठी	-10.0616
याचे	-10.0622
ठेवण्यासाठी	-10.0624
रूग्णांमध्ये	-10.0625
दुकानं	-10.0638
वाज	-10.0683
वर्	-10.0683
▁¦45	-10.0688
संख्येत	-10.0711
कार्यालया	-10.0721
उपाययोजना	-10.0729
कदाच	-10.0732
टप्प्या	-10.0765
णारा	-10.0768
ांमुळे	-10.0787
बंगाल	-10.0793
नेटवर्क	-10.0794
व्यतिरिक्त	-10.0794
सर्वेक्षण	-10.0794
वाजेपर्यंत	-10.0794
दहावी	-10.0795
़्	-10.0797
मिळाला	-10.0803
विश्वास	-10.0805
हवी	-10.0808
pe	-10.0815
आशा	-10.0817
ायक	-10.0825
नियमित	-10.083
खरं	-10.0839
करित	-10.0843
ताण	-10.0854
विशेषत	-10.0871
संक्रमणा	-10.0884
बोर्डा	-10.0886
समान	-10.0929
उत्पादक	-10.0942
याबद्दल	-10.0952
re	-10.0957
95	-10.1001
राष्ट्र	-10.1013
सोसायटी	-10.1016
घराबाहेर	-10.1016
असल्यामुळे	-10.1026
मूद	-10.1028
वरुन	-10.1038
इन	-10.1039
जेणे	-10.1042
निकाल	-10.1042
रुग्णालयांमध्ये	-10.1053
रिक्त	-10.1058
प्रि	-10.1098
प्रच	-10.1103
बघ	-10.1118
आणण्या	-10.1119
क्रिया	-10.1127
विरोध	-10.1132
स्क	-10.1146
असता	-10.1151
लाखां	-10.1177
er	-10.1184
वाढले	-10.1197
घेण	-10.12
बंधन	-10.1212
िस	-10.1215
ाईक	-10.1225
क्षेत्रा	-10.1229
ट्रायल	-10.1237
निधी	-10.1242
ऑक्टोबर	-10.1243
खबरदारी	-10.1243
मधुमेह	-10.1243
विक्री	-10.1243
सहाय्य	-10.1243
झोन	-10.1243
लग्न	-10.1244
कोव्हॅक्सीन	-10.1245
पेपर	-10.1249
एकत्रित	-10.1261
as	-10.1263
जणांना	-10.1275
गॅ	-10.128
गावात	-10.1293
दिस	-10.1296
कक्ष	-10.1299
सहकार्य	-10.1303
माज	-10.1315
मिळालेल	-10.132
सर्वांना	-10.1331
माध्यमां	-10.1341
नमुन	-10.1344
बैठकी	-10.1361
िटी	-10.1369
नवा	-10.1373
टोच	-10.138
पती	-10.1381
एक्स	-10.1382
कण	-10.1403
नमुन्या	-10.1403
ेअर	-10.1412
शिक्षक	-10.1416
केंद्रात	-10.1423
आयोज	-10.1433
म्हणाल	-10.1439
मानल	-10.1467
सिद्ध	-10.1472
तालुक्यात	-10.1476
मंजुरी	-10.1476
टाळेबंदी	-10.1476
निगेटिव्ह	-10.1476
ब्राझील	-10.1476
वैयक्तिक	-10.1476
सक्षम	-10.1476
व्यायाम	-10.1476
जनरल	-10.1476
घेणार	-10.1477
णारी	-10.1489
कारणी	-10.1491
पुरेश	-10.1493
प्रांत	-10.1497
मरण	-10.1523
साधला	-10.1542
धड	-10.1546
दिवसांचा	-10.1552
यापैकी	-10.1566
हजारो	-10.1575
ed	-10.1577
वाढत्या	-10.159
ण्याच्या	-10.1635
कठ	-10.1681
संनिरीक्षणा	-10.1685
िम	-10.1699
यांचं	-10.1702
आयुष्य	-10.1714
मॉडर्ना	-10.1714
अचानक	-10.1714
विनंती	-10.1714
घेणाऱ्या	-10.1714
खेळ	-10.1714
लॅब	-10.1715
शास्त्र	-10.1716
राहु	-10.1717
ठाणे	-10.1718
ेट्रिक	-10.1719
▁¦29	-10.1721
सुचव	-10.1721
संघटनेने	-10.1744
राज्यांमध्ये	-10.1748
डिज	-10.1762
वेळेत	-10.1782
अमेरिक	-10.1797
प्रवाशांना	-10.1805
िन्ह	-10.1811
उचल	-10.183
वाढल्या	-10.1843
बार	-10.1847
गेलं	-10.185
ायचं	-10.1877
दम	-10.1878
दंड	-10.1905
पास	-10.1907
मुख्यमंत्र्यां	-10.191
हित	-10.1911
ट्विट	-10.193
प्रॅक्टिस	-10.1953
ांमधील	-10.1957
न्यूमोनिया	-10.1958
फॉर	-10.1958
असोसिएशन	-10.1958
इफेक्ट	-10.1958
कोव्हिशिल्ड	-10.1958
सरासरी	-10.1958
शब्द	-10.1958
नेहमी	-10.1958
कोरिया	-10.1958
ऑफिस	-10.196
फटका	-10.196
दिवसांपूर्वी	-10.1962
विषाणूं	-10.1962
पट्ट	-10.1964
झोप	-10.1969
व्यापक	-10.1974
देशांत	-10.1982
जोशी	-10.1982
मिळवण्या	-10.1984
कार्ड	-10.1988
घ्यायच	-10.1993
डाय	-10.1998
हवेत	-10.2019
वयोगटात	-10.2042
भारतामध्ये	-10.2044
मान्य	-10.205
मध	-10.207
असण	-10.2072
धुवा	-10.209
आव	-10.2091
त्यांच्यावर	-10.2108
पोहोचल	-10.211
महत्त्व	-10.2114
मुले	-10.2115
ल्यास	-10.2125
मागच्या	-10.2136
डोक	-10.2136
.5	-10.2147
)	-10.2173
डॉक्टरांना	-10.2176
वती	-10.2178
ईन	-10.2196
घालण्या	-10.2197
भागा	-10.2198
युक्त	-10.2198
ct	-10.2201
तत्	-10.2204
इंग्लंड	-10.2208
कोव्हिशील्ड	-10.2208
छोट्या	-10.2208
नोव्हेंबर	-10.2208
वाहतुकी	-10.2208
खाजगी	-10.2208
एकमेकां	-10.2208
रोजगार	-10.2208
इमारत	-10.2208
देखरेख	-10.2209
पुरावे	-10.2209
▁¦26	-10.221
कोणाला	-10.2213
स्तरावर	-10.2216
पावले	-10.2217
ांपेक्षा	-10.2239
थंड	-10.2241
मुलांसाठी	-10.2246
तातडीन	-10.2248
राजकारण	-10.2257
शाळेत	-10.2286
कशा	-10.23
विन	-10.2314
हाल	-10.2317
ॅक्स	-10.2321
होण्यास	-10.2328
मोठं	-10.2337
ँड	-10.2341
पालकां	-10.2344
आपला	-10.2345
कसे	-10.2348
काढण्या	-10.2358
नाथ	-10.2366
सुधार	-10.2392
प्रयोगशाळेत	-10.2392
अखेर	-10.2405
यादी	-10.2415
नातेवाईक	-10.2448
अँटीबॉडी	-10.2454
युरोप	-10.2454
गैर	-10.2463
गुजरात	-10.2464
बुधवार	-10.2464
लगेच	-10.2464
संधी	-10.2464
साधन	-10.2465
हवं	-10.2465
इराण	-10.2465
प्रतिक्रिया	-10.2466
कोविन	-10.2467
म्बो	-10.2467
अंश	-10.2468
वास्तव	-10.2468
कुणा	-10.2469
प्रथिन	-10.2471
३०	-10.2479
पसरतो	-10.2488
ii	-10.2489
सर्वसामान्य	-10.2494
प्रशिक्षण	-10.2496
पाठवण्या	-10.2501
कारणं	-10.2509
पक्षी	-10.2523
त्ता	-10.2529
तापमाना	-10.253
औषधं	-10.2537
घरीच	-10.2551
संख्य	-10.2575
ाबद्दल	-10.2576
नवी	-10.2592
वाढते	-10.2593
नवे	-10.2604
ायत	-10.2633
कोरोनाग्रस्त	-10.2637
टाळा	-10.2641
सूचनां	-10.2647
वापरले	-10.265
वाढला	-10.2679
बाजारात	-10.2698
ीकडे	-10.2704
उपकरण	-10.2708
दुखण	-10.2714
दुर्	-10.2716
ांपासून	-10.2716
उल्लेख	-10.2727
कॅलिफोर्निया	-10.2727
साखळी	-10.2727
सिंड्रोम	-10.2727
•	-10.2727
महानगरपालिक	-10.2727
संबोध	-10.2727
रोगजनक	-10.2727
आटोक	-10.2727
बँक	-10.2728
फरक	-10.2728
इंटर	-10.273
नुकत	-10.2733
दिल्यानंतर	-10.274
त्मक	-10.275
श्व	-10.275
हाताळ	-10.2752
पसरत	-10.277
मागो	-10.2776
अभ्यासात	-10.279
ालेय	-10.2793
सीमा	-10.2795
याचं	-10.2797
त्यानुसार	-10.2812
शोधण्या	-10.2813
नको	-10.2817
लसीकरणाच	-10.2826
अमेरिका	-10.2833
श्री	-10.2835
पू	-10.284
पाहाय	-10.2848
उभार	-10.2851
वातावरण	-10.2852
ar	-10.2925
तापमान	-10.2935
जबाबदार	-10.2939
चालव	-10.2939
सातत्यान	-10.2955
नियमां	-10.2965
राहू	-10.2972
प्रकाश	-10.2985
पृष्ठभाग	-10.2994
व्यवस्थे	-10.2996
संचारबंदी	-10.2997
पालघर	-10.2997
वसई	-10.2998
प्रतिनिधी	-10.2999
पथक	-10.3
बिघड	-10.3
देणाऱ्या	-10.3002
व्हेंटिलेटर्स	-10.3006
स्वीकार	-10.3006
रूप	-10.3008
पडल्या	-10.3022
लक्षणां	-10.3044
अर्थात	-10.3051
उपमुख्यमंत्र	-10.3057
न्ट	-10.3058
राहील	-10.3072
न्यु	-10.3074
लशीला	-10.308
फुफ्फुसा	-10.3084
दुसर	-10.312
रूग्णांच्या	-10.313
उपस्थिती	-10.3147
छातीत	-10.3166
वयाच	-10.3169
िव्ह	-10.3181
मिळाले	-10.319
es	-10.3237
;	-10.3243
प्रजाती	-10.3275
उड्डाण	-10.3275
नैसर्गिक	-10.3275
प्रावस्था	-10.3275
फार्मा	-10.3275
मूल्यांकन	-10.3275
लढाई	-10.3275
बहुतेक	-10.3275
इतके	-10.3275
अॅक्टिव्ह	-10.3275
इतका	-10.3275
मुखवट	-10.3276
एअर	-10.3277
विजय	-10.3279
इंडिय	-10.3279
प्रयोग	-10.328
जिकल	-10.328
व्यापार	-10.328
आरटी	-10.3281
मृत्युदर	-10.3281
खोल	-10.3285
ड्र	-10.329
तोड	-10.3296
युनिट	-10.3299
र्जी	-10.3301
संख्येन	-10.3311
वेगवेगळ	-10.3346
शासना	-10.3362
रूग्णालयात	-10.3366
भि	-10.3373
सार	-10.3376
गल	-10.3377
गाठ	-10.3387
सिन	-10.3423
मिळू	-10.3443
-1	-10.3447
जाता	-10.3461
शहरा	-10.3466
यंत्र	-10.3524
बंधनकार	-10.3527
सापडल	-10.353
प्रतिकार	-10.354
रंग	-10.3556
च्छ	-10.356
तुटवड्या	-10.3561
आयसीयू	-10.3561
कँडीडेट	-10.3561
दैनं	-10.3561
स्वॅब	-10.3561
िटल	-10.3561
तज्ञ	-10.3561
अश्या	-10.3561
जलद	-10.3561
पीपी	-10.3567
चंद्र	-10.357
गाडी	-10.3571
ंडवे	-10.3572
वाहन	-10.3576
खंड	-10.3581
उपचारांसाठी	-10.3587
धन	-10.3589
त्यापैकी	-10.3608
शहरां	-10.3612
राबव	-10.3639
बरं	-10.3652
१३	-10.3655
याशिवाय	-10.3668
दिसल	-10.3676
युद्ध	-10.3711
पल्	-10.3729
़	-10.3762
उपायां	-10.3764
६०	-10.3775
मुद्द	-10.3785
प्राण	-10.3804
हवे	-10.3811
मंत्र्यां	-10.3823
वैशिष्ट्य	-10.3855
ऐ	-10.3855
तात्पुरत	-10.3855
दिवाळी	-10.3855
विस्तार	-10.3855
गुरुवार	-10.3855
दृष्टीने	-10.3855
पूनावाला	-10.3855
सक्रिय	-10.3855
इतकं	-10.3855
फोटो	-10.3855
परिसरात	-10.3855
शारीर	-10.3855
गुणकार	-10.3856
सारखा	-10.3857
माहीत	-10.3857
स्टेट्स	-10.386
भाजी	-10.3863
कोरोनाग्रस्तां	-10.3863
कायद्या	-10.3866
समूह	-10.3866
लक्षणीय	-10.3869
रोगप्रतिकारक	-10.3873
आणण्यासाठी	-10.3879
शहरांमध्ये	-10.3889
ठेवून	-10.389
लोकांचं	-10.3901
विभागाने	-10.3939
ti	-10.396
न्न	-10.3961
कोव्ह	-10.3966
पक्षा	-10.3966
gi	-10.3985
संशोधना	-10.3988
विल्	-10.3997
िस्ट	-10.4027
होताना	-10.403
ठरत	-10.4056
कर्त्या	-10.4057
विकत	-10.406
ांनुसार	-10.4066
पद्धत	-10.4074
क्षमते	-10.4104
नियामक	-10.411
तोंडा	-10.4122
युरोपिय	-10.4123
आढळत	-10.4135
लिंग	-10.4141
प्रतिकारशक्ती	-10.4156
विषाणूरोध	-10.4158
आणीबाणी	-10.4158
न्युमोनिया	-10.4158
वेबसाईट	-10.4158
आघाडी	-10.4158
गोपनीयत	-10.4158
मोबाईल	-10.4158
सगळी	-10.4158
कॅनडा	-10.4158
सिस्टम	-10.4158
मार्गदर्शन	-10.4158
स्वतंत्र	-10.4159
मीटर	-10.4166
नियमांचं	-10.417
पोशिंद्या	-10.4172
करीत	-10.4173
अलीकड	-10.4174
ायिक	-10.4175
विभागात	-10.4194
पोलिसांन	-10.4197
कोरडे	-10.42
लागतो	-10.4202
▁¦2.	-10.4205
देऊन	-10.4213
द्यावी	-10.4225
सूद	-10.4229
एच	-10.4237
झाल्यावर	-10.4239
अँ	-10.4243
कोटीं	-10.4253
सांगा	-10.4257
आल्यास	-10.4268
मर	-10.4291
पळ	-10.4292
इम	-10.4298
म्हण	-10.4319
.7	-10.4325
रुग्णालयांना	-10.4338
जाग	-10.436
मृत्यूंच	-10.4404
कार्यक्षमत	-10.4415
घालत	-10.4417
यापूर्वी	-10.4451
वाढता	-10.4456
प्रदेशात	-10.446
गोंधळ	-10.447
आपात्काल	-10.4471
प्रौढ	-10.4471
लूकस	-10.4471
[	-10.4471
प्रस्ताव	-10.4471
मंगळवार	-10.4471
हायड्र	-10.4471
पोहच	-10.4471
गमाव	-10.4471
विरार	-10.4471
सेवक	-10.4473
ओळखपत्र	-10.4475
मित्र	-10.4476
कुणी	-10.4477
आपत्ती	-10.4479
उंट	-10.4482
आदी	-10.4485
गेल्यावर्षी	-10.4487
घसा	-10.4492
मंत्र्यांनी	-10.4494
्काळ	-10.4499
जोर	-10.4499
शिक्ष	-10.4507
43	-10.4507
क्लो	-10.4509
बोलत	-10.4517
सरकारकडे	-10.4518
आकार	-10.4526
आरोग्यसेवा	-10.4548
उपलब्धता	-10.4551
लोकांसाठी	-10.4554
उतर	-10.4559
लशीमुळे	-10.457
लावला	-10.457
पसरला	-10.4575
२५	-10.4594
मोदींन	-10.4597
हानी	-10.4617
सीई	-10.4617
वापरता	-10.4632
मीडियावर	-10.4649
वैज्ञानिक	-10.4654
संदर्भ	-10.4674
१६	-10.4704
स्टिक	-10.4704
क्यु	-10.4723
ठी	-10.4735
४०	-10.4763
राहण	-10.4765
यांच्यावर	-10.4772
कुंभमेळ	-10.4791
कचऱ्याच	-10.4793
उद्दिष्ट	-10.4793
एजन्सी	-10.4793
गुंतागुंत	-10.4793
प्लॅटफॉर्म	-10.4793
मॉडेल	-10.4793
अंतिम	-10.4793
जनुकीय	-10.4793
जिल्हाधिका	-10.4793
लिहिलं	-10.4793
लॉकडॉऊन	-10.4793
सगळं	-10.4793
स्थलांतर	-10.4793
राहणाऱ्या	-10.4793
वर्तमान	-10.4793
प्लांट	-10.4793
सामग्री	-10.4793
डायरिया	-10.4793
केरळ	-10.4793
इथं	-10.4793
अतिदक्षत	-10.4793
नक्की	-10.4793
जपान	-10.4793
वर्णन	-10.4794
▁]	-10.4794
win	-10.4795
प्रतिजैविक	-10.4796
विज्ञान	-10.4796
निधन	-10.4797
कोडिंग	-10.4797
▁¦500	-10.48
प्पी	-10.4801
▁–	-10.4801
डोसेस	-10.4805
मुख्यमंत्र्यांनी	-10.4806
ाइड	-10.4806
सुपर	-10.4807
स्वच्छते	-10.4821
तक्रारी	-10.4832
बोट	-10.4835
अग्र	-10.4836
रुग्णवाढ	-10.4838
द्याव	-10.4883
सिटी	-10.4899
ंगण	-10.4918
20	-10.492
टिंग	-10.4939
रेड	-10.4947
पद्धतीं	-10.4967
पोलिसां	-10.498
संघ	-10.4988
ट्ट	-10.5002
वर्गा	-10.5006
पाहिजेत	-10.5007
यांसारख	-10.501
रूग्णा	-10.5034
टाळण	-10.5061
दिसण्या	-10.5094
आगी	-10.51
संसर्गित	-10.5102
बांध	-10.512
डोळ	-10.5122
वर्षांवर	-10.5123
प्रोत्साह	-10.5126
रेस्पिरेटर	-10.5126
अचूक	-10.5126
आरएनए	-10.5126
औरंगाबाद	-10.5126
नुकसान	-10.5126
प्रतिपिंड	-10.5126
रेड्डी	-10.5126
विश्वविद्यालय	-10.5126
शुद्ध	-10.5126
हैदराबाद	-10.5126
ऑगस्ट	-10.5126
पैसे	-10.5126
मिळालं	-10.5127
गाड्या	-10.5127
दबाव	-10.5127
संकेत	-10.5127
ठोस	-10.5127
स्वयं	-10.5127
आश्रय	-10.5127
चांगला	-10.5127
अडक	-10.5127
स्पेन	-10.5127
ढकलल	-10.5128
साहित्य	-10.5128
किराण	-10.513
अटक	-10.5132
प्रॅक्टिसेस	-10.5132
शंका	-10.5134
पोशिंद	-10.5136
पडले	-10.5137
tra	-10.5138
मिशन	-10.5138
प्रकरणा	-10.5149
शेती	-10.5152
त्वचे	-10.5176
विर	-10.5192
त्वचा	-10.5198
दू	-10.5201
अखेरी	-10.5204
वर्ध	-10.5205
करार	-10.5228
दुखत	-10.523
उपाययोजनां	-10.5231
व्यक्ति	-10.5239
प्रमाणेच	-10.5243
शकणार	-10.5278
घटकां	-10.5288
प्रतिरोध	-10.5291
कुटुंबा	-10.5294
वापरल्या	-10.5346
फेस	-10.5364
िज	-10.5374
रूग्णांना	-10.5378
पाठवल	-10.5382
बाळा	-10.5403
११	-10.5417
तासांत	-10.5427
तातडी	-10.5432
नोंदवल	-10.5443
सावं	-10.546
मालक	-10.5463
आफ्रिक	-10.5466
रक्तात	-10.5466
पालिका	-10.547
पालिके	-10.547
अॅस्ट्राझेनका	-10.5471
वॉर्ड	-10.5471
सारखं	-10.5471
हस्तक्षेप	-10.5471
#	-10.5471
आंदोलन	-10.5471
ट्रम्प	-10.5471
व्यवहार	-10.5471
स्पुटनिक	-10.5471
ट्रेसिंग	-10.5471
कचरा	-10.5472
अमित	-10.5472
दवाखान्यात	-10.5472
विद्यमान	-10.5472
रोगप्रतिकारशक्ती	-10.5474
राजस्थान	-10.5476
बालकां	-10.5482
ठरल	-10.5487
तब्येत	-10.5489
दिलासा	-10.5499
डॉलर	-10.5509
गेलेल्या	-10.5512
मनो	-10.5521
झाल्यामुळे	-10.5521
सद्यस्थिती	-10.5523
बाकी	-10.5524
क्षमतेने	-10.5525
घटने	-10.5529
पाळत	-10.5529
बाय	-10.5538
संस्थां	-10.5539
कालावधीत	-10.5553
ाऊन	-10.5555
टप्पा	-10.5566
फुफ्फुस	-10.5568
ांपर्यंत	-10.5573
आयात	-10.5577
विनाश	-10.5578
लाखो	-10.559
प्रतिबंधक	-10.5599
द्यावे	-10.5605
प्रयोगशाळा	-10.5614
बसला	-10.5619
eu	-10.5656
मृत	-10.5672
क्षेत्रां	-10.5706
राहाव	-10.5711
शांत	-10.5724
नियोज	-10.5724
हायला	-10.5728
लक्ष्य	-10.5743
असण्या	-10.5743
संस्थेने	-10.5747
थील	-10.5748
पक्ष	-10.5753
नावाच	-10.5775
राहा	-10.5783
मुळ	-10.5786
याकडे	-10.5795
ज्यांच	-10.5795
प्राण्या	-10.5798
१४	-10.5819
स्टेट	-10.5823
सूक्ष्म	-10.5827
तंत्र	-10.5828
ोलॉजी	-10.5828
कॉन्ट	-10.5828
ऑनलाइन	-10.5828
जुलै	-10.5828
मजुरां	-10.5828
शिथिल	-10.5828
ऍ	-10.5828
दुपारी	-10.5828
पेशंट	-10.5828
मायक्रो	-10.5828
आमदार	-10.5828
रस्त्यावर	-10.5828
मंडळा	-10.5829
मार्केट	-10.5829
वक्तव्य	-10.5829
सर्व्हे	-10.5829
अतिसार	-10.5829
डिस्टन्सिंग	-10.5829
उशीर	-10.5831
पहिल्यांदा	-10.5832
बांधकाम	-10.5835
स्थिर	-10.5838
dc	-10.5841
संसाधन	-10.5841
पार्ट	-10.5841
यातील	-10.5844
उद्या	-10.5856
भावना	-10.586
आपल्याकडे	-10.5862
वाढलं	-10.5867
लोकसंख्या	-10.5876
78	-10.5876
आल्याचं	-10.5895
नोंदवले	-10.5903
विकासा	-10.5925
कामगारां	-10.5926
वर्षभरात	-10.5938
आल्याने	-10.5952
मीडिया	-10.599
पडल	-10.6013
अपेक्षा	-10.6032
पोर्ट	-10.6045
यावी	-10.6048
ऑस्ट्रेलिया	-10.6065
स्को	-10.6083
सिंग	-10.6091
विलगीकरणात	-10.6091
पाठवले	-10.6105
मुद	-10.6123
मराठ	-10.6131
क्रिये	-10.6136
वापरण्यात	-10.614
ओळखण्या	-10.616
”	-10.6166
परदेश	-10.6173
मना	-10.6194
आख	-10.6194
k	-10.6198
अनलॉक	-10.6199
उत्परिवर्तन	-10.6199
निवडणुकी	-10.6199
महापौर	-10.6199
म्युकरमायकोसिस	-10.6199
राजधानी	-10.6199
वरिष्ठ	-10.6199
द्राव	-10.6199
स्टोअर	-10.6199
इच्छा	-10.6199
रक्तदाब	-10.6199
मुंडे	-10.6199
टक्केवारी	-10.6199
चांगली	-10.6199
तणाव	-10.62
घातक	-10.62
icmr	-10.62
नकारात्मक	-10.62
कोर्टा	-10.62
कर्ज	-10.62
कुंभमेळ्यात	-10.6201
अँटी	-10.6201
प्रोट	-10.6202
थांबवण्या	-10.6202
दुर्लक्ष	-10.6203
अद्यतन	-10.6203
कोल्ड	-10.6203
बालरोग	-10.6204
नोंदवण्या	-10.6204
बीटा	-10.6206
दिवसभरा	-10.6209
लढण्यासाठी	-10.6209
ाखाली	-10.621
माझा	-10.621
घेतलं	-10.6216
राखण	-10.6219
दीड	-10.622
ब्यात	-10.6237
ाणू	-10.6238
केंद्रावर	-10.6259
पाहिलं	-10.626
फंड	-10.6267
गुण	-10.6282
बाळग	-10.6287
तुमचा	-10.6303
अंग	-10.6317
गतीन	-10.6335
आळ	-10.6338
मुलांची	-10.634
व्हायच	-10.6344
लाटेचा	-10.635
अनि	-10.6358
नागरिकांन	-10.6365
तब्	-10.6374
मंत	-10.6377
न्याय	-10.6378
पदार्थ	-10.6381
प्रयोगशाळां	-10.6431
खाटा	-10.6454
शाळे	-10.6467
रूग्णालय	-10.6467
पालकमंत्र	-10.6488
संयोज	-10.6522
अमरावतीत	-10.6525
माणसां	-10.6538
उत्त	-10.6552
बू	-10.6562
रोगप्रतिकार	-10.6563
सुरक्षे	-10.6566
सहभाग	-10.6566
धाव	-10.6566
फेक	-10.6573
तिथं	-10.6579
फ्रंटला	-10.6583
उल्लंघन	-10.6583
कुठली	-10.6583
कृष्ण	-10.6583
दुप्पट	-10.6583
पुनावाला	-10.6583
पॅनगोलिन्स	-10.6583
सगळे	-10.6583
सिलिंडर	-10.6583
सिलेंडर	-10.6583
हुबेई	-10.6583
भविष्यात	-10.6583
भूषण	-10.6583
दोघां	-10.6583
ट्रान्स	-10.6583
मजूर	-10.6583
घालणे	-10.6583
अनावश्यक	-10.6583
चांगलं	-10.6584
आनंद	-10.6584
चांगल्या	-10.6584
चांगले	-10.6584
उपचारां	-10.6584
जुना	-10.6584
फूट	-10.6584
मलिक	-10.6584
नव्हे	-10.6585
कच्च	-10.6586
किलो	-10.6592
सांगू	-10.6593
मागितल	-10.6595
टेस्टिंग	-10.6597
प्रश्नांची	-10.6602
परवान	-10.6611
हॉस्पिटल्स	-10.6611
यंदा	-10.6619
तीव्रता	-10.662
झेन	-10.6625
सोयी	-10.6631
देण्यास	-10.6637
फोर्सचे	-10.6643
ांबाबत	-10.6659
प्रवाश	-10.6667
नऊ	-10.6673
इतरांना	-10.6677
ठेवता	-10.6682
निघाल	-10.6692
संशोधकांन	-10.6697
डॅ	-10.67
थोडा	-10.6702
आयोजन	-10.6707
ra	-10.6709
जाणं	-10.6717
डॉक्टरांन	-10.6724
िअर	-10.6734
आणल	-10.676
37¦	-10.6792
पडता	-10.6816
२००	-10.6828
जिल्ह	-10.6828
सेवेत	-10.6839
टाळण्यासाठी	-10.6841
सेट	-10.6843
द्ध	-10.6849
टीम	-10.6864
पहिल	-10.6872
कल्पना	-10.69
१२	-10.6906
विधान	-10.6914
75	-10.6919
औषधाच	-10.6931
मुला	-10.6937
नाशक	-10.6938
चुक	-10.6941
शास्त्रज्ञ	-10.6946
शांक	-10.6976
संशय	-10.6977
कारखान	-10.698
चिकित्सा	-10.6983
क्लोरोक्वीन	-10.6983
ह्रदय	-10.6983
कित्येक	-10.6983
गांधी	-10.6983
गांभीर्य	-10.6983
दृष्टीकोन	-10.6983
दृष्ट्या	-10.6983
प्राध्याप	-10.6983
शुल्क	-10.6983
संवेदनशील	-10.6983
समारंभ	-10.6983
सविस्तर	-10.6983
सिंगापूर	-10.6983
फैलाव	-10.6983
जेसिका	-10.6983
महिले	-10.6983
व्याधी	-10.6983
सिंह	-10.6984
अब्ज	-10.6984
निदर्शना	-10.6984
कळवि	-10.6984
स्वरुपाच	-10.6984
सर्वोच	-10.6984
२०२०	-10.6985
अर्थव्यवस्थे	-10.6985
शोक	-10.6986
दूरस्थ	-10.6986
निर्यात	-10.6989
जहाज	-10.6989
बरा	-10.699
आफ्रिकेत	-10.699
जिल्ह्यांमध्ये	-10.6991
ट्रायल्स	-10.6993
अल्प	-10.6994
रियल	-10.6999
us	-10.6999
अँटीबॉडीज	-10.6999
ro	-10.7
सर्वसाधारण	-10.7004
चक्र	-10.7017
पाहून	-10.7019
सोमवारी	-10.7023
वाढवण्यासाठी	-10.7023
रब	-10.7025
वाजता	-10.7028
मंजूरी	-10.7033
भाजपा	-10.7033
शेख	-10.7034
बंध	-10.7039
मुद्दा	-10.7044
४३	-10.7054
ड्राय	-10.7056
व्हर्	-10.7077
निर	-10.708
बोलाव	-10.709
व्याप	-10.7098
सुधारण	-10.7105
परदेशात	-10.7114
▁¦0.	-10.7121
रोखण्या	-10.7126
▁¦33	-10.7142
थकव	-10.7147
मंत्रालय	-10.718
नकार	-10.7243
शिर	-10.7253
ch	-10.7256
मानवां	-10.7269
पक्षनेत	-10.7299
सांगितल	-10.7305
२२	-10.7341
शास	-10.7346
न्यायालय	-10.7371
दिसू	-10.7388
परीक्षे	-10.74
कर्फ्यू	-10.74
डिस्टंसिंग	-10.74
विस्तृत	-10.74
व्हीडिओ	-10.74
जिवंत	-10.74
सीडीसी	-10.74
सुरवात	-10.74
स्नायू	-10.74
आपापल	-10.74
ब्रेक	-10.74
रिसर्च	-10.74
सेरोलॉज	-10.74
कागदपत्र	-10.7401
नाईट	-10.7403
पीएम	-10.7405
ाऊंड	-10.7405
नातेवाईकां	-10.7407
कंट्रोलर	-10.7413
शकणाऱ्या	-10.7414
कर्मचाऱ्यांनी	-10.7416
▁¦48	-10.742
अर्धा	-10.7422
ब्रिट	-10.7427
स्त्राव	-10.7436
तिसरी	-10.7439
प्रतिमा	-10.7453
ठाकरेंन	-10.7455
राज्यांत	-10.7455
निघ	-10.7456
शासन	-10.7466
स्वतःच	-10.747
नवाब	-10.7514
योज	-10.7521
पसरण्याच	-10.7524
डोन	-10.7525
92	-10.7543
संघा	-10.7551
बनवण्या	-10.7562
लागण्याच	-10.7569
ce	-10.7578
टेड	-10.7595
ल्प	-10.76
वर्षात	-10.7624
se	-10.7662
आलेख	-10.767
लोकांवर	-10.7677
फॅ	-10.7696
कुटुंबात	-10.7746
ज्यांच्या	-10.7748
ियम	-10.7752
आढळल्या	-10.7813
समूहा	-10.7819
ऩ	-10.7831
x	-10.7833
विलग	-10.7835
संध्याकाळ	-10.7835
अध्ययना	-10.7835
केजरीवाल	-10.7835
कोल्हापूर	-10.7835
जनजागृती	-10.7835
जॉन्सन	-10.7835
दुष्परिणाम	-10.7835
पाकिस्तान	-10.7835
शेकडो	-10.7835
समन्वय	-10.7835
सिस्टिम	-10.7835
हॉटस्पॉट	-10.7835
वंचित	-10.7835
कुठला	-10.7835
धक्का	-10.7835
तारीख	-10.7835
दोष	-10.7835
सल्ल्या	-10.7835
आवृत्ती	-10.7835
आम्ल	-10.7835
द्यायला	-10.7835
घालून	-10.7835
निर्जंतुकीकरण	-10.7835
हंगाम	-10.7835
अंमल	-10.7836
तत्त्व	-10.7836
चंद्रपूर	-10.7836
स्कूल	-10.7837
रामदेव	-10.7837
परिषदेत	-10.7837
मध्यस्थ	-10.7837
मतदान	-10.7838
राज्यभरात	-10.7838
रविंद	-10.7838
पोहोचवण्या	-10.784
भ्र	-10.7853
▁¦400	-10.7871
द्यायच	-10.7873
वस्तूंच	-10.7873
जास्तीत	-10.788
नसल्यास	-10.7882
प्ले	-10.7898
जायच	-10.7901
सुरक्षितत	-10.7902
जाण्यासाठी	-10.7906
da	-10.7907
राहून	-10.7914
निवास	-10.7919
64	-10.7924
करोनाबाधितांच	-10.7938
"	-10.7982
वाढतो	-10.7985
झाक	-10.7996
साठ	-10.8003
टप्प्यां	-10.802
पाड	-10.8028
300	-10.8032
लावण	-10.8052
ाईड	-10.8073
93	-10.8079
सुट	-10.8142
ड्रग	-10.8174
२१	-10.8185
सेंट	-10.8205
कोरड	-10.823
स्थित	-10.8265
कंपन्यांन	-10.8276
ज्ञान	-10.8284
अल्कोहल	-10.8289
पर्यटन	-10.8289
युनेस्को	-10.8289
औ	-10.8289
दूषित	-10.8289
पिंपरी	-10.8289
हाँगकाँग	-10.8289
२२९ई	-10.8289
सेकंद	-10.8289
दर्जा	-10.8289
प्रार्थना	-10.8289
अॅडव्ह	-10.8289
जिल्हाधिकाऱ्यां	-10.8289
राऊत	-10.8289
स्वरुपात	-10.8289
बिहार	-10.8289
अवघड	-10.8289
मोकळ	-10.8289
परवड	-10.829
राष्ट्राध्यक्ष	-10.829
देखभाल	-10.829
ायदेशीर	-10.829
वाईट	-10.829
कल्याण	-10.829
पुनर्	-10.829
चोळ	-10.829
आशिया	-10.829
सामोर	-10.8291
rtpc	-10.8291
ायटीस	-10.8291
नर्सेस	-10.8292
खोलीत	-10.8292
श्वसनमार्गा	-10.8293
शेतक	-10.8294
बचाव	-10.8294
प्रभावीपणा	-10.8294
स्पष्टीकरण	-10.8295
अर्थव्यवस्था	-10.8295
लंडन	-10.8297
अनुसर	-10.8298
घसर	-10.83
टक्क्यांपर्यंत	-10.8306
संरक्षक	-10.8312
बराच	-10.8317
दुर्ग	-10.8323
अपुर	-10.8334
महापालिकेने	-10.8338
वेगळ्या	-10.8339
प्रवासावर	-10.8343
ँग	-10.8356
शस्त्रक्रिय	-10.8357
पत्रात	-10.8358
युरोपात	-10.8359
पक्षां	-10.8394
रेख	-10.8469
ुरेश	-10.8469
दुखण्या	-10.847
भागांत	-10.8503
me	-10.8581
स्वरूपाच	-10.8606
्षिक	-10.8623
वितरणा	-10.8656
६३	-10.8672
चायन	-10.8694
मंजूर	-10.8707
तक्रार	-10.8707
सोय	-10.8709
४५	-10.871
व्हायर	-10.8725
ग्राहक	-10.8728
संरक्ष	-10.8737
कंट्रोल	-10.8751
उड	-10.8751
पुढच	-10.8755
पाळण	-10.8762
निर्जंतुक	-10.8765
$	-10.8766
चिंचवड	-10.8766
डब्लूएचओ	-10.8766
थेरपी	-10.8766
दूतावास	-10.8766
मृतदेह	-10.8766
सुरळीत	-10.8766
हॅण्ड	-10.8766
राष्ट्रवादी	-10.8766
सुट्टी	-10.8766
आरंभ	-10.8766
इंटरनेट	-10.8766
जिल्ह्य़ात	-10.8766
मेसेज	-10.8766
▁¦2019-20	-10.8766
स्रोत	-10.8766
पावलं	-10.8766
माणसं	-10.8766
घातली	-10.8766
विभाज	-10.8766
बॅट	-10.8766
वर्कर्स	-10.8767
सलग	-10.8767
दौर	-10.8767
सूत्र	-10.877
कार्यस्थळ	-10.877
अंगावर	-10.8771
सांगायच	-10.8775
अर्ध्या	-10.8775
वर्क	-10.8775
रुपयांच	-10.8775
घालण्यासाठी	-10.8792
औषधांचा	-10.8797
शासनाने	-10.8798
कुटुंबीयां	-10.8804
कडील	-10.8805
चर्च	-10.8814
गामी	-10.8819
वंश	-10.8825
िन्स	-10.8843
त्तर	-10.8846
वाढण्या	-10.8859
ालय	-10.8879
राखण्या	-10.8891
ठेवत	-10.8893
र्ण	-10.8949
फेटाळ	-10.895
पुरवठादार	-10.8963
सपोर्ट	-10.8968
उद्	-10.8977
खाटांच	-10.9018
वातावरणात	-10.903
अधिकाऱ्या	-10.9062
१००	-10.9064
वयोगटा	-10.9092
मिल	-10.9131
संदेश	-10.9139
अग्नि	-10.9142
वीज	-10.9178
सहकार	-10.9193
पाहत	-10.9222
ठरवल	-10.9246
शिल्	-10.9257
खाद्य	-10.9266
अस्तित्व	-10.9266
z	-10.9266
ऋ	-10.9266
जिवाणू	-10.9266
निष्क्रिय	-10.9266
सोलापूर	-10.9266
http	-10.9266
अजिबात	-10.9266
कुठले	-10.9266
कृषी	-10.9266
दृष्टिकोन	-10.9266
समर्थन	-10.9266
सहकाऱ्यां	-10.9266
सुश्रुष	-10.9266
चिंताजनक	-10.9266
प्ताह	-10.9266
विमानतळ	-10.9266
कागद	-10.9266
जंतु	-10.9266
मोहन	-10.9266
स्कॅन	-10.9266
पांडे	-10.9266
विवेक	-10.9266
अनुकूल	-10.9266
बरीच	-10.9266
गुन्ह	-10.9267
मांजर	-10.9267
उपयुक्त	-10.9267
आवरण	-10.9267
ट्रॅकिंग	-10.9267
घरोघर	-10.9268
अपवाद	-10.9269
नशील	-10.927
त्याचबरोबर	-10.9271
प्रवक्त	-10.9271
अपयश	-10.9272
रिटी	-10.9273
पृष्ठभागावर	-10.9273
मांस	-10.9274
स्वस्त	-10.9274
हँड	-10.9275
स्टेशन	-10.9276
व्हिड	-10.9279
ियो	-10.928
अँप्स	-10.9281
संस्थांनी	-10.9282
गुत	-10.9285
नातेवाईकांना	-10.9288
अनाथ	-10.9288
युकेत	-10.9295
साडे	-10.9303
बायड	-10.931
माणसा	-10.9325
सापडलेल	-10.9327
रोधक	-10.9329
नसताना	-10.9329
गेट	-10.9333
कोळ	-10.9335
विधानसभ	-10.9363
घातल्या	-10.9382
पडण्या	-10.9398
72	-10.9429
ठरणार	-10.943
वृत्तसंस्थे	-10.9441
टप्प	-10.9547
गटात	-10.9548
बोर्ड	-10.9573
बाधितांच	-10.9605
शिक्षणमंत्र	-10.9677
ड्रायर	-10.9699
66	-10.9708
२८	-10.9714
शस्त्र	-10.9728
माहित	-10.9738
वर्तन	-10.9739
दीर्घ	-10.9782
द्योग	-10.979
व्हॅक्सीन	-10.979
दुर्दैव	-10.9792
आखाड्या	-10.9792
प्राधिकरणा	-10.9792
उन्हाळ	-10.9792
खोकताना	-10.9792
तालुका	-10.9792
पशूजन्	-10.9792
बायोएनटेक	-10.9792
रिकव्हरी	-10.9792
हाफकिन	-10.9792
पॅकेज	-10.9792
हरिद्वार	-10.9792
टाईम	-10.9792
सल्लागार	-10.9792
उर्वर	-10.9792
नागरी	-10.9792
स्त्रोत	-10.9792
प्रधान	-10.9792
प्रामुख्यान	-10.9792
तेवढ	-10.9792
गरम	-10.9792
सेप्ट	-10.9793
आत्तापर्यं	-10.9794
अलिकड	-10.9794
ेश्वर	-10.9795
बद्ध	-10.98
कारणांमुळे	-10.98
९०	-10.9801
सीए	-10.9801
ग्राम	-10.9803
भौ	-10.9803
अद्य	-10.9805
आभार	-10.9809
साऊ	-10.981
णूक	-10.9811
बाळ	-10.9812
मनपा	-10.9812
सोन	-10.9812
ओसी	-10.982
प्रत्येकाला	-10.9825
असावी	-10.9827
53	-10.9842
ांमधून	-10.9878
सॅनिटा	-10.9907
ठराव	-10.9917
कळल	-10.9928
ड्रग्	-10.9942
पुरवण्या	-10.9951
समजाव	-10.9975
ाळे	-10.999
ाइक	-10.9994
पुरुषां	-11.0005
मृतांच	-11.0029
जाणवल	-11.0038
क्लब	-11.0095
नोव	-11.0108
96	-11.0122
ig	-11.0132
३६	-11.019
०००	-11.0234
शिकवण	-11.0239
''	-11.0257
साईड	-11.0261
वापरण	-11.031
खाण्या	-11.0314
नसल	-11.0343
ञ	-11.0347
तारखे	-11.0347
eea	-11.0347
आदिवासी	-11.0347
एरोसोल	-11.0347
कामगिरी	-11.0347
कार्यकर्ते	-11.0347
कौतुक	-11.0347
गुठळ्या	-11.0347
जीनोम	-11.0347
थायलंड	-11.0347
दृश्य	-11.0347
न्फ्लुएन्झा	-11.0347
प्रदूषण	-11.0347
बाजारपेठा	-11.0347
मेडिसिन	-11.0347
व्यवस्थित	-11.0347
सज्ज	-11.0347
साताऱ्यात	-11.0347
सामुदायिक	-11.0347
स्फोट	-11.0347
हायपॉक्सिया	-11.0347
दुरुस्त	-11.0347
विदर्भात	-11.0347
संमेलन	-11.0347
खोकल्या	-11.0347
गरोदर	-11.0347
फोर्ट	-11.0347
श्रेणी	-11.0347
हायकोर्टा	-11.0347
हल्ला	-11.0348
q	-11.0348
gen	-11.0348
जीनसंच	-11.0348
किमती	-11.0348
कूल	-11.0348
ation	-11.0348
गरीब	-11.0348
पाऊल	-11.0348
गुप्त	-11.0348
कार्यवाही	-11.0348
पगार	-11.0348
सारणी	-11.0351
रुमाल	-11.0351
मिश्र	-11.0352
▁¦800	-11.0353
युएस	-11.0358
चालना	-11.0361
व्हायला	-11.0365
बाजी	-11.0367
ठेवलं	-11.0368
ंकन	-11.038
वाटलं	-11.0384
गोलि	-11.0391
शास्त्रज्ञांन	-11.0413
ंस्कृत	-11.0419
टाळाव	-11.0464
fe	-11.0597
पत्रकारां	-11.0639
नसलेल	-11.0645
महत्व	-11.0695
अवयवां	-11.0729
मॅट	-11.0744
राबवण्या	-11.0815
सद्य	-11.0848
अडचण	-11.0858
दुकानां	-11.0859
र्फे	-11.0865
सोमवार	-11.0877
उपकरणां	-11.0877
हाताळण्या	-11.088
धारण	-11.0903
कडू	-11.0911
शास्त्रज्ञां	-11.0923
मंत्रिमंडळाच	-11.093
दवाखान	-11.0934
खवखवण	-11.0936
app	-11.0936
अंत्यसंस्कार	-11.0936
अहमदनगर	-11.0936
इलेक्ट्रॉन	-11.0936
औपचारिक	-11.0936
कर्नाटक	-11.0936
जागरूक	-11.0936
जावडेकर	-11.0936
टिश्यू	-11.0936
डेन्मार्क	-11.0936
तृतीय	-11.0936
प्लाझ्मा	-11.0936
म्ब्युलन्स	-11.0936
रेस्टॉरंट	-11.0936
व्हेंटीलेटर	-11.0936
स्टोरेज	-11.0936
बिंदू	-11.0936
शिफारशी	-11.0936
शिवसेन	-11.0936
ili	-11.0936
आसपास	-11.0936
निष्	-11.0936
वर्तवल	-11.0936
स्वागत	-11.0936
इथल्या	-11.0936
उच्चांक	-11.0936
शिवाजी	-11.0936
एनएल	-11.0936
भागीदार	-11.0936
टॅक्सी	-11.0936
पार्सल	-11.0936
साहेब	-11.0936
अँटीजेन	-11.0936
फोड	-11.0936
ग्लोब	-11.0936
निगड	-11.0936
ह्यूम	-11.0936
तिकीट	-11.0936
the	-11.0937
अऩ्	-11.0938
दीर्घकाळ	-11.0938
ox	-11.0938
वडील	-11.0939
खोट	-11.0939
वाहक	-11.0939
लिव्हर	-11.0941
छत्र	-11.0941
प्रेर	-11.0941
९९	-11.0944
७०	-11.0949
ओढ	-11.0954
राण	-11.0962
न्यायालयान	-11.0978
सत्रा	-11.1
ममता	-11.1003
्रिम	-11.1061
लावता	-11.1089
2000	-11.1092
प्रयोगशाळे	-11.1107
mis	-11.1126
छान	-11.1174
कोरोनाग्रस्तांच	-11.1203
उपाध्य	-11.1215
साठवण्या	-11.1242
ter	-11.131
दर्शन	-11.1346
वर्षभरा	-11.1372
तिसर	-11.1536
शरीर	-11.1546
कोव्हॅक्स	-11.1558
तंत्रज्ञ	-11.156
रहिवा	-11.156
फॉर्म	-11.156
अधिवेशन	-11.1561
अलगीकरण	-11.1561
उत्क्रांती	-11.1561
क्लोरोक्विन	-11.1561
गुंतवणूक	-11.1561
ध्येय	-11.1561
निवडणुका	-11.1561
पुनः	-11.1561
मुलाखती	-11.1561
रिस्पॉन्स	-11.1561
समाधान	-11.1561
समुद्र	-11.1561
हॅन्ड	-11.1561
पंढरप	-11.1561
पत्नी	-11.1561
उत्तराखंड	-11.1561
रायगड	-11.1561
कॅडिला	-11.1561
आणिबाणी	-11.1561
विलंब	-11.1561
हिवाळ	-11.1561
जन्म	-11.1561
जयंत	-11.1561
लेव्हल	-11.1561
ेन्शन	-11.1561
प्लिकेशन	-11.1561
रॅप	-11.1562
काळाबाजार	-11.1562
गैरसमज	-11.1563
uk	-11.1563
अनुदान	-11.1563
जीवाणू	-11.1563
उठव	-11.1563
गोल्ड	-11.1564
किरण	-11.1565
महाविकास	-11.1566
भाविकां	-11.1566
राज्यपाल	-11.1566
सायकल	-11.1567
कामकाज	-11.1567
ठाण्यात	-11.1568
दीर्घकाल	-11.1569
टीव्ही	-11.1571
79	-11.1578
हेतू	-11.1598
विद्य	-11.1635
निवेदन	-11.1637
निमित्त	-11.1674
सातत्य	-11.1675
अवयव	-11.1785
बोटां	-11.1793
केंद्राकड	-11.1804
महिलांन	-11.1861
ानंद	-11.1863
वगळण्या	-11.1896
उभारण्या	-11.1904
यलेट	-11.191
▁¦85	-11.1919
ंद्र	-11.1984
रोधी	-11.1994
मंत्र	-11.2162
बाध	-11.2175
शिंदे	-11.2177
पाहू	-11.2202
अल्फा	-11.2227
द्रुत	-11.2227
फटाक्यां	-11.2227
मॉड्यूल	-11.2227
अवस्था	-11.2227
आश्चर्य	-11.2227
एन्फ्ल्युएन्झ	-11.2227
एफडीए	-11.2227
झायडस	-11.2227
डाऊनलोड	-11.2227
डॅशबोर्ड	-11.2227
न्यूयॉर्क	-11.2227
पावसाळ	-11.2227
मनुष्यबळ	-11.2227
मूर्ती	-11.2227
मूल्यमापन	-11.2227
रचनात्मक	-11.2227
लॉजिस्ट	-11.2227
विषारी	-11.2227
समजातीय	-11.2227
सुनावणी	-11.2227
स्पेशालिटी	-11.2227
संयुग	-11.2227
एचकेयु	-11.2227
प्रतीक्ष	-11.2227
नोकरी	-11.2227
कळवण्या	-11.2227
सतर्क	-11.2227
अपघात	-11.2227
गुरू	-11.2227
ांत्रिक	-11.2227
चव्हाण	-11.2227
पांढ	-11.2227
ब्रुक	-11.2227
गर्भपात	-11.2227
वडिलां	-11.2228
पोषक	-11.2228
आश्वासन	-11.2228
तरूण	-11.2228
अध्यक्षतेखाली	-11.2228
दखल	-11.2228
रहिवाशांन	-11.2228
किलोमीटर	-11.2228
रितीने	-11.2228
नाराजी	-11.2229
आंतरप्रजाती	-11.2229
पूर्त	-11.2229
इम्युनिटी	-11.2229
सूक्ष्मजीव	-11.223
चित्रपट	-11.223
har	-11.2232
चालली	-11.2234
सवाल	-11.2235
जखम	-11.2237
थांबवल	-11.2259
सातार	-11.2262
लावाव	-11.2263
रहाव	-11.2275
ट्रॅक	-11.2421
वाढवण	-11.244
अभिनेत	-11.2472
ent	-11.2509
बदलण्या	-11.2539
ावाटे	-11.2584
पदार्थांच	-11.2599
अत्य	-11.2704
गृहमंत्र	-11.2755
कार्यक्षम	-11.2765
िरो	-11.2786
निमित्तान	-11.2813
:	-11.2909
साळुं	-11.2942
बुद्धी	-11.2942
व्यापाऱ्यां	-11.2942
अर्थसंकल्प	-11.2942
आदित्य	-11.2942
इन्स्टिट्युट	-11.2942
कौशल्य	-11.2942
चिकित्सक	-11.2942
नेतृत्व	-11.2942
पंजाब	-11.2942
पातळ्या	-11.2942
लर्निंग	-11.2942
वटवाघूळ	-11.2942
वॉशिंग्टन	-11.2942
सफाई	-11.2942
ॅण्टीबॉडी	-11.2942
ॉक्सीक्लोरोक्विन	-11.2942
osh	-11.2942
कन्टेनमेंट	-11.2942
केंब्रिज	-11.2942
टेक्नॉलॉजी	-11.2942
तैवान	-11.2942
पंधरा	-11.2942
प्रायोगिक	-11.2942
रणनीती	-11.2942
स्मशानभूमी	-11.2942
इच्छित	-11.2942
पोषण	-11.2942
व्याप्ती	-11.2942
2,6	-11.2942
अँजिओटेनसीन	-11.2942
थेंब	-11.2942
रक्कम	-11.2942
इमर्ज	-11.2942
एजंट	-11.2942
▁¦2012	-11.2942
जेनेटिक	-11.2942
शत्रू	-11.2942
फ्लो	-11.2942
आक्रमक	-11.2942
ठेऊ	-11.2942
ऑर्डर	-11.2942
टूथ	-11.2942
जुळ	-11.2942
कार्यकर्त्यां	-11.2942
विधी	-11.2942
सचिवालया	-11.2942
फायर	-11.2943
चालणार	-11.2943
सक्ती	-11.2943
प्रकट	-11.2944
नोंदविण्या	-11.2945
सादरीकरण	-11.2949
्लम	-11.2952
ठरवण्या	-11.2952
कपात	-11.2954
बच्	-11.2963
मिनिटां	-11.297
धुतल्या	-11.2977
मुद्द्यावर	-11.3014
ट्विटरवर	-11.3024
निर्मात	-11.3029
नोव्ह	-11.3048
फारस	-11.3068
▁¦62	-11.3074
नवजात	-11.3168
आमच्याकड	-11.3209
्लिक	-11.326
उमेदवार	-11.3278
संशोधक	-11.3289
उघडण्या	-11.3366
पुरुष	-11.3404
उत्पाद	-11.342
बोलण्या	-11.3472
व्हॅक	-11.348
सोडण्या	-11.3519
वेदना	-11.3617
विद्यार्थ्या	-11.3632
(	-11.3679
इम्युन	-11.3711
एंटेर	-11.3711
आयएमए	-11.3711
इंडस्ट्री	-11.3711
उस्मानाबाद	-11.3711
एंझाइम	-11.3711
कोरोनील	-11.3711
क्लासेस	-11.3711
चिंतेच	-11.3711
टेड्रोस	-11.3711
तरतूद	-11.3711
तुषार	-11.3711
पॅटर्न	-11.3711
फिल्टर	-11.3711
फेडरल	-11.3711
व्हेंटिलेशन	-11.3711
सक्रीय	-11.3711
समाप्त	-11.3711
सावधगिरी	-11.3711
स्प्रेडर	-11.3711
हायपोक्सिया	-11.3711
काऊंट	-11.3711
तपशील	-11.3711
निरंजन	-11.3711
नोटीस	-11.3711
विशाखा	-11.3711
शिफ्ट	-11.3711
सल्लामसलत	-11.3711
सोलापुरात	-11.3711
कंटेनमे	-11.3711
किशोर	-11.3711
लोकप्रिय	-11.3711
ool	-11.3711
अंकित	-11.3711
उष्	-11.3711
स्वयंसेवकां	-11.3711
j	-11.3711
सांगली	-11.3711
ष्टाचार	-11.3711
सवलत	-11.3711
प्रगती	-11.3711
श्ले	-11.3711
आठवण	-11.3711
ट्रीट	-11.3711
गंगा	-11.3712
नाकारता	-11.3712
दिशेन	-11.3712
पर्वा	-11.3712
सावध	-11.3715
रमेश	-11.3723
पटींन	-11.3728
मजब	-11.3737
भरण्या	-11.3763
पर्यटकां	-11.3863
भोवत	-11.3867
मारण्या	-11.3975
पत्त	-11.4014
नोंदविल	-11.4106
ाध्यक्ष	-11.4157
जोडण्या	-11.4183
ायझेशन	-11.4362
पर्यटक	-11.4381
सॅन	-11.4394
अर्ध	-11.4483
टक्क	-11.4512
प्रथिनां	-11.452
फ्ल्यु	-11.454
काटेकोर	-11.4544
आच्छाद	-11.4544
एन्टीबॉडीज	-11.4544
एऩ्फ्ल्युएऩ्झा	-11.4544
किंग्डम	-11.4544
कोरोनिल	-11.4544
गाईडलाईन्स	-11.4544
तामिळनाडू	-11.4544
द्राक्ष	-11.4544
पतंजली	-11.4544
पेट्रोल	-11.4544
प्रोनिंग	-11.4544
मॉल्स	-11.4544
यवतमाळ	-11.4544
रक्तवाहिन्या	-11.4544
विष्ठे	-11.4544
शौचालय	-11.4544
संघर्ष	-11.4544
mpsc	-11.4544
nhs	-11.4544
अखिल	-11.4544
कोलमड	-11.4544
तृतीयांश	-11.4544
धूम्रपान	-11.4544
पुरस्कार	-11.4544
भोजनालय	-11.4544
मल्टि	-11.4544
रूपांतर	-11.4544
विश्वसनीय	-11.4544
▁¦1201	-11.4544
उत्तेजन	-11.4544
वयस्कर	-11.4544
समायोज	-11.4544
अगोदर	-11.4544
युनियन	-11.4544
रशियन	-11.4544
निम्न	-11.4544
परीक्षण	-11.4544
सर्वोत्	-11.4544
जर्नल	-11.4544
पुराव्या	-11.4544
निसर्ग	-11.4544
निर्यातीवर	-11.4544
उशिरा	-11.4544
देणगी	-11.4544
फेसबुक	-11.4544
हक्क	-11.4545
मोनो	-11.4545
लोपिनाव	-11.4545
स्टाफ	-11.4545
abc	-11.4545
जाणीव	-11.4545
लातूर	-11.4545
रेषा	-11.4549
मंत्रिमंडळ	-11.4552
रिक्षा	-11.4554
डोळ्यां	-11.4557
बुक	-11.4559
दाहक	-11.4563
कुटुंबियां	-11.4568
श्रेय	-11.4572
ग्राहकां	-11.4612
रहाण	-11.469
संकल्पन	-11.4726
संशोधकां	-11.4765
मिळाव	-11.4791
पोलिस	-11.4817
प्रदर्श	-11.4839
क्टिव्ह	-11.4889
साधण्या	-11.4964
वर्षांखाल	-11.5065
डिस्टन्स	-11.5451
down	-11.5453
टर्मिन	-11.5453
अवस्थेत	-11.5453
अॅडमिट	-11.5453
आकर्ष	-11.5453
आजूबाजू	-11.5453
कंटेन्मेंट	-11.5453
खेळाडू	-11.5453
गडचिरोली	-11.5453
त्सुनामी	-11.5453
नांदेड	-11.5453
निरनिराळ	-11.5453
पाठिंब	-11.5453
बांधिलकी	-11.5453
यादृच्छिक	-11.5453
रणनीति	-11.5453
विरूद्ध	-11.5453
स्त्रीरोगतज्ज्ञ	-11.5453
हरियाणा	-11.5453
अमिनो	-11.5453
ऑक्सिमीटर	-11.5453
खेडकर	-11.5453
जागरुक	-11.5453
डब्ल्यू	-11.5453
तन्मय	-11.5453
निम्म्या	-11.5453
नेदरलँड	-11.5453
पारंपरिक	-11.5453
व्यत्यय	-11.5453
सायटोकीन	-11.5453
ावस्थेत	-11.5453
india	-11.5453
केईएम	-11.5453
रणनिती	-11.5453
सीताराम	-11.5453
gov	-11.5453
आखाडा	-11.5453
इत्यादी	-11.5453
ऑडिट	-11.5453
छोटे	-11.5453
मृत्युमुखी	-11.5453
व्हिडीओ	-11.5453
▁¦2020-21	-11.5453
पंडीत	-11.5453
थ्रू	-11.5453
प्रायव्ह	-11.5453
टेंडर	-11.5453
रेणू	-11.5453
हजेरी	-11.5453
बर्ग	-11.5453
समस्ये	-11.5453
डुकराच	-11.5453
याचिके	-11.5454
सौर	-11.5454
गुणवत्त	-11.5454
ल्व्ह	-11.5454
ओपन	-11.5454
फूड	-11.5454
वार्ता	-11.5454
सस्तन	-11.5454
इबोला	-11.5454
दुखापत	-11.5455
ह्युम	-11.5455
तुर्क	-11.5457
दशकां	-11.5457
ठरविण्या	-11.5459
आग्रह	-11.5462
पक्ष्यां	-11.5462
लॅट	-11.5464
दक्षत	-11.5466
10-1	-11.5472
झटक	-11.5476
संभव	-11.5485
देशांमध	-11.5581
प्राधान्यान	-11.5603
प्रवाह	-11.5733
दाखवाव	-11.5797
ांविषयी	-11.598
पसरलेल	-11.6003
...	-11.6152
उडाल	-11.6183
ोगी	-11.6251
मॉनिटर	-11.6453
म्हटल्या	-11.6453
<	-11.6453
for	-11.6453
ition	-11.6453
अपेक्षे	-11.6453
अरेबिया	-11.6453
अहमदाबाद	-11.6453
इंस्टीट	-11.6453
डिझाइन	-11.6453
डिस्चार्ज	-11.6453
डोमेन	-11.6453
नागपुरात	-11.6453
नोकऱ्या	-11.6453
नोवाव्हॅक्स	-11.6453
प्रॅक्टिशनर्स	-11.6453
फेलुदा	-11.6453
≥	-11.6453
>	-11.7564
–	-11.8782
‘	-11.8782
+	-11.8814
*	-12.191
ॲ	-12.191
!	-12.3877
’	-12.6377
×	-12.641
_	-12.641
α	-12.9743
“	-13.4711
=	-13.4743
β	-13.4743
—	-13.4743
ऎ	-13.4743
]	-14.4713
?	-14.4713
~	-14.4743
ß	-14.4743
å	-14.4743
γ	-14.4743
%	-15.272
ऱ	-15.2721
ॉ	-15.2722
