<pad>	0
</s>	0
<unk>	0
▁the	-3.17696
.	-3.28589
,	-3.44929
s	-3.54923
▁of	-3.81618
▁to	-3.97864
▁in	-4.04956
▁	-4.10331
▁and	-4.29679
▁a	-4.43085
▁is	-4.67975
ing	-4.67987
ed	-4.74146
▁The	-4.94108
e	-4.99848
▁be	-5.00689
▁for	-5.02117
-	-5.14151
▁are	-5.24189
t	-5.26939
▁that	-5.27312
▁has	-5.28012
▁on	-5.36698
▁have	-5.36737
y	-5.37819
▁with	-5.42286
'	-5.47704
d	-5.54496
▁will	-5.58374
al	-5.59481
▁from	-5.60558
▁corona	-5.6582
ly	-5.67764
▁was	-5.69608
o	-5.70296
▁not	-5.70473
▁by	-5.7683
▁been	-5.79636
n	-5.81579
▁patients	-5.83342
▁as	-5.84284
▁vaccine	-5.86408
▁this	-5.88297
▁at	-5.90165
▁A	-5.91952
▁said	-5.97877
▁or	-5.98321
er	-5.98492
▁it	-5.98839
in	-6.03565
▁"	-6.04359
a	-6.05226
p	-6.0524
▁government	-6.05675
▁(	-6.05843
▁people	-6.06628
c	-6.07721
m	-6.08263
i	-6.08862
ir	-6.10195
▁also	-6.12211
▁In	-6.12714
▁state	-6.1699
l	-6.18025
▁number	-6.20938
?	-6.214
g	-6.22873
▁were	-6.23272
r	-6.25143
▁w	-6.28416
or	-6.29051
u	-6.30209
out	-6.31751
▁virus	-6.33933
▁S	-6.34727
▁can	-6.34977
▁C	-6.36029
ar	-6.37097
re	-6.38088
▁Corona	-6.40129
▁an	-6.41459
b	-6.41894
es	-6.43249
▁should	-6.43703
)	-6.44224
▁Minister	-6.47836
k	-6.49228
▁had	-6.49926
f	-6.51374
-19	-6.52434
▁health	-6.55595
▁there	-6.56711
if	-6.56828
▁other	-6.57123
▁ab	-6.59977
:	-6.61646
h	-6.62606
▁after	-6.62902
▁Maharashtra	-6.6292
▁oxygen	-6.6304
▁who	-6.63421
an	-6.63709
▁India	-6.64207
▁COVID	-6.64398
▁you	-6.64951
▁I	-6.65081
▁all	-6.65114
▁M	-6.65686
se	-6.6769
ation	-6.71286
ic	-6.71372
ur	-6.72968
▁more	-6.74478
▁B	-6.74732
▁no	-6.7513
▁Dr	-6.76372
▁time	-6.76942
on	-6.77312
▁This	-6.77398
▁we	-6.79736
▁lockdown	-6.8081
▁than	-6.80988
▁vaccination	-6.81314
▁But	-6.81358
2	-6.81694
▁P	-6.83152
▁infection	-6.84008
▁p	-6.84242
▁new	-6.84743
en	-6.84815
ers	-6.86361
▁disease	-6.86493
▁It	-6.86569
ri	-6.87159
at	-6.87169
ion	-6.87912
le	-6.9029
▁per	-6.90469
▁some	-6.91613
▁one	-6.91769
▁Health	-6.91972
▁country	-6.91975
▁days	-6.92617
▁do	-6.94351
▁He	-6.94498
1	-6.95353
▁he	-6.95592
hich	-6.95842
st	-6.9609
▁being	-6.96109
▁so	-6.96375
▁re	-6.9701
th	-6.97021
w	-6.97414
CoV	-6.97899
il	-6.98311
▁vaccines	-6.98693
▁these	-6.99202
▁but	-6.99806
ch	-6.99808
it	-6.99919
▁T	-7.02005
▁first	-7.03062
ent	-7.03499
▁b	-7.03746
▁many	-7.04425
▁hand	-7.04525
5	-7.05027
4	-7.06154
▁G	-7.06286
S	-7.06949
▁found	-7.08218
▁may	-7.08967
sh	-7.09592
▁use	-7.10614
▁'	-7.10965
▁two	-7.11127
▁get	-7.12044
▁last	-7.12517
▁day	-7.12659
▁second	-7.13248
▁f	-7.1343
▁out	-7.1345
▁such	-7.14357
▁cases	-7.14418
▁On	-7.16428
▁March	-7.16829
▁Mumbai	-7.17452
▁symptoms	-7.17598
▁hospital	-7.17723
▁SARS	-7.17819
C	-7.18242
ro	-7.18397
▁test	-7.18408
▁district	-7.1961
▁According	-7.19653
▁work	-7.20449
▁says	-7.21254
due	-7.21464
ad	-7.21733
ha	-7.2222
▁given	-7.2224
▁situation	-7.22664
▁F	-7.232
id	-7.23243
ol	-7.23342
▁under	-7.23425
ce	-7.24363
▁We	-7.24467
▁c	-7.2456
▁children	-7.24984
hief	-7.25208
▁treatment	-7.25785
▁wave	-7.26033
▁3	-7.2639
▁over	-7.26828
▁they	-7.27093
▁There	-7.27923
▁up	-7.28331
ment	-7.28334
v	-7.28346
▁spread	-7.29128
6	-7.30169
um	-7.30231
▁However	-7.30896
ra	-7.3099
▁Covid	-7.31246
▁only	-7.32201
I	-7.32534
▁system	-7.32565
A	-7.32883
0	-7.32994
▁home	-7.33414
▁countries	-7.33982
▁2020	-7.34208
▁de	-7.34327
▁your	-7.34369
▁take	-7.34833
▁available	-7.34841
9	-7.35051
▁5	-7.35961
▁need	-7.36365
ive	-7.36495
is	-7.365
▁infected	-7.37066
▁April	-7.37411
▁K	-7.37603
7	-7.37691
▁As	-7.38221
▁If	-7.38235
8	-7.39737
▁co	-7.40033
ter	-7.40194
ting	-7.40281
▁any	-7.40519
▁during	-7.4077
▁cent	-7.40817
▁r	-7.40975
▁e	-7.41326
P	-7.41573
ther	-7.42058
▁against	-7.42129
▁risk	-7.43038
▁10	-7.43107
▁What	-7.43316
▁4	-7.43753
ity	-7.44116
un	-7.44396
▁when	-7.44657
ies	-7.44668
te	-7.45095
;	-7.45138
▁now	-7.45326
▁while	-7.45458
▁year	-7.45481
▁used	-7.45684
ta	-7.46151
▁2	-7.46312
us	-7.46404
▁Pune	-7.46747
▁N	-7.47114
ul	-7.47249
▁those	-7.47396
-2	-7.47751
▁vaccinated	-7.47802
ate	-7.48179
▁E	-7.49148
E	-7.50021
▁taken	-7.51065
▁his	-7.51211
."	-7.51262
▁medical	-7.5139
▁Thackeray	-7.52071
,000	-7.52076
om	-7.52428
▁7	-7.52621
▁public	-7.53133
▁reported	-7.53712
▁coronavirus	-7.53716
la	-7.53842
▁through	-7.53857
and	-7.5444
T	-7.54499
▁even	-7.55332
▁hospitals	-7.55474
▁outbreak	-7.56618
▁m	-7.56912
▁large	-7.56976
ould	-7.5727
▁made	-7.57723
M	-7.57742
▁come	-7.58121
3	-7.58422
▁restrictions	-7.58431
R	-7.5861
▁how	-7.58777
▁go	-7.5918
▁care	-7.59886
op	-7.60142
▁China	-7.60261
▁world	-7.60619
▁-	-7.60653
ant	-7.61355
ist	-7.61524
im	-7.61866
▁patient	-7.61915
▁beds	-7.62333
▁6	-7.62656
am	-7.62757
▁lakh	-7.62896
▁L	-7.62995
el	-7.63768
▁workers	-7.63831
▁So	-7.64939
▁contact	-7.65205
▁current	-7.65205
▁age	-7.66314
"	-7.66324
▁including	-7.66382
▁like	-7.66451
ti	-7.66908
▁covid	-7.66934
vi	-7.66945
fter	-7.66969
▁Hospital	-7.67174
▁travel	-7.67174
▁announced	-7.67263
▁d	-7.67322
▁D	-7.67697
▁areas	-7.69055
▁control	-7.69182
N	-7.69549
▁Center	-7.69591
▁important	-7.69594
00	-7.70213
▁high	-7.70537
▁8	-7.70884
▁started	-7.71049
very	-7.71181
▁information	-7.71246
ac	-7.71382
▁most	-7.71958
▁Re	-7.72207
▁1	-7.7256
ten	-7.72761
ne	-7.72869
▁Sa	-7.73018
▁well	-7.73039
ance	-7.73207
▁increase	-7.73357
ma	-7.74171
▁what	-7.74175
D	-7.74411
▁same	-7.746
▁increased	-7.74995
ig	-7.75729
▁9	-7.75869
▁H	-7.75874
▁its	-7.76189
li	-7.76404
▁closed	-7.76504
▁help	-7.76765
▁our	-7.7678
▁did	-7.7686
▁20	-7.77098
ho	-7.77257
▁testing	-7.77556
▁years	-7.78069
ut	-7.78124
▁rate	-7.78466
ated	-7.78776
▁positive	-7.78977
▁them	-7.7907
▁Wh	-7.79127
▁doctors	-7.79303
▁decision	-7.79425
▁respirator	-7.79425
▁supply	-7.79876
▁un	-7.80245
▁increasing	-7.80328
▁few	-7.80329
▁g	-7.8035
ndra	-7.80764
/	-7.80782
▁case	-7.81219
▁body	-7.81241
▁effective	-7.81323
▁city	-7.81342
▁tests	-7.81558
▁crore	-7.81698
ver	-7.81699
▁administration	-7.81706
▁app	-7.81741
▁meeting	-7.82309
).	-7.82599
▁million	-7.82622
%	-7.82647
▁between	-7.83558
mp	-7.83729
▁person	-7.84147
▁where	-7.84152
ve	-7.8462
▁Uddhav	-7.84969
ia	-7.85018
▁U	-7.85063
as	-7.85549
▁prevent	-7.8582
▁drug	-7.85885
▁data	-7.85925
▁week	-7.85976
▁hands	-7.86005
z	-7.86478
▁present	-7.8663
▁students	-7.86782
able	-7.8684
▁Modi	-7.86899
▁me	-7.87373
▁into	-7.87954
iv	-7.88039
▁died	-7.88488
▁deaths	-7.88653
O	-7.88825
▁ex	-7.89215
),	-7.89217
▁Delhi	-7.89339
▁report	-7.89576
▁For	-7.89665
▁W	-7.89711
▁make	-7.89897
▁could	-7.90435
wa	-7.90689
▁con	-7.90911
▁An	-7.91068
▁does	-7.91315
▁school	-7.91525
▁central	-7.91562
va	-7.91648
▁va	-7.91756
▁three	-7.91852
▁states	-7.91902
▁around	-7.92083
▁death	-7.92088
▁before	-7.92362
▁period	-7.92362
▁dose	-7.92442
▁set	-7.92909
▁citizens	-7.93368
▁BBC	-7.9339
tion	-7.93778
▁At	-7.94245
▁Prim	-7.94443
▁Co	-7.94953
▁19	-7.95297
▁say	-7.95374
na	-7.95993
▁thousand	-7.96008
▁UK	-7.96019
j	-7.96833
ll	-7.96891
ry	-7.9691
▁tr	-7.96961
▁O	-7.97004
▁campaign	-7.97075
▁severe	-7.97441
The	-7.9745
▁far	-7.97479
ile	-7.97511
x	-7.9786
▁15	-7.9789
▁social	-7.98153
ect	-7.98282
tic	-7.98293
har	-7.98934
ary	-7.9902
▁doses	-7.99045
▁include	-7.99399
ical	-7.99746
▁different	-7.99792
▁study	-7.99792
▁private	-7.99801
cross	-8.00347
▁Unit	-8.00369
▁R	-8.00389
▁every	-8.00431
▁hours	-8.00518
▁pro	-8.00673
qu	-8.00938
▁12	-8.01173
▁shortage	-8.01471
▁start	-8.01707
▁cause	-8.02151
▁education	-8.02586
▁January	-8.02705
▁provide	-8.02721
▁allowed	-8.02915
▁May	-8.03437
▁possible	-8.04301
▁tested	-8.04637
▁Institute	-8.04878
▁rules	-8.04926
han	-8.05213
di	-8.0523
▁ra	-8.05942
▁local	-8.06044
▁working	-8.06479
▁open	-8.06635
▁mask	-8.07333
com	-8.07589
▁Rs	-8.08036
▁Raje	-8.08322
▁washing	-8.08473
▁h	-8.09086
▁dis	-8.0941
ally	-8.09652
ak	-8.09909
ural	-8.10198
ard	-8.10775
unicipal	-8.10795
▁center	-8.10947
B	-8.11041
▁50	-8.11737
up	-8.11793
▁whe	-8.11793
refore	-8.12089
▁Some	-8.12138
▁develop	-8.12391
▁schools	-8.1249
▁continue	-8.1279
▁Government	-8.12793
▁24	-8.13059
▁February	-8.13412
age	-8.14072
▁V	-8.14216
▁level	-8.14291
▁show	-8.14311
▁11	-8.1465
▁reach	-8.14683
▁Many	-8.14852
peaking	-8.15154
old	-8.15239
lu	-8.15251
▁then	-8.15389
▁States	-8.15703
▁company	-8.15898
▁14	-8.15974
ous	-8.16188
▁called	-8.16355
▁part	-8.16451
▁human	-8.16526
▁area	-8.16549
▁down	-8.16571
▁Ra	-8.16677
▁30	-8.16683
end	-8.16793
hi	-8.17005
kar	-8.17239
▁developed	-8.17467
ip	-8.17766
he	-8.18018
▁place	-8.18309
▁affected	-8.18331
▁pandemic	-8.18521
▁village	-8.18521
▁less	-8.18752
ian	-8.18978
▁Union	-8.19217
me	-8.19836
▁blood	-8.19859
▁regard	-8.1986
▁held	-8.19862
▁using	-8.1989
▁J	-8.20696
▁total	-8.20714
▁become	-8.21227
▁because	-8.21228
ide	-8.21392
▁demand	-8.21706
ted	-8.22035
▁seen	-8.2216
▁both	-8.2242
▁result	-8.22488
▁low	-8.22585
▁department	-8.2259
▁still	-8.22637
ang	-8.22881
▁masks	-8.23159
▁since	-8.23285
▁measures	-8.23303
▁don	-8.23933
▁De	-8.23972
▁transmission	-8.23984
▁much	-8.23984
ness	-8.24062
ty	-8.25334
▁months	-8.25393
▁process	-8.25397
line	-8.25556
▁done	-8.25569
▁response	-8.26111
▁four	-8.26113
▁heart	-8.26157
▁clinical	-8.26178
ab	-8.26529
▁percent	-8.26802
▁end	-8.26838
taking	-8.2684
▁among	-8.26993
▁18	-8.27305
od	-8.2734
till	-8.27461
▁today	-8.27755
▁Kovid	-8.28285
▁phase	-8.28286
▁Indian	-8.28369
▁face	-8.28416
cr	-8.28547
▁production	-8.29031
ge	-8.29358
L	-8.29559
▁Ministry	-8.29761
▁population	-8.29761
▁question	-8.29868
ions	-8.30291
▁Nagpur	-8.30508
▁soap	-8.30581
▁emergency	-8.30582
ine	-8.30673
▁sent	-8.30681
▁going	-8.30913
▁research	-8.31146
▁order	-8.31176
▁avoid	-8.3126
▁third	-8.3126
ial	-8.31273
est	-8.3138
▁places	-8.31502
co	-8.31597
rious	-8.31624
▁WHO	-8.31699
▁market	-8.32017
▁next	-8.32017
▁surveillance	-8.32017
▁media	-8.32056
▁fire	-8.32077
▁higher	-8.32488
▁difficult	-8.3278
▁doctor	-8.32989
ke	-8.3304
ish	-8.33392
▁samples	-8.33792
▁known	-8.33805
▁When	-8.33899
▁State	-8.33916
▁World	-8.34325
▁imposed	-8.34325
▁asked	-8.34344
▁HCoV	-8.34492
▁issued	-8.34567
▁reduce	-8.34936
ence	-8.35827
▁How	-8.35882
▁All	-8.359
▁Tope	-8.35916
▁according	-8.35957
tra	-8.36044
▁five	-8.36118
▁fight	-8.36687
▁support	-8.36687
▁Al	-8.37068
though	-8.37425
▁another	-8.37489
▁long	-8.37634
no	-8.37802
ble	-8.38067
▁experts	-8.38094
▁remain	-8.38294
▁New	-8.38298
▁stay	-8.38504
▁conditions	-8.38505
ok	-8.38534
de	-8.38711
H	-8.39052
▁serious	-8.39109
▁Do	-8.39392
▁see	-8.39782
▁crisis	-8.39926
▁keep	-8.39927
▁l	-8.40003
▁told	-8.40004
▁1.	-8.40318
▁air	-8.40352
▁approved	-8.40753
▁further	-8.40753
F	-8.40754
▁fever	-8.40799
ya	-8.40822
▁likely	-8.41484
▁To	-8.41719
▁Ja	-8.4207
▁early	-8.42428
▁good	-8.42524
mm	-8.42799
▁protect	-8.4317
▁family	-8.43274
▁police	-8.43274
▁small	-8.43274
▁staff	-8.43274
▁Serum	-8.43275
man	-8.43302
▁addition	-8.43376
▁No	-8.43607
▁services	-8.43671
ath	-8.4392
▁trials	-8.43997
▁Organization	-8.44129
▁yet	-8.4413
▁least	-8.44133
▁rapidly	-8.4427
vel	-8.44733
▁again	-8.44882
▁Corporation	-8.44991
▁lung	-8.44991
▁water	-8.45
ill	-8.45107
lying	-8.45168
▁bo	-8.4523
▁coronary	-8.45553
▁group	-8.45596
▁You	-8.45861
ng	-8.46016
▁Chinese	-8.46045
▁Ka	-8.46187
▁condition	-8.46508
▁plan	-8.46531
▁200	-8.46547
▁sc	-8.4661
▁admitted	-8.46737
▁distance	-8.46738
▁essential	-8.46755
▁Pra	-8.46799
vir	-8.46811
▁US	-8.46897
▁sp	-8.47141
▁non	-8.47455
▁And	-8.47592
▁University	-8.47622
▁strain	-8.47622
ach	-8.47779
▁my	-8.47942
▁touch	-8.48531
▁relat	-8.49163
war	-8.49689
▁know	-8.50024
-19.	-8.50103
▁closures	-8.5037
▁him	-8.50401
▁Ch	-8.5042
av	-8.50628
pe	-8.50731
▁Medic	-8.50776
V	-8.50848
led	-8.51262
G	-8.51418
based	-8.51433
▁concern	-8.52169
▁global	-8.52169
▁similar	-8.52169
▁host	-8.52173
▁centers	-8.52187
▁flu	-8.52291
▁People	-8.5246
▁Ma	-8.52946
▁she	-8.53088
▁epidemic	-8.53103
▁major	-8.53103
▁common	-8.53103
▁each	-8.5318
ors	-8.53324
ank	-8.53923
▁Pradesh	-8.54047
▁happen	-8.54047
▁house	-8.54049
▁form	-8.54049
ized	-8.54138
▁us	-8.54262
not	-8.54561
ep	-8.54766
▁month	-8.55005
▁lack	-8.55024
▁six	-8.55025
▁Nare	-8.55162
▁Su	-8.55507
▁close	-8.55571
▁am	-8.55752
▁critical	-8.5596
▁minister	-8.5596
▁collect	-8.5596
▁women	-8.55961
▁way	-8.55986
▁coming	-8.55994
▁wear	-8.55996
to	-8.56067
▁16	-8.56282
ase	-8.5643
▁based	-8.56736
▁community	-8.56931
▁immune	-8.56931
▁pain	-8.56934
▁June	-8.56974
▁follow	-8.5707
io	-8.57175
▁action	-8.57225
da	-8.57552
ap	-8.57693
▁weeks	-8.57812
▁Ba	-8.57901
▁Wuhan	-8.57912
▁examination	-8.57912
▁Even	-8.58139
▁want	-8.58421
▁quarantine	-8.58509
gra	-8.58515
ake	-8.58823
▁cough	-8.58902
▁parents	-8.58902
▁back	-8.58991
▁ten	-8.59
▁decided	-8.59048
▁sever	-8.59196
▁capacity	-8.59902
ction	-8.59931
▁highest	-8.59966
▁development	-8.60013
con	-8.60017
▁cur	-8.60078
▁give	-8.6009
the	-8.60274
▁infections	-8.60383
ack	-8.60392
▁required	-8.60435
ially	-8.60712
▁general	-8.60912
▁Also	-8.60924
▁own	-8.60998
bo	-8.61682
▁antibodies	-8.61932
▁companies	-8.61932
▁Bharat	-8.61932
▁2019	-8.61954
▁man	-8.61963
cute	-8.61992
▁name	-8.62025
▁expected	-8.62092
▁young	-8.62096
▁Biotech	-8.62346
▁BJP	-8.62963
▁daily	-8.62963
▁project	-8.62963
▁chest	-8.62966
▁Na	-8.63017
▁cold	-8.63126
espec	-8.63224
▁received	-8.63333
▁conducted	-8.63346
ud	-8.63731
▁evidence	-8.64005
▁safety	-8.64031
▁effects	-8.64155
▁reason	-8.6428
▁confirmed	-8.64461
▁en	-8.64787
▁protein	-8.65058
▁clean	-8.65059
▁clear	-8.65059
▁post	-8.6506
▁South	-8.65061
▁her	-8.66026
▁ICU	-8.66121
▁Marathi	-8.66121
▁Vaccine	-8.66121
▁half	-8.66125
▁Par	-8.66309
▁MERS	-8.66311
▁anti	-8.66466
▁growing	-8.6649
▁night	-8.66638
▁here	-8.66664
gen	-8.66692
low	-8.66998
▁find	-8.67174
▁came	-8.67193
▁Amravati	-8.67197
▁variant	-8.67197
▁Pawar	-8.67197
▁Centr	-8.67251
▁dry	-8.67303
▁main	-8.67412
▁ca	-8.67501
▁Ju	-8.67796
ood	-8.67854
▁viruses	-8.67985
▁relatives	-8.68241
▁Europe	-8.68284
▁lives	-8.68408
▁provided	-8.68413
hal	-8.68525
▁She	-8.6886
ade	-8.69071
ities	-8.6921
We	-8.69322
▁visit	-8.69383
▁why	-8.69389
▁cities	-8.69454
▁enter	-8.69519
▁results	-8.69546
▁cost	-8.69801
▁ventilators	-8.69995
▁able	-8.70034
▁Meanwhile	-8.70494
▁look	-8.70494
▁mutation	-8.70494
▁store	-8.70509
▁Italy	-8.70511
▁active	-8.70537
▁train	-8.70682
par	-8.71084
▁online	-8.7124
▁national	-8.71299
ram	-8.71524
▁check	-8.71617
▁strict	-8.71618
▁appear	-8.7162
▁organ	-8.71625
▁outside	-8.71626
▁letter	-8.7164
▁treat	-8.71798
ash	-8.71811
▁humans	-8.72085
▁100	-8.72213
▁safe	-8.72725
tory	-8.72726
▁facilities	-8.72754
▁think	-8.72754
▁origin	-8.72755
▁National	-8.72756
▁shops	-8.72825
▁full	-8.73055
▁registered	-8.73135
▁force	-8.73534
▁stock	-8.73904
▁everyone	-8.73952
▁Di	-8.74504
▁direct	-8.74504
▁service	-8.74523
▁free	-8.74768
▁taluka	-8.75066
▁pre	-8.75203
▁immediately	-8.75206
▁recommend	-8.75354
▁produce	-8.75425
▁spreading	-8.75575
▁experience	-8.75765
▁Vi	-8.75941
▁40	-8.75985
▁inter	-8.76144
▁challenge	-8.76242
▁potential	-8.76242
▁right	-8.76242
▁room	-8.76247
▁away	-8.76256
▁Pro	-8.76377
produc	-8.76646
▁Bo	-8.76697
und	-8.76758
▁problems	-8.76828
▁persons	-8.77523
▁require	-8.77617
▁December	-8.77666
ful	-8.77752
▁limit	-8.77753
▁took	-8.77888
▁Cha	-8.77989
▁considered	-8.78217
▁Ro	-8.7871
▁1,	-8.78775
▁card	-8.78912
▁crowd	-8.78967
▁head	-8.79113
▁17	-8.79298
pur	-8.79298
▁60	-8.79516
▁officials	-8.79599
▁contain	-8.79788
▁following	-8.79802
▁necessary	-8.79857
▁negative	-8.79857
▁sector	-8.79857
▁stop	-8.79861
▁viral	-8.79866
▁released	-8.80076
▁affect	-8.8021
▁Dur	-8.80393
▁caus	-8.80654
,"	-8.80754
▁special	-8.80786
lic	-8.80937
ublic	-8.80982
▁Pfizer	-8.81092
▁pneumonia	-8.81092
▁arriv	-8.81093
▁needed	-8.81095
tric	-8.81106
▁illness	-8.81114
▁31	-8.81241
less	-8.81317
▁call	-8.81508
▁School	-8.82342
▁influenza	-8.82342
▁review	-8.82342
▁fear	-8.82348
mi	-8.82376
▁diseases	-8.82403
▁Ex	-8.82475
▁officer	-8.82508
▁25	-8.8251
▁big	-8.82605
▁Man	-8.82651
▁change	-8.82866
▁issue	-8.82867
▁districts	-8.83058
▁needs	-8.83328
▁al	-8.83337
▁enough	-8.83607
▁record	-8.83607
▁feel	-8.83609
uty	-8.83624
▁undergo	-8.83649
▁just	-8.83687
use	-8.83975
▁Sha	-8.84066
▁ma	-8.84464
▁recommended	-8.84568
▁exam	-8.84703
hu	-8.8474
▁Now	-8.84749
ga	-8.84817
▁manufacture	-8.8489
▁mortality	-8.8489
▁suspect	-8.8489
▁2021	-8.8489
▁having	-8.84896
ik	-8.85739
▁22	-8.85745
▁La	-8.85965
▁declining	-8.86188
▁genome	-8.86188
▁guidelines	-8.86188
▁mild	-8.8619
▁near	-8.86197
▁writ	-8.86242
generat	-8.86289
▁Z	-8.8631
▁informed	-8.86543
▁unti	-8.86607
ship	-8.8687
▁sub	-8.86942
▁lead	-8.87152
▁proper	-8.87156
be	-8.87387
▁Remedesivir	-8.87504
▁task	-8.87504
▁advis	-8.87505
▁organization	-8.87508
▁pm	-8.87979
▁others	-8.88098
pite	-8.88195
0%	-8.88345
▁learning	-8.88408
▁effect	-8.88581
▁type	-8.88635
▁ACE	-8.89282
▁consider	-8.89305
Y	-8.89564
▁date	-8.89866
▁means	-8.89907
▁transport	-8.90065
▁covacin	-8.90189
▁sanitizer	-8.90189
▁Pre	-8.90227
▁food	-8.90291
▁later	-8.90414
▁learn	-8.90626
▁tri	-8.90631
wide	-8.91232
▁13	-8.91332
▁short	-8.9153
▁child	-8.91558
▁senior	-8.91559
▁pay	-8.91567
▁side	-8.91658
ite	-8.91709
ative	-8.91892
▁implemented	-8.91958
▁St	-8.92029
W	-8.92051
▁21	-8.9209
lock	-8.92122
▁cells	-8.92313
▁cl	-8.92443
mit	-8.92772
rom	-8.92792
▁One	-8.92824
▁Oxford	-8.92947
▁business	-8.92947
▁impact	-8.92948
▁lot	-8.92957
▁September	-8.93078
▁cons	-8.93224
▁run	-8.93237
rupt	-8.93326
▁23	-8.93426
▁Ab	-8.93799
▁passengers	-8.93801
▁0	-8.94003
▁questions	-8.94153
▁District	-8.94356
▁Vaccination	-8.94356
▁application	-8.94356
▁survey	-8.94356
▁hotel	-8.94356
▁above	-8.94358
▁example	-8.9437
▁began	-8.94371
▁specific	-8.94656
pass	-8.94792
term	-8.94963
▁mus	-8.94984
▁28	-8.95008
▁levels	-8.95075
ology	-8.9543
▁class	-8.95603
▁already	-8.95784
▁might	-8.95784
▁political	-8.95784
▁temperature	-8.95784
▁prevalen	-8.95785
▁slow	-8.95848
▁healthcare	-8.95892
▁live	-8.96097
▁sw	-8.96103
▁prepar	-8.96368
ran	-8.96588
time	-8.96741
▁statement	-8.96915
vin	-8.96924
light	-8.9715
▁alcohol	-8.97234
▁election	-8.97234
▁sick	-8.97234
mbo	-8.97305
▁imp	-8.97334
▁drugs	-8.97352
▁completely	-8.97517
20	-8.97616
▁demanded	-8.97649
▁shown	-8.97927
▁45	-8.97989
part	-8.98125
▁times	-8.98209
land	-8.98317
▁office	-8.98593
PCR	-8.98702
▁Department	-8.98704
▁single	-8.98708
▁isolation	-8.98711
▁worldwide	-8.98759
▁published	-8.9879
▁la	-8.9879
-19,	-8.99082
ja	-8.99104
▁Of	-8.99124
day	-8.99142
▁leader	-8.99181
▁war	-8.99257
amp	-8.99333
▁Is	-9.0001
▁Research	-9.00197
▁RNA	-9.00197
tensive	-9.00204
▁More	-9.00385
▁des	-9.00626
▁Mo	-9.00701
▁monitor	-9.00768
▁allow	-9.00867
▁leaders	-9.01639
▁Fadnavis	-9.01712
▁President	-9.01712
▁maintain	-9.01712
▁underway	-9.01713
▁option	-9.01715
▁team	-9.01716
▁planning	-9.01717
▁trying	-9.01724
▁ill	-9.01761
own	-9.02151
▁produced	-9.02241
kh	-9.02401
▁met	-9.02479
ever	-9.0251
▁fill	-9.02563
▁soon	-9.02615
▁reduced	-9.02749
ple	-9.02981
▁wash	-9.03112
In	-9.03229
▁Lockdown	-9.0325
▁Patients	-9.0325
▁member	-9.0325
▁General	-9.03251
▁genetic	-9.03251
▁syndrome	-9.03251
▁past	-9.03255
▁attend	-9.03258
▁put	-9.03475
▁things	-9.03608
▁waste	-9.0376
▁practices	-9.03792
tri	-9.03867
▁bat	-9.03909
▁trial	-9.04009
▁Du	-9.04406
▁Dep	-9.04491
▁bats	-9.04649
▁hy	-9.04668
U	-9.04672
▁die	-9.04762
▁laboratory	-9.04813
▁benefit	-9.04813
▁High	-9.04813
▁Home	-9.04815
▁life	-9.04817
▁instructions	-9.04819
like	-9.04825
▁board	-9.0487
▁80	-9.05386
▁statistics	-9.05399
▁toll	-9.05731
ani	-9.06031
▁once	-9.0618
year	-9.06387
▁curfew	-9.064
▁exposure	-9.064
▁industry	-9.064
▁victims	-9.064
▁economic	-9.064
▁remov	-9.064
▁tanker	-9.064
▁chain	-9.06401
▁move	-9.06403
▁save	-9.06474
ize	-9.06536
▁animal	-9.06731
▁official	-9.06738
▁Aji	-9.06774
▁discussed	-9.06867
ca	-9.0688
▁mean	-9.0715
▁lower	-9.07254
one	-9.07402
ability	-9.07414
▁Commission	-9.07582
nd	-9.07582
▁reasons	-9.07588
▁vaccinate	-9.07623
▁individuals	-9.07654
▁offices	-9.07922
RCGP	-9.08013
▁college	-9.08013
▁immunity	-9.08013
▁infectious	-9.08013
▁previous	-9.08013
▁view	-9.08013
▁financial	-9.08027
▁late	-9.08062
▁share	-9.08168
cal	-9.08277
▁return	-9.08763
II	-9.09159
▁contract	-9.09653
▁incidence	-9.09653
▁left	-9.09653
▁answer	-9.09653
▁employees	-9.09653
▁That	-9.09657
▁role	-9.09669
▁municipal	-9.0974
▁Other	-9.09845
▁exams	-9.10045
▁Commissioner	-9.10093
▁changes	-9.10107
▁directly	-9.10146
▁coronaviruses	-9.10522
▁limited	-9.10873
art	-9.10878
50	-9.11123
▁went	-9.11169
tu	-9.11217
▁Kumbh	-9.11319
▁Uttar	-9.11319
▁Sunday	-9.11319
▁permission	-9.11319
▁entire	-9.1132
▁stopped	-9.11322
▁Drug	-9.11323
▁Thane	-9.1133
▁ser	-9.11522
▁discussion	-9.11621
▁unit	-9.11642
▁rise	-9.11944
▁rates	-9.12082
▁breathing	-9.12124
app	-9.12515
▁nose	-9.12974
▁Police	-9.13014
▁Secretary	-9.13014
▁candidate	-9.13014
▁equipment	-9.13014
▁president	-9.13014
▁Friday	-9.13014
▁Russia	-9.13014
▁point	-9.13014
▁Mela	-9.1302
▁region	-9.13022
▁usual	-9.13034
came	-9.13104
▁West	-9.1313
▁fac	-9.13268
ell	-9.13477
▁Not	-9.13583
▁created	-9.13743
ism	-9.13991
▁occur	-9.14736
▁Congress	-9.14738
▁families	-9.14738
▁season	-9.14738
▁surface	-9.14738
▁video	-9.14738
▁RSC	-9.14738
▁sign	-9.14739
▁expressed	-9.14743
▁Care	-9.14766
▁onset	-9.14772
▁Li	-9.14869
▁method	-9.15309
▁lab	-9.15342
▁injections	-9.15668
gi	-9.15932
ix	-9.16247
▁followed	-9.16321
▁70	-9.16368
▁Disease	-9.16493
▁job	-9.16493
▁Kumar	-9.16493
▁matter	-9.16493
▁With	-9.16494
▁pressure	-9.16494
eight	-9.16518
ified	-9.16521
▁effectiveness	-9.16596
▁causes	-9.16835
▁26	-9.16875
▁sta	-9.17222
▁ensur	-9.17511
▁complete	-9.17715
▁car	-9.17796
▁Africa	-9.18278
▁authorities	-9.18278
▁occasion	-9.18278
▁studies	-9.18278
▁together	-9.18281
▁interact	-9.18312
sure	-9.18347
▁cancel	-9.18365
▁carri	-9.18392
njay	-9.18419
▁Ar	-9.18581
▁2020.	-9.18709
▁CDC	-9.18815
ition	-9.18953
▁code	-9.19105
▁suggest	-9.19209
▁claim	-9.19209
▁reports	-9.19666
▁kits	-9.20032
▁establish	-9.20094
▁Control	-9.20096
▁mandatory	-9.20096
▁protocol	-9.20096
▁future	-9.20097
▁Korea	-9.20098
▁Patil	-9.20098
▁raised	-9.20098
▁journalist	-9.2011
load	-9.20113
▁track	-9.20158
▁ventilator	-9.20921
▁cell	-9.2102
ex	-9.21048
".	-9.21098
▁Va	-9.2128
▁program	-9.21947
▁Association	-9.21948
▁Covishield	-9.21948
▁Education	-9.21948
▁Nashik	-9.21948
▁agricultur	-9.21948
▁leave	-9.21948
▁location	-9.21948
▁solution	-9.21948
▁design	-9.21949
▁micro	-9.21949
▁events	-9.22027
▁ago	-9.22027
▁Will	-9.2203
▁list	-9.22117
▁act	-9.22156
▁cover	-9.2221
▁read	-9.22285
▁figures	-9.22645
▁medicine	-9.22831
▁injection	-9.22875
put	-9.2294
▁international	-9.23046
ught	-9.23737
▁hygiene	-9.23835
▁access	-9.23835
▁material	-9.23835
▁PPE	-9.23836
power	-9.23836
▁Sonu	-9.23842
▁wait	-9.23846
▁bring	-9.23852
▁standard	-9.2386
▁containment	-9.23943
▁director	-9.24186
▁nurses	-9.24488
▁recovered	-9.24597
▁problem	-9.24804
care	-9.2496
▁Office	-9.25562
▁29	-9.25578
▁front	-9.25731
▁College	-9.25758
▁amount	-9.25758
▁cylinder	-9.25758
▁separate	-9.25758
▁antiviral	-9.25758
▁attention	-9.25759
▁paper	-9.2576
▁Since	-9.25762
▁walk	-9.25769
43	-9.25862
of	-9.2597
▁gone	-9.26064
▁Oxygen	-9.26072
▁ordered	-9.26089
▁declared	-9.26096
▁extended	-9.26131
▁ready	-9.26244
▁90	-9.26429
▁quarantined	-9.26529
▁Raj	-9.2656
▁parts	-9.26594
▁breath	-9.26779
▁perform	-9.26835
erg	-9.2725
▁animals	-9.27314
▁though	-9.27331
▁account	-9.27719
▁address	-9.27719
▁mind	-9.27725
lve	-9.27731
▁tell	-9.27733
kept	-9.27735
▁indicat	-9.27737
▁drive	-9.2776
▁RT	-9.27904
K	-9.27984
▁hit	-9.28071
▁groups	-9.28321
▁count	-9.28375
▁tweeted	-9.2849
▁got	-9.28527
ji	-9.28728
▁Don	-9.29048
▁real	-9.29055
▁deliver	-9.29253
▁fil	-9.29443
▁men	-9.29663
▁diabetes	-9.29719
▁diarrhea	-9.29719
▁identified	-9.29719
▁policy	-9.29719
▁sequencing	-9.29719
▁society	-9.29719
▁average	-9.2972
▁Court	-9.29722
▁primary	-9.29731
▁seven	-9.29743
▁alone	-9.29751
▁send	-9.29871
▁exist	-9.29938
▁factor	-9.30029
April	-9.30091
ond	-9.301
▁CoVs	-9.30208
▁issues	-9.30282
▁AstraZeneca	-9.30287
▁factors	-9.30519
▁claimed	-9.30705
▁provid	-9.31029
▁personal	-9.31106
▁included	-9.31173
▁saying	-9.31298
19	-9.31357
▁ban	-9.31359
▁Director	-9.3176
▁Doctor	-9.3176
▁difference	-9.3176
▁vehicle	-9.3176
▁Vasai	-9.3176
▁appealed	-9.3176
▁building	-9.31762
▁play	-9.31763
▁depend	-9.31832
▁hard	-9.31897
▁fund	-9.31907
▁Officer	-9.31968
▁asymptomatic	-9.32226
▁added	-9.32267
▁detect	-9.32976
▁self	-9.33258
▁rapid	-9.33498
▁notice	-9.33534
▁Collector	-9.33843
▁little	-9.33843
▁morning	-9.33843
▁postpone	-9.33844
▁gave	-9.33845
▁scientists	-9.33857
▁na	-9.33867
▁App	-9.34113
▁killed	-9.34455
▁along	-9.34615
▁suggested	-9.34872
▁sit	-9.3508
▁practice	-9.35254
▁estimate	-9.35577
▁Bengal	-9.35971
▁pathogen	-9.35971
▁particular	-9.35971
▁procedure	-9.35971
▁beginning	-9.35973
▁skin	-9.35973
▁gym	-9.35976
▁distribution	-9.36004
source	-9.36015
▁seems	-9.36156
▁types	-9.36298
▁compared	-9.36365
▁changed	-9.3664
▁observed	-9.36693
33	-9.36848
ission	-9.3732
▁sample	-9.37457
▁hour	-9.37471
▁Mos	-9.375
▁stage	-9.37514
▁release	-9.37753
▁Brazil	-9.38145
▁Palghar	-9.38145
▁adults	-9.38145
▁advice	-9.38145
▁schedule	-9.38145
▁target	-9.38145
▁approach	-9.38145
▁except	-9.38145
▁lost	-9.38146
▁assess	-9.38155
▁Singh	-9.38208
▁update	-9.38314
▁diagnosed	-9.38398
▁rul	-9.38506
▁create	-9.3854
▁estimated	-9.38548
most	-9.38707
▁conv	-9.38778
▁nation	-9.38882
▁recover	-9.3901
10	-9.39067
ture	-9.39141
▁medicines	-9.39316
▁Ga	-9.39602
raw	-9.397
95	-9.39716
log	-9.39779
▁treated	-9.39877
ological	-9.40058
▁Britain	-9.40367
▁Saturday	-9.40367
▁possibility	-9.40367
▁scheme	-9.40367
▁stress	-9.40367
▁natural	-9.40367
▁MLA	-9.40367
▁announcement	-9.40367
▁tracing	-9.40369
▁court	-9.40372
▁invest	-9.40381
Virar	-9.4044
▁however	-9.40444
▁law	-9.40518
▁hospitalized	-9.40551
▁urg	-9.40569
Co	-9.40589
▁associated	-9.40769
▁plant	-9.40895
▁bacteria	-9.41076
▁stages	-9.41094
▁fact	-9.41111
▁talking	-9.41126
▁tweet	-9.41752
▁steps	-9.4195
▁Varsha	-9.4264
▁certain	-9.4264
▁mobile	-9.4264
▁religious	-9.4264
▁throat	-9.4264
▁regulator	-9.4264
▁PHE	-9.4264
▁France	-9.4264
▁status	-9.4264
▁living	-9.42641
▁mouth	-9.42641
▁making	-9.42644
▁remedivir	-9.42653
▁normal	-9.42725
▁history	-9.42751
▁Rahu	-9.42814
▁Germany	-9.4286
▁mental	-9.4297
▁speak	-9.42998
▁antibody	-9.43132
self	-9.43364
▁Ha	-9.43871
▁prepared	-9.44055
▁efforts	-9.44078
▁gu	-9.44097
▁flights	-9.44608
▁thing	-9.44613
▁great	-9.44709
▁initial	-9.44784
▁stand	-9.44965
October	-9.44965
▁Joshi	-9.44965
▁economy	-9.44965
▁launched	-9.44965
▁progress	-9.44965
▁purchas	-9.44965
▁supplied	-9.44965
▁vegetable	-9.44965
▁arrest	-9.44965
▁behind	-9.44966
▁spoke	-9.4497
▁successful	-9.44973
▁RTPCR	-9.4498
▁findings	-9.45024
rought	-9.45085
▁recently	-9.45249
▁former	-9.45658
agar	-9.45801
▁minutes	-9.4634
▁infect	-9.46348
29	-9.46385
▁conduct	-9.46463
▁Expert	-9.47346
▁awareness	-9.47346
▁focus	-9.47346
▁incident	-9.47346
▁physical	-9.47346
▁remedicivir	-9.47346
▁request	-9.47346
▁relax	-9.47346
▁turn	-9.47347
▁detail	-9.47347
▁break	-9.47347
▁huge	-9.47347
▁price	-9.47348
▁course	-9.47348
▁buy	-9.47356
▁press	-9.47518
▁disinfect	-9.47828
▁delivery	-9.47906
▁PM	-9.48081
▁completed	-9.48193
▁Un	-9.48728
▁receiv	-9.48967
▁San	-9.49028
▁training	-9.49389
▁27	-9.49576
It	-9.49617
▁Gujarat	-9.49785
▁Thursday	-9.49785
▁conference	-9.49785
▁field	-9.49785
▁platform	-9.49785
▁function	-9.49785
▁picture	-9.49785
▁black	-9.49786
▁adapt	-9.49786
▁model	-9.49788
▁scale	-9.49795
▁Shiv	-9.4983
▁criticized	-9.49995
▁Iran	-9.50047
▁researchers	-9.50157
ency	-9.50365
itis	-9.50719
▁manag	-9.51332
▁door	-9.51359
There	-9.51405
▁employ	-9.52284
▁Gaikwad	-9.52285
▁backdrop	-9.52285
▁contagious	-9.52285
▁environment	-9.52285
▁exactly	-9.52285
▁receptor	-9.52285
▁responsibility	-9.52285
▁website	-9.52285
▁Satara	-9.52285
▁phone	-9.52286
▁bodies	-9.52286
▁Adar	-9.52311
▁passed	-9.52311
▁Today	-9.52324
▁priority	-9.52331
▁Nagar	-9.52348
▁worse	-9.5237
▁careful	-9.52393
▁Ye	-9.52485
▁Last	-9.52514
▁virology	-9.52573
▁recovery	-9.52818
5%	-9.52854
▁dead	-9.52961
▁species	-9.53085
activ	-9.53096
▁suffering	-9.53166
▁ward	-9.53766
▁monitoring	-9.53871
▁whole	-9.54157
▁continu	-9.54532
q	-9.54666
shield	-9.54849
▁Guardian	-9.54849
▁Information	-9.54849
▁Service	-9.54849
▁Trump	-9.54849
▁hundred	-9.54849
▁laboratories	-9.54849
▁manufacturing	-9.54849
▁regular	-9.54849
▁sudden	-9.54849
▁precaution	-9.54849
▁Monday	-9.5485
▁Coronavirus	-9.5485
▁reaction	-9.5485
▁running	-9.54855
▁swab	-9.54897
▁sell	-9.54935
▁terms	-9.54938
▁growth	-9.54942
▁via	-9.55
▁protection	-9.55168
63	-9.55221
▁Force	-9.5524
▁returned	-9.56264
▁mis	-9.56269
posed	-9.56434
round	-9.56459
▁observ	-9.56593
▁register	-9.56597
▁decide	-9.5709
▁Deve	-9.57212
▁shop	-9.57325
dependent	-9.57388
▁California	-9.57481
▁Emergenc	-9.57481
▁Opposition	-9.57481
▁distancing	-9.57481
▁export	-9.57481
▁responsible	-9.57481
▁scientific	-9.57481
▁Solapur	-9.57481
▁session	-9.57481
▁decline	-9.57481
▁zone	-9.57482
▁delay	-9.57483
▁paid	-9.57484
▁attack	-9.57485
▁woman	-9.57485
▁acid	-9.57518
▁final	-9.57563
▁anyone	-9.57591
▁rest	-9.57817
▁Currently	-9.57913
itially	-9.5794
17	-9.57989
▁seem	-9.58054
▁presen	-9.58372
▁Hon	-9.58393
COVID	-9.58516
serv	-9.58902
▁grow	-9.59157
▁suffer	-9.59239
▁crowded	-9.59443
▁significant	-9.59834
▁closure	-9.60049
▁teach	-9.60073
pproximate	-9.60184
▁Additional	-9.60184
▁Aurangabad	-9.60184
▁appropriate	-9.60184
▁digital	-9.60184
▁network	-9.60184
▁tempora	-9.60184
▁damage	-9.60184
▁join	-9.60184
▁improve	-9.60184
▁screen	-9.60184
▁tonnes	-9.60185
▁Two	-9.60188
▁isolated	-9.60188
▁better	-9.60216
cular	-9.60389
▁formula	-9.60431
▁transportation	-9.60433
▁involved	-9.60493
gaon	-9.60529
▁decreased	-9.60547
chief	-9.60577
▁technology	-9.60679
4%	-9.60702
▁longer	-9.61064
relat	-9.61884
▁talk	-9.62019
▁Pha	-9.62471
▁additional	-9.62631
7%	-9.62654
▁refer	-9.62879
▁measure	-9.6291
▁bio	-9.62911
▁Citizens	-9.62961
▁November	-9.62961
▁Poonawala	-9.62961
▁Prevention	-9.62961
▁Wednesday	-9.62961
▁accept	-9.62961
▁admission	-9.62961
▁ambulance	-9.62961
▁chron	-9.62961
▁frequent	-9.62961
▁operation	-9.62961
▁storage	-9.62961
▁strong	-9.62961
▁studied	-9.62961
▁universities	-9.62961
▁management	-9.62962
▁minim	-9.62962
flamma	-9.62963
▁mother	-9.62963
▁rush	-9.62964
▁consult	-9.62964
▁space	-9.62964
▁believe	-9.62969
▁never	-9.62975
▁East	-9.62976
▁interest	-9.63032
▁station	-9.63057
▁severity	-9.63131
▁Sever	-9.633
▁bank	-9.6344
▁availability	-9.63532
▁thought	-9.63736
▁experienc	-9.64106
WHO	-9.64146
▁detected	-9.64166
ock	-9.64502
▁48	-9.64737
▁meet	-9.64905
▁site	-9.6492
2)	-9.65221
▁immediate	-9.65472
▁recent	-9.65473
sufficient	-9.65819
▁Australia	-9.65819
▁Hyderabad	-9.65819
▁Passenger	-9.65819
▁Tuesday	-9.65819
▁approval	-9.65819
▁capital	-9.65819
▁obtain	-9.65819
▁respond	-9.65819
▁security	-9.65819
▁border	-9.65819
▁determine	-9.65819
▁feet	-9.65819
▁friend	-9.65819
▁money	-9.65819
▁Task	-9.6582
▁loss	-9.6582
▁planned	-9.65828
▁shut	-9.65829
▁fall	-9.65831
▁Let	-9.65845
▁foreign	-9.65858
▁begin	-9.65869
▁teachers	-9.65939
▁properly	-9.66587
38	-9.66698
az	-9.66807
IV	-9.67198
▁decrease	-9.68365
▁fast	-9.68509
If	-9.68661
▁multi	-9.68752
▁Bhondwe	-9.6876
▁Diwali	-9.6876
▁committee	-9.6876
▁efficacy	-9.6876
▁enforce	-9.6876
▁explain	-9.6876
▁simple	-9.6876
▁subject	-9.6876
▁investigation	-9.6876
▁message	-9.6876
▁photo	-9.6876
▁ongoing	-9.6876
▁therapy	-9.6876
▁tract	-9.68761
▁resources	-9.68764
▁Baba	-9.68764
▁banned	-9.68764
▁multiple	-9.68772
▁dangerous	-9.68777
▁speed	-9.68781
▁antigen	-9.6881
▁spend	-9.68857
▁percentage	-9.68883
▁kit	-9.68903
ength	-9.69022
▁relative	-9.69092
53	-9.69351
▁emerg	-9.69865
ternational	-9.70009
▁performed	-9.70107
Corona	-9.70123
▁discuss	-9.70355
▁implement	-9.7078
▁kill	-9.70911
▁500	-9.71204
13	-9.71439
▁America	-9.7179
▁Committee	-9.7179
▁Council	-9.7179
▁agencies	-9.7179
▁assistance	-9.7179
▁suspend	-9.7179
▁urban	-9.7179
▁Ramde	-9.7179
▁Vijay	-9.7179
▁intermedia	-9.7179
▁promot	-9.71791
▁failure	-9.71791
▁activity	-9.71791
▁Kong	-9.71793
▁peak	-9.71796
▁surg	-9.71797
▁entry	-9.71799
▁etc	-9.71804
▁missing	-9.71821
▁toilet	-9.71847
▁hold	-9.71953
▁someone	-9.71995
▁classes	-9.72183
▁distributed	-9.72191
▁Test	-9.72262
▁prevention	-9.72463
andeep	-9.72806
▁dispos	-9.72893
▁serve	-9.72997
free	-9.73269
contaminat	-9.74915
▁Chandrapur	-9.74915
▁Earlier	-9.74915
▁Sputnik	-9.74915
▁exercise	-9.74915
▁medication	-9.74915
▁sequence	-9.74915
▁supplier	-9.74915
▁Consider	-9.74915
▁closing	-9.74915
▁spike	-9.74916
▁billion	-9.74916
▁Work	-9.74917
▁road	-9.74934
▁older	-9.74939
▁hope	-9.7499
▁varie	-9.75035
▁ju	-9.75073
▁Over	-9.75165
▁let	-9.7528
▁Or	-9.75637
▁gas	-9.76031
rmal	-9.76465
SARS	-9.76473
▁inform	-9.77134
▁import	-9.78053
▁prior	-9.78084
▁restrict	-9.78123
▁England	-9.78141
▁Kerala	-9.78141
▁Krishna	-9.78141
▁Railway	-9.78141
▁adequate	-9.78141
▁clarified	-9.78141
▁enzyme	-9.78141
▁pangolin	-9.78141
▁pregnant	-9.78141
▁unknown	-9.78141
▁widespread	-9.78141
▁elderly	-9.78141
▁mentioned	-9.78142
▁understand	-9.78142
▁Malik	-9.78142
▁link	-9.78143
▁violat	-9.78143
▁extent	-9.78145
▁overall	-9.78152
organisms	-9.78152
▁poor	-9.78153
▁rising	-9.78157
▁word	-9.78165
▁exposed	-9.78188
▁carry	-9.78206
▁item	-9.78219
▁Medicine	-9.78252
▁offer	-9.78357
▁arise	-9.78368
▁Fund	-9.78442
▁parties	-9.78444
▁significantly	-9.78561
▁Amit	-9.78814
long	-9.78822
ommunication	-9.79056
slam	-9.79611
▁cho	-9.79639
hav	-9.80394
CO	-9.80544
▁giv	-9.80548
▁threat	-9.80555
73	-9.80639
ecutive	-9.81474
▁August	-9.81474
▁Children	-9.81474
▁Deshmukh	-9.81474
▁Rajasthan	-9.81474
▁Singapore	-9.81474
▁Twitter	-9.81474
▁analysis	-9.81474
▁constantly	-9.81474
▁earlier	-9.81474
▁recogniz	-9.81474
▁segregation	-9.81474
▁ventilation	-9.81474
▁Karona	-9.81474
▁device	-9.81475
▁Japan	-9.81476
▁programmes	-9.81476
▁eating	-9.81489
▁toward	-9.81512
▁strategies	-9.81521
▁EU	-9.81599
isaster	-9.8161
▁Nawa	-9.81721
▁Sure	-9.82103
▁flight	-9.82186
▁Dat	-9.82224
▁mid	-9.82238
▁rub	-9.8312
night	-9.83247
corona	-9.83258
▁involve	-9.84528
ssential	-9.84876
▁gather	-9.849
▁buil	-9.84922
rofessor	-9.84922
▁Kejriwal	-9.84922
▁Lucas	-9.84922
▁cabinet	-9.84922
▁colleagues	-9.84922
▁describ	-9.84922
▁gradually	-9.84922
▁grocer	-9.84922
▁initiative	-9.84922
▁object	-9.84922
▁represent	-9.84922
▁facility	-9.84923
▁guidance	-9.84923
▁Modern	-9.84923
▁Reddy	-9.84923
▁shift	-9.84923
uarantine	-9.84923
▁super	-9.84924
▁select	-9.84924
▁personnel	-9.84924
acquir	-9.84924
▁chance	-9.84936
▁towel	-9.84939
veryone	-9.84957
▁key	-9.8496
▁Where	-9.84966
▁coding	-9.8497
▁Covin	-9.85014
▁seat	-9.85049
▁implementation	-9.85065
sense	-9.85167
▁mass	-9.85183
▁Out	-9.85216
▁greater	-9.85308
86	-9.85611
▁Sood	-9.85752
emed	-9.86093
75	-9.8639
▁fine	-9.86602
aff	-9.86736
washing	-9.86832
▁creat	-9.86838
68	-9.87155
▁add	-9.88062
droxychloroquine	-9.88494
pharmaceutical	-9.88494
▁Development	-9.88494
▁Hubei	-9.88494
▁Science	-9.88494
▁Vidarbha	-9.88494
▁alternative	-9.88494
▁communities	-9.88494
▁confusion	-9.88494
▁domestic	-9.88494
▁funeral	-9.88494
▁liquid	-9.88494
▁ministry	-9.88494
▁privacy	-9.88494
▁remedesivir	-9.88494
▁clots	-9.88494
▁Gandhi	-9.88494
▁FDA	-9.88494
▁Administration	-9.88494
▁wedding	-9.88495
▁tax	-9.885
▁reduction	-9.88521
▁harm	-9.88522
▁mov	-9.88543
▁hospitalization	-9.88549
▁ICMR	-9.88554
▁Hind	-9.88562
▁agent	-9.88571
▁range	-9.88582
▁finger	-9.88692
▁faster	-9.88809
▁Shash	-9.88881
▁student	-9.89291
▁Maha	-9.89545
said	-9.90629
ED	-9.90641
secondary	-9.91279
ologist	-9.91869
▁His	-9.92169
▁remedi	-9.92186
WIN	-9.92198
membrane	-9.92198
ngiotensin	-9.92198
▁Before	-9.92198
▁participating	-9.92198
▁reservoir	-9.92198
▁sneezing	-9.92198
▁hotspot	-9.92198
▁pediatric	-9.92198
▁household	-9.92198
▁basis	-9.92198
▁Human	-9.92199
▁activist	-9.92199
▁Paul	-9.92201
▁Munde	-9.92201
▁section	-9.92209
▁Johnson	-9.92252
▁Act	-9.92557
▁Such	-9.92566
▁expert	-9.93133
▁announc	-9.95163
▁British	-9.96044
▁Kolhapur	-9.96044
▁husband	-9.96044
▁politics	-9.96044
▁remote	-9.96044
▁specimen	-9.96044
▁tissue	-9.96044
▁commission	-9.96044
▁institutions	-9.96044
▁purpose	-9.96044
▁typical	-9.96044
▁machine	-9.96044
▁fatalit	-9.96045
▁Strict	-9.96047
▁true	-9.96053
▁refus	-9.96064
▁preliminary	-9.96072
▁menstruation	-9.96074
▁Sena	-9.96092
▁importance	-9.96097
▁ground	-9.9611
worth	-9.96296
bility	-9.96656
convert	-9.97029
even	-9.97108
▁extra	-9.97261
J	-9.98372
March	-9.98377
Happ	-9.98827
gainst	-9.98843
▁devotees	-10.0004
▁diagnosis	-10.0004
▁distress	-10.0004
▁droplets	-10.0004
▁facilitate	-10.0004
▁feature	-10.0004
▁holiday	-10.0004
▁restaurant	-10.0004
▁territories	-10.0004
▁themselves	-10.0004
▁trouble	-10.0004
▁aerosol	-10.0004
▁deploy	-10.0004
▁respective	-10.0004
▁surviv	-10.0004
▁zoono	-10.0004
▁Follow	-10.0004
▁cluster	-10.0004
▁connection	-10.0004
▁activities	-10.0004
adhya	-10.0004
▁resort	-10.0004
▁abroad	-10.0005
▁everything	-10.0005
▁warned	-10.0005
▁charg	-10.0006
▁regulations	-10.0007
▁middle	-10.0008
ubation	-10.0009
▁moderate	-10.001
▁sale	-10.0017
saw	-10.0018
▁municipality	-10.0019
referred	-10.0019
▁virolog	-10.0097
▁step	-10.0129
rubb	-10.0219
district	-10.0254
covid	-10.0254
work	-10.0255
deep	-10.0327
ients	-10.0342
▁moder	-10.0415
▁Bhushan	-10.0421
▁Jessica	-10.0421
▁Pimpri	-10.0421
▁UNESCO	-10.0421
▁York	-10.0421
▁controversy	-10.0421
▁correspond	-10.0421
▁intervention	-10.0421
▁position	-10.0421
▁struggl	-10.0421
▁supplies	-10.0421
▁ticket	-10.0421
▁twice	-10.0421
▁arrange	-10.0421
▁inquiry	-10.0421
▁search	-10.0421
HKU	-10.0421
▁Election	-10.0421
▁identify	-10.0421
▁wrong	-10.0421
▁Bihar	-10.0421
▁farmers	-10.0421
▁shock	-10.0421
▁moment	-10.0421
▁Biden	-10.0421
▁establishments	-10.0422
▁opposition	-10.0422
▁excluded	-10.0422
▁false	-10.0422
▁bind	-10.0423
▁something	-10.0423
▁thus	-10.0423
▁idea	-10.0519
▁inhibit	-10.0542
▁requir	-10.0557
Table	-10.0575
India	-10.0692
human	-10.0697
▁success	-10.0854
Chinchwad	-10.0856
▁Kovacin	-10.0856
▁accused	-10.0856
▁celebrat	-10.0856
▁combination	-10.0856
▁compound	-10.0856
▁discharg	-10.0856
▁institute	-10.0856
▁plasma	-10.0856
▁proposal	-10.0856
▁secretary	-10.0856
▁vacancies	-10.0856
pulmon	-10.0856
▁Management	-10.0856
▁extreme	-10.0856
▁empty	-10.0856
▁instead	-10.0856
▁kind	-10.0856
▁operate	-10.0856
▁predict	-10.0856
▁cloth	-10.0856
Student	-10.0856
Report	-10.0856
▁probabl	-10.0857
▁forward	-10.0858
▁nature	-10.0858
▁transmitted	-10.0858
▁camels	-10.0858
▁enhanc	-10.0859
▁himself	-10.086
▁frontline	-10.0862
income	-10.1164
▁extend	-10.1222
ecause	-10.1301
estrictions	-10.1304
possibl	-10.131
▁Canada	-10.131
▁Haridwar	-10.131
▁Pakistan	-10.131
▁Punawala	-10.131
▁Similar	-10.131
▁afraid	-10.131
▁attempt	-10.131
▁bicycle	-10.131
▁chloroquine	-10.131
▁customer	-10.131
▁demonstrat	-10.131
▁everywhere	-10.131
▁opportunit	-10.131
▁policies	-10.131
▁quality	-10.131
▁quick	-10.131
▁revealed	-10.131
▁therapeutic	-10.131
▁tomorrow	-10.131
relevant	-10.131
satisf	-10.131
▁Pharma	-10.131
▁Tamil	-10.131
▁battle	-10.1311
▁cremat	-10.1311
stream	-10.1311
▁overcome	-10.1311
▁father	-10.1311
▁birth	-10.1311
▁image	-10.1311
▁boost	-10.1311
▁Order	-10.1311
lescent	-10.1311
▁prompt	-10.1311
science	-10.1311
▁complaints	-10.1312
▁comment	-10.1312
▁anything	-10.1312
▁identity	-10.1312
▁wipe	-10.1314
▁nine	-10.1314
▁serology	-10.1314
crete	-10.1332
mphasi	-10.1351
▁effort	-10.1493
▁individual	-10.1494
▁passenger	-10.1495
▁symptom	-10.1495
▁emergenc	-10.1561
east	-10.1631
risk	-10.1632
fined	-10.1693
▁compar	-10.1703
▁German	-10.174
▁menstrua	-10.1783
positivity	-10.1787
▁Authority	-10.1787
▁Harshvardhan	-10.1787
▁Haryana	-10.1787
▁Leader	-10.1787
▁accident	-10.1787
▁atmosphere	-10.1787
▁complications	-10.1787
▁construction	-10.1787
▁discovered	-10.1787
▁doubt	-10.1787
▁engineer	-10.1787
▁hazard	-10.1787
▁located	-10.1787
▁railway	-10.1787
▁volunteer	-10.1787
▁leaving	-10.1787
▁nucle	-10.1787
▁technic	-10.1787
▁Raigad	-10.1787
▁Spain	-10.1787
▁consistent	-10.1787
▁Zhang	-10.1787
▁muscle	-10.1787
Figure	-10.1787
▁tourists	-10.1787
▁broke	-10.1787
▁Nepal	-10.1787
▁corporation	-10.1787
▁Jayant	-10.1787
▁install	-10.1787
▁Controller	-10.1787
▁fail	-10.1787
▁applied	-10.1787
▁manner	-10.1787
▁introduced	-10.1787
▁immuno	-10.1788
▁alert	-10.1789
▁gatherings	-10.179
8%)	-10.1791
▁cancelled	-10.1793
▁North	-10.1796
knowledge	-10.1878
▁minute	-10.1993
▁reduc	-10.2051
ACE	-10.2119
▁declar	-10.2198
▁confirm	-10.2198
▁inject	-10.2274
ization	-10.228
▁danger	-10.2284
://	-10.2287
▁complex	-10.2287
▁Dharavi	-10.2287
▁Infection	-10.2287
▁Maratha	-10.2287
▁Treatment	-10.2287
▁budget	-10.2287
▁circulating	-10.2287
▁encourage	-10.2287
▁envelope	-10.2287
▁graph	-10.2287
▁industrial	-10.2287
▁interview	-10.2287
▁mechanism	-10.2287
▁otherwise	-10.2287
▁petition	-10.2287
▁pregnancy	-10.2287
▁recruit	-10.2287
▁relief	-10.2287
▁sneeze	-10.2287
▁discovery	-10.2287
▁disorder	-10.2287
▁evaluat	-10.2287
▁province	-10.2287
▁traffic	-10.2287
▁London	-10.2287
▁federal	-10.2287
▁storm	-10.2287
▁biggest	-10.2287
▁alleged	-10.2287
▁Local	-10.2287
orkplace	-10.2287
▁routine	-10.2287
▁brother	-10.2287
▁drop	-10.2287
http	-10.2287
▁Harsh	-10.2287
▁grant	-10.2287
▁panic	-10.2287
▁Four	-10.2287
▁upper	-10.2288
▁reverse	-10.2289
▁lift	-10.229
▁wife	-10.2292
▁love	-10.2292
▁port	-10.2357
preserv	-10.2364
▁Ya	-10.2484
▁capab	-10.2485
species	-10.2644
bacteria	-10.2644
People	-10.2646
symptomatic	-10.2693
mong	-10.2714
▁clinic	-10.2763
express	-10.2811
Bioentech	-10.2813
DCGI	-10.2813
▁Besides	-10.2813
▁Canadian	-10.2813
▁Kingdom	-10.2813
▁Mahavikas	-10.2813
▁airport	-10.2813
▁assembl	-10.2813
▁certificate	-10.2813
▁chemical	-10.2813
▁cocktail	-10.2813
▁contribut	-10.2813
▁coordinat	-10.2813
▁license	-10.2813
▁polymerase	-10.2813
▁strategy	-10.2813
▁vaccinating	-10.2813
▁yesterday	-10.2813
▁Covax	-10.2813
▁achiev	-10.2813
▁bottle	-10.2813
▁sleep	-10.2813
EEA	-10.2813
▁Sawant	-10.2813
▁NCP	-10.2813
▁worship	-10.2813
▁Pandit	-10.2813
▁basic	-10.2813
▁duration	-10.2813
▁Clinic	-10.2813
▁surgery	-10.2813
▁worry	-10.2813
▁occurred	-10.2814
▁Post	-10.2814
▁blam	-10.2815
intestin	-10.2817
▁attract	-10.2819
Class	-10.2827
risen	-10.3154
CDC	-10.32
coronavirus	-10.3202
This	-10.3203
ntibody	-10.3247
▁expect	-10.328
▁complain	-10.3367
clusive	-10.3368
efficient	-10.3368
evolution	-10.3368
transcript	-10.3368
▁Aghadi	-10.3368
▁Cambridge	-10.3368
▁Family	-10.3368
▁Global	-10.3368
▁Google	-10.3368
▁Upadhyay	-10.3368
▁cruise	-10.3368
▁electron	-10.3368
▁evacuat	-10.3368
▁experiment	-10.3368
▁hypoxia	-10.3368
▁operating	-10.3368
▁psychiatri	-10.3368
▁registration	-10.3368
▁sampling	-10.3368
▁subsequent	-10.3368
▁summer	-10.3368
▁technique	-10.3368
ollution	-10.3368
▁package	-10.3368
▁contrast	-10.3368
▁artery	-10.3368
▁reliable	-10.3368
▁Group	-10.3368
▁Women	-10.3368
▁pharma	-10.3369
▁insurance	-10.3369
microbial	-10.3369
▁Agency	-10.3369
▁headache	-10.3369
▁Under	-10.3369
▁loan	-10.3369
▁Awate	-10.3369
▁lockout	-10.337
▁Talk	-10.337
▁game	-10.337
▁recommendations	-10.337
▁begun	-10.3371
▁fees	-10.3372
▁partner	-10.3373
structed	-10.3483
▁structur	-10.3544
lder	-10.3608
cardi	-10.365
▁realiz	-10.3757
infected	-10.3764
AstraZeneca	-10.3788
Covid	-10.379
vailability	-10.3835
oreign	-10.395
easures	-10.3951
iddle	-10.3952
▁transmit	-10.3953
Statistics	-10.3957
▁Ahmednagar	-10.3957
▁Akola	-10.3957
▁Avoid	-10.3957
▁Contact	-10.3957
▁Express	-10.3957
▁Facebook	-10.3957
▁Foundation	-10.3957
▁Halfkin	-10.3957
▁Javadekar	-10.3957
▁Karnataka	-10.3957
▁Pandharpur	-10.3957
▁Thorat	-10.3957
▁Welfare	-10.3957
▁Yojana	-10.3957
▁academic	-10.3957
▁afford	-10.3957
▁always	-10.3957
▁behavior	-10.3957
▁burden	-10.3957
▁cemetery	-10.3957
▁collapse	-10.3957
▁comfort	-10.3957
▁cycle	-10.3957
▁documents	-10.3957
▁electric	-10.3957
▁eliminat	-10.3957
▁gloves	-10.3957
▁pattern	-10.3957
▁window	-10.3957
adjust	-10.3957
▁Vardhan	-10.3957
▁agitation	-10.3957
▁background	-10.3957
▁promising	-10.3957
correct	-10.3957
▁Shops	-10.3957
▁repeated	-10.3957
▁reservation	-10.3957
▁Aditya	-10.3957
▁ignor	-10.3957
▁text	-10.3957
▁laborers	-10.3957
▁Social	-10.3957
▁Brook	-10.3957
▁cancellation	-10.3957
▁unfortunate	-10.3957
▁agreed	-10.3957
▁internet	-10.3957
▁Demand	-10.3957
▁reserved	-10.3957
▁dropped	-10.3957
▁milk	-10.3957
Mamata	-10.3957
▁First	-10.3957
▁orphan	-10.3957
▁audit	-10.3957
▁vot	-10.3958
ctually	-10.3958
▁Thus	-10.3958
▁Store	-10.3958
▁compli	-10.3959
aheb	-10.3962
▁patholog	-10.3966
▁prim	-10.3967
▁Plan	-10.3967
▁Aadha	-10.4019
spira	-10.4036
threaten	-10.4123
▁methodolog	-10.4373
confirmed	-10.4414
fforts	-10.4574
▁AIIMS	-10.4582
▁Affairs	-10.4582
▁Celsius	-10.4582
▁Company	-10.4582
▁Darekar	-10.4582
▁Second	-10.4582
▁Survey	-10.4582
▁Uttarakhand	-10.4582
▁agreement	-10.4582
▁anywhere	-10.4582
▁circumstances	-10.4582
▁comprehensive	-10.4582
▁criteria	-10.4582
▁criticism	-10.4582
▁drink	-10.4582
▁fatigue	-10.4582
▁festival	-10.4582
▁fruit	-10.4582
▁influence	-10.4582
▁maxim	-10.4582
▁migrant	-10.4582
▁parcel	-10.4582
▁suppress	-10.4582
▁traditional	-10.4582
▁Journal	-10.4582
▁comparison	-10.4582
▁proportion	-10.4582
▁dismiss	-10.4582
▁mutated	-10.4582
▁happy	-10.4582
▁stick	-10.4582
▁traders	-10.4582
▁IMA	-10.4582
▁alpha	-10.4582
▁Chavan	-10.4582
nstitution	-10.4582
▁wrote	-10.4582
▁mitigat	-10.4582
▁baby	-10.4582
▁quot	-10.4582
▁Thre	-10.4582
▁felt	-10.4582
▁winter	-10.4583
cumulati	-10.4584
▁Kamal	-10.4584
▁amino	-10.4585
▁Special	-10.5031
▁complet	-10.5091
cknowledg	-10.512
▁distribut	-10.5149
▁administrati	-10.5237
rivate	-10.5238
▁journal	-10.5243
frastructure	-10.5248
▁implications	-10.5248
▁mRNA	-10.5248
expensive	-10.5248
▁Akhada	-10.5248
▁Infectious	-10.5248
▁Policy	-10.5248
▁Right	-10.5248
▁Shinde	-10.5248
▁Society	-10.5248
▁Surveillance	-10.5248
▁association	-10.5248
▁challenging	-10.5248
▁congestion	-10.5248
▁cultural	-10.5248
▁disadvantage	-10.5248
▁geographical	-10.5248
▁industries	-10.5248
▁liquor	-10.5248
▁newspaper	-10.5248
▁remember	-10.5248
▁stomach	-10.5248
▁vomiting	-10.5248
▁Hypoxia	-10.5248
▁advance	-10.5248
precedent	-10.5248
▁Parishad	-10.5248
▁Shivaji	-10.5248
▁injury	-10.5248
▁protease	-10.5248
▁cinema	-10.5248
▁rallies	-10.5248
▁Israel	-10.5248
Coronil	-10.5248
▁Vivek	-10.5248
▁cooperat	-10.5248
▁interval	-10.5249
▁2012	-10.5249
▁Nadu	-10.5249
▁civet	-10.5249
▁Kadu	-10.5249
uestion	-10.5249
DNA	-10.525
drawn	-10.5251
▁compromis	-10.5253
hibition	-10.5756
▁extract	-10.5774
Even	-10.5796
▁instruct	-10.5811
promised	-10.5958
cientists	-10.5958
▁lopinavir	-10.5963
ccupational	-10.5963
▁Privacy	-10.5963
▁Taiwan	-10.5963
▁bronchitis	-10.5963
ARDS	-10.5963
investigating	-10.5963
isinformation	-10.5963
▁Alcohol	-10.5963
▁Denmark	-10.5963
▁Guidelines	-10.5963
▁MPSC	-10.5963
▁Market	-10.5963
▁Network	-10.5963
▁Novavax	-10.5963
▁Punjab	-10.5963
▁Symptoms	-10.5963
▁Thailand	-10.5963
▁Thousands	-10.5963
▁Washington	-10.5963
▁Yavatmal	-10.5963
▁administer	-10.5963
▁easily	-10.5963
▁floor	-10.5963
▁gynecologist	-10.5963
▁morbidity	-10.5963
▁popular	-10.5963
▁prescrib	-10.5963
▁sensitive	-10.5963
▁submitted	-10.5963
▁vitamin	-10.5963
▁replac	-10.5963
▁smoke	-10.5963
▁Ramesh	-10.5963
▁Sheikh	-10.5963
▁obstruct	-10.5963
▁ailments	-10.5963
▁Maharaj	-10.5963
▁Rules	-10.5963
▁PTI	-10.5963
ISC	-10.5963
▁Compar	-10.5963
▁dispute	-10.5963
▁sealed	-10.5963
vector	-10.5963
▁Times	-10.5963
▁persisten	-10.5964
▁1201	-10.5967
162	-10.597
resistan	-10.6039
abilit	-10.6259
subsid	-10.6283
▁figure	-10.6439
▁statistic	-10.644
specific	-10.6564
Chinese	-10.6565
January	-10.6565
When	-10.6565
▁Johns	-10.672
CMR	-10.6724
corpor	-10.6732
iagnostic	-10.6732
ritonavir	-10.6732
volume	-10.6732
▁Agarwal	-10.6732
▁Cabinet	-10.6732
▁Gadchiroli	-10.6732
▁Netherlands	-10.6732
▁Osmanabad	-10.6732
▁Pharmaceutical	-10.6732
▁Remdesivir	-10.6732
▁Shenzhen	-10.6732
▁accelerat	-10.6732
▁accurate	-10.6732
▁antibiotic	-10.6732
▁collaboration	-10.6732
▁concept	-10.6732
▁conferencing	-10.6732
▁dashboard	-10.6732
▁decreasing	-10.6732
▁journey	-10.6732
▁module	-10.6732
▁recombination	-10.6732
▁reflect	-10.6732
▁rejected	-10.6732
▁remdesivir	-10.6732
▁simply	-10.6732
▁speech	-10.6732
▁stuck	-10.6732
▁thorough	-10.6732
▁uncertain	-10.6732
▁Bajirao	-10.6732
▁Bhagwat	-10.6732
▁Parliament	-10.6732
▁Patanjali	-10.6732
▁Zydus	-10.6732
▁drastic	-10.6732
▁commerc	-10.6732
▁pilot	-10.6732
▁remind	-10.6732
▁Ebola	-10.6732
▁Wardha	-10.6732
mbass	-10.6732
▁Answer	-10.6732
connected	-10.6732
▁smell	-10.6732
▁foot	-10.6732
▁Sangli	-10.6732
▁Arabia	-10.6732
roduction	-10.6753
infection	-10.7262
▁nurse	-10.7273
December	-10.7398
effective	-10.7398
▁practi	-10.7504
regulation	-10.756
LRTI	-10.7565
▁autopsy	-10.7565
▁categor	-10.7565
▁context	-10.7565
▁pneumo	-10.7565
▁truck	-10.7565
OSHA	-10.7565
efficienc	-10.7565
▁Adhanom	-10.7565
▁Bhujbal	-10.7565
▁Chhattisgarh	-10.7565
▁Industri	-10.7565
▁Niranjan	-10.7565
▁Safety	-10.7565
▁Secretariat	-10.7565
▁Surgeon	-10.7565
▁Through	-10.7565
▁antiseptic	-10.7565
▁beneficial	-10.7565
▁ceremony	-10.7565
▁concentrator	-10.7565
▁constituency	-10.7565
▁deteriorating	-10.7565
▁division	-10.7565
▁dwellers	-10.7565
▁dynamic	-10.7565
▁eradicat	-10.7565
▁hypertension	-10.7565
▁libraries	-10.7565
▁prohibit	-10.7565
▁provision	-10.7565
▁quantities	-10.7565
▁quarter	-10.7565
▁recognition	-10.7565
▁repair	-10.7565
▁replication	-10.7565
▁revenue	-10.7565
▁stabiliz	-10.7565
▁temple	-10.7565
▁transaction	-10.7565
▁unnecessary	-10.7565
▁Pandey	-10.7565
▁Short	-10.7565
▁enemy	-10.7565
▁Instead	-10.7565
▁consulate	-10.7565
▁opinion	-10.7565
▁yoga	-10.7565
▁washroom	-10.7565
▁strange	-10.7565
▁prioritize	-10.7565
▁throw	-10.7565
▁oppos	-10.7589
associated	-10.8306
MERS	-10.8307
through	-10.8307
introduc	-10.8441
inancial	-10.8466
▁Securit	-10.8474
(	-11.1669
Z	-11.4763
