<pad>	0
</s>	0
<unk>	0
▁t	-0
he	-1
▁a	-2
in	-3
▁the	-4
▁o	-5
re	-6
er	-7
▁s	-8
nd	-9
▁w	-10
on	-11
at	-12
is	-13
en	-14
▁of	-15
it	-16
▁c	-17
▁b	-18
or	-19
es	-20
▁f	-21
ed	-22
▁p	-23
ou	-24
an	-25
al	-26
ar	-27
▁in	-28
▁and	-29
ing	-30
▁to	-31
▁m	-32
▁d	-33
ion	-34
▁h	-35
ic	-36
as	-37
le	-38
▁th	-39
om	-40
ent	-41
ll	-42
▁T	-43
▁n	-44
▁A	-45
▁be	-46
▁e	-47
ve	-48
▁I	-49
▁is	-50
▁re	-51
ct	-52
▁S	-53
▁l	-54
ro	-55
st	-56
▁y	-57
ut	-58
▁g	-59
id	-60
ot	-61
se	-62
ur	-63
▁for	-64
ation	-65
▁wh	-66
im	-67
ce	-68
ay	-69
ly	-70
▁you	-71
ver	-72
▁u	-73
ad	-74
▁The	-75
ow	-76
▁on	-77
am	-78
▁C	-79
▁P	-80
il	-81
et	-82
▁-	-83
▁M	-84
ir	-85
▁H	-86
▁that	-87
ig	-88
ch	-89
ment	-90
▁he	-91
▁as	-92
ith	-93
ra	-94
▁B	-95
ol	-96
▁(	-97
▁it	-98
ill	-99
▁an	-100
▁or	-101
▁W	-102
if	-103
▁with	-104
ul	-105
od	-106
▁not	-107
ess	-108
▁are	-109
ter	-110
ri	-111
ge	-112
▁st	-113
▁de	-114
▁ha	-115
her	-116
▁G	-117
▁D	-118
▁we	-119
▁pro	-120
▁se	-121
▁R	-122
▁con	-123
ld	-124
res	-125
ate	-126
rom	-127
▁su	-128
ab	-129
op	-130
ers	-131
▁'	-132
nt	-133
▁L	-134
ak	-135
▁by	-136
▁com	-137
ist	-138
ain	-139
th	-140
▁sh	-141
pe	-142
▁1	-143
▁N	-144
▁ex	-145
est	-146
▁have	-147
iv	-148
▁was	-149
ity	-150
▁from	-151
ht	-152
▁them	-153
▁will	-154
▁O	-155
us	-156
all	-157
and	-158
ie	-159
▁who	-160
▁this	-161
▁they	-162
em	-163
ich	-164
▁v	-165
ac	-166
▁F	-167
▁E	-168
ant	-169
ive	-170
um	-171
ah	-172
os	-173
qu	-174
▁r	-175
ore	-176
▁which	-177
▁He	-178
▁Ind	-179
▁at	-180
▁has	-181
▁k	-182
ies	-183
pp	-184
red	-185
el	-186
ction	-187
art	-188
ort	-189
our	-190
ard	-191
▁ne	-192
▁their	-193
un	-194
▁al	-195
▁his	-196
ia	-197
ould	-198
▁All	-199
ure	-200
▁all	-201
▁2	-202
ord	-203
oc	-204
▁K	-205
pt	-206
▁le	-207
ind	-208
ong	-209
ight	-210
te	-211
▁ch	-212
▁do	-213
▁whe	-214
ust	-215
ose	-216
ous	-217
ther	-218
▁In	-219
ag	-220
age	-221
ud	-222
ated	-223
▁U	-224
▁your	-225
ial	-226
ome	-227
▁We	-228
▁pl	-229
ount	-230
▁wor	-231
▁Allah	-232
▁Th	-233
▁tr	-234
av	-235
▁me	-236
cc	-237
ip	-238
▁And	-239
▁go	-240
rou	-241
▁dis	-242
ost	-243
ance	-244
ide	-245
ect	-246
▁us	-247
▁sa	-248
ok	-249
▁pe	-250
ear	-251
ff	-252
▁ab	-253
▁man	-254
ry	-255
ans	-256
▁India	-257
▁un	-258
ame	-259
▁but	-260
▁can	-261
▁one	-262
▁comp	-263
ice	-264
able	-265
▁there	-266
▁J	-267
▁so	-268
▁him	-269
▁en	-270
ast	-271
nder	-272
▁up	-273
ary	-274
ish	-275
▁ad	-276
▁been	-277
▁any	-278
ople	-279
so	-280
▁j	-281
▁It	-282
ap	-283
▁were	-284
au	-285
ult	-286
▁im	-287
now	-288
ik	-289
▁per	-290
ub	-291
▁people	-292
one	-293
▁when	-294
gh	-295
▁"	-296
▁other	-297
ib	-298
▁V	-299
og	-300
▁ag	-301
ations	-302
ress	-303
ine	-304
ru	-305
ake	-306
iz	-307
pl	-308
ical	-309
▁out	-310
very	-311
ition	-312
▁said	-313
out	-314
per	-315
▁those	-316
▁cont	-317
▁am	-318
ail	-319
ire	-320
▁res	-321
are	-322
ings	-323
ign	-324
vers	-325
ens	-326
vel	-327
▁ar	-328
▁part	-329
▁inc	-330
▁also	-331
ue	-332
lic	-333
ime	-334
ence	-335
▁had	-336
▁/	-337
▁bel	-338
ade	-339
ath	-340
▁no	-341
ile	-342
▁what	-343
ase	-344
00	-345
ace	-346
ass	-347
orm	-348
ep	-349
ber	-350
▁its	-351
▁know	-352
▁shall	-353
▁under	-354
▁Ch	-355
urn	-356
ang	-357
▁cl	-358
▁int	-359
▁Y	-360
▁comm	-361
act	-362
▁our	-363
▁co	-364
port	-365
▁ev	-366
▁acc	-367
▁ind	-368
ution	-369
ach	-370
ook	-371
▁if	-372
reat	-373
ident	-374
▁Lord	-375
▁19	-376
ren	-377
fe	-378
ian	-379
▁may	-380
▁sp	-381
erv	-382
fore	-383
vern	-384
du	-385
▁bec	-386
▁God	-387
▁app	-388
ise	-389
rit	-390
ack	-391
ual	-392
▁This	-393
▁St	-394
ike	-395
ory	-396
▁te	-397
▁pre	-398
▁spe	-399
▁sc	-400
ious	-401
▁would	-402
ree	-403
ause	-404
▁year	-405
▁_	-406
▁tw	-407
▁then	-408
int	-409
ks	-410
▁only	-411
ric	-412
hed	-413
▁Sh	-414
▁3	-415
▁say	-416
▁sub	-417
ater	-418
▁rec	-419
▁time	-420
▁“	-421
ces	-422
ove	-423
sel	-424
▁such	-425
▁made	-426
01	-427
fter	-428
ild	-429
rib	-430
▁than	-431
ject	-432
wn	-433
▁Go	-434
▁over	-435
ful	-436
ational	-437
▁po	-438
▁prov	-439
we	-440
▁fo	-441
▁new	-442
ife	-443
form	-444
▁bet	-445
old	-446
lect	-447
iss	-448
ions	-449
▁ear	-450
▁rel	-451
▁belie	-452
ound	-453
▁like	-454
▁rem	-455
ied	-456
▁Wh	-457
▁more	-458
vernment	-459
ite	-460
uth	-461
tern	-462
▁cons	-463
aj	-464
ities	-465
ific	-466
ness	-467
▁Pro	-468
ons	-469
▁count	-470
own	-471
▁my	-472
ward	-473
▁should	-474
way	-475
▁work	-476
▁As	-477
▁act	-478
▁off	-479
ert	-480
▁qu	-481
▁day	-482
▁Se	-483
stit	-484
▁into	-485
▁about	-486
▁some	-487
▁pers	-488
▁these	-489
ark	-490
▁ass	-491
▁They	-492
▁good	-493
ved	-494
cept	-495
cy	-496
▁So	-497
▁Com	-498
ments	-499
velop	-500
▁again	-501
▁em	-502
▁fe	-503
ted	-504
▁De	-505
resident	-506
gr	-507
▁two	-508
other	-509
end	-510
row	-511
▁des	-512
▁reg	-513
oy	-514
ates	-515
hen	-516
▁life	-517
▁before	-518
ily	-519
ink	-520
▁Un	-521
▁ac	-522
▁But	-523
▁form	-524
▁”	-525
▁giv	-526
ower	-527
eng	-528
li	-529
ient	-530
▁Con	-531
▁inv	-532
ph	-533
led	-534
▁[	-535
ond	-536
▁bl	-537
rough	-538
).	-539
rent	-540
▁pr	-541
llow	-542
eth	-543
cess	-544
▁ent	-545
ob	-546
▁On	-547
▁ra	-548
▁after	-549
▁world	-550
),	-551
hi	-552
ors	-553
▁Re	-554
aw	-555
▁An	-556
▁see	-557
▁pres	-558
ft	-559
amm	-560
▁If	-561
▁ro	-562
▁sy	-563
ange	-564
▁dec	-565
▁through	-566
▁ob	-567
▁call	-568
▁right	-569
▁cre	-570
▁dif	-571
▁set	-572
▁serv	-573
ght	-574
ural	-575
▁ret	-576
▁br	-577
ple	-578
▁Pr	-579
ey	-580
▁cent	-581
▁President	-582
▁fir	-583
cial	-584
ublic	-585
ave	-586
▁Bh	-587
▁His	-588
▁used	-589
▁Is	-590
uc	-591
xt	-592
erm	-593
ever	-594
▁Act	-595
▁pol	-596
▁sec	-597
▁fl	-598
pect	-599
ting	-600
ween	-601
▁5	-602
▁sign	-603
▁between	-604
ts	-605
ood	-606
ener	-607
▁did	-608
▁her	-609
▁down	-610
▁make	-611
▁very	-612
▁where	-613
▁country	-614
▁develop	-615
ism	-616
▁Indian	-617
..	-618
its	-619
▁gu	-620
ages	-621
ased	-622
▁could	-623
▁trans	-624
arn	-625
▁op	-626
ally	-627
▁col	-628
lp	-629
ative	-630
ision	-631
▁well	-632
ced	-633
oth	-634
ves	-635
ha	-636
iew	-637
igh	-638
ull	-639
▁Government	-640
ax	-641
▁&	-642
ular	-643
▁being	-644
▁every	-645
▁great	-646
als	-647
elie	-648
▁way	-649
uring	-650
ible	-651
▁200	-652
▁You	-653
▁4	-654
eed	-655
hip	-656
▁pos	-657
▁many	-658
▁most	-659
▁follow	-660
pos	-661
▁En	-662
ility	-663
▁There	-664
mit	-665
uch	-666
▁back	-667
▁disc	-668
▁among	-669
arm	-670
▁ord	-671
▁add	-672
▁att	-673
▁she	-674
▁requ	-675
ars	-676
und	-677
olog	-678
▁person	-679
ble	-680
▁tra	-681
▁years	-682
gan	-683
les	-684
▁ed	-685
▁Min	-686
▁come	-687
▁turn	-688
any	-689
ute	-690
ures	-691
ating	-692
▁help	-693
▁upon	-694
▁Sc	-695
▁ap	-696
ents	-697
ided	-698
▁cle	-699
▁mess	-700
ank	-701
ven	-702
rong	-703
▁eff	-704
▁own	-705
▁even	-706
fer	-707
ised	-708
▁inte	-709
▁first	-710
▁against	-711
▁Ex	-712
ty	-713
ract	-714
▁<	-715
▁>	-716
▁supp	-717
ission	-718
▁Ne	-719
ited	-720
ough	-721
stem	-722
▁201	-723
▁just	-724
stitution	-725
ale	-726
ash	-727
con	-728
lud	-729
▁For	-730
round	-731
▁given	-732
▁produ	-733
▁get	-734
▁mat	-735
▁num	-736
▁hand	-737
▁need	-738
▁take	-739
▁child	-740
▁earth	-741
▁exp	-742
▁hum	-743
▁rep	-744
▁tak	-745
ather	-746
belie	-747
ern	-748
get	-749
ati	-750
▁because	-751
me	-752
of	-753
▁No	-754
ants	-755
ouse	-756
▁mem	-757
▁pass	-758
▁sent	-759
not	-760
read	-761
ving	-762
▁power	-763
ES	-764
oci	-765
▁gl	-766
ters	-767
▁Him	-768
▁how	-769
ature	-770
ished	-771
▁account	-772
oun	-773
▁Ad	-774
oint	-775
▁car	-776
▁dist	-777
ral	-778
▁To	-779
self	-780
▁end	-781
▁lit	-782
▁inst	-783
▁diffe	-784
roup	-785
▁writ	-786
formation	-787
air	-788
▁ph	-789
pend	-790
▁use	-791
▁believe	-792
rest	-793
▁pur	-794
▁gener	-795
▁another	-796
ck	-797
ya	-798
ides	-799
▁unt	-800
▁When	-801
▁does	-802
▁must	-803
tc	-804
ror	-805
▁min	-806
▁conc	-807
▁inter	-808
▁import	-809
▁Al	-810
▁bu	-811
ices	-812
▁nor	-813
▁wom	-814
▁away	-815
▁cert	-816
▁char	-817
▁place	-818
▁return	-819
ana	-820
arch	-821
ared	-822
ives	-823
chn	-824
▁Mu	-825
▁sm	-826
▁ye	-827
less	-828
▁equ	-829
▁want	-830
▁state	-831
ef	-832
▁etc	-833
▁now	-834
▁here	-835
▁long	-836
▁water	-837
▁system	-838
ee	-839
tle	-840
ital	-841
▁Our	-842
▁cur	-843
▁men	-844
iness	-845
uthor	-846
▁lead	-847
▁av	-848
▁cap	-849
▁val	-850
▁sure	-851
ctions	-852
su	-853
▁7	-854
▁8	-855
hes	-856
▁gr	-857
▁lo	-858
▁mod	-859
ified	-860
irect	-861
▁Hind	-862
▁book	-863
▁cond	-864
selves	-865
▁clear	-866
▁present	-867
...	-868
ict	-869
ered	-870
▁inf	-871
▁let	-872
▁loc	-873
▁name	-874
▁includ	-875
orn	-876
alth	-877
ired	-878
ries	-879
▁def	-880
▁open	-881
."	-882
pr	-883
day	-884
ick	-885
▁Te	-886
ains	-887
ists	-888
▁beh	-889
▁fam	-890
▁lar	-891
conom	-892
ivers	-893
wards	-894
▁give	-895
▁public	-896
EN	-897
▁Q	-898
ata	-899
▁med	-900
▁mon	-901
▁cour	-902
▁spec	-903
ug	-904
ense	-905
ript	-906
▁law	-907
▁Cent	-908
▁rece	-909
▁heart	-910
iod	-911
ont	-912
▁Am	-913
▁Day	-914
▁est	-915
▁imp	-916
ained	-917
ament	-918
lease	-919
▁comple	-920
▁number	-921
up	-922
ten	-923
▁came	-924
▁heav	-925
▁play	-926
▁fin	-927
olution	-928
har	-929
▁Do	-930
vent	-931
▁ask	-932
▁dev	-933
▁sin	-934
▁fear	-935
▁same	-936
▁called	-937
▁6	-938
lim	-939
ined	-940
lish	-941
▁vis	-942
riend	-943
▁conf	-944
▁prom	-945
▁human	-946
▁order	-947
▁partic	-948
▁0	-949
ize	-950
ody	-951
▁ke	-952
bers	-953
▁fil	-954
▁ins	-955
▁sur	-956
ister	-957
▁look	-958
▁State	-959
▁found	-960
▁truth	-961
▁OF	-962
▁ce	-963
▁Mah	-964
▁ser	-965
▁find	-966
▁land	-967
▁while	-968
▁different	-969
▁development	-970
ics	-971
ider	-972
ived	-973
▁fac	-974
▁fact	-975
▁word	-976
▁incre	-977
▁things	-978
▁process	-979
201	-980
ify	-981
ros	-982
tend	-983
ality	-984
iving	-985
ledge	-986
▁both	-987
▁list	-988
▁meet	-989
▁show	-990
▁bring	-991
ination	-992
ND	-993
tt	-994
rap	-995
here	-996
▁pri	-997
▁happ	-998
▁view	-999
▁wind	-1000
▁certain	-1001
ari	-1002
erg	-1003
ork	-1004
▁Be	-1005
ency	-1006
▁art	-1007
▁bus	-1008
aking	-1009
▁fore	-1010
▁much	-1011
▁start	-1012
▁wrong	-1013
▁period	-1014
ix	-1015
ms	-1016
man	-1017
asht	-1018
ield	-1019
imes	-1020
▁Res	-1021
▁ref	-1022
▁created	-1023
ctor	-1024
▁cor	-1025
▁ele	-1026
ology	-1027
▁mark	-1028
▁group	-1029
mission	-1030
▁author	-1031
▁during	-1032
▁except	-1033
▁disbelie	-1034
▁information	-1035
ai	-1036
oh	-1037
▁Par	-1038
▁dem	-1039
ocial	-1040
rence	-1041
▁What	-1042
▁stud	-1043
▁organ	-1044
▁econom	-1045
▁indust	-1046
▁interest	-1047
ER	-1048
ys	-1049
esh	-1050
rop	-1051
▁Rs	-1052
crib	-1053
ning	-1054
▁det	-1055
▁gra	-1056
▁mar	-1057
▁Then	-1058
▁educ	-1059
▁main	-1060
▁term	-1061
lected	-1062
▁women	-1063
▁commun	-1064
amp	-1065
▁Ar	-1066
avan	-1067
▁adv	-1068
▁pay	-1069
▁sim	-1070
ience	-1071
ually	-1072
▁Gand	-1073
▁oper	-1074
▁resp	-1075
▁thou	-1076
ov	-1077
▁9	-1078
▁fa	-1079
▁sl	-1080
ware	-1081
▁aff	-1082
▁ext	-1083
ither	-1084
stand	-1085
▁whom	-1086
▁progr	-1087
▁friend	-1088
ety	-1089
▁Pl	-1090
angu	-1091
▁Raj	-1092
▁high	-1093
▁think	-1094
▁cannot	-1095
▁section	-1096
▁National	-1097
▁‘	-1098
inal	-1099
▁occ	-1100
error	-1101
▁each	-1102
▁grow	-1103
▁become	-1104
RB	-1105
ock	-1106
▁10	-1107
▁fr	-1108
▁ty	-1109
reed	-1110
ember	-1111
▁case	-1112
▁rest	-1113
▁service	-1114
▁support	-1115
ID	-1116
the	-1117
ason	-1118
▁ver	-1119
▁Mess	-1120
▁best	-1121
▁cult	-1122
▁exam	-1123
▁estab	-1124
▁point	-1125
▁taken	-1126
▁techn	-1127
▁direct	-1128
▁towards	-1129
▁without	-1130
▁important	-1131
▁–	-1132
irc	-1133
ffic	-1134
oard	-1135
▁ben	-1136
▁ide	-1137
▁som	-1138
▁sou	-1139
ining	-1140
urity	-1141
▁Book	-1142
▁Shri	-1143
▁appe	-1144
▁conn	-1145
▁file	-1146
ething	-1147
▁small	-1148
▁stand	-1149
▁amount	-1150
▁government	-1151
lf	-1152
aid	-1153
▁Tr	-1154
ines	-1155
ized	-1156
ried	-1157
ways	-1158
▁Mus	-1159
▁New	-1160
▁Say	-1161
▁bas	-1162
▁leg	-1163
▁par	-1164
▁pun	-1165
▁put	-1166
▁four	-1167
▁less	-1168
▁activ	-1169
▁never	-1170
▁Gandhi	-1171
▁accept	-1172
▁indeed	-1173
▁message	-1174
mb	-1175
na	-1176
ins	-1177
ross	-1178
▁fold	-1179
▁prof	-1180
ration	-1181
▁allow	-1182
▁polic	-1183
▁relig	-1184
▁effect	-1185
min	-1186
▁My	-1187
ploy	-1188
rate	-1189
▁pop	-1190
▁evil	-1191
▁last	-1192
▁social	-1193
▁knowledge	-1194
:%	-1195
ls	-1196
▁18	-1197
▁ca	-1198
ians	-1199
▁tem	-1200
ically	-1201
▁avail	-1202
▁langu	-1203
▁means	-1204
▁today	-1205
▁contro	-1206
ification	-1207
IT	-1208
▁(1	-1209
▁00	-1210
▁Man	-1211
▁bro	-1212
▁dra	-1213
▁met	-1214
▁old	-1215
▁Rasht	-1216
▁known	-1217
agement	-1218
▁Bhavan	-1219
▁report	-1220
eds	-1221
ool	-1222
▁Me	-1223
line	-1224
ruct	-1225
▁den	-1226
▁opp	-1227
▁ple	-1228
▁free	-1229
lished	-1230
ulation	-1231
▁within	-1232
ird	-1233
por	-1234
▁11	-1235
▁Or	-1236
▁dr	-1237
▁che	-1238
▁forg	-1239
▁hard	-1240
▁left	-1241
rapati	-1242
▁better	-1243
▁proble	-1244
▁business	-1245
▁children	-1246
▁Rashtrapati	-1247
▁Le	-1248
▁ru	-1249
▁sk	-1250
▁She	-1251
▁dest	-1252
▁full	-1253
▁poss	-1254
▁read	-1255
▁large	-1256
ishment	-1257
▁applic	-1258
▁invest	-1259
▁address	-1260
▁heavens	-1261
▁consider	-1262
RA	-1263
put	-1264
▁Ab	-1265
iron	-1266
▁Del	-1267
▁Pre	-1268
▁pat	-1269
▁run	-1270
▁tre	-1271
enger	-1272
ising	-1273
otion	-1274
▁Sing	-1275
▁done	-1276
▁issu	-1277
▁const	-1278
▁change	-1279
▁commit	-1280
▁surely	-1281
▁Central	-1282
▁concern	-1283
▁project	-1284
ternational	-1285
erc	-1286
han	-1287
med	-1288
uss	-1289
ship	-1290
gress	-1291
▁Show	-1292
▁move	-1293
▁send	-1294
▁exist	-1295
▁level	-1296
▁month	-1297
▁income	-1298
▁window	-1299
▁command	-1300
▁provide	-1301
idd	-1302
ita	-1303
ajor	-1304
heme	-1305
▁Add	-1306
▁fun	-1307
ccess	-1308
thing	-1309
▁cost	-1310
▁These	-1311
itation	-1312
▁something	-1313
▁understand	-1314
bs	-1315
uk	-1316
chie	-1317
oura	-1318
▁Eng	-1319
▁One	-1320
▁true	-1321
ternal	-1322
▁faith	-1323
▁light	-1324
▁prote	-1325
▁still	-1326
▁company	-1327
ng	-1328
ode	-1329
que	-1330
rict	-1331
uted	-1332
▁Ram	-1333
▁div	-1334
▁far	-1335
▁var	-1336
iding	-1337
▁Beng	-1338
▁days	-1339
▁real	-1340
▁along	-1341
▁appro	-1342
▁signs	-1343
▁three	-1344
ization	-1345
▁employ	-1346
iversity	-1347
▁appoint	-1348
▁charact	-1349
ta	-1350
ems	-1351
ote	-1352
▁Ag	-1353
▁ri	-1354
▁Ass	-1355
▁Rep	-1356
▁Who	-1357
▁non	-1358
▁rev	-1359
▁sit	-1360
ering	-1361
ories	-1362
▁areas	-1363
▁based	-1364
▁build	-1365
▁cause	-1366
▁chang	-1367
liament	-1368
▁Bengal	-1369
▁contin	-1370
▁institution	-1371
IN	-1372
to	-1373
ENT	-1374
els	-1375
hat	-1376
▁Im	-1377
▁ey	-1378
▁mo	-1379
▁sch	-1380
ances	-1381
vious	-1382
▁body	-1383
▁unto	-1384
▁offic	-1385
▁times	-1386
▁common	-1387
▁market	-1388
▁matter	-1389
▁object	-1390
▁proper	-1391
▁current	-1392
▁members	-1393
▁Minister	-1394
ON	-1395
io	-1396
ma	-1397
com	-1398
ged	-1399
ases	-1400
gest	-1401
▁Sub	-1402
ailed	-1403
cript	-1404
▁orig	-1405
▁plac	-1406
itions	-1407
▁Delhi	-1408
▁death	-1409
▁learn	-1410
▁liter	-1411
▁action	-1412
▁family	-1413
▁others	-1414
▁express	-1415
▁education	-1416
AR	-1417
cl	-1418
alf	-1419
ann	-1420
ron	-1421
tee	-1422
▁Us	-1423
ceed	-1424
irit	-1425
ured	-1426
▁199	-1427
▁How	-1428
icult	-1429
ready	-1430
▁That	-1431
▁held	-1432
▁keep	-1433
▁ment	-1434
▁port	-1435
▁post	-1436
▁seen	-1437
▁self	-1438
▁trad	-1439
ancial	-1440
▁benef	-1441
▁exper	-1442
▁going	-1443
ference	-1444
▁Muslim	-1445
▁associ	-1446
▁father	-1447
▁result	-1448
▁punishment	-1449
▁Z	-1450
ium	-1451
ury	-1452
▁PR	-1453
abha	-1454
rael	-1455
reen	-1456
work	-1457
▁jud	-1458
▁rul	-1459
▁too	-1460
▁priv	-1461
▁reve	-1462
atural	-1463
ential	-1464
gether	-1465
urther	-1466
▁achie	-1467
▁house	-1468
▁quest	-1469
▁thing	-1470
▁whole	-1471
▁Israel	-1472
▁Please	-1473
▁health	-1474
▁respect	-1475
▁together	-1476
amb	-1477
cil	-1478
ief	-1479
inc	-1480
ner	-1481
opy	-1482
ret	-1483
rial	-1484
▁age	-1485
▁due	-1486
▁enj	-1487
eness	-1488
▁mean	-1489
▁rese	-1490
rought	-1491
▁deeds	-1492
▁major	-1493
▁Indeed	-1494
▁already	-1495
▁himself	-1496
▁various	-1497
▁national	-1498
▁provided	-1499
IA	-1500
gu	-1501
par	-1502
uty	-1503
▁At	-1504
▁war	-1505
ected	-1506
ences	-1507
viron	-1508
▁face	-1509
▁fund	-1510
▁mill	-1511
▁path	-1512
itness	-1513
ricult	-1514
▁Singh	-1515
ruction	-1516
▁belong	-1517
▁sector	-1518
▁spirit	-1519
▁required	-1520
▁themselves	-1521
HE	-1522
▁:	-1523
ala	-1524
cut	-1525
ger	-1526
het	-1527
▁Em	-1528
ourn	-1529
▁Dep	-1530
▁Spe	-1531
▁dep	-1532
▁lim	-1533
▁mus	-1534
▁net	-1535
▁data	-1536
▁hist	-1537
▁near	-1538
▁seek	-1539
ession	-1540
ferred	-1541
▁might	-1542
▁polit	-1543
ibility	-1544
▁having	-1545
▁little	-1546
▁perform	-1547
▁respons	-1548
vironment	-1549
▁complete	-1550
▁position	-1551
▁i	-1552
ait	-1553
ats	-1554
jee	-1555
ran	-1556
ues	-1557
umb	-1558
akes	-1559
atic	-1560
come	-1561
hamm	-1562
hing	-1563
itor	-1564
ners	-1565
ring	-1566
rodu	-1567
▁bre	-1568
▁fav	-1569
ently	-1570
illed	-1571
ource	-1572
▁area	-1573
▁date	-1574
▁food	-1575
▁gave	-1576
▁home	-1577
▁kind	-1578
▁test	-1579
cribed	-1580
▁field	-1581
▁pract	-1582
aterial	-1583
isation	-1584
▁comput	-1585
▁special	-1586
▁subject	-1587
▁success	-1588
▁selected	-1589
AT	-1590
az	-1591
ew	-1592
aim	-1593
leg	-1594
ogn	-1595
rah	-1596
val	-1597
▁15	-1598
▁Cl	-1599
▁cr	-1600
▁sw	-1601
eric	-1602
imum	-1603
▁Acc	-1604
▁Can	-1605
▁Dis	-1606
▁dou	-1607
▁eng	-1608
▁key	-1609
▁Cont	-1610
▁diff	-1611
▁head	-1612
▁love	-1613
▁took	-1614
▁Those	-1615
▁words	-1616
▁always	-1617
▁mother	-1618
▁second	-1619
▁security	-1620
▁available	-1621
▁particular	-1622
ets	-1623
iti	-1624
mon	-1625
oss	-1626
▁'%	-1627
▁12	-1628
aled	-1629
land	-1630
oney	-1631
adesh	-1632
▁live	-1633
▁warn	-1634
hammad	-1635
ording	-1636
resent	-1637
▁access	-1638
▁necess	-1639
▁brought	-1640
▁believed	-1641
▁economic	-1642
▁countries	-1643
▁activities	-1644
IC	-1645
▁{	-1646
The	-1647
aps	-1648
ier	-1649
lam	-1650
osp	-1651
▁20	-1652
▁25	-1653
▁Gu	-1654
▁di	-1655
▁hy	-1656
oses	-1657
reng	-1658
▁000	-1659
▁Let	-1660
▁THE	-1661
▁cro	-1662
▁eas	-1663
▁hig	-1664
asure	-1665
ately	-1666
ption	-1667
veral	-1668
▁PRES	-1669
▁farm	-1670
▁hold	-1671
herjee	-1672
▁above	-1673
▁class	-1674
▁night	-1675
▁sense	-1676
▁whose	-1677
▁young	-1678
▁living	-1679
▁language	-1680
▁programm	-1681
▁character	-1682
ali	-1683
olk	-1684
anab	-1685
anks	-1686
ator	-1687
ilit	-1688
▁abs	-1689
▁tal	-1690
acity	-1691
arent	-1692
aring	-1693
lling	-1694
ustom	-1695
▁able	-1696
▁coun	-1697
▁expl	-1698
▁mind	-1699
▁pain	-1700
▁suff	-1701
▁vill	-1702
aining	-1703
▁local	-1704
▁occas	-1705
▁value	-1706
▁clause	-1707
▁extend	-1708
ribution	-1709
▁whether	-1710
hy	-1711
ams	-1712
ara	-1713
ask	-1714
ope	-1715
uct	-1716
▁Dr	-1717
▁Ph	-1718
ched	-1719
ened	-1720
obal	-1721
ours	-1722
ully	-1723
▁195	-1724
▁IND	-1725
▁few	-1726
▁hon	-1727
▁yet	-1728
IDENT	-1729
itive	-1730
▁side	-1731
▁soci	-1732
▁type	-1733
▁vers	-1734
ources	-1735
▁court	-1736
▁equal	-1737
▁treat	-1738
ability	-1739
▁Commit	-1740
▁States	-1741
▁folder	-1742
▁reason	-1743
▁streng	-1744
▁persons	-1745
▁witness	-1746
▁material	-1747
▁difficult	-1748
▁including	-1749
▁therefore	-1750
akh	-1751
oad	-1752
▁ve	-1753
.201	-1754
cell	-1755
cing	-1756
eous	-1757
ivid	-1758
omes	-1759
raph	-1760
reme	-1761
▁Ara	-1762
▁Sec	-1763
▁cut	-1764
▁del	-1765
▁mer	-1766
▁tax	-1767
▁Comp	-1768
▁anim	-1769
▁circ	-1770
▁next	-1771
▁outs	-1772
▁text	-1773
▁Sabha	-1774
▁books	-1775
▁creat	-1776
▁elect	-1777
▁later	-1778
▁until	-1779
▁around	-1780
▁regard	-1781
▁English	-1782
▁further	-1783
▁product	-1784
▁PRESIDENT	-1785
be	-1786
ev	-1787
ray	-1788
unt	-1789
▁ut	-1790
ards	-1791
iful	-1792
ling	-1793
mber	-1794
play	-1795
used	-1796
▁Qur	-1797
▁lat	-1798
▁tot	-1799
▁vol	-1800
verse	-1801
▁mail	-1802
▁repl	-1803
atever	-1804
change	-1805
reedom	-1806
▁House	-1807
ividual	-1808
▁Americ	-1809
▁either	-1810
▁expect	-1811
▁ground	-1812
▁hearts	-1813
▁making	-1814
▁received	-1815
sh	-1816
den	-1817
ead	-1818
ocu	-1819
ods	-1820
▁1.	-1821
ergy	-1822
ilar	-1823
ivil	-1824
rish	-1825
▁ann	-1826
▁aut	-1827
▁big	-1828
▁inn	-1829
bsite	-1830
▁Cour	-1831
▁Prov	-1832
▁cred	-1833
▁ever	-1834
▁fall	-1835
▁inde	-1836
▁once	-1837
▁rele	-1838
▁sing	-1839
▁told	-1840
ension	-1841
minist	-1842
▁Hindu	-1843
▁enjoy	-1844
▁forth	-1845
▁hands	-1846
▁knows	-1847
▁share	-1848
▁short	-1849
itional	-1850
lection	-1851
▁entire	-1852
▁record	-1853
▁control	-1854
▁natural	-1855
▁several	-1856
▁services	-1857
▁Messenger	-1858
▁financial	-1859
▁relations	-1860
▁Parliament	-1861
AN	-1862
ery	-1863
gin	-1864
lig	-1865
men	-1866
rug	-1867
une	-1868
uro	-1869
▁Af	-1870
ault	-1871
ones	-1872
▁App	-1873
▁Cal	-1874
▁Div	-1875
▁Fin	-1876
▁bar	-1877
▁cal	-1878
▁lab	-1879
earch	-1880
ouses	-1881
▁Most	-1882
▁West	-1883
▁plan	-1884
▁prep	-1885
iation	-1886
▁INDIA	-1887
▁gives	-1888
▁ident	-1889
ication	-1890
ilities	-1891
▁Minist	-1892
▁policy	-1893
▁recogn	-1894
▁example	-1895
▁industry	-1896
▁authority	-1897
▁represent	-1898
▁Commission	-1899
▁management	-1900
IS	-1901
af	-1902
ows	-1903
udd	-1904
▁bo	-1905
▁es	-1906
▁ur	-1907
atch	-1908
▁got	-1909
ening	-1910
incip	-1911
olved	-1912
▁bank	-1913
▁defe	-1914
▁five	-1915
▁mult	-1916
▁poet	-1917
▁rule	-1918
▁stay	-1919
ection	-1920
soever	-1921
▁peace	-1922
▁reach	-1923
artment	-1924
▁became	-1925
▁behind	-1926
▁nation	-1927
▁really	-1928
▁strong	-1929
▁though	-1930
cription	-1931
▁discuss	-1932
▁nothing	-1933
▁patient	-1934
▁website	-1935
▁computer	-1936
▁community	-1937
▁individual	-1938
OR	-1939
bt	-1940
▁+	-1941
acy	-1942
▁17	-1943
▁Co	-1944
▁Sw	-1945
ares	-1946
cent	-1947
ises	-1948
utes	-1949
▁Brit	-1950
▁Fire	-1951
▁care	-1952
▁cell	-1953
▁deal	-1954
idence	-1955
▁Islam	-1956
▁Offic	-1957
▁error	-1958
▁impro	-1959
▁money	-1960
▁mount	-1961
eration	-1962
▁custom	-1963
▁growth	-1964
▁school	-1965
▁brother	-1966
▁written	-1967
▁religion	-1968
▁following	-1969
▁University	-1970
▁Constitution	-1971
AL	-1972
AM	-1973
We	-1974
ape	-1975
isl	-1976
oid	-1977
▁Mr	-1978
-201	-1979
ames	-1980
ayer	-1981
ires	-1982
osed	-1983
outh	-1984
rive	-1985
▁Muk	-1986
▁RRB	-1987
▁don	-1988
ached	-1989
fully	-1990
ortun	-1991
uture	-1992
▁Your	-1993
▁acqu	-1994
▁role	-1995
▁trib	-1996
▁close	-1997
▁plant	-1998
▁since	-1999
▁total	-2000
▁trust	-2001
ructure	-2002
section	-2003
stitute	-2004
▁instru	-2005
▁Develop	-2006
▁Pradesh	-2007
▁capital	-2008
▁changes	-2009
▁related	-2010
▁working	-2011
▁occasion	-2012
▁particip	-2013
▁previous	-2014
▁Committee	-2015
▁application	-2016
pur	-2017
sue	-2018
uly	-2019
▁(2	-2020
▁30	-2021
▁Er	-2022
▁er	-2023
▁li	-2024
ails	-2025
erve	-2026
ison	-2027
uses	-2028
▁LRB	-2029
▁Pol	-2030
▁bur	-2031
▁top	-2032
after	-2033
atory	-2034
urope	-2035
▁Cong	-2036
▁List	-2037
▁Prop	-2038
▁line	-2039
▁link	-2040
▁meth	-2041
▁rate	-2042
▁vide	-2043
mitted	-2044
ograph	-2045
▁comes	-2046
▁dated	-2047
▁depos	-2048
▁story	-2049
▁works	-2050
▁Europe	-2051
▁create	-2052
▁effort	-2053
▁rights	-2054
▁century	-2055
▁meeting	-2056
▁quality	-2057
▁require	-2058
▁worship	-2059
believers	-2060
▁Ministry	-2061
▁anything	-2062
▁creation	-2063
▁research	-2064
▁transfer	-2065
▁whatever	-2066
▁appointed	-2067
▁certainly	-2068
▁establish	-2069
▁political	-2070
▁population	-2071
▁technology	-2072
▁environment	-2073
▁established	-2074
▁international	-2075
4.	-2076
6.	-2077
go	-2078
aff	-2079
ges	-2080
gle	-2081
ude	-2082
urs	-2083
ills	-2084
irth	-2085
most	-2086
ruit	-2087
▁Des	-2088
▁air	-2089
▁mag	-2090
▁pub	-2091
aught	-2092
urely	-2093
▁Bank	-2094
▁High	-2095
▁fire	-2096
▁flow	-2097
▁host	-2098
▁says	-2099
▁thus	-2100
▁Court	-2101
▁Hindi	-2102
▁Union	-2103
▁basis	-2104
▁doing	-2105
▁files	-2106
▁super	-2107
▁using	-2108
▁course	-2109
▁future	-2110
▁modern	-2111
▁region	-2112
▁regist	-2113
▁scheme	-2114
▁achieve	-2115
▁contact	-2116
▁million	-2117
▁outside	-2118
▁private	-2119
▁thought	-2120
▁Congress	-2121
▁agricult	-2122
▁capacity	-2123
▁movement	-2124
▁progress	-2125
▁referred	-2126
-1	-2127
ti	-2128
▁%	-2129
▁13	-2130
▁By	-2131
▁Lo	-2132
▁Op	-2133
▁Su	-2134
ably	-2135
airs	-2136
anda	-2137
hood	-2138
ince	-2139
itiz	-2140
▁Not	-2141
▁pap	-2142
asing	-2143
aster	-2144
erily	-2145
iddle	-2146
istic	-2147
orrow	-2148
▁Arab	-2149
▁dise	-2150
▁guid	-2151
▁soon	-2152
▁stat	-2153
▁town	-2154
▁Prime	-2155
▁agree	-2156
▁rules	-2157
▁visit	-2158
iveness	-2159
▁office	-2160
▁turned	-2161
▁verily	-2162
▁freedom	-2163
▁prevent	-2164
▁Muhammad	-2165
▁question	-2166
▁revealed	-2167
▁believers	-2168
▁necessary	-2169
▁Development	-2170
lu	-2171
▁z	-2172
ama	-2173
dom	-2174
for	-2175
ior	-2176
nic	-2177
ump	-2178
ush	-2179
▁Sy	-2180
amed	-2181
ateg	-2182
ites	-2183
lier	-2184
omin	-2185
▁Are	-2186
▁Reg	-2187
▁Rem	-2188
▁ast	-2189
▁die	-2190
▁imm	-2191
▁pot	-2192
▁sea	-2193
▁son	-2194
▁try	-2195
▁why	-2196
usion	-2197
▁Coun	-2198
▁Here	-2199
▁Know	-2200
▁Serv	-2201
▁Such	-2202
▁With	-2203
▁feel	-2204
▁news	-2205
▁redu	-2206
▁step	-2207
▁tree	-2208
▁weak	-2209
▁Gener	-2210
▁artic	-2211
▁begin	-2212
▁blood	-2213
▁goods	-2214
▁image	-2215
▁journ	-2216
▁rural	-2217
ificate	-2218
▁Govern	-2219
ological	-2220
▁allowed	-2221
▁general	-2222
▁problem	-2223
▁society	-2224
▁administ	-2225
▁function	-2226
▁messages	-2227
▁partners	-2228
▁production	-2229
?"	-2230
by	-2231
vi	-2232
▁x	-2233
ION	-2234
elt	-2235
iff	-2236
ilt	-2237
omb	-2238
roy	-2239
see	-2240
▁Po	-2241
▁SA	-2242
▁Tw	-2243
▁Up	-2244
▁jo	-2245
hers	-2246
hold	-2247
ival	-2248
just	-2249
pose	-2250
rect	-2251
▁(1)	-2252
▁Mad	-2253
▁aud	-2254
▁fig	-2255
▁mis	-2256
aries	-2257
inary	-2258
rated	-2259
▁ange	-2260
▁asse	-2261
▁none	-2262
ourage	-2263
▁Chand	-2264
▁carry	-2265
▁crore	-2266
▁leave	-2267
▁makes	-2268
▁opens	-2269
▁parts	-2270
▁Public	-2271
▁global	-2272
▁months	-2273
▁spread	-2274
▁British	-2275
▁matters	-2276
▁similar	-2277
▁started	-2278
▁therein	-2279
▁problems	-2280
▁remember	-2281
▁Mukherjee	-2282
do	-2283
ibr	-2284
ips	-2285
let	-2286
rew	-2287
▁ir	-2288
alay	-2289
ancy	-2290
atma	-2291
augh	-2292
kind	-2293
rown	-2294
sequ	-2295
▁Now	-2296
▁bra	-2297
▁enc	-2298
▁ess	-2299
▁obs	-2300
▁six	-2301
▁tor	-2302
▁tou	-2303
attle	-2304
cutta	-2305
▁Cert	-2306
▁Some	-2307
▁city	-2308
▁copy	-2309
▁king	-2310
▁past	-2311
▁size	-2312
▁went	-2313
▁wide	-2314
itable	-2315
▁Afric	-2316
▁Board	-2317
▁Chief	-2318
▁Moses	-2319
▁alone	-2320
▁asked	-2321
▁below	-2322
▁force	-2323
▁initi	-2324
▁party	-2325
▁terms	-2326
plement	-2327
▁Select	-2328
▁demand	-2329
▁energy	-2330
▁itself	-2331
▁search	-2332
▁belongs	-2333
▁benefit	-2334
▁forward	-2335
▁greater	-2336
▁introdu	-2337
▁leaders	-2338
▁neither	-2339
▁Republic	-2340
▁prepared	-2341
▁signific	-2342
▁specified	-2343
▁literature	-2344
):	-2345
2,	-2346
my	-2347
va	-2348
aun	-2349
der	-2350
duc	-2351
irt	-2352
ony	-2353
ttp	-2354
▁Ge	-2355
▁Pe	-2356
▁Sp	-2357
lled	-2358
▁Col	-2359
▁Pun	-2360
▁Sat	-2361
▁Wor	-2362
▁foc	-2363
▁pal	-2364
▁sal	-2365
▁saw	-2366
▁sum	-2367
▁ter	-2368
cious	-2369
ively	-2370
right	-2371
▁Educ	-2372
▁decl	-2373
▁docu	-2374
▁firm	-2375
▁http	-2376
▁lost	-2377
▁paid	-2378
▁subs	-2379
▁vict	-2380
isions	-2381
ptions	-2382
▁civil	-2383
▁drink	-2384
▁grant	-2385
▁issue	-2386
▁Pranab	-2387
▁Verily	-2388
▁design	-2389
▁failed	-2390
▁issues	-2391
▁member	-2392
▁passed	-2393
▁server	-2394
▁taking	-2395
▁temple	-2396
▁vision	-2397
▁Mahatma	-2398
▁destroy	-2399
▁however	-2400
▁network	-2401
▁receive	-2402
▁request	-2403
▁building	-2404
▁original	-2405
▁training	-2406
▁increased	-2407
▁provision	-2408
▁conditions	-2409
▁disbelievers	-2410
.)	-2411
0,	-2412
AS	-2413
ec	-2414
gn	-2415
ji	-2416
uf	-2417
ani	-2418
ban	-2419
bar	-2420
ler	-2421
uru	-2422
vey	-2423
▁el	-2424
aint	-2425
ging	-2426
haps	-2427
hara	-2428
hest	-2429
know	-2430
miss	-2431
ocra	-2432
oice	-2433
orth	-2434
rust	-2435
word	-2436
▁197	-2437
▁Mar	-2438
▁Pra	-2439
▁ded	-2440
▁dig	-2441
▁sat	-2442
▁wis	-2443
gment	-2444
iture	-2445
▁Have	-2446
▁Name	-2447
▁deny	-2448
▁eyes	-2449
▁phys	-2450
▁soft	-2451
▁soul	-2452
▁sust	-2453
aching	-2454
▁After	-2455
▁South	-2456
▁accom	-2457
▁check	-2458
▁compl	-2459
▁early	-2460
▁fight	-2461
▁happy	-2462
▁sound	-2463
etition	-2464
▁across	-2465
▁aspect	-2466
▁depend	-2467
▁issued	-2468
▁placed	-2469
▁source	-2470
▁unless	-2471
▁central	-2472
▁conduct	-2473
▁friends	-2474
▁history	-2475
▁meaning	-2476
▁Calcutta	-2477
▁decision	-2478
▁district	-2479
▁personal	-2480
▁policies	-2481
▁possible	-2482
▁investment	-2483
▁protection	-2484
▁yourselves	-2485
▁institutions	-2486
1,	-2487
co	-2488
ek	-2489
▁’	-2490
ero	-2491
ili	-2492
ilk	-2493
umn	-2494
use	-2495
▁Bi	-2496
▁Ev	-2497
▁II	-2498
▁Kh	-2499
aged	-2500
ager	-2501
arat	-2502
aste	-2503
chan	-2504
oose	-2505
then	-2506
▁Cre	-2507
▁Pal	-2508
▁ans	-2509
▁gri	-2510
▁lay	-2511
▁lot	-2512
▁sex	-2513
▁sol	-2514
anies	-2515
▁bird	-2516
▁deep	-2517
▁draw	-2518
▁duty	-2519
▁fort	-2520
▁lies	-2521
▁prop	-2522
▁pros	-2523
▁save	-2524
▁situ	-2525
▁task	-2526
▁wish	-2527
esides	-2528
estern	-2529
ocracy	-2530
▁Krish	-2531
▁aware	-2532
▁claim	-2533
▁cover	-2534
▁eight	-2535
▁forms	-2536
▁front	-2537
▁speak	-2538
▁third	-2539
▁Cannot	-2540
▁Surely	-2541
▁propos	-2542
▁reward	-2543
▁single	-2544
▁Council	-2545
▁Prophet	-2546
▁efforts	-2547
▁leading	-2548
▁mankind	-2549
▁mention	-2550
▁purpose	-2551
▁increase	-2552
▁students	-2553
▁concerned	-2554
▁statement	-2555
▁Department	-2556
▁disbelieve	-2557
▁unbelievers	-2558
//	-2559
://	-2560
ici	-2561
oke	-2562
ols	-2563
ott	-2564
uge	-2565
ulf	-2566
▁14	-2567
▁2.	-2568
▁Bl	-2569
▁Mo	-2570
▁TO	-2571
▁kn	-2572
cend	-2573
cies	-2574
emed	-2575
medi	-2576
rist	-2577
uary	-2578
▁100	-2579
▁Jan	-2580
▁Kal	-2581
▁Moh	-2582
▁Off	-2583
▁Tra	-2584
▁Use	-2585
▁Whe	-2586
▁deg	-2587
▁der	-2588
▁ens	-2589
▁ign	-2590
▁job	-2591
▁neg	-2592
▁sav	-2593
▁Plan	-2594
▁Will	-2595
▁adop	-2596
▁dead	-2597
▁gard	-2598
▁harm	-2599
▁idea	-2600
▁insp	-2601
▁norm	-2602
▁plus	-2603
▁rain	-2604
▁tell	-2605
▁till	-2606
atives	-2607
rences	-2608
▁Could	-2609
▁Error	-2610
▁Power	-2611
▁Techn	-2612
▁Where	-2613
▁citiz	-2614
▁event	-2615
▁mercy	-2616
▁wills	-2617
rection	-2618
▁behalf	-2619
▁credit	-2620
▁nature	-2621
▁saying	-2622
▁states	-2623
▁terror	-2624
▁However	-2625
▁continu	-2626
▁culture	-2627
▁percent	-2628
▁writing	-2629
▁opportun	-2630
▁property	-2631
▁operation	-2632
▁righteous	-2633
▁International	-2634
OU	-2635
ho	-2636
ii	-2637
mp	-2638
asa	-2639
aut	-2640
ava	-2641
ees	-2642
hem	-2643
hib	-2644
htm	-2645
ims	-2646
leb	-2647
ume	-2648
▁16	-2649
▁Ed	-2650
▁Qu	-2651
ilos	-2652
ipur	-2653
pped	-2654
raft	-2655
rote	-2656
with	-2657
▁192	-2658
▁196	-2659
▁198	-2660
▁Mon	-2661
▁Rel	-2662
▁aid	-2663
▁eye	-2664
▁hor	-2665
▁ill	-2666
▁lie	-2667
▁low	-2668
▁rad	-2669
▁sug	-2670
▁tar	-2671
▁ten	-2672
essee	-2673
riage	-2674
▁Comm	-2675
▁East	-2676
▁Hell	-2677
▁King	-2678
▁Well	-2679
▁aver	-2680
▁deli	-2681
▁kept	-2682
▁page	-2683
▁stra	-2684
▁wait	-2685
aximum	-2686
▁Under	-2687
▁World	-2688
▁banks	-2689
▁chall	-2690
▁enter	-2691
▁judge	-2692
▁press	-2693
▁price	-2694
▁scale	-2695
▁assess	-2696
▁assist	-2697
▁device	-2698
▁expend	-2699
▁forces	-2700
▁higher	-2701
▁multip	-2702
▁rivers	-2703
▁scient	-2704
▁Section	-2705
▁Whether	-2706
▁display	-2707
▁earlier	-2708
▁foreign	-2709
▁princip	-2710
▁guidance	-2711
▁independ	-2712
▁according	-2713
▁developed	-2714
▁presented	-2715
▁published	-2716
▁resources	-2717
▁treatment	-2718
▁industrial	-2719
▁Information	-2720
0.	-2721
CT	-2722
Th	-2723
ING	-2724
aug	-2725
avi	-2726
onn	-2727
rik	-2728
rog	-2729
ung	-2730
war	-2731
▁(%	-2732
▁26	-2733
▁3.	-2734
▁Ac	-2735
▁ON	-2736
▁Sa	-2737
▁US	-2738
▁vi	-2739
alse	-2740
empt	-2741
ique	-2742
itch	-2743
ored	-2744
than	-2745
▁Aut	-2746
▁Lok	-2747
▁Pat	-2748
▁Rec	-2749
▁Set	-2750
▁sac	-2751
▁squ	-2752
▁sty	-2753
▁typ	-2754
ength	-2755
estic	-2756
odies	-2757
orpor	-2758
range	-2759
▁Bill	-2760
▁Budd	-2761
▁Pers	-2762
▁argu	-2763
▁clim	-2764
▁dire	-2765
▁felt	-2766
▁lakh	-2767
▁laun	-2768
▁safe	-2769
▁thee	-2770
asures	-2771
ention	-2772
idered	-2773
ilosop	-2774
ousand	-2775
uction	-2776
▁Every	-2777
▁Trans	-2778
▁birth	-2779
▁conce	-2780
▁cross	-2781
▁ideas	-2782
▁least	-2783
▁legal	-2784
▁novel	-2785
▁relev	-2786
▁round	-2787
▁spend	-2788
▁Direct	-2789
▁United	-2790
▁angels	-2791
▁enough	-2792
▁giving	-2793
▁manner	-2794
▁origin	-2795
▁parent	-2796
▁police	-2797
▁remind	-2798
▁Address	-2799
▁General	-2800
▁becomes	-2801
▁carried	-2802
▁justice	-2803
▁medical	-2804
▁program	-2805
▁assessee	-2806
▁exchange	-2807
▁condition	-2808
▁connected	-2809
▁essential	-2810
▁programmes	-2811
▁responsibility	-2812
2.	-2813
9,	-2814
CC	-2815
CE	-2816
ME	-2817
],	-2818
gy	-2819
aka	-2820
ech	-2821
ina	-2822
mir	-2823
tax	-2824
▁23	-2825
▁UN	-2826
▁da	-2827
adem	-2828
arge	-2829
band	-2830
irst	-2831
lear	-2832
load	-2833
ttar	-2834
well	-2835
▁Att	-2836
▁May	-2837
▁Sim	-2838
▁Tam	-2839
▁anc	-2840
▁boy	-2841
▁exc	-2842
▁hus	-2843
▁log	-2844
▁pow	-2845
▁red	-2846
▁sun	-2847
istan	-2848
itude	-2849
ostle	-2850
ought	-2851
▁Even	-2852
▁From	-2853
▁Sign	-2854
▁ball	-2855
▁born	-2856
▁dial	-2857
▁earn	-2858
▁folk	-2859
▁hath	-2860
▁mass	-2861
▁pric	-2862
▁sett	-2863
▁stre	-2864
▁symb	-2865
▁vari	-2866
▁wife	-2867
ibrary	-2868
iction	-2869
ulated	-2870
▁Group	-2871
▁March	-2872
▁bound	-2873
▁doubt	-2874
▁emerg	-2875
▁prior	-2876
▁staff	-2877
▁stage	-2878
▁woman	-2879
erciful	-2880
vention	-2881
▁Christ	-2882
▁During	-2883
▁anyone	-2884
▁attend	-2885
▁determ	-2886
▁excell	-2887
▁houses	-2888
▁immedi	-2889
▁rather	-2890
▁undert	-2891
stituted	-2892
▁America	-2893
▁farmers	-2894
▁improve	-2895
▁instead	-2896
▁proceed	-2897
urrection	-2898
▁Division	-2899
▁actually	-2900
▁contract	-2901
▁official	-2902
▁specific	-2903
▁Education	-2904
▁beginning	-2905
▁functions	-2906
▁implement	-2907
▁experience	-2908
▁instrument	-2909
▁prescribed	-2910
▁significant	-2911
.'	-2912
.0	-2913
He	-2914
RI	-2915
adu	-2916
bed	-2917
icy	-2918
jab	-2919
nam	-2920
ras	-2921
rep	-2922
ube	-2923
▁1,	-2924
▁Gl	-2925
▁IN	-2926
....	-2927
agar	-2928
amet	-2929
iter	-2930
iver	-2931
lick	-2932
mend	-2933
oday	-2934
omen	-2935
tion	-2936
vest	-2937
▁194	-2938
▁Ann	-2939
▁Bar	-2940
▁Cur	-2941
▁Def	-2942
▁Int	-2943
▁Jud	-2944
▁Pur	-2945
▁Sar	-2946
▁Sup	-2947
▁Two	-2948
▁bal	-2949
▁har	-2950
▁mut	-2951
▁pan	-2952
▁pen	-2953
▁sky	-2954
ading	-2955
apter	-2956
cribe	-2957
ifest	-2958
lying	-2959
order	-2960
ordin	-2961
▁Cons	-2962
▁Gang	-2963
▁Open	-2964
▁Part	-2965
▁View	-2966
▁Work	-2967
▁dark	-2968
▁fast	-2969
▁laws	-2970
▁note	-2971
▁ones	-2972
▁talk	-2973
engers	-2974
isters	-2975
▁Quran	-2976
▁Uttar	-2977
▁fruit	-2978
▁grand	-2979
▁innov	-2980
▁music	-2981
▁often	-2982
▁paper	-2983
▁recom	-2984
▁seven	-2985
▁video	-2986
ategory	-2987
ocation	-2988
ovember	-2989
▁Africa	-2990
▁Scheme	-2991
▁active	-2992
▁almost	-2993
▁astray	-2994
▁coming	-2995
▁desire	-2996
▁export	-2997
▁favour	-2998
▁length	-2999
▁online	-3000
▁raised	-3001
▁secret	-3002
▁threat	-3003
fficient	-3004
▁husband	-3005
▁include	-3006
▁thereof	-3007
▁usually	-3008
▁village	-3009
▁contains	-3010
▁external	-3011
▁followed	-3012
▁marriage	-3013
▁powerful	-3014
▁presence	-3015
▁servants	-3016
▁strength	-3017
▁religious	-3018
▁considered	-3019
▁Resurrection	-3020
▁contribution	-3021
'.	-3022
Ex	-3023
RE	-3024
RO	-3025
fo	-3026
ze	-3027
ada	-3028
cle	-3029
kar	-3030
oud	-3031
pty	-3032
ram	-3033
tic	-3034
uff	-3035
yan	-3036
▁Ak	-3037
▁Ap	-3038
▁Ty	-3039
▁ho	-3040
▁id	-3041
asts	-3042
atha	-3043
athy	-3044
ches	-3045
from	-3046
ishn	-3047
osen	-3048
ples	-3049
rast	-3050
rely	-3051
yond	-3052
▁(2)	-3053
▁Ham	-3054
▁Har	-3055
▁Nep	-3056
▁Pri	-3057
▁Sur	-3058
▁san	-3059
▁sle	-3060
▁ste	-3061
▁thy	-3062
endar	-3063
ients	-3064
iling	-3065
iting	-3066
oming	-3067
ufact	-3068
▁Dist	-3069
▁File	-3070
▁desp	-3071
▁disp	-3072
▁hope	-3073
▁loss	-3074
▁pict	-3075
▁song	-3076
▁tele	-3077
▁user	-3078
encies	-3079
▁Inter	-3080
▁Progr	-3081
▁Which	-3082
▁While	-3083
▁black	-3084
▁break	-3085
▁celeb	-3086
▁clean	-3087
▁color	-3088
▁defin	-3089
▁influ	-3090
▁items	-3091
▁separ	-3092
▁stone	-3093
▁style	-3094
▁trade	-3095
▁trees	-3096
▁white	-3097
aughter	-3098
igation	-3099
ilitary	-3100
osphere	-3101
▁Create	-3102
▁advice	-3103
▁beyond	-3104
▁column	-3105
▁compet	-3106
▁deemed	-3107
▁integr	-3108
▁mechan	-3109
▁middle	-3110
▁observ	-3111
▁places	-3112
▁status	-3113
External	-3114
ulations	-3115
▁Account	-3116
▁animals	-3117
▁connect	-3118
▁decided	-3119
▁details	-3120
▁economy	-3121
▁journey	-3122
▁maximum	-3123
▁perhaps	-3124
▁popular	-3125
▁protect	-3126
▁suggest	-3127
▁systems	-3128
▁continue	-3129
▁cultural	-3130
▁existing	-3131
▁involved	-3132
▁Institute	-3133
▁languages	-3134
▁objective	-3135
▁potential	-3136
▁Technology	-3137
▁expression	-3138
▁operations	-3139
▁strengthen	-3140
▁expenditure	-3141
▁understanding	-3142
.,	-3143
DA	-3144
VE	-3145
ex	-3146
rs	-3147
▁X	-3148
adi	-3149
alk	-3150
ami	-3151
hab	-3152
idy	-3153
ira	-3154
irm	-3155
isf	-3156
isk	-3157
▁27	-3158
▁Ah	-3159
▁Fl	-3160
▁PM	-3161
▁ge	-3162
▁wo	-3163
aves	-3164
face	-3165
fall	-3166
irty	-3167
rows	-3168
view	-3169
▁Mod	-3170
▁Red	-3171
▁Sch	-3172
▁Unt	-3173
▁Ved	-3174
▁deb	-3175
▁dom	-3176
▁eat	-3177
▁esc	-3178
▁fem	-3179
▁gas	-3180
▁god	-3181
▁nar	-3182
▁sil	-3183
▁wid	-3184
aving	-3185
▁Brah	-3186
▁June	-3187
▁Wind	-3188
▁arch	-3189
▁burn	-3190
▁camp	-3191
▁coll	-3192
▁drop	-3193
▁enab	-3194
▁fest	-3195
▁half	-3196
▁hund	-3197
▁loan	-3198
▁milk	-3199
▁morn	-3200
▁obey	-3201
▁poll	-3202
▁pred	-3203
▁prot	-3204
▁remo	-3205
▁stor	-3206
▁viol	-3207
▁virt	-3208
cially	-3209
though	-3210
urance	-3211
▁Might	-3212
▁North	-3213
▁Their	-3214
▁apply	-3215
▁began	-3216
▁bless	-3217
▁built	-3218
▁cases	-3219
▁doers	-3220
▁lives	-3221
▁maint	-3222
▁print	-3223
▁purch	-3224
▁revel	-3225
▁sides	-3226
▁study	-3227
▁table	-3228
▁worth	-3229
▁wrote	-3230
osition	-3231
ospital	-3232
▁Income	-3233
▁Script	-3234
▁Search	-3235
▁causes	-3236
▁famous	-3237
▁former	-3238
▁guided	-3239
▁histor	-3240
▁legisl	-3241
▁prayer	-3242
▁reject	-3243
▁supply	-3244
▁symbol	-3245
▁wishes	-3246
▁Muslims	-3247
▁Project	-3248
▁Supreme	-3249
▁contrib	-3250
▁disease	-3251
▁element	-3252
▁highest	-3253
▁measure	-3254
▁pleased	-3255
▁promise	-3256
▁prosper	-3257
▁setting	-3258
▁torment	-3259
▁accepted	-3260
▁citizens	-3261
▁devotion	-3262
▁extended	-3263
▁manifest	-3264
▁philosop	-3265
▁relevant	-3266
▁software	-3267
▁solution	-3268
▁thousand	-3269
▁generally	-3270
▁spiritual	-3271
▁provisions	-3272
▁responsible	-3273
4,	-3274
5,	-3275
9.	-3276
ET	-3277
▁*	-3278
arh	-3279
ift	-3280
ikh	-3281
ini	-3282
irl	-3283
ora	-3284
ots	-3285
pre	-3286
rat	-3287
ule	-3288
wer	-3289
▁Ob	-3290
▁dy	-3291
This	-3292
aded	-3293
araj	-3294
body	-3295
comp	-3296
eral	-3297
fety	-3298
lege	-3299
lete	-3300
llah	-3301
mark	-3302
omet	-3303
rene	-3304
requ	-3305
resh	-3306
rick	-3307
▁Bal	-3308
▁Ins	-3309
▁Mal	-3310
▁Nay	-3311
▁Out	-3312
▁Per	-3313
▁Sah	-3314
▁Ser	-3315
▁Tur	-3316
▁bad	-3317
▁cry	-3318
▁fif	-3319
▁mob	-3320
▁mos	-3321
▁oil	-3322
aches	-3323
board	-3324
eding	-3325
▁2007	-3326
▁2013	-3327
▁Copy	-3328
▁Dece	-3329
▁Just	-3330
▁Move	-3331
▁anal	-3332
▁bear	-3333
▁bill	-3334
▁easy	-3335
▁prim	-3336
▁sale	-3337
▁shap	-3338
▁tonn	-3339
▁tour	-3340
▁warm	-3341
▁wise	-3342
action	-3343
ashmir	-3344
rative	-3345
▁First	-3346
▁Tamil	-3347
▁Today	-3348
▁drive	-3349
▁exerc	-3350
▁false	-3351
▁guard	-3352
▁guide	-3353
▁joint	-3354
▁lower	-3355
▁medic	-3356
▁offer	-3357
▁raise	-3358
▁space	-3359
▁types	-3360
ptember	-3361
▁Author	-3362
▁Palest	-3363
▁People	-3364
▁chosen	-3365
▁honour	-3366
▁labour	-3367
▁notice	-3368
▁played	-3369
▁prices	-3370
▁profit	-3371
▁remain	-3372
▁safety	-3373
▁transl	-3374
▁values	-3375
▁verses	-3376
▁wealth	-3377
izations	-3378
pecially	-3379
▁Krishna	-3380
▁collect	-3381
▁contain	-3382
▁correct	-3383
▁getting	-3384
▁hundred	-3385
▁largest	-3386
▁morning	-3387
▁reached	-3388
▁science	-3389
▁session	-3390
▁whoever	-3391
operation	-3392
▁activity	-3393
▁learning	-3394
▁manufact	-3395
▁physical	-3396
▁positive	-3397
▁resident	-3398
▁Evolution	-3399
▁democracy	-3400
▁described	-3401
▁existence	-3402
▁messenger	-3403
▁providing	-3404
▁terrorism	-3405
rastructure	-3406
▁construction	-3407
▁consideration	-3408
20	-3409
8.	-3410
AB	-3411
PS	-3412
ps	-3413
xy	-3414
ESS	-3415
aur	-3416
hru	-3417
inn	-3418
key	-3419
pid	-3420
rec	-3421
reg	-3422
rid	-3423
▁21	-3424
▁Sm	-3425
etic	-3426
fect	-3427
iers	-3428
itle	-3429
ixed	-3430
lict	-3431
ober	-3432
oked	-3433
olar	-3434
pper	-3435
rant	-3436
road	-3437
vere	-3438
vert	-3439
wise	-3440
▁AND	-3441
▁Ben	-3442
▁Her	-3443
▁SAW	-3444
▁cam	-3445
▁dam	-3446
▁dut	-3447
▁fra	-3448
▁inj	-3449
▁pra	-3450
▁tri	-3451
ivity	-3452
izing	-3453
ombay	-3454
oured	-3455
ulate	-3456
umbai	-3457
vered	-3458
▁Mark	-3459
▁Wise	-3460
▁appl	-3461
▁cast	-3462
▁fulf	-3463
▁hear	-3464
▁hour	-3465
▁male	-3466
▁pack	-3467
▁rise	-3468
▁sect	-3469
▁wall	-3470
▁wood	-3471
asthan	-3472
illing	-3473
porary	-3474
▁Nehru	-3475
▁basic	-3476
▁dwell	-3477
▁faces	-3478
▁heard	-3479
▁inaug	-3480
▁limit	-3481
▁needs	-3482
▁shown	-3483
▁speed	-3484
▁unity	-3485
▁voice	-3486
▁watch	-3487
▁write	-3488
amental	-3489
uration	-3490
▁Excell	-3491
▁Punjab	-3492
▁assets	-3493
▁bodies	-3494
▁circum	-3495
▁cultiv	-3496
▁duties	-3497
▁formed	-3498
▁groups	-3499
▁latter	-3500
▁refuge	-3501
▁script	-3502
▁season	-3503
▁series	-3504
▁shares	-3505
▁useful	-3506
ervation	-3507
hibition	-3508
ications	-3509
▁January	-3510
▁Kashmir	-3511
▁Officer	-3512
▁balance	-3513
▁besides	-3514
▁consist	-3515
▁courage	-3516
▁growing	-3517
▁install	-3518
▁methods	-3519
▁officer	-3520
▁produce	-3521
▁remains	-3522
▁station	-3523
▁version	-3524
▁December	-3525
▁Merciful	-3526
▁accounts	-3527
▁humanity	-3528
▁literary	-3529
▁projects	-3530
▁provides	-3531
▁surround	-3532
▁agreement	-3533
▁companies	-3534
▁currently	-3535
▁directory	-3536
▁mountains	-3537
▁Management	-3538
▁assessment	-3539
▁everything	-3540
▁facilities	-3541
▁registered	-3542
▁Certificate	-3543
▁traditional	-3544
▁agricultural	-3545
▁particularly	-3546
AG	-3547
adh	-3548
eks	-3549
ids	-3550
iry	-3551
ley	-3552
set	-3553
uck	-3554
udi	-3555
uls	-3556
▁31	-3557
▁5,	-3558
▁50	-3559
▁Fo	-3560
▁Of	-3561
▁aw	-3562
ales	-3563
apan	-3564
cean	-3565
enge	-3566
ests	-3567
hent	-3568
ingu	-3569
pond	-3570
pril	-3571
reet	-3572
rief	-3573
▁Aug	-3574
▁Che	-3575
▁Gra	-3576
▁Its	-3577
▁Leg	-3578
▁Med	-3579
▁Mem	-3580
▁Ret	-3581
▁Sam	-3582
▁Sri	-3583
▁emb	-3584
▁gen	-3585
▁led	-3586
▁mid	-3587
▁mom	-3588
▁obt	-3589
▁unf	-3590
arily	-3591
ators	-3592
ented	-3593
ester	-3594
icial	-3595
iment	-3596
inion	-3597
inter	-3598
ourse	-3599
place	-3600
poses	-3601
raham	-3602
remon	-3603
▁Asia	-3604
▁Circ	-3605
▁Iran	-3606
▁Thus	-3607
▁Unto	-3608
▁code	-3609
▁comb	-3610
▁crit	-3611
▁drug	-3612
▁enem	-3613
▁lest	-3614
▁mach	-3615
▁mand	-3616
▁mode	-3617
▁mort	-3618
▁poor	-3619
▁pure	-3620
▁repe	-3621
▁rich	-3622
▁risk	-3623
▁rupe	-3624
▁seem	-3625
▁sens	-3626
▁week	-3627
ishing	-3628
istory	-3629
ounced	-3630
strate	-3631
▁Child	-3632
▁Organ	-3633
▁Rajya	-3634
▁Start	-3635
▁added	-3636
▁board	-3637
▁focus	-3638
▁frame	-3639
▁frequ	-3640
▁green	-3641
▁impos	-3642
▁lived	-3643
▁magic	-3644
▁recon	-3645
▁river	-3646
▁south	-3647
▁tried	-3648
▁users	-3649
▁views	-3650
reprene	-3651
▁Before	-3652
▁Bombay	-3653
▁Corpor	-3654
▁Enable	-3655
▁Export	-3656
▁accord	-3657
▁appeal	-3658
▁attack	-3659
▁brings	-3660
▁burden	-3661
▁cities	-3662
▁defend	-3663
▁engine	-3664
▁forest	-3665
▁helped	-3666
▁please	-3667
▁satisf	-3668
▁simple	-3669
▁speech	-3670
▁stated	-3671
▁strate	-3672
▁tonnes	-3673
▁Indians	-3674
▁Service	-3675
▁amongst	-3676
▁covered	-3677
▁default	-3678
▁folders	-3679
▁learned	-3680
▁mission	-3681
▁perfect	-3682
▁regular	-3683
▁November	-3684
▁Programm	-3685
▁Research	-3686
▁document	-3687
▁elements	-3688
▁expected	-3689
▁pleasure	-3690
▁practice	-3691
▁returned	-3692
▁standing	-3693
▁villages	-3694
▁According	-3695
▁Hereafter	-3696
▁September	-3697
▁completed	-3698
▁ourselves	-3699
▁situation	-3700
▁tradition	-3701
▁associated	-3702
▁collection	-3703
▁concerning	-3704
▁especially	-3705
▁importance	-3706
▁increasing	-3707
▁whatsoever	-3708
▁forgiveness	-3709
▁Commissioner	-3710
▁notification	-3711
▁requirements	-3712
▁infrastructure	-3713
0}	-3714
10	-3715
3.	-3716
6,	-3717
7.	-3718
8,	-3719
DE	-3720
It	-3721
OM	-3722
OS	-3723
UL	-3724
].	-3725
eb	-3726
mn	-3727
000	-3728
asm	-3729
ays	-3730
cer	-3731
eal	-3732
elf	-3733
hra	-3734
ien	-3735
iva	-3736
opp	-3737
ubs	-3738
ula	-3739
vis	-3740
▁2,	-3741
▁24	-3742
▁Ay	-3743
▁Di	-3744
▁Ho	-3745
▁IS	-3746
▁il	-3747
▁sn	-3748
abad	-3749
ague	-3750
aksh	-3751
asks	-3752
dden	-3753
dule	-3754
enty	-3755
head	-3756
hens	-3757
ties	-3758
▁193	-3759
▁Det	-3760
▁Fil	-3761
▁Ira	-3762
▁Tag	-3763
▁War	-3764
▁mot	-3765
▁suc	-3766
▁tab	-3767
▁wel	-3768
idden	-3769
orate	-3770
press	-3771
▁Bhag	-3772
▁Data	-3773
▁Gard	-3774
▁Germ	-3775
▁Left	-3776
▁Many	-3777
▁Only	-3778
▁Prof	-3779
▁Sita	-3780
▁Text	-3781
▁Type	-3782
▁base	-3783
▁card	-3784
▁cash	-3785
▁clay	-3786
▁dece	-3787
▁dust	-3788
▁exec	-3789
▁fair	-3790
▁gold	-3791
▁gone	-3792
▁hide	-3793
▁inse	-3794
▁road	-3795
▁teac	-3796
asting	-3797
cedure	-3798
ctober	-3799
ellect	-3800
ground	-3801
haraoh	-3802
hedule	-3803
▁Buddh	-3804
▁Other	-3805
▁avoid	-3806
▁bount	-3807
▁calls	-3808
▁chann	-3809
▁dance	-3810
▁occur	-3811
▁phase	-3812
▁phone	-3813
▁proof	-3814
▁range	-3815
▁seems	-3816
▁sight	-3817
▁strug	-3818
▁touch	-3819
▁track	-3820
▁waste	-3821
stances	-3822
▁Assist	-3823
▁Failed	-3824
▁Mighty	-3825
▁Office	-3826
▁School	-3827
▁animal	-3828
▁arrest	-3829
▁attrib	-3830
▁belief	-3831
▁charge	-3832
▁consum	-3833
▁dialog	-3834
▁ensure	-3835
▁female	-3836
▁format	-3837
▁fought	-3838
▁inform	-3839
▁latest	-3840
▁longer	-3841
▁medium	-3842
▁method	-3843
▁mobile	-3844
▁needed	-3845
▁plants	-3846
▁poetry	-3847
▁remove	-3848
▁review	-3849
▁target	-3850
▁wanted	-3851
lication	-3852
▁Western	-3853
▁article	-3854
▁coordin	-3855
▁council	-3856
▁descend	-3857
▁passing	-3858
▁payment	-3859
▁portion	-3860
▁returns	-3861
▁stories	-3862
▁Exchange	-3863
▁Gandhiji	-3864
▁approach	-3865
▁brothers	-3866
▁constant	-3867
▁exercise	-3868
▁hospital	-3869
▁included	-3870
▁includes	-3871
▁launched	-3872
▁measures	-3873
▁meetings	-3874
▁military	-3875
▁petition	-3876
▁promised	-3877
▁purposes	-3878
▁relating	-3879
▁standard	-3880
▁straight	-3881
▁Rajasthan	-3882
▁Therefore	-3883
▁associate	-3884
▁committed	-3885
▁conscious	-3886
▁direction	-3887
▁programme	-3888
▁transport	-3889
▁generation	-3890
▁profession	-3891
▁revolution	-3892
▁agriculture	-3893
▁achievements	-3894
▁relationship	-3895
".	-3896
);	-3897
,"	-3898
5.	-3899
OC	-3900
Sh	-3901
da	-3902
ij	-3903
kt	-3904
▁	-3905
e	-3906
t	-3907
a	-3908
o	-3909
i	-3910
n	-3911
s	-3912
r	-3913
h	-3914
l	-3915
d	-3916
c	-3917
u	-3918
m	-3919
f	-3920
p	-3921
g	-3922
y	-3923
w	-3924
b	-3925
.	-3926
v	-3927
,	-3928
k	-3929
A	-3930
T	-3931
I	-3932
S	-3933
-	-3934
C	-3935
P	-3936
M	-3937
H	-3938
x	-3939
B	-3940
R	-3941
1	-3942
D	-3943
W	-3944
0	-3945
E	-3946
N	-3947
'	-3948
(	-3949
)	-3950
G	-3951
O	-3952
j	-3953
L	-3954
2	-3955
:	-3956
F	-3957
q	-3958
;	-3959
U	-3960
K	-3961
"	-3962
9	-3963
z	-3964
5	-3965
3	-3966
?	-3967
V	-3968
/	-3969
J	-3970
%	-3971
4	-3972
Y	-3973
8	-3974
7	-3975
6	-3976
”	-3977
“	-3978
!	-3979
_	-3980
’	-3981
]	-3982
[	-3983
&	-3984
<	-3985
>	-3986
Q	-3987
–	-3988
‘	-3989
Z	-3990
{	-3991
}	-3992
—	-3993
X	-3994
+	-3995
*	-3996
