<pad>	0
</s>	0
<unk>	0
▁¦	-0
▁s	-1
st	-2
▁p	-3
▁𐋇	-4
▁j	-5
▁v	-6
ch	-7
▁,	-8
li	-9
▁n	-10
▁a	-11
ho	-12
te	-13
ov	-14
od	-15
▁k	-16
ou	-17
▁t	-18
▁m	-19
▁z	-20
by	-21
em	-22
ní	-23
ra	-24
ro	-25
ak	-26
ed	-27
▁d	-28
al	-29
ti	-30
ne	-31
▁je	-32
in	-33
na	-34
to	-35
še	-36
je	-37
ře	-38
il	-39
▁.	-40
že	-41
le	-42
▁o	-43
ce	-44
ud	-45
▁ne	-46
la	-47
▁po	-48
ři	-49
▁na	-50
rá	-51
ří	-52
▁se	-53
▁b	-54
ni	-55
▁A	-56
sp	-57
sk	-58
ně	-59
ého	-60
▁sv	-61
po	-62
no	-63
bo	-64
spod	-65
ko	-66
spodin	-67
se	-68
ví	-69
▁by	-70
mu	-71
ob	-72
ých	-73
▁u	-74
ji	-75
lo	-76
ter	-77
jí	-78
▁J	-79
en	-80
▁H	-81
dy	-82
do	-83
▁js	-84
lu	-85
▁I	-86
ám	-87
ru	-88
ka	-89
va	-90
el	-91
▁Ho	-92
za	-93
▁B	-94
yn	-95
▁i	-96
ude	-97
▁do	-98
▁P	-99
▁Hospodin	-100
sta	-101
ží	-102
dě	-103
sv	-104
▁za	-105
ým	-106
ci	-107
▁to	-108
lov	-109
ta	-110
▁vy	-111
▁pro	-112
vi	-113
▁od	-114
▁při	-115
▁jest	-116
ze	-117
vá	-118
řek	-119
▁jeho	-120
řed	-121
tě	-122
tí	-123
me	-124
ma	-125
da	-126
▁N	-127
ky	-128
▁S	-129
▁h	-130
ná	-131
vy	-132
ku	-133
▁kter	-134
▁č	-135
ova	-136
▁že	-137
sti	-138
cí	-139
vo	-140
mě	-141
vě	-142
▁pak	-143
▁T	-144
ha	-145
pro	-146
mi	-147
▁vše	-148
ší	-149
▁:	-150
dyž	-151
roz	-152
▁aby	-153
de	-154
js	-155
lé	-156
zra	-157
be	-158
sl	-159
řekl	-160
ve	-161
ové	-162
ako	-163
ži	-164
▁tak	-165
lid	-166
ovi	-167
né	-168
či	-169
ši	-170
▁K	-171
▁te	-172
ýž	-173
jich	-174
▁ob	-175
▁ji	-176
▁syn	-177
▁bude	-178
teří	-179
obě	-180
mo	-181
▁jsem	-182
▁M	-183
při	-184
pra	-185
če	-186
▁krá	-187
zrael	-188
▁Ne	-189
teříž	-190
▁st	-191
áš	-192
ím	-193
ůj	-194
hospodin	-195
▁zem	-196
vše	-197
ům	-198
▁ho	-199
nu	-200
▁Je	-201
éž	-202
ste	-203
▁své	-204
vé	-205
zal	-206
ká	-207
rd	-208
▁ně	-209
lí	-210
jest	-211
at	-212
kter	-213
▁ve	-214
čin	-215
bude	-216
lá	-217
co	-218
▁tě	-219
ny	-220
▁Bo	-221
sa	-222
ved	-223
▁mě	-224
▁před	-225
jeho	-226
ili	-227
▁vě	-228
rod	-229
▁D	-230
emu	-231
aby	-232
ské	-233
ství	-234
▁řekl	-235
▁;	-236
▁lid	-237
sí	-238
ný	-239
ale	-240
▁byl	-241
kr	-242
▁V	-243
šel	-244
▁jako	-245
nou	-246
ět	-247
▁všec	-248
tak	-249
▁E	-250
stu	-251
hl	-252
pak	-253
▁ch	-254
▁pra	-255
▁když	-256
cha	-257
▁jejich	-258
pa	-259
mé	-260
▁Z	-261
▁ná	-262
▁Izrael	-263
děl	-264
di	-265
ty	-266
ůh	-267
nebo	-268
žíš	-269
▁jed	-270
▁O	-271
▁roz	-272
tá	-273
vil	-274
▁ni	-275
▁mu	-276
udou	-277
du	-278
zi	-279
pov	-280
lik	-281
▁nebo	-282
ly	-283
syn	-284
▁kterýž	-285
alo	-286
lou	-287
▁kteříž	-288
žd	-289
tož	-290
ry	-291
krá	-292
▁ko	-293
pu	-294
dí	-295
an	-296
hu	-297
tr	-298
ník	-299
ště	-300
ád	-301
▁pod	-302
ri	-303
zem	-304
▁jsou	-305
ští	-306
▁tv	-307
jsem	-308
▁mne	-309
▁Nebo	-310
mí	-311
▁svého	-312
sto	-313
ním	-314
kou	-315
▁Pro	-316
luže	-317
lužeb	-318
což	-319
▁ka	-320
tv	-321
má	-322
ej	-323
án	-324
▁toho	-325
ských	-326
▁mo	-327
tu	-328
vu	-329
ného	-330
▁ale	-331
zd	-332
▁ani	-333
as	-334
oval	-335
▁ru	-336
sá	-337
ými	-338
bra	-339
▁?	-340
chá	-341
oj	-342
vid	-343
zá	-344
▁ten	-345
▁zá	-346
své	-347
byl	-348
bi	-349
▁Jo	-350
ck	-351
ův	-352
pe	-353
zí	-354
stí	-355
před	-356
ský	-357
▁jsi	-358
on	-359
▁me	-360
▁Bůh	-361
▁proti	-362
am	-363
▁kteréž	-364
▁jim	-365
▁země	-366
bu	-367
cho	-368
ského	-369
tom	-370
šli	-371
▁Po	-372
▁já	-373
když	-374
lově	-375
ilo	-376
hla	-377
ráž	-378
▁vám	-379
▁jemu	-380
stou	-381
dá	-382
▁ř	-383
▁zemi	-384
▁ty	-385
▁ú	-386
▁mlu	-387
▁pře	-388
val	-389
▁Da	-390
pl	-391
jed	-392
▁až	-393
▁také	-394
jako	-395
nám	-396
rou	-397
▁C	-398
ba	-399
pově	-400
▁pr	-401
▁dí	-402
▁ž	-403
▁pří	-404
▁kdo	-405
bě	-406
oud	-407
vedl	-408
zu	-409
▁tobě	-410
▁mí	-411
▁vá	-412
▁budou	-413
edy	-414
yna	-415
▁ti	-416
jící	-417
stě	-418
▁ví	-419
dali	-420
čí	-421
sly	-422
zalé	-423
kterýž	-424
▁praví	-425
sté	-426
ruzalé	-427
▁mi	-428
▁jej	-429
▁nad	-430
ckni	-431
šickni	-432
koli	-433
ovati	-434
▁Tedy	-435
jte	-436
ct	-437
re	-438
▁byli	-439
ných	-440
yp	-441
▁bra	-442
činil	-443
mlu	-444
▁tvé	-445
pá	-446
▁pa	-447
nost	-448
▁va	-449
pod	-450
▁dě	-451
ová	-452
▁Ale	-453
ovo	-454
teráž	-455
▁ot	-456
jejich	-457
▁král	-458
já	-459
izrael	-460
kteříž	-461
gyp	-462
neb	-463
▁mé	-464
▁svou	-465
▁sta	-466
nov	-467
▁slov	-468
▁vi	-469
▁domu	-470
pří	-471
stá	-472
▁ži	-473
▁služeb	-474
lení	-475
ruh	-476
vrá	-477
tří	-478
nosti	-479
su	-480
pí	-481
▁le	-482
▁každ	-483
bou	-484
vad	-485
ovali	-486
▁což	-487
▁dne	-488
▁poko	-489
udu	-490
eme	-491
jsou	-492
uje	-493
▁vš	-494
men	-495
▁svých	-496
všec	-497
▁hla	-498
▁ce	-499
lil	-500
akž	-501
▁má	-502
kdo	-503
▁L	-504
▁be	-505
jisté	-506
▁nem	-507
▁mno	-508
▁vás	-509
nem	-510
▁G	-511
oh	-512
stup	-513
tedy	-514
▁jmé	-515
▁sed	-516
▁obět	-517
▁tvá	-518
ar	-519
kázal	-520
▁David	-521
rdce	-522
▁všech	-523
▁(	-524
tel	-525
▁Boží	-526
proti	-527
▁du	-528
vr	-529
et	-530
ouž	-531
vám	-532
pr	-533
hro	-534
ten	-535
iáš	-536
▁sobě	-537
ot	-538
my	-539
▁jí	-540
mou	-541
stří	-542
▁dob	-543
▁bylo	-544
▁R	-545
▁kně	-546
▁Protož	-547
ali	-548
mne	-549
▁skr	-550
tek	-551
vý	-552
ani	-553
ků	-554
▁tu	-555
▁králov	-556
pře	-557
▁sm	-558
jíce	-559
svého	-560
▁člově	-561
▁Boha	-562
so	-563
žil	-564
svě	-565
▁lidu	-566
sil	-567
nad	-568
▁Sa	-569
▁mezi	-570
toho	-571
ctví	-572
té	-573
něm	-574
▁Jud	-575
▁F	-576
▁jste	-577
▁synů	-578
▁řek	-579
chu	-580
sla	-581
ců	-582
mno	-583
níci	-584
odí	-585
▁Moj	-586
bylo	-587
bí	-588
iti	-589
střed	-590
dal	-591
bý	-592
stoup	-593
▁těch	-594
kla	-595
jde	-596
sm	-597
▁velik	-598
▁můj	-599
▁všecky	-600
▁Jeruzalé	-601
led	-602
řel	-603
▁Já	-604
▁Ž	-605
áb	-606
ským	-607
▁Hospodinu	-608
▁dá	-609
dou	-610
▁té	-611
▁bý	-612
▁národ	-613
dob	-614
jsi	-615
um	-616
til	-617
▁synové	-618
▁tedy	-619
jo	-620
▁den	-621
▁svat	-622
kteréž	-623
vedli	-624
▁vz	-625
budou	-626
▁spra	-627
liže	-628
byli	-629
▁ra	-630
▁vo	-631
▁bez	-632
gypt	-633
▁nich	-634
dce	-635
▁ním	-636
bil	-637
lech	-638
▁Na	-639
▁mně	-640
▁Mojžíš	-641
jim	-642
▁on	-643
▁syna	-644
cháze	-645
▁jeden	-646
bůh	-647
▁oči	-648
jemu	-649
nž	-650
země	-651
pověděl	-652
sed	-653
řích	-654
▁její	-655
▁všickni	-656
▁kteráž	-657
▁dal	-658
níž	-659
▁či	-660
nil	-661
enství	-662
▁muž	-663
zo	-664
hled	-665
fa	-666
dne	-667
▁žád	-668
odil	-669
sy	-670
▁čin	-671
▁jsme	-672
ově	-673
také	-674
nal	-675
hromá	-676
až	-677
aj	-678
▁řka	-679
ěl	-680
nů	-681
praví	-682
▁Tak	-683
zemi	-684
řá	-685
vš	-686
ele	-687
▁mluvil	-688
stin	-689
slov	-690
▁skrze	-691
▁byla	-692
▁všecko	-693
▁něm	-694
nej	-695
▁Hospodina	-696
den	-697
▁jedno	-698
eli	-699
sou	-700
▁vod	-701
protož	-702
vili	-703
slal	-704
▁aniž	-705
▁svým	-706
br	-707
si	-708
stal	-709
▁U	-710
ned	-711
tra	-712
▁zajisté	-713
▁Ježíš	-714
▁krále	-715
▁něho	-716
▁nám	-717
ltá	-718
▁kra	-719
tvé	-720
pal	-721
tobě	-722
tý	-723
ská	-724
pě	-725
vali	-726
▁bo	-727
poko	-728
▁nebe	-729
▁oh	-730
zů	-731
znám	-732
ata	-733
▁š	-734
▁tvůj	-735
▁Aj	-736
vati	-737
ových	-738
▁srdce	-739
ovy	-740
jší	-741
▁sí	-742
▁proro	-743
▁učinil	-744
pět	-745
jej	-746
▁lo	-747
▁než	-748
ré	-749
ine	-750
▁To	-751
áše	-752
jin	-753
há	-754
▁čas	-755
▁vů	-756
liž	-757
ul	-758
daliž	-759
pou	-760
▁Ma	-761
edl	-762
tku	-763
král	-764
▁není	-765
spodine	-766
▁věci	-767
yní	-768
dli	-769
▁sedm	-770
▁jin	-771
srd	-772
žel	-773
▁jich	-774
im	-775
▁co	-776
▁Syn	-777
eled	-778
▁tebe	-779
vost	-780
boží	-781
ovu	-782
▁nás	-783
zy	-784
▁-	-785
cích	-786
▁budu	-787
▁svému	-788
služeb	-789
▁Od	-790
hou	-791
bož	-792
slou	-793
▁stra	-794
kol	-795
▁kdož	-796
každ	-797
stav	-798
pla	-799
jak	-800
ďte	-801
zna	-802
▁tam	-803
▁l	-804
▁sly	-805
▁milo	-806
ným	-807
ron	-808
▁tisí	-809
▁jakž	-810
▁nebude	-811
▁sto	-812
▁města	-813
dění	-814
kud	-815
▁ke	-816
▁svě	-817
slu	-818
boha	-819
lon	-820
▁aj	-821
svou	-822
řeč	-823
▁druh	-824
▁dva	-825
▁kterouž	-826
kem	-827
vod	-828
skému	-829
pů	-830
sob	-831
domu	-832
▁obě	-833
▁živo	-834
▁ta	-835
mně	-836
šk	-837
▁jméno	-838
desá	-839
ém	-840
▁ní	-841
sli	-842
ému	-843
▁ať	-844
▁nej	-845
▁stá	-846
▁králi	-847
chi	-848
děli	-849
▁usta	-850
▁více	-851
žto	-852
prav	-853
▁ro	-854
▁dce	-855
tvá	-856
čně	-857
činí	-858
sty	-859
bá	-860
▁tři	-861
jmé	-862
ila	-863
er	-864
svých	-865
▁každý	-866
táh	-867
tře	-868
▁bratří	-869
žeh	-870
▁prostřed	-871
ování	-872
žení	-873
▁tom	-874
kně	-875
spra	-876
tyři	-877
▁Když	-878
▁budeš	-879
zdvi	-880
▁již	-881
▁však	-882
šed	-883
▁no	-884
vadž	-885
tec	-886
dl	-887
vou	-888
elmi	-889
přá	-890
▁zla	-891
vás	-892
▁Egypt	-893
jem	-894
všech	-895
▁um	-896
ních	-897
▁mod	-898
tím	-899
šeho	-900
▁tomu	-901
viti	-902
▁de	-903
▁ma	-904
pat	-905
sva	-906
▁Kter	-907
řil	-908
alez	-909
pust	-910
éhož	-911
vosti	-912
▁Bohu	-913
žád	-914
▁Pá	-915
▁pokolení	-916
david	-917
▁r	-918
synové	-919
níka	-920
ložil	-921
chť	-922
vra	-923
čež	-924
hy	-925
tů	-926
vz	-927
vají	-928
▁Kri	-929
▁dědi	-930
▁slou	-931
sobě	-932
▁Vy	-933
▁ku	-934
muž	-935
šich	-936
▁pá	-937
něvadž	-938
obět	-939
synů	-940
tky	-941
stra	-942
nit	-943
▁ze	-944
níže	-945
kob	-946
ního	-947
▁Kdo	-948
žství	-949
▁pl	-950
▁nyní	-951
▁sil	-952
člově	-953
▁řkou	-954
što	-955
▁Š	-956
▁jenž	-957
▁nepo	-958
▁my	-959
▁učin	-960
▁poč	-961
▁Ka	-962
lal	-963
▁Pa	-964
▁budete	-965
ším	-966
níky	-967
králov	-968
▁Co	-969
národ	-970
▁abych	-971
mezi	-972
stech	-973
▁němu	-974
šť	-975
alomou	-976
▁vý	-977
mluvil	-978
▁hřích	-979
kra	-980
▁pe	-981
▁neu	-982
▁zástup	-983
lidu	-984
▁Be	-985
byla	-986
▁dům	-987
ilistin	-988
chom	-989
▁služebník	-990
bez	-991
▁ud	-992
▁shromá	-993
▁aneb	-994
▁stalo	-995
liko	-996
velik	-997
▁rou	-998
▁přišel	-999
obo	-1000
síce	-1001
▁mil	-1002
▁slu	-1003
▁hled	-1004
▁proto	-1005
tma	-1006
▁podlé	-1007
kl	-1008
šla	-1009
▁an	-1010
▁mého	-1011
jud	-1012
jste	-1013
▁Za	-1014
▁tebou	-1015
ala	-1016
čedl	-1017
▁býti	-1018
lého	-1019
všecky	-1020
▁otce	-1021
▁protož	-1022
ken	-1023
stý	-1024
skr	-1025
▁svá	-1026
▁muži	-1027
▁kníž	-1028
▁ruku	-1029
▁Potom	-1030
ven	-1031
kudž	-1032
▁Si	-1033
syna	-1034
▁oltá	-1035
moj	-1036
těch	-1037
▁Ř	-1038
▁Ži	-1039
▁svůj	-1040
byva	-1041
▁mnou	-1042
▁Hospodinova	-1043
chází	-1044
nější	-1045
▁měl	-1046
▁nimi	-1047
brž	-1048
ja	-1049
můj	-1050
káza	-1051
▁pou	-1052
▁všecken	-1053
srdenství	-1054
▁ned	-1055
▁ještě	-1056
▁řekli	-1057
tiž	-1058
▁tr	-1059
žíše	-1060
▁slovo	-1061
jeruzalé	-1062
▁království	-1063
▁sou	-1064
děla	-1065
▁nepra	-1066
všickni	-1067
kri	-1068
▁voj	-1069
oči	-1070
budeš	-1071
tého	-1072
stalo	-1073
nich	-1074
▁ode	-1075
▁syny	-1076
▁Hospodine	-1077
moc	-1078
▁svém	-1079
hně	-1080
nác	-1081
hospodinu	-1082
vů	-1083
▁místo	-1084
nice	-1085
žili	-1086
▁jak	-1087
dceti	-1088
dr	-1089
kon	-1090
▁neb	-1091
jeden	-1092
kteráž	-1093
▁slova	-1094
▁čeled	-1095
set	-1096
▁obrá	-1097
▁ruce	-1098
ují	-1099
▁soud	-1100
▁Le	-1101
▁oni	-1102
▁všelik	-1103
ede	-1104
▁Izra	-1105
▁zase	-1106
řka	-1107
aniž	-1108
▁Při	-1109
▁pravím	-1110
ůl	-1111
škvr	-1112
▁navrá	-1113
dež	-1114
kové	-1115
mení	-1116
dil	-1117
její	-1118
uch	-1119
ách	-1120
ůže	-1121
více	-1122
▁Izraelský	-1123
jsme	-1124
▁zů	-1125
pení	-1126
vého	-1127
▁ó	-1128
mojžíš	-1129
▁poslal	-1130
zení	-1131
braha	-1132
kdož	-1133
skrze	-1134
stane	-1135
hli	-1136
▁pov	-1137
všecko	-1138
▁abyste	-1139
působ	-1140
však	-1141
▁bu	-1142
vání	-1143
▁spo	-1144
▁vaše	-1145
▁podob	-1146
▁tvého	-1147
iž	-1148
pil	-1149
spo	-1150
vyš	-1151
voji	-1152
▁kněží	-1153
kona	-1154
sím	-1155
▁abys	-1156
zdra	-1157
sku	-1158
ke	-1159
zen	-1160
▁člověka	-1161
tam	-1162
▁mr	-1163
▁smr	-1164
▁moud	-1165
chod	-1166
▁ostří	-1167
▁tvých	-1168
chli	-1169
ovým	-1170
▁ře	-1171
▁Se	-1172
potom	-1173
tvých	-1174
▁věky	-1175
tili	-1176
jedno	-1177
proro	-1178
mil	-1179
zná	-1180
▁Eli	-1181
▁nic	-1182
▁slá	-1183
▁všecka	-1184
cem	-1185
▁brá	-1186
▁posta	-1187
▁spravedli	-1188
tele	-1189
jíti	-1190
fra	-1191
není	-1192
šení	-1193
kry	-1194
ati	-1195
▁jakož	-1196
▁oběti	-1197
▁Kterýž	-1198
plodil	-1199
lit	-1200
▁ci	-1201
▁svými	-1202
ara	-1203
šti	-1204
hem	-1205
měl	-1206
rak	-1207
tež	-1208
šil	-1209
hospodina	-1210
vím	-1211
▁rá	-1212
▁synům	-1213
▁sám	-1214
jdou	-1215
mého	-1216
prá	-1217
▁stří	-1218
▁toto	-1219
léta	-1220
▁uz	-1221
▁čtyři	-1222
zajisté	-1223
zali	-1224
alomoun	-1225
▁činí	-1226
rem	-1227
sem	-1228
▁pí	-1229
▁še	-1230
učinil	-1231
svým	-1232
▁sku	-1233
▁Izraelských	-1234
ina	-1235
zue	-1236
stoupil	-1237
▁Jest	-1238
▁muže	-1239
▁Zdaliž	-1240
▁spravedl	-1241
svob	-1242
krále	-1243
čem	-1244
▁ved	-1245
▁bezbož	-1246
dej	-1247
zef	-1248
jakž	-1249
ska	-1250
nce	-1251
ježíš	-1252
▁člověk	-1253
tem	-1254
dectví	-1255
než	-1256
sal	-1257
něho	-1258
▁Ty	-1259
budu	-1260
tři	-1261
srdce	-1262
▁velmi	-1263
rší	-1264
čení	-1265
níků	-1266
ýchod	-1267
▁rukou	-1268
eň	-1269
čné	-1270
▁ří	-1271
šlech	-1272
▁sebe	-1273
hře	-1274
živo	-1275
▁jednoho	-1276
lovi	-1277
nove	-1278
zla	-1279
čas	-1280
rost	-1281
tvůj	-1282
▁Ře	-1283
chem	-1284
▁man	-1285
loval	-1286
cen	-1287
▁Jákob	-1288
ech	-1289
▁přikázal	-1290
táhl	-1291
anov	-1292
▁let	-1293
▁duše	-1294
kři	-1295
▁smlou	-1296
uj	-1297
tev	-1298
ždění	-1299
▁vůkol	-1300
dům	-1301
nebe	-1302
milo	-1303
abylon	-1304
poví	-1305
▁ry	-1306
budete	-1307
▁Izraelští	-1308
skými	-1309
braham	-1310
▁mých	-1311
pustil	-1312
▁dědictví	-1313
pi	-1314
cové	-1315
▁šel	-1316
▁mou	-1317
liti	-1318
nech	-1319
),	-1320
věci	-1321
terak	-1322
šlechet	-1323
▁kr	-1324
telé	-1325
▁uči	-1326
▁nepřá	-1327
▁očima	-1328
▁tohoto	-1329
slyšel	-1330
prostřed	-1331
ab	-1332
us	-1333
kázaní	-1334
▁Takto	-1335
tud	-1336
klá	-1337
stře	-1338
▁dvě	-1339
▁ruky	-1340
▁též	-1341
stupu	-1342
▁domě	-1343
▁Panov	-1344
ejte	-1345
tebe	-1346
hé	-1347
ať	-1348
lů	-1349
řem	-1350
jméno	-1351
ádo	-1352
▁Filistin	-1353
zel	-1354
rý	-1355
nás	-1356
▁He	-1357
▁hně	-1358
▁spa	-1359
proto	-1360
▁žádného	-1361
slyše	-1362
nili	-1363
sled	-1364
▁srd	-1365
rozen	-1366
svému	-1367
usta	-1368
hyn	-1369
▁Leví	-1370
▁jísti	-1371
▁zástupů	-1372
plé	-1373
utí	-1374
druh	-1375
sko	-1376
▁neči	-1377
▁přišli	-1378
han	-1379
kterouž	-1380
návi	-1381
▁nim	-1382
▁vody	-1383
▁zápal	-1384
▁Mojžíšovi	-1385
dva	-1386
sse	-1387
města	-1388
přišel	-1389
již	-1390
tvr	-1391
nyní	-1392
hr	-1393
▁vámi	-1394
jal	-1395
lek	-1396
vní	-1397
nání	-1398
žen	-1399
▁pokoj	-1400
nové	-1401
každý	-1402
mod	-1403
▁tento	-1404
▁řkouce	-1405
chle	-1406
áme	-1407
vin	-1408
▁svět	-1409
▁množství	-1410
čil	-1411
ánku	-1412
bro	-1413
▁potom	-1414
▁oznám	-1415
pomí	-1416
▁lok	-1417
▁tím	-1418
▁učedl	-1419
sky	-1420
▁vší	-1421
puště	-1422
▁Fara	-1423
▁boj	-1424
▁prá	-1425
ad	-1426
ben	-1427
králi	-1428
▁vez	-1429
▁napl	-1430
oni	-1431
nitř	-1432
▁pět	-1433
▁nemo	-1434
▁činil	-1435
uz	-1436
▁Mo	-1437
mord	-1438
sáno	-1439
chiáš	-1440
bratří	-1441
che	-1442
zav	-1443
▁byd	-1444
▁všem	-1445
▁obyva	-1446
sení	-1447
▁mat	-1448
▁synu	-1449
▁vzal	-1450
▁viděl	-1451
▁veliké	-1452
▁Hospodinem	-1453
hav	-1454
▁Ti	-1455
rého	-1456
▁tře	-1457
▁zvě	-1458
sedm	-1459
▁zlé	-1460
▁Jestliže	-1461
těl	-1462
py	-1463
bud	-1464
jenž	-1465
▁noh	-1466
alá	-1467
pad	-1468
otce	-1469
he	-1470
lav	-1471
▁Ab	-1472
nácte	-1473
tých	-1474
lej	-1475
vida	-1476
▁ženy	-1477
nému	-1478
čkoli	-1479
desáte	-1480
▁něj	-1481
▁těm	-1482
▁nevy	-1483
▁prav	-1484
▁dobré	-1485
stro	-1486
vedu	-1487
nic	-1488
▁bá	-1489
▁vedlé	-1490
▁manžel	-1491
niam	-1492
man	-1493
vez	-1494
▁bych	-1495
▁tisíc	-1496
▁milosrdenství	-1497
aza	-1498
niž	-1499
zko	-1500
spravedl	-1501
hož	-1502
lak	-1503
▁mužů	-1504
▁pově	-1505
vej	-1506
čte	-1507
mon	-1508
raz	-1509
ždy	-1510
dělal	-1511
rán	-1512
aneb	-1513
lám	-1514
▁lí	-1515
bili	-1516
chvá	-1517
nepo	-1518
tomu	-1519
▁město	-1520
▁vin	-1521
▁kněz	-1522
syr	-1523
iv	-1524
▁buď	-1525
▁míti	-1526
obrá	-1527
jestliže	-1528
řkou	-1529
▁Abi	-1530
▁Panovník	-1531
doby	-1532
učin	-1533
▁Zá	-1534
▁posvě	-1535
toto	-1536
egypt	-1537
vyšší	-1538
slyš	-1539
▁Jeruzaléma	-1540
ňte	-1541
bohu	-1542
▁živ	-1543
▁požeh	-1544
▁knížata	-1545
ční	-1546
tové	-1547
▁Aby	-1548
▁naše	-1549
pos	-1550
ání	-1551
▁nalez	-1552
pokolení	-1553
gypta	-1554
▁zna	-1555
tru	-1556
▁pu	-1557
vení	-1558
▁Bože	-1559
▁koli	-1560
▁li	-1561
▁Jeruzalém	-1562
brá	-1563
klad	-1564
rov	-1565
slí	-1566
tech	-1567
abych	-1568
lem	-1569
▁Saul	-1570
▁každého	-1571
dědi	-1572
▁Což	-1573
stavě	-1574
▁měli	-1575
shromá	-1576
▁života	-1577
láz	-1578
síc	-1579
▁Bá	-1580
▁sa	-1581
navrá	-1582
▁Jeruzalémě	-1583
hod	-1584
cken	-1585
řili	-1586
▁dnů	-1587
▁hro	-1588
▁set	-1589
▁Žid	-1590
ejtma	-1591
▁byly	-1592
▁nevě	-1593
děv	-1594
ještě	-1595
pusti	-1596
▁Aron	-1597
▁Kristu	-1598
živ	-1599
▁Am	-1600
podob	-1601
▁bydli	-1602
ode	-1603
muži	-1604
▁boh	-1605
fraim	-1606
líče	-1607
nými	-1608
ostří	-1609
takto	-1610
niamin	-1611
chy	-1612
▁nežli	-1613
▁tvoji	-1614
▁všeho	-1615
šlo	-1616
jakož	-1617
soud	-1618
▁moc	-1619
▁chle	-1620
▁Egyptské	-1621
▁če	-1622
nese	-1623
▁Pán	-1624
▁zlo	-1625
voj	-1626
tvého	-1627
dám	-1628
kdy	-1629
cího	-1630
podlé	-1631
novení	-1632
▁jestliže	-1633
▁Hospodinovo	-1634
děti	-1635
▁nech	-1636
▁povo	-1637
▁vese	-1638
▁času	-1639
▁našeho	-1640
▁hlas	-1641
▁moře	-1642
sili	-1643
hra	-1644
smr	-1645
svá	-1646
čer	-1647
▁rod	-1648
▁hned	-1649
▁této	-1650
▁umřel	-1651
ké	-1652
kal	-1653
skou	-1654
řekli	-1655
hne	-1656
slá	-1657
hřích	-1658
or	-1659
▁By	-1660
dolí	-1661
němu	-1662
říví	-1663
▁kníže	-1664
lad	-1665
hati	-1666
noci	-1667
rozu	-1668
▁Že	-1669
▁věc	-1670
▁tělo	-1671
▁mnoho	-1672
▁tváři	-1673
▁vašich	-1674
odpověděl	-1675
ději	-1676
nasse	-1677
slovo	-1678
▁bys	-1679
▁moci	-1680
▁Řekl	-1681
zástup	-1682
▁Šalomoun	-1683
poč	-1684
hnu	-1685
kazu	-1686
▁Vše	-1687
▁naz	-1688
nalez	-1689
▁c	-1690
▁kla	-1691
▁sko	-1692
▁hoře	-1693
▁Jozue	-1694
▁podle	-1695
léb	-1696
tků	-1697
riáš	-1698
mluvy	-1699
hal	-1700
▁nebylo	-1701
vede	-1702
▁jehož	-1703
▁Izraele	-1704
mr	-1705
lili	-1706
mor	-1707
▁ja	-1708
▁ov	-1709
▁zd	-1710
kníž	-1711
ovoce	-1712
▁chrá	-1713
▁dnes	-1714
▁prchli	-1715
ga	-1716
býti	-1717
liť	-1718
▁odpo	-1719
▁vaši	-1720
▁měsíce	-1721
všecken	-1722
▁Bet	-1723
▁Jozef	-1724
▁kteréhož	-1725
▁vr	-1726
oltá	-1727
níku	-1728
vaše	-1729
ností	-1730
jícího	-1731
pravím	-1732
dla	-1733
▁On	-1734
▁Ot	-1735
slav	-1736
▁nepři	-1737
▁způsob	-1738
▁Odpověděl	-1739
lice	-1740
tebou	-1741
řin	-1742
▁věcí	-1743
▁příby	-1744
▁spolu	-1745
▁východ	-1746
nes	-1747
▁Mi	-1748
▁poškvr	-1749
nanej	-1750
hlé	-1751
ruku	-1752
▁Cha	-1753
▁přijde	-1754
▁dom	-1755
▁kni	-1756
kteří	-1757
▁chvá	-1758
▁totiž	-1759
vorozen	-1760
▁svědectví	-1761
kro	-1762
vět	-1763
viděl	-1764
lý	-1765
ješ	-1766
mnou	-1767
▁otec	-1768
rodila	-1769
▁Hospodinův	-1770
pomen	-1771
všelik	-1772
▁Me	-1773
svůj	-1774
spravedli	-1775
chová	-1776
hospodinova	-1777
alád	-1778
děte	-1779
▁půl	-1780
nepra	-1781
▁léta	-1782
▁tvou	-1783
▁tvář	-1784
hle	-1785
též	-1786
nimi	-1787
nebude	-1788
království	-1789
pokoj	-1790
▁Pane	-1791
▁přes	-1792
▁Babylon	-1793
▁Davidovi	-1794
▁shromáždění	-1795
nouti	-1796
krista	-1797
▁Abraham	-1798
pán	-1799
ziáš	-1800
▁žena	-1801
jících	-1802
▁žádný	-1803
▁mluviti	-1804
▁zplodil	-1805
▁Izraelského	-1806
slova	-1807
poslal	-1808
ona	-1809
syny	-1810
▁dvad	-1811
▁těla	-1812
▁místě	-1813
▁zlého	-1814
▁pozdvi	-1815
loží	-1816
zání	-1817
místo	-1818
níkům	-1819
rev	-1820
▁dcery	-1821
bývá	-1822
zdaliž	-1823
cky	-1824
tka	-1825
chov	-1826
žiti	-1827
▁poha	-1828
▁mluví	-1829
stoupili	-1830
▁odpověděl	-1831
uči	-1832
lati	-1833
▁Pe	-1834
▁Ten	-1835
▁neboť	-1836
▁smrti	-1837
▁poušti	-1838
▁příčin	-1839
hospodine	-1840
nici	-1841
▁Č	-1842
liká	-1843
svém	-1844
vese	-1845
▁trá	-1846
▁měst	-1847
▁všechněm	-1848
▁Ch	-1849
▁pla	-1850
▁půj	-1851
svobo	-1852
pouště	-1853
▁poněvadž	-1854
▁Izraelským	-1855
▁služebníci	-1856
kost	-1857
krát	-1858
ruce	-1859
žena	-1860
▁jménu	-1861
▁sebou	-1862
▁Pročež	-1863
▁odpově	-1864
cíti	-1865
muel	-1866
čeled	-1867
povída	-1868
▁bud	-1869
▁Proč	-1870
▁Synové	-1871
▁národy	-1872
iny	-1873
▁Jord	-1874
▁Moáb	-1875
▁kdež	-1876
hů	-1877
bor	-1878
mění	-1879
vel	-1880
mecí	-1881
▁řeč	-1882
▁nechť	-1883
▁nepravost	-1884
kání	-1885
zase	-1886
abyste	-1887
▁Pána	-1888
▁řekla	-1889
synu	-1890
kaz	-1891
tou	-1892
▁Ro	-1893
▁tá	-1894
▁hří	-1895
▁bývá	-1896
▁oheň	-1897
▁srdci	-1898
ceti	-1899
robo	-1900
cení	-1901
moud	-1902
▁pom	-1903
▁učině	-1904
▁nenávi	-1905
▁nešlechet	-1906
byd	-1907
cházel	-1908
▁kři	-1909
▁doby	-1910
▁prorok	-1911
▁obětovati	-1912
biti	-1913
váš	-1914
▁Te	-1915
izra	-1916
lali	-1917
▁ano	-1918
kněží	-1919
nasses	-1920
▁anděl	-1921
▁krajin	-1922
abys	-1923
oznám	-1924
▁duši	-1925
▁neod	-1926
▁přede	-1927
ají	-1928
nění	-1929
rách	-1930
▁Du	-1931
▁Sau	-1932
▁nez	-1933
▁otci	-1934
▁Zdali	-1935
▁lidem	-1936
▁stánku	-1937
▁Pak	-1938
▁pan	-1939
▁smil	-1940
▁tvým	-1941
remiáš	-1942
všecka	-1943
izraelský	-1944
buď	-1945
hel	-1946
kří	-1947
ění	-1948
slyší	-1949
▁ká	-1950
▁nade	-1951
▁otců	-1952
▁služ	-1953
▁šest	-1954
▁život	-1955
▁abychom	-1956
lep	-1957
▁poled	-1958
▁slyše	-1959
▁svaty	-1960
▁Ježíše	-1961
hdá	-1962
měli	-1963
posta	-1964
▁As	-1965
hdáž	-1966
mých	-1967
▁dám	-1968
vejte	-1969
▁poto	-1970
ložili	-1971
sloucha	-1972
▁Ve	-1973
▁hod	-1974
▁noci	-1975
▁dokudž	-1976
diti	-1977
niáš	-1978
láden	-1979
onovi	-1980
člověka	-1981
▁bí	-1982
nesl	-1983
▁Eze	-1984
▁jsa	-1985
▁otev	-1986
člověk	-1987
▁nádob	-1988
▁veliký	-1989
ada	-1990
čet	-1991
tvrd	-1992
ýchž	-1993
ělal	-1994
ření	-1995
cům	-1996
zte	-1997
nímu	-1998
▁Jako	-1999
▁opět	-2000
▁přij	-2001
▁hlasu	-2002
nec	-2003
vla	-2004
lka	-2005
▁váš	-2006
▁zje	-2007
synům	-2008
fi	-2009
sám	-2010
let	-2011
ďáb	-2012
mezí	-2013
▁mnoh	-2014
zvě	-2015
lici	-2016
náš	-2017
▁jazy	-2018
▁obra	-2019
▁kraloval	-2020
zej	-2021
věky	-2022
tně	-2023
▁chud	-2024
roboám	-2025
velmi	-2026
čeká	-2027
▁oko	-2028
stali	-2029
▁hory	-2030
▁vyhla	-2031
▁vyšel	-2032
▁Kteříž	-2033
▁přikázaní	-2034
zor	-2035
▁Sy	-2036
▁dve	-2037
neboť	-2038
oběti	-2039
▁krev	-2040
▁silný	-2041
jím	-2042
toť	-2043
měst	-2044
▁moji	-2045
▁loket	-2046
▁Božího	-2047
jdi	-2048
lijak	-2049
▁Ja	-2050
tekl	-2051
▁ješto	-2052
tal	-2053
nách	-2054
ýbrž	-2055
▁Aza	-2056
▁náš	-2057
▁osm	-2058
volil	-2059
čtyři	-2060
▁brány	-2061
▁dobře	-2062
▁nichž	-2063
▁toliko	-2064
svými	-2065
vzal	-2066
všem	-2067
ženy	-2068
▁takto	-2069
poslech	-2070
▁vysvob	-2071
muže	-2072
šedše	-2073
bezbož	-2074
▁hlavu	-2075
▁třetí	-2076
▁učiní	-2077
▁národů	-2078
hrd	-2079
pána	-2080
rosti	-2081
inu	-2082
ram	-2083
šili	-2084
konal	-2085
▁námi	-2086
▁ohav	-2087
▁říka	-2088
▁městě	-2089
▁straně	-2090
nim	-2091
ono	-2092
dím	-2093
hor	-2094
těm	-2095
▁dny	-2096
▁vla	-2097
požeh	-2098
▁chod	-2099
cím	-2100
van	-2101
loupe	-2102
krm	-2103
tan	-2104
▁šli	-2105
▁poma	-2106
▁stro	-2107
▁cesty	-2108
přikázal	-2109
▁smlouvu	-2110
izraelských	-2111
láš	-2112
neu	-2113
zdá	-2114
duše	-2115
nevě	-2116
hdy	-2117
náct	-2118
sebe	-2119
likéž	-2120
tosti	-2121
mecítma	-2122
▁Egypta	-2123
▁bratra	-2124
blí	-2125
řeli	-2126
tento	-2127
udy	-2128
bych	-2129
moci	-2130
▁úst	-2131
éře	-2132
blou	-2133
hned	-2134
vody	-2135
▁f	-2136
lič	-2137
dili	-2138
▁Jak	-2139
▁pán	-2140
▁ústa	-2141
laho	-2142
▁pole	-2143
▁vyso	-2144
jednoho	-2145
▁starší	-2146
▁spravedlnosti	-2147
rů	-2148
ano	-2149
klo	-2150
půj	-2151
svět	-2152
ujte	-2153
čiště	-2154
▁umře	-2155
▁chodí	-2156
douce	-2157
.)	-2158
▁Iza	-2159
rukou	-2160
▁neza	-2161
▁knížat	-2162
▁činiti	-2163
poněvadž	-2164
▁služebníka	-2165
▁spravedlnost	-2166
sť	-2167
rmou	-2168
kni	-2169
mej	-2170
▁Ná	-2171
osta	-2172
otec	-2173
▁dar	-2174
pravil	-2175
▁hejtma	-2176
▁shromážd	-2177
znal	-2178
fat	-2179
svěd	-2180
▁meč	-2181
žádný	-2182
▁Acha	-2183
▁němž	-2184
▁odtud	-2185
▁Efraim	-2186
▁druhého	-2187
▁Izraelské	-2188
vala	-2189
smlou	-2190
vůkol	-2191
▁e	-2192
▁St	-2193
▁vra	-2194
jákob	-2195
▁zabi	-2196
▁Bohem	-2197
žádného	-2198
▁tisíců	-2199
▁Beniamin	-2200
přišli	-2201
tej	-2202
▁Ta	-2203
▁cí	-2204
tely	-2205
trhl	-2206
▁dou	-2207
▁mám	-2208
jísti	-2209
panov	-2210
▁Kdož	-2211
▁deset	-2212
▁přebý	-2213
dědictví	-2214
bral	-2215
▁hoj	-2216
▁hor	-2217
▁mým	-2218
stého	-2219
▁osta	-2220
▁prod	-2221
▁vždy	-2222
▁jména	-2223
▁Izraeli	-2224
▁postavil	-2225
vající	-2226
víš	-2227
řev	-2228
▁Li	-2229
▁Vi	-2230
nemo	-2231
neči	-2232
niti	-2233
pustí	-2234
▁mají	-2235
▁znám	-2236
pročež	-2237
izraelští	-2238
šem	-2239
geli	-2240
mar	-2241
cech	-2242
hali	-2243
napl	-2244
vodí	-2245
vrať	-2246
▁Mlu	-2247
▁dní	-2248
▁věč	-2249
▁cestě	-2250
▁oblíče	-2251
▁prosím	-2252
▁učinili	-2253
hat	-2254
povo	-2255
nechť	-2256
nepřá	-2257
toliko	-2258
dvě	-2259
▁bě	-2260
▁dra	-2261
▁such	-2262
▁spasení	-2263
uji	-2264
vici	-2265
psáno	-2266
ruhlu	-2267
▁Lé	-2268
▁Syr	-2269
▁kro	-2270
očima	-2271
▁tuto	-2272
▁vidí	-2273
tohoto	-2274
▁bratr	-2275
▁všemu	-2276
patr	-2277
řů	-2278
rci	-2279
▁ole	-2280
▁naši	-2281
▁údolí	-2282
vangeli	-2283
lož	-2284
šího	-2285
nesli	-2286
stává	-2287
eze	-2288
nek	-2289
fara	-2290
lých	-2291
ruky	-2292
▁nes	-2293
▁prvé	-2294
veliké	-2295
▁dnech	-2296
▁pohled	-2297
▁Hospodinovy	-2298
ast	-2299
dar	-2300
émž	-2301
domě	-2302
řkouce	-2303
lahosla	-2304
▁tato	-2305
▁dříví	-2306
▁místa	-2307
▁učiním	-2308
▁vyvedl	-2309
▁řkoucí	-2310
dom	-2311
pan	-2312
▁Ji	-2313
volal	-2314
zápal	-2315
▁Amen	-2316
▁roucho	-2317
filistin	-2318
povídaje	-2319
vangelium	-2320
▁nepravosti	-2321
poj	-2322
leví	-2323
vnitř	-2324
soužení	-2325
odo	-2326
▁tru	-2327
umřel	-2328
▁Pakli	-2329
▁nebyl	-2330
▁zlata	-2331
▁roucha	-2332
▁úmluvy	-2333
át	-2334
zau	-2335
zák	-2336
řím	-2337
proč	-2338
zůstal	-2339
prv	-2340
mysl	-2341
▁rci	-2342
▁sva	-2343
▁vlá	-2344
▁Petr	-2345
▁nohy	-2346
▁vydá	-2347
zástupů	-2348
zpě	-2349
boj	-2350
acha	-2351
mích	-2352
▁díl	-2353
▁žeť	-2354
abylo	-2355
vičně	-2356
▁ruka	-2357
▁řeči	-2358
▁druhé	-2359
▁ovoce	-2360
cházeti	-2361
▁strany	-2362
mojžíšovi	-2363
▁nepřátel	-2364
dnů	-2365
jat	-2366
nevy	-2367
vští	-2368
služebník	-2369
es	-2370
▁dr	-2371
vámi	-2372
▁rov	-2373
▁Páně	-2374
▁sobo	-2375
▁kterak	-2376
▁národové	-2377
učedl	-2378
stoupí	-2379
zukrista	-2380
▁Ó	-2381
rát	-2382
trá	-2383
lože	-2384
▁sví	-2385
vedlé	-2386
▁Davida	-2387
▁cestou	-2388
staň	-2389
vráce	-2390
množství	-2391
lok	-2392
čen	-2393
cuje	-2394
▁kdy	-2395
▁stě	-2396
stinu	-2397
znali	-2398
▁bláz	-2399
▁sami	-2400
měsíce	-2401
▁Kananej	-2402
zlo	-2403
ěti	-2404
byly	-2405
obyva	-2406
bys	-2407
kům	-2408
vší	-2409
fari	-2410
▁sem	-2411
▁Duch	-2412
▁Jona	-2413
▁bliž	-2414
▁žádo	-2415
▁vojska	-2416
▁ustanovení	-2417
liv	-2418
edle	-2419
dobré	-2420
sluho	-2421
lovati	-2422
sáhl	-2423
▁pos	-2424
▁Achi	-2425
▁cestu	-2426
▁chléb	-2427
▁Hospodinovu	-2428
neš	-2429
něj	-2430
obře	-2431
▁[	-2432
▁]	-2433
▁Mu	-2434
chať	-2435
maří	-2436
hroma	-2437
▁duch	-2438
▁ohni	-2439
▁upří	-2440
hřešil	-2441
▁Galád	-2442
▁potře	-2443
▁slyšel	-2444
zlé	-2445
ském	-2446
aba	-2447
spa	-2448
▁da	-2449
ovou	-2450
titi	-2451
víte	-2452
▁Roz	-2453
▁cizo	-2454
▁mohl	-2455
milosrdenství	-2456
éla	-2457
bení	-2458
meni	-2459
mužů	-2460
pane	-2461
kosti	-2462
dlo	-2463
tné	-2464
▁byste	-2465
▁mečem	-2466
▁oblak	-2467
▁první	-2468
▁milost	-2469
▁čtyřidceti	-2470
hledá	-2471
hospodinem	-2472
▁Do	-2473
▁ská	-2474
▁skry	-2475
manžel	-2476
▁Neboť	-2477
▁Stalo	-2478
káže	-2479
vidí	-2480
tali	-2481
▁jde	-2482
ující	-2483
▁trou	-2484
▁tváří	-2485
lím	-2486
odě	-2487
zím	-2488
hlas	-2489
opět	-2490
výše	-2491
emene	-2492
louho	-2493
ramně	-2494
chodono	-2495
knížata	-2496
▁Ru	-2497
▁lá	-2498
bliž	-2499
▁Ano	-2500
▁kří	-2501
▁neo	-2502
▁oltáře	-2503
▁služebníky	-2504
fe	-2505
město	-2506
ceni	-2507
rubí	-2508
▁Sly	-2509
▁hou	-2510
▁mar	-2511
▁udě	-2512
▁Toto	-2513
▁stře	-2514
▁těmi	-2515
▁stane	-2516
▁uzdra	-2517
▁Kristus	-2518
alm	-2519
ol	-2520
yš	-2521
abi	-2522
iáše	-2523
▁Aro	-2524
posvě	-2525
▁všel	-2526
▁Proto	-2527
▁berán	-2528
▁dobro	-2529
▁vydal	-2530
uč	-2531
kli	-2532
ptý	-2533
tiv	-2534
moře	-2535
ámen	-2536
novil	-2537
pošto	-2538
tisíc	-2539
panovník	-2540
buchodono	-2541
ach	-2542
lam	-2543
naz	-2544
vně	-2545
aron	-2546
koná	-2547
▁hlu	-2548
▁kon	-2549
▁Joáb	-2550
▁jiné	-2551
▁moři	-2552
▁výso	-2553
odpově	-2554
▁odšel	-2555
každého	-2556
duch	-2557
kněz	-2558
lní	-2559
ném	-2560
kali	-2561
obra	-2562
psal	-2563
▁kou	-2564
nácti	-2565
▁odpla	-2566
▁slunce	-2567
kdež	-2568
šemu	-2569
ývá	-2570
řeči	-2571
táhli	-2572
▁Pánu	-2573
▁dílo	-2574
▁záko	-2575
▁ačkoli	-2576
▁ukázal	-2577
▁milosti	-2578
zeni	-2579
kníže	-2580
desáti	-2581
míti	-2582
dosti	-2583
▁Před	-2584
▁hova	-2585
melech	-2586
▁oltář	-2587
▁jsouce	-2588
▁prvorozen	-2589
hoj	-2590
dělá	-2591
vaje	-2592
farize	-2593
ký	-2594
pen	-2595
něni	-2596
odpo	-2597
teli	-2598
vuje	-2599
▁sli	-2600
nežli	-2601
sadil	-2602
▁lidé	-2603
▁skop	-2604
▁vším	-2605
přijde	-2606
▁počal	-2607
▁vnitř	-2608
cházeli	-2609
slyšeli	-2610
▁budeme	-2611
▁králem	-2612
▁přední	-2613
▁naproti	-2614
spí	-2615
uli	-2616
razil	-2617
jeruzaléma	-2618
drže	-2619
naše	-2620
ován	-2621
vláš	-2622
▁spá	-2623
totiž	-2624
▁něhož	-2625
▁Krista	-2626
▁chleba	-2627
▁někteří	-2628
▁znamení	-2629
▁Manasses	-2630
▁nejvyšší	-2631
díl	-2632
hří	-2633
nan	-2634
tyř	-2635
zan	-2636
ýmž	-2637
nila	-2638
které	-2639
činili	-2640
činutí	-2641
▁di	-2642
▁nak	-2643
▁očí	-2644
▁prv	-2645
▁boji	-2646
▁cizí	-2647
▁odej	-2648
▁Samuel	-2649
▁stříbr	-2650
▁Jeremiáš	-2651
bet	-2652
chrá	-2653
síců	-2654
▁Re	-2655
bože	-2656
tělo	-2657
zuje	-2658
▁pil	-2659
▁svr	-2660
dumej	-2661
▁símě	-2662
▁tyto	-2663
▁vzav	-2664
stanou	-2665
▁bydlil	-2666
▁modlit	-2667
▁všeliké	-2668
ced	-2669
šle	-2670
žid	-2671
saul	-2672
bydli	-2673
všeho	-2674
zdali	-2675
jeruzalém	-2676
hoře	-2677
▁Jed	-2678
▁hra	-2679
▁tre	-2680
▁utí	-2681
noční	-2682
▁ráno	-2683
▁stud	-2684
kázání	-2685
života	-2686
▁Ducha	-2687
▁ohněm	-2688
▁rozum	-2689
▁činili	-2690
▁svatyně	-2691
▁velikým	-2692
▁Izraelskému	-2693
dají	-2694
morej	-2695
čka	-2696
▁lé	-2697
děje	-2698
kati	-2699
▁Nad	-2700
▁potě	-2701
▁klaně	-2702
kteréhož	-2703
▁porodila	-2704
jehož	-2705
jeruzalémě	-2706
▁hu	-2707
▁su	-2708
monit	-2709
městí	-2710
▁Joza	-2711
▁krve	-2712
▁mému	-2713
▁poli	-2714
▁vini	-2715
▁přísa	-2716
▁stráž	-2717
▁všemi	-2718
stoupení	-2719
kristu	-2720
stavěl	-2721
nen	-2722
trh	-2723
▁Ni	-2724
▁ží	-2725
širo	-2726
▁níž	-2727
▁lidí	-2728
▁zemí	-2729
▁Assyr	-2730
▁mluvili	-2731
▁třidceti	-2732
spě	-2733
str	-2734
dati	-2735
dnes	-2736
lích	-2737
veno	-2738
ších	-2739
ovala	-2740
ového	-2741
solon	-2742
tvoji	-2743
bal	-2744
dra	-2745
rný	-2746
▁slav	-2747
▁rozmno	-2748
hlu	-2749
těla	-2750
pozdvi	-2751
mluviti	-2752
hna	-2753
žíši	-2754
▁hře	-2755
▁ďáb	-2756
▁žen	-2757
ducha	-2758
mnoho	-2759
nebylo	-2760
prchli	-2761
▁kamení	-2762
▁oltáři	-2763
▁dědičně	-2764
▁mrtvých	-2765
▁rozkázal	-2766
▁prostředku	-2767
meš	-2768
šte	-2769
ms	-2770
ěli	-2771
času	-2772
spolu	-2773
způsob	-2774
▁jedna	-2775
▁mnozí	-2776
▁Jordán	-2777
▁všecku	-2778
egyptské	-2779
▁nebudeš	-2780
▁učedlníci	-2781
mám	-2782
byče	-2783
hají	-2784
mene	-2785
tkem	-2786
chozí	-2787
hospodinovo	-2788
sen	-2789
smil	-2790
▁ona	-2791
▁uvedl	-2792
▁vysvobo	-2793
▁obětoval	-2794
umře	-2795
našeho	-2796
zky	-2797
čím	-2798
tila	-2799
▁plé	-2800
ješto	-2801
řství	-2802
▁nebi	-2803
▁píti	-2804
▁matky	-2805
▁tvému	-2806
▁pomezí	-2807
▁bydliti	-2808
▁Poněvadž	-2809
kam	-2810
ále	-2811
uješ	-2812
kru	-2813
ral	-2814
věc	-2815
řád	-2816
otci	-2817
pusť	-2818
této	-2819
▁pat	-2820
▁jíti	-2821
▁oble	-2822
▁poru	-2823
▁dnové	-2824
▁nepří	-2825
▁soudu	-2826
rk	-2827
ový	-2828
tní	-2829
rovi	-2830
tvým	-2831
říte	-2832
ženi	-2833
podle	-2834
tváři	-2835
hromaž	-2836
cházejí	-2837
jdu	-2838
jímá	-2839
▁Krá	-2840
▁vět	-2841
▁čer	-2842
▁hroz	-2843
vašich	-2844
▁ducha	-2845
▁psáno	-2846
▁otcové	-2847
▁viděli	-2848
▁Ezechiáš	-2849
▁Izraelem	-2850
šalomoun	-2851
cete	-2852
naný	-2853
tole	-2854
▁kde	-2855
▁hlad	-2856
▁mlad	-2857
▁žele	-2858
poškvr	-2859
▁Krist	-2860
▁Nechť	-2861
▁mnohé	-2862
▁zabil	-2863
pustili	-2864
▁letech	-2865
▁mláden	-2866
▁všelijak	-2867
iné	-2868
jen	-2869
jozue	-2870
nul	-2871
zma	-2872
jíma	-2873
pole	-2874
▁Jdi	-2875
▁blí	-2876
▁Synu	-2877
▁hněv	-2878
▁nemá	-2879
▁stál	-2880
▁smlouvy	-2881
služebníci	-2882
▁prchlivost	-2883
bů	-2884
ohli	-2885
valo	-2886
izraele	-2887
mat	-2888
emuž	-2889
vaši	-2890
stala	-2891
▁Otec	-2892
▁dává	-2893
▁udat	-2894
▁počtu	-2895
▁svaté	-2896
▁světa	-2897
▁svatých	-2898
▁čeledech	-2899
hrb	-2900
jozef	-2901
svědectví	-2902
tíš	-2903
▁Ko	-2904
▁bi	-2905
jali	-2906
stej	-2907
tvou	-2908
vých	-2909
átku	-2910
příby	-2911
▁Juda	-2912
▁nedo	-2913
vrátil	-2914
▁bydlili	-2915
▁velikou	-2916
▁dvadceti	-2917
▁dvanácte	-2918
▁Hospodinovým	-2919
přes	-2920
půl	-2921
▁No	-2922
▁sam	-2923
slých	-2924
▁dítě	-2925
▁tvém	-2926
▁vaší	-2927
dokudž	-2928
pouští	-2929
▁dcera	-2930
▁kněze	-2931
▁loupe	-2932
▁služebníků	-2933
ánu	-2934
dost	-2935
věcí	-2936
élah	-2937
čera	-2938
slouch	-2939
východ	-2940
zplodil	-2941
▁Dí	-2942
ocho	-2943
tiny	-2944
šlení	-2945
▁Otce	-2946
▁horu	-2947
▁pravé	-2948
▁tomto	-2949
▁oznámil	-2950
oví	-2951
pom	-2952
mluv	-2953
tvář	-2954
řekla	-2955
hý	-2956
ria	-2957
věz	-2958
novi	-2959
prod	-2960
▁Ama	-2961
dcery	-2962
stojí	-2963
▁douf	-2964
▁plak	-2965
▁pána	-2966
▁přin	-2967
▁zahyn	-2968
▁pročež	-2969
▁rozhně	-2970
▁skutky	-2971
▁světlo	-2972
▁tisíce	-2973
▁udělal	-2974
▁městech	-2975
▁stříbra	-2976
▁kterýchž	-2977
rob	-2978
mohl	-2979
prvé	-2980
hospodinův	-2981
,)	-2982
▁hr	-2983
chud	-2984
padl	-2985
▁zvu	-2986
brali	-2987
▁Gaba	-2988
▁Nyní	-2989
▁dobr	-2990
▁dvou	-2991
▁zahan	-2992
▁zaslí	-2993
▁Aronovi	-2994
▁proroka	-2995
ec	-2996
alič	-2997
dvad	-2998
pakli	-2999
ujíce	-3000
shromáždění	-3001
ůž	-3002
vce	-3003
niel	-3004
tisk	-3005
▁Též	-3006
▁sla	-3007
▁meče	-3008
▁osla	-3009
▁Pavel	-3010
▁pokrm	-3011
babylon	-3012
▁jiných	-3013
▁vyprav	-3014
davidovi	-3015
nešlechet	-3016
▁Judského	-3017
▁manželku	-3018
▁navrátil	-3019
žím	-3020
jord	-3021
otev	-3022
zdob	-3023
abraham	-3024
všechněm	-3025
iza	-3026
nak	-3027
něn	-3028
bití	-3029
stvu	-3030
vrhl	-3031
ýval	-3032
▁kví	-3033
▁odě	-3034
dobře	-3035
▁dali	-3036
▁lodí	-3037
prosím	-3038
▁obětí	-3039
▁slyší	-3040
abylona	-3041
▁přikry	-3042
▁vidění	-3043
izraelského	-3044
neza	-3045
místě	-3046
zlého	-3047
příčin	-3048
bé	-3049
ích	-3050
▁),	-3051
▁Ar	-3052
poha	-3053
▁Jan	-3054
▁pot	-3055
▁uši	-3056
▁bole	-3057
▁naří	-3058
▁úrod	-3059
▁každé	-3060
▁pastý	-3061
▁rozdě	-3062
▁sláva	-3063
▁chodil	-3064
▁nebudou	-3065
řte	-3066
dian	-3067
luje	-3068
síti	-3069
trou	-3070
spolek	-3071
vajíce	-3072
chovali	-3073
hostinu	-3074
klí	-3075
ost	-3076
oheň	-3077
služ	-3078
▁zpí	-3079
smrti	-3080
▁může	-3081
▁svěd	-3082
poušti	-3083
▁hlavy	-3084
▁poušť	-3085
▁uzřel	-3086
▁vstav	-3087
kraloval	-3088
▁přivedl	-3089
▁Jeroboám	-3090
▁podobenství	-3091
kterak	-3092
shromážd	-3093
nepravost	-3094
íš	-3095
rim	-3096
šen	-3097
jetí	-3098
mému	-3099
stva	-3100
tato	-3101
ďtež	-3102
▁jím	-3103
mluví	-3104
sebou	-3105
svaty	-3106
▁lidi	-3107
▁očeká	-3108
▁stavě	-3109
▁vyplé	-3110
▁pokoje	-3111
▁zákona	-3112
▁dobrého	-3113
▁kterémž	-3114
▁Judských	-3115
▁příbytku	-3116
izraelským	-3117
▁Hospodinově	-3118
ir	-3119
hej	-3120
hlá	-3121
jsa	-3122
kle	-3123
neod	-3124
náše	-3125
jménu	-3126
▁Su	-3127
liče	-3128
stem	-3129
čeho	-3130
▁Bal	-3131
▁ven	-3132
nepři	-3133
▁Sion	-3134
▁Synů	-3135
▁pení	-3136
národy	-3137
▁čehož	-3138
▁končin	-3139
▁truhlu	-3140
▁cožkoli	-3141
▁východu	-3142
▁člověčí	-3143
▁moudrost	-3144
▁Izraelovi	-3145
▁evangelium	-3146
cov	-3147
hové	-3148
moáb	-3149
anděl	-3150
desát	-3151
ováni	-3152
učině	-3153
lování	-3154
abychom	-3155
stoupiv	-3156
pánu	-3157
přede	-3158
▁Izák	-3159
nenávi	-3160
▁Božím	-3161
▁budeť	-3162
▁bydlí	-3163
▁jedli	-3164
▁vzali	-3165
▁věčné	-3166
▁zlato	-3167
▁vojsko	-3168
zje	-3169
lena	-3170
ceš	-3171
vak	-3172
ster	-3173
sích	-3174
ňuje	-3175
▁Vez	-3176
▁mém	-3177
▁taj	-3178
▁trů	-3179
▁zav	-3180
klady	-3181
srdci	-3182
stách	-3183
▁Ezau	-3184
▁houf	-3185
veliký	-3186
▁půjde	-3187
▁slávu	-3188
puštění	-3189
▁národu	-3190
▁vždycky	-3191
obětovati	-3192
oko	-3193
šest	-3194
tkové	-3195
vyhla	-3196
staven	-3197
bit	-3198
éhu	-3199
achi	-3200
duši	-3201
dává	-3202
stil	-3203
▁dře	-3204
▁zpě	-3205
jděte	-3206
▁obil	-3207
▁proč	-3208
▁vína	-3209
▁Židé	-3210
▁hněvu	-3211
▁jedné	-3212
▁strom	-3213
▁svatý	-3214
▁vašeho	-3215
▁Kterýžto	-3216
▁Jezukrista	-3217
hroz	-3218
hání	-3219
čili	-3220
krajin	-3221
viděli	-3222
kre	-3223
mým	-3224
těž	-3225
poto	-3226
▁ští	-3227
lidem	-3228
▁nasy	-3229
▁něco	-3230
▁roze	-3231
▁spat	-3232
▁ženu	-3233
▁vrchu	-3234
▁nádoby	-3235
▁čeledi	-3236
▁Davidův	-3237
▁proroku	-3238
▁vyvolil	-3239
▁Levítové	-3240
bed	-3241
dan	-3242
sau	-3243
nade	-3244
učiní	-3245
stánku	-3246
dní	-3247
deme	-3248
vený	-3249
▁dni	-3250
▁máš	-3251
život	-3252
▁Syna	-3253
▁vrch	-3254
choval	-3255
▁knize	-3256
▁kromě	-3257
▁vyšli	-3258
▁našich	-3259
▁stolici	-3260
▁ustavičně	-3261
mý	-3262
kde	-3263
noc	-3264
hory	-3265
otců	-3266
brány	-3267
poled	-3268
silný	-3269
vyšel	-3270
zákona	-3271
▁Ba	-3272
▁Kal	-3273
▁Sem	-3274
▁bed	-3275
▁pru	-3276
▁stí	-3277
nesou	-3278
▁bohy	-3279
▁sprá	-3280
ježíše	-3281
▁druhý	-3282
▁nebesa	-3283
▁rychle	-3284
▁těchto	-3285
▁příčiny	-3286
nez	-3287
peč	-3288
pili	-3289
říti	-3290
dcíti	-3291
svaté	-3292
vostí	-3293
prorok	-3294
pustím	-3295
buchodonozor	-3296
ámy	-3297
▁há	-3298
▁si	-3299
▁us	-3300
▁dvé	-3301
▁uži	-3302
nádob	-3303
třetí	-3304
▁maje	-3305
▁víry	-3306
▁chtěl	-3307
▁malič	-3308
▁okolo	-3309
▁umění	-3310
▁skutků	-3311
▁navrátí	-3312
▁sloužiti	-3313
▁nepřátely	-3314
▁služebníku	-3315
chý	-3316
dáš	-3317
amen	-3318
bilo	-3319
char	-3320
krev	-3321
lova	-3322
ženu	-3323
stavil	-3324
osm	-3325
udě	-3326
zar	-3327
hyne	-3328
jazy	-3329
nati	-3330
pěli	-3331
záko	-3332
▁děv	-3333
▁uvě	-3334
hlasu	-3335
▁Není	-3336
▁desá	-3337
▁ovce	-3338
▁tito	-3339
▁čtvr	-3340
▁Samaří	-3341
▁bychom	-3342
▁polovi	-3343
▁věcech	-3344
▁položili	-3345
▁oblíčejem	-3346
vele	-3347
lým	-3348
zku	-3349
▁Sá	-3350
hůru	-3351
▁noc	-3352
▁Každ	-3353
▁přem	-3354
národu	-3355
▁chrámu	-3356
▁přijdou	-3357
▁nebudete	-3358
spravedlnost	-3359
▁spravedlivý	-3360
zeň	-3361
hnal	-3362
jdeš	-3363
něna	-3364
ohou	-3365
zena	-3366
doche	-3367
nýbrž	-3368
starší	-3369
vysvob	-3370
náctého	-3371
dve	-3372
▁la	-3373
ohav	-3374
poma	-3375
ústa	-3376
▁che	-3377
▁zle	-3378
byste	-3379
hlavu	-3380
loket	-3381
▁stvo	-3382
ačkoli	-3383
učiním	-3384
▁Ruben	-3385
▁bráně	-3386
▁nýbrž	-3387
▁někdo	-3388
▁Židov	-3389
druhého	-3390
▁Faraon	-3391
▁Kaldej	-3392
▁peníze	-3393
▁Mojžíše	-3394
▁králové	-3395
▁zachová	-3396
▁prchlivosti	-3397
▁spravedlivého	-3398
kř	-3399
ptá	-3400
dech	-3401
tana	-3402
přikázaní	-3403
ia	-3404
alé	-3405
meč	-3406
cesty	-3407
dejte	-3408
telům	-3409
▁Aniž	-3410
▁Opět	-3411
▁kadi	-3412
▁prov	-3413
vakrát	-3414
▁konce	-3415
▁opatr	-3416
▁navští	-3417
▁Všickni	-3418
▁svatého	-3419
ami	-3420
dny	-3421
něz	-3422
mlou	-3423
moji	-3424
božího	-3425
učinili	-3426
ole	-3427
sel	-3428
▁Pod	-3429
▁ced	-3430
▁těž	-3431
▁zka	-3432
▁lotů	-3433
▁těle	-3434
▁říká	-3435
národů	-3436
▁Achab	-3437
▁Eliáš	-3438
▁knězi	-3439
▁větší	-3440
▁Zákona	-3441
▁apošto	-3442
▁jménem	-3443
▁nalezl	-3444
▁násled	-3445
▁přišla	-3446
▁bratřím	-3447
▁cherubí	-3448
▁padesáte	-3449
▁požehnání	-3450
div	-3451
son	-3452
šak	-3453
bláz	-3454
cizo	-3455
kají	-3456
vyso	-3457
zeno	-3458
chodí	-3459
nichž	-3460
lučiště	-3461
vet	-3462
odtud	-3463
táhne	-3464
▁ohně	-3465
▁radu	-3466
▁stojí	-3467
▁zmord	-3468
▁posled	-3469
▁rozptý	-3470
▁dokonal	-3471
▁půlnoci	-3472
▁slyšeli	-3473
▁ssoužení	-3474
▁obyvatele	-3475
jedl	-3476
mají	-3477
milost	-3478
nebudeš	-3479
bar	-3480
bon	-3481
koš	-3482
maš	-3483
plo	-3484
zka	-3485
▁Bě	-3486
▁re	-3487
huje	-3488
námi	-3489
skem	-3490
▁Sal	-3491
▁jen	-3492
▁tou	-3493
gyptě	-3494
městě	-3495
slali	-3496
▁Však	-3497
▁dale	-3498
▁jiní	-3499
bratra	-3500
straně	-3501
▁Nadto	-3502
▁Požeh	-3503
▁otcům	-3504
ličejem	-3505
▁hříchy	-3506
▁pokoji	-3507
smlouvu	-3508
spravedlnosti	-3509
buz	-3510
▁Ce	-3511
novu	-3512
vždy	-3513
▁Mar	-3514
▁Nem	-3515
▁mla	-3516
▁zku	-3517
bydlí	-3518
▁prve	-3519
▁sedí	-3520
▁víno	-3521
▁věří	-3522
▁řeky	-3523
činiti	-3524
▁Nýbrž	-3525
▁vodou	-3526
▁sedmého	-3527
▁Jákobovi	-3528
▁obyvatelé	-3529
▁obětovali	-3530
zda	-3531
čky	-3532
tact	-3533
těli	-3534
vena	-3535
stati	-3536
vujte	-3537
štění	-3538
egypta	-3539
postavil	-3540
dře	-3541
úst	-3542
▁Pí	-3543
▁Gád	-3544
▁blá	-3545
▁plá	-3546
▁ste	-3547
▁síň	-3548
deset	-3549
▁Jakož	-3550
▁dveří	-3551
▁nějak	-3552
▁Idumej	-3553
▁farize	-3554
▁náramně	-3555
▁stříbro	-3556
▁třetího	-3557
▁uslyšel	-3558
▁přisluho	-3559
▁kralovati	-3560
▁Filistinští	-3561
ub	-3562
lat	-3563
len	-3564
siti	-3565
žádo	-3566
stání	-3567
služebníka	-3568
čt	-3569
ňů	-3570
ber	-3571
dné	-3572
psá	-3573
seň	-3574
obod	-3575
rají	-3576
zoru	-3577
četi	-3578
▁han	-3579
▁čím	-3580
inách	-3581
jména	-3582
řečil	-3583
▁Gali	-3584
▁boha	-3585
▁jedl	-3586
▁krví	-3587
▁živi	-3588
dařství	-3589
▁Amorej	-3590
▁naději	-3591
nejvyšší	-3592
▁prvního	-3593
▁učiniti	-3594
▁člověku	-3595
▁moudrosti	-3596
▁ustanovil	-3597
▁odpovídaje	-3598
▁služebníkům	-3599
av	-3600
zpí	-3601
nových	-3602
▁)	-3603
ran	-3604
▁.)	-3605
▁pi	-3606
▁Ši	-3607
křiž	-3608
stvo	-3609
▁Byl	-3610
▁Ele	-3611
▁Hle	-3612
▁nev	-3613
▁toť	-3614
▁vza	-3615
bratr	-3616
▁nale	-3617
▁čtyř	-3618
hejtma	-3619
knížat	-3620
nalezl	-3621
▁kámen	-3622
▁výbor	-3623
▁hovada	-3624
▁svobod	-3625
▁tehdáž	-3626
▁Ammonit	-3627
▁mnohých	-3628
▁obrátil	-3629
▁povolal	-3630
▁přichází	-3631
▁ostříhati	-3632
▁odpočinutí	-3633
ený	-3634
pev	-3635
ftal	-3636
lové	-3637
znam	-3638
zvláš	-3639
kazuji	-3640
hromažď	-3641
kterýžto	-3642
díš	-3643
san	-3644
azar	-3645
jiné	-3646
němž	-3647
odej	-3648
tovi	-3649
ěláš	-3650
▁kam	-3651
▁mas	-3652
▁moř	-3653
▁onť	-3654
▁pad	-3655
▁zdi	-3656
berán	-3657
bohem	-3658
líbil	-3659
▁Běda	-3660
▁dáno	-3661
▁slit	-3662
▁smrt	-3663
▁snad	-3664
▁star	-3665
efraim	-3666
▁bohům	-3667
▁kamen	-3668
▁počet	-3669
▁stáda	-3670
▁žádné	-3671
▁Mluvil	-3672
▁pravdě	-3673
▁tomuto	-3674
▁Absolon	-3675
▁nebeské	-3676
▁podstav	-3677
▁přijíti	-3678
▁bližního	-3679
jel	-3680
kaž	-3681
přebý	-3682
tisíců	-3683
beniamin	-3684
ner	-3685
tům	-3686
zni	-3687
řen	-3688
▁Ha	-3689
▁vd	-3690
▁Dan	-3691
▁vně	-3692
cestě	-3693
jistě	-3694
oldné	-3695
▁Také	-3696
▁Všec	-3697
▁padl	-3698
▁vítr	-3699
▁Farao	-3700
spasení	-3701
▁trápení	-3702
▁přestoupení	-3703
prve	-3704
izraeli	-3705
vlá	-3706
▁Vě	-3707
pěti	-3708
rati	-3709
▁Noé	-3710
▁stu	-3711
aleka	-3712
jedli	-3713
▁sklá	-3714
▁slyš	-3715
▁síně	-3716
▁širo	-3717
▁žalá	-3718
▁jistě	-3719
▁vzkří	-3720
▁nebyli	-3721
▁nenávisti	-3722
▁posloucha	-3723
bem	-3724
eno	-3725
jav	-3726
věč	-3727
éšť	-3728
ždě	-3729
žeť	-3730
aiáš	-3731
bram	-3732
nami	-3733
sami	-3734
such	-3735
tuto	-3736
řiti	-3737
žedl	-3738
žíře	-3739
coval	-3740
mocen	-3741
měřil	-3742
ovary	-3743
učení	-3744
dělali	-3745
ftalím	-3746
oblíče	-3747
stupuje	-3748
ustanovení	-3749
rně	-3750
▁ší	-3751
drží	-3752
ruka	-3753
▁hrd	-3754
▁smě	-3755
▁zná	-3756
▁Živ	-3757
budeť	-3758
dnech	-3759
rozum	-3760
všemu	-3761
▁Bude	-3762
▁Takž	-3763
▁chlu	-3764
▁jiný	-3765
▁uzří	-3766
▁vyvo	-3767
vyvedl	-3768
▁seděl	-3769
▁zákon	-3770
oznámil	-3771
▁hlasem	-3772
▁protiv	-3773
▁cizozem	-3774
▁Šalomou	-3775
▁převráce	-3776
▁přísahou	-3777
▁sloužili	-3778
▁Faraonovi	-3779
dab	-3780
luv	-3781
věl	-3782
kova	-3783
tito	-3784
dobro	-3785
potře	-3786
pohled	-3787
udělal	-3788
psa	-3789
rad	-3790
aleš	-3791
buje	-3792
měte	-3793
naši	-3794
padu	-3795
skry	-3796
zích	-3797
šeni	-3798
▁zdá	-3799
dříví	-3800
emesl	-3801
nebyl	-3802
zlata	-3803
údolí	-3804
čehož	-3805
▁neob	-3806
▁vola	-3807
cestou	-3808
▁buďte	-3809
▁matka	-3810
▁posil	-3811
▁slávy	-3812
▁svýma	-3813
▁téhož	-3814
hřešili	-3815
▁modlil	-3816
▁nemůže	-3817
▁viděti	-3818
▁čeledí	-3819
▁Jozafat	-3820
▁položil	-3821
▁pravili	-3822
▁příčinou	-3823
ině	-3824
ček	-3825
nohy	-3826
nutí	-3827
seme	-3828
sobo	-3829
upří	-3830
všel	-3831
kamen	-3832
klaně	-3833
roucha	-3834
roucho	-3835
řkoucí	-3836
nepravosti	-3837
hospodinovy	-3838
▁Sí	-3839
mnoh	-3840
šíří	-3841
▁Nej	-3842
▁otá	-3843
▁uží	-3844
místa	-3845
šního	-3846
▁Léví	-3847
▁pozů	-3848
▁Jistě	-3849
▁králů	-3850
▁obyče	-3851
▁uvedu	-3852
▁večer	-3853
▁zajat	-3854
▁horách	-3855
▁jiného	-3856
▁nejsou	-3857
▁suchou	-3858
▁učiněn	-3859
cá	-3860
aro	-3861
cti	-3862
zre	-3863
rali	-3864
stál	-3865
ůsto	-3866
chléb	-3867
druhé	-3868
hubil	-3869
stříc	-3870
rozmno	-3871
stotně	-3872
pomenul	-3873
pravili	-3874
don	-3875
mot	-3876
šly	-3877
nete	-3878
▁div	-3879
▁ost	-3880
▁žal	-3881
edesá	-3882
odšel	-3883
▁Jeri	-3884
▁dcer	-3885
▁děve	-3886
▁hříš	-3887
▁jimi	-3888
▁koru	-3889
▁máme	-3890
▁mědě	-3891
úmluvy	-3892
▁pohrd	-3893
▁pošli	-3894
▁Ježíši	-3895
▁ratole	-3896
▁semene	-3897
▁nečistý	-3898
▁zápalné	-3899
ama	-3900
beni	-3901
petr	-3902
první	-3903
strany	-3904
leč	-3905
vze	-3906
zác	-3907
kiáš	-3908
▁tří	-3909
▁uvr	-3910
▁palá	-3911
▁síla	-3912
▁síly	-3913
▁pahrb	-3914
▁polní	-3915
▁dlouho	-3916
▁olejem	-3917
▁zdaliž	-3918
▁šedesá	-3919
covských	-3920
národové	-3921
lahoslavený	-3922
rot	-3923
hova	-3924
ovol	-3925
páně	-3926
darmo	-3927
izraelské	-3928
řa	-3929
sví	-3930
▁Go	-3931
▁zí	-3932
prov	-3933
žeti	-3934
▁Jáť	-3935
▁umy	-3936
cestu	-3937
tekli	-3938
▁rána	-3939
budeme	-3940
davida	-3941
slyšev	-3942
▁hrobu	-3943
▁medle	-3944
▁odvrá	-3945
▁miluje	-3946
▁přišed	-3947
prvorozen	-3948
▁půlnoční	-3949
▁velikého	-3950
▁zápalnou	-3951
▁Filistinských	-3952
go	-3953
hly	-3954
lku	-3955
ivše	-3956
jona	-3957
títi	-3958
vice	-3959
děláš	-3960
zreel	-3961
zákon	-3962
bydlil	-3963
vojska	-3964
kananej	-3965
jž	-3966
drž	-3967
▁Ze	-3968
▁fí	-3969
▁ml	-3970
káži	-3971
plod	-3972
▁Ada	-3973
▁Job	-3974
▁Pře	-3975
▁vel	-3976
▁zed	-3977
oblak	-3978
odpla	-3979
▁jdou	-3980
▁nena	-3981
▁vsta	-3982
▁vyko	-3983
▁věků	-3984
▁Sélah	-3985
▁Tehdy	-3986
▁budiž	-3987
▁kosti	-3988
▁měsíc	-3989
▁zahla	-3990
▁nazval	-3991
▁vyzdvi	-3992
▁Jordánu	-3993
▁nemohli	-3994
▁národům	-3995
▁odpověděv	-3996
ejž	-3997
mal	-3998
rám	-3999
mlad	-4000
ráko	-4001
stry	-4002
taže	-4003
mečem	-4004
svědč	-4005
vydal	-4006
čtyřidceti	-4007
hospodinovu	-4008
hř	-4009
krš	-4010
▁pě	-4011
nilo	-4012
něte	-4013
ohni	-4014
sabé	-4015
tuje	-4016
▁Sam	-4017
▁jdi	-4018
▁zví	-4019
galád	-4020
půjde	-4021
ůstoj	-4022
▁círk	-4023
▁malo	-4024
▁maso	-4025
▁mocí	-4026
▁úzko	-4027
slunce	-4028
ukázal	-4029
▁oleje	-4030
▁utekl	-4031
▁zlaté	-4032
novství	-4033
▁pravici	-4034
▁příchozí	-4035
▁studnice	-4036
▁přikázání	-4037
hlo	-4038
krý	-4039
dáno	-4040
tyto	-4041
služebníky	-4042
res	-4043
řům	-4044
▁Gá	-4045
leží	-4046
plak	-4047
pome	-4048
ráno	-4049
▁Pil	-4050
▁teď	-4051
▁von	-4052
tváří	-4053
▁Král	-4054
▁Sede	-4055
▁máte	-4056
▁pamě	-4057
▁rozu	-4058
▁čině	-4059
chován	-4060
oltáře	-4061
▁Ještě	-4062
▁pomoc	-4063
▁stáli	-4064
▁vyjde	-4065
▁domích	-4066
▁nádobí	-4067
▁choditi	-4068
▁každému	-4069
▁poledne	-4070
▁silného	-4071
▁tolikéž	-4072
▁žádosti	-4073
▁Babylona	-4074
▁všelikou	-4075
▁ohavnosti	-4076
▁!	-4077
sur	-4078
tre	-4079
trž	-4080
jtež	-4081
krmu	-4082
kryt	-4083
kyda	-4084
lidé	-4085
meon	-4086
pása	-4087
těmi	-4088
astně	-4089
budiž	-4090
hlaví	-4091
krist	-4092
oltář	-4093
uzdra	-4094
chiáše	-4095
ováním	-4096
řečení	-4097
navrátí	-4098
rozkázal	-4099
ima	-4100
neo	-4101
onť	-4102
ženo	-4103
▁hle	-4104
mnozí	-4105
▁Aneb	-4106
▁meze	-4107
▁pora	-4108
▁počí	-4109
▁vida	-4110
▁vodu	-4111
rozumí	-4112
▁dceru	-4113
▁jazyk	-4114
▁jednu	-4115
▁mysli	-4116
▁nepro	-4117
▁vezme	-4118
▁vstal	-4119
chodili	-4120
mluvili	-4121
všeliké	-4122
▁Bethel	-4123
▁Madian	-4124
▁hříchu	-4125
▁veliká	-4126
▁proroky	-4127
▁Davidova	-4128
▁pohostinu	-4129
▁předměstí	-4130
ban	-4131
bán	-4132
hlí	-4133
jeme	-4134
poli	-4135
zati	-4136
tvrdil	-4137
někteří	-4138
hni	-4139
jme	-4140
jáť	-4141
naž	-4142
ret	-4143
áma	-4144
Psal	-4145
dílo	-4146
edbá	-4147
koba	-4148
níče	-4149
vzav	-4150
řilo	-4151
římě	-4152
▁Pra	-4153
▁čem	-4154
ložím	-4155
pouze	-4156
pořád	-4157
riáše	-4158
▁bral	-4159
▁potu	-4160
▁pánu	-4161
Psalms	-4162
jsouce	-4163
▁bohat	-4164
▁nemoc	-4165
▁pilně	-4166
▁pozná	-4167
▁sečte	-4168
▁vešli	-4169
kristus	-4170
▁samého	-4171
▁skopce	-4172
▁polední	-4173
mocenství	-4174
▁vespolek	-4175
vem	-4176
skop	-4177
výso	-4178
tcích	-4179
znamení	-4180
dek	-4181
for	-4182
kví	-4183
čel	-4184
ěla	-4185
▁Ob	-4186
▁Ra	-4187
joáb	-4188
moři	-4189
zpěv	-4190
▁Ach	-4191
▁Mas	-4192
▁nuz	-4193
▁Žád	-4194
necha	-4195
▁Mluv	-4196
▁dáti	-4197
▁kmen	-4198
▁musí	-4199
▁vyuč	-4200
modlit	-4201
přední	-4202
▁Zákon	-4203
▁jitra	-4204
▁volka	-4205
▁ďábel	-4206
milosti	-4207
▁bratru	-4208
▁veselí	-4209
▁královské	-4210
▁nepřátelé	-4211
▁všelikého	-4212
dni	-4213
máš	-4214
může	-4215
veni	-4216
váme	-4217
vším	-4218
škli	-4219
dostí	-4220
počal	-4221
státi	-4222
chariáš	-4223
obětoval	-4224
stoupiti	-4225
tř	-4226
suž	-4227
▁An	-4228
▁Bu	-4229
▁Pr	-4230
hlaš	-4231
kých	-4232
lání	-4233
sluš	-4234
símě	-4235
▁kru	-4236
▁kup	-4237
▁ono	-4238
▁pev	-4239
▁měla	-4240
chleba	-4241
▁domem	-4242
▁mohli	-4243
vysvobo	-4244
▁Jonata	-4245
▁Judský	-4246
▁nikoli	-4247
▁postav	-4248
▁pravil	-4249
▁chodili	-4250
▁posvěce	-4251
▁východní	-4252
zer	-4253
hlou	-4254
spat	-4255
udiž	-4256
žele	-4257
stříbr	-4258
naproti	-4259
porodila	-4260
alg	-4261
bel	-4262
svr	-4263
címu	-4264
hleď	-4265
kách	-4266
mena	-4267
potě	-4268
vini	-4269
váno	-4270
zabi	-4271
řečí	-4272
▁Chu	-4273
▁umí	-4274
▁zač	-4275
držel	-4276
elovi	-4277
mením	-4278
ohněm	-4279
pečně	-4280
tvému	-4281
vázal	-4282
▁díla	-4283
jdouce	-4284
králem	-4285
▁místu	-4286
▁vlast	-4287
▁volal	-4288
▁vykou	-4289
▁zboží	-4290
▁Sichem	-4291
▁večera	-4292
▁vytáhl	-4293
▁zajetí	-4294
manasses	-4295
pravoval	-4296
▁Saulovi	-4297
▁cestách	-4298
▁myšlení	-4299
▁některé	-4300
▁pověděl	-4301
▁poznali	-4302
▁souditi	-4303
▁zůstane	-4304
cházející	-4305
▁kterýžto	-4306
oba	-4307
očí	-4308
sua	-4309
jeli	-4310
nedo	-4311
radu	-4312
želi	-4313
něhož	-4314
stráž	-4315
jednou	-4316
samuel	-4317
zejtří	-4318
velikým	-4319
edo	-4320
pru	-4321
rce	-4322
rna	-4323
tým	-4324
veď	-4325
boji	-4326
oble	-4327
poru	-4328
stud	-4329
▁Kde	-4330
▁mal	-4331
▁sen	-4332
▁svo	-4333
▁vze	-4334
přísa	-4335
ývati	-4336
▁bohů	-4337
▁bojí	-4338
▁krás	-4339
▁mimo	-4340
▁oddě	-4341
▁vzdá	-4342
▁úřed	-4343
tehdáž	-4344
▁vypra	-4345
▁vzbud	-4346
▁zvěst	-4347
▁Judské	-4348
▁odešli	-4349
▁raději	-4350
▁strach	-4351
jeremiáš	-4352
▁hejtman	-4353
▁kterýmž	-4354
▁přisáhl	-4355
▁svatyni	-4356
▁požehnal	-4357
▁sstoupil	-4358
▁jednostej	-4359
▁Izraelskými	-4360
▁královského	-4361
▁Hospodinovýma	-4362
flí	-4363
sce	-4364
tro	-4365
chit	-4366
kuci	-4367
osla	-4368
piti	-4369
udat	-4370
záno	-4371
čeno	-4372
řehu	-4373
jedna	-4374
kládá	-4375
ložíš	-4376
mašku	-4377
ramen	-4378
uvedl	-4379
edbáví	-4380
stupov	-4381
proroku	-4382
poslechl	-4383
žť	-4384
fan	-4385
pší	-4386
smo	-4387
▁mz	-4388
▁pů	-4389
krve	-4390
křik	-4391
lidí	-4392
píti	-4393
rodi	-4394
▁Již	-4395
▁Oni	-4396
▁poz	-4397
svatý	-4398
▁Tito	-4399
▁vypl	-4400
posled	-4401
světlo	-4402
▁loktů	-4403
▁pakli	-4404
svatyně	-4405
▁Daniel	-4406
▁Levítů	-4407
▁bývají	-4408
▁nemohl	-4409
▁poznal	-4410
▁přišlo	-4411
▁radost	-4412
▁trouby	-4413
▁zamord	-4414
▁marnost	-4415
▁vstoupil	-4416
izraelskému	-4417
▁Kananejské	-4418
▁bezbožných	-4419
▁Nabuchodonozor	-4420
líš	-4421
odi	-4422
cena	-4423
vému	-4424
čast	-4425
mnohé	-4426
prázd	-4427
rodil	-4428
výbor	-4429
větší	-4430
mláden	-4431
otcové	-4432
nebudou	-4433
kám	-4434
kým	-4435
mém	-4436
pel	-4437
uži	-4438
čku	-4439
hují	-4440
inai	-4441
rari	-4442
rání	-4443
vují	-4444
▁dot	-4445
▁obe	-4446
bulon	-4447
hejte	-4448
rodes	-4449
všemi	-4450
▁Jakž	-4451
▁Jéhu	-4452
▁prvo	-4453
▁vytr	-4454
▁vůle	-4455
cátého	-4456
letých	-4457
nechal	-4458
▁chrám	-4459
▁dílem	-4460
▁posly	-4461
▁učení	-4462
ostatek	-4463
▁Odpově	-4464
▁někter	-4465
▁srdcem	-4466
▁takové	-4467
▁vzdělá	-4468
třidceti	-4469
▁nechtěl	-4470
▁počátku	-4471
učedlníci	-4472
▁dvadcíti	-4473
▁pohanění	-4474
▁vysvobodil	-4475
tla	-4476
udí	-4477
zně	-4478
hlad	-4479
joza	-4480
nemá	-4481
ouce	-4482
vydá	-4483
assyr	-4484
bohat	-4485
vrace	-4486
vstav	-4487
dědičně	-4488
navrátil	-4489
ge	-4490
trů	-4491
žal	-4492
přin	-4493
▁koz	-4494
▁lži	-4495
▁utr	-4496
▁vyn	-4497
▁ško	-4498
dnové	-4499
kouše	-4500
▁Toho	-4501
▁cest	-4502
▁obře	-4503
▁slep	-4504
▁všed	-4505
kamení	-4506
nikoli	-4507
oltáři	-4508
pomezí	-4509
▁Bázan	-4510
▁naklo	-4511
▁neměl	-4512
▁prach	-4513
▁zpěvá	-4514
▁zázra	-4515
cožkoli	-4516
svatých	-4517
▁anobrž	-4518
▁chrámě	-4519
▁naděje	-4520
▁obrátí	-4521
▁vyvýše	-4522
▁zlatem	-4523
▁Mardoche	-4524
▁dvanácti	-4525
▁svatosti	-4526
▁vystavěl	-4527
▁bohatství	-4528
▁Jeruzalému	-4529
vna	-4530
zní	-4531
lovo	-4532
rové	-4533
skvr	-4534
stky	-4535
řela	-4536
řící	-4537
padne	-4538
jordán	-4539
rozhně	-4540
veného	-4541
všecku	-4542
mrtvých	-4543
velikou	-4544
prostředku	-4545
ebo	-4546
noh	-4547
onu	-4548
▁Mě	-4549
▁šť	-4550
mona	-4551
rodá	-4552
tvém	-4553
čeli	-4554
▁jáť	-4555
▁zbo	-4556
každé	-4557
pálil	-4558
zabil	-4559
▁Izma	-4560
▁dary	-4561
▁dílu	-4562
▁děti	-4563
▁ženě	-4564
kormou	-4565
pokoje	-4566
vidění	-4567
▁Elize	-4568
▁Jemuž	-4569
▁ozdob	-4570
▁zdali	-4571
zůstane	-4572
▁hříchů	-4573
▁službu	-4574
▁velice	-4575
▁vinice	-4576
kterýchž	-4577
▁bojoval	-4578
▁krajině	-4579
▁nečisto	-4580
▁Šalomounovi	-4581
▁Babylonského	-4582
asi	-4583
sni	-4584
nalé	-4585
náší	-4586
vejde	-4587
drželi	-4588
bydliti	-4589
všelijak	-4590
fá	-4591
gru	-4592
lis	-4593
teč	-4594
zán	-4595
▁ač	-4596
▁ok	-4597
▁vl	-4598
▁ča	-4599
avše	-4600
dlem	-4601
hnou	-4602
jích	-4603
krut	-4604
leni	-4605
nebi	-4606
stým	-4607
váte	-4608
zemí	-4609
čině	-4610
▁Tam	-4611
▁osí	-4612
▁ptá	-4613
▁sbí	-4614
▁šla	-4615
bronu	-4616
buďte	-4617
dcera	-4618
matky	-4619
nadto	-4620
nepří	-4621
ziáše	-4622
znají	-4623
▁mokr	-4624
▁čili	-4625
ložení	-4626
naniáš	-4627
▁bojov	-4628
▁dvěma	-4629
▁hovad	-4630
▁konec	-4631
▁poklo	-4632
▁promě	-4633
▁sedmi	-4634
▁slávě	-4635
▁západ	-4636
miloval	-4637
oldnéři	-4638
▁Kteréž	-4639
▁blízko	-4640
▁pohany	-4641
▁přítom	-4642
dvanácte	-4643
▁dvakrát	-4644
▁hledají	-4645
▁hledali	-4646
▁pokojné	-4647
▁porazil	-4648
▁přivedu	-4649
▁velblou	-4650
▁nenávidí	-4651
služebníků	-4652
▁sedmdesáte	-4653
▁nešlechetnost	-4654
jan	-4655
koho	-4656
lené	-4657
rodí	-4658
vírá	-4659
jemuž	-4660
očeká	-4661
soudu	-4662
vzali	-4663
zahan	-4664
prchlivost	-4665
spravedlivý	-4666
sů	-4667
▁Vz	-4668
▁čí	-4669
bole	-4670
horu	-4671
lají	-4672
přem	-4673
▁Muž	-4674
▁cho	-4675
▁kan	-4676
▁oba	-4677
▁tuk	-4678
nechá	-4679
padli	-4680
ujete	-4681
▁koři	-4682
▁noha	-4683
▁pěti	-4684
▁vozy	-4685
▁zmoc	-4686
▁Živť	-4687
▁Saule	-4688
▁dvéře	-4689
▁kdyby	-4690
▁mouky	-4691
▁pacho	-4692
▁zahra	-4693
pustiti	-4694
tolikéž	-4695
▁Egyptě	-4696
▁Kterak	-4697
▁dělati	-4698
▁nechať	-4699
▁svatým	-4700
ezechiáš	-4701
izraelem	-4702
nepřátel	-4703
▁beránka	-4704
▁lučiště	-4705
▁poškvrny	-4706
▁ustanove	-4707
▁navrátili	-4708
▁obličejem	-4709
▁Abrahamovi	-4710
dad	-4711
niv	-4712
pím	-4713
sai	-4714
vič	-4715
zvu	-4716
áno	-4717
arna	-4718
bron	-4719
běda	-4720
gaba	-4721
obil	-4722
rých	-4723
vsta	-4724
víme	-4725
úrod	-4726
šiti	-4727
tivše	-4728
vězdy	-4729
zahyn	-4730
čních	-4731
algala	-4732
chanan	-4733
letech	-4734
mnosti	-4735
pomenu	-4736
řečený	-4737
bydlili	-4738
proroka	-4739
stupují	-4740
mel	-4741
níš	-4742
ple	-4743
taj	-4744
ván	-4745
▁Fá	-4746
▁Ge	-4747
▁My	-4748
▁kř	-4749
tinu	-4750
říká	-4751
▁Ger	-4752
▁Neb	-4753
▁Onť	-4754
▁lou	-4755
▁vsi	-4756
stran	-4757
tehdy	-4758
▁Sádo	-4759
▁posí	-4760
▁siro	-4761
▁učiň	-4762
▁volů	-4763
▁Balám	-4764
▁Proro	-4765
▁jemuž	-4766
▁jichž	-4767
▁městu	-4768
▁padli	-4769
▁posmě	-4770
▁ptact	-4771
▁soudy	-4772
▁vývod	-4773
smlouvy	-4774
▁Všecko	-4775
▁anděla	-4776
▁kněžím	-4777
▁našemu	-4778
▁pokání	-4779
▁pouště	-4780
▁pravdu	-4781
▁jakožto	-4782
▁miloval	-4783
▁proroků	-4784
▁přináše	-4785
▁vzdělal	-4786
▁výsosti	-4787
▁zevnitř	-4788
▁pozůstal	-4789
jda	-4790
sud	-4791
žeš	-4792
cela	-4793
dítě	-4794
sedí	-4795
mysli	-4796
počtu	-4797
sláva	-4798
stěho	-4799
světa	-4800
dvadceti	-4801
sloužili	-4802
čeledech	-4803
is	-4804
las	-4805
non	-4806
rai	-4807
viv	-4808
óre	-4809
▁Až	-4810
▁El	-4811
▁ků	-4812
alák	-4813
juda	-4814
lodě	-4815
nasy	-4816
ráže	-4817
sama	-4818
telů	-4819
čeni	-4820
řech	-4821
▁Sva	-4822
▁bit	-4823
▁hůl	-4824
▁přá	-4825
▁zde	-4826
▁šar	-4827
▁ště	-4828
naiáš	-4829
odili	-4830
ováno	-4831
rozdě	-4832
tější	-4833
▁Muži	-4834
▁béře	-4835
▁jezd	-4836
▁jámy	-4837
▁málo	-4838
▁vedl	-4839
▁zkaz	-4840
hledal	-4841
kazuje	-4842
▁Gabaa	-4843
▁buďto	-4844
▁cesta	-4845
▁které	-4846
▁kázal	-4847
▁mužům	-4848
▁očišť	-4849
▁suché	-4850
▁uzřev	-4851
▁zůstá	-4852
brahama	-4853
stříbra	-4854
▁Nikoli	-4855
▁jednom	-4856
▁jejího	-4857
▁pravdy	-4858
moudrost	-4859
▁hledati	-4860
slouchali	-4861
▁Přednímu	-4862
hospodinovým	-4863
yt	-4864
des	-4865
tim	-4866
zdr	-4867
dvou	-4868
jiní	-4869
vaší	-4870
chtěl	-4871
kněze	-4872
obětí	-4873
pokrm	-4874
pravé	-4875
vezmi	-4876
vésti	-4877
násled	-4878
manželku	-4879
nebudete	-4880
podobenství	-4881
fí	-4882
gi	-4883
aje	-4884
daž	-4885
sně	-4886
cizí	-4887
leno	-4888
roze	-4889
▁hoř	-4890
tomto	-4891
▁pláš	-4892
▁zvuk	-4893
rození	-4894
▁Betlé	-4895
▁Vezmi	-4896
▁Vstaň	-4897
▁cizím	-4898
▁jedni	-4899
▁nemlu	-4900
▁prova	-4901
▁práce	-4902
▁práci	-4903
▁desíti	-4904
▁majíce	-4905
▁předce	-4906
▁zvěstu	-4907
▁říkají	-4908
▁Nebudeš	-4909
▁dobytek	-4910
▁druhému	-4911
▁krajiny	-4912
▁maličko	-4913
▁slyšeti	-4914
▁vyhledá	-4915
▁zhřešil	-4916
▁zůstává	-4917
▁Abimelech	-4918
▁Babylonský	-4919
▁odpověděli	-4920
ml	-4921
ini	-4922
pur	-4923
těz	-4924
uši	-4925
zai	-4926
élí	-4927
chal	-4928
díno	-4929
elův	-4930
lodí	-4931
nali	-4932
ncem	-4933
něné	-4934
chovi	-4935
pastý	-4936
sluší	-4937
vrchu	-4938
vyplé	-4939
skutky	-4940
tisíce	-4941
městech	-4942
obrátil	-4943
lahoslavení	-4944
bot	-4945
mas	-4946
zbo	-4947
▁,)	-4948
▁Fe	-4949
▁os	-4950
▁čá	-4951
akim	-4952
meče	-4953
sion	-4954
▁Dej	-4955
▁Dob	-4956
kromě	-4957
uzřel	-4958
zaslí	-4959
▁Robo	-4960
▁Záko	-4961
▁domů	-4962
▁kamž	-4963
▁posa	-4964
▁skrý	-4965
▁víře	-4966
▁zhou	-4967
▁žalm	-4968
jiných	-4969
▁dobrý	-4970
▁hlubo	-4971
▁uvede	-4972
▁vyšed	-4973
aronovi	-4974
přivedl	-4975
zemřeli	-4976
▁pustin	-4977
▁zůstal	-4978
▁protože	-4979
▁vidouce	-4980
▁manželka	-4981
▁manželky	-4982
▁ostříhal	-4983
▁zaslíbil	-4984
▁Požehnaný	-4985
▁učedlníkům	-4986
hách	-4987
berou	-4988
lepší	-4989
malič	-4990
pavel	-4991
chodil	-4992
judského	-4993
mů	-4994
žá	-4995
áct	-4996
řad	-4997
žas	-4998
cují	-4999
neme	-5000
učil	-5001
vína	-5002
výší	-5003
▁Mno	-5004
▁bar	-5005
▁hnu	-5006
▁kle	-5007
▁ude	-5008
▁vol	-5009
sloví	-5010
zlato	-5011
ášovi	-5012
žádné	-5013
▁déšť	-5014
▁kudy	-5015
▁lsti	-5016
▁mord	-5017
▁olej	-5018
▁spal	-5019
▁výše	-5020
▁vůli	-5021
dělané	-5022
přikry	-5023
tyřech	-5024
▁Abram	-5025
▁Amale	-5026
▁Arona	-5027
▁hroma	-5028
▁jejím	-5029
▁násil	-5030
▁uslyš	-5031
▁vezmi	-5032
▁všudy	-5033
točiště	-5034
▁Mistře	-5035
▁každém	-5036
▁loupež	-5037
▁přiblí	-5038
▁přítel	-5039
▁službě	-5040
▁stánek	-5041
▁žaláře	-5042
▁jednomu	-5043
▁přitáhl	-5044
▁všeliký	-5045
▁Ježíšovi	-5046
▁Neftalím	-5047
▁bratřími	-5048
▁říkajíce	-5049
▁připravil	-5050
plá	-5051
kadi	-5052
slil	-5053
žené	-5054
božím	-5055
chova	-5056
hlavy	-5057
stroj	-5058
anobrž	-5059
bychom	-5060
bývají	-5061
pokoji	-5062
truhlu	-5063
vždycky	-5064
spá	-5065
▁Mí	-5066
▁Ví	-5067
▁hř	-5068
cest	-5069
lidi	-5070
lila	-5071
snad	-5072
uzří	-5073
▁Jef	-5074
▁Lid	-5075
kladu	-5076
poušť	-5077
zdrav	-5078
▁Léta	-5079
▁Milo	-5080
▁Tato	-5081
▁drží	-5082
▁duší	-5083
▁děje	-5084
▁jmen	-5085
▁kopí	-5086
▁obou	-5087
▁osob	-5088
▁plod	-5089
▁poku	-5090
▁rady	-5091
▁Pilát	-5092
▁dával	-5093
▁faleš	-5094
▁nikdy	-5095
▁peněz	-5096
▁posti	-5097
▁slých	-5098
▁smrtí	-5099
▁stany	-5100
▁zlost	-5101
▁čiňte	-5102
▁Galile	-5103
▁Roboám	-5104
▁jediné	-5105
▁křídla	-5106
▁nebyla	-5107
▁trpěli	-5108
▁uslyší	-5109
▁západu	-5110
▁řemesl	-5111
jeroboám	-5112
▁poslali	-5113
▁proroci	-5114
▁vražedl	-5115
▁přivedli	-5116
▁příbytek	-5117
▁širokost	-5118
▁ospravedl	-5119
▁vysvobodí	-5120
▁Jeremiášovi	-5121
hi	-5122
cte	-5123
dle	-5124
sař	-5125
domí	-5126
poje	-5127
sklá	-5128
takž	-5129
tání	-5130
řené	-5131
edeon	-5132
slávu	-5133
činím	-5134
chovej	-5135
stření	-5136
vojsko	-5137
dobrého	-5138
kterémž	-5139
judských	-5140
příbytku	-5141
hospodinově	-5142
týž	-5143
houf	-5144
naří	-5145
peče	-5146
▁Che	-5147
▁Joi	-5148
▁cen	-5149
▁díš	-5150
▁Joas	-5151
▁Sodo	-5152
▁komu	-5153
▁pane	-5154
▁stup	-5155
▁zámu	-5156
končin	-5157
rychle	-5158
▁Budiž	-5159
▁Viděl	-5160
▁anebo	-5161
▁hledá	-5162
▁pojal	-5163
▁potra	-5164
▁předě	-5165
▁slove	-5166
▁vejde	-5167
▁vztáh	-5168
východu	-5169
člověčí	-5170
▁jednou	-5171
▁nejsem	-5172
▁prosil	-5173
▁přijal	-5174
▁svrchu	-5175
▁vstříc	-5176
▁místech	-5177
▁ostatek	-5178
▁podobné	-5179
▁zdaleka	-5180
izraelovi	-5181
▁dnešního	-5182
evangelium	-5183
▁pochovali	-5184
▁přikazuji	-5185
važ	-5186
zou	-5187
béře	-5188
izák	-5189
kami	-5190
maje	-5191
zdrá	-5192
akovi	-5193
bráně	-5194
jedné	-5195
nejte	-5196
stanu	-5197
vešli	-5198
věčné	-5199
nádoby	-5200
králové	-5201
nalezli	-5202
náramně	-5203
odpovídaje	-5204
bál	-5205
tví	-5206
▁Ag	-5207
▁Tá	-5208
▁žá	-5209
Nebo	-5210
ezau	-5211
hneš	-5212
inou	-5213
lami	-5214
matu	-5215
posl	-5216
sati	-5217
věří	-5218
zují	-5219
íram	-5220
▁bou	-5221
▁běl	-5222
▁dej	-5223
▁pyš	-5224
▁rok	-5225
▁vím	-5226
▁zru	-5227
chali	-5228
druhý	-5229
jícím	-5230
ruhou	-5231
tnéřů	-5232
valte	-5233
▁báli	-5234
▁kněž	-5235
▁mluv	-5236
městím	-5237
nebesa	-5238
čeledi	-5239
▁pobil	-5240
▁stanů	-5241
▁státi	-5242
▁Člově	-5243
povolal	-5244
svatého	-5245
▁Slyšte	-5246
▁duchem	-5247
▁plakal	-5248
▁poklad	-5249
▁příbuz	-5250
▁vložil	-5251
▁vytrhl	-5252
zvláštně	-5253
▁Judstvu	-5254
▁ostříhá	-5255
▁přivede	-5256
ustavičně	-5257
▁Kteřížto	-5258
▁oznámili	-5259
▁očištění	-5260
▁postavili	-5261
▁zaslíbení	-5262
▁otcovských	-5263
▁poslouchati	-5264
▁shromáždili	-5265
hot	-5266
kod	-5267
mla	-5268
sek	-5269
vým	-5270
ťte	-5271
něco	-5272
pali	-5273
čtvr	-5274
židé	-5275
hněvu	-5276
vyšli	-5277
rozumě	-5278
vašeho	-5279
uslyšel	-5280
vyvolil	-5281
požehnání	-5282
jezukrista	-5283
ana	-5284
dvé	-5285
měř	-5286
pec	-5287
▁Ká	-5288
▁sy	-5289
▁Ří	-5290
alou	-5291
bohy	-5292
lubi	-5293
rodu	-5294
▁Ara	-5295
▁Sta	-5296
▁dáš	-5297
▁los	-5298
▁obo	-5299
▁ple	-5300
▁str	-5301
▁uli	-5302
▁čtr	-5303
okolo	-5304
posil	-5305
▁Sama	-5306
▁andě	-5307
▁dána	-5308
▁pavé	-5309
▁víru	-5310
▁zavr	-5311
faraon	-5312
pravdě	-5313
těchto	-5314
▁Jděte	-5315
▁Kahat	-5316
▁Každý	-5317
▁dítky	-5318
▁horli	-5319
▁navra	-5320
▁nepře	-5321
▁nevin	-5322
▁trůnu	-5323
▁vezma	-5324
▁vjíti	-5325
▁vyzná	-5326
davidův	-5327
přisáhl	-5328
▁Judští	-5329
▁jejích	-5330
▁nebudu	-5331
▁očistí	-5332
▁příjem	-5333
▁složil	-5334
▁živého	-5335
levítové	-5336
▁Jezreel	-5337
▁kterému	-5338
▁naplnil	-5339
▁otevřel	-5340
▁vojskem	-5341
▁Jozefovi	-5342
▁mladosti	-5343
▁farizeové	-5344
▁Jeruzalémské	-5345
ase	-5346
dělo	-5347
lesk	-5348
lách	-5349
ovce	-5350
péře	-5351
spoň	-5352
stiť	-5353
vejž	-5354
ýmiž	-5355
knize	-5356
medle	-5357
násob	-5358
vlast	-5359
židov	-5360
dnouti	-5361
našich	-5362
nechať	-5363
razili	-5364
soudil	-5365
cházení	-5366
hledali	-5367
stolici	-5368
sloužiti	-5369
spu	-5370
sve	-5371
▁Lí	-5372
dala	-5373
obou	-5374
sprá	-5375
tají	-5376
ában	-5377
říka	-5378
▁rad	-5379
▁zak	-5380
▁zra	-5381
vidím	-5382
▁Asse	-5383
▁Seme	-5384
▁domy	-5385
▁dělá	-5386
▁jaká	-5387
▁leží	-5388
▁list	-5389
▁okrš	-5390
polovi	-5391
skutků	-5392
▁knihy	-5393
▁měste	-5394
▁posmí	-5395
▁rozpá	-5396
▁takže	-5397
▁činím	-5398
příčiny	-5399
▁Judovi	-5400
▁hrazen	-5401
▁napomí	-5402
▁navrať	-5403
▁nemají	-5404
▁pověst	-5405
▁sobotu	-5406
▁veliko	-5407
▁vykoná	-5408
▁vězení	-5409
▁Moábské	-5410
▁nalezli	-5411
▁obrátím	-5412
▁podobný	-5413
▁čistého	-5414
nepřátely	-5415
▁dobrovol	-5416
▁nepřítel	-5417
▁ohavnost	-5418
▁polovice	-5419
▁rozhněval	-5420
▁shromáždě	-5421
bod	-5422
dán	-5423
edu	-5424
lte	-5425
zle	-5426
solo	-5427
víry	-5428
někdo	-5429
opatr	-5430
umění	-5431
vezme	-5432
navští	-5433
obětovali	-5434
služebníku	-5435
ur	-5436
čů	-5437
bce	-5438
koj	-5439
nům	-5440
pot	-5441
ďme	-5442
▁Nu	-5443
▁zi	-5444
▁zu	-5445
broj	-5446
bánu	-5447
cemi	-5448
chku	-5449
ejší	-5450
fati	-5451
tilo	-5452
vila	-5453
▁Hel	-5454
▁Toť	-5455
▁bři	-5456
▁mlé	-5457
buzej	-5458
konce	-5459
mužil	-5460
čteno	-5461
▁Fili	-5462
▁Rách	-5463
▁boje	-5464
▁báti	-5465
▁roku	-5466
▁vele	-5467
▁veře	-5468
▁zabí	-5469
▁zdvi	-5470
chrámu	-5471
peníze	-5472
samaří	-5473
svobod	-5474
viděti	-5475
věcech	-5476
▁Lában	-5477
▁Tento	-5478
▁chceš	-5479
▁neroz	-5480
▁nesli	-5481
▁pošla	-5482
▁slovy	-5483
▁ukyda	-5484
▁ukřiž	-5485
▁Šimon	-5486
▁želez	-5487
cházeje	-5488
zachová	-5489
▁Prosím	-5490
▁důstoj	-5491
▁moudrý	-5492
▁pohanů	-5493
▁pravda	-5494
položili	-5495
▁pohlaví	-5496
▁přijali	-5497
▁šťastně	-5498
oblíčejem	-5499
poslechli	-5500
stoupivše	-5501
▁Egyptští	-5502
▁pozdvihl	-5503
▁shromažď	-5504
▁smilství	-5505
▁Sedechiáš	-5506
▁nepřítele	-5507
▁učedlníků	-5508
▁vládařství	-5509
▁Manassesova	-5510
esá	-5511
chlu	-5512
diáš	-5513
hněv	-5514
čiti	-5515
vodou	-5516
držeti	-5517
kaldej	-5518
přišla	-5519
sedmého	-5520
stříbro	-5521
padesáte	-5522
prchlivosti	-5523
spravedlivého	-5524
:1	-5525
ša	-5526
kne	-5527
kup	-5528
moř	-5529
sam	-5530
sbí	-5531
sní	-5532
▁Vo	-5533
komu	-5534
přel	-5535
sech	-5536
sání	-5537
síla	-5538
čemž	-5539
▁byť	-5540
▁hrů	-5541
▁jab	-5542
▁lev	-5543
ruben	-5544
vážil	-5545
▁Kdež	-5546
▁Pově	-5547
▁Slyš	-5548
▁dále	-5549
▁jaké	-5550
▁jímž	-5551
▁plná	-5552
▁plné	-5553
▁zplo	-5554
▁živé	-5555
▁Ammon	-5556
▁dřevo	-5557
▁lidmi	-5558
▁mráko	-5559
▁sloup	-5560
▁stanu	-5561
▁usnul	-5562
▁věrný	-5563
▁úrody	-5564
cherubí	-5565
mojžíše	-5566
prvního	-5567
zůstalo	-5568
▁Izaiáš	-5569
▁Jákoba	-5570
▁Levíty	-5571
▁neobře	-5572
▁přitáh	-5573
▁soudce	-5574
▁tovary	-5575
▁vodách	-5576
▁žádost	-5577
přichází	-5578
▁nečisté	-5579
▁přebývá	-5580
▁uvěřili	-5581
obyvatele	-5582
▁kteréžto	-5583
▁nebesích	-5584
▁shromáždil	-5585
gor	-5586
har	-5587
ino	-5588
nán	-5589
rie	-5590
hého	-5591
snou	-5592
víno	-5593
zové	-5594
řeky	-5595
řeme	-5596
šuje	-5597
živi	-5598
hněte	-5599
knězi	-5600
lejte	-5601
neste	-5602
náctý	-5603
odoli	-5604
slové	-5605
střel	-5606
vstal	-5607
zmord	-5608
apošto	-5609
covati	-5610
cování	-5611
dlouho	-5612
kázali	-5613
modlil	-5614
novili	-5615
ohoucí	-5616
rozptý	-5617
sedech	-5618
slyšte	-5619
ssoužení	-5620
slavovati	-5621
stupovali	-5622
slouchejte	-5623
blá	-5624
zří	-5625
chat	-5626
douf	-5627
form	-5628
lotů	-5629
nale	-5630
těle	-5631
▁Bra	-5632
▁Mel	-5633
▁lež	-5634
kámen	-5635
oužil	-5636
pošli	-5637
seděl	-5638
zůsta	-5639
▁koně	-5640
▁nové	-5641
▁osli	-5642
▁prst	-5643
▁seme	-5644
jménem	-5645
▁Asser	-5646
▁Ester	-5647
▁Hetej	-5648
▁Maria	-5649
▁Masfa	-5650
▁bělné	-5651
▁děvky	-5652
▁jiným	-5653
▁nesou	-5654
▁odsou	-5655
▁prodá	-5656
▁prázd	-5657
▁rozsí	-5658
▁soudů	-5659
▁spatř	-5660
▁stádo	-5661
▁vašim	-5662
▁zvláš	-5663
▁zvědí	-5664
▁zšíří	-5665
bratřím	-5666
dokonal	-5667
třetího	-5668
▁Božímu	-5669
▁Ráchel	-5670
▁Udělal	-5671
▁hledal	-5672
▁pokrmu	-5673
▁potoku	-5674
▁rozkoš	-5675
▁slouží	-5676
▁uložil	-5677
▁Levítům	-5678
▁beránků	-5679
▁králích	-5680
▁prosili	-5681
▁učiněni	-5682
obyvatelé	-5683
ustanovil	-5684
▁mládenci	-5685
odpověděli	-5686
▁pohledění	-5687
▁bláznovství	-5688
▁služebníkem	-5689
▁Hospodinových	-5690
▁malomocenství	-5691
bes	-5692
hům	-5693
liš	-5694
lud	-5695
mer	-5696
pis	-5697
teď	-5698
jaký	-5699
máme	-5700
ohně	-5701
rami	-5702
slit	-5703
trem	-5704
ynou	-5705
ajíce	-5706
patří	-5707
zahla	-5708
naději	-5709
veselí	-5710
věřili	-5711
půlnoci	-5712
vd	-5713
alí	-5714
báš	-5715
hev	-5716
rdí	-5717
síň	-5718
zim	-5719
▁So	-5720
▁Tu	-5721
▁sr	-5722
dale	-5723
díti	-5724
enem	-5725
jiný	-5726
mocí	-5727
něno	-5728
osti	-5729
rala	-5730
rama	-5731
tost	-5732
těje	-5733
vodu	-5734
záka	-5735
ňují	-5736
▁Ado	-5737
▁Ana	-5738
▁Kdy	-5739
▁Per	-5740
▁har	-5741
▁osa	-5742
▁sti	-5743
klamá	-5744
mohla	-5745
nadad	-5746
otcům	-5747
strom	-5748
šitel	-5749
▁Izai	-5750
▁Kari	-5751
▁Spra	-5752
▁pých	-5753
▁takť	-5754
▁trní	-5755
▁vich	-5756
▁vozů	-5757
hříchy	-5758
navrať	-5759
rouhev	-5760
slyším	-5761
životí	-5762
▁lepší	-5763
▁padne	-5764
▁ulože	-5765
▁věcmi	-5766
nějších	-5767
stávají	-5768
člověku	-5769
▁Služeb	-5770
▁bohové	-5771
▁pomaza	-5772
▁přemyš	-5773
▁sestry	-5774
▁soudil	-5775
▁ústech	-5776
▁Eleazar	-5777
▁podobně	-5778
ostříhati	-5779
▁mužského	-5780
▁poslední	-5781
▁třidcíti	-5782
▁způsobím	-5783
▁šedesáte	-5784
▁Zachariáš	-5785
▁propustil	-5786
▁nejvyššího	-5787
▁prvorozeného	-5788
▁přisluhování	-5789
iť	-5790
kej	-5791
nev	-5792
tes	-5793
ula	-5794
von	-5795
bové	-5796
dílu	-5797
díte	-5798
smrt	-5799
valy	-5800
čtyř	-5801
achab	-5802
stili	-5803
veďte	-5804
zoval	-5805
cizozem	-5806
žádosti	-5807
jákobovi	-5808
převráce	-5809
rozuměli	-5810
kralovati	-5811
odpočinutí	-5812
čá	-5813
gád	-5814
svo	-5815
vza	-5816
▁Tě	-5817
bera	-5818
hubí	-5819
křtě	-5820
pora	-5821
rána	-5822
stru	-5823
vrch	-5824
vítr	-5825
▁Ber	-5826
▁Jmé	-5827
▁Mil	-5828
▁Poj	-5829
▁mlá	-5830
▁pas	-5831
▁peč	-5832
▁ryb	-5833
▁sež	-5834
▁sty	-5835
▁změ	-5836
▁zpo	-5837
dveří	-5838
počet	-5839
právě	-5840
stáli	-5841
stých	-5842
téhož	-5843
▁Azaf	-5844
▁Seir	-5845
▁chví	-5846
▁koho	-5847
▁kůži	-5848
▁milý	-5849
▁mělo	-5850
▁okra	-5851
▁rodi	-5852
▁tenť	-5853
▁zdra	-5854
idumej	-5855
jímali	-5856
nemůže	-5857
pobití	-5858
protiv	-5859
▁Libán	-5860
▁břehu	-5861
▁jimiž	-5862
▁obilé	-5863
▁pohan	-5864
▁potří	-5865
▁právě	-5866
▁světě	-5867
▁vypla	-5868
▁zítra	-5869
▁řkuci	-5870
přijdou	-5871
▁Anobrž	-5872
▁Kteráž	-5873
▁Tehdáž	-5874
▁kdežto	-5875
▁mluvím	-5876
▁mnohem	-5877
▁nejmen	-5878
▁padnou	-5879
▁potoka	-5880
▁povolá	-5881
▁pozoru	-5882
▁uděláš	-5883
přisluho	-5884
▁Damašku	-5885
▁Tolikéž	-5886
▁hedbáví	-5887
▁klaněti	-5888
▁oblíčej	-5889
▁popouze	-5890
▁pravého	-5891
faraonovi	-5892
moudrosti	-5893
▁všelijaké	-5894
filistinští	-5895
služebníkům	-5896
▁Filistinské	-5897
óz	-5898
ěv	-5899
▁	-5900
¦	-5901
o	-5902
e	-5903
a	-5904
i	-5905
n	-5906
t	-5907
s	-5908
l	-5909
v	-5910
d	-5911
m	-5912
k	-5913
u	-5914
,	-5915
p	-5916
h	-5917
r	-5918
j	-5919
í	-5920
b	-5921
c	-5922
y	-5923
á	-5924
z	-5925
ž	-5926
ě	-5927
ř	-5928
é	-5929
š	-5930
.	-5931
𐋇	-5932
ý	-5933
č	-5934
ů	-5935
:	-5936
A	-5937
ť	-5938
J	-5939
H	-5940
;	-5941
I	-5942
B	-5943
P	-5944
N	-5945
S	-5946
?	-5947
T	-5948
K	-5949
f	-5950
M	-5951
D	-5952
g	-5953
V	-5954
E	-5955
Z	-5956
O	-5957
ň	-5958
ú	-5959
ď	-5960
-	-5961
C	-5962
L	-5963
G	-5964
(	-5965
)	-5966
R	-5967
F	-5968
Ž	-5969
ó	-5970
U	-5971
Š	-5972
Ř	-5973
!	-5974
Č	-5975
Ó	-5976
[	-5977
]	-5978
1	-5979
x	-5980
3	-5981
2	-5982
4	-5983
5	-5984
8	-5985
0	-5986
9	-5987
6	-5988
Ú	-5989
7	-5990
Ď	-5991
#	-5992
𐊣	-5993
𐊼	-5994
Í	-5995
Ý	-5996
