<pad>	0
</s>	0
<unk>	0
¦	-1.19897
▁¦	-1.68792
▁	-2.83846
𐋇	-3.28697
s	-3.81902
the	-3.98182
▁.	-4.32532
▁,	-4.47475
a	-4.6235
in	-4.72022
ed	-4.78226
of	-4.80118
to	-4.857
is	-5.1604
ing	-5.18401
and	-5.21192
th	-5.42458
be	-5.48533
at	-5.53093
t	-5.53559
y	-5.60618
on	-5.74014
𐊼	-5.77344
𐊣	-5.77344
d	-5.81324
e	-5.81752
for	-5.93901
en	-5.94496
c	-6.07769
i	-6.08715
ly	-6.10199
are	-6.12325
-	-6.12734
n	-6.15899
it	-6.16366
corona	-6.20556
or	-6.2493
has	-6.25952
w	-6.29445
al	-6.29759
▁'	-6.30359
have	-6.3613
as	-6.38536
with	-6.39287
p	-6.40489
g	-6.43043
an	-6.45016
m	-6.45257
v	-6.48926
r	-6.51245
vaccine	-6.53085
will	-6.55349
from	-6.57931
pe	-6.6035
not	-6.61759
patient	-6.63593
re	-6.65707
er	-6.68327
was	-6.69142
by	-6.71105
se	-6.721
k	-6.77152
b	-6.79548
state	-6.80365
f	-6.8183
▁"	-6.8595
government	-6.92735
o	-6.92876
said	-6.95099
covid	-6.95664
ople	-6.96081
day	-6.97827
there	-6.98842
health	-7.02652
he	-7.03591
l	-7.05478
co	-7.06326
es	-7.09553
if	-7.11232
we	-7.11531
us	-7.15044
other	-7.16473
lso	-7.18181
but	-7.18232
number	-7.19379
ir	-7.19943
virus	-7.20919
can	-7.21408
▁?	-7.22497
u	-7.2273
were	-7.22755
one	-7.24285
all	-7.2452
so	-7.25469
.	-7.26226
st	-7.26366
ion	-7.26626
ies	-7.26838
h	-7.28313
2	-7.29991
le	-7.32299
after	-7.32363
-19¦	-7.32986
who	-7.34035
hospital	-7.34118
minister	-7.34137
de	-7.37051
1	-7.37911
no	-7.3806
ation	-7.39383
had	-7.39469
sh	-7.42221
should	-7.42843
ch	-7.43241
test	-7.43951
ar	-7.45403
how	-7.46594
you	-7.502
out	-7.5077
some	-7.53406
oxygen	-7.54251
▁)	-7.54371
ity	-7.54773
time	-7.54784
un	-7.55469
maha	-7.55731
dr	-7.57588
ce	-7.57822
new	-7.61106
rashtr	-7.61185
india	-7.61398
do	-7.61442
more	-7.61959
▁:	-7.62071
infection	-7.62897
than	-7.64322
disease	-7.64552
ic	-7.65153
case	-7.68367
lockdown	-7.68632
up	-7.68856
vaccination	-7.6927
go	-7.69527
ment	-7.70349
say	-7.70737
abou	-7.71759
per	-7.72396
di	-7.72513
many	-7.72666
may	-7.7322
ur	-7.75457
5	-7.75846
year	-7.76519
ra	-7.76693
work	-7.76936
am	-7.78089
li	-7.80163
,	-7.80408
use	-7.82705
9	-7.82762
district	-7.83525
ri	-7.84013
what	-7.84299
over	-7.84306
ers	-7.86998
take	-7.87242
har	-7.87708
la	-7.88823
me	-7.8891
high	-7.8938
3	-7.9037
according	-7.91038
country	-7.91601
hand	-7.93042
age	-7.93514
center	-7.93602
being	-7.94122
ever	-7.94331
ve	-7.95289
hich	-7.957
need	-7.96521
hile	-7.97108
last	-7.97115
et	-7.97171
j	-7.97201
4	-7.97422
con	-7.98061
id	-7.98297
ent	-7.98519
first	-7.98571
6	-7.98581
spread	-7.99175
te	-8.00607
tion	-8.00615
under	-8.01521
8	-8.01665
increase	-8.0204
two	-8.02459
second	-8.02666
found	-8.03296
ex	-8.04323
ro	-8.04447
world	-8.05205
0	-8.05306
such	-8.05638
cause	-8.05857
mo	-8.06214
il	-8.06613
ive	-8.06616
when	-8.06719
7	-8.07966
dur	-8.08748
symptom	-8.08917
school	-8.08917
due	-8.08922
vi	-8.08939
like	-8.08945
ne	-8.08945
sars	-8.09921
infect	-8.09965
march	-8.10036
lo	-8.10982
z	-8.1177
even	-8.12383
bo	-8.12465
any	-8.14124
ill	-8.14147
home	-8.14431
mumbai	-8.1464
start	-8.14641
children	-8.15825
chief	-8.16303
death	-8.17034
his	-8.17389
medical	-8.17508
care	-8.17542
el	-8.17914
ma	-8.18096
person	-8.18495
coronavirus	-8.1902
doctor	-8.19219
treatment	-8.19729
now	-8.2033
vaccinat	-8.20639
na	-8.20718
situation	-8.21716
est	-8.22722
▁¦2020¦	-8.23245
ol	-8.23351
april	-8.23502
ose	-8.23575
able	-8.24103
end	-8.24739
cent	-8.24885
dose	-8.24897
wave	-8.25585
get	-8.25629
▁¦3	-8.26013
wh	-8.26104
our	-8.27132
ba	-8.27397
rate	-8.27421
public	-8.27707
com	-8.27773
every	-8.27849
im	-8.28054
system	-8.28246
come	-8.29308
ul	-8.29352
hav	-8.30447
countries	-8.30982
ay	-8.32065
your	-8.32552
pre	-8.33391
rs	-8.33625
available	-8.34091
most	-8.35916
um	-8.36068
drug	-8.36397
risk	-8.36406
ry	-8.36492
part	-8.37811
chin	-8.38011
app	-8.38106
par	-8.38439
mask	-8.38558
▁¦10	-8.4112
place	-8.42206
week	-8.42432
man	-8.4245
agains	-8.4253
develop	-8.42697
-2	-8.42737
ac	-8.43012
give	-8.43266
way	-8.43293
pune	-8.44634
bas	-8.44657
acker	-8.45256
know	-8.45448
current	-8.45591
low	-8.45706
through	-8.45913
ct	-8.46568
restriction	-8.46883
qu	-8.47178
ance	-8.47351
br	-8.4748
where	-8.47535
ten	-8.47613
mp	-8.47874
includ	-8.48081
ab	-8.48128
old	-8.48337
▁."	-8.48354
ous	-8.48853
kar	-8.49055
ak	-8.4912
effective	-8.50545
made	-8.50581
human	-8.51561
worker	-8.51683
tak	-8.51796
,000	-8.51885
formation	-8.51887
dis	-8.52634
reported	-8.52695
large	-8.52916
ke	-8.53018
issue	-8.53318
round	-8.53957
ho	-8.54246
central	-8.54307
ha	-8.55054
iz	-8.5507
well	-8.55082
announc	-8.55363
prevent	-8.55725
outbreak	-8.55729
report	-8.5601
beds	-8.56981
mi	-8.57011
contact	-8.5751
ja	-8.58299
▁;	-8.5834
po	-8.58348
4¦	-8.59162
ant	-8.59657
tic	-8.59783
order	-8.60095
control	-8.60103
▁¦20	-8.60145
air	-8.60371
inter	-8.60553
area	-8.60969
udd	-8.60981
follow	-8.61194
ut	-8.61221
ould	-8.61658
them	-8.62427
lakh	-8.62706
travel	-8.63471
/	-8.63855
student	-8.64629
level	-8.64629
ll	-8.64682
han	-8.6564
important	-8.65805
unit	-8.65857
ary	-8.65976
call	-8.6694
ge	-8.67022
its	-8.67225
month	-8.674
giv	-8.67924
municipal	-8.68187
line	-8.68322
long	-8.68332
ate	-8.68414
hi	-8.68921
set	-8.69119
less	-8.69216
testing	-8.69349
administration	-8.69428
jan	-8.69523
service	-8.69809
▁¦8	-8.70028
allow	-8.70454
did	-8.70647
research	-8.71044
result	-8.71044
▁¦7	-8.71197
affect	-8.71459
0¦	-8.71802
pro	-8.72469
▁).	-8.72519
ether	-8.72543
modi	-8.72779
clos	-8.73233
hour	-8.73293
same	-8.73628
help	-8.73837
citizens	-8.73985
education	-8.73985
demand	-8.7399
positive	-8.74022
body	-8.74045
▁¦1¦	-8.74976
data	-8.75348
provide	-8.75678
hu	-8.75727
respirator	-8.76577
mean	-8.76721
rule	-8.77004
decision	-8.77456
supply	-8.77456
few	-8.77894
increasing	-8.77899
▁-	-8.7858
does	-8.79081
million	-8.79238
present	-8.79255
uk	-8.79363
before	-8.79587
question	-8.80141
meeting	-8.80142
ok	-8.80431
bb	-8.80804
though	-8.80873
crore	-8.81512
twee	-8.81734
don	-8.82073
ical	-8.82691
three	-8.82911
department	-8.83367
hands	-8.83417
▁¦6	-8.83672
make	-8.83937
washing	-8.84561
social	-8.85259
00¦	-8.85268
▁),	-8.8541
very	-8.85775
prim	-8.86318
could	-8.86993
ning	-8.8764
x	-8.87761
my	-8.88035
delhi	-8.88165
thousand	-8.88168
war	-8.8845
▁¦50	-8.8897
▁¦15	-8.89191
▁¦19	-8.89289
ang	-8.89372
speak	-8.89654
tra	-8.90119
▁¦12	-8.90339
severe	-8.90401
show	-8.90585
media	-8.90951
uary	-8.91251
fa	-8.91607
period	-8.91665
private	-8.91665
emergenc	-8.91667
open	-8.91709
since	-8.91741
far	-8.92118
institute	-8.92175
trial	-8.92349
organization	-8.92688
expert	-8.93204
possibl	-8.93319
ka	-8.9359
local	-8.93725
action	-8.93762
lu	-8.94163
campaign	-8.94242
plan	-8.95119
different	-8.95292
ness	-8.95311
pr	-8.95533
include	-8.96001
ting	-8.96118
tri	-8.96358
sample	-8.96888
em	-8.97007
ask	-8.97122
recommend	-8.97966
group	-8.97966
pur	-8.9799
study	-8.9851
office	-8.98583
anti	-8.99438
quarantine	-8.99605
shortage	-8.99622
endra	-8.99726
then	-8.99729
police	-9.00339
lance	-9.00626
national	-9.00702
approv	-9.00713
wide	-9.00726
effect	-9.0124
live	-9.01858
ural	-9.01868
phase	-9.01974
ministr	-9.02401
cell	-9.02522
tru	-9.02557
rt	-9.02654
thing	-9.02684
percent	-9.03066
cl	-9.03387
came	-9.03587
rapid	-9.04113
fore	-9.04383
clinical	-9.04691
company	-9.04691
back	-9.05273
force	-9.0549
general	-9.05857
direct	-9.06237
change	-9.06343
grow	-9.0645
complete	-9.07037
bi	-9.07121
both	-9.07251
face	-9.07281
ward	-9.07575
protect	-9.07633
log	-9.08234
four	-9.08477
impos	-9.08581
reach	-9.08646
february	-9.08834
universit	-9.08834
vari	-9.08881
bh	-9.09175
pan	-9.09195
reason	-9.09447
ver	-9.09482
union	-9.09771
lack	-9.10051
wom	-9.10275
▁¦24	-9.10289
down	-9.10346
ig	-9.10526
her	-9.10542
own	-9.10662
blood	-9.10663
measures	-9.11761
antibod	-9.11879
▁¦30	-9.12065
ia	-9.12719
▁¦11	-9.12753
continue	-9.12869
among	-9.1379
▁¦14	-9.13949
ight	-9.14036
ph	-9.14425
pandemic	-9.14425
gan	-9.14896
village	-9.15066
regard	-9.15712
official	-9.15712
sever	-9.15771
total	-9.15782
pi	-9.1591
ture	-9.16072
leader	-9.1624
bat	-9.16354
market	-9.16361
ventilator	-9.16403
ally	-9.1676
relat	-9.16842
avoid	-9.17014
learn	-9.17019
reduce	-9.17049
surveil	-9.17672
limit	-9.17675
shop	-9.1768
third	-9.17682
try	-9.17787
ram	-9.17811
again	-9.18125
each	-9.18648
contain	-9.19001
om	-9.19221
ish	-9.19347
him	-9.19364
she	-9.19659
term	-9.19661
response	-9.19672
producti	-9.19956
facilit	-9.20348
transmission	-9.20348
decid	-9.20349
fire	-9.20414
close	-9.2097
heart	-9.21031
produc	-9.21186
done	-9.21337
become	-9.21407
house	-9.21799
exam	-9.21854
raje	-9.22046
put	-9.22327
find	-9.22432
hel	-9.22461
rum	-9.22508
ial	-9.22721
port	-9.22736
here	-9.22985
much	-9.23146
treat	-9.23773
essential	-9.23797
keep	-9.23799
population	-9.24501
act	-9.24596
creat	-9.24696
indian	-9.24866
train	-9.24908
sure	-9.25056
side	-9.25094
strict	-9.25173
problem	-9.2521
process	-9.2521
recover	-9.25225
coming	-9.25239
early	-9.25636
implement	-9.25924
kovid	-9.25924
▁¦18	-9.25966
conduct	-9.26644
receiv	-9.26658
flu	-9.26781
family	-9.26805
date	-9.26869
▁¦5¦	-9.2689
five	-9.26998
see	-9.27084
ough	-9.27355
corporation	-9.27368
soap	-9.2738
lot	-9.27444
mal	-9.27959
stay	-9.2833
further	-9.28834
relative	-9.28869
run	-9.28967
type	-9.29074
fever	-9.29242
hc	-9.2925
raj	-9.29279
sent	-9.29512
crowd	-9.29574
nex	-9.30173
nagpur	-9.30321
nar	-9.30775
confirm	-9.31073
water	-9.31099
head	-9.31101
tory	-9.31294
difficult	-9.3183
medicine	-9.3183
advi	-9.31847
sub	-9.31878
fight	-9.31956
ches	-9.32006
read	-9.32123
want	-9.32228
serious	-9.32594
support	-9.32595
crisi	-9.32605
development	-9.32705
pm	-9.3305
officer	-9.33274
similar	-9.33363
pra	-9.33379
global	-9.34138
pain	-9.34189
ace	-9.34268
cur	-9.34437
jo	-9.34777
car	-9.34832
passenger	-9.34919
register	-9.34919
chinese	-9.34921
bio	-9.35112
parent	-9.35116
release	-9.35141
night	-9.35182
cy	-9.35439
acros	-9.35457
president	-9.3575
free	-9.35948
tu	-9.36136
conditions	-9.36157
immediate	-9.365
manufactur	-9.365
half	-9.36502
proper	-9.36586
remain	-9.36611
class	-9.37309
17	-9.37323
small	-9.37332
good	-9.37397
urg	-9.37537
big	-9.37673
lung	-9.38114
ash	-9.38146
pass	-9.38194
distance	-9.38658
ud	-9.38766
ld	-9.38885
wad	-9.39289
ful	-9.39709
transport	-9.39745
xi	-9.40338
concern	-9.40566
marath	-9.40567
inform	-9.40674
leas	-9.40932
staff	-9.41399
animal	-9.41401
strain	-9.41525
practice	-9.42239
special	-9.42342
addition	-9.42813
admitted	-9.43088
six	-9.43095
declin	-9.43114
condition	-9.43455
fr	-9.43894
common	-9.43943
industr	-9.43951
self	-9.43957
breath	-9.43968
touch	-9.43977
wear	-9.44553
college	-9.44804
board	-9.44804
jun	-9.45061
▁¦200	-9.45647
critical	-9.45673
non	-9.45784
uhan	-9.4583
require	-9.46078
dai	-9.46409
epidemic	-9.4655
claim	-9.46551
▁¦16	-9.46605
mu	-9.46911
gar	-9.47018
ail	-9.47183
major	-9.47436
young	-9.47438
just	-9.47451
consider	-9.47482
task	-9.48104
oc	-9.48163
pal	-9.48225
safety	-9.48329
injection	-9.48341
mers	-9.48358
post	-9.48516
monitor	-9.49229
room	-9.49274
host	-9.49719
closures	-9.50056
protein	-9.50139
companie	-9.5014
community	-9.50285
form	-9.50529
remedesivir	-9.51056
rise	-9.51204
covac	-9.51982
inciden	-9.51982
factor	-9.51985
cough	-9.52273
dep	-9.52296
aid	-9.52722
gi	-9.52851
estimate	-9.52917
examination	-9.52917
prade	-9.52927
food	-9.5299
▁¦100	-9.53334
clear	-9.53726
active	-9.53851
immune	-9.5386
shield	-9.5386
happen	-9.5386
cities	-9.53872
▁!	-9.54247
main	-9.54349
cost	-9.54373
icu	-9.5457
right	-9.54788
expected	-9.54812
name	-9.5549
gett	-9.55528
cold	-9.55553
necessar	-9.55773
suggest	-9.55773
clean	-9.55778
look	-9.55838
plann	-9.5613
election	-9.56744
capacit	-9.56747
stor	-9.57192
ttle	-9.57247
card	-9.57542
diagnos	-9.57725
evidence	-9.57725
supplie	-9.57725
▁¦2019	-9.57725
return	-9.57779
director	-9.58074
mutation	-9.58716
south	-9.58812
enter	-9.58966
.5	-9.59144
kill	-9.592
kit	-9.59277
dry	-9.59509
guideline	-9.59715
project	-9.59715
bjp	-9.59716
bharat	-9.59718
talk	-9.59728
let	-9.59922
compar	-9.60228
mort	-9.60922
navi	-9.61363
fu	-9.61715
viral	-9.61738
amravati	-9.61745
appear	-9.61746
cute	-9.61845
produce	-9.62103
fic	-9.62638
stage	-9.62654
discuss	-9.62705
tweet	-9.62745
sequenc	-9.62776
variant	-9.6281
drop	-9.63527
trac	-9.6359
late	-9.63721
biotech	-9.63803
december	-9.63818
distribut	-9.63818
studie	-9.63822
court	-9.63824
pawa	-9.63864
speci	-9.63975
▁¦60	-9.63999
lab	-9.64237
rna	-9.64408
dev	-9.64795
check	-9.64871
europe	-9.64871
statistic	-9.64871
genome	-9.64871
safe	-9.64881
deliver	-9.64882
letter	-9.64936
outside	-9.64953
▁¦25	-9.64961
requir	-9.65442
individual	-9.65934
member	-9.65934
source	-9.65942
ship	-9.65958
express	-9.65965
depend	-9.65966
wash	-9.66844
reduc	-9.66953
olation	-9.66999
fear	-9.67013
tter	-9.67741
seem	-9.67785
decreas	-9.68097
provid	-9.68167
visit	-9.68175
italy	-9.68194
manage	-9.68231
collect	-9.68996
29	-9.69081
program	-9.69196
authorit	-9.69196
stock	-9.69196
abilit	-9.69225
full	-9.69338
lead	-9.69433
add	-9.69503
covi	-9.69751
ially	-9.70223
challenge	-9.70307
observ	-9.70307
taluka	-9.70307
detect	-9.70307
perform	-9.70365
think	-9.7038
press	-9.7048
point	-9.70554
lock	-9.71421
origin	-9.71434
begin	-9.7153
later	-9.71609
▁,"	-9.71908
polic	-9.72196
event	-9.72295
view	-9.72442
figure	-9.72567
potential	-9.72567
survey	-9.72567
sector	-9.72568
front	-9.72569
store	-9.72732
recent	-9.73126
unti	-9.73499
considered	-9.73656
”	-9.73716
fund	-9.7372
specific	-9.73724
mild	-9.73754
international	-9.73754
gra	-9.73954
tric	-9.74296
espec	-9.74803
record	-9.74879
experience	-9.74967
90	-9.7591
alcohol	-9.76055
establish	-9.76055
negative	-9.76055
pneumonia	-9.76055
life	-9.76164
review	-9.76187
fee	-9.76355
hind	-9.76742
“	-9.77246
economic	-9.77291
short	-9.77327
investigat	-9.7845
feel	-9.78545
political	-9.78606
ather	-9.79287
▁¦22	-9.7929
pfizer	-9.7967
secretary	-9.7967
micro	-9.79671
illness	-9.79739
step	-9.79749
stop	-9.79962
initial	-9.80169
nagar	-9.80371
pay	-9.80493
jit	-9.80522
business	-9.80905
suspect	-9.80905
effort	-9.80905
senior	-9.80905
child	-9.80905
hotel	-9.80908
road	-9.80925
arriv	-9.80951
chain	-9.81006
influenza	-9.82155
sanitizer	-9.82155
▁%)	-9.82155
genetic	-9.82155
refer	-9.8227
manda	-9.82333
uty	-9.82898
once	-9.83263
fil	-9.83569
real	-9.83891
▁¦13	-9.8398
undergo	-9.84066
september	-9.84702
publish	-9.84703
virolog	-9.84703
▁¦2021¦	-9.84703
extend	-9.84704
generat	-9.84707
great	-9.84721
healthcare	-9.85191
waste	-9.85329
suffer	-9.86001
impact	-9.86001
infectious	-9.86001
answer	-9.86004
employee	-9.86007
uttar	-9.86013
occur	-9.86015
writ	-9.86039
flight	-9.86095
organi	-9.8617
went	-9.87207
method	-9.87318
paper	-9.87331
cdc	-9.87347
commissioner	-9.87528
fill	-9.88025
oxford	-9.8865
prevalen	-9.88651
stress	-9.88652
spite	-9.88653
team	-9.88947
ood	-9.89188
commission	-9.89786
trans	-9.89821
sign	-9.89951
count	-9.89958
societ	-9.90002
–	-9.90002
hospitaliz	-9.90254
additional	-9.90442
▁¦23	-9.90959
application	-9.91372
financial	-9.91372
syndrome	-9.91372
example	-9.91372
involv	-9.91372
earlie	-9.91373
instruction	-9.91399
bar	-9.91835
astra	-9.91903
declar	-9.9277
deep	-9.92932
bacteri	-9.94169
temperature	-9.94169
maintain	-9.94169
technolog	-9.94189
sick	-9.94194
remov	-9.94202
east	-9.94223
▁¦45	-9.94229
▁¦28	-9.9426
raw	-9.94909
statement	-9.95222
significant	-9.95598
already	-9.95599
option	-9.95609
laboratory	-9.95824
range	-9.95934
leave	-9.97054
▁¦40¦	-9.97085
scientist	-9.97098
association	-9.9711
single	-9.97222
tract	-9.9733
code	-9.97545
▁¦70	-9.98279
mmunity	-9.9843
zeneca	-9.98517
minute	-9.98517
previous	-9.98517
religio	-9.98518
symptomatic	-9.9852
appeal	-9.9852
danger	-9.98533
cap	-9.98538
curfew	-9.98547
light	-9.98627
past	-9.98634
identifi	-9.98847
role	-9.98999
pcr	-10.0001
certain	-10.0001
committee	-10.0001
priorit	-10.0001
kumar	-10.0001
tensive	-10.0001
nurse	-10.0001
operat	-10.0006
abad	-10.0007
stopp	-10.0027
iwal	-10.0041
isolat	-10.0048
lower	-10.0106
permission	-10.0153
victim	-10.0153
region	-10.0153
attend	-10.0154
must	-10.0167
tell	-10.018
near	-10.0189
list	-10.0291
benefit	-10.0306
discussion	-10.0317
chang	-10.0352
hygien	-10.0463
agricultur	-10.0463
journalist	-10.0463
protocol	-10.0463
respond	-10.0463
solution	-10.0463
exposure	-10.0463
mind	-10.0473
collector	-10.0491
save	-10.0535
tanker	-10.0621
video	-10.0621
sunday	-10.0624
usual	-10.0625
opposi	-10.0645
gav	-10.0655
mela	-10.0665
german	-10.0677
pregnan	-10.0783
agenc	-10.0785
walk	-10.0788
empt	-10.0798
rub	-10.0798
cancel	-10.0831
ovel	-10.0835
famil	-10.091
associat	-10.0939
equipment	-10.0947
activit	-10.0947
friday	-10.0947
primar	-10.0948
shiv	-10.0948
season	-10.0948
contract	-10.0951
wait	-10.0957
tention	-10.0965
35	-10.0988
ivir	-10.1097
controll	-10.11
econom	-10.1107
kumbh	-10.1113
standard	-10.1113
russia	-10.1113
candidate	-10.1113
surface	-10.1113
entire	-10.1114
chandra	-10.1114
bank	-10.1114
meter	-10.1125
break	-10.1277
congress	-10.1283
access	-10.1283
matter	-10.1287
▁¦26	-10.1294
carri	-10.1414
diarrhea	-10.1455
connect	-10.1455
pressure	-10.1455
play	-10.1456
import	-10.146
shik	-10.1467
former	-10.1481
track	-10.1483
phone	-10.149
occasion	-10.1631
normal	-10.1631
scale	-10.1631
gym	-10.1633
postpon	-10.1634
design	-10.1639
exist	-10.1639
job	-10.1655
ilit	-10.1681
cross	-10.1687
chloro	-10.1809
address	-10.1809
location	-10.1809
remedivi	-10.1809
africa	-10.1809
exact	-10.1818
48	-10.1837
njay	-10.1849
launch	-10.1991
korea	-10.1991
patil	-10.1992
load	-10.1993
43	-10.2049
fast	-10.2116
multi	-10.2176
remedic	-10.2176
material	-10.2176
particular	-10.2176
menstrua	-10.2176
profess	-10.2176
modern	-10.2176
responsibilit	-10.2177
power	-10.2177
teacher	-10.2178
antiviral	-10.2178
▁¦21¦	-10.2183
twi	-10.2183
▁¦27	-10.2188
liqu	-10.2199
final	-10.2239
notice	-10.2272
coron	-10.2328
availab	-10.2358
amount	-10.2365
diabetes	-10.2365
pathogen	-10.2365
building	-10.2365
operation	-10.2374
adar	-10.2374
statu	-10.2393
95¦	-10.2427
aster	-10.2509
criticiz	-10.2557
cylinder	-10.2557
difference	-10.2557
except	-10.2557
foreign	-10.2557
railway	-10.2557
separate	-10.2557
average	-10.2557
account	-10.2561
arter	-10.2562
securit	-10.2562
super	-10.2564
indicat	-10.2567
jum	-10.2582
nawa	-10.2583
accu	-10.2589
schedule	-10.2753
network	-10.2753
promis	-10.2754
kept	-10.2755
gue	-10.2872
science	-10.2953
vehicle	-10.2953
scheme	-10.2953
elimina	-10.2955
continu	-10.3046
therap	-10.3058
gad	-10.3125
q	-10.315
approach	-10.3157
possibilit	-10.3157
regular	-10.3157
vasai	-10.3157
stead	-10.3158
arsha	-10.3228
interact	-10.3353
awareness	-10.3366
adult	-10.3366
bengal	-10.3366
guid	-10.3366
assess	-10.3366
living	-10.3367
cabin	-10.3367
graph	-10.3368
swab	-10.3369
vot	-10.3516
procedure	-10.3578
regulator	-10.3578
mobile	-10.3578
sneez	-10.3578
saturday	-10.3578
target	-10.3579
natural	-10.3579
improv	-10.3579
bird	-10.3579
throat	-10.358
vax	-10.3586
threat	-10.3587
fine	-10.3613
scienti	-10.3788
field	-10.3796
function	-10.3796
participat	-10.3796
brazil	-10.3796
announcement	-10.3796
spoke	-10.3797
propos	-10.3797
rush	-10.3852
histor	-10.3876
double	-10.4018
detail	-10.4018
purchas	-10.4018
mouth	-10.4019
discover	-10.4019
franc	-10.4032
ible	-10.4212
politic	-10.4216
turn	-10.4235
adapt	-10.4245
adequate	-10.4245
physical	-10.4245
regulation	-10.4245
vegetable	-10.4245
pharma	-10.4245
gradua	-10.4247
rtpcr	-10.4247
laborator	-10.4441
adhya	-10.4478
complain	-10.4478
consult	-10.4478
environment	-10.4478
hundred	-10.4478
platform	-10.4478
progress	-10.4478
relax	-10.4478
focus	-10.4478
strategi	-10.4478
arrest	-10.4478
grant	-10.4478
course	-10.4478
successful	-10.4479
digit	-10.4479
buy	-10.4479
price	-10.448
rought	-10.4501
distanc	-10.4554
employ	-10.4715
emerg	-10.4716
frequent	-10.4716
guardian	-10.4716
middle	-10.4716
precaution	-10.4716
receptor	-10.4716
privacy	-10.4716
request	-10.4716
antigen	-10.4716
cycle	-10.4716
monday	-10.4718
model	-10.4719
closure	-10.4738
bodie	-10.4951
admission	-10.496
attack	-10.496
gujarat	-10.496
november	-10.496
pharmaceutical	-10.496
picture	-10.496
confus	-10.4961
pack	-10.4963
appropriate	-10.521
contagious	-10.521
johns	-10.521
vardhan	-10.521
website	-10.521
friend	-10.521
cular	-10.521
consist	-10.521
delay	-10.521
hydr	-10.521
nucle	-10.5212
chron	-10.5215
worse	-10.5221
audi	-10.5313
;	-10.5393
tara	-10.545
responsib	-10.5465
ambulance	-10.5466
institution	-10.5466
accept	-10.5466
constant	-10.5466
multiple	-10.5466
serolog	-10.5466
sistance	-10.5466
damage	-10.5466
inquir	-10.5467
engl	-10.5468
mukh	-10.5469
desivir	-10.5493
germ	-10.5709
experienc	-10.5709
exercise	-10.5729
subject	-10.5729
california	-10.5729
session	-10.573
understand	-10.573
elder	-10.573
photo	-10.5731
formula	-10.5738
"	-10.5982
approximate	-10.6
hyderabad	-10.6
exclud	-10.6
gregation	-10.6
obtain	-10.6
grocer	-10.6
hypox	-10.6
purpose	-10.6
space	-10.6001
poonawala	-10.6277
spike	-10.6278
hong	-10.6279
dispos	-10.628
believe	-10.6282
analysi	-10.634
measure	-10.6342
farmer	-10.6445
medication	-10.6563
restaurant	-10.6563
suspend	-10.6563
adverse	-10.6563
failure	-10.6563
sufficient	-10.6563
australia	-10.6563
capital	-10.6563
promot	-10.6567
ventilat	-10.6838
resident	-10.6841
introduc	-10.6857
object	-10.6857
[	-10.6857
]	-10.6857
efficacy	-10.6857
krishna	-10.6857
inflamma	-10.6857
simple	-10.6857
message	-10.6857
inspect	-10.6857
vijay	-10.6857
gathering	-10.6858
america	-10.6858
expos	-10.6858
toilet	-10.6858
buil	-10.716
&	-10.716
engineer	-10.716
enzyme	-10.716
sputnik	-10.716
territori	-10.716
degree	-10.716
wedding	-10.716
expen	-10.7161
clarifi	-10.7168
oxy	-10.7173
)	-10.7867
$	-10.8129
#	-10.8474
:	-11.0231
—	-11.0837
'	-11.2743
‘	-11.335
•	-11.523
≥	-11.523
?	-11.6107
+	-12.1817
°	-12.1817
!	-12.2637
*	-12.4912
ा	-12.4912
武	-12.9412
×	-12.9412
肺	-12.9412
_	-12.9412
á	-13.2745
í	-13.2745
α	-13.2745
β	-13.2745
े	-13.2745
्	-13.2745
~	-13.2745
स	-13.2745
ü	-13.7745
क	-13.7745
=	-13.7745
ò	-13.7745
č	-13.7745
ş	-13.7745
γ	-13.7745
ब	-13.7745
र	-13.7745
汉	-13.7745
漢	-13.7745
炎	-13.7745
ं	-13.7745
’	-14.7743
%	-14.7744
£	-14.7745
å	-14.7745
é	-14.7745
ó	-14.7745
ई	-14.7745
ओ	-14.7745
त	-14.7745
द	-14.7745
प	-14.7745
ल	-14.7745
व	-14.7745
श	-14.7745
ो	-14.7745
′	-14.7745
火	-14.7745
眼	-14.7745
ळ	-14.7745
(	-14.7745
च	-14.7745
