<pad>	0
</s>	0
<unk>	0
▁क	-0
▁स	-1
▁ह	-2
▁प	-3
▁म	-4
्र	-5
ार	-6
▁है	-7
▁ज	-8
ें	-9
▁के	-10
▁अ	-11
▁व	-12
या	-13
▁न	-14
▁ब	-15
ों	-16
▁त	-17
▁उ	-18
▁द	-19
▁ल	-20
ने	-21
▁में	-22
▁औ	-23
▁र	-24
ता	-25
▁और	-26
र्	-27
▁की	-28
्य	-29
▁कर	-30
▁कि	-31
ान	-32
▁आ	-33
▁प्र	-34
▁को	-35
▁से	-36
िक	-37
▁भ	-38
्त	-39
▁का	-40
ना	-41
▁ग	-42
▁इ	-43
ित	-44
▁(	-45
▁पर	-46
▁हो	-47
ाल	-48
▁य	-49
▁ए	-50
▁च	-51
्व	-52
न्	-53
ही	-54
▁श	-55
िए	-56
▁वि	-57
ते	-58
▁जा	-59
▁सं	-60
▁हैं	-61
▁इस	-62
िय	-63
▁एक	-64
▁उस	-65
था	-66
ला	-67
ोग	-68
के	-69
्ष	-70
▁ख	-71
ड़	-72
्ट	-73
ति	-74
हा	-75
▁लिए	-76
ुम	-77
्या	-78
▁सम	-79
ती	-80
▁अप	-81
▁जो	-82
▁फ	-83
हीं	-84
▁सा	-85
स्	-86
िया	-87
▁तो	-88
वा	-89
▁दे	-90
▁उन	-91
▁भी	-92
▁नहीं	-93
▁हम	-94
रा	-95
▁नि	-96
से	-97
दा	-98
▁तुम	-99
त्र	-100
ल्	-101
का	-102
सी	-103
▁ने	-104
▁रा	-105
▁जि	-106
री	-107
▁या	-108
कार	-109
▁बा	-110
ास	-111
▁किया	-112
नी	-113
क्ष	-114
गा	-115
▁अन	-116
▁यह	-117
ष्ट	-118
ले	-119
▁ही	-120
मा	-121
कर	-122
ंग	-123
▁करने	-124
ज़	-125
ेश	-126
▁अध	-127
सा	-128
ारा	-129
▁वह	-130
त्	-131
▁लोग	-132
▁मु	-133
▁थ	-134
▁स्	-135
▁हु	-136
क्त	-137
की	-138
िल	-139
िर	-140
▁कु	-141
▁कार	-142
▁ड	-143
ियों	-144
िन	-145
न्ह	-146
ाम	-147
ाह	-148
▁उप	-149
▁सक	-150
ारे	-151
द्	-152
▁रह	-153
ारी	-154
▁अपने	-155
▁वे	-156
▁था	-157
▁ले	-158
▁1	-159
रे	-160
▁ऐ	-161
मान	-162
भा	-163
्री	-164
्च	-165
ूप	-166
▁भार	-167
स्त	-168
ुर	-169
गे	-170
वि	-171
कि	-172
▁पू	-173
ओं	-174
▁उन्ह	-175
▁ध	-176
▁तथा	-177
में	-178
▁गया	-179
ली	-180
ंत	-181
▁जिस	-182
▁आप	-183
▁पह	-184
ैं	-185
▁दो	-186
▁स्व	-187
▁कुछ	-188
दि	-189
्ह	-190
ंध	-191
▁वाल	-192
▁छ	-193
▁मे	-194
खा	-195
▁किसी	-196
म्	-197
▁द्व	-198
ाप	-199
ूल	-200
▁अधिक	-201
▁तुम्ह	-202
▁साथ	-203
▁जब	-204
▁ला	-205
देश	-206
▁घ	-207
▁चाह	-208
▁रूप	-209
▁ख़	-210
ंद	-211
ोज	-212
▁सु	-213
▁2	-214
▁विश	-215
भी	-216
▁कोई	-217
ीन	-218
द्ध	-219
को	-220
▁निर्	-221
ढ़	-222
▁ट	-223
ाय	-224
▁तक	-225
▁करें	-226
ुदा	-227
▁अनु	-228
▁भा	-229
▁द्वारा	-230
ार्	-231
गी	-232
▁करते	-233
▁परि	-234
▁भारत	-235
ंड	-236
ुत	-237
▁पा	-238
▁लोगों	-239
▁क्ष	-240
न्द	-241
ाना	-242
▁वर्	-243
▁उनके	-244
▁प्रति	-245
▁बना	-246
▁व्य	-247
र्व	-248
ंत्र	-249
▁दि	-250
▁थे	-251
गर	-252
▁जाता	-253
▁राज	-254
योग	-255
▁फिर	-256
▁कह	-257
▁राष्ट	-258
जी	-259
▁जाए	-260
▁कार्य	-261
▁कहा	-262
क्	-263
लाह	-264
▁इन	-265
▁बह	-266
दी	-267
▁तर	-268
नों	-269
▁मा	-270
ृत	-271
▁दिया	-272
्छ	-273
▁पु	-274
▁अव	-275
▁स्थ	-276
▁करना	-277
क़	-278
द्य	-279
▁सर	-280
ब्	-281
▁अल्	-282
धार	-283
क्र	-284
▁क्या	-285
▁रख	-286
रण	-287
▁ई	-288
▁मैं	-289
पा	-290
फ़	-291
▁उसके	-292
▁सि	-293
ष्	-294
चार	-295
▁ज़	-296
▁सब	-297
च्छ	-298
ूर	-299
▁हुए	-300
क्ति	-301
▁अपनी	-302
्यों	-303
बंध	-304
▁ये	-305
▁अल्लाह	-306
बर	-307
र्ण	-308
▁रहे	-309
ये	-310
▁थी	-311
ंच	-312
श्च	-313
▁जी	-314
न्न	-315
▁मह	-316
▁उन्हें	-317
ड़ा	-318
जा	-319
ेत्र	-320
नि	-321
▁"	-322
▁फ़	-323
▁सी	-324
ाप्त	-325
▁उसे	-326
्ञ	-327
▁सकता	-328
▁रहा	-329
मी	-330
ोंने	-331
▁करता	-332
पर	-333
ड़े	-334
स्थ	-335
▁होता	-336
▁चु	-337
▁बात	-338
▁ख़ुदा	-339
▁सू	-340
वाल	-341
ड़ी	-342
▁जान	-343
ूस	-344
त्त	-345
▁गु	-346
▁क्षेत्र	-347
▁पै	-348
▁समय	-349
▁क़	-350
▁विक	-351
प्र	-352
िका	-353
▁राष्ट्र	-354
हर	-355
▁मान	-356
▁ओ	-357
बा	-358
च्च	-359
ोक	-360
दान	-361
पति	-362
र्थ	-363
कों	-364
▁बी	-365
▁जै	-366
▁देख	-367
वन	-368
वर्	-369
पू	-370
टा	-371
ानी	-372
ियम	-373
▁दी	-374
▁हि	-375
ोल	-376
▁बहुत	-377
ेल	-378
▁आय	-379
▁बाद	-380
भि	-381
▁प्राप्त	-382
स्था	-383
▁उन्होंने	-384
▁तरह	-385
वी	-386
शन	-387
र्म	-388
क्षा	-389
त्य	-390
▁मि	-391
▁सह	-392
▁झ	-393
▁काम	-394
▁दिन	-395
▁हुआ	-396
्रा	-397
▁पास	-398
ेष	-399
▁वाले	-400
▁निक	-401
▁होने	-402
िप	-403
▁राष्ट्रपति	-404
00	-405
ौर	-406
ंक	-407
टी	-408
▁देश	-409
्रीय	-410
▁मिल	-411
▁विश्व	-412
वे	-413
ज्ञ	-414
▁कम	-415
▁गए	-416
01	-417
▁करो	-418
▁अन्य	-419
ुल	-420
▁अंत	-421
▁उत्	-422
▁सरकार	-423
▁हमारे	-424
ाइ	-425
िस	-426
्स	-427
्रे	-428
▁पी	-429
▁सम्	-430
न्त	-431
▁दु	-432
▁हमने	-433
▁छो	-434
▁सभी	-435
ूँ	-436
▁नाम	-437
ख़	-438
▁जिन	-439
गत	-440
िम	-441
भाव	-442
▁यदि	-443
▁वर्ष	-444
▁ता	-445
स्ता	-446
करण	-447
▁19	-448
▁गई	-449
▁बि	-450
▁बु	-451
▁वा	-452
▁प्रकार	-453
चना	-454
▁तुम्हारे	-455
ग्र	-456
▁ओर	-457
तों	-458
▁समझ	-459
▁पहले	-460
एँ	-461
तीय	-462
▁साम	-463
▁सकते	-464
▁होगा	-465
वं	-466
ोध	-467
ीय	-468
▁ऐसे	-469
▁उनकी	-470
▁कारण	-471
श्य	-472
▁नी	-473
िक्ष	-474
धान	-475
तर	-476
हां	-477
▁दूस	-478
▁अच्छ	-479
▁संबंध	-480
एं	-481
▁रस	-482
दन	-483
▁ऊ	-484
▁चाहिए	-485
दार	-486
▁ना	-487
यी	-488
िश	-489
हाँ	-490
ुक्त	-491
▁होती	-492
▁बे	-493
▁अगर	-494
▁करे	-495
धि	-496
वर	-497
माण	-498
र्श	-499
▁जाने	-500
▁प्रा	-501
झे	-502
्यू	-503
पूर्ण	-504
ेर	-505
▁बद	-506
▁किए	-507
..	-508
िंग	-509
▁लग	-510
▁इसके	-511
त्म	-512
▁(_	-513
▁ऐसा	-514
सर	-515
▁हा	-516
ंप	-517
ची	-518
ध्य	-519
▁हर	-520
जन	-521
ास्त	-522
ोजना	-523
▁बढ़	-524
द्र	-525
▁जन	-526
▁ची	-527
▁ईमान	-528
चा	-529
▁पहु	-530
▁रसूल	-531
तन	-532
लय	-533
▁अस	-534
गार	-535
▁मो	-536
▁भारतीय	-537
टर	-538
ूम	-539
त्व	-540
▁हों	-541
▁ठ	-542
▁एवं	-543
▁खा	-544
दे	-545
▁'	-546
▁क्र	-547
वल	-548
हाय	-549
द्योग	-550
्ल	-551
▁दिखा	-552
▁राज्य	-553
िति	-554
टे	-555
ूं	-556
चे	-557
▁अब	-558
▁क्यों	-559
▁पूर्व	-560
▁विकास	-561
बी	-562
▁3	-563
व्य	-564
▁स्त	-565
▁उपयोग	-566
▁s	-567
काश	-568
ष्ठ	-569
▁उसकी	-570
▁व्या	-571
▁व्यक्ति	-572
मत	-573
मु	-574
ेज	-575
▁à	-576
िये	-577
▁लि	-578
▁प्रश	-579
▁भाग	-580
तः	-581
▁जाती	-582
▁मुझे	-583
धिक	-584
▁बन	-585
▁बार	-586
▁लगा	-587
▁हुई	-588
▁दोनों	-589
▁प्रदान	-590
वार	-591
ाली	-592
▁सेवा	-593
ाला	-594
▁चल	-595
पी	-596
सार	-597
▁कृ	-598
▁आधार	-599
▁जीवन	-600
▁तुम्हें	-601
on	-602
▁अभि	-603
▁जैसे	-604
▁वै	-605
▁सहाय	-606
▁श्री	-607
धा	-608
किन	-609
▁मौ	-610
▁ग्र	-611
शा	-612
शी	-613
कृत	-614
ित्र	-615
▁मुख	-616
फल	-617
▁बीच	-618
▁होते	-619
▁निय	-620
▁अपना	-621
यन	-622
▁खु	-623
▁उसने	-624
ेंगे	-625
▁रही	-626
▁लेकिन	-627
▁आव	-628
▁रब	-629
▁रु	-630
ोर्	-631
ताओं	-632
तु	-633
ेक	-634
ाइल	-635
ार्थ	-636
▁लिया	-637
ंस	-638
ोर	-639
▁देने	-640
▁विशेष	-641
ल्प	-642
हित	-643
िला	-644
क्रम	-645
▁शिक्ष	-646
▁यु	-647
▁बारे	-648
▁स्था	-649
ग़	-650
वाद	-651
▁मन	-652
▁सद	-653
▁अधिन	-654
▁विचार	-655
ज़ा	-656
▁बै	-657
ोप	-658
▁गा	-659
▁शु	-660
▁मूल	-661
▁न्या	-662
▁पैदा	-663
▁वाला	-664
ंभ	-665
▁ढ	-666
कारी	-667
तना	-668
▁निश्च	-669
्ड	-670
▁अल	-671
▁स्थान	-672
।"	-673
▁ऐसी	-674
▁लोक	-675
▁वास्त	-676
कृ	-677
▁ऑ	-678
लिए	-679
▁अधिनियम	-680
ti	-681
ठा	-682
षा	-683
▁आर	-684
▁समा	-685
▁मै	-686
षण	-687
▁आज	-688
निया	-689
▁माल	-690
▁स्प	-691
▁केवल	-692
▁हमारी	-693
युक्त	-694
▁मेरे	-695
▁प्रयोग	-696
्न	-697
तिक	-698
स्ट	-699
▁अथ	-700
ख्या	-701
▁आवश्य	-702
कता	-703
दों	-704
▁दृ	-705
▁उसी	-706
ून	-707
रों	-708
त्ता	-709
▁उत्त	-710
▁जाएगा	-711
me	-712
डी	-713
त्या	-714
लों	-715
वरण	-716
▁इसे	-717
▁करती	-718
▁ताकि	-719
▁सर्व	-720
वेश	-721
▁पि	-722
▁उपल	-723
बे	-724
ुट	-725
जू	-726
ोह	-727
चित	-728
▁हे	-729
क्षण	-730
न्तु	-731
▁अथवा	-732
▁पश्च	-733
▁इसमें	-734
▁अधिकार	-735
▁दर	-736
▁हूँ	-737
ज्ञान	-738
▁जाना	-739
बू	-740
हार	-741
▁कै	-742
▁उसका	-743
▁उपलब्	-744
▁योजना	-745
▁जिसमें	-746
▁डि	-747
▁पार	-748
in	-749
मे	-750
▁सो	-751
ियां	-752
▁विष	-753
▁क्योंकि	-754
▁तब	-755
ियाँ	-756
▁इसलिए	-757
▁सहायता	-758
▁n	-759
ुरु	-760
▁जिसे	-761
▁आस	-762
▁मेरी	-763
▁सबसे	-764
ेम	-765
यास	-766
▁प्रत्य	-767
▁मद	-768
निक	-769
▁डा	-770
मान्य	-771
▁चीज़	-772
▁जाते	-773
▁सकती	-774
▁उपलब्ध	-775
ताब	-776
▁बस	-777
▁पता	-778
▁उनका	-779
▁हमें	-780
▁जिन्ह	-781
▁संदेश	-782
इन	-783
गम	-784
णी	-785
र्ष	-786
श्व	-787
tion	-788
▁माम	-789
▁अर्थ	-790
▁देता	-791
▁बच्च	-792
▁उद्	-793
▁बल्	-794
▁वही	-795
▁उनसे	-796
▁उससे	-797
▁व्यव	-798
▁राष्ट्रीय	-799
ra	-800
ूह	-801
▁अम	-802
▁वाली	-803
▁महत्व	-804
यर	-805
▁5	-806
द्योगिक	-807
ल्ड	-808
ालय	-809
▁लो	-810
त्रा	-811
▁बैं	-812
▁महा	-813
क्रिया	-814
ुरू	-815
द्या	-816
▁सुर	-817
▁होना	-818
सं	-819
ात	-820
भाग	-821
र्क	-822
▁201	-823
▁स्ट	-824
▁बड़ी	-825
ेट	-826
ेह	-827
▁जर	-828
दर्श	-829
▁शाम	-830
तंत्र	-831
ैर	-832
▁4	-833
▁कंप	-834
▁बैठ	-835
▁विषय	-836
▁उत्पा	-837
▁स्थाप	-838
ट्ट	-839
न्ध	-840
र्य	-841
स्व	-842
▁दा	-843
▁पुन	-844
▁हाथ	-845
▁स्वी	-846
...	-847
▁अग	-848
▁200	-849
▁उच्च	-850
▁कर्म	-851
▁धारा	-852
▁सूची	-853
▁सामने	-854
▁शिक्षा	-855
रिक	-856
▁जु	-857
▁दौर	-858
नेवाल	-859
▁छोड़	-860
▁पहुँ	-861
▁मार्	-862
▁यहाँ	-863
▁दूसरे	-864
वाह	-865
▁तै	-866
वरदि	-867
▁डाल	-868
▁संप	-869
▁सदस	-870
▁इसका	-871
▁कहते	-872
▁प्रण	-873
▁स्वा	-874
▁परिवर्	-875
कट	-876
भव	-877
ोट	-878
मिक	-879
▁मू	-880
पत्र	-881
▁होंगे	-882
▁परवरदि	-883
तम	-884
ुक	-885
टना	-886
यार	-887
ष्टि	-888
▁बल्कि	-889
फी	-890
ंति	-891
▁आई	-892
▁भर	-893
▁अति	-894
▁कें	-895
भिन्न	-896
▁मंत्र	-897
▁परवरदिगार	-898
▁जल	-899
▁लगे	-900
▁लिख	-901
▁व्याप	-902
▁सूचना	-903
er	-904
ंश	-905
201	-906
क्ट	-907
▁वृ	-908
▁आदि	-909
▁याद	-910
▁योग	-911
स्थान	-912
▁शामिल	-913
▁सामान्य	-914
ंज	-915
▁शी	-916
कृति	-917
▁आया	-918
▁लिये	-919
िट	-920
▁किस	-921
▁गुण	-922
▁विर	-923
▁इससे	-924
▁करके	-925
▁पूरी	-926
▁बाहर	-927
▁उनमें	-928
▁करेगा	-929
▁मुख्य	-930
▁प्रभाव	-931
श्	-932
संद	-933
▁पं	-934
▁बो	-935
द्धि	-936
▁कभी	-937
▁बदल	-938
▁मदद	-939
▁सके	-940
▁सभा	-941
▁अच्छा	-942
▁शक्ति	-943
▁स्पष्ट	-944
मुख	-945
▁विभिन्न	-946
ंट	-947
भू	-948
यं	-949
▁t	-950
जार	-951
्रो	-952
▁कल	-953
ित्त	-954
▁कान	-955
▁बता	-956
▁लाभ	-957
▁बड़ा	-958
▁हेतु	-959
▁किताब	-960
▁फ़ाइल	-961
हत	-962
ष्य	-963
▁कई	-964
स्तु	-965
▁रंग	-966
▁हूं	-967
▁अंतर	-968
▁पूरा	-969
▁प्रौ	-970
▁प्रकाश	-971
▁स्थिति	-972
हन	-973
ियो	-974
▁इसी	-975
▁तैयार	-976
▁निर्माण	-977
एस	-978
शत	-979
सम	-980
मीन	-981
ासन	-982
▁आम	-983
▁ग़	-984
▁करा	-985
▁शब्	-986
▁अनुस	-987
▁अवसर	-988
▁होगी	-989
▁उसमें	-990
▁चाहते	-991
▁निर्धार	-992
जे	-993
▁‘	-994
ame	-995
▁अभ	-996
▁चि	-997
िष्ट	-998
▁उठा	-999
▁यही	-1000
▁हाल	-1001
▁भाषा	-1002
▁चाहता	-1003
▁जिसके	-1004
▁दौरान	-1005
▁मार्ग	-1006
आई	-1007
लि	-1008
▁रो	-1009
्यान	-1010
▁चुन	-1011
▁ज्ञ	-1012
▁रुप	-1013
▁जहां	-1014
es	-1015
ीक	-1016
▁१	-1017
वान	-1018
हरा	-1019
ालन	-1020
त्मक	-1021
▁अंग	-1022
▁अर्	-1023
▁पड़	-1024
▁भवन	-1025
▁उनको	-1026
▁शुरू	-1027
ूट	-1028
ज्य	-1029
बार	-1030
ोजन	-1031
ग्रह	-1032
▁बढ़ा	-1033
▁निश्चय	-1034
सि	-1035
तान	-1036
म्बर	-1037
▁ज़र	-1038
▁दिल	-1039
▁भेज	-1040
्यादा	-1041
▁देखा	-1042
▁तुम्हारा	-1043
▁प्रक्रिया	-1044
⁄4	-1045
▁ऋ	-1046
ंतु	-1047
ल्क	-1048
ामी	-1049
▁(1	-1050
▁कौ	-1051
▁पृ	-1052
▁रे	-1053
ध्यम	-1054
▁अने	-1055
▁गयी	-1056
▁चार	-1057
▁अधीन	-1058
▁पुस्त	-1059
▁व्यक्त	-1060
la	-1061
कर्	-1062
जिक	-1063
िता	-1064
बन्ध	-1065
र्या	-1066
ित्व	-1067
ोर्ट	-1068
▁तरफ	-1069
▁जाएँ	-1070
▁बड़े	-1071
▁पहुंच	-1072
▁न्याया	-1073
▁प्रबंध	-1074
▁करनेवाल	-1075
▁प्रतिशत	-1076
▁प्रत्येक	-1077
लो	-1078
ण्ड	-1079
रती	-1080
▁आए	-1081
▁नई	-1082
▁गये	-1083
▁चला	-1084
क्षित	-1085
▁सीमा	-1086
▁क्षेत्रों	-1087
▁प्रौद्योगिक	-1088
दम	-1089
रूप	-1090
हास	-1091
▁भूम	-1092
▁संग	-1093
▁स्क	-1094
न्द्र	-1095
स्तुत	-1096
▁नियम	-1097
▁महत्वपूर्ण	-1098
इट	-1099
टन	-1100
▁d	-1101
काल	-1102
द्व	-1103
▁शा	-1104
▁मार	-1105
▁आपको	-1106
▁बनाया	-1107
ंह	-1108
षि	-1109
हम	-1110
▁पद	-1111
▁भे	-1112
▁मर	-1113
▁लौ	-1114
ोल्ड	-1115
▁आगे	-1116
▁गिर	-1117
▁ब्र	-1118
▁रखा	-1119
▁निकल	-1120
▁परिण	-1121
द्यालय	-1122
▁संस्थान	-1123
▁स्वीकार	-1124
▁कार्यक्रम	-1125
जूद	-1126
यों	-1127
▁कठ	-1128
▁ते	-1129
▁अभी	-1130
▁त्र	-1131
▁दूर	-1132
▁अनुम	-1133
▁आदेश	-1134
▁देना	-1135
▁उत्तर	-1136
▁संख्या	-1137
pr	-1138
छे	-1139
पन	-1140
ोन	-1141
दर्	-1142
▁घर	-1143
▁वी	-1144
▁गति	-1145
▁जमा	-1146
▁पढ़	-1147
▁जारी	-1148
▁बन्द	-1149
▁जिसने	-1150
ॉल	-1151
▁झु	-1152
▁अलग	-1153
▁संर	-1154
▁खुदा	-1155
▁जनता	-1156
▁समूह	-1157
▁अनुसार	-1158
▁परिणाम	-1159
▁प्रमुख	-1160
▁वास्तव	-1161
▁संस्था	-1162
▁संबंधित	-1163
इस	-1164
और	-1165
धन	-1166
▁a	-1167
गें	-1168
लेख	-1169
▁मी	-1170
▁दें	-1171
▁सफल	-1172
▁अनेक	-1173
▁नीचे	-1174
▁मैंने	-1175
▁वित्त	-1176
▁प्रमाण	-1177
¤3	-1178
शि	-1179
क्स	-1180
नीय	-1181
▁डे	-1182
▁शै	-1183
¤3⁄4	-1184
▁अतः	-1185
▁नया	-1186
स्थित	-1187
▁अन्त	-1188
▁कृषि	-1189
▁पानी	-1190
▁प्रो	-1191
▁पूर्ण	-1192
▁स्वयं	-1193
▁करेंगे	-1194
▁नियंत्र	-1195
▁विश्वास	-1196
▁सुरक्षा	-1197
ic	-1198
ैन	-1199
ैस	-1200
मेल	-1201
म्प	-1202
वास	-1203
▁पिछ	-1204
▁वाय	-1205
▁काफी	-1206
▁प्रार	-1207
▁वस्तु	-1208
विद्यालय	-1209
▁स्वतंत्र	-1210
दू	-1211
्ले	-1212
▁मत	-1213
▁धरती	-1214
▁मानव	-1215
▁बनाने	-1216
▁उद्देश	-1217
▁प्रस्तुत	-1218
▁प्रौद्योगिकी	-1219
al	-1220
अप	-1221
उन	-1222
टक	-1223
धी	-1224
दाय	-1225
▁जग	-1226
▁भू	-1227
▁लेख	-1228
▁संघ	-1229
माजिक	-1230
▁अध्य	-1231
▁संस्	-1232
▁ज्ञान	-1233
▁विवरण	-1234
▁ज्यादा	-1235
▁C	-1236
ल्ल	-1237
▁चौ	-1238
▁ती	-1239
▁यू	-1240
.201	-1241
दारी	-1242
▁ठीक	-1243
तियों	-1244
तिहास	-1245
▁अत्य	-1246
▁आपके	-1247
▁बैंक	-1248
▁केंद्र	-1249
▁दुनिया	-1250
▁माध्यम	-1251
it	-1252
ाई	-1253
▁8	-1254
मता	-1255
ियन	-1256
▁सौ	-1257
विधा	-1258
्यता	-1259
▁तीन	-1260
▁समान	-1261
▁सिवा	-1262
▁हिस्	-1263
▁सामाजिक	-1264
▁परिवर्तन	-1265
▁विश्वविद्यालय	-1266
पि	-1267
ज़र	-1268
जों	-1269
प्त	-1270
स्या	-1271
▁कर्	-1272
▁शरी	-1273
ोल्डर	-1274
▁जबकि	-1275
▁मध्य	-1276
▁जिसका	-1277
▁विस्त	-1278
▁आवश्यक	-1279
▁प्रयास	-1280
्श	-1281
▁-	-1282
ख्त	-1283
ष्ण	-1284
▁गो	-1285
▁मज	-1286
वादी	-1287
▁निश	-1288
▁सुन	-1289
▁जैसा	-1290
▁लेकर	-1291
▁निकाल	-1292
▁प्रती	-1293
▁प्रेम	-1294
▁क्रिया	-1295
▁जिन्हें	-1296
भग	-1297
ेद	-1298
ोष	-1299
▁“	-1300
र्फ	-1301
डियो	-1302
▁खोज	-1303
▁गर्	-1304
▁जाओ	-1305
▁तरी	-1306
▁दर्	-1307
▁पुर	-1308
▁रोक	-1309
र्थिक	-1310
▁जोड़	-1311
▁पक्ष	-1312
▁विंड	-1313
▁होकर	-1314
▁मामले	-1315
▁विद्य	-1316
▁उद्योग	-1317
▁समस्या	-1318
or	-1319
ंख	-1320
कु	-1321
चि	-1322
धे	-1323
बल	-1324
्म	-1325
ran	-1326
ज़ी	-1327
▁आग	-1328
▁ऋण	-1329
▁पे	-1330
ल्ली	-1331
ृत्य	-1332
▁बरा	-1333
▁गुना	-1334
▁निस्	-1335
▁नीति	-1336
▁पीछे	-1337
▁रहते	-1338
▁वर्ग	-1339
▁स्तर	-1340
▁जानते	-1341
▁हिन्द	-1342
ष्ट्रीय	-1343
▁किन्तु	-1344
▁तुम्हारी	-1345
▁न्यायालय	-1346
दर	-1347
भर	-1348
सल	-1349
ूब	-1350
ंधी	-1351
ठला	-1352
तनी	-1353
्ला	-1354
▁टे	-1355
▁ली	-1356
▁शि	-1357
▁लाए	-1358
दिष्ट	-1359
▁दक्ष	-1360
▁सारे	-1361
▁अच्छे	-1362
▁दूसरी	-1363
▁ध्यान	-1364
▁सुविधा	-1365
ed	-1366
उस	-1367
डा	-1368
▁7	-1369
क्म	-1370
र्च	-1371
ज़ाब	-1372
त्मा	-1373
निर्	-1374
पन्न	-1375
वासी	-1376
वेदन	-1377
▁खंड	-1378
▁सार	-1379
▁आकार	-1380
▁आकाश	-1381
▁देते	-1382
▁धर्म	-1383
▁परिय	-1384
▁संवि	-1385
▁समर्थ	-1386
▁प्रधान	-1387
▁विशिष्ट	-1388
▁<	-1389
ंजी	-1390
मार	-1391
हरी	-1392
ेशन	-1393
▁डर	-1394
▁ऊपर	-1395
▁काल	-1396
▁चयन	-1397
▁पाठ	-1398
▁रिप	-1399
▁संस	-1400
क्ष्य	-1401
मंत्र	-1402
▁पत्र	-1403
▁मेरा	-1404
▁इनकार	-1405
▁ज़मीन	-1406
▁पर्या	-1407
▁अधिकारी	-1408
▁जानकारी	-1409
▁फ़ोल्डर	-1410
.0	-1411
ot	-1412
▁&	-1413
▁6	-1414
तें	-1415
यान	-1416
ेशा	-1417
▁एस	-1418
▁चे	-1419
▁शे	-1420
ग्री	-1421
तमान	-1422
र्गत	-1423
ानों	-1424
▁आने	-1425
▁खोल	-1426
▁नही	-1427
▁पूछ	-1428
▁बंग	-1429
▁बेह	-1430
▁मगर	-1431
▁अवधि	-1432
▁निम्	-1433
▁महान	-1434
▁यहां	-1435
▁लगभग	-1436
▁लेने	-1437
▁वहां	-1438
▁बराबर	-1439
▁आवश्यकता	-1440
op	-1441
¥	-1442
गू	-1443
ोस	-1444
भार	-1445
वों	-1446
स्क	-1447
्रम	-1448
▁गण	-1449
▁फर	-1450
▁बेश	-1451
कृतिक	-1452
▁चाहे	-1453
▁जिससे	-1454
▁झुठला	-1455
▁पृष्ठ	-1456
▁हुक्म	-1457
▁क्षमता	-1458
▁परियोजना	-1459
ab	-1460
कल	-1461
लग	-1462
शील	-1463
▁नए	-1464
▁कला	-1465
▁रोग	-1466
▁लड़	-1467
▁विन	-1468
▁सही	-1469
▁रखते	-1470
▁संगठ	-1471
▁गांधी	-1472
▁निम्न	-1473
▁सहयोग	-1474
▁अतिरिक	-1475
▁प्रदेश	-1476
▁वर्तमान	-1477
ht	-1478
ंब	-1479
जर	-1480
▁:	-1481
ंदर	-1482
विध	-1483
शोध	-1484
स्प	-1485
▁आध	-1486
▁बच	-1487
ट्टी	-1488
ोर्ड	-1489
▁अपे	-1490
▁कौन	-1491
▁जवा	-1492
▁सां	-1493
▁साल	-1494
हित्य	-1495
▁इसकी	-1496
▁चुके	-1497
▁जरूर	-1498
▁बिना	-1499
▁हाला	-1500
▁तुमसे	-1501
▁युद्ध	-1502
▁वालों	-1503
▁आर्थिक	-1504
▁उद्देश्य	-1505
▁निर्धारित	-1506
जो	-1507
▁”	-1508
पुर	-1509
मित	-1510
र्स	-1511
▁फै	-1512
▁बर	-1513
क्ता	-1514
▁जगह	-1515
▁मंद	-1516
▁मनु	-1517
▁पड़े	-1518
▁शब्द	-1519
▁परन्तु	-1520
▁वास्ते	-1521
▁प्रणाली	-1522
-1	-1523
चन	-1524
डे	-1525
लू	-1526
▁0	-1527
तार	-1528
न्म	-1529
पित	-1530
ूरी	-1531
्रै	-1532
▁कॉ	-1533
▁थो	-1534
▁रू	-1535
क्षर	-1536
च्छा	-1537
िश्त	-1538
▁कुल	-1539
▁कोश	-1540
▁वेब	-1541
संदेह	-1542
▁अमेर	-1543
▁एक्स	-1544
▁जाये	-1545
▁रखने	-1546
▁वर्ण	-1547
▁सिंह	-1548
▁दक्षि	-1549
▁मित्र	-1550
▁शीर्ष	-1551
▁समाप्त	-1552
▁व्यापार	-1553
▁अतिरिक्त	-1554
▁स्वतंत्रता	-1555
en	-1556
यो	-1557
लत	-1558
म्म	-1559
▁18	-1560
▁अर	-1561
▁घा	-1562
▁धन	-1563
बद्ध	-1564
ुद्ध	-1565
ृत्त	-1566
्रिय	-1567
▁शिक	-1568
पूर्व	-1569
▁बुरा	-1570
▁बेशक	-1571
▁लागू	-1572
▁महिला	-1573
▁सिर्फ	-1574
▁निर्देश	-1575
एम	-1576
गु	-1577
पाल	-1578
▁चा	-1579
ुरुष	-1580
ोजित	-1581
▁इन्	-1582
▁भाव	-1583
▁समु	-1584
भावना	-1585
स्तान	-1586
▁आत्म	-1587
▁उसको	-1588
▁कहने	-1589
▁श्रे	-1590
▁अच्छी	-1591
▁चित्र	-1592
▁देशों	-1593
▁निर्ण	-1594
▁निवेश	-1595
▁विदेश	-1596
▁प्राधिक	-1597
▁साहित्य	-1598
¤	-1599
चल	-1600
तक	-1601
प्	-1602
मह	-1603
▁#	-1604
ंगा	-1605
ंगे	-1606
ुओं	-1607
▁गी	-1608
▁तू	-1609
धारण	-1610
र्ति	-1611
▁अला	-1612
▁तौर	-1613
▁अग्र	-1614
▁चुका	-1615
▁रहने	-1616
▁समाज	-1617
▁कंपनी	-1618
▁जानता	-1619
▁बंगाल	-1620
▁बच्चे	-1621
▁बाजार	-1622
▁सदस्य	-1623
▁दिल्ली	-1624
▁प्रबंधन	-1625
▁रिपोर्ट	-1626
▁नियंत्रण	-1627
ील	-1628
▁S	-1629
▁२	-1630
ंबर	-1631
तुम	-1632
▁चिक	-1633
▁दिए	-1634
▁लाख	-1635
▁कहीं	-1636
▁देगा	-1637
▁मिले	-1638
मंत्री	-1639
▁अज़ाब	-1640
▁यातना	-1641
▁अनुसंध	-1642
▁परिवार	-1643
▁स्थापित	-1644
▁मंत्रालय	-1645
▁निस्संदेह	-1646
मन	-1647
▁I	-1648
▁P	-1649
ंतर	-1650
जरा	-1651
यें	-1652
▁लॉ	-1653
कारा	-1654
ान्त	-1655
िस्ट	-1656
ीकरण	-1657
▁कवि	-1658
▁जीव	-1659
▁पेश	-1660
▁माँ	-1661
▁वाप	-1662
▁शहर	-1663
स्थ्य	-1664
▁भेजा	-1665
▁तुमने	-1666
▁हमेशा	-1667
▁पुस्तक	-1668
▁विकल्प	-1669
▁अंतर्गत	-1670
▁प्रारंभ	-1671
▁व्यवस्था	-1672
),	-1673
¤°	-1674
आर	-1675
ुग	-1676
▁।	-1677
पाद	-1678
हरण	-1679
▁10	-1680
▁आद	-1681
▁छा	-1682
▁बल	-1683
▁लं	-1684
र्जी	-1685
▁ज़ि	-1686
▁परी	-1687
▁श्र	-1688
▁साफ	-1689
न्यास	-1690
▁घटना	-1691
▁पहली	-1692
▁वहाँ	-1693
▁सच्च	-1694
▁सत्य	-1695
▁त्रुट	-1696
▁न्याय	-1697
▁हमारा	-1698
▁हस्ता	-1699
▁आधारित	-1700
▁प्रस्ता	-1701
▁संयुक्त	-1702
▁सम्बन्ध	-1703
▁अनुसंधान	-1704
ँच	-1705
जि	-1706
ज्	-1707
मि	-1708
चान	-1709
बाद	-1710
▁भि	-1711
र्जा	-1712
ामीण	-1713
▁उदा	-1714
▁पत्	-1715
▁रात	-1716
▁संच	-1717
▁सर्	-1718
▁साह	-1719
▁जांच	-1720
▁वक्त	-1721
▁जाएगी	-1722
▁देखते	-1723
▁मूल्य	-1724
▁विभाग	-1725
▁दृष्टि	-1726
▁निर्णय	-1727
▁उत्पादन	-1728
▁निश्चित	-1729
▁प्रशिक्ष	-1730
दय	-1731
दु	-1732
सू	-1733
▁9	-1734
000	-1735
टों	-1736
यात	-1737
▁एन	-1738
▁खे	-1739
▁झू	-1740
▁फल	-1741
rans	-1742
ख़िर	-1743
द्धा	-1744
स्ती	-1745
▁कृप	-1746
▁पुल	-1747
▁यक़	-1748
▁राम	-1749
▁राह	-1750
वस्था	-1751
▁name	-1752
▁न्यू	-1753
▁फाइल	-1754
▁बदला	-1755
▁बनाए	-1756
▁मूसा	-1757
▁रखता	-1758
▁रचना	-1759
▁लेते	-1760
▁शरीर	-1761
ग़म्बर	-1762
▁निशान	-1763
▁परंतु	-1764
▁पिछले	-1765
▁बातों	-1766
▁दक्षिण	-1767
▁यात्रा	-1768
▁लक्ष्य	-1769
▁सक्रिय	-1770
▁ग्रामीण	-1771
▁स्थापना	-1772
44	-1773
ँह	-1774
घा	-1775
थम	-1776
फा	-1777
ौम	-1778
▁_	-1779
▁k	-1780
म्ब	-1781
र्इ	-1782
वाई	-1783
ारण	-1784
ैंड	-1785
▁जे	-1786
धारा	-1787
राने	-1788
▁क्ल	-1789
▁जल्	-1790
▁डाक	-1791
▁बहु	-1792
▁निष्	-1793
▁संके	-1794
▁सहित	-1795
▁स्रो	-1796
▁चिकित	-1797
▁पुरुष	-1798
▁संपर्क	-1799
▁स्वास्थ्य	-1800
झा	-1801
यक	-1802
▁M	-1803
फिर	-1804
मिल	-1805
ोषण	-1806
▁अफ	-1807
▁उठ	-1808
▁डॉ	-1809
▁मॉ	-1810
क्या	-1811
हन्न	-1812
▁आयु	-1813
▁खेल	-1814
▁वार	-1815
दर्शन	-1816
दारों	-1817
▁छोटे	-1818
▁तत्व	-1819
▁पाया	-1820
▁राशि	-1821
▁हिंद	-1822
ransla	-1823
tional	-1824
▁अनुभव	-1825
▁	-1826
ा	-1827
क	-1828
र	-1829
े	-1830
्	-1831
न	-1832
ि	-1833
स	-1834
त	-1835
ह	-1836
ं	-1837
ी	-1838
म	-1839
ो	-1840
य	-1841
प	-1842
ल	-1843
व	-1844
द	-1845
ज	-1846
ु	-1847
ग	-1848
ब	-1849
ै	-1850
अ	-1851
श	-1852
ए	-1853
च	-1854
उ	-1855
भ	-1856
ू	-1857
़	-1858
।	-1859
ट	-1860
,	-1861
थ	-1862
औ	-1863
ध	-1864
ख	-1865
ष	-1866
आ	-1867
ड	-1868
इ	-1869
ण	-1870
फ	-1871
(	-1872
)	-1873
.	-1874
ई	-1875
-	-1876
छ	-1877
ँ	-1878
1	-1879
ौ	-1880
0	-1881
ृ	-1882
ओ	-1883
ठ	-1884
2	-1885
घ	-1886
झ	-1887
e	-1888
ऐ	-1889
à	-1890
a	-1891
i	-1892
ढ	-1893
t	-1894
n	-1895
¤	-1896
ॉ	-1897
o	-1898
ः	-1899
"	-1900
s	-1901
9	-1902
4	-1903
r	-1904
3	-1905
/	-1906
5	-1907
?	-1908
l	-1909
'	-1910
ञ	-1911
m	-1912
%	-1913
;	-1914
6	-1915
8	-1916
7	-1917
:	-1918
p	-1919
ऊ	-1920
d	-1921
c	-1922
_	-1923
h	-1924
b	-1925
C	-1926
u	-1927
¥	-1928
‍	-1929
ऑ	-1930
०	-1931
!	-1932
y	-1933
ऋ	-1934
A	-1935
S	-1936
I	-1937
१	-1938
g	-1939
N	-1940
T	-1941
P	-1942
‘	-1943
f	-1944
R	-1945
E	-1946
k	-1947
w	-1948
M	-1949
>	-1950
’	-1951
”	-1952
O	-1953
D	-1954
⁄	-1955
v	-1956
L	-1957
२	-1958
#	-1959
&	-1960
“	-1961
<	-1962
	-1963
B	-1964
U	-1965
५	-1966
३	-1967
	-1968
°	-1969
९	-1970
F	-1971
x	-1972
	-1973
६	-1974
	-1975
¿	-1976
–	-1977
H	-1978
G	-1979
@	-1980
{	-1981
ॅ	-1982
८	-1983
}	-1984
V	-1985
̧	-1986
+	-1987
̈	-1988
Z	-1989
४	-1990
\	-1991
j	-1992
̄	-1993
॰	-1994
K	-1995
W	-1996
