<pad>	0
</s>	0
<unk>	0
▁क	-0
▁स	-1
▁ह	-2
▁प	-3
▁म	-4
्र	-5
ार	-6
▁है	-7
ें	-8
▁ज	-9
▁अ	-10
▁के	-11
▁व	-12
या	-13
▁न	-14
▁ब	-15
▁उ	-16
▁त	-17
ों	-18
▁द	-19
▁ल	-20
▁औ	-21
ने	-22
▁और	-23
▁में	-24
र्	-25
▁र	-26
ता	-27
्य	-28
▁की	-29
▁कर	-30
ान	-31
▁कि	-32
▁प्र	-33
▁आ	-34
▁को	-35
िक	-36
▁से	-37
्त	-38
▁भ	-39
▁का	-40
ना	-41
▁इ	-42
▁ग	-43
ित	-44
▁(	-45
▁पर	-46
▁य	-47
ाल	-48
▁हो	-49
▁ए	-50
्व	-51
▁च	-52
ही	-53
न्	-54
▁लि	-55
▁श	-56
ते	-57
▁वि	-58
▁सं	-59
▁जा	-60
▁हैं	-61
▁इस	-62
▁उस	-63
के	-64
ला	-65
▁ख	-66
ोग	-67
था	-68
्ष	-69
ति	-70
ड़	-71
▁एक	-72
स्	-73
ुम	-74
िय	-75
▁लिए	-76
हा	-77
▁सम	-78
हीं	-79
्या	-80
ती	-81
▁फ	-82
्ट	-83
▁अप	-84
▁उन	-85
▁जो	-86
▁तो	-87
▁सा	-88
▁नहीं	-89
वा	-90
▁दे	-91
▁तुम	-92
▁नि	-93
▁हम	-94
रा	-95
से	-96
दा	-97
िया	-98
▁भी	-99
▁ने	-100
त्र	-101
का	-102
ल्	-103
सी	-104
▁रा	-105
▁जि	-106
▁या	-107
▁बा	-108
री	-109
कार	-110
गा	-111
नी	-112
क्ष	-113
▁किया	-114
ज़	-115
▁अन	-116
ास	-117
▁यह	-118
▁ही	-119
ले	-120
सा	-121
ष्ट	-122
की	-123
ेश	-124
ारा	-125
कर	-126
मा	-127
▁करने	-128
▁थ	-129
ंग	-130
▁अध	-131
▁मु	-132
त्	-133
▁लोग	-134
▁वह	-135
िर	-136
▁स्	-137
▁हु	-138
क्त	-139
▁कु	-140
कि	-141
▁दि	-142
▁कार	-143
▁रह	-144
ाम	-145
▁ड	-146
▁उप	-147
ारे	-148
ाह	-149
न्ह	-150
▁सक	-151
द्	-152
▁अपने	-153
ियों	-154
ारी	-155
▁वे	-156
मान	-157
▁था	-158
▁ले	-159
▁ऐ	-160
▁1	-161
िल	-162
स्त	-163
▁ध	-164
रे	-165
वि	-166
ूप	-167
्च	-168
गे	-169
▁पू	-170
▁सु	-171
्री	-172
▁भार	-173
भा	-174
▁जिस	-175
ंत	-176
▁आप	-177
में	-178
▁गया	-179
▁पह	-180
▁उन्ह	-181
ैं	-182
ओं	-183
ंध	-184
▁तथा	-185
▁वाल	-186
दि	-187
्ह	-188
▁कुछ	-189
ली	-190
▁छ	-191
▁किसी	-192
▁ख़	-193
▁द्व	-194
ीन	-195
▁तुम्ह	-196
ूल	-197
▁दो	-198
▁अनु	-199
▁स्व	-200
▁साथ	-201
ाप	-202
ुदा	-203
▁मे	-204
▁जब	-205
को	-206
देश	-207
▁घ	-208
म्	-209
▁रूप	-210
खा	-211
ोज	-212
▁चाह	-213
▁अधिक	-214
▁कोई	-215
▁निर्	-216
ंद	-217
ंड	-218
ाय	-219
ुर	-220
द्ध	-221
▁उनके	-222
▁विश	-223
गी	-224
▁ला	-225
ार्	-226
▁थे	-227
▁ट	-228
▁तक	-229
भी	-230
▁द्वारा	-231
न्द	-232
ढ़	-233
▁करें	-234
▁करते	-235
▁पा	-236
▁व्य	-237
▁राज	-238
▁प्रति	-239
गर	-240
▁लोगों	-241
▁भा	-242
ाना	-243
र्व	-244
▁बना	-245
▁दिया	-246
नों	-247
▁क्ष	-248
▁परि	-249
▁2	-250
क़	-251
▁वर्	-252
योग	-253
त्त	-254
▁जाए	-255
▁बह	-256
लाह	-257
ंत्र	-258
ुत	-259
▁कह	-260
▁भारत	-261
धार	-262
▁मा	-263
▁फिर	-264
जी	-265
ये	-266
ाद	-267
िए	-268
▁राष्ट	-269
▁तर	-270
▁अल्	-271
▁सि	-272
▁कार्य	-273
क्	-274
▁ये	-275
रण	-276
▁मैं	-277
्ञ	-278
ुन	-279
▁अव	-280
▁कहा	-281
क्र	-282
▁स्थ	-283
▁जाता	-284
बंध	-285
्छ	-286
▁रहे	-287
▁उसके	-288
क्ति	-289
▁क्या	-290
फ़	-291
▁"	-292
▁रख	-293
▁इन	-294
▁सब	-295
▁ई	-296
ूर	-297
ष्	-298
▁करना	-299
▁अल्लाह	-300
▁ज़	-301
ड़ा	-302
नि	-303
▁ख़ुदा	-304
▁अपनी	-305
▁थी	-306
द्य	-307
▁सर	-308
ंच	-309
ानी	-310
ब्	-311
जा	-312
न्न	-313
▁फ़	-314
▁मह	-315
च्छ	-316
त्य	-317
र्ण	-318
▁जी	-319
स्थ	-320
▁बात	-321
▁हुए	-322
मी	-323
्यों	-324
दी	-325
पर	-326
▁सू	-327
▁विक	-328
▁उन्हें	-329
▁करता	-330
▁सी	-331
्रे	-332
▁होता	-333
िन	-334
वाल	-335
श्च	-336
▁क़	-337
ेत्र	-338
▁ओ	-339
ोंने	-340
▁रहा	-341
ड़े	-342
▁सकता	-343
कृ	-344
िका	-345
▁उसे	-346
ाइ	-347
ाप्त	-348
चार	-349
▁हि	-350
▁दी	-351
▁बी	-352
र्थ	-353
▁जान	-354
बर	-355
च्च	-356
▁गु	-357
मे	-358
वर्	-359
ूस	-360
▁क्षेत्र	-361
▁मान	-362
▁देख	-363
टा	-364
▁बहुत	-365
▁समय	-366
▁राष्ट्र	-367
ड़ी	-368
ज्ञ	-369
▁मि	-370
दान	-371
पू	-372
हर	-373
▁पु	-374
▁जै	-375
र्म	-376
▁बाद	-377
भि	-378
ोल	-379
▁पै	-380
शन	-381
वन	-382
▁आय	-383
ियम	-384
कों	-385
टी	-386
पति	-387
वे	-388
▁तरह	-389
▁सह	-390
▁बे	-391
▁वाले	-392
▁उन्होंने	-393
▁हुआ	-394
▁काम	-395
▁पास	-396
वी	-397
▁देश	-398
▁पहले	-399
▁अंत	-400
ोक	-401
प्र	-402
▁हमने	-403
ेष	-404
चना	-405
▁उत्	-406
स्था	-407
्रीय	-408
▁ना	-409
▁होगा	-410
▁जिन	-411
ुल	-412
▁उनकी	-413
क्षा	-414
▁यदि	-415
▁तुम्हारे	-416
ौर	-417
▁गई	-418
झे	-419
▁बि	-420
▁गए	-421
ख़	-422
▁प्राप्त	-423
्रा	-424
धान	-425
▁सरकार	-426
▁अन्य	-427
▁संबंध	-428
▁दिन	-429
▁होने	-430
▁ओर	-431
▁हू	-432
न्त	-433
▁वर्ष	-434
▁पी	-435
▁सम्	-436
धि	-437
यों	-438
▁सभी	-439
▁कम	-440
एँ	-441
▁छो	-442
▁विश्व	-443
हां	-444
▁चु	-445
▁19	-446
▁ऐसे	-447
▁करो	-448
िक्ष	-449
00	-450
▁हमारे	-451
गत	-452
लि	-453
▁राष्ट्रपति	-454
स्ता	-455
करण	-456
वं	-457
▁नाम	-458
▁प्रा	-459
दार	-460
▁झ	-461
▁निक	-462
श्य	-463
▁प्रकार	-464
▁बद	-465
ंक	-466
▁सकते	-467
एं	-468
टे	-469
▁साम	-470
▁ता	-471
भाव	-472
▁चाहिए	-473
सर	-474
िश	-475
ीय	-476
तीय	-477
▁s	-478
▁मिल	-479
▁इसके	-480
ग्र	-481
▁बु	-482
▁ऊ	-483
तर	-484
▁बढ़	-485
स्ट	-486
वर	-487
्स	-488
▁किए	-489
िप	-490
▁उसकी	-491
चा	-492
▁हर	-493
त्व	-494
▁जाने	-495
▁होती	-496
बा	-497
हाँ	-498
ंप	-499
जन	-500
▁अच्छ	-501
शा	-502
ोजना	-503
तिक	-504
ूम	-505
दर्	-506
▁ची	-507
▁नी	-508
▁'	-509
▁दूस	-510
▁रस	-511
माण	-512
▁ईमान	-513
रो	-514
▁ठ	-515
शी	-516
▁अगर	-517
▁करे	-518
पूर्ण	-519
यी	-520
बी	-521
मत	-522
िति	-523
▁ऐसा	-524
▁एवं	-525
▁हों	-526
गार	-527
ास्त	-528
▁राज्य	-529
द्योग	-530
▁समझ	-531
▁पहु	-532
▁कारण	-533
▁विकास	-534
सार	-535
पाद	-536
▁अब	-537
▁व्यक्ति	-538
▁लग	-539
▁भारतीय	-540
ची	-541
ात	-542
▁कृ	-543
्यू	-544
▁मो	-545
ेंगे	-546
ध्य	-547
▁मुझे	-548
वल	-549
त्म	-550
▁रसूल	-551
▁हुई	-552
ाली	-553
▁(_	-554
▁हा	-555
ुक्त	-556
ाइल	-557
द्र	-558
▁स्त	-559
वार	-560
टर	-561
ेज	-562
▁जन	-563
किन	-564
▁पूर्व	-565
धा	-566
यन	-567
▁व्या	-568
01	-569
ष्ठ	-570
ेल	-571
▁लगा	-572
ज़ा	-573
मु	-574
▁मूल	-575
तन	-576
▁दु	-577
▁क्यों	-578
▁उसने	-579
पी	-580
▁लेकिन	-581
▁दिखा	-582
▁लिया	-583
▁बन	-584
क्रम	-585
▁वा	-586
तः	-587
▁दोनों	-588
▁जाती	-589
on	-590
िम	-591
▁प्रश	-592
▁तुम्हें	-593
लों	-594
▁मौ	-595
▁सद	-596
▁क्र	-597
दे	-598
ोर	-599
▁वै	-600
लय	-601
▁अस	-602
▁अपना	-603
ाला	-604
▁उपयोग	-605
▁ऐसी	-606
वाद	-607
लग	-608
▁खा	-609
्ड	-610
▁आव	-611
▁जीवन	-612
▁विशेष	-613
▁चल	-614
▁होते	-615
▁3	-616
▁अभि	-617
हाय	-618
चे	-619
▁à	-620
▁ग्र	-621
▁प्रदान	-622
िंग	-623
धिक	-624
तों	-625
▁बारे	-626
▁रही	-627
▁बीच	-628
▁ढ	-629
▁बै	-630
व्य	-631
▁रु	-632
▁वाला	-633
▁मुख	-634
▁मन	-635
कारी	-636
▁बार	-637
फल	-638
▁भाग	-639
▁यु	-640
▁उत्त	-641
।"	-642
▁समा	-643
चित	-644
काश	-645
▁खु	-646
▁श्री	-647
▁शिक्ष	-648
me	-649
▁निय	-650
▁जैसे	-651
ेक	-652
▁सहाय	-653
▁वास्त	-654
▁स्था	-655
▁उसका	-656
ंभ	-657
▁ऑ	-658
तना	-659
▁आधार	-660
ठा	-661
ख्या	-662
डी	-663
िस	-664
वेश	-665
▁आज	-666
▁सेवा	-667
ti	-668
षण	-669
िला	-670
▁कै	-671
▁न्या	-672
कता	-673
▁जाएगा	-674
▁देने	-675
्ल	-676
हित	-677
षा	-678
▁केवल	-679
▁चीज़	-680
..	-681
धन	-682
▁उनका	-683
▁दृ	-684
▁गा	-685
▁माल	-686
ल्प	-687
▁हमें	-688
▁प्रयोग	-689
▁मेरे	-690
ून	-691
▁रब	-692
ग़	-693
ार्थ	-694
▁आवश्य	-695
▁सो	-696
▁जिसमें	-697
ूद	-698
ज्ञान	-699
क्षण	-700
▁हूँ	-701
▁दर	-702
▁बो	-703
▁वही	-704
▁विचार	-705
▁सर्व	-706
रिक	-707
▁निश्च	-708
▁मार्	-709
▁स्थान	-710
ियां	-711
णी	-712
▁ताकि	-713
र्य	-714
▁स्प	-715
▁पैदा	-716
ित्र	-717
▁मै	-718
पित	-719
ुट	-720
▁वाली	-721
▁प्रत्य	-722
्न	-723
न्तु	-724
▁n	-725
▁सबसे	-726
▁इसे	-727
in	-728
▁बड़ा	-729
▁उसी	-730
िता	-731
रों	-732
▁जाना	-733
ंस	-734
त्ता	-735
▁निर्धार	-736
िनियम	-737
यास	-738
▁माम	-739
▁हमारी	-740
तु	-741
▁अथ	-742
▁विष	-743
▁पार	-744
लब्	-745
▁अधिनियम	-746
र्क	-747
र्ष	-748
▁रो	-749
▁धारा	-750
हार	-751
▁देता	-752
▁तब	-753
▁जाते	-754
▁अधिकार	-755
▁शु	-756
▁इसमें	-757
▁दा	-758
ेर	-759
▁राष्ट्रीय	-760
▁आर	-761
लिए	-762
ूत	-763
▁कंप	-764
भाग	-765
▁आस	-766
▁डि	-767
▁उपलब्	-768
▁योजना	-769
▁उत्पाद	-770
ियाँ	-771
ब्द	-772
पा	-773
▁जिसे	-774
▁व्यव	-775
ुनिया	-776
▁बस	-777
▁लिख	-778
▁अथवा	-779
द्योगिक	-780
an	-781
▁हे	-782
बे	-783
▁संदेश	-784
▁पश्च	-785
▁फ़ाइल	-786
▁सामान	-787
कृत	-788
ूह	-789
ताओं	-790
▁परवर	-791
वरण	-792
▁बल्	-793
▁शाम	-794
▁उससे	-795
्यान	-796
ंज	-797
दिगार	-798
मिक	-799
▁शुर	-800
▁सूचना	-801
▁क्योंकि	-802
▁दर्	-803
वान	-804
▁उनसे	-805
सं	-806
▁परवरदिगार	-807
भव	-808
क्रिया	-809
▁मार्ग	-810
▁ज्ञ	-811
▁पुर	-812
काल	-813
▁महत्व	-814
िट	-815
▁तै	-816
▁स्ट	-817
त्या	-818
tion	-819
श्व	-820
▁सकती	-821
▁लो	-822
▁बैं	-823
त्रा	-824
▁दौर	-825
धी	-826
▁संप	-827
▁मंत्र	-828
▁डाल	-829
▁शिक्षा	-830
डर	-831
▁करती	-832
▁अर्	-833
▁पहुँ	-834
▁व्याप	-835
यार	-836
▁उपलब्ध	-837
ुक	-838
▁मू	-839
ट्ट	-840
▁वृ	-841
कृति	-842
▁दूसरे	-843
▁मद	-844
▁स्थिति	-845
▁डा	-846
भिन्न	-847
ुष	-848
▁लोक	-849
▁योग	-850
▁इसलिए	-851
▁कें	-852
ंति	-853
▁जर	-854
ंजी	-855
▁संग	-856
▁बच्च	-857
▁पुन	-858
▁जिन्ह	-859
▁सहायता	-860
ोट	-861
युक्त	-862
▁छोड़	-863
नेवाल	-864
▁प्रभाव	-865
er	-866
▁उच्च	-867
▁होना	-868
ेद	-869
ंश	-870
तान	-871
▁बड़ी	-872
▁हाथ	-873
▁महा	-874
ष्टि	-875
▁जु	-876
▁वित	-877
▁उद्	-878
▁उनमें	-879
न्द्र	-880
▁अर्थ	-881
ेट	-882
▁हूं	-883
▁होगी	-884
इन	-885
क्ट	-886
ताब	-887
एस	-888
▁कभी	-889
स्तु	-890
ोप	-891
▁मेरी	-892
वाह	-893
...	-894
यं	-895
▁शामिल	-896
▁कई	-897
▁अधीन	-898
▁सके	-899
▁प्रण	-900
▁विभिन्न	-901
▁स्वा	-902
▁आया	-903
ूट	-904
र्ट	-905
्यालय	-906
▁अति	-907
ame	-908
ोह	-909
▁बल्कि	-910
ंट	-911
▁बता	-912
▁अंतर	-913
स्थान	-914
▁इससे	-915
▁दौरान	-916
▁हाल	-917
▁लिये	-918
हत	-919
▁कहते	-920
▁करके	-921
▁5	-922
▁सदस	-923
▁4	-924
तम	-925
▁किस	-926
त्मक	-927
▁आगे	-928
▁सुर	-929
▁यहाँ	-930
▁अनुस	-931
▁ब्र	-932
रूप	-933
ण्ड	-934
मुख	-935
ेम	-936
र्इ	-937
▁अनुसार	-938
▁पता	-939
कट	-940
▁दूर	-941
▁भाषा	-942
्ला	-943
▁बैठ	-944
▁कर्म	-945
▁अवसर	-946
▁जहां	-947
सल	-948
▁इसी	-949
▁भूम	-950
▁अंग	-951
▁विषय	-952
द्धि	-953
▁अभ	-954
ेह	-955
▁होंगे	-956
▁सूची	-957
▁शी	-958
▁तरफ	-959
▁ग़	-960
ासन	-961
ोजन	-962
ैन	-963
स्व	-964
▁उनको	-965
▁मुख्य	-966
▁t	-967
▁यही	-968
▁पड़	-969
▁(1	-970
▁पि	-971
दन	-972
फी	-973
▁अग	-974
शि	-975
▁याद	-976
ग्रह	-977
्म	-978
▁आई	-979
▁परिवर्	-980
▁लाभ	-981
▁सामने	-982
▁इसका	-983
pr	-984
यर	-985
जे	-986
▁शै	-987
▁जिसके	-988
मीन	-989
▁स्वी	-990
▁१	-991
▁सामान्य	-992
▁उठा	-993
▁प्रक्रिया	-994
▁पूरा	-995
ित्व	-996
और	-997
▁अनुम	-998
▁स्पष्ट	-999
▁करेगा	-1000
▁पूर्ण	-1001
▁देते	-1002
लो	-1003
कर्	-1004
▁चि	-1005
सम	-1006
▁शा	-1007
▁201	-1008
▁उसमें	-1009
▁200	-1010
▁‘	-1011
▁संबंधित	-1012
▁तैयार	-1013
▁ऋ	-1014
▁संख्या	-1015
ियो	-1016
▁पद	-1017
▁उत्तर	-1018
प्त	-1019
त्ति	-1020
▁चुन	-1021
▁संस्	-1022
▁घर	-1023
▁बाहर	-1024
▁जाएँ	-1025
▁बदल	-1026
es	-1027
▁अलग	-1028
▁जल	-1029
▁वास्तव	-1030
ंतु	-1031
▁निर्माण	-1032
जार	-1033
▁लगे	-1034
▁चाहते	-1035
▁बढ़ा	-1036
ज्य	-1037
▁प्रत्येक	-1038
सि	-1039
टना	-1040
हरा	-1041
▁भेज	-1042
लेख	-1043
तंत्र	-1044
्श	-1045
▁कान	-1046
▁आपको	-1047
▁पृ	-1048
▁कौ	-1049
ूँ	-1050
▁प्रौ	-1051
िये	-1052
ंचा	-1053
▁पत्र	-1054
ीक	-1055
▁त्र	-1056
▁नई	-1057
वास	-1058
हास	-1059
▁सुन	-1060
गम	-1061
▁रंग	-1062
्यादा	-1063
▁आद	-1064
▁पढ़	-1065
▁भर	-1066
▁अध्य	-1067
▁बनाने	-1068
▁तीन	-1069
▁अने	-1070
▁शब्द	-1071
पि	-1072
संद	-1073
र्या	-1074
▁बड़े	-1075
▁संर	-1076
▁अच्छा	-1077
ालन	-1078
▁पुस्त	-1079
▁जारी	-1080
आई	-1081
▁मौज	-1082
▁गुण	-1083
दर्श	-1084
ध्यम	-1085
छे	-1086
ोल्	-1087
▁कार्यक्रम	-1088
▁प्रार	-1089
▁नियम	-1090
▁किताब	-1091
ैर	-1092
▁पूरी	-1093
▁शुरू	-1094
▁शि	-1095
इट	-1096
▁प्रकाश	-1097
▁स्वयं	-1098
▁अत्य	-1099
▁तुम्हारी	-1100
▁आदि	-1101
▁शक्ति	-1102
बार	-1103
▁आपके	-1104
▁नीति	-1105
मंत्र	-1106
▁फै	-1107
▁प्रयास	-1108
al	-1109
▁प्रौद्योगिक	-1110
▁रखा	-1111
हम	-1112
▁रे	-1113
▁संस्था	-1114
ालय	-1115
दाय	-1116
▁पानी	-1117
▁चार	-1118
▁कॉ	-1119
ंब	-1120
टक	-1121
धे	-1122
▁ऊपर	-1123
ज़ाब	-1124
▁निश्चय	-1125
▁गये	-1126
ियोजना	-1127
टन	-1128
▁निर्धारित	-1129
पत्र	-1130
▁वस्तु	-1131
विद	-1132
▁मदद	-1133
शत	-1134
▁खुदा	-1135
म्प	-1136
▁ते	-1137
▁सौ	-1138
▁कल	-1139
▁ज्ञान	-1140
भार	-1141
▁परिण	-1142
हन	-1143
▁अनेक	-1144
▁परियोजना	-1145
▁मी	-1146
▁ली	-1147
▁तू	-1148
▁a	-1149
रती	-1150
स्थित	-1151
▁हेतु	-1152
▁मार	-1153
▁चाहता	-1154
ूं	-1155
▁सिवा	-1156
क्षित	-1157
▁जग	-1158
अप	-1159
▁गिर	-1160
▁दुनिया	-1161
ूरी	-1162
▁प्रधान	-1163
ेशक	-1164
्रो	-1165
▁वी	-1166
▁करा	-1167
▁धर्म	-1168
▁d	-1169
▁न्याया	-1170
▁गति	-1171
▁रुप	-1172
▁चला	-1173
▁बनाया	-1174
▁गयी	-1175
▁संघ	-1176
बन्	-1177
▁गो	-1178
▁महत्वपूर्ण	-1179
ृत	-1180
बाद	-1181
▁बैंक	-1182
▁उद्योग	-1183
▁स्तर	-1184
शील	-1185
▁करनेवाल	-1186
▁बन्द	-1187
▁आए	-1188
रु	-1189
र्ड	-1190
षि	-1191
▁वित्त	-1192
▁तुम्हारा	-1193
▁“	-1194
▁&	-1195
▁बेह	-1196
▁अन्त	-1197
▁जोड़	-1198
▁श्रे	-1199
▁स्क	-1200
पन	-1201
▁डर	-1202
▁प्रो	-1203
▁जिसने	-1204
▁डे	-1205
▁संस्थान	-1206
▁ध्यान	-1207
▁परिणाम	-1208
▁ज़र	-1209
▁भवन	-1210
▁करेंगे	-1211
▁मत	-1212
▁प्रमाण	-1213
▁विदेश	-1214
नीय	-1215
▁यहां	-1216
▁#	-1217
la	-1218
मित	-1219
▁देना	-1220
र्थिक	-1221
it	-1222
▁मैंने	-1223
▁बेशक	-1224
▁ठीक	-1225
▁बिना	-1226
▁देखा	-1227
▁समूह	-1228
तिहास	-1229
दिष्ट	-1230
लन	-1231
▁प्रबंध	-1232
▁नीचे	-1233
▁व्यक्त	-1234
▁प्रतिशत	-1235
निर्	-1236
ोन	-1237
ल्क	-1238
ज़ी	-1239
▁पो	-1240
▁अंतर्	-1241
▁जमा	-1242
▁क्षेत्रों	-1243
▁आवश्यकता	-1244
▁समाज	-1245
▁प्रमुख	-1246
⁄4	-1247
▁शरी	-1248
▁प्रौद्योगिकी	-1249
द्व	-1250
ोल्डर	-1251
ंख	-1252
▁सफल	-1253
▁लेख	-1254
▁बर	-1255
or	-1256
▁ज्यादा	-1257
श्	-1258
▁जिसका	-1259
ामी	-1260
▁लेकर	-1261
▁झु	-1262
▁प्रय	-1263
▁हिस्	-1264
वादी	-1265
▁पीछे	-1266
जिक	-1267
गू	-1268
▁माध्यम	-1269
▁किन्तु	-1270
विधा	-1271
▁पाठ	-1272
स्या	-1273
इस	-1274
▁जबकि	-1275
▁ज़मीन	-1276
▁मगर	-1277
क्स	-1278
भग	-1279
▁सीमा	-1280
▁सार	-1281
▁विश्वास	-1282
ख्त	-1283
▁समर्थ	-1284
म्बर	-1285
▁6	-1286
▁धरती	-1287
धारा	-1288
▁समान	-1289
▁लौ	-1290
स्प	-1291
▁दिए	-1292
▁मज	-1293
ल्म	-1294
▁कंपनी	-1295
दारी	-1296
वृ	-1297
▁ती	-1298
▁विस्त	-1299
▁अतः	-1300
▁होकर	-1301
▁खंड	-1302
▁केंद्र	-1303
▁अमे	-1304
▁आर्थिक	-1305
शो	-1306
ल्ली	-1307
▁पिछ	-1308
र्ति	-1309
▁कठ	-1310
▁विंड	-1311
▁कृषि	-1312
ंह	-1313
▁मूल्य	-1314
्यता	-1315
▁बरा	-1316
स्क	-1317
▁अम	-1318
▁उद्देश	-1319
▁अज़ाब	-1320
▁इसकी	-1321
▁आदेश	-1322
▁भे	-1323
▁चाहे	-1324
ic	-1325
ियन	-1326
▁खोल	-1327
▁कला	-1328
▁लड़	-1329
▁सुधार	-1330
उस	-1331
▁इनकार	-1332
▁वाय	-1333
गें	-1334
▁रखते	-1335
▁रोग	-1336
201	-1337
▁जनता	-1338
मता	-1339
▁तुमसे	-1340
▁जानकारी	-1341
▁भाव	-1342
▁निम्	-1343
▁श्र	-1344
▁विद्य	-1345
▁उल्	-1346
▁लगभग	-1347
विध	-1348
▁पर्या	-1349
▁बदला	-1350
▁आने	-1351
▁स्वीकार	-1352
▁जैसा	-1353
▁छा	-1354
ानों	-1355
▁अभी	-1356
▁अवधि	-1357
▁सारे	-1358
▁हिन्द	-1359
णा	-1360
▁काफी	-1361
ठन	-1362
बद्ध	-1363
▁चौ	-1364
▁रोक	-1365
44	-1366
्ले	-1367
▁समस्या	-1368
ेशन	-1369
▁निश	-1370
▁लागू	-1371
▁नियंत्र	-1372
र्फ	-1373
▁निकाल	-1374
▁मेरा	-1375
ॉल	-1376
▁साल	-1377
▁जानता	-1378
▁जगह	-1379
▁सहयोग	-1380
▁मिला	-1381
▁गण	-1382
र्च	-1383
▁वहां	-1384
ee	-1385
▁मंद	-1386
माजिक	-1387
▁पक्ष	-1388
▁तरी	-1389
▁गुना	-1390
▁सुविधा	-1391
▁अच्छे	-1392
▁k	-1393
▁विश्वविद	-1394
▁मानव	-1395
▁मध्य	-1396
▁वक्त	-1397
ूब	-1398
▁विभाग	-1399
▁क़ौ	-1400
▁ऋण	-1401
▁धन	-1402
उन	-1403
▁खोज	-1404
▁परिवर्तन	-1405
आर	-1406
▁विज्ञान	-1407
▁लक्ष	-1408
▁मामले	-1409
▁अच्छी	-1410
▁कोश	-1411
तें	-1412
▁क्रिया	-1413
▁फ़ोल्डर	-1414
▁सामाजिक	-1415
पुर	-1416
▁यू	-1417
चान	-1418
▁निकल	-1419
▁दें	-1420
▁जाएगी	-1421
▁प्रणाली	-1422
▁व्यापार	-1423
▁स्थापित	-1424
हरी	-1425
▁समाप्त	-1426
▁आम	-1427
▁अतिरिक	-1428
ृत्य	-1429
▁कुल	-1430
▁पं	-1431
डियो	-1432
▁इं	-1433
▁चयन	-1434
▁सभा	-1435
▁निम्न	-1436
▁आवश्यक	-1437
र्द	-1438
▁दक्ष	-1439
पाल	-1440
▁पहुंच	-1441
ht	-1442
▁दिल	-1443
▁फर	-1444
स्तुत	-1445
मंत्री	-1446
▁भु	-1447
▁कवि	-1448
¤3	-1449
¤3⁄4	-1450
▁घो	-1451
▁7	-1452
▁C	-1453
▁आध	-1454
▁आग	-1455
द्द	-1456
▁सिद्ध	-1457
▁वर्ग	-1458
▁यक़	-1459
▁जीव	-1460
मार	-1461
▁कहीं	-1462
▁जाओ	-1463
▁वेब	-1464
दर्शन	-1465
▁पूछ	-1466
तनी	-1467
ज़र	-1468
ंव	-1469
▁सुरक्षा	-1470
▁टे	-1471
▁उसको	-1472
▁जानते	-1473
▁बराबर	-1474
जि	-1475
▁”	-1476
न्म	-1477
चन	-1478
लत	-1479
राम	-1480
▁विवरण	-1481
तियों	-1482
दम	-1483
▁प्रती	-1484
चि	-1485
स्तान	-1486
▁कोर्इ	-1487
ान्त	-1488
हरण	-1489
जों	-1490
डा	-1491
ंदर	-1492
▁मर	-1493
▁जिससे	-1494
▁चे	-1495
▁18	-1496
▁स्थित	-1497
कु	-1498
▁रहने	-1499
र्स	-1500
▁टी	-1501
पना	-1502
िश्त	-1503
ंधान	-1504
एम	-1505
▁:	-1506
▁निर्ण	-1507
44;	-1508
▁#44;	-1509
धित	-1510
▁डी	-1511
▁अतिरिक्त	-1512
▁पे	-1513
बल	-1514
▁उदा	-1515
▁महिला	-1516
फा	-1517
▁रहते	-1518
▁देशों	-1519
▁क़ौम	-1520
बू	-1521
प्	-1522
▁अल	-1523
▁विन	-1524
▁नया	-1525
op	-1526
▁8	-1527
ीकरण	-1528
▁आकार	-1529
जर	-1530
▁नए	-1531
भर	-1532
▁चुका	-1533
▁सन्	-1534
▁चुके	-1535
▁सच्च	-1536
▁अंतर्गत	-1537
▁तुमने	-1538
मि	-1539
ेंट	-1540
▁कहने	-1541
कृतिक	-1542
▁लेने	-1543
▁कर्	-1544
▁संवि	-1545
डे	-1546
पन्न	-1547
▁पड़े	-1548
▁राम	-1549
वाई	-1550
▁सही	-1551
▁हिंद	-1552
▁उत्पादन	-1553
¥	-1554
▁संस	-1555
ष्ट्रीय	-1556
▁लाए	-1557
▁रखने	-1558
ेशा	-1559
▁जाये	-1560
▁अनुसंधान	-1561
ab	-1562
▁मंदिर	-1563
▁आकाश	-1564
▁ज़ि	-1565
वेदन	-1566
▁एन	-1567
▁तु	-1568
क्ता	-1569
▁यातना	-1570
▁0	-1571
▁अप्र	-1572
▁खेल	-1573
▁त्रुट	-1574
▁इन्	-1575
तार	-1576
ट्टी	-1577
▁नही	-1578
सित	-1579
िष्ट	-1580
बो	-1581
ग्री	-1582
रोध	-1583
तमान	-1584
▁उठ	-1585
पूर्व	-1586
▁बुरा	-1587
ंधी	-1588
▁%	-1589
▁उद्देश्य	-1590
ष्ण	-1591
en	-1592
▁महान	-1593
▁राशि	-1594
▁यात्रा	-1595
▁व्यवस्था	-1596
▁।	-1597
▁सां	-1598
▁माँ	-1599
क्षम	-1600
▁क्षमता	-1601
▁वालों	-1602
▁निवेश	-1603
▁S	-1604
▁बहु	-1605
▁भू	-1606
▁प्रदेश	-1607
▁पत्	-1608
▁पृष्ठ	-1609
▁निस्	-1610
हित्य	-1611
▁विधि	-1612
▁बचा	-1613
▁बाल	-1614
ठला	-1615
ज्	-1616
स्थ्य	-1617
▁परी	-1618
▁उपधारा	-1619
▁जिन्हें	-1620
▁-	-1621
▁एस	-1622
कर्ता	-1623
▁सदस्य	-1624
▁निष्	-1625
▁परन्तु	-1626
▁संपर्क	-1627
▁अधिकारी	-1628
▁''	-1629
▁प्रारंभ	-1630
ot	-1631
▁रि	-1632
▁मनुष	-1633
▁समु	-1634
ूरत	-1635
▁राह	-1636
▁मूसा	-1637
▁वर्षों	-1638
▁वर्तमान	-1639
क्म	-1640
ोस	-1641
▁बनाए	-1642
ोर्ट	-1643
त्मा	-1644
▁विशिष्ट	-1645
षित	-1646
▁युद्ध	-1647
श्र	-1648
▁इतिहास	-1649
▁सिर्फ	-1650
▁वाप	-1651
▁परिवार	-1652
ख़िर	-1653
▁स्वतंत्र	-1654
▁थीं	-1655
▁सत्य	-1656
▁आरंभ	-1657
यान	-1658
▁निर्देश	-1659
▁अर	-1660
▁कौन	-1661
दर	-1662
▁प्रस्तुत	-1663
धारण	-1664
▁वर्ण	-1665
▁दूसरी	-1666
▁तुमको	-1667
▁त्रुटि	-1668
▁न्याय	-1669
¤	-1670
¤°	-1671
▁_	-1672
▁न्यायालय	-1673
▁सका	-1674
gm	-1675
▁<	-1676
▁झुठला	-1677
▁वहाँ	-1678
▁साहित्य	-1679
ांत	-1680
थम	-1681
▁२	-1682
मिल	-1683
▁पेश	-1684
गल	-1685
▁हमारा	-1686
▁दृष्टि	-1687
जो	-1688
भू	-1689
गु	-1690
▁प्रशिक्ष	-1691
▁स्वास्थ्य	-1692
▁दिल्ली	-1693
रिका	-1694
▁चा	-1695
सलमान	-1696
▁हुक्म	-1697
जित	-1698
▁आन	-1699
▁kgm	-1700
▁शहर	-1701
▁शरीर	-1702
तक	-1703
le	-1704
जरा	-1705
▁शे	-1706
▁अपे	-1707
▁प्रधानमंत्री	-1708
ानीय	-1709
▁देगा	-1710
ar	-1711
▁थो	-1712
▁10	-1713
▁लाख	-1714
▁देखते	-1715
▁रात	-1716
▁वास्ते	-1717
▁दक्षि	-1718
▁बच्चों	-1719
▁जिनके	-1720
▁बेहतर	-1721
▁शिक	-1722
▁विश्वविद्यालय	-1723
▁चित्र	-1724
कम	-1725
▁तौर	-1726
ोजित	-1727
▁श्रेणी	-1728
▁आसमान	-1729
खित	-1730
नाथ	-1731
झा	-1732
▁निर	-1733
▁कैसे	-1734
लू	-1735
▁अंग्रे	-1736
ran	-1737
ंतिम	-1738
रि	-1739
at	-1740
निश्च	-1741
▁घटना	-1742
बत	-1743
▁अमेरिका	-1744
▁(2	-1745
Name	-1746
क्षर	-1747
्रिय	-1748
▁सम्बन्	-1749
▁एक्स	-1750
तने	-1751
▁संसा	-1752
वाब	-1753
▁भि	-1754
ैस	-1755
▁शीर्ष	-1756
▁हमेशा	-1757
▁निर्णय	-1758
ुओं	-1759
▁विकसित	-1760
▁जिन्होंने	-1761
▁स्थानीय	-1762
लाई	-1763
▁सेट	-1764
-1	-1765
▁तहत	-1766
तो	-1767
संदेह	-1768
▁भूमि	-1769
▁उदाहरण	-1770
▁name	-1771
▁नौ	-1772
),	-1773
▁काल	-1774
ड़ों	-1775
▁प्रस्ता	-1776
▁रू	-1777
▁प्रस	-1778
ज्ञा	-1779
▁बंद	-1780
▁मिले	-1781
शिया	-1782
▁हाला	-1783
▁सर्	-1784
▁दया	-1785
▁हक़	-1786
रीब	-1787
▁अला	-1788
▁निर्धारण	-1789
▁विदेशी	-1790
शल	-1791
▁अनि	-1792
▁भेजा	-1793
▁बंग	-1794
मन	-1795
गति	-1796
▁प्रेम	-1797
ज़िल	-1798
▁दस्ता	-1799
▁अंतिम	-1800
▁बल	-1801
ष्य	-1802
▁मौजूद	-1803
▁A	-1804
▁चिक	-1805
▁अनुभव	-1806
्याल	-1807
र्जा	-1808
साय	-1809
▁उन्	-1810
ंगा	-1811
▁पक	-1812
▁परंतु	-1813
▁छोटे	-1814
▁प्रस्ताव	-1815
▁रचना	-1816
▁सार्व	-1817
▁निश्चित	-1818
वासी	-1819
▁प्रवेश	-1820
▁संच	-1821
000	-1822
▁लगता	-1823
▁भूमिका	-1824
च्छा	-1825
▁	-1826
ा	-1827
क	-1828
र	-1829
े	-1830
्	-1831
न	-1832
ि	-1833
स	-1834
त	-1835
ह	-1836
ं	-1837
ी	-1838
म	-1839
ो	-1840
य	-1841
प	-1842
ल	-1843
व	-1844
द	-1845
ज	-1846
ु	-1847
ग	-1848
ब	-1849
ै	-1850
अ	-1851
श	-1852
ए	-1853
उ	-1854
च	-1855
़	-1856
भ	-1857
ू	-1858
।	-1859
ट	-1860
औ	-1861
,	-1862
ध	-1863
थ	-1864
ख	-1865
ष	-1866
आ	-1867
ड	-1868
इ	-1869
ण	-1870
फ	-1871
(	-1872
)	-1873
.	-1874
ई	-1875
-	-1876
छ	-1877
ँ	-1878
1	-1879
ृ	-1880
ौ	-1881
0	-1882
ओ	-1883
ठ	-1884
e	-1885
2	-1886
ऐ	-1887
a	-1888
घ	-1889
झ	-1890
i	-1891
à	-1892
t	-1893
ढ	-1894
n	-1895
"	-1896
o	-1897
ः	-1898
ॉ	-1899
s	-1900
¤	-1901
4	-1902
r	-1903
9	-1904
3	-1905
/	-1906
5	-1907
'	-1908
ञ	-1909
l	-1910
?	-1911
m	-1912
;	-1913
%	-1914
8	-1915
:	-1916
6	-1917
ऊ	-1918
p	-1919
7	-1920
d	-1921
h	-1922
c	-1923
_	-1924
‍	-1925
u	-1926
!	-1927
b	-1928
g	-1929
¥	-1930
ऋ	-1931
ऑ	-1932
C	-1933
y	-1934
S	-1935
A	-1936
०	-1937
१	-1938
N	-1939
k	-1940
I	-1941
f	-1942
w	-1943
T	-1944
M	-1945
#	-1946
‘	-1947
”	-1948
R	-1949
P	-1950
E	-1951
’	-1952
v	-1953
D	-1954
L	-1955
२	-1956
>	-1957
O	-1958
&	-1959
“	-1960
⁄	-1961
x	-1962
९	-1963
F	-1964
	-1965
B	-1966
–	-1967
°	-1968
<	-1969
U	-1970
	-1971
	-1972
५	-1973
G	-1974
३	-1975
८	-1976
H	-1977
@	-1978
	-1979
६	-1980
४	-1981
{	-1982
}	-1983
७	-1984
̧	-1985
j	-1986
]	-1987
¿	-1988
̈	-1989
\	-1990
ॅ	-1991
[	-1992
V	-1993
ङ	-1994
W	-1995
Y	-1996
