<pad>	0
</s>	0
<unk>	0
▁p	-0
ti	-1
ai	-2
ri	-3
os	-4
▁k	-5
▁s	-6
in	-7
au	-8
as	-9
ar	-10
▁t	-11
ir	-12
al	-13
▁n	-14
is	-15
im	-16
an	-17
en	-18
▁d	-19
am	-20
us	-21
▁v	-22
▁ir	-23
at	-24
ei	-25
ad	-26
▁b	-27
om	-28
ij	-29
▁m	-30
es	-31
ro	-32
ių	-33
on	-34
ės	-35
ek	-36
tin	-37
▁g	-38
er	-39
oj	-40
uri	-41
li	-42
▁š	-43
ra	-44
▁su	-45
▁kad	-46
▁j	-47
▁į	-48
eik	-49
▁pa	-50
▁E	-51
tų	-52
▁r	-53
tik	-54
či	-55
iš	-56
yb	-57
▁pri	-58
aus	-59
▁ne	-60
▁a	-61
st	-62
em	-63
▁l	-64
um	-65
uo	-66
ėl	-67
uro	-68
av	-69
▁T	-70
▁pas	-71
et	-72
▁at	-73
rin	-74
▁iš	-75
▁P	-76
▁kuri	-77
▁tai	-78
urop	-79
ijos	-80
ki	-81
▁Europ	-82
or	-83
ta	-84
arb	-85
aug	-86
to	-87
ant	-88
▁K	-89
ur	-90
▁ši	-91
▁Europos	-92
ži	-93
▁bū	-94
ėj	-95
end	-96
ais	-97
el	-98
▁y	-99
imo	-100
▁ž	-101
id	-102
▁ap	-103
▁vis	-104
eis	-105
omis	-106
▁dėl	-107
yv	-108
▁u	-109
ali	-110
▁pat	-111
gi	-112
▁pr	-113
▁tik	-114
▁po	-115
▁už	-116
▁kai	-117
ien	-118
ink	-119
ym	-120
▁pro	-121
ab	-122
eš	-123
min	-124
▁yra	-125
▁to	-126
oje	-127
▁S	-128
yti	-129
ėm	-130
▁-	-131
cij	-132
usi	-133
ok	-134
uos	-135
ak	-136
un	-137
aik	-138
ie	-139
imą	-140
si	-141
ent	-142
▁re	-143
čiau	-144
iek	-145
▁val	-146
▁in	-147
imas	-148
▁teis	-149
io	-150
▁gal	-151
ui	-152
▁B	-153
pr	-154
▁sk	-155
yk	-156
ama	-157
ia	-158
tr	-159
▁pir	-160
▁par	-161
▁kl	-162
▁A	-163
▁sv	-164
▁M	-165
▁f	-166
aud	-167
▁pad	-168
tu	-169
▁turi	-170
ci	-171
ūs	-172
auj	-173
ame	-174
▁pag	-175
▁reik	-176
lam	-177
styb	-178
ing	-179
▁Komis	-180
ąj	-181
tas	-182
ung	-183
od	-184
vo	-185
cijos	-186
tis	-187
▁valstyb	-188
rim	-189
minink	-190
čių	-191
▁(	-192
ys	-193
te	-194
▁daug	-195
il	-196
▁kaip	-197
▁V	-198
▁klaus	-199
▁J	-200
ams	-201
kai	-202
je	-203
inti	-204
až	-205
▁sav	-206
▁bend	-207
▁veik	-208
ari	-209
ik	-210
▁lab	-211
▁taip	-212
toj	-213
▁per	-214
ime	-215
▁poli	-216
tar	-217
and	-218
ėtų	-219
ūr	-220
▁svarb	-221
aneš	-222
▁darb	-223
ąjung	-224
og	-225
▁nes	-226
▁šal	-227
tos	-228
ūsų	-229
ov	-230
▁tur	-231
eg	-232
▁N	-233
▁o	-234
▁Par	-235
iu	-236
sti	-237
uvo	-238
▁G	-239
▁pirminink	-240
▁Parlam	-241
▁kon	-242
iai	-243
▁D	-244
▁praneš	-245
▁Sąjung	-246
▁2	-247
alb	-248
tą	-249
ija	-250
▁ES	-251
▁būtų	-252
amas	-253
▁did	-254
▁būti	-255
yje	-256
▁Š	-257
▁sus	-258
ans	-259
▁ats	-260
ėti	-261
▁Tai	-262
▁nar	-263
ol	-264
▁pasi	-265
dži	-266
▁man	-267
tat	-268
▁nor	-269
eli	-270
esn	-271
jų	-272
uom	-273
oms	-274
▁susi	-275
▁labai	-276
ami	-277
▁ki	-278
mon	-279
▁savo	-280
yg	-281
▁ek	-282
me	-283
▁vien	-284
rink	-285
eng	-286
inių	-287
anči	-288
▁tar	-289
▁nep	-290
umo	-291
▁bendr	-292
ūl	-293
iau	-294
▁buvo	-295
▁siek	-296
sl	-297
ej	-298
uk	-299
▁apie	-300
ul	-301
▁dar	-302
ybos	-303
ems	-304
auk	-305
eig	-306
▁pak	-307
emon	-308
▁galim	-309
▁prie	-310
▁ar	-311
▁mūsų	-312
onom	-313
tim	-314
ėčiau	-315
ekt	-316
tink	-317
▁laik	-318
▁pl	-319
ačiau	-320
▁L	-321
inės	-322
▁met	-323
šk	-324
ank	-325
▁dal	-326
▁nuo	-327
▁įv	-328
▁nari	-329
▁20	-330
▁Komisijos	-331
▁R	-332
ties	-333
ios	-334
▁priemon	-335
ist	-336
▁tr	-337
▁politik	-338
▁rink	-339
ius	-340
▁ver	-341
ed	-342
ėms	-343
▁ekonom	-344
▁pirmininke	-345
▁spr	-346
oti	-347
▁Tar	-348
amos	-349
tai	-350
ori	-351
tum	-352
▁bet	-353
pa	-354
tikrin	-355
aid	-356
raš	-357
▁gali	-358
avimo	-359
ento	-360
inans	-361
uoti	-362
▁nauj	-363
▁kom	-364
one	-365
▁reikal	-366
▁tarp	-367
ili	-368
▁pasiūl	-369
ome	-370
žv	-371
vir	-372
isk	-373
ymo	-374
als	-375
▁veiks	-376
▁klausim	-377
men	-378
▁finans	-379
oma	-380
▁net	-381
acij	-382
yst	-383
ums	-384
orm	-385
odėl	-386
▁mok	-387
ter	-388
▁mes	-389
▁užtikrin	-390
▁bus	-391
▁įg	-392
jos	-393
▁gyv	-394
▁naud	-395
▁I	-396
▁gr	-397
▁proc	-398
▁sri	-399
ap	-400
▁pav	-401
▁1	-402
▁kar	-403
rind	-404
ang	-405
var	-406
▁jų	-407
▁aps	-408
▁sprend	-409
ag	-410
ėk	-411
ėjo	-412
▁str	-413
▁es	-414
▁žmon	-415
uose	-416
▁sud	-417
uoj	-418
▁jau	-419
▁kurios	-420
bl	-421
iaus	-422
▁nus	-423
▁kalb	-424
▁vyk	-425
abar	-426
eri	-427
▁są	-428
▁darbo	-429
▁kurie	-430
▁vi	-431
▁pateik	-432
lik	-433
▁valstybės	-434
▁tikr	-435
▁"	-436
▁var	-437
▁reikia	-438
▁Sąjungos	-439
tarim	-440
▁norėčiau	-441
▁pagrind	-442
▁kri	-443
▁Parlament	-444
▁ger	-445
▁sieki	-446
▁dir	-447
ektyv	-448
imų	-449
cial	-450
iškai	-451
▁skir	-452
▁taik	-453
▁turėtų	-454
ch	-455
tina	-456
eči	-457
▁e	-458
▁susij	-459
kl	-460
kur	-461
form	-462
tume	-463
oki	-464
blem	-465
▁prieš	-466
▁tiksl	-467
▁pirm	-468
oli	-469
stitu	-470
▁Parlamento	-471
▁disk	-472
erg	-473
tori	-474
uomen	-475
istem	-476
▁Todėl	-477
▁galimyb	-478
do	-479
▁paž	-480
▁problem	-481
tyje	-482
ūros	-483
▁turime	-484
tus	-485
▁saug	-486
yvend	-487
▁pili	-488
▁Man	-489
ini	-490
rak	-491
▁sistem	-492
▁Komisija	-493
gr	-494
kr	-495
eto	-496
ting	-497
▁kur	-498
▁maž	-499
it	-500
▁Ši	-501
▁rez	-502
▁sut	-503
▁pasiūlym	-504
tinės	-505
išk	-506
▁as	-507
▁ak	-508
▁keli	-509
▁jos	-510
▁neg	-511
ški	-512
žvel	-513
▁atv	-514
▁įgyvend	-515
▁i	-516
▁narių	-517
▁bals	-518
ėmis	-519
▁toki	-520
▁susitarim	-521
▁ypa	-522
▁dabar	-523
▁apsaug	-524
dž	-525
▁me	-526
imus	-527
veik	-528
▁atsi	-529
▁im	-530
energ	-531
iz	-532
enk	-533
▁teisės	-534
▁įsi	-535
▁Pir	-536
▁valstybių	-537
▁šį	-538
▁energ	-539
lyg	-540
ėje	-541
ocial	-542
▁pal	-543
▁priv	-544
ūk	-545
ėra	-546
▁ai	-547
▁prek	-548
▁ji	-549
▁neb	-550
▁institu	-551
▁ti	-552
▁atsak	-553
▁priim	-554
▁nustat	-555
tį	-556
yn	-557
tinių	-558
▁Tačiau	-559
▁regi	-560
umą	-561
▁pab	-562
▁metu	-563
inę	-564
ming	-565
▁žin	-566
▁mums	-567
▁šiuo	-568
▁pasau	-569
▁Pone	-570
dėl	-571
▁narės	-572
▁sek	-573
▁ypač	-574
rė	-575
aip	-576
atin	-577
▁tink	-578
▁200	-579
▁daugiau	-580
dami	-581
inio	-582
▁social	-583
ateg	-584
▁šios	-585
erb	-586
▁pon	-587
tau	-588
cija	-589
adarb	-590
du	-591
▁sp	-592
ikos	-593
link	-594
▁suteik	-595
▁reg	-596
erin	-597
▁užtikrinti	-598
ob	-599
amą	-600
acijos	-601
▁bendradarb	-602
▁min	-603
▁išs	-604
ykl	-605
▁tačiau	-606
.,	-607
▁Vis	-608
▁dem	-609
▁kuris	-610
▁pan	-611
ančių	-612
▁nėra	-613
tari	-614
ud	-615
trauk	-616
▁pasak	-617
▁pasiek	-618
imai	-619
▁Taryb	-620
imu	-621
aisv	-622
▁prad	-623
avimas	-624
aš	-625
iudž	-626
▁diskus	-627
▁tam	-628
▁veiksm	-629
▁siekiant	-630
▁nei	-631
▁region	-632
iją	-633
ėtume	-634
▁politikos	-635
kir	-636
inimo	-637
amų	-638
uotoj	-639
ose	-640
▁kriz	-641
ybės	-642
▁bei	-643
pras	-644
▁todėl	-645
aig	-646
virtin	-647
▁aplink	-648
▁nuom	-649
mog	-650
amai	-651
▁aš	-652
ojo	-653
ėmes	-654
▁strateg	-655
andien	-656
ciją	-657
▁sutar	-658
inink	-659
▁mano	-660
ęs	-661
riaus	-662
ėn	-663
▁laisv	-664
por	-665
ijoje	-666
▁padar	-667
▁be	-668
▁dėmes	-669
▁kiek	-670
▁svarbu	-671
par	-672
avimą	-673
▁poži	-674
▁te	-675
▁lyg	-676
▁demok	-677
▁šalių	-678
▁inform	-679
sn	-680
▁mo	-681
▁kas	-682
▁Taip	-683
cion	-684
▁vid	-685
▁bendradarbi	-686
▁visi	-687
▁biudž	-688
▁der	-689
liau	-690
▁atvej	-691
▁Be	-692
▁sum	-693
▁teisių	-694
tab	-695
▁ati	-696
▁gam	-697
▁sektori	-698
vark	-699
▁Gerb	-700
▁žmog	-701
▁li	-702
▁vy	-703
uosi	-704
▁manau	-705
▁atsižvel	-706
ėme	-707
cijų	-708
ečių	-709
▁C	-710
▁ab	-711
anti	-712
eid	-713
▁Nor	-714
▁šių	-715
▁komit	-716
ūri	-717
ųjų	-718
▁jis	-719
eitim	-720
▁frak	-721
uv	-722
▁dv	-723
▁plė	-724
arba	-725
▁visų	-726
▁sąlyg	-727
▁tarptau	-728
▁kol	-729
▁ly	-730
imui	-731
oliu	-732
▁ties	-733
▁viet	-734
▁kel	-735
iausia	-736
rov	-737
auti	-738
▁iki	-739
▁nuos	-740
▁didel	-741
inį	-742
▁na	-743
▁rem	-744
▁Pirminink	-745
rėž	-746
vien	-747
▁šio	-748
antis	-749
▁teik	-750
▁ekonomikos	-751
mės	-752
▁gyven	-753
rib	-754
▁si	-755
klaus	-756
▁veikl	-757
▁Parlamentas	-758
eip	-759
▁žem	-760
▁tais	-761
ep	-762
▁visiškai	-763
▁klausimas	-764
yrim	-765
▁direktyv	-766
aniz	-767
▁srityje	-768
▁tiek	-769
▁ko	-770
▁sudar	-771
yta	-772
dama	-773
▁mėn	-774
▁vad	-775
▁inter	-776
▁or	-777
giant	-778
▁galima	-779
ato	-780
▁naudoj	-781
ęsti	-782
▁auk	-783
▁padė	-784
▁progr	-785
ėg	-786
ūki	-787
▁raš	-788
▁sveik	-789
▁Tarybos	-790
tro	-791
ymą	-792
yse	-793
čia	-794
▁Mes	-795
▁kurį	-796
▁šiandien	-797
avo	-798
ausi	-799
▁metų	-800
▁žmogaus	-801
ež	-802
asi	-803
▁jie	-804
▁kurių	-805
rag	-806
▁prival	-807
osi	-808
ukt	-809
▁pask	-810
▁požiūri	-811
tek	-812
umas	-813
damas	-814
▁rezoliu	-815
▁kov	-816
▁vykd	-817
▁didži	-818
▁pasaul	-819
▁taisykl	-820
inga	-821
osios	-822
▁arba	-823
▁demokra	-824
▁šią	-825
cional	-826
▁kr	-827
inis	-828
▁suk	-829
▁šis	-830
▁pagal	-831
mo	-832
▁ką	-833
20	-834
▁dalyv	-835
cip	-836
▁st	-837
onos	-838
▁kok	-839
▁užd	-840
▁proj	-841
▁įmon	-842
▁vertin	-843
▁Manau	-844
▁skatin	-845
▁žmonių	-846
▁jo	-847
▁laiko	-848
▁pranešimą	-849
ausiai	-850
tip	-851
ncip	-852
▁pagalb	-853
▁princip	-854
▁el	-855
▁pap	-856
▁susijusi	-857
ub	-858
teb	-859
ymas	-860
zi	-861
▁pakeitim	-862
tn	-863
engti	-864
aist	-865
ijai	-866
▁nepri	-867
▁pasir	-868
▁priemonių	-869
gal	-870
inius	-871
▁plan	-872
kiai	-873
▁įst	-874
rijos	-875
▁patvirtin	-876
ici	-877
▁jei	-878
▁sun	-879
▁Sąjunga	-880
ystės	-881
▁įvai	-882
pareig	-883
▁raštu	-884
eigu	-885
▁prod	-886
▁Ž	-887
ada	-888
čio	-889
▁vald	-890
▁visuomen	-891
sp	-892
paž	-893
▁veiksmų	-894
uli	-895
ybę	-896
▁aiški	-897
▁nacional	-898
▁org	-899
tijos	-900
▁sukur	-901
sta	-902
▁atst	-903
▁tyrim	-904
▁ry	-905
▁pilieči	-906
ib	-907
▁fon	-908
▁prekybos	-909
▁įgyvendin	-910
atyv	-911
▁jog	-912
up	-913
▁atlik	-914
▁politin	-915
eisti	-916
▁pasakyti	-917
▁sumaž	-918
▁toliau	-919
aliz	-920
eidži	-921
▁dirb	-922
sid	-923
tij	-924
laug	-925
▁išl	-926
▁asmen	-927
ėš	-928
arin	-929
▁rinkos	-930
▁Pr	-931
onės	-932
▁būtina	-933
▁padėti	-934
ies	-935
▁klausimą	-936
eb	-937
▁proces	-938
vz	-939
giu	-940
usių	-941
▁šalim	-942
▁klim	-943
▁kuriuos	-944
žin	-945
tais	-946
▁tap	-947
▁konkur	-948
▁Norėčiau	-949
▁darbuotoj	-950
▁veiksming	-951
▁nu	-952
▁Pon	-953
▁energijos	-954
ves	-955
▁rei	-956
▁sak	-957
ijų	-958
elio	-959
▁ned	-960
▁galėtų	-961
ūp	-962
▁trans	-963
▁žemės	-964
rik	-965
▁Pri	-966
▁nori	-967
▁vyriaus	-968
yl	-969
isab	-970
kait	-971
▁padėk	-972
▁paslaug	-973
ens	-974
porto	-975
▁geri	-976
▁įvyk	-977
ina	-978
aišk	-979
▁įtrauk	-980
ytų	-981
▁201	-982
▁skai	-983
▁Lisab	-984
▁pranešėj	-985
olog	-986
▁lėš	-987
ančios	-988
▁kartą	-989
▁vaid	-990
▁varto	-991
▁susitik	-992
čiai	-993
▁atei	-994
▁nors	-995
lament	-996
▁produk	-997
▁klimato	-998
chn	-999
ult	-1000
ig	-1001
rij	-1002
vai	-1003
▁ūki	-1004
alies	-1005
▁Lisabonos	-1006
tiprin	-1007
▁kurią	-1008
pareigoj	-1009
▁organiz	-1010
▁apsaugos	-1011
▁klausimu	-1012
▁no	-1013
avau	-1014
omas	-1015
umat	-1016
▁aug	-1017
▁koki	-1018
▁pati	-1019
▁atstov	-1020
▁negali	-1021
▁pabrėž	-1022
lio	-1023
▁il	-1024
ultat	-1025
▁aukš	-1026
▁du	-1027
iuosi	-1028
▁rezultat	-1029
▁vartotoj	-1030
▁tok	-1031
▁moter	-1032
▁frakcijos	-1033
yz	-1034
▁ml	-1035
▁koleg	-1036
▁vardu	-1037
▁padėkoti	-1038
▁tarptautin	-1039
imt	-1040
ven	-1041
utin	-1042
▁jūsų	-1043
▁dėlto	-1044
▁kartu	-1045
▁padid	-1046
▁poveik	-1047
bū	-1048
žas	-1049
▁An	-1050
▁At	-1051
▁Aš	-1052
▁atveju	-1053
▁didesn	-1054
▁dėmesį	-1055
ima	-1056
tikos	-1057
▁Bend	-1058
▁sveikat	-1059
▁konkuren	-1060
ines	-1061
ingas	-1062
▁vyst	-1063
▁inves	-1064
▁ištek	-1065
▁techn	-1066
▁Ki	-1067
iais	-1068
acija	-1069
▁vaik	-1070
▁Šiuo	-1071
▁plėtr	-1072
▁kontro	-1073
rod	-1074
▁dalyk	-1075
žvil	-1076
▁pam	-1077
iniai	-1078
▁Kaip	-1079
▁atžvil	-1080
▁pritari	-1081
▁di	-1082
kiri	-1083
entoj	-1084
▁Europoje	-1085
▁padaryti	-1086
▁Pirmininke	-1087
▁išv	-1088
▁priežas	-1089
etą	-1090
etas	-1091
▁moksl	-1092
▁ponai	-1093
▁susid	-1094
▁gyventoj	-1095
▁politiką	-1096
fik	-1097
▁pozi	-1098
▁pram	-1099
▁ūkio	-1100
▁imtis	-1101
▁pranešime	-1102
▁inici	-1103
etin	-1104
liek	-1105
rodo	-1106
▁nel	-1107
▁Ponia	-1108
▁partn	-1109
▁kiekvien	-1110
▁priemones	-1111
▁mokes	-1112
▁numat	-1113
▁dr	-1114
▁žod	-1115
▁maist	-1116
▁iniciatyv	-1117
▁deryb	-1118
▁projek	-1119
▁svarbus	-1120
▁piliečių	-1121
▁atžvilgiu	-1122
▁sm	-1123
angi	-1124
▁Dėl	-1125
▁ant	-1126
▁pvz	-1127
▁aišk	-1128
▁pirma	-1129
▁biudžeto	-1130
ut	-1131
▁F	-1132
lob	-1133
man	-1134
▁rag	-1135
▁Turi	-1136
▁pateikti	-1137
lių	-1138
▁sant	-1139
▁konkr	-1140
eigi	-1141
▁tuo	-1142
▁vadov	-1143
lės	-1144
▁paj	-1145
▁kitų	-1146
▁praš	-1147
▁tvark	-1148
▁palaik	-1149
▁įsipareigoj	-1150
▁grei	-1151
▁nusi	-1152
▁darbą	-1153
▁įgyvendinti	-1154
▁H	-1155
mok	-1156
auja	-1157
▁čia	-1158
tarti	-1159
▁grup	-1160
▁pavyz	-1161
▁pažang	-1162
aciją	-1163
inimą	-1164
00	-1165
ažn	-1166
ild	-1167
tok	-1168
čius	-1169
▁mat	-1170
▁steb	-1171
▁vert	-1172
▁visiems	-1173
▁turėtume	-1174
DE	-1175
riz	-1176
aipsn	-1177
audži	-1178
kreip	-1179
▁siūl	-1180
▁duomen	-1181
▁aplinkos	-1182
▁Ar	-1183
omos	-1184
▁svar	-1185
▁Taryba	-1186
▁vienas	-1187
▁politika	-1188
iam	-1189
okum	-1190
▁rib	-1191
ingai	-1192
▁būtin	-1193
▁labiau	-1194
▁pareig	-1195
▁vidaus	-1196
ain	-1197
tel	-1198
▁pripaž	-1199
rį	-1200
▁vieš	-1201
▁dokum	-1202
▁negal	-1203
▁Europa	-1204
▁priimti	-1205
aži	-1206
iniu	-1207
tent	-1208
▁ner	-1209
▁kult	-1210
▁lygi	-1211
esi	-1212
▁įs	-1213
▁jūs	-1214
ėjimo	-1215
ėja	-1216
šti	-1217
▁neturi	-1218
▁svarst	-1219
▁įvairi	-1220
▁aiškiai	-1221
▁atitink	-1222
▁teigi	-1223
▁ponios	-1224
elb	-1225
tarp	-1226
▁asp	-1227
▁Jung	-1228
▁proced	-1229
▁O	-1230
▁U	-1231
▁gri	-1232
UR	-1233
▁ank	-1234
▁pra	-1235
erinti	-1236
▁saugumo	-1237
ino	-1238
omi	-1239
škia	-1240
▁Bals	-1241
▁niek	-1242
▁jeigu	-1243
▁galime	-1244
▁nuomon	-1245
▁prieži	-1246
▁tikrųjų	-1247
▁klausimus	-1248
▁ef	-1249
džio	-1250
▁past	-1251
▁galimybę	-1252
▁3	-1253
ąją	-1254
ūrin	-1255
▁nuol	-1256
▁netur	-1257
▁viena	-1258
▁lygmen	-1259
▁pasiekti	-1260
▁au	-1261
inaud	-1262
▁šioje	-1263
▁atliek	-1264
▁finansų	-1265
▁sukurti	-1266
▁institucijos	-1267
ūrim	-1268
▁energe	-1269
▁priori	-1270
▁tikrai	-1271
▁siekiama	-1272
vaiz	-1273
inimas	-1274
▁skiri	-1275
▁šiame	-1276
▁atskir	-1277
▁pastang	-1278
▁priklaus	-1279
ug	-1280
kal	-1281
▁Gr	-1282
ijas	-1283
sime	-1284
▁pui	-1285
▁sėk	-1286
▁dažn	-1287
▁fond	-1288
▁pras	-1289
▁sunk	-1290
▁interes	-1291
ūn	-1292
ūrų	-1293
ertin	-1294
▁pavoj	-1295
▁panaik	-1296
▁pabrėžti	-1297
▁nustatyti	-1298
aliai	-1299
žiaug	-1300
fer	-1301
ietų	-1302
isak	-1303
▁lai	-1304
▁por	-1305
▁pre	-1306
▁maisto	-1307
ras	-1308
▁kil	-1309
▁tek	-1310
▁abej	-1311
▁pači	-1312
▁vaidmen	-1313
▁sistemos	-1314
▁transporto	-1315
ūrą	-1316
▁Tur	-1317
▁šiuos	-1318
▁atkreip	-1319
alų	-1320
dar	-1321
rime	-1322
▁dien	-1323
▁gerb	-1324
▁sudė	-1325
▁turin	-1326
▁papild	-1327
▁komiteto	-1328
▁laikotarp	-1329
ytas	-1330
škai	-1331
▁EUR	-1332
▁nen	-1333
▁jums	-1334
▁moterų	-1335
▁Sąjungoje	-1336
▁sveikatos	-1337
yr	-1338
met	-1339
eišk	-1340
▁būd	-1341
ingsn	-1342
usijos	-1343
▁skaid	-1344
▁požiūriu	-1345
▁reikalav	-1346
▁ge	-1347
auki	-1348
▁Pirm	-1349
▁kain	-1350
▁komp	-1351
kaitant	-1352
▁reform	-1353
▁žingsn	-1354
▁nuostat	-1355
▁pirmininkauj	-1356
▁atsižvelgiant	-1357
oji	-1358
val	-1359
▁maži	-1360
▁pers	-1361
▁rek	-1362
acijų	-1363
andar	-1364
▁skur	-1365
▁energetikos	-1366
ėte	-1367
▁kit	-1368
ienio	-1369
▁krizės	-1370
▁kuriuo	-1371
▁nariai	-1372
▁pasaulyje	-1373
▁įskaitant	-1374
▁z	-1375
▁Val	-1376
tinai	-1377
ėjimą	-1378
aisant	-1379
▁valdži	-1380
▁šalies	-1381
▁žinoma	-1382
▁plėtros	-1383
▁standar	-1384
tyv	-1385
uje	-1386
timi	-1387
ėsime	-1388
▁srit	-1389
▁pagrį	-1390
▁savai	-1391
▁reguli	-1392
▁atsižvelg	-1393
▁reglament	-1394
▁valstybėms	-1395
▁valstybėse	-1396
ko	-1397
▁5	-1398
din	-1399
▁Iš	-1400
▁Su	-1401
▁šv	-1402
kivaiz	-1403
▁parod	-1404
▁tiesio	-1405
▁Tarybai	-1406
▁pasinaud	-1407
▁priemonės	-1408
▁op	-1409
▁mas	-1410
▁nuro	-1411
▁priėm	-1412
▁efektyv	-1413
▁technolog	-1414
tvark	-1415
▁tvir	-1416
▁griež	-1417
▁šalys	-1418
▁nebuvo	-1419
▁atsakom	-1420
su	-1421
▁c	-1422
gai	-1423
omų	-1424
yba	-1425
istr	-1426
▁mln	-1427
▁pos	-1428
▁šalims	-1429
▁pasiūlymą	-1430
▁vyriausyb	-1431
lo	-1432
oja	-1433
▁jį	-1434
▁Pas	-1435
cijas	-1436
▁kurio	-1437
▁ragin	-1438
▁visos	-1439
▁daugel	-1440
▁prisid	-1441
▁straipsn	-1442
gn	-1443
ate	-1444
▁jud	-1445
▁juos	-1446
▁remi	-1447
sižvel	-1448
▁šalyse	-1449
▁Parlamente	-1450
▁h	-1451
▁reiškia	-1452
▁žv	-1453
džiai	-1454
▁Gali	-1455
▁poreik	-1456
▁strukt	-1457
▁produktų	-1458
tra	-1459
▁ūk	-1460
dyti	-1461
▁nek	-1462
▁bank	-1463
▁pini	-1464
▁metais	-1465
▁nuomone	-1466
op	-1467
yp	-1468
ano	-1469
laud	-1470
▁Šis	-1471
ėjusi	-1472
▁apib	-1473
▁kitos	-1474
▁žmonės	-1475
▁pareišk	-1476
▁užs	-1477
ingumo	-1478
▁kurioje	-1479
▁srityse	-1480
▁paslaugų	-1481
▁diskusijos	-1482
umų	-1483
alog	-1484
▁lik	-1485
▁oro	-1486
▁tol	-1487
▁sien	-1488
▁padėtį	-1489
anc	-1490
ris	-1491
unk	-1492
uol	-1493
▁Bū	-1494
gent	-1495
ytos	-1496
▁mėnes	-1497
▁vieną	-1498
▁įstat	-1499
▁skaidr	-1500
▁kuriose	-1501
▁pasaulio	-1502
▁direktyvos	-1503
gų	-1504
ūm	-1505
▁4	-1506
▁br	-1507
▁neį	-1508
▁Mano	-1509
▁patik	-1510
▁versl	-1511
▁daugum	-1512
▁kuriame	-1513
str	-1514
▁ją	-1515
entų	-1516
taik	-1517
▁rim	-1518
▁Teis	-1519
▁inte	-1520
▁Dabar	-1521
racijos	-1522
▁papras	-1523
pl	-1524
ymu	-1525
ėjau	-1526
Europ	-1527
▁euro	-1528
▁stab	-1529
▁noriu	-1530
▁išlaid	-1531
▁svarbi	-1532
▁vietos	-1533
▁veiklos	-1534
▁metus	-1535
▁partner	-1536
▁dokument	-1537
▁pagalbos	-1538
▁pranešimas	-1539
už	-1540
ati	-1541
yki	-1542
ytis	-1543
agrin	-1544
antys	-1545
varst	-1546
▁form	-1547
▁Turime	-1548
▁pareng	-1549
▁išteklių	-1550
▁svarbiaus	-1551
▁taisyklių	-1552
▁visuomenės	-1553
",	-1554
".	-1555
▁Af	-1556
▁atas	-1557
▁lėšų	-1558
▁agent	-1559
▁jiems	-1560
▁teisę	-1561
▁šalis	-1562
▁dialog	-1563
▁kuriais	-1564
▁reikalų	-1565
▁spręsti	-1566
▁skatinti	-1567
▁Bendrijos	-1568
▁pranešimo	-1569
ėd	-1570
amo	-1571
šal	-1572
▁am	-1573
engi	-1574
rikos	-1575
tokol	-1576
ymosi	-1577
▁2009	-1578
▁Taigi	-1579
▁bendrov	-1580
ūz	-1581
abai	-1582
ingi	-1583
▁išr	-1584
▁spe	-1585
tinio	-1586
▁trūk	-1587
▁lygio	-1588
▁tiesų	-1589
▁pakank	-1590
▁skirti	-1591
▁suteikti	-1592
ver	-1593
ūra	-1594
▁al	-1595
asis	-1596
▁leis	-1597
olidar	-1598
▁narys	-1599
▁kurias	-1600
▁narėms	-1601
▁norime	-1602
▁pastar	-1603
▁įvertin	-1604
aj	-1605
ete	-1606
voti	-1607
ingos	-1608
ėjimas	-1609
▁jūros	-1610
▁narėse	-1611
▁tikslas	-1612
▁gyventojų	-1613
▁sumažinti	-1614
ac	-1615
▁Pag	-1616
▁prak	-1617
ančius	-1618
▁patir	-1619
▁investi	-1620
▁stiprin	-1621
▁ateityje	-1622
▁mokesčių	-1623
▁problema	-1624
▁piliečiams	-1625
▁institucijų	-1626
inta	-1627
liai	-1628
ėtoj	-1629
▁ras	-1630
usios	-1631
▁baig	-1632
▁teises	-1633
▁sistemą	-1634
▁vaidmenį	-1635
iama	-1636
irūp	-1637
▁Bal	-1638
▁kal	-1639
▁kuo	-1640
ešimt	-1641
omend	-1642
▁visas	-1643
▁žodži	-1644
▁bendrą	-1645
▁panaud	-1646
▁lygmeniu	-1647
▁pritariu	-1648
log	-1649
tinę	-1650
▁Jei	-1651
ancūz	-1652
▁Turk	-1653
▁gerai	-1654
▁prisi	-1655
▁priežiūros	-1656
▁susitarimas	-1657
ji	-1658
ump	-1659
engv	-1660
▁mir	-1661
▁Vien	-1662
▁aktų	-1663
▁jaun	-1664
▁šias	-1665
promis	-1666
pręsti	-1667
▁visus	-1668
▁būtent	-1669
▁geresn	-1670
▁vartotojų	-1671
▁susitarimo	-1672
ic	-1673
ąjį	-1674
▁19	-1675
▁ad	-1676
▁fak	-1677
▁išk	-1678
▁nuk	-1679
▁vėl	-1680
▁geriau	-1681
▁pažeid	-1682
▁įsitik	-1683
▁protokol	-1684
▁rekomend	-1685
re	-1686
▁id	-1687
▁is	-1688
akar	-1689
enka	-1690
▁Nep	-1691
▁šie	-1692
▁nary	-1693
▁neat	-1694
tiškai	-1695
▁kelia	-1696
▁akivaiz	-1697
▁padėtis	-1698
▁pagrindinių	-1699
▁rezoliucijos	-1700
yd	-1701
eja	-1702
mas	-1703
onių	-1704
▁Kai	-1705
▁ter	-1706
▁stat	-1707
▁mažiau	-1708
▁reikėtų	-1709
▁žmonėms	-1710
▁susijusių	-1711
ine	-1712
kti	-1713
inam	-1714
▁išš	-1715
▁mod	-1716
▁pus	-1717
▁sub	-1718
▁joki	-1719
▁skub	-1720
▁dalis	-1721
▁esame	-1722
▁kovos	-1723
▁suderin	-1724
▁tiesiog	-1725
▁kompromis	-1726
▁darbuotojų	-1727
eln	-1728
iant	-1729
naud	-1730
taip	-1731
uotų	-1732
▁esu	-1733
tarin	-1734
▁rodo	-1735
▁žvej	-1736
uosius	-1737
▁nusikal	-1738
▁sudėting	-1739
▁tinkamai	-1740
▁pirmiausia	-1741
mę	-1742
▁Kar	-1743
▁aut	-1744
▁gar	-1745
prend	-1746
▁perd	-1747
▁rinką	-1748
▁tokia	-1749
▁turės	-1750
▁kadangi	-1751
▁padarin	-1752
▁paramos	-1753
▁konkreči	-1754
▁problemų	-1755
▁strategijos	-1756
atų	-1757
oju	-1758
umu	-1759
uoja	-1760
alioj	-1761
inant	-1762
▁išsi	-1763
▁nurod	-1764
lamento	-1765
▁dažnai	-1766
▁intern	-1767
▁paramą	-1768
▁priorit	-1769
▁klausimų	-1770
▁tikiuosi	-1771
▁problemos	-1772
▁nepriklaus	-1773
▁sprendimus	-1774
FR	-1775
az	-1776
tak	-1777
uod	-1778
ėse	-1779
kite	-1780
▁buv	-1781
▁mil	-1782
▁prof	-1783
▁tikslų	-1784
▁Prancūz	-1785
▁konkurenc	-1786
▁sprendimo	-1787
▁Galiausiai	-1788
umui	-1789
▁Vid	-1790
▁viz	-1791
▁šia	-1792
▁2020	-1793
▁tari	-1794
▁gauti	-1795
▁krite	-1796
▁turėti	-1797
▁vartoj	-1798
▁poveikį	-1799
▁solidar	-1800
▁Balsavau	-1801
▁kuriomis	-1802
▁Komisijai	-1803
▁darbotvark	-1804
lig	-1805
yla	-1806
laus	-1807
rėži	-1808
▁Tik	-1809
▁ket	-1810
ėjome	-1811
▁Kalb	-1812
▁leid	-1813
▁gamin	-1814
▁treči	-1815
▁paaišk	-1816
▁savait	-1817
▁sistema	-1818
▁galimybes	-1819
▁kontrolės	-1820
ES	-1821
ani	-1822
eno	-1823
ito	-1824
ėta	-1825
▁EP	-1826
autų	-1827
iejų	-1828
ingą	-1829
istų	-1830
timo	-1831
▁Kon	-1832
cijai	-1833
▁visą	-1834
▁kodėl	-1835
▁tyrimų	-1836
▁sąlygas	-1837
▁valdymo	-1838
▁valdžios	-1839
▁privalome	-1840
▁klausimais	-1841
iki	-1842
ird	-1843
uot	-1844
tesn	-1845
eikti	-1846
ordin	-1847
prant	-1848
▁vand	-1849
▁aspek	-1850
▁esmės	-1851
▁privalo	-1852
aun	-1853
būt	-1854
ymų	-1855
lius	-1856
okių	-1857
▁band	-1858
▁pris	-1859
▁teri	-1860
▁europ	-1861
▁bendro	-1862
▁daryti	-1863
▁ataskai	-1864
▁ekonomik	-1865
▁pramonės	-1866
▁problemas	-1867
▁sustiprin	-1868
omą	-1869
ėsi	-1870
žiūr	-1871
▁dvi	-1872
▁sen	-1873
▁tem	-1874
▁tarn	-1875
▁atlikti	-1876
▁koordin	-1877
žiaugiuosi	-1878
▁sprendimą	-1879
vok	-1880
▁bi	-1881
džių	-1882
tišk	-1883
▁riz	-1884
▁ryš	-1885
▁sug	-1886
▁vyr	-1887
▁ilgal	-1888
▁pavad	-1889
anglaud	-1890
▁sąjung	-1891
▁vienod	-1892
▁įtraukti	-1893
mą	-1894
imi	-1895
▁Ai	-1896
▁įt	-1897
▁še	-1898
uota	-1899
▁šeš	-1900
tinis	-1901
▁Veng	-1902
▁kons	-1903
▁perk	-1904
ančias	-1905
▁Graik	-1906
▁aktyv	-1907
▁kelią	-1908
▁krizę	-1909
iausiai	-1910
▁neteis	-1911
▁dėmesio	-1912
▁Atsižvel	-1913
▁pasiūlymas	-1914
▁pasinaudoti	-1915
),	-1916
ėjų	-1917
tija	-1918
▁būs	-1919
▁pok	-1920
ausia	-1921
▁cent	-1922
▁reikš	-1923
▁aukšči	-1924
▁naujas	-1925
▁pramon	-1926
▁vyksta	-1927
▁parengti	-1928
▁pasirink	-1929
▁atkreipti	-1930
▁Į	-1931
irš	-1932
yko	-1933
▁de	-1934
arbo	-1935
▁išg	-1936
▁žuv	-1937
eikia	-1938
iamas	-1939
▁Tarp	-1940
▁glob	-1941
▁kiti	-1942
▁tero	-1943
▁kuria	-1944
▁sudaro	-1945
▁įmonių	-1946
▁paskelb	-1947
▁susirūp	-1948
▁sėkming	-1949
▁balsavau	-1950
▁susitarimą	-1951
▁informacijos	-1952
kri	-1953
orės	-1954
tuoj	-1955
ėjus	-1956
▁Bar	-1957
▁gai	-1958
ančią	-1959
rimin	-1960
▁grės	-1961
▁toks	-1962
anijos	-1963
▁pajėg	-1964
▁leidži	-1965
▁vertyb	-1966
▁visada	-1967
▁pradėti	-1968
▁6	-1969
siu	-1970
enkl	-1971
eten	-1972
okie	-1973
▁Tiki	-1974
▁laiv	-1975
cijoms	-1976
▁Jeigu	-1977
▁tekst	-1978
▁dirbti	-1979
▁sutink	-1980
▁tikslus	-1981
▁padėties	-1982
▁pasireng	-1983
erd	-1984
oso	-1985
▁mus	-1986
▁Žin	-1987
iniais	-1988
minist	-1989
uojant	-1990
▁klaid	-1991
▁naujų	-1992
▁nebus	-1993
▁trump	-1994
▁pagalbą	-1995
▁pagrįst	-1996
▁galėtume	-1997
▁gyvenimo	-1998
▁sprendži	-1999
▁padidinti	-2000
▁finansinių	-2001
▁pakankamai	-2002
▁sprendimas	-2003
ber	-2004
muo	-2005
▁Ir	-2006
iams	-2007
▁Vad	-2008
▁abi	-2009
▁jas	-2010
▁kli	-2011
▁zon	-2012
▁lank	-2013
▁nebū	-2014
▁reag	-2015
▁smur	-2016
cijoje	-2017
▁Labai	-2018
▁ketin	-2019
▁vietų	-2020
▁derybų	-2021
▁pradži	-2022
▁šalyje	-2023
▁ministr	-2024
▁projekt	-2025
▁užsienio	-2026
eda	-2027
ote	-2028
▁Ne	-2029
iems	-2030
uria	-2031
▁Kin	-2032
eglob	-2033
▁Mūsų	-2034
▁dalį	-2035
▁parem	-2036
▁vaikų	-2037
▁ženkl	-2038
▁patenk	-2039
▁siekti	-2040
▁stabil	-2041
▁atsisak	-2042
▁skirtum	-2043
▁piliečiai	-2044
▁vystymosi	-2045
alio	-2046
toti	-2047
▁dėk	-2048
▁žal	-2049
▁2008	-2050
▁itin	-2051
▁Vadov	-2052
▁ankst	-2053
▁nelai	-2054
▁nepak	-2055
▁palan	-2056
▁pastab	-2057
▁dauguma	-2058
▁regiono	-2059
▁pasiūlymų	-2060
▁sutarties	-2061
ron	-2062
tal	-2063
zid	-2064
šči	-2065
▁Tr	-2066
▁et	-2067
▁ra	-2068
▁tą	-2069
▁jėg	-2070
▁kryp	-2071
▁poky	-2072
anduol	-2073
▁Antra	-2074
▁fondo	-2075
▁metod	-2076
▁naują	-2077
▁bendra	-2078
▁kaitos	-2079
▁laikas	-2080
▁susijęs	-2081
▁taikyti	-2082
▁tvarkos	-2083
▁šalimis	-2084
▁administ	-2085
▁žingsnis	-2086
ininkystės	-2087
▁sektoriaus	-2088
▁rezoliuciją	-2089
AV	-2090
est	-2091
ias	-2092
ybą	-2093
▁ci	-2094
▁ta	-2095
abej	-2096
iame	-2097
▁Per	-2098
atori	-2099
ausio	-2100
▁Daug	-2101
▁pamin	-2102
▁išorės	-2103
▁vertus	-2104
▁prieglob	-2105
▁išspręsti	-2106
▁pasiūlymo	-2107
▁sektoriuje	-2108
▁Parlamentui	-2109
ejų	-2110
pro	-2111
žem	-2112
▁om	-2113
▁įd	-2114
▁išp	-2115
▁kor	-2116
alios	-2117
entas	-2118
esnis	-2119
sčiau	-2120
▁besi	-2121
▁kaim	-2122
▁mies	-2123
▁pali	-2124
▁įtak	-2125
▁žini	-2126
▁elekt	-2127
▁rasti	-2128
▁tinkl	-2129
▁keletą	-2130
▁konven	-2131
▁profes	-2132
▁veiklą	-2133
▁veikti	-2134
▁didžiul	-2135
▁duomenų	-2136
▁pabrėži	-2137
▁Sąjungai	-2138
▁diskrimin	-2139
PL	-2140
▁vė	-2141
▁Esu	-2142
▁elg	-2143
▁tas	-2144
▁dujų	-2145
▁plat	-2146
▁aprib	-2147
▁panaš	-2148
▁spaud	-2149
▁galbūt	-2150
▁nuolat	-2151
▁laisvės	-2152
▁rinkoje	-2153
anglaudos	-2154
▁laikytis	-2155
▁prioritet	-2156
▁priežasčių	-2157
000	-2158
iet	-2159
irb	-2160
▁10	-2161
egal	-2162
rint	-2163
▁atn	-2164
avimu	-2165
uotos	-2166
▁konf	-2167
▁šiam	-2168
▁išvad	-2169
▁nepas	-2170
▁Vadovų	-2171
▁papraš	-2172
▁ūkinink	-2173
▁gamintoj	-2174
▁sprendimų	-2175
▁diskusijas	-2176
pri	-2177
žių	-2178
apus	-2179
esti	-2180
vyst	-2181
ėtis	-2182
▁JAV	-2183
▁ang	-2184
▁inf	-2185
ausių	-2186
intas	-2187
▁Mums	-2188
▁jame	-2189
▁mote	-2190
▁prid	-2191
▁situ	-2192
▁atvir	-2193
▁išmet	-2194
▁Valsti	-2195
▁apibrėž	-2196
▁klausimo	-2197
▁kompeten	-2198
▁neturėtų	-2199
▁pritarti	-2200
▁skirting	-2201
▁finansavimo	-2202
▁Ap	-2203
obil	-2204
▁Bri	-2205
▁išd	-2206
▁tau	-2207
uotas	-2208
▁mech	-2209
▁nesu	-2210
▁tada	-2211
▁įman	-2212
eikšti	-2213
yriaus	-2214
▁jokių	-2215
▁lauki	-2216
▁milij	-2217
▁Praneš	-2218
▁naujov	-2219
▁pavyzd	-2220
▁nutrauk	-2221
▁aplinkyb	-2222
▁dabartin	-2223
▁pakeisti	-2224
▁pažeidži	-2225
▁poveikio	-2226
▁klausimai	-2227
▁programos	-2228
▁ekonominės	-2229
▁av	-2230
baig	-2231
iškų	-2232
uoju	-2233
▁Toki	-2234
▁kliū	-2235
iniams	-2236
▁integ	-2237
▁relig	-2238
▁remti	-2239
▁speci	-2240
▁dešimt	-2241
▁pabaig	-2242
▁susiję	-2243
anitarin	-2244
▁kokybės	-2245
▁branduol	-2246
▁greičiau	-2247
▁kriterij	-2248
▁mechaniz	-2249
▁mokslinių	-2250
▁nepaisant	-2251
▁administra	-2252
▁8	-2253
ins	-2254
yra	-2255
umun	-2256
▁Ame	-2257
▁Kad	-2258
esnės	-2259
tariu	-2260
▁2010	-2261
▁oper	-2262
▁pard	-2263
▁pobū	-2264
▁įrod	-2265
▁šiol	-2266
▁Vokie	-2267
▁įvykd	-2268
▁Europą	-2269
▁kovoti	-2270
▁matyti	-2271
▁kalbėti	-2272
▁pasitik	-2273
▁vertinu	-2274
▁strategiją	-2275
ūd	-2276
aliu	-2277
sčio	-2278
▁Bet	-2279
džiui	-2280
ojimo	-2281
torij	-2282
trukt	-2283
▁kita	-2284
▁truk	-2285
▁švie	-2286
▁persp	-2287
▁invest	-2288
▁saugos	-2289
▁apsauga	-2290
▁Tikiuosi	-2291
▁persvarst	-2292
▁strategija	-2293
▁svarbiausia	-2294
IT	-2295
rd	-2296
uz	-2297
nel	-2298
giai	-2299
ingų	-2300
ytoj	-2301
ūkst	-2302
▁000	-2303
▁Jis	-2304
▁Lib	-2305
▁hum	-2306
mokes	-2307
tinti	-2308
▁Nors	-2309
▁kitą	-2310
▁Sutar	-2311
▁autom	-2312
▁kaimyn	-2313
▁Tarptau	-2314
▁apsaugą	-2315
▁nariams	-2316
▁pasiraš	-2317
▁politinių	-2318
▁rezultatų	-2319
▁bendruomen	-2320
▁tarptautinės	-2321
ind	-2322
varb	-2323
ymus	-2324
▁Dar	-2325
▁rod	-2326
ančio	-2327
eikal	-2328
imais	-2329
▁neiš	-2330
▁visk	-2331
▁viso	-2332
acijas	-2333
imtumo	-2334
▁lengv	-2335
▁teisė	-2336
▁atrodo	-2337
▁teikti	-2338
▁sąlygos	-2339
▁anksčiau	-2340
▁partneri	-2341
▁pastangas	-2342
amus	-2343
eiti	-2344
erdv	-2345
abejo	-2346
eniai	-2347
tinas	-2348
ykius	-2349
▁Ital	-2350
▁kyla	-2351
▁mlrd	-2352
▁tvar	-2353
uojama	-2354
▁Rumun	-2355
▁padės	-2356
▁refer	-2357
▁išlaik	-2358
▁nagrin	-2359
▁naudos	-2360
▁paskir	-2361
▁pinigų	-2362
▁supras	-2363
▁bendros	-2364
▁kuriems	-2365
igracijos	-2366
▁nuomonės	-2367
▁pažangos	-2368
▁poziciją	-2369
▁protokolą	-2370
▁atsižvelgti	-2371
anų	-2372
inu	-2373
lov	-2374
tys	-2375
▁In	-2376
▁Šv	-2377
alių	-2378
ieji	-2379
▁Rūm	-2380
▁jam	-2381
aujin	-2382
ausią	-2383
esnio	-2384
inėje	-2385
tifik	-2386
▁būdu	-2387
▁erdv	-2388
▁kreip	-2389
▁kūrim	-2390
▁nerim	-2391
▁tokių	-2392
antiems	-2393
▁aspekt	-2394
▁žinome	-2395
▁žmones	-2396
▁Europai	-2397
▁derybos	-2398
▁vykdyti	-2399
▁negalime	-2400
▁apsaugoti	-2401
▁dalyvauti	-2402
▁galimybių	-2403
▁pagerinti	-2404
▁reikalauj	-2405
▁remiantis	-2406
▁taisykles	-2407
▁informacija	-2408
▁informaciją	-2409
▁demokratijos	-2410
▁prieglobsčio	-2411
ga	-2412
▁7	-2413
inč	-2414
isi	-2415
rių	-2416
▁kv	-2417
imės	-2418
inkl	-2419
tinį	-2420
▁gyn	-2421
feren	-2422
ojant	-2423
torin	-2424
tugal	-2425
▁tiks	-2426
▁atsir	-2427
▁esmin	-2428
▁kelių	-2429
▁beveik	-2430
▁įmonės	-2431
▁galutin	-2432
▁gamybos	-2433
▁ilgalaik	-2434
▁valstybes	-2435
▁perspektyv	-2436
▁sanglaudos	-2437
▁humanitarin	-2438
ekl	-2439
inei	-2440
iška	-2441
laik	-2442
▁Isp	-2443
▁del	-2444
▁jus	-2445
▁pot	-2446
▁rūp	-2447
intel	-2448
krain	-2449
▁apim	-2450
rindži	-2451
▁Kitas	-2452
▁kaita	-2453
▁medži	-2454
▁tapti	-2455
ortugal	-2456
▁asmenų	-2457
▁dalies	-2458
▁pritar	-2459
▁santyk	-2460
▁derybas	-2461
▁nuomonę	-2462
▁pasveik	-2463
▁pažangą	-2464
▁regionų	-2465
▁suprant	-2466
▁taikymo	-2467
▁balsuoti	-2468
▁Šiandien	-2469
▁balsavimo	-2470
▁diskusijų	-2471
▁finansinės	-2472
▁patvirtinti	-2473
▁įgyvendinimo	-2474
raf	-2475
ąsi	-2476
giau	-2477
▁nem	-2478
▁sur	-2479
amasi	-2480
uomet	-2481
▁link	-2482
ausias	-2483
▁aišku	-2484
▁kaimo	-2485
▁pasik	-2486
ančioms	-2487
valstyb	-2488
▁demokr	-2489
▁besivyst	-2490
▁direktyva	-2491
▁socialinės	-2492
▁susijusius	-2493
mu	-2494
žr	-2495
200	-2496
mių	-2497
▁an	-2498
▁ch	-2499
alon	-2500
▁užm	-2501
tines	-2502
▁blog	-2503
▁Šios	-2504
papras	-2505
▁liber	-2506
▁taigi	-2507
▁šiais	-2508
▁prezid	-2509
▁grindži	-2510
▁frakcija	-2511
▁Nepaisant	-2512
▁galimybės	-2513
▁veiksmingai	-2514
▁partnerystės	-2515
▁reikalavimus	-2516
).	-2517
mų	-2518
įž	-2519
esp	-2520
cien	-2521
enki	-2522
gail	-2523
imis	-2524
stat	-2525
tiją	-2526
ymui	-2527
yven	-2528
▁Rus	-2529
nelyg	-2530
▁laiką	-2531
▁mastu	-2532
▁naudo	-2533
▁nieko	-2534
▁turiu	-2535
▁užkir	-2536
▁leisti	-2537
▁nebūtų	-2538
▁pacien	-2539
▁tokios	-2540
▁aptarti	-2541
▁konflik	-2542
▁medžiag	-2543
▁paklaus	-2544
▁įgalioj	-2545
▁Komisiją	-2546
▁Portugal	-2547
▁komitete	-2548
▁konferen	-2549
▁direktyvą	-2550
▁struktūrin	-2551
▁priemonėmis	-2552
▁nacionalinių	-2553
ev	-2554
ni	-2555
eiv	-2556
ūrį	-2557
atas	-2558
fici	-2559
išką	-2560
rijų	-2561
▁ilg	-2562
▁uos	-2563
▁vai	-2564
žemio	-2565
▁Deja	-2566
▁bent	-2567
▁kred	-2568
▁nare	-2569
▁pone	-2570
▁visuo	-2571
Europos	-2572
▁parlam	-2573
▁visoms	-2574
yriausyb	-2575
▁dalykas	-2576
▁naudoti	-2577
▁požiūrį	-2578
▁sutartį	-2579
▁visapus	-2580
▁daugelio	-2581
▁daugelis	-2582
▁kultūros	-2583
▁partijos	-2584
▁užimtumo	-2585
▁įsitikinę	-2586
▁reglamento	-2587
▁pasveikinti	-2588
▁reguliavimo	-2589
ado	-2590
elež	-2591
imos	-2592
ėtas	-2593
aliau	-2594
esnių	-2595
inama	-2596
klaid	-2597
rovės	-2598
▁2007	-2599
▁amži	-2600
▁baus	-2601
▁nukr	-2602
▁pien	-2603
▁pusi	-2604
▁užsi	-2605
rijoje	-2606
▁neigi	-2607
▁pasek	-2608
▁Ukrain	-2609
▁atitik	-2610
▁iššūki	-2611
▁sustab	-2612
▁verslo	-2613
▁tariant	-2614
▁įmonėms	-2615
▁įvairių	-2616
▁sutartis	-2617
▁komitetas	-2618
▁daugiausia	-2619
▁galiausiai	-2620
ard	-2621
sak	-2622
tov	-2623
▁JT	-2624
ausv	-2625
idži	-2626
riai	-2627
umus	-2628
▁bio	-2629
▁eur	-2630
▁kam	-2631
▁rež	-2632
▁ten	-2633
inter	-2634
ykiai	-2635
▁Lenk	-2636
▁kito	-2637
▁puik	-2638
▁tarš	-2639
▁teig	-2640
▁įsig	-2641
tinius	-2642
▁kainų	-2643
▁nares	-2644
▁pažym	-2645
▁sugeb	-2646
▁Rusijos	-2647
▁atliekų	-2648
▁neabejo	-2649
▁paremti	-2650
▁svarbūs	-2651
iskusijos	-2652
▁Pritariu	-2653
▁paskatin	-2654
▁problemą	-2655
▁demokratų	-2656
▁vienintel	-2657
▁pripažinti	-2658
▁investicijų	-2659
eti	-2660
igr	-2661
iui	-2662
rės	-2663
tyn	-2664
▁įr	-2665
▁sti	-2666
ograf	-2667
▁joms	-2668
▁pens	-2669
alifik	-2670
▁apima	-2671
▁sąžin	-2672
▁užduo	-2673
▁Būtent	-2674
▁augimo	-2675
▁išsaug	-2676
▁kuriai	-2677
▁netink	-2678
▁parama	-2679
▁priver	-2680
▁sritis	-2681
▁veikla	-2682
▁Žinoma	-2683
▁Kalbant	-2684
▁kontrol	-2685
▁nepriim	-2686
▁pasisak	-2687
▁regione	-2688
▁savaitę	-2689
▁Amerikos	-2690
▁atvejais	-2691
▁globaliz	-2692
▁pareigas	-2693
▁pernelyg	-2694
▁sudaryti	-2695
▁žvejybos	-2696
▁Jungtinių	-2697
▁panaikinti	-2698
NL	-2699
ein	-2700
▁atk	-2701
▁eks	-2702
▁jai	-2703
▁juo	-2704
▁naš	-2705
▁pla	-2706
inėms	-2707
iršti	-2708
tuose	-2709
▁2011	-2710
▁Slov	-2711
▁pats	-2712
▁tapo	-2713
▁vais	-2714
obilių	-2715
tiniai	-2716
▁Pirma	-2717
▁rengi	-2718
▁sunki	-2719
▁sąraš	-2720
▁uždav	-2721
interes	-2722
▁norint	-2723
▁pačios	-2724
▁prasid	-2725
rastrukt	-2726
▁Afrikos	-2727
▁milijon	-2728
▁taikoma	-2729
▁nepakank	-2730
▁nuolatin	-2731
▁programą	-2732
▁sektorių	-2733
▁skaičius	-2734
▁supapras	-2735
▁suinteres	-2736
▁taisyklės	-2737
▁nusikaltim	-2738
▁socialinių	-2739
201	-2740
ytą	-2741
įst	-2742
▁Už	-2743
alis	-2744
daug	-2745
tras	-2746
ymai	-2747
▁civ	-2748
iškas	-2749
inėmis	-2750
ojimai	-2751
tingai	-2752
▁Prieš	-2753
▁komun	-2754
▁tenka	-2755
▁uždar	-2756
ausiojo	-2757
eležink	-2758
▁dalykų	-2759
▁kitaip	-2760
▁preven	-2761
▁turėjo	-2762
▁užbaig	-2763
▁didelis	-2764
▁kolegos	-2765
▁mirties	-2766
▁ratifik	-2767
▁skirtas	-2768
▁teroriz	-2769
▁vaidmuo	-2770
▁vidutin	-2771
▁įveikti	-2772
▁interesų	-2773
▁išvengti	-2774
▁negalima	-2775
▁veiksmus	-2776
▁sąlygomis	-2777
▁infrastrukt	-2778
▁organizacijos	-2779
mė	-2780
ulg	-2781
▁PP	-2782
▁Po	-2783
auju	-2784
elių	-2785
▁Net	-2786
▁ses	-2787
espub	-2788
ydama	-2789
ysime	-2790
▁gero	-2791
▁posė	-2792
▁virš	-2793
avimui	-2794
▁aktus	-2795
▁artim	-2796
▁tampa	-2797
▁Šiame	-2798
▁pasteb	-2799
▁siekia	-2800
▁skaiči	-2801
▁tikras	-2802
▁veiksn	-2803
▁rinkimų	-2804
▁prieštar	-2805
▁priorite	-2806
▁pusiausv	-2807
▁pavaduotoj	-2808
▁pirmininko	-2809
▁solidarumo	-2810
▁laikotarpiu	-2811
▁reikalingas	-2812
RO	-2813
amb	-2814
ana	-2815
eks	-2816
mes	-2817
▁12	-2818
▁Al	-2819
antų	-2820
arij	-2821
eliu	-2822
imti	-2823
raus	-2824
▁Jie	-2825
▁jūrų	-2826
Europa	-2827
kritai	-2828
ėkūros	-2829
▁biuro	-2830
▁ginkl	-2831
▁išmok	-2832
▁kitas	-2833
▁rinka	-2834
▁rizik	-2835
uržemio	-2836
▁baudži	-2837
▁kitais	-2838
▁lankst	-2839
▁žinias	-2840
▁Valstyb	-2841
▁europie	-2842
▁kalbėjo	-2843
▁puikiai	-2844
▁tvirtai	-2845
▁projektą	-2846
▁įtvirtin	-2847
▁palankiai	-2848
▁iniciatyva	-2849
▁pranešėjas	-2850
▁susirūpinimą	-2851
ūš	-2852
alo	-2853
egz	-2854
ieg	-2855
tam	-2856
▁14	-2857
▁Ji	-2858
apit	-2859
elis	-2860
land	-2861
ąžin	-2862
▁nev	-2863
▁ren	-2864
augos	-2865
iniam	-2866
▁Serb	-2867
▁Visi	-2868
▁galv	-2869
▁inov	-2870
▁nepa	-2871
▁visa	-2872
▁šiai	-2873
▁abejo	-2874
▁angli	-2875
▁aptar	-2876
▁atsin	-2877
▁deleg	-2878
▁gyvūn	-2879
▁vakar	-2880
▁Respub	-2881
▁apgail	-2882
▁atvejų	-2883
▁dviejų	-2884
▁išnaud	-2885
▁keturi	-2886
▁kitose	-2887
▁veikia	-2888
▁išlaidų	-2889
▁kalbant	-2890
▁biudžetą	-2891
▁galėsime	-2892
▁neseniai	-2893
▁nusprend	-2894
▁pastangų	-2895
▁požiūrio	-2896
▁siekdami	-2897
▁priklauso	-2898
▁Pirmininko	-2899
▁Viduržemio	-2900
▁bendrosios	-2901
pn	-2902
▁9	-2903
ąja	-2904
antį	-2905
iami	-2906
ienį	-2907
intų	-2908
ėjai	-2909
▁Pal	-2910
▁išn	-2911
▁lig	-2912
andid	-2913
anori	-2914
▁Siek	-2915
▁daro	-2916
▁elem	-2917
▁skol	-2918
▁Šiau	-2919
▁atvyk	-2920
▁kalba	-2921
▁karin	-2922
▁naujo	-2923
▁neati	-2924
▁pašal	-2925
▁rytoj	-2926
▁skait	-2927
▁keleiv	-2928
▁kilmės	-2929
▁sakant	-2930
▁termin	-2931
▁atsitik	-2932
▁gerinti	-2933
▁Turkijos	-2934
▁geležink	-2935
▁kultūrin	-2936
▁požiūris	-2937
▁santykių	-2938
▁Vengrijos	-2939
▁padarinių	-2940
▁skaidrumo	-2941
▁priežastis	-2942
▁automobilių	-2943
▁reikalavimų	-2944
▁konkurencing	-2945
▁Atsižvelgiant	-2946
▁bendradarbiau	-2947
erc	-2948
pag	-2949
und	-2950
▁Re	-2951
▁ke	-2952
▁sl	-2953
iliz	-2954
ybai	-2955
▁Aud	-2956
▁Jūs	-2957
▁sąs	-2958
▁tel	-2959
avome	-2960
damos	-2961
▁Bulg	-2962
▁Ties	-2963
▁negu	-2964
▁stip	-2965
▁tokį	-2966
▁tuos	-2967
▁šiek	-2968
tumėte	-2969
▁Pietų	-2970
▁gyvyb	-2971
▁kokyb	-2972
▁visai	-2973
▁darbas	-2974
▁kandid	-2975
▁naujos	-2976
▁svarbą	-2977
▁visose	-2978
▁Sąjungą	-2979
▁garanti	-2980
▁kalbama	-2981
▁procesą	-2982
▁projekto	-2983
▁referend	-2984
▁vadovauj	-2985
▁Respublik	-2986
▁interesus	-2987
▁stiprinti	-2988
▁susiduria	-2989
▁vartojimo	-2990
▁pasiūlymus	-2991
▁džiaugiuosi	-2992
▁27	-2993
eiči	-2994
enos	-2995
▁rūš	-2996
▁stu	-2997
ijung	-2998
ydami	-2999
▁eksp	-3000
▁gird	-3001
▁nuoš	-3002
ančiai	-3003
stituc	-3004
tinėje	-3005
▁fondų	-3006
▁sienų	-3007
▁sutik	-3008
▁tikrų	-3009
▁tokio	-3010
▁tūkst	-3011
▁ekolog	-3012
▁grupės	-3013
▁integr	-3014
▁mokykl	-3015
▁nuosav	-3016
▁dėmesys	-3017
▁sistemų	-3018
▁skaičių	-3019
▁tikslai	-3020
▁ypating	-3021
▁atitinka	-3022
▁elektron	-3023
▁procesas	-3024
▁interneto	-3025
▁įvertinti	-3026
▁atsinaujin	-3027
▁įsitikinęs	-3028
▁Prancūzijos	-3029
▁atsakomybės	-3030
▁sustiprinti	-3031
▁neabejotinai	-3032
▁nepriklausom	-3033
▁aukščiausiojo	-3034
▁institucijoms	-3035
▁žuvininkystės	-3036
VĮ	-3037
ne	-3038
eji	-3039
ert	-3040
irž	-3041
pač	-3042
▁11	-3043
esni	-3044
tika	-3045
urin	-3046
vari	-3047
▁Kro	-3048
▁bai	-3049
▁lyd	-3050
▁sta	-3051
inamas	-3052
racija	-3053
▁Svarb	-3054
▁atsid	-3055
▁geras	-3056
▁kokia	-3057
▁nario	-3058
▁nedel	-3059
▁palyg	-3060
▁parag	-3061
▁priek	-3062
iacijos	-3063
▁diskut	-3064
▁konsul	-3065
▁manome	-3066
▁pavyko	-3067
▁visoje	-3068
▁vėliau	-3069
čiausiai	-3070
▁greitai	-3071
▁kurioms	-3072
▁Šiaurės	-3073
▁atsakyti	-3074
▁kvalifik	-3075
▁pagrindą	-3076
▁patikrin	-3077
▁pobūdžio	-3078
▁suprasti	-3079
▁Jungtinės	-3080
▁išteklius	-3081
▁naudojimo	-3082
▁sėkmingai	-3083
▁Pirmiausia	-3084
▁labiausiai	-3085
▁reikalinga	-3086
▁sprendimai	-3087
▁straipsnio	-3088
▁teisingumo	-3089
▁teisėkūros	-3090
▁tarpvalstyb	-3091
▁vyriausybės	-3092
▁įsipareigojimų	-3093
la	-3094
etu	-3095
tui	-3096
čiū	-3097
▁25	-3098
▁tų	-3099
ikai	-3100
kiau	-3101
roso	-3102
truk	-3103
usav	-3104
▁paš	-3105
▁ryž	-3106
▁tie	-3107
minti	-3108
uktyv	-3109
▁išim	-3110
▁neap	-3111
▁omen	-3112
▁vyks	-3113
ausios	-3114
ečiųjų	-3115
uojami	-3116
▁draud	-3117
▁kurti	-3118
▁malon	-3119
▁mažai	-3120
▁pabėg	-3121
▁pieno	-3122
▁reišk	-3123
▁sutel	-3124
▁tikrą	-3125
▁zonos	-3126
irželio	-3127
▁dalimi	-3128
▁didelį	-3129
▁kuriam	-3130
▁nerimą	-3131
▁subsid	-3132
▁sąlygų	-3133
▁anglies	-3134
▁moteris	-3135
▁vandens	-3136
▁įmanoma	-3137
▁naudotis	-3138
▁parlamen	-3139
▁paskutin	-3140
▁praėjusi	-3141
▁principų	-3142
▁taikomos	-3143
▁kriterijus	-3144
▁standartus	-3145
▁sprendžiant	-3146
PT	-3147
ią	-3148
elg	-3149
enh	-3150
ešk	-3151
zra	-3152
▁CO	-3153
dien	-3154
ėlių	-3155
▁Nes	-3156
▁Pak	-3157
▁naf	-3158
▁Šie	-3159
ėdami	-3160
▁Kita	-3161
▁punk	-3162
▁Šved	-3163
engeno	-3164
▁Vakar	-3165
▁dieną	-3166
▁planą	-3167
▁praei	-3168
▁stipr	-3169
▁tokie	-3170
▁Audito	-3171
▁laisvę	-3172
▁manymu	-3173
▁pagarb	-3174
▁patiri	-3175
▁sukeli	-3176
▁tikslo	-3177
▁įstaig	-3178
▁Barroso	-3179
▁Pagrind	-3180
▁kalbame	-3181
▁moterys	-3182
▁nukreip	-3183
▁pristat	-3184
▁program	-3185
▁naudinga	-3186
▁paminėti	-3187
▁parodyti	-3188
▁reaguoti	-3189
▁tarpusav	-3190
▁švietimo	-3191
▁Graikijos	-3192
▁susitarimų	-3193
oc	-3194
po	-3195
aro	-3196
ėst	-3197
▁As	-3198
alus	-3199
ektr	-3200
rija	-3201
vimo	-3202
ytus	-3203
▁Kop	-3204
▁MVĮ	-3205
▁Mar	-3206
▁Pro	-3207
▁apg	-3208
▁lem	-3209
▁rad	-3210
▁sal	-3211
aukti	-3212
edant	-3213
enhag	-3214
giama	-3215
tingų	-3216
▁2006	-3217
▁dviš	-3218
▁etap	-3219
▁penk	-3220
▁romų	-3221
▁spor	-3222
▁stud	-3223
▁vizų	-3224
adienį	-3225
encial	-3226
▁galės	-3227
▁nepag	-3228
▁pačių	-3229
▁priva	-3230
▁sukel	-3231
▁sunku	-3232
ščionių	-3233
žiūrėti	-3234
▁sausio	-3235
▁skirta	-3236
▁skirtų	-3237
▁svarbų	-3238
▁tikrin	-3239
▁dialogą	-3240
▁didelių	-3241
▁niekada	-3242
▁omenyje	-3243
▁siūloma	-3244
▁tiekimo	-3245
▁numatyta	-3246
▁pareigūn	-3247
▁teisinga	-3248
▁atstovauj	-3249
▁liberaliz	-3250
▁pakeitimų	-3251
▁pasiektas	-3252
▁pozicijos	-3253
▁santykius	-3254
▁pusiausvyr	-3255
▁regionuose	-3256
▁susijusios	-3257
▁pagrindinis	-3258
▁žiniasklaid	-3259
▁darbuotojams	-3260
▁pastaruosius	-3261
oz	-3262
iln	-3263
uoš	-3264
yks	-3265
eikš	-3266
esnę	-3267
etui	-3268
ingo	-3269
iško	-3270
jans	-3271
čios	-3272
▁Jos	-3273
▁amb	-3274
▁gav	-3275
▁geb	-3276
▁rug	-3277
amųjų	-3278
▁Izra	-3279
▁abip	-3280
▁atsp	-3281
▁spar	-3282
▁tris	-3283
▁2020"	-3284
▁Negal	-3285
▁būdas	-3286
▁išlik	-3287
▁kapit	-3288
▁lyčių	-3289
▁skurd	-3290
▁sritį	-3291
▁tvari	-3292
▁valiu	-3293
▁viską	-3294
uojamos	-3295
▁Baltar	-3296
▁Vienas	-3297
▁kelias	-3298
▁vanden	-3299
▁žinote	-3300
▁Kadangi	-3301
▁saugumą	-3302
▁Kopenhag	-3303
▁birželio	-3304
▁kontroli	-3305
▁pavyzdys	-3306
▁priemonė	-3307
▁principo	-3308
▁savanori	-3309
▁suteikta	-3310
▁trečiųjų	-3311
▁užkirsti	-3312
▁prisitaik	-3313
▁atsakomybę	-3314
▁Džiaugiuosi	-3315
▁vartotojams	-3316
▁bendradarbiauti	-3317
rų	-3318
ern	-3319
mos	-3320
pas	-3321
▁15	-3322
▁gl	-3323
inys	-3324
obul	-3325
roje	-3326
ūras	-3327
▁aud	-3328
▁bal	-3329
▁byl	-3330
▁tos	-3331
tingi	-3332
tinka	-3333
▁Juod	-3334
▁Kroa	-3335
▁deja	-3336
▁funk	-3337
▁gaun	-3338
▁ginč	-3339
▁gruo	-3340
▁koks	-3341
▁liep	-3342
▁prar	-3343
▁ribų	-3344
▁trad	-3345
▁atlyg	-3346
▁atsar	-3347
▁nepam	-3348
▁nepav	-3349
▁pakar	-3350
▁posėd	-3351
▁puiki	-3352
▁rinkų	-3353
▁tęsti	-3354
aisiais	-3355
ininkai	-3356
▁ketina	-3357
▁laikom	-3358
▁minėjo	-3359
▁nuošir	-3360
▁pastat	-3361
▁taikos	-3362
▁special	-3363
▁tyrimus	-3364
▁Šengeno	-3365
▁gruodžio	-3366
▁gyvenimą	-3367
▁padaryta	-3368
▁atsakomyb	-3369
▁parlament	-3370
▁pateiktas	-3371
▁prisidėti	-3372
▁prisijung	-3373
▁socialinę	-3374
▁ekonomikai	-3375
▁pavyzdžiui	-3376
▁susitikimo	-3377
▁užtikrinant	-3378
▁nacionalinės	-3379
▁konkurencijos	-3380
Pl	-3381
go	-3382
cid	-3383
elį	-3384
lok	-3385
ąst	-3386
▁13	-3387
▁30	-3388
▁ži	-3389
/200	-3390
esnį	-3391
omus	-3392
tern	-3393
urti	-3394
▁gim	-3395
▁rūm	-3396
▁sul	-3397
▁vil	-3398
imams	-3399
tijai	-3400
▁Buvo	-3401
▁Rytų	-3402
▁tema	-3403
ydamas	-3404
▁Darbo	-3405
▁iššūk	-3406
▁kokių	-3407
▁lėšas	-3408
▁nepat	-3409
▁netgi	-3410
▁patek	-3411
▁atnauj	-3412
▁konstr	-3413
▁patais	-3414
▁sričių	-3415
▁įsteig	-3416
▁Airijos	-3417
▁amžiaus	-3418
▁aplinką	-3419
▁didesnį	-3420
▁patobul	-3421
▁proceso	-3422
▁stebėti	-3423
▁sutinku	-3424
▁teisėms	-3425
▁vadinam	-3426
▁išlaidas	-3427
▁paskirst	-3428
▁priminti	-3429
▁apskritai	-3430
▁balsavimą	-3431
▁bendrovių	-3432
▁pagrindas	-3433
▁pakeitimą	-3434
▁sektorius	-3435
▁teisingai	-3436
▁teritorij	-3437
▁informuoti	-3438
▁susitikime	-3439
▁administrac	-3440
▁priežasties	-3441
▁integracijos	-3442
▁įgyvendinant	-3443
ry	-3444
rą	-3445
ane	-3446
aup	-3447
eil	-3448
iej	-3449
mus	-3450
oks	-3451
ton	-3452
anaš	-3453
oriu	-3454
umis	-3455
ėjos	-3456
▁Gal	-3457
▁gen	-3458
▁mis	-3459
▁teb	-3460
ančia	-3461
iamos	-3462
▁Baig	-3463
▁grįž	-3464
▁karo	-3465
▁terš	-3466
▁žali	-3467
arijos	-3468
ininkų	-3469
▁laivų	-3470
▁nežin	-3471
▁pasid	-3472
▁sužin	-3473
ančiais	-3474
▁Reikia	-3475
▁aljans	-3476
▁autori	-3477
▁daugyb	-3478
▁džiaug	-3479
▁išdėst	-3480
▁kokybę	-3481
▁priekį	-3482
▁sąskai	-3483
Plojimai	-3484
▁bendras	-3485
▁kitomis	-3486
▁mažinti	-3487
▁pavojus	-3488
▁priimtas	-3489
▁priėmimo	-3490
▁rengiant	-3491
▁veiksmai	-3492
▁žmonėmis	-3493
▁imigracijos	-3494
▁akivaizdžiai	-3495
▁svarbiausias	-3496
▁technologijų	-3497
▁aplinkosaugos	-3498
▁technologijas	-3499
le	-3500
kio	-3501
ota	-3502
usį	-3503
zmo	-3504
▁Az	-3505
▁ob	-3506
eido	-3507
eral	-3508
site	-3509
tams	-3510
uotą	-3511
ėjas	-3512
ėtos	-3513
▁Pvz	-3514
▁kvo	-3515
erius	-3516
mingi	-3517
▁2013	-3518
▁laim	-3519
▁mane	-3520
▁peln	-3521
▁taps	-3522
enarin	-3523
istano	-3524
onijos	-3525
trauki	-3526
uodami	-3527
▁Didži	-3528
▁iškel	-3529
▁lėšos	-3530
▁patys	-3531
▁steng	-3532
▁tiems	-3533
▁veiki	-3534
▁įpras	-3535
▁šioms	-3536
▁šiose	-3537
▁žinių	-3538
▁analiz	-3539
▁didelę	-3540
▁galioj	-3541
▁kalbos	-3542
▁raginu	-3543
▁taršos	-3544
▁daugelį	-3545
▁komunik	-3546
▁rizikos	-3547
▁užmokes	-3548
▁ateities	-3549
▁mažinimo	-3550
▁nepapras	-3551
▁siekdama	-3552
▁taikomas	-3553
▁teigiama	-3554
▁teikiama	-3555
▁teisinės	-3556
▁tinkamas	-3557
▁Atsižvelg	-3558
▁ekonomiką	-3559
▁išlaikyti	-3560
▁konkrečių	-3561
▁paprašyti	-3562
▁potencial	-3563
▁projektas	-3564
▁sektoriui	-3565
▁standartų	-3566
▁diskusijose	-3567
▁pagrindinės	-3568
bul	-3569
kil	-3570
kra	-3571
lan	-3572
otų	-3573
▁Ek	-3574
▁Es	-3575
▁em	-3576
▁Dėk	-3577
▁PPE	-3578
▁bes	-3579
▁egz	-3580
▁kaž	-3581
▁ori	-3582
▁sil	-3583
▁šil	-3584
eklar	-3585
inimu	-3586
ąsias	-3587
ūrimo	-3588
▁gera	-3589
▁sand	-3590
▁sank	-3591
▁vidu	-3592
ekonom	-3593
osioms	-3594
ėdamas	-3595
▁Biudž	-3596
▁civil	-3597
▁dirba	-3598
▁minim	-3599
▁suvok	-3600
torijos	-3601
▁jokios	-3602
▁vienos	-3603
▁visame	-3604
▁būtinas	-3605
▁kitiems	-3606
▁prekyba	-3607
▁skubiai	-3608
▁Taryboje	-3609
▁atidžiai	-3610
▁atstovai	-3611
▁biurokra	-3612
▁kuriuose	-3613
▁programa	-3614
▁raginama	-3615
▁Pranešime	-3616
▁agentūros	-3617
▁paslaugas	-3618
▁politinės	-3619
▁stabilumo	-3620
▁didžiausią	-3621
▁paaiškinti	-3622
▁pranešėjui	-3623
▁procedūros	-3624
▁rezultatus	-3625
▁konstruktyv	-3626
▁susitarimus	-3627
▁svarbiausių	-3628
▁aplinkybėmis	-3629
▁darbotvarkės	-3630
▁tarptautinių	-3631
▁globalizacijos	-3632
HU	-3633
fi	-3634
are	-3635
cep	-3636
ims	-3637
lav	-3638
vis	-3639
yno	-3640
ęsi	-3641
▁50	-3642
alai	-3643
anda	-3644
cent	-3645
iamą	-3646
savo	-3647
sėjo	-3648
▁Tuo	-3649
▁įsp	-3650
inami	-3651
tiniu	-3652
tomis	-3653
▁Nauj	-3654
▁Brius	-3655
▁galiu	-3656
▁gerin	-3657
▁indėl	-3658
▁laiku	-3659
▁lygiu	-3660
▁miškų	-3661
▁rodik	-3662
▁tikra	-3663
▁tokią	-3664
▁vertę	-3665
encijos	-3666
▁išsami	-3667
▁ketvir	-3668
▁nukent	-3669
▁perkėl	-3670
▁sienos	-3671
▁apriboj	-3672
▁bendrai	-3673
▁dialogo	-3674
▁didinti	-3675
▁glaudži	-3676
▁kompens	-3677
▁laisvių	-3678
▁mokėtoj	-3679
▁pagalba	-3680
▁plėtoti	-3681
▁srities	-3682
▁tinkamą	-3683
▁abejonių	-3684
▁aplinkai	-3685
▁duomenis	-3686
▁nuomonei	-3687
▁pagrindu	-3688
▁bendrovės	-3689
▁biudžetas	-3690
▁ekonomika	-3691
▁nustatyta	-3692
▁politikai	-3693
▁Diskusijos	-3694
▁pakeitimus	-3695
▁finansavimą	-3696
▁pirmininkas	-3697
▁supaprastin	-3698
..	-3699
EB	-3700
EL	-3701
mi	-3702
zd	-3703
imb	-3704
omo	-3705
stų	-3706
tol	-3707
uds	-3708
vyn	-3709
▁Nr	-3710
▁sr	-3711
alią	-3712
teis	-3713
tojo	-3714
▁Jap	-3715
▁Sch	-3716
▁rėm	-3717
▁Žem	-3718
estin	-3719
utuoj	-3720
▁Visų	-3721
▁apsi	-3722
▁atid	-3723
▁kovo	-3724
▁reng	-3725
▁šalį	-3726
inamos	-3727
▁Treči	-3728
▁Turiu	-3729
▁impor	-3730
▁kitus	-3731
▁kredi	-3732
▁lygis	-3733
▁masto	-3734
▁penki	-3735
▁susis	-3736
▁vykst	-3737
ategori	-3738
▁Dėkoju	-3739
▁abiejų	-3740
▁malonu	-3741
▁nuosek	-3742
▁statis	-3743
▁tikslą	-3744
▁vietov	-3745
▁įtakos	-3746
▁žinoti	-3747
▁žodžio	-3748
▁dalykai	-3749
▁taikant	-3750
▁teising	-3751
▁tikimės	-3752
▁trumpai	-3753
▁uždraus	-3754
▁viešųjų	-3755
▁vykdant	-3756
▁abejonės	-3757
▁apsvarst	-3758
▁galimybe	-3759
▁reformas	-3760
▁saugumas	-3761
▁suteikia	-3762
▁tikslais	-3763
▁įvykdymo	-3764
▁diskusija	-3765
▁naudingas	-3766
▁nuostatas	-3767
▁Vokietijos	-3768
▁kiekvienos	-3769
▁patenkinti	-3770
▁rezultatas	-3771
▁darbotvarkę	-3772
▁iniciatyvos	-3773
ced	-3774
jek	-3775
▁No	-3776
alia	-3777
ario	-3778
buds	-3779
gnoz	-3780
lams	-3781
stas	-3782
tame	-3783
toms	-3784
tose	-3785
▁Jau	-3786
▁Pat	-3787
▁atl	-3788
▁išb	-3789
▁mui	-3790
▁nuv	-3791
▁sup	-3792
elyje	-3793
odami	-3794
siant	-3795
▁Brit	-3796
▁dipl	-3797
▁iešk	-3798
▁krik	-3799
▁spek	-3800
▁vyko	-3801
▁vyrų	-3802
audies	-3803
ektros	-3804
imuose	-3805
tingas	-3806
▁Ispan	-3807
▁Karal	-3808
▁Kodėl	-3809
▁Pasau	-3810
▁atein	-3811
▁esant	-3812
▁pilie	-3813
▁tobul	-3814
▁tokiu	-3815
budsmen	-3816
igrantų	-3817
osiomis	-3818
▁Kinija	-3819
▁Rusija	-3820
▁baigti	-3821
▁biolog	-3822
▁garant	-3823
▁kokios	-3824
▁liepos	-3825
▁mažumų	-3826
▁pajamų	-3827
▁plėtrą	-3828
▁sąnaud	-3829
▁tuomet	-3830
▁kasdien	-3831
▁pensijų	-3832
▁plataus	-3833
▁registr	-3834
▁vietoje	-3835
▁Biudžeto	-3836
▁išnagrin	-3837
▁kategori	-3838
▁mėnesius	-3839
▁norėtume	-3840
▁pasiekta	-3841
▁plenarin	-3842
▁skiriasi	-3843
▁Sutarties	-3844
▁diskutuoj	-3845
▁ekonominę	-3846
▁pareikšti	-3847
▁pradžioje	-3848
▁pranešimu	-3849
▁pranešėja	-3850
▁sutartimi	-3851
▁pakeitimas	-3852
▁prioritetus	-3853
▁reikalaujama	-3854
ef	-3855
oh	-3856
etų	-3857
čiu	-3858
▁18	-3859
▁40	-3860
▁tė	-3861
anki	-3862
emok	-3863
rims	-3864
usio	-3865
ysiu	-3866
▁Aus	-3867
▁Kas	-3868
▁Kor	-3869
▁Rem	-3870
▁atš	-3871
▁ein	-3872
▁kūr	-3873
▁lap	-3874
▁mak	-3875
▁med	-3876
▁pik	-3877
entai	-3878
inusi	-3879
▁Balk	-3880
▁Gruz	-3881
▁dvej	-3882
▁gair	-3883
▁kova	-3884
▁lygį	-3885
▁įtik	-3886
▁Štai	-3887
▁žino	-3888
ojimas	-3889
uosime	-3890
uotojų	-3891
▁elges	-3892
▁esama	-3893
▁nauja	-3894
▁pačiu	-3895
▁pinig	-3896
▁silpn	-3897
▁skelb	-3898
▁sukči	-3899
▁taptų	-3900
▁vaist	-3901
tinėmis	-3902
▁ateitį	-3903
▁augimą	-3904
▁dideli	-3905
▁kritik	-3906
▁prekių	-3907
▁prisim	-3908
▁reikės	-3909
▁skurdu	-3910
riausiai	-3911
ternatyv	-3912
▁didelės	-3913
▁prekybą	-3914
▁sandori	-3915
▁sukurta	-3916
▁sunkumų	-3917
▁susipaž	-3918
▁suteiks	-3919
▁duomenys	-3920
▁keleivių	-3921
▁kontrolę	-3922
▁nagrinėj	-3923
▁pagaliau	-3924
▁pilietin	-3925
▁susiduri	-3926
▁svarbios	-3927
▁sąjungos	-3928
▁valstybn	-3929
▁Valstybės	-3930
▁daugelyje	-3931
▁energetin	-3932
▁finansinę	-3933
▁išreikšti	-3934
▁naudojimą	-3935
▁nuostatos	-3936
▁palaikyti	-3937
▁politinio	-3938
▁poreikius	-3939
▁projektus	-3940
▁iniciatyvą	-3941
▁nedelsiant	-3942
▁reikalauti	-3943
▁tiesiogiai	-3944
▁veiksmingą	-3945
▁konvencijos	-3946
▁laikotarpio	-3947
▁organizacijų	-3948
▁įsipareigojimus	-3949
.)	-3950
ūt	-3951
arų	-3952
eki	-3953
gip	-3954
gum	-3955
lai	-3956
ozi	-3957
ėją	-3958
anks	-3959
anta	-3960
eguž	-3961
umos	-3962
▁Pra	-3963
▁lin	-3964
▁tęs	-3965
Komis	-3966
arank	-3967
asiūl	-3968
intos	-3969
iškos	-3970
ojoje	-3971
rašau	-3972
tinku	-3973
tuoja	-3974
▁eurų	-3975
▁kamp	-3976
▁klas	-3977
▁neuž	-3978
aujant	-3979
iniame	-3980
tojimo	-3981
▁Pagal	-3982
▁Stras	-3983
▁derin	-3984
▁draug	-3985
▁nemaž	-3986
▁pagam	-3987
▁pamat	-3988
▁proga	-3989
▁Žemės	-3990
cijomis	-3991
▁Ekonom	-3992
▁Ponios	-3993
▁Prival	-3994
▁Slovak	-3995
▁Vakarų	-3996
▁asmens	-3997
▁bendrų	-3998
▁dėkoju	-3999
▁išplės	-4000
▁išrink	-4001
▁išskir	-4002
▁keitim	-4003
▁kolega	-4004
▁kolegų	-4005
▁padėtų	-4006
▁paketo	-4007
▁prieig	-4008
▁skurdo	-4009
▁tikrov	-4010
▁vaistų	-4011
▁zonoje	-4012
▁Kinijos	-4013
▁aukštos	-4014
▁pritaik	-4015
▁spekuli	-4016
▁įvairov	-4017
▁kandidat	-4018
▁konsulta	-4019
▁kovojant	-4020
▁liaudies	-4021
▁pastabas	-4022
▁susisiek	-4023
▁transpor	-4024
▁apgailest	-4025
▁ombudsmen	-4026
▁panaudoti	-4027
▁policijos	-4028
▁reikšming	-4029
▁suderinti	-4030
▁Parlamentą	-4031
▁ekonominių	-4032
▁pabrėžiama	-4033
▁priklausom	-4034
▁pritariame	-4035
▁socialinio	-4036
▁susijusias	-4037
▁susitikimą	-4038
▁rezoliucija	-4039
▁susitikimas	-4040
VP	-4041
ach	-4042
erv	-4043
prę	-4044
ybė	-4045
ybų	-4046
žio	-4047
bals	-4048
iamų	-4049
orin	-4050
peln	-4051
timą	-4052
tiną	-4053
▁pop	-4054
▁tun	-4055
▁vas	-4056
atina	-4057
imasi	-4058
inimų	-4059
ojimą	-4060
tabil	-4061
tinga	-4062
ymąsi	-4063
ytina	-4064
yčiau	-4065
ėdama	-4066
ėjams	-4067
ėjimu	-4068
ūroje	-4069
▁2012	-4070
▁Egip	-4071
▁char	-4072
▁dvid	-4073
▁gana	-4074
▁reak	-4075
▁taup	-4076
▁žaid	-4077
egužės	-4078
▁Kartu	-4079
▁ambic	-4080
▁argum	-4081
▁bankų	-4082
▁išsam	-4083
▁jokio	-4084
▁keiči	-4085
▁nepal	-4086
▁opozi	-4087
▁vyksi	-4088
ančiųjų	-4089
irektyv	-4090
uojamas	-4091
▁Būtina	-4092
▁aptari	-4093
▁didėja	-4094
▁leistų	-4095
▁naftos	-4096
▁netruk	-4097
▁neįman	-4098
▁niekas	-4099
▁pateis	-4100
▁smurto	-4101
▁status	-4102
▁stipri	-4103
▁vietas	-4104
▁įgalio	-4105
▁aspektų	-4106
▁atstovų	-4107
▁gerokai	-4108
▁istorin	-4109
▁lygybės	-4110
▁patikim	-4111
▁pradžių	-4112
▁prievar	-4113
▁procese	-4114
▁produkt	-4115
▁rinkose	-4116
▁Negalime	-4117
▁Siekiant	-4118
▁Visiškai	-4119
▁didesnio	-4120
▁griežtai	-4121
▁medžiagų	-4122
▁numatyti	-4123
▁pažymėti	-4124
▁pozicija	-4125
▁priimant	-4126
▁tarnybos	-4127
▁turėsime	-4128
▁dokumentų	-4129
▁paklausti	-4130
▁pasiūlymu	-4131
▁principas	-4132
▁procedūrą	-4133
▁procedūrų	-4134
▁programas	-4135
▁Balsavimas	-4136
▁Teisingumo	-4137
▁alternatyv	-4138
▁atsisakyti	-4139
▁dabartinės	-4140
▁finansuoti	-4141
▁investuoti	-4142
▁neatsižvel	-4143
▁pakeitimai	-4144
▁prezidento	-4145
▁reikalauja	-4146
▁valstybėje	-4147
▁visuomenei	-4148
▁darbuotojai	-4149
▁pareiškimai	-4150
▁vyriausybių	-4151
▁tarptautiniu	-4152
▁paprasčiausiai	-4153
AT	-4154
CO	-4155
dė	-4156
lų	-4157
...	-4158
kiu	-4159
old	-4160
sis	-4161
uož	-4162
▁ja	-4163
▁ėm	-4164
-201	-4165
erių	-4166
inus	-4167
jung	-4168
kime	-4169
trof	-4170
ystę	-4171
▁199	-4172
▁Ind	-4173
▁Reg	-4174
▁Tam	-4175
▁baz	-4176
▁log	-4177
▁sep	-4178
▁sky	-4179
kurti	-4180
▁išpl	-4181
▁kada	-4182
▁kažk	-4183
▁narė	-4184
▁pirk	-4185
▁smul	-4186
▁stov	-4187
▁tenk	-4188
▁trag	-4189
avimus	-4190
kričio	-4191
▁Tautų	-4192
▁aktai	-4193
▁atsis	-4194
▁išsak	-4195
▁įvyko	-4196
tnaudži	-4197
▁Social	-4198
▁dalyje	-4199
▁grupių	-4200
▁gyvūnų	-4201
▁kaltin	-4202
▁narius	-4203
▁pageid	-4204
▁plėtra	-4205
▁skirtą	-4206
▁turint	-4207
▁viduje	-4208
▁žengti	-4209
▁Turkija	-4210
▁aljanso	-4211
▁atspind	-4212
▁geograf	-4213
▁gerovės	-4214
▁leidžia	-4215
▁palikti	-4216
▁pareiga	-4217
▁perseki	-4218
▁rugsėjo	-4219
▁skatina	-4220
▁sustabd	-4221
▁svarbos	-4222
▁žingsnį	-4223
▁Italijos	-4224
▁aspektus	-4225
▁dešimtme	-4226
▁eksporto	-4227
▁elektros	-4228
▁kolegoms	-4229
▁kryptimi	-4230
▁pabaigos	-4231
▁savarank	-4232
▁skiriama	-4233
▁užbaigti	-4234
▁Ispanijos	-4235
▁laikomasi	-4236
▁lapkričio	-4237
▁pagrindin	-4238
▁pasiūlyti	-4239
▁priežiūrą	-4240
▁socialinį	-4241
▁valstybei	-4242
▁neturėtume	-4243
▁pasiūlymai	-4244
▁regioninės	-4245
▁rezultatai	-4246
▁straipsnis	-4247
▁Respublikos	-4248
▁demokratiją	-4249
▁gyventojams	-4250
▁atsižvelgiama	-4251
▁įsipareigojimą	-4252
ez	-4253
ąs	-4254
art	-4255
atą	-4256
gan	-4257
ijo	-4258
ono	-4259
pad	-4260
ėję	-4261
▁BŽ	-4262
▁Si	-4263
▁įn	-4264
amio	-4265
iųjų	-4266
rauk	-4267
tens	-4268
urio	-4269
▁Ash	-4270
▁Iki	-4271
▁kiš	-4272
▁kod	-4273
▁mėg	-4274
▁ton	-4275
▁tri	-4276
albūt	-4277
džius	-4278
eistų	-4279
kotik	-4280
▁Kiek	-4281
▁gerą	-4282
▁išsk	-4283
▁jaus	-4284
▁prim	-4285
▁supr	-4286
▁tend	-4287
▁įved	-4288
aujame	-4289
mogaus	-4290
tensyv	-4291
▁Afrik	-4292
▁Bendr	-4293
▁Viena	-4294
▁apsis	-4295
▁didėj	-4296
▁geros	-4297
▁išpuo	-4298
▁kartų	-4299
▁nedid	-4300
▁nelyg	-4301
▁nepad	-4302
▁ofici	-4303
▁patyr	-4304
▁pažad	-4305
▁rūpes	-4306
▁dienos	-4307
▁komerc	-4308
▁mokymo	-4309
▁nenori	-4310
▁norėtų	-4311
▁paskol	-4312
▁pranaš	-4313
▁rimtai	-4314
▁stebės	-4315
▁tikisi	-4316
▁tinkam	-4317
▁vaikai	-4318
▁visais	-4319
▁šaliai	-4320
▁šeimos	-4321
▁šiuose	-4322
atastrof	-4323
kivaizdu	-4324
▁diploma	-4325
▁gaminių	-4326
▁istorij	-4327
▁kartais	-4328
▁palengv	-4329
▁pažanga	-4330
▁poreikį	-4331
▁susitar	-4332
▁sutarim	-4333
▁taikomi	-4334
▁Direktyv	-4335
▁agentūrų	-4336
▁derybose	-4337
▁elektrin	-4338
▁instituc	-4339
▁intensyv	-4340
▁naujovių	-4341
▁pateikta	-4342
▁politinį	-4343
▁posėdyje	-4344
▁pritaria	-4345
▁reformos	-4346
▁rinkimus	-4347
▁vaidmens	-4348
▁Akivaizdu	-4349
▁Vyriausyb	-4350
▁griežtesn	-4351
▁nusikalst	-4352
▁pavyzdžių	-4353
▁principus	-4354
▁svarstyti	-4355
▁sveikatai	-4356
▁mokslinius	-4357
▁programoje	-4358
▁sustabdyti	-4359
▁organizacij	-4360
▁tikriausiai	-4361
▁pagrindiniai	-4362
▁pagrindinius	-4363
▁infrastruktūros	-4364
CS	-4365
SE	-4366
jo	-4367
ąž	-4368
aiš	-4369
aną	-4370
atv	-4371
eka	-4372
erk	-4373
kia	-4374
liu	-4375
ond	-4376
pir	-4377
urn	-4378
▁17	-4379
▁Ab	-4380
▁Ch	-4381
ambl	-4382
džiu	-4383
krik	-4384
lank	-4385
ugeb	-4386
▁Gaz	-4387
▁eil	-4388
▁eis	-4389
▁sau	-4390
▁uni	-4391
▁vež	-4392
▁šim	-4393
alans	-4394
alius	-4395
eliui	-4396
imosi	-4397
ingus	-4398
čiams	-4399
ėtina	-4400
▁Leis	-4401
▁akto	-4402
▁joje	-4403
▁jung	-4404
▁krov	-4405
▁pama	-4406
▁trys	-4407
▁tęsi	-4408
▁užim	-4409
eidžia	-4410
eiškia	-4411
ficial	-4412
ijomis	-4413
inimus	-4414
▁Rūmai	-4415
▁antra	-4416
▁dienų	-4417
▁dviem	-4418
▁išgir	-4419
▁labui	-4420
▁nesėk	-4421
▁perži	-4422
▁pirmą	-4423
▁pridė	-4424
▁sukėl	-4425
▁tikiu	-4426
▁vienu	-4427
▁vieta	-4428
traukti	-4429
▁Ashton	-4430
▁Galbūt	-4431
▁Tarybą	-4432
▁atliko	-4433
▁deklar	-4434
▁fondas	-4435
▁laipsn	-4436
▁mėnesį	-4437
▁nepais	-4438
▁nuveik	-4439
▁padeda	-4440
▁pavojų	-4441
▁privat	-4442
▁sakyti	-4443
▁sėkmės	-4444
▁univer	-4445
▁vaikus	-4446
▁šiomis	-4447
aiškinti	-4448
igracija	-4449
▁apmokes	-4450
▁gegužės	-4451
▁integra	-4452
▁pagerin	-4453
▁pokyčių	-4454
▁prašymą	-4455
▁skirtos	-4456
▁tvirtin	-4457
▁Airijoje	-4458
▁Izraelio	-4459
▁aspektas	-4460
▁netrukus	-4461
▁pamiršti	-4462
▁pareikal	-4463
▁priemonę	-4464
▁stengtis	-4465
▁šaltinių	-4466
▁akivaizdu	-4467
▁ataskaitą	-4468
▁aviacijos	-4469
▁garantijų	-4470
▁nustatant	-4471
▁nutraukti	-4472
▁palyginti	-4473
▁paraginti	-4474
▁pasirengę	-4475
▁pasiūlyme	-4476
▁patirtimi	-4477
▁prisiimti	-4478
▁santykiai	-4479
▁sutartyje	-4480
▁Parlamentu	-4481
▁balsavimas	-4482
▁didžiausia	-4483
▁kiekvienas	-4484
▁nuosavybės	-4485
▁patvirtino	-4486
▁piktnaudži	-4487
▁pranešimui	-4488
▁reglamentą	-4489
▁socialistų	-4490
▁iniciatyvas	-4491
▁nepaprastai	-4492
▁nuoširdžiai	-4493
▁pusiausvyrą	-4494
▁vienintelis	-4495
▁įgyvendinimą	-4496
na	-4497
eit	-4498
ign	-4499
lug	-4500
nyg	-4501
omu	-4502
pat	-4503
rio	-4504
tur	-4505
tės	-4506
uop	-4507
vid	-4508
amės	-4509
bend	-4510
igub	-4511
jame	-4512
kalb	-4513
pręs	-4514
▁Mak	-4515
▁Mok	-4516
▁Sud	-4517
▁abs	-4518
▁fiz	-4519
▁ide	-4520
▁ign	-4521
▁ken	-4522
▁mor	-4523
▁vie	-4524
akiau	-4525
entus	-4526
tiški	-4527
▁Belg	-4528
▁asoc	-4529
▁knyg	-4530
▁lauk	-4531
▁nesi	-4532
▁siej	-4533
▁vair	-4534
inimai	-4535
iškumo	-4536
tijoje	-4537
tinėms	-4538
usiems	-4539
▁Afgan	-4540
▁Noriu	-4541
▁antai	-4542
▁dalių	-4543
▁išaug	-4544
▁komis	-4545
▁neats	-4546
▁pavel	-4547
▁remia	-4548
▁ryšių	-4549
▁rūšių	-4550
▁surin	-4551
▁suvar	-4552
▁sąvok	-4553
▁įrang	-4554
▁įtaką	-4555
▁Svarbu	-4556
▁galite	-4557
▁gyvena	-4558
▁išanks	-4559
▁kainos	-4560
▁kitoms	-4561
▁kontek	-4562
▁laukia	-4563
▁naujus	-4564
▁paketą	-4565
▁pirmin	-4566
▁prasme	-4567
▁specif	-4568
▁teikia	-4569
▁tinklo	-4570
▁tokias	-4571
▁tyrimą	-4572
▁atvejus	-4573
▁didelio	-4574
▁išgyven	-4575
▁kliūčių	-4576
▁laisvai	-4577
▁minėjau	-4578
▁pasirod	-4579
▁patiria	-4580
▁pinigai	-4581
▁praėjus	-4582
▁priimta	-4583
▁tarybos	-4584
▁teikimo	-4585
▁teršalų	-4586
▁turizmo	-4587
▁įvykiai	-4588
▁Valstijų	-4589
▁akivaizd	-4590
▁aktyviai	-4591
▁atskirai	-4592
▁būtinybę	-4593
▁draudimo	-4594
▁leiskite	-4595
▁lengviau	-4596
▁ministrų	-4597
▁narkotik	-4598
▁nuostatų	-4599
▁nurodyta	-4600
▁pacientų	-4601
▁padėtyje	-4602
▁pirmasis	-4603
▁pokyčius	-4604
▁pritarim	-4605
▁sparčiai	-4606
▁svarbius	-4607
▁valiutos	-4608
▁Švedijos	-4609
▁Privalome	-4610
▁Rumunijos	-4611
▁apibrėžti	-4612
▁glaudžiai	-4613
▁išsaugoti	-4614
▁kiekvieną	-4615
▁naudojant	-4616
▁pabėgėlių	-4617
▁pripažįst	-4618
▁skirtumus	-4619
▁įsigalioj	-4620
▁įsipareig	-4621
▁migracijos	-4622
▁parlamento	-4623
▁pranešėjai	-4624
▁procedūras	-4625
▁Pirmininkas	-4626
▁apsvarstyti	-4627
▁darbuotojus	-4628
▁gamintojams	-4629
▁institucija	-4630
▁nepriimtina	-4631
▁pagrindines	-4632
▁pažeidžiami	-4633
▁susitarimai	-4634
▁Tarptautinės	-4635
▁geležinkelių	-4636
▁prisitaikymo	-4637
▁struktūrinių	-4638
-0	-4639
SV	-4640
he	-4641
sk	-4642
▁0	-4643
raz	-4644
alas	-4645
imok	-4646
ingu	-4647
tųsi	-4648
umai	-4649
ūrai	-4650
▁Nuo	-4651
▁Raš	-4652
▁apr	-4653
▁deg	-4654
▁deš	-4655
▁dis	-4656
▁kyl	-4657
▁įgū	-4658
▁žym	-4659
iausi	-4660
istai	-4661
ojame	-4662
yrimo	-4663
ytume	-4664
▁Cent	-4665
▁gerų	-4666
▁kari	-4667
▁naik	-4668
▁namų	-4669
▁pasm	-4670
▁sako	-4671
▁toli	-4672
ausius	-4673
iantis	-4674
uojame	-4675
ystėje	-4676
▁Sveik	-4677
▁banko	-4678
▁ginti	-4679
▁jėgos	-4680
▁kiekį	-4681
▁minut	-4682
▁pasis	-4683
▁paver	-4684
▁puikų	-4685
▁trijų	-4686
▁vieno	-4687
▁Šioje	-4688
▁žalos	-4689
ančiose	-4690
▁Kitaip	-4691
▁daroma	-4692
▁ekspor	-4693
▁elgtis	-4694
▁kūrimo	-4695
▁maistu	-4696
▁matome	-4697
▁nedarb	-4698
▁pakeis	-4699
▁palank	-4700
▁paspar	-4701
▁septyn	-4702
▁sulauk	-4703
▁žaliav	-4704
ančiomis	-4705
▁Balkanų	-4706
▁Valstij	-4707
▁asmenys	-4708
▁atlieka	-4709
▁gyventi	-4710
▁ilgalai	-4711
▁jaunimo	-4712
▁palanki	-4713
▁savaime	-4714
▁teisinę	-4715
▁Žmogaus	-4716
▁Baltijos	-4717
▁Leiskite	-4718
▁Lenkijos	-4719
▁daugeliu	-4720
▁didesnis	-4721
▁frakcijų	-4722
▁kontekst	-4723
▁kreiptis	-4724
▁pagarbos	-4725
▁pagrįsta	-4726
▁posėdžio	-4727
▁programų	-4728
▁tikslams	-4729
▁užduotis	-4730
▁vertinti	-4731
▁vienodai	-4732
▁Baigdamas	-4733
▁ataskaita	-4734
▁inovacijų	-4735
▁partnerių	-4736
▁patirties	-4737
▁pranešėjo	-4738
▁produktus	-4739
▁skaičiaus	-4740
▁susitarti	-4741
▁terorizmu	-4742
▁vertinimą	-4743
krikščionių	-4744
▁Kopenhagos	-4745
▁gyvybiškai	-4746
▁pasiūlymui	-4747
▁savanorišk	-4748
▁užmokesčio	-4749
▁vartotojai	-4750
▁demokratija	-4751
▁kompromisas	-4752
▁patvirtinta	-4753
▁valstybėmis	-4754
▁Portugalijos	-4755
ge	-4756
kų	-4757
yž	-4758
ši	-4759
ATO	-4760
iar	-4761
osn	-4762
ret	-4763
sik	-4764
tuv	-4765
uma	-4766
umi	-4767
urd	-4768
vys	-4769
yto	-4770
▁16	-4771
▁Mo	-4772
▁įk	-4773
eiks	-4774
erio	-4775
ovos	-4776
tine	-4777
tini	-4778
unis	-4779
usią	-4780
yrus	-4781
▁Pad	-4782
▁blo	-4783
▁etn	-4784
▁gau	-4785
▁gyd	-4786
▁Šių	-4787
ajame	-4788
edama	-4789
ečiai	-4790
ijoms	-4791
timas	-4792
timis	-4793
tinei	-4794
žvelg	-4795
▁Ačiū	-4796
▁Euro	-4797
▁Koki	-4798
▁aktu	-4799
▁blok	-4800
▁kovą	-4801
▁prag	-4802
▁prot	-4803
▁smar	-4804
▁įsik	-4805
▁žais	-4806
▁žuvų	-4807
eikėtų	-4808
esnius	-4809
tnamio	-4810
vienas	-4811
ėjusių	-4812
▁Tokia	-4813
▁atskl	-4814
▁glaud	-4815
▁kovai	-4816
▁motin	-4817
▁neman	-4818
▁palik	-4819
▁pusės	-4820
istuoja	-4821
▁atsarg	-4822
▁erdvės	-4823
▁galėjo	-4824
▁grėsmę	-4825
▁ištais	-4826
▁kortel	-4827
▁modern	-4828
▁nariui	-4829
▁parodė	-4830
▁perkel	-4831
▁planas	-4832
▁plėtoj	-4833
▁sąlyga	-4834
▁sąrašą	-4835
▁tebėra	-4836
▁užmojo	-4837
▁ankstyv	-4838
▁balsavo	-4839
▁daugybę	-4840
▁išsivys	-4841
▁neteisė	-4842
▁partija	-4843
▁priimtų	-4844
▁sukūrim	-4845
▁teisinį	-4846
▁tinkama	-4847
▁trūksta	-4848
▁visomis	-4849
▁vykdymo	-4850
▁įtrauki	-4851
▁Bulgarij	-4852
▁iššūkius	-4853
▁moterims	-4854
▁nelaimių	-4855
▁nusipeln	-4856
▁pagrindų	-4857
▁pateiktą	-4858
▁pramonei	-4859
▁siekiame	-4860
▁sistemas	-4861
▁susirink	-4862
▁sutelkti	-4863
▁teisėmis	-4864
balsavimas	-4865
▁dabartinę	-4866
▁diskusiją	-4867
▁kiekviena	-4868
▁kriterijų	-4869
▁lankstumo	-4870
▁neįmanoma	-4871
▁pabaigoje	-4872
▁pagrįstas	-4873
▁pakeitimo	-4874
▁principai	-4875
▁priversti	-4876
▁ryžtingai	-4877
▁teritorin	-4878
▁įtrauktas	-4879
▁Bulgarijos	-4880
▁apmokestin	-4881
▁asmeniškai	-4882
▁diskutuoti	-4883
▁kompromisą	-4884
▁nustatytas	-4885
▁nustatytos	-4886
▁principais	-4887
▁standartai	-4888
▁valstybnar	-4889
▁šiandienos	-4890
▁problemomis	-4891
▁pasitikėjimą	-4892
▁prieštarauja	-4893
▁visapusiškai	-4894
▁humanitarinės	-4895
▁rezoliucijoje	-4896
▁žiniasklaidos	-4897
▁rekomendacijas	-4898
AL	-4899
KR	-4900
alą	-4901
ers	-4902
ite	-4903
omp	-4904
tir	-4905
ybe	-4906
ynų	-4907
žud	-4908
▁Pa	-4909
atai	-4910
atūr	-4911
etai	-4912
eviz	-4913
išku	-4914
otos	-4915
sual	-4916
tasi	-4917
tijų	-4918
toje	-4919
trūk	-4920
tųjų	-4921
▁100	-4922
▁500	-4923
▁Kol	-4924
▁Pav	-4925
▁Sar	-4926
▁bar	-4927
amojo	-4928
inėse	-4929
iskal	-4930
labai	-4931
mečio	-4932
obili	-4933
oksid	-4934
prieš	-4935
telek	-4936
▁2000	-4937
▁NATO	-4938
▁antr	-4939
▁jais	-4940
▁main	-4941
▁patį	-4942
▁rams	-4943
▁real	-4944
▁sign	-4945
▁siun	-4946
▁srau	-4947
▁sugr	-4948
ankiai	-4949
inistr	-4950
linkos	-4951
sienio	-4952
ymuisi	-4953
▁Maked	-4954
▁Trans	-4955
▁asign	-4956
▁eismo	-4957
▁esate	-4958
▁kalbu	-4959
▁kokiu	-4960
▁korup	-4961
▁neleg	-4962
▁ponia	-4963
▁supra	-4964
▁vykti	-4965
▁įdieg	-4966
▁šešėl	-4967
amosios	-4968
tiniais	-4969
tiniams	-4970
▁Finans	-4971
▁Pastar	-4972
▁Slovėn	-4973
▁Teismo	-4974
▁Trečia	-4975
▁aukšto	-4976
▁keisti	-4977
▁pasakė	-4978
▁pirmyn	-4979
▁propag	-4980
▁režimo	-4981
▁rinkas	-4982
▁sulaik	-4983
▁sureng	-4984
▁tikros	-4985
▁tikslu	-4986
▁tokius	-4987
▁vadovų	-4988
▁Ministr	-4989
▁Sutinku	-4990
▁atkurti	-4991
▁atliktą	-4992
▁baigtos	-4993
▁centrin	-4994
▁didesnę	-4995
▁gynybos	-4996
▁išvadas	-4997
▁kliūtis	-4998
▁mėnesių	-4999
▁nesugeb	-5000
▁norėjau	-5001
▁plėtrai	-5002
▁reformų	-5003
▁įvykius	-5004
▁ženklas	-5005
▁Serbijos	-5006
▁ataskait	-5007
▁kolektyv	-5008
▁neturime	-5009
▁nurodyti	-5010
▁pagrįsti	-5011
▁palaikau	-5012
▁projektų	-5013
▁reitingų	-5014
▁saugumui	-5015
▁sesijoje	-5016
▁skaitmen	-5017
▁smarkiai	-5018
▁surengti	-5019
▁sutarčių	-5020
▁sužinoti	-5021
▁teigiamą	-5022
▁tiksliai	-5023
▁valstybę	-5024
▁vertybes	-5025
▁įstatymų	-5026
▁įtraukta	-5027
▁Italijoje	-5028
▁dokumentą	-5029
▁išsivysči	-5030
▁katastrof	-5031
▁leidžiama	-5032
▁nustatytų	-5033
▁parengtas	-5034
▁pašalinti	-5035
▁procedūra	-5036
▁skaidrumą	-5037
▁sudėtinga	-5038
▁susijusią	-5039
▁įpareigoj	-5040
▁šiltnamio	-5041
▁Briuselyje	-5042
▁duomenimis	-5043
▁efektyvumą	-5044
▁ekonominio	-5045
▁priemonėms	-5046
▁struktūros	-5047
▁užtikrinta	-5048
▁aukščiausio	-5049
▁panaikinimo	-5050
▁užtikrintas	-5051
▁Baltarusijos	-5052
▁koordinavimo	-5053
▁nacionaliniu	-5054
▁persvarstyti	-5055
ER	-5056
PS	-5057
so	-5058
są	-5059
ėt	-5060
ema	-5061
ich	-5062
jai	-5063
ord	-5064
ėli	-5065
▁21	-5066
▁EB	-5067
▁To	-5068
▁įž	-5069
▁Šį	-5070
ajai	-5071
inos	-5072
osto	-5073
otas	-5074
turi	-5075
virš	-5076
ūkes	-5077
▁Kan	-5078
▁Mad	-5079
▁Nem	-5080
▁dom	-5081
▁duj	-5082
▁suž	-5083
aktyv	-5084
amumo	-5085
esnes	-5086
osovo	-5087
strem	-5088
tuoti	-5089
usias	-5090
usius	-5091
veren	-5092
▁Mold	-5093
▁darn	-5094
▁drąs	-5095
▁eiti	-5096
▁išei	-5097
▁kokį	-5098
▁rank	-5099
▁stok	-5100
▁šeim	-5101
▁žurn	-5102
emokra	-5103
oksido	-5104
▁Atsak	-5105
▁aprūp	-5106
▁buvau	-5107
▁demon	-5108
▁dirbo	-5109
▁kalbą	-5110
▁kelis	-5111
▁keliu	-5112
▁lūkes	-5113
▁nesuk	-5114
▁plano	-5115
▁užuot	-5116
▁šiems	-5117
eticijų	-5118
iliečių	-5119
iniuose	-5120
▁Strasb	-5121
▁Vidaus	-5122
▁aiškus	-5123
▁atosto	-5124
▁defici	-5125
▁eksper	-5126
▁imtasi	-5127
▁kodeks	-5128
▁milžin	-5129
▁prašau	-5130
▁preced	-5131
▁smurtą	-5132
▁suvien	-5133
▁tenden	-5134
▁tvirtą	-5135
▁valand	-5136
▁valdys	-5137
▁viskas	-5138
▁atskirų	-5139
▁bausmės	-5140
▁galioja	-5141
▁kreditų	-5142
▁maždaug	-5143
▁negaliu	-5144
▁nuosekl	-5145
▁pažangi	-5146
▁pereiti	-5147
▁pinigus	-5148
▁sutinka	-5149
▁suveren	-5150
▁svarbių	-5151
▁televiz	-5152
▁tikėtis	-5153
▁vaikams	-5154
▁Aplinkos	-5155
▁Komisare	-5156
▁Konstitu	-5157
▁Pagaliau	-5158
▁konstitu	-5159
▁nuveikti	-5160
▁pridurti	-5161
▁principą	-5162
▁sandorių	-5163
▁spaudimą	-5164
▁speciali	-5165
▁ypatingą	-5166
▁žodžiais	-5167
▁Juodosios	-5168
▁Valstijos	-5169
▁geriausia	-5170
▁nepalanki	-5171
▁prisidėjo	-5172
▁skiriamas	-5173
▁subsidiar	-5174
▁visuomenę	-5175
▁Britanijos	-5176
▁dokumentas	-5177
▁finansinio	-5178
▁konkrečiai	-5179
▁padarinius	-5180
▁pasirinkti	-5181
▁paskatinti	-5182
▁skaidrumas	-5183
▁tarpusavio	-5184
▁kaimynystės	-5185
▁prevencijos	-5186
▁susisiekimo	-5187
▁tarpusavyje	-5188
▁visuomenėje	-5189
▁įgaliojimus	-5190
▁konkurencija	-5191
▁konkurenciją	-5192
▁patvirtinimo	-5193
▁reikalavimas	-5194
▁kompetencijos	-5195
▁nacionalinius	-5196
▁įgyvendinimas	-5197
50	-5198
SK	-5199
ah	-5200
ALE	-5201
ask	-5202
ata	-5203
bur	-5204
cen	-5205
ena	-5206
gia	-5207
per	-5208
rai	-5209
rei	-5210
ukš	-5211
žym	-5212
▁0,	-5213
▁Gv	-5214
▁II	-5215
▁Ką	-5216
alyv	-5217
cidų	-5218
enta	-5219
iški	-5220
rank	-5221
tinų	-5222
ėsiu	-5223
▁AKR	-5224
▁BVP	-5225
▁Kos	-5226
▁Mat	-5227
▁Rag	-5228
▁rin	-5229
ančiu	-5230
avimų	-5231
iname	-5232
umais	-5233
uotis	-5234
ustat	-5235
ytojų	-5236
ėjimų	-5237
▁2004	-5238
▁Antr	-5239
▁Irak	-5240
▁Jame	-5241
▁Laik	-5242
▁Rūmų	-5243
▁ačiū	-5244
▁aštu	-5245
▁baud	-5246
▁būdų	-5247
▁dieg	-5248
▁efek	-5249
▁garb	-5250
▁irgi	-5251
▁ligų	-5252
▁simb	-5253
▁suma	-5254
▁žalą	-5255
▁žiau	-5256
andžio	-5257
dešimt	-5258
ekijos	-5259
osiose	-5260
▁Pavyz	-5261
▁Tunis	-5262
▁abiem	-5263
▁grand	-5264
▁ignor	-5265
▁jumis	-5266
▁kalbų	-5267
▁kokie	-5268
▁kokią	-5269
▁krize	-5270
▁natūr	-5271
▁nesil	-5272
▁pobūd	-5273
▁ryšio	-5274
▁skund	-5275
▁tikri	-5276
▁tradi	-5277
▁turto	-5278
▁vietą	-5279
▁ėmėsi	-5280
▁įreng	-5281
iamieji	-5282
tekcion	-5283
ygtinai	-5284
▁Kosovo	-5285
▁daugia	-5286
▁gaires	-5287
▁gamyba	-5288
▁išorin	-5289
▁judėti	-5290
▁komand	-5291
▁laikin	-5292
▁naujai	-5293
▁netaik	-5294
▁nuorod	-5295
▁rinkai	-5296
▁sienas	-5297
▁spalio	-5298
▁sporto	-5299
▁stengi	-5300
▁sujung	-5301
▁teismo	-5302
ininkams	-5303
irminink	-5304
uotojams	-5305
▁Europol	-5306
▁aspektą	-5307
▁intelek	-5308
▁kredito	-5309
▁laikyti	-5310
▁neturin	-5311
▁pagarba	-5312
▁palaiko	-5313
▁partijų	-5314
▁patenka	-5315
▁pirmąjį	-5316
▁pradėjo	-5317
▁saugoti	-5318
▁viešojo	-5319
▁dalyvauj	-5320
▁dioksido	-5321
▁išskyrus	-5322
▁narystės	-5323
▁nereikia	-5324
▁numatoma	-5325
▁pradžios	-5326
▁principu	-5327
▁statybos	-5328
▁ūkininkų	-5329
diskusijos	-5330
▁civilinės	-5331
▁papildomą	-5332
▁paprastai	-5333
▁paskelbti	-5334
▁pažeidimų	-5335
▁politinis	-5336
▁pradedant	-5337
▁pranešimų	-5338
▁produktai	-5339
▁skirtingų	-5340
▁teigiamai	-5341
▁uždrausti	-5342
▁vystymąsi	-5343
▁ataskaitos	-5344
▁atitinkamų	-5345
▁efektyvumo	-5346
▁egzistuoja	-5347
▁gyventojai	-5348
▁naudojamas	-5349
▁naudojamos	-5350
▁opozicijos	-5351
▁pasaulinio	-5352
▁pilietinės	-5353
▁potencialą	-5354
▁prioritetų	-5355
▁suteikiama	-5356
▁tūkstančių	-5357
▁ūkininkams	-5358
▁kiekvienoje	-5359
▁užtikrinimo	-5360
▁branduolinės	-5361
▁demokratijai	-5362
▁finansavimas	-5363
▁institucijas	-5364
▁nusikaltimus	-5365
▁pavaduotojas	-5366
▁perspektyvos	-5367
▁pastaraisiais	-5368
ja	-5369
ou	-5370
ėp	-5371
šv	-5372
amp	-5373
arm	-5374
dav	-5375
eną	-5376
lis	-5377
rab	-5378
tiz	-5379
uel	-5380
ūre	-5381
erts	-5382
gion	-5383
ikar	-5384
jekt	-5385
liui	-5386
loat	-5387
roji	-5388
tims	-5389
▁Bus	-5390
▁Ver	-5391
▁ban	-5392
▁deb	-5393
▁gab	-5394
▁vir	-5395
▁šak	-5396
▁žud	-5397
blema	-5398
eigti	-5399
intis	-5400
iuose	-5401
liais	-5402
lieka	-5403
ojama	-5404
ojimu	-5405
onien	-5406
ykime	-5407
▁2005	-5408
▁aukų	-5409
▁būdą	-5410
▁išme	-5411
▁kuro	-5412
▁liko	-5413
▁pakr	-5414
▁prat	-5415
▁prir	-5416
▁saus	-5417
▁skry	-5418
▁smer	-5419
▁tašk	-5420
▁tose	-5421
▁vari	-5422
▁ūkis	-5423
acijai	-5424
inimui	-5425
praneš	-5426
retori	-5427
▁Tiesą	-5428
▁Tūkst	-5429
▁atneš	-5430
▁balsų	-5431
▁centr	-5432
▁darbų	-5433
▁fondą	-5434
▁ilgai	-5435
▁iškėl	-5436
▁išlyg	-5437
▁kitur	-5438
▁leido	-5439
▁likti	-5440
▁makro	-5441
▁naudą	-5442
▁naštą	-5443
▁neišs	-5444
▁nemok	-5445
▁nesud	-5446
▁ribos	-5447
▁siūlo	-5448
▁sprag	-5449
▁sukūr	-5450
▁tautų	-5451
▁vadin	-5452
▁žinia	-5453
tariame	-5454
▁absurd	-5455
▁darbui	-5456
▁efektą	-5457
▁faktas	-5458
▁kampan	-5459
▁koment	-5460
▁koncep	-5461
▁lengva	-5462
▁manyti	-5463
▁metodą	-5464
▁neveik	-5465
▁nuosto	-5466
▁pajėgų	-5467
▁pavyks	-5468
▁potvyn	-5469
▁puikus	-5470
▁sukuri	-5471
▁svarba	-5472
▁tinklų	-5473
▁tradic	-5474
▁įvykių	-5475
antmečio	-5476
tabilumo	-5477
▁Centrin	-5478
▁Vidurio	-5479
▁asmenis	-5480
▁importo	-5481
▁išlikti	-5482
▁keletas	-5483
▁kuriant	-5484
▁neišven	-5485
▁nemažai	-5486
▁nepagrį	-5487
▁pasitel	-5488
▁pavyzdį	-5489
▁peržiūr	-5490
▁pirmojo	-5491
▁pradžia	-5492
▁prognoz	-5493
▁seksual	-5494
▁skurdži	-5495
▁tikslui	-5496
▁užimtum	-5497
▁vasario	-5498
Komisijos	-5499
▁atitiktų	-5500
▁atkūrimo	-5501
▁bendrąją	-5502
▁dalyvavo	-5503
▁daugumos	-5504
▁deryboms	-5505
▁eksploat	-5506
▁išlaidos	-5507
▁išplėsti	-5508
▁nesilaik	-5509
▁pateiktų	-5510
▁subalans	-5511
▁suprantu	-5512
▁sveikinu	-5513
▁vertybių	-5514
▁visuomet	-5515
▁įstatymo	-5516
▁Kroatijos	-5517
▁Pakistano	-5518
▁dalyvauja	-5519
▁klausimui	-5520
▁komitetui	-5521
▁konstituc	-5522
▁operatori	-5523
▁politines	-5524
▁praėjusią	-5525
▁situacija	-5526
▁situaciją	-5527
▁straipsnį	-5528
▁vertinimo	-5529
▁vidutinės	-5530
▁įvairovės	-5531
▁Prancūzija	-5532
▁grindžiama	-5533
▁išmetamųjų	-5534
▁laikotarpį	-5535
▁pareiškimą	-5536
▁pasaulinės	-5537
▁pateikiama	-5538
▁praktiškai	-5539
▁solidarumą	-5540
▁suprantama	-5541
▁veiksminga	-5542
▁vystymuisi	-5543
▁dalyvavimas	-5544
▁nacionalinę	-5545
▁pasirengusi	-5546
▁pirmininkui	-5547
▁susiduriame	-5548
▁tarptautinę	-5549
▁teritorijos	-5550
▁diskutuojame	-5551
▁investicijas	-5552
▁tarptautinio	-5553
▁trečiosiomis	-5554
▁tarptautinėje	-5555
▁kvalifikacijos	-5556
▁diskriminacijos	-5557
FI	-5558
IS	-5559
ją	-5560
kš	-5561
LDE	-5562
kar	-5563
oci	-5564
ros	-5565
ume	-5566
vež	-5567
▁23	-5568
▁24	-5569
▁26	-5570
▁De	-5571
▁Gu	-5572
▁ro	-5573
▁žr	-5574
2010	-5575
alsi	-5576
anas	-5577
kius	-5578
lika	-5579
olio	-5580
omai	-5581
sias	-5582
teik	-5583
tiką	-5584
tojų	-5585
uoto	-5586
yder	-5587
ėmės	-5588
▁Ber	-5589
▁Did	-5590
▁Ger	-5591
▁Hai	-5592
▁Str	-5593
▁apy	-5594
▁kan	-5595
▁mon	-5596
▁skl	-5597
-2013	-5598
Darbo	-5599
amoms	-5600
dėlio	-5601
egali	-5602
eiški	-5603
iamės	-5604
iečių	-5605
iktat	-5606
inome	-5607
iškus	-5608
mingų	-5609
razil	-5610
ykite	-5611
zoliu	-5612
ėtoją	-5613
ščion	-5614
▁ALDE	-5615
▁bais	-5616
▁chem	-5617
▁ding	-5618
▁kilo	-5619
▁lyti	-5620
▁pral	-5621
▁ženg	-5622
▁žodį	-5623
ąžinti	-5624
ėjimai	-5625
▁Esame	-5626
▁Kipro	-5627
▁Nyder	-5628
▁Tiesa	-5629
▁Verts	-5630
▁apmok	-5631
▁asmuo	-5632
▁atgal	-5633
▁atėjo	-5634
▁dinam	-5635
▁erdvę	-5636
▁motyv	-5637
▁nebuv	-5638
▁netik	-5639
▁radik	-5640
▁suras	-5641
▁sąmon	-5642
▁tarif	-5643
▁verta	-5644
▁vidur	-5645
padėtis	-5646
virtina	-5647
ėtumėte	-5648
▁Brazil	-5649
▁dvigub	-5650
▁galios	-5651
▁gamtos	-5652
▁gerbti	-5653
▁ilgiau	-5654
▁išband	-5655
▁išveng	-5656
▁kiekio	-5657
▁metams	-5658
▁mieste	-5659
▁narėje	-5660
▁reklam	-5661
▁riziką	-5662
▁sąveik	-5663
▁teisus	-5664
▁tekstą	-5665
▁tvarką	-5666
▁vertės	-5667
▁įsikiš	-5668
esticidų	-5669
▁atvirai	-5670
▁atvykti	-5671
▁draudži	-5672
▁ekstrem	-5673
▁iššūkių	-5674
▁laikais	-5675
▁lygmens	-5676
▁nesąžin	-5677
▁paketas	-5678
▁pasikar	-5679
▁pastabą	-5680
▁patekti	-5681
▁susidar	-5682
▁susidom	-5683
▁vykdoma	-5684
▁žodžius	-5685
Pirminink	-5686
▁Baltarus	-5687
▁Pasaulio	-5688
▁aspektai	-5689
▁aukštesn	-5690
▁ekonomin	-5691
▁išgirsti	-5692
▁judėjimo	-5693
▁judėjimą	-5694
▁krovinių	-5695
▁mokesčio	-5696
▁padėčiai	-5697
▁pasakyta	-5698
▁pasienio	-5699
▁politinę	-5700
▁poveikis	-5701
▁prekybai	-5702
▁reikalas	-5703
▁socialin	-5704
▁stebėtoj	-5705
▁tinkamos	-5706
▁trūkumas	-5707
▁įsteigti	-5708
▁įvairias	-5709
▁įvairovę	-5710
▁Japonijos	-5711
▁Nyderland	-5712
▁Reglament	-5713
▁atsakymas	-5714
▁balandžio	-5715
▁ekonominį	-5716
▁imigrantų	-5717
▁mažinimas	-5718
▁ministras	-5719
▁neišvengi	-5720
▁pagrįstai	-5721
▁papildomų	-5722
▁piliečius	-5723
▁religijos	-5724
▁skatinimo	-5725
▁socialine	-5726
▁sprendimu	-5727
▁terorizmo	-5728
▁vertiname	-5729
▁įtrauktos	-5730
▁Pavyzdžiui	-5731
▁atsakingos	-5732
▁europiečių	-5733
▁gamintojai	-5734
▁gyvenančių	-5735
▁interesams	-5736
▁nepamiršti	-5737
▁protekcion	-5738
▁užtikrintų	-5739
▁dažniausiai	-5740
▁paslaugomis	-5741
▁pranešėjams	-5742
▁prioritetai	-5743
▁prioritetas	-5744
▁sukeliančių	-5745
▁susipažinti	-5746
▁įsitikinusi	-5747
▁demokratinės	-5748
▁strategijoje	-5749
▁subsidiarumo	-5750
▁apgailestauju	-5751
▁supaprastinti	-5752
,5	-5753
IB	-5754
eč	-5755
jį	-5756
ka	-5757
koh	-5758
kon	-5759
lap	-5760
pus	-5761
sim	-5762
stį	-5763
ygi	-5764
zon	-5765
▁22	-5766
▁60	-5767
▁En	-5768
▁JK	-5769
▁St	-5770
▁dy	-5771
atos	-5772
ezid	-5773
gaiv	-5774
gali	-5775
icij	-5776
opol	-5777
rius	-5778
tral	-5779
uoda	-5780
uris	-5781
čias	-5782
įsta	-5783
▁Bir	-5784
▁ind	-5785
▁tro	-5786
▁užk	-5787
atlan	-5788
autis	-5789
irbti	-5790
iųsti	-5791
tojai	-5792
torių	-5793
uojau	-5794
uosiu	-5795
uotus	-5796
▁Aust	-5797
▁Bosn	-5798
▁darž	-5799
▁elgi	-5800
▁galo	-5801
▁gaus	-5802
▁keis	-5803
▁siau	-5804
▁suvo	-5805
▁žlug	-5806
aujama	-5807
avimai	-5808
finans	-5809
gyvend	-5810
igrant	-5811
pręsta	-5812
tingos	-5813
uotųjų	-5814
▁Irano	-5815
▁Kosov	-5816
▁Liber	-5817
▁dalij	-5818
▁darbe	-5819
▁forma	-5820
▁gyvul	-5821
▁idėja	-5822
▁islam	-5823
▁jaunų	-5824
▁kūryb	-5825
▁mumis	-5826
▁našta	-5827
▁neram	-5828
▁pašto	-5829
▁rimta	-5830
▁suman	-5831
▁šešis	-5832
▁žinią	-5833
ininkus	-5834
mingiau	-5835
▁abipus	-5836
▁anksto	-5837
▁antras	-5838
▁apskai	-5839
▁audito	-5840
▁būsime	-5841
▁fiskal	-5842
▁grąžin	-5843
▁indėlį	-5844
▁kenčia	-5845
▁kokias	-5846
▁miestų	-5847
▁pakenk	-5848
▁paties	-5849
▁ragina	-5850
▁skurdą	-5851
▁surink	-5852
▁sutaup	-5853
▁traged	-5854
▁įvesti	-5855
▁žodžiu	-5856
tvarkyti	-5857
▁Libijos	-5858
▁bendrus	-5859
▁dalykus	-5860
▁general	-5861
▁geresnę	-5862
▁klaidos	-5863
▁konkret	-5864
▁laikosi	-5865
▁narėmis	-5866
▁oficial	-5867
▁pasidal	-5868
▁pasimok	-5869
▁santyki	-5870
▁sukelia	-5871
▁sunkiai	-5872
▁sveikin	-5873
▁tarnyba	-5874
▁tinkamo	-5875
▁trūkumų	-5876
▁tyrimai	-5877
▁valdžia	-5878
▁Afrikoje	-5879
▁Ukrainos	-5880
▁agentūra	-5881
▁asmenims	-5882
▁atsakymą	-5883
▁autorius	-5884
▁didesnės	-5885
▁einantis	-5886
▁gyvenime	-5887
▁mokyklos	-5888
▁pasaulis	-5889
▁perduoti	-5890
▁poreikis	-5891
▁priemone	-5892
▁reikalus	-5893
▁remdamas	-5894
▁sistemai	-5895
▁skirtumų	-5896
▁sudarymo	-5897
▁susitaik	-5898
▁teisinių	-5899
▁uždaryti	-5900
▁vykdomas	-5901
▁įvykdyti	-5902
▁šaltinis	-5903
▁artimiaus	-5904
▁atsakinga	-5905
▁faktiškai	-5906
▁gamintojų	-5907
▁internetu	-5908
▁kontekste	-5909
▁nepakanka	-5910
▁numatytas	-5911
▁nusipelno	-5912
▁nuspręsti	-5913
▁paslaugos	-5914
▁prasidėjo	-5915
▁pridėtinę	-5916
▁protokolo	-5917
▁stabilumą	-5918
▁svarstymą	-5919
▁įvairiose	-5920
▁Socialistų	-5921
▁Transporto	-5922
▁atsakingas	-5923
▁didžiausių	-5924
▁iniciatyvų	-5925
▁klausimams	-5926
▁lygmenimis	-5927
▁mažiausiai	-5928
▁pasisakyti	-5929
▁pateikiami	-5930
▁politiniai	-5931
▁politinius	-5932
▁pritaikyti	-5933
▁reikalingi	-5934
▁sudėtingas	-5935
▁susitarimu	-5936
▁svarstomas	-5937
▁vertybėmis	-5938
▁asociacijos	-5939
▁ataskaitoje	-5940
▁demokratišk	-5941
▁didžiausias	-5942
▁direktyvoje	-5943
▁mechanizmus	-5944
▁paspartinti	-5945
▁primygtinai	-5946
▁reikalingos	-5947
▁straipsnyje	-5948
▁humanitarinę	-5949
▁išsiaiškinti	-5950
▁teritorijoje	-5951
▁vadovaujantis	-5952
▁diskriminacija	-5953
▁konkurencingumo	-5954
▁konkurencingumą	-5955
LT	-5956
ald	-5957
did	-5958
eta	-5959
mar	-5960
mui	-5961
nai	-5962
urs	-5963
ykd	-5964
ytu	-5965
yži	-5966
čią	-5967
▁El	-5968
dugn	-5969
entu	-5970
esia	-5971
ifik	-5972
igra	-5973
ikro	-5974
liav	-5975
mano	-5976
metį	-5977
onas	-5978
porc	-5979
pres	-5980
tiko	-5981
▁149	-5982
▁And	-5983
▁Buv	-5984
▁Pos	-5985
▁art	-5986
▁fil	-5987
▁for	-5988
▁gra	-5989
▁kos	-5990
▁lob	-5991
▁men	-5992
▁mės	-5993
▁nam	-5994
▁pli	-5995
▁res	-5996
▁sam	-5997
▁vos	-5998
bendr	-5999
esion	-6000
iskus	-6001
istro	-6002
kirst	-6003
omojo	-6004
oslav	-6005
uosel	-6006
usiai	-6007
▁Jūsų	-6008
▁Nuol	-6009
▁Savo	-6010
▁Taik	-6011
▁Toks	-6012
▁anti	-6013
▁atim	-6014
▁atom	-6015
▁būdo	-6016
▁mąst	-6017
▁norm	-6018
▁pusę	-6019
▁save	-6020
▁serg	-6021
▁tonų	-6022
▁uždr	-6023
▁įraš	-6024
aliųjų	-6025
amomis	-6026
ančiam	-6027
istane	-6028
pagalb	-6029
prašau	-6030
tosios	-6031
ymasis	-6032
▁aiškų	-6033
▁apgal	-6034
▁atkak	-6035
▁atmet	-6036
▁atoki	-6037
▁diena	-6038
▁idėją	-6039
▁iškil	-6040
▁jomis	-6041
▁kaden	-6042
▁kelio	-6043
▁kelti	-6044
▁kilti	-6045
▁krauj	-6046
▁krizė	-6047
▁metai	-6048
▁nauda	-6049
▁nauji	-6050
▁rimtą	-6051
▁siaub	-6052
▁teise	-6053
▁šešių	-6054
▁žinau	-6055
acijoms	-6056
acional	-6057
ančiame	-6058
damiesi	-6059
tadienį	-6060
▁Azijos	-6061
▁Norint	-6062
▁Raginu	-6063
▁Sudano	-6064
▁aiškią	-6065
▁atgaiv	-6066
▁aukoms	-6067
▁bankas	-6068
▁bendri	-6069
▁darbus	-6070
▁formul	-6071
▁gresia	-6072
▁kažkas	-6073
▁kitoje	-6074
▁klaidų	-6075
▁linkme	-6076
▁modelį	-6077
▁mokslo	-6078
▁neties	-6079
▁orient	-6080
▁sakiau	-6081
▁sakoma	-6082
▁seniai	-6083
▁skiria	-6084
▁skirst	-6085
▁teigia	-6086
▁teismų	-6087
▁tekste	-6088
▁trumpą	-6089
instituc	-6090
▁Ukraina	-6091
▁atsidūr	-6092
▁augimas	-6093
▁dažniau	-6094
▁išreikš	-6095
▁nemanau	-6096
▁pagarbą	-6097
▁pajamas	-6098
▁paraišk	-6099
▁reforma	-6100
▁spaudos	-6101
▁sudarys	-6102
▁suvokti	-6103
▁sąjunga	-6104
▁teismin	-6105
▁teroris	-6106
▁tokiais	-6107
▁trukmės	-6108
▁vadovai	-6109
▁valdyti	-6110
▁veiklai	-6111
▁įstaigų	-6112
▁įstatym	-6113
▁žaliavų	-6114
kalbėtoją	-6115
vyriausyb	-6116
▁Gruzijos	-6117
▁Piliečių	-6118
▁Raštiški	-6119
▁Vengrija	-6120
▁baudžiam	-6121
▁dialogas	-6122
▁ketiname	-6123
▁milijonų	-6124
▁mokėtojų	-6125
▁nelaimės	-6126
▁nepavyko	-6127
▁nuosekli	-6128
▁padėtimi	-6129
▁pasekmių	-6130
▁rinkimai	-6131
▁savaites	-6132
▁teisinio	-6133
▁turėjome	-6134
▁tvarkymo	-6135
▁valdymas	-6136
▁valstybė	-6137
▁vyriausi	-6138
▁įstatymą	-6139
▁Palankiai	-6140
▁Stabilumo	-6141
▁daugeliui	-6142
▁išnaudoti	-6143
▁kiekvieno	-6144
▁konflikto	-6145
▁krikščion	-6146
▁nereiškia	-6147
▁operacijų	-6148
▁palaikymo	-6149
▁pastangos	-6150
▁pesticidų	-6151
▁pozicijas	-6152
▁sistemoje	-6153
▁skatinama	-6154
▁skirtumai	-6155
▁stebėjimo	-6156
▁sudarytos	-6157
▁suteikimo	-6158
▁teigiamas	-6159
▁tikrinimo	-6160
▁vietovėse	-6161
▁Ekonomikos	-6162
▁apribojimų	-6163
▁efektyviai	-6164
▁ekonomines	-6165
▁geriausiai	-6166
▁konkrečius	-6167
▁laisvosios	-6168
▁motinystės	-6169
▁neatidėlio	-6170
▁neatitinka	-6171
▁pasakytina	-6172
▁produktais	-6173
▁profesinės	-6174
▁projektams	-6175
▁reguliuoti	-6176
▁situacijos	-6177
▁vadovautis	-6178
▁vertinimas	-6179
▁vidutinėms	-6180
▁Jungtinėmis	-6181
▁Vokietijoje	-6182
▁krikščionių	-6183
▁pareiškimas	-6184
▁patenkintas	-6185
▁prisijungti	-6186
▁reglamentas	-6187
▁tarptautinį	-6188
▁visapusišką	-6189
▁įgyvendinta	-6190
▁geležinkelio	-6191
▁kontroliuoti	-6192
▁reikalavimai	-6193
▁veiksmingiau	-6194
▁veiksmingumą	-6195
▁Tūkstantmečio	-6196
▁konferencijos	-6197
▁savarankiškai	-6198
▁diskriminaciją	-6199
DS	-6200
GL	-6201
UE	-6202
gu	-6203
šį	-6204
NGL	-6205
amu	-6206
ann	-6207
aul	-6208
bus	-6209
dai	-6210
das	-6211
eso	-6212
ečd	-6213
gas	-6214
gen	-6215
ieš	-6216
jam	-6217
lin	-6218
mei	-6219
oro	-6220
tri	-6221
uis	-6222
umb	-6223
uok	-6224
▁80	-6225
▁Ry	-6226
anau	-6227
anga	-6228
aros	-6229
eder	-6230
elia	-6231
erre	-6232
izmo	-6233
joje	-6234
mūsų	-6235
omun	-6236
totų	-6237
tynų	-6238
tąją	-6239
učių	-6240
ėjęs	-6241
▁198	-6242
▁GUE	-6243
▁Kub	-6244
▁det	-6245
▁lėk	-6246
▁mar	-6247
▁nub	-6248
▁vak	-6249
▁Šio	-6250
alias	-6251
rijai	-6252
tinos	-6253
čiais	-6254
▁Jums	-6255
▁Lond	-6256
▁Pask	-6257
▁Susi	-6258
▁Tema	-6259
▁aktą	-6260
▁areš	-6261
▁dėti	-6262
▁gelb	-6263
▁kraš	-6264
▁liūd	-6265
▁slap	-6266
▁soci	-6267
▁teko	-6268
▁veng	-6269
▁įnaš	-6270
▁štai	-6271
acinės	-6272
albėti	-6273
entams	-6274
esiems	-6275
ingumą	-6276
insime	-6277
iškumą	-6278
omybės	-6279
stilės	-6280
ydamos	-6281
ėjimui	-6282
▁Galiu	-6283
▁Japon	-6284
▁Moter	-6285
▁alkoh	-6286
▁baigi	-6287
▁darbu	-6288
▁fakto	-6289
▁gaben	-6290
▁gaila	-6291
▁grėsm	-6292
▁imasi	-6293
▁kainą	-6294
▁medic	-6295
▁nedar	-6296
▁nemat	-6297
▁nusis	-6298
▁padal	-6299
▁pakto	-6300
▁priel	-6301
▁ribas	-6302
▁suded	-6303
▁sugri	-6304
▁sumok	-6305
▁susil	-6306
▁tapat	-6307
▁toler	-6308
▁trečd	-6309
▁uostų	-6310
▁vieni	-6311
▁visam	-6312
▁įveik	-6313
▁švies	-6314
▁Žinau	-6315
uodamas	-6316
▁Pasiūl	-6317
▁Vertin	-6318
▁daliai	-6319
▁didina	-6320
▁diktat	-6321
▁inicij	-6322
▁išaišk	-6323
▁jūroje	-6324
▁kovoje	-6325
▁lyties	-6326
▁matėme	-6327
▁mažųjų	-6328
▁mintis	-6329
▁minėta	-6330
▁mokėti	-6331
▁organų	-6332
▁pirmen	-6333
▁plačia	-6334
▁rizika	-6335
▁turite	-6336
▁tvarka	-6337
cionaliz	-6338
vencijos	-6339
▁atsirad	-6340
▁atvejis	-6341
▁elgesio	-6342
▁galvoje	-6343
▁išsilav	-6344
▁karinių	-6345
▁konserv	-6346
▁kūrimas	-6347
▁laisves	-6348
▁leidimų	-6349
▁nedalyv	-6350
▁nedarbo	-6351
▁nuodugn	-6352
▁orienta	-6353
▁pakarto	-6354
▁paskolų	-6355
▁patrauk	-6356
▁plačiai	-6357
▁pramonę	-6358
▁reikėjo	-6359
▁remiame	-6360
▁sričiai	-6361
▁stovykl	-6362
▁sukuria	-6363
▁susidūr	-6364
▁tekstas	-6365
▁tikrais	-6366
▁veikimo	-6367
▁vertina	-6368
▁vietose	-6369
▁įrangos	-6370
▁įrodyti	-6371
ančiosios	-6372
▁Daugelis	-6373
▁Neseniai	-6374
▁Užsienio	-6375
▁ankstesn	-6376
▁demograf	-6377
▁didžiuli	-6378
▁energiją	-6379
▁galėčiau	-6380
▁išsamiai	-6381
▁kalbomis	-6382
▁kapitalo	-6383
▁laukiame	-6384
▁milijard	-6385
▁nereikal	-6386
▁nuomonių	-6387
▁parduoti	-6388
▁pasiruoš	-6389
▁praktika	-6390
▁pranešti	-6391
▁priimtos	-6392
▁procesus	-6393
▁sukurtos	-6394
▁susilaik	-6395
▁sveikata	-6396
▁sąskaita	-6397
▁teigiamų	-6398
▁teisingą	-6399
▁teisėtai	-6400
▁tokiomis	-6401
▁tolesnių	-6402
▁turinčių	-6403
▁veikloje	-6404
▁Remiantis	-6405
▁Strasbūre	-6406
▁bendrijos	-6407
▁didžiulis	-6408
▁dirbančių	-6409
▁dokumente	-6410
▁dokumento	-6411
▁elementas	-6412
▁istorijos	-6413
▁ištaisyti	-6414
▁iššūkiais	-6415
▁mažosioms	-6416
▁mokėtojai	-6417
▁naudojami	-6418
▁nesuprant	-6419
▁numatytos	-6420
▁palaikome	-6421
▁papildyti	-6422
▁pateiktus	-6423
▁perdavimo	-6424
▁praktikos	-6425
▁pranešėją	-6426
▁profesion	-6427
▁sekretori	-6428
▁svarstome	-6429
▁veiksmais	-6430
▁vidutinių	-6431
▁įstatymus	-6432
▁Pranešimas	-6433
▁aplinkybes	-6434
▁atnaujinti	-6435
▁automobili	-6436
▁dokumentai	-6437
▁geriausias	-6438
▁kadencijos	-6439
▁konkrečios	-6440
▁mechanizmą	-6441
▁pakeitimui	-6442
▁pasimokyti	-6443
▁pažeidimus	-6444
▁politikoje	-6445
▁socialines	-6446
▁suderintas	-6447
▁vertinamas	-6448
▁vyriausybę	-6449
▁Valstijomis	-6450
▁diskusijoje	-6451
▁išnagrinėti	-6452
▁patobulinti	-6453
▁referendumo	-6454
▁reikalavimą	-6455
▁televizijos	-6456
▁įgaliojimai	-6457
▁įsipareigojo	-6458
▁Atsižvelgdamas	-6459
▁administravimo	-6460
▁pirmininkavimo	-6461
▁besivystančioms	-6462
AS	-6463
GF	-6464
TE	-6465
co	-6466
gą	-6467
ho	-6468
jū	-6469
št	-6470
eic	-6471
igi	-6472
lim	-6473
mai	-6474
mis	-6475
nes	-6476
oto	-6477
ovo	-6478
reg	-6479
son	-6480
▁3.	-6481
▁EC	-6482
▁Lo	-6483
▁Mc	-6484
▁Or	-6485
▁lo	-6486
▁ri	-6487
▁up	-6488
angl	-6489
anui	-6490
atui	-6491
auna	-6492
avus	-6493
dymo	-6494
erim	-6495
ijau	-6496
ileg	-6497
kios	-6498
main	-6499
olid	-6500
omet	-6501
pild	-6502
poli	-6503
prie	-6504
toji	-6505
ybių	-6506
ėlyn	-6507
ėtum	-6508
▁Aps	-6509
▁Der	-6510
▁Jug	-6511
▁Ket	-6512
▁Liu	-6513
▁Mal	-6514
▁PPO	-6515
▁Pap	-6516
▁gėd	-6517
▁imp	-6518
▁kin	-6519
▁mit	-6520
▁nul	-6521
▁rep	-6522
▁tad	-6523
▁tėv	-6524
▁Šią	-6525
▁žad	-6526
alaus	-6527
amais	-6528
avusi	-6529
iamus	-6530
orime	-6531
rinti	-6532
taria	-6533
tauti	-6534
varbu	-6535
šveln	-6536
▁Atro	-6537
▁Būtų	-6538
▁Herc	-6539
▁Pram	-6540
▁Sach	-6541
▁dreb	-6542
▁dvas	-6543
▁ekos	-6544
▁gatv	-6545
▁iškr	-6546
▁jėgų	-6547
▁minė	-6548
▁pere	-6549
▁ruoš	-6550
▁ruož	-6551
▁skyr	-6552
▁tipo	-6553
albant	-6554
entais	-6555
obiliz	-6556
odamas	-6557
turėtų	-6558
▁Klaus	-6559
▁Tikiu	-6560
▁Visos	-6561
▁aktas	-6562
▁apkal	-6563
▁atšil	-6564
▁dirvo	-6565
▁drąsi	-6566
▁faktą	-6567
▁ištir	-6568
▁kairi	-6569
▁kaitą	-6570
▁kenki	-6571
▁lemia	-6572
▁lieka	-6573
▁mobil	-6574
▁nenor	-6575
▁nesus	-6576
▁netek	-6577
▁netol	-6578
▁paded	-6579
▁pager	-6580
▁pagir	-6581
▁palūk	-6582
▁popie	-6583
▁rimtų	-6584
▁skamb	-6585
▁tolim	-6586
▁tvarų	-6587
▁vykdo	-6588
▁Šveic	-6589
▁šeimų	-6590
▁žemyn	-6591
acijoje	-6592
žvelgti	-6593
▁Amerik	-6594
▁Manome	-6595
▁Norime	-6596
▁Prezid	-6597
▁Reikal	-6598
▁Teisės	-6599
▁apytik	-6600
▁atsako	-6601
▁aštuon	-6602
▁dydžio	-6603
▁išgird	-6604
▁išvadų	-6605
▁kasmet	-6606
▁keleto	-6607
▁krizių	-6608
▁lyderi	-6609
▁mažėja	-6610
▁miesto	-6611
▁nepiln	-6612
▁pagrei	-6613
▁pamirš	-6614
▁partij	-6615
▁paskui	-6616
▁pirmas	-6617
▁planus	-6618
▁pobūdį	-6619
▁rengti	-6620
▁repres	-6621
▁sutelk	-6622
▁taryba	-6623
▁teksto	-6624
▁triukš	-6625
▁vakarą	-6626
▁viešai	-6627
▁švaist	-6628
▁žurnal	-6629
amblėjos	-6630
▁Austral	-6631
▁Indijos	-6632
▁ateitis	-6633
▁atskait	-6634
▁būtinyb	-6635
▁darbdav	-6636
▁esminis	-6637
▁išlaisv	-6638
▁išlieka	-6639
▁kultūrą	-6640
▁metodas	-6641
▁misijos	-6642
▁modelio	-6643
▁naujųjų	-6644
▁neatsak	-6645
▁nenumat	-6646
▁pasiryž	-6647
▁pasirūp	-6648
▁pačioje	-6649
▁prieigą	-6650
▁rinkėjų	-6651
▁rūmuose	-6652
▁stojimo	-6653
▁surasti	-6654
▁susieti	-6655
▁svarbiu	-6656
▁tinkami	-6657
▁valdymą	-6658
▁vienodą	-6659
▁Žaliųjų	-6660
▁žmogišk	-6661
▁Jugoslav	-6662
▁Kiekvien	-6663
▁Libijoje	-6664
▁Peticijų	-6665
▁Rumunija	-6666
▁atnaujin	-6667
▁atskirti	-6668
▁baronien	-6669
▁bendrais	-6670
▁didžiulį	-6671
▁kelionės	-6672
▁moderniz	-6673
▁naujoves	-6674
▁neigiamą	-6675
▁nenorime	-6676
▁nepavyks	-6677
▁nusiteik	-6678
▁pabrėžia	-6679
▁pagrindo	-6680
▁pasekmes	-6681
▁paversti	-6682
▁pavojing	-6683
▁prieinam	-6684
▁privileg	-6685
▁regionai	-6686
▁regionui	-6687
▁stabiliz	-6688
▁studentų	-6689
▁sudarytų	-6690
▁supranta	-6691
▁susijusį	-6692
▁suteiktų	-6693
▁teisinis	-6694
▁tikėtina	-6695
▁tvirtesn	-6696
▁veiksnys	-6697
▁vykdomos	-6698
▁įstaigos	-6699
▁ekosistem	-6700
▁ištekliai	-6701
▁judėjimas	-6702
▁lūkesčius	-6703
▁perkėlimo	-6704
▁prisideda	-6705
▁regionams	-6706
▁siekdamos	-6707
▁skatinant	-6708
▁svarstymo	-6709
▁tekstilės	-6710
▁vertinama	-6711
▁viešosios	-6712
▁šaltinius	-6713
▁ūkininkai	-6714
▁Jungtinėje	-6715
▁Slovakijos	-6716
▁dalyvavimo	-6717
▁dokumentus	-6718
▁finansines	-6719
▁inovacijas	-6720
▁kompromiso	-6721
▁naudojimas	-6722
▁patikrinti	-6723
▁patvirtina	-6724
▁politiškai	-6725
▁prieštarin	-6726
▁suderinimo	-6727
▁sugebėsime	-6728
▁transatlan	-6729
▁vyriausybė	-6730
▁įtvirtinti	-6731
▁Karalystėje	-6732
▁atitinkamai	-6733
▁atitinkamas	-6734
▁atsižvelgta	-6735
▁delegacijos	-6736
▁gerbiamieji	-6737
▁informavimo	-6738
▁koordinuoti	-6739
▁palengvinti	-6740
▁socialinius	-6741
▁Prancūzijoje	-6742
▁įgyvendinama	-6743
▁parlamentinės	-6744
▁rekomendacijų	-6745
▁institucijomis	-6746
▁konferencijoje	-6747
▁rekomendacijos	-6748
▁suinteresuotos	-6749
NR	-6750
ck	-6751
dą	-6752
ks	-6753
nu	-6754
pų	-6755
se	-6756
6-0	-6757
NTE	-6758
Par	-6759
ack	-6760
all	-6761
alu	-6762
dik	-6763
ell	-6764
ero	-6765
iog	-6766
jer	-6767
pjū	-6768
rob	-6769
sit	-6770
sto	-6771
ten	-6772
yšk	-6773
šta	-6774
▁2.	-6775
▁31	-6776
▁Bo	-6777
▁Br	-6778
▁Jo	-6779
▁Ob	-6780
▁Sm	-6781
▁TV	-6782
▁ac	-6783
anai	-6784
apie	-6785
asti	-6786
atus	-6787
blog	-6788
esnė	-6789
ioms	-6790
onor	-6791
skir	-6792
stos	-6793
tali	-6794
tino	-6795
tumo	-6796
ūdin	-6797
žiai	-6798
▁Alb	-6799
▁Ank	-6800
▁Bro	-6801
▁Eur	-6802
▁PSE	-6803
▁Tau	-6804
▁Tib	-6805
▁dyd	-6806
▁dži	-6807
▁jun	-6808
▁neu	-6809
▁num	-6810
▁rak	-6811
/2008	-6812
/2010	-6813
ausiu	-6814
iamet	-6815
ietuv	-6816
imens	-6817
jektų	-6818
minga	-6819
ojami	-6820
ontro	-6821
otiek	-6822
čiuop	-6823
▁Visa	-6824
▁audi	-6825
▁biur	-6826
▁dang	-6827
▁emis	-6828
▁farm	-6829
▁ilgą	-6830
▁kank	-6831
▁menk	-6832
▁nepr	-6833
▁pais	-6834
▁rašy	-6835
▁rūmų	-6836
▁rūpi	-6837
▁tunų	-6838
▁varž	-6839
▁vyno	-6840
▁įkal	-6841
▁Žmon	-6842
eliant	-6843
emijos	-6844
intume	-6845
istams	-6846
pjūčio	-6847
ravimo	-6848
utinės	-6849
ytojai	-6850
ėliams	-6851
▁Aišku	-6852
▁Gazos	-6853
▁Kongo	-6854
▁Nepri	-6855
▁atrod	-6856
▁būdai	-6857
▁daugi	-6858
▁dešim	-6859
▁donor	-6860
▁duoti	-6861
▁galią	-6862
▁idėjų	-6863
▁jokiu	-6864
▁lanks	-6865
▁ligos	-6866
▁lyder	-6867
▁mikro	-6868
▁moral	-6869
▁noras	-6870
▁nužud	-6871
▁papli	-6872
▁sakau	-6873
▁skand	-6874
▁spręs	-6875
▁stamb	-6876
▁taiko	-6877
▁tarsi	-6878
▁Atrodo	-6879
▁Lietuv	-6880
▁Paryži	-6881
▁Prašau	-6882
▁Tokios	-6883
▁apimtų	-6884
▁atstat	-6885
▁augalų	-6886
▁būtinų	-6887
▁dalyką	-6888
▁dvejus	-6889
▁dvišal	-6890
▁fondai	-6891
▁gamybą	-6892
▁ginklų	-6893
▁grįžti	-6894
▁imtųsi	-6895
▁laukti	-6896
▁lygiai	-6897
▁minėtų	-6898
▁nedels	-6899
▁nukryp	-6900
▁padėjo	-6901
▁pasmer	-6902
▁platin	-6903
▁ryšius	-6904
▁simbol	-6905
▁suform	-6906
▁sugrįž	-6907
▁sunaik	-6908
▁susigr	-6909
▁sutiko	-6910
▁turinį	-6911
▁tyrimo	-6912
▁viršūn	-6913
▁įmones	-6914
▁šalimi	-6915
▁žinios	-6916
ausiomis	-6917
problema	-6918
▁Dauguma	-6919
▁Demokra	-6920
▁Nemanau	-6921
▁Serbija	-6922
▁Solidar	-6923
▁Sutartį	-6924
▁apginti	-6925
▁apibend	-6926
▁apčiuop	-6927
▁atidėti	-6928
▁baigtas	-6929
▁būtinai	-6930
▁dideliu	-6931
▁ieškoti	-6932
▁išklaus	-6933
▁iškreip	-6934
▁išraišk	-6935
▁išreišk	-6936
▁keliais	-6937
▁kituose	-6938
▁koncent	-6939
▁kryptis	-6940
▁kultūrų	-6941
▁laikomi	-6942
▁lėšomis	-6943
▁metinės	-6944
▁mobiliz	-6945
▁nariais	-6946
▁naujoji	-6947
▁pastatų	-6948
▁patirtį	-6949
▁paveldo	-6950
▁perdirb	-6951
▁platesn	-6952
▁prašoma	-6953
▁prašyti	-6954
▁proporc	-6955
▁reikalo	-6956
▁reikšmę	-6957
▁stabili	-6958
▁sutikti	-6959
▁sušveln	-6960
▁taikomų	-6961
▁teismas	-6962
▁tinklus	-6963
▁turinio	-6964
▁užduoti	-6965
▁užuojau	-6966
▁įdiegti	-6967
▁žodžiai	-6968
▁Antrasis	-6969
▁Moldovos	-6970
▁Palestin	-6971
▁Sveikinu	-6972
▁agentūrą	-6973
▁apriboti	-6974
▁atostogų	-6975
▁biudžete	-6976
▁daugumai	-6977
▁didžioji	-6978
▁didžiulę	-6979
▁geresnio	-6980
▁geresnis	-6981
▁išmetamų	-6982
▁išpuolių	-6983
▁kalbėtoj	-6984
▁ketinama	-6985
▁konkretų	-6986
▁migrantų	-6987
▁nepageid	-6988
▁nepripaž	-6989
▁nesvarbu	-6990
▁padidėjo	-6991
▁pagrįstą	-6992
▁paprasta	-6993
▁patirtis	-6994
▁pavojaus	-6995
▁poreikio	-6996
▁posėdžių	-6997
▁potvynių	-6998
▁pradėtas	-6999
▁prielaid	-7000
▁pritarta	-7001
▁procesui	-7002
▁raginame	-7003
▁regionas	-7004
▁reikalai	-7005
▁sankcijų	-7006
▁savaičių	-7007
▁sumažėjo	-7008
▁sunkumus	-7009
▁svarbiau	-7010
▁teisėtos	-7011
▁trūkumus	-7012
▁tyrimams	-7013
▁veiksnių	-7014
ekonomikos	-7015
▁atsiranda	-7016
▁balsavome	-7017
▁daugiamet	-7018
▁dvidešimt	-7019
▁ilgalaikį	-7020
▁internete	-7021
▁kalbėjote	-7022
▁milijonai	-7023
▁nagrinėti	-7024
▁narkotikų	-7025
▁naudojama	-7026
▁naudojasi	-7027
▁nepilname	-7028
▁nereikėtų	-7029
▁nesuderin	-7030
▁nesutarim	-7031
▁nukreipti	-7032
▁nuolatinį	-7033
▁pagalvoti	-7034
▁pardavimo	-7035
▁pasauliui	-7036
▁pasiekėme	-7037
▁pasiūlyta	-7038
▁pastebėti	-7039
▁politiniu	-7040
▁pozicijai	-7041
▁požiūriui	-7042
▁priežiūra	-7043
▁projektai	-7044
▁reiškinys	-7045
▁sankcijas	-7046
▁socialiai	-7047
▁struktūrą	-7048
▁suteiktas	-7049
▁uždavinių	-7050
▁uždavinys	-7051
▁užtikrina	-7052
▁įstatymas	-7053
▁įvairiais	-7054
▁Karalystės	-7055
▁Rumunijoje	-7056
▁Tarptautin	-7057
▁aplinkybių	-7058
▁bendrovėms	-7059
▁dabartinių	-7060
▁dalyvavimą	-7061
▁ekonominiu	-7062
▁garantuoti	-7063
▁gyventojus	-7064
▁komunikatą	-7065
▁konvencija	-7066
▁kriterijai	-7067
▁netinkamas	-7068
▁nuolatinis	-7069
▁pacientams	-7070
▁pagrindinį	-7071
▁papildomos	-7072
▁parlamentų	-7073
▁patenkinta	-7074
▁pranešimai	-7075
▁pranešimus	-7076
▁priežastys	-7077
▁prioritetu	-7078
▁pripažįsta	-7079
▁profesinių	-7080
▁stebėsenos	-7081
▁ženklinimo	-7082
▁Afganistano	-7083
▁Makedonijos	-7084
▁Pagrindinis	-7085
▁atitinkamos	-7086
▁europiečiai	-7087
▁galimybėmis	-7088
▁grindžiamas	-7089
▁kiekvienais	-7090
▁nevyriausyb	-7091
▁nusikalstam	-7092
▁paskirstymo	-7093
▁pavaduotoja	-7094
▁prezidentas	-7095
▁rezoliucijų	-7096
▁solidarumas	-7097
▁vyriausybei	-7098
▁bendruomenės	-7099
▁intelektinės	-7100
▁investicijos	-7101
▁kompetencija	-7102
▁koordinavimą	-7103
▁nepakankamai	-7104
▁pasitikėjimo	-7105
▁pusiausvyros	-7106
▁atskaitomybės	-7107
▁institucijose	-7108
▁nepriklausomą	-7109
▁suinteresuotųjų	-7110
.-	-7111
2,	-7112
BT	-7113
DA	-7114
IP	-7115
IV	-7116
OL	-7117
VM	-7118
af	-7119
dų	-7120
gl	-7121
no	-7122
COS	-7123
IDS	-7124
abv	-7125
arą	-7126
dak	-7127
hol	-7128
lus	-7129
sel	-7130
tuk	-7131
tęs	-7132
ulz	-7133
viz	-7134
štų	-7135
▁29	-7136
▁70	-7137
▁CE	-7138
▁Dv	-7139
▁Jų	-7140
▁Ko	-7141
▁Le	-7142
▁Pl	-7143
▁Šk	-7144
ampa	-7145
araš	-7146
aver	-7147
egov	-7148
enes	-7149
entą	-7150
iasi	-7151
inėj	-7152
izmu	-7153
kaid	-7154
kaln	-7155
nauj	-7156
praš	-7157
reip	-7158
riją	-7159
riki	-7160
rumo	-7161
saug	-7162
sich	-7163
unoj	-7164
yktų	-7165
yvar	-7166
zito	-7167
žiau	-7168
žval	-7169
▁EIB	-7170
▁FRO	-7171
▁Isl	-7172
▁Kom	-7173
▁MER	-7174
▁Mek	-7175
▁Min	-7176
▁PVM	-7177
▁Sep	-7178
▁Sus	-7179
▁akl	-7180
▁bed	-7181
▁dav	-7182
▁dia	-7183
▁juk	-7184
▁neo	-7185
▁nov	-7186
▁ord	-7187
▁raj	-7188
▁ram	-7189
▁vyn	-7190
COSUR	-7191
atsak	-7192
austi	-7193
enoje	-7194
gauti	-7195
ijimo	-7196
inasi	-7197
inėti	-7198
iomis	-7199
iteto	-7200
mesti	-7201
odama	-7202
orius	-7203
osime	-7204
tingo	-7205
tingą	-7206
tiška	-7207
uojam	-7208
uotės	-7209
yboje	-7210
ystei	-7211
ėdžio	-7212
▁Esti	-7213
▁Joje	-7214
▁Praš	-7215
▁Saug	-7216
▁Stok	-7217
▁Tada	-7218
▁Vaik	-7219
▁Viet	-7220
▁cikl	-7221
▁etik	-7222
▁gais	-7223
▁liud	-7224
▁norą	-7225
▁piet	-7226
▁renk	-7227
▁savi	-7228
▁toje	-7229
▁toms	-7230
▁zoną	-7231
▁šiau	-7232
▁šimt	-7233
▁ūkių	-7234
audami	-7235
eityje	-7236
imbabv	-7237
indami	-7238
mingas	-7239
omunik	-7240
orizon	-7241
pasiūl	-7242
uodama	-7243
▁Antro	-7244
▁Dunoj	-7245
▁Energ	-7246
▁Irane	-7247
▁Tokiu	-7248
▁atmes	-7249
▁blogi	-7250
▁būsim	-7251
▁galių	-7252
▁ištik	-7253
▁jauči	-7254
▁kitok	-7255
▁kruop	-7256
▁kvotų	-7257
▁ligon	-7258
▁mastą	-7259
▁mažos	-7260
▁mažum	-7261
▁mėsos	-7262
▁pasit	-7263
▁patar	-7264
▁plane	-7265
▁planų	-7266
▁redak	-7267
▁sauga	-7268
▁saugą	-7269
▁smulk	-7270
▁taiky	-7271
▁telef	-7272
▁tiesa	-7273
▁vaizd	-7274
▁įdomu	-7275
▁įvyki	-7276
▁Škoti	-7277
estauti	-7278
tacijos	-7279
ultūros	-7280
ėtumėme	-7281
▁Airija	-7282
▁Diskus	-7283
▁FRONTE	-7284
▁Ketvir	-7285
▁Lotynų	-7286
▁Meksik	-7287
▁Schulz	-7288
▁atrank	-7289
▁būdais	-7290
▁derėtų	-7291
▁dienas	-7292
▁dvejop	-7293
▁galimą	-7294
▁galimų	-7295
▁imperi	-7296
▁išmokų	-7297
▁išryšk	-7298
▁išties	-7299
▁kalbas	-7300
▁kartoj	-7301
▁krizei	-7302
▁lėktuv	-7303
▁nebėra	-7304
▁nekant	-7305
▁nenaud	-7306
▁paband	-7307
▁padėsi	-7308
▁parodo	-7309
▁paveik	-7310
▁pavien	-7311
▁pertek	-7312
▁prarad	-7313
▁puosel	-7314
▁reiški	-7315
▁rengia	-7316
▁rimtas	-7317
▁sakėte	-7318
▁salėje	-7319
▁skland	-7320
▁skolos	-7321
▁smurtu	-7322
▁sutrik	-7323
▁tautos	-7324
▁tikrus	-7325
▁tolesn	-7326
▁turbūt	-7327
▁vykusi	-7328
▁Šiomis	-7329
▁žodžių	-7330
asdešimt	-7331
uosiuose	-7332
▁Stokhol	-7333
▁Teismas	-7334
▁Tikimės	-7335
▁aplinka	-7336
▁apsirib	-7337
▁apsirūp	-7338
▁atliktų	-7339
▁bandymų	-7340
▁būtinos	-7341
▁dalytis	-7342
▁daugumą	-7343
▁dėkinga	-7344
▁fondais	-7345
▁geresnį	-7346
▁indėlis	-7347
▁išimčių	-7348
▁iškraip	-7349
▁išplėti	-7350
▁klastoj	-7351
▁leidimo	-7352
▁naudoja	-7353
▁naujien	-7354
▁nedidel	-7355
▁nepadar	-7356
▁pajamos	-7357
▁pareigą	-7358
▁pasisek	-7359
▁patentų	-7360
▁pirmiau	-7361
▁prašymų	-7362
▁prireik	-7363
▁prisiėm	-7364
▁privači	-7365
▁skirtus	-7366
▁skurdas	-7367
▁sritims	-7368
▁susilpn	-7369
▁svarbią	-7370
▁tarnybų	-7371
▁termino	-7372
▁transli	-7373
▁tvarios	-7374
▁tvarumo	-7375
▁vaistus	-7376
▁verslui	-7377
▁vienoje	-7378
▁visuose	-7379
▁vykdomą	-7380
▁Baigdama	-7381
▁Hercegov	-7382
▁MERCOSUR	-7383
▁Nacional	-7384
▁Posėdžio	-7385
▁Turėtume	-7386
▁apibūdin	-7387
▁apsaugai	-7388
▁atsirado	-7389
▁dujotiek	-7390
▁dėkingas	-7391
▁galutinį	-7392
▁istoriją	-7393
▁mokestis	-7394
▁neigiamų	-7395
▁nepamirš	-7396
▁nepateik	-7397
▁neįtrauk	-7398
▁nuomones	-7399
▁nuostata	-7400
▁pasikeit	-7401
▁pasitelk	-7402
▁perkelti	-7403
▁pokyčiai	-7404
▁projekte	-7405
▁signalas	-7406
▁skrydžių	-7407
▁suvartoj	-7408
▁teikiant	-7409
▁tikimasi	-7410
▁valdymui	-7411
▁vertybės	-7412
▁viršūnių	-7413
▁įtikinti	-7414
▁Graikijai	-7415
▁aspektais	-7416
▁galutinis	-7417
▁interesai	-7418
▁kalbėjusi	-7419
▁kapitaliz	-7420
▁korupcija	-7421
▁miestuose	-7422
▁naujosios	-7423
▁neteisėta	-7424
▁pakalbėti	-7425
▁pakartoti	-7426
▁pakeitimu	-7427
▁paskatino	-7428
▁pastarųjų	-7429
▁pateiksiu	-7430
▁pateiktos	-7431
▁pavyzdžiu	-7432
▁penkerius	-7433
▁perskirst	-7434
▁praeities	-7435
▁rugpjūčio	-7436
▁siekdamas	-7437
▁sumažinta	-7438
▁supratimo	-7439
▁sutarčiai	-7440
▁sutinkame	-7441
▁sėkmingas	-7442
▁tarpinink	-7443
▁turinčios	-7444
▁universit	-7445
▁užtikrins	-7446
▁Graikijoje	-7447
▁Komisijoje	-7448
▁Palestinos	-7449
▁atskirtimi	-7450
▁atstovauja	-7451
▁balsuojama	-7452
▁biologinės	-7453
▁ilgalaikio	-7454
▁konvenciją	-7455
▁moksliniai	-7456
▁nepritariu	-7457
▁oficialiai	-7458
▁padariniai	-7459
▁pareigūnai	-7460
▁pasirašyti	-7461
▁pažeidimas	-7462
▁peržiūrėti	-7463
▁piliečiais	-7464
▁profesinio	-7465
▁reglamente	-7466
▁susitarime	-7467
▁įgaliojimų	-7468
▁Kopenhagoje	-7469
▁Svarbiausia	-7470
▁džiaugiamės	-7471
▁laikotarpis	-7472
▁laipsniškai	-7473
▁mechanizmas	-7474
▁organizuoti	-7475
▁praėjusiais	-7476
▁reguliavimą	-7477
▁taisyklėmis	-7478
▁tiesioginių	-7479
▁užtikrinama	-7480
▁Jugoslavijos	-7481
▁Pirmininkauj	-7482
▁darbuotojais	-7483
▁demokratinių	-7484
▁diskusijomis	-7485
▁konsultacijų	-7486
▁laikotarpiui	-7487
▁patvirtinimą	-7488
▁tarpinstituc	-7489
▁apgailestauti	-7490
▁apmokestinimo	-7491
▁darbotvarkėje	-7492
▁investicijoms	-7493
▁patvirtinimas	-7494
▁tarptautinius	-7495
▁technologijos	-7496
▁infrastruktūrą	-7497
▁nepriklausomai	-7498
▁neatsižvelgiant	-7499
AF	-7500
BG	-7501
ND	-7502
de	-7503
ot	-7504
tę	-7505
abų	-7506
adą	-7507
aks	-7508
eiš	-7509
els	-7510
mėn	-7511
pak	-7512
pid	-7513
pre	-7514
ski	-7515
yme	-7516
ardo	-7517
aukš	-7518
buvo	-7519
džią	-7520
etos	-7521
eško	-7522
gios	-7523
gąst	-7524
ilio	-7525
ivid	-7526
pret	-7527
stai	-7528
ydov	-7529
yste	-7530
ąlyg	-7531
ūdis	-7532
ūriz	-7533
▁Ark	-7534
▁Ati	-7535
▁Gen	-7536
▁Jem	-7537
▁SIS	-7538
▁Van	-7539
▁apl	-7540
▁než	-7541
▁tes	-7542
▁ved	-7543
aikau	-7544
anaud	-7545
anija	-7546
ankūn	-7547
arija	-7548
ateis	-7549
eista	-7550
engia	-7551
iantį	-7552
omais	-7553
prasm	-7554
tenka	-7555
tiems	-7556
vaizd	-7557
vieno	-7558
voliu	-7559
ėjais	-7560
▁Darb	-7561
▁Lank	-7562
▁Nesu	-7563
▁Nėra	-7564
▁Stav	-7565
▁atsk	-7566
▁beje	-7567
▁būkl	-7568
▁gili	-7569
▁liga	-7570
▁mand	-7571
▁pain	-7572
▁test	-7573
▁trak	-7574
▁tran	-7575
▁trej	-7576
▁voki	-7577
▁zona	-7578
▁Žali	-7579
eginio	-7580
ingais	-7581
istema	-7582
jektyv	-7583
pręstų	-7584
tinink	-7585
usioms	-7586
utinių	-7587
ėjimus	-7588
ėjusią	-7589
▁Venes	-7590
▁akmen	-7591
▁arabų	-7592
▁augin	-7593
▁brang	-7594
▁bruož	-7595
▁dalys	-7596
▁domin	-7597
▁esamą	-7598
▁galin	-7599
▁gauna	-7600
▁gerov	-7601
▁ilgas	-7602
▁išvyk	-7603
▁juris	-7604
▁kaina	-7605
▁mėlyn	-7606
▁narei	-7607
▁nesut	-7608
▁norim	-7609
▁normų	-7610
▁nusiv	-7611
▁pavėl	-7612
▁pačią	-7613
▁pelno	-7614
▁psich	-7615
▁radio	-7616
▁riboj	-7617
▁savęs	-7618
▁sunkų	-7619
▁taršą	-7620
▁teisį	-7621
▁telek	-7622
▁tiesą	-7623
▁tikro	-7624
▁tikru	-7625
▁turim	-7626
▁tėvai	-7627
▁užmoj	-7628
▁užter	-7629
▁įvaik	-7630
▁Šiais	-7631
▁žodis	-7632
anijoje	-7633
ančioje	-7634
kaityti	-7635
priemon	-7636
uotojus	-7637
▁Galime	-7638
▁Haičio	-7639
▁Island	-7640
▁Kankūn	-7641
▁Septin	-7642
▁Teisių	-7643
▁akcent	-7644
▁apibūd	-7645
▁apsunk	-7646
▁apyvar	-7647
▁atidar	-7648
▁atvejį	-7649
▁baigta	-7650
▁buvome	-7651
▁būčiau	-7652
▁daržov	-7653
▁didele	-7654
▁dimens	-7655
▁dislok	-7656
▁islamo	-7657
▁kokius	-7658
▁kontak	-7659
▁kūrimą	-7660
▁laikau	-7661
▁mokymą	-7662
▁neginč	-7663
▁nesame	-7664
▁norite	-7665
▁pablog	-7666
▁paketu	-7667
▁paliek	-7668
▁pasist	-7669
▁person	-7670
▁piliet	-7671
▁pradės	-7672
▁prekės	-7673
▁primen	-7674
▁protes	-7675
▁sritys	-7676
▁sąvoka	-7677
▁teigti	-7678
▁teisei	-7679
▁tinklą	-7680
▁trukdo	-7681
▁verslą	-7682
▁verčia	-7683
▁vietoj	-7684
▁viziją	-7685
▁įvykti	-7686
igraciją	-7687
inančios	-7688
ininkais	-7689
uojančių	-7690
▁General	-7691
▁Kalbame	-7692
▁Rūmuose	-7693
▁aiškios	-7694
▁autonom	-7695
▁biudžet	-7696
▁esminių	-7697
▁grupėms	-7698
▁grėsmės	-7699
▁horizon	-7700
▁ideolog	-7701
▁individ	-7702
▁ištirti	-7703
▁išvados	-7704
▁iššūkis	-7705
▁komitet	-7706
▁kultūra	-7707
▁mažumos	-7708
▁metodus	-7709
▁minučių	-7710
▁netoler	-7711
▁nuogąst	-7712
▁nustato	-7713
▁pabrėžė	-7714
▁pajėgos	-7715
▁panašių	-7716
▁pasaulį	-7717
▁pasmerk	-7718
▁pastabų	-7719
▁pirmoji	-7720
▁prasmės	-7721
▁prisiim	-7722
▁privati	-7723
▁reformą	-7724
▁saugumu	-7725
▁sesijos	-7726
▁statykl	-7727
▁sukelti	-7728
▁susitel	-7729
▁taupymo	-7730
▁tokiose	-7731
▁tęsiasi	-7732
▁užduotį	-7733
▁vienodo	-7734
▁visišką	-7735
truktūriz	-7736
uojančios	-7737
▁Belgijos	-7738
▁Dabartin	-7739
▁Dunojaus	-7740
▁Liberalų	-7741
▁Pramonės	-7742
▁Venesuel	-7743
▁apibrėži	-7744
▁atliktas	-7745
▁bendroji	-7746
▁daugybės	-7747
▁demonstr	-7748
▁didelius	-7749
▁didinant	-7750
▁didžiuoj	-7751
▁dvišalių	-7752
▁elementų	-7753
▁gamtinių	-7754
▁imigrant	-7755
▁išreiški	-7756
▁jurisdik	-7757
▁keliamas	-7758
▁kelionių	-7759
▁mokymosi	-7760
▁mokėjimo	-7761
▁nedarbas	-7762
▁neleidži	-7763
▁neleisti	-7764
▁nelygybę	-7765
▁novatori	-7766
▁nusikalt	-7767
▁nusistat	-7768
▁pajėgumų	-7769
▁palestin	-7770
▁paminėjo	-7771
▁pasakėte	-7772
▁pasekmės	-7773
▁patikimą	-7774
▁prisimen	-7775
▁raginimą	-7776
▁reklamos	-7777
▁spaudimo	-7778
▁sudarant	-7779
▁susidoro	-7780
▁taikymas	-7781
▁teikiamų	-7782
▁teikimas	-7783
▁tolesnio	-7784
▁vienodas	-7785
▁šiuolaik	-7786
▁2007-2013	-7787
▁Direktyva	-7788
▁Ispanijai	-7789
▁Turkijoje	-7790
▁alkoholio	-7791
▁atsakingi	-7792
▁ekonomine	-7793
▁išdėstyti	-7794
▁laikantis	-7795
▁laikymosi	-7796
▁nekalbant	-7797
▁nukentėjo	-7798
▁nuspręsta	-7799
▁nustatymo	-7800
▁pacientai	-7801
▁pareigūnų	-7802
▁pateikiau	-7803
▁pavojingų	-7804
▁pažeidimo	-7805
▁plėtojant	-7806
▁priešingu	-7807
▁pritarimo	-7808
▁reikalams	-7809
▁skirtingi	-7810
▁sutaupyti	-7811
▁teikiamas	-7812
▁tobulinti	-7813
▁veiksniai	-7814
▁vieningai	-7815
▁visuotinį	-7816
▁įgaliotin	-7817
▁Didžiosios	-7818
▁Ispanijoje	-7819
▁Jungtinėse	-7820
▁Priešingai	-7821
▁Solidarumo	-7822
▁apsisprend	-7823
▁atsakingai	-7824
▁delegacija	-7825
▁dvideginio	-7826
▁elektrinės	-7827
▁imigracija	-7828
▁neteisėtai	-7829
▁neturtingi	-7830
▁operacijos	-7831
▁papildomas	-7832
▁pasiektume	-7833
▁paslaugoms	-7834
▁pažangiojo	-7835
▁pažeidimai	-7836
▁perdavimas	-7837
▁perkėlimas	-7838
▁pirmininką	-7839
▁prevenciją	-7840
▁priešingai	-7841
▁pripažinta	-7842
▁radioaktyv	-7843
▁referentas	-7844
▁reikalingų	-7845
▁remdamasis	-7846
▁skatinamas	-7847
▁socialiniu	-7848
▁sukčiavimu	-7849
▁sumažintas	-7850
▁svarbesnis	-7851
▁valdysenos	-7852
▁Pagrindinių	-7853
▁Portugalija	-7854
▁ateinančius	-7855
▁ekonomiškai	-7856
▁finansinius	-7857
▁makroekonom	-7858
▁panaudojimo	-7859
▁partnerystę	-7860
▁pasirinkimo	-7861
▁pasirūpinti	-7862
▁pastangomis	-7863
▁pateikiamas	-7864
▁pripažinimo	-7865
▁rezultatais	-7866
▁sektoriuose	-7867
▁specialistų	-7868
▁Tarptautinio	-7869
▁branduolinių	-7870
▁konferencija	-7871
▁konferenciją	-7872
▁nacionalinio	-7873
▁restruktūriz	-7874
▁veiksmingumo	-7875
▁atsižvelgdama	-7876
▁demokratinius	-7877
▁ketvirtadienį	-7878
▁kompetencijai	-7879
▁priklausomybę	-7880
▁bankininkystės	-7881
▁reglamentavimo	-7882
▁pirmininkavimas	-7883
▁tarptautinbendr	-7884
▁įsipareigojimas	-7885
,2	-7886
-1	-7887
."	-7888
IF	-7889
KP	-7890
SL	-7891
ip	-7892
uc	-7893
žu	-7894
žū	-7895
7-0	-7896
Kar	-7897
LAF	-7898
adi	-7899
ash	-7900
emp	-7901
ene	-7902
eor	-7903
fob	-7904
inė	-7905
jus	-7906
las	-7907
nik	-7908
nuo	-7909
oko	-7910
rog	-7911
rūs	-7912
sen	-7913
užd	-7914
▁1.	-7915
▁28	-7916
▁Ad	-7917
▁Il	-7918
▁Th	-7919
▁	-7920
i	-7921
a	-7922
s	-7923
t	-7924
r	-7925
o	-7926
e	-7927
n	-7928
u	-7929
k	-7930
m	-7931
p	-7932
l	-7933
d	-7934
j	-7935
v	-7936
g	-7937
,	-7938
b	-7939
ų	-7940
y	-7941
ė	-7942
.	-7943
š	-7944
ą	-7945
ž	-7946
į	-7947
ū	-7948
c	-7949
č	-7950
E	-7951
P	-7952
T	-7953
z	-7954
S	-7955
f	-7956
K	-7957
ę	-7958
-	-7959
0	-7960
A	-7961
B	-7962
M	-7963
2	-7964
V	-7965
(	-7966
)	-7967
D	-7968
N	-7969
J	-7970
R	-7971
G	-7972
"	-7973
1	-7974
L	-7975
h	-7976
Š	-7977
I	-7978
:	-7979
C	-7980
9	-7981
?	-7982
O	-7983
5	-7984
U	-7985
F	-7986
3	-7987
4	-7988
;	-7989
7	-7990
8	-7991
Ž	-7992
6	-7993
H	-7994
/	-7995
Į	-7996
