<pad>	0
</s>	0
<unk>	0
、	-2.24612
の	-2.52168
。	-2.94755
▁	-4.07763
は	-4.13884
を	-4.34011
と	-4.44437
に	-4.50555
が	-4.6417
その	-4.95863
、「	-5.11596
」。	-5.21526
も	-5.35399
た	-5.53202
また	-5.56953
て	-5.58868
で	-5.60494
から	-5.62362
わたしは	-5.75933
か	-5.82803
い	-5.84296
る	-5.8474
し	-5.89742
である	-5.90962
よ	-6.00026
あなたの	-6.02837
り	-6.05695
あなたは	-6.21411
言った	-6.21753
き	-6.2523
」	-6.25743
わたしの	-6.26974
彼らは	-6.35161
って	-6.36985
この	-6.39714
な	-6.41281
く	-6.45674
した	-6.45849
った	-6.50296
これを	-6.51094
み	-6.52189
ことを	-6.54435
彼は	-6.5472
のために	-6.54772
あなたがたは	-6.54902
▁また	-6.55035
すなわち	-6.57418
および	-6.57463
者	-6.60716
して	-6.61582
いた	-6.64683
わたし	-6.65073
ように	-6.66601
▁しかし	-6.67744
す	-6.69186
をもって	-6.70664
人	-6.7241
すべての	-6.72638
それを	-6.73307
わたしが	-6.76153
によって	-6.76172
主は	-6.7753
ない	-6.79589
なさい	-6.79653
、『	-6.79841
▁わたしは	-6.81729
わたしを	-6.82389
』	-6.8287
であろう	-6.83403
ら	-6.83514
そして	-6.83649
う	-6.84622
お	-6.85588
▁そこで	-6.85774
の子	-6.86735
あなた	-6.86937
のように	-6.88638
ある	-6.88687
▁そして	-6.89404
え	-6.90462
者は	-6.9107
時	-6.91262
や	-6.9154
からである	-6.9244
王	-6.92913
しかし	-6.93477
自分の	-6.93712
わたしに	-6.98438
め	-6.9871
であった	-6.99598
あなたがたの	-6.99855
わが	-7.00519
する	-7.0112
すべて	-7.01446
彼らを	-7.02425
彼ら	-7.03261
なければならない	-7.04673
これは	-7.06771
神	-7.07654
に言った	-7.07859
ず	-7.08337
▁彼らは	-7.10615
あなたが	-7.11187
主の	-7.1131
彼らの	-7.11332
彼	-7.119
こと	-7.12597
彼を	-7.12693
ている	-7.13401
「	-7.13484
▁「	-7.13857
ならば	-7.1485
主が	-7.15598
・	-7.18865
られた	-7.1892
▁あなたは	-7.21508
あなたがた	-7.21522
には	-7.22361
とき	-7.22895
もし	-7.23942
それは	-7.24637
ま	-7.24949
いる	-7.25558
なかった	-7.26871
ます	-7.26943
あなたに	-7.27278
こ	-7.27697
だ	-7.27977
いて	-7.28209
です	-7.28635
であって	-7.29801
ので	-7.30285
▁その	-7.30873
られる	-7.3104
地	-7.32008
日	-7.32844
主	-7.33009
彼らに	-7.33689
これ	-7.34501
ル	-7.35188
主よ	-7.35245
▁彼は	-7.35304
あなたを	-7.35401
と共に	-7.35702
行って	-7.36114
言われた	-7.36698
れ	-7.37625
見よ	-7.37984
シ	-7.38146
あ	-7.38373
物	-7.40418
▁主は	-7.41486
ア	-7.42091
ました	-7.44465
るであろう	-7.44749
び	-7.44855
神の	-7.44888
け	-7.45076
もろもろの	-7.45139
一	-7.45948
まで	-7.45981
のか	-7.46268
あなたがたに	-7.46307
ために	-7.47176
のである	-7.47707
事	-7.49095
みな	-7.50095
民	-7.51697
イエス	-7.5246
主に	-7.5299
の上に	-7.53254
びと	-7.53584
ン	-7.536
神は	-7.54051
手	-7.54058
今	-7.54971
人々は	-7.55242
んで	-7.55577
について	-7.55942
われわれは	-7.57002
そ	-7.5706
行った	-7.57543
それ	-7.57748
つ	-7.59475
テ	-7.59933
キリスト	-7.60308
なら	-7.6136
言う	-7.62186
む	-7.62409
として	-7.62483
された	-7.62679
ば	-7.62927
させ	-7.6309
のうちに	-7.63272
彼に	-7.63363
彼らが	-7.63429
じ	-7.63548
んだ	-7.64202
にある	-7.64343
あなたがたが	-7.64681
彼の	-7.65315
さ	-7.65746
そこに	-7.65997
とを	-7.66123
わたしたちは	-7.66816
立って	-7.6748
人は	-7.67503
の中に	-7.67556
でしょう	-7.67983
イスラエル	-7.68523
こう	-7.6895
▁あなたがたは	-7.6967
十	-7.70397
てはならない	-7.70572
石	-7.70841
『	-7.71058
悪	-7.71086
てください	-7.71297
父	-7.71299
見	-7.72647
人々	-7.72801
心	-7.73468
▁こうして	-7.73804
きた	-7.74375
大いなる	-7.74571
ダビデ	-7.75389
事を	-7.75519
地に	-7.75629
なお	-7.75798
ヤ	-7.76371
▁さて	-7.76514
どうして	-7.76611
の子孫	-7.76785
大	-7.76981
力	-7.7707
▁それゆえ	-7.77559
ただ	-7.77793
せ	-7.78409
祭司	-7.78811
女	-7.79031
年	-7.79062
のです	-7.79473
後	-7.79735
全	-7.80517
行く	-7.80689
へ	-7.80889
彼が	-7.80956
子	-7.81674
来る	-7.82078
を見	-7.82193
所	-7.8245
者が	-7.82461
国	-7.82813
される	-7.83001
マ	-7.8311
▁すなわち	-7.83235
喜び	-7.83307
人を	-7.83484
にも	-7.83634
たので	-7.8372
している	-7.84218
よう	-7.84777
イスラエルの	-7.8509
兄弟	-7.85382
しい	-7.85779
べ	-7.86089
ください	-7.8646
ところ	-7.86855
多くの	-7.87489
エ	-7.87491
がある	-7.8769
となり	-7.8781
イエスは	-7.87875
王の	-7.88295
罪	-7.88681
預言者	-7.89278
と言った	-7.89382
からだ	-7.89671
敵	-7.89814
愛	-7.90095
われわれ	-7.90462
上	-7.91141
▁もし	-7.9137
町	-7.91723
よりも	-7.91731
ことは	-7.9211
』。	-7.92373
あなたがたを	-7.93024
水	-7.93056
ハ	-7.93546
下	-7.9386
なる	-7.93979
あなたの神	-7.94005
ではないか	-7.94006
自分	-7.94028
わ	-7.94604
かつ	-7.94616
ぶ	-7.94643
きて	-7.95021
ぎ	-7.95345
ため	-7.95638
イ	-7.95803
道	-7.96163
一つ	-7.9622
レ	-7.96882
人の	-7.97263
あった	-7.97427
一つの	-7.97441
デ	-7.98921
を取り	-7.9899
王は	-7.99355
の前に	-7.99686
そう	-7.99932
▁すると	-8.00411
そこで	-8.00508
目	-8.0065
▁その時	-8.00749
にむかって	-8.01465
立ち	-8.01482
海	-8.01552
山	-8.01878
ラ	-8.0199
神が	-8.02157
ち	-8.02185
思い	-8.02402
ものである	-8.02587
者を	-8.02797
という	-8.02896
そうすれば	-8.03507
人が	-8.0423
きょう	-8.04406
物を	-8.0459
民は	-8.04803
います	-8.04805
らせ	-8.05087
牛	-8.05596
取り	-8.05951
に対して	-8.06118
われわれの	-8.0623
部族	-8.06428
ことごとく	-8.06577
天	-8.06753
はならない	-8.06802
たち	-8.06893
家	-8.06965
エルサレム	-8.0723
羊	-8.07379
▁この	-8.07398
ご	-8.07558
恐れ	-8.07827
る者	-8.08346
があった	-8.0912
手を	-8.09532
主の前に	-8.09605
命	-8.09709
げ	-8.09734
出	-8.10004
でも	-8.1025
夜	-8.10551
死	-8.10625
っている	-8.10749
があり	-8.11002
▁あなたの	-8.11021
まだ	-8.11154
金	-8.11162
と言う	-8.11287
となる	-8.11335
二	-8.1188
肉	-8.12602
であり	-8.12825
行き	-8.13037
これに	-8.13132
られ	-8.14092
行	-8.14214
▁イエスは	-8.14244
ていた	-8.14355
のだ	-8.14385
わたしたち	-8.14723
知恵	-8.14786
足	-8.14788
会	-8.15234
神に	-8.15264
世	-8.15739
こうして	-8.1597
門	-8.16312
の家	-8.1634
にしたがって	-8.16355
のですか	-8.16407
に向かって	-8.16581
死んだ	-8.1671
銀	-8.16933
聖なる	-8.16939
とし	-8.17937
律法	-8.18222
とが	-8.18259
ナ	-8.18481
獣	-8.18644
皆	-8.18717
ものを	-8.19281
あるいは	-8.19332
木	-8.19419
月	-8.19538
もまた	-8.19917
出て	-8.20517
▁見よ	-8.20799
わたしたちの	-8.2096
とは	-8.21076
ム	-8.21208
共に	-8.21372
レビびと	-8.21928
▁これは	-8.21969
だれが	-8.22076
光	-8.22186
ヤコブ	-8.22299
口	-8.2294
香	-8.2302
になった	-8.23254
恵み	-8.23481
ついに	-8.24172
心を	-8.24296
に従って	-8.24439
その子	-8.24696
これらの	-8.24742
聖所	-8.24863
ひとりの	-8.25028
なぜ	-8.25148
しもべ	-8.25347
ヨセフ	-8.25634
どうぞ	-8.2618
おり	-8.26244
人々が	-8.26506
ダビデは	-8.26549
など	-8.26629
必ず	-8.2667
からです	-8.26755
再び	-8.27182
七	-8.27235
る者は	-8.2759
互に	-8.27692
をも	-8.27751
ながら	-8.27787
イスラエルの神	-8.28019
ク	-8.28168
のうちから	-8.28229
名を	-8.28259
多く	-8.28263
器	-8.28277
バ	-8.28317
霊	-8.28723
信仰	-8.29114
に言われた	-8.29141
のもとに	-8.2929
ひとり	-8.29581
され	-8.29581
リ	-8.30178
ス	-8.30267
あり	-8.3027
をことごとく	-8.30523
間	-8.30724
中	-8.30799
▁神は	-8.30903
▁それで	-8.30904
宮	-8.3113
の前で	-8.31151
男	-8.31321
火	-8.31498
ブ	-8.31876
不	-8.32022
ことが	-8.32033
頭	-8.32127
かた	-8.32147
よく	-8.3221
おのおの	-8.32438
すでに	-8.32495
聞き	-8.32704
だれ	-8.32799
悪い	-8.32935
▁ところが	-8.32959
所に	-8.32973
妻	-8.33035
』」。	-8.33294
タ	-8.3344
来て	-8.33468
ユダ	-8.33494
べき	-8.33637
ものは	-8.33865
せよ	-8.34149
ここに	-8.34809
ど	-8.3502
エル	-8.35168
言	-8.35391
滅び	-8.35853
母	-8.35979
ためである	-8.36114
えて	-8.36196
イスラエルの人々	-8.36264
馬	-8.36273
を取って	-8.36531
実	-8.36631
ふ	-8.36767
ユダヤ人	-8.36783
怒り	-8.37244
祭壇	-8.37277
アブラハム	-8.37329
▁わたしが	-8.37801
つるぎ	-8.38305
ん	-8.39032
パン	-8.39155
幕屋	-8.39699
者である	-8.39722
ましょう	-8.39747
報い	-8.39765
定め	-8.39823
人に	-8.40064
みずから	-8.4028
れる	-8.40391
になって	-8.40578
言葉を	-8.40681
正しい	-8.4082
のゆえに	-8.40856
従	-8.40951
生	-8.41321
身	-8.41989
となった	-8.4221
と一緒に	-8.42259
残	-8.42341
顔	-8.42401
ってはならない	-8.42526
と言って	-8.42569
言葉	-8.42575
死ぬ	-8.42726
人たち	-8.4274
て言った	-8.42777
助け	-8.42869
畑	-8.4298
のうち	-8.43023
代	-8.43059
食	-8.43139
方	-8.43209
または	-8.43489
エルサレムに	-8.43535
彼女は	-8.43926
の子らは	-8.44075
良い	-8.44272
サウル	-8.44336
主は言われる	-8.44527
栄光	-8.45126
三	-8.45209
イスラエルの王	-8.45302
▁それから	-8.45315
なく	-8.45513
前	-8.45539
ね	-8.45658
川	-8.45716
イエスを	-8.45771
行い	-8.45842
人の子	-8.46098
聞いて	-8.46147
あかし	-8.46242
成	-8.46282
すると	-8.4643
を見て	-8.46501
さばき	-8.46511
ベ	-8.46607
はみな	-8.47157
分	-8.4716
とする	-8.47226
ろば	-8.47549
何	-8.47623
ほかの	-8.47724
オ	-8.4781
金の	-8.4795
はその	-8.48092
他の	-8.48163
ろ	-8.48288
おまえ	-8.48311
だけ	-8.48465
心に	-8.48797
もはや	-8.48831
望み	-8.48848
富	-8.48855
戦い	-8.48875
夫	-8.4907
それで	-8.49099
来	-8.49116
異邦人	-8.4943
ミ	-8.49916
無	-8.50055
群れ	-8.50069
兄弟たち	-8.50096
産	-8.50857
引き	-8.51114
るために	-8.51206
その人は	-8.51238
えた	-8.51378
らない	-8.51605
エジプト	-8.51747
語り	-8.51797
起	-8.52175
では	-8.52179
打ち	-8.52493
彼女	-8.52644
▁ダビデは	-8.52972
ではなく	-8.53292
種	-8.53317
娘	-8.53943
風	-8.53988
二つの	-8.54101
るように	-8.54269
まず	-8.54342
おきて	-8.54574
害	-8.54661
岩	-8.54678
とこしえに	-8.54801
百	-8.54904
▁わたしの	-8.54949
かれ	-8.55
身を	-8.55138
させた	-8.55246
大きな	-8.55355
数	-8.55458
前に	-8.55499
パ	-8.55806
燔祭	-8.55875
すべての民	-8.55946
であろうか	-8.55956
義	-8.56028
なんの	-8.56092
ると	-8.5614
戒め	-8.56182
を受け	-8.56209
教え	-8.56252
自	-8.56265
の中で	-8.56312
語る	-8.56435
かな	-8.56634
あなたがたの神	-8.56759
国々	-8.57385
このように	-8.5794
座	-8.57969
よい	-8.58552
祈	-8.5874
知らせ	-8.58898
モーセ	-8.59045
血	-8.59264
食物	-8.5932
二十	-8.59797
万軍の主	-8.59845
救	-8.59951
わざ	-8.60056
教	-8.60064
麦	-8.60163
兵	-8.60204
地は	-8.60226
着	-8.60297
真実	-8.60402
ではない	-8.60409
と言われた	-8.60484
外	-8.60539
東	-8.60779
それゆえ	-8.60995
荒野	-8.61108
名	-8.61148
ぐ	-8.61189
られて	-8.61237
彼らに言った	-8.61299
水を	-8.61337
だれも	-8.61422
ロ	-8.61446
その人	-8.61541
悩み	-8.61547
カ	-8.61557
時に	-8.61698
どうか	-8.61759
祝福	-8.61851
どんな	-8.62183
にいる	-8.62267
契約	-8.62469
それに	-8.62652
子供	-8.627
彼に言った	-8.62821
主を	-8.63009
城壁	-8.63107
ふたり	-8.6337
当	-8.63453
あの	-8.63642
叫び	-8.63839
五	-8.64557
とした	-8.64605
させる	-8.64793
顔を	-8.64958
その時	-8.64968
セ	-8.65176
答え	-8.65184
祭	-8.65263
ニ	-8.65272
ような	-8.65297
ソロモン	-8.65345
全地	-8.65415
その上に	-8.65695
嗣業	-8.65929
手に	-8.66059
人々に	-8.66307
天に	-8.66483
を見た	-8.66615
してはならない	-8.66664
大いに	-8.66849
の門	-8.66851
バアル	-8.6687
の下に	-8.67086
しなさい	-8.67129
地を	-8.6772
内	-8.67759
かせ	-8.67797
何を	-8.6783
時は	-8.67937
▁それは	-8.68122
メ	-8.68652
道を	-8.68755
偶像	-8.68852
たちは	-8.68884
妹	-8.69143
答えて	-8.69171
雲	-8.69235
▁時に	-8.69537
のような	-8.69556
そこ	-8.69626
土	-8.69711
地の	-8.69716
ギレアデ	-8.69777
イサク	-8.69848
ザ	-8.69892
軍勢	-8.69926
ようと	-8.69985
不義	-8.70501
ダ	-8.70557
シャ	-8.70559
民を	-8.70626
者も	-8.70638
朝	-8.7064
エルサレムの	-8.70696
入れ	-8.70761
めて	-8.70876
神を	-8.71025
▁すべて	-8.7111
と言い	-8.71172
の娘	-8.71197
病	-8.71201
による	-8.71537
家畜	-8.71584
声	-8.71611
れた	-8.7165
寝	-8.71716
長	-8.71847
われわれの神	-8.71864
しく	-8.72083
だろうか	-8.72539
つけ	-8.72691
あわれみ	-8.72694
ることがない	-8.72825
神々	-8.72861
える	-8.73014
花	-8.73112
アロン	-8.73181
サマリヤ	-8.73229
は言った	-8.73351
▁あなたが	-8.73362
十二	-8.73391
を与え	-8.7362
王たち	-8.73624
ことができる	-8.7367
▁モーセは	-8.73736
がない	-8.73807
高	-8.73823
知	-8.73908
れて	-8.74088
死に	-8.7409
糸	-8.74664
造	-8.75281
いで	-8.75409
おられる	-8.7541
の上	-8.75495
会衆	-8.75533
は皆	-8.75563
陰	-8.75572
を得	-8.75577
つかさたち	-8.75597
がよい	-8.75675
王が	-8.7584
信じ	-8.7594
の言葉	-8.76072
われ	-8.76101
ること	-8.76226
となって	-8.76287
小羊	-8.76308
このような	-8.76309
わず	-8.76388
穴	-8.76404
の子たち	-8.76544
歌	-8.76665
かつて	-8.76856
バビロン	-8.76877
言い	-8.76959
ペリシテびと	-8.77109
戦車	-8.77252
のうちで	-8.77348
の手から	-8.77481
しるし	-8.77505
ことである	-8.77581
尋ね	-8.77592
日に	-8.77717
見た	-8.77797
において	-8.77827
苦しみ	-8.77839
イエスが	-8.77925
同じ	-8.77955
ません	-8.77986
角	-8.78047
字	-8.78092
攻め	-8.78097
素祭	-8.78103
願い	-8.78179
の間に	-8.78221
ふたりの	-8.78225
を得る	-8.78473
主人	-8.78775
非常に	-8.78778
の中から	-8.78789
出して	-8.78878
いま	-8.78881
庭	-8.78889
モーセは	-8.78907
フ	-8.78919
あって	-8.78951
子を	-8.79026
ぶどう	-8.79046
ないでください	-8.79195
パウロ	-8.79336
告げ	-8.79358
僕	-8.79467
南	-8.79479
わたしたちに	-8.79733
ネ	-8.79739
意	-8.79747
ろう	-8.79755
切	-8.79801
わたしはあなた	-8.79932
イスラエルの人々は	-8.79979
かえって	-8.79993
油を	-8.80101
油	-8.80177
もなく	-8.80327
家に	-8.80428
酒	-8.80495
だからである	-8.80642
指	-8.80678
んでいる	-8.80826
何も	-8.8099
わたしたちが	-8.8106
のを見て	-8.81097
ひ	-8.81146
取	-8.81425
わせ	-8.81595
聞いた	-8.81608
者たち	-8.8169
宿営	-8.81889
ことはない	-8.82135
イエスの	-8.82156
があって	-8.82433
もろもろの民	-8.82443
戸	-8.82451
投げ	-8.82627
エリ	-8.8273
ユダの	-8.82736
言え	-8.82833
墓	-8.82861
▁だから	-8.83031
それが	-8.83097
つく	-8.8333
エフライム	-8.83412
者に	-8.8345
により	-8.83749
なし	-8.83778
去って	-8.83786
者ども	-8.83889
の妻	-8.83921
四	-8.84099
新しい	-8.84227
るでしょう	-8.84299
キリストの	-8.84311
を造り	-8.8454
られない	-8.84592
いだ	-8.84869
ほかに	-8.84875
布	-8.84875
守	-8.84947
傷	-8.85077
マナセ	-8.85147
ても	-8.85394
あげ	-8.85439
しめ	-8.85608
の子である	-8.85796
していた	-8.8587
約束	-8.8595
苦	-8.85965
らなければならない	-8.86031
そのすべての	-8.86038
ヨルダン	-8.8605
皮	-8.86061
主なる神はこう言われる	-8.861
絶え	-8.86173
を攻め	-8.86194
わたしたちを	-8.86336
流れ	-8.86341
イエスに	-8.86573
天幕	-8.86627
ようになる	-8.86647
生れ	-8.86685
三十	-8.86704
国の	-8.86855
罰	-8.86923
命じた	-8.87072
聞く	-8.87139
さあ	-8.87196
全く	-8.87201
を捨て	-8.87261
食べ	-8.87268
者と	-8.87407
ほど	-8.87412
ゆえ	-8.87536
奪	-8.87576
天から	-8.87627
してください	-8.87636
万	-8.87665
先祖たち	-8.87708
の名は	-8.87742
災	-8.87923
めた	-8.88033
道に	-8.88073
雄牛	-8.88141
帰って	-8.88373
のがれ	-8.88393
ぬ	-8.88674
取って	-8.88706
める	-8.88758
来た	-8.88837
場所	-8.88879
に対する	-8.88887
所有	-8.88898
憤り	-8.88918
▁そのとき	-8.88936
生れた	-8.89031
求め	-8.89078
を愛し	-8.89112
野	-8.89158
終り	-8.8918
パロ	-8.89212
使	-8.89468
先に	-8.89739
官	-8.89801
重	-8.90166
わたしのために	-8.90231
らず	-8.90336
われわれに	-8.90407
強	-8.90504
われわれを	-8.9055
ゆえに	-8.90561
のため	-8.90596
ることはない	-8.90611
知っている	-8.90709
慰め	-8.90743
神よ	-8.90787
ることを	-8.90841
雄羊	-8.90965
後に	-8.91013
その中に	-8.91089
ヨハネ	-8.9148
となるであろう	-8.91501
ホ	-8.91662
民の	-8.91694
おのおのその	-8.91789
すれば	-8.91901
ベニヤミン	-8.92124
ざ	-8.92482
わたしと	-8.92558
目に	-8.92562
もう	-8.92615
を離れ	-8.92872
やり	-8.92882
は次のとおりである	-8.93005
▁彼らが	-8.93134
▁王は	-8.93295
でしょうか	-8.93304
殺し	-8.93448
長老たち	-8.9345
ことができない	-8.93496
柱	-8.93525
立て	-8.93526
エドム	-8.93528
ばかり	-8.93714
千	-8.93776
の父	-8.93786
勇士	-8.93979
造った	-8.94076
そこから	-8.94098
町の	-8.94311
これらは	-8.94316
だろう	-8.94357
出る	-8.94368
ぶどう酒	-8.94528
ケ	-8.94654
▁彼が	-8.94673
たが	-8.94686
その家	-8.94699
悲しみ	-8.94713
夕	-8.94717
かった	-8.9479
耳	-8.94964
女は	-8.95011
イスラエルの家	-8.95102
エジプトびと	-8.95179
ダン	-8.95198
王に	-8.95261
場	-8.95432
われらの	-8.95454
その日	-8.95497
あなたと	-8.95546
ガ	-8.95615
得	-8.95635
なり	-8.95823
なぜなら	-8.9583
聖霊	-8.95856
のところに	-8.95919
知識	-8.95971
その所で	-8.96045
わか	-8.96147
しし	-8.96158
ヨアブ	-8.96416
相	-8.96432
だから	-8.9663
自分を	-8.96938
すぐ	-8.96955
この民	-8.97079
親	-8.9746
いのち	-8.97489
台	-8.97596
山に	-8.97598
逃げ	-8.9775
あがない	-8.97774
聞け	-8.97778
国民	-8.97819
わが民	-8.97857
合わせて	-8.98005
になる	-8.98219
答えた	-8.98338
シオン	-8.98383
下って	-8.98561
とおり	-8.98586
別	-8.9861
強く	-8.98631
草	-8.98647
ド	-8.98707
ヨ	-8.98734
▁その日	-8.98744
るならば	-8.98867
見ると	-8.98997
出てきた	-8.99016
する者	-8.9905
さない	-8.99108
通	-8.9911
常に	-8.99139
しない	-8.9915
ユダの王	-8.99179
伝え	-8.99217
と主は言われる	-8.99387
ああ	-8.99519
預言者たち	-8.99548
同	-8.99731
ト	-8.99798
平安	-8.99879
罪を	-9.00004
宝	-9.00049
主はこう言われる	-9.00059
ことはできない	-9.00196
じて	-9.00301
ころ	-9.00306
明	-9.00457
宮の	-9.00466
またその	-9.00505
受け	-9.00566
出す	-9.00671
っていた	-9.00732
骨	-9.009
主の宮	-9.00941
群衆	-9.00955
どう	-9.01172
を見る	-9.01214
ささげる	-9.0126
気	-9.01369
何か	-9.01454
あと	-9.01461
持って	-9.01503
知らない	-9.01767
▁『	-9.01843
軍	-9.01909
くだ	-9.0198
息	-9.01999
けれども	-9.02014
の子ら	-9.02042
ごとに	-9.02091
深い	-9.0211
▁このように	-9.02248
立	-9.02254
その子は	-9.02355
せず	-9.02541
いない	-9.02542
命を	-9.02576
首	-9.02634
栄え	-9.02662
々	-9.02754
行う	-9.02773
ける	-9.02844
語った	-9.02999
位	-9.03067
真理	-9.03108
進んで	-9.03121
これが	-9.03228
をお	-9.03236
強い	-9.03355
ないように	-9.03363
られました	-9.03526
は彼	-9.03689
サウルは	-9.03709
さきに	-9.03789
出し	-9.03822
立つ	-9.03863
目を	-9.03872
工	-9.03923
汚れ	-9.03953
安息日	-9.03973
部	-9.04003
サ	-9.04059
働き	-9.04063
祭司たち	-9.04066
車	-9.04191
会見の幕屋	-9.04198
平和	-9.04205
わたしはあなたの	-9.04339
されて	-9.04466
のだから	-9.04543
すべての人	-9.04591
娘たち	-9.04623
枝	-9.0471
いたが	-9.04821
争	-9.04895
わし	-9.05147
法	-9.05287
切り	-9.05295
復	-9.053
あらゆる	-9.05311
計	-9.05312
ことに	-9.05337
セラ	-9.05378
の人々	-9.05386
かれた	-9.05386
見る	-9.05462
決して	-9.05474
八	-9.05619
しよう	-9.05694
を忘れ	-9.05751
この事を	-9.06144
を打ち	-9.06182
町々	-9.06213
の木	-9.06265
とその放牧地	-9.06439
訴え	-9.06539
三人	-9.06656
いつも	-9.06731
殺した	-9.06871
をとって	-9.06997
かれる	-9.07294
王と	-9.07414
させてください	-9.07467
ウ	-9.07535
側	-9.07541
急いで	-9.07575
追い	-9.07603
取った	-9.07611
悟り	-9.07821
荒	-9.07862
を守る	-9.08041
一頭	-9.08068
だれか	-9.08348
出した	-9.08498
エレミヤ	-9.08628
きなさい	-9.08668
民に	-9.08749
主である	-9.08813
を受ける	-9.08866
に命じて	-9.09154
なす	-9.09246
過	-9.09489
とその	-9.09508
はずかしめ	-9.09636
思	-9.09645
ちり	-9.09646
去らせ	-9.09652
いなさい	-9.09678
出た	-9.09792
移	-9.09835
務	-9.09855
悪人	-9.1012
自ら	-9.10181
落ち	-9.10303
この地	-9.10315
堅く	-9.10327
とおりに	-9.10386
先	-9.1043
ビ	-9.10964
幕	-9.11021
果	-9.11028
むしろ	-9.1106
▁彼らの	-9.11063
を生んだ	-9.11069
だれでも	-9.11131
嘆き	-9.11162
にはいって	-9.11411
ませ	-9.1143
時には	-9.11448
とをもって	-9.11623
滅ぼす	-9.11649
ものと	-9.11781
をなし	-9.1181
一緒に	-9.11849
放	-9.11919
エジプトの地	-9.11929
に臨んだ	-9.12041
に与えた	-9.12131
ならびに	-9.12255
正しく	-9.1226
主なる神は言われる	-9.12285
衣	-9.1232
前から	-9.12418
上って	-9.12564
あなたのしもべ	-9.12876
結	-9.12991
もろもろの国民	-9.13049
る時	-9.13059
正義	-9.1312
つるぎを	-9.13165
離れ	-9.13183
間に	-9.13277
イスラエルに	-9.13327
造られた	-9.13338
断	-9.13404
空	-9.13411
落	-9.13421
わない	-9.13696
あなたがたも	-9.13773
た者	-9.138
さらに	-9.13875
▁彼はまた	-9.13875
滅ぼし	-9.14003
父の	-9.14161
国に	-9.14209
恥	-9.14209
長さ	-9.14312
けて	-9.14355
見て	-9.14434
ったので	-9.14469
身に	-9.14516
ゼ	-9.14606
昼	-9.14667
のろい	-9.14813
ないで	-9.14846
示し	-9.14964
長子	-9.15004
こそ	-9.15011
去り	-9.1503
与え	-9.15059
誇	-9.15082
わたしはあなたを	-9.15114
たからである	-9.15141
割礼	-9.15226
帰	-9.15269
なければ	-9.15381
れば	-9.15385
教会	-9.15404
父は	-9.15531
がなく	-9.15564
ヤラベアム	-9.1591
おこない	-9.15967
やみ	-9.16054
もない	-9.16085
うちに	-9.16106
第	-9.16132
分け	-9.16216
ベテ	-9.16234
るべき	-9.16259
つかわした	-9.16292
み名	-9.16379
所へ	-9.16505
生きる	-9.16595
箱	-9.16626
谷	-9.16688
売	-9.16834
を集め	-9.16907
サムエル	-9.16925
まい	-9.16945
死体	-9.16965
高き所	-9.17037
のうちの	-9.17044
アサ	-9.17124
グ	-9.17155
それぞれ	-9.1716
われわれが	-9.1719
バビロンの王	-9.17203
救い	-9.17399
歩み	-9.175
はいって	-9.17585
連れて	-9.17677
悪を	-9.17679
イスラエルを	-9.17731
エジプトの	-9.17798
心の	-9.17834
おられた	-9.1785
御霊	-9.17864
より	-9.17884
若者	-9.18173
に至る	-9.18264
所で	-9.18399
負	-9.18416
かない	-9.18517
あなたがたのうちに	-9.18541
のようだ	-9.18553
イスラエルは	-9.18603
金を	-9.18625
弟子たち	-9.18714
の中	-9.18742
聖	-9.18774
おおい	-9.18837
わなければならない	-9.18858
証人	-9.18875
あなたの前に	-9.18964
になり	-9.1913
災を	-9.19203
言われる	-9.19261
コ	-9.19265
にお	-9.19271
を造った	-9.19278
を建て	-9.1931
高く	-9.19313
を行う	-9.19392
のかたわらに	-9.194
神の宮	-9.19408
宣べ伝え	-9.19546
堅	-9.1955
ききん	-9.19557
キ	-9.19572
友	-9.1964
その兄弟	-9.19658
ささげ	-9.19669
ですか	-9.19675
喜ぶ	-9.19708
を殺した	-9.1973
近	-9.19777
その民	-9.19917
キュビト	-9.19967
の手に	-9.19983
これら	-9.20088
目は	-9.20098
大祭司	-9.20277
海の	-9.20302
の間	-9.20334
アル	-9.20521
命じられた	-9.20538
わが神	-9.20732
地から	-9.20744
エリヤ	-9.20832
以上	-9.20851
上げ	-9.20854
ありません	-9.20883
シケル	-9.20989
青銅の	-9.20994
に行き	-9.21049
多い	-9.21056
戦	-9.21287
▁わたしたちは	-9.21314
らは	-9.21416
行きなさい	-9.21463
いたので	-9.21626
言葉は	-9.21767
者よ	-9.21785
人々を	-9.21841
したので	-9.21962
くる	-9.22051
の日に	-9.22061
ヨナタン	-9.2215
罪祭	-9.22277
その手	-9.22288
たちが	-9.22296
七つの	-9.22383
女が	-9.22421
あなたの父	-9.2294
捕え	-9.22952
置いた	-9.23072
の名	-9.23075
正しい者	-9.23244
子供たち	-9.2325
三日	-9.23416
を助け	-9.23477
記	-9.23634
舟	-9.23641
ピ	-9.23655
ガリラヤ	-9.23656
わたしも	-9.23657
自身	-9.23698
ヘブロン	-9.23707
あなたのために	-9.23727
少し	-9.2389
なかったので	-9.23895
高い	-9.23935
をし	-9.23949
集まって	-9.23987
エルサレムで	-9.24015
におる	-9.24034
外に	-9.24036
捕	-9.24071
に属する	-9.242
を捕え	-9.24213
あなたの手	-9.24279
牧者	-9.24327
アブサロム	-9.24337
定	-9.2435
ことがない	-9.24387
ようとした	-9.24403
破	-9.24438
立った	-9.24511
先祖	-9.24571
の子孫は	-9.24587
こさせ	-9.24665
たとい	-9.24764
さえ	-9.24849
を引き	-9.24955
渡	-9.24977
難	-9.24992
鳥	-9.24997
シモン	-9.25031
しえたげ	-9.25064
君	-9.25072
くれ	-9.25105
わたしの前に	-9.25274
主はこう仰せられる	-9.25394
保	-9.25444
北	-9.25493
ひとりも	-9.25497
を設け	-9.2552
むすこ	-9.25617
の境	-9.25624
せて	-9.25666
の家に	-9.25694
につけ	-9.25721
罪を犯し	-9.25747
この町	-9.25761
暗	-9.25869
人たちは	-9.26111
あなたの民	-9.26264
かけ	-9.26328
天の	-9.26381
を追い	-9.26399
ベテル	-9.26463
については	-9.26524
っ	-9.26544
を与えて	-9.26544
除	-9.26704
この世	-9.26786
飲む	-9.26799
にはいる	-9.26915
ようになった	-9.26951
ノア	-9.26971
救われる	-9.27048
あなたがたのうち	-9.27168
主の宮の	-9.2725
のほとり	-9.2729
服	-9.27324
洗	-9.27356
領	-9.27442
福音	-9.27499
アハブ	-9.27626
生き	-9.27627
作	-9.2763
かなければならない	-9.27695
マリヤ	-9.27714
アモリびと	-9.27766
したが	-9.27793
ゲ	-9.27827
レビ	-9.27863
ぶどう畑	-9.27864
やぎ	-9.27883
離	-9.27995
彼女を	-9.28009
偽り	-9.28056
語られた	-9.28113
▁どうか	-9.28276
ないであろう	-9.28362
くら	-9.28514
に告げて	-9.28541
わな	-9.28669
な者	-9.28725
起き	-9.28728
らなかった	-9.28743
わたしの民	-9.2891
しなければならない	-9.28921
度	-9.29063
屋	-9.29064
青銅	-9.29189
安らかに	-9.29211
に与え	-9.29274
モーセとアロン	-9.2936
激しい	-9.29471
配	-9.29489
手で	-9.29545
町に	-9.29568
争い	-9.29693
尊い	-9.2986
そのように	-9.29871
自分のために	-9.2991
見え	-9.29979
はない	-9.30018
去る	-9.30051
その女	-9.30132
民が	-9.30154
るためである	-9.30265
を連れて	-9.30399
小	-9.30456
食べる	-9.30469
清め	-9.30544
ヤコブは	-9.30545
重ねて	-9.30604
権威	-9.30605
にあって	-9.3061
その中	-9.30616
ヨブ	-9.30636
飲み	-9.30655
ことなく	-9.30677
あなたがたのために	-9.30697
去	-9.30698
その地	-9.30726
理	-9.30743
アッスリヤの王	-9.30751
きよめ	-9.30757
を滅ぼし	-9.30776
しなかった	-9.30799
神の人	-9.30811
語って	-9.30833
の言葉を	-9.30842
仕え	-9.30984
▁ただ	-9.30999
人をつかわして	-9.31122
て言われた	-9.31238
ことも	-9.31245
くじ	-9.31326
すること	-9.31346
ばれ	-9.31421
二百	-9.3149
自分たち	-9.31498
動	-9.31623
遠く	-9.31688
死人	-9.31712
を求め	-9.31715
ヨシュア	-9.31762
を呼び	-9.3177
にきた	-9.31911
喜んで	-9.31985
雨	-9.32089
彼はその	-9.32353
御	-9.32356
をする	-9.32393
ぼ	-9.32569
わざを	-9.32648
書	-9.32659
あなたはわたしの	-9.32771
返し	-9.32932
と言ったので	-9.32983
地で	-9.33056
から出て	-9.33124
父が	-9.3343
ペテロ	-9.33447
ジ	-9.33494
ようか	-9.33518
むなしい	-9.33523
死んで	-9.33537
もろもろの国	-9.33556
病気	-9.33581
怒りを	-9.33596
へ行って	-9.33603
ではありませんか	-9.3363
に告げ	-9.33654
それから	-9.33738
書き	-9.3386
カナンびと	-9.33865
いったい	-9.33891
みわざ	-9.33906
な子	-9.34076
罪を犯した	-9.3414
両	-9.34158
熱	-9.34236
善	-9.34309
▁主が	-9.34335
ほ	-9.34491
次の	-9.34494
もとに	-9.34558
を滅ぼす	-9.34606
ようとして	-9.34731
を離れて	-9.34782
歳	-9.34828
カルデヤびと	-9.34837
▁彼女は	-9.34869
を携えて	-9.34872
去った	-9.34874
ダビデが	-9.34875
であることを	-9.34912
貧しい者	-9.34976
議	-9.34985
けた	-9.35024
あだ	-9.35028
アンモンの人々	-9.35031
のではない	-9.35185
燃え	-9.35338
言いなさい	-9.35389
はあなた	-9.35483
▁主はモーセに言われた	-9.35487
悪しき	-9.35555
パウロは	-9.35643
信	-9.35721
その子ら	-9.35893
住む	-9.35935
町を	-9.35949
よみがえ	-9.35956
なのである	-9.36053
▁あなたがたが	-9.36166
家を建て	-9.36168
モ	-9.36475
永	-9.36528
ラッパ	-9.36529
みこころ	-9.36531
隣り人	-9.36532
楽しみ	-9.36534
するであろう	-9.36538
長く	-9.36548
激しく	-9.36551
の血	-9.36551
起る	-9.36626
されている	-9.36668
水は	-9.36679
ついて	-9.36682
供え物	-9.36787
像	-9.36805
します	-9.36866
六	-9.36884
変	-9.36928
われる	-9.37001
与えられた	-9.37119
声を	-9.37127
を殺し	-9.37175
つかさ	-9.37199
▁主	-9.37254
生きている	-9.37255
若い	-9.3729
ることができない	-9.3764
女たち	-9.37678
舌	-9.37679
倒れる	-9.37784
弟	-9.37979
にして	-9.37981
事は	-9.37988
ヨアシ	-9.38068
スリヤびと	-9.3809
ほめ	-9.38166
に従い	-9.38227
むち	-9.3826
さず	-9.38339
日は	-9.38357
と名づけた	-9.38389
彼は言った	-9.38482
そうと	-9.38489
▁人々は	-9.38493
がきて	-9.38501
おこなった	-9.38528
定められた	-9.38538
とも	-9.38606
へ行った	-9.3864
ますます	-9.38649
のところへ	-9.38694
られている	-9.3874
るがよい	-9.38772
なされた	-9.38837
つるぎをもって	-9.38839
ようとする	-9.38969
命令	-9.39115
示す	-9.3912
知る	-9.3914
立っている	-9.39151
誓い	-9.39253
注ぎ	-9.39377
行かせ	-9.39388
真	-9.39501
もと	-9.39531
ズ	-9.3957
に入れ	-9.39602
の前	-9.39638
食物を	-9.39644
エサウ	-9.39649
を生み	-9.39657
▁わが	-9.39662
の供え物	-9.39708
のを見た	-9.39721
淫	-9.39859
現れ	-9.39885
▁ただし	-9.39963
その身	-9.39975
感謝	-9.39981
▁たとい	-9.40041
神の国	-9.40351
子ら	-9.40422
まことに	-9.40516
する者は	-9.40521
子牛	-9.40877
の声	-9.40931
を立てて	-9.4095
ときに	-9.41036
ヘ	-9.41143
偽りの	-9.41171
労	-9.4119
ませんでした	-9.41218
モルデカイ	-9.41218
ダマスコ	-9.41218
ケルビム	-9.41218
いっさい	-9.41219
立っていた	-9.41239
取る	-9.41274
の入口	-9.41321
を守って	-9.41369
引いて	-9.41401
彼のために	-9.41422
永遠の	-9.41427
飲	-9.41466
その名を	-9.41474
愚かな者	-9.41591
栄	-9.41645
うち	-9.41686
らし	-9.41704
るとき	-9.41742
汚れた	-9.41758
を与える	-9.41764
ヨシュアは	-9.41882
祭司は	-9.41888
すまい	-9.41909
彼らはその	-9.41985
倒れ	-9.42056
ユダの人々	-9.42074
たとき	-9.42176
すべてのもの	-9.42183
と同じ	-9.42239
およびその	-9.42253
ペリシテびとの	-9.42253
歩	-9.42266
恐れる	-9.42272
流	-9.42472
ふさ	-9.42739
置き	-9.42798
立たせ	-9.42843
のあいだ	-9.42859
のち	-9.42911
てきた	-9.42918
▁わたしはまた	-9.4297
われらは	-9.42982
の住民	-9.43096
水が	-9.4319
知らなかった	-9.43314
事が	-9.43335
を守り	-9.43422
宿	-9.43431
ささげた	-9.43481
その上	-9.43619
彼に言われた	-9.43622
を知る	-9.43712
の上で	-9.4372
らくだ	-9.43968
着物	-9.4397
迎え	-9.43987
その神	-9.44105
話	-9.44158
荒野に	-9.44191
二つ	-9.44251
場合	-9.44389
びとの氏族が出	-9.44475
先生	-9.44501
その父	-9.4485
これを聞いて	-9.45084
ゆるし	-9.45119
の方	-9.45195
せた	-9.45289
ないのか	-9.45319
残っている	-9.45367
▁あなたがたの	-9.45398
主君	-9.45439
んじ	-9.4558
人と	-9.45836
契約を	-9.45881
の方に	-9.45882
わが魂	-9.45901
撃	-9.46002
待	-9.46025
にいた	-9.46027
置いて	-9.46064
兄	-9.46098
利	-9.46118
音	-9.46131
を行い	-9.46143
いばら	-9.46172
にまさって	-9.46394
おまえは	-9.46451
進み	-9.4647
かしら	-9.46529
るまで	-9.46575
▁今	-9.4663
荒野で	-9.46735
わたしがあなた	-9.46762
自分たちの	-9.46858
るからである	-9.46866
かく	-9.46896
寄り	-9.46916
りました	-9.46963
主にささげる	-9.4708
出てきて	-9.47171
義と	-9.47185
ただし	-9.47202
この人	-9.47251
四つの	-9.47276
この人は	-9.47304
あなたも	-9.47391
出て行って	-9.47492
てしまった	-9.47501
つか	-9.47633
仕	-9.47669
平	-9.4767
つえ	-9.4769
ものが	-9.47697
小さい	-9.47782
ッ	-9.47795
ねばならない	-9.47823
いった	-9.47899
なんと	-9.47907
受ける	-9.47934
ことのない	-9.47945
ことをしない	-9.4801
おいて	-9.48011
物と	-9.48066
愛する	-9.48112
かま	-9.48151
としなければならない	-9.48155
見せ	-9.48227
ない者	-9.48378
出された	-9.48505
わり	-9.4854
示	-9.48561
もど	-9.48604
まり	-9.48628
深く	-9.48633
ある者	-9.48647
口に	-9.48674
務を	-9.48728
られるであろう	-9.48738
汚	-9.48793
モアブの	-9.48957
命じて	-9.49026
入	-9.49057
ダビデに	-9.49062
弱	-9.49134
さなければならない	-9.49177
御子	-9.4926
に与えて	-9.49269
されました	-9.49369
モアブ	-9.49392
合	-9.49392
に仕え	-9.49412
のかしら	-9.49412
ヨセフは	-9.49478
ハマン	-9.49556
わた	-9.49599
カナンの地	-9.49654
絶えず	-9.49716
にまさる	-9.49726
の毛	-9.49772
行こう	-9.49779
かすめ	-9.498
もので	-9.4988
命じ	-9.49911
へび	-9.49978
力を	-9.49985
者たちは	-9.49986
定めと	-9.50012
ヒゼキヤ	-9.50063
渡し	-9.50116
望	-9.50117
だと	-9.5027
初	-9.5028
行われた	-9.50377
滅ぼされる	-9.50442
に住んでいる	-9.50459
ノ	-9.50502
と思う	-9.50554
に宿営し	-9.50629
▁サウルは	-9.50663
するのか	-9.5075
この事	-9.50868
いつまで	-9.50887
に住み	-9.50966
パロの	-9.5111
飲ませ	-9.51129
▁あなたの神	-9.51154
いつくしみ	-9.51164
シケム	-9.51233
告	-9.51266
に投げ入れ	-9.51267
右	-9.51287
をした	-9.51298
を授け	-9.5131
アザリヤ	-9.51311
されるであろう	-9.51365
大きく	-9.51395
送った	-9.51493
▁祭司は	-9.51497
その所	-9.51497
もしあなたが	-9.51507
日が	-9.51593
のつかさ	-9.51624
帰らせ	-9.51648
家来	-9.51721
七年	-9.51745
いつまでも	-9.51796
られます	-9.51818
誓った	-9.51914
求める	-9.52072
終った	-9.52087
殺され	-9.52266
イスラエルの人々の	-9.52295
るのか	-9.52325
まし	-9.52345
得た	-9.52444
こう言われる	-9.52451
ることなく	-9.52582
水の	-9.52582
王よ	-9.52622
安息日に	-9.52729
その国	-9.52769
弟子	-9.5279
家族	-9.52908
自分で	-9.52962
満	-9.52979
エジプトの国	-9.53031
▁われわれは	-9.53063
青	-9.53066
まさ	-9.53081
エステル	-9.53096
シメオン	-9.53096
の書にしるされている	-9.53096
に向け	-9.53097
エポデ	-9.53097
ことによって	-9.53103
わが主	-9.53157
地方	-9.53211
驚き	-9.53215
とり	-9.53329
さんび	-9.53357
民衆	-9.53361
ひと	-9.53372
彼らのために	-9.53374
年の間	-9.53406
一千	-9.53419
あらわ	-9.53445
主の名	-9.53638
すべての事	-9.53682
ヨアブは	-9.53687
四十	-9.53703
今は	-9.53869
兄弟たちよ	-9.53891
かかって	-9.53943
問	-9.54025
までは	-9.54043
使者	-9.54052
を得させ	-9.54163
その妻	-9.54171
彼女に	-9.54187
ところが	-9.54293
断食	-9.54334
の氏族	-9.5434
おく	-9.54378
なって	-9.54572
エジプトから	-9.54694
▁彼	-9.54832
器を	-9.5484
ソロモンは	-9.54842
陣	-9.54902
壁	-9.54908
よろしく	-9.54914
ヨシヤ	-9.54915
ツロ	-9.54924
ることは	-9.54925
しかも	-9.54968
ロン	-9.54992
持ち	-9.55186
わたしは彼ら	-9.552
破れ	-9.55205
帰り	-9.55269
を受けて	-9.55326
あります	-9.55336
はしため	-9.55339
物は	-9.55351
の書	-9.55412
ユダヤ	-9.5542
女の	-9.55445
ときは	-9.55498
ども	-9.55552
十二人	-9.55593
主イエス	-9.55632
安息	-9.55633
右に	-9.55686
熱心	-9.55874
パンを	-9.5598
右の手	-9.55999
われた	-9.56031
燔祭と	-9.5604
すべき	-9.56075
に住む	-9.561
衣を	-9.56132
に着いた	-9.56161
ともに	-9.5623
六十	-9.5624
降	-9.56249
に与える	-9.56362
滅びる	-9.56373
しもべたち	-9.56414
をささげ	-9.5649
しもべは	-9.565
衣服	-9.56534
様	-9.56556
を呼んで	-9.56561
さし	-9.56568
聖なる物	-9.56573
らせた	-9.56589
ヨシャパテ	-9.56693
なさ	-9.56707
その町	-9.56726
やもめ	-9.5676
ヘロデ	-9.56766
ベツレヘム	-9.56766
そんな	-9.56767
賜物	-9.56767
に伏し	-9.56768
いなご	-9.56769
暗やみ	-9.56781
女に	-9.56782
エリコ	-9.56788
わたしたちの主イエス	-9.56796
ぶどうの木	-9.56809
行かれた	-9.56818
刈り	-9.56821
乳	-9.56823
その子孫	-9.56844
そばに	-9.56856
レア	-9.56861
今日まで	-9.56877
声が	-9.5688
その後	-9.56899
正しい人	-9.5691
一日	-9.57067
使徒たち	-9.57082
の長	-9.57102
に従う	-9.5716
を捨てて	-9.57167
ほしい	-9.57364
男子	-9.57437
滅ぼされ	-9.57526
与えた	-9.57564
へや	-9.57664
したら	-9.57804
雄	-9.57806
があれば	-9.57907
を造って	-9.5791
の所に	-9.57921
かに	-9.57941
公平	-9.57946
わたしはあなたに	-9.57987
この国	-9.58097
にとって	-9.5812
を得た	-9.58205
ダニエル	-9.58232
のではなく	-9.58295
頭に	-9.58338
安	-9.58338
かず	-9.58361
獲た	-9.58405
礼拝	-9.58484
殺す	-9.58569
なった	-9.58587
と思った	-9.58593
アブラム	-9.58617
を焼き	-9.58631
しばらく	-9.58632
城	-9.58646
アブネル	-9.58653
すみやかに	-9.58656
聖書	-9.58667
神殿	-9.58707
すわって	-9.58746
あなたがたと	-9.58758
を撃ち	-9.58823
寄せ	-9.5903
囲	-9.59062
のかたわら	-9.59063
民はみな	-9.59116
君たち	-9.59141
御使	-9.59173
ペリシテびとは	-9.59187
恐れてはならない	-9.59226
祭の	-9.5925
たのである	-9.59284
女を	-9.59334
愚かな	-9.59393
近く	-9.5941
ことができようか	-9.59474
ています	-9.59503
ひとりは	-9.59506
せる	-9.59507
送り	-9.59716
わたしの父	-9.59899
ぜ	-9.60007
つかわされた	-9.6002
のもとへ	-9.60062
境	-9.60063
火を	-9.60122
にし	-9.60219
地と	-9.60229
イスラエルの人々が	-9.60243
かい	-9.60291
るなら	-9.60303
言って	-9.60315
彼と	-9.60367
われらを	-9.60396
一同	-9.60422
神の子	-9.60471
入れて	-9.60485
ペ	-9.60492
を持って	-9.60503
▁これらは	-9.60542
和	-9.60563
たくわえ	-9.60577
のごとく	-9.60577
ラケル	-9.60587
野の	-9.6062
行わなければならない	-9.60621
ガテ	-9.60674
の谷	-9.60693
の中の	-9.60703
エラ	-9.60736
しようと	-9.6074
なわ	-9.60751
らす	-9.60813
に至るまで	-9.60816
主をほめたたえよ	-9.60893
は彼ら	-9.60915
東の方	-9.60928
ることができる	-9.60962
彼女の	-9.60967
あなたと共に	-9.61085
があるか	-9.61089
魂	-9.61194
戦いに	-9.61197
あなたの家	-9.61284
神から	-9.6129
倒れた	-9.61304
男の子	-9.6132
わら	-9.61352
若	-9.61425
まった	-9.61531
力と	-9.6154
怒	-9.61547
山地	-9.61563
永遠に	-9.61706
召し	-9.61714
耳に	-9.61796
自分が	-9.61847
といった	-9.6202
連れ	-9.62341
であるから	-9.62347
をして	-9.6236
帰った	-9.62368
まれる	-9.62413
▁兄弟たちよ	-9.62436
造り	-9.6244
のための	-9.6247
悪しき者	-9.62499
を奪い	-9.62512
不思議	-9.62537
ゼブルン	-9.62537
ヨラム	-9.62544
サタン	-9.62547
サラ	-9.62561
しました	-9.62575
ごらんなさい	-9.6259
いつ	-9.62604
ゲル	-9.62629
第一	-9.62656
を喜ばせ	-9.62724
作った	-9.62752
と答えた	-9.62861
主の言葉	-9.63087
国を	-9.63105
彼らと	-9.63142
力ある	-9.63194
思う	-9.6324
の町	-9.63247
いや	-9.63383
年に	-9.63424
あるように	-9.63519
むべき	-9.63561
を殺す	-9.63588
臨	-9.63649
祈って	-9.63673
つかわし	-9.6368
住	-9.63715
いなかった	-9.63738
べて	-9.63874
わけ	-9.63891
ましょうか	-9.63899
エジプトに	-9.63918
隠	-9.63999
者には	-9.64
まま	-9.64031
に住んだ	-9.64061
数え	-9.64067
ささげ物	-9.64137
食い	-9.64307
聖徒	-9.64319
たちに	-9.64333
人間	-9.64431
体	-9.64433
ることができ	-9.6444
に臨む	-9.64505
そむいて	-9.64542
用意	-9.64553
祭を	-9.64592
ささえ	-9.64614
残して	-9.64638
おる	-9.64649
さいわいである	-9.64665
その足	-9.64727
世々	-9.64739
わたしの子	-9.64797
ミカ	-9.64867
諸国民	-9.64875
神である	-9.64921
ふたりは	-9.64933
多くの人	-9.64981
テル	-9.65002
のぼって	-9.65045
今日	-9.65099
の子は	-9.65106
用	-9.65125
恥じ	-9.65145
石を	-9.65224
にはいった	-9.65254
土地	-9.65299
撃ち	-9.65302
るのは	-9.65357
ここで	-9.65379
追	-9.65413
信じた	-9.65432
国は	-9.65481
わたしと一緒に	-9.65519
食事	-9.65559
さわ	-9.65573
べた	-9.65643
られたので	-9.65692
歩む	-9.65753
ういご	-9.6588
妻と	-9.65957
弟子たちは	-9.65985
たる者	-9.66008
時代	-9.66074
アナ	-9.66077
を聞いて	-9.66105
まれ	-9.66122
を求める	-9.6617
ていない	-9.66195
食べてはならない	-9.66204
同じように	-9.66262
アッスリヤ	-9.66292
おられます	-9.66308
泣き	-9.66309
てくれ	-9.66341
守り	-9.66396
人であった	-9.66425
生かし	-9.6646
に行って	-9.66468
聞きいれ	-9.66468
義人	-9.66485
その口	-9.66497
次に	-9.66551
プ	-9.66578
ゼカリヤ	-9.66578
アロンとその子たち	-9.6658
陣営	-9.66581
み言葉	-9.66592
進んだ	-9.66612
半ば	-9.66615
高さ	-9.66725
▁そのころ	-9.66732
高ぶり	-9.66752
ためであった	-9.66766
彼と共に	-9.66908
きたので	-9.66937
までも	-9.66941
降り	-9.66943
の周囲	-9.66962
できる	-9.66993
のようであった	-9.6705
をうけ	-9.67124
に満ち	-9.67137
国々の民	-9.67302
らい病	-9.67318
を備え	-9.67329
持っている	-9.67334
偽りを	-9.67356
頭を	-9.67452
て下さる	-9.67468
て下さった	-9.67473
他	-9.67533
に従った	-9.67575
荒れ	-9.67657
オン	-9.67671
解	-9.67692
これらのことを	-9.67713
諸	-9.67789
町は	-9.6802
恐	-9.68098
歩き	-9.68269
さばく	-9.6829
報	-9.68355
対	-9.68513
清い	-9.6856
しい者	-9.68615
入れた	-9.6864
おおよそ	-9.68661
アハズ	-9.68661
ギベオン	-9.68661
を出立して	-9.68662
アンモンびと	-9.68674
置く	-9.68751
▁これらの	-9.68784
あなたがたはわたし	-9.6881
祭司たちは	-9.68817
シロ	-9.68845
隣人	-9.68851
肉を	-9.68936
ことについて	-9.68949
▁イスラエルの人々は	-9.68994
アイ	-9.69003
主にむかって	-9.69238
を出て	-9.69256
にあった	-9.69359
これを見て	-9.69431
とどまる	-9.69452
若者たち	-9.69747
なくなった	-9.69766
しても	-9.69799
を撃って	-9.69802
所から	-9.69853
信仰によって	-9.69885
ことのないように	-9.69885
その母	-9.69908
七人	-9.69934
ことがなく	-9.69995
悟	-9.70003
すえ	-9.70037
金銀	-9.70085
とおりである	-9.7015
役	-9.70169
犠牲をささげ	-9.70278
ソロモンの	-9.70353
正	-9.70459
を汚し	-9.70489
わたしはこの	-9.70545
納	-9.70557
に仕える	-9.70584
▁ソロモンは	-9.7075
福	-9.70776
集まった	-9.70789
ギベア	-9.70789
彼らの上に	-9.70792
コハテ	-9.70799
ともしび	-9.70812
に住む者	-9.70855
ごろ	-9.70895
ここ	-9.70906
に会う	-9.70929
世を治めた	-9.70934
人も	-9.71031
家来たち	-9.7104
なるであろう	-9.71087
キリストは	-9.71141
生きて	-9.71165
返	-9.71247
わたしがあなたがた	-9.71321
のろわれ	-9.71357
建て	-9.71363
をつかわして	-9.71381
しもべら	-9.71544
隠れ	-9.71546
求めた	-9.71644
いと	-9.71729
好	-9.71807
これによって	-9.72042
出て行った	-9.72099
憎むべき	-9.72101
おき	-9.72154
わが主よ	-9.72175
さば	-9.72185
はいる	-9.72229
したように	-9.7228
張	-9.72307
周囲の	-9.72316
木の	-9.72353
この女	-9.72384
彼女が	-9.72384
わたしの名	-9.72439
われら	-9.72446
失	-9.72591
パリサイ人	-9.72643
尊	-9.72661
実を	-9.72753
ヒ	-9.72898
ゼデキヤ	-9.7295
シメイ	-9.72962
を選び	-9.72962
選ばれた	-9.72963
やぐら	-9.72963
雄やぎ	-9.72974
が彼	-9.73065
あざ	-9.7308
さま	-9.73082
祈り	-9.73095
誓いを	-9.73126
▁イエスが	-9.73246
に告げた	-9.73248
すみか	-9.73323
どこに	-9.73333
の柱	-9.73358
はいり	-9.73424
をさばく	-9.73463
立てた	-9.73491
コラ	-9.73573
いた時	-9.73634
民と	-9.73682
言いました	-9.73726
べる	-9.73733
その人が	-9.73741
の町々	-9.73859
わたしはわが	-9.73867
エリシャ	-9.73936
人々の	-9.74017
あす	-9.7411
五人	-9.74129
ほどの	-9.74251
供え	-9.74315
を迎え	-9.74336
と同じように	-9.74337
る者が	-9.74355
なくなる	-9.74448
わたしは彼	-9.74464
救い出し	-9.74488
とされた	-9.74591
その兄弟たち	-9.74598
られるように	-9.74618
上った	-9.74627
されない	-9.74661
あなたの子	-9.74735
おまえたち	-9.7478
領地	-9.74814
▁その後	-9.74816
嘆	-9.7483
イスラエルよ	-9.7487
わたしの目	-9.74878
わたしの言葉	-9.74885
あなたの子孫	-9.74961
を恐れ	-9.74994
うしろ	-9.75017
から出た	-9.75047
を捕えて	-9.7508
証	-9.75143
恐るべき	-9.75153
りなさい	-9.75161
あるもの	-9.75163
主に仕え	-9.75171
ことがある	-9.75173
ひそかに	-9.75215
を知らない	-9.75225
全体	-9.75231
ご自身	-9.75236
日を	-9.75242
与える	-9.75278
ベル	-9.75311
置かれ	-9.75344
さき	-9.75357
出される	-9.75381
されたので	-9.75463
イスラエルびと	-9.75473
帰ってきて	-9.75555
野に	-9.75689
消え	-9.75743
▁あなたはまた	-9.75803
▁ヤコブは	-9.75828
これらのもの	-9.75865
その人を	-9.75899
というのは	-9.75911
氏族	-9.75954
だけで	-9.75979
集める	-9.76021
サムエルは	-9.76044
上り	-9.76056
バビロンに	-9.76135
この宮	-9.76144
イスラエルの人々のうち	-9.76173
引	-9.76268
大きい	-9.76297
るのですか	-9.76318
ひも	-9.76428
御使が	-9.76435
せられる	-9.76438
捨てられ	-9.76476
から取り	-9.765
であるか	-9.76511
子ども	-9.76612
あふれ	-9.76663
ったが	-9.7669
てしまう	-9.76692
座して	-9.76732
それによって	-9.7679
明らかに	-9.76795
▁それ	-9.76903
食べて	-9.76913
それらの	-9.76916
るな	-9.76933
主のために	-9.7696
地のすべての	-9.77079
打	-9.77079
楽	-9.77127
葉	-9.77137
メン	-9.77148
から離れ	-9.77156
はすべて	-9.77169
起きて	-9.77231
主の宮に	-9.77241
全部	-9.77403
▁主はまたモーセ	-9.77415
まこと	-9.77448
誓願	-9.77458
イシマエル	-9.77458
ポ	-9.77458
をおおう	-9.77486
アビ	-9.77509
毛	-9.77511
であれば	-9.77532
ぶんどり物	-9.77558
その血を	-9.77565
おとめ	-9.77566
散らし	-9.77596
なかったからである	-9.7766
▁ヨセフは	-9.77666
かご	-9.77675
を立て	-9.77709
全き	-9.77775
何事	-9.77875
みもとに	-9.77885
を通	-9.77906
エリヤは	-9.7791
三年	-9.77914
悟る	-9.77927
戦う	-9.77966
そしり	-9.77988
足を	-9.7811
さなかった	-9.78116
さばきを	-9.78146
そこには	-9.78152
守って	-9.78322
た時	-9.78408
ルベン	-9.78413
示された	-9.7845
備え	-9.78478
らい	-9.78517
そのような	-9.78564
に代って	-9.78581
定めた	-9.78644
を起し	-9.7872
着せ	-9.78761
るのである	-9.78868
者で	-9.78883
モーセが	-9.78892
うる	-9.78908
三つ	-9.78937
との間に	-9.7894
をかけ	-9.78975
羊を	-9.78996
その町々	-9.78997
の目の前で	-9.79107
初め	-9.7918
ホル	-9.79188
に住んでいた	-9.79218
すであろう	-9.79228
間は	-9.7926
告げた	-9.79279
世に	-9.7937
使徒	-9.79395
イム	-9.79418
声をあげ	-9.79557
満ち	-9.79628
を犯し	-9.7973
レハベアム	-9.79754
ナフタリ	-9.79781
イッサカル	-9.79783
ザドク	-9.79784
空の鳥	-9.79785
確かに	-9.79793
五頭	-9.79862
わざわいだ	-9.79873
へ行き	-9.79917
ほかの人	-9.79953
はかり	-9.79953
るもの	-9.79954
タン	-9.79972
▁ヨシュアは	-9.79998
のようになり	-9.80074
みんなの者	-9.80087
ハテ	-9.801
り物	-9.80131
えさせ	-9.80172
御使たち	-9.80202
べきである	-9.80216
ゆる	-9.80266
言葉が	-9.80287
次	-9.80319
愛する者	-9.80324
ろうと	-9.80331
近い	-9.80341
主があなた	-9.80349
下の	-9.8036
おいた	-9.80443
知り	-9.80453
続け	-9.8049
火に	-9.80524
ずつ	-9.80528
の道を	-9.80554
の血を	-9.80573
わたしの所に	-9.80634
すべての者	-9.80662
とどまって	-9.80723
ことをやめ	-9.80738
のわざ	-9.80746
誇る	-9.80803
いている	-9.80813
あなたの心	-9.80814
出て行く	-9.80828
内に	-9.80835
はじめ	-9.80841
ものに	-9.80907
アロンは	-9.8094
ることができようか	-9.80954
を産んだ	-9.80959
▁あなたがた	-9.80978
ひとりで	-9.81096
を治め	-9.8111
を信じる	-9.81271
殺された	-9.81293
日には	-9.81297
海に	-9.81303
見ている	-9.81306
いたからである	-9.8131
王の前に	-9.81366
が満ち	-9.81448
こう仰せられる	-9.81451
あらわれ	-9.81478
はず	-9.81503
う者	-9.81585
建てる	-9.81586
与えられ	-9.81631
エヒウ	-9.81735
につ	-9.81738
悪しき者の	-9.81787
尋ねて	-9.81797
父よ	-9.81827
しみ	-9.81842
でなく	-9.819
現	-9.82029
タラント	-9.82035
喜ばれ	-9.82077
およびすべて	-9.82129
逆	-9.82149
をとり	-9.82152
王に言った	-9.82161
ミヅパ	-9.82163
アセル	-9.82164
ソ	-9.82164
罪を犯す	-9.82165
キリア	-9.82165
に言いなさい	-9.82174
もっと	-9.82178
石がき	-9.8218
五キュビト	-9.82198
七日の間	-9.82201
待ち	-9.82206
この言葉を	-9.82226
全会衆	-9.8223
下り	-9.82244
聖別し	-9.82256
良き	-9.82273
できない	-9.82287
万軍の主は言われる	-9.82293
メル	-9.82347
を治める	-9.82348
に当った	-9.82389
律法を	-9.8247
残りの	-9.82584
をあらわし	-9.82586
いたく	-9.82741
バプテスマを受け	-9.82811
って言った	-9.82854
を汚す	-9.82893
みんな	-9.82965
と思って	-9.83208
三つの	-9.8324
言葉に	-9.83361
持ち物	-9.8343
に行った	-9.83549
そのしもべ	-9.83589
行け	-9.83618
を持っている	-9.83653
他人	-9.83679
であれ	-9.8371
を祝福し	-9.83748
められる	-9.83773
リム	-9.83788
わたしはこれを	-9.84
かき	-9.84061
燃える	-9.8407
シラ	-9.84113
民のうち	-9.84123
彼らのうちに	-9.84229
長老	-9.84265
わき	-9.84271
ピラトは	-9.84276
律法の	-9.84327
アラ	-9.84399
十分の一	-9.84419
心から	-9.84501
おのが	-9.84503
山々	-9.84511
賜わる	-9.84523
エレアザル	-9.84561
いちじく	-9.84589
こんな	-9.84602
を選んで	-9.84603
主の言葉がわたしに臨んだ	-9.84603
ソドム	-9.84604
と呼ばれる	-9.84604
つかわす	-9.84612
心が	-9.84638
ロト	-9.84646
の心は	-9.84702
結び	-9.84718
ハム	-9.84789
パル	-9.84838
帰ってきた	-9.8487
聖徒たち	-9.84876
ヨナタンは	-9.84941
殺される	-9.85005
舌は	-9.85026
その人に	-9.85062
目が	-9.85063
広	-9.85069
▁イエスは答え	-9.85105
のがれて	-9.8514
レビびとは	-9.85204
わたしはあなたがたを	-9.85299
からは	-9.85301
語	-9.85315
怒って	-9.85316
せられ	-9.85502
するように	-9.85524
をつかさど	-9.85548
万人	-9.85647
あなたがたの先祖	-9.85708
あがめ	-9.85721
アブサロムは	-9.85829
時まで	-9.85838
隊	-9.85889
させられた	-9.85914
拝	-9.8602
不義を	-9.86042
歩く	-9.86078
ものです	-9.86097
▁ああ	-9.86176
ままに	-9.86215
しるしと	-9.86334
ることはできない	-9.86396
み前に	-9.86418
ことと	-9.86446
いって	-9.86528
と言われ	-9.86535
イスラエルの人々に	-9.86567
するために	-9.86584
第四	-9.86602
ことができず	-9.86627
問う	-9.86728
知者	-9.86739
まない	-9.86814
に行く	-9.8682
▁エフライム	-9.86877
散	-9.86927
▁人は	-9.86931
主なる神	-9.86986
時から	-9.8705
ひじょうに	-9.87103
ちょうど	-9.87104
ヅ	-9.87104
つまずき	-9.87104
アハジヤ	-9.87104
ネゲブ	-9.87104
ギ	-9.87104
むなしく	-9.87116
バシャン	-9.87129
苦難	-9.87129
の族長	-9.87151
リヤ	-9.87195
シャン	-9.8721
すぐに	-9.87214
をとおって	-9.87232
だれにも	-9.87315
望む	-9.8732
決	-9.87355
くなって	-9.87452
尋ねた	-9.87533
それとも	-9.87561
その道	-9.87617
があっても	-9.87632
バル	-9.87697
わたしはその	-9.87733
住み	-9.87792
父の家	-9.8787
われらの神	-9.87889
産んだ	-9.87948
群衆が	-9.87954
きました	-9.87956
あなたのいつくしみ	-9.87971
わす	-9.88084
のようになる	-9.88219
ってください	-9.88327
ヤコブの	-9.88344
連れてきて	-9.88375
日の間	-9.88389
この日	-9.88496
呼ばわり	-9.88567
答	-9.88592
食べさせ	-9.88637
るべきである	-9.88776
ことができなかった	-9.88821
いました	-9.88902
下さい	-9.88955
すみ	-9.88955
北の	-9.88999
ないからである	-9.89052
悪霊	-9.89089
宣	-9.89237
▁そこでイエスは	-9.89338
を覚え	-9.89352
女と	-9.89449
ユダは	-9.89456
霊が	-9.89479
イスラエルのすべての	-9.89489
わたしは彼らを	-9.89502
主なる神は	-9.896
かたが	-9.89623
タマル	-9.89631
すべての物	-9.89636
ヘテびと	-9.89664
あまねく	-9.89666
ギルガル	-9.89667
ほら穴	-9.89668
近づいた	-9.89668
目をあげて	-9.8968
あなたがたに言っておく	-9.897
もしわたしが	-9.89708
ヨナ	-9.8972
着物を	-9.89901
をつけ	-9.89911
主なる神よ	-9.89926
宝石	-9.89942
高ぶる者	-9.89989
霊を	-9.90059
中で	-9.90076
ただひとり	-9.90141
罪は	-9.90162
これがために	-9.90176
は答えて	-9.90198
酒を	-9.90245
主は言われた	-9.90325
げる	-9.90343
渡って	-9.90358
その罪	-9.90397
を切り	-9.90407
七十	-9.90421
に帰する	-9.90558
用いる	-9.90642
その柱	-9.90643
パンを食べ	-9.90661
りなく	-9.90745
天幕に	-9.9075
うもの	-9.90803
所を	-9.90834
ができ	-9.9092
主の言葉が	-9.91059
テラ	-9.91092
を食い	-9.91142
かを	-9.91165
せられた	-9.91221
王を	-9.91251
かす	-9.91276
その地を	-9.91305
れない	-9.9148
ペテロは	-9.91528
葬った	-9.91597
救を	-9.91684
と名づけ	-9.91751
殺された者	-9.9179
話し	-9.91815
てくれた	-9.91884
現れた	-9.91958
を知っている	-9.91962
義を	-9.91986
カル	-9.92068
ましたが	-9.9209
あなたがたに言う	-9.92106
の内に	-9.92134
その血	-9.92238
ギデオン	-9.9225
初めの	-9.92282
祝	-9.92293
知ら	-9.92293
ふたたび	-9.92299
過越の祭	-9.92299
大声で	-9.923
あざけり	-9.923
めいめい	-9.923
シマヤ	-9.923
たちを	-9.923
散らされ	-9.92302
アサフ	-9.92351
あだを	-9.92369
そのために	-9.9251
食べることができる	-9.92514
るため	-9.92528
ラマ	-9.9257
をさして	-9.92591
アビメレク	-9.92599
ヒラム	-9.92602
いる者	-9.92671
主にあって	-9.92696
万軍の神	-9.92736
いと高き者	-9.92739
▁またその	-9.92803
民は皆	-9.92815
律法学者たち	-9.92833
サムソン	-9.92853
ぜた	-9.92854
父に	-9.92859
数を	-9.92879
あなたの兄弟	-9.92939
パロは	-9.92949
逃げて	-9.93062
を獲	-9.93236
畑に	-9.93252
しるしを	-9.93252
▁もし人が	-9.93276
のその他の	-9.93307
受けた	-9.93406
主人は	-9.9342
に向かい	-9.93423
大水	-9.93424
ゆるされ	-9.93437
洗い	-9.93458
賜わった	-9.93521
ほか	-9.93527
さいわい	-9.93591
を殺そうと	-9.93604
十人	-9.93618
を撃った	-9.93645
その他の	-9.93668
その枝	-9.93752
はことごとく	-9.9376
燔祭をささげ	-9.93826
これらの事を	-9.93827
いても	-9.93838
あげて	-9.93918
▁その日には	-9.93955
罪人	-9.93969
に臨み	-9.94014
ペテロが	-9.94073
につき	-9.9419
にまで	-9.94215
計りごと	-9.94304
ねたみ	-9.94307
頼	-9.94324
口から	-9.94367
主の家	-9.94451
おのれの	-9.9451
ささげなければならない	-9.94536
一部	-9.94595
ぞ	-9.94648
エリシャは	-9.947
家畜と	-9.94742
恐れて	-9.94752
祭壇を	-9.94753
起す	-9.94763
栄光を	-9.94772
神と	-9.94803
主を恐れ	-9.94808
者となり	-9.94871
半	-9.94873
死を	-9.94957
連れてきた	-9.94973
ざくろ	-9.95
ラッパを吹き	-9.95001
ピリポ	-9.95001
リベカ	-9.95001
ひねもす	-9.95002
に至り	-9.95002
そのいつくしみはとこしえに絶え	-9.95002
いけにえ	-9.95002
喜んだ	-9.95004
まっすぐに	-9.95006
たきぎ	-9.95008
メラリ	-9.95012
そのうちに	-9.95023
三度	-9.95045
野の獣	-9.95048
を負う	-9.95113
をする者	-9.95128
あの人	-9.95171
そのとき	-9.95175
つつ	-9.95212
父ダビデ	-9.95221
その前に	-9.95238
足の	-9.95282
現れる	-9.9529
約束された	-9.95332
パウロが	-9.95361
心のうちに	-9.95387
わたしには	-9.95398
むだ	-9.95435
はなく	-9.9545
見える	-9.95472
娘を	-9.95522
わが子よ	-9.95524
ことを知る	-9.95613
をそ	-9.95631
彼女に言った	-9.95678
▁そうすれば	-9.957
加え	-9.95766
魂を	-9.95818
を憎む者	-9.95856
族	-9.95892
貧しい者を	-9.959
みて	-9.95967
ずに	-9.95981
あげる	-9.9601
恵みを	-9.96063
淫を行	-9.96067
天を	-9.96169
救う	-9.96244
主はその	-9.96249
とがを	-9.96259
▁そこで彼らは	-9.96268
あれ	-9.96273
でない	-9.96294
から出る	-9.96507
を数え	-9.96516
罪の	-9.96604
合い	-9.9662
がこれを	-9.96652
かせた	-9.96763
を満たし	-9.96824
ようにして	-9.96848
神の前に	-9.96892
カナン	-9.96988
自分の命	-9.97001
の名によって	-9.97007
▁アブラハムは	-9.97035
いやし	-9.97068
られなかった	-9.97074
かれて	-9.97081
彼らも	-9.97117
サムソンは	-9.97199
を汚した	-9.97231
その所に	-9.9746
ってきた	-9.975
立てて	-9.97516
がなかった	-9.97559
木と	-9.97567
覚え	-9.9762
知っています	-9.97664
買	-9.9771
人である	-9.97768
ボアズ	-9.97781
たくさん	-9.97781
に感謝せよ	-9.97788
戦争	-9.97805
祈る	-9.97812
を打つ	-9.97815
働く	-9.97855
思って	-9.97874
撃ち殺し	-9.97892
ユダとエルサレム	-9.97954
導き出し	-9.97962
動く	-9.98088
敵は	-9.98176
ある人が	-9.98261
エヒウは	-9.98282
頼む	-9.98319
ってきて	-9.98328
イエスは彼ら	-9.98437
たれ	-9.98487
められた	-9.98488
ことになる	-9.98525
いつくしみを	-9.98536
をもつ	-9.98548
日々	-9.98587
々に	-9.98592
持	-9.98599
ユダヤ人たち	-9.98727
をおおい	-9.98759
アブラハムは	-9.98788
▁人が	-9.98887
近づいて	-9.98923
声をあげて	-9.98932
獲	-9.98965
わたしを助け	-9.99012
祭壇の	-9.99089
かし	-9.99103
わからない	-9.99141
その頭	-9.99145
のことで	-9.99179
門に	-9.99229
いかに	-9.99274
人で	-9.99293
わたしは主である	-9.99372
ラバン	-9.99401
わたしのしもべ	-9.99448
のを聞いた	-9.99501
にはいり	-9.99569
呼ばわる	-9.99597
ならず	-9.99613
ものも	-9.99629
ばし	-9.99701
彼らと共に	-9.99733
オリブ	-9.99763
を救う	-9.99764
御座	-9.9981
わたしはあなたがたの	-9.99818
次のとおりである	-9.99846
サウルの	-9.99849
バプテスマ	-9.99861
これは彼らが	-9.99867
ダビデの町	-9.99869
実な	-9.99938
ままで	-10.0006
わたしと共に	-10.0007
を与えた	-10.0009
▁神の	-10.0009
離れて	-10.0016
させて	-10.0019
▁主はまた	-10.0022
を守ら	-10.0025
たちと	-10.0028
レバノン	-10.0031
がなければならない	-10.0043
万国	-10.0044
のひとりが	-10.0044
与えられる	-10.0046
祭司が	-10.0049
につかわして	-10.0053
連	-10.0056
ナタン	-10.0062
ゴ	-10.0063
あとに	-10.0063
感	-10.0063
エズレル	-10.0064
エブスびと	-10.0064
かも知れない	-10.0064
エフタ	-10.0064
たちまち	-10.0064
に聞え	-10.0064
つながれ	-10.0064
報復	-10.0065
なにゆえ	-10.0066
犯した罪	-10.0066
を持つ	-10.0066
おのれ	-10.0067
預言者エレミヤ	-10.0073
仰せ	-10.0087
それでは	-10.0087
帰る	-10.0094
であったが	-10.0099
時にも	-10.0099
眠	-10.01
者はみな	-10.0107
を受けた	-10.0107
まして	-10.0108
御名	-10.0114
七日	-10.0122
たら	-10.0123
集めた	-10.0125
ているのである	-10.0125
主にささげ	-10.013
目には	-10.0136
思い出	-10.0138
歩いて	-10.0138
生き物	-10.0141
自分に	-10.0141
住む者	-10.015
驚	-10.0153
食べた	-10.0158
仕える	-10.016
ことはありません	-10.0168
▁イエスは彼らに	-10.0179
祈を	-10.0184
つかさたちは	-10.0187
に入り	-10.0207
のようで	-10.0222
割礼を受け	-10.0224
もみな	-10.0232
この世の	-10.0238
王の家	-10.0247
銀を	-10.0247
を作り	-10.0248
送る	-10.0249
えている	-10.025
のようである	-10.0257
滅ぼさ	-10.0266
すべての事を	-10.0275
母は	-10.0279
祭司の	-10.028
氏族の長	-10.0285
をこわし	-10.0287
人には	-10.029
ナイ	-10.0292
思われ	-10.0294
と共にいる	-10.0295
残った	-10.0297
愚	-10.0306
主によって	-10.0307
聖なる者	-10.0309
拝み	-10.0317
をささげなければならない	-10.032
うせ	-10.032
を攻める	-10.0323
その嗣業	-10.0325
進	-10.0326
▁弟子たちは	-10.0327
を聞いた	-10.0327
どの	-10.0331
歌う	-10.0335
あなたはわたしを	-10.0337
つれ	-10.0339
買い	-10.0339
ボ	-10.0351
日から	-10.0352
アマジヤ	-10.0356
あがなわ	-10.0357
あがなう	-10.0358
集まり	-10.0358
七日のあいだ	-10.0359
村々	-10.0359
どこへ	-10.036
の代りに	-10.0361
はこれを	-10.0362
ゼラ	-10.0366
一度	-10.0369
悪を行う者	-10.0371
まって	-10.0371
大麦	-10.0376
わたしのもとに	-10.0378
主の箱	-10.038
わが君	-10.0381
その氏族によ	-10.0382
確	-10.039
万物	-10.0396
嗣業として	-10.0401
イスラエルの人々を	-10.0409
入る	-10.0412
知恵ある者	-10.0415
木を	-10.0429
その言葉	-10.0432
ちまた	-10.0438
めなさい	-10.0438
これらの事	-10.045
が代って王となった	-10.0457
の世に	-10.046
分け与え	-10.0464
口を	-10.047
聞きなさい	-10.047
▁ユダ	-10.0473
この所	-10.0477
このかた	-10.0477
四人	-10.0485
首を	-10.0487
捨てる	-10.0491
呼ばわって	-10.051
を聞く	-10.052
川の	-10.0525
じた	-10.0526
を食べ	-10.0539
なるかな	-10.0541
この人が	-10.0542
ひき	-10.0546
はいけない	-10.0547
初めに	-10.0549
アデ	-10.0551
ユダヤ人の	-10.0553
を破	-10.0555
力が	-10.0563
しましょう	-10.0563
み手	-10.057
血の	-10.0574
火の	-10.0574
おそれ	-10.0581
ダビデと	-10.0581
わたしの心	-10.0593
神を恐れ	-10.06
のまわりに	-10.0602
こられた	-10.0602
が来る	-10.0606
のようにし	-10.062
恥を	-10.0625
わたしが彼ら	-10.0626
落ちた	-10.0629
くびきを	-10.0629
憎むべき事	-10.0635
公	-10.0639
られると	-10.064
ようとしている	-10.0642
つるぎと	-10.0645
光を	-10.0647
行われる	-10.0648
有	-10.0648
殿	-10.0649
められ	-10.0653
ミデアン	-10.0655
バラク	-10.0661
オベデ	-10.0661
つかえめ	-10.0661
うわさ	-10.0661
一歳の雄の小羊	-10.0661
羊の群れ	-10.0662
を断ち	-10.0662
軍隊	-10.0662
ウジヤ	-10.0663
臨ませ	-10.0663
イスラエルの聖者	-10.0663
キシ	-10.0666
アビヤ	-10.0667
にならない	-10.0671
きわめ	-10.0673
軍の長	-10.0676
いるのを見	-10.0677
にかけ	-10.0677
きたるべき	-10.0678
言っている	-10.0683
といい	-10.0684
▁まことに	-10.0689
わされ	-10.069
海べ	-10.0691
知らず	-10.0693
と書いてある	-10.0694
語っている	-10.0696
集めて	-10.0702
初めから	-10.0709
け所	-10.072
その敵	-10.0721
エルサレムから	-10.0722
得ない	-10.0723
墓に	-10.0726
力をもって	-10.073
数えられた者は	-10.0732
殺	-10.0733
ものではない	-10.0737
建てた	-10.0742
主は彼らを	-10.0743
知恵と	-10.0743
上から	-10.0744
んだので	-10.0744
この地に	-10.0745
部分	-10.0745
つき	-10.0748
む者	-10.0754
重い	-10.0756
ひれ伏して	-10.0757
まわり	-10.0762
の道に歩	-10.0765
ならなかった	-10.0765
を撃ち殺した	-10.0769
加わ	-10.0769
わが子	-10.0772
踏みつけ	-10.0783
滅ぼされた	-10.0784
不信	-10.0789
衣服を洗	-10.0793
勝利を得	-10.0795
の手に渡し	-10.0796
の手によって	-10.0804
告げる	-10.0807
を知って	-10.0815
方が	-10.0823
長い	-10.0827
これと	-10.0829
拝む	-10.0834
▁だれが	-10.0842
わたしについて	-10.0842
ことができるか	-10.0842
はいった	-10.0847
人の心	-10.0852
さと	-10.0861
ラム	-10.0862
▁そこでわたしは	-10.0866
霊は	-10.0868
はじめた	-10.0873
捕われ	-10.0875
しさ	-10.0877
やす	-10.0877
敵を	-10.0877
とどまった	-10.0879
てほしい	-10.088
を買	-10.0883
イスラエルのすべての人	-10.0884
シバ	-10.0889
それを食べ	-10.09
そのうちの	-10.0905
律法学者	-10.0911
▁サムエルは	-10.0912
火の中	-10.0914
言わなければならない	-10.0916
知れ	-10.0917
をもって彼らを	-10.0925
にそむいた	-10.0929
打たれ	-10.0938
したのである	-10.0938
アヒ	-10.0942
このことを	-10.0942
を用い	-10.0944
実は	-10.0945
頼み	-10.0947
を負わせ	-10.0949
あわせ	-10.0951
踏	-10.0955
になっている	-10.0956
滅	-10.0959
ユダに	-10.0963
代々	-10.0964
ますように	-10.0964
返す	-10.097
工事を	-10.0973
束	-10.0973
アムノン	-10.0973
楽しむ	-10.0973
恐ろしい	-10.0973
ひとりびとり	-10.0973
いずれ	-10.0974
刈入れ	-10.0974
確信	-10.0974
ご自分	-10.0975
君たる者	-10.0975
にむかい	-10.0976
にしたがい	-10.0977
淫行	-10.0978
ながく	-10.0979
その境は	-10.0981
他の神々	-10.0982
自分自身	-10.0982
えない	-10.0983
つぼ	-10.0984
タイ	-10.0985
留め	-10.0987
打ち場	-10.0989
声は	-10.0994
日が来る	-10.0995
ほふら	-10.0996
うしろに	-10.0997
まれた	-10.1
金で	-10.1001
ならぬ	-10.1004
わたし自身	-10.1004
シオンの娘	-10.1006
を加え	-10.1006
なすべき	-10.1009
レバノンの	-10.101
▁わたしはあなたの	-10.101
エパ	-10.1012
眠り	-10.1017
知られ	-10.1023
にあり	-10.1025
にかけて	-10.1031
地に住む	-10.1033
王ひとり	-10.1034
ソロモン王	-10.1041
そして彼らは	-10.1044
に会い	-10.1054
どろ	-10.1056
役人	-10.1064
ユダの町々	-10.1069
者は皆	-10.107
きます	-10.1075
をすえ	-10.1076
命じる	-10.1082
そし	-10.109
内で	-10.1093
を置き	-10.1093
泣いた	-10.1093
の周囲に	-10.1093
ようにしなければならない	-10.1093
書いた	-10.1095
アム	-10.1106
主はわたしに言われた	-10.1108
人の子ら	-10.1114
の事について	-10.1118
わたしはあなたがたの神	-10.1124
を見たので	-10.1129
を治めた	-10.1149
五十	-10.1149
上着を	-10.1151
携えてきた	-10.1153
勝利	-10.1155
妻をめと	-10.1155
とりで	-10.1155
モーセと	-10.1157
へ行く	-10.1158
わがしもべ	-10.1161
させなさい	-10.1162
わたしにむかって	-10.1163
ダビデの子	-10.1166
を憎む	-10.1175
上ってきて	-10.1176
歌い	-10.1176
行われ	-10.1179
宮殿	-10.1182
だけが	-10.1185
▁ペテロは	-10.1192
天国	-10.12
入り	-10.1207
子孫	-10.1208
の肉	-10.1212
に耳を傾け	-10.1214
わたしはまた	-10.1214
にきて	-10.1214
るものは	-10.1221
キリストが	-10.1224
この地を	-10.123
することを	-10.1232
はしない	-10.1236
かけた	-10.1255
ないもの	-10.1268
こともない	-10.1269
人の子は	-10.1274
ふえ	-10.1276
貧しい人	-10.1282
二千	-10.1283
を受けいれ	-10.1284
祭の犠牲	-10.1287
開	-10.1287
父母	-10.1288
となえ	-10.1289
村	-10.129
にあずかる	-10.1293
エゼル	-10.1294
礼	-10.1295
の子孫である	-10.1296
に及んだ	-10.1296
サウロ	-10.1296
こちら	-10.1296
に油を注いで	-10.1296
エホヤキム	-10.1296
ラモテ	-10.1296
しきりに	-10.1296
他国人	-10.1296
ナダブ	-10.1297
牧場	-10.1297
いいえ	-10.1298
いちじくの木	-10.1299
おののき	-10.1299
アマレクびと	-10.1299
死人の中から	-10.1299
乳香	-10.1301
光栄	-10.1301
父祖	-10.1302
知恵は	-10.1304
十一	-10.1304
ひとりの人が	-10.1305
受けいれ	-10.1306
恐れることはない	-10.131
まなかった	-10.1312
身を清め	-10.1314
ロテ	-10.1319
でもない	-10.1324
をほめたたえ	-10.1325
を立てた	-10.1329
▁どうぞ	-10.133
好む	-10.1336
ないであろうか	-10.1339
高い所	-10.1345
ようなもの	-10.1347
しるされた	-10.1348
ところを	-10.135
サウルが	-10.1351
わたしの口	-10.1354
のつえ	-10.1356
にする	-10.1359
足で	-10.1366
これは主が	-10.1368
われわれの先祖	-10.137
で満ち	-10.1373
教える	-10.1374
宮を建て	-10.1377
住んだ	-10.1382
出かけ	-10.1382
ユダの家	-10.1386
どこで	-10.1389
づけ	-10.1392
つえを	-10.1392
れさせ	-10.1395
その名は	-10.1402
はいない	-10.1405
言われました	-10.1407
言おう	-10.1407
のところにきて	-10.1411
三百	-10.1419
たずね	-10.1424
気をつけ	-10.1427
▁万軍の主は	-10.1434
災が	-10.1434
ひれ伏し	-10.1435
おかれ	-10.1442
エルサレムを	-10.1446
おおわれ	-10.1449
いつくしみと	-10.1452
海を	-10.1459
の一族	-10.1459
権	-10.1459
教を	-10.146
終	-10.1467
食事をし	-10.1479
町の門	-10.1487
をあけ	-10.149
御言	-10.1491
深	-10.1495
いう	-10.1499
御言を	-10.1504
であったので	-10.1508
代って王となった	-10.1517
ダビデを	-10.1518
次は	-10.1525
の言葉を聞いて	-10.1531
その子たち	-10.1535
とこしえの	-10.1541
に住んで	-10.1548
を愛する	-10.1557
ない者は	-10.156
さお	-10.1561
の上にある	-10.1562
火で	-10.1568
自分の家	-10.1573
助	-10.1578
いてはならない	-10.1579
これらの言葉を	-10.1582
そのほか	-10.1583
願って	-10.1588
らせる	-10.1592
衣服を	-10.1594
その名	-10.1617
持ってきた	-10.1619
を施し	-10.1628
モン	-10.1628
寄留の他国人	-10.1629
エズラ	-10.1629
祭壇の上で焼	-10.1629
と呼ばれた	-10.1629
マアカ	-10.1629
に及ぶ	-10.1629
アシラ像	-10.1629
ヘシボン	-10.1629
しません	-10.1631
シャルム	-10.1631
ケルブ	-10.1631
出身の	-10.1631
ハル	-10.1631
なんでも	-10.1632
ひろ	-10.1634
ミデアンびと	-10.1635
泣く	-10.1637
どこから	-10.1637
アラバ	-10.1638
びとの氏族	-10.1639
葬	-10.1642
に現れて	-10.1644
彼の手	-10.1662
くびき	-10.1665
されたのである	-10.1665
六百	-10.1665
ダビデ王	-10.1674
ピラト	-10.1674
おうと	-10.1677
したこと	-10.1679
わたしに答え	-10.1684
となし	-10.1688
ということ	-10.169
から救い	-10.1692
を殺して	-10.1694
仕事	-10.1695
召された	-10.1695
物に	-10.1695
わたしの足	-10.17
先祖の神	-10.1702
り物を	-10.1708
寝た	-10.1711
わが名	-10.1711
連れて行き	-10.1719
取られ	-10.1729
開け	-10.1733
知っているとおり	-10.1735
を教え	-10.1739
といって	-10.1746
に帰った	-10.1746
滅ぼした	-10.175
こわし	-10.1756
よみがえらせ	-10.1758
捕えられ	-10.176
汚れたもの	-10.1762
から出	-10.1762
僕たち	-10.1764
ることができなかった	-10.177
あなたの所に	-10.1773
たちも	-10.1777
拝し	-10.1789
老人	-10.1791
三十人	-10.1792
おし	-10.1799
やがて	-10.1809
に仕えた	-10.1811
を取った	-10.1817
わが神よ	-10.1817
を知り	-10.1824
日まで	-10.1826
火は	-10.1832
白	-10.1833
ものであって	-10.1834
四百	-10.1838
者たちを	-10.1841
三千	-10.1842
をとどめ	-10.1847
パリサイ人たち	-10.1851
わたしの心は	-10.1852
わが救	-10.1854
ひとりを	-10.1859
谷に	-10.1865
ためではなく	-10.1872
かなかった	-10.1875
をつけて	-10.1875
一万	-10.1883
んではならない	-10.1887
死の	-10.1887
なか	-10.1892
あなたのうちに	-10.1893
かけて	-10.1903
主が命じられた	-10.191
町から	-10.1911
を裂き	-10.1915
主はあなた	-10.1917
書いて	-10.1919
を造る	-10.192
人間の	-10.1921
づ	-10.193
を求めて	-10.1935
ておられる	-10.1951
に分け	-10.1957
人の手	-10.1958
わたしはそれを	-10.1966
預言して	-10.1967
威	-10.1967
ナオミ	-10.1974
いなずま	-10.1974
カデシ	-10.1974
立ちあがり	-10.1974
ベエルシバ	-10.1974
歌うたう者	-10.1974
バルナバ	-10.1974
主がモーセに命じられたとおり	-10.1974
メシュラム	-10.1974
むさぼ	-10.1974
よろず	-10.1974
みなしご	-10.1974
あわて	-10.1974
エフライムの山地	-10.1975
あわれむ	-10.1975
カルメル	-10.1975
親族	-10.1976
ハナニヤ	-10.1976
書きおく	-10.1976
エシュア	-10.1976
青糸	-10.1977
主の使	-10.1977
イスラエルの人々に言いなさい	-10.1979
地上の	-10.1979
すぐれた	-10.198
地の果	-10.1981
住まわせ	-10.1981
安全	-10.1982
ペル	-10.1983
七日目に	-10.1984
わたしから	-10.1988
移し	-10.1988
ったからである	-10.199
をおおって	-10.199
帰れ	-10.1994
わざわいである	-10.1996
なくても	-10.1997
公義	-10.1998
五つ	-10.1998
心の中で	-10.1999
に与えられた	-10.2001
くつ	-10.2005
こう言って	-10.2007
広い	-10.2016
悲しむ	-10.2016
祭司長たち	-10.2023
アダ	-10.2023
さないでください	-10.2024
はこれである	-10.2026
者のように	-10.2028
福音を	-10.2032
主の契約の箱	-10.2039
んだ像	-10.2039
ダニエルは	-10.2052
つかわされ	-10.2056
おのれを	-10.2065
殺そう	-10.2066
律法に	-10.2074
に当る	-10.2086
大いなる者	-10.209
葬られ	-10.2093
その日には	-10.2094
山で	-10.2099
みた	-10.211
つり	-10.2112
いやされた	-10.2112
家から	-10.2129
二年	-10.213
わたしたちのために	-10.2136
明け	-10.2139
いただき	-10.214
ります	-10.2145
▁この時	-10.215
も共に	-10.2162
を集めて	-10.2167
弟子たちが	-10.2167
に座し	-10.2167
呼ばわった	-10.2167
一日に	-10.2168
ようとするのか	-10.217
命じられたように	-10.2175
と言うであろう	-10.2178
主と	-10.2182
者にも	-10.2189
清く	-10.2191
を送り	-10.2191
消し	-10.2204
つけた	-10.2206
あなたの敵	-10.2216
滅ぼそうと	-10.2217
弟子たちに	-10.2219
したからである	-10.2221
とされる	-10.2222
ておいた	-10.2224
が起って	-10.2226
ほふり	-10.2228
多くの民	-10.2228
まる	-10.2229
供え物を	-10.2239
ダビデの家	-10.224
町々は	-10.2242
孫	-10.2254
これらを	-10.2255
もしあなたがたが	-10.2259
が死んで	-10.2267
信心	-10.2283
者はない	-10.2283
わたされ	-10.2284
のなかに	-10.2287
を罰する	-10.229
アビメレクは	-10.2291
を罰し	-10.2294
正しい者は	-10.2294
わなかった	-10.2306
イザヤ	-10.2309
地上に	-10.2316
義は	-10.2318
を築き	-10.2319
とともに	-10.2328
悲	-10.2328
士	-10.2329
ヨタム	-10.2331
タルシシ	-10.2331
あらかじめ	-10.2331
を切り倒し	-10.2331
荒れすたれ	-10.2331
誓われた	-10.2331
アカシヤ	-10.2331
しゅろ	-10.2331
わきまえ	-10.2331
バビロンの王ネブカデレザル	-10.2332
消えうせ	-10.2332
ウリヤ	-10.2332
主をほめ	-10.2334
骨を	-10.2334
書きしるし	-10.2335
ふところに	-10.2335
心にとめ	-10.2336
ミカヤ	-10.2339
小さい者	-10.2342
門を守る者	-10.2343
工人	-10.2344
キリストにあって	-10.2344
バテ	-10.2346
をいやし	-10.2346
った時	-10.2348
三日目に	-10.2348
お願い	-10.2351
サル	-10.2353
大ぜい	-10.2355
遠い	-10.2356
者です	-10.2356
ベニヤミンの人々	-10.2357
上ってきた	-10.2361
手を伸べて	-10.2361
と言っている	-10.2363
あなたをほめたたえ	-10.2364
▁ここに	-10.2364
絶や	-10.2364
祭と	-10.2367
のうちにある	-10.237
くださった	-10.2371
かわき	-10.2377
イスラエルの家の	-10.2378
でさえ	-10.2382
預言した	-10.2385
何ゆえ	-10.2389
さら	-10.2391
を携え	-10.2393
良心	-10.2395
火が	-10.2397
隠れた	-10.241
工事	-10.2411
アン	-10.2422
祭壇に	-10.2426
事実	-10.2431
父なる神	-10.2432
妻たち	-10.2434
手が	-10.244
恐れた	-10.2441
わたしに言った	-10.2445
動か	-10.245
つぐ	-10.2461
置	-10.2464
なのか	-10.2468
目の前に	-10.2479
召	-10.2482
を得て	-10.2484
言わない	-10.2488
罪所	-10.2488
▁さらに	-10.2489
ようにしてください	-10.2489
これを攻め	-10.2503
▁第	-10.2507
置か	-10.251
その栄光	-10.2511
牧	-10.2514
に進み	-10.2523
書物	-10.2554
その力	-10.2554
パロと	-10.2556
理し	-10.2559
エジプトびとは	-10.2563
あなたのもとに	-10.2564
ていたので	-10.2568
でなければ	-10.2569
ヨルダンを渡	-10.2579
主のみ	-10.2585
▁パロは	-10.2591
兄弟たちは	-10.2596
イエスにあって	-10.2596
やめ	-10.2607
になると	-10.2612
かどうか	-10.2613
知識を	-10.2613
を守らなければならない	-10.2613
るようにと	-10.2614
異	-10.2623
白く	-10.2636
わたしの家	-10.2636
わたしはあなたがたに	-10.2642
肉の	-10.2643
あなたの足	-10.2645
供え物をささげ	-10.2655
者はだれか	-10.2658
祭司長	-10.2661
ハラ	-10.2664
捨てられた	-10.2665
を送って	-10.267
もうけ	-10.2675
憤	-10.2678
やせ	-10.268
のかしらたち	-10.2684
彼らの神	-10.2686
ガド	-10.2687
は偽り	-10.2689
おろし	-10.269
に授け	-10.2694
に乗って	-10.2698
めぐり	-10.27
テモテ	-10.2702
カレブ	-10.2702
預言する	-10.2702
ベネハダデ	-10.2702
にすぎない	-10.2702
マケドニヤ	-10.2702
マアセヤ	-10.2702
さまざまの	-10.2702
先見者	-10.2702
ンの子ヨシュア	-10.2702
ヘブルびと	-10.2704
ナイル川	-10.2705
をおおった	-10.2705
出入り	-10.2705
証言	-10.2706
分け前	-10.2708
者がある	-10.2714
ガドの子孫	-10.2715
みつぎ	-10.2715
した事	-10.272
者であった	-10.2721
ベラ	-10.2722
スリヤの王	-10.2725
を荒し	-10.2736
分を	-10.2741
に時があ	-10.2742
を失い	-10.2744
するならば	-10.2755
罪びと	-10.2764
に上って	-10.2765
御国	-10.2765
祭壇と	-10.2766
てくださるように	-10.2767
ギリシヤ人	-10.2769
救われ	-10.2772
隠し	-10.2775
バラム	-10.2776
守る	-10.2778
場所で	-10.2782
くなり	-10.2785
銀の	-10.279
どんなに	-10.2801
ヨハネは	-10.2806
をかけて	-10.2806
かたは	-10.2809
倒れて	-10.281
門の入口	-10.2815
神の栄光	-10.2817
二万	-10.282
を持ち	-10.2825
売り	-10.2825
身を汚し	-10.2827
第二の	-10.2836
ささげて	-10.2841
よく言っておく	-10.2843
救われた	-10.2843
地の上に	-10.2845
めぐらし	-10.2846
四つ	-10.2846
荒れ地	-10.2846
野で	-10.285
分れ	-10.2854
人たちが	-10.2857
主の言葉を	-10.2859
知ってお	-10.287
しないで	-10.287
▁神が	-10.2879
させよ	-10.2879
らぬ	-10.2886
歳であった	-10.289
群衆は	-10.2893
ヒルキヤ	-10.2908
われわれのために	-10.2916
人のように	-10.2918
ことを聞いた	-10.2921
やかに	-10.2929
をひき	-10.2929
むすこ娘	-10.293
主から	-10.2941
を開いて	-10.2942
から来る	-10.2946
しかった	-10.297
れる者は	-10.2973
彼らに答え	-10.2974
数人	-10.2975
そうである	-10.2978
ほめたたえ	-10.2981
喜ば	-10.2981
あげよう	-10.2982
さとし	-10.2983
彼の上に	-10.2985
救主	-10.299
決め	-10.2991
かわいた地	-10.2994
を通らせ	-10.2995
わたしの命	-10.2997
▁悪しき者は	-10.3003
ツ	-10.3009
にそむき	-10.3015
その先祖	-10.3018
戒	-10.3019
エッサイ	-10.3022
させよう	-10.3028
ものはない	-10.3029
その家来たち	-10.3029
その夜	-10.3031
台と	-10.3033
からのがれ	-10.3034
一つも	-10.3037
ユダヤ人たちは	-10.3038
そのもろもろの	-10.304
のもとにきて	-10.3043
あなたの口	-10.3045
切れ	-10.3047
子よ	-10.3047
の道は	-10.3048
デヤ	-10.305
終え	-10.3055
ある者は	-10.3059
をやめ	-10.3059
を食べる	-10.306
主の怒り	-10.306
だれかが	-10.306
するためである	-10.306
おのおの自分の	-10.307
者があれば	-10.3077
子を産む	-10.3078
八十	-10.3078
天地	-10.3079
勇	-10.3084
アマサ	-10.3086
酒ぶね	-10.3086
アビシャイ	-10.3086
カイン	-10.3086
に至らせ	-10.3086
を砕き	-10.3086
ヒビびと	-10.3086
それに属する村々	-10.3086
を憎み	-10.3086
エルカナ	-10.3086
あやまち	-10.3086
かさね	-10.3086
きびしく	-10.3086
ベナヤ	-10.3086
ひどく	-10.3086
信頼し	-10.3087
実を結ぶ	-10.3087
▁女は	-10.3087
偽善	-10.3087
告白	-10.3087
どういう	-10.3088
勇気	-10.3088
立ちあがって	-10.3089
とその村々	-10.309
▁わたしたちが	-10.309
雄羊一頭	-10.3091
同時に	-10.3091
ガザ	-10.3093
願う	-10.3094
このようにして	-10.3096
神の御	-10.3096
のようであり	-10.3096
エラム	-10.3097
を聖別し	-10.3103
を思い出し	-10.3105
主にささげなければならない	-10.3106
下す	-10.3107
たび	-10.3108
シセラ	-10.3108
白い	-10.312
それをもって	-10.312
悪い事を	-10.3121
言うであろう	-10.3122
様子	-10.3125
ヤコブと	-10.3131
歌え	-10.3134
五十人	-10.3136
主は生きておられる	-10.3139
数えられた	-10.314
主なる	-10.314
イスラエルの子ら	-10.3147
いやす	-10.3149
祭壇の上に	-10.3151
おう	-10.3157
の中にいる	-10.3157
られるでしょう	-10.3157
ることのできる	-10.3161
恥じる	-10.3164
近寄って	-10.3164
供え物として	-10.317
全家	-10.3174
を取る	-10.3176
主の前で	-10.3179
しえたげる者	-10.318
罪を犯させ	-10.3184
わたしの言葉を	-10.3185
願った	-10.3189
をかき	-10.319
重く	-10.3191
その周囲に	-10.3198
町々に	-10.3205
さばかれる	-10.3222
その民を	-10.3246
もうひとり	-10.3247
女たちは	-10.3255
者たちに	-10.3258
あなたにむかって	-10.3258
ならせ	-10.326
清くな	-10.3265
下さった	-10.3267
平地	-10.3268
に近づいて	-10.327
残りの者	-10.3279
に臨んで	-10.3284
続	-10.3288
働いて	-10.3299
携えてきて	-10.3303
耳を	-10.3305
あなたに対して	-10.3307
出せ	-10.3313
驚いて	-10.3313
を納め	-10.3314
知っていた	-10.3315
▁主なる神は	-10.3329
▁そこで王は	-10.3332
信じる者	-10.3337
くなる	-10.3339
あげた	-10.3339
者であって	-10.3341
下った	-10.3345
備	-10.3346
おじ	-10.3349
▁エリシャは	-10.3352
上着	-10.3357
ことがなかった	-10.3357
愛する者たち	-10.336
もろもろの山	-10.3364
あなたの名を	-10.3365
乳と	-10.3369
送	-10.3374
かえし	-10.3398
られたのである	-10.3399
ないので	-10.3402
いまし	-10.3405
真実な	-10.3408
ゆ	-10.3411
も皆	-10.3422
に帰る	-10.3423
動かされ	-10.3428
伝えた	-10.3432
彼の前に	-10.3435
求めて	-10.3436
引き上げ	-10.3436
話して	-10.3439
人の子が	-10.3451
心をつくし	-10.3452
スリヤ	-10.3459
一エパ	-10.346
ろうとする	-10.3462
ではありません	-10.3465
学	-10.3472
雨を	-10.3473
エサウは	-10.3474
はなはだ	-10.3481
シドン	-10.3481
徒	-10.3484
向かう	-10.3485
目をさまして	-10.3485
じゅうぶん	-10.3486
つむじ風	-10.3486
にもかかわらず	-10.3486
はっきり	-10.3486
をかえりみ	-10.3486
マナセの半部族	-10.3486
ことはできません	-10.3486
に至った	-10.3486
アドニヤ	-10.3486
に及び	-10.3486
バアシャ	-10.3486
その部隊	-10.3486
それだのに	-10.3487
主の栄光が	-10.3487
たましい	-10.3487
その所から	-10.3487
寄留者	-10.3487
イスラエルの人々の全会衆	-10.3488
怒りをもって	-10.3488
兵士	-10.3488
合わせて十二人	-10.3489
歌をうた	-10.349
ラキシ	-10.3491
ひとしく	-10.3491
アヒヤ	-10.3492
ナン	-10.3492
が起り	-10.3493
宿っている	-10.3494
二十キュビト	-10.3495
不法	-10.3495
示して	-10.3495
が起った	-10.3496
スト	-10.3496
アベル	-10.3497
主の目の前に悪を行	-10.3497
まなければならない	-10.3498
ひとつ	-10.3498
集められ	-10.35
高ぶ	-10.3501
言われたように	-10.3503
罪に定め	-10.3506
多かった	-10.3507
そむく	-10.351
の町々と	-10.3517
妻は	-10.3519
いましめ	-10.3521
なした	-10.3523
一生	-10.3526
聞いている	-10.3528
娘は	-10.353
られるからである	-10.3532
いません	-10.3535
したことを	-10.3543
を捨てた	-10.3545
少なく	-10.3546
ものだ	-10.3555
ペリシテびとが	-10.3555
を愛して	-10.3567
ヤコブの神	-10.3567
かえて	-10.3573
生ける	-10.3574
の産物	-10.3574
そのとおりに	-10.3577
し加え	-10.3583
かわいた	-10.3584
間を	-10.3586
に逆らって	-10.3588
に敵し	-10.3588
箱舟	-10.359
泣いて	-10.3596
とどまり	-10.3604
解き明かし	-10.3608
わたしたちも	-10.3613
かったので	-10.3617
しまった	-10.3622
ているからである	-10.3624
神の箱を	-10.3626
どうしてあなたは	-10.363
耳を傾けよ	-10.3638
近寄	-10.3641
あなたがたと共に	-10.3642
ようにしなさい	-10.3646
▁イスラエルは	-10.365
えば	-10.3655
▁ヒゼキヤは	-10.3655
善を	-10.3661
感謝する	-10.3664
全きもの	-10.368
めとった	-10.368
つぎ	-10.3689
よりは	-10.3692
イスラエルの地	-10.3699
あわれみを	-10.3699
苦しめられ	-10.3708
悪しき者は	-10.3717
その日に	-10.3718
彼女たち	-10.3718
逃げ去った	-10.372
をうける	-10.3723
その数	-10.3723
わたしもまた	-10.3729
に先立って	-10.3731
の中にある	-10.3733
その道を	-10.3734
に満たされ	-10.3734
の数は	-10.3756
につけて	-10.3757
神の霊	-10.3761
よくよく	-10.3768
まっ	-10.3768
に下る	-10.3771
と戦った	-10.3772
神の言	-10.3773
つるぎで	-10.3773
祭司に	-10.3781
一年	-10.3782
この町に	-10.3783
千人	-10.3795
て下さるであろう	-10.3809
設け	-10.3811
合わせ	-10.3813
を苦しめ	-10.3816
ものとし	-10.3826
羊の毛	-10.384
を見ない	-10.3841
ほむべきかな	-10.3843
用い	-10.3845
広場	-10.3846
ためであり	-10.3846
万軍の	-10.3849
を守らせ	-10.3852
気が	-10.386
隣	-10.3864
その子供	-10.3865
をあらわす	-10.3871
に納め	-10.3878
イシ	-10.3879
すわっていた	-10.3881
わたしに告げ	-10.3885
あなたとあなたの	-10.3885
終る	-10.3892
貧	-10.3895
いくさ	-10.3898
セイル	-10.3899
叫んで言った	-10.3903
を導いて	-10.3903
を憎んで	-10.3903
エクロン	-10.3903
必ず殺されなければならない	-10.3903
近づき	-10.3903
身をかがめ	-10.3903
ヤベシ	-10.3903
つまずく	-10.3903
踏みにじ	-10.3904
持たない	-10.3904
はるかに	-10.3904
もう一度	-10.3905
にあずか	-10.3905
ハナン	-10.3905
▁それだから	-10.3906
とびら	-10.3907
ひざ	-10.3907
という名の	-10.3908
を打って	-10.3909
くずれ	-10.3912
ゲラ	-10.3913
声を聞いた	-10.3914
の娘で	-10.3916
アラム	-10.3916
主が賜わる	-10.3917
ガデ	-10.3917
ひげ	-10.3918
ニム	-10.3919
ラバ	-10.3919
おさめ	-10.392
イスラエルの長老たち	-10.3924
ゆるす	-10.3926
罪を犯しました	-10.3928
にかなう	-10.3931
者はひとりも	-10.3933
十六	-10.3938
マナ	-10.3938
清い者	-10.3939
北の方	-10.394
あなたがた自身	-10.394
を起して	-10.394
糸で	-10.394
雲が	-10.3947
物を食べ	-10.3951
おろして	-10.3954
を強くし	-10.3959
ことができましょう	-10.3969
自分の罪	-10.3977
はこう言われる	-10.3979
小羊と	-10.398
弱い	-10.3981
そこへ	-10.3981
愚かな者は	-10.399
暗い	-10.3995
ことを聞いて	-10.4001
くださる	-10.4007
血と	-10.4009
二頭	-10.4015
ごらん	-10.4021
をつくり	-10.4024
を撃ち破	-10.403
彼らのうち	-10.403
隠して	-10.4033
シオンに	-10.4043
王は言った	-10.4046
ことがあろうか	-10.405
彼らにむかって	-10.4053
えられ	-10.4054
としてささげ	-10.4056
その聖なる	-10.4063
わたしに対して	-10.4068
をもち	-10.4074
満たし	-10.4076
実に	-10.4077
良	-10.4078
この所に	-10.4081
あなたがたの所に	-10.4089
ラバンは	-10.4092
捕われ人	-10.4112
連れ出し	-10.4115
らせてください	-10.4116
ついで	-10.4116
▁やがて	-10.4119
▁これが	-10.4124
わざわい	-10.4126
を持っていた	-10.4134
行きます	-10.4138
あがる	-10.4143
はいらせ	-10.4144
柱と	-10.4149
み顔を	-10.4152
ネブカデネザル	-10.4155
って行って	-10.4156
五日	-10.4156
彼のもとに	-10.4157
てくださる	-10.4157
夫が	-10.4162
りません	-10.4163
エジプトで	-10.4168
てはなりません	-10.4169
を設けた	-10.4169
そうではない	-10.4175
のうちにあって	-10.4183
になりました	-10.4189
いっ	-10.419
今や	-10.419
をさし	-10.4198
ゆだね	-10.4203
勇士たち	-10.4204
その家に	-10.4205
者として	-10.4206
たけ	-10.4211
こう言った	-10.4213
家で	-10.4217
外で	-10.4217
かたである	-10.4227
遠	-10.4229
主があなたがた	-10.425
る者はない	-10.4251
書いてある	-10.4262
を知った	-10.4271
悪事を	-10.4279
預言し	-10.4279
に下り	-10.4282
感謝し	-10.4287
ヒゼキヤは	-10.4288
エルサレムにある	-10.4289
たいと	-10.429
救って	-10.4292
富と	-10.4293
をつかわし	-10.4299
信じて	-10.4304
主の言葉は	-10.4305
▁主は言われた	-10.4323
ておく	-10.4325
かおり	-10.4328
を満たしてい	-10.4328
ピネハス	-10.4337
カイザル	-10.4338
を悩ます	-10.4338
ダリヨス	-10.4338
ハガル	-10.4338
みだらな	-10.4338
その子たちおよびその兄弟たち	-10.4338
声を聞か	-10.4338
さもないと	-10.4338
ペリジびと	-10.4338
そばめ	-10.4338
テムナ	-10.4338
朝まで	-10.4338
神の箱	-10.4338
つづけた	-10.4338
すわった	-10.4339
あたり	-10.434
解放	-10.434
オリブの木	-10.4341
かしの木	-10.4341
を撃つ	-10.4341
エジプトの王パロ	-10.4344
こういう	-10.4344
内側	-10.4345
書記	-10.4345
祭司エレアザル	-10.4345
しるされている	-10.4345
によらず	-10.4347
内庭	-10.4347
かわいて	-10.4347
スサ	-10.4348
ヨエル	-10.4348
シオンの山	-10.4348
望んだ	-10.435
ルベンの子孫	-10.4356
ものだからである	-10.4359
のところへ行って	-10.4361
その友	-10.4361
場合には	-10.4363
嘆く	-10.4369
柱頭	-10.437
わせて	-10.4371
その心は	-10.4375
だからです	-10.438
一方	-10.4381
を呼んで言った	-10.4386
道で	-10.4388
となられた	-10.439
飲んだ	-10.4399
ないために	-10.44
命じたように	-10.44
やかな	-10.4405
の手に渡す	-10.4407
それら	-10.4409
モアブは	-10.4411
いる間	-10.4413
夜のうちに	-10.4414
モーセに	-10.4414
その座	-10.4427
わたしは生きている	-10.4432
気づ	-10.4437
像を	-10.4437
ここにいる	-10.4447
ならない	-10.4458
から出たもの	-10.4461
第二	-10.4462
あなたの上に	-10.4468
百人	-10.4474
長は	-10.4474
をつかさどる	-10.4475
ろうとして	-10.4478
生きながらえ	-10.4484
とりこ	-10.4486
しまう	-10.4488
イスラエルの民	-10.449
主の宮で	-10.4494
数にしたがって	-10.4495
よりも多く	-10.4496
を買い	-10.4501
使者を	-10.4509
そうする	-10.4511
戒めと	-10.452
わが民イスラエル	-10.452
をつくし	-10.4523
を着て	-10.4527
老い	-10.4545
ユダのすべての	-10.4552
させなければならない	-10.4554
権力	-10.4554
なるもの	-10.4556
それらは	-10.4556
の魂は	-10.4575
造られ	-10.4576
勝つ	-10.4588
アロンと	-10.459
▁第十	-10.459
聖なる山	-10.459
に出会	-10.4594
悪しき者を	-10.4599
定められ	-10.4604
帰ってくる	-10.4605
を祝福して	-10.462
撃たれ	-10.4625
エジプトの国から	-10.4626
保証	-10.4627
歩む者	-10.4632
ライ	-10.4637
行いなさい	-10.4641
ヨシュアが	-10.4643
を建てた	-10.4645
よこしまな	-10.4646
あわれんで	-10.4647
彼らはみな	-10.4657
迎えた	-10.4659
なさった	-10.4667
勝	-10.4669
者たちよ	-10.4669
アロンの子孫	-10.4674
ではなかった	-10.4677
に話した	-10.4679
生ける神	-10.468
主のみ名	-10.4682
▁モーセが	-10.4684
を見つけ	-10.4691
刈る	-10.4702
彼らの中に	-10.4709
彼に答え	-10.4717
あわれま	-10.472
汚れる	-10.4726
するため	-10.4727
ないうちに	-10.4728
あるものは	-10.4733
不正	-10.4734
あなたがたの信仰	-10.4734
されること	-10.4736
心をもって	-10.4736
開かれ	-10.4738
土台	-10.474
手を伸べ	-10.4754
仕事を	-10.4757
良いこと	-10.4758
に導き	-10.4761
行いを	-10.4763
こうして彼らは	-10.4764
わたしに言われた	-10.4775
られるのですか	-10.4776
どうな	-10.4776
エルサレムの住民	-10.4783
荒れ地とな	-10.4789
にまで及んだ	-10.4792
イゼベル	-10.4792
エペソ	-10.4792
ゼルバベル	-10.4792
ゼルヤの子	-10.4792
ニネベ	-10.4792
おびただしい	-10.4792
トビヤ	-10.4792
ローマ	-10.4792
を呼ぶ	-10.4792
アジヤ	-10.4792
血を流す	-10.4792
ベテシメシ	-10.4792
乳ぶさ	-10.4792
に傾け	-10.4792
を焼いた	-10.4792
ラザロ	-10.4792
神の恵み	-10.4792
リンモン	-10.4792
身をめぐらして	-10.4793
あかり	-10.4794
をとおして	-10.4794
主を求め	-10.4795
成長し	-10.4795
あがなわれた	-10.4795
心に留め	-10.4795
七たび	-10.4795
大ぜいの群衆	-10.4796
にいたるまで	-10.4796
いくさびと	-10.4798
の子孫のうちでは	-10.4798
ことのないためである	-10.4799
朝ごとに	-10.48
モーセの律法	-10.48
アモン	-10.4801
アキシ	-10.4801
ゆえなく	-10.4803
無知	-10.4804
福音を宣べ伝え	-10.4806
を失う	-10.4806
モアブびと	-10.4807
天使	-10.4808
香ばしいかおり	-10.4809
セム	-10.4809
に渡した	-10.4812
大勇士	-10.4812
受けいれる	-10.4813
の庭に	-10.4814
生ける者	-10.4816
めのう	-10.4821
を追う	-10.4821
屋上	-10.4822
義とされる	-10.4823
ネル	-10.4828
この事は	-10.4829
取り去られ	-10.4831
さばきびと	-10.4834
心をつくして	-10.4836
歩んだ	-10.4836
▁イサクは	-10.4837
治め	-10.4838
と同じく	-10.4841
打ち破	-10.4842
▁この後	-10.4843
アハシュエロス王	-10.4846
わたしのところに	-10.4848
ききんと	-10.4855
主はほむべきかな	-10.4858
勢い	-10.4859
病人	-10.4862
奪い去	-10.4869
のぼる	-10.4877
死ぬであろう	-10.4879
知らないのか	-10.4879
破り	-10.4888
祝福された	-10.4894
あなたの母	-10.4902
わたしの敵	-10.4911
人々はみな	-10.4913
良い地	-10.4915
作り	-10.4915
言葉をもって	-10.4921
売った	-10.4927
百キュビト	-10.4935
いだいている	-10.4936
渡り	-10.494
らした	-10.4947
死んだ者	-10.4963
長老たちは	-10.4963
を撃たれた	-10.4967
のある所	-10.4968
その偶像	-10.4968
四万	-10.497
偽って	-10.4978
十キュビト	-10.4978
訴える	-10.4978
ことをしなかった	-10.4981
遠くから	-10.499
女の子	-10.4994
イスラエルのうちに	-10.4996
臨み	-10.4998
むすこたち	-10.5005
みまえに	-10.5008
もしなかった	-10.5012
逃げる	-10.5012
があろうか	-10.5014
したのです	-10.5016
に答えた	-10.5021
に起った	-10.5022
を変え	-10.5023
食べなければならない	-10.5031
広く	-10.5032
最も良い	-10.5038
につけた	-10.5043
荒れた	-10.5049
の前から逃げ	-10.5069
に属する者	-10.5073
わたしの名を	-10.5079
ことを知り	-10.5079
言っておく	-10.5085
の訴えを	-10.5087
であります	-10.5092
町で	-10.5096
すべきである	-10.5096
に聞き従わ	-10.5102
くなった	-10.5105
それである	-10.5107
にふさわしい	-10.5112
四方	-10.5122
もよい	-10.5135
ヤコブの家	-10.5138
泣き悲し	-10.514
すべての人に	-10.5143
おまえたちは	-10.515
を恐れた	-10.5152
王となり	-10.5153
落ちて	-10.5158
その心に	-10.5165
四日	-10.5168
ることができるか	-10.5171
行わない	-10.5176
を召して	-10.5176
ないのに	-10.5181
ためです	-10.5183
あなたがたの父	-10.5186
に満ちた	-10.5187
エルサレムへ	-10.5195
に帰り	-10.5195
勢	-10.5197
しています	-10.5205
確かな	-10.5212
ゲバ	-10.5213
することができる	-10.5214
その地に	-10.5215
▁悪しき者	-10.5216
の手に渡された	-10.522
肉を食べ	-10.5225
と言いなさい	-10.5239
神のみまえに	-10.525
くちびるは	-10.5251
わたしのうちに	-10.5262
オピヤ	-10.5263
エホヤダ	-10.5264
うたえ	-10.5267
ユ	-10.5267
弱い者	-10.5267
メレク	-10.5267
っています	-10.5268
なければなりません	-10.5268
ひょう	-10.5268
ヘヅロン	-10.5268
アシドド	-10.5268
水に身をすす	-10.5268
ナアマン	-10.5268
ペレテ	-10.5268
注意し	-10.5268
異邦の	-10.5268
エホアハズ	-10.5268
足なえ	-10.5268
そそぎ	-10.5268
に乗せ	-10.5268
シナイ山	-10.5269
わたしを怒らせ	-10.5269
たしかに	-10.5269
きっと	-10.5269
待ち望む	-10.5269
権利	-10.527
一生の間	-10.527
の知事	-10.5271
五十キュビト	-10.5272
あなたの子ら	-10.5273
両親	-10.5273
の子たちのつかさ	-10.5273
バルク	-10.5273
断じて	-10.5274
ひっ	-10.5274
小麦	-10.5275
しゅうとめ	-10.5275
ハラン	-10.5275
ウザ	-10.5276
々しく	-10.5276
肉体	-10.5276
立ち返	-10.5276
シャンマ	-10.5276
ホシャ	-10.5277
長官	-10.5277
ヤリム	-10.5277
どおりに	-10.5277
議会	-10.5278
断たれる	-10.5278
わらべ	-10.5278
サライ	-10.5279
いやされる	-10.5282
パン種	-10.5285
セラヤ	-10.5287
大軍	-10.5288
流れる	-10.5288
しかり	-10.5288
ならわし	-10.5293
荒布	-10.5299
ドル	-10.5299
お告げにな	-10.5302
主が彼ら	-10.5303
四方から	-10.5306
連れて行った	-10.5306
にいる人々	-10.5312
若き	-10.5318
と共におる	-10.5322
彼らの前に	-10.5325
く起きて	-10.5327
きている	-10.533
あなたがた一同	-10.5334
なしに	-10.5338
を出た	-10.534
を離れる	-10.5346
エッサイの子	-10.5349
なのですか	-10.5353
ほんとうに	-10.5353
遠く離れて	-10.5358
あがって	-10.536
に賜わった	-10.5362
立てられた	-10.5367
上って行って	-10.5368
血を流した	-10.5376
命じられる	-10.5379
のようになって	-10.538
を去り	-10.5385
を踏み	-10.5391
四方に	-10.5391
火で焼き	-10.54
良く	-10.5405
彼らに与え	-10.5406
獲物を	-10.541
によるのである	-10.5411
にゆだね	-10.5418
▁ユダは	-10.5419
に会った	-10.5423
そこに住む	-10.5425
合った	-10.5428
ことができましょうか	-10.5428
地のおもてに	-10.5436
あなたがたの上に	-10.5437
あなたの民イスラエル	-10.5438
を好ま	-10.544
ささげ物を	-10.5446
少ない	-10.5447
あなたがたの兄弟	-10.5448
開かれた	-10.5448
心で	-10.545
▁わざわい	-10.5455
国のうち	-10.5465
を造ら	-10.5471
しるされ	-10.5472
葬り	-10.5477
ある人々は	-10.5481
七十人	-10.5482
イスラエルとユダ	-10.5484
そうだ	-10.5486
こられる	-10.5486
送って	-10.5493
ことを知っている	-10.5494
あなたと一緒に	-10.5497
あなたがたの心	-10.5499
主はその民	-10.5504
偽	-10.5507
を祝福した	-10.5508
だけである	-10.5508
教えた	-10.5514
追い出し	-10.5514
あなたのむすこ	-10.5517
上がって	-10.5522
おとずれを	-10.5524
出て行き	-10.5525
仰	-10.5529
見られる	-10.5532
戸口	-10.5536
ルベンびと	-10.5538
恵まれ	-10.5541
あなたのおきてを	-10.5549
こともなく	-10.5559
言います	-10.5562
みると	-10.5563
ていたからである	-10.5567
けなさい	-10.557
すべての町々	-10.5576
良い物	-10.5576
主の使が	-10.5576
▁もしあなたがたが	-10.5578
を開き	-10.5581
六日	-10.5582
あなたがたに対して	-10.5584
にとどまってい	-10.5589
同様に	-10.5597
すべての国民	-10.5622
ものとなる	-10.5624
しえたげられ	-10.5626
彼について	-10.5632
周囲に	-10.5646
山から	-10.5646
を守る者は	-10.5648
栄える	-10.5652
見えるようにな	-10.5664
をささげた	-10.5665
異なる	-10.5668
と同様に	-10.5669
バラムは	-10.5672
あがめられ	-10.5678
ちまたに	-10.5687
どうぞ主が	-10.5698
彼らは皆	-10.5705
ユダの地	-10.5707
語られる	-10.5712
長たち	-10.5713
▁するとイエスは	-10.5715
神の家	-10.5716
主の前	-10.5716
悪をおこな	-10.5723
ひとりもない	-10.5744
わたしの怒り	-10.5746
ユフラテ川	-10.5746
をはずかしめる	-10.5748
下ってきて	-10.575
山の上に	-10.575
十二弟子	-10.5754
ハマテ	-10.5756
▁こうして彼らは	-10.5762
アマレク	-10.5763
犠牲をささげる	-10.5764
されていた	-10.5766
営	-10.5767
に及んで	-10.5768
アヒトペル	-10.5768
アビヤタル	-10.5768
アナトテ	-10.5768
香をたき	-10.5768
エホヤダの子ベナヤ	-10.5768
アンテオケ	-10.5768
エホデ	-10.5768
オバデヤ	-10.5768
の子らのうちでは	-10.5769
めぐみ	-10.5769
非難	-10.5769
外国人	-10.5769
と言えば	-10.5769
会見の幕屋の入口に	-10.5769
ヨルダンの向こう側	-10.5769
ただちに	-10.577
実を結び	-10.577
生き残った	-10.577
ペルシャ	-10.5771
をさして誓う	-10.5771
その家族にしたがって	-10.5771
おそく	-10.5771
立ち上がって	-10.5772
エデン	-10.5773
とばり	-10.5774
なおさら	-10.5775
ナホル	-10.5775
にわかに	-10.5775
力づけ	-10.5775
の氏族では	-10.5776
ゆるされるであろう	-10.5781
み前	-10.5783
ることのできない	-10.5784
ことはないであろう	-10.5786
その夫	-10.5788
わたしをつかわされた	-10.5788
く起き	-10.5789
その行い	-10.579
注ぎ油	-10.579
一キュビト	-10.5791
老	-10.5796
建物	-10.5796
エドムびと	-10.5797
合う	-10.5801
ののしり	-10.5803
て下さったのである	-10.581
ようになるであろう	-10.581
主は仰せられる	-10.5812
あがないをする	-10.5814
眠っている	-10.5816
イスラエルの部族	-10.5823
ないようにする	-10.5825
共	-10.5826
ないなら	-10.5828
に注ぎかけ	-10.583
恐れるな	-10.5841
今後	-10.5856
示した	-10.5862
祭をささげ	-10.5863
人を殺した者	-10.5864
を与えられる	-10.5866
寄	-10.5867
罪のために	-10.588
のあとについて	-10.5884
わたしが見ている	-10.5899
ことを聞き	-10.5902
あざける者	-10.5902
に負わせ	-10.5903
後の子孫	-10.5907
臨む	-10.5909
理した	-10.5909
はずかしめられ	-10.591
自分の家に	-10.5911
▁わが愛する者	-10.5912
罰する	-10.5912
相手	-10.5928
人をつかわし	-10.5933
もせず	-10.5939
と戦って	-10.5939
われらに	-10.5944
を過ぎ	-10.5948
の前に立って	-10.5951
悪事	-10.5951
わたしの手に	-10.5956
ことわざ	-10.5956
わたしよりも	-10.596
主なるわたしは	-10.5962
何事も	-10.5967
帰し	-10.5968
これらはみな	-10.5974
神の言を	-10.5977
この子	-10.5982
地のおもて	-10.5987
神によって	-10.5992
その家族	-10.5993
淫を行う	-10.6002
主はあなたを	-10.6006
あかしをし	-10.6007
悟らない	-10.6009
若い者	-10.6011
と尋ねた	-10.6018
おうとして	-10.6024
わたしを見	-10.6042
去れ	-10.6046
みんなが	-10.6049
道から	-10.6049
なくなり	-10.6075
同様である	-10.6079
あれは	-10.6079
この事が	-10.6083
あなたに向かって	-10.6086
国びと	-10.6086
仕えた	-10.609
すべてのわざ	-10.6093
下にある	-10.6122
わせる	-10.6127
あなたの戒め	-10.6128
その周囲の	-10.6129
二度	-10.6131
おこなって	-10.6134
その主人	-10.6139
ようではないか	-10.6146
をもってあなたを	-10.6157
まことと	-10.6158
あざける	-10.6159
今まで	-10.616
おります	-10.616
生きながらえて	-10.6163
ことごとく滅ぼし	-10.6172
滅ぼす者	-10.6175
地所	-10.6177
そうとして	-10.6194
注がれ	-10.6197
と言いました	-10.62
においても	-10.6205
となっている	-10.6206
耳を傾けて	-10.6216
家にはいって	-10.622
主をほめたたえ	-10.6221
ことができません	-10.6262
の手は	-10.6266
産む	-10.6267
悪を行う	-10.6282
ふるまい	-10.6282
者となった	-10.6284
シュア	-10.6289
地に投げ	-10.629
導き出された	-10.6294
お命じになった	-10.6295
リブナ	-10.6295
おいでになる	-10.6295
おつかわしになった	-10.6295
よろしい	-10.6295
アラビヤ	-10.6295
ラハブ	-10.6295
実を結ば	-10.6295
アルノン	-10.6295
スコテ	-10.6295
ヘマン	-10.6295
一か月	-10.6295
ハンナ	-10.6295
アタリヤ	-10.6295
オムリ	-10.6295
酒を飲んで	-10.6295
ハシャビヤ	-10.6295
分かち	-10.6295
マッタニヤ	-10.6295
ひずめ	-10.6295
まむし	-10.6295
みきらわ	-10.6295
羊と牛	-10.6295
かわく	-10.6295
アサヘル	-10.6296
バビロンの王ネブカデネザル	-10.6296
千人の長	-10.6296
ゴグ	-10.6297
富める者	-10.6297
はなはだしく	-10.6297
ユダの王ゼデキヤ	-10.6298
その解き明かしを	-10.6298
罰せられる	-10.6298
貧しく	-10.6299
重んじ	-10.6299
アダム	-10.6299
得ようか	-10.6299
彼によって	-10.63
ままにしてお	-10.63
ナバル	-10.6301
夕まで汚れるであろう	-10.6301
服従	-10.6303
威光	-10.6304
▁ギデオンは	-10.6305
永遠の命	-10.6306
進む	-10.6307
偽りを言う	-10.6308
むけ	-10.6312
▁ヨシャパテは	-10.6312
を知ろうと	-10.6314
ヘル	-10.6315
多くの国民	-10.6316
かぎり	-10.6317
を立てる	-10.6317
主なるわたしが	-10.6318
アマリヤ	-10.6318
備えた	-10.6319
そのかたわらに	-10.6319
するのである	-10.632
ゆき	-10.6321
終って	-10.6321
ベニヤミンびと	-10.6325
イザヤは	-10.6327
下って行って	-10.6334
傷つけ	-10.6334
ペリシテびとの君たち	-10.6335
イスラエルのすべての人々	-10.6338
の四すみ	-10.6339
その衣服	-10.634
者があるか	-10.6341
いたします	-10.6344
礼拝し	-10.6344
見えた	-10.6345
降らせ	-10.6347
仰せられた	-10.6348
びん	-10.6351
百五十	-10.6352
この二つ	-10.6353
まとい	-10.6365
汚れた者	-10.637
広場に	-10.6371
エジプト全国	-10.6372
水のように	-10.6388
服し	-10.6391
わたしを捨てて	-10.6394
かすめられ	-10.6407
主に対して	-10.641
生命	-10.6414
おど	-10.6416
従わず	-10.6419
用いた	-10.6422
過ぎて	-10.6424
火のように	-10.6433
計りごとを	-10.6434
イエスのところに	-10.644
ひとりの人	-10.6441
の手にわたされ	-10.6447
わたしに向かって	-10.6452
を賜わった	-10.6453
されたからである	-10.6454
めかけ	-10.6459
と思っている	-10.6462
を用いて	-10.6471
男女	-10.6473
してはいけない	-10.6481
あふれる	-10.6485
王の宮殿	-10.6491
あなたがたの先祖たち	-10.6495
の所へ行って	-10.6502
はなりません	-10.6504
くつを	-10.6506
にとどま	-10.6507
を取りなさい	-10.6509
踏み	-10.6518
を持ってきて	-10.6524
次の日	-10.6526
を洗って	-10.6531
を追って	-10.6534
帰って行った	-10.6559
彼に告げ	-10.656
自分の身	-10.6562
あなたに与える	-10.6566
そのまま	-10.657
は大きい	-10.6574
者となる	-10.6575
らないように	-10.6589
十三	-10.6592
寄って	-10.6592
パリサイ人たちが	-10.6601
両手	-10.6604
思います	-10.6614
ものであり	-10.6619
告げられた	-10.6621
産んだ子	-10.6623
モアブの王	-10.6623
かえる	-10.6623
の中にあって	-10.6627
ことを知らない	-10.663
のために備え	-10.6645
らい病人	-10.6653
常	-10.6668
十日	-10.6677
ごらんにな	-10.6679
があります	-10.6683
主はモーセに言われた	-10.6689
はいってきた	-10.6695
の間で	-10.6706
▁第二	-10.6714
捕えられて	-10.673
神をあがめ	-10.673
あなたのまこと	-10.6749
あいさつを	-10.6749
取ろうと	-10.6765
つねに	-10.6766
行かない	-10.6768
するのは	-10.6783
尋ね求め	-10.6784
大な	-10.6789
されなかった	-10.6793
食ら	-10.6794
に近づく	-10.6796
戦った	-10.6798
と言わせた	-10.6804
の間から	-10.681
追い払う	-10.6813
やめさせ	-10.6817
第六	-10.682
へりくだ	-10.6821
町を建て	-10.6823
があろう	-10.6825
生きながらえる	-10.6829
はずかしめを受け	-10.6838
激	-10.6844
あなたは何を	-10.6844
配する	-10.6844
急	-10.6845
生きもの	-10.6845
知るであろう	-10.6848
約	-10.685
クロス	-10.685
レパイム	-10.685
若い雄牛一頭	-10.685
業	-10.685
ケイラ	-10.685
▁こういうわけで	-10.685
あやまって	-10.685
を選んだ	-10.685
男女の奴隷	-10.685
川向こうの	-10.685
ホセア	-10.685
男子と女子	-10.685
どこにいるのか	-10.685
八日目に	-10.685
主はこう仰せられます	-10.685
ペレヅ	-10.685
彼がしたすべての事	-10.685
焼きつくす	-10.685
おそらく	-10.685
に及ばない	-10.685
ゲダリヤ	-10.685
を呼び寄せて	-10.685
追いやられた	-10.685
と平安とが	-10.6851
種入れぬパン	-10.6851
荒布をまと	-10.6851
なんという	-10.6852
荒れはて	-10.6852
新たに	-10.6852
ウジエル	-10.6852
和解	-10.6852
に目をとめ	-10.6852
されます	-10.6853
罪のない者	-10.6853
肉なる者	-10.6853
におもむ	-10.6854
家に帰った	-10.6854
てもらいたい	-10.6855
に導かれ	-10.6855
テルザ	-10.6855
わたしをお救いください	-10.6855
さとき者	-10.6856
おぼえ	-10.6856
に報いる	-10.6856
水を飲ませ	-10.6856
オピヤびと	-10.6857
ミカエル	-10.6857
によれば	-10.6861
主権	-10.6862
ハッ	-10.6863
キム	-10.6863
結ぶ	-10.6866
集まってきて	-10.6866
東風	-10.6866
マノア	-10.6867
行かせてください	-10.6869
六つ	-10.687
バニ	-10.687
人はさいわいである	-10.6872
するもの	-10.6873
続く	-10.6874
あらし	-10.6874
ひと言	-10.6874
除かれ	-10.6877
驚く	-10.6879
コル	-10.688
に着いて	-10.688
のぼった	-10.6881
を除き	-10.6884
行わせ	-10.6885
弱く	-10.6887
を負い	-10.6887
すべてのイスラエルびと	-10.6888
▁そののち	-10.6888
歳になって	-10.6889
ではなかったか	-10.689
強い者	-10.6891
主の命令	-10.6894
すわり	-10.6894
連れてきなさい	-10.6895
彼らに言いなさい	-10.6898
がたい	-10.69
御霊によって	-10.6904
彼と共にいた	-10.6908
アハブの家	-10.6908
ユダヤ人の王	-10.692
あかしをする	-10.6921
を囲み	-10.6923
にわたって	-10.6923
すわる	-10.6928
えたもの	-10.6932
帰りなさい	-10.6937
の十分の一を	-10.6941
語ること	-10.6943
愚かで	-10.6943
あなたに仕え	-10.6946
こう言う	-10.6951
あいさつ	-10.6952
わたしの名によって	-10.6956
そうです	-10.6957
六千	-10.6961
誇り	-10.6963
主を恐れること	-10.6964
わたしにとって	-10.6966
少	-10.6971
イスラエルのうち	-10.6974
第三の	-10.6974
▁そしてダビデは	-10.6978
それを見て	-10.6978
働	-10.6983
を着け	-10.6985
ことがあるなら	-10.6997
を放って	-10.6998
呼び求め	-10.7
があったので	-10.7002
数えた	-10.7009
これを行う	-10.702
ここから	-10.7021
そのもろもろの器	-10.7025
出させ	-10.7026
と言ったからである	-10.703
二度と	-10.7039
そのようにした	-10.7042
今夜	-10.7042
引き出して	-10.7053
き出す	-10.7057
心配	-10.7065
主の声に聞き従	-10.7068
な町	-10.707
南の方	-10.7071
憎むべきもの	-10.7071
のもとに帰って	-10.7072
から出た者	-10.7077
とどめ	-10.709
問い	-10.7097
さん	-10.7102
建てられ	-10.7106
あなたがたは皆	-10.7111
救う者	-10.7113
納め	-10.7118
出しなさい	-10.7121
こともできない	-10.7127
するがよい	-10.7127
まかせ	-10.715
求めなさい	-10.716
北から	-10.7161
悲しんで	-10.7178
との間の	-10.7184
願	-10.721
のところに行って	-10.7215
これはあなたがたが	-10.7217
眠って	-10.7225
子を産んだ	-10.7227
を共にし	-10.7232
堅く立って	-10.7235
あなたの目は	-10.7236
聖別	-10.7238
話を	-10.7246
いだし	-10.7255
を追い出し	-10.7259
に手をかけ	-10.7267
全身	-10.727
と共におられる	-10.7272
を変えて	-10.7272
ほえる	-10.7303
連れ帰	-10.7305
獲物	-10.7309
に害を加え	-10.7321
引き出し	-10.7327
いの国々	-10.7333
子を産み	-10.7351
知りません	-10.7354
ととなえられる	-10.7357
建	-10.7368
にのぼり	-10.7369
呼び集め	-10.7369
取れ	-10.7372
はわたしのもの	-10.7372
隠した	-10.7378
に対し	-10.7393
願い求め	-10.7403
感謝して	-10.7411
香ばしいかおりとし	-10.7417
モーセに言われた	-10.7427
新	-10.7427
てはいけない	-10.7433
ライム	-10.7435
に聞き従う	-10.7437
ラブシャケ	-10.7438
ナジルびと	-10.7438
デナリ	-10.7438
アビガイル	-10.7438
火で焼かれ	-10.7438
はどこにいるか	-10.7438
カペナウム	-10.7438
カイザリヤ	-10.7438
ホレブ	-10.7438
昼も夜も	-10.7438
主を怒らせた	-10.7438
油そそがれた者	-10.7438
一万二千人	-10.7438
香をたいた	-10.7439
その父祖の家によ	-10.7439
マルタ	-10.7439
位に座する	-10.7439
エリアシブ	-10.7439
最初の	-10.7439
いとすぎ	-10.7439
しっくい	-10.7439
おびただしく	-10.7439
神をつくして	-10.7439
ぬぐい	-10.7439
しばしば	-10.7439
妻にめと	-10.7439
断ち滅ぼされ	-10.7439
アヒメレク	-10.7439
いよいよ	-10.7439
たびたび	-10.7439
よろい	-10.7439
そこなう	-10.7439
うめき	-10.7439
拝殿	-10.744
ヨハナン	-10.744
相続	-10.7441
主の言葉を聞け	-10.7441
者はのろわれる	-10.7441
労役	-10.7441
ここにおります	-10.7441
新月	-10.7441
かもしか	-10.7442
諸教会	-10.7442
四十年の間	-10.7442
あしら	-10.7442
真昼	-10.7443
と戦おう	-10.7443
永遠のいのち	-10.7443
結果	-10.7444
善を行う	-10.7445
宿営の外に	-10.7445
にあう	-10.7445
思い起し	-10.7446
を作って	-10.7446
おののく	-10.7447
▁主の使は	-10.7447
流出	-10.7447
苦しんで	-10.7449
▁ところで	-10.745
シケルの金	-10.7451
アロンの子たち	-10.7451
あなたがたの間で	-10.7456
百人の長	-10.7457
者の手	-10.7458
祭壇を築き	-10.7458
と共にあり	-10.746
アズ	-10.7462
年々	-10.7462
弟子たちに言われた	-10.7462
わたしが命じる	-10.7463
口を開いて	-10.7464
ケル	-10.7466
重さ	-10.7468
悪意	-10.7471
はかりごと	-10.7472
ユダの部族	-10.7472
上っていって	-10.7473
のようです	-10.7479
あなたの前に恵みを得	-10.748
ヤエル	-10.7487
くじによって	-10.7489
ようになり	-10.7489
をひく	-10.7489
町の人々	-10.7493
望んでい	-10.7494
を得るために	-10.7497
少女	-10.7497
主を拝	-10.7501
安らかで	-10.7502
に葬られた	-10.7503
▁イスラエルの王は	-10.7505
広がっ	-10.7512
香の祭壇	-10.7514
あなたに感謝し	-10.7518
に納めた	-10.7518
祭司はその人を	-10.752
のぼり	-10.7521
を見ました	-10.7523
エジプトの王	-10.7526
くすしきみわざを	-10.7529
書いてあるとおりである	-10.7534
なれば	-10.7534
エン	-10.7536
これに対して	-10.7537
香油	-10.754
子やぎ	-10.7548
主を捨て	-10.755
ほふる	-10.756
時が来る	-10.7562
追い出す	-10.7569
住むべき	-10.757
捕え移された	-10.7579
われわれのうち	-10.7583
六百人	-10.7583
下さる	-10.7586
エデ	-10.7591
油を注がれ	-10.7591
▁モーセは言った	-10.7596
これらのこと	-10.7598
てしまい	-10.76
十八人	-10.7604
主に向かって	-10.7605
教えてください	-10.7606
を囲んで	-10.7612
きよい	-10.7618
されるのですか	-10.7629
着物を着	-10.7632
彼はわたしに言われた	-10.7641
ヨルダンを渡って	-10.7646
を悩ました	-10.7675
住んでいた	-10.7687
六人	-10.7689
五百	-10.7691
ネブカデネザル王	-10.7692
ていく	-10.7696
こうべに	-10.7698
見捨て	-10.7707
て下さい	-10.7709
これらは皆	-10.771
もし彼が	-10.7711
火をもって	-10.7711
のほかには	-10.7724
つるぎに倒れ	-10.773
主の道	-10.7741
わたしたちの神	-10.7743
一緒にいる	-10.7743
貧しい	-10.7749
を解く	-10.7752
この人たち	-10.7757
の手に渡され	-10.7759
ダイ	-10.778
ることができるであろう	-10.7781
きたのである	-10.7782
ほう	-10.7789
とは共に	-10.7796
そのさお	-10.7804
を悩まし	-10.7818
出され	-10.783
生きた	-10.783
ことができます	-10.7832
その中にある	-10.7851
良い事	-10.7872
伝	-10.7884
所にきた	-10.7885
集まってきた	-10.7888
宝物	-10.7891
下ってきた	-10.7903
このほかに	-10.7911
わが愛する者	-10.7919
来るのを見	-10.7922
主の民	-10.7926
血を流し	-10.7927
とがめ	-10.7944
ければ	-10.7948
悲しんだ	-10.795
ようになるためである	-10.7951
ない時は	-10.7957
渡された	-10.7958
多くの者が	-10.7979
ある人々が	-10.7989
をのがれる	-10.7989
攻め上	-10.7991
ることができよう	-10.8001
そのまわり	-10.8003
事を行う	-10.8009
生きておられる	-10.801
ものがある	-10.801
あがないをしなければならない	-10.8012
夫たち	-10.8016
主にささげた	-10.8021
を喜ばれる	-10.8029
心にかなう	-10.803
もし人が	-10.8031
いろいろ	-10.8046
放牧地	-10.8061
ヨルダンの向こう	-10.8062
ネバテの子ヤラベアム	-10.8062
ハザエル	-10.8063
割	-10.8063
エホヤキン	-10.8063
シホン	-10.8063
と呼ぶ	-10.8063
よかろうか	-10.8063
わたしをあわれんでください	-10.8063
アモリびとの王シホン	-10.8063
くじを引いた	-10.8063
ゲゼル	-10.8063
をお聞きください	-10.8063
シンバル	-10.8063
アシタロテ	-10.8064
お与えになった	-10.8064
バシャンの王オグ	-10.8064
三分の一は	-10.8064
ハザル	-10.8064
ハダデ	-10.8064
うかがい	-10.8064
たいまつ	-10.8064
アミナダブ	-10.8064
マルキヤ	-10.8064
人をやって	-10.8064
喜べ	-10.8064
ヘルモン	-10.8064
こがね	-10.8064
くつがえ	-10.8064
恥をこうむ	-10.8064
アムラム	-10.8064
を従えて	-10.8065
にこう言いなさい	-10.8065
祭司とレビびと	-10.8065
主の言葉を聞きなさい	-10.8065
数々の	-10.8065
を開く	-10.8065
その氏族によれば	-10.8066
めぐって	-10.8066
ほまれ	-10.8066
諸君	-10.8067
小屋	-10.8068
ユダの王ヨシャパテ	-10.8068
言わなかった	-10.8068
誓いを立てて	-10.8069
堅く立つ	-10.807
イスラエルの全家	-10.8071
しばらくの間	-10.8071
四キュビト	-10.8071
近寄ってきて	-10.8071
滅びうせ	-10.8071
かねて	-10.8071
ボテ	-10.8072
主の祭壇	-10.8072
ゆるしてや	-10.8072
行かれると	-10.8073
引き返し	-10.8075
▁正しい者の	-10.8075
ふるい	-10.8075
イスラエルの全会衆	-10.8075
▁アブラムは	-10.8076
わたしをつかわされたかた	-10.8076
むかし	-10.8077
災害	-10.8077
の実を食べ	-10.8079
消	-10.808
耳を傾け	-10.8082
ゼレ	-10.8082
願っている	-10.8083
わかっている	-10.8083
主の手が	-10.8084
出かけて行	-10.8084
トラ	-10.8084
わたしに逆らって	-10.8084
見張り	-10.8086
のあとを追って	-10.8087
ゆく	-10.8089
アブラハムの神	-10.8089
しておられた	-10.8091
聖会を開	-10.8092
主のみ前に	-10.8092
喜んでいる	-10.8097
町の中	-10.8097
してくれた	-10.8109
知らせてください	-10.8109
お答え	-10.811
ユダとベニヤミン	-10.8119
の分である	-10.812
治める	-10.8122
与えよう	-10.8125
についた	-10.8133
わたしのしもべダビデ	-10.8143
信じている	-10.8144
▁そこでモーセは	-10.8148
彼らはわたしが主であることを知る	-10.8148
を定めて	-10.8149
のこうべ	-10.8159
の家来たちは	-10.8165
み使	-10.8166
な町々	-10.817
滅ぼしつく	-10.8175
歩いた	-10.8179
そむき	-10.8182
愚かなことを	-10.8184
しもべども	-10.8192
住民	-10.8201
罪過	-10.8203
設けた	-10.8221
いと高き神	-10.8227
家にはいった	-10.8243
食わせ	-10.8248
良いわざ	-10.8274
あなたを恐れ	-10.8275
目に見	-10.8276
て下さるように	-10.8284
罪を犯さない	-10.8284
金でおお	-10.829
ヒゼキヤ王	-10.8304
地の獣	-10.8304
が主であることを知るようになる	-10.8311
ことを知った	-10.8314
流され	-10.8317
の領地に	-10.8323
イスラエルの子孫	-10.833
わたしたちの先祖	-10.8333
配者	-10.8336
を過ご	-10.8345
告げ知らせ	-10.8348
進み出て	-10.8349
メラ	-10.8362
これに仕え	-10.8363
を与えよう	-10.8378
おとずれ	-10.838
かかる	-10.8381
開いて	-10.8382
寝台	-10.8389
日数	-10.84
住ませ	-10.8409
をのろった	-10.8411
語ら	-10.8421
彼らと一緒に	-10.8422
わたしの父の家	-10.8427
をめとって	-10.8435
地に住む者	-10.8438
三百人	-10.8471
モアブの地	-10.8489
使者をつかわして	-10.8492
神にささげ	-10.8495
変り	-10.8497
にむかって怒り	-10.8512
はいることができ	-10.8518
と言わせ	-10.8523
住む人	-10.8558
残る者	-10.8563
どのように	-10.8566
ことを知って	-10.857
捕え移され	-10.8573
ユダの子孫	-10.8576
その残り	-10.8579
雲の中	-10.858
人はみな	-10.8581
高ぶって	-10.8594
覚	-10.8595
と共にあるように	-10.8595
を通り	-10.8606
ほんとう	-10.8612
さばかれ	-10.8624
信じなかった	-10.8625
変って	-10.8625
衆	-10.8626
思っている	-10.8636
ろうとしている	-10.8656
悟った	-10.8656
見つか	-10.8678
台の上に	-10.8682
注がれた	-10.8683
出て来る	-10.8685
正月	-10.8689
の君たちは	-10.8695
ゆるさない	-10.8699
持ってきて	-10.8712
しゅうと	-10.8721
下って行き	-10.8725
カルデヤ	-10.8726
もろもろの器	-10.8727
上げられ	-10.8727
主の目の前に	-10.8728
ゲハジ	-10.873
どこにあるか	-10.873
ごぞんじ	-10.873
ビルハ	-10.873
ハダデゼル	-10.873
ペオル	-10.873
の長ネブザラダン	-10.873
アナニヤ	-10.873
ダゴン	-10.873
閉じこめ	-10.873
ミリアム	-10.873
ネタニヤの子イシマエル	-10.873
おゆるしください	-10.873
シャデラク	-10.873
主は恵みふか	-10.873
産みの苦しみ	-10.873
に信頼する	-10.873
アヒマアズ	-10.873
争に出ることのできる二十歳以上の	-10.873
ヤイル	-10.873
心をかたくなにし	-10.873
エイエル	-10.873
聖所のシケルによ	-10.873
クラグ	-10.873
年の間エルサレムで世を治めた	-10.873
アルタシャスタ	-10.873
エリアブ	-10.873
天と地と	-10.873
メピボセテ	-10.873
なめらか	-10.873
バプテスマのヨハネ	-10.8731
ラッパの音	-10.8731
人と獣と	-10.8731
に使う	-10.8731
飲み食いし	-10.8731
すわらせ	-10.8731
山ばと	-10.8731
にかかわる	-10.8732
に変らせ	-10.8732
のあまり	-10.8732
破滅	-10.8733
とその村	-10.8733
エリエゼル	-10.8733
よく聞きなさい	-10.8736
が生じ	-10.8736
位に座し	-10.8736
言いあらわ	-10.8736
あだを報い	-10.8736
仰せになった	-10.8737
ジフ	-10.8737
を失った	-10.8738
解き放	-10.8738
預言者ナタン	-10.8739
シドンびと	-10.874
天の万	-10.874
イエスのもとにきて	-10.874
ふつか	-10.874
もとの所に	-10.874
ガドびと	-10.874
もらう	-10.8741
エベル	-10.8742
イスラエルの山々	-10.8743
に心をとめ	-10.8743
強くなり	-10.8743
そうしたら	-10.8743
の流れる地	-10.8744
大いなる恐るべき	-10.8744
川を渡	-10.8744
どころ	-10.8746
位につ	-10.8746
宣教	-10.8746
に呼ばわって言った	-10.8747
示される	-10.8747
さいわいです	-10.8748
半分	-10.8749
とどけ	-10.875
だけではなく	-10.8754
大空	-10.8755
どのような	-10.8758
歩いている	-10.8759
ユダの王ヒゼキヤ	-10.8761
うたい	-10.8761
につかせ	-10.8761
楽器	-10.8762
▁エレミヤは	-10.8763
いにしえから	-10.8765
下って行った	-10.8766
を張る	-10.8766
を救った	-10.8772
その地の民	-10.8777
神をほめたたえ	-10.8777
も同様	-10.8778
日ごとに	-10.878
レム	-10.8781
▁そして祭司は	-10.8782
働かせ	-10.8783
パテ	-10.8783
に当て	-10.8786
誓う	-10.8786
主はわれわれ	-10.8789
モーセに命じられた	-10.8795
お願いする	-10.8795
残れる者	-10.8799
力ある者	-10.8804
▁そこでサウルは	-10.8804
のほかは	-10.8804
書く	-10.8807
彼らの神々	-10.8811
を打った	-10.8812
すべて戦	-10.8813
ひいて	-10.882
近づいている	-10.8822
見張	-10.8823
はこうである	-10.8824
暗き	-10.8831
やりなさい	-10.8837
モーセに言った	-10.8851
苦しむ者	-10.8859
ギレアデの地	-10.8861
かたくな	-10.8868
を隠す	-10.8877
民族	-10.8877
追い払われ	-10.8879
わたしども	-10.888
供	-10.8887
立ち去	-10.889
祭として	-10.8891
にとどまっていた	-10.8893
覚えられ	-10.89
に仕えている	-10.8905
を手に持って	-10.8909
を清める	-10.8915
ながめ	-10.8916
地にひれ伏し	-10.8918
酒を飲む	-10.8919
宮にはい	-10.8922
に従わせ	-10.8923
を獲る	-10.8931
諸民	-10.8947
一万人	-10.8947
十五年	-10.8949
天の神	-10.8956
あなたがたの前に	-10.8956
かせてください	-10.8958
囲まれ	-10.8959
わたしが見た	-10.8973
に宿る	-10.8977
殺人	-10.8985
を通って	-10.8989
ほえ	-10.8995
与えられるであろう	-10.9
を愛する者は	-10.9007
ベニヤミンの子孫	-10.9012
あなたに臨む	-10.9021
出会った	-10.9044
満たされる	-10.9061
まん中に	-10.9062
ししのように	-10.9064
にいる者は	-10.907
ることのないようにし	-10.9071
家に帰り	-10.9088
わたしのいのちを	-10.9091
そこを去	-10.9093
一族	-10.9101
通り過ぎる	-10.9114
五歳	-10.9121
に残し	-10.9143
生きている者	-10.9144
泣	-10.9144
つづ	-10.9145
アルバ	-10.9145
手に渡される	-10.9165
忘れられ	-10.9165
に誓って	-10.9178
ことはしない	-10.918
に渡して	-10.9196
を戒めて	-10.9208
与えよ	-10.9221
友だち	-10.9227
五百人	-10.9236
をいだいて	-10.9243
の近くに	-10.9244
に仕える者	-10.9257
入口	-10.9275
求める者は	-10.9285
の手にわたされた	-10.9303
あなたがたのところに	-10.9308
祝福される	-10.931
断たれ	-10.9316
服を着	-10.9326
そのくちびる	-10.9336
ほかの人々	-10.9354
の住む所	-10.9358
王国	-10.9368
彼らに告げ	-10.9377
諸国	-10.9389
彼らの心	-10.9391
める者	-10.9392
彼に仕え	-10.9394
いにしえ	-10.9404
わたしの言うことを	-10.9414
保つ	-10.9434
喜びの声	-10.9435
激しく怒	-10.9438
十分	-10.9438
学者	-10.944
司	-10.9442
ウジ	-10.9444
百三十シケル	-10.9444
二万五千キュビト	-10.9444
テコア	-10.9444
エドトン	-10.9444
にふさわしく	-10.9444
香をたく	-10.9444
しりぞけ	-10.9444
マハナイム	-10.9444
に注ぐ	-10.9444
主が選ばれる	-10.9444
わたしに従ってきなさい	-10.9444
民のうちから断たれるであろう	-10.9444
カレヤの子ヨハナン	-10.9444
メデア	-10.9444
かいせん	-10.9444
エグロン	-10.9444
ザカリヤ	-10.9444
アドラム	-10.9444
でいらせられる	-10.9444
なんであるか	-10.9444
ケナズ	-10.9444
エダヤ	-10.9444
戸を閉じ	-10.9444
願わくは	-10.9444
ヤミン	-10.9444
愚かさ	-10.9444
しっかり	-10.9444
さばきづかさ	-10.9444
と呼ばれている	-10.9444
ベテホロン	-10.9444
エフラタ	-10.9444
ヤゼル	-10.9444
会見の幕屋の入口で	-10.9444
預言をし	-10.9444
ヨッパ	-10.9444
エフロン	-10.9445
バルジライ	-10.9445
ささぐべき	-10.9445
パシュル	-10.9445
デビル	-10.9445
祭壇を築いた	-10.9445
ジムリ	-10.9445
ゴモラ	-10.9445
そうでないと	-10.9445
マキル	-10.9445
テトス	-10.9445
ベリア	-10.9445
とどろき	-10.9445
悪霊を追い出し	-10.9445
追撃し	-10.9445
一キュビト半	-10.9445
ほかならない	-10.9445
銀のさら	-10.9445
地上で	-10.9445
労働	-10.9445
諸族	-10.9446
悪霊ども	-10.9446
夕方にな	-10.9447
七十シケル	-10.9447
を張って	-10.9447
を高める	-10.9448
生き返	-10.9448
五千人	-10.9448
主は生きておられ	-10.9448
尊ばれ	-10.9448
アビウ	-10.9448
異言を語	-10.9448
ネボ	-10.9448
を結んだ	-10.9449
急ぎ	-10.9449
供えのパン	-10.9449
にあたって	-10.945
まき散ら	-10.945
み手のわざ	-10.945
わたしたちの父なる神	-10.9451
祭司エホヤダ	-10.9451
北側	-10.9451
ひろげ	-10.9451
地のはて	-10.9452
わたしをお助けください	-10.9452
を負わなければならない	-10.9453
▁レハベアムは	-10.9454
イタマル	-10.9455
投げすて	-10.9456
国語	-10.9457
清くなるであろう	-10.9457
出ていって	-10.9457
このすべての言葉を	-10.9457
を取りあげて	-10.9457
の治世	-10.9458
家の主人	-10.9458
ヨシュアに言われた	-10.9458
呼ばわれ	-10.9459
殺させ	-10.9459
たいと思う	-10.9459
に授けられた	-10.946
手をあげて	-10.946
死なない	-10.9462
ておきなさい	-10.9464
いろいろな	-10.9464
大声をあげて	-10.9465
地の王たち	-10.9465
祭司長たちや	-10.9466
王の命令	-10.9467
負わせた	-10.9467
待つ	-10.9468
主に祈って	-10.9468
エルバアル	-10.9468
つまずい	-10.9469
いただく	-10.9471
主の霊が	-10.9473
かぶと	-10.9473
彼らの目の前で	-10.9474
先祖たちの神	-10.9475
主の名によって	-10.9477
ミナ	-10.9478
に追いつ	-10.948
持ってきなさい	-10.948
しおれ	-10.9484
携えてこ	-10.9485
主を恐れる者	-10.9486
知られる	-10.9489
わたしを憎む者	-10.949
あなたに告げる	-10.9492
バク	-10.9492
いたしましょう	-10.9494
張った	-10.9494
がありますか	-10.9498
正しい事を	-10.9502
シャル	-10.9504
楽しい	-10.9504
舌をもって	-10.9505
氏族の長たち	-10.9509
にわたす	-10.9537
見つかった	-10.9539
わたしを生かし	-10.954
不正な	-10.9546
を得ようと	-10.9547
に口づけし	-10.9548
聞き従わない	-10.9551
続いて	-10.9554
イスラエルは皆	-10.9569
殺せ	-10.9577
の定めに歩	-10.9581
ルツ	-10.9585
わたしを離れて	-10.9595
へ行こう	-10.9599
六年	-10.9606
第三は	-10.9622
者があろうか	-10.9623
命令を守	-10.9624
言わせた	-10.9627
につけられた	-10.9628
働きをし	-10.9632
さして誓	-10.964
われわれの神の宮	-10.9643
聞くこと	-10.9663
を切って	-10.9684
道を歩	-10.9685
ことはなく	-10.9687
正しいさばき	-10.9693
与えてください	-10.9699
のういごは	-10.97
の方へ	-10.9708
イスラエルの王たち	-10.973
ひとり子	-10.9752
地の産物	-10.9752
き去られ	-10.9753
大海	-10.9761
をわたしに与え	-10.9764
八百	-10.9775
あるのを見た	-10.9775
のうちの最も	-10.9804
造り主	-10.9816
使者をつかわし	-10.9822
攻め上って	-10.9826
火祭とし	-10.9849
の聖者	-10.9857
災の日	-10.9869
四百人	-10.9876
すべての道	-10.9896
清	-10.9901
ンの荒野	-10.9903
ものでない	-10.9908
売られ	-10.9935
わけではない	-10.9939
帰らなかった	-10.9942
多	-10.9946
を負わ	-10.9959
を罪祭とし	-10.9966
ることはしない	-10.9966
勝ち	-10.9991
を祝福され	-10.9996
言葉に従って	-11.0011
悲しませ	-11.0033
エルサレムに上	-11.0035
をかえして	-11.0059
契約の箱	-11.0067
に投げ捨て	-11.007
つかまえ	-11.0073
携え入れ	-11.0078
の前から追い払	-11.0081
言葉を聞いた	-11.0083
それに仕え	-11.0102
撃ち滅ぼし	-11.0108
そうしなければ	-11.0118
進み出	-11.0129
地の上	-11.013
備えをし	-11.0143
聖会	-11.0198
ほしいままに	-11.0198
をことごとく集め	-11.0202
投	-11.0205
サウルの家	-11.0206
ほふって	-11.021
ケニびと	-11.0213
くすしき	-11.0213
ステパノ	-11.0214
ダビデとその従者たち	-11.0214
いたずらに	-11.0214
を満たす	-11.0214
どれほど	-11.0214
勇ましく	-11.0214
罪なき者	-11.0214
アシケロン	-11.0214
主がモーセに命じられたように	-11.0214
にまで及ぶ	-11.0214
エヒエル	-11.0214
恥ずべき	-11.0214
▁また燔祭に使う	-11.0214
は二万四千人	-11.0214
みそなわし	-11.0214
イスラエルに罪を犯させた	-11.0214
いちばん	-11.0214
罪祭に使う雄やぎ	-11.0214
しろがね	-11.0214
イヅハル	-11.0214
デボン	-11.0214
むずかしい	-11.0214
よろこび	-11.0214
戦いの備えをした	-11.0214
下役ども	-11.0214
互に愛し合	-11.0214
おおかみ	-11.0214
エノク	-11.0214
をエジプトの地から導き出	-11.0214
主のしもべモーセが	-11.0214
あたかも	-11.0214
主がモーセによって	-11.0214
ベレキヤ	-11.0214
思いわずら	-11.0214
と契約を結び	-11.0214
祭司およびレビびと	-11.0214
雨を降らせ	-11.0214
散らす	-11.0214
と戦うために	-11.0214
にひとしい	-11.0214
どなた	-11.0215
ヨザバデ	-11.0215
に従わなかった	-11.0215
受け入れられ	-11.0215
つづけて	-11.0215
エジプトから導き出し	-11.0216
多数	-11.0216
ヘペル	-11.0216
に従わない	-11.0216
今日に至るまで	-11.0217
行動し	-11.0217
若い時から	-11.0217
ヘベル	-11.0217
ナボテ	-11.0217
驚くべき	-11.0217
理解	-11.0217
その重さは	-11.0219
小鳥	-11.0219
青草	-11.0219
そうしないと	-11.022
利息	-11.022
から生れたもの	-11.022
ひざまずいて	-11.022
聞いているところで	-11.0222
しらが	-11.0222
金持	-11.0222
そしる者	-11.0223
火ざら	-11.0223
王となった時	-11.0223
歩兵	-11.0223
を除いて	-11.0225
に当り	-11.0225
若い時の	-11.0225
口寄せ	-11.0225
メリバ	-11.0228
弟子たちと一緒に	-11.0228
あなたの前から追い払	-11.0228
地のちり	-11.0229
取って食べ	-11.0232
あなたがたに命じる	-11.0232
さばきを行う	-11.0232
言伝え	-11.0232
良くない	-11.0233
いなくな	-11.0233
▁ソロモン王は	-11.0233
一タラント	-11.0234
かたくなな	-11.0234
のようであって	-11.0236
ためなのである	-11.0236
あなたに命じる	-11.0236
ひとりの名は	-11.0237
における	-11.0237
こともしない	-11.0237
囲む	-11.0238
はじめられた	-11.024
キヤ	-11.0241
イド	-11.0241
気をつけなさい	-11.0241
燔祭の祭壇	-11.0242
を慰める	-11.0243
をいだく	-11.0244
ことができよう	-11.0245
足かせ	-11.0245
義なる	-11.0247
に着き	-11.0249
の戒めを守り	-11.025
のぼらせ	-11.025
に満ちている	-11.025
四十年	-11.0251
こぼ	-11.0253
上って行った	-11.0254
へりくだる者	-11.0254
消え去	-11.0255
のひとりである	-11.0255
立ち去った	-11.0255
その先祖たちと共に眠っ	-11.0256
水の中	-11.0256
と言ってはならない	-11.0258
だれをも	-11.0262
わたしに賜わった	-11.0265
パロの娘	-11.0271
をつくって	-11.0275
憎むべき者	-11.0279
と思われる	-11.0291
彼ら自身	-11.0297
の前に恵みを得	-11.03
家に帰らせ	-11.03
と尋ねる	-11.031
悩みの時	-11.0314
報告した	-11.0315
見つけた	-11.0317
を覚えてください	-11.0319
声をあげて泣	-11.0327
わたしにそむいた	-11.0327
刈	-11.0345
若いしし	-11.0349
その死体を	-11.0351
の栄光は	-11.0368
非常に多く	-11.0373
を知っておられる	-11.0375
メンと言	-11.0379
ことを知るようになる	-11.0383
はいってはならない	-11.0387
はいってきて	-11.0397
食い飲みし	-11.0397
をおさえ	-11.0399
年老いた	-11.0402
行かなければならない	-11.0406
レビの子孫	-11.0421
開いた	-11.0426
喜ばない	-11.0432
主に犠牲をささげ	-11.0436
守らなければならない	-11.0444
汚れた物	-11.045
苦しみを受け	-11.0459
にやど	-11.0465
をつかさどらせ	-11.0469
返さ	-11.0473
おののいてはならない	-11.0484
よこしまな者	-11.0487
それらのもの	-11.0503
主に感謝し	-11.0515
誓	-11.0542
その従者	-11.0544
ユダの王たち	-11.0547
を拝んで	-11.0565
使者たちを	-11.0569
にある教会	-11.0575
世を治め	-11.0582
あなたの身から	-11.0584
子たちよ	-11.0597
に加えられ	-11.06
くちびるを	-11.0612
わたしが主であることを知る	-11.0615
の所にきて	-11.0616
切る者	-11.0637
外に出	-11.0641
つるぎに倒れる	-11.0646
過ごす	-11.0679
身を隠し	-11.0737
尊い人々	-11.0748
出てくる	-11.0786
年の終り	-11.0806
ほかの人たち	-11.0812
のすべての王たち	-11.0816
合ってい	-11.0832
ることを命じた	-11.0855
救を得	-11.0864
国境	-11.0865
誓っ	-11.0875
見捨てられ	-11.0882
苦しむ	-11.0887
ギリシヤ	-11.0893
食い飲み	-11.0893
造られたもの	-11.0907
やかで	-11.0913
はずれ	-11.0938
で満たされ	-11.0985
おののい	-11.0994
そむく者	-11.0997
にかえ	-11.1
手に入れ	-11.1004
上って来	-11.1006
を受けいれる者	-11.1021
令	-11.1024
て下さ	-11.1033
アンモン	-11.1033
よこしま	-11.1034
受くべき	-11.1037
種入れぬ	-11.1038
ナザレ	-11.104
ございま	-11.1041
ペリシテ	-11.1042
ヘブル	-11.1042
となれ	-11.1043
ザバデ	-11.1046
ヤコブの子ら	-11.1047
香ばしい	-11.1047
ねんごろに	-11.1047
ヒソプ	-11.1047
バラクはバラム	-11.1047
賜わって	-11.1047
どちらが	-11.1047
テラピム	-11.1047
つまずかせ	-11.1047
六か月	-11.1047
シパテヤ	-11.1047
ゼバとザルムンナ	-11.1047
タボル	-11.1047
アホリバ	-11.1047
また雄やぎ一頭を罪祭としてささげ	-11.1047
レホブ	-11.1047
ベタニヤ	-11.1047
アポロ	-11.1047
主に憎まれ	-11.1047
うかがう	-11.1047
エリアキム	-11.1047
エレモテ	-11.1047
クプロ	-11.1047
先祖たちに誓われた	-11.1047
わたしが主であることを悟る	-11.1047
を楽しませ	-11.1047
奴隷の家から	-11.1047
ケデシ	-11.1047
メギド	-11.1047
はげたか	-11.1047
正しき	-11.1047
ゼパニヤ	-11.1047
アヒカムの子ゲダリヤ	-11.1047
エフンネの子カレブ	-11.1047
テレビンの木	-11.1047
遠い国から	-11.1047
デボラ	-11.1047
祭の犠牲に使う雄牛二頭	-11.1047
家ばとのひな	-11.1047
外庭に	-11.1047
ケダル	-11.1047
みだりに	-11.1047
きびしい	-11.1047
不信仰な	-11.1047
を取り除き	-11.1047
なんら	-11.1047
かもしれない	-11.1047
強い手と	-11.1048
安んじて	-11.1048
き足り	-11.1048
つどい	-11.1048
手ずから	-11.1048
光る所	-11.1048
立ちどま	-11.1048
ハマテの入口	-11.1049
アビナダブ	-11.1049
見いだす	-11.1049
あがなって	-11.1049
まわった	-11.1049
確かめ	-11.1049
契約を結んで	-11.1049
を踏む	-11.1049
愚か者	-11.1049
サフ	-11.1049
宣告	-11.105
あかしの幕屋	-11.105
誓わせた	-11.105
を放ち	-11.105
今の時代	-11.105
淫行をなし	-11.105
七頭の	-11.1051
まわる	-11.1051
新しく	-11.1051
住まわれる	-11.1051
罪のゆるし	-11.1051
語り終え	-11.1052
わたしを恐れさせ	-11.1052
パンと水	-11.1052
奪隊	-11.1052
心のままに	-11.1052
馬に乗って	-11.1053
数えられたものは	-11.1053
▁なまけ者	-11.1053
セイル山	-11.1055
▁ある日	-11.1055
偽証	-11.1055
ひとりも残さ	-11.1056
かがんで	-11.1057
アダヤ	-11.1058
のなかで	-11.1058
語ろう	-11.1058
天の使	-11.1058
さまよい	-11.1059
行かなかった	-11.106
強くなった	-11.106
新しいぶどう酒	-11.106
学び	-11.106
悩みの日に	-11.1061
を生じ	-11.1061
をこうむ	-11.1061
その持ち主	-11.1062
エリシャマ	-11.1063
時がきた	-11.1065
かぶり	-11.1067
知ってい	-11.1069
のがれの町	-11.107
エリエル	-11.1071
アッスリヤびと	-11.1071
百タラント	-11.1072
るべきでしょうか	-11.1075
受けている	-11.1076
声を聞いて	-11.1076
もらった	-11.1079
ユフラテ	-11.1085
その供え物は	-11.1087
口から出る	-11.1103
をふり	-11.1119
かかり	-11.1122
はばか	-11.113
近づく	-11.113
ことになろう	-11.1152
宣べ	-11.1156
なぞを	-11.1156
を頼みとし	-11.1158
と知って	-11.1179
を取り出し	-11.1182
となられる	-11.1182
けて逃げ	-11.1187
をさばいて	-11.1191
できなかった	-11.1216
あなたがたの所に行	-11.1218
ととなえられ	-11.1226
に問うて	-11.123
を奪う	-11.1231
布を着	-11.1249
ねたみを起	-11.1272
永遠	-11.1279
上にあった	-11.1288
のふたりの子	-11.1298
死ぬことはない	-11.1298
の顔を見る	-11.1301
を結んで	-11.1305
ホル山	-11.1318
をはぎ取	-11.132
ありませんでした	-11.1347
語られ	-11.1391
に隠れて	-11.1447
ヒルキヤの子	-11.1455
共にいる民	-11.1464
命を救う	-11.1465
残ってい	-11.1466
語れ	-11.1478
の残った者	-11.1478
そうとしている	-11.1485
嗣業の地	-11.1492
出て行け	-11.1506
つるぎで殺された	-11.151
渡らせ	-11.1545
みごもって	-11.1585
与えるであろう	-11.1586
起き上が	-11.1604
嗣業を与え	-11.1638
所へ行き	-11.1639
をおおわ	-11.1648
激しい怒りを	-11.1663
焼きつくし	-11.1715
言ってください	-11.1723
引きあげ	-11.1733
老いた者	-11.1741
を現し	-11.1757
数えられ	-11.1819
口づけし	-11.1825
者の名の	-11.1826
汚れた者とし	-11.1852
恵	-11.1886
はいって来	-11.1886
先祖たちと共に眠	-11.1907
生きながらえさせ	-11.1913
ゴセン	-11.1937
夕まで汚れる	-11.1945
の声を聞き	-11.195
ハナニ	-11.1952
ひざまず	-11.1953
いと聖なる物	-11.1954
こなたかなた	-11.1956
預言者のともがら	-11.1956
アグリッパ	-11.1956
つぶやいて	-11.1956
ひるがえ	-11.1956
どこからきたのか	-11.1956
ゆりの花	-11.1956
シロミテ	-11.1956
ハモル	-11.1956
マグダラのマリヤ	-11.1956
マヘリ	-11.1956
シナイの荒野	-11.1956
サドカイ人	-11.1956
ヤペテ	-11.1956
▁主の言葉がまたわたしに臨ん	-11.1956
一歳の雄の全き小羊	-11.1956
喜び楽しま	-11.1956
ザドクとアビヤタル	-11.1956
ネルの子アブネル	-11.1956
常燔祭とその素祭	-11.1956
けがれた霊	-11.1956
ザックル	-11.1956
ヨザダクの子	-11.1956
夜が明け	-11.1956
ジクリ	-11.1956
小さな	-11.1956
り動かして	-11.1956
二十歳以上	-11.1956
四十日四十夜	-11.1956
今日に至ってい	-11.1956
舟に乗り込	-11.1956
三か月	-11.1956
の小葉	-11.1956
パンくず	-11.1956
ゼロペハデ	-11.1956
あめんどう	-11.1956
さそり	-11.1957
同労者	-11.1957
道ばた	-11.1957
とどろく	-11.1957
子を産んで	-11.1957
はげしく	-11.1957
十八年に	-11.1957
まぶた	-11.1957
取り除いて	-11.1957
国に生れた者	-11.1957
金でこれをおお	-11.1957
れんが	-11.1957
異言	-11.1957
いるのをごらんになっ	-11.1957
年老いて	-11.1958
行わなかった	-11.1958
五十人の長	-11.1958
水をくみ	-11.1958
主にささげる火祭	-11.1958
割礼を受けない者	-11.1959
舟に乗って	-11.1959
四つの生き物	-11.1959
身分の	-11.1959
の手から救い出す	-11.1959
一歳の	-11.1959
証書	-11.196
ユダの王アマジヤ	-11.196
同族	-11.1961
セツ	-11.1961
次第	-11.1961
流出ある者	-11.1961
雨が降	-11.1961
話しておられる	-11.1961
所有の地に	-11.1961
怒りと憤り	-11.1962
にあずかっている	-11.1963
つかわそう	-11.1964
いっそう	-11.1964
おとめたちは	-11.1964
書かれた	-11.1964
買い取った	-11.1965
待っていた	-11.1965
苦労	-11.1965
に下らせ	-11.1965
実行し	-11.1965
ペカ	-11.1965
に引き渡し	-11.1966
はなはだしい	-11.1966
実現	-11.1966
少しばかり	-11.1966
のくだもの	-11.1966
死んでしまった	-11.1966
ひとりずつ	-11.1967
お怒りにな	-11.1967
につき従	-11.1968
定めの祭	-11.1968
楽しく	-11.1968
頼みとする	-11.1969
学んだ	-11.1969
であられる	-11.1973
兄エサウ	-11.1974
しまえ	-11.1975
終りの時に	-11.1975
に変え	-11.1975
その顔は	-11.1977
にさわった	-11.1977
かえらせ	-11.1978
助かる	-11.198
▁ダビデ王は	-11.1981
の初物	-11.1983
わたしの骨は	-11.1984
あなたを祝福される	-11.1985
の治世の第	-11.1987
わたしはあなたのさとし	-11.199
を解いて	-11.1996
シケムの人々	-11.1998
宮に仕えるしもべたち	-11.1999
聖別された	-11.2
を好み	-11.2011
ひとりもいない	-11.2013
怒ること	-11.2018
エドムの地	-11.2024
知恵のない	-11.2065
カルデヤびとの地	-11.2077
をのろっ	-11.2084
の戒めを守る	-11.2088
携えて来た	-11.21
をあわれまれ	-11.2115
を祝福する	-11.2115
べ治め	-11.2124
救うことができない	-11.2124
命じておいた	-11.2124
に帰ろう	-11.2134
はいらない	-11.2145
を聖別する	-11.2165
を高くあげ	-11.2167
貧しい人々	-11.2195
ととのえ	-11.2197
を解き	-11.2211
語り合っ	-11.2236
オリブ山	-11.2241
断食をし	-11.2281
の敵となる	-11.2298
にせ預言者	-11.2303
の上に臨む	-11.2304
を助ける者	-11.2377
石で打	-11.2413
隊長	-11.2415
事どもを	-11.2453
追い求め	-11.2454
あなたのくちびる	-11.2458
銀の器	-11.2499
わたしの父ダビデに	-11.2552
▁第三	-11.2553
絶	-11.2622
に連れて行って	-11.2623
いと高き	-11.2627
かしこに	-11.2658
苦しめる	-11.2673
を高くし	-11.2679
三分の一を	-11.2727
しるしを見	-11.2733
たりする	-11.278
自分のからだを	-11.2788
をもとに返	-11.279
してくださ	-11.2806
男の子を産んだ	-11.2856
エルサレムに帰っ	-11.2876
大ぜいの人	-11.2878
留	-11.2903
その治世の	-11.2925
お助けください	-11.2945
ベルテシャザル	-11.2956
つぶやき	-11.2956
ナハシ	-11.2956
力をつくして	-11.2956
リウエル	-11.2956
つぶやく	-11.2956
と結ばれた契約	-11.2956
出来事を	-11.2956
その父祖の家にしたがって	-11.2956
オテニエル	-11.2956
マルコ	-11.2956
メルキゼデク	-11.2956
アカヤ	-11.2956
主の目にかなう事を	-11.2956
祭のほかのものである	-11.2956
立ち上がり	-11.2956
メラヨテ	-11.2956
神のみまえで	-11.2956
アンデレ	-11.2956
主に寄り頼む	-11.2956
主の言葉がエレミヤに臨んだ	-11.2956
その先祖と共に眠って	-11.2956
アルパクサデ	-11.2956
おおぞら	-11.2956
その家族にしたがって獲た嗣業であ	-11.2956
エリコに近いヨルダンの	-11.2956
パダンアラム	-11.2956
ヘテの人々	-11.2956
不信実な者	-11.2956
立ちあがった	-11.2956
はなんですか	-11.2956
世々かぎりなく	-11.2956
アロエル	-11.2956
非常な	-11.2956
もみがらのように	-11.2956
▁これらの事の後	-11.2956
すばらしい	-11.2956
だちょう	-11.2956
レメク	-11.2956
過越の食事	-11.2956
父または母	-11.2956
んだことがないのか	-11.2956
アヤロン	-11.2956
エリサベツ	-11.2956
ツロとシドン	-11.2956
マムレ	-11.2956
ヤキン	-11.2956
泣き叫べ	-11.2956
バルネア	-11.2956
言いひろめ	-11.2956
かしこで	-11.2956
ひどい	-11.2956
人も獣も	-11.2956
を見いだした	-11.2956
種をまき	-11.2956
よく聞いておくがよい	-11.2956
ケレテ	-11.2956
お立てになった	-11.2956
と向かい合っている所	-11.2956
中風の者	-11.2956
伝道者	-11.2956
軍勢の長たち	-11.2956
りどよめ	-11.2956
清められる者	-11.2956
ねたむ	-11.2956
十分の二	-11.2956
その氏族にしたがって	-11.2956
馬と戦車	-11.2957
とついだ	-11.2957
の門の道から	-11.2957
捕え移した	-11.2957
スリヤの王ハザエル	-11.2957
両側に	-11.2957
に感じた	-11.2957
意のままに	-11.2957
ガドの部族	-11.2957
バラムはバラク	-11.2957
を持たせ	-11.2957
びかける	-11.2957
追いやられる	-11.2957
に逆らい	-11.2957
四十年のあいだ	-11.2957
ナフタリの部族	-11.2957
頭に手を置	-11.2957
シメア	-11.2958
つなぎ	-11.2958
ヘテびとウリヤ	-11.2958
二万二千	-11.2958
ふれ示	-11.2958
見つからなかった	-11.2958
日からこのかた	-11.2958
大事な	-11.2958
殺さなければならない	-11.2959
目をさましていなさい	-11.2959
種入れぬパンの祭	-11.2959
そそが	-11.2959
雄羊二頭	-11.296
定めの時に	-11.296
を救おうと	-11.296
四千人	-11.296
あなたの右の手は	-11.296
預言して言え	-11.2961
隠されている	-11.2961
陣を張	-11.2961
意見を	-11.2962
羊のおり	-11.2962
口を開き	-11.2962
主の前に悪を行	-11.2962
ホメル	-11.2962
種入れぬパンを食べ	-11.2963
アッスリヤの王セナケリブ	-11.2964
ナザレのイエス	-11.2964
家令	-11.2965
土の器	-11.2965
どりに	-11.2967
まわって	-11.2969
万軍の主はこう仰せられる	-11.2969
いかなる	-11.2972
をきたらせる	-11.2973
常燔祭	-11.2975
はだれですか	-11.2976
に当って	-11.2977
初めの日に	-11.2984
食事をする	-11.2984
お話しにな	-11.2987
万八千	-11.2992
いけない	-11.2998
を呼び集めて	-11.2999
を食う	-11.3005
の広間	-11.3016
に上る	-11.3018
じ合っ	-11.3021
エドムの王	-11.3026
に会わせ	-11.3028
を救え	-11.3045
に渡す	-11.3056
を宣べ伝える	-11.3074
にくだる	-11.3086
弟子のひとり	-11.309
ダビデの家来たち	-11.3091
群衆の中	-11.3104
に逆らう	-11.3131
くちびるに	-11.3137
をつかまえて	-11.3145
ととなえる	-11.3174
に宿った	-11.3231
わたしは彼らの神とな	-11.3239
を取らせ	-11.3247
明らかにされ	-11.3267
さいわいを得	-11.3376
罪を犯さ	-11.3402
を流し	-11.3434
月の第	-11.3442
の言葉のとおりに	-11.3499
務につ	-11.35
に住むすべての者	-11.3506
ておいてはならない	-11.3528
誓って言った	-11.3615
を解いた	-11.3633
をめぐらして	-11.3636
喜び呼ばわ	-11.3705
びとのうちでは	-11.3815
携えて行か	-11.3816
主がイスラエルの人々の前	-11.3838
くちびるの	-11.3849
から遠く離れ	-11.3862
を深く思	-11.3888
あなたのくすしきみわざ	-11.3894
訴	-11.3935
に備えて	-11.4003
から助け出し	-11.4039
はどこか	-11.404
を見つめて	-11.4043
を殺さない	-11.4054
もらいたい	-11.4058
に寄留	-11.406
再	-11.4061
契約を破った	-11.4062
と結んだ契約を	-11.4062
が王となった	-11.4063
逃	-11.4063
滅ぼせ	-11.4067
ペリクス	-11.4067
に足りない	-11.4067
悪霊につかれた	-11.4067
タップア	-11.4067
マハラレル	-11.4067
ゼバデヤ	-11.4067
マレシャ	-11.4067
みどりご	-11.4067
モレク	-11.4067
テサロニケ	-11.4067
コルネリオ	-11.4067
バテシバは	-11.4067
ヘブル語で	-11.4067
十歳以下	-11.4067
物断ち	-11.4067
から悪を除き去	-11.4067
エリパズ	-11.4067
の親指と	-11.4067
マッケダ	-11.4067
あわてふため	-11.4067
には及ばない	-11.4067
アリエル	-11.4067
マッサ	-11.4067
主に帰せよ	-11.4067
会見の天幕	-11.4067
家づかさ	-11.4067
手をさし伸べ	-11.4067
あなたに寄り頼みま	-11.4067
エウシ	-11.4067
および彼と共にある男	-11.4067
エタム	-11.4067
ヤハジエル	-11.4067
夜もすがら	-11.4067
好きな	-11.4067
長いあいだ	-11.4067
から遠ざけ	-11.4067
シシャク	-11.4067
シレミヤ	-11.4067
ミクマシ	-11.4067
神に栄光を帰	-11.4067
の年は合わせて	-11.4067
カヤパ	-11.4067
大通り	-11.4067
戦いをいど	-11.4067
知れぬ所	-11.4067
を再び栄えさせ	-11.4067
ソドムとゴモラ	-11.4067
に投げ込まれた	-11.4067
ヒンノムの谷	-11.4067
を待ち望め	-11.4067
アカン	-11.4067
代々ながく守るべき定め	-11.4067
風が吹いて	-11.4067
あなたと取引し	-11.4067
の手から救い出した	-11.4067
落し穴	-11.4067
アズマウテ	-11.4067
イシボセテ	-11.4067
エロハムの子	-11.4067
ねずみ	-11.4067
トマス	-11.4067
ぞくぞくと	-11.4067
こわされた	-11.4067
ペダヤ	-11.4067
ヨバブ	-11.4067
強い手をもって	-11.4067
言い争う	-11.4067
シャルテルの子	-11.4067
ミルカ	-11.4067
トペテ	-11.4067
モーセのしゅうと	-11.4067
他国の人	-11.4067
お話しください	-11.4067
ち果て	-11.4067
ナザレ人イエス	-11.4067
どこにあるのか	-11.4067
右のもも	-11.4067
名をもってとなえられ	-11.4067
を仰ぎ見	-11.4067
身内の者	-11.4067
サウルの子ヨナタン	-11.4067
アクラ	-11.4068
ヤコブに産んだ	-11.4068
無割礼の者	-11.4068
高き所で犠牲をささげ	-11.4068
に陣を取った	-11.4068
何者なの	-11.4068
おぼれ	-11.4068
によらないで	-11.4068
さめよ	-11.4068
良しとされ	-11.4068
悪い道を離れ	-11.4068
行くべき道	-11.4068
その罪を負わなければならない	-11.4068
なまけ	-11.4068
あまりに	-11.4069
進まなければならない	-11.4069
まじない	-11.4069
悲しみの歌	-11.4069
見まわし	-11.4069
あなたこそは	-11.4069
ついたち	-11.4069
契約を結ぶ	-11.4069
ことのないようにするためである	-11.4069
証明し	-11.4069
ぶどう畑を作って	-11.4069
ネバテの子ヤラベアムの罪	-11.407
高くあげられ	-11.407
アビラム	-11.407
すこし	-11.407
大きかった	-11.407
火の燃える	-11.407
着くと	-11.4071
第五は	-11.4071
満足し	-11.4071
いにしえの日	-11.4072
たがいに	-11.4072
天が下	-11.4073
川々の	-11.4075
七人の御使	-11.4077
定めのようにささげ	-11.4078
めぐる	-11.4079
過ぎる	-11.4079
まいないを取	-11.4082
目で見	-11.4083
てしまっている	-11.4084
を失って	-11.4086
を囲んだ	-11.4088
ともし火	-11.4089
終の行	-11.4092
水がめを	-11.4094
を消す	-11.4096
朝はやく起きて	-11.4096
をおこし	-11.411
勝ち誇	-11.4116
ダビデの町に葬られ	-11.4119
二か月	-11.4127
祭壇の角に	-11.4129
正月の十	-11.4154
戸の水	-11.4156
主の激しい怒り	-11.416
を作る	-11.4165
みごもって男の子を産	-11.4184
を荒す	-11.4198
待ち望んでいる	-11.4258
に別れ	-11.4296
知恵ある人	-11.4311
▁あの時	-11.4328
乳を飲	-11.4358
を渡す	-11.437
アヒトブの子	-11.44
エルサレムとユダ	-11.4412
つとめ	-11.4439
くちびるをもって	-11.4446
滅ぼそう	-11.4446
を行おうと	-11.4467
川のほとりに	-11.4518
と異な	-11.4549
を恵まれる	-11.4679
ることもでき	-11.4716
偽りを語	-11.4754
を全うする	-11.4797
から除き	-11.4834
に加わる	-11.4889
かたくなにな	-11.5023
逆らう者	-11.5099
全国にわたって	-11.5129
酒を飲ま	-11.5176
を待っている	-11.524
宮に仕えるしもべ	-11.5258
から逃げ去	-11.5277
受	-11.5282
お救いください	-11.5306
ネヘミヤ	-11.5317
その雄牛と雄羊と	-11.5317
かもしれません	-11.5317
サウルの子イシボセテ	-11.5317
エズレルびとナボテ	-11.5317
の方へのびる地方	-11.5317
うろたえ	-11.5317
わたしのほかに神はない	-11.5317
エテロは	-11.5317
アベデネゴ	-11.5317
ペテロとヨハネと	-11.5317
くじを引いて	-11.5317
聖書に書いてある	-11.5317
▁耳のある者は	-11.5317
ヘシボンの王シホン	-11.5317
の右の耳たぶと	-11.5317
ネリヤの子バルク	-11.5317
善良な	-11.5317
声が聞える	-11.5317
目を上げて	-11.5317
目方を定め	-11.5317
あなたの罪はゆるされた	-11.5317
待ち伏せする	-11.5317
のもろもろの宮殿を焼き滅ぼす	-11.5317
ひたすら	-11.5317
インメル	-11.5317
キリキヤ	-11.5317
過ぎ去った	-11.5317
馬に乗り	-11.5317
の子たちの部族の部隊の長は	-11.5317
ボズラ	-11.5317
夜も昼も	-11.5317
アナクびと	-11.5317
アバリム	-11.5317
シバの女王	-11.5317
ベオルの子バラム	-11.5317
メシャク	-11.5317
不思議に思った	-11.5317
火で焼かなければならない	-11.5317
アペク	-11.5317
エノス	-11.5317
よろめき	-11.5317
わたしたちの主キリスト	-11.5317
乳のみ子	-11.5317
わが高きやぐら	-11.5317
満ち足らせ	-11.5317
きらめく	-11.5317
しんがり	-11.5317
ケモシ	-11.5317
エシタオル	-11.5317
公道と正義とを行	-11.5317
御座にいますかた	-11.5317
買いもどすことができ	-11.5317
ひきうす	-11.5317
アモス	-11.5317
コリント	-11.5317
レホム	-11.5317
十四頭	-11.5317
ピスガの	-11.5317
かたより見	-11.5317
をそり落	-11.5317
ホリびと	-11.5317
乳五十をつけ	-11.5317
種を入れたパン	-11.5317
過ぎ去る	-11.5317
あすの今ごろ	-11.5317
死人の中からよみがえらせた	-11.5317
しかばね	-11.5317
アハブの子ヨラム	-11.5317
セレビヤ	-11.5317
が多ければ	-11.5317
カデミエル	-11.5317
クレテ	-11.5317
ベトエル	-11.5317
待ち伏せし	-11.5317
わたしの民を去らせ	-11.5317
▁ほかの種は	-11.5317
▁夜が明けると	-11.5317
その中のすべての人を	-11.5317
一ヒンの四分の一を	-11.5317
近づかせ	-11.5317
にがよもぎ	-11.5317
アックブ	-11.5317
神を信じない者	-11.5317
自分を愛するように	-11.5317
▁たとえば	-11.5317
こぞって	-11.5317
ざんげ	-11.5317
ペレグ	-11.5317
神の激しい怒り	-11.5317
お与えになる	-11.5317
ひとり残らず	-11.5317
ブッキ	-11.5317
じゅごんの皮のおおい	-11.5317
オフラ	-11.5317
書記官シャパン	-11.5317
閉ざされて	-11.5317
エコニヤ	-11.5317
主の命にしたがって	-11.5317
平安があるように	-11.5317
をいざなって	-11.5317
切りばさみ	-11.5317
アズリカム	-11.5317
顔をそむけ	-11.5317
災を下そうと	-11.5317
ギルボア	-11.5317
ペルシャ王クロス	-11.5317
から帰って来た	-11.5317
通りすぎ	-11.5317
イスカリオテのユダ	-11.5317
悪霊につかれて	-11.5317
ほかの神々に仕え	-11.5317
をうかがっ	-11.5317
香をたいて	-11.5317
を召し寄せ	-11.5318
あくる朝	-11.5318
に聞き従って	-11.5318
信仰と愛と	-11.5318
風を捕えるよう	-11.5318
エフライムとマナセ	-11.5318
死ななければならない	-11.5318
たくらみ	-11.5318
そこなわれ	-11.5318
と契約を結んだ	-11.5318
にまかれたもの	-11.5318
をかぶって	-11.5318
よいのだが	-11.5318
ことがわかる	-11.5318
ことを好まない	-11.5318
のを常とし	-11.5318
世の初めから	-11.5318
に身をゆだね	-11.5318
▁このような人は	-11.5319
父と母と	-11.5319
またほかの人には	-11.5319
そういう人	-11.5319
に次ぐ	-11.5319
を切り落し	-11.5319
に渡さなければならない	-11.5319
さだめ	-11.5319
ことがわかった	-11.5319
祭司と預言者	-11.5319
に敵対し	-11.5319
をたくらむ	-11.532
七頭をささげ	-11.532
を妻にめとった	-11.532
を信ぜ	-11.532
神をさんびし	-11.5321
ようになろう	-11.5321
の右に座し	-11.5321
をあらわされる	-11.5321
呼び寄せた	-11.5322
銀と金	-11.5322
をいだかせ	-11.5322
十四年	-11.5322
わめき	-11.5323
復命し	-11.5323
アクサ	-11.5323
を手に取り	-11.5324
心をこめ	-11.5325
とどまらない	-11.5326
おだやか	-11.5326
大声に呼ばわ	-11.5326
次のように言われ	-11.5327
出立し	-11.5327
手にわたされるでしょう	-11.5329
わたしに仕えさせ	-11.533
をしかって	-11.5332
を手に取って	-11.5333
のあとを追う	-11.5333
の受くべき分	-11.5333
ふりかけ	-11.5336
に話してください	-11.5337
サマリヤでイスラエル	-11.5341
を絶やす	-11.5342
その激しい怒り	-11.5359
に勝った	-11.536
に知らせよう	-11.536
を心にとめよ	-11.536
いただける	-11.5367
ために戦われ	-11.5373
きよくな	-11.5392
堅く立てられ	-11.5416
あすの朝	-11.5416
を現す	-11.5418
わきあが	-11.5424
を尋ね求める者	-11.5435
に攻めこさせ	-11.5454
は王に答え	-11.546
をはなれ	-11.5498
につかわして言わせ	-11.5512
きつね	-11.5518
の声に聞き従い	-11.552
っておれ	-11.5531
害を加えよう	-11.5583
に勝って	-11.5608
をあなたがたに与える	-11.564
も残さ	-11.5673
を全く滅ぼし	-11.5673
北に向か	-11.5685
親しい友	-11.5721
あわれんで下さ	-11.5748
に食物を与え	-11.581
を望まれ	-11.5845
悪を行わ	-11.5895
捕えていっ	-11.6009
のことをあかしし	-11.6026
天から下ってき	-11.6079
ことを悟ら	-11.6133
をたずね求め	-11.6166
緒	-11.6262
箱舟にはい	-11.6377
油一ヒン	-11.6413
寄留している	-11.6424
を待ち望んで	-11.6503
おきてとを守	-11.6514
に住ま	-11.6572
民に命じて言	-11.6642
与	-11.6667
ぶんどり	-11.6679
明くる朝	-11.6708
通り過ぎ	-11.6717
非	-11.6743
サンバラテ	-11.6745
の王ヤビン	-11.6746
には及びません	-11.6746
アザリエル	-11.6746
アブデ	-11.6746
もし王がよしとされ	-11.6746
ゼベダイの子	-11.6746
おごそかに	-11.6746
▁あくる日	-11.6746
岩の裂け目	-11.6746
ヤルムテ	-11.6746
命令を下し	-11.6746
諸国語の者	-11.6746
なんの役にも立	-11.6746
の中に投げ込まれる	-11.6746
わたしはあなたに呼ばわります	-11.6746
水でバプテスマを授け	-11.6746
皮よりも深く見え	-11.6746
▁そういうわけ	-11.6746
を一つに連ね	-11.6746
シャウル	-11.6746
霊が諸教会に言うことを聞くがよい	-11.6746
かみそり	-11.6746
がみをしたりするであろう	-11.6746
を召集し	-11.6746
タアナク	-11.6746
パテロス	-11.6746
ヤボク	-11.6746
主が約束されたように	-11.6746
種をまく	-11.6746
の子孫の部族では	-11.6746
へつらい	-11.6746
天にいますあなたがたの父	-11.6746
引きつづき	-11.6746
音が聞え	-11.6746
いっせいに	-11.6746
ネトパびと	-11.6746
会見の幕屋で働くことのできる者	-11.6746
男も女も	-11.6746
へつらう	-11.6746
ゴリアテ	-11.6746
デラヤ	-11.6746
バスマテ	-11.6746
荒布を身にまと	-11.6746
あかしの箱の前に	-11.6746
あなたの信仰があなたを救った	-11.6746
これもまた空である	-11.6746
をそそぐ	-11.6746
アリオク	-11.6746
ホグラ	-11.6746
メトセラ	-11.6746
天幕を張った	-11.6746
主からエレミヤに臨んだ言葉	-11.6746
エリオエナイ	-11.6746
死人の中からよみがえった	-11.6746
過越の小羊をほふ	-11.6746
から出た族長	-11.6746
その五分の一を加え	-11.6746
ポリス	-11.6746
マナセの部族の半ば	-11.6746
メンピス	-11.6746
悲しいかな	-11.6746
耳のある者は聞くがよい	-11.6746
シッテム	-11.6746
ハビラ	-11.6746
におとしいれ	-11.6746
に帰せしめ	-11.6746
のあとを追った	-11.6746
ひざをかがめ	-11.6746
メシャクおよびアベデネゴ	-11.6746
山のふもと	-11.6746
あらぶる	-11.6746
リブニ	-11.6746
これもまた空であっ	-11.6746
に向かわせ	-11.6746
アタロテ	-11.6746
アモツの子預言者イザヤ	-11.6746
イッタイ	-11.6746
なつめやし	-11.6746
主の良しと見られることを	-11.6746
さしあげます	-11.6746
どこへ行くのか	-11.6746
みきらう	-11.6746
をエジプトの国から導き出した	-11.6746
アゼカ	-11.6746
部下の五十人と	-11.6746
いてもらいたく	-11.6746
ベテアベン	-11.6746
マルク	-11.6746
思いがけない	-11.6746
あなたの隣り人を愛せよ	-11.6746
ベエロテ	-11.6746
長さは二キュビト	-11.6746
その命を求める者	-11.6746
ベツサイダ	-11.6746
喜びと楽しみと	-11.6746
異邦の女をめと	-11.6746
ハシュブ	-11.6746
パンも食べず	-11.6746
主がその名を置くために選ばれる	-11.6746
日の下に行われる	-11.6746
穴に下る者と共に	-11.6746
どう思うか	-11.6746
ぶちのもの	-11.6746
ギルガシびと	-11.6746
マナセの子マキル	-11.6746
ヨベルの年に	-11.6746
利をむさぼ	-11.6746
火を燃やし	-11.6746
王となった時二十五歳で	-11.6746
を導き入れる	-11.6746
ガラテヤ	-11.6746
ケバル川のほとり	-11.6746
彼らを導き出して	-11.6746
みごもり	-11.6746
あなたがたに書きおくった	-11.6746
かすめ奪う	-11.6746
しまのあるもの	-11.6746
傷ついた	-11.6746
のみつくした	-11.6746
ふり返って	-11.6746
ゼボイム	-11.6746
さまざまな	-11.6746
イスラエルの王ヨアシは	-11.6746
主なるあなたの神を	-11.6746
たそがれ	-11.6746
ラオデキヤ	-11.6746
おいでなさい	-11.6746
種をまいて	-11.6746
マッタテヤ	-11.6746
言いふらし	-11.6746
助けを呼び求め	-11.6746
主の命によって	-11.6746
淫するな	-11.6746
を仰ぎ望	-11.6746
たぶん	-11.6746
ペリシテびとと戦い	-11.6746
お与えください	-11.6746
みなわざをもって	-11.6746
ひらき	-11.6746
知恵と知識と	-11.6746
かろうじて	-11.6746
やさしい	-11.6746
満ち足り	-11.6746
百二十八人	-11.6746
目ざめ	-11.6747
つなぐ	-11.6747
王万歳	-11.6747
食いつくす	-11.6747
はわたしの愛する子	-11.6747
をエジプトから導き出された	-11.6747
一頭ごとに十分の	-11.6747
に告げる者があっ	-11.6748
にもまさる	-11.6748
世話をし	-11.6748
長く命を保つこと	-11.6748
労苦し	-11.6749
第七日に	-11.6749
外へ出	-11.6749
楽しんで	-11.6749
に立ちふさがっ	-11.6749
を呼び起し	-11.675
悪をなす者	-11.675
寄留した	-11.6751
に同意	-11.6752
に恵みを施し	-11.6753
に帰すべき	-11.6753
を生かす	-11.6753
くれるだろう	-11.6753
間が終	-11.6754
の門のかたわらにあ	-11.6755
を学ぶ	-11.6757
夜明けに	-11.6758
にならう者	-11.6768
取り除かれる	-11.6768
し加わる	-11.6768
女から生れ	-11.6777
と契約を立て	-11.6787
しかの肉を	-11.6791
に携えて行って	-11.6804
る方がよい	-11.6823
とこしえ	-11.6865
のために罪のあがないをし	-11.687
お答えにならな	-11.6877
のおもてに	-11.6884
パロの心をかたくなに	-11.6946
民のうちから断	-11.6999
病で死	-11.7034
千六百人であ	-11.7048
るつもり	-11.7087
墓に葬っ	-11.7247
正義と公	-11.7339
は汚れたものであ	-11.7485
にうち勝	-11.7649
恐れおののいて	-11.7835
に逆らっ	-11.7927
になろうか	-11.8197
わがくちびる	-11.8201
アハシュエロス	-11.8203
つもりで	-11.8342
銅	-11.8412
諸種の工作	-11.8412
かんらん石	-11.8412
ヘガイ	-11.8412
きれいな	-11.8412
司令官	-11.8412
喜び楽しめ	-11.8412
バホリム	-11.8412
エンゲデ	-11.8412
シュネム	-11.8412
ハゼロテ	-11.8412
良いと思われることを	-11.8412
サウルの娘ミカル	-11.8412
ヨヤリブ	-11.8412
どんなふうに	-11.8412
の上にさし伸べて	-11.8412
ネタンエル	-11.8412
安らかな	-11.8412
さしあげましょう	-11.8412
アビブの月	-11.8412
テマンびとエリパズ	-11.8412
ミルトス	-11.8412
乳飲み子	-11.8412
小さき者	-11.8412
水で洗わ	-11.8412
追い使う者	-11.8412
さすらい	-11.8412
さいせん箱	-11.8412
ささやき	-11.8412
アビハイル	-11.8412
カフトル	-11.8412
一エパの十分の三	-11.8412
不信心な者	-11.8412
待ち望みます	-11.8412
立ち上がった	-11.8412
シバニヤ	-11.8412
アブドン	-11.8412
ギベトン	-11.8412
レハビ	-11.8412
お忘れにな	-11.8412
しもべである預言者たちによって	-11.8412
エサヤ	-11.8412
エデアエル	-11.8412
キンネレテ	-11.8412
ー	-11.8412
仕役の長	-11.8412
くちびると	-11.8412
の願いを聞かれた	-11.8412
またたくまに	-11.8412
主の会衆に加わ	-11.8412
天にいますわたしの父	-11.8412
聖所の務を守	-11.8412
を買うために	-11.8412
エジプトの国から導きのぼった	-11.8412
サウルとその子ヨナタン	-11.8412
主に信頼せよ	-11.8412
主に従うことをやめ	-11.8412
地にひれ伏して拝し	-11.8412
好ましい	-11.8412
祭司としてわたしに仕えさせ	-11.8412
遠ざかり	-11.8412
に呼びかけ	-11.8412
に守備隊を置	-11.8412
恥ずかし	-11.8412
栄光とほまれと	-11.8412
あぶの群れ	-11.8412
つぶさに	-11.8412
つぶやいた	-11.8412
シムロン	-11.8412
ッポルの子バラク	-11.8412
ビクリの子シバ	-11.8412
の権威によってこれらの事をするの	-11.8412
ほとりのモアブの平野	-11.8412
月の十四日の夕	-11.8412
あからさまに	-11.8412
なんの役に立つ	-11.8412
はいけません	-11.8412
は荒れ果て	-11.8412
まどろむ	-11.8412
ナタナエル	-11.8412
バの王ハダデゼル	-11.8412
モーセと祭司エレアザルと	-11.8412
地に伏して拝し	-11.8412
庭のあげばり	-11.8412
汚れを清める水	-11.8412
生きながらえられますように	-11.8412
パランの荒野	-11.8412
メデアとペルシャの	-11.8412
がよかろう	-11.8413
にかかわらず	-11.8413
タパネス	-11.8413
トロアス	-11.8413
ホサナ	-11.8413
メセク	-11.8413
ヤレド	-11.8413
三度わたしを知らないと言う	-11.8413
かんばしい	-11.8413
アモツの子イザヤ	-11.8413
アラウナは	-11.8413
アロンの子なる祭司たち	-11.8413
ユダヤ全土	-11.8413
ヨクタン	-11.8413
正しくいらせられ	-11.8413
▁主のみ声は	-11.8413
きるほど食べ	-11.8413
その父祖の部族	-11.8413
み手を伸ばされる	-11.8413
クレネ人	-11.8413
シムリ	-11.8413
ミグドル	-11.8413
男らしく	-11.8413
アテネ	-11.8413
野のすべての獣	-11.8413
えじきに	-11.8413
わが口の言葉	-11.8413
を望んでも	-11.8413
イコニオム	-11.8413
ルステラ	-11.8413
ベニヤミンの部族のうち	-11.8413
わたしの声に聞き従わ	-11.8413
血を流そうと	-11.8413
しだいに	-11.8413
みごとな	-11.8413
ミルコム	-11.8413
夕方まで	-11.8413
アミホデ	-11.8413
勇ましい	-11.8413
でいらせられます	-11.8413
今日見るとおりであ	-11.8413
学ばせ	-11.8413
書記官セブナ	-11.8413
ゼポン	-11.8413
他の一連の	-11.8413
死ねば	-11.8413
アクボル	-11.8413
ベザレル	-11.8413
を石で打ち殺	-11.8413
ギホン	-11.8413
シャレゼル	-11.8413
ダリク	-11.8413
ヨベルの年まで	-11.8413
男または女	-11.8413
の労苦は	-11.8413
名を置くために	-11.8413
から火が出て	-11.8413
ダビデのしもべとなっ	-11.8413
夜を過ごし	-11.8413
百四十五人	-11.8413
聖なる所で食べ	-11.8413
千七百人	-11.8414
ご自身をささげられ	-11.8414
安置し	-11.8414
別れて嘆	-11.8414
バビロンに引いて行	-11.8414
彼女の所にはいっ	-11.8414
をかわかし	-11.8414
人の住む所とな	-11.8415
持ちつづけ	-11.8415
加	-12.0128
素	-12.0299
祖	-12.0368
治	-12.2666
設	-12.2862
迎	-12.609
喜	-13.1139
識	-13.1244
畜	-14.1177
慰	-14.1185
閉	-14.1186
要	-14.1187
招	-14.1188
施	-14.1189
ゅ	-14.119
忘	-14.1191
込	-14.1192
越	-14.1193
築	-14.1194
傾	-14.1195
授	-14.1196
燃	-14.1197
偶	-14.1198
裂	-14.1199
奴	-14.12
隷	-14.1201
払	-14.1202
吹	-14.1203
属	-14.1204
砕	-14.1205
伸	-14.1206
乗	-14.1207
邦	-14.1208
最	-14.1209
周	-14.121
以	-14.1211
犠	-14.1212
牲	-14.1213
―	-14.1214
互	-14.1215
及	-14.1216
賜	-14.1217
必	-14.1218
選	-14.1219
携	-14.122
伏	-14.1221
至	-14.1222
叫	-14.1223
燔	-14.1224
悩	-14.1225
注	-14.1226
氏	-14.1227
契	-14.1228
憎	-14.1229
攻	-14.123
導	-14.1231
倒	-14.1232
焼	-14.1233
犯	-14.1234
群	-14.1235
律	-14.1236
捨	-14.1237
壇	-14.1238
求	-14.1239
集	-14.124
向	-14.1241
預	-14.1242
呼	-14.1243
ュ	-14.1244
尋	-14.1244
ャ	-14.1245
ょ	-14.1246
謝	-14.1246
嗣	-14.1247
聞	-14.1247
