<pad>	0
</s>	0
<unk>	0
▁	-1.42804
¦	-1.98553
▁¦	-2.61179
ም	-3.64825
ን	-3.85666
፥	-4.24807
።	-4.43903
ት	-4.47054
በ	-4.54912
ና	-4.58275
ው	-4.65587
ለ	-4.67651
ል	-4.73152
፤	-4.8289
▁የ	-4.94744
የ	-4.96072
▁በ	-5.02394
▁።	-5.1231
አ	-5.20026
ስ	-5.28442
ተ	-5.30853
ከ	-5.39268
ር	-5.42821
መ	-5.44738
ያ	-5.45258
ች	-5.50373
▁፥	-5.52386
ንም	-5.59181
ህ	-5.60251
▁ከ	-5.66243
ድ	-5.72293
▁አ	-5.73086
ላ	-5.74012
ይ	-5.77135
▁ወደ	-5.82998
ብ	-5.86792
ቸ	-5.91043
ረ	-5.91289
ዋ	-5.95988
▁ሁሉ	-5.96395
?	-5.96774
▁፤	-5.97523
ባ	-5.9861
ወደ	-6.02743
ሁሉ	-6.07114
ማ	-6.0794
ሰ	-6.08924
▁እንደ	-6.16693
ገ	-6.17556
ደ	-6.21326
ጥ	-6.26785
ችሁ	-6.27705
ራ	-6.28069
ጠ	-6.28181
ሁ	-6.291
▁ላይ	-6.39884
እንደ	-6.41984
▁ዘንድ	-6.42491
ነው	-6.45269
ሳ	-6.46704
ፍ	-6.50723
▁ይ	-6.54281
ላይ	-6.57079
▁እግዚአብሔር	-6.57811
ዘንድ	-6.58803
እን	-6.59944
ግ	-6.60991
▁ግን	-6.61688
ቱ	-6.64827
እግዚአብሔር	-6.65544
ግን	-6.75204
እ	-6.81263
▁ስለ	-6.81673
▁ነገር	-6.83484
ሉ	-6.84699
▁ጋር	-6.88387
▁እ	-6.91261
ጊዜ	-6.96014
ነገር	-6.9789
▁ጊዜ	-6.98609
ቢ	-6.99083
▁ልጆች	-7.05205
▁ልጅ	-7.05789
ልጆች	-7.07292
ስለ	-7.07701
ጋር	-7.08748
ጣ	-7.09491
ሰው	-7.10217
ቃ	-7.1196
ልጅ	-7.15065
▁ሰው	-7.18511
ኑ	-7.21114
▁ሆይ፥	-7.226
▁እኔ	-7.23044
▁እንዲህ	-7.28853
ልና	-7.29007
ሲ	-7.29108
ካ	-7.29538
አለ	-7.31576
ም።	-7.33343
▁ቀን	-7.33605
▁ቤት	-7.36302
እኔ	-7.39166
ፋ	-7.39871
▁ፊት	-7.40041
ቤት	-7.4335
ነበር	-7.4384
ቀን	-7.45309
ኛ	-7.46801
ቃል	-7.46801
ፊት	-7.47057
እንዲ	-7.51427
▁አለው።	-7.52137
▁ደግሞ	-7.54648
እንዲህ	-7.55245
▁ነው።	-7.55539
▁ሰዎች	-7.56426
▁ጌታ	-7.57988
▁ቃል	-7.604
▁ነበር።	-7.60783
ንጉሥ	-7.62279
▁አለ።	-7.62479
▁ምድር	-7.65228
▁አንድ	-7.6597
▁ድረስ	-7.66359
ሰዎች	-7.66513
▁እርሱ	-7.66592
▁እስከ	-7.67464
▁ንጉሥ	-7.68437
▁አንተ	-7.71333
ዱ	-7.73343
እርሱም	-7.7359
መጣ	-7.74212
አንድ	-7.74488
▁ይህ	-7.74925
▁ውስጥ	-7.75419
▁እነሆ፥	-7.76618
▁በእግዚአብሔር	-7.76759
ምድር	-7.7682
ነበረ	-7.77901
እርሱ	-7.79494
ሆይ	-7.80674
ድረስ	-7.80963
ደግሞ	-7.81408
ሆነ	-7.82356
▁ብሎ	-7.84176
አንተ	-7.84201
▁እግዚአብሔርም	-7.86731
▁አይ	-7.89271
ወጣ	-7.90375
ውስጥ	-7.91719
▁በኋላ	-7.92035
▁ነው፤	-7.92487
እነሆ	-7.93278
እስከ	-7.93458
ወር	-7.94508
እግዚአብሔርም	-7.95472
▁ይህን	-7.96409
አለው	-7.96905
▁አምላክ	-7.97226
ናቸው	-7.9737
ሱ	-7.97794
▁እናንተ	-7.97972
ይህ	-7.98788
▁ወይም	-8.00011
▁መካከል	-8.01122
ይላል	-8.01622
ብሎ	-8.01624
▁ዓመት	-8.03305
እጅ	-8.04293
▁እጅ	-8.04615
▁እርሱም	-8.04959
መካከል	-8.06545
እናንተ	-8.07566
አምላክ	-8.07803
ዬ	-8.07842
ሕዝብ	-8.08013
▁የእግዚአብሔር	-8.08991
ማን	-8.09186
በእግዚአብሔር	-8.10562
በኋላ	-8.10815
እንዳይ	-8.11055
ያን	-8.1198
ሁለት	-8.15209
▁ሕዝብ	-8.15773
▁ሁለት	-8.16311
ገባ	-8.17315
▁አላቸው።	-8.18047
ከፍ	-8.18076
▁ደስ	-8.19113
ዓመት	-8.1993
▁ስለዚህ	-8.20351
አይ	-8.20889
▁ነበረ።	-8.20973
ና።	-8.21552
ማለ	-8.23895
ደስ	-8.2445
▁እንጂ	-8.24937
ይሆናል	-8.25167
▁በዚያ	-8.25426
ባል	-8.2544
ተው	-8.25824
ወይም	-8.26007
▁ነበር፤	-8.26322
▁ለእግዚአብሔር	-8.26431
▁እግዚአብሔርን	-8.2644
ነበሩ	-8.26817
መቶ	-8.26881
ሥራ	-8.27496
ብዙ	-8.27847
ይህን	-8.28786
▁ምን	-8.29387
ማል	-8.29861
▁መሥዋዕት	-8.31832
▁መቶ	-8.32598
▁ስፍራ	-8.33455
▁እንዲሁ	-8.34436
▁ይላል።	-8.35301
ከተማ	-8.37683
▁እኔም	-8.37962
▁በዚያም	-8.3825
ስለዚህ	-8.38347
ያለ	-8.39456
ሄ	-8.40158
▁የእግዚአብሔርን	-8.40343
▁ጊዜ፥	-8.40976
▁የእስራኤል	-8.41381
ገና	-8.42298
▁እነርሱም	-8.4247
▁እጅግ	-8.42471
▁ብዙ	-8.42601
እነርሱም	-8.43617
የእግዚአብሔር	-8.43814
ሰማ	-8.44066
መጡ	-8.44422
▁ውኃ	-8.44712
▁ከእርሱ	-8.45632
ሠራ	-8.46399
▁ሺህ	-8.46659
▁ከፍ	-8.47286
ሆ	-8.47451
▁አቤቱ	-8.47546
ስም	-8.47765
እኔም	-8.48492
▁መልካም	-8.49207
ኃጢአት	-8.49645
▁በምድር	-8.49654
▁ሁሉ፥	-8.49664
እንጂ	-8.50927
መሥዋዕት	-8.51013
በዚያ	-8.51345
በር	-8.51825
!	-8.5235
▁ሥራ	-8.52459
እግዚአብሔርን	-8.52582
ስፍራ	-8.52673
ከዚያም	-8.52938
እነዚህ	-8.53356
▁እርሱም።	-8.53483
▁ዘመን	-8.53625
▁መንገድ	-8.53661
▁ጀምሮ	-8.54025
መልካም	-8.54269
▁ከተማ	-8.54372
▁ያለ	-8.54806
▁በእስራኤል	-8.56068
▁ማን	-8.57049
▁ነበረ፤	-8.57074
▁ነበሩ።	-8.57303
አላቸው	-8.57533
ሰብ	-8.57759
መንገድ	-8.58776
ሺህ	-8.6059
ፈራ	-8.60908
ሆኑ	-8.61057
እንዲሁ	-8.61077
▁አገር	-8.61166
▁በዚህ	-8.61419
ሕግ	-8.61421
ለእግዚአብሔር	-8.61647
▁እነዚህ	-8.62338
የእስራኤልም	-8.6313
ከእርሱም	-8.63187
ሦስት	-8.63935
▁ነው፥	-8.6425
በዚያም	-8.64266
አገር	-8.65711
ገዛ	-8.65869
እነርሱ	-8.67457
ኔ	-8.67643
ዘመን	-8.6796
ተኛ	-8.68352
▁ይላል	-8.68357
▁ታላቅ	-8.68359
▁ሴት	-8.69755
▁እንዲህም	-8.70075
▁ለዘላለም	-8.70481
ሴቶች	-8.70506
ገቡ	-8.7058
▁ዘንድ፥	-8.70927
አሕዛብ	-8.71063
ዲ	-8.72063
የእግዚአብሔርን	-8.7207
እጅግ	-8.7245
▁ሆነ	-8.72675
አለቆች	-8.72752
▁አለቆች	-8.72763
▁በእርሱ	-8.72942
አቤቱ	-8.73553
▁ኢየሱስ	-8.73913
ሄደ	-8.74211
ጠፋ	-8.74269
ክብር	-8.74388
▁እንግዲህ	-8.7496
የእስራኤል	-8.75017
ክርስቶስ	-8.75152
የእግዚአብሔርም	-8.76161
ጅ	-8.76327
▁ድምፅ	-8.76688
▁ይሆናል።	-8.77807
ወንድ	-8.78008
▁አሁን	-8.78335
አብርሃም	-8.78795
▁ሰባት	-8.7889
ኢየሱስ	-8.79046
ከእርሱ	-8.79267
▁ሌላ	-8.79315
▁አሉት።	-8.79821
ልብ	-8.80152
ባለ	-8.80363
ሰባት	-8.80476
በል	-8.80674
▁አለቃ	-8.80943
ያው	-8.8108
▁ንጉሡ	-8.8143
አባቴ	-8.81524
▁ወገን	-8.81701
▁ንጉሡም	-8.82743
ጠላ	-8.8281
▁እነሆም	-8.82848
ሰላም	-8.83145
በምድር	-8.83747
▁ክርስቶስ	-8.83778
▁ከእኔ	-8.84069
ታላቅ	-8.84485
▁ይልቅ	-8.84573
▁መንፈስ	-8.8473
ነውና	-8.84813
ወገን	-8.84945
▁ኃጢአት	-8.84969
ች።	-8.85197
መንፈስ	-8.85531
▁አጠገብ	-8.85659
ና፥	-8.85671
ዔ	-8.85792
▁ክንድ	-8.86495
▁እነርሱ	-8.874
ማንም	-8.87549
በዚህ	-8.87723
▁ያለውን	-8.87901
ማር	-8.88262
ይሁን	-8.88315
በእስራኤል	-8.88688
መከራ	-8.88884
ንጉሡም	-8.89037
▁ሦስት	-8.89182
የለም	-8.89364
▁እንጀራ	-8.89588
አሥራ	-8.89638
▁ናቸው።	-8.89868
▁እኛ	-8.89884
ላለ	-8.89978
ሰጠ	-8.90035
አደረገ	-8.9052
ገር	-8.90521
▁ስም	-8.90889
አለቃ	-8.90975
▁አሁንም	-8.91346
▁በኩል	-8.91372
ስማ	-8.91724
▁ብለው	-8.92535
ከእነርሱም	-8.92542
ጠራ	-8.93002
▁በታች	-8.93669
አሁን	-8.93934
ተስፋ	-8.94047
እውነት	-8.94078
በሉ	-8.94167
እንጀራ	-8.94583
▁እንዴት	-8.94886
▁ከተሞች	-8.94914
▁ዳዊት	-8.95039
በላ	-8.95309
ናችሁ	-8.9554
▁የተነሣ	-8.95659
▁ሴቶች	-8.95961
እንዲህም	-8.95989
▁አምስት	-8.95996
ጠጣ	-8.96407
▁ከእግዚአብሔር	-8.96794
▁ማንም	-8.97005
▁ከአንተ	-8.9702
▁እስኪ	-8.97179
ዳዊትም	-8.9754
▁እግዚአብሔር።	-8.97771
▁ሙሴም	-8.98043
▁ዕቃ	-8.98356
እንግዲህ	-8.98795
መቅደሱ	-8.98841
▁ቍርባን	-8.98957
ተራራ	-8.99169
አሳ	-8.99197
▁የሆነ	-8.99331
አሉ	-8.99595
በታች	-8.99891
ሌዋውያን	-9.00185
ተነሣ	-9.00402
ሰልፍ	-9.00452
▁ነበር፥	-9.0046
በምድረ	-9.00776
▁አሳ	-9.01123
ሆነው	-9.01161
ድምፅ	-9.01734
ብለው	-9.01962
▁ኢየሱስም	-9.02159
ለዘላለም	-9.02186
▁ከእናንተ	-9.02296
አለሁ	-9.02425
▁ሀያ	-9.02584
ቸውንም	-9.02807
▁አሉ።	-9.02922
▁አሥራ	-9.03215
አሳልፎ	-9.0322
እኛ	-9.03324
▁ብቻ	-9.03359
አብ	-9.0351
አምስት	-9.0371
ክንድ	-9.04131
ተናገረ	-9.04208
▁አሕዛብ	-9.04333
ነገሥታት	-9.04582
ጌታዬ	-9.0577
ኢየሩሳሌም	-9.05801
▁የሰው	-9.06327
▁ኪዳን	-9.0646
ደም	-9.06672
▁ነገድ	-9.06739
▁ሆኖ	-9.06891
ጥፋት	-9.0713
በእርሱ	-9.07401
ሕዝቡም	-9.07706
ለምን	-9.0814
ራስ	-9.08312
▁ተራራ	-9.08395
አጠገብ	-9.08528
ዓለም	-9.0859
መቅደስ	-9.0863
▁ከእነርሱ	-9.08778
▁ዳዊትም	-9.08794
ድንጋይ	-9.08944
▁ፍሬ	-9.0899
አንዱ	-9.09055
▁ይሆናል፤	-9.09116
ብር	-9.09383
▁እስራኤል	-9.09661
ነበርና	-9.09727
ቅዱስ	-9.09783
እህል	-9.10113
ከተሞች	-9.10133
▁ልብ	-9.1046
መለከት	-9.10484
ነቢዩ	-9.10492
አውራ	-9.10492
ይልቅ	-9.10593
እንዲያ	-9.11097
አይሁድ	-9.11135
ባሕር	-9.11138
ኤፍሬም	-9.11142
ኢዮአብ	-9.11873
በራ	-9.12109
▁ደግሞም	-9.12182
ዮሴፍ	-9.12532
ነገሠ	-9.12777
▁በኢየሩሳሌም	-9.13101
ዋንም	-9.13727
▁ናቸው፤	-9.13878
ያለውን	-9.13974
▁ያለው	-9.14441
ቍርባን	-9.14572
በደ	-9.14629
ፍራ	-9.14835
ጥል	-9.14874
ጥበብ	-9.14946
አሁንም	-9.15324
▁የሠራዊት	-9.15595
ጆ	-9.16127
አይደለም	-9.16262
ያወጣ	-9.16551
▁ሆነ፤	-9.16652
የሰው	-9.16842
ከእኔ	-9.16903
ግባ	-9.16959
▁አራት	-9.17088
▁ሙሴን	-9.17114
▁በዚያን	-9.17226
ድር	-9.17234
በኩል	-9.17395
እነሆም	-9.17516
አራት	-9.1755
▁ደቀ	-9.17595
▁ለእስራኤል	-9.17608
ኢየሱስም	-9.18078
ፍርድ	-9.18121
▁ወር	-9.18158
ባሪያህ	-9.18303
አፍ	-9.18772
ነገድ	-9.19038
ዘይት	-9.19062
የተነሣ	-9.1952
መንግሥት	-9.19538
▁ወይስ	-9.19638
ፈርዖን	-9.19737
▁ነገሥታት	-9.19738
ሰጣቸው	-9.20366
▁ልጆች፥	-9.20626
እንዴት	-9.21069
▁ክብር	-9.2107
ተናገረው	-9.2114
▁ከእስራኤል	-9.21142
ስብ	-9.21309
▁ቅዱስ	-9.21375
ሰይፍ	-9.21938
ተቀመጡ	-9.22025
ቢሆን	-9.22091
አይደለምን	-9.22238
ግራ	-9.22593
▁ሕዝቡም	-9.22872
ጠብ	-9.22877
ባሪያ	-9.23026
አምላክህ	-9.23036
እስኪ	-9.23498
አባቱ	-9.23836
ብላ	-9.24056
▁ኢየሩሳሌም	-9.24311
ላከ	-9.24746
ትእዛዝ	-9.24865
▁እንኳ	-9.25242
አምላካችን	-9.25821
ዘረጋ	-9.26033
የሆነ	-9.26357
ሳኦል	-9.26382
ከእግዚአብሔር	-9.26393
▁ሰላም	-9.26466
ከተማይቱ	-9.26475
ጣል	-9.26542
ሕያው	-9.26831
ራብ	-9.26975
▁ገና	-9.27001
▁መጣ።	-9.2706
▁እርስዋም	-9.27159
▁ከዚህ	-9.2731
ወለደ	-9.27365
ፌ	-9.27479
ከእናንተ	-9.27559
እሳት	-9.27629
ሄዱ	-9.27715
ልጆቹ	-9.27944
ሰሎሞን	-9.28065
▁ቍጣ	-9.28252
ድንኳን	-9.28259
መለስ	-9.28288
▁በእኔ	-9.28382
▁ባለ	-9.28506
▁ዘር	-9.28541
▁ልብስ	-9.2869
ነበረች	-9.29046
ተራ	-9.29079
ሁለቱ	-9.2923
▁በይሁዳ	-9.29242
እስራኤል	-9.29295
ይሁዳ	-9.29318
▁በእውነት	-9.29665
ከአንተ	-9.29711
ልብስ	-9.30074
▁ዳርቻ	-9.30349
አምላካችሁ	-9.30438
▁ነበረ፥	-9.30566
▁ነበሩ፤	-9.30659
▁ምንም	-9.30787
▁እሳት	-9.30789
ሆንሁ	-9.30923
ሠላሳ	-9.3101
▁ቤተ	-9.31247
▁ትእዛዝ	-9.31291
▁አፍ	-9.31684
▁ደም	-9.317
▁አንተም	-9.31973
▁ምንድር	-9.32249
ጠብቁ	-9.32325
▁ያዘ	-9.32378
ይህንም	-9.32382
ቅዱሳን	-9.32387
ትሆን	-9.3274
እያንዳንዱ	-9.32917
ሆኖ	-9.32929
ነበሩት	-9.33118
▁ከዚያ	-9.3322
ብረት	-9.33623
ካህናት	-9.33628
ጠል	-9.33829
ሰማያት	-9.34188
ደግሞም	-9.34413
እርስዋም	-9.34463
እስክ	-9.34502
ወይን	-9.3457
▁ዛፍ	-9.34681
ሰባ	-9.34802
ካህኑ	-9.3542
ያደርግ	-9.35812
▁ነገ	-9.35905
▁አድርጎ	-9.36144
ክፋት	-9.36267
▁ድንኳን	-9.36379
አሉት	-9.36443
▁ቤቶች	-9.36443
ሁለተኛው	-9.36494
▁በቀር	-9.36712
▁ባሪያ	-9.36788
ምድረ	-9.36821
ግድ	-9.36897
▁በሕይወት	-9.37291
ምሕረት	-9.37566
እንጨት	-9.37751
መጽሐፍ	-9.37821
▁ሚስት	-9.38603
ኃይል	-9.38683
ምንድር	-9.38717
▁አምላክህ	-9.38769
ወንድሞቹ	-9.38858
ስድስት	-9.39067
▁ወርቅ	-9.39275
በጎች	-9.39279
ተቀመጠ	-9.3942
▁በእናንተ	-9.39528
ደረሰ	-9.39577
ያለው	-9.39641
መካ	-9.39811
በኢየሩሳሌም	-9.39939
▁ነበርና	-9.39987
አማልክት	-9.40798
መቱ	-9.40961
▁እውነት	-9.41008
ብንያም	-9.41042
ሳሉ	-9.41051
▁ስሙ	-9.41169
▁በውኑ	-9.41405
▁ፍርድ	-9.41541
▁ርስት	-9.41611
የሠራዊት	-9.41771
▁ይህም	-9.42159
▁ሕግ	-9.42366
ከእነርሱ	-9.42498
አንተም	-9.42669
አምላኬ	-9.42875
በዚያን	-9.43309
▁እርስ	-9.43418
ኃጢአተኞች	-9.43501
ሦስተኛው	-9.43681
▁በእሳት	-9.43732
▁የእስራኤልን	-9.43814
▁መንግሥት	-9.4395
▁ሕዝቡን	-9.44012
▁አውራ	-9.44255
ሰጠው	-9.44305
ጥላ	-9.44642
ታቸውን	-9.44715
ላሉ	-9.44774
ርስት	-9.44795
ሰማርያ	-9.44815
▁ወንድ	-9.4504
▁ሌሊት	-9.45104
▁የወይን	-9.45345
ባለው	-9.45592
ወረደ	-9.45603
ወይስ	-9.45675
▁በአንተ	-9.45875
▁ስለዚህም	-9.46431
አራተኛው	-9.46554
ሠራዊት	-9.46662
▁ራስ	-9.46681
ገል	-9.4681
አደረጉ	-9.4691
ፍቅር	-9.46967
ርያ	-9.46995
▁በአንድ	-9.47099
አሮን	-9.47287
▁ስድስት	-9.47334
ነቢያት	-9.47423
ድል	-9.47478
▁ይሁን።	-9.47566
ብርሃን	-9.47889
▁ለአንተ	-9.47984
አንቺ	-9.48004
ነፍስ	-9.48035
▁ባሪያዎች	-9.48265
መሠዊያ	-9.48615
▁ባሕር	-9.4899
በእርሱም	-9.49009
አምሳ	-9.49076
ጠብቅ	-9.49128
▁ሆነ፥	-9.49259
ባሉ	-9.49343
▁ተስፋ	-9.49352
ከዚህም	-9.49372
▁በግ	-9.49413
ምርኮ	-9.50075
መሬት	-9.50412
▁ታቦት	-9.50412
አስታ	-9.50412
በግ	-9.50537
▁ጠጅ	-9.5068
መጀመሪያ	-9.50682
ለእስራኤል	-9.51053
ያዕቆብ	-9.51062
ሕይወት	-9.51227
ጣት	-9.51316
መልክ	-9.51439
ሰባቱ	-9.51734
አባት	-9.51892
በረታ	-9.52273
ሺ	-9.52754
▁አብ	-9.52769
▁ቢሆን	-9.53064
▁አለኝ።	-9.53175
ጣለ	-9.53228
ጥቂት	-9.53265
▁ባለው	-9.53275
ባሪያዎችህ	-9.53401
ሰባተኛው	-9.5345
▁ሰይፍ	-9.53547
ራሱን	-9.53602
ርግ	-9.53621
ፍልስጥኤማውያን	-9.53637
ገደለ	-9.53681
መልሶ	-9.53792
ሰፈሩ	-9.5393
ሳለ	-9.54185
ከእስራኤል	-9.54311
ግፍ	-9.54335
ዓይን	-9.54457
መንግሥቱ	-9.54586
ሰማይ	-9.54726
▁አባት	-9.54763
እርስዋ	-9.552
▁አንቺ	-9.55484
ጣሉ	-9.55655
ጻድቃን	-9.55658
ነፋስ	-9.55666
▁ልጅ፥	-9.55671
ወንድሞች	-9.55688
ሠራው	-9.55696
▁ወንድሞች	-9.55752
ጠላት	-9.56618
ሚስት	-9.56693
▁መልሶ።	-9.567
በእውነት	-9.5676
ጠጅ	-9.56879
በእግዚአብሔርም	-9.57048
አርባ	-9.57134
▁እንዲሆን	-9.57314
ይሆን	-9.57467
▁ለእኔ	-9.57701
ስምዖን	-9.5777
▁ድንጋይ	-9.58167
▁ንጹሕ	-9.58203
▁ዙሪያ	-9.58203
▁ነፍስ	-9.58268
ኤርምያስ	-9.58463
▁አንዱ	-9.58472
በደል	-9.58493
ጳውሎስ	-9.58632
ሞገስ	-9.58943
መልስ	-9.59247
ፍየል	-9.59378
▁ወስዶ	-9.59688
ሌላው	-9.59708
ያደረገ	-9.59981
ያጠፋ	-9.60017
▁ጽድቅ	-9.60022
ደኅንነት	-9.60038
▁በፊትህ	-9.60069
▁አሥር	-9.60077
▁እንዲሁም	-9.60123
ቀረበ	-9.60348
ውጣ	-9.60382
አደባባይ	-9.60517
ከዚህ	-9.60545
▁በፊቱ	-9.60587
▁ነውና	-9.60626
▁ዕጣ	-9.60882
አባትህ	-9.60905
▁ትንቢት	-9.60948
▁አደረገ።	-9.61002
▁አማልክት	-9.61049
ይህም	-9.61129
ያደርጉ	-9.61154
▁ሲል	-9.61176
▁ይሁዳ	-9.61189
መጨረሻ	-9.61194
ምዕራብ	-9.61194
ጀመረ	-9.61194
ራሳችሁ	-9.61206
ምሳሌ	-9.61286
ባሪያዎች	-9.61469
አድርጉ	-9.61677
ብርቱ	-9.61712
ዮሐንስ	-9.61813
ረሱ	-9.62225
አድርጎ	-9.62246
ሰፈር	-9.62339
▁መጽሐፍ	-9.62485
አፌ	-9.6258
▁ከሰማይ	-9.62605
በቀር	-9.6276
▁ብርሃን	-9.62916
ደግ	-9.63159
የአባቶቻቸው	-9.63317
▁የለም።	-9.63423
ተራራው	-9.63451
ፈሪሳውያን	-9.63497
እንስሳ	-9.6365
▁ወለደ፤	-9.63769
በፊቱ	-9.63829
በሕይወት	-9.63939
በእኔ	-9.64091
▁ወዴት	-9.64277
እንዳለ	-9.64561
በሬዎች	-9.64669
ናቡከደነፆር	-9.64669
ይመጣል	-9.64725
▁ለምን	-9.64739
ደመና	-9.64935
ሆናችሁ	-9.64967
▁ጻድቅ	-9.65063
▁መልአክ	-9.65076
ካሉ	-9.65137
በይሁዳ	-9.65291
▁ወዲህ	-9.65449
ቅጥር	-9.65758
ከነዓን	-9.65797
አባቶቻችሁ	-9.65855
ጨለማ	-9.66159
ሕዝቅያስ	-9.66216
▁ፋንታ	-9.66428
ቤትህ	-9.66454
▁አምሳ	-9.66598
መጠን	-9.66742
ከዚያ	-9.6679
▁በሰይፍ	-9.66914
▁ኃይል	-9.67009
ዳንኤል	-9.67055
ጆሮ	-9.67084
እውቀት	-9.67167
▁መሠዊያ	-9.67225
እርስ	-9.67388
በውኑ	-9.67515
▁ወራት	-9.67522
ኢያሱ	-9.67614
▁በላይ	-9.6806
▁ምድረ	-9.68167
▁ሳለ	-9.68194
ፈረሶች	-9.6827
እህሉ	-9.68279
▁ሆነ።	-9.68288
▁እንዳለ	-9.68404
▁ሕይወት	-9.68481
በምድርም	-9.6852
እርሻ	-9.6896
ራሱ	-9.68969
▁ጉባኤ	-9.69036
አሥር	-9.69293
ሁላችሁ	-9.69322
በእናንተ	-9.69356
ታደርጉ	-9.69428
ዘወትር	-9.69499
ካህናቱ	-9.69618
ተናገሩ	-9.69628
ርሱ	-9.69771
መንገዱ	-9.69865
▁አለ፤	-9.70037
ይስሐቅ	-9.70284
▁ለእናንተ	-9.70304
▁ይሆን	-9.7041
ጌታችን	-9.70509
▁ወጥቶ	-9.70706
እናንተም	-9.70757
▁ሕያው	-9.70765
ከንቱ	-9.70853
ይሉ	-9.71177
ግብጽ	-9.71229
▁ሆንሁ	-9.71344
ካህኑም	-9.71525
ሳለሁ	-9.7155
የወይን	-9.71616
▁ወዲያ	-9.71791
ሦስቱ	-9.72005
በፍታ	-9.72005
▁ይሁን፤	-9.72019
▁ሁልጊዜ	-9.72067
ስለዚህም	-9.72261
ትንቢት	-9.72284
▁ከእኛ	-9.72711
ቆመው	-9.72731
አባቱን	-9.72776
ኢዮርብዓም	-9.73228
አደርጋለሁ	-9.7324
▁እናንተም	-9.73248
ሰነፍ	-9.73281
አባቶቻችን	-9.73281
▁አስቀድሞ	-9.73378
አመጣ	-9.73747
ንጉሡን	-9.73838
ተመለሰ	-9.73897
▁ሄደ።	-9.74038
የእስራኤልን	-9.74095
▁በታላቅ	-9.7443
ኤዶምያስ	-9.7444
ሰረገሎች	-9.74574
ከለዳውያን	-9.74574
▁ርኩስ	-9.74616
▁በሰማይ	-9.74626
▁ካህኑም	-9.74698
ስምህ	-9.74813
▁እላችኋለሁ	-9.74841
ሰለ	-9.74856
ሽማግሌዎች	-9.74934
ሲል	-9.74962
አራቱ	-9.75007
▁ወንዝ	-9.75009
ወንዶችና	-9.75176
ወንድምህ	-9.75309
ወሰደ	-9.7543
ምስጋና	-9.75459
ዔሳው	-9.75506
▁ምልክት	-9.75575
▁ነፋስ	-9.75875
ዘላለም	-9.76147
▁ብር	-9.76207
ልጆቹም	-9.76223
ሁለቱም	-9.76287
በእሳት	-9.76373
▁ሽማግሌዎች	-9.76384
ተራሮች	-9.76412
▁ነውና።	-9.76471
ጥራ	-9.76674
ይሆናሉ	-9.76845
▁እስራኤልም	-9.76969
▁ከንቱ	-9.76994
በአንድ	-9.77084
▁ጥቂት	-9.77145
▁ሸለቆ	-9.77207
በኣል	-9.77236
እግር	-9.77251
▁ነገሠ።	-9.77299
በአንተ	-9.77304
▁ግን።	-9.77417
▁አላት።	-9.77872
▁የምድር	-9.77976
አንበሳ	-9.78257
ገለዓድ	-9.78421
▁ብዛት	-9.78476
ራሳቸው	-9.78507
▁እንደዚህ	-9.78608
ሚስቱ	-9.78612
አቤሴሎም	-9.78726
ላለች	-9.7888
ሥራቸው	-9.79003
ጽድቅን	-9.79054
መለሰ	-9.79174
▁ቢሆን፥	-9.79202
▁በእጁ	-9.79328
▁ብለህ	-9.79551
▁አርባ	-9.796
▁ለእርሱ	-9.79649
ቤቱን	-9.79703
ትውልድ	-9.79792
▁በንጉሡ	-9.79826
▁ሠላሳ	-9.79849
ይሰማ	-9.79882
ልጆቻችሁ	-9.79921
መላእክት	-9.79921
ሳኦልም	-9.80262
▁ጳውሎስ	-9.80305
▁ከምድር	-9.80348
ወዲህ	-9.8039
▁የወርቅ	-9.80397
አልነበረም	-9.80834
ልባቸው	-9.8104
ባለች	-9.81086
ኬብሮን	-9.81303
▁ስንኳ	-9.81303
አግኝ	-9.81303
ሠራዊቱ	-9.81427
▁ምክንያት	-9.81701
መቃብር	-9.81744
ፈርዖንም	-9.8189
ወራት	-9.82162
▁ማዶ	-9.82236
▁የነበረውን	-9.82308
▁ያህል	-9.8232
ጕድጓድ	-9.82339
▁ይህች	-9.82556
እግሩ	-9.827
ዮአስ	-9.82705
አምላካቸው	-9.82712
▁ብዬ	-9.82744
▁ተናገረው።	-9.82765
ብዛት	-9.8279
ድንኳኑ	-9.82806
እንድን	-9.82891
▁ከእንግዲህ	-9.83106
እልል	-9.83179
እንዲሆን	-9.83383
የይሁዳ	-9.83436
▁መጥተው	-9.83438
▁መዛሙርቱ	-9.836
ላባ	-9.83605
▁ጥበብ	-9.83628
እንዲሁም	-9.83642
መለሱ	-9.83741
ነገረ	-9.83748
ራስህ	-9.8401
ተደረገ	-9.84101
ለሚቃጠል	-9.84127
ሲኦል	-9.84127
ለአንተ	-9.84299
▁ሥርዓት	-9.84449
▁ካህናት	-9.84487
▁የይሁዳ	-9.8473
ሆንህ	-9.84752
ፍልስጥኤማውያንም	-9.84774
ተገለጠ	-9.84801
አሕዛብም	-9.84858
ሥራው	-9.84859
ተናገር	-9.84918
▁ነፍሴ	-9.85015
ወርድ	-9.85376
▁ሳኦልም	-9.85447
በሮች	-9.85569
ወስደው	-9.85569
ባልዋ	-9.85821
▁መከራ	-9.85871
ካህናቱም	-9.86111
በፊትህ	-9.86209
ጠርቶ	-9.86247
▁መጠን	-9.86317
ናቸውና	-9.8639
▁ሰቅል	-9.86425
አየሁ	-9.86446
መልአክ	-9.86527
▁ክፍል	-9.86617
ዚ	-9.867
ተሰበሰቡ	-9.87
▁ሰማይ	-9.87023
ምስክር	-9.8719
ወንጌል	-9.87227
▁በር	-9.87244
ሥርዓት	-9.87311
ገደሉ	-9.87368
ያዕቆብም	-9.87401
እናት	-9.87435
አህያ	-9.87449
▁አደረገ፤	-9.8753
▁ከግብፅ	-9.87714
ፋንታ	-9.87777
ዱር	-9.87796
▁ራሱን	-9.87878
▁በውኃ	-9.88052
▁በመንገድ	-9.88115
▁በግብፅ	-9.88131
ርኩስ	-9.88471
ብሩን	-9.88514
ኃጢአቱ	-9.88518
ፈረሰ	-9.88518
▁ነበርና።	-9.88628
▁አይሁድ	-9.88714
ለት።	-9.88904
ቃሉ	-9.88943
▁ዓለም	-9.88996
ሰቅል	-9.89139
ከሰማይ	-9.89273
አገሩ	-9.89295
የአገሩ	-9.89314
አንዱም	-9.89558
▁ምሳሌ	-9.89573
▁የሆነውን	-9.89886
ኮረብታ	-9.89972
መሐላ	-9.90026
እንስሶች	-9.90026
ጠቢብ	-9.90035
▁ወጣ።	-9.90051
ስፍራው	-9.90118
ወዲያ	-9.90173
ብዬ	-9.90232
ተመለሱ	-9.9025
እስራኤልም	-9.90272
እምነት	-9.90315
ሳሙኤል	-9.9033
ሰውም	-9.90394
▁እስራኤልን	-9.90512
ብዙዎች	-9.90513
ገንዘብ	-9.90525
ኃያላን	-9.90545
ብለህ	-9.90632
ያህል	-9.90724
ጠሉ	-9.90951
ቍጥር	-9.91156
▁ይቅር	-9.91317
ማስተዋል	-9.91325
▁ባየ	-9.91398
አንደኛው	-9.91556
ወንድሞቻቸው	-9.91556
እያንዳንዱም	-9.91567
▁ትውልድ	-9.91707
ስድብ	-9.91988
▁በክርስቶስ	-9.92018
ከእስራኤልም	-9.92149
ኃጢአተኛ	-9.9215
▁አንዳች	-9.92467
▁አምላኬ	-9.92577
አልዓዛር	-9.92577
ዓይንህ	-9.92602
ማለት	-9.9275
በእስራኤልም	-9.92822
▁ምስክር	-9.92865
ፋሲካ	-9.93049
ሰንበት	-9.93102
ክፉዎች	-9.93111
ሴዴቅያስ	-9.93111
ወጥመድ	-9.93111
ያገለግሉ	-9.93111
▁ነኝ፤	-9.93111
መጥቶ	-9.93171
አምስተኛው	-9.93274
▁በመሠዊያው	-9.93435
▁ባድማ	-9.9354
▁ለሕዝቡ	-9.93603
▁ተነሥቶ	-9.9375
በት።	-9.93799
አንዲት	-9.93862
▁አደባባይ	-9.9405
ባይ	-9.94075
ያመጡ	-9.94141
▁በሕዝቡ	-9.94242
▁እርስዋ	-9.94496
ራራ	-9.94602
እንግዳ	-9.9469
እንግዶች	-9.9469
የሚለው	-9.9469
የሚችል	-9.9469
አበኔር	-9.94695
እነዚያ	-9.94711
አድርግ	-9.94886
▁በኢየሩሳሌምም	-9.9497
ምልክት	-9.95099
▁በአሕዛብ	-9.95151
▁ነኝ።	-9.95222
አልሁ	-9.95256
ፈቃድ	-9.95337
▁በፊት	-9.95409
ሕዝብህ	-9.95487
▁ተብሎ	-9.958
ማደሪያ	-9.95948
ልጆቹን	-9.9595
▁እጁን	-9.95978
ታውቃላችሁ	-9.96013
ግብፅ	-9.96077
በሰንበት	-9.96165
▁የዘላለም	-9.96234
በቀል	-9.96294
ቀርበው	-9.96294
ትዕቢት	-9.96294
ግብፃውያን	-9.96294
ደቡብ	-9.96444
ይዘው	-9.96632
ሰደደ	-9.96695
a	-9.96834
▁አይደለም።	-9.96895
በሰይፍ	-9.96937
▁ፈቃድ	-9.9726
ወገኖች	-9.97349
▁በልቡ	-9.97378
መልከ	-9.97466
▁መስፈሪያ	-9.97595
▁ካህኑ	-9.9761
መብል	-9.97657
▁በጎች	-9.97713
ምድሪቱ	-9.97715
▁እነዚህን	-9.97722
▁አለው፤	-9.97729
ታመን	-9.97737
ዋይ	-9.97847
እናቱ	-9.9788
አፈር	-9.97918
ውኆች	-9.97924
ጠላቶቻቸው	-9.97924
ወረዱ	-9.97924
መጠጥ	-9.97959
ኤልያስ	-9.98086
▁እንጨት	-9.98261
ቃልህ	-9.98292
አባቶች	-9.98334
ልብህ	-9.98432
▁ዓይን	-9.98661
▁ወጣ፥	-9.98976
ሳለች	-9.99226
▁አሳብ	-9.99333
ራሳቸውን	-9.9944
አስቀድሞ	-9.99457
አሞራውያን	-9.99524
አካዝ	-9.99579
መታሰቢያ	-9.99582
ዕረፍት	-9.99582
መቅሠፍት	-9.99582
ሰጣችሁ	-9.9959
ከእኛ	-9.99726
ማናቸውም	-9.99782
ገሊላ	-9.99817
▁አድርገው	-9.99819
ያደርጋል	-9.99887
ቤቱም	-9.99946
ዮናታን	-10.0015
አሞን	-10.0026
▁ለንጉሡ	-10.0027
▁ኤርምያስ	-10.0031
ብላችሁ	-10.0048
እድል	-10.0051
ረብ	-10.0061
አምባ	-10.0067
▁ስጦታ	-10.007
እላችኋለሁ	-10.0092
▁ጊዜም	-10.0105
▁ናት፤	-10.012
በትር	-10.0123
ተአምራት	-10.0127
አእምሮ	-10.0127
ዓይኔ	-10.0127
ጸልይ	-10.0127
መርዶክዮስ	-10.0127
ትምህርት	-10.0127
ጣለች	-10.0136
▁ያሉትን	-10.0141
ዳዊትን	-10.0151
ጠላቶችህ	-10.0153
ይሆኑ	-10.016
▁የሚል	-10.0173
ሐዋርያት	-10.018
ፍርሃት	-10.0181
ሆነች	-10.0183
እርሱን	-10.0187
ፊተኛው	-10.0201
ሳኦልን	-10.0205
ለእኔ	-10.0209
▁ዳዊትን	-10.0215
▁እኔን	-10.023
በታላቅ	-10.0253
ስስ	-10.026
ምሥራቅ	-10.0261
▁ይዘው	-10.0262
▁ወደዚህ	-10.027
▁ጆሮ	-10.027
ተቀመጥ	-10.0279
▁አይደለም	-10.0285
እነዚህን	-10.0294
ተቀበሉ	-10.0298
አባታችን	-10.0298
▁ሂዱ	-10.0298
▁ምክር	-10.0298
ርስቱ	-10.0307
ሶርያውያን	-10.031
▁አለችው።	-10.0317
በሰማይ	-10.0329
▁በባሕር	-10.0331
▁አድርግ	-10.0334
▁እርሻ	-10.0339
እጃቸው	-10.0363
▁ተቀምጦ	-10.0363
አክዓብ	-10.0365
▁ለሰው	-10.0366
ከሆነ	-10.0373
ብላቴና	-10.0377
▁ነውር	-10.04
አንዳች	-10.041
▁በዓል	-10.0414
▁መቅደስ	-10.0427
ብል	-10.0446
▁አለች።	-10.0448
እንደዚህ	-10.0466
ኤልሳዕ	-10.0473
ወንድሙን	-10.0473
▁ዘይት	-10.0477
ለእናንተ	-10.0494
ሁልጊዜ	-10.0496
ተማረ	-10.0501
በላይ	-10.0512
ያሉ	-10.0512
▁ሁለቱ	-10.0523
ላሉት	-10.0524
▁የነበሩትን	-10.0534
ወሰዱ	-10.0534
በእጁ	-10.0549
በእርስዋም	-10.0564
ስተው	-10.0564
▁እያሉ	-10.0577
ያይ	-10.0613
ታደርግ	-10.0614
▁ብላ	-10.0628
አላት	-10.0635
መገናኛው	-10.0637
ፈጠረ	-10.0649
ማዕዘን	-10.065
አስቴር	-10.065
እግሮች	-10.065
ይናገራል	-10.065
▁ዕለት	-10.065
ሰይጣን	-10.065
አጠፋለሁ	-10.065
▁አምላካችን	-10.0652
ድካም	-10.0664
▁ቅጥር	-10.0665
የወርቅ	-10.0671
ውሰድ	-10.0672
▁ሆነው	-10.0673
▁ምርኮ	-10.0675
▁በሰው	-10.0687
ስንፍና	-10.0688
▁በምን	-10.0695
▁ጌታዬ	-10.0696
ክፍል	-10.0701
▁ወገኖች	-10.0713
▁በአንድነት	-10.0724
ትሰማ	-10.0732
የአሦር	-10.0738
▁ልጆች፤	-10.0744
ሊባኖስ	-10.0744
▁ፍጻሜ	-10.077
የእግዚአብሔርንም	-10.0772
ምክንያት	-10.0779
ባድማ	-10.0786
▁መጥቶ	-10.0789
ሰጡት	-10.0791
▁በኢየሱስ	-10.0794
ወርዱ	-10.0796
▁ያሉት	-10.0808
ዙፋኑ	-10.0823
ወልድ	-10.0831
መንግሥታት	-10.0831
መዝሙር	-10.0831
ተግሣጽ	-10.0831
ታመኑ	-10.0831
ታውቃለህ	-10.0831
ድንጋጤ	-10.0831
ደጆች	-10.0831
▁የንጉሡ	-10.0834
እያለ	-10.0834
የነበረውን	-10.0839
እልፍ	-10.0841
▁በብዙ	-10.0858
ይቅር	-10.0859
ይሰጣል	-10.0864
ዙፋን	-10.0867
▁ቍጥር	-10.0878
▁አይደለም፤	-10.0898
▁ለዳዊት	-10.0899
ምሕረትህ	-10.0906
መጥተው	-10.092
▁አልሁ።	-10.0924
▁አንዲት	-10.0927
▁ሰሎሞን	-10.0932
▁ፀሐይ	-10.0935
▁አደረጉ።	-10.0944
▁ልብሱን	-10.0952
ደጅ	-10.0958
ይህች	-10.0962
ያድር	-10.1
ለካ	-10.1001
ተቈጠሩ	-10.1012
ተቀበለ	-10.1015
አቤሜሌክ	-10.1015
ከዋክብት	-10.1015
ኮረብቶች	-10.1015
▁ልጁን	-10.1015
▁ወፎች	-10.1015
አባታቸው	-10.1019
አሳብ	-10.1036
▁እኛም	-10.1043
የዚህ	-10.1052
▁ሠራዊት	-10.1073
አውቃለሁ	-10.1073
▁ሰዓት	-10.1081
ሆድ	-10.1096
▁ነውና፤	-10.1098
ምድሪቱም	-10.1126
▁ሰባ	-10.1126
ነፍሱ	-10.113
መዛሙርቱ	-10.1136
እጅግም	-10.115
ካለ	-10.1159
▁እርሱን	-10.1163
▁ወጣ፤	-10.1186
ርኵሰት	-10.1187
ደማስቆ	-10.1195
መኖሪያ	-10.1202
መጻተኛ	-10.1202
ንፍታሌም	-10.1202
ድንጋዮች	-10.1202
ምድራቸው	-10.1203
ጠማማ	-10.1205
ሳን	-10.1206
በንጉሡ	-10.1207
ያላችሁ	-10.1209
▁ናት።	-10.1221
ያውቃል	-10.123
▁ነቢያት	-10.1243
ተናገርሁ	-10.1253
ልብሱን	-10.1268
ላቸው።	-10.1279
ተለየ	-10.1282
መጋረጃ	-10.1299
አምላኩ	-10.1303
ሁኑ	-10.1303
ይበሉ	-10.1305
▁በሰማ	-10.1313
▁አምላካችሁ	-10.1322
ወለደች	-10.1324
የምድር	-10.1334
▁የለም፤	-10.1335
▁በእነርሱ	-10.135
ሆኖአል	-10.1353
የይሁዳም	-10.1375
ይኖራል	-10.1385
▁ተነሥ	-10.139
ደብዳቤ	-10.139
መሠረት	-10.1393
ሴቲቱም	-10.1393
ተፈጸመ	-10.1393
አትፍሩ	-10.1393
ኢሳይያስ	-10.1393
አንዲቱ	-10.1393
ዮርዳኖስን	-10.1394
ሰምተው	-10.1398
ከግብፅ	-10.1399
▁የነበሩ	-10.1407
▁በአሥራ	-10.1416
▁በርሳቸው	-10.1425
እሰጣለሁ	-10.143
መስፈሪያ	-10.1431
ያልፍ	-10.1436
ነቢይ	-10.1437
▁ምድርን	-10.1437
አቀረበ	-10.1443
በሰው	-10.1449
ልያ	-10.1449
ካህን	-10.1462
▁የተቀደሰ	-10.1462
እኔን	-10.149
▁የነበሩት	-10.1501
ዮሴፍም	-10.1509
በደቡብ	-10.1511
ከምድር	-10.1513
▁በእጅህ	-10.1514
ማኅበሩ	-10.1521
አዲስ	-10.1526
ባላ	-10.1534
ይናገሩ	-10.1553
አለች	-10.1558
ያድን	-10.1559
ይሄዱ	-10.1566
ዘመኑ	-10.1581
ተራራማው	-10.1582
ሮብዓም	-10.1588
ተቈጣ	-10.1588
አትክልት	-10.1588
እሾህ	-10.1588
ከአባቶቹ	-10.1588
ክርክር	-10.1588
ይናገራሉ	-10.1588
ጕልማሳ	-10.1588
ጠይቅ	-10.1588
ፈጽመው	-10.1588
ፍየሎች	-10.1588
አምስቱ	-10.1589
ገመድ	-10.1596
ንቃ	-10.1596
የሆነውን	-10.1598
ከእንግዲህ	-10.1603
▁በሌሊት	-10.161
ብቻውን	-10.161
▁አወጣ	-10.1613
ለይ	-10.1614
▁በከንቱ	-10.1615
▁መብል	-10.1619
ይኖር	-10.166
ነውን	-10.1663
▁ያሉ	-10.1664
ያንን	-10.1671
በመንገድ	-10.1676
መባ	-10.1694
ይበላ	-10.1721
አባቶቻቸው	-10.1725
ራእይ	-10.1725
ከፋ	-10.1728
▁ባሪያህ	-10.1738
▁በፊታቸው	-10.1746
እናቱም	-10.1746
▁ሌሎች	-10.1749
ዓይኖች	-10.175
▁ጊዜ።	-10.1758
ይመለስ	-10.1759
በረከት	-10.1776
አፍህ	-10.1779
ልዑል	-10.1787
መዛሙርት	-10.1787
በሐሰት	-10.1787
ታላላቆች	-10.1787
አሴር	-10.1787
እለምንሃለሁ	-10.1787
እግሮቹ	-10.1787
ዘካርያስ	-10.1787
ፈረሰኞች	-10.1787
ፍላጻ	-10.1787
▁በእኛ	-10.1799
ተከለ	-10.181
▁ናቸው፥	-10.1828
ደመናው	-10.1839
▁በራሱ	-10.1842
▁ወደዚያ	-10.1848
መልኩ	-10.185
▁በቤቱ	-10.1865
መታው	-10.1886
ሰዎችም	-10.1888
▁ኢያሱም	-10.189
▁አንዱን	-10.1891
ትተው	-10.1909
እጁን	-10.1915
አደረ	-10.192
▁ጭፍራ	-10.1922
▁ጽኑ	-10.1922
ወይኑ	-10.1924
▁ብዙዎች	-10.1924
▁ካህን	-10.1943
▁ከይሁዳ	-10.197
መሥዋዕትና	-10.1972
አለቃው	-10.1973
ስምንት	-10.1977
የሰጠ	-10.1983
▁ባቢሎን	-10.1984
▁በመንፈስ	-10.1984
መዝገብ	-10.199
ሰዶም	-10.199
ኢዮራም	-10.199
እያንዳንዳቸው	-10.199
አፋቸው	-10.1991
መፍራት	-10.1991
▁ሄዱ።	-10.1992
ወዲያውም	-10.2004
ከአሕዛብ	-10.2007
▁ነፍሴን	-10.2012
ይላሉ	-10.2017
▁ወይን	-10.2028
ያደረ	-10.203
▁የዳዊት	-10.2033
በክርስቶስ	-10.2041
አሮንና	-10.2068
▁ነውና፥	-10.2072
በመሠዊያው	-10.2074
▁መጡ።	-10.2084
በኢየሩሳሌምም	-10.2097
▁ተናገር	-10.2101
▁ይሆናሉ።	-10.2102
እነዚህም	-10.2104
አሮንም	-10.2109
በግብፅ	-10.2114
▁ለፊት	-10.2118
▁የሚቃጠለውን	-10.2119
ስራ	-10.2124
▁ሕዝቅያስ	-10.2134
▁ክፋት	-10.2136
ያዋን	-10.2143
ለእርሱ	-10.2145
ወንዶች	-10.2145
እስራኤልን	-10.2156
▁ያዕቆብም	-10.2174
ሐሰተኛ	-10.2197
ትሆናለህ	-10.2197
አንጻር	-10.2197
ከነዓናውያን	-10.2197
ዛብሎን	-10.2197
ያጸና	-10.2197
እፍረት	-10.2197
▁የዚያን	-10.22
አደርግ	-10.2212
▁ዮናታን	-10.2213
የዘላለም	-10.2215
መንደሮችዋ	-10.2225
በላቸው	-10.2227
ርግብ	-10.2228
ኢዮሣፍጥ	-10.223
እኛም	-10.2242
የናስ	-10.2248
▁የብር	-10.2255
በኛ	-10.2256
▁በዮርዳኖስ	-10.2256
▁ተቀመጡ።	-10.2273
ይጠብቁ	-10.228
ኖረው	-10.2288
በሉት	-10.229
አበባ	-10.2302
አለቆችና	-10.231
ሽማግሌ	-10.2313
▁ይወጣል	-10.2316
▁ቢኖር	-10.2337
የአሮን	-10.2343
ሰሎሞንም	-10.235
▁ጴጥሮስ	-10.2379
ሰማሁ	-10.2396
ሚስቱን	-10.2399
▁በሆነ	-10.2405
ምድሩን	-10.2408
ራሔል	-10.2408
ተመለከተ	-10.2408
አድርገህ	-10.2408
የሚመስል	-10.2408
ፈረስ	-10.2408
ነገራቸው	-10.2408
አትፍራ	-10.2413
እባብ	-10.2415
ለዚያ	-10.242
ገለባ	-10.2421
ጥና	-10.244
▁አንተን	-10.244
▁ወንድም	-10.2452
▁ሥልጣን	-10.2464
ትሆናለች	-10.2468
▁ጨለማ	-10.2477
▁ድረስ፥	-10.2477
ጠየቀ	-10.2481
ወርዱም	-10.2504
አራዊት	-10.2509
ሰጠን	-10.252
መልሳ	-10.2525
ይበላል	-10.2542
ይለዋል	-10.2554
በእነርሱ	-10.2555
▁ካለው	-10.2558
ፈልግ	-10.2576
▁የነበረው	-10.2592
አድርገው	-10.2593
ያመጣ	-10.2596
ብሉ	-10.2597
▁ኃጢአትን	-10.2615
ምድያም	-10.2621
በረዶ	-10.2621
ሂድ፥	-10.2624
ሄሮድስ	-10.2624
ሚስቶች	-10.2624
ሥጋዬ	-10.2624
ቁርበት	-10.2624
ነገዶች	-10.2624
ንገሩ	-10.2624
ወይራ	-10.2624
ይቀመጡ	-10.2624
ግልሙትና	-10.2624
ይደረግ	-10.2624
ጠቢባን	-10.2624
ሰበሰበ	-10.2624
ተሰጠ	-10.2634
ልካ	-10.2641
አባቶችህ	-10.2653
እላለሁ	-10.2669
ቍጣዬ	-10.2671
▁ስምንት	-10.2671
በለው	-10.2672
ተመልሰው	-10.2672
ተብሎ	-10.2675
ናትና	-10.2682
ልጆቻቸውን	-10.2689
ግብር	-10.2718
▁ለእነርሱ	-10.2721
▁ዮሐንስ	-10.2724
መጣሁ	-10.2742
እጁንም	-10.2747
ያሉትን	-10.2753
▁ገንዘብ	-10.2771
የሚል	-10.2784
ሥልጣን	-10.2786
▁በስተ	-10.2796
ጴጥሮስ	-10.28
▁ወዳለው	-10.2804
▁የሚሆን	-10.2804
▁በትር	-10.2822
እውቀትን	-10.2824
▁በዳዊት	-10.2825
ይሁኑ	-10.2828
▁የባቢሎን	-10.284
መናፍስት	-10.2844
መንገሥ	-10.2844
በኵራት	-10.2844
ተጕዘው	-10.2844
አርጤክስስ	-10.2844
እስማኤል	-10.2844
የሚናገር	-10.2844
ይሻላል	-10.2844
ጨረቃ	-10.2844
ሁላችን	-10.2845
አደረግሁ	-10.2845
ጠራቸው	-10.2846
ውሰዱ	-10.2847
ርስታቸው	-10.2851
ያገባ	-10.2852
▁በቤት	-10.2855
▁ርኵሰት	-10.2862
መከር	-10.2869
ወደዚህ	-10.2881
▁ይሠራ	-10.2887
ይቀመጥ	-10.2887
በደሉ	-10.2889
ውያንም	-10.2912
ብላቴናው	-10.2919
ማኅፀን	-10.2924
▁ቃሌን	-10.2927
ደረሱ	-10.2939
ነውር	-10.2952
ይበል	-10.2958
▁አራዊት	-10.2963
አባቱም	-10.2966
ሰረገላ	-10.2974
ተቀምጦ	-10.2978
ባሪያዬ	-10.2987
በለስ	-10.2992
በፊት	-10.3004
ትሆኑ	-10.3009
▁ወንጌል	-10.304
በአሕዛብ	-10.3048
ባቸው።	-10.3053
▁በዚህም	-10.306
ነገረው	-10.3062
▁የአሕዛብ	-10.3062
ይሠራ	-10.3065
ይሁዳም	-10.3067
ሰጥቶ	-10.3068
ልጆቼ	-10.307
ሰነፎች	-10.307
ቤርሳቤህ	-10.307
አዳም	-10.307
እናገራለሁ	-10.307
ከወሩም	-10.307
ዓመፀኞች	-10.307
ያስነሣ	-10.307
ይሳኮር	-10.307
ጣዖት	-10.307
ጽኑዓን	-10.307
በስውር	-10.3072
መስማት	-10.3072
ቅርብ	-10.3109
ዓይኖችህ	-10.3112
በባሕር	-10.3119
▁በደል	-10.312
ሰጣት	-10.3127
▁ሰፈሩ።	-10.313
ለማድረግ	-10.3142
የነበሩትን	-10.3146
▁የሰማይ	-10.3152
መልሰው	-10.3157
ያለች	-10.3177
ፊትህን	-10.3188
ሌዋውያኑም	-10.3192
እያሉ	-10.3194
ያለበት	-10.32
▁መጣ፥	-10.3209
▁መንጋ	-10.3214
ግንብ	-10.3221
አንዱን	-10.3232
▁በፍጹም	-10.3234
▁ፍርድን	-10.3236
▁ነቢይ	-10.3248
▁ከግብጽ	-10.3253
መሆን	-10.3267
ጀመር	-10.3273
▁ኤልያስ	-10.3278
የለውም	-10.3289
ኢያሱም	-10.329
መግቢያ	-10.3297
መሰንቆ	-10.3301
ቀለበቶች	-10.3301
አንቀላፋ	-10.3301
እሆናለሁ	-10.3301
እረኞች	-10.3301
ዓመፀኛ	-10.3301
ገባዖን	-10.3301
ጌልገላ	-10.3301
ጠባቂ	-10.3301
ጥበበኞች	-10.3301
ተመልከቱ	-10.3301
እሳቱ	-10.3302
እረኛ	-10.3302
ሌላቸው	-10.3303
መናገር	-10.3303
በናያስ	-10.3303
ጠራው	-10.3323
አካል	-10.3328
▁ቃሉን	-10.3359
▁ጕድጓድ	-10.3361
መራራ	-10.3369
መድኃኒት	-10.3385
ይሰሙ	-10.3399
▁ፍቅር	-10.3401
ተከተሉት	-10.3404
▁ራሱ	-10.3414
▁ሰሎሞንም	-10.3416
ከብት	-10.3419
▁በመጣ	-10.3438
▁ተናገረ።	-10.3439
የግብፅ	-10.3443
▁ሰውም	-10.3449
ጊዜም	-10.3449
ኃጢአታቸው	-10.3462
▁ነበረች።	-10.3465
▁እግዚአብሔር፤	-10.3472
እርሻው	-10.3473
ያሉት	-10.348
ለንጉሡ	-10.3484
ዝናብ	-10.3499
ጠላቶች	-10.35
ገደለው	-10.3513
ቸነፈር	-10.3529
▁ደጅ	-10.3531
▁ጠቦት	-10.3536
ቀንዶች	-10.3537
ተንኰል	-10.3537
ትእዛዜ	-10.3537
እሰጥሃለሁ	-10.3537
ወዳጆች	-10.3537
▁በሰሙ	-10.3537
▁አሜን	-10.3537
ባሪያዎቹን	-10.3537
ይወጣሉ	-10.3544
▁ወንዶች	-10.3546
ግርማ	-10.3546
▁ሄደ፥	-10.3548
▁ሁለተኛው	-10.3548
ናቸውን	-10.3569
አጋንንት	-10.3583
ምናምን	-10.3591
ከተማይቱም	-10.36
▁ሁለቱን	-10.3626
አንተን	-10.3628
ከብንያም	-10.3667
▁ተራሮች	-10.3678
ይሄዳል	-10.3678
ርቃ	-10.3684
ሥራውን	-10.3685
ዮርዳኖስ	-10.3692
ሰዓት	-10.3693
▁ኃያላን	-10.3696
▁መክሊት	-10.3698
▁ፍጹም	-10.3698
▁እያንዳንዱ	-10.3705
▁አድርጌ	-10.3719
▁አሳልፌ	-10.3723
ጠሩት	-10.3726
ባቢሎን	-10.3727
▁ዙፋን	-10.373
ኢዮስያስ	-10.3733
ተገኘ	-10.3756
በኢየሱስ	-10.3757
▁እንዳዘዘ	-10.3765
▁ተቀመጠ።	-10.3772
▁ተናገረ	-10.3777
መንፈሱ	-10.3779
መጋረጆች	-10.3779
ምኵራብ	-10.3779
ሰውዮው	-10.3779
ተቀበረ	-10.3779
ነገሩን	-10.3779
ነገሮች	-10.3779
ነፍሰ	-10.3779
አባታችሁ	-10.3779
የተለወሰ	-10.3779
ይነሣል	-10.3779
ተነሥተህ	-10.3779
አጥንት	-10.3781
ትሄድ	-10.3781
አብረው	-10.3782
የተቈጠሩት	-10.3783
ይወድቃል	-10.3784
መጥቶአል	-10.3785
ይናገር	-10.3787
ያላቸው	-10.3794
▁ሄደ፤	-10.3795
▁የያዕቆብ	-10.3795
▁ኢያሱ	-10.38
በላዬ	-10.3801
የተናገረውን	-10.3804
ወንድም	-10.3808
ያድርግ	-10.3822
ባሉት	-10.3824
▁አንበሳ	-10.3834
ይበላችሁ	-10.385
ቀንደ	-10.3851
ማርያም	-10.3854
ድብ	-10.3854
ኃጢአታቸውን	-10.3856
▁ይህችን	-10.3864
▁ገብቶ	-10.3874
ከበር	-10.3875
ውኃውም	-10.3882
▁በመካከላቸው	-10.3893
በብዙ	-10.3894
ብሎአልና	-10.3894
▁ይላሉ።	-10.3895
መልሱ	-10.3895
▁አገባ	-10.3899
▁መጋረጃ	-10.3901
ተሰማ	-10.3925
የቀረውም	-10.3934
መጣች	-10.3952
በልብህ	-10.3971
በርሳቸው	-10.3986
በአንድነት	-10.3989
ተጽፎአል	-10.3999
ያውቃሉ	-10.4002
▁የታመነ	-10.4002
▁እባክህ	-10.4002
▁ከእርስዋ	-10.4011
ጣፋጭ	-10.4019
አገልግሎት	-10.402
ነፍሴን	-10.4025
▁ከሰው	-10.4025
በፈርዖን	-10.4026
መልአኩ	-10.4027
ራእዩ	-10.4027
ሴይር	-10.4027
ቃዴስ	-10.4027
በመካከላችሁ	-10.4027
ነደደ	-10.4027
አህዮች	-10.4027
አሜስያስ	-10.4027
አታድርጉ	-10.4027
አገሮች	-10.4027
ከደቀ	-10.4027
ዓረባ	-10.4027
የሚሰማ	-10.4027
ይሄዳሉ	-10.4027
ደርሶአል	-10.4027
▁ልጁም	-10.4027
ይቀር	-10.4027
አካዝያስ	-10.4027
ይሄድ	-10.403
▁አገኘ	-10.405
▁የበግ	-10.4071
▁በግብጽ	-10.409
እናቱን	-10.4096
▁እንዳዘዘው	-10.4099
የተቀደሰ	-10.4114
▁እነዚህም	-10.4124
ከበረ	-10.4127
በእጅህ	-10.4129
ይገደል	-10.4134
በይሁዳም	-10.4135
▁ዮሴፍም	-10.4144
የነበሩ	-10.4149
▁ደጃፍ	-10.4156
የነበሩት	-10.4158
ከብር	-10.4161
አይችልም	-10.4169
ገደል	-10.4187
▁የኢየሱስ	-10.4193
▁በኵር	-10.4195
▁ዘወር	-10.4196
ወሰደው	-10.4211
ቀንበር	-10.4218
▁ሠራ።	-10.4222
ከፈተ	-10.4231
▁ሰውን	-10.4234
ወደደ	-10.4234
▁መለሰ	-10.424
መርከብ	-10.4248
ይወድቃሉ	-10.4253
▁በእምነት	-10.4255
▁ሳሙኤልም	-10.4257
ምስክሩ	-10.4258
▁በአንቺ	-10.4268
ገባችሁ	-10.4276
ኢትዮጵያ	-10.4277
በአሥራ	-10.428
ታላቂቱ	-10.4281
ትንሣኤ	-10.4281
ነበልባል	-10.4281
አቢሜሌክ	-10.4281
አንዳንዶች	-10.4281
እናቴ	-10.4281
ዓመታት	-10.4281
ዓዛርያስ	-10.4281
የሚሄድ	-10.4281
የሚበላ	-10.4281
አስተዋይ	-10.4281
ስእለት	-10.4281
ልባችሁ	-10.4281
መርገም	-10.4281
▁ወለደ።	-10.4284
እጥፍ	-10.4285
▁ሆነች	-10.4288
▁ተነሥተው	-10.4293
▁ማደሪያ	-10.4295
ተሰብስበው	-10.4295
▁በረከት	-10.4296
ጥራቸው	-10.4296
ይበላሉ	-10.4297
ውረድ	-10.431
ባልንጀራህ	-10.431
▁ጠጕር	-10.4312
▁ነውን	-10.4338
በከንቱ	-10.434
ነበረበት	-10.4344
ለምኑ	-10.4347
በላው	-10.4364
▁ሰልፍ	-10.4365
ኃጢአትን	-10.4369
▁ምሕረቱ	-10.4374
▁ነበረና	-10.4388
አለችው	-10.439
ሰረገላው	-10.4391
ሠራ፥	-10.4394
ለዳዊት	-10.4396
እግርህ	-10.4396
ሆና	-10.4404
ይወድ	-10.4404
▁አሮንን	-10.4407
ወርቅና	-10.4411
አይሆንም	-10.4414
ተመለስ	-10.4419
▁አልነበረም።	-10.442
▁በጽድቅ	-10.4426
ተከተሉ	-10.4426
▁ምናልባት	-10.4436
▁እንዳደረገ	-10.4436
ስማቸው	-10.4439
ምሕረቱ	-10.4447
ሁላቸው	-10.4448
ሳለህ	-10.4449
ወሰዱት	-10.445
ወደዚያ	-10.4462
ጠራሁ	-10.4463
በፊታቸው	-10.449
አባትዋ	-10.4505
ሳሙኤልም	-10.4513
በሰማ	-10.4524
▁በገባ	-10.4541
ጠበቁ	-10.4542
መንገዴ	-10.4542
ርኵስ	-10.4542
ፈለገ	-10.4542
ሐማት	-10.4542
መጐናጸፊያ	-10.4542
ማዕድ	-10.4542
ምስክሮች	-10.4542
ሰልፈኞች	-10.4542
ሸማያ	-10.4542
ቅድስና	-10.4542
አለቀሰ	-10.4542
አርነት	-10.4542
አድርጋችሁ	-10.4542
እመልሳለሁ	-10.4542
ወንድሞቻችሁ	-10.4542
ያደርጋሉ	-10.4542
ግብዣ	-10.4542
ፈቃዱ	-10.4542
ፊልጶስ	-10.4542
▁ፊቱን	-10.4542
መብራት	-10.4542
ሲናገር	-10.4542
አንገት	-10.4544
ባለጠግነት	-10.4544
ባልንጀራውን	-10.4545
▁መግቢያ	-10.4546
በኤፍሬም	-10.4556
ጥርስ	-10.4558
ይሰጥ	-10.4564
▁አሕዛብን	-10.4566
የተቀደሰውን	-10.4583
▁የሚያደርግ	-10.4584
▁አለን	-10.4588
በራሱ	-10.4589
▁ኢየሱስን	-10.4598
እናትህ	-10.4608
▁ስድሳ	-10.4609
ይስሐቅም	-10.4623
ከፀሐይ	-10.4641
▁መጣ፤	-10.4653
▁ራእይ	-10.4659
▁ይኖራል	-10.4664
ይውጣ	-10.4669
ይመልስ	-10.4673
▁ነፍሱን	-10.4683
▁እግር	-10.4686
እርም	-10.4689
ልመና	-10.469
ማኅበር	-10.4696
▁የይሁዳን	-10.4697
ላላችሁ	-10.4701
የእስራኤልንም	-10.4709
▁ግምጃ	-10.472
▁የሚገባ	-10.4721
▁እምነት	-10.4724
እነዚያም	-10.4728
▁መልካሙን	-10.4735
▁ወጥተው	-10.4735
▁ዱቄት	-10.4736
የተወለደ	-10.474
አሮንን	-10.4747
▁ግንብ	-10.4754
እኅት	-10.4766
ተባለ	-10.4779
በእኛ	-10.4783
ይጠራ	-10.4783
ጲላጦስ	-10.4788
ወለድ	-10.4791
▁ይመጣል፥	-10.4797
ሐናንያ	-10.481
ቅዱሳኑ	-10.481
ኪዳኔን	-10.481
ካሌብ	-10.481
የሚበልጥ	-10.481
የሚኖሩትን	-10.481
ጠይቁ	-10.481
ጸለየ	-10.481
ኃይልህ	-10.481
▁የአንድ	-10.4811
ጠቦት	-10.4811
ገድል	-10.4817
ድስት	-10.4826
መረጠው	-10.4828
አድርጎአል	-10.4833
▁እንቢ	-10.4835
▁በመገናኛው	-10.4837
ይሰጡ	-10.4839
▁በምሥራቅ	-10.484
ስጥ	-10.4847
▁ዝናብ	-10.4853
አመጡ	-10.4858
መንገዳቸው	-10.4867
በመንፈስ	-10.4872
▁በወርቅ	-10.4872
▁እነርሱን	-10.4881
▁ከኢየሩሳሌም	-10.4884
ማመን	-10.4884
▁የሚሆነውን	-10.489
ሌላም	-10.4898
▁ከሙታን	-10.4901
ቢኖር	-10.4901
አሰበ	-10.4905
ነበረው	-10.4921
በሌሊት	-10.4924
በዮርዳኖስ	-10.4934
ሰማያዊ	-10.4936
ፈሰሰ	-10.4937
ያምኑ	-10.494
▁በባቢሎን	-10.4958
አመስግኑ	-10.4969
አገባ	-10.4982
የብር	-10.4994
▁አሉ፤	-10.5
የፈርዖን	-10.5002
▁ላከ።	-10.5012
▁በእርስዋ	-10.5017
የምድርም	-10.5018
በስተ	-10.5025
▁በደስታ	-10.5026
▁ሕዝቡንም	-10.5029
▁የተጻፈ	-10.5037
▁እግዚአብሔርንም	-10.5038
ላማ	-10.5038
▁በሰሜን	-10.5044
▁ያደረገውን	-10.5045
▁አቤሴሎም	-10.505
ጠጕር	-10.5051
ይወጣል	-10.5052
ተቀበል	-10.5066
ከእኔም	-10.507
ያቀርቡ	-10.5085
ያጠፉ	-10.5085
ላሞች	-10.5085
መሣሪያ	-10.5085
ምስሎች	-10.5085
አንዳንዶቹ	-10.5085
አይሁዳዊ	-10.5085
አይገኝም	-10.5085
ከተሞቻቸው	-10.5085
የሚሉት	-10.5085
ያገኝ	-10.5085
ፈልገው	-10.5085
ይለኛል	-10.5085
ራሳችን	-10.5085
እጆች	-10.5086
ገብተው	-10.5086
መግባት	-10.5087
ረጅም	-10.5089
እጅህን	-10.5097
የዚያን	-10.5098
አደራ	-10.5105
ለእስራኤልም	-10.5106
እንዲሆኑ	-10.5121
ግልጥ	-10.5136
▁በኋላ፥	-10.5139
በዙሪያውም	-10.514
አመድ	-10.5145
ዳዊትና	-10.5149
ተናገራቸው	-10.515
ተመልከት	-10.516
የነበረው	-10.5161
በቤቱ	-10.5168
ሥራህ	-10.5172
▁አልዓዛር	-10.5181
▁በዙሪያው	-10.5181
ይመጡ	-10.5182
ከሰው	-10.5189
▁በመጀመሪያው	-10.5204
▁እሄዳለሁ	-10.5205
▁መባ	-10.5214
▁ተባት	-10.5217
ኑ፥	-10.5219
▁ግብጽ	-10.5234
▁የሆኑ	-10.5247
ያገኙ	-10.5252
▁መድኃኒት	-10.5265
እንባ	-10.5266
▁ለልጅ	-10.5268
ቸርነት	-10.527
መረጠ	-10.528
▁ርዝመቱ	-10.5289
▁ወይፈን	-10.5289
ከይሁዳ	-10.5302
ስድሳ	-10.5305
ፍርድን	-10.5311
መሠዊያውን	-10.5318
▁ሌዋውያን	-10.532
ፍርዴ	-10.5325
ፊታቸው	-10.534
ካለው	-10.5342
ለዚህ	-10.5357
ከፍልስጥኤማውያን	-10.5358
▁ውሰድ	-10.5358
▁ተመልሶ	-10.536
ጥሉ	-10.5364
መታቸው	-10.5368
ብልሃት	-10.5368
ተገረዙ	-10.5368
ትዕግሥት	-10.5368
ኃጢአታችሁ	-10.5368
አሳልፈው	-10.5368
አደርገዋለሁ	-10.5368
እጆቹ	-10.5368
ወልደ	-10.5368
ይወስዳል	-10.5368
ይፈልጉ	-10.5368
ደረቀ	-10.5368
ድምፃቸው	-10.5368
ድንጋዩ	-10.5368
መዝጊያ	-10.5368
በደለኛ	-10.5368
እንዳይሆን	-10.5369
ድንግል	-10.5371
ትላለህ	-10.5371
የዳዊት	-10.5371
አወጣ	-10.538
ከዘላለም	-10.5383
አንበጣ	-10.5383
ምናሴም	-10.5386
ትሁን	-10.5388
▁ምስል	-10.5392
ሠራተኛ	-10.54
▁የሠራ	-10.5403
ምግብ	-10.5406
ወዳለው	-10.542
የሚሆን	-10.542
▁ተነሣ፥	-10.5429
መሠዊያው	-10.5433
▁አዲስ	-10.5462
▁እጄን	-10.5464
▁ሰማያት	-10.5468
▁አብርሃምም	-10.5475
የሚቃጠለውን	-10.5479
ነፍስህ	-10.5484
ካህናቱን	-10.5491
▁ለኃጢአት	-10.5498
ኢየሱስን	-10.5502
ትጠብቅ	-10.5505
በእኔና	-10.5511
▁በልባቸው	-10.5512
▁እርሱንም	-10.5515
▁ከብዙ	-10.5518
▁በየወገናቸው	-10.5527
▁የሚቃጠል	-10.5527
ገብቶ	-10.5546
ቃሌን	-10.5551
ባሪያዎቹም	-10.5563
▁ያዕቆብን	-10.5567
▁አይተው	-10.5572
▁እርስዋን	-10.5603
እስራኤልንም	-10.5609
ሰበሰቡ	-10.5609
▁ክርስቲያን	-10.5616
ወንድሞችህ	-10.5625
▁ለእኛ	-10.5627
ውበት	-10.5634
▁አደረገ፥	-10.5641
▁ድንበር	-10.5642
▁በላቸው።	-10.5643
▁እውነተኛ	-10.5644
የሶርያ	-10.5645
ብርና	-10.5652
▁በእነዚህ	-10.5653
▁ቸርነት	-10.5653
▁ሰምቶ	-10.5655
በዚህም	-10.5659
ሄዳችሁ	-10.5659
ቀርቦአል	-10.5659
ቍርባናቸው	-10.5659
ታላቁን	-10.5659
ኃፍረተ	-10.5659
አሸዋ	-10.5659
እንቅልፍ	-10.5659
ከሰሜን	-10.5659
ከበሩ	-10.5659
ኪዳኑን	-10.5659
ወስደህ	-10.5659
የሚነካ	-10.5659
ያሳድዱ	-10.5659
ያስተምር	-10.5659
▁ኃያል	-10.5659
▁ንስሐ	-10.5659
▁አንሥቶ	-10.5659
▁ደሙን	-10.5659
መልእክተኛ	-10.566
ትበላላችሁ	-10.5661
▁ጣፋጭ	-10.5668
▁የሆነው	-10.5674
እውነተኛ	-10.5675
ድንበር	-10.5686
▁ወገን፥	-10.5689
▁በእርግጥ	-10.5692
▁በላያቸው	-10.5693
በድን	-10.5693
አላችሁ	-10.5694
አብያተ	-10.5706
ሳንቃ	-10.5707
▁ታውቃላችሁ።	-10.5711
▁አደረጉ፤	-10.5716
▁መዛሙርቱም	-10.5721
▁ያደርግ	-10.5723
አቀረቡ	-10.573
ውኃውን	-10.5731
▁በእነርሱም	-10.5744
አሳፍ	-10.5782
የሰማ	-10.5802
ደጃፍ	-10.5804
▁ከንጉሡ	-10.5843
አክዓብም	-10.5843
ሁለቱንም	-10.5854
▁አበዛ	-10.5858
▁በጽዮን	-10.5858
▁ትልቅ	-10.5858
▁ፈሳሽ	-10.5858
የአሞን	-10.5863
▁መቃብር	-10.5864
የሰሎሞን	-10.5876
ሁለቱን	-10.5879
▁ይሁዳም	-10.588
የሰማይ	-10.5882
ወጣች	-10.5884
እይ	-10.5911
ከግብጽ	-10.5912
▁ለዚህ	-10.5918
የአሕዛብ	-10.5922
ነፍሳቸው	-10.5924
▁መጡ፥	-10.5947
▁ሰጠው።	-10.5948
▁በመልካም	-10.5952
ችግረኛ	-10.5954
ርዝመት	-10.5959
ሽንገላ	-10.5959
ቅርንጫፎች	-10.5959
ቅዱሱ	-10.5959
ብርታት	-10.5959
አያሌ	-10.5959
ኢይዝራኤል	-10.5959
እንዳሉ	-10.5959
ዕውሮች	-10.5959
የሌለው	-10.5959
የሚባል	-10.5959
የተዘጋ	-10.5959
ያመሰግኑ	-10.5959
ይኖራሉ	-10.5959
ይዋጋ	-10.5959
ይጨምር	-10.5959
ጣዖታት	-10.5959
ጭንቀት	-10.5959
ፍጥረት	-10.596
እናገር	-10.5962
የተባረከ	-10.5964
ስፍራቸው	-10.5964
▁የክርስቶስ	-10.5967
መሆኑን	-10.5969
ሰማንያ	-10.5978
በሰባተኛውም	-10.5981
ወለደችለት	-10.5982
▁ሄደው	-10.6003
▁በቀን	-10.6012
▁መጡ፤	-10.6021
ብላቴናውን	-10.6023
▁የእሳት	-10.6025
▁ይችላል	-10.603
ማሰማርያ	-10.6032
▁ሳይሆን	-10.6034
▁ይመጣሉ	-10.6036
▁አንዱም	-10.6043
▁የኢየሩሳሌም	-10.6055
ሸለቆው	-10.6055
▁ከጥሩ	-10.6061
▁ማኅበር	-10.6088
▁ምድሪቱን	-10.6093
▁መሰምርያዋን፥	-10.6095
▁ይላልና።	-10.6101
የፍልስጥኤማውያን	-10.6107
ይመታ	-10.6107
ይገዛ	-10.6121
▁የተሠራ	-10.6124
ልጆችዋ	-10.613
▁ሌሎችን	-10.614
▁ጠቦቶች	-10.6146
ምላስ	-10.6147
▁በእጃቸው	-10.6153
▁መንገዱን	-10.6157
የባቢሎን	-10.6159
አቅርቡ	-10.6164
ያመልኩ	-10.6171
ተከተለ	-10.6173
አይሁን	-10.6177
▁በጨለማ	-10.6205
▁ዳግመኛ	-10.6208
▁ይጠፋል	-10.6211
መሰምርያዋን	-10.6213
▁ሁለተኛ	-10.6216
ልጆቻቸው	-10.6226
▁እንስሳ	-10.6231
እናውቃለን	-10.624
ገነት	-10.6246
▁አጠፋ	-10.6249
ያቀርብ	-10.6263
መርከቦች	-10.6269
መቅረዙ	-10.6269
መንደሮቻቸው	-10.6269
መንግሥተ	-10.6269
ሥጋቸው	-10.6269
ባለጠጋ	-10.6269
ቤታቸው	-10.6269
ተለይቶ	-10.6269
አዕማድ	-10.6269
ክርስቲያናት	-10.6269
ዘመናት	-10.6269
የሚመጣው	-10.6269
ያዘዘውን	-10.6269
ድምፁን	-10.6269
ጎዶልያስ	-10.6269
ፈጽመህ	-10.6269
እርግማን	-10.6269
ብላቴናይቱ	-10.6269
አቃጠለ	-10.6269
ከጥንት	-10.6271
▁እጅህን	-10.6277
▁አገልግሎት	-10.6277
ፍረድ	-10.6278
አቢሳ	-10.6279
▁የለምና	-10.6284
ብለዋል	-10.6285
ከአንተም	-10.6291
ድንገት	-10.6294
በሁለተኛውም	-10.6295
በሆነ	-10.6298
▁ባላ	-10.6298
ማናቸው	-10.6306
ልጅህ	-10.6314
ከአሥር	-10.6317
የማምለኪያ	-10.6329
▁ያዕቆብ	-10.6335
▁በኃይል	-10.6336
አድርጌ	-10.634
አሳልፌ	-10.634
▁አየሁ፥	-10.6342
አድነኝ	-10.6346
ይጠፋሉ	-10.6346
ተባለው	-10.6364
▁ቅዱሳን	-10.6371
▁ተቀምጠው	-10.6386
▁መምህር	-10.6386
▁ቆመው	-10.6404
▁የነበረ	-10.6425
ባለበት	-10.6457
ኃጢአተኛው	-10.6464
ልከው	-10.6465
▁በሉ።	-10.647
▁እጃቸውን	-10.6471
አውጣ	-10.6477
በፍጹም	-10.648
▁ሕልም	-10.648
▁ሞተ።	-10.648
▁ሰዎቹም	-10.648
▁በእጄ	-10.648
▁አዘዘ።	-10.648
▁ከወዴት	-10.648
▁ወንድሞቼ	-10.648
▁በፍርድ	-10.6487
ፀሐይም	-10.6499
ቃሉን	-10.6508
ሁልጊዜም	-10.6537
ትእዛዙ	-10.6545
ይመለሱ	-10.6565
▁አይደለሁም	-10.6567
▁በርሳችሁ	-10.6567
▁ታደርጋለህ	-10.6567
ሰገዱ	-10.657
ገበታ	-10.6575
ስምንተኛው	-10.658
▁ከእነዚህ	-10.6584
ሰይፉ	-10.6588
በጎነት	-10.6588
ተገዙ	-10.6588
ኃጢአታችን	-10.6588
አለቀሱ	-10.6588
ያለቅሱ	-10.6588
ግመሎች	-10.6588
መንጎች	-10.6588
መንፈሴ	-10.6588
መዛግብት	-10.6588
ቀድሞው	-10.6588
በየወገኖቻቸው	-10.6588
በግዞት	-10.6588
ተሻገሩ	-10.6588
ተዋጉ	-10.6588
ታንኳይቱ	-10.6588
ታያለህ	-10.6588
ነፍሳችሁ	-10.6588
እናደርጋለን	-10.6588
ከንፈር	-10.6588
ኬልቅያስ	-10.6588
ውስጠኛው	-10.6588
ዕቃዎች	-10.6588
የሚሄዱ	-10.6588
የሚጠብቅ	-10.6588
ይቀመጣል	-10.6588
ይቀበላል	-10.6588
ደረቅ	-10.6588
ጭፍሮች	-10.6588
ይገባዋል	-10.6588
ፈራጆች	-10.6588
ሰጡአቸው	-10.6588
ያልፋል	-10.6588
ይላቸው	-10.6588
ስርየት	-10.6589
አዋጅ	-10.659
ርብቃ	-10.6592
አድርጌአለሁ	-10.6594
▁ባይ	-10.6596
ያማረ	-10.6599
ለብሰው	-10.6601
ባደረገ	-10.6608
በሦስተኛውም	-10.6614
መጣህ	-10.6617
እባክህ	-10.662
የታመነ	-10.662
▁ኢየሩሳሌምን	-10.6621
ምስል	-10.6621
እንዳዘዘው	-10.6621
ተቀደሱ	-10.6625
▁በል።	-10.6635
▁ከሁሉ	-10.6639
▁አሮንም	-10.665
ቢሆኑ	-10.666
ቀበሩት	-10.6668
▁ስሙንም	-10.6673
በጌታችን	-10.6686
▁መልሶ	-10.669
▁እኵሌታ	-10.6697
▁ዓይነት	-10.6697
ሰማችሁ	-10.6711
አማት	-10.6729
የበግ	-10.6748
ደሴቶች	-10.6752
▁ስለዚህ፥	-10.6757
▁የከበረ	-10.6758
▁ለራሱ	-10.6762
ተሳለ	-10.6779
የተባለ	-10.6779
በመካከላቸውም	-10.6787
ትቢያ	-10.6788
የአባቶች	-10.6791
▁ለያዕቆብ	-10.6795
በእጃችሁ	-10.6802
▁ፍርሃት	-10.681
ሳባ	-10.6817
አብያ	-10.6819
ሙሴንና	-10.6821
ተባት	-10.6824
▁የካህናት	-10.6837
ገደሉት	-10.684
▁መስገጃዎች	-10.6853
▁ኢዮሣፍጥ	-10.6863
▁ከአንቺ	-10.6869
ባልንጀራ	-10.6871
ዕቃውን	-10.6875
ቍጣህ	-10.6882
ተዋጋ	-10.6886
▁በዚህች	-10.6888
▁ሰዎችም	-10.6892
ዕጣንም	-10.6898
የዚያ	-10.6899
ይገዙ	-10.6901
ወንድሞቹን	-10.6902
ምድሪቱን	-10.6907
ተነሥተው	-10.6907
ቢወድ	-10.6908
▁በድንጋይ	-10.6909
መያዣ	-10.6912
መጠጊያ	-10.6914
ተሰወረ	-10.6915
ወገኑ	-10.6915
አዘጋጅ	-10.6918
መለከቱን	-10.6918
በኢያሪኮ	-10.6918
ቡቃያ	-10.6918
አልሰሙም	-10.6918
አማሌቅ	-10.6918
አኖራለሁ	-10.6918
አያውቅም	-10.6918
እርሾ	-10.6918
እያንዳንዳችሁ	-10.6918
ዕድሜው	-10.6918
ይኸውም	-10.6918
የላቸውም	-10.6918
አደረግህ	-10.6918
መቃብሩ	-10.6918
አንተና	-10.6918
ፍርዱ	-10.6919
ትናገር	-10.6925
ወጥቶአል	-10.6928
▁በቍጣ	-10.6932
ሳፋን	-10.6936
በስብ	-10.6939
▁ይገባል	-10.6942
አጥብ	-10.6952
ባሪያውን	-10.6953
ከተሞችና	-10.6954
በግብጽ	-10.696
በገለዓድ	-10.6961
በልባችሁ	-10.6961
ምድሪቱንም	-10.6961
አሥረኛው	-10.6969
▁ክፋትን	-10.6969
▁ማርያም	-10.6983
በእምነት	-10.6993
ያያሉ	-10.7008
ተጠራ	-10.7009
የኢየሱስ	-10.7038
አይደሉም	-10.7043
ያየው	-10.7043
ጠቦቶች	-10.7051
እንዳደረገ	-10.7054
ምናልባት	-10.7054
ማድረግ	-10.7055
ትላላችሁ	-10.7062
በጽድቅ	-10.7066
▁ባሪያዬ	-10.7066
ሞላበት	-10.7071
▁ትቢያ	-10.7075
▁ንጉሡን	-10.7077
▁ነበረው	-10.7079
▁ጴጥሮስም	-10.7088
ሐሰትን	-10.7096
አፈሰሰ	-10.7098
▁ይኖራል።	-10.7116
ይለው	-10.7118
መልእክተኞችን	-10.7122
ንስር	-10.7127
ሌላውም	-10.714
▁ነህና	-10.7144
▁በዓለም	-10.7147
የያዕቆብ	-10.7154
አስብ	-10.7175
ይህችን	-10.7178
▁የሕይወት	-10.7178
▁ተናገራቸው።	-10.7178
▁ደመና	-10.718
በአንቺ	-10.7186
ጴጥሮስም	-10.7187
▁ነገርን	-10.7188
ከምሥራቅ	-10.719
የሚያደርግ	-10.7203
▁ስሙ፤	-10.7208
መንደሮች	-10.7211
እግዚአብሔርንም	-10.7226
በመካከላቸው	-10.7233
ልባችሁን	-10.7234
ሰጠሁ	-10.7235
በቤቱም	-10.7249
▁እንዳለው	-10.7252
▁ምስጋና	-10.7253
ለደቀ	-10.7258
መስገጃ	-10.7258
መታጠቂያ	-10.7258
መከሩ	-10.7258
መክደኛ	-10.7258
መገረዝ	-10.7258
ሰልፉ	-10.7258
ቅድስተ	-10.7258
በረሃ	-10.7258
በነጋውም	-10.7258
ተናግሬአለሁ	-10.7258
ታምኑ	-10.7258
አሚናዳብ	-10.7258
አስቡ	-10.7258
አብያታር	-10.7258
አይደላችሁም	-10.7258
ኤልያብ	-10.7258
ከቤተ	-10.7258
ክህነት	-10.7258
ወዮላቸው	-10.7258
ዘርግቶ	-10.7258
የሚሰጥ	-10.7258
የሚቀመጥ	-10.7258
ድንበሩም	-10.7258
ጥቂቶች	-10.7258
ጦርነት	-10.7258
በርናባስ	-10.7259
ብድራት	-10.7259
ምድራችሁ	-10.7259
እንደዚሁ	-10.7259
ገደላቸው	-10.726
ከፊትህ	-10.7272
▁ስምዖን	-10.7279
▁ሁላችሁ	-10.7291
ተወለዱ	-10.7292
ለመነው	-10.7292
ረከሱ	-10.73
ወጣሁ	-10.7307
የተወደደ	-10.7315
በነበረው	-10.7329
ጥዋት	-10.7342
▁ከዳዊት	-10.7349
የሚገባ	-10.7352
ዱቄት	-10.7354
ወይፈን	-10.7354
ወጥተው	-10.7355
መልካሙን	-10.7355
ርዝመቱ	-10.7355
ከእርስዋ	-10.737
▁መጀመሪያ	-10.7382
ከመጀመሪያ	-10.7387
በረቱ	-10.7388
መልእክተኞች	-10.7397
ድሆች	-10.7398
▁በገዛ	-10.7404
▁ያደርጋል።	-10.7434
▁ጠርቶ።	-10.7442
▁የእኔ	-10.7456
የፊተኛው	-10.7457
ለእርሱም	-10.746
ከባቢሎን	-10.7464
ነገሩት	-10.7464
ሆነዋል	-10.7468
▁የሰውን	-10.7488
▁ስማ፤	-10.7502
▁ገባ።	-10.751
ሦስተኛ	-10.7515
በማደሪያው	-10.7529
▁ነበሩ፥	-10.7542
ብልህ	-10.7549
ነፍሱን	-10.7559
በምሥራቅ	-10.756
በመገናኛው	-10.7564
▁ልጆችህ	-10.7572
ይስማ	-10.7601
ከኢየሩሳሌም	-10.7601
የገለዓድ	-10.7602
▁ያደርጉ	-10.7607
ሰገደ	-10.7608
ተናግሮ	-10.7611
መሳፍንት	-10.7611
መድኃኒቴ	-10.7611
ሜሱላም	-10.7611
ቁርበቱ	-10.7611
ተጠንቀቅ	-10.7611
አላውቅም	-10.7611
አምኖን	-10.7611
አውሬው	-10.7611
አደረጋቸው	-10.7611
አድርገሃል	-10.7611
ኢያቢስ	-10.7611
እስትንፋስ	-10.7611
ወገኔ	-10.7611
ዘለፋ	-10.7611
የሚያስፈራ	-10.7611
ያደርገው	-10.7611
ይቀመጣሉ	-10.7611
ዲያብሎስ	-10.7611
ገንዘቡ	-10.7611
ተከትለው	-10.7611
መሰከረ	-10.7611
በላያችን	-10.7612
ያስተውሉ	-10.7612
አመጣለሁ	-10.7612
ያቀርባል	-10.7612
ሰደዱ	-10.7612
ይሰጠዋል	-10.7614
ተደፋ	-10.7614
መምጣት	-10.7616
ለወንድሞቹም	-10.7621
ገብስ	-10.7629
ጠበቀ	-10.7629
አትበል	-10.7631
ሰገነት	-10.7638
ለዘላለምም	-10.7638
ልማድ	-10.7643
አምላክህም	-10.7648
▁ያውቃሉ።	-10.7652
በደስታ	-10.7656
በራሳቸው	-10.7656
▁ይሁኑ።	-10.7657
የተጻፈ	-10.7664
በሰሜን	-10.7664
ክርስቲያን	-10.7664
በባቢሎን	-10.7669
ያደረገውን	-10.7672
የሌለበት	-10.7681
የተነገረ	-10.7702
እሴይ	-10.7703
አልቻሉም	-10.7704
ይመለሳል	-10.7704
የሚሆነውን	-10.7705
ይደርስ	-10.7747
ሕዝብህን	-10.7753
ዋልና፥	-10.7776
እሆን	-10.7782
ዘርፍ	-10.7789
እርሱንም	-10.7798
▁ልጅህ	-10.7809
ከአሥራ	-10.7815
እሄዳለሁ	-10.782
በመጀመሪያው	-10.7826
ከከተማይቱ	-10.7828
ሥራችሁ	-10.7836
ባረከ	-10.7852
▁ነህ፤	-10.7854
ካራ	-10.7856
ሐዋርያ	-10.7862
ለመኑ	-10.7872
ሆንን	-10.7873
▁አየሁ፤	-10.7902
▁ይሆናሉ፤	-10.7906
ትገባ	-10.7913
ብሎአል	-10.792
▁ተመለሱ።	-10.7922
▁ይሆናልና	-10.7931
የተጠራ	-10.7935
ይባላል	-10.7951
ተሰጠው	-10.796
ልጆቻችን	-10.7977
መሥዋዕቱ	-10.7977
መቄዶንያ	-10.7977
መጻሕፍት	-10.7977
ሚክያስ	-10.7977
ምርኮኞች	-10.7977
ሠራተኞች	-10.7977
በየዓመቱ	-10.7977
ባኦስ	-10.7977
ተርሴስ	-10.7977
ተቀበላችሁ	-10.7977
ንግሥቲቱ	-10.7977
አመሰግንሃለሁ	-10.7977
አቁማዳ	-10.7977
እምነታችሁ	-10.7977
የሚያህል	-10.7977
ይባርክ	-10.7977
ጕድጓዱ	-10.7977
ፈሳሾች	-10.7977
ፍልስጥኤም	-10.7977
ይመለሳሉ	-10.7977
አንገቱ	-10.7978
አዲሱ	-10.7978
ለመለመ	-10.7978
መከራቸው	-10.798
መብላት	-10.798
ከመስፈሪያው	-10.798
ጆሮአቸው	-10.798
ላደርግ	-10.7981
እንግዲያስ	-10.7985
የሆኑት	-10.7992
ወደድሁ	-10.7999
ውደድ	-10.8008
ማደሪያውን	-10.8039
የአምላክህን	-10.8068
▁በመጡ	-10.8069
▁መውጫ	-10.8095
ግቢ	-10.8099
በከተማይቱም	-10.8104
ትርፍ	-10.8111
በየወገናቸው	-10.8147
የሚቃጠል	-10.8147
ይስጥ	-10.8149
በሌሊትም	-10.8155
የተሠራ	-10.8156
ተመልሶ	-10.8166
መዛሙርቱም	-10.8171
አይተው	-10.8192
▁ሙሴን።	-10.8208
ሁለተኛ	-10.8214
▁ቸር	-10.8228
ትበላ	-10.8229
አሕዛብንም	-10.8232
▁እህል	-10.8237
ወደዱ	-10.825
▁ዳዊትም።	-10.8252
ይገቡ	-10.8258
ይጠጣ	-10.826
▁እውነትን	-10.8266
በልባቸው	-10.827
▁በብር	-10.8274
ልጆቻቸውም	-10.8294
ቈረጠ	-10.8307
የተመረጡ	-10.8309
ልብሳቸው	-10.8314
በላያቸው	-10.8314
በእርግጥ	-10.8314
▁ራስህን	-10.8329
አውድማ	-10.834
ባርኩ	-10.8357
ማረኝ	-10.8357
ማኅተም	-10.8357
ሰረገሎቹ	-10.8357
ሳንቆች	-10.8357
ቀርሜሎስ	-10.8357
ቀደመው	-10.8357
ቀደደ	-10.8357
ቈነጃጅት	-10.8357
አለቆቹም	-10.8357
አማካሪ	-10.8357
አሳልፈህ	-10.8357
አንበሶች	-10.8357
አይደለህም	-10.8357
አድምጡ	-10.8357
አዶንያስ	-10.8357
አገልጋይ	-10.8357
እንኪያስ	-10.8357
እንደሚሆን	-10.8357
እንደሚገባ	-10.8357
ክንዱ	-10.8357
ወይፈኖች	-10.8357
ወዳለበት	-10.8357
የሚጠሉ	-10.8357
ያመነ	-10.8357
ይሞታሉ	-10.8357
ዳሰሰ	-10.8357
ፀነሰች	-10.8357
▁ክንፍ	-10.8357
ይሁንላችሁ	-10.8358
እግራቸው	-10.8358
ልባችን	-10.8359
ደከመ	-10.8383
ተድላ	-10.8384
የሆነው	-10.8388
ሲሄዱ	-10.839
▁ጀመር።	-10.8404
ይጠብቅ	-10.8405
ይኑር	-10.8408
ሳላችሁ	-10.8418
▁መጥቶ።	-10.8422
ምድርንም	-10.8435
▁አለው፥	-10.8454
ሰጠህ	-10.8477
አድን	-10.848
የወይኑ	-10.8482
ጣሉት	-10.8485
▁ሰጣቸው።	-10.8501
አደባባዩ	-10.8511
በመልካም	-10.8515
ትሄዱ	-10.852
▁በእርሻ	-10.8523
ከምድርም	-10.8536
በዙሪያው	-10.8537
በእርስዋ	-10.8576
▁በጎች፥	-10.8587
▁ክፉውን	-10.8619
▁አዘዛቸው።	-10.864
ይመጣሉ	-10.8653
▁በሁለቱ	-10.8657
ቀርባ	-10.8659
ይችላል	-10.8659
በንጉሡም	-10.868
በሕዝብህ	-10.8686
ገባች	-10.8703
ሳይሆን	-10.8712
▁ሄዱ፤	-10.8712
የክርስቶስ	-10.8713
ይላቸዋል	-10.8721
አብራምም	-10.8729
ሁለተኛውንም	-10.873
የእሳት	-10.8738
መልክተኞች	-10.8752
መንፈሳዊ	-10.8752
መጥመቂያ	-10.8752
ቀድሱ	-10.8752
በቅንነት	-10.8752
በውስጡ	-10.8752
በዙሪያዋ	-10.8752
አስጨናቂ	-10.8752
አንዳንድ	-10.8752
አውጥቶ	-10.8752
አገልጋዮች	-10.8752
ኢዮአታም	-10.8752
እሰጣቸዋለሁ	-10.8752
ዕብራውያን	-10.8752
ዘሩባቤል	-10.8752
የምትኖሩ	-10.8752
የዝግባ	-10.8752
ይበሉታል	-10.8752
ይፈርድ	-10.8752
ጌድሶን	-10.8752
ጠላቶቻችሁ	-10.8752
ጽላቶች	-10.8752
ፊንሐስ	-10.8752
ጭልፋ	-10.8752
ራፋይም	-10.8752
ይመስል	-10.8753
▁ለማን	-10.8754
መበለት	-10.8754
ሰምቶአል	-10.8758
ታችኛው	-10.8763
ማለላቸው	-10.8766
በውስጥዋ	-10.8766
የከበረ	-10.8767
ያልሆነ	-10.8777
ናባጥ	-10.8778
ሰማይንና	-10.8795
የተባለች	-10.8807
▁አለቆችም	-10.8816
ሳውል	-10.8821
መስገጃዎች	-10.883
ይጠፋል	-10.8832
ባይሆን	-10.8844
ምስጋናው	-10.8856
እነዚያን	-10.8869
ሳኦልና	-10.888
ዳግመኛ	-10.8882
▁ሰሜን	-10.8887
▁ዓምድ	-10.8887
▁የሮቤል	-10.8887
ማኅበሩም	-10.8891
በአሕዛብም	-10.8896
የኢየሩሳሌም	-10.8896
በእጃቸው	-10.8897
ካደ	-10.8902
▁ስምህን	-10.892
አመስግኑት	-10.8922
▁በሁለት	-10.8923
▁አለቃ፥	-10.8927
ጥለው	-10.8929
▁ያደርጋል፤	-10.8933
ለአባቶቻቸው	-10.8941
ኔር	-10.8969
▁ተቀመጠ፤	-10.8972
▁ተናገሩ።	-10.898
የአደባባዩ	-10.8998
ማደሪያውም	-10.8999
▁የመቶ	-10.9005
በጨለማ	-10.9008
ተቀምጠው	-10.9008
መምህር	-10.9009
ራስዋን	-10.9013
▁በደረሰ	-10.9022
ካህናቱና	-10.9064
ተቀመጠች	-10.9076
▁አላቸው፤	-10.9081
የቀረው	-10.9088
ረከሰ	-10.9095
ወለዱ	-10.9113
ኢያሱን	-10.9123
▁አድርግ፤	-10.9126
ይወጣ	-10.9127
አጠፋ	-10.913
ባደረ	-10.9144
ትእዛዛት	-10.916
የሚቀመጡ	-10.916
መቀመጥ	-10.9163
መናወጥ	-10.9163
መኳንንት	-10.9163
ማስተስረያ	-10.9163
ምስጉን	-10.9163
ሰምቻለሁ	-10.9163
ሳያውቅ	-10.9163
ሴቲቱን	-10.9163
በሌለበት	-10.9163
በረኞች	-10.9163
በግምባሩ	-10.9163
ብላቴኖች	-10.9163
ተደነቁ	-10.9163
ታላላቅ	-10.9163
ታደርጋላችሁ	-10.9163
ትዕቢተኞች	-10.9163
ችግረኞች	-10.9163
አንዳንዱ	-10.9163
አዛሄል	-10.9163
አደርግሃለሁ	-10.9163
እሰጣችኋለሁ	-10.9163
እጆቼ	-10.9163
ዓይኑን	-10.9163
የሚጠብቁ	-10.9163
የቀሩትም	-10.9163
ይሆንላችኋል	-10.9163
ይፈርዳል	-10.9163
ገሞራ	-10.9163
ጣዖቶቻቸው	-10.9163
ጨረሰ	-10.9163
ፈጥነህ	-10.9163
ማድጋ	-10.9163
ደንቆሮ	-10.9163
መረጥሁ	-10.9163
ያቃጥለዋል	-10.9163
መግደል	-10.9163
ተዋቸው	-10.9163
ይገለጥ	-10.9163
ይመስላል	-10.9163
ካለችው	-10.9164
ጣለው	-10.9166
ከግራር	-10.9166
አያለሁ	-10.9167
ቃላችሁ	-10.9167
ሰማይም	-10.9168
ኢዮርብዓምም	-10.918
የከተማው	-10.9188
ታደርጋለህ	-10.919
አይደለሁም	-10.919
በርሳችሁ	-10.919
▁ስሙን	-10.92
▁እንደሆነ	-10.9205
▁በሦስት	-10.9206
ወጣችሁ	-10.9236
ለበጠ	-10.9243
ተከፈተ	-10.9245
ባረከው	-10.9269
በሲና	-10.9276
አታውቁምን	-10.9281
መረብ	-10.9292
ሄደች	-10.9319
ስድስተኛው	-10.932
▁ሕግን	-10.9354
ለእኛ	-10.9361
ለኃጢአትም	-10.9365
ከተማይቱንም	-10.9392
በተቀደሰው	-10.9396
በፍርድ	-10.9402
▁የአይሁድ	-10.9406
▁ይሁን፥	-10.9427
ቀለበት	-10.9432
አቅርብ	-10.9436
▁ሀብት	-10.9447
ቃሉንም	-10.9465
የንጉሡንም	-10.9465
በጣም	-10.9488
ያገኘ	-10.9495
▁ሰማሁ።	-10.9504
በዚህች	-10.9509
የካህናት	-10.9536
▁ተመለሰ።	-10.9541
ቀደሱ	-10.9542
ያያል	-10.9547
ሥርዓቱ	-10.9548
▁ከኢየሱስ	-10.9553
▁ወሰደ፥	-10.9559
ይገባል	-10.9571
ከአንቺ	-10.9571
▁የኃጢአት	-10.958
ላደረገ	-10.9584
ፈረደ	-10.9588
እንዴትስ	-10.9589
ቀደሰ	-10.9589
መዓካ	-10.9592
መዕሤያ	-10.9592
ሰውነቱ	-10.9592
ሰውነትህ	-10.9592
ሰዎቹን	-10.9592
በታቦቱ	-10.9592
በዙሪያቸው	-10.9592
ትሆናላችሁ	-10.9592
ትኖራለች	-10.9592
አላወቁም	-10.9592
አርኖን	-10.9592
አታድርግ	-10.9592
አኖራቸው	-10.9592
አያውቁም	-10.9592
ኤልዛቤል	-10.9592
ኤፍራጥስ	-10.9592
እወዳለሁ	-10.9592
የላከኝ	-10.9592
የሚበሉ	-10.9592
የሚያምን	-10.9592
የሚያውቅ	-10.9592
የሚያደርገው	-10.9592
የበኵር	-10.9592
ይባረክ	-10.9592
ይወርዳል	-10.9592
ደመወዝ	-10.9592
ገዳይ	-10.9592
ጕልማሶች	-10.9592
ጠባቂዎች	-10.9592
ፋሬስ	-10.9592
ትዕማር	-10.9592
ኑኃሚን	-10.9592
ያከብሩ	-10.9592
ትችላለህ	-10.9592
ተቃጠለ	-10.9592
ሁለተኛይቱ	-10.9592
አልወደደም	-10.9592
▁አየ፤	-10.9592
እንድትሆን	-10.9592
ይጠብቃል	-10.9592
መስጠት	-10.9592
ይበልጣል	-10.9594
ይጥፋ	-10.9596
ደማቸው	-10.9598
በአገርህ	-10.9602
ማየት	-10.9603
የተጠላ	-10.9603
የሚገባውን	-10.9617
▁ለአሥራ	-10.962
አትበሉ	-10.9631
ለማገልገል	-10.9632
▁በአምላካችን	-10.9648
መጣበት	-10.9665
▁ሠራ፤	-10.9675
▁ለምድር	-10.9678
ጣላቸው	-10.968
ለራሱ	-10.9691
ተነሥቶም	-10.97
▁በፊቱም	-10.9702
የተመረጠ	-10.9712
ዔሳውም	-10.972
ፍሬውን	-10.9724
ለአባቱ	-10.9724
▁በአልጋ	-10.9739
▁ቀስት	-10.9739
▁ብፁዓን	-10.9739
▁ነህ፥	-10.9739
እጃችሁ	-10.9744
ከሰፈሩ	-10.9747
እሺ	-10.9757
▁ነገሩት።	-10.9774
በለጠ	-10.9777
▁ጠራው።	-10.9795
በለዓምም	-10.9799
አኖረው	-10.9812
▁አየሁ።	-10.9825
▁አደርጋለሁ።	-10.9836
ልባቸውን	-10.9842
▁ያለበትን	-10.9856
የሕይወት	-10.986
ስንት	-10.9862
ተናገርህ	-10.9879
▁ከሁለት	-10.9919
ተወለደ	-10.9919
የዓለም	-10.9951
▁የዚህን	-10.9951
ዔር	-10.9961
▁ናት፥	-10.9974
አምጣ	-10.9996
የሠራዊቱ	-10.9999
እስኪመጣ	-11.0018
ሰበረ	-11.0028
ይወስድ	-11.0037
ለብቻው	-11.0039
ሕፃኑን	-11.0039
መላእክቱ	-11.0039
መጽናናት	-11.0039
ማኪር	-11.0039
ምሰሶች	-11.0039
ምንጮች	-11.0039
በምድሩ	-11.0039
ተማከሩ	-11.0039
ተሰለፉ	-11.0039
ትርጓሜ	-11.0039
ኀጥእ	-11.0039
ነፍሳት	-11.0039
አመሰግናለሁ	-11.0039
አማልክቶቻቸው	-11.0039
አሰኘ	-11.0039
አስቀድመው	-11.0039
እጃችን	-11.0039
ከንፈሮች	-11.0039
ኪሩቤልም	-11.0039
ይቀበል	-11.0039
ይጮኻሉ	-11.0039
ደነገጠ	-11.0039
▁ማታም	-11.0039
▁ሞተ፥	-11.0039
▁ቍስል	-11.0039
መንገዳችሁ	-11.0039
መጋቢ	-11.0039
ኢያቡስ	-11.0039
የሚያውቁ	-11.0039
የማይገባ	-11.0039
ይገድሉ	-11.0039
ያገኛል	-11.0039
ተናግሮአልና	-11.0039
እናድርግ	-11.0039
ብልጥግና	-11.004
እስራት	-11.004
በአጠገቡ	-11.0041
ብቻዬን	-11.0041
ይድናል	-11.0041
ደካማ	-11.0041
ልብህን	-11.0041
ይገባሉ	-11.0041
አወጣቸው	-11.0042
ወርደው	-11.0045
▁በተራሮች	-11.0045
አላደረገም	-11.0047
የኮረብታው	-11.0047
የተደረገው	-11.0048
ላይኛው	-11.0056
ፈራጅ	-11.0057
▁መለሰለት።	-11.006
ስምህም	-11.0073
አመኑ	-11.0076
ትእዛዝህን	-11.0081
የናሱ	-11.0097
የአምላካችንን	-11.0101
አስመጣ	-11.0104
ለበሱ	-11.011
ለመሥራት	-11.0112
ሄድሁ	-11.0149
▁ይመጣል።	-11.0149
የያዕቆብም	-11.0153
ስጠን	-11.0161
ሠራበት	-11.0168
▁እጅህ	-11.0175
ሽማግሌዎችም	-11.0199
በሕይወቱ	-11.026
ፍሬዋን	-11.0267
እርሱንና	-11.0268
ያጠፋል	-11.0277
በለዓምን	-11.0292
የተሞላ	-11.0293
ተጠንቀቁ	-11.0302
ደርብ	-11.0309
▁በአምላክህ	-11.0329
▁በነገሠ	-11.0337
ማልሁ	-11.0347
▁ሥጋውን	-11.0349
መከተል	-11.0363
ወንዶችንም	-11.0371
በቃሉ	-11.0378
▁ነበርና፥	-11.0385
▁ለወንድ	-11.0419
ታቀርባላችሁ	-11.048
መቀመጫ	-11.0497
የሚያደርጉ	-11.0505
ለማዳን	-11.0508
ለብቻቸው	-11.0508
መልካሚቱ	-11.0508
መቅደሴ	-11.0508
መዘምራኑ	-11.0508
መጻተኞች	-11.0508
ሰጠኋቸው	-11.0508
ሲሣራ	-11.0508
ስሕተት	-11.0508
ቁመቱም	-11.0508
ቍርባኑ	-11.0508
በሕያዋን	-11.0508
በኃይሉ	-11.0508
በዓሉ	-11.0508
ኅጥኣን	-11.0508
ነበራቸው	-11.0508
ነበራችሁ	-11.0508
ነቢያቱ	-11.0508
ነገርኋችሁ	-11.0508
ናትናኤል	-11.0508
ኖርሁ	-11.0508
አልቅሱ	-11.0508
አስጸያፊ	-11.0508
አንኩስ	-11.0508
አእላፋት	-11.0508
አኪጦፌል	-11.0508
እሰድዳለሁ	-11.0508
እንዳየ	-11.0508
ክንፎቻቸው	-11.0508
ወዮላችሁ	-11.0508
ዘበኞች	-11.0508
ዘይቱን	-11.0508
የወርቁን	-11.0508
ያስተምሩ	-11.0508
ይሆንልሃል	-11.0508
ይነሣሉ	-11.0508
ይወድዳል	-11.0508
ገደሉአቸው	-11.0508
ጕልበት	-11.0508
ጠብቀው	-11.0508
ፈጽማችሁ	-11.0508
መተላለፍ	-11.0508
አልቻለም	-11.0508
አመንዝራ	-11.0508
የሚገዛ	-11.0508
አትችሉም	-11.0508
አድርገዋል	-11.0508
ስድስቱ	-11.0508
ስጣቸው	-11.0508
መጥተህ	-11.0508
አይገባውም	-11.0508
የተቀመጡትን	-11.0509
በየትውልዳቸው	-11.051
አድምጥ	-11.051
ያስባል	-11.0512
አይጠፋም	-11.0514
የሳኦልም	-11.0514
ብሆን	-11.0516
በፋንታው	-11.0517
ብላችኋል	-11.0517
አይቀርም	-11.0518
ተወለዱለት	-11.0519
ወድደው	-11.0522
እስያ	-11.0527
መስለው	-11.0532
ከእርስዋም	-11.0533
ሰሉ	-11.0558
ታላቅና	-11.0558
ተሰበረ	-11.0561
እንስት	-11.0562
ቍጣውን	-11.0563
የሠራውን	-11.0566
ሁከት	-11.0569
ከለከለ	-11.0587
መንገድህን	-11.0603
ለማየት	-11.0612
ያገኘው	-11.0615
አደረገች	-11.0618
ባለቤቱ	-11.0619
በዳዊትም	-11.0632
ለድሆች	-11.0636
▁ሆነህ	-11.064
ሚስትህ	-11.0656
ከአሦር	-11.0663
▁ተነሡ፥	-11.0669
▁ደኅና	-11.0669
▁ግዛት	-11.0669
ቸርነትህ	-11.0685
▁ንገራቸው።	-11.0693
ገለጠ	-11.0697
ኋላቸው	-11.0705
▁ነገረው።	-11.0731
በባሳን	-11.0734
ሌዋውያኑ	-11.0735
▁በለው።	-11.0739
ወደደው	-11.0744
▁ንጉሡንም	-11.0748
ይፈራ	-11.0751
▁ወሰደ።	-11.0774
▁በደም	-11.0781
ይሰጠው	-11.0782
▁ነበረች፤	-11.0784
አይደሉምን	-11.0814
ሠራሁ	-11.0825
▁በክብር	-11.0856
መልእክ	-11.0882
በተቀደሰ	-11.0905
▁አየ።	-11.0913
ከገሊላ	-11.0929
የአሞንም	-11.0956
▁ከአንድ	-11.0958
ነፍስህም	-11.0966
▁ስሙ።	-11.0967
ሕልቃና	-11.1
መማፀኛ	-11.1
መሸፈኛ	-11.1
መብረቅ	-11.1
መቱአቸው	-11.1
መድኃኒታችን	-11.1
ማቅረብ	-11.1
ረዳቸው	-11.1
ሰውነታችሁ	-11.1
በላዩም	-11.1
ቤትሳሚስ	-11.1
ብልቶች	-11.1
ብርሃኑ	-11.1
ተለወጠ	-11.1
ተከትሎ	-11.1
ተገረሙ	-11.1
ትሄዳለህ	-11.1
ኃያላኑ	-11.1
ኃይለኛ	-11.1
ነጐድጓድ	-11.1
ንገረኝ	-11.1
አላወቀም	-11.1
አኪቃም	-11.1
አዳራሾች	-11.1
አገኙት	-11.1
ኤፌሶን	-11.1
እሰጠዋለሁ	-11.1
እስኪፈጸም	-11.1
እንሄዳለን	-11.1
እኵሌቶቹ	-11.1
ክፋታቸው	-11.1
ወተትና	-11.1
ወንድሙም	-11.1
ወዳለችው	-11.1
ዓይኖቻቸው	-11.1
ዕንቅፋት	-11.1
የሚፈርድ	-11.1
የተሠሩትን	-11.1
የዮዳሄ	-11.1
ያስተሰርይለታል	-11.1
ያደርገዋል	-11.1
ይሸከሙ	-11.1
ይጸናል	-11.1
ግልገሎች	-11.1
ጠነከረ	-11.1
ጥምቀት	-11.1
ወንድማማች	-11.1
ያጥባል	-11.1002
የተቀረጸውን	-11.1003
እንደዚያ	-11.1003
ማልደው	-11.1004
በዚች	-11.1004
ሰጥቶአል	-11.1004
ካልሆነ	-11.1006
ከእጅህ	-11.1011
በሉአቸው	-11.1014
▁አሉአቸው።	-11.1024
የአባትህን	-11.1052
የመገናኛውን	-11.1055
▁ተጽፎአል።	-11.1057
ተመረጡት	-11.1063
ሕግህን	-11.1065
▁ወሰደ፤	-11.1073
ብታደርግ	-11.1081
ያቅርብ	-11.1095
አሦርም	-11.1096
ተዋት	-11.1098
▁ዕቃውንም	-11.1098
አገኘሁ	-11.1105
መልእክት	-11.1118
የሚቃጠለውንም	-11.1124
አዘዛቸው	-11.1141
ነበሩት፤	-11.1148
በደቡብም	-11.1153
ባርያ	-11.1177
መለሰላቸው	-11.1177
ይልቁን	-11.1218
ሽማግሌው	-11.1229
መሰለ	-11.1242
ከፊታቸው	-11.1254
ፋርስ	-11.126
እሳትም	-11.1262
ከምድረ	-11.1267
ሥርዓትና	-11.1275
▁ለአንድ	-11.1287
አይደለችም	-11.1302
▁ሲል።	-11.1317
እሠራ	-11.1326
▁ለድሀ	-11.1342
▁ሕፃናት	-11.1342
▁መለሰ።	-11.1346
ለያዕቆብ	-11.1351
ይብላ	-11.1358
ተጠሩ	-11.1406
▁ተመለሱ፤	-11.1408
▁እላለሁ።	-11.1409
አጋንንትን	-11.1417
▁ይሰጣል።	-11.1423
ልጅዋ	-11.1447
በደልን	-11.1449
ውድማ	-11.1458
ንግሥት	-11.1474
▁ሰጣቸው፤	-11.1474
የባቢሎንም	-11.1488
ክብርና	-11.1504
ስምህንም	-11.1508
ትቀመጥ	-11.151
አደን	-11.1513
▁ዮሴፍን	-11.1514
ሊገናኘው	-11.1517
መስኮቶች	-11.1517
መጠበቅ	-11.1517
ሰውነታቸው	-11.1517
ሰጥቼሃለሁ	-11.1517
ሱኮት	-11.1517
ስፍራዎች	-11.1517
ቂርያትይዓሪም	-11.1517
ቅርንጫፍ	-11.1517
በዓይኑ	-11.1517
በጊብዓ	-11.1517
በግምባራቸው	-11.1517
ባረካቸው	-11.1517
ታካች	-11.1517
ትወስዳለህ	-11.1517
ኅብስት	-11.1517
አምጡልኝ	-11.1517
አስቀሎና	-11.1517
አስቀድሜ	-11.1517
አግብቶ	-11.1517
አጸናለሁ	-11.1517
ኢያቡሳውያን	-11.1517
እንዳደረግሁ	-11.1517
እግሮቼ	-11.1517
ከፊታችሁ	-11.1517
የሚፈራ	-11.1517
ያደረጉት	-11.1517
ይቆማል	-11.1517
ይነጋገር	-11.1517
ጃንደረቦች	-11.1517
ግብዞች	-11.1517
ግብጻውያን	-11.1517
ጠላቶቻችን	-11.1517
ሃይማኖት	-11.1517
ሊገድሉ	-11.1517
ሰብስቦ	-11.1517
አታውቅም	-11.1517
አናውቅም	-11.1517
አንጾኪያ	-11.1517
ከመንጋ	-11.1517
የጭፍራ	-11.1517
ያስቈጡ	-11.1517
ይወስዱ	-11.1517
ይወስዳሉ	-11.1517
ጃግሬው	-11.1517
ጠበቅሁ	-11.1517
ጠሩአቸው	-11.1517
አገራቸው	-11.1518
ያፍራሉ	-11.1518
አቃጠሉ	-11.1518
ወንድማችሁ	-11.1519
ያስተውል	-11.1519
ፍረዱ	-11.1519
በስምንተኛውም	-11.153
የከተማይቱ	-11.1531
አይገባም	-11.1531
የተጻፈውን	-11.1531
የተቀመጠው	-11.1532
ጥላው	-11.1536
ሠራቸው	-11.1539
የምታደርጉ	-11.1548
▁ቃልህን	-11.1554
▁ጲላጦስም	-11.1561
ይልቁንስ	-11.157
ተቀመጥሁ	-11.1575
ከባድ	-11.1594
ገባሁ	-11.1606
በይሁዳና	-11.1608
▁ሰጠ።	-11.1618
ይበረታ	-11.1632
ጥለዋል	-11.1634
ሠራሁት	-11.1657
የኋለኛው	-11.1669
▁ሞተም።	-11.1696
ሰጠሁት	-11.1705
ይጠሩ	-11.1709
ለባቢሎን	-11.172
ለብሳ	-11.1729
ይምጣ	-11.1732
አይደለችምን	-11.1738
ይመለከቱ	-11.1747
በአምላኩ	-11.1771
▁ይልቁንም	-11.1772
▁አደርጋለሁ፤	-11.1776
▁ወለደች።	-11.1779
▁አድርጉ፤	-11.1786
ከሰማያዊ	-11.1796
▁ተመለሱ፥	-11.1818
ይህችንም	-11.1819
ሰደደው	-11.1836
▁የሰላም	-11.184
ከነበረው	-11.184
በፍጹምም	-11.1853
መልስለት	-11.186
በኋላቸው	-11.1863
▁አደረጉ፥	-11.1884
▁ለሌላ	-11.1885
የከተማይቱም	-11.1897
ብለን	-11.191
የእሴይ	-11.1921
ለበሰ	-11.1922
▁ሄዱ፥	-11.1925
አንዳችም	-11.1934
▁ለማንም	-11.1939
አልን	-11.1956
የለበሰ	-11.1957
ጥላቸው	-11.1962
ባየች	-11.197
ረባት	-11.201
ድንኳኑን	-11.2023
▁ገባ፥	-11.203
የዳዊትም	-11.2038
በለዓም	-11.2056
▁በአይሁድ	-11.2056
ጠግነት	-11.2059
ሐሰተኞች	-11.2063
መሥዋዕታችሁ	-11.2063
መንኰራኵር	-11.2063
መወርወሪያ	-11.2063
መዘምራን	-11.2063
መጽሐፉን	-11.2063
ምልክቶች	-11.2063
ሞዓባውያን	-11.2063
ሥቃይ	-11.2063
ሰደዳቸው	-11.2063
ቀርቶአል	-11.2063
በሚሆነው	-11.2063
በኤርትራ	-11.2063
ባላቅም	-11.2063
ብልጣሶር	-11.2063
ብርቱዎች	-11.2063
ተሻገረ	-11.2063
ተንቀሳቃሾች	-11.2063
ትሞታለህ	-11.2063
ነግረው	-11.2063
ነፋሳት	-11.2063
አለቆቻቸው	-11.2063
አሣሄል	-11.2063
አቃሮን	-11.2063
አቅራቢያ	-11.2063
አባቶቼ	-11.2063
አብድዩ	-11.2063
አይቻለሁ	-11.2063
አጥንቶቼ	-11.2063
እኅቱ	-11.2063
እዘምራለሁ	-11.2063
እፈልጋለሁ	-11.2063
ዓይኖቹን	-11.2063
ዕድሜህ	-11.2063
የሚቀበል	-11.2063
የሚያድን	-11.2063
የተሞሉ	-11.2063
የተቀባ	-11.2063
የዘበኞቹም	-11.2063
የግሪክ	-11.2063
ይነግሣል	-11.2063
ድሀውን	-11.2063
ጃንደረባ	-11.2063
ገልጦአል	-11.2063
ጠፍቶአል	-11.2063
ጽዋውን	-11.2063
ጽዋዎች	-11.2063
ፈጥናችሁ	-11.2063
ፊተኞች	-11.2063
ፍጹማን	-11.2063
▁ቀኑን	-11.2063
አስተማሪ	-11.2063
ማሳደድ	-11.2063
አሳባቸው	-11.2063
ተዋረደ	-11.2063
ድፍረት	-11.2063
አልችልም	-11.2063
እንድትሆኑ	-11.2063
ይወርሳሉ	-11.2063
አይችሉም	-11.2063
አንካሳ	-11.2063
ማኑሄ	-11.2063
ሲሄድ	-11.2063
ስላደረገው	-11.2064
ተመለከትሁ	-11.2064
ተግባር	-11.2065
ግደሉ	-11.2065
ያስተሰርይ	-11.2066
ስገዱ	-11.2066
አሰብሁ	-11.2067
ገላውን	-11.2067
በባልንጀራው	-11.2068
አትብሉ	-11.2068
መውጣት	-11.2068
አትሁኑ	-11.2068
ዲናር	-11.2068
ያለችውን	-11.2068
ትበላለች	-11.207
ስካር	-11.2074
ዔድን	-11.2076
አይኖርም	-11.208
መንጋውን	-11.2086
ስገድ	-11.2089
ሥርዓትህን	-11.2091
አያይም	-11.2094
▁ይባላል።	-11.2106
ምስጋናን	-11.2109
የመጡት	-11.2113
ዘርህን	-11.2116
ዚፍ	-11.2121
ቢያደርግ	-11.2122
▁ይወድቃሉ።	-11.2125
ረከሰች	-11.2131
ተቈረጠ	-11.2136
ትእዛዙንም	-11.2138
▁ሆኑ፥	-11.2145
▁ሰደደ።	-11.2161
▁ሄደህ	-11.2168
▁ተሰበሰቡ።	-11.2171
▁የቀረውን	-11.2179
መጣችሁ	-11.2192
▁በነቢያት	-11.2209
▁ላከ፤	-11.2218
ከጥቂት	-11.2231
▁ለካህኑ	-11.2234
በኋለኛው	-11.2235
ከመከተል	-11.2236
ተከተለው	-11.2238
ድሆችን	-11.2256
በጊዜው	-11.2258
በውኃም	-11.2265
ልብዋ	-11.2276
የባሳን	-11.2306
በላችሁ	-11.2312
የምሥራቅ	-11.2318
▁በአንዱ	-11.2322
የሆድ	-11.2322
የሐሰት	-11.2331
የኢየሩሳሌምንም	-11.2357
▁ናችሁ።	-11.2375
መጣለት	-11.2397
ያመጣል	-11.2399
ሌሎችንም	-11.2405
▁ልጆቹንም	-11.2406
ንገራቸው	-11.2416
ጣልሁ	-11.242
▁ሰጡ።	-11.2444
▁ነጋዴዎች	-11.2444
▁በአራቱ	-11.2466
በማናቸውም	-11.2487
ይግባ	-11.249
▁አለች፤	-11.2506
▁አመጡት	-11.2512
ከይሁዳም	-11.2516
▁አልነበረም፤	-11.2524
ሆናለች	-11.2526
▁ሰማ።	-11.2532
በማድረግ	-11.2554
መሥራት	-11.2556
▁ሰጠው፤	-11.2562
የሌለባቸው	-11.2573
በድንገት	-11.2594
▁ይሆናሉ፥	-11.2594
የምናሴም	-11.2602
በሰይፍና	-11.2606
አሉአቸው	-11.2612
ከአገሩ	-11.2612
የደስታ	-11.2625
የበኣል	-11.2629
በእሳትም	-11.2634
ይቈጠር	-11.2635
ተበተኑ	-11.2637
ልመናዬ	-11.2637
መልካቸው	-11.264
መሠዊያዎች	-11.264
መርከቡ	-11.264
መስኮት	-11.264
መካከለኛ	-11.264
ሙሽራው	-11.264
ማዕዘኑ	-11.264
ሞላባቸው	-11.264
ሠርተዋል	-11.264
ራፋስቂስ	-11.264
ርቆአል	-11.264
ሰጠኋት	-11.264
በሕልም	-11.264
በመካከላችን	-11.264
በሚመጣው	-11.264
በደለኞች	-11.264
ተቀምጣ	-11.264
ተቈጠረ	-11.264
ተቈጥቶ	-11.264
ተኣምራት	-11.264
ትኵሳት	-11.264
ትወድድ	-11.264
አውቄአለሁ	-11.264
አድርገኝ	-11.264
አገልግሎታቸው	-11.264
እልሃለሁ	-11.264
እሰብራለሁ	-11.264
እንናገራለን	-11.264
እኖራለሁ	-11.264
እጆቻቸው	-11.264
ከሚቃጠለው	-11.264
ከሞዓብ	-11.264
ከረጢት	-11.264
የሚባለው	-11.264
የሚወጡት	-11.264
የሚያመጣ	-11.264
የሚጠላ	-11.264
የሚጠራ	-11.264
የማንሣት	-11.264
የሜራሪ	-11.264
ያቀርበዋል	-11.264
ያገለግል	-11.264
ይፈጸማል	-11.264
ጨካኞች	-11.264
ነበሩአቸው	-11.264
በደላችን	-11.264
አቢግያ	-11.264
አልሰማችሁም	-11.264
በርሳችን	-11.264
ይገኛል	-11.264
አልተገኘም	-11.264
ያደረግህ	-11.264
ትወርሱአት	-11.264
በላያችሁ	-11.2641
አትግለጥ	-11.2642
ከእግሩ	-11.2642
ይወርሱ	-11.2642
ሲሆን	-11.2642
ብዔል	-11.2643
ከብበው	-11.2643
የሚያደርጉትን	-11.2644
የምታደርገው	-11.2646
ብረቱ	-11.2648
በሱሳ	-11.2652
ተቀምጦአል	-11.2657
ደብረ	-11.2658
ችግር	-11.2659
ልበሱ	-11.2665
እንዲያደርጉ	-11.2669
አህያውን	-11.2675
ግምቱ	-11.2676
ወለድሁ	-11.2681
ጥበብንና	-11.2683
የብንያምም	-11.2686
አመጡለት	-11.2686
በሰማርያም	-11.2689
የተገኘ	-11.2694
ከሕዝቡም	-11.2704
ታመንሁ	-11.2708
▁ለአምላክህ	-11.2712
በመርከብ	-11.2716
በዚያችም	-11.2718
ገባበት	-11.2724
የመጣው	-11.2729
የባሪያህን	-11.2739
ማረከ	-11.2757
ጠበቃ	-11.2761
ያላት	-11.2764
የጠራ	-11.2775
በደልሁ	-11.2783
ሠራች	-11.2815
▁አልሁት።	-11.2841
▁ሆኑ።	-11.2842
ይጠራል	-11.2843
ኃጢአትንም	-11.2852
የተልባ	-11.2856
▁ገባ፤	-11.2868
ያገኙት	-11.2885
▁ይለዋል፤	-11.2893
ከነቢያት	-11.2903
ይመካ	-11.2911
እኛስ	-11.2918
የሊባኖስ	-11.2927
ከመሠዊያው	-11.2951
አትሁን	-11.2955
ሕይወቱ	-11.2956
የይሁዳንም	-11.2963
▁ከሆነ፥	-11.297
መሄድ	-11.2985
የዮናታን	-11.299
ከዮርዳኖስ	-11.3012
ነፍሴም	-11.3014
ፍርድንና	-11.305
በግብፅም	-11.3064
አወጣው	-11.3077
በአንድነትም	-11.3089
ይሁዳንና	-11.3111
▁ላከ፥	-11.3143
አሥረኛ	-11.3156
አራተኛ	-11.316
ዳግመኛም	-11.3171
መሎጊያዎቹ	-11.3209
በደላቸውን	-11.322
ምንኛ	-11.3223
ከእንግዲህም	-11.3223
ደምዋ	-11.3237
ምልክትና	-11.3239
በሶርያ	-11.3242
ላካቸው	-11.325
ትውልዳቸው	-11.325
ለሚያደርጉ	-11.3252
ሐውልት	-11.3252
መለሰልኝ	-11.3252
መሸሸጊያ	-11.3252
መንግሥቴ	-11.3252
መደነቂያ	-11.3252
ርኵሳን	-11.3252
ሰጠሃቸው	-11.3252
ቃርሚያ	-11.3252
ቅርንጫፎቹ	-11.3252
ቅፍርናሆም	-11.3252
በወገቡ	-11.3252
በውስጤ	-11.3252
በየዕለቱ	-11.3252
ተላለፉ	-11.3252
ተመልሰህ	-11.3252
ተመልክቶ	-11.3252
ተከፈቱ	-11.3252
ተዘልለው	-11.3252
ትኖራላችሁ	-11.3252
ትፈርድ	-11.3252
አላገኙም	-11.3252
አልቀረም	-11.3252
አመለኩ	-11.3252
አማሌቃውያን	-11.3252
አሜሳይ	-11.3252
አምጥቶ	-11.3252
አርማቴም	-11.3252
አነበበ	-11.3252
አደርጋታለሁ	-11.3252
አድርጌሃለሁ	-11.3252
ኤሊሳማ	-11.3252
ኤልያሴብ	-11.3252
እንግድነት	-11.3252
እጠብቃለሁ	-11.3252
ከብቶች	-11.3252
ከተማዎች	-11.3252
ኬጢያውያን	-11.3252
ክፋቱ	-11.3252
ወይፈኑን	-11.3252
ዘመኔ	-11.3252
የሚሰሙ	-11.3252
የሚያህሉ	-11.3252
የሚያስተው	-11.3252
የሚያጠፋ	-11.3252
የማደርገው	-11.3252
ያመስግኑ	-11.3252
ይቃጠላል	-11.3252
ይታጠባል	-11.3252
ይፈርዱ	-11.3252
ድምፄን	-11.3252
ጕስቍልና	-11.3252
ጠየቃቸው	-11.3252
እጠራለሁ	-11.3252
ይመስገን	-11.3252
ይገለጣል	-11.3252
እገባለሁ	-11.3252
ያልፋሉ	-11.3252
ትወርሳት	-11.3253
አንደበት	-11.3253
ወንድማችን	-11.3253
አምጥተው	-11.3253
ይከተሉ	-11.3253
ጥፋታቸው	-11.3253
መንደር	-11.3253
አልበላም	-11.3253
በደላችሁ	-11.3253
ንገረው	-11.3253
ለማጥፋት	-11.3255
ንገረን	-11.3255
ይመልሳል	-11.3255
ስብራት	-11.3256
መጠጊያዬ	-11.3258
▁ተባባሉ።	-11.3266
አትብላ	-11.3267
ቃላቸው	-11.3268
ገረድ	-11.3268
የተባለውን	-11.3268
ሰልሉ	-11.327
ግለጥ	-11.3271
ትናንት	-11.3276
በዙፋኑም	-11.3279
ያድነው	-11.3281
ብትሉ	-11.3281
ትሰጥ	-11.329
▁አስብ።	-11.331
ጆሮውን	-11.3311
ሰጠችው	-11.3314
እምቢ	-11.3321
▁አመጡ።	-11.3328
ሆዱ	-11.3329
ገበያ	-11.3331
ፍርዴንም	-11.3349
ለመሄድ	-11.3349
▁ሁኑ።	-11.335
ተመለከቱ	-11.3384
ምሳሌውን	-11.3391
ይፈልግ	-11.3392
አውድማው	-11.3412
▁ለሳኦል	-11.3416
በሰንሰለት	-11.3422
▁ወረደ።	-11.3437
በባሪያዎቹ	-11.3462
ነበሩበት	-11.348
ተሰቀለ	-11.3487
ባየሁ	-11.3498
ጠገቡ	-11.3514
ባሳን	-11.3514
የለንም	-11.3533
ከበበ	-11.3535
ቀረበች	-11.3552
ቃየን	-11.3598
ይመልሱ	-11.3602
▁ነፍስህን	-11.3658
መዓትህ	-11.3678
▁አደረገው።	-11.3686
▁አይሆንም።	-11.3754
ባርነት	-11.3758
ትረሳ	-11.3771
▁አውቃለሁ።	-11.3783
▁ይመጣል፤	-11.379
ከእነዚህም	-11.3799
▁ያደርጋል፥	-11.3818
ጠየቁት	-11.3877
መለሰለት	-11.3883
ታደርገው	-11.3898
ለዘርህ	-11.3905
ላደረጉት	-11.3905
መስዋዕት	-11.3905
መታመኛ	-11.3905
መንቀጥቀጥ	-11.3905
መንኰራኵሮቹ	-11.3905
መደረቢያ	-11.3905
መድረክ	-11.3905
መጠምጠሚያ	-11.3905
መጥምቁ	-11.3905
ሚካኤል	-11.3905
ማሰናከያ	-11.3905
ሜምፊቦስቴ	-11.3905
ምታፈስሰው	-11.3905
ርኅራኄ	-11.3905
ሰገነቱ	-11.3905
ሰጠኋችሁ	-11.3905
ሸመገለ	-11.3905
ሽማግሎች	-11.3905
በነገውም	-11.3905
በአጠገባቸውም	-11.3905
በዓይናቸው	-11.3905
ቤቶቻቸው	-11.3905
ተሰነጠቀ	-11.3905
ተባበሩ	-11.3905
ተናገራችሁ	-11.3905
ትኖራለህ	-11.3905
ትወዳለህ	-11.3905
ነፋሱ	-11.3905
ናቡዘረዳን	-11.3905
ንጥቂያ	-11.3905
አሳየኝ	-11.3905
አስወገደ	-11.3905
አስገባሪ	-11.3905
አብደናጎ	-11.3905
አትደንግጡ	-11.3905
አገልጋዮቹ	-11.3905
አፈረሱ	-11.3905
ኤልያቄም	-11.3905
ኤልፋዝ	-11.3905
እለምናችኋለሁ	-11.3905
እቀጣለሁ	-11.3905
እንሞታለን	-11.3905
እንዳደረጉ	-11.3905
እግሬን	-11.3905
እግሮቻቸው	-11.3905
ከተፈተለ	-11.3905
ከነዓናዊው	-11.3905
ወሰድሁ	-11.3905
ወንድሞቻችን	-11.3905
ዘጠኝኛው	-11.3905
የሚመልስ	-11.3905
የሚወድዱ	-11.3905
የሚወድድ	-11.3905
የሚወጣው	-11.3905
የሞቱት	-11.3905
ያረክሱ	-11.3905
ያሰኘው	-11.3905
ይሆንላቸዋል	-11.3905
ይሰግዳሉ	-11.3905
ይሸከማሉ	-11.3905
ይቀበሉ	-11.3905
ደነገጡ	-11.3905
ደካሞች	-11.3905
ግዛቱ	-11.3905
ጕልበቱ	-11.3905
ጠንቋዮች	-11.3905
ጺቅላግ	-11.3905
ፌጎር	-11.3905
ተዋረዱ	-11.3905
ትመስላለች	-11.3905
እዘረጋለሁ	-11.3905
ገዙአቸው	-11.3905
ድንበራቸው	-11.3905
ጠፍተዋል	-11.3905
ማፍሰስ	-11.3905
ሰምተናል	-11.3905
ሰጥተዋል	-11.3905
ኵርንችት	-11.3905
መራቸው	-11.3905
እሠራለሁ	-11.3905
ተመልሳችሁ	-11.3905
እንዲሄድ	-11.3905
አሳደዱ	-11.3905
ያቃጥሉ	-11.3905
ያቃጥል	-11.3905
አብራምን	-11.3905
አልመለስም	-11.3906
ተከተል	-11.3906
ደረስን	-11.3906
በመከራዬ	-11.3906
ላድርግ	-11.3906
ያደረግሁትን	-11.3906
ፍሬያማ	-11.3907
አጠፋቸው	-11.3907
እንላለን	-11.391
መከራዬን	-11.391
ያጥኑ	-11.3911
ያድኑ	-11.3914
ረገጠ	-11.3914
አሠራር	-11.3917
እስከዚህ	-11.392
▁ናችሁ፤	-11.393
ቃላት	-11.3931
ጉባኤውም	-11.3933
ስፋት	-11.3937
እንጀራና	-11.3937
ወጣበት	-11.3946
አደገ	-11.3957
▁ገቡ፤	-11.396
በከተማው	-11.3961
ወደድህ	-11.3966
▁ነፍሳቸውን	-11.3982
ያለህን	-11.3985
ስጠው	-11.3986
ይወድድ	-11.3991
መጣባቸው	-11.3995
ወደደች	-11.4004
እንውጣ	-11.4004
አማርያ	-11.401
ተጣሉ	-11.4012
በልተው	-11.4019
ይሠራሉ	-11.4029
በኢዮስያስ	-11.4031
ያጥን	-11.4059
ጠላቱ	-11.4083
አደረገለት	-11.4101
▁አለፈ፥	-11.4132
ላላቸው	-11.4148
ግመል	-11.4154
በአባቱም	-11.4163
▁ትሆናለች፤	-11.4194
▁አይችልም።	-11.4209
የሚሆነው	-11.4211
▁መልሰው።	-11.4218
የተሸከሙ	-11.4229
▁ተቀመጡ፤	-11.4304
ከማኅፀን	-11.4347
▁የቀሩትን	-11.4365
በስድስተኛው	-11.4378
አራም	-11.4415
ይበለው	-11.4415
አይልም	-11.4439
▁መንገዳቸውን	-11.4451
በጥዋት	-11.4483
ይበላቸው	-11.4552
መሰምርያ	-11.4576
የሚናገሩ	-11.4595
ቀጠቀጠ	-11.4601
መሃናይም	-11.4603
መስቀል	-11.4603
መንገዶች	-11.4603
መጥተዋል	-11.4603
ማገልገያ	-11.4603
ምላሳቸው	-11.4603
ምልክቱ	-11.4603
ምክራቸው	-11.4603
ምጽዋት	-11.4603
ሰብስቡ	-11.4603
ሰዱቃውያን	-11.4603
ሲዶናውያን	-11.4603
ቀልጠው	-11.4603
በዓለት	-11.4603
በዝግባ	-11.4603
በፊታችን	-11.4603
ቢታንያ	-11.4603
ባልንጀሮቹ	-11.4603
ባትሰሙ	-11.4603
ብልሃተኛ	-11.4603
ቦዔዝም	-11.4603
ተነሺ	-11.4603
ተደርጎ	-11.4603
ታናሺቱ	-11.4603
ትወስድ	-11.4603
ትወዳላችሁ	-11.4603
ነገሥታቶቻቸው	-11.4603
ነፍሳችን	-11.4603
አርሞንዔም	-11.4603
አስነሣው	-11.4603
አብልጦ	-11.4603
አኪማአስ	-11.4603
አይዞህ	-11.4603
አይጸናም	-11.4603
እስኪጠፉ	-11.4603
እነሣለሁ	-11.4603
እንደሚሠራ	-11.4603
እንዳላችሁ	-11.4603
እንዳልሆነ	-11.4603
እየጮኹ	-11.4603
ከመካከላቸው	-11.4603
ዓይናችን	-11.4603
የሚመስለው	-11.4603
የሚሰጠው	-11.4603
የሚናገረው	-11.4603
የሚያምኑ	-11.4603
የሚያይ	-11.4603
የሚጠጣ	-11.4603
የምትኖር	-11.4603
የተረገመ	-11.4603
የናዝሬቱ	-11.4603
የደኅንነቱን	-11.4603
ይሆንበታል	-11.4603
ይሸከማል	-11.4603
ይታያል	-11.4603
ይደርሳል	-11.4603
ጀምረው	-11.4603
ገበታዎች	-11.4603
ጠራቢዎች	-11.4603
ፌዘኛ	-11.4603
▁አለቻት።	-11.4603
የሚወዱ	-11.4603
ይሰግዱ	-11.4603
r	-11.4603
ሰፈራቸው	-11.4603
አስባለሁ	-11.4603
እመጣለሁ	-11.4603
አይደለንም	-11.4603
የምስራች	-11.4603
ንግግር	-11.4603
ያልተገረዘ	-11.4603
ብንሆን	-11.4603
አንችልም	-11.4603
ነገራችሁ	-11.4603
ሰይፌ	-11.4603
ትበላለህ	-11.4604
ጥበበኛ	-11.4604
ውርደት	-11.4604
አልሰማም	-11.4604
ለመንሁ	-11.4604
ስደተኛ	-11.4604
አልመጣም	-11.4605
የተገኘውን	-11.4605
መምሰል	-11.4606
ውደዱ	-11.4611
ይራራል	-11.4612
ተነሥቶአል	-11.4612
በኮረብታው	-11.4616
ለአብርሃምና	-11.4617
ሰውዬው	-11.4617
ለደኅንነትም	-11.4618
ይፈራሉ	-11.462
ይጠጣሉ	-11.4625
አገኘው	-11.4626
ተቀመጠበት	-11.4628
ተገለጠለት	-11.4629
ጆሮህን	-11.463
መባውም	-11.463
አይመለስም	-11.4632
ከከተማው	-11.4633
▁ጠየቁት።	-11.4633
የተሠራውን	-11.4637
የቤቱንም	-11.464
በደላቸው	-11.4641
▁ታቀርባላችሁ።	-11.4645
የይስሐቅም	-11.4649
▁አኖረው።	-11.465
መሎጊያዎቹንም	-11.4653
▁ይላቸዋል።	-11.4654
ይሰማሉ	-11.4659
ዕቃውም	-11.4662
እራት	-11.4663
ሥርዓቱንም	-11.4675
ልብሳቸውንም	-11.4685
▁የሌለባቸውን	-11.4685
በሰልፍም	-11.4689
ተስፋዬ	-11.4697
▁ማስተዋልን	-11.4712
ስደት	-11.4715
እኅትዋ	-11.472
ልሄድ	-11.4722
ተራራዬ	-11.4729
ተዋበ	-11.4732
ከባርነት	-11.4762
በሁሉም	-11.4767
▁ሆኖአልና	-11.4785
ምረጥ	-11.4818
ጠራችው	-11.4829
▁ነበሩት።	-11.485
በመዓት	-11.4852
የንጉሡም	-11.4862
▁ከሳኦል	-11.4869
እጅዋን	-11.489
አውራውን	-11.4909
በተሠራ	-11.4944
አለበት	-11.4946
የፋርስ	-11.4989
▁ጠየቀው።	-11.5098
▁አደሰ።	-11.5119
አታውቁም	-11.5138
▁ይሁኑ፤	-11.5163
▁ይጠፋሉ።	-11.5165
▁አቀረቡ።	-11.5169
ተልባ	-11.5188
▁የሌለበትን	-11.5204
▁እሰጣለሁ።	-11.5208
▁የሆኑትን	-11.5244
▁አውቃለሁና	-11.5251
ያመልጥ	-11.5345
መታጠቢያ	-11.5353
አሞራዊው	-11.5353
ለበጣቸው	-11.5353
ልኮኛል	-11.5353
መሠረቱ	-11.5353
መሥዋዕታቸው	-11.5353
መንኰራኵሮች	-11.5353
መወርወሪያዎች	-11.5353
ማዕበል	-11.5353
ሠራዊታቸው	-11.5353
ሠርቶአል	-11.5353
ሰላትያል	-11.5353
ሰናክሬም	-11.5353
ሲናገሩ	-11.5353
ሹማምቶች	-11.5353
በሕይወታቸው	-11.5353
በማግሥቱ	-11.5353
በከንፈሩ	-11.5353
በዕብራይስጥ	-11.5353
በዝቶአል	-11.5353
በፈቃዳቸው	-11.5353
ተሞልታለች	-11.5353
ተሻገር	-11.5353
ተቀምጠዋል	-11.5353
ተአምራቱ	-11.5353
ተከፈለ	-11.5353
ተገለጡ	-11.5353
ታደርጋለች	-11.5353
ትሰጣላችሁ	-11.5353
ቸርነቱ	-11.5353
አልፎአል	-11.5353
አመጣቸዋለሁ	-11.5353
አስቀድማችሁ	-11.5353
አስተምረኝ	-11.5353
አትፍሪ	-11.5353
አንደበቴ	-11.5353
አንጥረኛ	-11.5353
አውቀው	-11.5353
አዝዣለሁ	-11.5353
አደርጋቸዋለሁ	-11.5353
አድራጊዎች	-11.5353
አገሪቱ	-11.5353
አጥንቴ	-11.5353
ኤዊያውያን	-11.5353
እሆናቸዋለሁ	-11.5353
እምቦሳ	-11.5353
እሞታለሁ	-11.5353
እነማን	-11.5353
እናውቅ	-11.5353
እንስሶቻቸው	-11.5353
እጥላለሁ	-11.5353
ከሐምራዊም	-11.5353
ከቀይም	-11.5353
ኵላሊቶች	-11.5353
ዓይኖቻችሁ	-11.5353
ዝንጕርጕር	-11.5353
የሚያሰኘውን	-11.5353
የሚያስጨንቁ	-11.5353
የሚያቀርበው	-11.5353
የሚፈልግ	-11.5353
የሻለቃው	-11.5353
የባዶስ	-11.5353
የተናገርኸው	-11.5353
የኀጥኣን	-11.5353
የናታንያ	-11.5353
ያስተምራቸው	-11.5353
ያቀርቡላችኋል	-11.5353
ያበዛል	-11.5353
ይሰበሰባሉ	-11.5353
ይሰጣችኋል	-11.5353
ይሸከም	-11.5353
ይነግዱ	-11.5353
ይገረዝ	-11.5353
ጩኸታቸው	-11.5353
ፌርዛውያን	-11.5353
አድርገናል	-11.5353
እመለሳለሁ	-11.5353
እባካችሁ	-11.5353
እንድርያስ	-11.5353
የታሰረ	-11.5353
ጥፍጥፍ	-11.5353
ተቃዋሚ	-11.5353
እምላለሁ	-11.5353
እወጣለሁ	-11.5353
ሰይፋቸው	-11.5353
በድያለሁ	-11.5353
ይወርሳል	-11.5353
ትከተሉ	-11.5353
ውሰደው	-11.5354
ፍርምባ	-11.5354
ያየሁት	-11.5354
ባሪያይቱ	-11.5354
አካሄዱ	-11.5354
ወደምትባል	-11.5354
ስልማና	-11.5354
እንበረም	-11.5354
ይሰጣሉ	-11.5354
ይላታል	-11.5355
ያጠፋቸው	-11.5355
ለባልንጀራው	-11.5355
ሳይመጣ	-11.5355
አወጣለሁ	-11.5356
ነውረኛ	-11.5356
መለየት	-11.5356
የሚቀመጡትን	-11.5358
በየስማቸው	-11.5359
ፍልስጥኤማዊውን	-11.5359
የተረፈውን	-11.5359
ይዘረጋል	-11.5359
ማርከው	-11.536
ማልሁላቸው	-11.5361
የምትሉ	-11.5362
ይለናል	-11.5363
አደሱ	-11.5364
የምትቀመጥ	-11.5364
ሲላስ	-11.5366
ችግረኛውን	-11.5366
መውጫውም	-11.5368
ከመካከልህ	-11.537
ገበታውን	-11.5384
ፋሲካውን	-11.5384
በመካከልህ	-11.5388
አማቱ	-11.5389
ምስክርህን	-11.5392
ሰገዱለት	-11.5399
አያደርግም	-11.5402
የገቡት	-11.5406
ሳይኖር	-11.5415
በለሱ	-11.5425
ደስታዬ	-11.5443
እያየ	-11.5474
ከተቀደሰው	-11.5493
አይተዋል	-11.5493
አማች	-11.5495
ይገድል	-11.5565
▁ሉያ።	-11.563
መሰምርያዋ	-11.5666
አድርግለት	-11.5677
▁ይሄዳል፤	-11.568
▁አመጡ፤	-11.5681
ከማድረግ	-11.569
▁ወለደች፤	-11.5697
የመሠዊያው	-11.5708
አይግባ	-11.5708
አይብላ	-11.573
▁ትሆናለች፥	-11.5745
▁ወረደ፤	-11.5774
ተቀደሰው	-11.584
አልህ	-11.5853
ከተማቸው	-11.5879
ሄድን	-11.5922
▁ልጅዋን	-11.6004
ይተዋል	-11.6016
አትመልስ	-11.607
ታስተውሉ	-11.6164
k	-11.6164
ፕ	-11.6164
ለማግኘት	-11.6164
መለኪያ	-11.6164
መረገጫ	-11.6164
መቅሠፍቱ	-11.6164
መበለቶች	-11.6164
መግደላዊት	-11.6164
ረድኤት	-11.6164
ሰንፔር	-11.6164
ሰፋጥያስ	-11.6164
ስንዴውን	-11.6164
ሽምግልና	-11.6164
ቀስተኞች	-11.6164
በሚሰጥህ	-11.6164
በሚኖሩበት	-11.6164
በቈላው	-11.6164
በዓላት	-11.6164
በዓይናችሁ	-11.6164
በየቀኑ	-11.6164
ብለሃል	-11.6164
ብልሃተኞች	-11.6164
ተመላለሱ	-11.6164
ተመሸገ	-11.6164
ተረፉት	-11.6164
ተቀመጣችሁ	-11.6164
ተነጋገሩ	-11.6164
ተናወጠች	-11.6164
ተንቀሳቃሽ	-11.6164
ተከማቹ	-11.6164
ተዉአቸው	-11.6164
ተገናኘው	-11.6164
ታቀርባለህ	-11.6164
ትዕቢተኛ	-11.6164
ንጉሣቸው	-11.6164
አልራቀም	-11.6164
አልፈው	-11.6164
አስቀመጠ	-11.6164
አትደንግጥ	-11.6164
አንካሶች	-11.6164
አዋቂዎች	-11.6164
አይተሃል	-11.6164
አይታችኋል	-11.6164
አጥንቶች	-11.6164
እኅታቸው	-11.6164
እንቢልታ	-11.6164
እንኖራለን	-11.6164
እንዳላቸው	-11.6164
እንዳትሆን	-11.6164
እንዳዘዛቸው	-11.6164
እንዳይሞቱ	-11.6164
እንጨቱን	-11.6164
እዘዛቸው	-11.6164
እያንዳንዳችን	-11.6164
ከብቶቻቸው	-11.6164
ኬጢያዊውን	-11.6164
ወታደሮች	-11.6164
ዓይናቸውን	-11.6164
የመጠጡ	-11.6164
የሚሸፍነውን	-11.6164
የሚኖረው	-11.6164
የሰሜን	-11.6164
የተመሰገነ	-11.6164
የኖረበት	-11.6164
ያዛቸው	-11.6164
ይልሃል	-11.6164
ይመስላችኋል	-11.6164
ይረጨዋል	-11.6164
ይሩበኣል	-11.6164
ይቀራል	-11.6164
ይበዛል	-11.6164
ይታጠብ	-11.6164
ይደነግጣሉ	-11.6164
ይፈልጋል	-11.6164
ድንኳኖቻቸው	-11.6164
ድንግሊቱ	-11.6164
ፊተኛይቱ	-11.6164
አድናለሁ	-11.6164
እልካለሁ	-11.6164
ይመሰክር	-11.6164
አሳያቸው	-11.6164
አፍርሰዋል	-11.6164
ይገልጣል	-11.6164
አላየውም	-11.6164
ተለይተው	-11.6164
ተከማቸ	-11.6164
በድለናል	-11.6164
አትችልም	-11.6165
ይወርድ	-11.6165
ተጣጣሉ	-11.6165
ያመለጠ	-11.6165
መቃጠል	-11.6165
መርበብ	-11.6165
የላከውን	-11.6165
መረግድ	-11.6165
ያይደለ	-11.6165
እንደየስማቸው	-11.6166
ጠርተው	-11.6167
አመለከ	-11.6167
መልሰን	-11.6167
እስኪሆን	-11.6168
ምዋርት	-11.6168
በየወገኑ	-11.6169
ከብቱን	-11.617
ያበራል	-11.617
ያልሆነውን	-11.6171
ማንኛው	-11.6172
እናንት	-11.6174
በረዶውም	-11.6174
በየስፍራው	-11.6176
ይቀርባል	-11.6176
ሰደድሁ	-11.6178
ብሎኛል	-11.618
ሰብስብ	-11.619
ይገዛሉ	-11.6195
በተራራማውም	-11.6197
ባላችሁ	-11.6198
በጣቱ	-11.6199
ገለበጠ	-11.6207
▁ተጠንቀቁ።	-11.6215
እንዳይጠፋ	-11.6219
ተቀበልሁ	-11.6222
ተመለስሁ	-11.6226
አይሰማም	-11.6227
ፍሬውም	-11.623
የሁለተኛውም	-11.6231
▁ኢያሱን።	-11.6235
ሳመው	-11.6236
▁እናውቃለን።	-11.6241
መስላ	-11.6242
የሠራውም	-11.6242
ዋጋውን	-11.6244
አረደ	-11.6254
▁ተባለ።	-11.6255
ደረት	-11.6264
ብብት	-11.6267
▁የለውም።	-11.6268
ሰበከ	-11.6279
▁በሉት።	-11.6285
አፍዋን	-11.632
አይተን	-11.6327
ሄድህ	-11.6341
አልኋቸው	-11.6422
▁ለካህናቱ	-11.6459
ይችል	-11.6461
የቀረውንም	-11.6461
ይላችሁ	-11.6462
እውነትህም	-11.6541
𐋇	-11.6744
▁መለሱለት።	-11.6772
▁አልኋቸው።	-11.6773
▁ጠራችው።	-11.6778
▁አስብ፤	-11.6799
▁ያጠፋል።	-11.6801
▁ተመልከት፤	-11.6805
▁አይሆንም፤	-11.681
▁አልቻሉም።	-11.6814
▁ይመለሳል።	-11.6814
▁ቀበሩት።	-11.6822
▁አድነኝ።	-11.6825
አምስተኛ	-11.6952
አስጠራ	-11.6981
ሰብስበው	-11.6997
ፍልስጥኤማዊ	-11.7037
የተረፈ	-11.704
እየሰበከ	-11.704
የሚያገለግሉ	-11.7047
ያፈርስ	-11.7047
ለመርዳት	-11.7047
ለመዋጋት	-11.7047
ለመውጋት	-11.7047
ለመገናኘት	-11.7047
መሰደቢያ	-11.7047
መቅረዞች	-11.7047
መበለቲቱን	-11.7047
መግዛት	-11.7047
መጥረቢያ	-11.7047
መጥቻለሁ	-11.7047
ማክማስ	-11.7047
ምሄድበት	-11.7047
ምናምንቴዎች	-11.7047
ሠርተናል	-11.7047
ራቁቱን	-11.7047
ራቁትነት	-11.7047
ሰውነታችን	-11.7047
ቀረባችሁ	-11.7047
ቀራጮችና	-11.7047
ቀድሳቸው	-11.7047
ቈርጠው	-11.7047
ቋንቋቸው	-11.7047
በልሳኖች	-11.7047
በበረሀ	-11.7047
ባልንጀሮች	-11.7047
ተመሠረተ	-11.7047
ተሸክመው	-11.7047
ተንኰለኛ	-11.7047
ተወሰነው	-11.7047
ተዘጋጅታ	-11.7047
ተደፍቶ	-11.7047
ታናናሾች	-11.7047
ትላቸዋለህ	-11.7047
ትሞታላችሁ	-11.7047
ትናገራለህ	-11.7047
ትፈልጋላችሁ	-11.7047
ኀፍረተ	-11.7047
ኃይለኞች	-11.7047
አላስተዋሉም	-11.7047
አላገኘሁም	-11.7047
አልኋችሁ	-11.7047
አልፈቀደም	-11.7047
አመሰገኑ	-11.7047
አመንዝሮች	-11.7047
አስተዋልሁ	-11.7047
አስተዋዮች	-11.7047
አስነሣለሁ	-11.7047
አቆማቸው	-11.7047
አንሥተው	-11.7047
አይሞትም	-11.7047
አይቶአል	-11.7047
አይጠቅምም	-11.7047
አደረጋችሁ	-11.7047
አድነን	-11.7047
አጥፊው	-11.7047
አፈለሰ	-11.7047
እመልሳቸዋለሁ	-11.7047
እሰበስባቸዋለሁ	-11.7047
እነግራችኋለሁ	-11.7047
እንዲቀበሉ	-11.7047
እወስዳለሁ	-11.7047
እያለቀሱ	-11.7047
እድናለሁ	-11.7047
ከመጠጡም	-11.7047
ከምድሩ	-11.7047
ከየነገዱ	-11.7047
ወሰዳቸው	-11.7047
ወጥተህ	-11.7047
የሚበቃ	-11.7047
የማዝዝህን	-11.7047
የምትናገሩ	-11.7047
የራጉኤል	-11.7047
የዋህነት	-11.7047
የዔናቅ	-11.7047
ያለቅሳሉ	-11.7047
ያቃጥላል	-11.7047
ያዘዝሁህን	-11.7047
ያደረግኸው	-11.7047
ያድነናል	-11.7047
ያፈስሱ	-11.7047
ይመለከታሉ	-11.7047
ይሞላል	-11.7047
ይሰጣቸዋል	-11.7047
ይቀበላሉ	-11.7047
ይቆማሉ	-11.7047
ይወርዳሉ	-11.7047
ይዋረዳል	-11.7047
ይፈልጋሉ	-11.7047
ድንኳኖች	-11.7047
ጀርባቸው	-11.7047
ግብዝነት	-11.7047
ግድግዳ	-11.7047
ጕልላቶች	-11.7047
ጥሎአል	-11.7047
ፈለግሁ	-11.7047
ተመላለስ	-11.7047
ትሰጣለህ	-11.7047
አመሰገነ	-11.7047
መረጣችሁ	-11.7047
አያፍርም	-11.7047
ያጠፋቸዋል	-11.7047
መበስበስ	-11.7047
ይገባኛል	-11.7047
ይጠብቃሉ	-11.7047
ባደረግሁ	-11.7047
አልሰማቸውም	-11.7047
አንገታቸውን	-11.7047
አውጥተው	-11.7047
እልከኛ	-11.7047
ምትሄድበት	-11.7047
ይመላለስ	-11.7047
የቀደሰውን	-11.7047
ወጣህበት	-11.7047
ይጣላል	-11.7047
ደናግል	-11.7047
ሰጥቶኛል	-11.7048
አልደረሰም	-11.7048
አልሄዱም	-11.7048
እስካለው	-11.7048
ደከምሁ	-11.7048
አጥንቱ	-11.7048
ቀርባለች	-11.7048
ቢበድል	-11.7048
አልገባም	-11.7049
ትሰጣለች	-11.7049
ነገረችው	-11.705
በረከቱ	-11.705
አፈርሳለሁ	-11.7051
ተቀመጡባት	-11.7051
እሄድ	-11.7051
የለበሰውን	-11.7051
ስደዱ	-11.7053
ይሁንልህ	-11.7053
ያፌት	-11.7053
ምንደኛ	-11.7053
ትእዛዛትህን	-11.7053
እንዳይደለ	-11.7054
መገዛት	-11.7058
የወደደውን	-11.7058
መሰላቸው	-11.7059
ጠባብ	-11.7063
ሰማያዊውን	-11.7067
ነበረባት	-11.7068
አትግባ	-11.7069
አይመጣም	-11.707
ያድግ	-11.707
ሰገደለት	-11.7073
እመኑ	-11.7076
በቸነፈርም	-11.7077
በርባን	-11.7079
ሲያልፍ	-11.708
እሰይ	-11.7081
ወንዶችንና	-11.7081
ያስቱ	-11.7082
ከፍለው	-11.7084
የከነዓንን	-11.7092
ሲወርድ	-11.7093
በስፍራውም	-11.7095
የግብጽም	-11.7099
አብረን	-11.7104
በጎችንና	-11.7105
አድኑ	-11.7109
ክብርህን	-11.7127
ካላቸው	-11.7184
አላለም	-11.7209
ሆኑላቸው	-11.7224
ያገቡት	-11.7226
አምሳውን	-11.7301
መለሱለት	-11.7338
▁አቅርቡልኝ።	-11.736
▁ለመኑት።	-11.736
▁ተናገሩት።	-11.7362
አደሰ	-11.7382
ሆነናል	-11.7398
▁ተጠንቀቁ፤	-11.7399
▁መሰምርያዋ፥	-11.7401
▁ያያል፤	-11.7402
ኋለኛው	-11.7435
በልብሱ	-11.7491
የባሰ	-11.7601
ትተዋል	-11.7712
የሚቃጠለው	-11.776
ይገልጥ	-11.788
ማገልገል	-11.7922
ይለወጥ	-11.7987
የተቀረጸ	-11.801
የሚያሰኝ	-11.8012
ተንቀጠቀጡ	-11.8015
g	-11.8016
ሀብታቸው	-11.8016
ሆናችኋል	-11.8016
ለጠቦቶቹም	-11.8016
መሠረቶች	-11.8016
መስቀሉን	-11.8016
መቀመጫዎች	-11.8016
መጎናጸፊያ	-11.8016
ማሰሪያ	-11.8016
ማዳንህን	-11.8016
ምግባቸውን	-11.8016
ሥርዓታቸው	-11.8016
ሰምታችኋል	-11.8016
ሰጥቻለሁ	-11.8016
ሲቀርብ	-11.8016
ቀስቱን	-11.8016
በአዕማዱም	-11.8016
በኢዮአቄም	-11.8016
በዙሪያችሁ	-11.8016
በግምባሬ	-11.8016
ባቱኤል	-11.8016
ብትሰሙ	-11.8016
ብዛታቸው	-11.8016
ተበቃዩ	-11.8016
ተነጋገረ	-11.8016
ተካፈሉ	-11.8016
ታለቅሳለች	-11.8016
ታስባላችሁ	-11.8016
ታገኛለህ	-11.8016
ነገሥታቱ	-11.8016
አላነበባችሁምን	-11.8016
አላወቅሁም	-11.8016
አላደረጉም	-11.8016
አመጣባቸዋለሁ	-11.8016
አሦራውያን	-11.8016
አርፋክስድ	-11.8016
አሳደዱአቸው	-11.8016
አስወግዱ	-11.8016
አቆማለሁ	-11.8016
አትሂዱ	-11.8016
አትሥሩበት	-11.8016
አንጐራጐሩ	-11.8016
አከማቹ	-11.8016
አይዞአችሁ	-11.8016
አድምጠኝ	-11.8016
አድራጊ	-11.8016
አድርጋቸው	-11.8016
ኤልሳቤጥ	-11.8016
እለምናለሁ	-11.8016
እመታለሁ	-11.8016
እችላለሁ	-11.8016
እነግርሃለሁ	-11.8016
እንደነዚህ	-11.8016
እንዲቀበል	-11.8016
እንዳትል	-11.8016
እንዳደረግህ	-11.8016
እውነቱን	-11.8016
እግረኞች	-11.8016
እጮኻለሁ	-11.8016
ከፈላቸው	-11.8016
ኰበለሉ	-11.8016
ወገባቸው	-11.8016
የቂጣውን	-11.8016
የቃሬያም	-11.8016
የዘብዴዎስ	-11.8016
ያደርጋት	-11.8016
ይመለከታል	-11.8016
ይሸፍኑ	-11.8016
ይበቅላል	-11.8016
ይበዛሉ	-11.8016
ይነድዳል	-11.8016
ይንቀጠቀጣሉ	-11.8016
ይንገሥ	-11.8016
ይጠቅማል	-11.8016
ድውዮች	-11.8016
ጣዖቶቻችሁ	-11.8016
▁አዘዘው።	-11.8016
ሆምጣጤ	-11.8016
መሳፍንቱ	-11.8016
መቃኖች	-11.8016
መኳንንቱ	-11.8016
ሰላዮች	-11.8016
ስደተኞች	-11.8016
ሶፎንያስ	-11.8016
በልቶአል	-11.8016
ተናገሩአቸው	-11.8016
ተገኝቶአል	-11.8016
አልሰማህም	-11.8016
አልፈር	-11.8016
አትግደል	-11.8016
አዘንብል	-11.8016
አደጎች	-11.8016
እንሆናለን	-11.8016
ወጥተዋል	-11.8016
የሚደረግ	-11.8016
ያዘዛቸው	-11.8016
ያደረጋችሁት	-11.8016
ይባረካሉ	-11.8016
ጋለሞታይቱ	-11.8016
ፈርሶአል	-11.8016
ፍላጾች	-11.8016
ፍቅራችሁ	-11.8016
ሰንባላጥ	-11.8016
በመካከሉ	-11.8016
ተመላለሰ	-11.8016
መለያየት	-11.8016
ይደርቃል	-11.8016
የመታጠቢያውን	-11.8016
ትተኛለህ	-11.8016
አይገባህም	-11.8016
አካይያ	-11.8016
ትገዛለህ	-11.8016
ጥርሳቸው	-11.8016
አሰናበተ	-11.8016
ያቀርባሉ	-11.8016
ይሰማራሉ	-11.8016
መለሳችሁ	-11.8016
ሱባዔ	-11.8016
ተገለጥ	-11.8016
አልመጣሁም	-11.8016
የተጠቃ	-11.8016
ያድራል	-11.8016
ይሆኑኛል	-11.8016
መሰምርያቸው	-11.8016
ጠንካራ	-11.8017
የተዋበች	-11.8017
ቢሰፋ	-11.8017
ይሰግድ	-11.8017
ይተኛሉ	-11.8017
የወጣውን	-11.8018
የጠፋውን	-11.8018
ወደዚች	-11.8019
እንዲሰጥ	-11.8019
አካሄድ	-11.802
ቢሰጥ	-11.8021
እየሆኑ	-11.8022
ይጥላል	-11.8023
አድናት	-11.8023
የተመሸጉትን	-11.8023
አስተውል	-11.8023
የተሰወረው	-11.8024
ያፈራል	-11.8025
የተሰጠውን	-11.8032
ጠፍር	-11.8032
የልመናዬን	-11.8032
አባትህንና	-11.8036
ደረሰባቸው	-11.8038
አረዱ	-11.8039
እስኪያልፍ	-11.804
በሸለቆውም	-11.8041
የምድያምን	-11.8043
ተከሉ	-11.8048
የተፈራ	-11.8049
በዘመኑም	-11.8056
የምታደርግ	-11.8056
አይወጣም	-11.8059
ገባባት	-11.8077
አልልም	-11.8078
በመንገዱም	-11.8079
አረግ	-11.8088
ያደረግሁ	-11.8096
አውናን	-11.8108
አገረ	-11.8114
የኤዶምያስን	-11.8121
ይጠግቡ	-11.8151
ያሳይ	-11.8162
ነበረባቸው	-11.8207
ምርኮውን	-11.821
አደረገላቸው	-11.8218
ተመሸጉት	-11.8357
መለከቱም	-11.8395
ዳርቻቸው	-11.8433
የምትል	-11.848
ልብሱም	-11.8577
የማደሪያው	-11.866
w	-11.8717
ሰንሰለት	-11.8791
ሆነበት	-11.8925
የቀሩትንም	-11.9087
ተገረዘ	-11.9088
ላክኋቸው	-11.9088
መቅሠፍቴን	-11.9088
መንፈሳችሁ	-11.9088
መዛነቢያዎቹም	-11.9088
ማረፊያ	-11.9088
ማጽናናት	-11.9088
ሰንበታቴንም	-11.9088
ሰዎቻቸው	-11.9088
ሲድራቅና	-11.9088
ስለሚሆን	-11.9088
ሽመልመሌ	-11.9088
በሚናገሩ	-11.9088
በእርሳቸው	-11.9088
በዙሪያችን	-11.9088
በየሰሞናቸው	-11.9088
በጥቂቱ	-11.9088
ተሰብሰቡ	-11.9088
ታደርጋቸዋለህ	-11.9088
ትመላለሱ	-11.9088
ትምክህት	-11.9088
ኑሮአችሁ	-11.9088
አላስቀረም	-11.9088
አላውቀውም	-11.9088
አልተመለሰችም	-11.9088
አስቀድመን	-11.9088
አታመንዝር	-11.9088
አኑሩት	-11.9088
አይዘገይም	-11.9088
አጥማጆች	-11.9088
ኢዮሳፍጥ	-11.9088
እመለከታለሁ	-11.9088
እንዳዘዝሁህ	-11.9088
እጽፍላችኋለሁ	-11.9088
እፈጽማለሁ	-11.9088
ከመካከላችሁ	-11.9088
ከተሞቹን	-11.9088
ወረድሁ	-11.9088
ወስደዋል	-11.9088
ወንበዴዎች	-11.9088
ወደሚሆን	-11.9088
ወገብህን	-11.9088
ዋነኛው	-11.9088
ዓይበታቸው	-11.9088
የሌለባት	-11.9088
የሚሆኑትን	-11.9088
የሚቃወም	-11.9088
የሚከፍት	-11.9088
የሚያኖር	-11.9088
የምታየው	-11.9088
የምትሰሙ	-11.9088
የቢዖር	-11.9088
የተሾሙት	-11.9088
ያረክስ	-11.9088
ያደርጋቸዋል	-11.9088
ይሆንለታል	-11.9088
ይሰናከላሉ	-11.9088
ይስዓር	-11.9088
ይታመናሉ	-11.9088
ይዘምራሉ	-11.9088
ይዘራል	-11.9088
ይፈስሳል	-11.9088
ፈርሰዋል	-11.9088
መተላለፊያ	-11.9088
ሰጥቼአለሁ	-11.9088
ሲነጋገሩ	-11.9088
ቂርያትአርባቅ	-11.9088
በዙሪያዬ	-11.9088
ባሎቻቸው	-11.9088
ባስልኤል	-11.9088
ተሰሎንቄ	-11.9088
ተናግረሃል	-11.9088
ተከናወነ	-11.9088
ተፈቅዶአል	-11.9088
ታስተምር	-11.9088
ታደርገዋለህ	-11.9088
አምላኮቻቸው	-11.9088
አሞናውያን	-11.9088
አናጢዎች	-11.9088
አዝዞአል	-11.9088
ኢይዝራኤላዊው	-11.9088
እምነቱ	-11.9088
እንዳያልፍ	-11.9088
እንድታውቁ	-11.9088
እጸልያለሁ	-11.9088
ወላጆች	-11.9088
የሚበልጠው	-11.9088
የሚያበራ	-11.9088
የሚያፈራ	-11.9088
የሚደርስ	-11.9088
ያድነዋል	-11.9088
ያድናቸዋል	-11.9088
ይረግፋል	-11.9088
ጠይቀው	-11.9088
ጣፋጩን	-11.9088
ፈወሳቸው	-11.9088
ሰምተዋል	-11.9088
እፈራለሁ	-11.9088
ይጠግባል	-11.9088
ጣሉአቸው	-11.9088
የማይጠፋ	-11.9088
ተማራችሁ	-11.9088
ዘርግተው	-11.9088
የወደደችውን	-11.9088
መፍረስ	-11.9088
እናደርግ	-11.9088
አልነበረውም	-11.9088
ያዋርድ	-11.9088
ባይሰፋ	-11.9088
ብሎአቸው	-11.9088
ብቻቸውን	-11.9088
እግዚ	-11.9088
ግደለው	-11.9088
ያርፋል	-11.9088
ይመስሉ	-11.9088
ሀያኛው	-11.9089
ይገባናል	-11.9089
ያየዋል	-11.9089
ያልሁት	-11.9089
ትወርሱ	-11.9089
የምናገር	-11.9089
አበዛለሁ	-11.909
ያመጣዋል	-11.909
ይሆንላችሁ	-11.909
መውለድ	-11.909
ያድናል	-11.909
ትችላላችሁ	-11.909
አልነበሩም	-11.909
ያስባሉ	-11.909
የማያምኑ	-11.909
በየጊዜው	-11.9091
አልወጣም	-11.9091
የሚያሰኝህን	-11.9091
ሳምናስ	-11.9092
እየሄዱ	-11.9092
ከባልንጀራው	-11.9093
አንገተ	-11.9093
አትወጣም	-11.9093
እንጀራዬን	-11.9093
ያብባል	-11.9093
በተገደሉት	-11.9093
ስፋቱ	-11.9094
ጅማት	-11.9094
ሰባበረ	-11.9095
እንስሳውንም	-11.9096
እንሆን	-11.9098
የላችሁም	-11.9099
የሚናገሩትን	-11.9101
እመቤት	-11.9103
ይተኛል	-11.9104
መያዣውን	-11.9105
የሰማሁት	-11.9106
ደብዳቤውን	-11.9109
አለቃቸው	-11.911
የመቅደሱንም	-11.911
የምወደው	-11.9112
መቀመጫውን	-11.9115
ይበራል	-11.9115
የተገዛ	-11.9117
ይጠላል	-11.9122
አጣሁ	-11.9122
የአሞራውያንን	-11.9127
በባሪያው	-11.9128
አገቡት	-11.913
ጴጥሮስንና	-11.9132
በደማስቆም	-11.9134
እርድ	-11.9139
እስከዚያ	-11.914
አያልፍም	-11.9144
አይበላም	-11.9146
ከባሕርም	-11.9149
የነቢያትን	-11.9154
ሰማቸው	-11.9188
የምስክሩን	-11.919
የሰንበትን	-11.9193
ይነድድ	-11.9195
አይደር	-11.92
የአይሁድን	-11.9526
ምድርህን	-11.9826
የተመሸጉ	-11.9868
ተባባሉ	-12.0263
የሚመስሉ	-12.0285
አጥፍቶ	-12.0289
ያገልግሉ	-12.0289
ገረዶች	-12.0289
*	-12.0289
1	-12.0289
ሆዳቸው	-12.0289
ለመሸከም	-12.0289
ለሚቃጠለው	-12.0289
ለሚወድዱ	-12.0289
ሊገድለው	-12.0289
መለከቶች	-12.0289
መላልኤል	-12.0289
መሳለቂያ	-12.0289
መብራቶቹን	-12.0289
መወርወሪያዎቹንም	-12.0289
ማረካቸው	-12.0289
ማስተዋሉ	-12.0289
ምዋርተኞች	-12.0289
ምድያማውያን	-12.0289
ሰጥቶአችኋል	-12.0289
ሴቶቻቸውም	-12.0289
ቆርኔሌዎስ	-12.0289
በመልካሙ	-12.0289
በእንጨቱ	-12.0289
በኮረብቶቹ	-12.0289
በዙፋኔ	-12.0289
በጥንቃቄ	-12.0289
ብንያማዊ	-12.0289
ተሰናከሉ	-12.0289
ተሰጥታለች	-12.0289
ተናግረዋል	-12.0289
ተንበርክኮ	-12.0289
ታምኛለሁና	-12.0289
ታኖረዋለህ	-12.0289
ትቀበላላችሁ	-12.0289
ትወልዳለች	-12.0289
ትወድዱ	-12.0289
ትገኛለህ	-12.0289
ትጠብቃለህ	-12.0289
አህሊባማ	-12.0289
አላዋቂዎች	-12.0289
አልረሳሁም	-12.0289
አልተፈቀደም	-12.0289
አልጋህን	-12.0289
አመጣብሻለሁ	-12.0289
አሳይሃለሁ	-12.0289
አስቀመጡት	-12.0289
አስቀድመህ	-12.0289
አትቀበሉ	-12.0289
አነሣለሁ	-12.0289
አነድዳለሁ	-12.0289
አውቃችኋልና	-12.0289
አያታልል	-12.0289
አይቅረብ	-12.0289
አይቻለኝም	-12.0289
አደርግልሃለሁ	-12.0289
አደባባዮች	-12.0289
አድርአዛርን	-12.0289
አድርጋችኋል	-12.0289
አገኛቸው	-12.0289
አጥፋቸው	-12.0289
አጫጆች	-12.0289
አፈሰሱ	-12.0289
ኤሊፋላት	-12.0289
ኤድራይ	-12.0289
እሰባብራለሁ	-12.0289
እሰጣታለሁ	-12.0289
እስረኞች	-12.0289
እሻለሁ	-12.0289
እቈርጣለሁ	-12.0289
እበቀላለሁ	-12.0289
እበትናቸዋለሁ	-12.0289
እባቦች	-12.0289
እንዳትሞቱ	-12.0289
እያመሰገኑ	-12.0289
እገልጣለሁ	-12.0289
እገድላለሁ	-12.0289
እጨምራለሁ	-12.0289
ከሚመጣው	-12.0289
ከበቡአት	-12.0289
ከነዚህ	-12.0289
ከአሮዔር	-12.0289
ከእንቅልፉ	-12.0289
ክብራቸው	-12.0289
ወደሚመለከተው	-12.0289
ወደቀባቸው	-12.0289
ወድቀዋል	-12.0289
ወድቆአል	-12.0289
ወድዶአልና	-12.0289
ዓይናችሁን	-12.0289
ዓይኖቻችን	-12.0289
የሚሰግዱ	-12.0289
የሚያስፈልገው	-12.0289
የሚደረገው	-12.0289
የማዝዘውን	-12.0289
የማይረባ	-12.0289
የማይታዘዙ	-12.0289
የምትቀመጪ	-12.0289
የምነግርህን	-12.0289
የምናገረው	-12.0289
የቀናውን	-12.0289
የቅብዓቱን	-12.0289
የተቀረጹትን	-12.0289
የተገኙት	-12.0289
የአስቆሮቱ	-12.0289
የአኪጦብ	-12.0289
የኢያዕር	-12.0289
የዓሚሁድ	-12.0289
የጌድሶናውያን	-12.0289
የጣፈጠ	-12.0289
ያርደዋል	-12.0289
ያሰረችበት	-12.0289
ያነግሡት	-12.0289
ያደርጋቸው	-12.0289
ያገኛሉ	-12.0289
ያፈስሰዋል	-12.0289
ይላችኋል	-12.0289
ይመሰክሩ	-12.0289
ይመሰክራል	-12.0289
ይረሕምኤል	-12.0289
ይታገሣል	-12.0289
ይወሰዳል	-12.0289
ይዘጋበታል	-12.0289
ይደረጋል	-12.0289
ይገባቸዋል	-12.0289
ይገድላል	-12.0289
ይጠቅመዋል	-12.0289
ይጠግባሉ	-12.0289
ይጭናሉ	-12.0289
ይፈርሳሉ	-12.0289
ግደላቸው	-12.0289
ጠባቆች	-12.0289
ጠብቄአለሁ	-12.0289
ፈቀደላቸው	-12.0289
ፈታላቸው	-12.0289
ፍዳቸውን	-12.0289
በእግራችሁ	-12.0289
ተገድለው	-12.0289
ትሰጣቸዋለህ	-12.0289
አመጡአቸው	-12.0289
አስቈጣ	-12.0289
ይበተናሉ	-12.0289
ይገባሃል	-12.0289
ትምህርቱ	-12.0289
ትጠጣላችሁ	-12.0289
ትጠፋላችሁ	-12.0289
መረባቸውን	-12.0289
እሰማለሁ	-12.0289
ይሰበራል	-12.0289
▁አሉአት።	-12.0289
መብራቱ	-12.0289
ተማማሉ	-12.0289
አጥብቃችሁ	-12.0289
ተማመኑ	-12.0289
በተዘረጋች	-12.0289
ይከፍላል	-12.0289
ያሳድድ	-12.0289
ያገኛችሁ	-12.0289
ትወርሳላችሁ	-12.0289
ትገድሉ	-12.0289
አይበልጥም	-12.0289
አድርገን	-12.0289
ያሰኛል	-12.0289
ትሠራለህ	-12.0289
አልናገርም	-12.0289
ትጠፋለች	-12.0289
አልወደዱም	-12.0289
ተማከረ	-12.0289
ተቃጠሉ	-12.029
አልራራም	-12.029
ይድናሉ	-12.029
አልተመለሰም	-12.029
የተሰበረውን	-12.029
የተናገሩትን	-12.029
በአርያም	-12.029
ትውልዱ	-12.029
ስንሆን	-12.029
በጆሮዬ	-12.029
በደረቱ	-12.029
ዔግላ	-12.029
የምትባለው	-12.029
የምሥራች	-12.029
አልፈራም	-12.0291
አትፍራቸው	-12.0291
ተበትነው	-12.0291
ሰምተህ	-12.0291
አመለጠ	-12.0291
አትፈራም	-12.0291
አብራችሁ	-12.0291
የለበትም	-12.0292
ይቃጠል	-12.0292
ከተገደሉት	-12.0292
ሰራብያ	-12.0292
የማይወድ	-12.0292
ያልቃሉ	-12.0293
አሳደደ	-12.0293
ገብሱ	-12.0293
የምትባል	-12.0293
ፍልስጥኤማዊውም	-12.0293
ይልካል	-12.0294
ይበላዋል	-12.0294
የሚመስሉትን	-12.0294
ያወጣቸው	-12.0294
የተገደሉት	-12.0295
ጅራት	-12.0295
የከበረውንም	-12.0295
አትሰጥም	-12.0297
በማደሪያህ	-12.0298
አይቈጠርም	-12.03
አትውሰድ	-12.0301
የግብጽንም	-12.0301
አያስብ	-12.0301
ጠርቶአል	-12.0302
አያመልጥም	-12.0303
አይመለከትም	-12.0306
ይብሉት	-12.0309
እድፍ	-12.0319
የቀረበው	-12.0319
ይርቃል	-12.0324
እየሠራ	-12.0328
የእርሻውን	-12.0346
ለአብራም	-12.0362
ሰበንያ	-12.0435
ተሸከሙት	-12.0985
▁አለቻቸው።	-12.1179
▁ብትጠብቅ፥	-12.1179
ማምለኪያ	-12.1379
ካጠፋቸው	-12.1655
v	-12.1655
ሁለንተናው	-12.1655
ለመቀበል	-12.1655
ለብጣቸው	-12.1655
መልካሞቹን	-12.1655
መልካሞች	-12.1655
መርጫለሁ	-12.1655
መስሎአቸው	-12.1655
መዛግብቱ	-12.1655
መደምደሚያ	-12.1655
መጫሪያዎቹን	-12.1655
ሚስቶቻቸውን	-12.1655
ማንደጃዎቹን	-12.1655
ምስሎቻቸው	-12.1655
ራራላቸው	-12.1655
ሰምተሃል	-12.1655
ሰብሮአል	-12.1655
ሳይቀጣ	-12.1655
ስእለቴን	-12.1655
ቂርያታይም	-12.1655
በመጽናት	-12.1655
በማዳንህ	-12.1655
በጫንቃው	-12.1655
በፍጥነት	-12.1655
ባለጠጎች	-12.1655
ብታሰናክልህ	-12.1655
ብንያማውያን	-12.1655
ተረድቼአለሁ	-12.1655
ተካፋዮች	-12.1655
ተወልዶአል	-12.1655
ተወግተውም	-12.1655
ተዘጋጅቶአል	-12.1655
ታቃጥላለህ	-12.1655
ታገኛላችሁ	-12.1655
ታጠፋቸዋለህ	-12.1655
ትመለከታለህ	-12.1655
ትእዛዛቱን	-12.1655
ትውልዶች	-12.1655
ትፈርዳለህ	-12.1655
ንግግሬን	-12.1655
አላወጣቸውም	-12.1655
አልታየም	-12.1655
አስማተኞች	-12.1655
አስቀራለሁ	-12.1655
አስቦአልና	-12.1655
አታርክሱ	-12.1655
አትመስክር	-12.1655
አትስረቅ	-12.1655
አትዘግይ	-12.1655
አከብራለሁ	-12.1655
አኪናሆም	-12.1655
አካሄዳቸው	-12.1655
አወጣችኋለሁ	-12.1655
አውቀዋለሁ	-12.1655
አይጠግብም	-12.1655
አደርግሻለሁ	-12.1655
አጠፉአቸው	-12.1655
አጠፋቸዋለሁ	-12.1655
አፈስሳለሁ	-12.1655
እሆነዋለሁ	-12.1655
እለዋለሁ	-12.1655
እልከኝነት	-12.1655
እሰበስባችኋለሁ	-12.1655
እስራኤላዊ	-12.1655
እስራኤላውያን	-12.1655
እስካደርግልህ	-12.1655
እቀመጣለሁ	-12.1655
እቀኛለሁ	-12.1655
እባርክሃለሁ	-12.1655
እንደሚበርር	-12.1655
እንዳልነበረ	-12.1655
እንዳይረክስ	-12.1655
እከፍታለሁ	-12.1655
እውነተኞች	-12.1655
እደክማለሁ	-12.1655
እግዚአሔር	-12.1655
እፈርዳለሁ	-12.1655
እፍረታቸውን	-12.1655
ከሚቃጠል	-12.1655
ከወይፈኑ	-12.1655
ወጥቻለሁ	-12.1655
ዘራቸውን	-12.1655
ዛብሄልና	-12.1655
የሚመጡትን	-12.1655
የሚችለውን	-12.1655
የሚንቀሳቀሱ	-12.1655
የሚኖርባት	-12.1655
የሚከለክል	-12.1655
የሚከተል	-12.1655
የሚያሰክር	-12.1655
የሚያቀርቡት	-12.1655
የማያውቁትን	-12.1655
የማያውቅ	-12.1655
የማይቻል	-12.1655
የማይችሉትን	-12.1655
የምታቀርቡት	-12.1655
የምትወዱ	-12.1655
የተወደዳችሁ	-12.1655
የተጻፉትን	-12.1655
የታመመውን	-12.1655
የፈረሱት	-12.1655
ያመለጡት	-12.1655
ያመሰግናሉ	-12.1655
ያመነዝራል	-12.1655
ያስተምረው	-12.1655
ያስተምራል	-12.1655
ያብረቀርቅ	-12.1655
ያዋርዳል	-12.1655
ያገለግለኝ	-12.1655
ይሆሐናን	-12.1655
ይሆንባችኋል	-12.1655
ይሉአቸዋል	-12.1655
ይመልስለታል	-12.1655
ይመልስልኛል	-12.1655
ይመስለኛል	-12.1655
ይሠዋሉ	-12.1655
ይሰበካል	-12.1655
ይሰድዳል	-12.1655
ይቈጠራል	-12.1655
ይደርቃሉ	-12.1655
ይደነቃሉ	-12.1655
ይደነቃል	-12.1655
ይደክማሉ	-12.1655
ደኅነኛው	-12.1655
ደክማለች	-12.1655
ጓጕንቸሮች	-12.1655
ጠማምነት	-12.1655
ቢደረግ	-12.1655
ተደፍተው	-12.1655
ትለዋለህ	-12.1655
አላመኑም	-12.1655
አገልግሉ	-12.1655
ወረደባቸው	-12.1655
ወሰዱአቸው	-12.1655
የአድባር	-12.1655
ያጠፉአቸው	-12.1655
ይከራከር	-12.1655
ያርፋሉ	-12.1655
ያወጣቸዋል	-12.1655
ይሆንላቸው	-12.1655
ማቱሳላ	-12.1655
አህያይቱን	-12.1655
የማደርግ	-12.1655
እንድሆን	-12.1655
ይሰብራል	-12.1655
ትወጣላችሁ	-12.1655
ይሆንልኛል	-12.1655
አሳድደው	-12.1655
ያያችሁትን	-12.1655
ትመልሳለህ	-12.1655
ለማምጣት	-12.1655
እንሠራለን	-12.1655
አምናለሁ	-12.1655
ይበትናል	-12.1655
በተጠራበት	-12.1655
ከአፋችሁ	-12.1655
እንወጣለን	-12.1655
ግርፋት	-12.1655
ሰድደው	-12.1655
መገለጥ	-12.1655
ይለምናል	-12.1655
እሰበስብ	-12.1655
እየተንቀጠቀጡ	-12.1655
አልተናገርሁም	-12.1655
ይሰድድ	-12.1655
አኑረው	-12.1655
ካሳተው	-12.1655
ገላትያ	-12.1655
በመከራችን	-12.1655
እስካለችው	-12.1655
ግምባር	-12.1655
ፋንድያ	-12.1656
የተቀደሱትን	-12.1656
አልጠጣም	-12.1656
የምትለው	-12.1656
ትተውኛል	-12.1656
ትገባለህ	-12.1656
አልሄደም	-12.1656
አትመኑ	-12.1656
በየሠራዊቶቻቸው	-12.1656
ትላቸው	-12.1657
በብብትህ	-12.1657
ትቃጠል	-12.1657
ካደረገ	-12.1657
እንሄድ	-12.1657
ግልገል	-12.1657
አትርሳ	-12.1657
ተለያየ	-12.1657
ብያለሁ	-12.1657
የተቀጠቀጠ	-12.1657
በጥማት	-12.1658
አፍስሰው	-12.1658
የፍችዋ	-12.1658
ይሺያ	-12.1659
ቃይናን	-12.1659
ጽድቅህንም	-12.1659
ምርኮአቸውን	-12.166
ከተፈጠረ	-12.1661
የኔርያ	-12.1662
የተበተኑት	-12.1663
የተከበረ	-12.1663
የማያደርግ	-12.1665
የዚች	-12.1666
ኢትዮጵያውያን	-12.1677
ሰበከላቸው	-12.1678
የምትሠራ	-12.1696
ሆነላቸው	-12.1839
ወጣላቸው	-12.2105
አድርግላቸው	-12.2209
ስድስተኛ	-12.314
የምትበሉ	-12.3212
ተንቀጠቀጠች	-12.3214
ሠራዊቶቻቸው	-12.3235
gWd	-12.3237
መደገፊያ	-12.3237
𐊣	-12.3237
"	-12.3237
l	-12.3237
ሄሮድያዳ	-12.3237
ሆኛለሁ	-12.3237
ለመጠየቅ	-12.3237
ለመፈለግ	-12.3237
ለወይፈኖቹና	-12.3237
መልሰዋል	-12.3237
መረጥኋት	-12.3237
መርከበኞች	-12.3237
መርከቢቱም	-12.3237
መብራቶች	-12.3237
መኳንንቶች	-12.3237
መድኃኒቶች	-12.3237
መጠቅለያ	-12.3237
ሙሽራይቱ	-12.3237
ማናቸይቱ	-12.3237
ሞግዚት	-12.3237
ሬሳቸውም	-12.3237
ሰገዱላቸውም	-12.3237
ሰጥቼዋለሁ	-12.3237
ቀርሜሎሳዊው	-12.3237
በሚኖርበት	-12.3237
በኢያቡሳዊው	-12.3237
በእንቢተኝነት	-12.3237
በየሕዝባቸው	-12.3237
ተላላፊዎች	-12.3237
ተሰረየችልህ	-12.3237
ተሻግረው	-12.3237
ተሻግራችሁ	-12.3237
ተአምራቴ	-12.3237
ተከማችተው	-12.3237
ተከራከር	-12.3237
ተከተለቻቸው	-12.3237
ታስወግዳለህ	-12.3237
ታቀርበዋለህ	-12.3237
ታድነኛለህ	-12.3237
ታድናለህ	-12.3237
ታጠፋለህን	-12.3237
ቴልጌልቴልፌልሶር	-12.3237
ትሄዳላችሁ	-12.3237
ትምክህታችን	-12.3237
ትረጨዋለህ	-12.3237
ትሰግዱላቸውም	-12.3237
ትሰጠኛለህ	-12.3237
ትቀመጣላችሁ	-12.3237
ትወድቃላችሁ	-12.3237
ትጠግባለች	-12.3237
𐊼	-12.3237
s	-12.5116
2	-12.5116
d	-12.66
o	-13.0454
3	-13.0454
]	-13.0454
D	-13.1704
)	-13.4799
-	-13.4799
5	-13.4799
e	-13.4799
A	-13.9299
ፏ	-14.2436
ጧ	-14.2437
ጒ	-14.2438
ኼ	-14.2439
ኲ	-14.244
ኟ	-14.2441
ኗ	-14.2442
ቿ	-14.2443
ቷ	-14.2444
ሏ	-14.2445
4	-14.2446
0	-14.2447
ፂ	-14.2448
ዷ	-14.2449
ቊ	-14.245
(	-14.2451
ፒ	-14.2452
ፑ	-14.2453
[	-14.2454
t	-14.2455
ፓ	-14.2456
ፐ	-14.2457
ሷ	-14.2458
T	-14.2459
ኺ	-14.246
ፔ	-14.2461
ቧ	-14.2462
K	-14.2463
ጱ	-14.2464
ጰ	-14.2465
ኾ	-14.2466
ኄ	-14.2467
ፄ	-14.2468
ዡ	-14.2469
ሓ	-14.247
ቾ	-14.2471
ሢ	-14.2472
ዤ	-14.2473
ዦ	-14.2474
W	-14.2475
ጬ	-14.2476
ጺ	-14.2477
ጼ	-14.2478
ኚ	-14.2479
ኡ	-14.248
ዢ	-14.2481
ጶ	-14.2482
ዠ	-14.2483
ሼ	-14.2484
ሒ	-14.2485
ዒ	-14.2486
ዪ	-14.2487
ኆ	-14.2488
ሑ	-14.2489
ጲ	-14.249
ጪ	-14.2491
ኻ	-14.2492
ኜ	-14.2493
ፆ	-14.2494
ኽ	-14.2495
ጵ	-14.2496
ዥ	-14.2497
ሖ	-14.2498
ዣ	-14.2499
ጾ	-14.25
ኹ	-14.2501
ሤ	-14.2502
ፁ	-14.2503
ዑ	-14.2504
ዉ	-14.2505
ኀ	-14.2506
ዌ	-14.2507
ጴ	-14.2508
ጤ	-14.2509
ጩ	-14.251
ኣ	-14.2511
ዐ	-14.2512
ኰ	-14.2513
ጳ	-14.2514
ቋ	-14.2515
ኙ	-14.2516
ቺ	-14.2517
ኒ	-14.2518
ሂ	-14.2519
ፃ	-14.252
ቲ	-14.2521
ቄ	-14.2522
ሾ	-14.2523
ሹ	-14.2524
ጓ	-14.2525
ጄ	-14.2526
ጮ	-14.2527
ጹ	-14.2528
ፀ	-14.2529
ኬ	-14.253
ዞ	-14.2531
ኘ	-14.2532
ጐ	-14.2533
ሀ	-14.2534
ኦ	-14.2535
ጂ	-14.2536
ጫ	-14.2537
ኵ	-14.2538
ዖ	-14.2539
ኸ	-14.254
ኅ	-14.2541
ኳ	-14.2542
ጕ	-14.2543
ጦ	-14.2544
ፅ	-14.2545
ቂ	-14.2546
ፎ	-14.2547
ቼ	-14.2548
ጁ	-14.2549
ሦ	-14.255
ቈ	-14.2551
ጃ	-14.2552
ኮ	-14.2553
ዴ	-14.2554
ኞ	-14.2555
ጭ	-14.2556
ቦ	-14.2557
ኩ	-14.2558
ቍ	-14.2559
ጻ	-14.256
ኪ	-14.2561
ጎ	-14.2562
ዩ	-14.2563
ጨ	-14.2564
ሻ	-14.2565
ሡ	-14.2566
ሜ	-14.2567
ጢ	-14.2568
ሶ	-14.2569
ጸ	-14.257
ሣ	-14.2571
ጀ	-14.2572
ፉ	-14.2573
ቴ	-14.2574
ሸ	-14.2575
ሐ	-14.2576
ዶ	-14.2577
ሊ	-14.2578
ሃ	-14.2579
ቁ	-14.258
ዙ	-14.2581
ሬ	-14.2582
ጌ	-14.2583
ኋ	-14.2584
ቹ	-14.2585
ጽ	-14.2586
ኃ	-14.2587
ዮ	-14.2588
ጡ	-14.2589
ሽ	-14.259
ቆ	-14.2591
ዊ	-14.2592
ቻ	-14.2593
ዕ	-14.2594
ቡ	-14.2595
ዜ	-14.2596
ሪ	-14.2597
ሠ	-14.2598
ፊ	-14.2599
ኖ	-14.26
ኢ	-14.2601
ሴ	-14.2602
ጊ	-14.2603
ሮ	-14.2604
ሙ	-14.2605
ሎ	-14.2606
ሌ	-14.2607
ዎ	-14.2608
ኝ	-14.2609
ዛ	-14.261
ጉ	-14.2611
ቤ	-14.2612
ዓ	-14.2613
ዝ	-14.2614
ኤ	-14.2615
ሕ	-14.2616
ሞ	-14.2617
ቶ	-14.2618
ሥ	-14.2619
ጋ	-14.262
ሩ	-14.2621
ፈ	-14.2622
ሚ	-14.2623
ክ	-14.2624
ቅ	-14.2625
ሔ	-14.2626
ዳ	-14.2627
ዘ	-14.2628
ቀ	-14.2629
ታ	-14.263
ወ	-14.2631
m	-14.2632
@	-14.2632
u	-14.2632
b	-14.2632
ነ	-14.2632
