<pad>	0
</s>	0
<unk>	0
▁t	-0
▁th	-1
▁a	-2
in	-3
▁the	-4
on	-5
re	-6
at	-7
en	-8
is	-9
▁o	-10
er	-11
▁w	-12
▁s	-13
▁c	-14
it	-15
ion	-16
or	-17
an	-18
▁p	-19
es	-20
▁of	-21
▁in	-22
▁to	-23
▁an	-24
▁f	-25
▁b	-26
ro	-27
al	-28
▁and	-29
ed	-30
ing	-31
ar	-32
▁m	-33
ou	-34
ent	-35
ic	-36
▁re	-37
▁h	-38
▁d	-39
le	-40
om	-41
ve	-42
▁n	-43
st	-44
▁be	-45
▁I	-46
▁is	-47
ct	-48
▁that	-49
▁e	-50
il	-51
ation	-52
pe	-53
ly	-54
as	-55
▁E	-56
▁on	-57
ment	-58
▁for	-59
ot	-60
▁T	-61
im	-62
▁wh	-63
ut	-64
▁l	-65
▁we	-66
id	-67
se	-68
ur	-69
▁pro	-70
▁M	-71
ort	-72
▁C	-73
▁Th	-74
ol	-75
▁g	-76
uro	-77
▁con	-78
ce	-79
▁al	-80
▁it	-81
▁Euro	-82
▁Europe	-83
res	-84
un	-85
et	-86
ul	-87
ver	-88
▁this	-89
port	-90
▁are	-91
ra	-92
ld	-93
ig	-94
▁P	-95
▁de	-96
▁as	-97
▁ha	-98
ow	-99
ith	-100
omm	-101
ies	-102
▁S	-103
▁st	-104
ate	-105
▁with	-106
ill	-107
ch	-108
ould	-109
▁European	-110
ir	-111
▁ne	-112
▁not	-113
▁The	-114
▁have	-115
em	-116
▁su	-117
sion	-118
op	-119
ity	-120
oun	-121
ad	-122
ive	-123
ay	-124
us	-125
ke	-126
ble	-127
th	-128
ers	-129
▁A	-130
ore	-131
▁v	-132
ci	-133
▁ex	-134
os	-135
ter	-136
ich	-137
▁im	-138
ant	-139
▁will	-140
ust	-141
ess	-142
ia	-143
▁which	-144
▁y	-145
▁Comm	-146
▁by	-147
igh	-148
▁en	-149
ect	-150
▁sh	-151
ain	-152
▁W	-153
▁r	-154
if	-155
qu	-156
ge	-157
▁-	-158
ission	-159
ber	-160
tr	-161
▁ag	-162
ere	-163
iv	-164
▁res	-165
▁has	-166
est	-167
art	-168
um	-169
am	-170
our	-171
▁com	-172
so	-173
▁at	-174
▁le	-175
▁U	-176
▁Commission	-177
ions	-178
▁all	-179
ight	-180
ure	-181
▁or	-182
▁se	-183
resid	-184
und	-185
▁wor	-186
▁also	-187
▁Mr	-188
pp	-189
▁Presid	-190
ud	-191
▁would	-192
rom	-193
ff	-194
od	-195
▁so	-196
ie	-197
ates	-198
and	-199
▁EU	-200
▁pol	-201
el	-202
ist	-203
▁(	-204
end	-205
▁Un	-206
ard	-207
▁reg	-208
▁Mem	-209
▁int	-210
pport	-211
cial	-212
▁our	-213
▁St	-214
ac	-215
▁me	-216
ations	-217
very	-218
▁part	-219
con	-220
▁coun	-221
▁from	-222
▁F	-223
▁can	-224
▁President	-225
▁should	-226
▁there	-227
up	-228
▁do	-229
ree	-230
▁ad	-231
▁We	-232
▁2	-233
ult	-234
▁ta	-235
▁ch	-236
use	-237
▁countr	-238
vel	-239
▁In	-240
▁G	-241
ue	-242
▁am	-243
arl	-244
▁must	-245
▁Member	-246
▁but	-247
▁B	-248
▁Union	-249
▁H	-250
▁need	-251
▁go	-252
arlia	-253
arliament	-254
ally	-255
▁ab	-256
ans	-257
lo	-258
du	-259
▁inc	-260
all	-261
▁fa	-262
▁li	-263
ous	-264
▁R	-265
▁you	-266
ren	-267
▁report	-268
reat	-269
▁It	-270
▁States	-271
cc	-272
▁been	-273
ome	-274
▁imp	-275
▁ma	-276
ance	-277
ther	-278
ire	-279
ish	-280
ary	-281
ments	-282
▁more	-283
ab	-284
▁co	-285
out	-286
▁Parliament	-287
▁tr	-288
king	-289
▁import	-290
▁dis	-291
▁fin	-292
▁us	-293
gh	-294
▁like	-295
▁their	-296
▁cont	-297
oc	-298
▁j	-299
able	-300
▁right	-301
▁its	-302
▁comm	-303
ast	-304
ens	-305
▁20	-306
▁L	-307
▁was	-308
▁un	-309
▁who	-310
▁prop	-311
conom	-312
ical	-313
ime	-314
ial	-315
▁polic	-316
gy	-317
▁very	-318
ction	-319
▁these	-320
▁qu	-321
tern	-322
▁This	-323
ib	-324
▁comp	-325
▁app	-326
ational	-327
▁pl	-328
▁cons	-329
▁pe	-330
fore	-331
cy	-332
ress	-333
▁cr	-334
▁D	-335
ong	-336
▁bec	-337
▁support	-338
▁econom	-339
iti	-340
▁countries	-341
▁pr	-342
ition	-343
▁he	-344
pt	-345
ities	-346
▁work	-347
▁conc	-348
ark	-349
ution	-350
▁1	-351
ause	-352
age	-353
▁pos	-354
itt	-355
ople	-356
▁bet	-357
▁str	-358
▁man	-359
get	-360
▁one	-361
▁important	-362
velop	-363
▁O	-364
her	-365
▁eff	-366
▁they	-367
▁po	-368
lic	-369
cil	-370
orm	-371
ll	-372
ise	-373
▁ind	-374
ear	-375
▁pre	-376
▁other	-377
▁new	-378
▁propos	-379
▁than	-380
ces	-381
▁people	-382
ose	-383
▁out	-384
ject	-385
▁Coun	-386
pect	-387
ign	-388
▁vot	-389
▁agree	-390
▁Council	-391
ence	-392
▁acc	-393
ility	-394
ated	-395
▁spe	-396
▁time	-397
▁about	-398
ide	-399
ever	-400
▁und	-401
▁policy	-402
▁exp	-403
one	-404
▁mo	-405
▁act	-406
▁my	-407
ord	-408
arket	-409
▁ra	-410
ice	-411
▁tra	-412
▁develop	-413
int	-414
▁partic	-415
▁only	-416
ag	-417
▁dec	-418
ip	-419
ible	-420
▁N	-421
ular	-422
▁again	-423
▁because	-424
ep	-425
▁year	-426
▁under	-427
og	-428
cess	-429
ced	-430
▁ob	-431
▁leg	-432
ap	-433
ms	-434
ack	-435
form	-436
▁iss	-437
▁rec	-438
▁prov	-439
▁trans	-440
▁up	-441
▁market	-442
are	-443
▁sa	-444
ase	-445
owever	-446
ern	-447
we	-448
ures	-449
▁what	-450
ub	-451
ach	-452
erv	-453
ative	-454
▁economic	-455
lear	-456
▁em	-457
ugh	-458
▁finan	-459
fic	-460
ious	-461
▁dem	-462
str	-463
ieve	-464
▁cl	-465
ons	-466
lud	-467
▁rel	-468
ine	-469
▁op	-470
ink	-471
ating	-472
▁ev	-473
ian	-474
ween	-475
ention	-476
▁particular	-477
▁k	-478
▁between	-479
▁rights	-480
irst	-481
▁them	-482
▁proposal	-483
▁gro	-484
uman	-485
act	-486
▁produ	-487
resent	-488
▁take	-489
▁now	-490
eren	-491
irect	-492
▁into	-493
ues	-494
▁no	-495
ee	-496
me	-497
itiz	-498
ame	-499
▁such	-500
xt	-501
ert	-502
▁citiz	-503
▁polit	-504
▁fund	-505
eration	-506
rough	-507
▁those	-508
▁intern	-509
▁inv	-510
▁make	-511
der	-512
day	-513
▁if	-514
▁some	-515
ergy	-516
ural	-517
▁deb	-518
▁therefore	-519
▁bel	-520
tect	-521
ency	-522
▁200	-523
▁proble	-524
ace	-525
▁ter	-526
▁per	-527
▁resp	-528
ak	-529
▁ro	-530
yst	-531
▁clear	-532
▁when	-533
feren	-534
ade	-535
ors	-536
ives	-537
▁say	-538
▁see	-539
▁citizens	-540
▁financial	-541
ri	-542
stit	-543
ystem	-544
▁'	-545
▁concern	-546
▁sit	-547
▁human	-548
ific	-549
▁any	-550
▁energy	-551
ards	-552
▁dif	-553
▁fact	-554
ple	-555
▁over	-556
▁disc	-557
▁includ	-558
▁te	-559
ks	-560
now	-561
▁protect	-562
▁think	-563
▁social	-564
▁against	-565
ublic	-566
▁situ	-567
▁incre	-568
vern	-569
▁prog	-570
de	-571
iew	-572
ual	-573
▁chan	-574
▁As	-575
▁being	-576
▁many	-577
▁want	-578
▁first	-579
ised	-580
ving	-581
▁good	-582
low	-583
lement	-584
▁ens	-585
▁just	-586
▁political	-587
▁cris	-588
▁meas	-589
sel	-590
olution	-591
▁were	-592
▁country	-593
▁point	-594
unity	-595
▁system	-596
▁sub	-597
▁requ	-598
pl	-599
▁bas	-600
lect	-601
▁add	-602
▁appro	-603
▁believe	-604
rat	-605
rit	-606
ision	-607
ulation	-608
▁through	-609
opt	-610
▁rem	-611
ric	-612
▁la	-613
▁way	-614
▁effect	-615
▁However	-616
▁made	-617
rent	-618
▁adopt	-619
▁well	-620
▁order	-621
mental	-622
▁crisis	-623
eg	-624
▁J	-625
read	-626
▁quest	-627
udget	-628
wn	-629
▁poss	-630
▁know	-631
▁situation	-632
ved	-633
▁high	-634
▁today	-635
▁Wh	-636
ind	-637
ices	-638
▁use	-639
ild	-640
▁great	-641
▁development	-642
▁att	-643
▁mat	-644
▁result	-645
▁coop	-646
▁most	-647
▁Commissioner	-648
▁level	-649
▁direct	-650
ful	-651
not	-652
▁sp	-653
▁neg	-654
▁contin	-655
▁national	-656
▁jo	-657
ry	-658
▁There	-659
ough	-660
stru	-661
▁debate	-662
ality	-663
cept	-664
ict	-665
oth	-666
bers	-667
▁ass	-668
ety	-669
▁sec	-670
red	-671
ittee	-672
utions	-673
▁measures	-674
ied	-675
▁Mad	-676
▁ent	-677
▁issue	-678
isation	-679
▁budget	-680
imate	-681
uch	-682
iron	-683
▁cur	-684
▁ext	-685
▁That	-686
▁call	-687
▁even	-688
▁every	-689
▁regard	-690
▁rep	-691
ite	-692
viron	-693
▁years	-694
▁cannot	-695
pet	-696
uss	-697
▁world	-698
▁inform	-699
wo	-700
erest	-701
▁sect	-702
▁fut	-703
ov	-704
ready	-705
▁Madam	-706
isl	-707
▁future	-708
uth	-709
▁sign	-710
▁agreement	-711
▁view	-712
▁public	-713
▁already	-714
▁ach	-715
▁implement	-716
▁cooperation	-717
ood	-718
▁emp	-719
bal	-720
▁ar	-721
omen	-722
▁here	-723
▁legisl	-724
▁where	-725
▁vote	-726
▁area	-727
▁within	-728
▁interest	-729
wor	-730
▁ac	-731
▁international	-732
reed	-733
▁too	-734
arm	-735
loy	-736
▁ensure	-737
▁ful	-738
▁gen	-739
▁hel	-740
▁common	-741
▁two	-742
ass	-743
reaty	-744
▁same	-745
orities	-746
ism	-747
ount	-748
uring	-749
▁compet	-750
ibility	-751
ute	-752
▁dra	-753
▁end	-754
ertain	-755
▁impro	-756
▁democ	-757
▁Ch	-758
iven	-759
▁consid	-760
▁environ	-761
abl	-762
hip	-763
ings	-764
▁law	-765
urity	-766
bon	-767
ope	-768
oti	-769
▁exam	-770
▁help	-771
▁prev	-772
ential	-773
ited	-774
trib	-775
▁both	-776
▁cour	-777
▁respons	-778
▁def	-779
▁num	-780
▁serv	-781
▁strate	-782
▁K	-783
▁negoti	-784
20	-785
eur	-786
▁own	-787
uc	-788
ory	-789
▁fe	-790
▁mon	-791
▁sol	-792
lobal	-793
▁long	-794
▁redu	-795
▁respect	-796
▁question	-797
itions	-798
▁does	-799
▁beh	-800
▁current	-801
ail	-802
▁had	-803
ile	-804
ince	-805
ges	-806
alth	-807
cond	-808
▁how	-809
▁much	-810
▁lo	-811
▁fav	-812
▁protection	-813
▁possible	-814
▁resolution	-815
▁min	-816
ene	-817
cing	-818
▁set	-819
▁Committee	-820
▁put	-821
▁ref	-822
▁amend	-823
▁could	-824
men	-825
▁On	-826
▁Gro	-827
▁des	-828
ority	-829
▁Treaty	-830
pporteur	-831
eral	-832
ract	-833
ient	-834
▁certain	-835
lu	-836
▁gu	-837
▁govern	-838
▁rapporteur	-839
▁Se	-840
▁last	-841
alf	-842
▁your	-843
illion	-844
▁change	-845
▁state	-846
▁instit	-847
▁case	-848
▁reas	-849
▁why	-850
▁auth	-851
▁cond	-852
▁prom	-853
▁writ	-854
▁necess	-855
inci	-856
▁main	-857
▁said	-858
▁region	-859
▁sector	-860
▁wel	-861
▁still	-862
work	-863
ination	-864
▁global	-865
▁princi	-866
▁process	-867
ram	-868
▁tak	-869
urther	-870
▁ke	-871
▁product	-872
▁fra	-873
itive	-874
▁women	-875
▁writing	-876
▁particularly	-877
▁inter	-878
▁voted	-879
▁consum	-880
▁car	-881
te	-882
▁favour	-883
▁security	-884
▁est	-885
way	-886
▁course	-887
▁opport	-888
come	-889
▁hope	-890
▁stand	-891
▁object	-892
gan	-893
▁br	-894
oura	-895
▁saf	-896
▁able	-897
▁real	-898
▁Group	-899
ty	-900
arge	-901
▁lead	-902
▁group	-903
ft	-904
▁col	-905
▁represent	-906
isbon	-907
ricult	-908
▁information	-909
▁allow	-910
▁Lisbon	-911
▁number	-912
▁require	-913
▁differen	-914
▁V	-915
▁conf	-916
▁areas	-917
▁trade	-918
▁issues	-919
▁maj	-920
▁role	-921
▁since	-922
▁climate	-923
▁increas	-924
ules	-925
▁sim	-926
▁provid	-927
chn	-928
▁201	-929
▁pers	-930
▁then	-931
▁problem	-932
air	-933
▁equ	-934
▁contrib	-935
▁including	-936
ollow	-937
ources	-938
▁problems	-939
▁effective	-940
▁invest	-941
▁present	-942
▁necessary	-943
▁health	-944
ang	-945
▁cre	-946
▁needs	-947
▁place	-948
man	-949
▁av	-950
▁med	-951
▁pow	-952
▁val	-953
reedom	-954
▁example	-955
ning	-956
vers	-957
▁off	-958
entle	-959
▁gentle	-960
▁indust	-961
▁gentlemen	-962
led	-963
adies	-964
ves	-965
ines	-966
cific	-967
▁Mrs	-968
ablish	-969
fter	-970
▁thank	-971
ether	-972
ration	-973
▁better	-974
▁ser	-975
pa	-976
iol	-977
▁means	-978
▁techn	-979
eth	-980
▁his	-981
▁meet	-982
ability	-983
▁establish	-984
pr	-985
▁Min	-986
▁elect	-987
▁action	-988
ok	-989
▁aim	-990
▁program	-991
arch	-992
▁follow	-993
ound	-994
▁pri	-995
▁child	-996
▁legal	-997
▁Members	-998
▁specific	-999
its	-1000
old	-1001
▁ask	-1002
ising	-1003
▁invol	-1004
▁taken	-1005
▁De	-1006
▁may	-1007
iving	-1008
▁next	-1009
ug	-1010
▁bene	-1011
▁show	-1012
▁behalf	-1013
▁freedom	-1014
▁progress	-1015
ird	-1016
▁sm	-1017
ward	-1018
als	-1019
ents	-1020
ening	-1021
isions	-1022
▁Presidency	-1023
ank	-1024
ond	-1025
▁come	-1026
▁food	-1027
▁grow	-1028
iter	-1029
▁rev	-1030
sions	-1031
▁rules	-1032
▁project	-1033
▁without	-1034
mework	-1035
▁improve	-1036
▁consider	-1037
▁If	-1038
land	-1039
▁Con	-1040
▁rat	-1041
▁step	-1042
▁employ	-1043
▁strategy	-1044
00	-1045
ered	-1046
rodu	-1047
▁find	-1048
▁happ	-1049
▁matter	-1050
▁however	-1051
▁directive	-1052
gth	-1053
ners	-1054
allen	-1055
▁terms	-1056
▁promot	-1057
▁adopted	-1058
▁products	-1059
▁services	-1060
ss	-1061
▁Ag	-1062
iness	-1063
▁opin	-1064
▁account	-1065
▁sc	-1066
▁fac	-1067
▁agricult	-1068
ost	-1069
▁det	-1070
▁pay	-1071
▁form	-1072
▁give	-1073
▁economy	-1074
▁welcome	-1075
▁whether	-1076
▁approach	-1077
ting	-1078
▁tax	-1079
▁initi	-1080
▁effort	-1081
▁further	-1082
▁continue	-1083
▁regulation	-1084
▁negotiations	-1085
▁For	-1086
ccess	-1087
▁fish	-1088
▁legislation	-1089
he	-1090
▁contro	-1091
▁strong	-1092
▁institutions	-1093
ouse	-1094
self	-1095
wards	-1096
▁State	-1097
▁before	-1098
▁decision	-1099
ivid	-1100
▁imm	-1101
▁job	-1102
ital	-1103
▁EUR	-1104
ately	-1105
▁deal	-1106
▁word	-1107
▁funds	-1108
▁regul	-1109
▁compan	-1110
▁ladies	-1111
▁million	-1112
▁position	-1113
arant	-1114
▁plan	-1115
▁cap	-1116
ently	-1117
▁soci	-1118
▁viol	-1119
ficult	-1120
▁activ	-1121
▁difficult	-1122
ises	-1123
▁after	-1124
▁challen	-1125
DE	-1126
ne	-1127
ell	-1128
ese	-1129
▁Pro	-1130
▁inf	-1131
▁comb	-1132
usiness	-1133
▁provide	-1134
▁success	-1135
▁working	-1136
▁3	-1137
racy	-1138
▁ess	-1139
▁fore	-1140
▁organ	-1141
▁access	-1142
▁guarant	-1143
▁cult	-1144
▁discuss	-1145
nov	-1146
ratic	-1147
▁hand	-1148
ession	-1149
amental	-1150
▁serious	-1151
▁increase	-1152
imes	-1153
▁cor	-1154
▁cost	-1155
▁conditions	-1156
ner	-1157
▁pract	-1158
▁signific	-1159
min	-1160
arity	-1161
stand	-1162
ually	-1163
▁start	-1164
▁ur	-1165
chan	-1166
utes	-1167
rength	-1168
▁commit	-1169
▁resources	-1170
▁aff	-1171
▁far	-1172
ences	-1173
light	-1174
▁What	-1175
▁during	-1176
ten	-1177
▁es	-1178
ross	-1179
▁lab	-1180
arian	-1181
stain	-1182
▁used	-1183
pecial	-1184
▁reason	-1185
▁framework	-1186
▁mem	-1187
▁rese	-1188
▁small	-1189
▁second	-1190
▁strength	-1191
▁different	-1192
▁proposals	-1193
▁transport	-1194
▁euro	-1195
▁relations	-1196
▁importance	-1197
leg	-1198
▁ris	-1199
▁opinion	-1200
▁towards	-1201
ret	-1202
osed	-1203
▁given	-1204
▁United	-1205
▁proced	-1206
▁forward	-1207
▁business	-1208
▁authorities	-1209
ran	-1210
▁enc	-1211
▁pat	-1212
ingle	-1213
▁play	-1214
▁comple	-1215
▁individ	-1216
▁introdu	-1217
▁policies	-1218
▁opportunity	-1219
ffic	-1220
▁achie	-1221
▁third	-1222
▁impact	-1223
sequ	-1224
rency	-1225
▁achieve	-1226
▁mention	-1227
▁transpa	-1228
▁individual	-1229
ral	-1230
▁done	-1231
▁move	-1232
▁benef	-1233
▁speak	-1234
▁instru	-1235
mit	-1236
ases	-1237
▁som	-1238
▁tar	-1239
▁less	-1240
pecially	-1241
▁workers	-1242
▁An	-1243
▁So	-1244
▁aid	-1245
▁lif	-1246
ified	-1247
▁Fund	-1248
gether	-1249
▁based	-1250
▁reform	-1251
▁research	-1252
▁Community	-1253
▁essential	-1254
▁environmental	-1255
ph	-1256
▁aw	-1257
▁Rom	-1258
▁tal	-1259
▁express	-1260
ium	-1261
own	-1262
▁At	-1263
▁mod	-1264
▁prep	-1265
▁Intern	-1266
▁children	-1267
▁attention	-1268
▁especially	-1269
ased	-1270
ivil	-1271
ples	-1272
▁air	-1273
▁day	-1274
▁vis	-1275
▁power	-1276
ification	-1277
▁significant	-1278
ists	-1279
▁nat	-1280
overn	-1281
▁back	-1282
▁bring	-1283
▁going	-1284
▁whole	-1285
▁control	-1286
▁prevent	-1287
av	-1288
les	-1289
uct	-1290
selves	-1291
▁large	-1292
▁remain	-1293
▁quality	-1294
▁society	-1295
▁interests	-1296
▁implementation	-1297
tain	-1298
other	-1299
ec	-1300
ogn	-1301
vant	-1302
▁did	-1303
▁read	-1304
▁supp	-1305
atives	-1306
▁effic	-1307
▁innov	-1308
▁making	-1309
▁safety	-1310
▁subject	-1311
▁sustain	-1312
▁5	-1313
▁ban	-1314
▁bord	-1315
▁each	-1316
▁wish	-1317
▁basis	-1318
▁fundamental	-1319
ily	-1320
▁ca	-1321
rant	-1322
ivers	-1323
▁fight	-1324
▁recogn	-1325
▁together	-1326
eri	-1327
ove	-1328
▁el	-1329
▁ins	-1330
▁Str	-1331
▁Tur	-1332
▁var	-1333
▁manage	-1334
▁target	-1335
tic	-1336
bour	-1337
lose	-1338
▁pur	-1339
▁integ	-1340
▁encoura	-1341
▁addition	-1342
▁internal	-1343
▁democratic	-1344
▁environment	-1345
urn	-1346
ened	-1347
ogue	-1348
ident	-1349
ically	-1350
▁House	-1351
▁close	-1352
▁draft	-1353
▁positive	-1354
▁agreements	-1355
iz	-1356
iod	-1357
ways	-1358
▁dep	-1359
▁pass	-1360
▁These	-1361
▁demand	-1362
▁democracy	-1363
▁responsibility	-1364
ung	-1365
▁Fin	-1366
▁down	-1367
lusion	-1368
▁three	-1369
▁really	-1370
▁industry	-1371
▁proposed	-1372
li	-1373
ts	-1374
▁19	-1375
ared	-1376
▁few	-1377
▁Russ	-1378
▁free	-1379
▁full	-1380
▁expect	-1381
▁Therefore	-1382
ext	-1383
ify	-1384
pri	-1385
▁bu	-1386
▁ide	-1387
▁lim	-1388
▁accept	-1389
▁become	-1390
▁greater	-1391
▁technol	-1392
▁increasing	-1393
▁ap	-1394
oney	-1395
▁fail	-1396
▁itself	-1397
▁clearly	-1398
ys	-1399
ging	-1400
▁pop	-1401
aking	-1402
▁look	-1403
struct	-1404
▁colle	-1405
▁while	-1406
▁actually	-1407
▁4	-1408
ata	-1409
com	-1410
▁Af	-1411
▁ph	-1412
imin	-1413
▁text	-1414
ething	-1415
▁money	-1416
▁applic	-1417
▁consequ	-1418
▁understand	-1419
gest	-1420
▁pack	-1421
▁press	-1422
ialogue	-1423
▁always	-1424
▁discus	-1425
▁growth	-1426
▁efforts	-1427
▁objectives	-1428
ged	-1429
ics	-1430
istr	-1431
▁2009	-1432
▁best	-1433
▁coord	-1434
▁force	-1435
▁reach	-1436
idarity	-1437
▁Direct	-1438
ron	-1439
▁Al	-1440
ilit	-1441
▁abs	-1442
▁address	-1443
▁general	-1444
▁something	-1445
▁standards	-1446
▁Am	-1447
cies	-1448
ness	-1449
ocus	-1450
▁All	-1451
▁enter	-1452
▁major	-1453
▁single	-1454
▁another	-1455
▁partners	-1456
▁pen	-1457
▁Part	-1458
▁among	-1459
▁creat	-1460
ference	-1461
▁guarantee	-1462
ater	-1463
ourt	-1464
▁fel	-1465
▁key	-1466
▁ple	-1467
▁sur	-1468
▁oper	-1469
ending	-1470
▁Court	-1471
▁civil	-1472
▁words	-1473
unities	-1474
▁parliament	-1475
▁transparency	-1476
ix	-1477
▁coh	-1478
▁get	-1479
▁inst	-1480
▁exist	-1481
▁stress	-1482
▁principle	-1483
▁her	-1484
▁wee	-1485
▁cent	-1486
▁risk	-1487
▁extre	-1488
▁focus	-1489
▁Govern	-1490
▁recent	-1491
▁markets	-1492
▁programme	-1493
▁agricultural	-1494
eed	-1495
airs	-1496
verty	-1497
▁once	-1498
▁rather	-1499
igration	-1500
▁regions	-1501
▁employment	-1502
irm	-1503
ule	-1504
ably	-1505
▁let	-1506
▁month	-1507
▁context	-1508
▁dialogue	-1509
▁companies	-1510
cu	-1511
▁ed	-1512
▁loc	-1513
▁data	-1514
▁fully	-1515
vention	-1516
▁period	-1517
▁struct	-1518
▁package	-1519
ages	-1520
itted	-1521
▁avail	-1522
▁assist	-1523
▁experi	-1524
▁groups	-1525
▁comprom	-1526
▁concerns	-1527
▁concerned	-1528
oss	-1529
▁bal	-1530
▁pot	-1531
▁taking	-1532
▁challenges	-1533
aps	-1534
emp	-1535
ror	-1536
uge	-1537
ven	-1538
itor	-1539
▁due	-1540
▁fam	-1541
▁mot	-1542
▁rele	-1543
▁often	-1544
▁colleag	-1545
▁regional	-1546
▁principles	-1547
sw	-1548
gin	-1549
ick	-1550
▁Is	-1551
▁Bar	-1552
▁Pol	-1553
ption	-1554
▁cred	-1555
▁least	-1556
▁create	-1557
▁having	-1558
▁recomm	-1559
▁poverty	-1560
▁Directive	-1561
▁commitment	-1562
▁opp	-1563
▁sum	-1564
▁answ	-1565
▁caus	-1566
▁life	-1567
▁open	-1568
▁apply	-1569
▁resol	-1570
▁results	-1571
▁various	-1572
▁amendments	-1573
▁developing	-1574
▁management	-1575
ead	-1576
row	-1577
ister	-1578
▁They	-1579
▁care	-1580
▁defin	-1581
▁accord	-1582
▁consumers	-1583
▁decisions	-1584
▁activities	-1585
ech	-1586
ier	-1587
▁educ	-1588
▁rece	-1589
ternal	-1590
▁treat	-1591
▁person	-1592
▁proper	-1593
▁amendment	-1594
▁Government	-1595
line	-1596
▁Reg	-1597
▁Rep	-1598
▁amb	-1599
▁mar	-1600
ering	-1601
▁Hung	-1602
▁emph	-1603
▁cases	-1604
▁affect	-1605
▁assess	-1606
▁labour	-1607
▁states	-1608
▁members	-1609
▁appropri	-1610
▁Ar	-1611
fort	-1612
▁2020	-1613
ensive	-1614
▁found	-1615
▁extreme	-1616
▁recommend	-1617
ave	-1618
eng	-1619
erous	-1620
ulate	-1621
▁appl	-1622
▁docu	-1623
▁stud	-1624
▁costs	-1625
issions	-1626
▁aspect	-1627
▁concerning	-1628
ield	-1629
▁fle	-1630
▁urg	-1631
ances	-1632
aring	-1633
▁priv	-1634
▁trad	-1635
▁needed	-1636
▁provided	-1637
▁available	-1638
'.	-1639
FR	-1640
wh	-1641
ians	-1642
▁Gree	-1643
▁farm	-1644
▁fellow	-1645
▁monitor	-1646
stitution	-1647
▁majority	-1648
▁solution	-1649
▁solidarity	-1650
▁competition	-1651
ath	-1652
lig	-1653
ceed	-1654
▁bro	-1655
▁With	-1656
▁harm	-1657
▁jobs	-1658
▁lack	-1659
▁First	-1660
▁short	-1661
▁emphas	-1662
▁indeed	-1663
▁Finally	-1664
▁parties	-1665
▁systems	-1666
▁involved	-1667
▁potential	-1668
▁production	-1669
▁legislative	-1670
▁sustainable	-1671
urd	-1672
▁To	-1673
ania	-1674
orth	-1675
▁appe	-1676
▁cong	-1677
▁name	-1678
ministr	-1679
▁Russia	-1680
▁violence	-1681
▁following	-1682
▁regarding	-1683
ina	-1684
emoc	-1685
ling	-1686
▁ear	-1687
▁non	-1688
ights	-1689
▁build	-1690
▁quite	-1691
▁enough	-1692
▁compromise	-1693
mb	-1694
▁En	-1695
raph	-1696
▁Sch	-1697
▁tot	-1698
epend	-1699
esion	-1700
▁prof	-1701
▁simp	-1702
unately	-1703
▁mechan	-1704
▁initiative	-1705
▁innovation	-1706
ees	-1707
enda	-1708
most	-1709
▁Let	-1710
▁exc	-1711
▁sch	-1712
▁list	-1713
▁shall	-1714
iveness	-1715
▁criter	-1716
▁particip	-1717
▁consequences	-1718
igin	-1719
ived	-1720
▁yet	-1721
ining	-1722
▁seem	-1723
▁Afric	-1724
▁simply	-1725
▁values	-1726
▁congrat	-1727
▁request	-1728
▁projects	-1729
▁responsible	-1730
uel	-1731
ters	-1732
▁cut	-1733
▁sup	-1734
▁keep	-1735
▁peace	-1736
▁origin	-1737
▁things	-1738
▁continu	-1739
▁low	-1740
thing	-1741
▁Rights	-1742
imination	-1743
▁achieved	-1744
▁assistance	-1745
ense	-1746
over	-1747
▁Aff	-1748
▁dou	-1749
▁war	-1750
atory	-1751
round	-1752
▁road	-1753
▁vict	-1754
though	-1755
▁aware	-1756
ilities	-1757
▁months	-1758
▁points	-1759
▁Affairs	-1760
▁Develop	-1761
▁strateg	-1762
▁currently	-1763
▁highlight	-1764
▁objective	-1765
ake	-1766
ale	-1767
▁10	-1768
▁dr	-1769
haps	-1770
unic	-1771
▁ann	-1772
▁occ	-1773
ators	-1774
iting	-1775
▁expl	-1776
uclear	-1777
▁cross	-1778
▁Second	-1779
▁reasons	-1780
▁complete	-1781
▁cultural	-1782
▁certainly	-1783
▁population	-1784
▁6	-1785
for	-1786
angu	-1787
less	-1788
oung	-1789
side	-1790
▁adv	-1791
▁draw	-1792
▁rest	-1793
▁stat	-1794
▁sure	-1795
▁joint	-1796
▁local	-1797
▁oblig	-1798
▁sever	-1799
▁though	-1800
▁criteria	-1801
▁administr	-1802
▁education	-1803
▁government	-1804
equ	-1805
ides	-1806
▁mean	-1807
▁suff	-1808
▁Democ	-1809
▁living	-1810
▁extremely	-1811
fortunately	-1812
▁Development	-1813
key	-1814
▁ret	-1815
▁vol	-1816
eless	-1817
erman	-1818
stant	-1819
▁2008	-1820
▁hist	-1821
itting	-1822
▁young	-1823
▁disast	-1824
▁terror	-1825
▁threat	-1826
▁include	-1827
▁meeting	-1828
▁several	-1829
▁special	-1830
▁emissions	-1831
▁mentioned	-1832
▁questions	-1833
▁regulations	-1834
ck	-1835
til	-1836
rect	-1837
▁item	-1838
▁link	-1839
▁matters	-1840
▁consumer	-1841
▁external	-1842
ims	-1843
ody	-1844
ined	-1845
term	-1846
▁mob	-1847
▁conv	-1848
▁feel	-1849
▁true	-1850
▁broad	-1851
▁ident	-1852
▁Minutes	-1853
▁independ	-1854
▁encourage	-1855
▁priorities	-1856
aged	-1857
▁One	-1858
▁cru	-1859
▁fun	-1860
ittle	-1861
olute	-1862
vious	-1863
▁soon	-1864
▁wast	-1865
idence	-1866
▁equal	-1867
itarian	-1868
▁Turkey	-1869
▁nuclear	-1870
▁pleased	-1871
▁promote	-1872
▁priority	-1873
▁programm	-1874
000	-1875
ried	-1876
▁Bel	-1877
▁gas	-1878
▁net	-1879
anced	-1880
thers	-1881
▁kind	-1882
strict	-1883
▁langu	-1884
▁refer	-1885
▁share	-1886
▁times	-1887
▁value	-1888
ighbour	-1889
▁conclud	-1890
▁enterpr	-1891
▁funding	-1892
▁technolog	-1893
▁application	-1894
mber	-1895
onse	-1896
ying	-1897
ember	-1898
ateral	-1899
employ	-1900
▁field	-1901
ression	-1902
▁German	-1903
▁fisher	-1904
▁little	-1905
▁others	-1906
▁industr	-1907
▁absolute	-1908
▁response	-1909
▁instruments	-1910
erb	-1911
▁bl	-1912
▁il	-1913
atic	-1914
ator	-1915
▁But	-1916
beral	-1917
fully	-1918
▁Agree	-1919
▁illeg	-1920
▁agenda	-1921
▁reduce	-1922
▁actions	-1923
▁requirements	-1924
▁opportunities	-1925
IT	-1926
io	-1927
sp	-1928
yl	-1929
ars	-1930
ean	-1931
fer	-1932
new	-1933
ogy	-1934
pite	-1935
soci	-1936
▁eas	-1937
▁ele	-1938
ended	-1939
orrow	-1940
▁face	-1941
▁hard	-1942
▁mult	-1943
▁seen	-1944
▁above	-1945
▁demon	-1946
▁relig	-1947
▁longer	-1948
▁medium	-1949
▁changes	-1950
▁crucial	-1951
▁restrict	-1952
▁reduction	-1953
▁contribution	-1954
',	-1955
oid	-1956
rist	-1957
▁par	-1958
iency	-1959
encies	-1960
ension	-1961
▁discr	-1962
▁might	-1963
▁never	-1964
▁using	-1965
ilateral	-1966
▁demonstr	-1967
▁relevant	-1968
PL	-1969
▁Sp	-1970
▁US	-1971
hing	-1972
imum	-1973
outh	-1974
rats	-1975
ring	-1976
uary	-1977
▁Bal	-1978
▁jud	-1979
▁mak	-1980
▁sug	-1981
▁2010	-1982
▁Ital	-1983
▁flex	-1984
▁held	-1985
▁idea	-1986
ficial	-1987
reland	-1988
▁begin	-1989
isations	-1990
▁respond	-1991
▁cohesion	-1992
▁creation	-1993
▁previous	-1994
▁themselves	-1995
▁congratulate	-1996
oh	-1997
ned	-1998
uly	-1999
▁ve	-2000
cise	-2001
▁hon	-2002
▁tas	-2003
▁hold	-2004
iation	-2005
▁Ireland	-2006
▁billion	-2007
▁borders	-2008
▁contain	-2009
▁Secondly	-2010
▁document	-2011
▁elections	-2012
▁procedure	-2013
▁discussion	-2014
▁governance	-2015
pos	-2016
▁My	-2017
empt	-2018
just	-2019
oint	-2020
ylum	-2021
▁obs	-2022
▁crit	-2023
▁dist	-2024
▁week	-2025
itious	-2026
▁amount	-2027
▁aspects	-2028
▁perhaps	-2029
▁financing	-2030
▁increased	-2031
▁provisions	-2032
▁enterprises	-2033
EP	-2034
ES	-2035
ted	-2036
cell	-2037
nect	-2038
▁sens	-2039
▁Thank	-2040
▁final	-2041
▁Strate	-2042
▁entire	-2043
▁review	-2044
fficient	-2045
▁conflic	-2046
▁Minister	-2047
▁ensuring	-2048
▁relation	-2049
▁Agreement	-2050
▁procedures	-2051
▁programmes	-2052
▁8	-2053
ants	-2054
ends	-2055
reen	-2056
▁000	-2057
▁mis	-2058
▁sci	-2059
ticle	-2060
▁emer	-2061
▁fair	-2062
▁four	-2063
▁lear	-2064
▁post	-2065
▁thing	-2066
▁agreed	-2067
▁supply	-2068
▁foreign	-2069
▁benefits	-2070
▁maintain	-2071
▁ambitious	-2072
▁contribute	-2073
▁investment	-2074
▁International	-2075
▁7	-2076
une	-2077
▁Re	-2078
▁bo	-2079
▁Tra	-2080
▁ago	-2081
▁top	-2082
istan	-2083
▁Port	-2084
▁dang	-2085
▁decl	-2086
▁doub	-2087
▁stop	-2088
▁test	-2089
▁avoid	-2090
▁capac	-2091
▁gener	-2092
▁renew	-2093
▁waste	-2094
conomic	-2095
▁farmers	-2096
▁Republic	-2097
▁efficient	-2098
▁solutions	-2099
0%	-2100
oice	-2101
▁mom	-2102
ledge	-2103
▁When	-2104
▁term	-2105
▁asked	-2106
▁comes	-2107
▁indic	-2108
▁until	-2109
▁vital	-2110
▁voting	-2111
▁Strategy	-2112
▁communic	-2113
▁relating	-2114
▁Democrats	-2115
▁efficiency	-2116
▁strengthen	-2117
▁coordination	-2118
▁wr	-2119
ires	-2120
ender	-2121
order	-2122
▁line	-2123
▁tell	-2124
▁death	-2125
▁excell	-2126
▁harmon	-2127
▁carried	-2128
▁fishing	-2129
▁illegal	-2130
▁natural	-2131
▁obvious	-2132
▁outside	-2133
▁reality	-2134
▁reflect	-2135
▁regards	-2136
▁suggest	-2137
▁competit	-2138
▁neighbour	-2139
▁conclusion	-2140
▁appropriate	-2141
▁institution	-2142
▁organisations	-2143
kra	-2144
▁ty	-2145
rate	-2146
ffice	-2147
rench	-2148
▁calls	-2149
▁heard	-2150
▁makes	-2151
theless	-2152
▁Portug	-2153
▁enable	-2154
▁moment	-2155
▁territ	-2156
▁reached	-2157
▁function	-2158
▁businesses	-2159
▁monitoring	-2160
▁effectively	-2161
▁humanitarian	-2162
▁Li	-2163
▁Med	-2164
▁Our	-2165
▁dom	-2166
▁dut	-2167
▁six	-2168
▁Cent	-2169
▁Ukra	-2170
▁mess	-2171
▁China	-2172
▁doing	-2173
▁penal	-2174
▁seems	-2175
▁Africa	-2176
▁answer	-2177
▁associ	-2178
▁combat	-2179
▁except	-2180
iversity	-2181
▁correct	-2182
▁traffic	-2183
▁victims	-2184
▁everyone	-2185
▁existing	-2186
▁ourselves	-2187
▁providing	-2188
▁stability	-2189
▁immigration	-2190
ool	-2191
aced	-2192
▁MEP	-2193
▁Man	-2194
▁loo	-2195
erial	-2196
istic	-2197
ively	-2198
▁East	-2199
▁Just	-2200
▁fall	-2201
▁land	-2202
▁pres	-2203
▁model	-2204
▁detail	-2205
▁travel	-2206
▁undert	-2207
▁benefit	-2208
▁consult	-2209
▁private	-2210
▁service	-2211
▁adoption	-2212
▁required	-2213
▁Hungarian	-2214
▁committee	-2215
▁instrument	-2216
▁agriculture	-2217
▁parliamentary	-2218
▁discrimination	-2219
acy	-2220
ief	-2221
▁Fr	-2222
▁UN	-2223
more	-2224
▁Mon	-2225
▁Slo	-2226
▁big	-2227
▁tom	-2228
iance	-2229
▁More	-2230
▁mind	-2231
▁carry	-2232
▁grant	-2233
▁quick	-2234
aration	-2235
▁French	-2236
▁across	-2237
▁called	-2238
▁levels	-2239
▁namely	-2240
▁powers	-2241
▁saying	-2242
▁superv	-2243
▁Further	-2244
▁reports	-2245
▁practice	-2246
▁Convention	-2247
),	-2248
az	-2249
ti	-2250
alu	-2251
edi	-2252
▁Sw	-2253
eric	-2254
ided	-2255
▁talk	-2256
border	-2257
ctions	-2258
ograph	-2259
▁along	-2260
▁Greece	-2261
▁Social	-2262
▁asylum	-2263
▁prices	-2264
▁thanks	-2265
▁effects	-2266
▁patient	-2267
▁sitting	-2268
▁capacity	-2269
▁tomorrow	-2270
▁technical	-2271
ote	-2272
ized	-2273
▁And	-2274
▁flo	-2275
▁red	-2276
estic	-2277
▁huge	-2278
▁live	-2279
▁past	-2280
rought	-2281
▁basic	-2282
▁leave	-2283
▁around	-2284
▁author	-2285
▁credit	-2286
▁reject	-2287
▁Article	-2288
▁Romania	-2289
▁consist	-2290
▁nothing	-2291
▁talking	-2292
▁Internet	-2293
▁excellent	-2294
▁supporting	-2295
▁integration	-2296
cr	-2297
la	-2298
reh	-2299
▁He	-2300
duct	-2301
▁men	-2302
▁she	-2303
▁tab	-2304
ither	-2305
itten	-2306
rated	-2307
▁anal	-2308
▁anim	-2309
▁mand	-2310
▁subs	-2311
▁took	-2312
▁tool	-2313
▁deter	-2314
▁water	-2315
▁Americ	-2316
▁community	-2317
▁supported	-2318
▁absolutely	-2319
▁colleagues	-2320
▁throughout	-2321
).	-2322
reg	-2323
▁er	-2324
fact	-2325
▁mut	-2326
▁2007	-2327
▁Serb	-2328
▁oppos	-2329
ourable	-2330
▁border	-2331
▁motion	-2332
▁raised	-2333
▁return	-2334
▁leaders	-2335
▁liberal	-2336
▁referen	-2337
▁achieving	-2338
▁combating	-2339
▁strategic	-2340
▁additional	-2341
▁experience	-2342
▁Furthermore	-2343
▁implemented	-2344
▁possibility	-2345
▁administrative	-2346
200	-2347
▁12	-2348
▁14	-2349
dict	-2350
isms	-2351
vere	-2352
▁Ind	-2353
▁arg	-2354
▁MEPs	-2355
▁Roma	-2356
▁turn	-2357
▁closed	-2358
▁depend	-2359
▁exchan	-2360
▁immedi	-2361
▁summit	-2362
▁company	-2363
▁culture	-2364
▁reforms	-2365
▁reducing	-2366
▁accession	-2367
▁according	-2368
▁technologies	-2369
EC	-2370
by	-2371
aff	-2372
apt	-2373
ulg	-2374
Euro	-2375
ison	-2376
unch	-2377
▁blo	-2378
▁cir	-2379
▁dam	-2380
▁him	-2381
▁sel	-2382
ished	-2383
overy	-2384
▁2011	-2385
▁June	-2386
▁dire	-2387
▁firm	-2388
▁unac	-2389
mitted	-2390
▁aimed	-2391
▁infra	-2392
▁total	-2393
▁speech	-2394
▁Firstly	-2395
▁balance	-2396
▁measure	-2397
▁message	-2398
▁movement	-2399
▁pressure	-2400
▁completely	-2401
▁infrastruct	-2402
▁initiatives	-2403
▁partnership	-2404
NL	-2405
▁z	-2406
201	-2407
ock	-2408
pid	-2409
▁11	-2410
▁pa	-2411
sels	-2412
udit	-2413
uine	-2414
▁met	-2415
inary	-2416
▁Bank	-2417
▁circ	-2418
▁clos	-2419
▁poor	-2420
▁self	-2421
▁thus	-2422
igrant	-2423
ranean	-2424
▁Barro	-2425
▁Human	-2426
▁South	-2427
▁goods	-2428
▁limit	-2429
▁medic	-2430
lusions	-2431
stances	-2432
▁export	-2433
resident	-2434
▁Ukraine	-2435
▁conduct	-2436
▁sources	-2437
▁targets	-2438
▁prepared	-2439
▁unemploy	-2440
iterranean	-2441
▁knowledge	-2442
▁competitiveness	-2443
ME	-2444
ler	-2445
▁fr	-2446
call	-2447
hold	-2448
▁Sea	-2449
▁Wor	-2450
▁cam	-2451
ially	-2452
sized	-2453
▁disp	-2454
▁five	-2455
▁left	-2456
▁rule	-2457
Europe	-2458
Office	-2459
ogical	-2460
▁price	-2461
▁family	-2462
▁nature	-2463
▁remind	-2464
▁scient	-2465
ceptable	-2466
▁applied	-2467
▁connect	-2468
▁coordin	-2469
▁facilit	-2470
▁quickly	-2471
▁received	-2472
▁fisheries	-2473
▁presented	-2474
▁statement	-2475
▁treatment	-2476
▁assessment	-2477
▁conclusions	-2478
▁governments	-2479
su	-2480
▁9	-2481
▁Ad	-2482
▁Or	-2483
▁ge	-2484
▁wa	-2485
sman	-2486
▁May	-2487
▁lot	-2488
▁oil	-2489
▁old	-2490
iable	-2491
▁Bulg	-2492
▁Fore	-2493
▁Vice	-2494
▁char	-2495
▁deep	-2496
▁weak	-2497
▁milit	-2498
ristian	-2499
▁almost	-2500
▁behind	-2501
▁coming	-2502
▁regret	-2503
▁brought	-2504
▁capital	-2505
▁minimum	-2506
▁agencies	-2507
▁recently	-2508
▁budgetary	-2509
▁committed	-2510
▁sufficient	-2511
▁representatives	-2512
dum	-2513
lus	-2514
omp	-2515
▁Ge	-2516
▁Pe	-2517
▁Tr	-2518
hood	-2519
▁Can	-2520
▁Jan	-2521
▁Sec	-2522
ource	-2523
▁else	-2524
▁head	-2525
▁rein	-2526
▁repe	-2527
▁rise	-2528
▁task	-2529
inking	-2530
▁Party	-2531
▁evalu	-2532
▁trust	-2533
▁attack	-2534
▁happen	-2535
▁Justice	-2536
▁defence	-2537
▁instead	-2538
▁leading	-2539
▁included	-2540
stitutional	-2541
▁mechanisms	-2542
▁unacceptable	-2543
▁recommendations	-2544
ude	-2545
▁15	-2546
▁27	-2547
ands	-2548
aria	-2549
atis	-2550
ilar	-2551
uted	-2552
▁Now	-2553
▁bar	-2554
▁del	-2555
▁eng	-2556
▁ver	-2557
▁away	-2558
▁half	-2559
iminal	-2560
▁deleg	-2561
▁ground	-2562
▁subsid	-2563
▁urgent	-2564
▁Central	-2565
▁constit	-2566
▁although	-2567
▁recovery	-2568
▁requires	-2569
▁direction	-2570
▁expressed	-2571
▁terrorism	-2572
▁introduction	-2573
▁participation	-2574
▁strengthening	-2575
▁infrastructure	-2576
The	-2577
▁CO	-2578
▁Cz	-2579
▁No	-2580
▁sk	-2581
arus	-2582
▁age	-2583
▁cla	-2584
▁opt	-2585
force	-2586
ional	-2587
▁Prog	-2588
▁burd	-2589
▁fuel	-2590
▁goes	-2591
▁guid	-2592
▁meth	-2593
▁poll	-2594
▁tack	-2595
▁visa	-2596
▁alone	-2597
▁explo	-2598
▁famil	-2599
▁goals	-2600
▁media	-2601
▁offer	-2602
▁react	-2603
pective	-2604
▁France	-2605
▁convin	-2606
▁design	-2607
▁highly	-2608
▁produc	-2609
▁Belarus	-2610
▁allowed	-2611
▁decided	-2612
▁remains	-2613
▁creating	-2614
▁includes	-2615
▁language	-2616
▁material	-2617
▁official	-2618
▁colleague	-2619
▁industrial	-2620
▁discussions	-2621
TO	-2622
ton	-2623
▁Ne	-2624
erts	-2625
head	-2626
▁Cro	-2627
▁dev	-2628
▁mor	-2629
▁tro	-2630
engen	-2631
▁2006	-2632
▁fulf	-2633
isters	-2634
▁Czech	-2635
▁influ	-2636
▁party	-2637
▁simpl	-2638
entions	-2639
▁analys	-2640
▁caused	-2641
▁extent	-2642
▁method	-2643
▁tabled	-2644
▁Nations	-2645
▁calling	-2646
▁closely	-2647
▁collect	-2648
▁counter	-2649
▁justice	-2650
ibilities	-2651
▁military	-2652
▁training	-2653
▁transfer	-2654
▁bilateral	-2655
▁dangerous	-2656
▁developed	-2657
▁improving	-2658
▁minorities	-2659
▁structural	-2660
af	-2661
br	-2662
rup	-2663
▁Le	-2664
agen	-2665
aper	-2666
▁SME	-2667
▁aut	-2668
▁awa	-2669
▁bad	-2670
▁dim	-2671
▁vul	-2672
etary	-2673
▁Dece	-2674
▁Many	-2675
▁dise	-2676
▁ever	-2677
▁prob	-2678
▁qual	-2679
▁repl	-2680
▁upon	-2681
▁Trade	-2682
▁becom	-2683
▁light	-2684
▁sense	-2685
▁Serbia	-2686
▁circum	-2687
▁decide	-2688
▁events	-2689
▁gender	-2690
▁giving	-2691
▁vulner	-2692
ervation	-2693
▁Barroso	-2694
▁despite	-2695
▁involve	-2696
President	-2697
▁December	-2698
▁exchange	-2699
▁patients	-2700
▁Europeans	-2701
▁challenge	-2702
▁referendum	-2703
▁technology	-2704
▁established	-2705
▁difficulties	-2706
▁Mediterranean	-2707
RO	-2708
of	-2709
ya	-2710
cal	-2711
▁25	-2712
▁Ex	-2713
body	-2714
open	-2715
pose	-2716
rael	-2717
ught	-2718
▁days	-2719
▁hear	-2720
called	-2721
▁Croat	-2722
▁cause	-2723
▁rural	-2724
▁shows	-2725
▁steps	-2726
▁takes	-2727
▁thous	-2728
nership	-2729
▁Israel	-2730
▁facing	-2731
▁interp	-2732
▁member	-2733
▁school	-2734
▁Foreign	-2735
▁central	-2736
▁compreh	-2737
▁distrib	-2738
▁growing	-2739
▁Schengen	-2740
▁activity	-2741
▁affected	-2742
▁conclude	-2743
▁emphasise	-2744
▁practices	-2745
▁integrated	-2746
▁statements	-2747
▁successful	-2748
▁Partnership	-2749
▁relationship	-2750
to	-2751
yn	-2752
hic	-2753
org	-2754
por	-2755
sec	-2756
ubl	-2757
▁13	-2758
▁Do	-2759
▁ir	-2760
ange	-2761
oday	-2762
rete	-2763
tion	-2764
used	-2765
▁bod	-2766
▁bre	-2767
▁enh	-2768
▁rad	-2769
▁run	-2770
▁sep	-2771
anish	-2772
hagen	-2773
works	-2774
▁abol	-2775
▁aims	-2776
▁anti	-2777
▁deli	-2778
▁easy	-2779
▁loss	-2780
▁oral	-2781
▁Copen	-2782
▁Never	-2783
▁Today	-2784
▁adapt	-2785
▁ahead	-2786
▁early	-2787
▁entry	-2788
▁satis	-2789
▁stage	-2790
▁worth	-2791
imately	-2792
itional	-2793
▁People	-2794
▁bodies	-2795
▁excess	-2796
▁obtain	-2797
▁regime	-2798
▁welcom	-2799
▁January	-2800
▁attempt	-2801
▁concept	-2802
▁explain	-2803
▁history	-2804
▁proceed	-2805
▁sectors	-2806
▁trading	-2807
struction	-2808
▁negative	-2809
▁properly	-2810
▁substant	-2811
▁construct	-2812
▁Copenhagen	-2813
▁discussing	-2814
▁everything	-2815
▁competitive	-2816
▁differences	-2817
▁Nevertheless	-2818
▁unemployment	-2819
▁communication	-2820
▁unfortunately	-2821
PT	-2822
ger	-2823
ovo	-2824
▁Br	-2825
▁Pr	-2826
▁Kos	-2827
▁Lib	-2828
▁cat	-2829
▁lar	-2830
▁yes	-2831
aries	-2832
bourg	-2833
where	-2834
▁Brit	-2835
▁Swed	-2836
▁bind	-2837
▁exer	-2838
▁quot	-2839
▁rail	-2840
action	-2841
▁Amend	-2842
▁Audit	-2843
▁Italy	-2844
▁fraud	-2845
▁parts	-2846
▁rapid	-2847
▁vehic	-2848
▁volun	-2849
▁wrong	-2850
▁active	-2851
▁defend	-2852
▁mutual	-2853
▁Germany	-2854
▁genuine	-2855
▁passeng	-2856
▁rightly	-2857
▁Economic	-2858
▁Moreover	-2859
▁balanced	-2860
▁convinced	-2861
▁economies	-2862
▁practical	-2863
▁promoting	-2864
▁provision	-2865
▁religious	-2866
▁renewable	-2867
▁Regulation	-2868
▁increasingly	-2869
▁comprehensive	-2870
▁consideration	-2871
App	-2872
ash	-2873
▁ec	-2874
Appl	-2875
ills	-2876
ties	-2877
▁Acc	-2878
▁Sum	-2879
andid	-2880
ensus	-2881
itude	-2882
lines	-2883
▁Iran	-2884
▁Turk	-2885
▁argu	-2886
▁spir	-2887
elines	-2888
▁doubt	-2889
▁green	-2890
▁lives	-2891
▁scope	-2892
▁shown	-2893
▁weeks	-2894
▁candid	-2895
▁forget	-2896
Applause	-2897
European	-2898
▁ability	-2899
▁looking	-2900
▁mandate	-2901
▁purpose	-2902
▁Auditors	-2903
▁concrete	-2904
▁conflict	-2905
▁intended	-2906
▁mobility	-2907
▁probably	-2908
▁strongly	-2909
▁scientific	-2910
go	-2911
jo	-2912
app	-2913
ria	-2914
uses	-2915
wise	-2916
▁fre	-2917
▁gra	-2918
▁mil	-2919
▁duty	-2920
▁home	-2921
▁join	-2922
▁rate	-2923
▁send	-2924
▁sent	-2925
idents	-2926
istics	-2927
▁recon	-2928
▁views	-2929
▁whose	-2930
igrants	-2931
▁Kosovo	-2932
▁Summit	-2933
▁desire	-2934
▁police	-2935
▁secure	-2936
▁binding	-2937
▁confirm	-2938
▁contact	-2939
▁finally	-2940
▁precise	-2941
▁setting	-2942
▁similar	-2943
▁Agricult	-2944
▁Alliance	-2945
▁comments	-2946
▁freedoms	-2947
▁dimension	-2948
▁discussed	-2949
▁mechanism	-2950
▁reference	-2951
▁implementing	-2952
▁specifically	-2953
Ch	-2954
sk	-2955
egu	-2956
gra	-2957
▁EC	-2958
know	-2959
urea	-2960
yond	-2961
▁How	-2962
▁Res	-2963
▁cho	-2964
▁cod	-2965
▁den	-2966
▁fri	-2967
▁ign	-2968
▁san	-2969
▁suc	-2970
enary	-2971
itime	-2972
▁Last	-2973
▁cust	-2974
▁dest	-2975
▁safe	-2976
▁ship	-2977
▁Trans	-2978
▁added	-2979
▁alloc	-2980
▁banks	-2981
▁table	-2982
▁voice	-2983
▁causes	-2984
▁failed	-2985
▁higher	-2986
▁launch	-2987
▁linked	-2988
▁record	-2989
▁safegu	-2990
▁wanted	-2991
▁citizen	-2992
▁perform	-2993
▁reading	-2994
▁session	-2995
▁succeed	-2996
▁Bulgaria	-2997
▁Portugal	-2998
▁equality	-2999
▁improved	-3000
▁provides	-3001
▁remember	-3002
▁consensus	-3003
▁interpret	-3004
▁introduce	-3005
▁recognise	-3006
▁sensitive	-3007
▁thousands	-3008
▁accordance	-3009
▁considered	-3010
▁represents	-3011
▁vulnerable	-3012
▁supervision	-3013
▁Unfortunately	-3014
uit	-3015
▁Bl	-3016
▁ce	-3017
iver	-3018
resp	-3019
▁eth	-3020
▁lat	-3021
▁ord	-3022
▁try	-3023
ronic	-3024
▁SMEs	-3025
▁Some	-3026
▁chec	-3027
▁gain	-3028
▁goal	-3029
▁note	-3030
ercial	-3031
▁Georg	-3032
▁crime	-3033
▁enabl	-3034
▁forms	-3035
▁poore	-3036
▁raise	-3037
▁sport	-3038
▁Action	-3039
▁critic	-3040
▁damage	-3041
▁forces	-3042
▁histor	-3043
▁modern	-3044
▁Spanish	-3045
▁concent	-3046
▁content	-3047
▁created	-3048
▁finance	-3049
▁firstly	-3050
▁plenary	-3051
▁propose	-3052
▁criminal	-3053
▁greatest	-3054
▁beginning	-3055
▁producers	-3056
▁guidelines	-3057
▁consumption	-3058
▁establishing	-3059
ex	-3060
ob	-3061
ush	-3062
▁ey	-3063
▁fl	-3064
ival	-3065
ored	-3066
▁cle	-3067
▁led	-3068
arter	-3069
spect	-3070
▁2013	-3071
▁Brus	-3072
▁bear	-3073
▁side	-3074
▁type	-3075
charge	-3076
itable	-3077
▁adequ	-3078
▁faced	-3079
▁later	-3080
▁legit	-3081
▁plans	-3082
▁pursu	-3083
▁study	-3084
mission	-3085
▁Market	-3086
▁animal	-3087
▁beyond	-3088
▁burden	-3089
▁cooper	-3090
▁determ	-3091
▁manner	-3092
▁spirit	-3093
ulations	-3094
▁Croatia	-3095
▁coheren	-3096
▁comment	-3097
▁debates	-3098
▁limited	-3099
▁network	-3100
▁overall	-3101
▁proport	-3102
▁receive	-3103
▁speaker	-3104
▁Although	-3105
▁Brussels	-3106
▁building	-3107
▁constant	-3108
▁directly	-3109
▁disaster	-3110
▁domestic	-3111
▁investig	-3112
▁personal	-3113
▁addressed	-3114
▁obviously	-3115
▁connection	-3116
▁prevention	-3117
▁profession	-3118
▁recognised	-3119
▁situations	-3120
▁commitments	-3121
▁perspective	-3122
▁rapporteurs	-3123
ban	-3124
ets	-3125
pay	-3126
vak	-3127
▁Be	-3128
▁sy	-3129
▁ut	-3130
apan	-3131
ream	-3132
▁199	-3133
arily	-3134
riers	-3135
ufact	-3136
▁fast	-3137
▁heav	-3138
▁mass	-3139
▁milk	-3140
▁mist	-3141
▁norm	-3142
▁publ	-3143
estern	-3144
liance	-3145
urally	-3146
▁Libya	-3147
▁North	-3148
▁brief	-3149
▁compl	-3150
akistan	-3151
▁advant	-3152
▁condem	-3153
▁interv	-3154
▁signal	-3155
▁source	-3156
▁worked	-3157
▁Protect	-3158
▁Turkish	-3159
▁complex	-3160
▁produce	-3161
▁regular	-3162
▁related	-3163
▁elements	-3164
▁manufact	-3165
▁discharge	-3166
▁conference	-3167
▁continuing	-3168
▁opposition	-3169
▁independent	-3170
▁obligations	-3171
HU	-3172
PE	-3173
ps	-3174
idd	-3175
lom	-3176
rel	-3177
▁18	-3178
▁By	-3179
▁Ir	-3180
▁Of	-3181
mbud	-3182
reci	-3183
semb	-3184
xual	-3185
▁nor	-3186
aving	-3187
erves	-3188
lying	-3189
▁Cons	-3190
▁Even	-3191
▁obst	-3192
▁seek	-3193
▁summ	-3194
▁warm	-3195
▁wide	-3196
elling	-3197
▁2009.	-3198
▁Liber	-3199
▁Prime	-3200
▁assum	-3201
▁cover	-3202
▁exact	-3203
▁incor	-3204
▁separ	-3205
▁wants	-3206
illions	-3207
▁Ladies	-3208
▁Slovak	-3209
▁compar	-3210
▁presid	-3211
▁refuge	-3212
▁strict	-3213
▁taxpay	-3214
▁Hungary	-3215
▁dealing	-3216
▁helping	-3217
▁opening	-3218
▁reduced	-3219
▁contains	-3220
▁families	-3221
▁followed	-3222
▁happened	-3223
▁territor	-3224
▁Amendment	-3225
▁materials	-3226
▁migration	-3227
▁operation	-3228
▁commercial	-3229
▁improvement	-3230
▁resolutions	-3231
▁constructive	-3232
▁independence	-3233
▁circumstances	-3234
▁establishment	-3235
0.	-3236
fe	-3237
oke	-3238
oms	-3239
pro	-3240
▁UK	-3241
adow	-3242
olid	-3243
rest	-3244
▁fis	-3245
▁ten	-3246
▁via	-3247
amber	-3248
illed	-3249
▁Balk	-3250
▁acts	-3251
▁clar	-3252
▁enjo	-3253
▁path	-3254
▁pill	-3255
▁prim	-3256
▁spec	-3257
ifying	-3258
making	-3259
ritten	-3260
▁After	-3261
▁Greek	-3262
▁extra	-3263
▁floor	-3264
▁gives	-3265
▁heart	-3266
▁ready	-3267
▁schem	-3268
▁sides	-3269
▁Agency	-3270
▁Budget	-3271
▁Poland	-3272
▁altern	-3273
▁crimes	-3274
▁explan	-3275
▁mainly	-3276
▁status	-3277
▁applies	-3278
▁appreci	-3279
▁putting	-3280
▁totally	-3281
▁Pakistan	-3282
▁anything	-3283
▁expected	-3284
▁experien	-3285
▁networks	-3286
▁planning	-3287
▁speaking	-3288
▁disasters	-3289
▁diversity	-3290
▁positions	-3291
▁associated	-3292
▁compliance	-3293
▁expression	-3294
▁interested	-3295
▁Agriculture	-3296
▁flexibility	-3297
▁restrictions	-3298
▁globalisation	-3299
▁institutional	-3300
..	-3301
ah	-3302
be	-3303
ev	-3304
ik	-3305
...	-3306
fin	-3307
tro	-3308
urs	-3309
▁Ob	-3310
crib	-3311
erve	-3312
lant	-3313
onia	-3314
ours	-3315
ront	-3316
ured	-3317
▁Why	-3318
▁dip	-3319
▁ill	-3320
endit	-3321
paign	-3322
vered	-3323
▁Aust	-3324
▁Inde	-3325
▁Sept	-3326
▁Serv	-3327
▁fear	-3328
▁port	-3329
▁ways	-3330
▁whom	-3331
etimes	-3332
sembly	-3333
▁Ombud	-3334
▁Organ	-3335
▁risks	-3336
▁diplom	-3337
▁either	-3338
▁firmly	-3339
▁fulfil	-3340
▁rating	-3341
▁stated	-3342
▁useful	-3343
▁partner	-3344
▁payment	-3345
▁Security	-3346
▁campaign	-3347
▁contract	-3348
▁election	-3349
▁instance	-3350
▁maritime	-3351
▁produced	-3352
▁standard	-3353
▁thinking	-3354
▁Ombudsman	-3355
▁September	-3356
▁continues	-3357
▁medicines	-3358
▁suffering	-3359
▁Protection	-3360
▁confidence	-3361
▁passengers	-3362
▁communities	-3363
▁considerable	-3364
car	-3365
dom	-3366
els	-3367
ift	-3368
nes	-3369
ury	-3370
val	-3371
▁30	-3372
▁gr	-3373
anim	-3374
▁Ash	-3375
▁Des	-3376
▁Gaz	-3377
▁PPE	-3378
▁fig	-3379
▁inh	-3380
▁unf	-3381
▁won	-3382
osing	-3383
range	-3384
▁came	-3385
▁date	-3386
▁dead	-3387
▁earl	-3388
▁tele	-3389
active	-3390
eneral	-3391
undred	-3392
▁Japan	-3393
▁Rules	-3394
▁Since	-3395
▁Stras	-3396
▁World	-3397
▁adver	-3398
▁emerg	-3399
▁happy	-3400
▁surpr	-3401
lighted	-3402
▁appeal	-3403
▁margin	-3404
▁tackle	-3405
▁trying	-3406
▁budgets	-3407
▁covered	-3408
▁largest	-3409
▁managed	-3410
▁penalty	-3411
▁persons	-3412
▁resolve	-3413
ilisation	-3414
▁starting	-3415
▁Represent	-3416
▁delighted	-3417
▁precisely	-3418
▁Strasbourg	-3419
▁definition	-3420
▁honourable	-3421
▁innovative	-3422
▁proportion	-3423
▁functioning	-3424
▁investments	-3425
▁negotiating	-3426
▁recognition	-3427
▁organisation	-3428
AP	-3429
CS	-3430
EL	-3431
ai	-3432
mp	-3433
oph	-3434
una	-3435
▁Co	-3436
-201	-3437
care	-3438
cast	-3439
gypt	-3440
▁Fra	-3441
▁Par	-3442
▁arr	-3443
acter	-3444
itial	-3445
ously	-3446
▁July	-3447
▁coll	-3448
▁prot	-3449
▁thor	-3450
lantic	-3451
lusive	-3452
▁Egypt	-3453
▁Irish	-3454
▁learn	-3455
▁spent	-3456
▁staff	-3457
▁works	-3458
ovember	-3459
ruption	-3460
▁Accord	-3461
▁Indeed	-3462
▁Polish	-3463
▁Proced	-3464
▁annual	-3465
▁fiscal	-3466
▁income	-3467
▁obstac	-3468
▁office	-3469
▁signed	-3470
▁unanim	-3471
▁volunt	-3472
justment	-3473
▁Program	-3474
▁Western	-3475
▁elected	-3476
▁element	-3477
▁failure	-3478
▁hundred	-3479
▁imports	-3480
▁initial	-3481
▁pension	-3482
▁analysis	-3483
▁geograph	-3484
▁learning	-3485
▁numerous	-3486
▁referred	-3487
▁thorough	-3488
▁urgently	-3489
▁condition	-3490
▁exclusion	-3491
▁immediate	-3492
▁seriously	-3493
▁consistent	-3494
▁electronic	-3495
▁guarantees	-3496
▁structures	-3497
▁violations	-3498
▁trafficking	-3499
▁transparent	-3500
▁distribution	-3501
▁professional	-3502
▁liberalisation	-3503
DP	-3504
ma	-3505
dra	-3506
icy	-3507
tle	-3508
▁1.	-3509
▁17	-3510
▁Cy	-3511
▁Gu	-3512
arks	-3513
▁Com	-3514
▁emb	-3515
▁enl	-3516
▁ult	-3517
▁drug	-3518
▁flow	-3519
▁jour	-3520
▁remo	-3521
agraph	-3522
▁2008.	-3523
▁defic	-3524
▁drawn	-3525
▁enorm	-3526
▁equip	-3527
▁fruit	-3528
▁inequ	-3529
▁tests	-3530
itation	-3531
vereign	-3532
▁Single	-3533
▁acknow	-3534
▁chance	-3535
▁contra	-3536
▁conver	-3537
▁elimin	-3538
▁extend	-3539
▁former	-3540
▁sexual	-3541
▁shadow	-3542
▁treaty	-3543
▁airport	-3544
▁arrange	-3545
▁realise	-3546
▁willing	-3547
Christian	-3548
▁November	-3549
▁accounts	-3550
▁bringing	-3551
▁consolid	-3552
▁designed	-3553
▁exercise	-3554
▁minority	-3555
▁vehicles	-3556
▁According	-3557
▁Programme	-3558
▁continued	-3559
▁involving	-3560
▁safeguard	-3561
▁directives	-3562
▁leadership	-3563
▁reasonable	-3564
▁regulatory	-3565
▁substantial	-3566
▁construction	-3567
▁significantly	-3568
aj	-3569
gn	-3570
ira	-3571
ize	-3572
pol	-3573
ugg	-3574
▁50	-3575
▁Fe	-3576
▁hy	-3577
ades	-3578
ghan	-3579
orse	-3580
vest	-3581
▁Bur	-3582
▁arm	-3583
pping	-3584
▁Kore	-3585
▁Rule	-3586
▁body	-3587
▁exec	-3588
▁laid	-3589
▁late	-3590
▁near	-3591
▁news	-3592
▁paid	-3593
▁told	-3594
▁tour	-3595
ourage	-3596
terday	-3597
▁Black	-3598
▁March	-3599
▁Spain	-3600
▁burea	-3601
▁dealt	-3602
▁delay	-3603
▁event	-3604
▁judic	-3605
▁plant	-3606
▁visas	-3607
actions	-3608
ossible	-3609
▁Ashton	-3610
▁Policy	-3611
▁asking	-3612
▁carbon	-3613
▁forest	-3614
▁incent	-3615
▁insist	-3616
▁saving	-3617
▁spread	-3618
▁stable	-3619
atically	-3620
entially	-3621
standing	-3622
▁Chamber	-3623
▁Despite	-3624
▁Eastern	-3625
▁Georgia	-3626
▁Italian	-3627
▁Swedish	-3628
▁Written	-3629
▁condemn	-3630
▁demands	-3631
▁earlier	-3632
▁exactly	-3633
▁happens	-3634
▁mission	-3635
▁Monetary	-3636
▁approved	-3637
▁barriers	-3638
▁complain	-3639
▁critical	-3640
▁examples	-3641
▁informed	-3642
▁overcome	-3643
▁revision	-3644
▁advantage	-3645
▁employees	-3646
▁excessive	-3647
▁happening	-3648
▁inclusion	-3649
▁labelling	-3650
▁languages	-3651
▁organised	-3652
▁processes	-3653
▁promotion	-3654
▁sanctions	-3655
▁sovereign	-3656
▁submitted	-3657
▁territory	-3658
▁collective	-3659
▁industries	-3660
▁statistics	-3661
▁requirement	-3662
▁consultation	-3663
▁transactions	-3664
▁sustainability	-3665
ze	-3666
ATO	-3667
ape	-3668
set	-3669
▁21	-3670
▁AC	-3671
▁bi	-3672
▁sw	-3673
aken	-3674
amic	-3675
ober	-3676
▁100	-3677
▁Mar	-3678
▁Sol	-3679
▁art	-3680
▁deg	-3681
▁sal	-3682
▁2012	-3683
▁Such	-3684
▁acqu	-3685
▁debt	-3686
▁laws	-3687
coming	-3688
ulated	-3689
▁2009,	-3690
▁Every	-3691
▁enjoy	-3692
▁occur	-3693
▁rates	-3694
▁speed	-3695
▁spoke	-3696
▁stake	-3697
▁truly	-3698
▁union	-3699
▁visit	-3700
▁votes	-3701
▁Afghan	-3702
▁Baltic	-3703
▁Energy	-3704
▁announ	-3705
▁crises	-3706
▁secret	-3707
▁skills	-3708
▁Environ	-3709
▁attract	-3710
▁bureauc	-3711
▁enforce	-3712
▁equally	-3713
▁imposed	-3714
▁planned	-3715
▁propert	-3716
▁univers	-3717
▁becoming	-3718
▁diseases	-3719
▁fighting	-3720
▁flexible	-3721
▁incorpor	-3722
▁ordinary	-3723
▁rejected	-3724
▁supports	-3725
▁Procedure	-3726
▁structure	-3727
▁taxpayers	-3728
▁facilitate	-3729
▁impossible	-3730
▁introduced	-3731
▁strategies	-3732
▁effectiveness	-3733
▁Representative	-3734
TA	-3735
cl	-3736
rs	-3737
sc	-3738
▁Ms	-3739
▁gl	-3740
▁pi	-3741
ibly	-3742
ping	-3743
▁Coh	-3744
▁log	-3745
▁mer	-3746
▁raw	-3747
▁wat	-3748
alest	-3749
iddle	-3750
lands	-3751
uting	-3752
▁Belg	-3753
▁Cong	-3754
▁Gaza	-3755
▁King	-3756
▁NATO	-3757
▁feed	-3758
▁gone	-3759
▁lies	-3760
▁ones	-3761
▁phen	-3762
▁plac	-3763
▁sort	-3764
▁zone	-3765
reness	-3766
▁Third	-3767
▁estim	-3768
▁gradu	-3769
▁known	-3770
▁occas	-3771
▁occup	-3772
▁ought	-3773
▁prior	-3774
▁reven	-3775
▁serve	-3776
▁solve	-3777
▁tools	-3778
▁topic	-3779
▁truth	-3780
quality	-3781
▁choice	-3782
▁clause	-3783
▁engage	-3784
▁myself	-3785
▁satisf	-3786
etitions	-3787
▁Charter	-3788
▁appears	-3789
▁endorse	-3790
▁largely	-3791
▁threats	-3792
▁withdra	-3793
▁definite	-3794
▁enormous	-3795
▁phenomen	-3796
▁politics	-3797
▁property	-3798
▁religion	-3799
▁Framework	-3800
▁Socialist	-3801
▁awareness	-3802
▁documents	-3803
▁protected	-3804
▁alternative	-3805
▁encouraging	-3806
▁ratification	-3807
▁harmonisation	-3808
EA	-3809
enn	-3810
nal	-3811
oot	-3812
ops	-3813
uck	-3814
▁16	-3815
bate	-3816
eter	-3817
ilst	-3818
reas	-3819
wide	-3820
▁Est	-3821
▁fem	-3822
▁mac	-3823
▁ton	-3824
aging	-3825
based	-3826
erity	-3827
going	-3828
trary	-3829
urely	-3830
▁mere	-3831
▁miss	-3832
▁phys	-3833
▁sell	-3834
▁spok	-3835
bruary	-3836
govern	-3837
▁2010,	-3838
▁Those	-3839
▁Women	-3840
▁earth	-3841
▁frequ	-3842
▁grate	-3843
▁ideas	-3844
▁prosp	-3845
▁reply	-3846
▁scale	-3847
▁seven	-3848
▁space	-3849
alities	-3850
▁afford	-3851
▁forced	-3852
▁limits	-3853
▁option	-3854
▁passed	-3855
▁perman	-3856
▁played	-3857
▁prison	-3858
▁unable	-3859
▁vision	-3860
▁British	-3861
▁Russian	-3862
▁attacks	-3863
▁capable	-3864
▁decades	-3865
▁details	-3866
▁factors	-3867
▁pointed	-3868
▁poorest	-3869
▁prepare	-3870
▁subsidi	-3871
▁thought	-3872
▁American	-3873
▁accepted	-3874
▁adequate	-3875
▁adopting	-3876
▁aviation	-3877
▁coherent	-3878
▁contrary	-3879
▁evidence	-3880
▁expendit	-3881
▁grateful	-3882
▁opinions	-3883
▁taxation	-3884
▁welcomed	-3885
ifications	-3886
▁Ministers	-3887
▁accidents	-3888
▁conflicts	-3889
▁equipment	-3890
▁paragraph	-3891
▁preparing	-3892
▁sometimes	-3893
▁voluntary	-3894
▁delegation	-3895
▁immigrants	-3896
▁operations	-3897
▁preventing	-3898
governmental	-3899
▁Fundamental	-3900
▁individuals	-3901
▁introducing	-3902
▁negotiation	-3903
-0	-3904
bu	-3905
iab	-3906
nic	-3907
ova	-3908
rab	-3909
raq	-3910
raz	-3911
uff	-3912
▁2.	-3913
▁Cl	-3914
▁EP	-3915
▁Sh	-3916
lled	-3917
ocol	-3918
opol	-3919
pped	-3920
uese	-3921
▁CAP	-3922
▁Col	-3923
▁Lat	-3924
▁dig	-3925
▁lay	-3926
▁max	-3927
▁pun	-3928
▁unc	-3929
ading	-3930
andon	-3931
iling	-3932
inese	-3933
itage	-3934
ology	-3935
ompan	-3936
poses	-3937
▁2005	-3938
▁Asia	-3939
▁Iraq	-3940
▁Pact	-3941
▁bank	-3942
▁sold	-3943
ancing	-3944
cedent	-3945
debate	-3946
ittees	-3947
▁Civil	-3948
▁India	-3949
▁Inter	-3950
▁Maced	-3951
▁While	-3952
▁abuse	-3953
▁advoc	-3954
▁belie	-3955
▁class	-3956
▁decis	-3957
▁diver	-3958
▁hours	-3959
▁sound	-3960
▁surve	-3961
▁worry	-3962
respond	-3963
▁Global	-3964
▁Palest	-3965
▁Sloven	-3966
▁allows	-3967
▁centre	-3968
▁decent	-3969
▁simple	-3970
▁strugg	-3971
▁suffer	-3972
▁unless	-3973
▁wonder	-3974
argement	-3975
economic	-3976
▁African	-3977
▁Chinese	-3978
▁advance	-3979
▁compens	-3980
▁describ	-3981
▁reinfor	-3982
▁February	-3983
▁currency	-3984
▁entirely	-3985
▁judicial	-3986
▁meetings	-3987
▁millions	-3988
▁prospect	-3989
▁purposes	-3990
▁refugees	-3991
▁speakers	-3992
▁stressed	-3993
▁generally	-3994
▁influence	-3995
▁pollution	-3996
▁yesterday	-3997
▁Portuguese	-3998
▁acceptable	-3999
▁expenditure	-4000
▁immediately	-4001
▁manufacture	-4002
▁participate	-4003
▁Organisation	-4004
▁developments	-4005
▁intervention	-4006
▁recommendation	-4007
%.	-4008
iss	-4009
orn	-4010
rop	-4011
▁Ha	-4012
▁Lu	-4013
▁Ma	-4014
▁af	-4015
Rule	-4016
cent	-4017
comm	-4018
hern	-4019
icro	-4020
pril	-4021
▁500	-4022
▁New	-4023
▁Oct	-4024
▁der	-4025
▁don	-4026
▁gap	-4027
▁sea	-4028
empor	-4029
endly	-4030
licit	-4031
razil	-4032
▁Auth	-4033
▁Here	-4034
▁Home	-4035
▁Only	-4036
▁dict	-4037
▁dign	-4038
▁forg	-4039
▁proc	-4040
▁stay	-4041
▁tuna	-4042
▁urge	-4043
▁weap	-4044
ishing	-4045
verage	-4046
▁April	-4047
▁Given	-4048
▁Korea	-4049
▁break	-4050
▁flood	-4051
▁lower	-4052
▁macro	-4053
▁tried	-4054
▁Lastly	-4055
▁agency	-4056
▁repeat	-4057
▁severe	-4058
▁submit	-4059
▁transl	-4060
arations	-4061
emporary	-4062
ological	-4063
▁Kingdom	-4064
▁October	-4065
▁abandon	-4066
▁appoint	-4067
▁experts	-4068
▁legally	-4069
▁minutes	-4070
▁opposed	-4071
▁sincere	-4072
▁thereby	-4073
▁Assembly	-4074
▁applying	-4075
▁attitude	-4076
▁payments	-4077
▁targeted	-4078
▁candidate	-4079
▁carefully	-4080
▁character	-4081
▁existence	-4082
▁intention	-4083
▁terrorist	-4084
▁correspond	-4085
▁evaluation	-4086
▁facilities	-4087
▁phenomenon	-4088
▁coordinated	-4089
▁demonstrate	-4090
▁importantly	-4091
▁territorial	-4092
▁undertaking	-4093
▁successfully	-4094
▁understanding	-4095
▁administration	-4096
▁representative	-4097
0,	-4098
erc	-4099
iet	-4100
pes	-4101
see	-4102
the	-4103
vis	-4104
▁24	-4105
▁Pl	-4106
▁cy	-4107
akes	-4108
ateg	-4109
ired	-4110
orry	-4111
rend	-4112
trol	-4113
vote	-4114
▁198	-4115
▁Any	-4116
▁Gre	-4117
▁Rec	-4118
▁Ver	-4119
▁asp	-4120
▁che	-4121
▁cou	-4122
▁div	-4123
▁dyn	-4124
▁haz	-4125
▁hom	-4126
▁hor	-4127
▁vac	-4128
▁ves	-4129
▁wit	-4130
erved	-4131
ilise	-4132
oples	-4133
ought	-4134
thern	-4135
▁High	-4136
▁base	-4137
▁mark	-4138
▁size	-4139
▁slow	-4140
advant	-4141
ulture	-4142
▁2010.	-4143
▁Green	-4144
▁Rural	-4145
▁facts	-4146
▁hands	-4147
▁heavy	-4148
▁knows	-4149
diction	-4150
lection	-4151
outhern	-4152
▁Invest	-4153
▁anyone	-4154
▁arrest	-4155
▁duties	-4156
▁impose	-4157
▁normal	-4158
▁parent	-4159
▁placed	-4160
▁please	-4161
▁reiter	-4162
▁scheme	-4163
▁wealth	-4164
itiative	-4165
▁America	-4166
▁changed	-4167
▁courage	-4168
▁customs	-4169
▁distort	-4170
▁figures	-4171
▁healthy	-4172
▁infring	-4173
▁journal	-4174
▁peoples	-4175
▁replace	-4176
▁savings	-4177
▁started	-4178
▁tourism	-4179
▁treated	-4180
▁written	-4181
▁approval	-4182
▁controls	-4183
▁detailed	-4184
▁electric	-4185
▁emerging	-4186
▁heritage	-4187
▁identify	-4188
▁ratified	-4189
▁stronger	-4190
▁students	-4191
▁affecting	-4192
▁buildings	-4193
▁disadvant	-4194
▁emergency	-4195
▁obstacles	-4196
▁officials	-4197
▁otherwise	-4198
▁permanent	-4199
▁resulting	-4200
▁beneficial	-4201
▁committees	-4202
▁constantly	-4203
▁protecting	-4204
▁ultimately	-4205
▁undertaken	-4206
▁Afghanistan	-4207
▁Environment	-4208
▁enlargement	-4209
▁interesting	-4210
▁parliaments	-4211
▁speculation	-4212
▁geographical	-4213
▁subsidiarity	-4214
▁contributions	-4215
AL	-4216
Os	-4217
SK	-4218
bs	-4219
bit	-4220
cks	-4221
hib	-4222
ots	-4223
rep	-4224
tex	-4225
▁Go	-4226
ames	-4227
fect	-4228
nual	-4229
ones	-4230
rors	-4231
uffs	-4232
unis	-4233
vent	-4234
▁ACP	-4235
▁GDP	-4236
▁Sub	-4237
▁Sud	-4238
▁aud	-4239
▁eye	-4240
▁hop	-4241
▁len	-4242
▁win	-4243
afety	-4244
ature	-4245
build	-4246
eries	-4247
house	-4248
matic	-4249
mined	-4250
orate	-4251
▁2004	-4252
▁Inst	-4253
▁Mold	-4254
▁blue	-4255
▁card	-4256
▁fine	-4257
▁foot	-4258
▁isol	-4259
▁reci	-4260
▁sets	-4261
▁stim	-4262
▁stor	-4263
▁stra	-4264
acking	-4265
ellect	-4266
rontex	-4267
stuffs	-4268
uction	-4269
urance	-4270
▁Tunis	-4271
▁autom	-4272
▁chain	-4273
▁radio	-4274
▁tasks	-4275
▁trend	-4276
▁users	-4277
essions	-4278
holders	-4279
oration	-4280
▁Before	-4281
▁Brazil	-4282
▁Christ	-4283
▁appear	-4284
▁destro	-4285
▁easier	-4286
▁ethnic	-4287
▁factor	-4288
▁merely	-4289
▁persec	-4290
▁rising	-4291
▁creates	-4292
▁digital	-4293
▁highest	-4294
▁nations	-4295
▁percent	-4296
▁studies	-4297
ellectual	-4298
formation	-4299
▁Palestin	-4300
▁Slovakia	-4301
▁contacts	-4302
▁sensible	-4303
▁Transport	-4304
▁abolition	-4305
▁determine	-4306
▁operators	-4307
▁referring	-4308
▁reflected	-4309
▁regulated	-4310
▁Solidarity	-4311
▁appreciate	-4312
▁definitely	-4313
▁difference	-4314
▁diplomatic	-4315
▁generation	-4316
▁intentions	-4317
▁membership	-4318
▁considering	-4319
▁foundations	-4320
▁highlighted	-4321
▁observation	-4322
▁performance	-4323
▁proceedings	-4324
▁Constitution	-4325
▁arrangements	-4326
▁constitution	-4327
▁experiencing	-4328
▁guaranteeing	-4329
▁intellectual	-4330
▁strengthened	-4331
▁technological	-4332
▁appropriations	-4333
CO	-4334
co	-4335
ij	-4336
ats	-4337
cco	-4338
cri	-4339
ilt	-4340
osn	-4341
rid	-4342
▁23	-4343
▁II	-4344
▁Im	-4345
airy	-4346
band	-4347
lies	-4348
mbol	-4349
▁Act	-4350
▁Not	-4351
▁beg	-4352
▁dri	-4353
▁mid	-4354
▁mix	-4355
▁ste	-4356
anian	-4357
celer	-4358
elong	-4359
oness	-4360
▁Also	-4361
▁Anot	-4362
▁Arab	-4363
▁From	-4364
▁Will	-4365
▁cuts	-4366
▁frag	-4367
▁gave	-4368
▁valu	-4369
ancial	-4370
▁Sudan	-4371
▁check	-4372
▁claim	-4373
▁leads	-4374
▁looks	-4375
▁spect	-4376
▁teach	-4377
▁worse	-4378
illance	-4379
orthern	-4380
related	-4381
▁Health	-4382
▁Safety	-4383
▁System	-4384
▁brings	-4385
▁charge	-4386
▁closer	-4387
▁compon	-4388
▁doubts	-4389
▁expand	-4390
▁honest	-4391
▁length	-4392
▁nation	-4393
▁owners	-4394
▁prohib	-4395
▁quotas	-4396
▁societ	-4397
▁spoken	-4398
▁symbol	-4399
▁troops	-4400
▁unfair	-4401
▁Another	-4402
▁Europol	-4403
▁Frontex	-4404
▁Instead	-4405
▁Moldova	-4406
▁Service	-4407
▁Without	-4408
▁animals	-4409
▁average	-4410
▁getting	-4411
▁granted	-4412
▁hearing	-4413
▁maximum	-4414
▁morning	-4415
▁neither	-4416
▁offered	-4417
▁playing	-4418
▁revised	-4419
▁witness	-4420
operation	-4421
▁Baroness	-4422
▁airports	-4423
▁deserves	-4424
▁explicit	-4425
▁granting	-4426
▁hundreds	-4427
▁physical	-4428
▁spending	-4429
▁worrying	-4430
▁Stability	-4431
▁acknowled	-4432
▁concluded	-4433
▁continent	-4434
▁counterfe	-4435
▁extending	-4436
▁extensive	-4437
▁investors	-4438
▁naturally	-4439
▁proposing	-4440
▁realistic	-4441
▁respected	-4442
▁Conference	-4443
▁Investment	-4444
▁competence	-4445
▁complement	-4446
▁corruption	-4447
▁favourable	-4448
▁greenhouse	-4449
▁healthcare	-4450
▁transition	-4451
▁credibility	-4452
▁declaration	-4453
▁enforcement	-4454
▁politically	-4455
▁represented	-4456
▁expectations	-4457
▁improvements	-4458
▁nevertheless	-4459
▁interpretation	-4460
▁qualifications	-4461
IB	-4462
IS	-4463
au	-4464
ha	-4465
va	-4466
ALE	-4467
LDE	-4468
ama	-4469
amb	-4470
ari	-4471
imb	-4472
iqu	-4473
lav	-4474
ped	-4475
▁0.	-4476
▁40	-4477
▁Ab	-4478
▁Op	-4479
ches	-4480
fare	-4481
fici	-4482
here	-4483
ider	-4484
ithu	-4485
olog	-4486
prus	-4487
▁...	-4488
▁Are	-4489
▁Cor	-4490
▁Isl	-4491
▁Mal	-4492
▁Per	-4493
▁got	-4494
▁pie	-4495
ables	-4496
ather	-4497
earch	-4498
enced	-4499
ifies	-4500
lined	-4501
oking	-4502
ticip	-4503
▁ALDE	-4504
▁Head	-4505
▁Thus	-4506
▁host	-4507
▁pipe	-4508
▁push	-4509
▁soil	-4510
▁sole	-4511
▁susp	-4512
▁unne	-4513
airman	-4514
atever	-4515
inated	-4516
▁Haiti	-4517
▁Lithu	-4518
▁Verts	-4519
▁block	-4520
▁bound	-4521
▁clean	-4522
▁dairy	-4523
▁incom	-4524
▁paper	-4525
▁proud	-4526
▁quant	-4527
▁spend	-4528
▁talks	-4529
▁toler	-4530
▁urban	-4531
▁worst	-4532
▁youth	-4533
ressive	-4534
ulating	-4535
▁Cyprus	-4536
▁Greens	-4537
▁acquis	-4538
▁advert	-4539
▁assure	-4540
▁degree	-4541
▁double	-4542
▁female	-4543
▁intend	-4544
▁latter	-4545
▁likely	-4546
▁moving	-4547
▁online	-4548
▁pestic	-4549
▁pillar	-4550
▁plants	-4551
▁prefer	-4552
▁purely	-4553
position	-4554
▁Control	-4555
▁Freedom	-4556
▁Thirdly	-4557
▁acceler	-4558
▁amended	-4559
▁answers	-4560
▁banking	-4561
▁drawing	-4562
▁driving	-4563
▁enhance	-4564
▁expense	-4565
▁greatly	-4566
▁leaving	-4567
▁perfect	-4568
▁protest	-4569
▁relates	-4570
▁removed	-4571
▁revenue	-4572
▁sharing	-4573
▁Cohesion	-4574
▁Regional	-4575
▁Research	-4576
▁argument	-4577
▁creative	-4578
▁enhanced	-4579
▁finances	-4580
▁infringe	-4581
▁peaceful	-4582
▁presence	-4583
▁reaction	-4584
▁regarded	-4585
▁repeated	-4586
▁separate	-4587
▁struggle	-4588
▁unnecess	-4589
▁Christian	-4590
▁Macedonia	-4591
▁announced	-4592
▁authority	-4593
▁elsewhere	-4594
▁governing	-4595
▁increases	-4596
▁intensive	-4597
▁published	-4598
▁remaining	-4599
▁emphasised	-4600
▁identified	-4601
▁obligation	-4602
▁personally	-4603
▁presidency	-4604
▁restricted	-4605
▁achievement	-4606
▁electricity	-4607
▁preparation	-4608
▁sovereignty	-4609
▁traditional	-4610
▁exploitation	-4611
▁surveillance	-4612
▁environmentally	-4613
FI	-4614
GF	-4615
LT	-4616
SE	-4617
SV	-4618
ax	-4619
ana	-4620
ani	-4621
avi	-4622
coh	-4623
cot	-4624
gen	-4625
itz	-4626
pre	-4627
put	-4628
▁22	-4629
▁26	-4630
▁3.	-4631
▁Sm	-4632
▁et	-4633
2010	-4634
ares	-4635
ctic	-4636
enty	-4637
ingu	-4638
irms	-4639
ocks	-4640
oman	-4641
osen	-4642
▁20%	-4643
▁Ber	-4644
▁Bro	-4645
▁cal	-4646
▁hit	-4647
▁pra	-4648
▁rul	-4649
▁sad	-4650
▁tim	-4651
▁tur	-4652
▁uns	-4653
-2013	-4654
arent	-4655
cohol	-4656
osnia	-4657
otten	-4658
point	-4659
▁Food	-4660
▁West	-4661
▁coal	-4662
▁core	-4663
▁elig	-4664
▁glad	-4665
▁lost	-4666
▁prem	-4667
▁says	-4668
▁went	-4669
▁wine	-4670
aviour	-4671
ennium	-4672
icians	-4673
illing	-4674
roduct	-4675
stance	-4676
vision	-4677
▁2008,	-4678
▁Other	-4679
▁chann	-4680
▁court	-4681
▁destr	-4682
▁divid	-4683
▁eight	-4684
▁flows	-4685
▁forth	-4686
▁house	-4687
▁offic	-4688
▁phase	-4689
▁proof	-4690
▁quota	-4691
▁range	-4692
▁round	-4693
▁volat	-4694
uctural	-4695
▁Follow	-4696
▁belong	-4697
▁chosen	-4698
▁comply	-4699
▁deeply	-4700
▁dispos	-4701
▁hazard	-4702
▁latest	-4703
▁minute	-4704
▁mother	-4705
▁offers	-4706
▁retain	-4707
▁traged	-4708
▁wishes	-4709
atlantic	-4710
isheries	-4711
ographic	-4712
▁Balkans	-4713
▁General	-4714
▁Tunisia	-4715
▁affairs	-4716
▁anticip	-4717
▁becomes	-4718
▁defined	-4719
▁deliber	-4720
▁dignity	-4721
▁disease	-4722
▁evening	-4723
▁exports	-4724
▁farming	-4725
▁finding	-4726
▁friends	-4727
▁keeping	-4728
▁methods	-4729
▁operate	-4730
▁privacy	-4731
▁welfare	-4732
illennium	-4733
▁External	-4734
▁accompan	-4735
▁airlines	-4736
▁benefici	-4737
▁informal	-4738
▁original	-4739
▁pensions	-4740
▁powerful	-4741
▁proposes	-4742
▁reconcil	-4743
▁reliable	-4744
▁returned	-4745
▁secondly	-4746
▁suffered	-4747
▁Authority	-4748
▁Following	-4749
▁Liberties	-4750
▁allocated	-4751
▁competent	-4752
▁conducted	-4753
▁cooperate	-4754
▁criticism	-4755
▁demanding	-4756
▁everybody	-4757
▁forgotten	-4758
▁negotiate	-4759
▁reiterate	-4760
▁societies	-4761
▁temporary	-4762
▁underline	-4763
iodiversity	-4764
▁Structural	-4765
▁foodstuffs	-4766
▁highlights	-4767
▁legitimate	-4768
▁substances	-4769
▁Cooperation	-4770
▁competences	-4771
▁concentrate	-4772
▁populations	-4773
▁unnecessary	-4774
institutional	-4775
▁applications	-4776
▁inequalities	-4777
▁multilateral	-4778
▁neighbouring	-4779
▁significance	-4780
▁Globalisation	-4781
▁constitutional	-4782
5%	-4783
DA	-4784
ka	-4785
ada	-4786
elm	-4787
hol	-4788
iar	-4789
ior	-4790
loc	-4791
oub	-4792
uls	-4793
▁IM	-4794
▁Sy	-4795
2008	-4796
aily	-4797
erly	-4798
ibet	-4799
look	-4800
rees	-4801
▁149	-4802
▁Eng	-4803
▁Her	-4804
▁Lab	-4805
▁Leg	-4806
▁Mor	-4807
▁bio	-4808
▁dia	-4809
▁eld	-4810
▁etc	-4811
▁fif	-4812
▁fix	-4813
▁lic	-4814
▁voc	-4815
adequ	-4816
aling	-4817
appro	-4818
iding	-4819
iform	-4820
ondon	-4821
oring	-4822
rible	-4823
scale	-4824
▁Both	-4825
▁Free	-4826
▁Like	-4827
▁Prot	-4828
▁cars	-4829
▁cele	-4830
▁chem	-4831
▁depr	-4832
▁dism	-4833
▁doss	-4834
▁east	-4835
▁felt	-4836
▁flag	-4837
▁issu	-4838
▁lose	-4839
▁rich	-4840
▁seas	-4841
▁stip	-4842
▁surv	-4843
▁team	-4844
▁vari	-4845
▁wait	-4846
arding	-4847
irable	-4848
ursday	-4849
▁2020.	-4850
▁Burma	-4851
▁Funds	-4852
▁Heads	-4853
▁Tibet	-4854
▁Where	-4855
▁armed	-4856
▁categ	-4857
▁count	-4858
▁daily	-4859
▁detri	-4860
▁disag	-4861
▁imbal	-4862
▁lines	-4863
▁micro	-4864
▁motiv	-4865
▁piece	-4866
▁postp	-4867
▁seeks	-4868
▁sorry	-4869
▁spite	-4870
▁super	-4871
▁taxes	-4872
▁texts	-4873
▁tight	-4874
atively	-4875
▁Bosnia	-4876
▁Common	-4877
▁During	-4878
▁Indust	-4879
▁London	-4880
▁actual	-4881
▁approx	-4882
▁choose	-4883
▁claims	-4884
▁define	-4885
▁divers	-4886
▁errors	-4887
▁exclud	-4888
▁helped	-4889
▁places	-4890
▁redund	-4891
▁remark	-4892
▁serves	-4893
▁shared	-4894
▁stocks	-4895
▁unions	-4896
▁united	-4897
employed	-4898
▁Britain	-4899
▁abstain	-4900
▁amounts	-4901
▁biggest	-4902
▁briefly	-4903
▁complic	-4904
▁drafted	-4905
▁examine	-4906
▁focused	-4907
▁harmful	-4908
▁inadequ	-4909
▁legitim	-4910
▁numbers	-4911
▁ongoing	-4912
▁outcome	-4913
▁species	-4914
▁storage	-4915
▁warming	-4916
▁Thursday	-4917
▁allowing	-4918
▁answered	-4919
▁constitu	-4920
▁historic	-4921
▁involves	-4922
▁monetary	-4923
▁requests	-4924
▁suitable	-4925
▁terrible	-4926
▁valuable	-4927
initiative	-4928
▁Financial	-4929
▁Fisheries	-4930
▁behaviour	-4931
▁contracts	-4932
▁eliminate	-4933
▁exception	-4934
▁occasions	-4935
▁reinforce	-4936
▁satisfact	-4937
▁uncertain	-4938
▁Christians	-4939
▁applicable	-4940
▁exceptions	-4941
▁incentives	-4942
▁percentage	-4943
▁prosperity	-4944
▁recognises	-4945
▁reductions	-4946
▁regardless	-4947
▁respecting	-4948
▁supplement	-4949
▁advertising	-4950
▁association	-4951
▁contributed	-4952
▁exceptional	-4953
▁involvement	-4954
▁biodiversity	-4955
▁explanations	-4956
▁Commissioners	-4957
▁manufacturers	-4958
▁neighbourhood	-4959
▁possibilities	-4960
2)	-4961
AT	-4962
CC	-4963
DS	-4964
ko	-4965
aud	-4966
dro	-4967
ery	-4968
iff	-4969
ike	-4970
oll	-4971
oon	-4972
per	-4973
rum	-4974
rut	-4975
tin	-4976
try	-4977
wth	-4978
▁60	-4979
▁Ky	-4980
▁Me	-4981
back	-4982
ding	-4983
ites	-4984
onom	-4985
▁App	-4986
▁Cub	-4987
▁Nor	-4988
▁Som	-4989
▁bat	-4990
▁dum	-4991
▁fat	-4992
▁ren	-4993
▁saw	-4994
▁vir	-4995
atell	-4996
ellig	-4997
ffect	-4998
gence	-4999
icals	-5000
isory	-5001
ivity	-5002
level	-5003
ories	-5004
pical	-5005
place	-5006
right	-5007
stone	-5008
while	-5009
▁Does	-5010
▁Plan	-5011
▁ecos	-5012
▁eyes	-5013
▁fost	-5014
▁kept	-5015
▁none	-5016
▁reve	-5017
▁toys	-5018
anging	-5019
carbon	-5020
ernity	-5021
iction	-5022
rating	-5023
reneur	-5024
▁2006,	-5025
▁Legal	-5026
▁Small	-5027
▁aspir	-5028
▁began	-5029
▁board	-5030
▁boost	-5031
▁envis	-5032
▁front	-5033
▁items	-5034
▁kinds	-5035
▁links	-5036
▁manag	-5037
▁meant	-5038
▁obser	-5039
▁pharm	-5040
▁reass	-5041
▁scand	-5042
▁scrut	-5043
▁tough	-5044
▁trial	-5045
▁valid	-5046
▁volum	-5047
connect	-5048
iannual	-5049
▁Balkan	-5050
▁Consum	-5051
▁Growth	-5052
▁Middle	-5053
▁Report	-5054
▁absurd	-5055
▁assume	-5056
▁beings	-5057
▁breach	-5058
▁endors	-5059
▁exists	-5060
▁leader	-5061
▁listen	-5062
▁losses	-5063
▁marine	-5064
▁nearly	-5065
▁patent	-5066
▁paying	-5067
▁profit	-5068
▁prosec	-5069
▁seeing	-5070
▁tonnes	-5071
▁underm	-5072
▁unjust	-5073
▁whilst	-5074
cription	-5075
novation	-5076
▁Subject	-5077
▁careful	-5078
▁causing	-5079
▁century	-5080
▁choices	-5081
▁cutting	-5082
▁deficit	-5083
▁deliver	-5084
▁dispute	-5085
▁dynamic	-5086
▁entered	-5087
▁falling	-5088
▁feeling	-5089
▁holding	-5090
▁mistake	-5091
▁options	-5092
▁predict	-5093
▁primary	-5094
▁recipro	-5095
▁regrett	-5096
▁release	-5097
▁seeking	-5098
▁showing	-5099
▁subsequ	-5100
▁uniform	-5101
▁urgency	-5102
▁version	-5103
▁wording	-5104
ervations	-5105
iological	-5106
repreneur	-5107
▁apparent	-5108
▁changing	-5109
▁credible	-5110
▁decisive	-5111
▁declared	-5112
▁disposal	-5113
▁emphasis	-5114
▁mistakes	-5115
▁pipeline	-5116
▁pursuing	-5117
▁resolved	-5118
▁resulted	-5119
▁speeches	-5120
▁stations	-5121
▁supposed	-5122
▁withdraw	-5123
▁Budgetary	-5124
▁Petitions	-5125
▁accepting	-5126
▁confirmed	-5127
▁correctly	-5128
▁dependent	-5129
▁ecosystem	-5130
▁expecting	-5131
▁necessity	-5132
▁operating	-5133
▁ownership	-5134
▁primarily	-5135
▁requested	-5136
▁residence	-5137
▁Adjustment	-5138
▁Millennium	-5139
▁addressing	-5140
▁comparison	-5141
▁complaints	-5142
▁historical	-5143
▁impression	-5144
▁neighbours	-5145
▁consequence	-5146
▁demographic	-5147
▁maintaining	-5148
▁politicians	-5149
▁representing	-5150
▁stakeholders	-5151
▁Parliamentary	-5152
▁authorisation	-5153
▁simplification	-5154
AS	-5155
na	-5156
no	-5157
ane	-5158
ann	-5159
cel	-5160
cer	-5161
eop	-5162
gic	-5163
iny	-5164
ros	-5165
wns	-5166
yle	-5167
▁31	-5168
▁Mc	-5169
abit	-5170
ague	-5171
anda	-5172
anks	-5173
appe	-5174
cipl	-5175
coun	-5176
deav	-5177
fuel	-5178
ints	-5179
itig	-5180
kers	-5181
part	-5182
raft	-5183
ries	-5184
vens	-5185
▁10%	-5186
▁40%	-5187
▁Dan	-5188
▁Pre	-5189
▁WTO	-5190
▁War	-5191
▁ded	-5192
▁fil	-5193
▁lob	-5194
apter	-5195
grace	-5196
ralia	-5197
stood	-5198
▁Mart	-5199
▁Once	-5200
▁Over	-5201
▁Then	-5202
▁city	-5203
▁code	-5204
▁exem	-5205
▁hous	-5206
▁hung	-5207
▁jeop	-5208
▁judg	-5209
▁neut	-5210
▁save	-5211
▁tang	-5212
arians	-5213
istent	-5214
oubted	-5215
ourism	-5216
▁2007,	-5217
▁Congo	-5218
▁Paper	-5219
▁Paris	-5220
▁badly	-5221
▁black	-5222
▁blood	-5223
▁built	-5224
▁entit	-5225
▁moral	-5226
▁outer	-5227
▁plays	-5228
▁unpre	-5229
▁veget	-5230
▁watch	-5231
▁woman	-5232
appoint	-5233
erative	-5234
istered	-5235
leading	-5236
loyment	-5237
▁Agenda	-5238
▁Canada	-5239
▁Instit	-5240
▁Labour	-5241
▁Nether	-5242
▁Public	-5243
▁actors	-5244
▁catast	-5245
▁checks	-5246
▁commod	-5247
▁covers	-5248
▁depart	-5249
▁endeav	-5250
▁exempt	-5251
▁flight	-5252
▁honour	-5253
▁incomp	-5254
▁joined	-5255
▁oppose	-5256
▁proved	-5257
▁slight	-5258
▁solved	-5259
▁timely	-5260
abitants	-5261
building	-5262
▁Belgian	-5263
▁Climate	-5264
▁Perhaps	-5265
▁absence	-5266
▁affects	-5267
▁arising	-5268
▁autonom	-5269
▁broader	-5270
▁closing	-5271
▁commend	-5272
▁desired	-5273
▁disappe	-5274
▁drivers	-5275
▁elderly	-5276
▁failing	-5277
▁follows	-5278
▁heading	-5279
▁jeopard	-5280
▁lessons	-5281
▁meaning	-5282
▁medical	-5283
▁motions	-5284
▁notably	-5285
▁parents	-5286
▁periods	-5287
▁princip	-5288
▁restore	-5289
▁running	-5290
▁schools	-5291
▁tragedy	-5292
▁vessels	-5293
▁waiting	-5294
▁weapons	-5295
▁Protocol	-5296
▁attempts	-5297
▁believes	-5298
▁disagree	-5299
▁forecast	-5300
▁friendly	-5301
▁imposing	-5302
▁intellig	-5303
▁listened	-5304
▁obtained	-5305
▁promised	-5306
▁realised	-5307
▁restruct	-5308
▁spectrum	-5309
▁straight	-5310
▁tangible	-5311
▁whatever	-5312
repreneurs	-5313
▁Australia	-5314
▁Slovenian	-5315
▁certainty	-5316
▁defending	-5317
▁exclusive	-5318
▁extension	-5319
▁fishermen	-5320
▁justified	-5321
▁mandatory	-5322
▁ministers	-5323
▁movements	-5324
▁prevented	-5325
▁prospects	-5326
▁qualified	-5327
▁substance	-5328
▁succeeded	-5329
▁suggested	-5330
▁violation	-5331
▁adjustment	-5332
▁allocation	-5333
▁candidates	-5334
▁commission	-5335
▁disappoint	-5336
▁encouraged	-5337
▁expressing	-5338
▁harmonised	-5339
▁previously	-5340
▁traditions	-5341
▁Netherlands	-5342
▁assessments	-5343
▁convergence	-5344
▁destruction	-5345
▁efficiently	-5346
▁inhabitants	-5347
▁operational	-5348
▁conservation	-5349
▁considerably	-5350
▁contributing	-5351
▁declarations	-5352
▁economically	-5353
▁determination	-5354
▁disadvantaged	-5355
▁restructuring	-5356
▁transatlantic	-5357
2.	-5358
EN	-5359
EU	-5360
GL	-5361
SP	-5362
UE	-5363
aw	-5364
ef	-5365
oz	-5366
6-0	-5367
NGL	-5368
ays	-5369
den	-5370
ico	-5371
ins	-5372
jud	-5373
ked	-5374
lin	-5375
noc	-5376
oud	-5377
rem	-5378
ski	-5379
ube	-5380
umb	-5381
▁Dr	-5382
▁Pa	-5383
▁Su	-5384
abwe	-5385
emic	-5386
erre	-5387
iers	-5388
igor	-5389
inal	-5390
irth	-5391
iscr	-5392
itch	-5393
izon	-5394
osur	-5395
petr	-5396
rain	-5397
uest	-5398
uris	-5399
utch	-5400
what	-5401
zone	-5402
▁197	-5403
▁30%	-5404
▁50%	-5405
▁Aug	-5406
▁Dim	-5407
▁EIB	-5408
▁GUE	-5409
▁Kar	-5410
▁Nat	-5411
▁Two	-5412
▁VAT	-5413
▁map	-5414
▁rid	-5415
▁sil	-5416
▁unb	-5417
▁unw	-5418
▁upd	-5419
acerb	-5420
aceut	-5421
apers	-5422
erted	-5423
inent	-5424
inger	-5425
iring	-5426
itzer	-5427
utive	-5428
wenty	-5429
▁Kurd	-5430
▁earn	-5431
▁meat	-5432
▁puts	-5433
▁rely	-5434
▁sett	-5435
▁tend	-5436
▁wage	-5437
ailing	-5438
cision	-5439
ederal	-5440
ground	-5441
▁2011.	-5442
▁Goals	-5443
▁Latin	-5444
▁Stock	-5445
▁apart	-5446
▁arise	-5447
▁below	-5448
▁blind	-5449
▁coast	-5450
▁conve	-5451
▁dereg	-5452
▁euros	-5453
▁frame	-5454
▁juris	-5455
▁liber	-5456
▁mitig	-5457
▁noted	-5458
▁older	-5459
▁persu	-5460
▁prove	-5461
▁solid	-5462
▁track	-5463
▁unity	-5464
▁wages	-5465
ercosur	-5466
imbabwe	-5467
urement	-5468
viously	-5469
▁August	-5470
▁Secret	-5471
▁Sweden	-5472
▁banned	-5473
▁cities	-5474
▁corpor	-5475
▁couple	-5476
▁courts	-5477
▁fields	-5478
▁formal	-5479
▁foster	-5480
▁ignore	-5481
▁implic	-5482
▁infect	-5483
▁opened	-5484
▁punish	-5485
▁stands	-5486
▁viable	-5487
▁victim	-5488
cedented	-5489
etheless	-5490
ordinary	-5491
oubtedly	-5492
▁Budgets	-5493
▁Switzer	-5494
▁abolish	-5495
▁alcohol	-5496
▁approve	-5497
▁biofuel	-5498
▁dismant	-5499
▁exacerb	-5500
▁freight	-5501
▁grounds	-5502
▁joining	-5503
▁lasting	-5504
▁obliged	-5505
▁pattern	-5506
▁perpetr	-5507
▁priorit	-5508
▁publish	-5509
▁radical	-5510
▁raising	-5511
▁science	-5512
▁someone	-5513
▁Equality	-5514
▁Industry	-5515
▁Liberals	-5516
▁National	-5517
▁carrying	-5518
▁channels	-5519
▁confront	-5520
▁deprived	-5521
▁directed	-5522
▁disgrace	-5523
▁endorsed	-5524
▁foremost	-5525
▁identity	-5526
▁lifelong	-5527
▁migrants	-5528
▁minister	-5529
▁occurred	-5530
▁openness	-5531
▁pressing	-5532
▁reported	-5533
▁resource	-5534
▁southern	-5535
▁supplies	-5536
▁surround	-5537
▁thanking	-5538
▁welcomes	-5539
▁Obviously	-5540
▁Regarding	-5541
▁chemicals	-5542
▁depending	-5543
▁described	-5544
▁estimated	-5545
▁hazardous	-5546
▁inclusive	-5547
▁intervene	-5548
▁penalties	-5549
▁regularly	-5550
▁surprised	-5551
▁universal	-5552
▁Socialists	-5553
▁accessible	-5554
▁constitute	-5555
▁convention	-5556
▁determined	-5557
▁legitimacy	-5558
▁pesticides	-5559
▁pharmaceut	-5560
▁registered	-5561
▁television	-5562
▁vegetables	-5563
▁volatility	-5564
▁Information	-5565
▁Switzerland	-5566
▁accompanied	-5567
▁bureaucracy	-5568
▁complicated	-5569
▁constitutes	-5570
▁delegations	-5571
▁forthcoming	-5572
▁journalists	-5573
▁publication	-5574
▁regrettable	-5575
▁supervisory	-5576
▁achievements	-5577
▁interconnect	-5578
▁interference	-5579
▁approximately	-5580
▁beneficiaries	-5581
▁entrepreneurs	-5582
▁protectionism	-5583
▁unprecedented	-5584
▁Constitutional	-5585
%,	-5586
2,	-5587
50	-5588
tt	-5589
uz	-5590
▁i	-5591
GOs	-5592
IDS	-5593
ads	-5594
ara	-5595
asm	-5596
cif	-5597
cue	-5598
cyc	-5599
duc	-5600
iox	-5601
lex	-5602
ona	-5603
ony	-5604
ook	-5605
osp	-5606
oto	-5607
tal	-5608
ulz	-5609
zeg	-5610
▁29	-5611
▁4.	-5612
▁El	-5613
city	-5614
free	-5615
holm	-5616
iced	-5617
ilot	-5618
lish	-5619
oral	-5620
raid	-5621
roph	-5622
roup	-5623
rous	-5624
ster	-5625
stra	-5626
ugos	-5627
wing	-5628
▁Emp	-5629
▁PSE	-5630
▁She	-5631
▁adm	-5632
▁har	-5633
▁liv	-5634
▁pan	-5635
▁pet	-5636
asion	-5637
exico	-5638
lling	-5639
ovina	-5640
verse	-5641
▁Most	-5642
▁NGOs	-5643
▁Pack	-5644
▁Wall	-5645
▁diox	-5646
▁fate	-5647
▁plat	-5648
▁root	-5649
▁scen	-5650
▁stab	-5651
▁stre	-5652
▁vacc	-5653
▁virt	-5654
▁webs	-5655
▁wind	-5656
atible	-5657
atures	-5658
estock	-5659
ildren	-5660
ingent	-5661
lation	-5662
licate	-5663
soever	-5664
ulsory	-5665
urning	-5666
▁2011,	-5667
▁Obama	-5668
▁Their	-5669
▁birth	-5670
▁debts	-5671
▁displ	-5672
▁exerc	-5673
▁firms	-5674
▁forum	-5675
▁frank	-5676
▁fuels	-5677
▁gross	-5678
▁hydro	-5679
▁incon	-5680
▁judge	-5681
▁label	-5682
▁loans	-5683
▁purch	-5684
▁remit	-5685
▁towns	-5686
▁types	-5687
▁wider	-5688
General	-5689
agement	-5690
cession	-5691
comings	-5692
country	-5693
ensible	-5694
osition	-5695
respons	-5696
session	-5697
ugoslav	-5698
▁Arctic	-5699
▁Centre	-5700
▁Danube	-5701
▁Schulz	-5702
▁abuses	-5703
▁acting	-5704
▁afraid	-5705
▁ageing	-5706
▁attach	-5707
▁consci	-5708
▁danger	-5709
▁deteri	-5710
▁distin	-5711
▁excuse	-5712
▁extrem	-5713
▁fairly	-5714
▁finger	-5715
▁fourth	-5716
▁hunger	-5717
▁minors	-5718
▁multip	-5719
▁orient	-5720
▁poorer	-5721
▁prompt	-5722
▁rescue	-5723
▁resist	-5724
▁satell	-5725
▁spring	-5726
▁stance	-5727
▁stream	-5728
▁surely	-5729
▁worthy	-5730
iability	-5731
iversary	-5732
zegovina	-5733
▁Austria	-5734
▁English	-5735
▁Tourism	-5736
▁adverse	-5737
▁amongst	-5738
▁centres	-5739
▁clarify	-5740
▁debated	-5741
▁depends	-5742
▁discipl	-5743
▁dossier	-5744
▁earthqu	-5745
▁enabled	-5746
▁enables	-5747
▁equival	-5748
▁heavily	-5749
▁horizon	-5750
▁housing	-5751
▁inspect	-5752
▁intends	-5753
▁jointly	-5754
▁logical	-5755
▁massive	-5756
▁pillars	-5757
▁players	-5758
▁rapidly	-5759
▁refused	-5760
▁scandal	-5761
▁smaller	-5762
▁solving	-5763
▁stating	-5764
▁telling	-5765
▁textile	-5766
▁variety	-5767
▁vehicle	-5768
▁warning	-5769
▁Consumer	-5770
▁Internal	-5771
▁Services	-5772
▁advocate	-5773
▁amending	-5774
▁compared	-5775
▁debating	-5776
▁delicate	-5777
▁dramatic	-5778
▁emission	-5779
▁enabling	-5780
▁entering	-5781
▁extended	-5782
▁familiar	-5783
▁financed	-5784
▁generate	-5785
▁humanity	-5786
▁launched	-5787
▁marginal	-5788
▁register	-5789
▁Stockholm	-5790
▁arguments	-5791
▁complying	-5792
▁detention	-5793
▁detriment	-5794
▁employers	-5795
▁envisaged	-5796
▁gradually	-5797
▁insurance	-5798
▁livestock	-5799
▁maternity	-5800
▁nationals	-5801
▁outermost	-5802
▁proactive	-5803
▁unanimous	-5804
▁Resolution	-5805
▁approaches	-5806
▁biological	-5807
▁components	-5808
▁compulsory	-5809
▁controvers	-5810
▁guaranteed	-5811
▁inadequate	-5812
▁misleading	-5813
▁reinforced	-5814
▁relatively	-5815
▁systematic	-5816
▁threatened	-5817
▁understood	-5818
▁whatsoever	-5819
ertification	-5820
▁anniversary	-5821
▁compromises	-5822
▁consistency	-5823
▁elimination	-5824
▁essentially	-5825
▁experienced	-5826
▁instability	-5827
▁persecution	-5828
▁procurement	-5829
▁radioactive	-5830
▁willingness	-5831
▁demonstrated	-5832
▁demonstrates	-5833
▁incorporated	-5834
▁satisfactory	-5835
▁shortcomings	-5836
▁transitional	-5837
▁consultations	-5838
▁corresponding	-5839
▁transposition	-5840
1,	-5841
5,	-5842
AF	-5843
As	-5844
NR	-5845
OL	-5846
ih	-5847
ls	-5848
abu	-5849
ado	-5850
bur	-5851
fur	-5852
law	-5853
lim	-5854
off	-5855
ole	-5856
ris	-5857
via	-5858
yed	-5859
▁CE	-5860
▁Cr	-5861
akis	-5862
aled	-5863
alse	-5864
apse	-5865
edge	-5866
enez	-5867
enko	-5868
fers	-5869
iger	-5870
oler	-5871
osis	-5872
quir	-5873
rich	-5874
sets	-5875
uble	-5876
▁300	-5877
▁Bec	-5878
▁Day	-5879
▁Har	-5880
▁Ice	-5881
▁Mus	-5882
▁Net	-5883
▁Ref	-5884
▁SIS	-5885
▁Sup	-5886
▁Van	-5887
▁cop	-5888
▁cro	-5889
▁era	-5890
▁ine	-5891
▁inj	-5892
▁mal	-5893
▁sem	-5894
abled	-5895
arted	-5896
asing	-5897
ednes	-5898
group	-5899
inder	-5900
ossil	-5901
sight	-5902
urate	-5903
venth	-5904
whelm	-5905
yards	-5906
▁149)	-5907
▁Barn	-5908
▁Canc	-5909
▁Conc	-5910
▁Four	-5911
▁Scot	-5912
▁calc	-5913
▁earm	-5914
▁grat	-5915
▁irre	-5916
▁lawy	-5917
▁pain	-5918
▁pose	-5919
▁purs	-5920
▁room	-5921
▁seat	-5922
▁tape	-5923
▁tort	-5924
▁trem	-5925
itical	-5926
lected	-5927
mining	-5928
nesses	-5929
▁2012.	-5930
▁2013,	-5931
▁Apart	-5932
▁Dimas	-5933
▁Joint	-5934
▁Treat	-5935
▁Under	-5936
▁Venez	-5937
▁alarm	-5938
▁cheap	-5939
▁codec	-5940
▁deals	-5941
▁dedic	-5942
▁diagn	-5943
▁foods	-5944
▁grand	-5945
▁liter	-5946
▁lobby	-5947
▁names	-5948
▁newsp	-5949
▁optim	-5950
▁param	-5951
▁pilot	-5952
▁pleas	-5953
▁ports	-5954
▁recyc	-5955
▁reint	-5956
▁remed	-5957
▁sched	-5958
▁sheep	-5959
▁swift	-5960
ception	-5961
pliance	-5962
▁Mexico	-5963
▁Office	-5964
▁battle	-5965
▁blocks	-5966
▁cancer	-5967
▁contam	-5968
▁denoun	-5969
▁exclus	-5970
▁fossil	-5971
▁havens	-5972
▁illust	-5973
▁island	-5974
▁nobody	-5975
▁partly	-5976
▁permit	-5977
▁planet	-5978
▁pollut	-5979
▁prejud	-5980
▁proven	-5981
▁settle	-5982
▁solely	-5983
▁strive	-5984
▁talked	-5985
▁tariff	-5986
appropri	-5987
ednesday	-5988
idential	-5989
mination	-5990
whelming	-5991
▁Because	-5992
▁Belgium	-5993
▁Iceland	-5994
▁Israeli	-5995
▁artific	-5996
▁bearing	-5997
▁bluefin	-5998
▁diverse	-5999
▁eastern	-6000
▁ensured	-6001
▁forests	-6002
▁ignored	-6003
▁justify	-6004
▁margins	-6005
▁observe	-6006
▁persist	-6007
▁seconds	-6008
▁selling	-6009
▁sending	-6010
▁suspect	-6011
▁transit	-6012
▁tremend	-6013
▁volunte	-6014
abilities	-6015
▁Atlantic	-6016
▁Mercosur	-6017
▁Romanian	-6018
▁Treaties	-6019
▁Venezuel	-6020
▁ambition	-6021
▁cultures	-6022
▁defining	-6023
▁disputes	-6024
▁eurozone	-6025
▁immunity	-6026
▁incident	-6027
▁mobilise	-6028
▁modified	-6029
▁moreover	-6030
▁observed	-6031
▁opposite	-6032
▁organise	-6033
▁overlook	-6034
▁patterns	-6035
▁platform	-6036
▁possibly	-6037
▁reserves	-6038
▁sectoral	-6039
▁shortage	-6040
▁simplify	-6041
▁somewhat	-6042
▁standing	-6043
▁treaties	-6044
▁2007-2013	-6045
▁Neighbour	-6046
▁Otherwise	-6047
▁activists	-6048
▁broadcast	-6049
▁coherence	-6050
▁completed	-6051
▁contained	-6052
▁desirable	-6053
▁discrimin	-6054
▁draftsman	-6055
▁estimates	-6056
▁expensive	-6057
▁genuinely	-6058
▁gratitude	-6059
▁indicated	-6060
▁prisoners	-6061
▁resolving	-6062
▁responses	-6063
▁satellite	-6064
▁stringent	-6065
▁accounting	-6066
▁apparently	-6067
▁codecision	-6068
▁collection	-6069
▁containing	-6070
▁continuous	-6071
▁coordinate	-6072
▁earthquake	-6073
▁ecological	-6074
▁everywhere	-6075
▁explicitly	-6076
▁imbalances	-6077
▁inequality	-6078
▁repression	-6079
▁witnessing	-6080
▁Herzegovina	-6081
▁Palestinian	-6082
▁Progressive	-6083
▁aspirations	-6084
▁competitors	-6085
▁contributes	-6086
▁conventions	-6087
▁cooperating	-6088
▁establishes	-6089
▁exclusively	-6090
▁experiences	-6091
▁explanation	-6092
▁multiannual	-6093
▁potentially	-6094
▁recommended	-6095
▁suggestions	-6096
▁consequently	-6097
▁implications	-6098
▁jurisdiction	-6099
▁overwhelming	-6100
▁partnerships	-6101
▁reservations	-6102
▁sufficiently	-6103
▁universities	-6104
▁Neighbourhood	-6105
▁investigation	-6106
▁relationships	-6107
▁counterfeiting	-6108
▁pharmaceutical	-6109
▁reconciliation	-6110
):	-6111
.'	-6112
BG	-6113
CE	-6114
DC	-6115
DF	-6116
ER	-6117
IP	-6118
bo	-6119
ds	-6120
gu	-6121
uy	-6122
7-0	-6123
LAF	-6124
amp	-6125
asp	-6126
emy	-6127
ero	-6128
inc	-6129
isa	-6130
lev	-6131
lif	-6132
nel	-6133
oha	-6134
ork	-6135
ses	-6136
ubb	-6137
ula	-6138
xem	-6139
ych	-6140
zen	-6141
▁28	-6142
▁Bo	-6143
▁vo	-6144
2006	-6145
agas	-6146
ales	-6147
alle	-6148
amas	-6149
aves	-6150
cism	-6151
emen	-6152
iate	-6153
igen	-6154
ique	-6155
kash	-6156
lock	-6157
mark	-6158
omet	-6159
ooth	-6160
oper	-6161
oses	-6162
resh	-6163
rupt	-6164
text	-6165
year	-6166
▁11.	-6167
▁Alb	-6168
▁Bus	-6169
▁EGF	-6170
▁Far	-6171
▁Int	-6172
▁Its	-6173
▁Joh	-6174
▁Lam	-6175
▁PNR	-6176
▁Red	-6177
▁Sim	-6178
▁Taj	-6179
▁atm	-6180
▁bra	-6181
▁bus	-6182
▁cyc	-6183
▁dog	-6184
▁gre	-6185
▁hal	-6186
▁mur	-6187
▁rob	-6188
▁sac	-6189
▁sla	-6190
▁squ	-6191
ariat	-6192
ipped	-6193
ophob	-6194
osure	-6195
oured	-6196
rison	-6197
space	-6198
teneg	-6199
uries	-6200
▁1990	-6201
▁2000	-6202
▁2003	-6203
▁Brok	-6204
▁Decl	-6205
▁Nabu	-6206
▁OLAF	-6207
▁Rome	-6208
▁blow	-6209
▁copy	-6210
▁drop	-6211
▁ends	-6212
▁hars	-6213
▁imag	-6214
▁inev	-6215
▁keen	-6216
▁mine	-6217
▁rare	-6218
▁sale	-6219
▁scar	-6220
▁scre	-6221
▁vary	-6222
▁vast	-6223
ancies	-6224
ansion	-6225
celona	-6226
esides	-6227
forest	-6228
ivered	-6229
nocent	-6230
ounter	-6231
ustain	-6232
▁Clear	-6233
▁Colle	-6234
▁Luxem	-6235
▁Syria	-6236
▁acted	-6237
▁admit	-6238
▁alleg	-6239
▁bases	-6240
▁begun	-6241
▁celeb	-6242
▁crops	-6243
▁drive	-6244
▁false	-6245
▁fires	-6246
▁fixed	-6247
▁genet	-6248
▁heads	-6249
▁helps	-6250
▁hence	-6251
▁image	-6252
▁input	-6253
▁irreg	-6254
▁liked	-6255
▁minim	-6256
▁motor	-6257
▁mount	-6258
▁multi	-6259
▁night	-6260
▁noise	-6261
▁reaff	-6262
▁sales	-6263
▁shape	-6264
▁shift	-6265
▁stock	-6266
▁yield	-6267
arities	-6268
ilising	-6269
product	-6270
ternoon	-6271
ultural	-6272
▁Asylum	-6273
▁Change	-6274
▁Commun	-6275
▁Lukash	-6276
▁Martin	-6277
▁Monday	-6278
▁Thanks	-6279
▁agrees	-6280
▁apolog	-6281
▁arrive	-6282
▁assert	-6283
▁assets	-6284
▁bigger	-6285
▁custom	-6286
▁deaths	-6287
▁exceed	-6288
▁faster	-6289
▁freely	-6290
▁funded	-6291
▁hardly	-6292
▁insult	-6293
▁intens	-6294
▁larger	-6295
▁losing	-6296
▁marria	-6297
▁mobile	-6298
▁models	-6299
▁notice	-6300
▁postal	-6301
▁refers	-6302
▁remote	-6303
▁resort	-6304
▁series	-6305
▁showed	-6306
▁sought	-6307
▁specif	-6308
▁sphere	-6309
▁stages	-6310
▁uphold	-6311
▁volume	-6312
▁waters	-6313
ferences	-6314
▁Albania	-6315
▁Barnier	-6316
▁Estonia	-6317
▁Islamic	-6318
▁Kurdish	-6319
▁Nabucco	-6320
▁Support	-6321
▁Through	-6322
▁airline	-6323
▁chapter	-6324
▁clauses	-6325
▁compete	-6326
▁consent	-6327
▁constra	-6328
▁decline	-6329
▁earmark	-6330
▁ensures	-6331
▁evident	-6332
▁exploit	-6333
▁flights	-6334
▁impacts	-6335
▁intoler	-6336
▁lending	-6337
▁missing	-6338
▁monopol	-6339
▁neutral	-6340
▁passing	-6341
▁prevail	-6342
▁records	-6343
▁redress	-6344
▁registr	-6345
▁remarks	-6346
▁renewed	-6347
▁schemes	-6348
▁streets	-6349
▁student	-6350
▁trouble	-6351
▁whereby	-6352
condition	-6353
ommission	-6354
▁Business	-6355
▁Northern	-6356
▁actively	-6357
▁airspace	-6358
▁assessed	-6359
▁biofuels	-6360
▁civilian	-6361
▁collapse	-6362
▁combined	-6363
▁demanded	-6364
▁discover	-6365
▁entitled	-6366
▁fragment	-6367
▁fruitful	-6368
▁handling	-6369
▁imperial	-6370
▁imprison	-6371
▁indicate	-6372
▁internet	-6373
▁pleasure	-6374
▁promoted	-6375
▁removing	-6376
▁respects	-6377
▁shoulder	-6378
▁surprise	-6379
▁survival	-6380
▁symbolic	-6381
▁yourself	-6382
▁Barcelona	-6383
▁Institute	-6384
▁Lithuania	-6385
▁Naturally	-6386
▁Secretary	-6387
▁Wednesday	-6388
▁abandoned	-6389
▁afternoon	-6390
▁alongside	-6391
▁basically	-6392
▁connected	-6393
▁considers	-6394
▁delivered	-6395
▁dictators	-6396
▁endeavour	-6397
▁expansion	-6398
▁functions	-6399
▁incentive	-6400
▁initially	-6401
▁irregular	-6402
▁irrespons	-6403
▁medicinal	-6404
▁observers	-6405
▁petitions	-6406
▁precedent	-6407
▁principal	-6408
▁producing	-6409
▁providers	-6410
▁reporting	-6411
▁satisfied	-6412
▁socialist	-6413
▁subjected	-6414
▁subsidies	-6415
▁undermine	-6416
▁withdrawn	-6417
▁worldwide	-6418
▁Employment	-6419
▁Lukashenko	-6420
▁Luxembourg	-6421
▁Presidents	-6422
▁adaptation	-6423
▁attractive	-6424
▁capitalism	-6425
▁controlled	-6426
▁disastrous	-6427
▁frequently	-6428
▁horizontal	-6429
▁maintained	-6430
▁negotiated	-6431
▁occupation	-6432
▁thoroughly	-6433
▁travelling	-6434
▁underlying	-6435
▁vocational	-6436
▁eligibility	-6437
▁necessarily	-6438
▁outstanding	-6439
▁replacement	-6440
▁transaction	-6441
▁unanimously	-6442
iscrimination	-6443
▁bureaucratic	-6444
▁compensation	-6445
▁consistently	-6446
▁constituents	-6447
▁prescription	-6448
▁presentation	-6449
▁undertakings	-6450
▁appropriately	-6451
▁concentration	-6452
▁extraordinary	-6453
▁communications	-6454
▁reconstruction	-6455
.,	-6456
25	-6457
6,	-6458
9,	-6459
FP	-6460
IV	-6461
LO	-6462
SL	-6463
ca	-6464
ga	-6465
hr	-6466
ki	-6467
ky	-6468
sh	-6469
ta	-6470
ua	-6471
20,	-6472
ECD	-6473
adt	-6474
ami	-6475
bel	-6476
cut	-6477
fri	-6478
let	-6479
mon	-6480
nam	-6481
nex	-6482
rov	-6483
son	-6484
ull	-6485
yes	-6486
▁EF	-6487
▁Er	-6488
▁Ev	-6489
▁GM	-6490
▁Te	-6491
▁Ug	-6492
adic	-6493
dden	-6494
erce	-6495
face	-6496
gers	-6497
gies	-6498
hips	-6499
imer	-6500
like	-6501
occo	-6502
oles	-6503
plus	-6504
rian	-6505
sset	-6506
ucas	-6507
uled	-6508
uous	-6509
urit	-6510
▁250	-6511
▁Ant	-6512
▁Car	-6513
▁Dar	-6514
▁GSP	-6515
▁Gar	-6516
▁Imm	-6517
▁Non	-6518
▁Pap	-6519
▁Pri	-6520
▁Sal	-6521
▁Sar	-6522
▁Spe	-6523
▁Tax	-6524
▁aqu	-6525
▁bit	-6526
▁bot	-6527
▁buy	-6528
▁eat	-6529
▁esc	-6530
▁gir	-6531
▁hat	-6532
▁mus	-6533
▁nom	-6534
▁slo	-6535
▁spl	-6536
acing	-6537
eneva	-6538
oning	-6539
oting	-6540
quiry	-6541
stadt	-6542
ureau	-6543
using	-6544
▁Chad	-6545
▁Cuba	-6546
▁Doha	-6547
▁Educ	-6548
▁Form	-6549
▁Left	-6550
▁Mean	-6551
▁Nord	-6552
▁Rail	-6553
▁Stat	-6554
▁acad	-6555
▁arms	-6556
▁ball	-6557
▁brut	-6558
▁dual	-6559
▁duly	-6560
▁emot	-6561
▁fals	-6562
▁fort	-6563
▁gaps	-6564
▁hosp	-6565
▁luck	-6566
▁magn	-6567
▁moth	-6568
▁murd	-6569
▁nons	-6570
▁pict	-6571
▁pity	-6572
▁prag	-6573
▁rape	-6574
▁rush	-6575
▁sake	-6576
▁shel	-6577
▁wake	-6578
▁warn	-6579
▁zero	-6580
alling	-6581
asures	-6582
erning	-6583
etable	-6584
ipping	-6585
itored	-6586
lihood	-6587
reason	-6588
▁2000,	-6589
▁2005,	-6590
▁2020,	-6591
▁Chair	-6592
▁Cypri	-6593
▁Dutch	-6594
▁Ferre	-6595
▁Guine	-6596
▁Hamas	-6597
▁Memor	-6598
▁Until	-6599
▁allev	-6600
▁aside	-6601
▁audit	-6602
▁await	-6603
▁award	-6604
▁camps	-6605
▁catch	-6606
▁decre	-6607
▁dimin	-6608
▁domin	-6609
▁embar	-6610
▁error	-6611
▁exert	-6612
▁faire	-6613
▁farms	-6614
▁fewer	-6615
▁fresh	-6616
▁guard	-6617
▁lingu	-6618
▁manif	-6619
▁maybe	-6620
▁minor	-6621
▁moved	-6622
▁remov	-6623
▁rigor	-6624
▁route	-6625
▁ships	-6626
▁stead	-6627
▁units	-6628
▁zones	-6629
iminals	-6630
ophobia	-6631
plement	-6632
unction	-6633
▁Associ	-6634
▁Bureau	-6635
▁Gender	-6636
▁Geneva	-6637
▁Having	-6638
▁Latvia	-6639
▁Reform	-6640
▁Tajani	-6641
▁Ukrain	-6642
▁Whilst	-6643
▁adjust	-6644
▁became	-6645
▁collab	-6646
▁desper	-6647
▁easily	-6648
▁engine	-6649
▁expert	-6650
▁figure	-6651
▁fleets	-6652
▁floods	-6653
▁gained	-6654
▁inside	-6655
▁killed	-6656
▁landsc	-6657
▁letter	-6658
▁lifest	-6659
▁metres	-6660
▁murder	-6661
▁pursue	-6662
▁racism	-6663
▁ratify	-6664
▁remove	-6665
▁ruling	-6666
▁shares	-6667
▁smooth	-6668
▁specul	-6669
▁sports	-6670
▁summer	-6671
▁termin	-6672
▁topics	-6673
▁trends	-6674
▁twenty	-6675
▁utmost	-6676
▁warmly	-6677
▁weight	-6678
▁worker	-6679
egration	-6680
ervative	-6681
ffective	-6682
▁College	-6683
▁Culture	-6684
▁Opening	-6685
▁Workers	-6686
▁accused	-6687
▁applaud	-6688
▁arrived	-6689
▁banning	-6690
▁ceiling	-6691
▁combine	-6692
▁dioxide	-6693
▁focuses	-6694
▁foresee	-6695
▁founded	-6696
▁gradual	-6697
▁imagine	-6698
▁inhuman	-6699
▁mothers	-6700
▁placing	-6701
▁pretext	-6702
▁profits	-6703
▁promise	-6704
▁railway	-6705
▁reverse	-6706
▁satisfy	-6707
▁section	-6708
▁silence	-6709
▁unified	-6710
▁visible	-6711
▁Chairman	-6712
▁Monteneg	-6713
▁accident	-6714
▁admitted	-6715
▁alarming	-6716
▁arrested	-6717
▁assembly	-6718
▁autonomy	-6719
▁avoiding	-6720
▁billions	-6721
▁deforest	-6722
▁delivery	-6723
▁employed	-6724
▁facility	-6725
▁findings	-6726
▁indirect	-6727
▁innocent	-6728
▁isolated	-6729
▁location	-6730
▁medicine	-6731
▁mountain	-6732
▁northern	-6733
▁occasion	-6734
▁passport	-6735
▁producer	-6736
▁profound	-6737
▁promotes	-6738
▁protocol	-6739
▁rational	-6740
▁reaffirm	-6741
▁reflects	-6742
▁regulate	-6743
▁released	-6744
▁socially	-6745
▁tensions	-6746
▁underest	-6747
rehensible	-6748
respective	-6749
▁Education	-6750
▁Meanwhile	-6751
▁abstained	-6752
▁ambitions	-6753
▁assessing	-6754
▁broadband	-6755
▁campaigns	-6756
▁electoral	-6757
▁exchanges	-6758
▁illegally	-6759
▁inflation	-6760
▁liability	-6761
▁monitored	-6762
▁passenger	-6763
▁perfectly	-6764
▁permitted	-6765
▁redundant	-6766
▁replacing	-6767
▁responded	-6768
▁timetable	-6769
▁Concerning	-6770
▁adequately	-6771
▁benefiting	-6772
▁catastroph	-6773
▁comparable	-6774
▁complexity	-6775
▁contradict	-6776
▁criticised	-6777
▁dependence	-6778
▁emphasises	-6779
▁engagement	-6780
▁foundation	-6781
▁globalised	-6782
▁imperative	-6783
▁linguistic	-6784
▁monopolies	-6785
▁references	-6786
▁reflection	-6787
▁regulators	-6788
▁responding	-6789
▁safeguards	-6790
▁subsequent	-6791
▁tremendous	-6792
▁underlines	-6793
▁unemployed	-6794
▁weaknesses	-6795
▁Declaration	-6796
▁accordingly	-6797
▁acknowledge	-6798
▁commodities	-6799
▁consolidate	-6800
▁disparities	-6801
▁distinction	-6802
▁eliminating	-6803
▁imperialist	-6804
▁indications	-6805
▁intelligent	-6806
▁readmission	-6807
▁reciprocity	-6808
▁reinforcing	-6809
▁surrounding	-6810
▁territories	-6811
▁transferred	-6812
▁undoubtedly	-6813
▁Palestinians	-6814
▁acknowledged	-6815
▁availability	-6816
▁decommission	-6817
▁deliberately	-6818
▁deregulation	-6819
▁facilitating	-6820
▁mobilisation	-6821
▁registration	-6822
▁safeguarding	-6823
▁controversial	-6824
▁deforestation	-6825
▁interventions	-6826
▁macroeconomic	-6827
▁participating	-6828
▁supplementary	-6829
▁accountability	-6830
▁representation	-6831
▁congratulations	-6832
▁diversification	-6833
.)	-6834
.3	-6835
1%	-6836
15	-6837
4,	-6838
7,	-6839
8,	-6840
IA	-6841
In	-6842
RC	-6843
SA	-6844
gi	-6845
vy	-6846
aiw	-6847
att	-6848
hab	-6849
ken	-6850
mar	-6851
met	-6852
ney	-6853
ode	-6854
oli	-6855
omb	-6856
oty	-6857
ozy	-6858
pel	-6859
puy	-6860
rog	-6861
sch	-6862
ska	-6863
ste	-6864
sun	-6865
umn	-6866
zhe	-6867
▁2%	-6868
▁3%	-6869
▁35	-6870
▁80	-6871
▁Ca	-6872
▁IC	-6873
▁IP	-6874
▁Il	-6875
▁Kh	-6876
▁TV	-6877
▁sl	-6878
adox	-6879
alia	-6880
alib	-6881
ario	-6882
aste	-6883
berg	-6884
down	-6885
ener	-6886
gent	-6887
grad	-6888
iant	-6889
ileo	-6890
laim	-6891
lymp	-6892
mstr	-6893
oned	-6894
osph	-6895
ower	-6896
prom	-6897
rage	-6898
rier	-6899
road	-6900
rust	-6901
stan	-6902
stry	-6903
time	-6904
turn	-6905
unal	-6906
▁13.	-6907
▁150	-6908
▁80%	-6909
▁Air	-6910
▁Ban	-6911
▁Dav	-6912
▁Dep	-6913
▁Gal	-6914
▁HIV	-6915
▁Inc	-6916
▁McC	-6917
▁Nic	-6918
▁SOL	-6919
▁USA	-6920
▁Who	-6921
▁agg	-6922
▁fit	-6923
▁hyp	-6924
▁lie	-6925
▁sen	-6926
▁van	-6927
▁vit	-6928
adays	-6929
aiwan	-6930
allel	-6931
antly	-6932
aping	-6933
arged	-6934
aunch	-6935
erson	-6936
ients	-6937
istry	-6938
itary	-6939
known	-6940
ommod	-6941
ongue	-6942
plete	-6943
rical	-6944
rific	-6945
start	-6946
usion	-6947
▁142)	-6948
▁Data	-6949
▁Fort	-6950
▁Gold	-6951
▁Mich	-6952
▁Much	-6953
▁OECD	-6954
▁Oral	-6955
▁Sark	-6956
▁Soci	-6957
▁bill	-6958
▁bond	-6959
▁bott	-6960
▁capt	-6961
▁cell	-6962
▁cere	-6963
▁cope	-6964
▁deem	-6965
▁dele	-6966
▁died	-6967
▁doll	-6968
▁door	-6969
▁elab	-6970
▁flee	-6971
▁heed	-6972
▁insp	-6973
▁insu	-6974
▁lend	-6975
▁liqu	-6976
▁ment	-6977
▁onto	-6978
▁pace	-6979
▁perm	-6980
▁plus	-6981
▁scan	-6982
▁tone	-6983
▁tsun	-6984
▁uses	-6985
▁wall	-6986
aliban	-6987
arters	-6988
cement	-6989
etting	-6990
icular	-6991
iously	-6992
istrib	-6993
orship	-6994
ounded	-6995
ucasus	-6996
ughter	-6997
ultane	-6998
uments	-6999
▁Alzhe	-7000
▁Great	-7001
▁Guant	-7002
▁Islam	-7003
▁Kyoto	-7004
▁Olymp	-7005
▁Prize	-7006
▁accus	-7007
▁aquac	-7008
▁arbit	-7009
▁blame	-7010
▁chair	-7011
▁colon	-7012
▁doors	-7013
▁drugs	-7014
▁dying	-7015
▁elite	-7016
▁enfor	-7017
▁enshr	-7018
▁faith	-7019
▁homes	-7020
▁looph	-7021
▁meets	-7022
▁preca	-7023
▁reloc	-7024
▁safer	-7025
▁shame	-7026
▁signs	-7027
▁spare	-7028
▁storm	-7029
▁syner	-7030
ensions	-7031
hearted	-7032
igenous	-7033
istical	-7034
ization	-7035
orating	-7036
osphere	-7037
uration	-7038
▁Anyone	-7039
▁Darfur	-7040
▁Fourth	-7041
▁Guinea	-7042
▁Maurit	-7043
▁Refuge	-7044
▁Rompuy	-7045
▁Taiwan	-7046
▁abroad	-7047
▁advice	-7048
▁belief	-7049
▁convey	-7050
▁corrid	-7051
▁decade	-7052
▁denied	-7053
▁deploy	-7054
▁devote	-7055
▁disreg	-7056
▁eradic	-7057
▁fairer	-7058
▁handle	-7059
▁incred	-7060
▁interf	-7061
▁judges	-7062
▁makers	-7063
▁middle	-7064
▁openly	-7065
▁preced	-7066
▁recall	-7067
▁remedy	-7068
▁senior	-7069
▁sooner	-7070
▁struck	-7071
▁sudden	-7072
▁switch	-7073
▁taught	-7074
▁unique	-7075
▁unlike	-7076
▁voters	-7077
▁wasted	-7078
▁weapon	-7079
▁widely	-7080
cultural	-7081
friendly	-7082
iliation	-7083
pectives	-7084
ressions	-7085
▁Certain	-7086
▁Clearly	-7087
▁Galileo	-7088
▁Liberal	-7089
▁Malmstr	-7090
▁Morocco	-7091
▁Sarkozy	-7092
▁Seventh	-7093
▁Similar	-7094
▁Special	-7095
▁Taliban	-7096
▁Whether	-7097
▁alleged	-7098
▁article	-7099
▁assured	-7100
▁burdens	-7101
▁charges	-7102
▁clarity	-7103
▁closure	-7104
▁courses	-7105
▁declare	-7106
▁divided	-7107
▁dumping	-7108
▁ethical	-7109
▁exposed	-7110
▁federal	-7111
▁fishery	-7112
▁gaining	-7113
▁intense	-7114
▁knowing	-7115
▁popular	-7116
▁proving	-7117
▁quarter	-7118
▁regimes	-7119
▁removal	-7120
▁seekers	-7121
▁station	-7122
▁surplus	-7123
▁torture	-7124
▁tsunami	-7125
▁violent	-7126
▁visited	-7127
▁weather	-7128
▁website	-7129
ationally	-7130
emocratic	-7131
sequently	-7132
▁Caucasus	-7133
▁Children	-7134
▁Criminal	-7135
▁Decision	-7136
▁Eurojust	-7137
▁Slovenia	-7138
▁Southern	-7139
▁accurate	-7140
▁adapting	-7141
▁agreeing	-7142
▁chairman	-7143
▁convince	-7144
▁deadline	-7145
▁distingu	-7146
▁equipped	-7147
▁finished	-7148
▁flooding	-7149
▁focusing	-7150
▁generous	-7151
▁improves	-7152
▁integral	-7153
▁managers	-7154
▁managing	-7155
▁manifest	-7156
▁normally	-7157
▁obstacle	-7158
▁offences	-7159
▁operates	-7160
▁parallel	-7161
▁penalise	-7162
▁promises	-7163
▁reactors	-7164
▁reformed	-7165
▁resolute	-7166
▁reviewed	-7167
▁scenario	-7168
▁scrutiny	-7169
▁sessions	-7170
▁severely	-7171
▁soldiers	-7172
▁steadily	-7173
▁striving	-7174
▁tackling	-7175
ustainable	-7176
▁Alzheimer	-7177
▁Bulgarian	-7178
▁consulted	-7179
▁copyright	-7180
▁criminals	-7181
▁defenders	-7182
▁diagnosis	-7183
▁earmarked	-7184
▁exemption	-7185
▁expresses	-7186
▁extremist	-7187
▁forecasts	-7188
▁generated	-7189
▁harmonise	-7190
▁hopefully	-7191
▁household	-7192
▁isolation	-7193
▁judgments	-7194
▁landscape	-7195
▁pressures	-7196
▁realities	-7197
▁recycling	-7198
▁rejection	-7199
▁scheduled	-7200
▁shipyards	-7201
▁simultane	-7202
▁stimulate	-7203
▁suspended	-7204
▁synergies	-7205
▁tolerance	-7206
▁tradition	-7207
▁undertake	-7208
appropriate	-7209
operability	-7210
▁Belarusian	-7211
▁Democratic	-7212
▁Particular	-7213
▁accelerate	-7214
▁artificial	-7215
▁atmosphere	-7216
▁categories	-7217
▁conviction	-7218
▁decisively	-7219
▁dependency	-7220
▁destroying	-7221
▁difficulty	-7222
▁electrical	-7223
▁frameworks	-7224
▁functional	-7225
▁indigenous	-7226
▁influenced	-7227
▁journalist	-7228
▁livelihood	-7229
▁mentioning	-7230
▁presenting	-7231
▁quantities	-7232
▁regulating	-7233
▁remarkable	-7234
▁scientists	-7235
▁separately	-7236
▁separation	-7237
▁suggestion	-7238
▁university	-7239
▁Association	-7240
▁aquaculture	-7241
▁citizenship	-7242
▁combination	-7243
▁communicate	-7244
▁composition	-7245
▁constraints	-7246
▁financially	-7247
▁inspections	-7248
▁nonetheless	-7249
▁orientation	-7250
▁programming	-7251
▁simplifying	-7252
▁understands	-7253
▁civilisation	-7254
▁consolidated	-7255
▁continuation	-7256
▁infringement	-7257
▁insufficient	-7258
▁marginalised	-7259
▁perspectives	-7260
▁preparations	-7261
▁transmission	-7262
▁volunteering	-7263
discrimination	-7264
▁acknowledging	-7265
▁automatically	-7266
▁certification	-7267
▁collaboration	-7268
▁contamination	-7269
▁demonstration	-7270
▁inappropriate	-7271
▁independently	-7272
▁infringements	-7273
▁justification	-7274
▁manufacturing	-7275
▁modernisation	-7276
▁substantially	-7277
▁identification	-7278
▁systematically	-7279
27	-7280
29	-7281
3%	-7282
4%	-7283
45	-7284
BT	-7285
IF	-7286
dr	-7287
ew	-7288
hn	-7289
kh	-7290
▁x	-7291
Med	-7292
VIT	-7293
add	-7294
adm	-7295
ald	-7296
ato	-7297
atz	-7298
bul	-7299
cat	-7300
due	-7301
hof	-7302
ias	-7303
ili	-7304
ita	-7305
spe	-7306
tra	-7307
ugs	-7308
uin	-7309
upp	-7310
utr	-7311
xic	-7312
▁-.	-7313
▁7.	-7314
▁70	-7315
▁Ac	-7316
▁Az	-7317
▁Bu	-7318
▁Fl	-7319
▁IN	-7320
▁Ro	-7321
▁Sz	-7322
abot	-7323
anas	-7324
arag	-7325
athy	-7326
atri	-7327
coni	-7328
ctor	-7329
ella	-7330
gans	-7331
grow	-7332
ilos	-7333
irds	-7334
lied	-7335
mann	-7336
namo	-7337
olve	-7338
only	-7339
osta	-7340
oted	-7341
prof	-7342
requ	-7343
stat	-7344
tein	-7345
usal	-7346
ynne	-7347
▁196	-7348
▁Ass	-7349
▁Ben	-7350
▁Dal	-7351
▁ECB	-7352
▁FTA	-7353
▁Fed	-7354
▁Gra	-7355
▁His	-7356
▁IMF	-7357
▁Lif	-7358
▁Pat	-7359
▁Ple	-7360
▁Rel	-7361
▁Sak	-7362
▁adh	-7363
▁bul	-7364
▁bur	-7365
▁cha	-7366
▁fro	-7367
▁glo	-7368
▁hum	-7369
▁mad	-7370
▁nar	-7371
▁pus	-7372
▁swe	-7373
erate	-7374
essor	-7375
giene	-7376
iably	-7377
idesp	-7378
ience	-7379
itals	-7380
ivate	-7381
mense	-7382
ogues	-7383
phone	-7384
pling	-7385
rates	-7386
reach	-7387
reevy	-7388
roval	-7389
think	-7390
ulous	-7391
unate	-7392
urred	-7393
▁1997	-7394
▁2002	-7395
▁AIDS	-7396
▁Cohn	-7397
▁Each	-7398
▁Fran	-7399
▁Requ	-7400
▁Time	-7401
▁arch	-7402
▁aust	-7403
▁blat	-7404
▁bold	-7405
▁camp	-7406
▁cart	-7407
▁curb	-7408
▁dark	-7409
▁deny	-7410
▁diet	-7411
▁epid	-7412
▁fire	-7413
▁leak	-7414
▁recr	-7415
▁rend	-7416
▁roll	-7417
▁runs	-7418
▁sick	-7419
▁stem	-7420
▁trib	-7421
▁unav	-7422
▁uphe	-7423
Bendit	-7424
aining	-7425
apable	-7426
depend	-7427
enture	-7428
ereoty	-7429
erving	-7430
icking	-7431
ilised	-7432
minute	-7433
pelled	-7434
racies	-7435
ssetia	-7436
urrent	-7437
▁2007.	-7438
▁2013.	-7439
▁Allow	-7440
▁Leban	-7441
▁Lynne	-7442
▁Strip	-7443
▁acute	-7444
▁adult	-7445
▁alike	-7446
▁arena	-7447
▁argue	-7448
▁cease	-7449
▁cofin	-7450
▁conce	-7451
▁cruel	-7452
▁derog	-7453
▁disse	-7454
▁dream	-7455
▁facto	-7456
▁falls	-7457
▁fears	-7458
▁fifth	-7459
▁flags	-7460
▁grave	-7461
▁harsh	-7462
▁holds	-7463
▁hoped	-7464
▁hopes	-7465
▁hypoc	-7466
▁indis	-7467
▁inspe	-7468
▁logic	-7469
▁manip	-7470
▁mixed	-7471
▁notes	-7472
▁opens	-7473
▁owing	-7474
▁quote	-7475
▁resum	-7476
▁rough	-7477
▁socio	-7478
▁story	-7479
▁sugar	-7480
▁thres	-7481
▁train	-7482
▁tries	-7483
▁upgra	-7484
▁urges	-7485
abotage	-7486
agascar	-7487
aratory	-7488
atorium	-7489
habilit	-7490
icurity	-7491
igation	-7492
ilation	-7493
itative	-7494
looking	-7495
sistent	-7496
uestion	-7497
undling	-7498
urities	-7499
▁Access	-7500
▁Barrot	-7501
▁Instru	-7502
▁Muslim	-7503
▁Please	-7504
▁SOLVIT	-7505
▁Stream	-7506
▁Taking	-7507
▁Uganda	-7508
▁Verhof	-7509
▁agents	-7510
▁aiming	-7511
▁allies	-7512
▁arises	-7513
▁assent	-7514
▁autumn	-7515
▁backed	-7516
▁bacter	-7517
▁borrow	-7518
▁brutal	-7519
▁career	-7520
▁caught	-7521
▁condol	-7522
▁conven	-7523
▁corner	-7524
▁delays	-7525
▁devast	-7526
▁driven	-7527
▁entail	-7528
▁entity	-7529
▁escape	-7530
▁fallen	-7531
▁finish	-7532
▁frozen	-7533
▁geopol	-7534
▁grants	-7535
▁hatred	-7536
▁hinder	-7537
▁issued	-7538
▁leaves	-7539
▁marked	-7540
▁modest	-7541
▁piracy	-7542
▁privat	-7543
▁raises	-7544
▁refuse	-7545
▁regain	-7546
▁relate	-7547
▁resett	-7548
▁robust	-7549
▁routes	-7550
▁shield	-7551
▁stimul	-7552
▁strike	-7553
▁summar	-7554
▁suppli	-7555
▁tragic	-7556
▁vessel	-7557
▁widesp	-7558
ettinger	-7559
ilingual	-7560
national	-7561
▁Finland	-7562
▁Ossetia	-7563
▁Society	-7564
▁Somalia	-7565
▁backing	-7566
▁broadly	-7567
▁chances	-7568
▁claimed	-7569
▁compare	-7570
▁conform	-7571
▁dangers	-7572
▁deserve	-7573
▁devoted	-7574
▁emerged	-7575
▁footing	-7576
▁fragile	-7577
▁helpful	-7578
▁hygiene	-7579
▁immense	-7580
▁inquiry	-7581
▁insight	-7582
▁interim	-7583
▁journey	-7584
▁lacking	-7585
▁lengthy	-7586
▁offices	-7587
▁outline	-7588
▁overdue	-7589
▁paradox	-7590
▁patents	-7591
▁picture	-7592
▁premium	-7593
▁privile	-7594
▁protein	-7595
▁pursued	-7596
▁pushing	-7597
▁ratings	-7598
▁recital	-7599
▁renewal	-7600
▁signing	-7601
▁smoking	-7602
▁statute	-7603
▁stepped	-7604
▁stopped	-7605
▁strange	-7606
▁surface	-7607
▁tariffs	-7608
▁telecom	-7609
▁testing	-7610
▁topical	-7611
▁typical	-7612
▁whereas	-7613
▁worried	-7614
ereotypes	-7615
▁Approval	-7616
▁Everyone	-7617
▁McCreevy	-7618
▁Measures	-7619
▁Ministry	-7620
▁Recently	-7621
▁Sudanese	-7622
▁accommod	-7623
▁analyses	-7624
▁anywhere	-7625
▁auditing	-7626
▁believed	-7627
▁breaches	-7628
▁confused	-7629
▁deficits	-7630
▁describe	-7631
▁dictator	-7632
▁disabled	-7633
▁distance	-7634
▁eligible	-7635
▁evaluate	-7636
▁excluded	-7637
▁expanded	-7638
▁forestry	-7639
▁formally	-7640
▁hydrogen	-7641
▁ignoring	-7642
▁inhumane	-7643
▁insisted	-7644
▁invested	-7645
▁meantime	-7646
▁missions	-7647
▁multiple	-7648
▁nonsense	-7649
▁offering	-7650
▁operator	-7651
▁proclaim	-7652
▁produces	-7653
▁punished	-7654
▁pursuant	-7655
▁reminded	-7656
▁revealed	-7657
▁sections	-7658
▁shipping	-7659
▁slightly	-7660
▁subjects	-7661
▁taxpayer	-7662
▁teachers	-7663
▁unreason	-7664
compliance	-7665
▁Americans	-7666
▁Democracy	-7667
▁Eurogroup	-7668
▁Goldstone	-7669
▁Oettinger	-7670
▁Ukrainian	-7671
▁Venezuela	-7672
▁alleviate	-7673
▁amounting	-7674
▁apologise	-7675
▁austerity	-7676
▁childhood	-7677
▁component	-7678
▁confident	-7679
▁corporate	-7680
▁customers	-7681
▁decentral	-7682
▁diplomacy	-7683
▁disappear	-7684
▁dominated	-7685
▁encounter	-7686
▁evaluated	-7687
▁execution	-7688
▁executive	-7689
▁exercised	-7690
▁exploited	-7691
▁frequency	-7692
▁fulfilled	-7693
▁incidents	-7694
▁incorrect	-7695
▁indicates	-7696
▁indicator	-7697
▁interfere	-7698
▁interview	-7699
▁liberties	-7700
▁literally	-7701
▁mediation	-7702
▁motivated	-7703
▁oversight	-7704
▁preferred	-7705
▁president	-7706
▁promising	-7707
▁readiness	-7708
▁receiving	-7709
▁recession	-7710
▁redistrib	-7711
▁returning	-7712
▁reviewing	-7713
▁screening	-7714
▁selection	-7715
▁sentenced	-7716
▁spreading	-7717
▁threshold	-7718
▁translate	-7719
▁unanimity	-7720
▁undertook	-7721
▁witnessed	-7722
▁Everything	-7723
▁Federation	-7724
▁Instrument	-7725
▁Madagascar	-7726
▁Mauritania	-7727
▁Montenegro	-7728
▁advantages	-7729
▁allowances	-7730
▁background	-7731
▁boundaries	-7732
▁capacities	-7733
▁compensate	-7734
▁definitive	-7735
▁discipline	-7736
▁ecosystems	-7737
▁electorate	-7738
▁encourages	-7739
▁exacerbate	-7740
▁executions	-7741
▁incomplete	-7742
▁inspection	-7743
▁legislator	-7744
▁moratorium	-7745
▁obligatory	-7746
▁organising	-7747
▁overcoming	-7748
▁precaution	-7749
▁preventive	-7750
▁prioritise	-7751
▁procedural	-7752
▁processing	-7753
▁scandalous	-7754
▁settlement	-7755
▁successive	-7756
▁supporters	-7757
▁unbundling	-7758
▁undermined	-7759
▁widespread	-7760
▁withdrawal	-7761
ministration	-7762
▁Immigration	-7763
▁Verhofstadt	-7764
▁challenging	-7765
▁concessions	-7766
▁counterfeit	-7767
▁democracies	-7768
▁examination	-7769
▁flexicurity	-7770
▁generations	-7771
▁innovations	-7772
▁interdepend	-7773
▁intolerable	-7774
▁ministerial	-7775
▁perpetrated	-7776
▁preparatory	-7777
▁researchers	-7778
▁restrictive	-7779
▁secretariat	-7780
▁undermining	-7781
▁utilisation	-7782
Mediterranean	-7783
▁Consequently	-7784
▁alternatives	-7785
▁catastrophic	-7786
▁condemnation	-7787
▁confidential	-7788
▁coordinating	-7789
▁disabilities	-7790
▁geopolitical	-7791
▁highlighting	-7792
▁inconsistent	-7793
▁irrespective	-7794
▁presidential	-7795
▁verification	-7796
▁characterised	-7797
▁clarification	-7798
▁demonstrators	-7799
▁exceptionally	-7800
▁irresponsible	-7801
▁reintegration	-7802
▁considerations	-7803
▁discriminatory	-7804
▁investigations	-7805
▁specifications	-7806
▁decommissioning	-7807
(5	-7808
1.	-7809
4)	-7810
4.	-7811
6%	-7812
8.	-7813
An	-7814
DG	-7815
IM	-7816
TP	-7817
TS	-7818
ek	-7819
vo	-7820
▁:	-7821
-00	-7822
-20	-7823
DEM	-7824
EAS	-7825
EGF	-7826
For	-7827
SCE	-7828
SEC	-7829
adi	-7830
afi	-7831
agn	-7832
ala	-7833
asc	-7834
bar	-7835
cho	-7836
cul	-7837
eds	-7838
eel	-7839
emb	-7840
erm	-7841
how	-7842
ibb	-7843
ids	-7844
ikh	-7845
ils	-7846
ima	-7847
iov	-7848
ley	-7849
mes	-7850
och	-7851
oil	-7852
oks	-7853
oul	-7854
rew	-7855
ulf	-7856
unt	-7857
urt	-7858
usz	-7859
uty	-7860
▁1%	-7861
▁5%	-7862
▁6.	-7863
▁Ah	-7864
▁Em	-7865
▁La	-7866
▁Mi	-7867
▁ep	-7868
▁ps	-7869
2009	-7870
High	-7871
aces	-7872
ancy	-7873
arer	-7874
arth	-7875
atab	-7876
atal	-7877
ball	-7878
comp	-7879
cont	-7880
edes	-7881
enth	-7882
gred	-7883
idal	-7884
iest	-7885
inen	-7886
isch	-7887
lete	-7888
orne	-7889
oure	-7890
plan	-7891
reme	-7892
teen	-7893
tini	-7894
vene	-7895
view	-7896
ware	-7897
with	-7898
▁1.5	-7899
▁195	-7900
▁25%	-7901
▁400	-7902
▁Bas	-7903
▁Bud	-7904
▁Cot	-7905
▁Doc	-7906
▁Due	-7907
▁Equ	-7908
▁Fig	-7909
▁ICT	-7910
▁IND	-7911
▁MDG	-7912
▁San	-7913
▁Sky	-7914
▁Sri	-7915
▁Tom	-7916
▁UEN	-7917
▁USD	-7918
▁ben	-7919
▁cul	-7920
▁dup	-7921
▁eco	-7922
▁flu	-7923
▁geo	-7924
▁hol	-7925
▁hot	-7926
▁hus	-7927
▁lag	-7928
▁nav	-7929
▁shr	-7930
▁syn	-7931
▁thr	-7932
▁xen	-7933
-2012	-7934
acity	-7935
agger	-7936
ainst	-7937
aming	-7938
andum	-7939
anted	-7940
asmus	-7941
catch	-7942
cking	-7943
craft	-7944
ctors	-7945
deter	-7946
eping	-7947
erent	-7948
harov	-7949
haust	-7950
heres	-7951
idity	-7952
month	-7953
owski	-7954
plant	-7955
redit	-7956
sters	-7957
under	-7958
upper	-7959
vance	-7960
worth	-7961
▁ACTA	-7962
▁Bali	-7963
▁Comb	-7964
▁GMOs	-7965
▁Gadd	-7966
▁Jean	-7967
▁John	-7968
▁Lank	-7969
▁Next	-7970
▁alia	-7971
▁bans	-7972
▁cens	-7973
▁cure	-7974
▁depl	-7975
▁diff	-7976
▁diss	-7977
▁echo	-7978
▁gest	-7979
▁inde	-7980
▁intr	-7981
▁lays	-7982
▁loud	-7983
▁mort	-7984
▁nine	-7985
▁nurs	-7986
▁pact	-7987
▁pand	-7988
▁rect	-7989
▁rock	-7990
▁shop	-7991
▁shut	-7992
▁soft	-7993
▁star	-7994
▁sums	-7995
▁vill	-7996
▁wors	-7997
assies	-7998
assing	-7999
assion	-8000
cribed	-8001
ensing	-8002
ferent	-8003
itably	-8004
orient	-8005
overty	-8006
prints	-8007
requis	-8008
ressed	-8009
rorism	-8010
ticles	-8011
unicip	-8012
urable	-8013
vation	-8014
▁2004,	-8015
▁Above	-8016
▁Costa	-8017
▁Could	-8018
▁Doyle	-8019
▁Karas	-8020
▁Niger	-8021
▁Peace	-8022
▁Scott	-8023
▁Sever	-8024
▁Weber	-8025
▁White	-8026
▁abide	-8027
▁abort	-8028
▁bears	-8029
▁bills	-8030
▁brave	-8031
▁catal	-8032
▁cells	-8033
▁cloth	-8034
▁coach	-8035
▁cycle	-8036
▁datab	-8037
▁depth	-8038
▁dynam	-8039
▁embra	-8040
▁enemy	-8041
▁faces	-8042
▁fleet	-8043
▁frust	-8044
▁girls	-8045
▁habit	-8046
▁ideal	-8047
▁lists	-8048
▁marks	-8049
▁music	-8050
▁north	-8051
▁owner	-8052
▁posed	-8053
▁psych	-8054
▁ridic	-8055
▁rival	-8056
▁river	-8057
▁roads	-8058
▁scept	-8059
▁sends	-8060
▁sites	-8061
▁smart	-8062
▁spell	-8063
▁spons	-8064
▁stick	-8065
▁touch	-8066
▁uncon	-8067
▁unequ	-8068
▁unres	-8069
▁usual	-8070
▁veter	-8071
atories	-8072
brating	-8073
essment	-8074
growing	-8075
iencies	-8076
ifiable	-8077
ilosoph	-8078
issible	-8079
ometric	-8080
parency	-8081
reasing	-8082
tenance	-8083
warding	-8084
▁Berlin	-8085
▁Compet	-8086
▁Explan	-8087
▁Former	-8088
▁Michel	-8089
▁Reding	-8090
▁School	-8091
▁Should	-8092
▁Superv	-8093
▁Things	-8094
▁Voting	-8095
▁adhere	-8096
▁anyway	-8097
▁argues	-8098
▁audits	-8099
▁correl	-8100
▁costly	-8101
▁duplic	-8102
▁enrich	-8103
▁equity	-8104
▁exempl	-8105
▁forese	-8106
▁fought	-8107
▁friend	-8108
▁hoping	-8109
▁ingred	-8110
▁inland	-8111
▁invite	-8112
▁lawyer	-8113
▁laying	-8114
▁lesson	-8115
▁mixing	-8116
▁mostly	-8117
▁multin	-8118
▁notion	-8119
▁organs	-8120
▁outset	-8121
▁papers	-8122
▁player	-8123
▁provoc	-8124
▁relief	-8125
▁resign	-8126
▁scarce	-8127
▁season	-8128
▁select	-8129
▁sensit	-8130
▁served	-8131
▁slogan	-8132
▁tongue	-8133
▁turbul	-8134
▁turned	-8135
▁unfort	-8136
▁unrest	-8137
▁virtue	-8138
▁voices	-8139
commerce	-8140
quarters	-8141
rections	-8142
uestions	-8143
▁Against	-8144
▁Besides	-8145
▁Erasmus	-8146
▁Ferrero	-8147
▁Gaddafi	-8148
▁Harbour	-8149
▁Iranian	-8150
▁Network	-8151
▁Nicarag	-8152
▁Nuclear	-8153
▁Olympic	-8154
▁Pacific	-8155
▁Railway	-8156
▁Serbian	-8157
▁appeals	-8158
▁authors	-8159
▁awarded	-8160
▁barrier	-8161
▁blatant	-8162
▁clearer	-8163
▁confron	-8164
▁council	-8165
▁custody	-8166
▁damaged	-8167
▁devices	-8168
▁display	-8169
▁drought	-8170
▁engaged	-8171
▁enjoyed	-8172
▁entrust	-8173
▁essence	-8174
▁exhaust	-8175
▁expects	-8176
▁favours	-8177
▁feeding	-8178
▁husband	-8179
▁incomes	-8180
▁install	-8181
▁invited	-8182
▁issuing	-8183
▁killing	-8184
▁learned	-8185
▁liberty	-8186
▁marking	-8187
▁objects	-8188
▁onwards	-8189
▁ordered	-8190
▁pursuit	-8191
▁reaches	-8192
▁rebuild	-8193
▁recruit	-8194
▁refugee	-8195
▁shaping	-8196
▁shortly	-8197
▁signals	-8198
▁skilled	-8199
▁summary	-8200
▁swiftly	-8201
▁symbols	-8202
▁unavoid	-8203
▁utilise	-8204
▁venture	-8205
▁victory	-8206
▁wanting	-8207
▁weekend	-8208
fficiency	-8209
matically	-8210
▁Congress	-8211
▁Cypriots	-8212
▁Sakharov	-8213
▁advances	-8214
▁aircraft	-8215
▁appeared	-8216
▁awaiting	-8217
▁carriers	-8218
▁charging	-8219
▁colonial	-8220
▁covering	-8221
▁deadlock	-8222
▁deciding	-8223
▁decrease	-8224
▁democrat	-8225
▁dominant	-8226
▁drafting	-8227
▁drinking	-8228
▁enforced	-8229
▁enlarged	-8230
▁failures	-8231
▁features	-8232
▁frequent	-8233
▁ideology	-8234
▁impunity	-8235
▁injuries	-8236
▁judgment	-8237
▁licences	-8238
▁messages	-8239
▁mutually	-8240
▁obstruct	-8241
▁occupied	-8242
▁opposing	-8243
▁optimism	-8244
▁outlined	-8245
▁parental	-8246
▁persuade	-8247
▁postpone	-8248
▁presents	-8249
▁preserve	-8250
▁prevents	-8251
▁protests	-8252
▁revenues	-8253
▁sacrific	-8254
▁salaries	-8255
▁scanners	-8256
▁securing	-8257
▁smoothly	-8258
▁stepping	-8259
▁stresses	-8260
▁strictly	-8261
▁tendency	-8262
▁thematic	-8263
▁tropical	-8264
▁ultimate	-8265
▁unwanted	-8266
▁upcoming	-8267
▁watching	-8268
liferation	-8269
productive	-8270
▁Accession	-8271
▁Documents	-8272
▁Pakistani	-8273
▁Similarly	-8274
▁Sometimes	-8275
▁abolished	-8276
▁addresses	-8277
▁advocates	-8278
▁appointed	-8279
▁biometric	-8280
▁celebrate	-8281
▁childcare	-8282
▁concludes	-8283
▁conscious	-8284
▁criterion	-8285
▁criticise	-8286
▁dedicated	-8287
▁deepening	-8288
▁delegated	-8289
▁displaced	-8290
▁embassies	-8291
▁emergence	-8292
▁enshrined	-8293
▁explained	-8294
▁exporting	-8295
▁falsified	-8296
▁finalised	-8297
▁incapable	-8298
▁investing	-8299
▁lifestyle	-8300
▁liquidity	-8301
▁philosoph	-8302
▁pragmatic	-8303
▁prejudice	-8304
▁prerequis	-8305
▁prominent	-8306
▁registers	-8307
▁rehabilit	-8308
▁requiring	-8309
▁residents	-8310
▁specified	-8311
▁stipulate	-8312
▁suppliers	-8313
▁transfers	-8314
▁trialogue	-8315
▁wondering	-8316
▁workplace	-8317
abilisation	-8318
▁Agreements	-8319
▁Amendments	-8320
▁Innovation	-8321
▁Lithuanian	-8322
▁assumption	-8323
▁attempting	-8324
▁collecting	-8325
▁compatible	-8326
▁concluding	-8327
▁continents	-8328
▁distortion	-8329
▁equivalent	-8330
▁exemptions	-8331
▁exploiting	-8332
▁fulfilling	-8333
▁indicating	-8334
▁indicators	-8335
▁inevitable	-8336
▁jeopardise	-8337
▁newspapers	-8338
▁originally	-8339
▁permission	-8340
▁persecuted	-8341
▁productive	-8342
▁prohibited	-8343
▁prosperous	-8344
▁punishment	-8345
▁recommends	-8346
▁repeatedly	-8347
▁resistance	-8348
▁socialists	-8349
▁surprising	-8350
▁suspension	-8351
▁xenophobia	-8352
▁Composition	-8353
▁Corrections	-8354
▁accusations	-8355
▁appointment	-8356
▁arrangement	-8357
▁cofinancing	-8358
▁commendable	-8359
▁controlling	-8360
▁definitions	-8361
▁desperately	-8362
▁destination	-8363
▁disgraceful	-8364
▁distributed	-8365
▁duplication	-8366
▁educational	-8367
▁equivalence	-8368
▁foreseeable	-8369
▁genetically	-8370
▁harmonising	-8371
▁incorporate	-8372
▁integrating	-8373
▁limitations	-8374
▁maintenance	-8375
▁restricting	-8376
▁speculative	-8377
▁stereotypes	-8378
▁translation	-8379
▁unfortunate	-8380
▁unjustified	-8381
▁vaccination	-8382
determination	-8383
▁Agricultural	-8384
▁Explanations	-8385
▁Transparency	-8386
▁anticipation	-8387
▁appreciation	-8388
▁associations	-8389
▁broadcasting	-8390
▁commissioner	-8391
▁dictatorship	-8392
▁disagreement	-8393
▁disappointed	-8394
▁investigated	-8395
▁manipulation	-8396
▁precondition	-8397
▁resettlement	-8398
▁subsequently	-8399
▁totalitarian	-8400
▁unreasonable	-8401
▁wholehearted	-8402
▁complementary	-8403
▁consolidating	-8404
▁multinational	-8405
▁protectionist	-8406
▁unsustainable	-8407
▁vulnerability	-8408
▁interconnected	-8409
▁transportation	-8410
▁characteristics	-8411
▁internationally	-8412
▁proportionality	-8413
';	-8414
)0	-8415
-4	-8416
2%	-8417
30	-8418
38	-8419
48	-8420
60	-8421
AC	-8422
Af	-8423
CH	-8424
EE	-8425
PS	-8426
Ru	-8427
ba	-8428
cz	-8429
oo	-8430
yt	-8431
▁%	-8432
(2)	-8433
(5)	-8434
50.	-8435
EEE	-8436
SME	-8437
aby	-8438
ady	-8439
aes	-8440
aij	-8441
akh	-8442
ano	-8443
bac	-8444
bed	-8445
bet	-8446
bin	-8447
che	-8448
cin	-8449
ckx	-8450
col	-8451
dam	-8452
def	-8453
ede	-8454
eli	-8455
eme	-8456
fly	-8457
gue	-8458
iev	-8459
ios	-8460
mak	-8461
mat	-8462
oly	-8463
oni	-8464
ora	-8465
ovi	-8466
reb	-8467
roc	-8468
usa	-8469
wab	-8470
yan	-8471
yse	-8472
▁(1	-8473
▁-;	-8474
▁45	-8475
▁48	-8476
▁65	-8477
▁8.	-8478
▁AT	-8479
▁Av	-8480
▁CR	-8481
▁EA	-8482
▁ES	-8483
▁GN	-8484
▁Ke	-8485
▁Ml	-8486
▁Ul	-8487
▁Ur	-8488
▁da	-8489
▁km	-8490
▁na	-8491
▁om	-8492
2007	-8493
AIDS	-8494
EACH	-8495
East	-8496
Ruij	-8497
Russ	-8498
Wald	-8499
acqu	-8500
ahar	-8501
amed	-8502
asse	-8503
beit	-8504
best	-8505
bits	-8506
brid	-8507
eded	-8508
enic	-8509
etic	-8510
gage	-8511
heug	-8512
iary	-8513
igil	-8514
ikes	-8515
ilis	-8516
ilty	-8517
iolo	-8518
ivis	-8519
jour	-8520
kind	-8521
linz	-8522
long	-8523
mail	-8524
mese	-8525
ompl	-8526
onou	-8527
ores	-8528
outs	-8529
rary	-8530
rela	-8531
rell	-8532
rett	-8533
rial	-8534
rown	-8535
smen	-8536
stay	-8537
stic	-8538
vert	-8539
zens	-8540
▁10.	-8541
▁110	-8542
▁12-	-8543
▁15%	-8544
▁600	-8545
▁70%	-8546
▁75%	-8547
▁Add	-8548
▁Blo	-8549
▁CFP	-8550
▁Cam	-8551
▁DTP	-8552
▁Det	-8553
▁Dis	-8554
▁ECR	-8555
▁EFD	-8556
▁Ess	-8557
▁God	-8558
▁Hol	-8559
▁ICC	-8560
▁ILO	-8561
▁Jos	-8562
▁Kaz	-8563
▁Mat	-8564
▁Mob	-8565
▁Ros	-8566
▁Sah	-8567
▁Tam	-8568
▁Tar	-8569
▁Und	-8570
▁Val	-8571
▁Was	-8572
▁ang	-8573
▁ant	-8574
▁anx	-8575
▁aro	-8576
▁cos	-8577
▁cow	-8578
▁cra	-8579
▁eag	-8580
▁ham	-8581
▁hes	-8582
▁ice	-8583
▁kid	-8584
▁kil	-8585
▁lit	-8586
▁mig	-8587
▁owe	-8588
▁sex	-8589
▁une	-8590
▁von	-8591
ament	-8592
ander	-8593
andom	-8594
apsed	-8595
archy	-8596
arded	-8597
arely	-8598
atero	-8599
bacco	-8600
backs	-8601
being	-8602
board	-8603
bonds	-8604
class	-8605
ected	-8606
elles	-8607
emics	-8608
endix	-8609
ensen	-8610
enses	-8611
eters	-8612
icted	-8613
idden	-8614
ifice	-8615
ifted	-8616
ijing	-8617
ocked	-8618
omsen	-8619
onian	-8620
otive	-8621
rence	-8622
rophe	-8623
state	-8624
stein	-8625
utors	-8626
utory	-8627
uttil	-8628
which	-8629
▁000.	-8630
▁1989	-8631
▁2015	-8632
▁Adam	-8633
▁Camb	-8634
▁Casp	-8635
▁Code	-8636
▁Comp	-8637
▁Conf	-8638
▁EPAs	-8639
▁Farm	-8640
▁Guid	-8641
▁Hans	-8642
▁Helm	-8643
▁IMCO	-8644
▁Jord	-8645
▁Lama	-8646
▁List	-8647
▁Made	-8648
▁Nice	-8649
▁OSCE	-8650
▁Pitt	-8651
▁Post	-8652
▁Prof	-8653
▁Prov	-8654
▁Rehn	-8655
▁Rein	-8656
▁Stav	-8657
▁Ster	-8658
▁Trib	-8659
▁UKIP	-8660
▁Very	-8661
▁Well	-8662
▁aged	-8663
▁ally	-8664
▁anch	-8665
▁bioc	-8666
▁born	-8667
▁burn	-8668
▁coin	-8669
▁deaf	-8670
▁dial	-8671
▁dies	-8672
▁drew	-8673
▁fash	-8674
▁fath	-8675
▁feas	-8676
▁film	-8677
▁flaw	-8678
▁gamb	-8679
▁game	-8680
▁hide	-8681
▁noon	-8682
▁obso	-8683
▁pave	-8684
▁pays	-8685
▁phot	-8686
▁pick	-8687
▁pour	-8688
▁prud	-8689
▁pull	-8690
▁race	-8691
▁seab	-8692
▁seal	-8693
▁sees	-8694
▁shar	-8695
▁symp	-8696
▁tant	-8697
▁temp	-8698
▁tens	-8699
▁tick	-8700
▁toll	-8701
▁trip	-8702
▁unst	-8703
▁user	-8704
▁vain	-8705
▁viab	-8706
▁volc	-8707
aganda	-8708
amount	-8709
apters	-8710
arkets	-8711
ategic	-8712
bestos	-8713
contin	-8714
decess	-8715
encing	-8716
erbaij	-8717
erence	-8718
heugen	-8719
ibbean	-8720
icines	-8721
imated	-8722
onents	-8723
orders	-8724
people	-8725
ported	-8726
ratory	-8727
stream	-8728
tering	-8729
ulates	-8730
weight	-8731
▁2004.	-8732
▁Along	-8733
▁Annex	-8734
▁Armen	-8735
▁Asian	-8736
▁Based	-8737
▁Catal	-8738
▁Ciolo	-8739
▁Cuban	-8740
▁Dalai	-8741
▁David	-8742
▁Deleg	-8743
▁Draft	-8744
▁Drugs	-8745
▁EURES	-8746
▁Earth	-8747
▁Elect	-8748
▁Games	-8749
▁Integ	-8750
▁Iraqi	-8751
▁Klinz	-8752
▁Lanka	-8753
▁Maybe	-8754
▁Monti	-8755
▁Oomen	-8756
▁REACH	-8757
▁Round	-8758
▁Staff	-8759
▁Techn	-8760
▁absor	-8761
▁advis	-8762
▁align	-8763
▁borne	-8764
▁chose	-8765
▁codes	-8766
▁coinc	-8767
▁demag	-8768
▁deriv	-8769
▁divor	-8770
▁donor	-8771
▁drink	-8772
▁ended	-8773
▁feels	-8774
▁femin	-8775
▁fines	-8776
▁greet	-8777
▁labor	-8778
▁lived	-8779
▁lucky	-8780
▁merit	-8781
▁mines	-8782
▁neoli	-8783
▁newly	-8784
▁owned	-8785
▁parks	-8786
▁plain	-8787
▁popul	-8788
▁poses	-8789
▁posts	-8790
▁pride	-8791
▁rebel	-8792
▁reimb	-8793
▁revol	-8794
▁ruled	-8795
▁saved	-8796
▁seats	-8797
▁senti	-8798
▁split	-8799
▁stood	-8800
▁teams	-8801
▁tempt	-8802
▁toxic	-8803
▁troub	-8804
▁unden	-8805
▁upper	-8806
▁wound	-8807
Ruijten	-8808
Waldner	-8809
apatero	-8810
develop	-8811
feiting	-8812
gestion	-8813
ifiably	-8814
ificent	-8815
istance	-8816
mitting	-8817
oupling	-8818
racting	-8819
ranging	-8820
skilled	-8821
trolled	-8822
ussions	-8823
working	-8824
▁Annual	-8825
▁Colomb	-8826
▁Columb	-8827
▁Compan	-8828
▁Danish	-8829
▁Franco	-8830
▁Indian	-8831
▁Leinen	-8832
▁Madrid	-8833
▁Marine	-8834
▁Mechan	-8835
▁Parish	-8836
▁Region	-8837
▁Scheme	-8838
▁Schwab	-8839
▁accred	-8840
▁adding	-8841
▁albeit	-8842
▁aspire	-8843
▁attend	-8844
▁broken	-8845
▁clever	-8846
▁commun	-8847
▁deemed	-8848
▁degrad	-8849
▁deport	-8850
▁detain	-8851
▁divide	-8852
▁domain	-8853
▁donors	-8854
▁driver	-8855
▁emerge	-8856
▁evolve	-8857
▁formed	-8858
▁gather	-8859
▁geostr	-8860
▁guilty	-8861
▁habits	-8862
▁handed	-8863
▁harder	-8864
▁images	-8865
▁impart	-8866
▁indisp	-8867
▁injust	-8868
▁intent	-8869
▁invent	-8870
▁judged	-8871
▁labels	-8872
▁looked	-8873
▁massac	-8874
▁mental	-8875
▁misuse	-8876
▁narrow	-8877
▁native	-8878
▁pledge	-8879
▁plural	-8880
▁random	-8881
▁recons	-8882
▁repair	-8883
▁revive	-8884
▁reward	-8885
▁rounds	-8886
▁safely	-8887
▁salary	-8888
▁shales	-8889
▁spokes	-8890
▁suited	-8891
▁thirds	-8892
▁transg	-8893
▁update	-8894
▁viewed	-8895
▁visits	-8896
▁weaken	-8897
▁winter	-8898
communic	-8899
irements	-8900
reaching	-8901
rettably	-8902
utrition	-8903
▁Beijing	-8904
▁Burmese	-8905
▁Cotonou	-8906
▁Estrela	-8907
▁Farmers	-8908
▁Gazprom	-8909
▁Islands	-8910
▁Lebanon	-8911
▁Madeira	-8912
▁Package	-8913
▁Process	-8914
▁Product	-8915
▁Several	-8916
▁Sterckx	-8917
▁Thomsen	-8918
▁Tibetan	-8919
▁Working	-8920
▁accompl	-8921
▁arguing	-8922
▁assumed	-8923
▁auction	-8924
▁avoided	-8925
▁bananas	-8926
▁begging	-8927
▁capture	-8928
▁catches	-8929
▁charged	-8930
▁charter	-8931
▁cheaper	-8932
▁cleaner	-8933
▁closest	-8934
▁confuse	-8935
▁damages	-8936
▁deplore	-8937
▁evasion	-8938
▁exagger	-8939
▁extends	-8940
▁fashion	-8941
▁fathers	-8942
▁fifteen	-8943
▁frankly	-8944
▁genital	-8945
▁herself	-8946
▁indivis	-8947
▁islands	-8948
▁lawyers	-8949
▁manager	-8950
▁migrant	-8951
▁municip	-8952
▁murders	-8953
▁neglect	-8954
▁oversee	-8955
▁permits	-8956
▁recover	-8957
▁reserve	-8958
▁roughly	-8959
▁scrutin	-8960
▁secular	-8961
▁simpler	-8962
▁strikes	-8963
▁subsidy	-8964
▁summits	-8965
▁tackled	-8966
▁tonight	-8967
▁tribute	-8968
▁turning	-8969
▁unclear	-8970
▁unknown	-8971
▁usually	-8972
▁verdict	-8973
▁vitally	-8974
▁volumes	-8975
▁warrant	-8976
arisation	-8977
ciliation	-8978
efficient	-8979
roduction	-8980
unication	-8981
▁Appendix	-8982
▁Austrian	-8983
▁Azerbaij	-8984
▁Busuttil	-8985
▁Croatian	-8986
▁Director	-8987
▁Egyptian	-8988
▁Eurostat	-8989
▁Fourthly	-8990
▁Freedoms	-8991
▁Georgios	-8992
▁Interior	-8993
▁Lifelong	-8994
▁Maritime	-8995
▁Progress	-8996
▁Refugees	-8997
▁Scotland	-8998
▁Scottish	-8999
▁Together	-9000
▁Tribunal	-9001
▁advanced	-9002
▁alliance	-9003
▁artistic	-9004
▁asbestos	-9005
▁bacteria	-9006
▁cabotage	-9007
▁category	-9008
▁chapters	-9009
▁cheapest	-9010
▁composed	-9011
▁concepts	-9012
▁consists	-9013
▁consular	-9014
▁contrast	-9015
▁corridor	-9016
▁councils	-9017
▁counting	-9018
▁coverage	-9019
▁deployed	-9020
▁diminish	-9021
▁distract	-9022
▁division	-9023
▁downturn	-9024
▁duration	-9025
▁dynamism	-9026
▁everyday	-9027
▁examined	-9028
▁excludes	-9029
▁exposure	-9030
▁flagship	-9031
▁football	-9032
▁founding	-9033
▁gambling	-9034
▁guardian	-9035
▁hospital	-9036
▁inherent	-9037
▁initiate	-9038
▁invasion	-9039
▁limiting	-9040
▁marketed	-9041
▁marriage	-9042
▁misunder	-9043
▁motivate	-9044
▁observer	-9045
▁obsolete	-9046
▁officers	-9047
▁overview	-9048
▁packages	-9049
▁petition	-9050
▁prohibit	-9051
▁publicly	-9052
▁railways	-9053
▁reaching	-9054
▁recorded	-9055
▁relaunch	-9056
▁remained	-9057
▁replaced	-9058
▁restored	-9059
▁rigorous	-9060
▁sanction	-9061
▁shopping	-9062
▁smallest	-9063
▁sporting	-9064
▁sticking	-9065
▁stopping	-9066
▁suddenly	-9067
▁thousand	-9068
▁threaten	-9069
▁treating	-9070
▁turnover	-9071
▁validity	-9072
▁verified	-9073
▁visitors	-9074
▁vocation	-9075
▁weakened	-9076
employment	-9077
lexibility	-9078
plantation	-9079
▁Alongside	-9080
▁Caribbean	-9081
▁Certainly	-9082
▁Combating	-9083
▁Implement	-9084
▁Medicines	-9085
▁Nicaragua	-9086
▁Professor	-9087
▁Providing	-9088
▁Verheugen	-9089
▁addiction	-9090
▁adherence	-9091
▁admission	-9092
▁arbitrary	-9093
▁assurance	-9094
▁attacking	-9095
▁attracted	-9096
▁balancing	-9097
▁belonging	-9098
▁bordering	-9099
▁civilians	-9100
▁clarified	-9101
▁coalition	-9102
▁commodity	-9103
▁complaint	-9104
▁confusion	-9105
▁countless	-9106
▁dialogues	-9107
▁differing	-9108
▁diversify	-9109
▁divisions	-9110
▁elaborate	-9111
▁enhancing	-9112
▁exemplary	-9113
▁expanding	-9114
▁expertise	-9115
▁expressly	-9116
▁imbalance	-9117
▁immigrant	-9118
▁initiated	-9119
▁integrate	-9120
▁launching	-9121
▁listening	-9122
▁logistics	-9123
▁loopholes	-9124
▁marriages	-9125
▁migratory	-9126
▁neglected	-9127
▁newspaper	-9128
▁objection	-9129
▁personnel	-9130
▁pesticide	-9131
▁postponed	-9132
▁predecess	-9133
▁radically	-9134
▁reactions	-9135
▁rejecting	-9136
▁relatives	-9137
▁relevance	-9138
▁religions	-9139
▁restoring	-9140
▁revealing	-9141
▁sincerely	-9142
▁slaughter	-9143
▁stressing	-9144
▁successes	-9145
▁summarise	-9146
▁supporter	-9147
▁sustained	-9148
▁viability	-9149
▁Delegation	-9150
▁Forwarding	-9151
▁Initiative	-9152
▁Management	-9153
▁Memorandum	-9154
▁Prevention	-9155
▁acceptance	-9156
▁applicants	-9157
▁approached	-9158
▁authorised	-9159
▁automotive	-9160
▁autonomous	-9161
▁circumvent	-9162
▁completion	-9163
▁conducting	-9164
▁conscience	-9165
▁contravene	-9166
▁conversion	-9167
▁convincing	-9168
▁correcting	-9169
▁courageous	-9170
▁dedication	-9171
▁dimensions	-9172
▁discourage	-9173
▁enterprise	-9174
▁exercising	-9175
▁foreigners	-9176
▁fulfilment	-9177
▁geographic	-9178
▁households	-9179
▁imprisoned	-9180
▁incredible	-9181
▁indirectly	-9182
▁mitigating	-9183
▁mutilation	-9184
▁neoliberal	-9185
▁officially	-9186
▁overlooked	-9187
▁parameters	-9188
▁philosophy	-9189
▁positively	-9190
▁propaganda	-9191
▁prosecuted	-9192
▁protective	-9193
▁reciprocal	-9194
▁renovation	-9195
▁revolution	-9196
▁ridiculous	-9197
▁simplified	-9198
▁standpoint	-9199
▁stipulated	-9200
▁supposedly	-9201
▁terrorists	-9202
▁tightening	-9203
▁underlined	-9204
▁undermines	-9205
▁veterinary	-9206
▁Communities	-9207
▁Governments	-9208
▁Nonetheless	-9209
▁Regrettably	-9210
▁catastrophe	-9211
▁celebrating	-9212
▁centralised	-9213
▁coordinator	-9214
▁correlation	-9215
▁dismantling	-9216
▁distortions	-9217
▁evaluations	-9218
▁excessively	-9219
▁explanatory	-9220
▁expressions	-9221
▁identifying	-9222
▁ineffective	-9223
▁interpreted	-9224
▁investigate	-9225
▁liberalised	-9226
▁magnificent	-9227
▁paradoxical	-9228
▁progressive	-9229
▁questioning	-9230
▁reservation	-9231
▁restoration	-9232
▁signatories	-9233
▁technically	-9234
▁uncertainty	-9235
▁voluntarily	-9236
▁Conservative	-9237
▁Requirements	-9238
▁announcement	-9239
▁collectively	-9240
▁conciliation	-9241
▁deficiencies	-9242
▁disadvantage	-9243
▁emphatically	-9244
▁endeavouring	-9245
▁facilitation	-9246
▁geostrategic	-9247
▁headquarters	-9248
▁intelligence	-9249
▁recommending	-9250
▁redundancies	-9251
▁satisfaction	-9252
▁shipbuilding	-9253
communications	-9254
▁Communication	-9255
▁Environmental	-9256
▁accessibility	-9257
▁accreditation	-9258
▁consolidation	-9259
▁contradiction	-9260
▁decentralised	-9261
▁deteriorating	-9262
▁disappointing	-9263
▁encouragement	-9264
▁incorporating	-9265
▁intercultural	-9266
▁investigating	-9267
▁precautionary	-9268
▁proliferation	-9269
▁stabilisation	-9270
▁classification	-9271
▁conditionality	-9272
▁congratulating	-9273
▁correspondence	-9274
▁industrialised	-9275
▁redistribution	-9276
▁rehabilitation	-9277
▁simultaneously	-9278
▁transformation	-9279
▁understandable	-9280
▁wholeheartedly	-9281
▁confidentiality	-9282
▁infrastructures	-9283
▁standardisation	-9284
'?	-9285
(8	-9286
-2	-9287
10	-9288
44	-9289
63	-9290
9%	-9291
95	-9292
?'	-9293
BA	-9294
CR	-9295
EF	-9296
ET	-9297
MA	-9298
RA	-9299
SR	-9300
US	-9301
bl	-9302
cs	-9303
ey	-9304
gg	-9305
gs	-9306
oi	-9307
za	-9308
▁0	-9309
(4)	-9310
(8)	-9311
)09	-9312
20.	-9313
CAP	-9314
CIT	-9315
FRS	-9316
IFT	-9317
Ivo	-9318
ROM	-9319
SCO	-9320
Wol	-9321
adz	-9322
aed	-9323
ahm	-9324
aki	-9325
ali	-9326
amm	-9327
aur	-9328
aut	-9329
auz	-9330
blo	-9331
bly	-9332
chm	-9333
cki	-9334
cow	-9335
dep	-9336
des	-9337
dez	-9338
evo	-9339
fra	-9340
hus	-9341
hut	-9342
ini	-9343
ino	-9344
iot	-9345
iro	-9346
jer	-9347
ldt	-9348
mas	-9349
mma	-9350
nez	-9351
oda	-9352
ois	-9353
oma	-9354
pin	-9355
que	-9356
rak	-9357
rap	-9358
rez	-9359
sts	-9360
udo	-9361
udy	-9362
ued	-9363
ump	-9364
urb	-9365
uum	-9366
uzz	-9367
wer	-9368
win	-9369
xim	-9370
zej	-9371
▁51	-9372
▁53	-9373
▁64	-9374
▁66	-9375
▁75	-9376
▁9.	-9377
▁90	-9378
▁DG	-9379
▁Da	-9380
▁EM	-9381
▁EN	-9382
▁Ed	-9383
▁FP	-9384
▁Fa	-9385
▁Gh	-9386
▁Gr	-9387
▁Gy	-9388
▁Ly	-9389
▁Ph	-9390
▁Ra	-9391
▁SW	-9392
▁Sa	-9393
▁Sc	-9394
▁Up	-9395
▁Vi	-9396
▁dw	-9397
▁hl	-9398
▁lu	-9399
▁rh	-9400
2004	-9401
7-02	-9402
ERDF	-9403
SMEs	-9404
aden	-9405
ador	-9406
aeda	-9407
aire	-9408
airo	-9409
alin	-9410
alls	-9411
ardo	-9412
atak	-9413
atre	-9414
audi	-9415
ault	-9416
aval	-9417
azia	-9418
azir	-9419
bach	-9420
bett	-9421
bric	-9422
cker	-9423
cles	-9424
ears	-9425
emer	-9426
enew	-9427
enna	-9428
exam	-9429
fled	-9430
food	-9431
fund	-9432
hand	-9433
hard	-9434
ials	-9435
iann	-9436
iled	-9437
iles	-9438
imid	-9439
ione	-9440
iots	-9441
isen	-9442
isor	-9443
itud	-9444
ivoc	-9445
made	-9446
moil	-9447
napp	-9448
nees	-9449
ogas	-9450
omic	-9451
omin	-9452
onym	-9453
ords	-9454
orge	-9455
reck	-9456
rica	-9457
risy	-9458
rity	-9459
roes	-9460
sbur	-9461
stop	-9462
uber	-9463
ucht	-9464
uing	-9465
uite	-9466
urch	-9467
usta	-9468
uter	-9469
▁120	-9470
▁15,	-9471
▁19,	-9472
▁20.	-9473
▁800	-9474
▁90%	-9475
▁Ang	-9476
▁Att	-9477
▁Bah	-9478
▁Bet	-9479
▁Bow	-9480
▁CIA	-9481
▁Cap	-9482
▁DRC	-9483
▁Dec	-9484
▁Did	-9485
▁EAS	-9486
▁EIT	-9487
▁EPA	-9488
▁Has	-9489
▁Hon	-9490
▁III	-9491
▁Jer	-9492
▁Jud	-9493
▁Jun	-9494
▁Kla	-9495
▁Law	-9496
▁Lie	-9497
▁Mos	-9498
▁Mun	-9499
▁ODA	-9500
▁Pan	-9501
▁Sci	-9502
▁Sen	-9503
▁Sil	-9504
▁Sov	-9505
▁Ste	-9506
▁Sur	-9507
▁Ter	-9508
▁Too	-9509
▁Ult	-9510
▁Wel	-9511
▁ast	-9512
▁bom	-9513
▁box	-9514
▁boy	-9515
▁byp	-9516
▁die	-9517
▁ero	-9518
▁fan	-9519
▁gay	-9520
▁lod	-9521
▁mel	-9522
▁neo	-9523
▁pse	-9524
▁reb	-9525
▁rig	-9526
▁ros	-9527
▁sli	-9528
▁son	-9529
▁tem	-9530
▁tun	-9531
▁umb	-9532
▁wid	-9533
(2010	-9534
)0963	-9535
0,000	-9536
China	-9537
Sahar	-9538
acies	-9539
ajevo	-9540
amous	-9541
andan	-9542
apest	-9543
asant	-9544
ashes	-9545
assed	-9546
asses	-9547
atial	-9548
atist	-9549
atson	-9550
baric	-9551
chner	-9552
cious	-9553
cript	-9554
domin	-9555
egoti	-9556
eness	-9557
enger	-9558
esity	-9559
essim	-9560
exist	-9561
feldt	-9562
gency	-9563
gging	-9564
ghreb	-9565
hutto	-9566
ician	-9567
icism	-9568
icken	-9569
icter	-9570
inacy	-9571
inees	-9572
iques	-9573
isely	-9574
itate	-9575
kland	-9576
kmark	-9577
laude	-9578
limin	-9579
loads	-9580
lyter	-9581
mount	-9582
obert	-9583
ocide	-9584
omass	-9585
oming	-9586
opoly	-9587
ordin	-9588
organ	-9589
orily	-9590
ouble	-9591
ourge	-9592
posed	-9593
relig	-9594
rella	-9595
scept	-9596
still	-9597
tieri	-9598
ublin	-9599
unday	-9600
undus	-9601
urban	-9602
water	-9603
▁100%	-9604
▁1975	-9605
▁1979	-9606
▁1980	-9607
▁1998	-9608
▁1999	-9609
▁Abkh	-9610
▁Alex	-9611
▁Area	-9612
▁Audy	-9613
▁Blue	-9614
▁Boel	-9615
▁Camp	-9616
▁Card	-9617
▁Exam	-9618
▁Garc	-9619
▁Gauz	-9620
▁Have	-9621
▁Hist	-9622
▁IFRS	-9623
▁IPCC	-9624
▁Know	-9625
▁Lear	-9626
▁MDGs	-9627
▁Mand	-9628
▁Mann	-9629
▁Move	-9630
▁Mult	-9631
▁Pass	-9632
▁Paul	-9633
▁Rack	-9634
▁Rich	-9635
▁Sary	-9636
▁Schm	-9637
▁Sign	-9638
▁Take	-9639
▁Text	-9640
▁Tues	-9641
▁Viol	-9642
▁Visa	-9643
▁amid	-9644
▁army	-9645
▁baby	-9646
▁bail	-9647
▁barg	-9648
▁beef	-9649
▁book	-9650
▁brid	-9651
▁busy	-9652
▁calm	-9653
▁curt	-9654
▁cycl	-9655
▁dile	-9656
▁epis	-9657
▁exit	-9658
▁fill	-9659
▁gath	-9660
▁gift	-9661
▁gold	-9662
▁grip	-9663
▁halt	-9664
▁hect	-9665
▁hier	-9666
▁hole	-9667
▁iron	-9668
▁kick	-9669
▁knew	-9670
▁leap	-9671
▁lift	-9672
▁mach	-9673
▁nice	-9674
▁pert	-9675
▁pool	-9676
▁porn	-9677
▁rain	-9678
▁reun	-9679
▁ring	-9680
▁rose	-9681
▁scam	-9682
▁seam	-9683
▁shoc	-9684
▁site	-9685
▁sitt	-9686
▁tach	-9687
▁tact	-9688
▁tied	-9689
▁trag	-9690
▁trig	-9691
▁unch	-9692
▁unre	-9693
▁vers	-9694
▁wars	-9695
▁west	-9696
▁wild	-9697
▁wood	-9698
Africa	-9699
German	-9700
Ivoire	-9701
Russia	-9702
Wolski	-9703
arctic	-9704
artite	-9705
assoni	-9706
asting	-9707
essing	-9708
funded	-9709
health	-9710
ieving	-9711
iguous	-9712
inescu	-9713
isaari	-9714
ischer	-9715
itudes	-9716
metics	-9717
ocused	-9718
ogenic	-9719
olding	-9720
overed	-9721
pected	-9722
pedusa	-9723
points	-9724
prises	-9725
public	-9726
rality	-9727
recast	-9728
rising	-9729
romagn	-9730
roslav	-9731
sburgh	-9732
sement	-9733
shadow	-9734
taking	-9735
uality	-9736
ulsion	-9737
umbers	-9738
urring	-9739
usalem	-9740
ustion	-9741
ximity	-9742
▁2001,	-9743
▁2003,	-9744
▁2050.	-9745
▁Alber	-9746
▁Among	-9747
▁Blair	-9748
▁Board	-9749
▁Brown	-9750
▁Citiz	-9751
▁Cross	-9752
▁Dates	-9753
▁EPSCO	-9754
▁Fraga	-9755
▁Frank	-9756
▁Ghana	-9757
▁Gucht	-9758
▁Hague	-9759
▁Kroes	-9760
▁Minsk	-9761
▁Mitch	-9762
▁Peter	-9763
▁Poles	-9764
▁Renew	-9765
▁Right	-9766
▁Roman	-9767
▁SWIFT	-9768
▁Saudi	-9769
▁Serbs	-9770
▁Seych	-9771
▁Staes	-9772
▁Stand	-9773
▁Waste	-9774
▁Which	-9775
▁alert	-9776
▁annex	-9777
▁annum	-9778
▁arrog	-9779
▁asset	-9780
▁assur	-9781
▁atroc	-9782
▁basin	-9783
▁bonds	-9784
▁broke	-9785
▁cards	-9786
▁chaos	-9787
▁chief	-9788
▁cited	-9789
▁clust	-9790
▁comit	-9791
▁cyber	-9792
▁defer	-9793
▁deple	-9794
▁dread	-9795
▁enact	-9796
▁erect	-9797
▁fails	-9798
▁fatal	-9799
▁fifty	-9800
▁finds	-9801
▁giant	-9802
▁glass	-9803
▁globe	-9804
▁grown	-9805
▁guide	-9806
▁helic	-9807
▁ignor	-9808
▁incin	-9809
▁intra	-9810
▁keeps	-9811
▁knees	-9812
▁lacks	-9813
▁landm	-9814
▁litre	-9815
▁malad	-9816
▁march	-9817
▁maxim	-9818
▁midst	-9819
▁minds	-9820
▁moves	-9821
▁obese	-9822
▁opted	-9823
▁petro	-9824
▁phone	-9825
▁pione	-9826
▁recip	-9827
▁remun	-9828
▁renov	-9829
▁risen	-9830
▁roots	-9831
▁seize	-9832
▁semin	-9833
▁sharp	-9834
▁sight	-9835
▁skies	-9836
▁stone	-9837
▁tells	-9838
▁tenth	-9839
▁throw	-9840
▁trace	-9841
▁treas	-9842
▁truck	-9843
▁turns	-9844
▁undec	-9845
▁undes	-9846
▁unlim	-9847
▁unple	-9848
▁urged	-9849
▁vague	-9850
▁vigil	-9851
▁vigor	-9852
▁weigh	-9853
▁wheel	-9854
Saharan	-9855
anguage	-9856
arantee	-9857
carious	-9858
chmarks	-9859
elected	-9860
embered	-9861
fledged	-9862
hington	-9863
itoring	-9864
ivation	-9865
liberal	-9866
loading	-9867
lusconi	-9868
markets	-9869
ography	-9870
osexual	-9871
private	-9872
rakakis	-9873
rencies	-9874
ritical	-9875
sighted	-9876
sterdam	-9877
ttering	-9878
▁149(8)	-9879
▁Anders	-9880
▁Arabia	-9881
▁Author	-9882
▁Bhutto	-9883
▁Border	-9884
▁Cambod	-9885
▁Dublin	-9886
▁Events	-9887
▁George	-9888
▁Guerre	-9889
▁Jordan	-9890
▁Korean	-9891
▁League	-9892
▁Libyan	-9893
▁Making	-9894
▁Moscow	-9895
▁Mundus	-9896
▁Nature	-9897
▁Nobody	-9898
▁Nordic	-9899
▁Norway	-9900
▁Person	-9901
▁Recent	-9902
▁Robert	-9903
▁Soviet	-9904
▁Sunday	-9905
▁Travel	-9906
▁Twenty	-9907
▁Vienna	-9908
▁Watson	-9909
▁Within	-9910
▁absent	-9911
▁abused	-9912
▁academ	-9913
▁advise	-9914
▁affirm	-9915
▁argued	-9916
▁arisen	-9917
▁assign	-9918
▁attent	-9919
▁banana	-9920
▁barely	-9921
▁biogas	-9922
▁bottom	-9923
▁bought	-9924
▁carers	-9925
▁chains	-9926
▁cycles	-9927
▁deadly	-9928
▁dement	-9929
▁diesel	-9930
▁differ	-9931
▁dollar	-9932
▁eating	-9933
▁embarr	-9934
▁encomp	-9935
▁ending	-9936
▁enthus	-9937
▁fabric	-9938
▁geared	-9939
▁hidden	-9940
▁lament	-9941
▁lasted	-9942
▁learnt	-9943
▁legacy	-9944
▁lesser	-9945
▁merits	-9946
▁occurs	-9947
▁oldest	-9948
▁orders	-9949
▁output	-9950
▁overha	-9951
▁pessim	-9952
▁phased	-9953
▁plenty	-9954
▁poorly	-9955
▁prerog	-9956
▁presum	-9957
▁pseudo	-9958
▁pushed	-9959
▁reperc	-9960
▁repute	-9961
▁retail	-9962
▁revise	-9963
▁rooted	-9964
▁search	-9965
▁seemed	-9966
▁seized	-9967
▁speaks	-9968
▁survey	-9969
▁tables	-9970
▁temper	-9971
▁tested	-9972
▁themes	-9973
▁thinks	-9974
▁thrown	-9975
▁toward	-9976
▁unbrid	-9977
▁uncond	-9978
▁underl	-9979
▁unprof	-9980
▁unused	-9981
▁upheld	-9982
▁vacuum	-9983
▁verify	-9984
▁wisely	-9985
▁wished	-9986
▁yields	-9987
balanced	-9988
children	-9989
esterday	-9990
liminary	-9991
location	-9992
menistan	-9993
oriented	-9994
ountered	-9995
products	-9996
regional	-9997
rentices	-9998
ualtieri	-9999
undering	-10000
▁Benazir	-10001
▁Capital	-10002
▁Catalan	-10003
▁Chapter	-10004
▁Conserv	-10005
▁Corbett	-10006
▁Current	-10007
▁England	-10008
▁Fischer	-10009
▁Forests	-10010
▁Haitian	-10011
▁History	-10012
▁Maghreb	-10013
▁Neither	-10014
▁Parties	-10015
▁Poverty	-10016
▁Richard	-10017
▁Saryusz	-10018
▁Statute	-10019
▁Supreme	-10020
▁Tuesday	-10021
▁Turning	-10022
▁analyse	-10023
▁anxious	-10024
▁anybody	-10025
▁arrests	-10026
▁arrival	-10027
▁bankers	-10028
▁belongs	-10029
▁besides	-10030
▁biomass	-10031
▁blocked	-10032
▁carries	-10033
▁cereals	-10034
▁chamber	-10035
▁channel	-10036
▁chronic	-10037
▁clothes	-10038
▁comfort	-10039
▁consume	-10040
▁corrupt	-10041
▁credits	-10042
▁decides	-10043
▁defends	-10044
▁defines	-10045
▁delayed	-10046
▁deleted	-10047
▁derived	-10048
▁destiny	-10049
▁destroy	-10050
▁dilemma	-10051
▁distant	-10052
▁divorce	-10053
▁drastic	-10054
▁earning	-10055
▁erosion	-10056
▁exerted	-10057
▁fastest	-10058
▁feature	-10059
▁forever	-10060
▁forgive	-10061
▁formula	-10062
▁generic	-10063
▁genetic	-10064
▁gesture	-10065
▁governs	-10066
▁handled	-10067
▁harvest	-10068
▁hazards	-10069
▁heating	-10070
▁ideally	-10071
▁imposes	-10072
▁injured	-10073
▁intimid	-10074
▁kidnapp	-10075
▁kilomet	-10076
▁lagging	-10077
▁leakage	-10078
▁lifting	-10079
▁listing	-10080
▁logging	-10081
▁mergers	-10082
▁mineral	-10083
▁missile	-10084
▁noticed	-10085
▁obesity	-10086
▁organis	-10087
▁outlook	-10088
▁parking	-10089
▁partial	-10090
▁pending	-10091
▁phasing	-10092
▁powered	-10093
▁ranging	-10094
▁refrain	-10095
▁refuses	-10096
▁regrets	-10097
▁reminds	-10098
▁replies	-10099
▁rivalry	-10100
▁sadness	-10101
▁settled	-10102
▁shelter	-10103
▁shocked	-10104
▁sinking	-10105
▁slavery	-10106
▁spatial	-10107
▁spheres	-10108
▁tension	-10109
▁theatre	-10110
▁tobacco	-10111
▁trained	-10112
▁turmoil	-10113
▁waiving	-10114
▁winning	-10115
accession	-10116
amentally	-10117
establish	-10118
oundation	-10119
religious	-10120
ugoslavia	-10121
▁Abkhazia	-10122
▁Aviation	-10123
▁Blokland	-10124
▁Budapest	-10125
▁Citizens	-10126
▁Columbia	-10127
▁Frassoni	-10128
▁Learning	-10129
▁Memorial	-10130
▁Miroslav	-10131
▁Mitchell	-10132
▁Mobility	-10133
▁Nowadays	-10134
▁Products	-10135
▁Recovery	-10136
▁Russians	-10137
▁Sarajevo	-10138
▁Schlyter	-10139
▁Specific	-10140
▁Stepping	-10141
▁Tomorrow	-10142
▁Training	-10143
▁Violence	-10144
▁Whatever	-10145
▁abortion	-10146
▁academic	-10147
▁acquired	-10148
▁analysed	-10149
▁annually	-10150
▁backward	-10151
▁barbaric	-10152
▁blocking	-10153
▁choosing	-10154
▁combated	-10155
▁commonly	-10156
▁complies	-10157
▁confirms	-10158
▁contempt	-10159
▁contents	-10160
▁damaging	-10161
▁database	-10162
▁destroys	-10163
▁dissemin	-10164
▁diverted	-10165
▁donation	-10166
▁dossiers	-10167
▁drawback	-10168
▁employee	-10169
▁engaging	-10170
▁entities	-10171
▁exceeded	-10172
▁expenses	-10173
▁explains	-10174
▁feelings	-10175
▁foreseen	-10176
▁gathered	-10177
▁guidance	-10178
▁holistic	-10179
▁homework	-10180
▁honoured	-10181
▁imported	-10182
▁inclined	-10183
▁incurred	-10184
▁infamous	-10185
▁investor	-10186
▁lowering	-10187
▁measured	-10188
▁mistaken	-10189
▁monopoly	-10190
▁mortgage	-10191
▁nowadays	-10192
▁polluted	-10193
▁predomin	-10194
▁proceeds	-10195
▁promptly	-10196
▁protects	-10197
▁purchase	-10198
▁reassure	-10199
▁relative	-10200
▁sentence	-10201
▁shocking	-10202
▁sittings	-10203
▁somebody	-10204
▁stimulus	-10205
▁stricter	-10206
▁suffrage	-10207
▁suggests	-10208
▁supplied	-10209
▁suppress	-10210
▁suspects	-10211
▁sympathy	-10212
▁telecoms	-10213
▁tolerate	-10214
▁tourists	-10215
▁umbrella	-10216
▁underpin	-10217
▁unstable	-10218
▁updating	-10219
▁utilised	-10220
▁vigorous	-10221
▁villages	-10222
▁violated	-10223
▁violates	-10224
▁visiting	-10225
▁volatile	-10226
▁warnings	-10227
▁wasteful	-10228
▁websites	-10229
▁whenever	-10230
(2010)0963	-10231
assessment	-10232
increasing	-10233
romagnetic	-10234
unctioning	-10235
▁Amsterdam	-10236
▁Antarctic	-10237
▁Communist	-10238
▁Companies	-10239
▁Eurobonds	-10240
▁Jerusalem	-10241
▁Lampedusa	-10242
▁Marinescu	-10243
▁Mechanism	-10244
▁Operation	-10245
▁Paragraph	-10246
▁Passenger	-10247
▁Reinfeldt	-10248
▁accessing	-10249
▁analysing	-10250
▁answering	-10251
▁appalling	-10252
▁arrogance	-10253
▁assisting	-10254
▁associate	-10255
▁attempted	-10256
▁attitudes	-10257
▁automatic	-10258
▁backwards	-10259
▁centuries	-10260
▁civilised	-10261
▁clarifies	-10262
▁collected	-10263
▁compelled	-10264
▁concerted	-10265
▁condemned	-10266
▁deadlines	-10267
▁departure	-10268
▁destroyed	-10269
▁dignified	-10270
▁divergent	-10271
▁educating	-10272
▁eradicate	-10273
▁examining	-10274
▁formulate	-10275
▁healthier	-10276
▁hierarchy	-10277
▁hypocrisy	-10278
▁identical	-10279
▁importing	-10280
▁inability	-10281
▁insisting	-10282
▁justifies	-10283
▁legislate	-10284
▁licensing	-10285
▁locations	-10286
▁magnitude	-10287
▁marketing	-10288
▁mountains	-10289
▁obstinacy	-10290
▁opponents	-10291
▁paramount	-10292
▁penalised	-10293
▁performed	-10294
▁prescript	-10295
▁processed	-10296
▁protocols	-10297
▁proximity	-10298
▁rationale	-10299
▁reception	-10300
▁repealing	-10301
▁secondary	-10302
▁sentences	-10303
▁slightest	-10304
▁splitting	-10305
▁stabilise	-10306
▁statutory	-10307
▁targeting	-10308
▁telephone	-10309
▁unequivoc	-10310
▁unlimited	-10311
▁upgrading	-10312
▁welcoming	-10313
▁wonderful	-10314
▁worsening	-10315
▁Assistance	-10316
▁Berlusconi	-10317
▁Compliance	-10318
▁Integrated	-10319
▁Membership	-10320
▁Monitoring	-10321
▁Pittsburgh	-10322
▁Seychelles	-10323
▁Supervisor	-10324
▁Ultimately	-10325
▁Washington	-10326
▁anticipate	-10327
▁assurances	-10328
▁atrocities	-10329
▁bargaining	-10330
▁benchmarks	-10331
▁calculated	-10332
▁capitalist	-10333
▁censorship	-10334
▁clarifying	-10335
▁combustion	-10336
▁comitology	-10337
▁completing	-10338
▁conformity	-10339
▁confronted	-10340
▁congestion	-10341
▁convenient	-10342
▁creativity	-10343
▁currencies	-10344
▁delivering	-10345
▁derogation	-10346
▁disability	-10347
▁dismantled	-10348
▁evaluating	-10349
▁excellence	-10350
▁explaining	-10351
▁finalising	-10352
▁formulated	-10353
▁generating	-10354
▁harmonious	-10355
▁imposition	-10356
▁indicative	-10357
▁internally	-10358
▁laboratory	-10359
▁mainstream	-10360
▁meaningful	-10361
▁mitigation	-10362
▁nationally	-10363
▁navigation	-10364
▁neutrality	-10365
▁overshadow	-10366
▁overweight	-10367
▁paragraphs	-10368
▁peacefully	-10369
▁pensioners	-10370
▁perception	-10371
▁playground	-10372
▁pollutants	-10373
▁postponing	-10374
▁precarious	-10375
▁precedence	-10376
▁preserving	-10377
▁privileges	-10378
▁proceeding	-10379
▁profoundly	-10380
▁publishers	-10381
▁purchasing	-10382
▁remembered	-10383
▁renewables	-10384
▁resolutely	-10385
▁respective	-10386
▁rigorously	-10387
▁sacrificed	-10388
▁securities	-10389
▁separatist	-10390
▁signatures	-10391
▁standstill	-10392
▁struggling	-10393
▁tachograph	-10394
▁tantamount	-10395
▁techniques	-10396
▁tragically	-10397
▁undeniable	-10398
▁unilateral	-10399
▁unpleasant	-10400
▁worthwhile	-10401
withstanding	-10402
▁Essentially	-10403
▁Fortunately	-10404
▁Regulations	-10405
▁Stavrakakis	-10406
▁Undoubtedly	-10407
▁accelerated	-10408
▁accountable	-10409
▁acquisition	-10410
▁anticipated	-10411
▁approaching	-10412
▁beneficiary	-10413
▁comparative	-10414
▁compensated	-10415
▁condolences	-10416
▁degradation	-10417
▁departments	-10418
▁derivatives	-10419
▁detrimental	-10420
▁devastating	-10421
▁distinguish	-10422
▁emphasising	-10423
▁encountered	-10424
▁endorsement	-10425
▁eradicating	-10426
▁feasibility	-10427
▁fortunately	-10428
▁fragmentary	-10429
▁furthermore	-10430
▁illustrates	-10431
▁indivisible	-10432
▁intensively	-10433
▁interaction	-10434
▁legislating	-10435
▁nationalism	-10436
▁nationality	-10437
▁neighbourly	-10438
▁pornography	-10439
▁predecessor	-10440
▁preferences	-10441
▁preliminary	-10442
▁principally	-10443
▁professions	-10444
▁progressing	-10445
▁prohibition	-10446
▁realisation	-10447
▁recognising	-10448
▁recruitment	-10449
▁referendums	-10450
▁remembering	-10451
▁residential	-10452
▁responsibly	-10453
▁sensitivity	-10454
▁seriousness	-10455
▁specialists	-10456
▁substantive	-10457
▁traffickers	-10458
▁unavoidable	-10459
▁undesirable	-10460
▁Organization	-10461
▁Particularly	-10462
▁Presidencies	-10463
▁Turkmenistan	-10464
▁appointments	-10465
▁capabilities	-10466
▁codification	-10467
▁confirmation	-10468
▁conservative	-10469
▁corporations	-10470
▁dramatically	-10471
▁fingerprints	-10472
▁incidentally	-10473
▁incompatible	-10474
▁interpreters	-10475
▁observations	-10476
▁perpetrators	-10477
▁prerequisite	-10478
▁prerogatives	-10479
▁preservation	-10480
▁presidencies	-10481
▁productivity	-10482
▁quantitative	-10483
▁respectively	-10484
▁uncontrolled	-10485
▁undemocratic	-10486
▁unprofitable	-10487
▁Conservatives	-10488
▁Stabilisation	-10489
▁commissioners	-10490
▁comparability	-10491
▁confrontation	-10492
▁deliberations	-10493
▁demonstrating	-10494
▁deterioration	-10495
▁distinguished	-10496
▁fundamentally	-10497
▁installations	-10498
▁repercussions	-10499
▁reunification	-10500
▁unconditional	-10501
▁underestimate	-10502
▁democratically	-10503
▁demonstrations	-10504
▁irregularities	-10505
▁organisational	-10506
▁satisfactorily	-10507
▁democratisation	-10508
▁electromagnetic	-10509
▁transplantation	-10510
')	-10511
);	-10512
-1	-10513
.2	-10514
19	-10515
26	-10516
28	-10517
3,	-10518
40	-10519
6.	-10520
78	-10521
BP	-10522
CD	-10523
GB	-10524
GM	-10525
HS	-10526
KP	-10527
LV	-10528
OP	-10529
PA	-10530
PC	-10531
Ps	-10532
SG	-10533
SS	-10534
St	-10535
TT	-10536
da	-10537
di	-10538
hl	-10539
rg	-10540
sa	-10541
uk	-10542
ws	-10543
COP	-10544
DCI	-10545
DCs	-10546
EEC	-10547
ENP	-10548
ESA	-10549
GBT	-10550
IBE	-10551
ILO	-10552
IMF	-10553
Jam	-10554
NDP	-10555
REP	-10556
SEA	-10557
SGI	-10558
Sem	-10559
Tur	-10560
WTO	-10561
ago	-10562
asy	-10563
aug	-10564
azi	-10565
cre	-10566
ctu	-10567
dem	-10568
eta	-10569
far	-10570
gae	-10571
hne	-10572
igo	-10573
ika	-10574
isc	-10575
jug	-10576
kos	-10577
med	-10578
mun	-10579
nek	-10580
orf	-10581
rea	-10582
rey	-10583
rig	-10584
sky	-10585
sol	-10586
sum	-10587
uzk	-10588
van	-10589
wes	-10590
zek	-10591
▁(5	-10592
▁-,	-10593
▁38	-10594
▁44	-10595
▁77	-10596
▁83	-10597
▁85	-10598
▁9,	-10599
41	-10600
7.	-10601
We	-10602
alg	-10603
cle	-10604
cor	-10605
ien	-10606
ila	-10607
neg	-10608
ucr	-10609
usp	-10610
you	-10611
▁7,	-10612
▁95	-10613
▁Ki	-10614
▁ME	-10615
▁SA	-10616
▁si	-10617
-200	-10618
2011	-10619
5(5)	-10620
CITS	-10621
Comm	-10622
ESCO	-10623
Guin	-10624
ITES	-10625
Pier	-10626
SEAN	-10627
WEEE	-10628
adec	-10629
afia	-10630
agre	-10631
alid	-10632
alit	-10633
anan	-10634
anol	-10635
arak	-10636
ashv	-10637
asph	-10638
atur	-10639
auer	-10640
away	-10641
bles	-10642
burg	-10643
cale	-10644
cean	-10645
cile	-10646
cost	-10647
cred	-10648
cris	-10649
cury	-10650
eorg	-10651
eror	-10652
ette	-10653
fill	-10654
fold	-10655
fran	-10656
ften	-10657
furt	-10658
greg	-10659
half	-10660
icit	-10661
iday	-10662
ifor	-10663
itro	-10664
izes	-10665
jana	-10666
jubl	-10667
lers	-10668
lesh	-10669
lets	-10670
life	-10671
list	-10672
mond	-10673
obyl	-10674
ogle	-10675
omor	-10676
ondo	-10677
oret	-10678
orsk	-10679
otal	-10680
rika	-10681
risk	-10682
rowd	-10683
sign	-10684
sing	-10685
thia	-10686
ugab	-10687
umia	-10688
unct	-10689
uven	-10690
uzzo	-10691
viol	-10692
will	-10693
xury	-10694
yles	-10695
zing	-10696
▁12%	-10697
▁12.	-10698
▁121	-10699
AO	-10700
ON	-10701
cip	-10702
ega	-10703
ipt	-10704
vin	-10705
7-00	-10706
ACTA	-10707
answ	-10708
boda	-10709
card	-10710
hour	-10711
mala	-10712
mand	-10713
ndez	-10714
rido	-10715
serv	-10716
umen	-10717
▁16%	-10718
▁16,	-10719
▁27,	-10720
▁37,	-10721
▁6%,	-10722
▁ATM	-10723
▁Abb	-10724
▁Ach	-10725
▁Ann	-10726
▁Ath	-10727
▁CSR	-10728
▁Del	-10729
▁ECH	-10730
▁EDF	-10731
▁ETS	-10732
▁Eff	-10733
▁Enl	-10734
▁Ern	-10735
▁Exp	-10736
▁Faj	-10737
▁Fla	-10738
▁GBP	-10739
▁GHS	-10740
▁GPS	-10741
▁Gah	-10742
▁Geb	-10743
▁Jal	-10744
▁Jew	-10745
▁Job	-10746
▁KGB	-10747
▁Kam	-10748
▁Ken	-10749
▁Kov	-10750
▁Kyr	-10751
▁MPs	-10752
▁Mer	-10753
▁Mik	-10754
▁Mil	-10755
▁Mod	-10756
▁Mot	-10757
▁Mub	-10758
▁Nie	-10759
▁Ort	-10760
▁Pie	-10761
▁Pin	-10762
▁Ret	-10763
▁Sac	-10764
▁Ser	-10765
▁Swo	-10766
▁Tim	-10767
▁Use	-10768
▁Ves	-10769
▁Via	-10770
▁Vir	-10771
▁Vol	-10772
▁Wog	-10773
▁alt	-10774
▁ath	-10775
▁bol	-10776
▁bon	-10777
▁cas	-10778
▁cig	-10779
▁cot	-10780
▁cyn	-10781
▁dil	-10782
▁dro	-10783
▁foc	-10784
▁hun	-10785
▁hur	-10786
▁los	-10787
▁mir	-10788
▁mud	-10789
▁phr	-10790
▁pig	-10791
▁pin	-10792
▁qua	-10793
▁unp	-10794
▁unt	-10795
▁vag	-10796
▁vib	-10797
▁vic	-10798
▁web	-10799
Am	-10800
UU	-10801
VV	-10802
eck	-10803
gyz	-10804
lam	-10805
lov	-10806
occ	-10807
pez	-10808
east	-10809
fire	-10810
load	-10811
opia	-10812
uate	-10813
▁Abu	-10814
▁Fac	-10815
▁Mul	-10816
▁Rad	-10817
▁Rem	-10818
▁Rod	-10819
▁dry	-10820
▁fly	-10821
▁maf	-10822
▁pup	-10823
▁quo	-10824
▁wis	-10825
-2006	-10826
2008)	-10827
6-045	-10828
7-020	-10829
Georg	-10830
Jamal	-10831
Japan	-10832
REPER	-10833
admap	-10834
adzki	-10835
alled	-10836
amkos	-10837
anged	-10838
annes	-10839
apore	-10840
ashed	-10841
astal	-10842
aster	-10843
atics	-10844
atzim	-10845
barom	-10846
chten	-10847
comes	-10848
degen	-10849
eland	-10850
elect	-10851
eline	-10852
energ	-10853
enson	-10854
entic	-10855
erior	-10856
esive	-10857
ested	-10858
ester	-10859
ewska	-10860
geria	-10861
gnant	-10862
hardt	-10863
iated	-10864
icial	-10865
icide	-10866
ierra	-10867
ihler	-10868
inner	-10869
inous	-10870
inter	-10871
ioned	-10872
iovis	-10873
isled	-10874
isman	-10875
isons	-10876
itect	-10877
itely	-10878
journ	-10879
lared	-10880
legal	-10881
negot	-10882
night	-10883
nings	-10884
nistr	-10885
notes	-10886
obile	-10887
odork	-10888
olese	-10889
olved	-10890
onoun	-10891
opian	-10892
opter	-10893
orbit	-10894
ordon	-10895
orted	-10896
ourse	-10897
ouses	-10898
ovsky	-10899
ii	-10900
ava	-10901
ema	-10902
pty	-10903
▁1,	-10904
▁41	-10905
▁Ol	-10906
▁od	-10907
aded	-10908
agon	-10909
aple	-10910
cott	-10911
eele	-10912
gone	-10913
ideo	-10914
moon	-10915
word	-10916
▁Aht	-10917
▁Den	-10918
▁Num	-10919
▁bag	-10920
▁dub	-10921
enues	-10922
owned	-10923
owska	-10924
pidla	-10925
power	-10926
print	-10927
produ	-10928
quest	-10929
rayed	-10930
resse	-10931
richt	-10932
roads	-10933
speed	-10934
sting	-10935
third	-10936
trict	-10937
tries	-10938
ugabe	-10939
ulage	-10940
unaut	-10941
unged	-10942
ungle	-10943
vedev	-10944
yster	-10945
▁1325	-10946
▁2001	-10947
▁2014	-10948
▁40%.	-10949
▁Anti	-10950
▁Arif	-10951
▁Back	-10952
▁Batz	-10953
▁Bill	-10954
▁Busk	-10955
▁Cast	-10956
▁Crow	-10957
▁Cust	-10958
▁Daul	-10959
▁EASA	-10960
▁EEAS	-10961
▁Exec	-10962
▁Fige	-10963
▁Germ	-10964
▁Grab	-10965
▁Gulf	-10966
▁Heil	-10967
▁Huge	-10968
▁Jour	-10969
▁Karl	-10970
▁Kato	-10971
▁LGBT	-10972
▁LIBE	-10973
▁Lead	-10974
▁Lima	-10975
▁Lyon	-10976
▁Mahm	-10977
▁Miss	-10978
▁Need	-10979
▁Opel	-10980
▁Parm	-10981
▁Plus	-10982
▁Pole	-10983
▁Rasm	-10984
▁Rest	-10985
▁Saak	-10986
▁Ship	-10987
▁Sing	-10988
▁Stev	-10989
▁Wild	-10990
▁Work	-10991
▁abst	-10992
▁adds	-10993
▁alto	-10994
▁baff	-10995
▁boat	-10996
▁bomb	-10997
▁bran	-10998
▁bury	-10999
-3	-11000
agg	-11001
cap	-11002
dri	-11003
iel	-11004
map	-11005
ails	-11006
etor	-11007
from	-11008
gian	-11009
lean	-11010
rine	-11011
rosi	-11012
sten	-11013
such	-11014
▁EEA	-11015
▁Rap	-11016
▁fee	-11017
▁gar	-11018
▁nod	-11019
aware	-11020
ensed	-11021
human	-11022
ludge	-11023
pless	-11024
sofar	-11025
ussen	-11026
usual	-11027
▁Fern	-11028
▁Frat	-11029
▁Ouzk	-11030
▁butt	-11031
▁cast	-11032
▁cert	-11033
▁cess	-11034
▁cold	-11035
▁conj	-11036
▁cord	-11037
▁corn	-11038
▁crop	-11039
▁culp	-11040
▁dear	-11041
▁desc	-11042
▁desp	-11043
▁dust	-11044
▁edge	-11045
▁eman	-11046
▁evil	-11047
▁exch	-11048
▁feat	-11049
▁feet	-11050
▁fell	-11051
▁fert	-11052
▁file	-11053
▁fits	-11054
▁fool	-11055
▁gall	-11056
▁gang	-11057
▁gate	-11058
▁gets	-11059
▁girl	-11060
▁hell	-11061
▁hour	-11062
▁hurd	-11063
▁illu	-11064
▁libr	-11065
▁lobb	-11066
▁lucr	-11067
▁mail	-11068
▁maln	-11069
▁mamm	-11070
▁medi	-11071
▁mira	-11072
▁moon	-11073
▁nerv	-11074
▁page	-11075
▁pled	-11076
▁pock	-11077
▁pred	-11078
▁reop	-11079
▁ruin	-11080
▁semi	-11081
▁sequ	-11082
▁shir	-11083
▁sine	-11084
▁slic	-11085
▁soph	-11086
▁stam	-11087
▁succ	-11088
▁thir	-11089
▁ties	-11090
▁tram	-11091
▁trap	-11092
▁tril	-11093
▁tune	-11094
▁unex	-11095
▁unil	-11096
▁unsu	-11097
▁veto	-11098
▁wear	-11099
Pierre	-11100
Turkey	-11101
abella	-11102
acques	-11103
asites	-11104
astron	-11105
atriot	-11106
ayment	-11107
celled	-11108
common	-11109
compet	-11110
crisis	-11111
culiar	-11112
define	-11113
dition	-11114
ducive	-11115
ducted	-11116
ection	-11117
edestr	-11118
enders	-11119
energy	-11120
erable	-11121
erator	-11122
ffects	-11123
formed	-11124
iality	-11125
icably	-11126
igious	-11127
indust	-11128
iovasc	-11129
isting	-11130
makers	-11131
matism	-11132
ocracy	-11133
orated	-11134
orrent	-11135
otechn	-11136
owners	-11137
parent	-11138
person	-11139
racted	-11140
regate	-11141
resses	-11142
rifice	-11143
rombin	-11144
saving	-11145
school	-11146
sector	-11147
social	-11148
ubbles	-11149
ubborn	-11150
uctive	-11151
worthy	-11152
▁2000.	-11153
▁2015,	-11154
▁ASEAN	-11155
▁Alban	-11156
▁Andor	-11157
▁Build	-11158
▁Buzek	-11159
▁CITES	-11160
▁Cadec	-11161
▁Cairo	-11162
▁Chern	-11163
▁Chief	-11164
▁Child	-11165
▁Chile	-11166
▁Coord	-11167
▁Eight	-11168
▁Elmar	-11169
▁Erika	-11170
▁Force	-11171
▁Forum	-11172
▁Giann	-11173
▁Grech	-11174
▁Guard	-11175
▁Guate	-11176
▁Gyula	-11177
▁Harms	-11178
▁Hence	-11179
▁Karin	-11180
▁Kurds	-11181
▁Leone	-11182
▁Ljubl	-11183
▁Maast	-11184
▁Mafia	-11185
▁Maria	-11186
▁Mladi	-11187
▁Mumia	-11188
▁Nobel	-11189
▁Ocean	-11190
▁Offic	-11191
▁Often	-11192
▁Order	-11193
▁Panel	-11194
▁Papua	-11195
▁Power	-11196
▁Pract	-11197
▁Regul	-11198
▁Roure	-11199
▁Satur	-11200
▁Sharm	-11201
▁Surve	-11202
▁Susta	-11203
▁Svens	-11204
▁Texts	-11205
▁Topol	-11206
▁UCITS	-11207
▁Using	-11208
▁Vries	-11209
▁Wogau	-11210
▁accum	-11211
▁algae	-11212
▁alter	-11213
▁ample	-11214
▁arose	-11215
▁artic	-11216
▁awful	-11217
▁backs	-11218
▁birds	-11219
▁boats	-11220
▁bombs	-11221
▁books	-11222
▁brain	-11223
▁brunt	-11224
▁carte	-11225
▁conqu	-11226
▁consp	-11227
▁coups	-11228
▁crowd	-11229
▁deeds	-11230
▁dense	-11231
▁depos	-11232
▁devil	-11233
▁drain	-11234
▁dwind	-11235
▁empty	-11236
▁escal	-11237
▁feast	-11238
▁films	-11239
▁flesh	-11240
▁forge	-11241
▁gases	-11242
▁grasp	-11243
▁grids	-11244
▁guilt	-11245
▁holid	-11246
▁impat	-11247
▁inaug	-11248
▁indeb	-11249
▁insec	-11250
▁juven	-11251
▁lorry	-11252
▁match	-11253
▁modes	-11254
▁named	-11255
▁overt	-11256
▁patri	-11257
▁polar	-11258
▁prize	-11259
▁quiet	-11260
▁ranks	-11261
▁ratio	-11262
▁recre	-11263
▁repet	-11264
▁riots	-11265
▁sadly	-11266
▁sanct	-11267
▁scene	-11268
▁seals	-11269
▁shipw	-11270
▁sizes	-11271
▁smugg	-11272
▁south	-11273
▁spans	-11274
▁squee	-11275
▁suits	-11276
▁sweep	-11277
▁taboo	-11278
▁taste	-11279
▁teeth	-11280
▁theme	-11281
▁tiger	-11282
▁tonne	-11283
▁tuber	-11284
▁tyres	-11285
▁unamb	-11286
▁unite	-11287
▁upris	-11288
▁video	-11289
▁waves	-11290
▁wines	-11291
Counter	-11292
Georgia	-11293
Western	-11294
akhstan	-11295
angered	-11296
arkakis	-11297
ashvili	-11298
asphemy	-11299
assment	-11300
assoure	-11301
aturely	-11302
control	-11303
credits	-11304
dumping	-11305
ensable	-11306
entific	-11307
factory	-11308
fishing	-11309
focused	-11310
gentina	-11311
grading	-11312
gyzstan	-11313
ilitary	-11314
imating	-11315
inating	-11316
irement	-11317
itement	-11318
iversal	-11319
jection	-11320
keeping	-11321
lements	-11322
locking	-11323
nistria	-11324
ounding	-11325
ourably	-11326
pecting	-11327
rations	-11328
reading	-11329
regions	-11330
ressing	-11331
rgensen	-11332
stitute	-11333
support	-11334
trovert	-11335
uelling	-11336
verting	-11337
violent	-11338
workers	-11339
written	-11340
▁115(5)	-11341
▁Almost	-11342
▁Arrest	-11343
▁Better	-11344
▁Canary	-11345
▁Credit	-11346
▁Delors	-11347
▁Depart	-11348
▁Effort	-11349
▁Farage	-11350
▁Friday	-11351
▁Giving	-11352
▁Google	-11353
▁Gordon	-11354
▁Grosch	-11355
▁Kallen	-11356
▁Lapsed	-11357
▁Larosi	-11358
▁Lefran	-11359
▁Manuel	-11360
▁McGuin	-11361
▁Medina	-11362
▁Mugabe	-11363
▁Mulder	-11364
▁Munich	-11365
▁Negoti	-11366
▁Papast	-11367
▁Sahara	-11368
▁Sarnez	-11369
▁Senate	-11370
▁Shalit	-11371
▁Sierra	-11372
▁Solana	-11373
▁Stalin	-11374
▁Status	-11375
▁Surely	-11376
▁Syrian	-11377
▁Turmes	-11378
▁Unless	-11379
▁Wallis	-11380
▁accent	-11381
▁adults	-11382
▁ambass	-11383
▁assass	-11384
▁avoids	-11385
▁begins	-11386
▁boards	-11387
▁button	-11388
▁buying	-11389
▁canned	-11390
▁capita	-11391
▁carcin	-11392
▁caring	-11393
▁cattle	-11394
▁ceased	-11395
▁cheese	-11396
▁cigare	-11397
▁confer	-11398
▁contag	-11399
▁cotton	-11400
▁county	-11401
▁deeper	-11402
▁denial	-11403
▁deputy	-11404
▁derive	-11405
▁destab	-11406
▁devalu	-11407
▁dioxin	-11408
▁dozens	-11409
▁dumped	-11410
▁ecolog	-11411
▁embark	-11412
▁endang	-11413
▁enjoys	-11414
▁ethics	-11415
▁extern	-11416
▁famous	-11417
▁filled	-11418
▁fluctu	-11419
▁fright	-11420
▁guided	-11421
▁heated	-11422
▁horror	-11423
▁humane	-11424
▁ideals	-11425
▁indign	-11426
▁influx	-11427
▁jungle	-11428
▁kindly	-11429
▁listed	-11430
▁lowest	-11431
▁luxury	-11432
▁master	-11433
▁meagre	-11434
▁memory	-11435
▁metals	-11436
▁milest	-11437
▁mining	-11438
▁mirror	-11439
▁misled	-11440
▁misman	-11441
▁missed	-11442
▁monies	-11443
▁multid	-11444
▁neglig	-11445
▁nurses	-11446
▁oblige	-11447
▁occupy	-11448
▁passes	-11449
▁petrol	-11450
▁polite	-11451
▁praise	-11452
▁proves	-11453
▁pupils	-11454
▁racing	-11455
▁refund	-11456
▁relies	-11457
▁revers	-11458
▁rhetor	-11459
▁rivers	-11460
▁rushed	-11461
▁segreg	-11462
▁slower	-11463
▁sorted	-11464
▁spaces	-11465
▁spends	-11466
▁staple	-11467
▁starts	-11468
▁subjug	-11469
▁supers	-11470
▁theory	-11471
▁ticket	-11472
▁timber	-11473
▁troika	-11474
▁tunnel	-11475
▁unansw	-11476
▁varied	-11477
▁varies	-11478
▁voiced	-11479
▁waiver	-11480
▁winner	-11481
▁wisdom	-11482
affected	-11483
aterally	-11484
business	-11485
capacity	-11486
decision	-11487
ensation	-11488
entities	-11489
existent	-11490
financed	-11491
finitely	-11492
formance	-11493
ifferent	-11494
iovisual	-11495
iscrimin	-11496
itecture	-11497
language	-11498
lessness	-11499
orbitant	-11500
oretical	-11501
ouraging	-11502
question	-11503
ractical	-11504
restrict	-11505
standard	-11506
stricken	-11507
urodegen	-11508
zejewska	-11509
▁149(8))	-11510
▁Algeria	-11511
▁Already	-11512
▁Andreas	-11513
▁Bahrain	-11514
▁Batzeli	-11515
▁Borders	-11516
▁COREPER	-11517
▁Caspary	-11518
▁Chatzim	-11519
▁Closure	-11520
▁Coastal	-11521
▁Counter	-11522
▁Crowley	-11523
▁Customs	-11524
▁Cypriot	-11525
▁Denmark	-11526
▁Equally	-11527
▁Euromed	-11528
▁Failing	-11529
▁Finance	-11530
▁Fishing	-11531
▁Garrido	-11532
▁Germans	-11533
▁Greater	-11534
▁Illegal	-11535
▁Interim	-11536
▁Journal	-11537
▁Juncker	-11538
▁Khodork	-11539
▁Lechner	-11540
▁Mission	-11541
▁Mubarak	-11542
▁Nigeria	-11543
▁Overall	-11544
▁Posting	-11545
▁Private	-11546
▁Project	-11547
▁Refugee	-11548
▁Roadmap	-11549
▁Sacconi	-11550
▁Scheele	-11551
▁Schmitt	-11552
▁Someone	-11553
▁Swoboda	-11554
▁Trading	-11555
▁Wallstr	-11556
▁Welcome	-11557
▁abusing	-11558
▁accepts	-11559
▁acutely	-11560
▁adapted	-11561
▁annexed	-11562
▁artists	-11563
▁blindly	-11564
▁burning	-11565
▁cartels	-11566
▁categor	-11567
▁caution	-11568
▁chaired	-11569
▁chiefly	-11570
▁clashes	-11571
▁classes	-11572
▁classic	-11573
▁cleared	-11574
▁coastal	-11575
▁coexist	-11576
▁colours	-11577
▁conveys	-11578
▁cruelty	-11579
▁cyclone	-11580
▁default	-11581
▁degrees	-11582
▁denomin	-11583
▁diamond	-11584
▁differs	-11585
▁dismiss	-11586
▁disturb	-11587
▁divides	-11588
▁dollars	-11589
▁dropped	-11590
▁dubious	-11591
▁ecology	-11592
▁educate	-11593
▁embargo	-11594
▁embrace	-11595
▁emperor	-11596
▁endless	-11597
▁enlight	-11598
▁ensuing	-11599
▁entails	-11600
▁episode	-11601
▁excuses	-11602
▁explore	-11603
▁factual	-11604
▁fleeing	-11605
▁forcing	-11606
▁forming	-11607
▁fortune	-11608
▁fraudul	-11609
▁fulfils	-11610
▁gallery	-11611
▁growers	-11612
▁guiding	-11613
▁harsher	-11614
▁haulage	-11615
▁heinous	-11616
▁himself	-11617
▁horrors	-11618
▁hostage	-11619
▁hurdles	-11620
▁iceberg	-11621
▁ideolog	-11622
▁impedes	-11623
▁insists	-11624
▁insofar	-11625
▁invalid	-11626
▁licence	-11627
▁locally	-11628
▁mercury	-11629
▁merging	-11630
▁mutuals	-11631
▁needing	-11632
▁nervous	-11633
▁nodding	-11634
▁offence	-11635
▁origins	-11636
▁outrage	-11637
▁painful	-11638
▁passion	-11639
▁pedestr	-11640
▁pertain	-11641
▁plainly	-11642
▁plunged	-11643
▁portion	-11644
▁precond	-11645
▁premise	-11646
▁pressur	-11647
▁profile	-11648
▁prolong	-11649
▁pronoun	-11650
▁prudent	-11651
▁quicker	-11652
▁realist	-11653
▁rectify	-11654
▁reduces	-11655
▁refusal	-11656
▁rejects	-11657
▁relying	-11658
▁reorgan	-11659
▁repatri	-11660
▁restaur	-11661
▁rethink	-11662
▁revital	-11663
▁roadmap	-11664
▁roaming	-11665
▁rolling	-11666
▁rulings	-11667
▁scourge	-11668
▁secured	-11669
▁shifted	-11670
▁shorter	-11671
▁slowing	-11672
▁somehow	-11673
▁stories	-11674
▁studied	-11675
▁survive	-11676
▁suscept	-11677
▁tabling	-11678
▁teacher	-11679
▁tempted	-11680
▁tighten	-11681
▁tougher	-11682
▁traders	-11683
▁unaware	-11684
▁undergo	-11685
▁unusual	-11686
▁updated	-11687
▁upgrade	-11688
▁useless	-11689
▁vaccine	-11690
▁vibrant	-11691
▁violate	-11692
▁visions	-11693
▁volcano	-11694
▁warring	-11695
▁weakest	-11696
▁wealthy	-11697
▁wheeled	-11698
▁wounded	-11699
atibility	-11700
barometer	-11701
developed	-11702
effective	-11703
emergency	-11704
ferential	-11705
financial	-11706
identally	-11707
implement	-11708
ineeships	-11709
intensive	-11710
itatively	-11711
itiveness	-11712
ouncement	-11713
placeable	-11714
placement	-11715
producing	-11716
regulated	-11717
unautaire	-11718
▁Armenian	-11719
▁Articles	-11720
▁Campania	-11721
▁Colombia	-11722
▁Councils	-11723
▁Facility	-11724
▁Ferreira	-11725
▁Frattini	-11726
▁Gebhardt	-11727
▁Independ	-11728
▁Johannes	-11729
▁Liechten	-11730
▁Medvedev	-11731
▁Numerous	-11732
▁Patients	-11733
▁Saturday	-11734
▁Speaking	-11735
▁Svensson	-11736
▁Tibetans	-11737
▁Tunisian	-11738
▁abducted	-11739
▁academia	-11740
▁additive	-11741
▁adjusted	-11742
▁amounted	-11743
▁arriving	-11744
▁articles	-11745
▁assuming	-11746
▁attacked	-11747
▁awarding	-11748
▁balances	-11749
▁bankrupt	-11750
▁borrowed	-11751
▁branches	-11752
▁briefing	-11753
▁bursting	-11754
▁capitals	-11755
▁catching	-11756
▁certific	-11757
▁chairing	-11758
▁checking	-11759
▁claiming	-11760
▁clearing	-11761
▁cohesive	-11762
▁commerce	-11763
▁complied	-11764
▁confined	-11765
▁dealings	-11766
▁declares	-11767
▁defender	-11768
▁deletion	-11769
▁delivers	-11770
▁demagogy	-11771
▁dementia	-11772
▁denounce	-11773
▁devising	-11774
▁disputed	-11775
▁dreadful	-11776
▁earliest	-11777
▁earnings	-11778
▁educated	-11779
▁enjoying	-11780
▁epidemic	-11781
▁exerting	-11782
▁fairness	-11783
▁freezing	-11784
▁genocide	-11785
▁goodwill	-11786
▁governed	-11787
▁headings	-11788
▁hearings	-11789
▁hectares	-11790
▁helpless	-11791
▁hesitate	-11792
▁homeland	-11793
▁illusion	-11794
▁imminent	-11795
▁incompet	-11796
▁infected	-11797
▁innovate	-11798
▁inspired	-11799
▁interpre	-11800
▁irrevers	-11801
▁issuance	-11802
▁leverage	-11803
▁loophole	-11804
▁maximise	-11805
▁minimise	-11806
▁mitigate	-11807
▁moderate	-11808
▁momentum	-11809
▁murdered	-11810
▁oriented	-11811
▁outlines	-11812
▁outright	-11813
▁pandemic	-11814
▁peculiar	-11815
▁persists	-11816
▁perverse	-11817
▁pointing	-11818
▁policing	-11819
▁polluter	-11820
▁populism	-11821
▁practise	-11822
▁pregnant	-11823
▁prejudge	-11824
▁premiums	-11825
▁probable	-11826
▁reacting	-11827
▁redefine	-11828
▁redouble	-11829
▁refusing	-11830
▁reimburs	-11831
▁reserved	-11832
▁resident	-11833
▁retained	-11834
▁revising	-11835
▁scandals	-11836
▁scarcely	-11837
▁scarcity	-11838
▁schedule	-11839
▁semester	-11840
▁shelters	-11841
▁situated	-11842
▁software	-11843
▁speeding	-11844
▁starving	-11845
▁stubborn	-11846
▁studying	-11847
▁succeeds	-11848
▁systemic	-11849
▁takeover	-11850
▁teaching	-11851
▁thrombin	-11852
▁tortured	-11853
▁tractors	-11854
▁trilogue	-11855
▁unlikely	-11856
▁vagaries	-11857
▁vigilant	-11858
▁waterway	-11859
▁workings	-11860
corruption	-11861
democratic	-11862
iovascular	-11863
negotiable	-11864
ordinarily	-11865
rapporteur	-11866
▁Ahtisaari	-11867
▁Albertini	-11868
▁Andersson	-11869
▁Argentina	-11870
▁Brazilian	-11871
▁Buildings	-11872
▁Chernobyl	-11873
▁Christmas	-11874
▁Communism	-11875
▁Congolese	-11876
▁Countries	-11877
▁Draftsman	-11878
▁Emissions	-11879
▁Executive	-11880
▁Frankfurt	-11881
▁Governing	-11882
▁Grabowska	-11883
▁Greenland	-11884
▁Gualtieri	-11885
▁Guarantee	-11886
▁Guatemala	-11887
▁Islamists	-11888
▁Knowledge	-11889
▁Ljubljana	-11890
▁Palestine	-11891
▁Rasmussen	-11892
▁Singapore	-11893
▁Slovakian	-11894
▁Statement	-11895
▁Stevenson	-11896
▁Strategic	-11897
▁Taiwanese	-11898
▁Tarabella	-11899
▁Temporary	-11900
▁Universal	-11901
▁abilities	-11902
▁accounted	-11903
▁admitting	-11904
▁adoptions	-11905
▁aggregate	-11906
▁allegedly	-11907
▁assertion	-11908
▁attaining	-11909
▁attending	-11910
▁authentic	-11911
▁authorise	-11912
▁benefited	-11913
▁borrowing	-11914
▁breakdown	-11915
▁cancelled	-11916
▁catalogue	-11917
▁cessation	-11918
▁competing	-11919
▁conceived	-11920
▁conducive	-11921
▁converted	-11922
▁corridors	-11923
▁cosmetics	-11924
▁creditors	-11925
▁crucially	-11926
▁decreased	-11927
▁democrats	-11928
▁denounces	-11929
▁designate	-11930
▁desperate	-11931
▁detainees	-11932
▁directors	-11933
▁dismantle	-11934
▁donations	-11935
▁doubtless	-11936
▁draftsmen	-11937
▁dwindling	-11938
▁emotional	-11939
▁entrusted	-11940
▁evolution	-11941
▁extracted	-11942
▁forwarded	-11943
▁generates	-11944
▁graduates	-11945
▁hindering	-11946
▁hospitals	-11947
▁humankind	-11948
▁ignorance	-11949
▁illusions	-11950
▁importers	-11951
▁impressed	-11952
▁infection	-11953
▁injustice	-11954
▁instances	-11955
▁integrity	-11956
▁intensity	-11957
▁interrupt	-11958
▁judiciary	-11959
▁landmines	-11960
▁lobbyists	-11961
▁lucrative	-11962
▁maintains	-11963
▁massacres	-11964
▁mobilised	-11965
▁modernise	-11966
▁occurring	-11967
▁omissions	-11968
▁parasites	-11969
▁passports	-11970
▁persisted	-11971
▁pertinent	-11972
▁pessimism	-11973
▁phenomena	-11974
▁pipelines	-11975
▁platforms	-11976
▁pluralism	-11977
▁polluters	-11978
▁populated	-11979
▁profiling	-11980
▁projected	-11981
▁promoters	-11982
▁purchases	-11983
▁realising	-11984
▁recipient	-11985
▁reconcile	-11986
▁recurring	-11987
▁reforming	-11988
▁regulator	-11989
▁remainder	-11990
▁resultant	-11991
▁retention	-11992
▁selective	-11993
▁shortages	-11994
▁somewhere	-11995
▁sophistic	-11996
▁specially	-11997
▁strongest	-11998
▁suspected	-11999
▁terminals	-12000
▁timescale	-12001
▁tragedies	-12002
▁transpose	-12003
▁travelled	-12004
▁treasures	-12005
▁turbulent	-12006
▁unbridled	-12007
▁undergone	-12008
▁unfailing	-12009
▁unfolding	-12010
▁unwilling	-12011
▁uprisings	-12012
▁vacancies	-12013
▁viewpoint	-12014
▁violently	-12015
▁virtually	-12016
▁weakening	-12017
atisfactory	-12018
ilingualism	-12019
rengthening	-12020
sufficiency	-12021
trovertible	-12022
▁Additional	-12023
▁Azerbaijan	-12024
▁Bulgarians	-12025
▁Communists	-12026
▁Confederal	-12027
▁Directives	-12028
▁Electronic	-12029
▁Foundation	-12030
▁Guidelines	-12031
▁Honourable	-12032
▁Hungarians	-12033
▁Industrial	-12034
▁Kallenbach	-12035
▁Kazakhstan	-12036
▁Kyrgyzstan	-12037
▁Lamassoure	-12038
▁Liberadzki	-12039
▁Maastricht	-12040
▁Macedonian	-12041
▁McGuinness	-12042
▁Personally	-12043
▁Securities	-12044
▁Technology	-12045
▁Throughout	-12046
▁Venezuelan	-12047
▁abandoning	-12048
▁admissible	-12049
▁affordable	-12050
▁aggression	-12051
▁altogether	-12052
▁aspiration	-12053
▁assistants	-12054
▁automobile	-12055
▁beginnings	-12056
▁broadcasts	-12057
▁capability	-12058
▁celebrated	-12059
▁challenged	-12060
▁classified	-12061
▁compassion	-12062
▁comprising	-12063
▁conception	-12064
▁condemning	-12065
▁condolence	-12066
▁confirming	-12067
▁consisting	-12068
▁consulting	-12069
▁converting	-12070
▁cooperates	-12071
▁corrective	-12072
▁crossroads	-12073
▁culturally	-12074
▁decoupling	-12075
▁deliberate	-12076
▁denouncing	-12077
▁deployment	-12078
▁discovered	-12079
▁disruption	-12080
▁distribute	-12081
▁documented	-12082
▁economists	-12083
▁eliminated	-12084
▁emigration	-12085
▁endeavours	-12086
▁enormously	-12087
▁eventually	-12088
▁exorbitant	-12089
▁externally	-12090
▁extraction	-12091
▁favourably	-12092
▁federalist	-12093
▁forcefully	-12094
▁fragmented	-12095
▁fraudsters	-12096
▁harassment	-12097
▁homophobia	-12098
▁homosexual	-12099
▁identifies	-12100
▁identities	-12101
▁illustrate	-12102
▁incredibly	-12103
▁inevitably	-12104
▁infections	-12105
▁infectious	-12106
▁influences	-12107
▁ingredient	-12108
▁interviews	-12109
▁introduces	-12110
▁invitation	-12111
▁kilometres	-12112
▁liberalise	-12113
▁lifestyles	-12114
▁logistical	-12115
▁measurable	-12116
▁mobilising	-12117
▁modernised	-12118
▁modulation	-12119
▁motherhood	-12120
▁motivation	-12121
▁noticeable	-12122
▁objections	-12123
▁occurrence	-12124
▁performing	-12125
▁persistent	-12126
▁physically	-12127
▁possession	-12128
▁prediction	-12129
▁privileged	-12130
▁proclaimed	-12131
▁protesters	-12132
▁publishing	-12133
▁reasonably	-12134
▁rebuilding	-12135
▁reconciled	-12136
▁reconsider	-12137
▁repetition	-12138
▁repressive	-12139
▁requesting	-12140
▁retirement	-12141
▁sentiments	-12142
▁specialist	-12143
▁stipulates	-12144
▁submission	-12145
▁subscribed	-12146
▁substitute	-12147
▁supervised	-12148
▁translated	-12149
▁translates	-12150
▁turbulence	-12151
▁unanswered	-12152
▁undeclared	-12153
▁unquestion	-12154
▁unreserved	-12155
▁unresolved	-12156
▁usefulness	-12157
▁variations	-12158
renticeships	-12159
▁Belarusians	-12160
▁Competition	-12161
▁Directorate	-12162
▁Eurocontrol	-12163
▁Flexibility	-12164
▁Functioning	-12165
▁Multiannual	-12166
▁Papastamkos	-12167
▁Saakashvili	-12168
▁Secretariat	-12169
▁appreciated	-12170
▁attentively	-12171
▁audiovisual	-12172
▁bureaucrats	-12173
▁calculation	-12174
▁checkpoints	-12175
▁complaining	-12176
▁conferences	-12177
▁conjunction	-12178
▁constituent	-12179
▁continually	-12180
▁contradicts	-12181
▁controversy	-12182
▁convenience	-12183
▁cornerstone	-12184
▁cultivation	-12185
▁deportation	-12186
▁derogations	-12187
▁destructive	-12188
▁determining	-12189
▁dictatorial	-12190
▁differently	-12191
▁diminishing	-12192
▁directories	-12193
▁disappeared	-12194
▁discovering	-12195
▁disregarded	-12196
▁encompasses	-12197
▁engineering	-12198
▁enlightened	-12199
▁exacerbated	-12200
▁exaggerated	-12201
▁extradition	-12202
▁facilitated	-12203
▁forecasting	-12204
▁formalities	-12205
▁formulating	-12206
▁humiliation	-12207
▁hydrocarbon	-12208
▁impractical	-12209
▁indignation	-12210
▁inefficient	-12211
▁influencing	-12212
▁ingredients	-12213
▁intolerance	-12214
▁misappropri	-12215
▁modernising	-12216
▁originators	-12217
▁pedestrians	-12218
▁permanently	-12219
▁plantations	-12220
▁predictable	-12221
▁prematurely	-12222
▁problematic	-12223
▁prosecution	-12224
▁provisional	-12225
▁provocation	-12226
▁reconciling	-12227
▁reflections	-12228
▁relocations	-12229
▁resignation	-12230
▁safeguarded	-12231
▁segregation	-12232
▁speculators	-12233
▁statistical	-12234
▁streamlined	-12235
▁strengthens	-12236
▁subsidising	-12237
▁susceptible	-12238
▁theoretical	-12239
▁uncondition	-12240
▁unequivocal	-12241
▁Christianity	-12242
▁Conciliation	-12243
▁Incidentally	-12244
▁Institutions	-12245
▁Khodorkovsky	-12246
▁Specifically	-12247
▁Transnistria	-12248
▁Unemployment	-12249
▁accelerating	-12250
▁accomplished	-12251
▁advantageous	-12252
▁anticipating	-12253
▁architecture	-12254
▁artificially	-12255
▁carcinogenic	-12256
▁constituting	-12257
▁coordinators	-12258
▁displacement	-12259
▁distributors	-12260
▁embarrassing	-12261
▁governmental	-12262
▁historically	-12263
▁hypocritical	-12264
▁imprisonment	-12265
▁inauguration	-12266
▁incorporates	-12267
▁indefinitely	-12268
▁instrumental	-12269
▁intimidation	-12270
▁irregularity	-12271
▁jeopardising	-12272
▁liberalising	-12273
▁manufactured	-12274
▁manufacturer	-12275
▁notification	-12276
▁occupational	-12277
▁participants	-12278
▁preferential	-12279
▁prescriptive	-12280
▁proportional	-12281
▁reallocation	-12282
▁remuneration	-12283
▁shareholders	-12284
▁simultaneous	-12285
▁supermarkets	-12286
▁supplemented	-12287
▁traineeships	-12288
▁transferring	-12289
▁unilaterally	-12290
Counterfeiting	-12291
implementation	-12292
▁Eurobarometer	-12293
▁Liechtenstein	-12294
▁Transatlantic	-12295
▁accommodation	-12296
▁communautaire	-12297
▁complications	-12298
▁concentrating	-12299
▁destabilising	-12300
▁disappearance	-12301
▁dissemination	-12302
▁documentation	-12303
▁falsification	-12304
▁fragmentation	-12305
▁functionality	-12306
▁grandchildren	-12307
▁indispensable	-12308
▁irreplaceable	-12309
▁mismanagement	-12310
▁preconditions	-12311
▁privatisation	-12312
▁professionals	-12313
▁proportionate	-12314
▁psychological	-12315
▁qualification	-12316
▁reinforcement	-12317
▁unjustifiable	-12318
▁unjustifiably	-12319
urodegenerative	-12320
▁Administration	-12321
▁Chatzimarkakis	-12322
▁cardiovascular	-12323
▁contradictions	-12324
▁interdependent	-12325
▁underestimated	-12326
▁administrations	-12327
▁desertification	-12328
▁extraordinarily	-12329
▁interconnection	-12330
▁interdependence	-12331
▁internalisation	-12332
▁nationalisation	-12333
▁notwithstanding	-12334
▁professionalism	-12335
▁unconditionally	-12336
2.5	-12337
2.9	-12338
3%.	-12339
387	-12340
6):	-12341
ASO	-12342
CEF	-12343
CFP	-12344
DIA	-12345
EIB	-12346
ESR	-12347
FID	-12348
FRD	-12349
HEC	-12350
PVV	-12351
Sax	-12352
dno	-12353
eva	-12354
gui	-12355
ijs	-12356
ncz	-12357
oij	-12358
vai	-12359
yma	-12360
▁4,	-12361
▁49	-12362
▁57	-12363
▁6,	-12364
▁62	-12365
▁8,	-12366
▁81	-12367
▁82	-12368
▁zo	-12369
▁zu	-12370
2001	-12371
ASOK	-12372
Casp	-12373
EACE	-12374
EFSA	-12375
ONUS	-12376
SADC	-12377
ahra	-12378
crup	-12379
enza	-12380
geny	-12381
gery	-12382
hets	-12383
iago	-12384
iasm	-12385
ikov	-12386
lamt	-12387
miss	-12388
mony	-12389
obin	-12390
ochb	-12391
oduy	-12392
offs	-12393
ofin	-12394
osni	-12395
ouls	-12396
rapy	-12397
rays	-12398
rels	-12399
▁54	-12400
▁56	-12401
6-00	-12402
EEAS	-12403
reuz	-12404
riga	-12405
supp	-12406
ttes	-12407
urns	-12408
urtz	-12409
witz	-12410
yoto	-12411
yser	-12412
ytos	-12413
zani	-12414
▁(3%	-12415
▁0.4	-12416
▁0.6	-12417
▁1.2	-12418
▁1.7	-12419
▁11,	-12420
▁11-	-12421
▁13,	-12422
▁138	-12423
▁14%	-12424
▁17.	-12425
▁180	-12426
▁2.4	-12427
▁21,	-12428
▁240	-12429
▁25.	-12430
▁260	-12431
▁27.	-12432
▁36,	-12433
▁40.	-12434
▁48,	-12435
▁50,	-12436
▁55,	-12437
▁60%	-12438
▁62,	-12439
▁63,	-12440
▁900	-12441
▁99%	-12442
▁Abd	-12443
▁Afi	-12444
▁Art	-12445
▁CEO	-12446
▁CIP	-12447
▁End	-12448
▁Esp	-12449
▁Exc	-12450
▁FAO	-12451
▁FGM	-12452
▁FRO	-12453
▁Fuk	-12454
▁GNP	-12455
▁Goe	-12456
▁ITS	-12457
▁IUU	-12458
▁JES	-12459
▁Koh	-12460
▁Koz	-12461
▁Kyi	-12462
▁Laj	-12463
▁Lax	-12464
▁Maj	-12465
▁Nav	-12466
▁PBT	-12467
▁SEP	-12468
▁Six	-12469
▁Teh	-12470
▁UNR	-12471
▁VIS	-12472
▁awk	-12473
▁egg	-12474
▁err	-12475
▁irr	-12476
-2010	-12477
-2015	-12478
-2020	-12479
2009,	-12480
Chair	-12481
Inter	-12482
Kyoto	-12483
Peter	-12484
Saxon	-12485
Semit	-12486
adesh	-12487
agasy	-12488
ahrad	-12489
aired	-12490
anaki	-12491
annon	-12492
apses	-12493
athie	-12494
borsk	-12495
calls	-12496
chnya	-12497
cores	-12498
demir	-12499
.00	-12500
efe	-12501
ugu	-12502
yss	-12503
▁32	-12504
▁33	-12505
▁37	-12506
▁39	-12507
fits	-12508
heat	-12509
tese	-12510
tles	-12511
well	-12512
▁136	-12513
▁Def	-12514
▁Raj	-12515
adium	-12516
efied	-12517
empty	-12518
evalu	-12519
feres	-12520
forth	-12521
frame	-12522
fraud	-12523
ggers	-12524
giani	-12525
giver	-12526
heikh	-12527
ibiot	-12528
icked	-12529
igenk	-12530
ilisi	-12531
inema	-12532
inery	-12533
innov	-12534
iracy	-12535
iredo	-12536
iscal	-12537
kerel	-12538
kless	-12539
lener	-12540
loduy	-12541
luged	-12542
maker	-12543
nisch	-12544
ondra	-12545
ondur	-12546
orado	-12547
osses	-12548
ouros	-12549
phine	-12550
ppery	-12551
rague	-12552
recks	-12553
ronts	-12554
rooij	-12555
rooms	-12556
roots	-12557
saved	-12558
sescu	-12559
seven	-12560
sided	-12561
stery	-12562
tdown	-12563
thias	-12564
throw	-12565
ubbed	-12566
ucted	-12567
uneva	-12568
urvis	-12569
uzino	-12570
▁0.3%	-12571
▁1.25	-12572
▁1244	-12573
▁1927	-12574
▁1941	-12575
▁1951	-12576
▁1958	-12577
▁1983	-12578
▁21%.	-12579
▁30%.	-12580
▁35%.	-12581
▁Anne	-12582
▁Arna	-12583
▁Atal	-12584
▁Barb	-12585
▁Bars	-12586
▁Borg	-12587
▁Budd	-12588
▁Burg	-12589
▁CNDP	-12590
▁CRAs	-12591
▁Cash	-12592
▁Cath	-12593
▁Coel	-12594
▁Days	-12595
▁ECHO	-12596
▁EFSA	-12597
▁EHEC	-12598
▁EMAS	-12599
00,	-12600
angl	-12601
bene	-12602
fram	-12603
irkh	-12604
paid	-12605
unte	-12606
▁14,	-12607
▁TAC	-12608
▁Voc	-12609
benef	-12610
luent	-12611
luous	-12612
ogene	-12613
ogram	-12614
ramed	-12615
▁EURO	-12616
▁Eliz	-12617
▁Envo	-12618
▁FTAs	-12619
▁Feio	-12620
▁Goma	-12621
▁Herc	-12622
▁Horn	-12623
▁IPPC	-12624
▁Jobs	-12625
▁Koch	-12626
▁Kohl	-12627
▁LDCs	-12628
▁Lady	-12629
▁Life	-12630
▁Lula	-12631
▁Mikh	-12632
▁Mont	-12633
▁Open	-12634
▁Reul	-12635
▁Rodr	-12636
▁SEPA	-12637
▁SESA	-12638
▁SSGI	-12639
▁Tann	-12640
▁Trak	-12641
▁Trip	-12642
▁Viet	-12643
▁Vigo	-12644
▁anno	-12645
▁brok	-12646
▁cake	-12647
▁cash	-12648
▁cats	-12649
▁coup	-12650
▁crew	-12651
▁diab	-12652
▁dock	-12653
▁dump	-12654
▁ears	-12655
▁elev	-12656
▁erup	-12657
▁fasc	-12658
▁fiss	-12659
▁flat	-12660
▁flav	-12661
▁glob	-12662
▁gulf	-12663
▁hamm	-12664
▁logo	-12665
▁mala	-12666
▁navy	-12667
▁nutr	-12668
▁obsc	-12669
▁odds	-12670
▁olig	-12671
▁owes	-12672
▁patr	-12673
▁pond	-12674
▁poul	-12675
▁suck	-12676
▁synd	-12677
▁unsp	-12678
▁wave	-12679
-2013)	-12680
2009).	-12681
6-0455	-12682
Brazil	-12683
Claude	-12684
Commun	-12685
Intern	-12686
Palest	-12687
Sheikh	-12688
abbles	-12689
abuses	-12690
adenov	-12691
admium	-12692
agoing	-12693
allets	-12694
allium	-12695
amecki	-12696
anians	-12697
apsing	-12698
aptain	-12699
38%	-12700
hov	-12701
alys	-12702
good	-12703
hovt	-12704
ijer	-12705
medi	-12706
soti	-12707
▁18%	-12708
▁280	-12709
▁ENP	-12710
▁Kab	-12711
▁Kim	-12712
▁Kou	-12713
algam	-12714
ossed	-12715
oubon	-12716
trust	-12717
waste	-12718
▁Finn	-12719
▁WEEE	-12720
▁caut	-12721
▁drag	-12722
▁fees	-12723
▁jail	-12724
▁love	-12725
abling	-12726
ailand	-12727
arches	-12728
atuzzo	-12729
berger	-12730
berley	-12731
bilisi	-12732
blocks	-12733
brates	-12734
carria	-12735
change	-12736
commun	-12737
consum	-12738
contam	-12739
credit	-12740
design	-12741
ditary	-12742
esting	-12743
ethnic	-12744
evgeny	-12745
fluous	-12746
global	-12747
guided	-12748
hovtis	-12749
iamand	-12750
icides	-12751
idding	-12752
iforum	-12753
iscipl	-12754
lawful	-12755
levant	-12756
liness	-12757
needed	-12758
nowned	-12759
oiling	-12760
onesia	-12761
onians	-12762
ooking	-12763
ooting	-12764
orries	-12765
othing	-12766
profit	-12767
raphic	-12768
reased	-12769
riding	-12770
rysoti	-12771
tabled	-12772
urtain	-12773
utmann	-12774
visory	-12775
wandan	-12776
worked	-12777
ynthia	-12778
ytosan	-12779
zdemir	-12780
▁(2008	-12781
▁0.38%	-12782
▁11(4)	-12783
▁116):	-12784
▁1325.	-12785
▁2006.	-12786
▁2014,	-12787
▁2014.	-12788
▁Abbas	-12789
▁Adopt	-12790
▁Alain	-12791
▁Artem	-12792
▁Ashra	-12793
▁Assad	-12794
▁Aware	-12795
▁Bowis	-12796
▁Buddh	-12797
▁Busoi	-12798
▁Canad	-12799
Sch	-12800
chy	-12801
lap	-12802
swe	-12803
vez	-12804
▁Ay	-12805
Kool	-12806
ader	-12807
adig	-12808
appy	-12809
chet	-12810
colm	-12811
coop	-12812
usch	-12813
▁(2)	-12814
▁10,	-12815
▁Che	-12816
▁Eth	-12817
▁IAS	-12818
▁Mag	-12819
▁Rab	-12820
▁Suu	-12821
▁lia	-12822
▁sho	-12823
ained	-12824
andes	-12825
antic	-12826
edite	-12827
endar	-12828
happy	-12829
inked	-12830
owers	-12831
roche	-12832
▁1950	-12833
▁Base	-12834
▁Cont	-12835
▁Corn	-12836
▁Ethi	-12837
▁Mess	-12838
▁barb	-12839
▁coff	-12840
▁ener	-12841
▁fant	-12842
▁nich	-12843
▁wool	-12844
7-0207	-12845
geable	-12846
linked	-12847
ospher	-12848
ounder	-12849
▁Aside	-12850
▁Ausch	-12851
▁Carin	-12852
▁Charl	-12853
▁Chast	-12854
▁Coelh	-12855
▁Corre	-12856
▁Doorn	-12857
▁Enter	-12858
▁Envoy	-12859
▁Evalu	-12860
▁Faced	-12861
▁Fajon	-12862
▁Fauna	-12863
▁Figue	-12864
▁Flame	-12865
▁Fland	-12866
▁Flaut	-12867
▁Flora	-12868
▁Franc	-12869
▁Gener	-12870
▁Grant	-12871
▁Hercz	-12872
▁Holod	-12873
▁Hosni	-12874
▁Hutch	-12875
▁ICCAT	-12876
▁Impro	-12877
▁Indic	-12878
▁Innov	-12879
▁Judge	-12880
▁Kenya	-12881
▁Kinga	-12882
▁Kirkh	-12883
▁Kosov	-12884
▁Label	-12885
▁Lange	-12886
▁MEDIA	-12887
▁Major	-12888
▁Malta	-12889
▁Mario	-12890
▁Marty	-12891
▁Mauro	-12892
▁Merke	-12893
▁MiFID	-12894
▁Micha	-12895
▁Micro	-12896
▁Mitro	-12897
▁Niels	-12898
▁Norwe	-12899
REC	-12900
ahl	-12901
hop	-12902
igu	-12903
irs	-12904
omy	-12905
rag	-12906
rei	-12907
run	-12908
she	-12909
who	-12910
won	-12911
▁8(	-12912
▁EG	-12913
▁Eb	-12914
RECO	-12915
adly	-12916
alem	-12917
azon	-12918
ctly	-12919
dain	-12920
ldom	-12921
▁Dem	-12922
▁pul	-12923
▁sow	-12924
▁tie	-12925
enium	-12926
erver	-12927
essly	-12928
illes	-12929
illon	-12930
indle	-12931
inity	-12932
letes	-12933
thood	-12934
vency	-12935
▁Bush	-12936
▁Dahl	-12937
▁Deut	-12938
▁Good	-12939
▁Main	-12940
▁Matt	-12941
▁hind	-12942
▁rejo	-12943
▁sour	-12944
acular	-12945
inaldi	-12946
ionate	-12947
posing	-12948
retion	-12949
ricity	-12950
roport	-12951
▁Edite	-12952
▁Enron	-12953
▁GRECO	-12954
▁Index	-12955
▁Novel	-12956
▁Orden	-12957
▁Osman	-12958
▁PASOK	-12959
▁PEACE	-12960
▁Parma	-12961
▁Plans	-12962
▁Rabat	-12963
▁Rapid	-12964
▁Reduc	-12965
▁Robin	-12966
▁SESAR	-12967
▁Sadly	-12968
▁Sahel	-12969
▁Salih	-12970
▁Salom	-12971
▁Serge	-12972
▁Steel	-12973
▁Sturd	-12974
▁Szyma	-12975
▁Tamil	-12976
▁Total	-12977
▁Treas	-12978
▁Worse	-12979
▁Wurtz	-12980
▁admir	-12981
▁aggra	-12982
▁alien	-12983
▁altar	-12984
▁annul	-12985
▁beaut	-12986
▁boast	-12987
▁bonus	-12988
▁brake	-12989
▁brill	-12990
▁bunch	-12991
▁camer	-12992
▁cloud	-12993
▁craft	-12994
▁deems	-12995
▁delta	-12996
▁dilig	-12997
▁disgu	-12998
▁dogma	-12999
62	-13000
Th	-13001
esc	-13002
igl	-13003
kin	-13004
olk	-13005
rin	-13006
sid	-13007
uce	-13008
▁00	-13009
▁AM	-13010
▁CD	-13011
▁Cs	-13012
▁Jo	-13013
▁Mu	-13014
Fort	-13015
char	-13016
ched	-13017
esta	-13018
euro	-13019
inet	-13020
iras	-13021
leak	-13022
pres	-13023
thal	-13024
▁950	-13025
▁AKP	-13026
▁Cre	-13027
▁Put	-13028
▁ash	-13029
▁les	-13030
▁rab	-13031
Think	-13032
amara	-13033
illar	-13034
▁100,	-13035
▁20%.	-13036
▁Goll	-13037
▁Jace	-13038
▁Lang	-13039
▁Nazi	-13040
▁Tort	-13041
▁ausp	-13042
▁caes	-13043
▁dece	-13044
▁lesb	-13045
▁rash	-13046
▁sore	-13047
etched	-13048
inderg	-13049
orting	-13050
udable	-13051
ulling	-13052
▁Deter	-13053
▁Eurov	-13054
▁Jacek	-13055
▁bleak	-13056
▁blocs	-13057
▁dried	-13058
▁drift	-13059
▁dumps	-13060
▁eager	-13061
▁eased	-13062
▁fauna	-13063
▁filed	-13064
▁files	-13065
▁flies	-13066
▁flora	-13067
▁flour	-13068
▁flown	-13069
▁forci	-13070
▁freed	-13071
▁games	-13072
▁herbs	-13073
▁honey	-13074
▁horse	-13075
▁impet	-13076
▁insol	-13077
▁irrev	-13078
▁lakes	-13079
▁lasts	-13080
▁lever	-13081
▁lifet	-13082
▁logos	-13083
▁lunch	-13084
▁magic	-13085
▁misin	-13086
▁monst	-13087
▁niche	-13088
▁ombud	-13089
▁penet	-13090
▁polls	-13091
▁portf	-13092
▁pound	-13093
▁rally	-13094
▁raped	-13095
▁reads	-13096
▁rebal	-13097
▁refin	-13098
▁relax	-13099
De	-13100
VM	-13101
zz	-13102
Can	-13103
big	-13104
but	-13105
pot	-13106
rim	-13107
tat	-13108
yll	-13109
▁Es	-13110
▁Ho	-13111
drop	-13112
iden	-13113
imed	-13114
luet	-13115
oked	-13116
otic	-13117
poll	-13118
rote	-13119
sely	-13120
utor	-13121
zemb	-13122
▁Eur	-13123
▁Had	-13124
▁Ide	-13125
▁Mac	-13126
▁Ten	-13127
▁ara	-13128
▁bid	-13129
▁rum	-13130
▁spp	-13131
▁wip	-13132
7-023	-13133
ipher	-13134
istle	-13135
ochov	-13136
▁1986	-13137
▁GNSS	-13138
▁Toys	-13139
▁Virr	-13140
▁acid	-13141
▁dogs	-13142
▁load	-13143
▁nets	-13144
▁spot	-13145
▁triv	-13146
Canada	-13147
arzemb	-13148
athieu	-13149
iphery	-13150
mented	-13151
riatic	-13152
stones	-13153
▁greed	-13154
▁heter	-13155
▁memor	-13156
▁notor	-13157
▁rests	-13158
▁rigid	-13159
▁rises	-13160
▁sands	-13161
▁sexes	-13162
▁sixth	-13163
▁skill	-13164
▁souls	-13165
▁steel	-13166
▁stops	-13167
▁straw	-13168
▁stumb	-13169
▁tempe	-13170
▁tenet	-13171
▁tolls	-13172
▁trams	-13173
▁unbel	-13174
▁uncom	-13175
▁utter	-13176
▁verge	-13177
▁versa	-13178
▁waits	-13179
▁waive	-13180
▁walls	-13181
▁white	-13182
▁winds	-13183
▁wrote	-13184
Caspian	-13185
ackaged	-13186
acuzino	-13187
ahradil	-13188
allanan	-13189
amanaki	-13190
antiago	-13191
approve	-13192
atellis	-13193
attered	-13194
avesdro	-13195
benefit	-13196
bitumen	-13197
cardini	-13198
certain	-13199
64	-13200
9.	-13201
IE	-13202
LR	-13203
NO	-13204
NT	-13205
SF	-13206
UI	-13207
eu	-13208
sl	-13209
▁,	-13210
DLR	-13211
NTE	-13212
RUI	-13213
aco	-13214
bre	-13215
eco	-13216
ife	-13217
iki	-13218
non	-13219
onn	-13220
▁IT	-13221
▁Ve	-13222
▁id	-13223
▁kn	-13224
RUID	-13225
five	-13226
▁(4)	-13227
▁14.	-13228
▁16.	-13229
▁190	-13230
▁Ahm	-13231
▁COB	-13232
▁Gor	-13233
▁pam	-13234
▁sky	-13235
anium	-13236
break	-13237
enter	-13238
guard	-13239
isive	-13240
oponn	-13241
thank	-13242
▁COBU	-13243
▁FDLR	-13244
▁fest	-13245
▁inse	-13246
▁loan	-13247
▁poke	-13248
▁BONUS	-13249
▁DRUID	-13250
▁cater	-13251
▁nofly	-13252
▁pamph	-13253
▁taxed	-13254
annikov	-13255
counter	-13256
culosis	-13257
driving	-13258
eloponn	-13259
elrooij	-13260
faceted	-13261
fidence	-13262
holding	-13263
idering	-13264
ignette	-13265
ilisers	-13266
inction	-13267
journed	-13268
lapping	-13269
liments	-13270
nocking	-13271
ochovce	-13272
ocratic	-13273
olation	-13274
omestic	-13275
onymous	-13276
pically	-13277
putting	-13278
quiries	-13279
raining	-13280
reaming	-13281
reeding	-13282
renched	-13283
surance	-13284
urrence	-13285
venting	-13286
▁Across	-13287
▁Ashraf	-13288
▁Athens	-13289
▁Atomic	-13290
▁Baring	-13291
▁Beyond	-13292
▁Bowles	-13293
▁Chairs	-13294
▁Claude	-13295
▁Coelho	-13296
▁Czechs	-13297
▁Davies	-13298
▁Deprez	-13299
,'	-13300
CF	-13301
sy	-13302
sz	-13303
ym	-13304
zy	-13305
FSP	-13306
GDP	-13307
icz	-13308
ige	-13309
jad	-13310
nik	-13311
uni	-13312
why	-13313
xed	-13314
Roma	-13315
anta	-13316
bing	-13317
eing	-13318
etes	-13319
extr	-13320
oski	-13321
▁Gil	-13322
▁cuc	-13323
▁inm	-13324
▁pal	-13325
alist	-13326
asive	-13327
ataky	-13328
cofin	-13329
mouth	-13330
▁CFSP	-13331
▁Tele	-13332
▁sixt	-13333
Pataky	-13334
icions	-13335
iewicz	-13336
iftier	-13337
uthors	-13338
▁Gilad	-13339
▁Khart	-13340
▁Water	-13341
▁alive	-13342
▁overb	-13343
▁overp	-13344
▁pages	-13345
▁prest	-13346
▁slave	-13347
▁wreck	-13348
ankoski	-13349
authors	-13350
entials	-13351
ivities	-13352
ousands	-13353
protect	-13354
▁Afiuni	-13355
▁Deputy	-13356
▁Durban	-13357
▁Ecofin	-13358
▁Eighty	-13359
▁Elimin	-13360
▁Esther	-13361
▁FRONTE	-13362
▁Fukush	-13363
▁Gahler	-13364
▁Graefe	-13365
▁Greeks	-13366
▁Grodno	-13367
▁Helmut	-13368
▁Hondur	-13369
▁Immedi	-13370
▁Import	-13371
▁Jalili	-13372
▁Jewish	-13373
▁Kuneva	-13374
▁Langen	-13375
▁Marcin	-13376
▁Meijer	-13377
▁Merkel	-13378
▁Modern	-13379
▁Morvai	-13380
▁Motors	-13381
▁Object	-13382
▁Observ	-13383
▁Ortega	-13384
▁Papand	-13385
▁Piebal	-13386
▁Police	-13387
▁Prague	-13388
▁Propos	-13389
▁Purvis	-13390
▁Sheikh	-13391
▁Subsid	-13392
▁Survey	-13393
▁Tamils	-13394
▁Territ	-13395
▁Toubon	-13396
▁Traian	-13397
▁UNESCO	-13398
▁Vessel	-13399
3)	-13400
49	-13401
87	-13402
DR	-13403
EG	-13404
fl	-13405
rd	-13406
IIA	-13407
eye	-13408
iak	-13409
ieg	-13410
▁tw	-13411
illo	-13412
lika	-13413
omal	-13414
step	-13415
▁Bou	-13416
▁Ild	-13417
▁gig	-13418
▁gun	-13419
micro	-13420
▁(...	-13421
▁Best	-13422
▁Cant	-13423
▁Gieg	-13424
▁Iron	-13425
▁Stra	-13426
▁Tony	-13427
▁Were	-13428
▁chur	-13429
▁dens	-13430
▁hast	-13431
▁lain	-13432
▁quar	-13433
frames	-13434
ublika	-13435
▁(...)	-13436
▁Crown	-13437
▁Lochb	-13438
▁hasty	-13439
▁stagn	-13440
▁timid	-13441
▁unrel	-13442
imation	-13443
imposed	-13444
staking	-13445
▁Jensen	-13446
▁Vondra	-13447
▁absorb	-13448
▁accede	-13449
▁anomal	-13450
▁arouse	-13451
▁artist	-13452
▁assemb	-13453
▁attrib	-13454
▁ballot	-13455
▁behave	-13456
▁bitter	-13457
▁blackm	-13458
▁bosses	-13459
▁bridge	-13460
▁broker	-13461
▁bullet	-13462
▁capped	-13463
▁casual	-13464
▁cereal	-13465
▁church	-13466
▁cinema	-13467
▁comput	-13468
▁conned	-13469
▁consec	-13470
▁cybers	-13471
▁decree	-13472
▁defect	-13473
▁desert	-13474
▁detect	-13475
▁dinner	-13476
▁disbur	-13477
▁doctor	-13478
▁dreams	-13479
▁earned	-13480
▁exterm	-13481
▁feeble	-13482
▁flawed	-13483
▁flying	-13484
▁focuss	-13485
▁format	-13486
▁forums	-13487
▁framed	-13488
▁fronts	-13489
▁fuller	-13490
▁futile	-13491
▁golden	-13492
▁guards	-13493
▁handic	-13494
▁headed	-13495
▁heeded	-13496
▁hiding	-13497
▁holder	-13498
▁hugely	-13499
.4	-13500
CM	-13501
El	-13502
No	-13503
hs	-13504
zk	-13505
ena	-13506
esk	-13507
ham	-13508
hem	-13509
rec	-13510
uze	-13511
zon	-13512
▁47	-13513
anto	-13514
drug	-13515
lude	-13516
▁32.	-13517
▁CRS	-13518
▁ECO	-13519
▁EPP	-13520
▁eve	-13521
▁mun	-13522
ental	-13523
essed	-13524
issau	-13525
optic	-13526
style	-13527
venly	-13528
▁Conv	-13529
▁Fava	-13530
▁Name	-13531
▁Toia	-13532
▁bugs	-13533
▁hint	-13534
▁trif	-13535
Bissau	-13536
ainted	-13537
import	-13538
thirds	-13539
uregui	-13540
▁1989,	-13541
▁Orlov	-13542
▁Plant	-13543
▁River	-13544
▁debat	-13545
▁sober	-13546
earable	-13547
▁Church	-13548
▁Coptic	-13549
▁Graham	-13550
▁breast	-13551
▁concur	-13552
▁freeze	-13553
▁hungry	-13554
▁hyster	-13555
▁inextr	-13556
▁infall	-13557
▁insign	-13558
▁insuff	-13559
▁inviol	-13560
▁lastly	-13561
▁lawful	-13562
▁lessen	-13563
▁lethal	-13564
▁levers	-13565
▁lifted	-13566
▁lodged	-13567
▁losers	-13568
▁merges	-13569
▁misery	-13570
▁multic	-13571
▁nightm	-13572
▁nomads	-13573
▁panels	-13574
▁patchy	-13575
▁phases	-13576
▁photos	-13577
▁pieces	-13578
▁portal	-13579
▁posing	-13580
▁priest	-13581
▁priori	-13582
▁prover	-13583
▁psycho	-13584
▁rarely	-13585
▁realms	-13586
▁reluct	-13587
▁replen	-13588
▁resume	-13589
▁reveal	-13590
▁revolt	-13591
▁rigour	-13592
▁rocket	-13593
▁savers	-13594
▁screen	-13595
▁seamen	-13596
▁seeker	-13597
▁seldom	-13598
▁sharks	-13599
6)	-13600
GA	-13601
Ms	-13602
RI	-13603
Con	-13604
eal	-13605
iis	-13606
lor	-13607
oes	-13608
oor	-13609
oum	-13610
ril	-13611
sub	-13612
tes	-13613
▁ol	-13614
7-03	-13615
cian	-13616
isit	-13617
▁170	-13618
▁188	-13619
▁Pos	-13620
▁anc	-13621
▁bes	-13622
▁fer	-13623
anges	-13624
apons	-13625
bound	-13626
ctive	-13627
▁BSEC	-13628
▁Carl	-13629
▁Dear	-13630
▁Edit	-13631
▁Five	-13632
▁Riis	-13633
▁evid	-13634
▁keys	-13635
▁peer	-13636
▁plug	-13637
▁town	-13638
ealand	-13639
iative	-13640
▁Bangl	-13641
▁Proof	-13642
▁Three	-13643
▁blown	-13644
▁hedge	-13645
▁olive	-13646
▁petty	-13647
▁plane	-13648
▁supra	-13649
▁unpro	-13650
alemate	-13651
million	-13652
ortmann	-13653
▁Anyway	-13654
▁Cathol	-13655
▁Desert	-13656
▁Possel	-13657
▁Sturdy	-13658
▁Theres	-13659
▁cruise	-13660
▁lively	-13661
▁merger	-13662
▁reacts	-13663
▁shrill	-13664
▁silent	-13665
▁sludge	-13666
▁sorrow	-13667
▁sowing	-13668
▁spells	-13669
▁square	-13670
▁stored	-13671
▁strang	-13672
▁sweets	-13673
▁taxing	-13674
▁teleph	-13675
▁temple	-13676
▁termed	-13677
▁textbo	-13678
▁thirst	-13679
▁thrust	-13680
▁timesh	-13681
▁tracks	-13682
▁traded	-13683
▁tradem	-13684
▁trades	-13685
▁trials	-13686
▁trigge	-13687
▁unduly	-13688
▁unreal	-13689
▁urging	-13690
▁vacant	-13691
▁vanill	-13692
▁versus	-13693
▁volcan	-13694
▁waited	-13695
▁warned	-13696
▁weaker	-13697
▁widest	-13698
▁worded	-13699
KK	-13700
TC	-13701
gr	-13702
Mar	-13703
NEA	-13704
aks	-13705
ask	-13706
ica	-13707
ouy	-13708
sea	-13709
▁ER	-13710
date	-13711
guez	-13712
olce	-13713
omer	-13714
rade	-13715
rams	-13716
reou	-13717
▁176	-13718
▁42%	-13719
▁47,	-13720
▁Fas	-13721
▁Kol	-13722
▁Nag	-13723
▁PKK	-13724
▁mag	-13725
▁mes	-13726
▁oen	-13727
adors	-13728
eding	-13729
ented	-13730
icing	-13731
inces	-13732
ouyet	-13733
▁Deep	-13734
▁Drug	-13735
▁ERDF	-13736
▁ESMA	-13737
▁Hood	-13738
▁Pere	-13739
▁beat	-13740
▁bees	-13741
▁pall	-13742
▁peel	-13743
▁solo	-13744
▁stif	-13745
▁tail	-13746
Americ	-13747
ancell	-13748
itated	-13749
olceta	-13750
opters	-13751
▁Recon	-13752
▁abund	-13753
▁addit	-13754
▁buyer	-13755
amation	-13756
arlords	-13757
finance	-13758
through	-13759
▁Jouyet	-13760
▁execut	-13761
▁manure	-13762
▁seabed	-13763
▁wounds	-13764
▁writer	-13765
▁writes	-13766
Fortress	-13767
Internet	-13768
Mercosur	-13769
Pakistan	-13770
Schengen	-13771
agonists	-13772
agricult	-13773
allstein	-13774
ancellor	-13775
approval	-13776
assroots	-13777
ceptably	-13778
ceptibly	-13779
changing	-13780
conomics	-13781
continue	-13782
contract	-13783
criminal	-13784
dictions	-13785
egrating	-13786
election	-13787
energise	-13788
ensional	-13789
ensurate	-13790
entioned	-13791
errorism	-13792
erscores	-13793
examined	-13794
ibiotics	-13795
iculture	-13796
ightened	-13797
istorted	-13798
measures	-13799
-15	-13800
CSU	-13801
gel	-13802
mix	-13803
ras	-13804
rie	-13805
▁42	-13806
▁nu	-13807
ildt	-13808
▁Cal	-13809
▁row	-13810
astic	-13811
inson	-13812
▁20%,	-13813
▁Tart	-13814
▁chip	-13815
▁grew	-13816
▁lect	-13817
▁sham	-13818
▁shif	-13819
reated	-13820
strial	-13821
uation	-13822
▁2002,	-13823
▁Bildt	-13824
▁Comor	-13825
▁Lehne	-13826
▁admin	-13827
▁ambul	-13828
▁negot	-13829
▁smoke	-13830
▁spies	-13831
▁store	-13832
▁traum	-13833
alcohol	-13834
outakis	-13835
▁Keyser	-13836
▁achiev	-13837
▁calmly	-13838
▁commem	-13839
▁uneasy	-13840
mittedly	-13841
ogeneous	-13842
ospheric	-13843
printing	-13844
reliance	-13845
restrial	-13846
retation	-13847
romantic	-13848
rysotile	-13849
speaking	-13850
stically	-13851
thinking	-13852
unifying	-13853
utocracy	-13854
visioned	-13855
▁Airport	-13856
▁Alcohol	-13857
▁Armenia	-13858
▁Bananas	-13859
▁Captain	-13860
▁Cashman	-13861
▁Caspian	-13862
▁Chastel	-13863
▁Collect	-13864
▁Congrat	-13865
▁Correia	-13866
▁Curtain	-13867
▁Defence	-13868
▁Diamand	-13869
▁Dolceta	-13870
▁Effects	-13871
▁Efforts	-13872
▁Fatuzzo	-13873
▁Federal	-13874
▁Finnish	-13875
▁Garriga	-13876
▁Georgie	-13877
▁Giannak	-13878
▁Giegold	-13879
▁Grosset	-13880
▁Herczog	-13881
▁Jacques	-13882
▁Jarzemb	-13883
▁Leading	-13884
▁Looking	-13885
▁Mahmoud	-13886
▁Malcolm	-13887
▁Maltese	-13888
▁Manders	-13889
▁Markets	-13890
▁Mathieu	-13891
▁Michael	-13892
▁Mikhail	-13893
▁Missing	-13894
▁Nothing	-13895
▁Pending	-13896
▁Posselt	-13897
▁Request	-13898
▁Respect	-13899
sm	-13900
uf	-13901
acc	-13902
rot	-13903
rue	-13904
six	-13905
udf	-13906
▁5.	-13907
▁86	-13908
▁Ek	-13909
▁oh	-13910
oded	-13911
odes	-13912
raud	-13913
rome	-13914
yard	-13915
▁13%	-13916
▁23%	-13917
▁Fam	-13918
▁Imp	-13919
▁Lob	-13920
▁Out	-13921
▁Upp	-13922
▁hoc	-13923
ctory	-13924
depth	-13925
▁1967	-13926
▁Ludf	-13927
▁Plat	-13928
▁band	-13929
▁gist	-13930
▁mini	-13931
▁scra	-13932
ommend	-13933
orates	-13934
▁0.41%	-13935
▁1962.	-13936
▁Simpl	-13937
▁mafia	-13938
▁monks	-13939
▁slope	-13940
▁spade	-13941
▁waged	-13942
endment	-13943
pointed	-13944
poverty	-13945
pproche	-13946
▁Azores	-13947
▁Dalits	-13948
▁Iraqis	-13949
▁Record	-13950
▁accrue	-13951
▁noting	-13952
inations	-13953
▁Ludford	-13954
▁Returns	-13955
▁Rinaldi	-13956
▁Rwandan	-13957
▁Samecki	-13958
▁Schools	-13959
▁Section	-13960
▁Tannock	-13961
▁Tbilisi	-13962
▁Torture	-13963
▁Ugandan	-13964
▁Vietnam	-13965
▁Volunte	-13966
▁Weapons	-13967
▁adhered	-13968
▁affront	-13969
▁aggress	-13970
▁analges	-13971
▁arrives	-13972
▁assumes	-13973
▁assumpt	-13974
▁audited	-13975
▁avenues	-13976
▁awaited	-13977
▁awkward	-13978
▁banners	-13979
▁benches	-13980
▁blowing	-13981
▁bolster	-13982
▁bottles	-13983
▁boycott	-13984
▁briefed	-13985
▁brother	-13986
▁bubbles	-13987
▁cadmium	-13988
▁cameras	-13989
▁carrier	-13990
▁centred	-13991
▁checked	-13992
▁chooses	-13993
▁cloning	-13994
▁college	-13995
▁conceal	-13996
▁confers	-13997
▁conglom	-13998
▁conquer	-13999
rm	-14000
yg	-14001
kes	-14002
▁2,	-14003
▁55	-14004
▁Hu	-14005
▁RA	-14006
6-01	-14007
6-03	-14008
Loud	-14009
alla	-14010
enue	-14011
fall	-14012
loqu	-14013
▁Bay	-14014
▁Bor	-14015
▁ECJ	-14016
▁Gen	-14017
▁Hit	-14018
▁Hud	-14019
▁Jia	-14020
▁Rat	-14021
▁Rou	-14022
▁eup	-14023
isors	-14024
▁Mind	-14025
▁doom	-14026
▁fake	-14027
▁fora	-14028
2010).	-14029
ensual	-14030
icuous	-14031
▁Barsi	-14032
▁Urban	-14033
▁clout	-14034
▁eloqu	-14035
▁fault	-14036
▁imper	-14037
▁incur	-14038
▁motto	-14039
▁novel	-14040
▁prepa	-14041
▁stamp	-14042
cutting	-14043
ievable	-14044
▁Castro	-14045
▁Karach	-14046
▁butter	-14047
▁insure	-14048
▁rebels	-14049
▁reside	-14050
▁sharia	-14051
▁spiral	-14052
▁wooded	-14053
▁Deutsch	-14054
▁Karachi	-14055
▁Species	-14056
▁couples	-14057
▁critics	-14058
▁cumbers	-14059
▁curbing	-14060
▁cynical	-14061
▁dealers	-14062
▁defraud	-14063
▁defunct	-14064
▁deluged	-14065
▁demagog	-14066
▁demilit	-14067
▁densely	-14068
▁density	-14069
▁denying	-14070
▁deprive	-14071
▁desires	-14072
▁despair	-14073
▁devised	-14074
▁disband	-14075
▁discern	-14076
▁discrep	-14077
▁disdain	-14078
▁dissoci	-14079
▁doctors	-14080
▁edifice	-14081
▁emancip	-14082
▁emotion	-14083
▁emotive	-14084
▁empower	-14085
▁enacted	-14086
▁endemic	-14087
▁equates	-14088
▁ethanol	-14089
▁exclude	-14090
▁exiting	-14091
▁fiction	-14092
▁filling	-14093
▁fissile	-14094
▁fitting	-14095
▁flavour	-14096
▁flowing	-14097
▁fuelled	-14098
▁gastron	-14099
SIS	-14100
ogh	-14101
ola	-14102
tty	-14103
▁3,	-14104
▁Ce	-14105
▁ox	-14106
bast	-14107
dorf	-14108
itty	-14109
mert	-14110
oves	-14111
recy	-14112
unge	-14113
▁137	-14114
▁145	-14115
▁18,	-14116
▁208	-14117
▁aeg	-14118
▁omn	-14119
▁que	-14120
▁ush	-14121
Calls	-14122
atisf	-14123
orial	-14124
stick	-14125
▁Dess	-14126
▁Wars	-14127
▁asks	-14128
▁defe	-14129
▁fuss	-14130
▁pole	-14131
▁song	-14132
-20-20	-14133
arhead	-14134
inence	-14135
licity	-14136
▁(2007	-14137
▁1997.	-14138
▁Anglo	-14139
▁Klamt	-14140
▁Klaus	-14141
▁Limes	-14142
▁Would	-14143
▁aegis	-14144
▁prime	-14145
cements	-14146
ensical	-14147
gnitive	-14148
▁110(2)	-14149
▁Fiscal	-14150
▁Sebast	-14151
▁Tehran	-14152
▁crunch	-14153
▁enters	-14154
▁houses	-14155
▁plunge	-14156
▁pretty	-14157
▁unfore	-14158
ursement	-14159
▁Shannon	-14160
▁Warrant	-14161
▁buttons	-14162
▁employs	-14163
▁gateway	-14164
▁glossed	-14165
▁graphic	-14166
▁greeted	-14167
▁habitat	-14168
▁halting	-14169
▁handles	-14170
▁happily	-14171
▁harbour	-14172
▁hardest	-14173
▁harming	-14174
▁harmony	-14175
▁harness	-14176
▁holders	-14177
▁hostile	-14178
▁ignores	-14179
▁illicit	-14180
▁impasse	-14181
▁impetus	-14182
▁implied	-14183
▁implies	-14184
▁inmates	-14185
▁inspire	-14186
▁intrans	-14187
▁invests	-14188
▁irrevoc	-14189
▁isolate	-14190
▁judging	-14191
▁kinderg	-14192
▁letters	-14193
▁letting	-14194
▁library	-14195
▁loading	-14196
▁located	-14197
▁lorries	-14198
▁loudest	-14199
ubs	-14200
apes	-14201
aque	-14202
ogus	-14203
▁58,	-14204
▁EAW	-14205
▁Mur	-14206
▁Toy	-14207
▁bed	-14208
▁ram	-14209
▁rub	-14210
emeta	-14211
munia	-14212
▁000,	-14213
▁Andr	-14214
▁Bern	-14215
▁Cord	-14216
▁Lord	-14217
▁Nist	-14218
▁Soil	-14219
▁lamb	-14220
▁outd	-14221
▁plag	-14222
▁pubs	-14223
▁vice	-14224
cessed	-14225
earing	-14226
erness	-14227
ithert	-14228
opular	-14229
▁Ernst	-14230
▁accur	-14231
▁bogus	-14232
▁breat	-14233
▁ozone	-14234
▁radar	-14235
▁reign	-14236
▁voter	-14237
heating	-14238
istence	-14239
itherto	-14240
▁Mattel	-14241
▁deepen	-14242
▁echoed	-14243
▁expire	-14244
▁fished	-14245
▁opaque	-14246
▁preach	-14247
▁recast	-14248
▁scenes	-14249
▁street	-14250
▁wholes	-14251
▁Almunia	-14252
▁asserts	-14253
▁beating	-14254
▁doubled	-14255
▁eagerly	-14256
▁madness	-14257
▁malaise	-14258
▁mankind	-14259
▁married	-14260
▁mediate	-14261
▁melting	-14262
▁mindset	-14263
▁miracle	-14264
▁moments	-14265
▁motives	-14266
▁muscles	-14267
▁notable	-14268
▁obliges	-14269
▁omitted	-14270
▁onboard	-14271
▁opposes	-14272
▁ovation	-14273
▁overlap	-14274
▁paradig	-14275
▁passage	-14276
▁passive	-14277
▁phrases	-14278
▁pillage	-14279
▁pledged	-14280
▁pockets	-14281
▁posting	-14282
▁poultry	-14283
▁pouring	-14284
▁praised	-14285
▁pressed	-14286
▁pricing	-14287
▁prisons	-14288
▁prosper	-14289
▁proverb	-14290
▁provoke	-14291
▁pursues	-14292
▁qualify	-14293
▁quantum	-14294
▁quoting	-14295
▁realism	-14296
▁receipt	-14297
▁recycle	-14298
▁renders	-14299
MT	-14300
-25	-14301
got	-14302
aked	-14303
blow	-14304
cket	-14305
full	-14306
iang	-14307
pace	-14308
play	-14309
rets	-14310
ysts	-14311
▁Der	-14312
▁IMO	-14313
▁Mis	-14314
▁TBT	-14315
▁tit	-14316
anied	-14317
arios	-14318
losed	-14319
oving	-14320
peace	-14321
uperv	-14322
▁2050	-14323
▁Aung	-14324
▁Gijs	-14325
▁Look	-14326
▁Note	-14327
▁club	-14328
▁clum	-14329
▁peak	-14330
▁rice	-14331
▁spur	-14332
▁tree	-14333
holder	-14334
▁Bauer	-14335
▁bread	-14336
▁cling	-14337
▁corps	-14338
▁fills	-14339
▁lodge	-14340
▁naked	-14341
▁necks	-14342
▁norms	-14343
▁perse	-14344
▁solar	-14345
ificant	-14346
missile	-14347
▁arable	-14348
▁brands	-14349
▁disres	-14350
▁insert	-14351
▁mature	-14352
▁overse	-14353
▁perple	-14354
▁stones	-14355
▁Adjourn	-14356
▁Balzani	-14357
▁Natural	-14358
▁curtain	-14359
▁fallout	-14360
▁preside	-14361
▁reacted	-14362
▁replied	-14363
▁restart	-14364
▁resting	-14365
▁resumed	-14366
▁retains	-14367
▁returns	-14368
▁reviews	-14369
▁revisit	-14370
▁rockets	-14371
▁schoolm	-14372
▁screens	-14373
▁secrecy	-14374
▁seventh	-14375
▁shelved	-14376
▁soldier	-14377
▁sorting	-14378
▁specify	-14379
▁sponsor	-14380
▁spouses	-14381
▁spreads	-14382
▁spurred	-14383
▁squeeze	-14384
▁stadium	-14385
▁staunch	-14386
▁stoning	-14387
▁straits	-14388
▁suckler	-14389
▁suffice	-14390
▁supreme	-14391
▁suspend	-14392
▁swindle	-14393
▁synergy	-14394
▁tackles	-14395
▁tactics	-14396
▁teaches	-14397
▁tenders	-14398
▁therapy	-14399
inda	-14400
▁toy	-14401
▁Pred	-14402
▁cite	-14403
2009),	-14404
embers	-14405
▁assim	-14406
▁grips	-14407
ictions	-14408
▁racial	-14409
▁worlds	-14410
▁Flautre	-14411
▁durable	-14412
▁patrons	-14413
▁seminar	-14414
▁thirdly	-14415
▁tickets	-14416
▁torrent	-14417
▁touches	-14418
▁tourist	-14419
▁tractor	-14420
▁trigger	-14421
▁trivial	-14422
▁unequal	-14423
▁unhappy	-14424
[...]
