<pad>	0
</s>	0
<unk>	0
¦	-1.23964
▁¦	-1.25536
के	-4.37028
है	-4.72076
▁़	-4.82025
▁।	-4.87715
में	-4.87994
▁,	-4.94161
और	-4.97123
की	-4.99658
से	-5.15281
को	-5.18027
ी	-5.1843
का	-5.33093
ों	-5.41861
े	-5.47845
ा	-5.53549
▁(	-5.56626
कि	-5.59731
▁)	-5.6233
ने	-5.65039
न	-5.80057
पर	-5.88916
हैं	-5.93571
कर	-5.97379
-	-5.98022
लिए	-5.98303
▁.	-5.99901
उस	-6.01451
एक	-6.02854
क	-6.05071
इस	-6.05845
या	-6.15598
तो	-6.20046
ता	-6.21196
जो	-6.23083
हो	-6.24131
नहीं	-6.25099
ित	-6.26147
भी	-6.26653
▁	-6.30587
उन	-6.31341
ं	-6.49788
यह	-6.50185
किया	-6.51068
ई	-6.5424
अ	-6.54911
ही	-6.55578
तुम	-6.61136
वह	-6.62207
करने	-6.6669
ज	-6.70925
ना	-6.78282
हम	-6.7847
ख	-6.79845
à	-6.84531
𐋇	-6.86625
अपने	-6.89083
था	-6.89919
फ	-6.93407
जिस	-6.97753
वे	-6.98959
ल	-6.9955
स	-6.99778
त	-7.00195
ये	-7.03461
तथा	-7.06682
गया	-7.08624
म	-7.09325
कुछ	-7.11882
ते	-7.13688
ओं	-7.14509
किसी	-7.15647
र	-7.16514
रूप	-7.17942
साथ	-7.21134
जब	-7.23515
ए	-7.25675
व	-7.28962
थे	-7.34534
द्वारा	-7.35389
आप	-7.35476
भारत	-7.35983
करते	-7.36317
लोग	-7.3712
िक	-7.38352
लोगों	-7.40309
आ	-7.41388
ग	-7.41655
जा	-7.42601
तक	-7.43844
्हें	-7.44338
जाता	-7.4512
हमार	-7.465
▁¤	-7.46794
ले	-7.47288
फिर	-7.48133
इन	-7.48273
ियों	-7.48298
मैं	-7.48422
▁"	-7.50017
क्या	-7.50218
करें	-7.50971
दिया	-7.51312
s	-7.54584
करना	-7.54632
▁्	-7.56147
कहा	-7.56592
ुदा	-7.56899
दे	-7.57568
अपनी	-7.59318
ल्लाह	-7.60115
दो	-7.60489
▁?	-7.62758
/	-7.63394
हुए	-7.63591
थी	-7.63689
द	-7.66236
बात	-7.67663
रहे	-7.68302
ः	-7.69628
ें	-7.7055
्	-7.70895
ड	-7.71082
▁;	-7.72266
समय	-7.73231
करता	-7.74205
सकता	-7.75256
बड	-7.77371
अधिक	-7.78058
वाले	-7.78491
होता	-7.79267
रहा	-7.79364
कार्य	-7.80819
ती	-7.82867
य	-7.83638
ण	-7.83773
ि	-7.84678
ऐ	-7.85447
वि	-7.85521
पास	-7.86033
ला	-7.87027
बना	-7.87295
बहुत	-7.88405
बाद	-7.89333
ह	-7.92275
सी	-7.9253
ीय	-7.92975
ो	-7.93106
ब	-7.94204
तरह	-7.94272
दी	-7.94367
उन्होंन	-7.96488
हुआ	-7.97653
गए	-7.98356
क्षेत्र	-7.99862
तुम्हारे	-8.0022
उ	-8.007
काम	-8.02215
▁¦_¦	-8.02305
दिन	-8.02392
▁'	-8.02437
यदि	-8.03678
सब	-8.04013
राष्ट्रपति	-8.04288
होने	-8.04835
अन्य	-8.06159
प्राप्त	-8.06191
उनकी	-8.07061
वर्ष	-8.07486
होगा	-8.07853
पहले	-8.07971
जिन	-8.08304
श	-8.0832
सा	-8.08519
ओर	-8.10215
गई	-8.11052
ऐसे	-8.11055
वाला	-8.113
सभी	-8.11308
▁%	-8.12827
प्रकार	-8.14413
नाम	-8.15704
संबंध	-8.15851
सरकार	-8.15996
कम	-8.16171
सकते	-8.16565
जाने	-8.17729
प्र	-8.17732
राज्य	-8.17914
करो	-8.17957
कारण	-8.18315
अगर	-8.18711
बढ	-8.19436
𐊣	-8.19779
𐊼	-8.19779
मान	-8.20125
बार	-8.20144
व्यक्ति	-8.21285
चाहिए	-8.2202
एव	-8.22649
देश	-8.22967
होती	-8.23408
प	-8.23645
प्रति	-8.23986
▁:	-8.24384
हर	-8.24466
कार	-8.24474
पड	-8.24531
ऐसा	-8.26101
क्यों	-8.2763
रसूल	-8.27738
भारतीय	-8.28624
कह	-8.30216
जी	-8.30719
मुझे	-8.31448
भाग	-8.3187
पूर्व	-8.32069
.	-8.32889
a	-8.33871
प्रदान	-8.34699
अब	-8.35903
लिया	-8.37284
एं	-8.39577
ट	-8.39863
दोनो	-8.40254
ां	-8.40942
अपना	-8.41742
जाती	-8.41798
विकास	-8.4214
पूर्ण	-8.42174
जीवन	-8.42261
होते	-8.42385
नी	-8.42705
भ	-8.43168
जैसे	-8.43621
रह	-8.44549
‍	-8.4728
रही	-8.48042
रब	-8.48687
उपयोग	-8.48734
हुई	-8.49572
सं	-8.49756
श्री	-8.51224
ाई	-8.5129
ईमान	-8.51436
यों	-8.51882
बारे	-8.52279
जान	-8.52831
बीच	-8.53242
चीज	-8.53285
सेवा	-8.53667
देख	-8.54595
स्थान	-8.5486
मेरे	-8.5526
माल	-8.55523
▁¦1¦	-8.55785
अनु	-8.56224
आज	-8.56549
मत	-8.56703
▁!	-8.56836
पैदा	-8.57366
ेकिन	-8.57523
लगा	-8.57843
विचार	-8.58651
हूँ	-8.59521
छ	-8.5958
आग	-8.59901
देने	-8.60141
सु	-8.60262
दूसरे	-8.60472
अधिनियम	-8.60612
▁।"	-8.61785
मे	-8.61863
िंग	-8.625
बन	-8.63207
च	-8.63383
▁-	-8.63465
ली	-8.63684
छोड	-8.64517
जाएगा	-8.64536
बाहर	-8.64584
ऐस	-8.64678
जाना	-8.65038
्स	-8.65052
ओ	-8.65683
वाली	-8.65973
थवा	-8.66241
योजना	-8.67035
रा	-8.68066
हमें	-8.68152
वही	-8.6832
इसे	-8.6888
जाए	-8.68893
पी	-8.69511
चल	-8.6983
केवल	-8.69968
बस	-8.70289
शक्ति	-8.70321
राष्ट्रीय	-8.70385
्य	-8.70542
सहाय	-8.7076
विशेष	-8.71582
रख	-8.72536
उप	-8.7316
पा	-8.73339
भेज	-8.73591
स्थिति	-8.74052
री	-8.74309
उसी	-8.74601
सबसे	-8.74846
आधार	-8.75183
समझ	-8.75505
प्रयोग	-8.7597
मेरी	-8.76012
▁¥	-8.76613
कभी	-8.76924
लो	-8.77454
धारा	-8.77679
m	-8.7815
तब	-8.78225
सूचना	-8.78727
घर	-8.79306
करती	-8.79895
घ	-8.80424
e	-8.80574
दर	-8.81506
नि	-8.817
गी	-8.81757
मा	-8.82044
संदेश	-8.82138
ध	-8.82328
वालों	-8.8236
जाते	-8.82433
2	-8.82677
भर	-8.83187
सकती	-8.83284
उपलब्ध	-8.83431
राज	-8.83466
मन	-8.83644
बल्	-8.83843
सूची	-8.83927
वी	-8.84591
तरफ	-8.84733
ाब	-8.84817
सभा	-8.85367
धर	-8.85425
रे	-8.85719
दूर	-8.85965
शिक्षा	-8.86266
अलग	-8.86376
क्ष	-8.8672
दूसर	-8.86957
पता	-8.8715
याद	-8.872
कुल	-8.87319
परवरदिगार	-8.87468
दिखा	-8.89139
चु	-8.89168
ाइल	-8.89671
तर	-8.89783
यहाँ	-8.90513
निर्माण	-8.91118
स्पष्ट	-8.91118
अच्छा	-8.91124
हूं	-8.91881
लोक	-8.92313
तैयार	-8.92616
जोड	-8.92658
गत	-8.92667
विषय	-8.93701
िया	-8.93896
आदि	-8.94209
d	-8.9431
लिये	-8.94515
सम	-8.94621
लड	-8.94732
name	-8.94906
पूरी	-8.95026
%	-8.95106
भाषा	-8.95115
जन	-8.95877
तौर	-8.9609
जल	-8.96158
अज	-8.96435
अधीन	-8.96464
होंगे	-8.96543
हित	-8.96619
पत्र	-8.97113
करेगा	-8.97477
उच्च	-8.97583
ीकरण	-8.97761
विभिन्न	-8.9807
काल	-8.98836
अवसर	-8.98852
विश्व	-8.9899
चाहत	-8.99047
इ	-8.99374
शामिल	-8.99655
आय	-8.99657
मुख्य	-8.99664
पूरा	-8.9974
हां	-8.99933
योग	-9.00416
निश्चय	-9.00463
लगे	-9.00697
तुम्हार	-9.00965
होगी	-9.01593
बा	-9.01798
किताब	-9.02101
वस्तु	-9.02109
हा	-9.02182
बता	-9.02187
l	-9.02205
ियाँ	-9.02511
एँ	-9.02703
▁‘	-9.02977
प्रभाव	-9.03639
दि	-9.03698
▁”	-9.03759
गा	-9.03931
बी	-9.04021
c	-9.0421
शब्द	-9.04629
खंड	-9.04662
पहल	-9.04757
परि	-9.05138
अधिकार	-9.05447
प्रक्रिया	-9.05505
सर	-9.05563
स्तर	-9.05794
अर्थ	-9.06428
तः	-9.0672
उनमें	-9.06725
करे	-9.06815
बर	-9.06901
2¦	-9.07299
अभि	-9.08022
बदल	-9.08086
दौरा	-9.08532
यही	-9.08868
ार	-9.08978
परिवर्तन	-9.09155
्त	-9.09227
आपको	-9.09518
भवन	-9.0992
प्रत्ये	-9.10007
वा	-9.10019
रहत	-9.10538
ढ	-9.10575
लिख	-9.10707
दुनिया	-9.10773
नई	-9.10833
लग	-9.10838
उनको	-9.11018
रंग	-9.11205
थ	-9.11291
हेतु	-9.11686
मंत्री	-9.11738
मूल	-9.11871
ऊपर	-9.11931
चाहता	-9.1221
आई	-9.1222
ोर	-9.12254
मिल	-9.12296
ीन	-9.12544
पढ	-9.12632
ाँ	-9.13441
शुरू	-9.13525
अनुसार	-9.13543
रखा	-9.13795
डाल	-9.14041
अभी	-9.14234
माध्यम	-9.14463
गयी	-9.14489
इसी	-9.14638
ंग	-9.14662
तम	-9.14716
जारी	-9.14806
िल	-9.14847
चार	-9.15076
ेगा	-9.15106
i	-9.15154
सीमा	-9.15222
बल	-9.15704
वर्त	-9.15977
▁...	-9.16224
मदद	-9.16365
दें	-9.16547
लाभ	-9.16645
हों	-9.17008
सामन	-9.17161
खुदा	-9.17635
दिल	-9.17639
ज्ञान	-9.17775
p	-9.17809
मू	-9.18152
संख्या	-9.18187
कहत	-9.18534
b	-9.18838
राम	-9.18935
आम	-9.19056
टी	-9.19096
गे	-9.19215
महत्वपूर्ण	-9.19278
लाल	-9.19353
देना	-9.1997
विश्वास	-9.20313
ठीक	-9.20371
सुरक्षा	-9.20518
तीन	-9.20735
सामान्य	-9.20964
दान	-9.20974
आदेश	-9.21305
मार्ग	-9.21547
यक	-9.21667
परिणाम	-9.22268
उद्देश्य	-9.22269
▁#	-9.22276
देखा	-9.22426
पानी	-9.22509
ऊ	-9.22822
अनेक	-9.2297
यू	-9.22973
र्इ	-9.2345
चित	-9.23486
बैंक	-9.2387
करेंगे	-9.23948
मुख	-9.24078
मौजूद	-9.2432
▁&	-9.24336
कार्यक्रम	-9.24351
नीचे	-9.24362
क्षेत्रों	-9.24638
प्रौद्योगिकी	-9.24785
म्बर	-9.24788
जनता	-9.25011
खोल	-9.25014
तू	-9.25082
हाल	-9.25164
निर्धारित	-9.25362
प्रतिशत	-9.25364
निकाल	-9.2539
समूह	-9.25393
अतः	-9.25546
ू	-9.25758
बे	-9.26639
िर	-9.26668
बनाने	-9.26796
r	-9.26909
ियां	-9.26956
तुम्हारी	-9.27144
न्तु	-9.27299
निकल	-9.27439
धर्म	-9.27921
बच्च	-9.28141
▁¤3⁄4	-9.28553
मगर	-9.28594
सह	-9.28814
al	-9.28892
4¦	-9.29008
नया	-9.29017
दार	-9.29137
महा	-9.29231
अधिकारी	-9.29276
मेरा	-9.29625
सिर्	-9.2966
व्यापार	-9.29674
▁>	-9.29696
सिवा	-9.29794
ु	-9.29921
t	-9.302
स्वयं	-9.3072
प्रयास	-9.3074
स्वतंत्र	-9.30743
ोल्डर	-9.30746
प्रमुख	-9.30769
अव	-9.30866
काफी	-9.30987
सके	-9.3137
0¦	-9.31548
आवश्यकता	-9.31549
वर्ग	-9.3178
6¦	-9.31784
कृषि	-9.3185
पश्चिम	-9.31851
▁’	-9.31857
परियोजना	-9.31873
ऋण	-9.31897
संस्थान	-9.32362
मै	-9.32391
मामले	-9.32393
किस	-9.32769
विज्ञान	-9.32968
ज्यादा	-9.32974
युद्ध	-9.32975
पिछल	-9.32975
ति	-9.33041
खोज	-9.33113
साफ	-9.33235
मर	-9.33845
गू	-9.33951
विश्वविद्यालय	-9.34111
▁“	-9.34113
मीन	-9.34117
कानून	-9.34123
विंडो	-9.34149
आए	-9.34211
बिना	-9.34326
िका	-9.34678
in	-9.34848
झ	-9.34966
अवधि	-9.3526
न्यायालय	-9.35261
प्रधान	-9.35268
पीछे	-9.35303
आया	-9.35398
जानते	-9.35443
जमा	-9.35556
आर	-9.35952
1¦	-9.36001
स्वीकार	-9.36409
अच्छे	-9.36422
सामाजिक	-9.36422
आकार	-9.36612
प्रस्तुत	-9.36614
ऋ	-9.36717
उठा	-9.36861
हाथ	-9.36885
निम्न	-9.37599
विवरण	-9.37599
सहयोग	-9.37612
रुप	-9.37876
कर्म	-9.37892
आख	-9.38183
मूल्य	-9.38383
स्व	-9.38521
बन्द	-9.38676
▁¦44	-9.38972
जैसा	-9.39006
डर	-9.39132
प्रदेश	-9.39375
नीति	-9.39467
उद्योग	-9.39986
निर्दिष्ट	-9.39994
जगह	-9.39996
चाहे	-9.40041
रोग	-9.40138
एस	-9.40159
क्रिया	-9.40569
मि	-9.40783
चला	-9.40894
दा	-9.41198
समस्या	-9.41214
ध्यान	-9.41227
पश्चात	-9.41314
यर	-9.4132
n	-9.41455
आवश्यक	-9.41561
सारे	-9.41586
सर्व	-9.41616
कल	-9.41712
बेशक	-9.41713
रात	-9.41855
सत्य	-9.42358
बराबर	-9.42448
जुड	-9.42504
वक्त	-9.42651
जिन्हें	-9.42687
प्रबंध	-9.42734
भाव	-9.42839
चयन	-9.42927
ेह	-9.43011
आने	-9.43073
केंद्र	-9.43215
प्रणाली	-9.43699
प्रेम	-9.43707
जानकारी	-9.43713
आर्थ	-9.43745
क्षमता	-9.44257
संस्था	-9.4478
अगल	-9.44922
लगभग	-9.44966
आकाश	-9.44976
पद	-9.45166
पुर	-9.45197
अंत	-9.45583
गण	-9.45666
देत	-9.45686
इतन	-9.45844
रो	-9.46169
उन्हे	-9.46259
लाइन	-9.46568
रखते	-9.46783
लेने	-9.47122
जाओ	-9.47226
धन	-9.47252
निशान	-9.47411
3¦	-9.47443
अंतर	-9.47451
अतिरिक्त	-9.47546
पि	-9.47581
▁¦2¦	-9.47759
केन्द्र	-9.48047
ंड	-9.48214
वर	-9.48218
बैठक	-9.48535
रखने	-9.48749
संसद	-9.48875
विधि	-9.48939
राष्ट्र	-9.48964
मध्य	-9.49077
दृष्टि	-9.4919
हक	-9.49266
विदेश	-9.49519
खड	-9.49604
समर्थ	-9.49619
	-9.50194
कहने	-9.50211
नए	-9.50274
ात्मक	-9.50387
बि	-9.50404
वास्त	-9.50477
उत्तर	-9.506
नियम	-9.50944
क्रम	-9.51148
स्थाप	-9.51304
शन	-9.51462
अच्छी	-9.51545
हुक्म	-9.51546
कौन	-9.516
हत	-9.52165
निर्णय	-9.52265
रोक	-9.52298
तु	-9.52307
रहने	-9.52331
एन	-9.52689
साल	-9.52696
पक्ष	-9.5283
ोन	-9.52909
सिंह	-9.52913
मनुष्य	-9.52915
महिला	-9.52926
गैर	-9.53015
ाना	-9.53031
मार	-9.53818
चित्र	-9.53959
o	-9.54023
सही	-9.54059
संघ	-9.54107
ै	-9.54252
संयुक्त	-9.5432
लाए	-9.54564
देशों	-9.54663
pr	-9.54733
डी	-9.54872
पालन	-9.55517
परिवार	-9.55724
डियो	-9.55883
एम	-9.561
सदस्य	-9.56485
सुविधा	-9.56502
कु	-9.56609
आयत	-9.56715
मानव	-9.5688
मु	-9.57103
दक्षिण	-9.57141
सम्बन्ध	-9.57141
अनुसंधान	-9.57142
ऑफ	-9.57205
सुधार	-9.57505
विशिष्ट	-9.57617
निश्चित	-9.57805
कला	-9.57967
9¦	-9.58277
वित्तीय	-9.58614
जाएगी	-9.58628
▁¦19	-9.58828
यां	-9.59322
x	-9.59537
▁''	-9.59673
जन्म	-9.5993
ौम	-9.59954
स्थापना	-9.59982
यात्रा	-9.60045
प्रारंभ	-9.60062
रिपोर्ट	-9.60063
यातना	-9.60087
कंपनी	-9.601
शहर	-9.60127
संगठन	-9.60144
▁¦10	-9.60307
सन	-9.60405
आधारित	-9.60523
बाज	-9.60534
ूम	-9.60554
वार	-9.60558
जिससे	-9.60694
वेब	-9.60844
राशि	-9.61552
संपर्क	-9.61553
सक्रिय	-9.61553
बोर्ड	-9.61564
अप	-9.61579
बेट	-9.61797
थोड	-9.61829
,	-9.61856
निवेश	-9.62317
समान	-9.62437
चुका	-9.62817
स्वरूप	-9.63167
प्रकाश	-9.63185
अंतर्ग	-9.63212
भार	-9.63229
्व	-9.63387
परन्तु	-9.63468
ोड	-9.63529
वृद्धि	-9.636
साम	-9.63902
फल	-9.63984
रु	-9.63986
▁¦3	-9.64058
हिस्स	-9.64538
	-9.64607
त्रुटि	-9.64607
समाप्त	-9.64608
दिल्ली	-9.64608
मंदिर	-9.64614
बाजार	-9.64628
हमेश	-9.64678
सोच	-9.64726
पहचान	-9.64753
गुण	-9.65297
बाग	-9.65307
वाद	-9.65323
नव	-9.65579
खा	-9.65639
नही	-9.65848
भू	-9.6604
सो	-9.66087
प्रथम	-9.66169
▁¤°	-9.66172
निस्संद	-9.66174
व्यवस्था	-9.66237
मिला	-9.66264
परंतु	-9.66379
4	-9.6648
रत	-9.66701
पो	-9.67073
जे	-9.67124
बंगाल	-9.67155
भूमि	-9.67278
सेट	-9.67737
लक्ष्य	-9.67757
निर्धारण	-9.67758
शासन	-9.67806
खेल	-9.67968
वहाँ	-9.68054
ाव	-9.68204
न्याय	-9.68273
एक्स	-9.68553
डाक	-9.68761
मंत्रालय	-9.68906
भूत	-9.69206
पेश	-9.69228
अनुभव	-9.69372
वापस	-9.69377
बेहतर	-9.69381
नियंत्रण	-9.69384
बिल	-9.69418
शील	-9.69464
स्त	-9.69512
सुन	-9.6955
लें	-9.69687
वो	-9.69853
सार	-9.69955
देग	-9.70096
फेर	-9.70139
स्	-9.7026
पार	-9.70274
लगत	-9.70785
दल	-9.70863
अंग्रेज	-9.71009
प्रश्न	-9.71009
ग्रामीण	-9.71009
पुरुष	-9.7101
जांच	-9.7101
हे	-9.71032
पैग	-9.71033
दिशा	-9.71058
आसमान	-9.71163
लाख	-9.71242
उत्पादन	-9.71261
हीं	-9.71282
भला	-9.71472
स्ट	-9.71818
गड	-9.71991
समिति	-9.72166
समाज	-9.72214
कृप	-9.72259
भय	-9.72426
व्यक्त	-9.7243
ion	-9.72568
रचना	-9.72591
वास्तव	-9.72699
जीव	-9.72785
अधि	-9.72786
पति	-9.72793
जरूरत	-9.72884
मांग	-9.73084
y	-9.73149
भीतर	-9.73249
गो	-9.73392
कारी	-9.73449
पाठ	-9.73655
विभाग	-9.74074
महान	-9.74204
option	-9.74371
इतिहास	-9.74378
भाई	-9.74537
सामग्र	-9.7455
शक	-9.74797
अल	-9.75154
जिन्ह	-9.75204
अलाव	-9.75432
हार	-9.75656
स्वास्थ्य	-9.76089
साइट	-9.76203
विकल्प	-9.764
पाया	-9.76715
मेल	-9.76881
)	-9.77007
ीकृत	-9.77045
हटा	-9.77116
गिर	-9.77338
0	-9.77372
मुँह	-9.77849
शरीर	-9.77849
संभव	-9.77852
प्रस्ताव	-9.77854
कितन	-9.77962
जहाँ	-9.77968
स्थानीय	-9.77976
अमेरिका	-9.77987
स्थ	-9.78304
माना	-9.78761
रोज	-9.79021
देखने	-9.79081
बोल	-9.79274
चि	-9.79311
टन	-9.79356
वै	-9.79378
मुक	-9.79393
मज	-9.7949
वैज्ञानिक	-9.79635
स्रोत	-9.79635
मृत्यु	-9.79635
kg	-9.79636
गुज	-9.79778
u	-9.79812
वन	-9.79887
देखते	-9.79915
चा	-9.79949
▁),	-9.80071
मी	-9.80244
राह	-9.80286
बच्चों	-9.80386
रहो	-9.80435
र्जी	-9.80526
f	-9.808
युक्त	-9.81067
लौट	-9.81386
ाने	-9.81419
दृश्य	-9.81486
शाय	-9.81486
कर्ता	-9.81499
नाथ	-9.81543
छवि	-9.8158
मात्रा	-9.81786
सदस्यों	-9.82029
ंबर	-9.82047
फाइल	-9.82277
रूर	-9.82303
िम	-9.82358
एल	-9.82522
रू	-9.82817
खुद	-9.83043
पहुँच	-9.83045
8¦	-9.83175
आरंभ	-9.83305
संविधान	-9.83313
िए	-9.8333
घटना	-9.83345
हाँ	-9.83623
कैसे	-9.8381
पहुंच	-9.83859
निज	-9.83918
पे	-9.84009
पूर्वक	-9.84307
डॉ	-9.8451
उपस्थित	-9.84537
देव	-9.8469
लेखा	-9.8489
6	-9.85101
दिवस	-9.85148
गांधी	-9.85166
पृष्ठ	-9.85177
प्रमाण	-9.85181
पसंद	-9.85193
प्रवेश	-9.852
पुनर्	-9.85203
विस्तार	-9.85213
जवाब	-9.85215
प्रकट	-9.85241
सर्वर	-9.85325
ॉ	-9.85371
पथ	-9.85423
भावना	-9.85492
वीं	-9.85671
जाएँ	-9.85758
वादी	-9.85816
शाल	-9.85921
कड	-9.85955
करा	-9.86586
आत्म	-9.86707
उड	-9.86745
ंत	-9.87051
z	-9.87114
नागरिक	-9.87116
उपकरण	-9.87128
ly	-9.8713
▁?"	-9.87134
चिकित्सा	-9.87191
संसाधन	-9.87197
ईमानदार	-9.8721
चर्चा	-9.87211
बाल	-9.87509
लिखा	-9.87621
समझा	-9.87791
सहायक	-9.87883
पन	-9.87908
स्थित	-9.88016
दिनों	-9.88025
सुना	-9.88027
बनाए	-9.88097
जाएँगे	-9.8811
रि	-9.88132
गें	-9.88611
झुठला	-9.88665
त्पन्न	-9.88765
राजा	-9.88825
भिन्न	-9.88996
आशा	-9.89
आवेदन	-9.89076
शुल्क	-9.89076
▁¥	-9.89077
प्रगति	-9.89104
इस्ते	-9.89112
चरण	-9.89119
पुरान	-9.8918
विकस	-9.8949
भूमिका	-9.89686
िश	-9.8976
गति	-9.89862
रेल	-9.90117
उत्पाद	-9.9038
प्रदर्श	-9.90552
▁¦11	-9.90581
यी	-9.90712
पहुँचा	-9.90785
ष	-9.90885
तृत	-9.9089
डा	-9.9099
्ष	-9.91065
छोटे	-9.91075
स्कूल	-9.91077
▁¤	-9.91079
अवस्था	-9.91114
पकड	-9.9114
वज	-9.91314
जाति	-9.9139
आपस	-9.91658
मुक्त	-9.91941
हु	-9.92044
पुकार	-9.92097
50¦	-9.9223
सरकारी	-9.92342
कमी	-9.92611
सफल	-9.92839
उदाहरण	-9.93116
दृढ	-9.93116
भुगतान	-9.93116
tp	-9.93136
क्षमा	-9.93162
बच	-9.93183
्म	-9.93248
लागत	-9.93304
सम्	-9.93399
अग्र	-9.93458
गुनाह	-9.93787
अन	-9.94484
ेंगे	-9.94635
▁¦20	-9.94696
बंद	-9.94799
चर	-9.9506
ंतु	-9.95071
शेयर	-9.95133
नाज	-9.95146
वैध	-9.95165
३	-9.95185
ht	-9.95193
तंत्र	-9.95197
हस्ताक्षर	-9.952
प्रशिक्षण	-9.95221
ान	-9.95229
k	-9.95297
सिद्ध	-9.95308
चुनें	-9.95325
दिखाएँ	-9.95539
जिला	-9.95819
गार	-9.96147
पाक	-9.96202
व्य	-9.96737
चाहि	-9.96815
्ट	-9.97154
महत्व	-9.97312
not	-9.97331
पुनः	-9.97337
समुदाय	-9.97338
प्रमाणपत्र	-9.97342
दम	-9.97351
रज	-9.97355
आसान	-9.97362
संकेत	-9.974
अंति	-9.97463
ात	-9.97492
नगर	-9.97546
अपेक्षा	-9.97548
तेज	-9.97566
पूरे	-9.97581
बने	-9.9788
जहा	-9.97951
इनमें	-9.9798
अन्त	-9.98177
रखना	-9.98236
खाते	-9.9872
निर्यात	-9.98875
h	-9.98964
▁¦4	-9.98991
लंब	-9.992
सीख	-9.99256
व्यवहार	-9.99461
र्क	-9.99478
city	-9.99501
ऊर्जा	-9.99501
अध्ययन	-9.99501
शख्स	-9.99509
दिनांक	-9.99511
राजनीति	-9.99528
उपधार	-9.99542
खाता	-9.99563
वान	-9.99651
रीब	-9.99652
निर्देश	-9.99718
प्रण	-9.99846
रास्त	-10.0006
गवाह	-10.0027
रक्त	-10.0056
जैस	-10.0069
सका	-10.0102
ंकि	-10.0103
मात्र	-10.0134
कठिन	-10.0151
पात	-10.0162
शेष	-10.0168
औद्योगिक	-10.0172
पुलिस	-10.0172
दस्तावेज	-10.0172
▁://	-10.0172
▁@	-10.0173
संपत्ति	-10.0173
htm	-10.0174
प्रकृति	-10.0174
आतंकवाद	-10.0175
संरक्षण	-10.0175
्श्	-10.0175
ग्राम	-10.0179
बहु	-10.0182
चले	-10.0183
तत्व	-10.0184
वित्त	-10.0193
जि	-10.0214
डि	-10.0234
लोड	-10.0237
स्थल	-10.025
तरीक	-10.025
हट	-10.0254
v	-10.0275
बचा	-10.0281
ठ	-10.0284
सौ	-10.0295
ऑ	-10.0295
▁¦1	-10.0353
शिश	-10.0355
सच्च	-10.0363
जितन	-10.0373
नीय	-10.0382
साहित्य	-10.039
प्रतीक	-10.0397
रुद्ध	-10.0398
मुसलमान	-10.04
उल्लेख	-10.04
पहाड	-10.04
मजबूत	-10.04
प्राकृत	-10.04
प्रशासन	-10.0416
स्थाय	-10.0445
रकम	-10.0453
बाप	-10.047
w	-10.0472
राय	-10.0478
वहन	-10.0484
अरब	-10.0508
ृत	-10.0512
मिलने	-10.0515
क्	-10.0518
ालिम	-10.0529
लाने	-10.0537
द्वार	-10.0592
टा	-10.0611
संगीत	-10.0631
अनिवार्य	-10.0632
गुणवत्ता	-10.0632
पूंजी	-10.0632
सम्मेलन	-10.0632
doe	-10.0632
▁+	-10.0632
समाधान	-10.0632
पदार्थ	-10.0633
मीटर	-10.0633
गुरु	-10.0633
पर्याप्त	-10.0633
विवाह	-10.0634
अनुमति	-10.0635
शास्त्र	-10.0636
केंद्रीय	-10.0639
वास्तविक	-10.0641
भली	-10.0646
▁):	-10.0648
रुपये	-10.065
ट्टी	-10.0651
गीत	-10.0659
कहो	-10.069
आयु	-10.069
हद	-10.0692
पत	-10.0701
इच्छा	-10.0749
translat	-10.0771
वास	-10.0775
ास	-10.0782
महीन	-10.0785
पाल	-10.0787
मार्गदर्श	-10.0814
घाट	-10.0828
पूछ	-10.0831
लेख	-10.0832
हाला	-10.0837
योग्य	-10.0837
सक्षम	-10.0853
डिस्क	-10.0857
ियम	-10.0864
भविष्य	-10.087
सार्वजनिक	-10.087
need	-10.087
obab	-10.087
प्रयोजन	-10.087
आधुनिक	-10.0871
युवा	-10.0871
पुस्तक	-10.0872
न्यू	-10.0872
व्यापक	-10.0875
संशोधन	-10.089
युग	-10.0891
सफलता	-10.0891
राज्यों	-10.0898
गाड	-10.0919
आत्मा	-10.0923
रखो	-10.093
ुर	-10.0931
रक्षा	-10.0932
ent	-10.094
nic	-10.0945
सात	-10.0949
संरचना	-10.0984
परीक्षा	-10.0996
पंज	-10.1018
9	-10.102
मिली	-10.1025
सेना	-10.1035
चाह	-10.1039
मिटा	-10.1061
गोल	-10.1078
शीर्ष	-10.1083
म्ब	-10.1088
वायद	-10.1096
समारोह	-10.1114
नेटवर्क	-10.1114
अध्यक्ष	-10.1114
कंप्यूटर	-10.1115
अधिकांश	-10.1115
अर्थात	-10.1116
विजय	-10.1116
चढ	-10.1119
डे	-10.112
नदी	-10.1137
बनी	-10.1137
आदमी	-10.1142
विस्	-10.1176
र्व	-10.1181
कट	-10.1187
इं	-10.1216
करण	-10.1225
रखे	-10.1236
हिर	-10.1244
8	-10.1248
तरीके	-10.127
आस	-10.1273
आयोज	-10.1279
दीन	-10.128
बीमार	-10.1285
वर्ण	-10.1298
कृत	-10.13
मक	-10.1338
ावा	-10.1342
ेड	-10.1356
ईश्वर	-10.1364
पर्यावरण	-10.1364
नाटक	-10.1364
खाद्य	-10.1365
परिषद	-10.1365
डेटा	-10.1365
पात्र	-10.1366
संभावना	-10.1372
बह	-10.1375
▁–	-10.1375
किसान	-10.1376
रेखा	-10.138
मुद्द	-10.1382
गलत	-10.1412
ाया	-10.1418
मिलता	-10.142
र्	-10.1422
खास	-10.1443
कों	-10.1447
वाक	-10.1451
संग्रह	-10.1452
पिता	-10.1463
द्यप	-10.1473
तौ	-10.1562
समुद्र	-10.1566
इस्लाम	-10.1578
वत	-10.1581
सच	-10.159
विभाज	-10.1612
गृह	-10.1619
६	-10.1619
वायु	-10.162
अवश्य	-10.1621
पुरस्कार	-10.1621
शीघ्र	-10.1621
संस्करण	-10.1621
कांग्रेस	-10.1621
भंडार	-10.1621
जहन्नुम	-10.1621
उपबंध	-10.1621
साधारण	-10.1623
निधि	-10.1623
आवाज	-10.1624
संसार	-10.1624
उपचार	-10.1625
संचार	-10.1626
सत्ता	-10.1627
ग्राहक	-10.1631
बुरा	-10.1633
मंडल	-10.1636
अत्यन	-10.1647
संस्कृत	-10.1659
ेंट	-10.1661
लेखक	-10.168
प्रभावित	-10.168
g	-10.1704
कथा	-10.1723
चे	-10.1724
वात	-10.1725
बदला	-10.1735
आयात	-10.1766
नो	-10.1768
मोह	-10.179
ग्रहण	-10.18
देती	-10.18
मना	-10.181
शर्त	-10.1812
खान	-10.1824
सिर	-10.1829
्कार	-10.1837
बदले	-10.1838
२	-10.187
जरूर	-10.1873
▁¦15	-10.1873
संदर्भ	-10.1884
शताब्द	-10.1884
गर्भ	-10.1884
पीठ	-10.1886
बयान	-10.1886
व्यय	-10.1889
विशाल	-10.1889
हिन्दी	-10.1891
ंगी	-10.1894
खर्च	-10.1895
▁)।	-10.1897
रस	-10.1903
ाम	-10.1912
माँ	-10.1913
बर्	-10.1919
जीवित	-10.1922
▁¦3¦	-10.1961
पहुंचा	-10.1962
जू	-10.1975
चू	-10.1986
कविता	-10.1999
आते	-10.2013
दु	-10.2024
०	-10.2024
र्च	-10.2028
अंग	-10.205
खुलत	-10.2055
तार	-10.2056
ोगे	-10.2071
झूठ	-10.209
नज	-10.2092
शा	-10.2131
ँ	-10.2131
सम्मान	-10.2138
प्रयुक्त	-10.2142
छोटा	-10.2154
अनुच्छेद	-10.2154
सख्त	-10.2155
समाचार	-10.2156
गिज	-10.2157
दशा	-10.2159
ढंग	-10.2163
हृदय	-10.2165
ताओं	-10.2168
तेल	-10.2169
गढ	-10.2193
यें	-10.2205
नर	-10.2226
ट्र	-10.2244
चलता	-10.2247
तल	-10.2252
ैल	-10.2271
बैंकों	-10.2274
असफल	-10.2285
▁¦18	-10.2291
सद	-10.2297
सुनिश्च	-10.2303
ार्थ	-10.2317
निकट	-10.2354
तों	-10.2361
सरल	-10.2361
दाय	-10.2361
प्रत्य	-10.2366
मुझ	-10.2369
एफ	-10.2395
खरीद	-10.2407
सुरक्ष	-10.2412
प्रो	-10.2429
चिह्न	-10.2432
मोमिन	-10.2432
अत्याचार	-10.2432
प्रोग्राम	-10.2432
स्वामी	-10.2433
कूट	-10.2433
सिस्टम	-10.2433
स्वागत	-10.2433
भाषण	-10.2435
मामल	-10.244
हवा	-10.2454
मानक	-10.2484
सदन	-10.2486
ूँगा	-10.2502
गर	-10.2502
गाह	-10.2509
स्वा	-10.2518
नियत	-10.2534
उतार	-10.2537
काफ	-10.2591
तट	-10.2609
सलाह	-10.2646
शुक्र	-10.2658
जाय	-10.2668
दास	-10.2672
देखें	-10.2678
ैर	-10.2686
कलकत्त	-10.2717
छोटी	-10.2717
हिदायत	-10.2717
पांच	-10.2718
गुमराह	-10.2718
घोषणा	-10.2718
गतिविधिय	-10.2718
अंतर्राष्ट्रीय	-10.2719
▁}	-10.2719
बुद्धि	-10.272
अभिलेख	-10.2736
रहेंगे	-10.275
रिया	-10.2752
मालिक	-10.2753
मय	-10.2763
नंबर	-10.2766
छिपा	-10.2783
हालत	-10.2794
वें	-10.2819
किनार	-10.2827
निवास	-10.2829
धिक	-10.2851
अर्ज	-10.2873
▁¦30	-10.2898
कदम	-10.2904
फा	-10.293
शी	-10.293
टो	-10.2933
ॉल	-10.2952
क्स	-10.2989
मौ	-10.2992
पैर	-10.3004
वीर	-10.3007
विधेयक	-10.3012
लघु	-10.3012
जाँच	-10.3012
नैतिक	-10.3012
विद्युत	-10.3012
तिहास	-10.3015
पौध	-10.3025
प्रसार	-10.3033
प्रकाशित	-10.305
खूब	-10.3052
बुला	-10.3078
कठ	-10.309
सिल	-10.3097
साधन	-10.3122
सत्र	-10.3124
डाला	-10.3147
छा	-10.3167
त्र	-10.3169
४	-10.3193
मोड	-10.3205
ुफ	-10.3206
खो	-10.3207
िन्द	-10.3219
प्रदर्शन	-10.3219
वरी	-10.3233
खुश	-10.3243
सीता	-10.3244
बैठे	-10.3245
लिम	-10.3248
माज	-10.3252
▁¦26	-10.3266
अति	-10.3275
िन	-10.3281
सत	-10.3282
हल	-10.3301
िता	-10.3301
काव्य	-10.3302
अता	-10.3311
प्रेर	-10.3313
शिकायत	-10.3315
टुकड	-10.3315
प्रभुत्व	-10.3315
अर्थव्यवस्था	-10.3317
धीरे	-10.3321
देन	-10.3322
बनाएँ	-10.3335
खुला	-10.3358
न्	-10.3371
ऑन	-10.3374
िरत	-10.3384
देंग	-10.3407
शुद्ध	-10.3418
पेट	-10.3432
त्व	-10.3433
जून	-10.3434
रखें	-10.3454
हज	-10.3479
१	-10.349
ची	-10.3501
करार	-10.3514
मो	-10.3516
बजाय	-10.3528
रिक	-10.3548
न्द	-10.356
मित्र	-10.3563
कुंजी	-10.3576
लु	-10.3576
भूल	-10.3577
ुरान	-10.3593
अंक	-10.3605
कटौती	-10.3627
पत्थर	-10.3627
बावजूद	-10.3627
अपराध	-10.3627
बौद्ध	-10.3627
स्वच्छ	-10.3627
▁[	-10.3627
सरकश	-10.3627
अनुरोध	-10.3628
वेतन	-10.3628
चंद्र	-10.3629
निर्मित	-10.3632
दशक	-10.3636
अनुप्रयोग	-10.3637
ण्ड	-10.3645
बस्त	-10.3652
शि	-10.3665
गैस	-10.3666
िन्दा	-10.367
पस	-10.3679
बैठ	-10.3681
प्राथमिकता	-10.3684
दू	-10.3692
वर्णन	-10.3711
मिलकर	-10.3717
शांति	-10.3735
ईसा	-10.3795
गुना	-10.3801
सकें	-10.3804
५	-10.3805
पु	-10.381
मद	-10.3812
बारा	-10.3826
सुख	-10.3831
उन्ही	-10.3869
भा	-10.3873
कीमत	-10.3874
जल्द	-10.3893
टर	-10.3898
ेशन	-10.39
ग्	-10.3902
उद्यम	-10.3915
बिल्	-10.3927
ियन	-10.3944
इजरायल	-10.395
उपयोक्ता	-10.395
आंदोलन	-10.395
मिश्र	-10.395
स्क्रीन	-10.395
कल्याण	-10.395
परस्पर	-10.395
श्रेणीः	-10.3953
उपयुक्त	-10.3953
छात्र	-10.3953
▁¤1	-10.3954
दोष	-10.3958
चुनाव	-10.3959
भोजन	-10.3959
पेड	-10.3961
काट	-10.3963
प्राधिकारी	-10.3975
शैली	-10.3978
उत्	-10.3983
पाने	-10.3983
शीर्षक	-10.3991
कर्मचारी	-10.3994
पोर्ट	-10.4028
रुर	-10.4029
माँग	-10.4048
माह	-10.4051
ॅ	-10.4069
समा	-10.4077
िड	-10.4083
रन	-10.4094
ैसल	-10.4119
चुने	-10.4128
▁¦14	-10.4135
लेन	-10.4142
सड	-10.4179
एशिया	-10.419
पै	-10.4221
जनक	-10.4225
तुम्हे	-10.4237
शोध	-10.4248
सित	-10.4259
र्स	-10.4267
गल	-10.4274
यंत्र	-10.4279
गंभीर	-10.4283
बुनियाद	-10.4283
समृद्ध	-10.4283
गिरोह	-10.4283
सचिव	-10.4283
गुप्त	-10.4283
▁¤®	-10.4283
हिन्दू	-10.4283
प्राचीन	-10.4283
पाकिस्तान	-10.4283
लोकप्रिय	-10.4284
वासी	-10.4284
मौसम	-10.4285
अंतरराष्ट्रीय	-10.4287
▁{	-10.429
विफल	-10.4292
प्रचार	-10.4293
दोस्त	-10.4297
कुमार	-10.4297
सूर	-10.4301
अधिकारियों	-10.4306
रहेगा	-10.431
बध	-10.4316
प्राण	-10.4319
कल्पना	-10.4327
▁¦16	-10.433
जल्दी	-10.4343
ूब	-10.4349
मानते	-10.4351
वैश्वि	-10.4355
सहमत	-10.4362
सिद्धांत	-10.4381
पन्न	-10.4387
उभर	-10.4388
कोड	-10.4405
लि	-10.4427
लॉग	-10.4471
रिए	-10.4485
मल	-10.4494
ana	-10.4502
200	-10.4528
कदा	-10.4535
याँ	-10.4538
पट	-10.4544
बद	-10.4552
जाये	-10.4557
कही	-10.456
यो	-10.4562
मिले	-10.4563
इब	-10.4568
ौर	-10.457
पट्ट	-10.457
मह	-10.4574
हरा	-10.4575
संस्कृति	-10.4576
पाए	-10.4579
सीम	-10.4581
दर्ज	-10.4585
प्राप्ति	-10.4605
तोड	-10.4622
बेह	-10.4626
पद्धति	-10.4626
बद्ध	-10.4627
घोष	-10.4627
सुंदर	-10.4628
स्मृति	-10.4628
शून्य	-10.4628
तुलना	-10.4628
महात्मा	-10.4628
सीधे	-10.4628
सप्ताह	-10.4628
of	-10.4629
मशीन	-10.4629
बोझ	-10.463
मिशन	-10.463
मैदान	-10.4631
मंच	-10.4632
अध्याय	-10.4634
निहित	-10.4635
आठ	-10.4637
कृष्ण	-10.4639
विशेषता	-10.4643
दीवार	-10.4649
मुद्रा	-10.465
दबा	-10.4654
तलब	-10.4658
सत्याप	-10.4668
चलते	-10.4675
हजार	-10.4702
ेगी	-10.4711
न्यून	-10.4718
निर्	-10.4721
इनका	-10.4732
इबर	-10.475
गाय	-10.4751
हाथों	-10.4764
द्वि	-10.4785
्ता	-10.4793
सू	-10.4803
िफ	-10.4806
चीत	-10.4819
दिला	-10.4851
पीड	-10.487
बाब	-10.4895
ाँति	-10.4898
पना	-10.4904
अनक	-10.4936
त्यंत	-10.4939
रीख	-10.4948
मनो	-10.4956
यूरोप	-10.4958
हरू	-10.496
>	-10.4964
संकल्प	-10.4973
▁¦199	-10.4973
दर्शन	-10.4981
रोजगार	-10.4985
संघर्ष	-10.4985
ोल्यूशन	-10.4985
व्यवसाय	-10.4985
गंगा	-10.4985
उद्घाट	-10.4985
हिंदू	-10.4985
दृष्टिकोण	-10.4985
विद्वान	-10.4985
निगम	-10.4986
संविदा	-10.4986
निर्भर	-10.4986
उपन्यास	-10.4987
पशु	-10.4987
सागर	-10.4988
जाएंगे	-10.4991
खिलाफ	-10.4993
अफ्रीका	-10.4995
गर्म	-10.4997
्र	-10.5003
कार्ड	-10.5006
नियमों	-10.5014
स्त्रिय	-10.5014
बदलें	-10.5016
खेती	-10.502
लिब	-10.5022
पक	-10.5027
तकनीकी	-10.503
हानि	-10.5056
नियुक्त	-10.506
▁¦13	-10.508
्ड	-10.508
हीम	-10.5087
करीब	-10.509
धान	-10.5094
देखो	-10.5095
बिज	-10.5113
लू	-10.5124
लैंड	-10.5144
बनाना	-10.5154
हासि	-10.5155
दस	-10.5161
12	-10.5193
पूर	-10.5205
न्दर	-10.5227
स्था	-10.5228
ष्ट	-10.523
कम्पन	-10.5233
भाष	-10.5237
नक	-10.5275
घटा	-10.5278
मूर्ति	-10.5289
▁/	-10.5291
हीन	-10.5292
नेट	-10.531
कैस	-10.5314
अत्य	-10.5327
गठ	-10.5332
शाह	-10.5334
जाएं	-10.5335
न्यास	-10.5352
आउट	-10.5355
इत्या	-10.5355
धार्मिक	-10.5355
सांस्कृतिक	-10.5355
जर्मन	-10.5355
इकट्ठ	-10.5355
नसीहत	-10.5355
बख्श	-10.5355
तस्वीर	-10.5356
दयालु	-10.5356
बिक्री	-10.5356
सुझा	-10.5356
हत्या	-10.5356
अपील	-10.5357
लोकतंत्र	-10.5358
नों	-10.5361
विनियम	-10.5361
सफ	-10.5361
बोध	-10.5364
उतन	-10.5367
जायेगा	-10.5371
कहेंगे	-10.5372
नौकर	-10.5379
सरण	-10.5406
भोग	-10.5406
ताल	-10.5418
मुस्	-10.5422
to	-10.5423
क्रो	-10.5441
टे	-10.5451
उतर	-10.546
कै	-10.5462
प्रिय	-10.5462
ाइड	-10.5472
ेट	-10.5484
बो	-10.5492
देवी	-10.5499
यथा	-10.5506
बुर	-10.5507
ंस	-10.551
नीतिय	-10.5522
ॉक्स	-10.5542
▁(%	-10.5547
दौर	-10.5553
प्रा	-10.5553
बीमा	-10.5567
कान	-10.5579
पोष	-10.5585
त्मक	-10.5588
किलो	-10.5595
कपड	-10.5596
सज	-10.5598
ुन	-10.562
स्त्री	-10.5645
अदा	-10.5662
विरोध	-10.5683
जुला	-10.5684
कार्यालय	-10.5697
समझौत	-10.5698
फर	-10.5699
परंपरा	-10.5703
वंश	-10.5704
ठहरा	-10.5707
मानसिक	-10.5708
घट	-10.5715
सारा	-10.5719
तिथि	-10.5726
पूर्ति	-10.5734
कृति	-10.5738
दायित्व	-10.5739
उत्तम	-10.574
अद्यतन	-10.574
प्रोत्साहन	-10.574
ब्रिटि	-10.574
इंडिया	-10.574
आंकड	-10.5741
लिंक	-10.5742
1	-10.5742
पंजाब	-10.5743
कुफ्फ	-10.5743
पवित्र	-10.5744
वाद्य	-10.5744
प्रतीक्षा	-10.5744
▁]	-10.5746
विवाद	-10.575
मान्यता	-10.5754
प्रभार	-10.5758
श्	-10.5759
खाली	-10.5764
महल	-10.5766
अनुवाद	-10.5771
गहर	-10.5775
डाउन	-10.5776
रिज	-10.5779
कहानी	-10.5789
सबके	-10.58
बुरी	-10.58
चौड	-10.5816
अर	-10.5826
संपूर्ण	-10.5832
उठाने	-10.5861
चाल	-10.5862
वाई	-10.5866
ॉन्ट	-10.5883
परिभाष	-10.5893
नाक	-10.591
फैला	-10.5912
चौ	-10.5916
लिंग	-10.5917
व्या	-10.5924
पू	-10.5925
is	-10.5926
लर	-10.5933
कवि	-10.5937
यूस	-10.5957
ांति	-10.5982
एड	-10.5999
विरा	-10.6
स्टा	-10.6003
गवान	-10.6014
आन	-10.6027
ंट	-10.6039
सीन	-10.6049
पुस्त	-10.6054
आयोजन	-10.6062
त्त	-10.6069
विमान	-10.6106
आदर्श	-10.6106
इंटर	-10.6116
▁¦25	-10.6117
चीन	-10.6131
वेद	-10.6138
८	-10.6138
प्रार्थना	-10.614
कश्मीर	-10.614
संचालन	-10.614
कनेक्शन	-10.614
पुत्र	-10.614
ावरण	-10.6141
ोच्च	-10.6141
मिनट	-10.6141
अनुमोद	-10.6141
पृष्ठभूमि	-10.6141
विन्यास	-10.6144
रद्द	-10.6144
रीति	-10.6145
पत्नी	-10.6146
जानवर	-10.6146
समन्वय	-10.6149
बिहार	-10.6153
भागीदारी	-10.6153
ल्	-10.6153
पाई	-10.6155
माता	-10.6159
वल	-10.6161
कोशिका	-10.6163
पत्त	-10.6168
सामान	-10.6176
अप्र	-10.6176
संगम	-10.6177
ालय	-10.6182
दिये	-10.6186
पारित	-10.6196
सजद	-10.6206
उठ	-10.6206
ग्रह	-10.6214
▁¦192	-10.6218
निभा	-10.6223
मामला	-10.623
मां	-10.6243
पान	-10.6247
▁¦12¦	-10.6247
आवास	-10.6248
शिव	-10.6262
जहाज	-10.6276
रेख	-10.6283
...	-10.6286
बान	-10.6295
an	-10.6301
धारण	-10.6301
▁¦100	-10.6322
संत	-10.6327
her	-10.6339
3	-10.6341
धा	-10.6342
बेच	-10.6344
चेतन	-10.6358
तर्क	-10.6366
रहें	-10.6378
लिखने	-10.638
बुल	-10.6402
िस	-10.6402
माप	-10.6409
ार्च	-10.6421
न्स	-10.6438
ii	-10.6449
अं	-10.6449
तीसर	-10.6468
परिवर्त	-10.6478
शैक्ष	-10.6484
मई	-10.6507
एच	-10.6517
टि	-10.6524
कर्मचार	-10.6525
गहरा	-10.6528
–	-10.6538
नौ	-10.6539
द्वीप	-10.6556
ख्याल	-10.6556
ग्रंथ	-10.6557
धैर्य	-10.6557
श्रेष्ठ	-10.6557
द्वितीय	-10.6557
महत्त्व	-10.6557
शुभकामना	-10.6557
श्रम	-10.6557
सूत्र	-10.6557
comm	-10.6557
सौंप	-10.6557
ठिकान	-10.6557
अक्सर	-10.6557
अंदर	-10.6558
निर्देशिका	-10.6558
प्रवाह	-10.6559
सम्मिल	-10.656
प्रतिनिधि	-10.6562
अंश	-10.6563
सुबह	-10.6563
जिम्मेदार	-10.6564
सहकारी	-10.657
खाने	-10.6579
पार्टी	-10.658
संवाद	-10.658
शिकार	-10.6587
ताकत	-10.659
▁.)	-10.6592
एकत्र	-10.6594
साहस	-10.6596
हेज	-10.6607
यु	-10.6624
वृत्त	-10.6631
▁¦25¦	-10.6633
हिक	-10.6638
श्त	-10.6642
चुन	-10.6645
स्वर	-10.6648
सकेग	-10.6653
्रस्त	-10.6672
तय	-10.6672
कागज	-10.6681
मिलिय	-10.6711
मानो	-10.6723
ूर	-10.6729
अफ	-10.674
नेता	-10.6757
स्वीकृत	-10.6766
नियमित	-10.6766
लगी	-10.677
़	-10.6784
शुभ	-10.6799
ट्रैक	-10.6802
hi	-10.6815
देर	-10.6818
ूंगा	-10.684
ाता	-10.6862
ायम	-10.6875
आयी	-10.6876
७	-10.6879
यश	-10.69
संपाद	-10.693
वार्षिक	-10.6933
भूति	-10.6954
‘	-10.6973
प्रचल	-10.6976
क्षेप	-10.698
बोले	-10.6984
μ	-10.6991
इंजीनियर	-10.6991
ऊंचा	-10.6991
महामहिम	-10.6991
माबूद	-10.6991
रौशन	-10.6991
विद्यमान	-10.6991
तकलीफ	-10.6992
मस्जिद	-10.6992
आरम्भ	-10.6992
je	-10.6992
अभियान	-10.6992
जवाहर	-10.6992
कार्रवा	-10.6992
जलवायु	-10.6994
गुजरात	-10.6994
दर्द	-10.6994
▁॰	-10.6995
उम्र	-10.6995
ध्वनि	-10.6999
प्राप्तकर्ता	-10.6999
अज्ञात	-10.7
चाय	-10.7001
साहित्यिक	-10.7004
दंड	-10.7008
दुख	-10.7014
लकड	-10.7014
दादा	-10.7019
पंचा	-10.7022
नष्ट	-10.7024
गु	-10.703
ृ	-10.7032
जड	-10.7034
खुली	-10.7037
तेरा	-10.7041
्ल	-10.7045
लै	-10.7051
हरे	-10.7058
लम	-10.7064
पूछा	-10.7067
ाल	-10.7078
लोगो	-10.7083
ट्स	-10.7088
ot	-10.7093
ॉप	-10.7103
२००	-10.7113
मोट	-10.7117
बीज	-10.7131
प्रकाशन	-10.7133
नजर	-10.7144
क्त	-10.7152
देय	-10.7162
लोकन	-10.7172
पंक्ति	-10.7189
तें	-10.7197
▁--	-10.7203
फरमा	-10.721
खुले	-10.7215
प्रशंसा	-10.7219
बु	-10.724
त्रि	-10.7274
लिखी	-10.7278
भक्ति	-10.7282
नामक	-10.7286
▁:-	-10.7297
मिट	-10.7305
दुर्	-10.7365
काफिर	-10.7378
ताज	-10.7386
;	-10.7389
तकनीक	-10.7389
होम	-10.7399
साझ	-10.7399
गांव	-10.7401
शिक्षक	-10.7403
नियंत्र	-10.7409
कारा	-10.7425
शु	-10.7425
अंतर्	-10.7428
िल्टर	-10.7436
आकर्ष	-10.7442
यन	-10.7444
आध्यात्मिक	-10.7446
निरंतर	-10.7446
निष्क्रिय	-10.7446
मोहम्म	-10.7446
सावधान	-10.7446
नृत्य	-10.7446
वाणिज्य	-10.7446
आबंट	-10.7446
मौलिक	-10.7446
कमांड	-10.7446
पसन्द	-10.7446
ख्यात	-10.7447
डाटा	-10.7447
अस्तित्व	-10.7447
मूल्यांक	-10.7447
पूज्य	-10.7448
घंट	-10.7449
क्रय	-10.745
उत्साह	-10.7451
पर्वत	-10.7451
भरोस	-10.7452
पलट	-10.7452
जनसंख्या	-10.7452
प्रतिक्रिया	-10.7456
विधान	-10.7456
निदेश	-10.7473
ध्व	-10.7474
मिलेगी	-10.7476
दावा	-10.7479
चैन	-10.748
गठन	-10.7482
संरक्ष	-10.7485
स्ट्र	-10.7494
जमीन	-10.7499
भले	-10.7505
जीत	-10.7507
ियर	-10.7508
देवता	-10.7512
दत्त	-10.7522
लेता	-10.7524
अत	-10.7542
आईटी	-10.7562
मास	-10.7567
ुद	-10.759
पूज	-10.7605
नोट	-10.7607
मूल्यों	-10.7625
अवतर	-10.7625
शो	-10.7633
ारिक	-10.7639
असम	-10.7661
समर्प	-10.7672
ख्वाह	-10.7681
नेवाले	-10.7693
जाल	-10.7695
आरोप	-10.7695
बारी	-10.7708
विषयों	-10.7728
करनेवाले	-10.7728
हल्	-10.7735
1.	-10.7737
ar	-10.7748
अना	-10.775
ाकार	-10.776
जेल	-10.7781
बग	-10.7787
कोष	-10.7789
वादा	-10.7799
शोर	-10.7801
ियो	-10.7822
क्यू	-10.7836
ुश	-10.7842
द्र	-10.7845
उपाय	-10.7851
रिश्त	-10.7854
the	-10.7857
साब	-10.7861
भागों	-10.7896
अनुकूल	-10.7902
पर्यट	-10.791
परामर्श	-10.7912
श्रेणी	-10.7918
गिरफ्तार	-10.7922
विश्लेषण	-10.7922
विश्वसनीय	-10.7922
वृक्ष	-10.7922
समग्र	-10.7922
हथियार	-10.7922
शिखर	-10.7922
औलाद	-10.7922
सिफारिश	-10.7922
मेहरबान	-10.7922
झाड	-10.7922
सिविल	-10.7922
उत्कृष्ट	-10.7923
संक्षिप्त	-10.7923
प्रभु	-10.7923
पुष्टि	-10.7923
अल्प	-10.7923
uk	-10.7924
prh	-10.7924
शाखा	-10.7924
सिक्क	-10.7924
दूध	-10.7925
दैव	-10.7925
लक्षण	-10.7925
संकट	-10.7926
▁¦29	-10.7927
शेख	-10.7928
सराहन	-10.7929
घेर	-10.7929
bm	-10.7929
छुट्ट	-10.793
उपर	-10.7931
पीढ	-10.7932
िट	-10.7935
तरण	-10.7935
बदलाव	-10.7939
आओ	-10.7943
जैव	-10.7943
लेंगे	-10.7943
अनुमान	-10.7948
वर्षा	-10.795
जिनको	-10.7959
चंद	-10.7969
पैमान	-10.7976
कहानिय	-10.7985
चेहर	-10.7988
जोर	-10.7998
मैन	-10.7999
ल्स	-10.8003
योग्यता	-10.8007
जंगल	-10.801
सवाल	-10.8025
िस्तान	-10.803
थित	-10.8031
प्रबंधक	-10.8031
असल	-10.8039
ing	-10.8041
घाटी	-10.8048
शख	-10.8057
शार	-10.8069
बरी	-10.8072
निकलने	-10.8089
स्य	-10.8109
पौ	-10.811
डो	-10.8111
बनाये	-10.8117
दोहरा	-10.8126
टेन	-10.8135
फैल	-10.8139
तमिल	-10.8185
्या	-10.822
घन	-10.8228
द्रव	-10.8235
दया	-10.8236
न्न	-10.825
"	-10.8252
घटक	-10.8253
किस्म	-10.8271
डरा	-10.8272
जानने	-10.8279
न्हीं	-10.8288
लाओ	-10.8309
मारी	-10.8314
आज्ञा	-10.8328
गिन	-10.8337
यम	-10.834
अधिसूच	-10.8347
▁\	-10.8355
ic	-10.8361
जय	-10.8365
क्लि	-10.837
ठो	-10.8372
हू	-10.8372
अमेरिक	-10.8382
आदम	-10.8384
मुं	-10.8386
लों	-10.839
औ	-10.8392
संलग्न	-10.8396
शत्रु	-10.84
मस्त	-10.8401
विविध	-10.8412
ब्	-10.8416
यूनिट	-10.8416
पारि	-10.8416
इस्	-10.8417
उम्मीद	-10.8418
सीडी	-10.8418
भि	-10.8418
गाँधी	-10.8422
फिलीस्तीन	-10.8422
बिंदु	-10.8422
मस्तिष्क	-10.8422
मोबाइल	-10.8422
समीक्षा	-10.8422
सर्वेक्षण	-10.8422
जटिल	-10.8422
ब्याज	-10.8422
उपभोक्ता	-10.8422
शरीक	-10.8422
हिमालय	-10.8422
सफेद	-10.8422
देखभाल	-10.8423
महसू	-10.8423
मीडिय	-10.8423
कब्ज	-10.8424
उन्होने	-10.8424
इकाई	-10.8424
प्रायः	-10.8424
टैब	-10.8425
संबद्ध	-10.8425
संयंत्र	-10.8425
मुंब	-10.8426
पाठ्य	-10.8427
विनष्ट	-10.8428
पहलू	-10.8428
दाखिल	-10.8428
राज्यपाल	-10.8428
सरदार	-10.8431
जादू	-10.8432
प्रारूप	-10.8433
चिंता	-10.8434
चैनल	-10.8435
ंद	-10.8435
तात्	-10.8436
इन्सान	-10.8439
हस्त	-10.8443
बोली	-10.8446
id	-10.8446
ौफ	-10.8453
ऊतक	-10.8456
उद	-10.846
ईमेल	-10.8466
दीक्षा	-10.8466
सम्प	-10.8467
निदेशक	-10.847
हान	-10.8481
शास	-10.8482
ौ	-10.8493
रेशन	-10.8494
बाहम	-10.8494
नेपाल	-10.8501
सृजन	-10.8502
ज्ञापन	-10.8505
रिश्ते	-10.8511
टूट	-10.8522
नत	-10.853
बहुतेर	-10.8543
रानी	-10.8544
लौटा	-10.8556
कक्ष	-10.8558
हिसा	-10.8563
er	-10.8567
ed	-10.857
क्ल	-10.8575
पेय	-10.8577
सां	-10.8577
शोक	-10.8592
शाम	-10.8593
इतने	-10.8595
आये	-10.8608
कॉल	-10.8619
आहार	-10.8624
दर्शा	-10.8635
बंध	-10.8639
जु	-10.8642
00¦	-10.8645
्टे	-10.8682
मेंट	-10.8694
रखत	-10.8706
ंगे	-10.8708
संगत	-10.8738
्वा	-10.876
बै	-10.8762
रूस	-10.8763
▁¦21	-10.8764
सि	-10.8775
टिक	-10.8793
रिक्त	-10.8803
नेक	-10.8808
आएग	-10.8827
us	-10.8843
सिन	-10.8852
02	-10.8854
ब्र	-10.8859
हरि	-10.8859
विद्यार्थ	-10.8871
स्तंभ	-10.8899
अपेक्ष	-10.89
कर्तव्य	-10.8901
उठाए	-10.8903
ाएँ	-10.8904
क्षित	-10.8908
लाई	-10.8912
ादत	-10.8934
धु	-10.8934
31¦	-10.8938
अगस्त	-10.8947
आश्चर्य	-10.8949
मुश्किल	-10.8949
श्रद्धा	-10.8949
स्मारक	-10.8949
प्रोत्साहित	-10.8949
क्रांति	-10.8949
दैनिक	-10.8949
इंडियन	-10.8949
त्याग	-10.8949
संतुल	-10.8949
औसत	-10.8949
प्रतिनिधित्व	-10.8949
दिख	-10.8949
▁$	-10.8949
नेअमत	-10.8949
संवर्धन	-10.8949
अग्रिम	-10.895
परिस्थितियों	-10.895
संक्रमण	-10.895
▁!"	-10.8951
मछल	-10.8951
2013¦	-10.8951
2018¦	-10.8952
प्रांत	-10.8952
मिसाल	-10.8953
दीजिए	-10.8953
विरूद्	-10.8953
फिरऔन	-10.8955
इलेक्ट्रॉनिक	-10.8956
qu	-10.8957
चोट	-10.8957
साहब	-10.8958
कमजोर	-10.8958
प्रतिभूति	-10.8958
कीट	-10.8959
फिल्म	-10.8962
प्रसन्नता	-10.8962
अपमान	-10.8964
राजस्थान	-10.8964
खण्ड	-10.8967
सहेज	-10.8967
आजाद	-10.8967
कौशल	-10.8969
खन	-10.8972
मिलती	-10.8973
शासक	-10.8976
खतरा	-10.8977
मित्रता	-10.8984
पत्रिका	-10.8988
लिखे	-10.8989
चुक	-10.8992
लानेवालो	-10.9001
गांवों	-10.9002
प्रेरणा	-10.9005
समझौता	-10.9007
असमर्थ	-10.9008
पेज	-10.9009
मैने	-10.9015
चारों	-10.9018
सामान्यत	-10.9025
बचाने	-10.9037
संध्य	-10.905
डेस	-10.9058
हॉ	-10.9066
समुद्री	-10.907
बेस	-10.9083
माम	-10.9092
सिखा	-10.9096
शर्ते	-10.9099
हिस्से	-10.91
झोंक	-10.9101
जात	-10.9103
▁¦80	-10.9105
कम्प	-10.9105
दन	-10.9106
बादशाह	-10.911
मुक्ति	-10.912
दिस	-10.9135
टैग	-10.9144
ांत	-10.9147
ीजिए	-10.9152
नियोज	-10.9153
वर्गों	-10.9171
निक	-10.9178
चुना	-10.9188
सीसी	-10.9197
णी	-10.92
्कट	-10.9231
साझीदार	-10.9234
बहा	-10.9235
भेजें	-10.9241
नोड	-10.925
चक्र	-10.9251
ज्ञ	-10.9252
▁¦22	-10.9254
ायिक	-10.9267
प्रतिभा	-10.9268
लिक	-10.9271
निकाय	-10.9275
ुड	-10.928
कामना	-10.9281
नुपात	-10.9286
मांस	-10.9288
सर्वाधिक	-10.9301
खुल	-10.9302
वाज	-10.9307
तत्काल	-10.9312
ियत	-10.9344
णा	-10.9381
निका	-10.9408
फ्ल	-10.9441
िय	-10.9445
्री	-10.9462
िये	-10.9477
यादा	-10.948
प्रेष	-10.9488
▁¦28	-10.9494
ुल	-10.9495
ाधिकरण	-10.9503
जहन्न	-10.9504
चेतावनी	-10.9504
न्यायाधीश	-10.9504
चुनौती	-10.9504
शैतान	-10.9504
तत्वदर्श	-10.9504
इज्ज	-10.9505
दाहिन	-10.9505
डिजिटल	-10.9505
बरदस्त	-10.9505
मुगल	-10.9505
आक्रमण	-10.9506
बजट	-10.9506
कम्प्यूटर	-10.9506
तंत्रिका	-10.9507
प्रतीत	-10.9507
सुभाष	-10.9507
मददगार	-10.9507
आनंद	-10.9508
मर्श	-10.9508
बाबू	-10.9509
मक्का	-10.9509
यूरोपीय	-10.951
प्रतियोगिता	-10.951
श्रमिक	-10.9513
गेंद	-10.9516
फसल	-10.9517
टू	-10.9519
मकान	-10.9519
ेरत	-10.9521
फैसल	-10.9522
उदार	-10.9525
कालीन	-10.9547
दरवाज	-10.9547
बहन	-10.9569
ुक	-10.9577
बचे	-10.959
अस	-10.9597
बोस	-10.9607
संस्थाप	-10.9612
पुस्तकों	-10.9614
ामक	-10.9636
फूल	-10.9642
न्य	-10.9649
जिले	-10.9667
ून	-10.9667
वाह	-10.9685
होगे	-10.969
दाम	-10.9693
मंज	-10.9702
रों	-10.9703
आफ	-10.9707
तीसरे	-10.973
:	-10.9751
प्रविष्टि	-10.9754
▁¦194	-10.9763
स्थिर	-10.9763
ज्	-10.9763
लिन	-10.9763
वैस	-10.9765
मं	-10.9793
दिखाने	-10.9794
,000¦	-10.9798
15¦	-10.9801
iii	-10.9807
vi	-10.982
रण	-10.9882
अभिव्यक्ति	-10.9889
रार	-10.9893
बैक	-10.9911
िज	-10.9926
लॉकि	-10.994
लगाता	-10.9944
तीस	-10.9963
प्राथमिक	-10.9985
मोद	-10.9991
र्र	-10.9995
हि	-10.9996
घात	-11.001
बारह	-11.0013
ोस	-11.0019
चीजों	-11.003
शाही	-11.0042
मुकदम	-11.0052
खेत	-11.0062
दुआ	-11.0081
ूह	-11.0082
छू	-11.009
रजिस्ट्र	-11.0091
detail	-11.0092
उल्लंघन	-11.0092
ब्राह्मण	-11.0092
जम्मू	-11.0092
आंध्र	-11.0092
शुरुआत	-11.0092
सर्वोत्त	-11.0092
जोखिम	-11.0092
इजाज	-11.0092
जनरल	-11.0092
www	-11.0092
india	-11.0093
मेहनत	-11.0093
पुस्तकालय	-11.0093
अकबर	-11.0093
दुर्घटना	-11.0093
सहेजे	-11.0093
शिक्षण	-11.0093
विद्रोह	-11.0093
धातु	-11.0093
परीक्षण	-11.0094
नवान्वेषण	-11.0094
कार्यान्वयन	-11.0097
क्षति	-11.01
अहमद	-11.0105
आकर	-11.0106
छूट	-11.0108
मानवीय	-11.0108
सब्र	-11.0108
उर्	-11.0109
on	-11.0114
करवा	-11.0114
पंख	-11.0123
सिंच	-11.0123
बुराई	-11.013
क्षण	-11.0134
संपादक	-11.0135
उद्	-11.0135
अमर	-11.0136
डराने	-11.0139
बाधा	-11.0146
विविधता	-11.0149
अनाज	-11.0153
ब्ल	-11.0155
भूख	-11.0155
अभाव	-11.0164
तबाह	-11.0166
दावे	-11.0168
डरते	-11.0175
स्प	-11.0177
सहज	-11.018
विद्यार्थियो	-11.0181
सच्चा	-11.0186
घरेल	-11.0217
दार्	-11.0219
ौड	-11.0227
उत्तरी	-11.0234
कंपनिय	-11.024
पल	-11.0259
शंकर	-11.0269
कारक	-11.0273
पोत	-11.0276
चलने	-11.0276
मारे	-11.0288
पक्षों	-11.0295
ाईल	-11.0302
मिंग	-11.0305
हाज	-11.0309
भेजे	-11.0311
नबी	-11.0315
ाणु	-11.0332
ॉँ	-11.0359
▁¦40¦	-11.0364
नु	-11.0367
भरे	-11.0377
भरा	-11.0397
मियान	-11.0399
2014¦	-11.04
पं	-11.0419
अन्तर्	-11.0437
उच्चत	-11.045
निकास	-11.045
गन	-11.0452
आं	-11.0468
सोचा	-11.0479
ीनी	-11.048
ब्रि	-11.0485
वॉ	-11.0495
९	-11.0495
लेखन	-11.0512
िक्स	-11.0525
वां	-11.0539
सेल	-11.054
आना	-11.0562
हन	-11.0569
युक्ति	-11.057
आईसी	-11.0571
पाता	-11.0581
अन्तर	-11.0585
एगा	-11.059
34	-11.0591
ेरी	-11.0605
डाले	-11.0614
बाकी	-11.0617
आस्था	-11.0623
गरीब	-11.0677
व्याख्या	-11.0677
30	-11.0704
ऊँच	-11.0708
व्यावस	-11.0709
फ्री	-11.071
नदिय	-11.0712
ढूंढ	-11.0712
pres	-11.0713
संभाव	-11.0717
#-#-#-#	-11.0717
ऊंचे	-11.0717
निष्कर्ष	-11.0717
प्रावधान	-11.0717
विपणन	-11.0717
श्रृंखला	-11.0717
सामर्थ्य	-11.0717
▁¦1956¦	-11.0717
खींच	-11.0717
कार्यवाही	-11.0717
डिजाइन	-11.0717
आउटपुट	-11.0717
release	-11.0717
चरित्र	-11.0718
विनय	-11.0718
परेशान	-11.0718
ट्यूब	-11.0718
इमारत	-11.0718
आत्मनिर्भर	-11.0718
कॉन्फ	-11.0718
शोथ	-11.0719
कार्बन	-11.0719
प्रतिष्ठि	-11.072
2016¦	-11.072
आनन्द	-11.0721
गौरव	-11.0721
ंतरिक	-11.0721
मर्द	-11.0721
press	-11.0723
वियत	-11.0726
परिसर	-11.0727
अखिल	-11.0728
चाहेंगे	-11.073
खराब	-11.0731
sh	-11.0731
भंग	-11.0733
अक्षर	-11.0737
एहद	-11.074
डिफ	-11.0752
सांस	-11.0754
परीत	-11.0755
बटन	-11.0757
आदान	-11.0758
िस्म	-11.076
▁/-	-11.0764
सतत	-11.0766
कुरान	-11.0767
मुद्र	-11.0772
त्म	-11.078
दिखाये	-11.0781
ूँ	-11.0781
साद	-11.0783
फट	-11.0784
सशक्त	-11.0789
शिशु	-11.0794
गोया	-11.0801
कचर	-11.0803
09	-11.081
सदस्यता	-11.0811
भौतिक	-11.0821
con	-11.0822
▁¦202	-11.0825
माफ	-11.0827
दवा	-11.0837
आईडी	-11.0838
इक	-11.0839
इंग	-11.0841
रम	-11.0851
परवाह	-11.0874
हड	-11.0889
प्रेस	-11.0895
विभागों	-11.0898
तुझ	-11.0899
प्रवास	-11.0904
तुर	-11.0912
फिल	-11.0917
ra	-11.0924
समानता	-11.0931
टिंग	-11.0933
▁¦198	-11.0934
मस	-11.0938
ॉल्ट	-11.0954
प्रतिवाद	-11.0989
दरा	-11.099
िश्त	-11.0991
चम	-11.1008
आइ	-11.1011
ड्र	-11.1014
फेंक	-11.1023
रोपण	-11.1031
कमज	-11.1038
खबर	-11.106
खाओ	-11.1072
मरने	-11.1073
मुड	-11.108
अली	-11.1115
नाग	-11.1115
उज	-11.1116
स्क	-11.1146
र्ट	-11.1151
आस्ति	-11.1166
लय	-11.1166
र्ड	-11.1172
बज	-11.1186
ावस्था	-11.1188
परत	-11.1205
देशी	-11.1217
तरी	-11.1219
500	-11.1245
विस्त	-11.1257
कू	-11.1259
ाते	-11.1274
बचत	-11.1279
कर्ज	-11.1293
राइट	-11.1296
इफ	-11.1303
वाल	-11.1304
टों	-11.1314
शिक्ष	-11.1316
प्ल	-11.133
द्ध	-11.1335
तथ्य	-11.1338
th	-11.1341
शैल	-11.1345
भौ	-11.1346
जापान	-11.1349
सख	-11.1352
ुबूल	-11.1362
तस	-11.1374
जुल	-11.1378
बूझ	-11.1382
काश	-11.1382
गंतव्य	-11.1384
प्रासंगिक	-11.1384
वरिष्ठ	-11.1384
सूक्ष्म	-11.1384
स्क्रिप्ट	-11.1384
जागरूक	-11.1384
स्पर्श	-11.1384
info	-11.1384
ब्राउज	-11.1384
सेक्टर	-11.1384
उद्यान	-11.1384
तलाश	-11.1384
विष्णु	-11.1384
प्रयत्न	-11.1384
मंजूर	-11.1384
सन्तान	-11.1384
छुट	-11.1384
कर्ण	-11.1385
फरवरी	-11.1385
मुकाबल	-11.1385
रणनीति	-11.1385
पाँच	-11.1385
दुकान	-11.1386
घुस	-11.1386
▁—	-11.1386
विशेषज्ञ	-11.1386
रंगमंच	-11.1386
शस्त्र	-11.1386
सम्भव	-11.1386
राट	-11.1387
स्नातक	-11.1388
दिव्य	-11.1388
बायो	-11.1388
जेक्ट	-11.1389
बांध	-11.139
ोत्तर	-11.139
दलील	-11.1393
सभ्यता	-11.1393
आग्रह	-11.1395
सूर्य	-11.1395
सचेत	-11.1396
प्रतिफल	-11.1396
खून	-11.1398
कहलात	-11.14
टिप्पणी	-11.1402
ाबू	-11.1402
आबादी	-11.141
सौर	-11.1427
मध्यम	-11.1429
फार्म	-11.1432
सकेंगे	-11.1433
दरबार	-11.1439
ांतर	-11.1446
रमा	-11.1447
कार्	-11.1449
डूब	-11.1452
अहल	-11.1458
आमंत्र	-11.1465
पाद	-11.1468
स्थग	-11.1478
कूल	-11.1479
मानवता	-11.1484
विरोधी	-11.1487
अज्ञान	-11.149
गणित	-11.1491
मौत	-11.1494
आर्	-11.1494
अध	-11.1499
कहेग	-11.1505
आखिर	-11.151
प्रशिक्ष	-11.1511
नस्ल	-11.1512
चन	-11.1515
अस्था	-11.1524
चोर	-11.1551
माने	-11.1552
हिंसा	-11.1557
तारा	-11.1558
मेन	-11.1565
सदा	-11.1565
01	-11.1566
रंपरि	-11.1566
सिफ	-11.1572
सदी	-11.1573
वेशन	-11.1601
लॉक	-11.1604
चलाने	-11.1608
रंज	-11.1613
ूत	-11.1615
ठहरे	-11.1628
भक्त	-11.1629
जिहा	-11.1637
सल	-11.1648
दायर	-11.1648
q	-11.1651
कैल	-11.1652
कब	-11.1656
सवार	-11.1657
अक्	-11.1663
वती	-11.167
साथियों	-11.1684
आंख	-11.1699
रोकने	-11.1713
एंड	-11.1716
ंदेह	-11.1718
हरी	-11.1722
किला	-11.1727
रेडियो	-11.1743
▁¦23	-11.1758
भग	-11.1763
ation	-11.1763
रचनात्मक	-11.1768
स्वाद	-11.1782
सेटिंग	-11.1796
छाप	-11.18
पय	-11.1802
पहन	-11.1804
▁¦201	-11.1806
▁¦196	-11.1821
माया	-11.1821
दीक	-11.1823
उधार	-11.1829
कुफ	-11.1843
गम	-11.1852
बेल	-11.1865
्यु	-11.1874
ट्ट	-11.1882
शान	-11.1892
ाफ	-11.1902
लत	-11.1906
दाद	-11.193
चन्द	-11.1961
ther	-11.1963
ाचार	-11.1967
ीदा	-11.1978
04	-11.1984
बादल	-11.1991
जलि	-11.1993
वस	-11.2007
फू	-11.2009
औषध	-11.2019
▁).	-11.2025
यूँ	-11.2026
निर	-11.2039
पित	-11.2042
▁¦31	-11.2046
निष्ठ	-11.2052
बाई	-11.2052
अनुज्ञा	-11.2056
गेट	-11.2059
सुनने	-11.207
ुदरत	-11.2075
इंच	-11.208
(	-11.208
दिखाय	-11.2086
भेद	-11.2092
दुखद	-11.2093
आँकड	-11.2098
अस्पताल	-11.2098
क्रियाकलाप	-11.2098
ग्रन्थ	-11.2098
पृथ्वी	-11.2098
प्रयोक्ता	-11.2098
मुसीबत	-11.2098
▁¦27¦	-11.2098
दुःख	-11.2098
सीआरए	-11.2098
कर्नाटक	-11.2098
मुलाकात	-11.2098
संतुष्ट	-11.2098
वसूल	-11.2099
जादूगर	-11.2099
हार्द	-11.2099
संभाल	-11.2099
सम्बंध	-11.2099
बाह्य	-11.2099
पुराण	-11.21
इंग्लै	-11.21
चावल	-11.21
इनपुट	-11.21
स्कीम	-11.2101
उपेक्ष	-11.2101
चिकित्सक	-11.2101
चिर	-11.2101
प्रसंग	-11.2101
पादप	-11.2101
राजधान	-11.2101
अनुसूचित	-11.2102
प्रतिबंध	-11.2102
वकील	-11.2103
ोक्त	-11.2103
प्रतिबद्ध	-11.2104
प्रोटोक	-11.2105
संचालि	-11.2106
मार्	-11.2108
चंड	-11.211
मासिक	-11.211
आपूर्ति	-11.211
अनुदान	-11.2113
।	-11.2114
प्रवर्तन	-11.2117
शादी	-11.2118
तं	-11.2119
पाओ	-11.2119
इकाइय	-11.2122
दरिया	-11.2126
डु	-11.2128
-19	-11.2128
पारदर्श	-11.2132
सेवाएं	-11.2132
िपत्र	-11.2132
वश	-11.2137
स्विच	-11.2137
वंच	-11.2138
जैन	-11.2139
ईसाई	-11.2143
सूख	-11.2147
सोस	-11.2151
समझे	-11.2156
टीम	-11.2163
मॉडल	-11.2163
मुफ	-11.2173
तोष	-11.2174
न्तर	-11.2182
वली	-11.2189
▁¦2017¦	-11.2193
आमाल	-11.2193
सुनता	-11.2194
वासियों	-11.2195
na	-11.2204
▁¦193	-11.2205
मित्रों	-11.2207
चीनी	-11.2213
सारण	-11.2216
अभिगम	-11.223
कौ	-11.2245
चै	-11.2248
हिल	-11.2248
धारित	-11.2251
मार्क	-11.2253
कहां	-11.2254
घिर	-11.2255
ao	-11.2259
णिक	-11.2268
मेज	-11.227
वार्	-11.2271
भर्त	-11.2279
लाज	-11.2279
मती	-11.2282
बख	-11.2285
खतरे	-11.2288
घुमा	-11.2294
आड	-11.2308
बंदी	-11.2309
प्लेट	-11.2311
तारी	-11.2314
रवी	-11.2315
प्रथा	-11.2318
धारणा	-11.2321
08	-11.2337
बालक	-11.2341
विनिम	-11.2349
छिप	-11.2351
कुर्	-11.2369
ईरान	-11.2377
लाएँगे	-11.2379
le	-11.2391
पक्	-11.2395
बूत	-11.2397
ुशी	-11.2397
नकद	-11.2399
-20	-11.2406
सकार	-11.2406
ांक	-11.2417
बट	-11.2419
सरी	-11.2421
es	-11.2422
इसर	-11.2429
छुपा	-11.2438
or	-11.2457
बिन	-11.2482
सलाम	-11.2503
फै	-11.2504
ब्रा	-11.2506
वरन	-11.2509
कोलक	-11.2521
प्रविष्ट	-11.253
रोका	-11.256
thi	-11.2564
यार	-11.258
अक्षम	-11.2582
ग्रे	-11.2582
नकल	-11.2603
पत्ति	-11.2632
अनदेख	-11.2633
ाइन	-11.2638
क्शन	-11.266
रियल	-11.2684
जायें	-11.2686
स्टेशन	-11.269
वृत्ति	-11.27
पटल	-11.2743
िगर	-11.278
विड	-11.2784
ज्ञात	-11.2789
टाल	-11.279
सूचित	-11.2792
प्रतिष्ठा	-11.2798
पूछें	-11.2804
ंदन	-11.2808
संशोध	-11.2808
प्राधिकार	-11.2811
बिट	-11.2811
पंच	-11.2816
चक्	-11.2824
ढांच	-11.2826
j	-11.2827
साम्राज्य	-11.2829
जिल	-11.2831
सुर	-11.2832
निया	-11.2844
▁¦2000	-11.2845
प्रसन्न	-11.2851
बुद्ध	-11.2852
न्द्रना	-11.2854
जाओग	-11.2855
ङ	-11.2861
िल्म	-11.2862
बूल	-11.2866
¬	-11.2867
माइक्रो	-11.2867
▁¦2007¦	-11.2867
बल्लेबाज	-11.2867
व्युत्पन्न	-11.2867
▁¦2005	-11.2867
बूढ	-11.2868
अग्नि	-11.2868
टाइम	-11.2868
निष्पादन	-11.2868
उपाधि	-11.2868
टेलीफ	-11.2868
क्रिकेट	-11.2868
संहिता	-11.2868
निर्वाचन	-11.2868
साझेदार	-11.2868
जन्नत	-11.2868
एक्सचेंज	-11.2868
मजबूर	-11.2868
मराठ	-11.2868
मुच	-11.2868
पिछड	-11.2868
गुफा	-11.2868
चेक	-11.2868
गतिविधि	-11.2869
अक्तू	-11.2869
निवारण	-11.2869
सॉफ्टवे	-11.2869
पासवर्ड	-11.2869
अर्ध	-11.2869
कॉपी	-11.2869
व्यस्त	-11.287
प्रान्त	-11.287
उत्सव	-11.2871
अदालत	-11.2871
आचार्य	-11.2871
रहस्य	-11.2871
सैनिक	-11.2872
स्वर्ग	-11.2872
प्रौ	-11.2872
अभ्यास	-11.2872
उपर्युक	-11.2873
सीधा	-11.2875
गुरू	-11.2876
उपयोगकर्ता	-11.2877
समुच	-11.2878
आशु	-11.2879
संपद	-11.2882
खत्म	-11.2882
कालेज	-11.2882
निगरा	-11.2883
्द	-11.2884
हिंदी	-11.2884
बेड	-11.2885
समावेश	-11.2886
संकलन	-11.2889
ैत	-11.2891
इट	-11.2893
यात्र	-11.2897
लम्ब	-11.2898
ईंट	-11.2899
दंत	-11.2902
अमल	-11.2905
मादा	-11.2906
आपदा	-11.2912
शिष्ट	-11.2912
पुल	-11.2919
निष्ठा	-11.2919
कष्ट	-11.292
कृत्य	-11.2921
सम्मानित	-11.2926
दीवान	-11.2929
कलाकार	-11.293
ॉन	-11.2932
तन	-11.2935
कोर्ट	-11.2941
सुल	-11.2942
नर्स	-11.2943
कठिनाइय	-11.2944
ह्य	-11.2956
परसत	-11.2957
शहरी	-11.2958
इल्	-11.2963
अलबत	-11.2971
ोबार	-11.2978
तालाब	-11.2986
बुक	-11.3003
कमर	-11.3003
sa	-11.3009
परस्त	-11.3013
बिता	-11.3015
र्जन	-11.3023
उपज	-11.3031
१०	-11.3032
लीन	-11.3041
इयों	-11.3058
बरस	-11.307
१७	-11.3072
चना	-11.3076
नहरे	-11.3078
ाएगा	-11.3102
पूर्णत	-11.3112
आश	-11.3126
तीत	-11.3147
शाला	-11.3154
विष	-11.3154
पेशी	-11.3161
लिफ	-11.3164
प्रोफ	-11.3166
गिरा	-11.317
पहुंचे	-11.3176
परम	-11.3182
en	-11.3193
्ति	-11.3198
वैसे	-11.32
पाठक	-11.3224
लगाए	-11.3245
्ज	-11.3253
पहुँचे	-11.3255
रूरत	-11.3263
टर्न	-11.3272
दर्शक	-11.3279
नेत्र	-11.3285
कल्पि	-11.3286
it	-11.3286
मारा	-11.3288
दर्जे	-11.3298
ेयर	-11.3306
दह	-11.331
ाधिकार	-11.3315
पैन	-11.3328
प्रेषित	-11.3337
बां	-11.335
दीर्घ	-11.3358
रेट	-11.3368
नकदी	-11.3383
परिभाषा	-11.3386
दूँ	-11.3391
परमाण	-11.3391
ाइयों	-11.3414
न्ट	-11.3442
लिपि	-11.3445
निचल	-11.3465
ia	-11.3475
चैत	-11.3478
डालें	-11.3481
ाइलें	-11.3507
प्प	-11.351
िला	-11.3515
ँग	-11.3528
नवीन	-11.354
ाली	-11.3549
्यू	-11.3559
खतर	-11.3577
पैस	-11.3586
परिकल्प	-11.3591
use	-11.3595
तंग	-11.3596
co	-11.36
सरो	-11.3609
मंत्रण	-11.3612
शरा	-11.3618
विद	-11.3624
अवज्ञा	-11.3627
थो	-11.3637
आल	-11.364
रोड	-11.3648
आरक्ष	-11.3651
यहूद	-11.3654
un	-11.3659
फायद	-11.366
टेबल	-11.3678
'	-11.3679
{	-11.3682
ीर्ण	-11.3688
िरऔन	-11.3691
पिला	-11.3691
एकता	-11.3694
फोट	-11.3697
पश्च	-11.3699
विद्या	-11.3699
समापन	-11.37
भ्रष्ट	-11.37
त्सव	-11.3701
रुचि	-11.3701
वैष्ण	-11.3701
	-11.3701
आजीविका	-11.3701
आलोचना	-11.3701
वास्तुकला	-11.3701
साक्ष्य	-11.3701
स्मरण	-11.3701
▁¦1957¦	-11.3701
गाँव	-11.3701
हिंदुस्तान	-11.3701
औपचारिक	-11.3701
पंडित	-11.3701
पीडीएफ	-11.3701
मुल्क	-11.3701
प्यार	-11.3701
१५	-11.3701
झुठलाओग	-11.3701
सटीक	-11.3701
साक्षी	-11.3701
पैरामीटर	-11.3701
पब्लिक	-11.3701
तत्त्व	-11.3701
डिग्री	-11.3701
पचास	-11.3701
बिन्दु	-11.3701
कृतज्ञ	-11.3701
परिचय	-11.3702
सैन्य	-11.3702
दुश्मन	-11.3702
होटल	-11.3702
संग्रहालय	-11.3702
▁=	-11.3702
पाइप	-11.3702
नवाचार	-11.3702
व्याकरण	-11.3702
पेंशन	-11.3703
wea	-11.3703
प्रदूषण	-11.3704
जयंत	-11.3704
प्लगइन	-11.3704
च्छिक	-11.3704
बचपन	-11.3704
ice	-11.3704
हार्ड	-11.3704
सुसंगत	-11.3704
अपवाद	-11.3705
प्रेत	-11.3705
▁¦2008	-11.3705
क्लब	-11.3707
फूँक	-11.3709
अधिकरण	-11.371
फोटो	-11.3711
वर्गीकरण	-11.3711
गंध	-11.3711
ोल	-11.3711
खिलाड	-11.3712
मुनाफ	-11.3712
टिकट	-11.3715
कामगार	-11.3715
कुशलता	-11.3716
धीम	-11.3716
उभार	-11.3721
आकृति	-11.3725
सितार	-11.3725
तत्	-11.3727
बन्दे	-11.373
कुदरत	-11.373
सच्चाई	-11.373
आगमन	-11.3731
os	-11.3733
नीम	-11.3737
टेल	-11.3739
अतिथि	-11.374
विनाश	-11.3743
शराब	-11.3745
आदत	-11.3747
गज	-11.375
मारते	-11.3752
अर्	-11.3754
आपात	-11.3755
हवाई	-11.3756
तथ्यों	-11.376
मीम	-11.3762
प्रकाशना	-11.3762
बंदर	-11.3763
ांश	-11.3767
रहेगी	-11.377
कॉम	-11.3775
po	-11.3776
चमक	-11.3777
टेक	-11.3777
वगै	-11.3782
परदा	-11.379
रचित	-11.3791
अमरीक	-11.3804
निकाले	-11.3805
िणी	-11.3812
ावधि	-11.3818
सतह	-11.3828
स्वी	-11.3848
वस्था	-11.3854
सहार	-11.3855
पोस्ट	-11.3855
टिन	-11.3856
उत्पादक	-11.3865
घा	-11.3868
अंतरि	-11.3872
किंग	-11.3874
ल्ल	-11.388
रें	-11.3881
मेट	-11.3881
डीपी	-11.3884
उल	-11.3898
ग्राफ	-11.39
किमी	-11.3905
बम	-11.3912
िक्र	-11.3916
पहर	-11.392
प्रजातिय	-11.3923
नै	-11.3929
पूर्ववर्	-11.3937
त्वर	-11.3948
इराद	-11.3948
मंत्रालयों	-11.3952
बौ	-11.3955
धो	-11.3956
कोण	-11.3976
समाजवाद	-11.3998
मख	-11.4002
िलाफ	-11.4009
उत	-11.4012
ान्त	-11.4017
वाण	-11.4019
अकेल	-11.4026
वाक्य	-11.4031
टोप	-11.4045
ढे	-11.4051
ाइज	-11.4055
ेस	-11.4068
▁¦2015¦	-11.4078
फलक	-11.4088
कलाम	-11.4093
अन्तर्ग	-11.4098
पुरी	-11.4103
हमला	-11.4103
जला	-11.4105
उदय	-11.411
ल्ड	-11.4115
मंत्र	-11.4115
कुफ्	-11.4136
ट्रै	-11.4151
विध	-11.4155
रोध	-11.4156
व्यवस्थ	-11.4157
पाप	-11.4164
कमल	-11.4176
हाथी	-11.4202
गुल	-11.4218
हरित	-11.4219
ta	-11.4232
ईमानवाल	-11.4242
एह	-11.4249
ction	-11.425
ारिश	-11.4272
कॉ	-11.4275
क्ति	-11.4279
दफ	-11.4294
संचय	-11.4294
खिल	-11.4307
प्रशांत	-11.4307
ur	-11.4308
ठी	-11.4318
स्टो	-11.4319
ूति	-11.4325
सऋ	-11.4329
39	-11.4343
रियों	-11.4344
रच	-11.4352
विदा	-11.4353
कना	-11.4359
लभ	-11.4361
घूम	-11.4365
गोर	-11.4381
13	-11.4384
कति	-11.4385
टॉ	-11.4395
नाप	-11.4396
प्स	-11.4423
are	-11.4432
चाहो	-11.4438
भटक	-11.4451
गीता	-11.4457
प्रतिमा	-11.4463
खात	-11.4475
गाम	-11.4479
क्ट	-11.4493
ैम	-11.4502
ानु	-11.4504
मश	-11.4518
निस्	-11.4541
ूस	-11.455
11	-11.4551
आइए	-11.4567
संगठ	-11.4567
चर्च	-11.457
लेट	-11.457
संबोध	-11.4571
90¦	-11.4571
ायण	-11.458
चन्द्र	-11.4582
हिमा	-11.4584
ुष	-11.4596
प्ले	-11.4597
पूछे	-11.4598
उन्नत	-11.4609
अंध	-11.4609
आह्वा	-11.461
पुष्प	-11.461
	-11.461
अब्दुल्ला	-11.461
कार्यकलाप	-11.461
पार्श्व	-11.461
शिष्य	-11.461
सुपुर्द	-11.461
आश्वासन	-11.461
परिचालन	-11.461
समायोज	-11.461
एहसान	-11.461
कॉलेज	-11.461
मौजिज	-11.461
फरमाबरदार	-11.461
नारायण	-11.461
वरीयता	-11.461
सीधी	-11.461
इंसान	-11.461
पैकेज	-11.4611
याचिका	-11.4611
सद्भाव	-11.4611
दक्षता	-11.4611
अभिदाता	-11.4611
शुरूआत	-11.4611
अपीलार्थ	-11.4611
बाध्य	-11.4611
▁¦1961	-11.4611
we	-11.4611
केडीई	-11.4611
सम्बद्ध	-11.4611
रिकार्ड	-11.4611
प्रयोगशाला	-11.4612
स्वचाल	-11.4612
समकालीन	-11.4612
ग्न	-11.4613
मणि	-11.4613
2001¦	-11.4613
छंद	-11.4614
कथन	-11.4614
तीव्र	-11.4614
फॉर्म	-11.4615
सुन्दर	-11.4615
संगणन	-11.4615
द्रास	-11.4615
भत्त	-11.4616
दाव	-11.4616
राब	-11.4617
साइक	-11.4617
पृथक	-11.4617
फौज	-11.4617
व्यक्तित्व	-11.4619
सब्ज	-11.4619
वचन	-11.462
सौदा	-11.4621
tel	-11.4621
निधन	-11.4621
इलाज	-11.4622
सीरिया	-11.4623
कीटनाशक	-11.4624
शिला	-11.4626
मोटर	-11.4628
झील	-11.4629
हँसी	-11.463
हंस	-11.4631
परिस्थिति	-11.4631
िमाग	-11.4632
सतर्क	-11.4633
फ्टवे	-11.4635
तुर्की	-11.4635
आँखों	-11.4636
गन्ना	-11.464
अवधारणा	-11.4644
आकल	-11.4644
थल	-11.4644
com	-11.4648
किताबें	-11.4665
चुपके	-11.4669
आराम	-11.4675
सक	-11.4678
याची	-11.468
नियंत्रक	-11.4681
यहूदी	-11.4682
यांत्रिक	-11.4689
कक्षा	-11.4691
छड	-11.4692
.09.201	-11.4692
उत्तरदाय	-11.4697
गरीबी	-11.4698
अन्याय	-11.4699
़ी	-11.4702
वाहन	-11.4703
वाय	-11.4704
for	-11.4705
ट्रे	-11.4707
निशानिय	-11.471
डब्लू	-11.4716
प्रदाता	-11.4718
धार	-11.4721
र्ज	-11.4723
ादिर	-11.4727
म्य	-11.4731
लंग	-11.4733
लिखना	-11.4737
वार्षिकी	-11.4737
्रा	-11.4751
कोटि	-11.476
असामान्य	-11.4764
म्यू	-11.4771
वर्क	-11.478
चाप	-11.4782
आज्ञाकार	-11.4788
िंदा	-11.4791
मूहि	-11.4792
काले	-11.4799
पंथ	-11.48
वर्षीय	-11.4802
आर्य	-11.4815
जंग	-11.4816
ca	-11.4818
अंड	-11.4818
अनुप	-11.4828
▁()	-11.483
ba	-11.4832
संग	-11.4832
वार्ता	-11.4833
बोला	-11.4842
कृपा	-11.4849
मुहर	-11.4851
पार्क	-11.4858
ेंडर	-11.4867
ma	-11.487
माइ	-11.4873
स्त्र	-11.4873
संदे	-11.4875
ोरी	-11.4877
आयाम	-11.4877
ुस	-11.4884
जाकर	-11.4889
राना	-11.4893
हाई	-11.4893
ाबिल	-11.49
उत्तरा	-11.4908
िद	-11.4915
िकेट	-11.4925
यानि	-11.4928
नुमा	-11.4933
माई	-11.4935
ाहौल	-11.4936
केन्द्रों	-11.4952
शह	-11.4969
केंद्रों	-11.497
नेशन	-11.4971
अभिव्यक्त	-11.4976
ायदा	-11.4995
el	-11.4999
माउस	-11.5002
झुका	-11.5031
रीक्षण	-11.5034
मण्ड	-11.5044
आँखे	-11.5049
राहत	-11.5051
मंत्रि	-11.5055
मसल	-11.5056
चट	-11.5058
मॉ	-11.507
रवान	-11.5086
लीस	-11.5099
उत्पा	-11.512
48¦	-11.5138
द्द	-11.514
मानता	-11.5154
खनिज	-11.5188
पीएस	-11.519
तिर	-11.5193
ग्री	-11.5195
सिया	-11.5196
49	-11.5199
ंकन	-11.5207
गमन	-11.5226
अस्थि	-11.5228
हानुभ	-11.5229
ष्टि	-11.5231
तस्	-11.5237
रूह	-11.524
नहर	-11.5254
▁¦33	-11.5256
ारी	-11.5289
टोक	-11.5295
र्पित	-11.5297
ानिक	-11.5299
नेमत	-11.5309
60¦	-11.5315
सजा	-11.5325
रिस	-11.5339
इलाक	-11.5349
त्तर	-11.5367
गान	-11.5369
ट्री	-11.5397
नियुक्ति	-11.5408
ज़	-11.5436
टेड	-11.5437
एजेंस	-11.5439
सृज	-11.5448
ताब	-11.5454
लाएँ	-11.5458
यावान	-11.546
प्राय	-11.5466
रंत	-11.5469
िटी	-11.5478
स्पति	-11.5479
वाड	-11.5483
ओल	-11.549
जवान	-11.5493
पराज	-11.5503
कराए	-11.5505
मिलेग	-11.5509
निवेद	-11.5519
काला	-11.5521
स्टी	-11.5523
यात	-11.5527
फरिश्त	-11.5538
फु	-11.5539
अक्ष	-11.5544
लती	-11.5553
बनो	-11.5558
चिन्ह	-11.5559
पुन	-11.556
भोज	-11.5579
गुर	-11.5583
बत	-11.5593
सूचक	-11.56
डीए	-11.5604
कार्यान्व	-11.5605
ौलत	-11.5607
शिल्प	-11.561
लाइसेंस	-11.561
generic	-11.561
आकांक्षा	-11.561
परम्परा	-11.561
मुहम्मद	-11.561
विद्वत	-11.561
व्यावहारिक	-11.561
प्रतिस्पर्ध	-11.561
विकलांग	-11.561
संकीर्ण	-11.561
भ्रंश	-11.561
दिलचस्प	-11.561
डॉक्टर	-11.561
हफ्त	-11.561
सन्देह	-11.561
ance	-11.561
यथार्थ	-11.561
अनन्त	-11.561
पर्दा	-11.561
आभास	-11.561
सौभाग्य	-11.561
निःशुल्क	-11.561
सिद्धान्त	-11.5611
डाक्टर	-11.5611
पथभ्रष्ट	-11.5611
चाँद	-11.5611
अपशिष्ट	-11.5611
▁¦2006¦	-11.5611
typ	-11.5611
क्रमांक	-11.5611
२०	-11.5611
स्पेन	-11.5611
मातृ	-11.5612
फर्म	-11.5612
उत्तरदायित्व	-11.5612
विशेषाधिकार	-11.5612
अनुयाय	-11.5612
लैंग	-11.5613
परिश्रम	-11.5613
चानक	-11.5613
नागरी	-11.5613
कुफ्फार	-11.5613
खुशहाल	-11.5614
परंपरागत	-11.5614
स्वार्थ	-11.5614
▁¦2019	-11.5615
महाराजा	-11.5615
विभेद	-11.5616
निगाह	-11.5616
पद्धतियों	-11.5616
शांत	-11.5616
सर्विस	-11.5617
cons	-11.5618
मान्य	-11.5619
डेयर	-11.562
निर्गम	-11.5621
आघात	-11.5621
संवेद	-11.5621
गहन	-11.5621
कामयाब	-11.5622
भव्य	-11.5623
पाबन्द	-11.5625
बांस	-11.5625
भागवत	-11.5625
स्वदेशी	-11.5626
जनजाति	-11.5627
घाव	-11.5629
टेढ	-11.5629
सघन	-11.563
राजभाषा	-11.5631
पुस्तकें	-11.5631
बीबी	-11.5632
लाम	-11.5633
चश्म	-11.5634
आक्स	-11.5635
नमून	-11.5635
ॉर्ट	-11.5638
जम	-11.5639
विवेक	-11.564
अनुसूची	-11.5641
हिन्दु	-11.5642
पालि	-11.5642
ld	-11.5645
पाँ	-11.5645
थि	-11.5647
कुबूल	-11.5649
पार्ट	-11.5649
टिव	-11.565
अंतः	-11.5653
झेल	-11.5654
देह	-11.5657
१९९	-11.5665
ढांचा	-11.5665
ोरम	-11.5667
अकेले	-11.5674
mb	-11.5682
पेन	-11.5685
बदकार	-11.5685
वारा	-11.5686
संपादन	-11.5687
शान्त	-11.5687
मुकदमे	-11.5687
ग्रा	-11.5688
प्ट	-11.5695
किशोर	-11.5696
कार्यनीति	-11.5699
मील	-11.5701
19¦	-11.5706
64¦	-11.5706
कात	-11.5707
देखी	-11.5711
ूमत	-11.5711
आदर	-11.5717
नंद	-11.5718
uri	-11.5731
iv	-11.5733
मेहर	-11.5733
साझी	-11.5738
पट्टे	-11.5745
शिका	-11.5749
कनेक्ट	-11.575
राजस्व	-11.5752
सिस	-11.5754
बॉ	-11.5755
िरों	-11.5764
कती	-11.5765
सिंगा	-11.5768
ीट	-11.5771
चिप	-11.5771
सउद	-11.5772
अभिन	-11.5794
लंबा	-11.5796
मुता	-11.5799
उन्	-11.581
झुठलाने	-11.581
साइन	-11.581
हिला	-11.5814
पर्व	-11.5814
इराक	-11.582
आद	-11.5822
िस्ट	-11.5825
नाइट	-11.5835
शै	-11.5842
पैसे	-11.5857
वेश	-11.5863
ुल्	-11.5864
संख	-11.5865
गोली	-11.5865
निवासियों	-11.5897
नकार	-11.5897
चुनौतिय	-11.5907
क्षय	-11.5914
जनन	-11.5931
दोज	-11.5941
मोल	-11.5952
इंड	-11.5953
समर्थक	-11.5954
फलों	-11.5964
वाब	-11.597
ेश्वर	-11.5973
मुल	-11.5974
ठहराए	-11.5977
विक	-11.5988
ग्ध	-11.5989
ौल	-11.5995
बनाएं	-11.6014
सेंट	-11.6015
प्रवृत्ति	-11.6016
दस्त	-11.6029
१४	-11.6037
उठे	-11.604
ठहर	-11.605
नफ	-11.6051
translate	-11.6053
चौपा	-11.6055
टु	-11.6063
फ्रांस	-11.6068
राष्ट्रवाद	-11.608
अर्जन	-11.6082
विकृत	-11.611
सहन	-11.6111
उद्भ	-11.612
शोषण	-11.6127
ग्लोब	-11.6137
हुक	-11.6151
▁¦189	-11.6157
यस	-11.6158
सम्पाद	-11.6173
प्रभा	-11.6186
आएँ	-11.6187
कहे	-11.6195
ेत	-11.6198
दरख्त	-11.6202
10	-11.6203
गुजर	-11.6224
रहकर	-11.623
निर्वा	-11.6243
बस्तिय	-11.6244
वेग	-11.6247
38	-11.6251
ालू	-11.6257
छपा	-11.6284
िग	-11.6295
चख	-11.6313
चलन	-11.6315
ूद	-11.6321
साई	-11.6328
विशिष्टता	-11.6346
हाइ	-11.6346
पीछ	-11.6348
डेन	-11.6349
2.	-11.635
दारी	-11.6368
रक्ष	-11.6369
पक्षी	-11.6407
दर्शात	-11.6412
नानक	-11.6425
वाट	-11.6446
शे	-11.6447
शर	-11.6449
जिन्हो	-11.645
प्रद	-11.6471
रखनेवाल	-11.6484
आव	-11.6494
इला	-11.6512
वानी	-11.6512
लोन	-11.6534
se	-11.6535
एसआई	-11.6537
तूर	-11.6539
ंधन	-11.6548
बेख	-11.6566
ty	-11.6569
कार्यपाल	-11.6573
-1	-11.6581
बीर	-11.6608
पहचाने	-11.6611
cd	-11.6623
क्यो	-11.6639
जरा	-11.6658
ेम्स	-11.6665
ब्रह्म	-11.6671
▁¦2010	-11.6671
्पा	-11.6672
?	-11.6675
शल्य	-11.6681
मजदूर	-11.6684
बन्ध	-11.6695
]	-11.6702
नील	-11.6702
&	-11.6703
de	-11.6703
कुशल	-11.6704
िम्मे	-11.6706
वर्ध	-11.6708
शिप	-11.671
भरें	-11.671
ृष्टि	-11.6711
ड्राइव	-11.6712
2,	-11.6713
अकादम	-11.6714
हिन्दुस्तान	-11.6715
िम्मेदार	-11.6719
सर्ग	-11.6719
निर्माता	-11.6719
ाधीन	-11.672
डरो	-11.6721
तन्त्र	-11.6721
app	-11.6721
चट्टान	-11.6721
लॉन्च	-11.6721
ubl	-11.6721
प्राधिकृत	-11.6721
प्रारम्भ	-11.6721
रेगिस्तान	-11.6721
सूँघ	-11.6721
वसीयत	-11.6721
सुल्तान	-11.6721
संवेदनशील	-11.6721
नुकसान	-11.6721
श्लेष	-11.6721
बूट	-11.6721
वैयक्ति	-11.6721
गर्भाशय	-11.6721
शरणार्थ	-11.6721
चिल्ला	-11.6721
पैटर्न	-11.6721
मेजबान	-11.6721
संकुच	-11.6722
भ्रम	-11.6722
अखबार	-11.6722
व्यष्टि	-11.6722
धूप	-11.6722
तख्त	-11.6723
मंडप	-11.6723
पेट्रोल	-11.6723
निर्धन	-11.6724
फ्रेम	-11.6724
आईआईटी	-11.6724
▁¦2003	-11.6724
समेक	-11.6724
जानबूझ	-11.6725
प्रतिलिपि	-11.6725
अनुबंध	-11.6726
मसीह	-11.6726
रात्रि	-11.6726
मध्यस्थ	-11.6726
नरेन्द्र	-11.6727
अधिकारिता	-11.6727
मोर्च	-11.6728
खुल्लम	-11.6728
बाँध	-11.6728
टेक्स	-11.6728
फुट	-11.6729
रूढ	-11.6729
गुलाम	-11.6729
रूचि	-11.6729
पॉप	-11.673
वस्त्र	-11.673
नाभिक	-11.6731
मणिपुर	-11.6731
एप्प	-11.6731
केरल	-11.6732
ड्रग	-11.6734
गर्दन	-11.6734
बीत	-11.6735
तिरु	-11.6736
▁’’	-11.6736
कैद	-11.6737
चर्म	-11.6737
अनधिक	-11.6737
रेश	-11.6738
ओवर	-11.6738
बाढ	-11.6738
वर्मा	-11.6739
च्छ	-11.6741
टें	-11.6743
वन्य	-11.6748
एण्ड	-11.6748
धोखे	-11.6754
ड्राफ	-11.6754
बंब	-11.6758
कतरा	-11.6758
.04.201	-11.6764
बक्स	-11.6765
▁¦191	-11.6767
अष्ट	-11.6769
निपटान	-11.6771
सूद	-11.6771
अय्य	-11.6772
दिखाएं	-11.6773
रिहा	-11.6775
मृतक	-11.6776
असंगत	-11.678
100	-11.6781
जायेंगे	-11.6783
साम्राज्यवाद	-11.6787
समझो	-11.6792
ेटी	-11.6793
घण	-11.6794
लेबल	-11.6797
ओडि	-11.6799
सोम	-11.6799
फर्ज	-11.6806
चलती	-11.6807
वक	-11.6808
जज	-11.6813
खाई	-11.6814
बरसा	-11.6817
विष्ट	-11.682
नीला	-11.6823
छः	-11.6826
हरिया	-11.6829
दाख	-11.6833
शोधन	-11.6833
च्छेद	-11.6834
्थ	-11.6834
सान	-11.6835
चीख	-11.6837
फेस	-11.6844
गुट	-11.6853
स्टेट	-11.6859
कार्यालयों	-11.6863
कहें	-11.6866
स्टे	-11.6867
लोह	-11.6874
जायेग	-11.6875
परिवर्ध	-11.6884
मंद	-11.6889
ष्	-11.689
नतीज	-11.6893
रूख	-11.6906
dent	-11.6914
उपास	-11.6915
ti	-11.6919
ेनिस	-11.6932
पर्यटक	-11.6933
परजीव	-11.6941
बिक	-11.6944
नवीनत	-11.6955
मूर	-11.6966
सिक	-11.6985
ायत	-11.6987
हर्	-11.6995
आक्र	-11.6997
लगाना	-11.7002
पीएम	-11.7004
स्ना	-11.7006
चक	-11.7008
रहम	-11.7016
डाय	-11.7017
▁¦42	-11.7018
बैठा	-11.7023
शेर	-11.7024
फुल	-11.7027
यिक	-11.7034
हस	-11.7036
मिज	-11.7037
क्रि	-11.7041
इसमे	-11.705
टाउन	-11.705
उपदेश	-11.7062
ामी	-11.7069
गुड	-11.7074
am	-11.7076
di	-11.709
ाइश	-11.7095
ex	-11.7113
आस्तिय	-11.7113
फीस	-11.7119
०००	-11.7137
कल्प	-11.7153
मात	-11.7157
स्टार	-11.7175
समितिय	-11.7177
रुक	-11.718
बनते	-11.7182
at	-11.719
राजी	-11.7198
नासा	-11.72
ियॉ	-11.7204
हिम	-11.7206
कैश	-11.7219
हारी	-11.7223
बंगल	-11.7224
लान	-11.7226
लार	-11.7228
टै	-11.7235
बक	-11.7238
नन्द	-11.7248
ip	-11.7251
ाइब्र	-11.7253
ेसर	-11.7254
वाँ	-11.7255
सुविधाए	-11.726
खिला	-11.7262
लिखें	-11.7268
बेन	-11.7269
प्रस	-11.7278
ुओं	-11.7281
▁¦2011	-11.7296
न्ना	-11.7299
कर्मी	-11.733
इच्छ	-11.7335
निको	-11.7336
ाइट	-11.7365
धारी	-11.737
पीट	-11.7379
ार्म	-11.7384
ऑपरेट	-11.7395
ड्ड	-11.7397
पहलुओ	-11.741
ानुसार	-11.7419
फॉर	-11.7435
बीस	-11.7446
म्मत	-11.7449
िकल	-11.7456
भाज	-11.7466
िबल	-11.7486
ट्रांस	-11.7497
ञ	-11.7498
प्रलेख	-11.7506
डिंग	-11.7512
सुगम	-11.7514
सल्	-11.7521
दोहर	-11.7529
असफलता	-11.753
ख्वा	-11.7532
यज	-11.7533
ष्ठ	-11.7558
मिलना	-11.7567
मिलान	-11.757
्ट्रेट	-11.7574
चौक	-11.7594
सिटी	-11.7601
rs	-11.7606
्चय	-11.7614
सज्ज	-11.7614
अट	-11.7639
68¦	-11.764
टूब	-11.7648
मिस्	-11.7651
पह	-11.7654
टाइप	-11.7658
वारी	-11.7665
पाच	-11.7679
बाय	-11.768
पृ	-11.7681
र्थ	-11.7681
घास	-11.7686
be	-11.769
रोच	-11.7698
शिक	-11.7708
चों	-11.771
अनिवास	-11.7715
व्याप	-11.7725
महो	-11.7726
दिसम्ब	-11.7733
स्तन	-11.7742
एससी	-11.7754
रक	-11.7769
ुल्ला	-11.7771
मंड	-11.7778
माला	-11.7786
ग्राह	-11.7787
इता	-11.7808
र्श	-11.7812
कंद	-11.7813
ित्र	-11.7813
दीप	-11.782
भव	-11.7823
वर्धन	-11.7824
झु	-11.7835
र्पण	-11.7871
श्र	-11.7874
रेब	-11.7875
आब	-11.7901
प्रदूष	-11.7905
बं	-11.7912
ायक	-11.7927
खुर	-11.7943
धारक	-11.7944
जिब	-11.7945
पाट	-11.7947
me	-11.795
ाएं	-11.7952
आतंक	-11.7958
संकल	-11.7959
प्रिंट	-11.7963
व्रत	-11.7966
स्क्र	-11.7966
नवान्वेष	-11.7967
out	-11.7968
विद्यालय	-11.7969
gtk	-11.7971
ुत्फ	-11.7971
अब्दुल	-11.7971
ख्तियार	-11.7971
ब्रैसेरो	-11.7971
ॊ	-11.7971
एकाग्र	-11.7971
एख्ते	-11.7971
छिद्र	-11.7971
ढूँढ	-11.7971
सौंदर्य	-11.7971
स्मार्ट	-11.7971
बांग्लादेश	-11.7971
मुवाफ	-11.7971
राजपूत	-11.7971
सत्याग्रह	-11.7971
अद्भु	-11.7971
गोविंद	-11.7971
धरोहर	-11.7971
वाशिंग	-11.7971
प्रचालन	-11.7971
अकादेम	-11.7971
रोशनी	-11.7971
सुलेमान	-11.7971
सांप्रदायिक	-11.7971
खजूर	-11.7971
बहादुर	-11.7971
मन्त्र	-11.7971
दुर्भाग्य	-11.7971
color	-11.7971
अफगान	-11.7971
link	-11.7971
वायुयान	-11.7971
टैक्स	-11.7972
ात्मा	-11.7972
स्फी	-11.7972
अपडेट	-11.7972
अग्रेष	-11.7972
पारिस्थितिक	-11.7972
▁¦17.	-11.7972
्सिडी	-11.7972
हलाक	-11.7972
मंगल	-11.7972
मेट्रो	-11.7972
पुण्य	-11.7972
सारांश	-11.7972
स्वाधीन	-11.7972
गिर्द	-11.7972
चेन्न	-11.7972
निर्दोष	-11.7972
अंगूर	-11.7972
घायल	-11.7972
साध्य	-11.7972
उलझ	-11.7972
डिबग	-11.7973
ख्वाहिश	-11.7973
सिलसिल	-11.7973
मेनू	-11.7973
हस्तांतरण	-11.7973
पम्प	-11.7973
प्लेयर	-11.7973
मतदाता	-11.7973
शुरु	-11.7973
तनाव	-11.7973
संबन्ध	-11.7974
end	-11.7974
सदिश	-11.7974
कुत्त	-11.7974
गोपनीय	-11.7974
विकिरण	-11.7974
स्कैन	-11.7974
रत्न	-11.7974
अधिवक्ता	-11.7974
भुला	-11.7975
संतोष	-11.7975
जीवंत	-11.7975
मूत्र	-11.7976
भ्रमण	-11.7976
ko	-11.7976
विलोप	-11.7976
उल्लि	-11.7976
करतूत	-11.7976
द्रव्य	-11.7976
सोसाइट	-11.7976
रसीद	-11.7977
उथल	-11.7977
संतान	-11.7977
मूर्तिकला	-11.7978
अवतार	-11.7978
कुंड	-11.7979
ियल	-11.7979
क्लिप	-11.7979
कवियों	-11.798
▁¦1999	-11.798
यज्ञ	-11.7981
अटल	-11.7982
ब्लॉक	-11.7982
विघटन	-11.7982
इन्ते	-11.7982
नवीकरण	-11.7983
आकर्षण	-11.7983
शरण	-11.7984
ओपन	-11.7984
शौक	-11.7985
संधि	-11.7986
कॉफ	-11.7986
सांविध	-11.7987
संहार	-11.7988
उपक्रम	-11.7988
ुष्क	-11.7988
अम्ल	-11.7988
ॉर्ड	-11.7988
वुड	-11.7989
बरदार	-11.7989
गांधीजी	-11.799
प्रबन्धन	-11.799
ऊँचाई	-11.7991
राजमार्ग	-11.7992
टूल	-11.7992
कुलपति	-11.7992
बुराइयों	-11.7994
झट	-11.7994
संक्रिया	-11.7995
मरतब	-11.7996
विवेकान	-11.7997
त्ल	-11.7997
कच्चे	-11.7998
बनायी	-11.7999
प्रोसेस	-11.7999
अमानत	-11.8002
सहभाग	-11.8003
उत्पादकता	-11.8004
एंगे	-11.8004
बीविय	-11.8005
लाइट	-11.8006
गुम	-11.8008
प्रशासक	-11.8009
चुरा	-11.8011
हेर	-11.8013
लपेट	-11.8013
अस्वीकृत	-11.8019
झलक	-11.8019
फैक्ट	-11.8019
आध	-11.802
लोप	-11.8023
मजदूरों	-11.8025
ावट	-11.8026
साज	-11.8027
भाग्य	-11.8027
आभार	-11.8028
नमूने	-11.8029
उपहार	-11.803
मृत	-11.803
योनि	-11.8032
बरबाद	-11.8033
मचा	-11.8038
बामा	-11.804
उगा	-11.8044
ऊँचा	-11.8044
रद्दी	-11.8044
लम्बे	-11.8046
फायदा	-11.805
सल्ल	-11.8052
नीच	-11.8053
पर्य	-11.8055
व्याख्यान	-11.8055
स्ट्रीम	-11.8055
स्थितियों	-11.8057
नारी	-11.8064
जेन	-11.8065
निः	-11.8066
्वचा	-11.8067
बन्दर	-11.8077
sl	-11.808
अतिमानस	-11.8082
▁);	-11.8083
िंग्स	-11.8092
खुशख	-11.8093
केन्या	-11.8094
उपायों	-11.8102
य्या	-11.8103
ह्रा	-11.8104
लौ	-11.8108
यार्क	-11.8109
प्रीत	-11.8114
औषधि	-11.8115
उद्यमी	-11.8116
धमक	-11.8116
ाशय	-11.8119
वशी	-11.8123
चूक	-11.8125
निरूप	-11.8132
कूब	-11.8135
ैश	-11.8136
फैली	-11.8136
मित्त	-11.8139
पन्ना	-11.814
होस्ट	-11.8143
शत	-11.8144
चालक	-11.8151
बेज	-11.8162
चाहें	-11.8163
निर्म	-11.8168
पावर	-11.817
धुर	-11.8177
पडे	-11.8181
re	-11.8184
अंधेर	-11.8184
ho	-11.8192
मोर	-11.8206
आईएस	-11.821
तलाक	-11.8215
असंख्य	-11.8217
बाण	-11.8217
प्रिया	-11.8228
अड	-11.8233
डुब	-11.8235
त्य	-11.8244
खिसका	-11.8247
सूज	-11.8259
ुष्ठ	-11.8261
रॉ	-11.8262
नाना	-11.8267
झूठी	-11.8268
पॉल	-11.8269
प्रबल	-11.8282
क्र	-11.8287
ुलर	-11.8291
ोप	-11.8295
राख	-11.8295
सोने	-11.8297
कण	-11.8298
र्थक	-11.8314
किले	-11.8314
िचित	-11.8316
गलती	-11.8316
कोटा	-11.8324
खल	-11.8329
सम्पत्त	-11.833
र्रा	-11.8345
फज	-11.8347
रूट	-11.8357
सूरत	-11.8363
दूँग	-11.8363
विधाय	-11.8364
ोश	-11.8377
बुलाने	-11.8395
war	-11.8398
अकस	-11.8404
ोर्ड	-11.8404
्लू	-11.8417
av	-11.8441
ऐं	-11.8451
इज	-11.8458
निकालें	-11.846
एजेंसिय	-11.8461
लाये	-11.8462
जुटा	-11.8476
बंगाली	-11.8486
विल	-11.8493
ोसी	-11.8505
भुज	-11.8513
िवेश	-11.8526
डेल	-11.8534
_	-11.8536
चार्य	-11.8557
अन्	-11.8573
li	-11.8577
लौटे	-11.8588
राष्ट्री	-11.8589
ल्य	-11.8589
्सन	-11.859
्सर	-11.8592
चारे	-11.8599
संप्रेष	-11.8608
अनेकों	-11.8609
साम्	-11.8618
पुस	-11.8651
मधुम	-11.8652
ोटो	-11.8653
प्रोद्	-11.8653
प्रशंस	-11.8654
न्दु	-11.8661
विधा	-11.8672
ऑपरे	-11.8672
नींद	-11.8674
मन्द	-11.8684
निवेशक	-11.8686
ापन	-11.8705
सन्	-11.871
भु	-11.8715
दाल	-11.8742
रिफ	-11.8751
प्रतिज्ञा	-11.8752
व्यक	-11.8753
निपट	-11.8755
निरा	-11.8755
उज्	-11.8763
23	-11.8783
लश	-11.8791
ऊँ	-11.8792
ंकृत	-11.8801
गन्द	-11.8807
थाम	-11.881
गौ	-11.8818
ालिका	-11.882
डू	-11.8837
प्रवृत्त	-11.885
दूत	-11.885
रण्य	-11.8871
चित्रकार	-11.8876
उलट	-11.8883
पार्	-11.8903
ैब	-11.8926
िकरण	-11.8933
क्री	-11.894
ग्रि	-11.8943
चूँ	-11.8949
दर्श	-11.895
रक्षण	-11.8964
घि	-11.8987
गूग	-11.8997
जुट	-11.9006
मिड	-11.9008
ेटर	-11.9026
विला	-11.9034
mi	-11.9035
हड्ड	-11.9066
ोल्ड	-11.9067
राग	-11.9072
म्प्रदाय	-11.9093
जौ	-11.9096
सोल	-11.9104
्टर	-11.9108
वाहिक	-11.911
स्थापन	-11.9119
▁¦32	-11.9157
भौतिकी	-11.9157
कैन	-11.9162
जॉन	-11.9165
दिखाए	-11.9177
साधक	-11.9185
वेज	-11.9185
im	-11.9192
नूर	-11.9209
गौर	-11.9219
ोत्	-11.9224
सिख	-11.9229
पें	-11.9245
................	-11.9248
ङ्	-11.925
िल्ल	-11.9256
घू	-11.926
खाए	-11.9264
ेंद्र	-11.9267
रथ	-11.9269
अपि	-11.927
नायक	-11.9271
लीज	-11.9272
अध्य	-11.9276
जै	-11.9277
बुन	-11.9289
89	-11.9293
चिन्त	-11.9295
कारखान	-11.9298
बताओ	-11.9301
प्त	-11.9304
बाध	-11.9312
लटक	-11.932
राधा	-11.9321
न्या	-11.9331
करूँ	-11.9332
राहे	-11.9349
बहर	-11.9354
क्रे	-11.9371
र्षण	-11.9374
मीरा	-11.9376
’’	-11.938
ac	-11.9383
हायत	-11.9387
इन्सा	-11.9391
उल्ट	-11.9393
	-11.9393
	-11.9394
मुशर	-11.9397
	-11.9398
स्वप्न	-11.94
16_0	-11.94
2007-	-11.94
text	-11.94
कप्तान	-11.94
क्रिस्टल	-11.94
चूर्ण	-11.94
छत्तीसगढ	-11.94
ज्योति	-11.94
मर्यादा	-11.94
मॉरिशस	-11.94
यौगिक	-11.94
व्यतिक्रम	-11.94
शिथिल	-11.94
शृंखला	-11.94
संदिग्ध	-11.94
स्तूप	-11.94
स्वेच्छा	-11.94
उत्कीर्ण	-11.94
ऊंची	-11.94
पूँजी	-11.94
बलिदान	-11.94
वैचारिक	-11.94
सांख्यिकी	-11.94
स्थूल	-11.94
स्लाइड	-11.94
उत्सुक	-11.94
चेष्टा	-11.94
जर्नल	-11.94
डेल्टा	-11.94
बहुदेववाद	-11.94
ब्राजील	-11.94
साक्षात	-11.94
पेशेवर	-11.94
अवयव	-11.94
राक्षस	-11.94
मॉड्यूल	-11.94
आमदनी	-11.94
रजिस्टर	-11.94
गद्य	-11.94
मूत्राशय	-11.94
उन्माद	-11.94
मामूली	-11.94
स्वामित्व	-11.94
format	-11.94
कबूतर	-11.94
ब्रेक	-11.94
स्नायु	-11.94
ाह्न	-11.94
अंदाज	-11.94
विज्ञप्ति	-11.94
ान्तरण	-11.94
प्रणालिय	-11.94
unit	-11.94
रिकॉर्ड	-11.94
whats	-11.94
युवक	-11.94
सहभागिता	-11.94
१९०	-11.94
आवंट	-11.94
पंचायत	-11.94
प्रत्यर्थ	-11.94
बंदरगाह	-11.94
dev	-11.94
chin	-11.94
आयुर्वेद	-11.9401
translator	-11.9401
ड्यूटी	-11.9401
शर्म	-11.9401
विधायिका	-11.9401
शोभा	-11.9401
एसोसि	-11.9401
श्रीलंका	-11.9401
स्वतन्त्र	-11.9401
नियन्त्र	-11.9401
उत्पीड	-11.9401
रिवाज	-11.9401
अनन्य	-11.9401
सूअर	-11.9401
अवरोध	-11.9401
▁¦2004¦	-11.9401
ter	-11.9402
ढलान	-11.9402
संकोच	-11.9402
ढोल	-11.9402
ोलियो	-11.9402
ज्वर	-11.9402
पुर्ज	-11.9402
निरोध	-11.9402
बैंड	-11.9402
ऑक्स	-11.9402
रियासत	-11.9402
अहंकार	-11.9402
▁¦0.	-11.9403
सन्देश	-11.9403
चरिता	-11.9403
किराया	-11.9403
बनावट	-11.9403
श्याम	-11.9403
िश्राम	-11.9403
महाद्वीप	-11.9403
गुनाहगार	-11.9403
अंशदान	-11.9403
tle	-11.9404
दशम	-11.9404
महासागर	-11.9404
वारिस	-11.9404
उर्वरक	-11.9404
अफ्रीक	-11.9404
घुड	-11.9405
फूट	-11.9405
प्रातः	-11.9405
अलंकार	-11.9405
उम्मत	-11.9406
▁¤	-11.9406
गणतंत्र	-11.9406
dom	-11.9406
उपग्रह	-11.9406
दांत	-11.9406
रिसाल	-11.9407
आत्मविश्वास	-11.9408
क्लास	-11.9408
इंजन	-11.9409
अभियोज	-11.9409
ट्रेड	-11.941
मानदंड	-11.941
क्रेड	-11.941
कनाडा	-11.9411
सैक	-11.9411
ढूंढें	-11.9411
उपनगर	-11.9412
श्वेत	-11.9412
पतंग	-11.9413
व्यवहार्य	-11.9413
काउंटर	-11.9414
भेड	-11.9415
परीक्षक	-11.9415
तालिका	-11.9415
फोक	-11.9416
मुशरिक	-11.9416
अनुष	-11.9416
1990¦	-11.9418
अड्ड	-11.9419
अभिलाभ	-11.9419
अहं	-11.9419
अनुशासन	-11.9419
एसवी	-11.942
मोती	-11.9421
चित्त	-11.9422
▁¦1000	-11.9422
संयोजन	-11.9422
इक्क	-11.9423
कैंस	-11.9424
पोजी	-11.9426
वर्तनी	-11.9427
प्ला	-11.9431
बजाएँ	-11.9432
फिल्टर	-11.9434
जरुरत	-11.9436
पांड	-11.9437
चेत	-11.9437
लंबाई	-11.9438
रुरत	-11.9439
वैद	-11.9439
जरुर	-11.944
संयोग	-11.9441
तदनु	-11.9442
परिपूर्ण	-11.9444
लकीर	-11.9444
नोक	-11.9446
उठत	-11.9447
▁”.	-11.9447
दिरा	-11.9448
ग्रीन	-11.9449
केशव	-11.9449
मेघ	-11.9452
हिंदु	-11.9452
um	-11.9454
उत्तरः	-11.9455
भागे	-11.9456
बंधन	-11.9457
अभ	-11.9457
तनत	-11.9458
ेंस	-11.9459
संकल्पना	-11.9462
रेखांक	-11.9462
सींग	-11.9464
एक्ज	-11.9465
्टिन	-11.9465
च्छाद	-11.9466
विस्थाप	-11.9467
मौज	-11.9467
18	-11.947
मीठ	-11.9473
ऑं	-11.9474
बाँ	-11.9477
आकड	-11.9477
मॉन	-11.9477
समेत	-11.9477
चिपका	-11.9479
भद्र	-11.9486
rep	-11.9502
पमान	-11.9505
जाग	-11.9505
जिन्ना	-11.9511
मुना	-11.9512
भाड	-11.9513
सेवक	-11.9515
जन्य	-11.9516
बाड	-11.952
दिखला	-11.9521
as	-11.9524
बुध	-11.9528
जुआ	-11.9528
पटना	-11.9529
काउंट	-11.9533
चेहरा	-11.9536
वार्ड	-11.9537
कर्तव्यों	-11.9537
पूछता	-11.9538
बैल	-11.9544
यूनिटों	-11.9544
झुक	-11.9545
ट्रेन	-11.9545
वाच	-11.9548
थॉ	-11.9548
स्कर	-11.9549
मग	-11.9551
नीलाम	-11.9561
न्ध	-11.9571
cc	-11.9574
हम्द	-11.9578
op	-11.958
थ्र	-11.958
छत	-11.9584
नौका	-11.9591
हूर	-11.9591
तरंग	-11.9591
ियाई	-11.9592
समझाया	-11.9594
समझदार	-11.9597
पत्य	-11.9599
संसाध	-11.9603
हिम्म	-11.9608
उल्ल	-11.9609
ज्ज	-11.961
बुत	-11.9613
मोटी	-11.9614
मिथ	-11.9615
दायी	-11.9616
पल्ल	-11.9619
हें	-11.9621
क्रै	-11.9625
वरना	-11.9631
मुर्दा	-11.9636
अन्ज	-11.9636
पैरा	-11.9637
सन्त	-11.9637
पेक्ष	-11.9655
इस्लामवाद	-11.9655
सस्	-11.9655
मधु	-11.9662
ran	-11.9665
66	-11.9667
धोख	-11.9679
उजी	-11.9679
म्मा	-11.9686
दुर्ग	-11.9687
ग्रो	-11.9688
मुर्द	-11.9696
दाता	-11.9705
dit	-11.971
निराश	-11.9712
शिया	-11.9712
आबाद	-11.9718
pi	-11.9729
गुं	-11.973
न्यवाद	-11.9741
खुल्ल	-11.9753
क्षणिक	-11.9771
गला	-11.9773
षण	-11.9774
परो	-11.9778
इंतजा	-11.9779
ंजर	-11.9783
्रि	-11.9786
कोयल	-11.9788
ुम	-11.9808
कैर	-11.981
गिनत	-11.981
हाक	-11.9822
ुँ	-11.9829
बाला	-11.9831
मदन	-11.9839
सज्जन	-11.9841
निकटता	-11.985
गली	-11.9851
लाखों	-11.9857
रवि	-11.988
ायल	-11.9881
नुक	-11.9896
थैल	-11.9899
खाल	-11.9913
जरिय	-11.9923
if	-11.9935
नीं	-11.9939
लौटाए	-11.9942
ागार	-11.9945
हुईं	-11.9949
दूरदर्श	-11.9949
कूद	-11.9954
ध्याय	-11.9964
हृ	-11.9995
प्रक्रम	-12.001
विचल	-12.0013
हब	-12.0016
निकले	-12.0026
एल्ग	-12.0035
कांड	-12.0036
मिया	-12.0037
म्प	-12.0061
पारस	-12.008
14	-12.008
लन्द	-12.0094
२५	-12.0099
छिपे	-12.0099
चय	-12.0106
धर्मों	-12.0109
ese	-12.0128
थोप	-12.0135
डिर	-12.0141
▁¦43	-12.0146
पीत	-12.0149
तज	-12.0156
रिप	-12.0177
स्पी	-12.0178
साख	-12.0187
र्द	-12.0191
पहुँचने	-12.0195
आईपी	-12.0195
रलैंड	-12.0196
आधा	-12.0209
ामिन	-12.0232
ऑंख	-12.0233
आँख	-12.0233
अवशोष	-12.0235
ya	-12.0235
ब्रो	-12.0237
cu	-12.0238
मल्ल	-12.0239
टोन	-12.0246
रोप	-12.0252
पेरि	-12.026
टीका	-12.0263
ol	-12.0264
फारस	-12.0269
एफसी	-12.0282
दै	-12.0282
men	-12.0285
लिट	-12.0305
लिस	-12.0305
गुणा	-12.0311
lat	-12.0314
ूक	-12.0317
नरम	-12.032
ेक्ट्र	-12.0342
स्वि	-12.0345
सुनी	-12.0364
फिन	-12.0364
कोवि	-12.0401
छुप	-12.0415
र्ती	-12.0425
उपाध्य	-12.0426
सेवानिवृत्त	-12.0434
▁..	-12.0439
मापन	-12.0441
पाइ	-12.0443
मुहा	-12.0444
कराई	-12.0445
gu	-12.0448
११	-12.0455
800¦	-12.0465
lar	-12.0475
बेश	-12.0476
आंखे	-12.0483
दूष	-12.0484
si	-12.0485
साध	-12.0493
क्रियान्व	-12.05
साहा	-12.0511
ईस्ट	-12.0528
बगल	-12.0538
रमान	-12.0554
पाये	-12.0557
क्ले	-12.0564
ge	-12.0566
पायी	-12.0572
रोवर	-12.0573
अम्	-12.0593
स्तान	-12.0595
करनेवालो	-12.0608
वर्	-12.0613
एजेन्स	-12.0624
ग्राफिक	-12.0626
ir	-12.0631
चलाए	-12.0637
मध्यवर्	-12.067
मेह	-12.0682
थक	-12.0684
बही	-12.0692
तौल	-12.0693
केन्द्रित	-12.0693
ाएँगे	-12.0707
३०	-12.071
रोह	-12.0734
बृह	-12.074
्रिम	-12.0747
शंक	-12.0754
बेपरवा	-12.0754
आन्	-12.0768
प्रस्तुति	-12.078
च्छा	-12.0798
बजा	-12.0798
फौ	-12.08
ai	-12.0802
लहर	-12.0819
साँ	-12.0823
डालने	-12.0846
झू	-12.0851
हरण	-12.0854
गै	-12.0861
स्थानांतर	-12.0862
फोर्	-12.0864
प्रदा	-12.0873
खाद	-12.0878
ैति	-12.0879
अकार	-12.0893
प्रि	-12.0904
युक	-12.0923
तीर्थ	-12.0937
हौ	-12.094
जीन	-12.0945
स्वराज	-12.0955
जमे	-12.0968
टॉम	-12.097
दाब	-12.0976
ph	-12.0995
दरज	-12.1
8-	-12.1005
भागीदार	-12.1009
नशील	-12.1011
रेड	-12.1013
पुरूष	-12.1017
परेश	-12.1017
ड्यू	-12.1027
चिंत	-12.1032
इन्ह	-12.1033
सदृश	-12.1034
फलन	-12.1037
ढील	-12.1039
ब्यू	-12.104
रदार	-12.1041
आवश्य	-12.1043
इल	-12.1043
उपहा	-12.1049
.06.201	-12.105
ाउंड	-12.1052
र्द्ध	-12.1055
यन्त्र	-12.1065
वाष्प	-12.1066
अंटार्कटिक	-12.1066
कंपोज	-12.1066
view	-12.1066
head	-12.1066
|	-12.1066
	-12.1066
	-12.1066
·	-12.1066
आविष्कार	-12.1066
उपनिषद	-12.1066
काश्मीर	-12.1066
कौंसिल	-12.1066
गुनेहगार	-12.1066
चार्ल्स	-12.1066
थिएटर	-12.1066
निश्चिन्त	-12.1066
प्रतिबिम्ब	-12.1066
यूनिकोड	-12.1066
रासायनिक	-12.1066
शौहर	-12.1066
श्रेणिय	-12.1066
cri	-12.1066
अलंकरण	-12.1066
आस्ट्रेलिया	-12.1066
चतुर्थ	-12.1066
जुर्मान	-12.1066
झिल्ली	-12.1066
त्रिपुरा	-12.1066
पूंछ	-12.1066
हाइड्रोज	-12.1066
chrom	-12.1066
अनुष्ठान	-12.1066
मच्छर	-12.1066
यूनियन	-12.1066
रसायन	-12.1066
गांठ	-12.1066
निश्चल	-12.1066
विभिन	-12.1066
मुर्ग	-12.1066
मैत्री	-12.1066
é	-12.1066
हकीकत	-12.1066
प्रचुर	-12.1066
आसियान	-12.1066
कार्मिक	-12.1066
विक्रेता	-12.1066
दुश्	-12.1066
निरपेक्ष	-12.1066
वितरित	-12.1066
आशंका	-12.1066
count	-12.1067
संशय	-12.1067
वयस्क	-12.1067
निरीक्षक	-12.1067
यतीम	-12.1067
मिथ्या	-12.1067
प्रताप	-12.1067
मलाशय	-12.1067
दुविधा	-12.1067
भूकंप	-12.1067
ज्यादत	-12.1067
स्तम्भ	-12.1067
स्वायत्त	-12.1067
घुटन	-12.1067
त्रिकोण	-12.1067
प्यू	-12.1067
बॉम्ब	-12.1067
कुशाद	-12.1067
शुक्ल	-12.1067
email	-12.1067
dition	-12.1067
अडिग	-12.1067
मालदीव	-12.1067
पिघल	-12.1067
च्युत	-12.1067
महाविद्यालय	-12.1068
स्थापत्य	-12.1068
रियायत	-12.1068
jo	-12.1068
भूष	-12.1068
fit	-12.1068
राजदूत	-12.1068
afr	-12.1068
१६	-12.1068
cap	-12.1068
ark	-12.1068
भेदभाव	-12.1068
न्यायाधिकरण	-12.1068
अटकल	-12.1068
शब्दावल	-12.1069
लाभांश	-12.1069
मुन्त	-12.1069
इतरा	-12.1069
कार्यवाहिय	-12.1069
डॉलर	-12.1069
स्नेह	-12.1069
comp	-12.1069
आईओए	-12.1069
उत्तेज	-12.1069
cla	-12.1069
कारस्तान	-12.1069
ill	-12.1069
मेहमान	-12.1069
fore	-12.107
ican	-12.107
गवर्नर	-12.107
छांट	-12.107
विच	-12.107
आश्रय	-12.107
पर्ण	-12.107
mac	-12.1071
विरल	-12.1071
बर्तन	-12.1071
तमाश	-12.1071
सम्भावना	-12.1071
मतभेद	-12.1071
हरिजन	-12.1071
अनंत	-12.1072
ऊंट	-12.1072
प्रतिरोध	-12.1072
क्रूर	-12.1072
जमाअत	-12.1072
अपलोड	-12.1072
जिंदगी	-12.1072
पहेल	-12.1072
विधानसभा	-12.1072
भालू	-12.1073
गन्ध	-12.1074
बांटन	-12.1074
ठंड	-12.1074
प्रतिपाद	-12.1074
कंध	-12.1074
देहात	-12.1074
ast	-12.1074
टर्मिनल	-12.1075
बहुमुख	-12.1075
बायाँ	-12.1075
उन्नति	-12.1075
जमाकर्ता	-12.1076
एजेंट	-12.1076
अर्थशास्त्र	-12.1076
मेमोर	-12.1076
दुहरा	-12.1076
बागान	-12.1076
षेध	-12.1076
धनराशि	-12.1076
चांद	-12.1077
सम्मुख	-12.1077
सांप	-12.1077
इंट	-12.1077
मकबर	-12.1077
राधिक	-12.1077
प्रिंटर	-12.1078
यपुर	-12.1078
अभियुक्त	-12.1079
प्रक्षेप	-12.1079
अस्थिरता	-12.1079
गोपन	-12.1079
जीलैंड	-12.1079
गुमान	-12.1079
ऊँट	-12.108
हकदार	-12.108
मुनाफिक	-12.108
अपंग	-12.108
int	-12.1082
सेंटर	-12.1082
वालो	-12.1082
अर्द्ध	-12.1082
झंड	-12.1083
ललित	-12.1083
चार्ट	-12.1083
सांसद	-12.1083
किस्	-12.1083
वक्र	-12.1084
शौर	-12.1084
▁¦1996	-12.1084
गुच्छ	-12.1085
डिब्ब	-12.1086
ढाल	-12.1086
लम्बाई	-12.1087
स्वीकार्य	-12.1087
अमृत	-12.1087
घराने	-12.1087
शिविर	-12.1088
डिवाइ	-12.1088
बलराम	-12.1088
सर्द	-12.1088
ीक्षक	-12.1088
फिक्र	-12.109
व्यप	-12.1091
िब्ब	-12.1091
ग्रेस	-12.1091
विहीन	-12.1091
गाढ	-12.1092
आक्षेप	-12.1093
टेस्ट	-12.1093
mp	-12.1094
बन्धु	-12.1096
संक्रम	-12.1096
ब्रोकर	-12.1097
अनुक्रिया	-12.1097
मरोड	-12.1097
सिंधु	-12.1098
01.	-12.1099
इधर	-12.1101
िंघा	-12.1102
श्रोता	-12.1102
रवैय	-12.1103
राजपत्र	-12.1103
तृतीय	-12.1103
स्वयंसेवक	-12.1106
लखन	-12.1106
लौह	-12.1107
अपरिच	-12.1107
यकीन	-12.1107
रेशम	-12.1108
बाधित	-12.1109
1948¦	-12.1109
जन्मदिन	-12.111
फिज	-12.1111
कबीर	-12.1112
मैप	-12.1113
चबा	-12.1114
लेरिया	-12.1115
रोटी	-12.1115
निराशा	-12.1116
बर्ग	-12.1116
कराती	-12.1117
mm	-12.1118
नासिक	-12.1123
जूते	-12.1124
व्ह	-12.1124
फ्रें	-12.1125
मलेशिया	-12.1125
मायन	-12.1127
ाधिकारी	-12.1127
टैंक	-12.1131
चूर	-12.1132
शेयरधारक	-12.1132
बिल्ल	-12.1133
प्लग	-12.1137
ंशिक	-12.1139
उत्तराधिकार	-12.114
स्याह	-12.1141
शत्रुता	-12.1144
ब्रह्मा	-12.1144
सकने	-12.1145
मैथ	-12.1145
मैच	-12.1148
लम्बा	-12.1149
ेंशन	-12.1149
छाया	-12.115
संबोधन	-12.1151
ctr	-12.1151
प्रतिरक्ष	-12.1152
ja	-12.1153
प्रदूषक	-12.1154
ुआ	-12.1155
बियों	-12.1156
अनुक्रम	-12.1157
उपनाम	-12.1158
संलग्नक	-12.116
धूल	-12.116
अमीर	-12.1164
रूल	-12.1164
स्तीन	-12.1168
धिष्ठ	-12.1169
तिलक	-12.117
ोपा	-12.117
मेटा	-12.1171
लाचार	-12.1172
झड	-12.1173
द्रु	-12.1177
रोम	-12.1178
विजन	-12.1186
नीत	-12.1192
चिन्ता	-12.1193
इद्द	-12.1194
एयर	-12.1195
किरण	-12.12
dis	-12.12
स्क्व	-12.1202
शीश	-12.1209
िलें	-12.1209
lin	-12.121
खरी	-12.1217
पाव	-12.1219
यहॉ	-12.1222
मसाल	-12.1223
१९	-12.1232
पिस	-12.1237
0,000¦	-12.1242
पठ	-12.1242
दस्ता	-12.125
जातीय	-12.1254
दन्त	-12.1255
पीले	-12.1256
मुह	-12.1259
यादव	-12.126
डिज	-12.126
कन्या	-12.1263
मरना	-12.1266
लिय	-12.1266
लामत	-12.1275
लीग	-12.1281
बैठने	-12.1287
ग्रेट	-12.1289
शिर	-12.129
करेगे	-12.1291
ंजाम	-12.1296
बॉल	-12.1298
दलित	-12.13
eng	-12.1308
मोज	-12.1315
खरीदने	-12.1318
आधिक	-12.132
त्रिक	-12.1325
अभ्य	-12.1326
बरसात	-12.1327
सल्फ	-12.1333
ऍं	-12.1339
गिना	-12.134
मुब	-12.1342
मरिय	-12.1367
मानती	-12.1392
पॉव	-12.1393
पीना	-12.1394
ठान	-12.14
मुंड	-12.1403
मुहल	-12.1403
अखंड	-12.1405
खाकर	-12.1413
कवर	-12.1414
सत्	-12.1416
ad	-12.142
विमानक्षेत्र	-12.1421
अनुभाग	-12.1422
रूपांतर	-12.1423
गायक	-12.143
लगेग	-12.1433
महत्त	-12.1436
ica	-12.1437
कंड	-12.1445
22	-12.1457
ट्रॉ	-12.1466
मर्ज	-12.1476
हड्डिय	-12.1482
निस	-12.1485
दमन	-12.152
ग्रीव	-12.154
विश	-12.1542
लाह	-12.1543
रिश्	-12.1555
रापन	-12.1567
तिन	-12.1571
cal	-12.1572
age	-12.1575
सुलझा	-12.1592
निर्यातक	-12.1599
गुन	-12.1607
ite	-12.1608
सिं	-12.161
ुशन	-12.1614
40	-12.1639
पहुँचत	-12.1646
इश	-12.1652
मेजर	-12.1656
वजन	-12.1657
शेल	-12.1662
साह	-12.1663
net	-12.167
माईल	-12.1674
धृत	-12.1679
एकीकरण	-12.1688
एल्	-12.1692
गर्	-12.1702
कुट	-12.1708
2011¦	-12.1709
पच	-12.1712
अपूर्ण	-12.1721
माद	-12.1738
पर्च	-12.174
हमास	-12.1747
स्को	-12.1749
000¦	-12.1749
ुज	-12.1749
वृति	-12.175
स्र	-12.1758
चौथा	-12.1767
मैट	-12.1795
मोहल	-12.1805
नुसार	-12.1805
अप्रत्य	-12.1809
चखो	-12.1814
कपट	-12.182
पॉ	-12.1822
ाश्त	-12.1832
ारिज	-12.1856
ch	-12.1892
ॆ	-12.1898
डायर	-12.19
जावा	-12.1905
इरा	-12.1906
पूर्वज	-12.1907
हर्ष	-12.1909
डीएम	-12.1914
5,000	-12.1916
सिंध	-12.1926
रंगी	-12.193
बनेग	-12.193
अनुपस्थित	-12.193
्नल	-12.1936
रेटर	-12.1943
99	-12.1945
बीन	-12.1945
दुर	-12.1946
दिखत	-12.1961
हिज	-12.1969
पॉलि	-12.1972
पोर	-12.1995
ंदा	-12.1996
प्रौद्योगिकिय	-12.1998
बैर	-12.2019
दुरू	-12.2036
न्यायप	-12.2041
रस्पर	-12.205
राव	-12.2051
चिरा	-12.2054
द्योत	-12.2056
निरी	-12.2057
वीण	-12.2062
2014	-12.2063
ानक	-12.2077
रिट	-12.2085
▁¦46	-12.2088
समू	-12.2104
अवर	-12.2116
2015	-12.2138
१२	-12.2141
विकृति	-12.2144
मूर्त	-12.2149
उत्त	-12.2152
छान	-12.2161
हाद	-12.2168
मिलें	-12.2172
्यर्थ	-12.2172
माइन	-12.2175
मानचित्र	-12.2201
qa	-12.2223
संस	-12.2244
क्रमण	-12.2264
वृद्ध	-12.2282
धुन	-12.2311
निरस्त	-12.2312
प्रजा	-12.2324
बजाए	-12.2327
she	-12.2335
नजरिय	-12.2339
ास्त	-12.2362
ापुर	-12.2362
अस्	-12.2382
ुअल	-12.239
मुदाय	-12.2393
प्रत्याश	-12.2397
हुद	-12.2407
दहल	-12.2418
ओड	-12.2435
ॉर्	-12.2447
जमाओ	-12.2455
मणी	-12.2468
सीब	-12.2481
vers	-12.2485
अन्न	-12.2489
ct	-12.2497
69	-12.2512
रैम	-12.2519
मास्टर्	-12.2519
उपलब्धि	-12.252
पुट	-12.2521
ैंप	-12.2526
निष्	-12.2533
र्तन	-12.2548
ul	-12.2551
ट्राइ	-12.2572
ूदी	-12.2575
लिवर	-12.2581
कुन्	-12.2591
वैश्व	-12.2606
वर्षो	-12.2614
धन्य	-12.2629
बेक	-12.2631
धीर	-12.2632
लीम	-12.2637
तिमाह	-12.2644
मोन	-12.2652
डालो	-12.2658
गिल	-12.2681
▁¦190	-12.2703
मोच	-12.2705
फ्फ	-12.2711
सीट	-12.2711
बर्द	-12.2716
ार्ट	-12.2722
ऍ	-12.2744
िटर	-12.275
vir	-12.2753
रावण	-12.2769
ेलना	-12.2779
्बिया	-12.2784
ber	-12.2788
जॉर्ज	-12.2789
अनजान	-12.2792
चुप	-12.2813
कृष्ट	-12.2817
भ्र	-12.2819
अंधे	-12.2827
पीआई	-12.2829
डेवि	-12.2838
विनिय	-12.2843
हुज	-12.2862
िन्	-12.2876
प्रोट	-12.289
श्चात्	-12.2891
इम्त	-12.2894
aa	-12.2908
आरडी	-12.292
करूं	-12.2926
आधि	-12.2935
ांतरण	-12.2939
असुरक्ष	-12.2942
सकत	-12.2946
जमानत	-12.2947
गोला	-12.2951
कस्म	-12.2953
हिन्द	-12.2973
og	-12.2973
मॉड	-12.2985
अवधारण	-12.2998
go	-12.3005
टिप्पण	-12.3007
-4	-12.3007
कंपन	-12.3011
तुर्क	-12.3016
कच्च	-12.3022
श्रोत	-12.3023
लैण्ड	-12.3034
eg	-12.3035
विशेषताए	-12.3035
प्रबन्ध	-12.304
ानून	-12.3045
तुल्यकाल	-12.3045
उम्	-12.3046
॰	-12.3048
gp	-12.3049
सहिष्णु	-12.3049
अशक्त	-12.305
काउं	-12.3054
सैन	-12.3054
समन्व	-12.3054
अध्या	-12.3055
जीर	-12.3056
माध्य	-12.3058
ध्रुव	-12.3062
विपक्ष	-12.3064
▁¦120	-12.3064
ळ	-12.3064
per	-12.3064
लग्नक	-12.3064
द्रोह	-12.3064
ुर्वेद	-12.3065
रघु	-12.3066
ब्बत	-12.3066
वृक्क	-12.3066
key	-12.3066
1947	-12.3066
atla	-12.3066
अधूरा	-12.3066
वातानुकूल	-12.3066
*	-12.3066
.05.201	-12.3066
character	-12.3066
low	-12.3066
png	-12.3066
window	-12.3066
	-12.3066
©	-12.3066
अँधेर	-12.3066
कृषक	-12.3066
परात्पर	-12.3066
परिपक्व	-12.3066
प्रिंसिपल	-12.3066
फ्लैग	-12.3066
बाइंडिंग	-12.3066
बिछौन	-12.3066
महोदय	-12.3066
श्रुति	-12.3066
॥	-12.3066
▁¦1953¦	-12.3066
क्षेञ	-12.3066
खामोश	-12.3066
खिंच	-12.3066
ज्येष्ठ	-12.3066
ठेकेदार	-12.3066
बूंद	-12.3066
मुट्ठी	-12.3066
सरस्वती	-12.3066
साइरिलिक	-12.3066
lab	-12.3066
अथारिट	-12.3066
आरोग्य	-12.3066
करुणा	-12.3066
सिक्ख	-12.3066
बांग्ल	-12.3066
भगवद	-12.3066
मल्टी	-12.3066
सन्धि	-12.3066
साउथ	-12.3066
हिमनद	-12.3066
ऊष्म	-12.3066
मुखौट	-12.3066
वफादार	-12.3066
सिनेमा	-12.3066
ग्यारह	-12.3066
तुलसी	-12.3066
मक्ख	-12.3066
सिंहासन	-12.3066
डिजायन	-12.3066
सूत्रकृमि	-12.3066
with	-12.3066
अभिभावक	-12.3066
मुआवज	-12.3066
पुनरावृत्त	-12.3066
भण्डार	-12.3066
रूपान्तर	-12.3066
अल्पसंख्यक	-12.3066
भिक्षु	-12.3066
able	-12.3066
फोलो	-12.3066
बुझा	-12.3066
वर्ल्ड	-12.3066
rate	-12.3066
उषा	-12.3066
तत्परता	-12.3066
तूफान	-12.3066
2-13	-12.3066
घबरा	-12.3066
रसोई	-12.3066
आवेदक	-12.3067
टेलीविज	-12.3067
पोशीद	-12.3067
you	-12.3067
धूम्र	-12.3067
उन्नयन	-12.3067
नर्तक	-12.3067
साम्यवाद	-12.3067
cket	-12.3067
व्यंग्य	-12.3067
ठाकुर	-12.3067
दुरुस्त	-12.3067
tool	-12.3067
ताबेदार	-12.3067
सतीश	-12.3067
मस्ज	-12.3067
मैट्रिक	-12.3067
आवरण	-12.3067
राधाकृष्ण	-12.3067
संस्कार	-12.3067
समीप	-12.3067
पर्वतमाला	-12.3067
प्रायद्वीप	-12.3067
दाँत	-12.3067
खूबसूरत	-12.3067
सजावट	-12.3067
िबाह	-12.3067
संगोष्ठ	-12.3067
निगेह	-12.3067
गोखले	-12.3067
श्रव्य	-12.3067
चमत्कार	-12.3067
पारम्प	-12.3067
इष्टतम	-12.3067
बकवास	-12.3067
संकाय	-12.3067
डाटाबेस	-12.3067
इन्जी	-12.3067
औजार	-12.3067
किराए	-12.3067
उपयुक	-12.3067
एमएसएम	-12.3067
जीवद्रव्य	-12.3067
iff	-12.3067
राजकीय	-12.3068
थु	-12.3068
मीट्रि	-12.3068
बुर्द	-12.3068
तिब्बत	-12.3068
वल्क	-12.3068
बुर्ज	-12.3068
झुलस	-12.3068
मुअय्य	-12.3068
सौहार्द	-12.3068
मुहावर	-12.3068
निर्देशांक	-12.3068
सुथर	-12.3068
पौत्र	-12.3068
जनजातीय	-12.3068
गणमान्य	-12.3068
विजेता	-12.3068
मरीज	-12.3068
तिहाई	-12.3069
गोदाम	-12.3069
प्रेमचन्द	-12.3069
bject	-12.3069
६०	-12.3069
url	-12.307
फिटकार	-12.307
दोलन	-12.307
अंकुर	-12.307
ope	-12.307
▁¤	-12.307
▁¦188	-12.307
१३	-12.307
off	-12.307
खाँच	-12.307
तालमेल	-12.307
हरकत	-12.307
टूल्स	-12.307
सहकार	-12.307
घोल	-12.3071
बाकू	-12.3071
pop	-12.3071
महानिदेशक	-12.3071
ऑफिस	-12.3071
स्कोप	-12.3071
इत्म	-12.3071
दहा	-12.3071
and	-12.3071
बुढ	-12.3071
इसराइल	-12.3071
वारंट	-12.3071
कंट्र	-12.3071
ऋषि	-12.3072
सूझ	-12.3072
पाएंगे	-12.3072
ग्रुप	-12.3073
दिशानिर्देश	-12.3073
महाकाव्य	-12.3074
सोर्स	-12.3074
पुनरु	-12.3074
बिस्तर	-12.3074
तमन्ना	-12.3074
क्लोन	-12.3074
पैगंबर	-12.3074
विनिर्माता	-12.3074
श्लोक	-12.3074
चुंब	-12.3075
िथ्	-12.3075
निकटवर्त	-12.3076
अवशेष	-12.3076
लश्कर	-12.3076
कैमर	-12.3077
्रल	-12.3077
ore	-12.3077
wp	-12.3077
जवाबदेह	-12.3077
मोटाई	-12.3078
गोपुर	-12.3078
म्भ	-12.3078
हिन्दुस्तानियों	-12.3078
सुन्न	-12.3078
जिम्मे	-12.3079
one	-12.308
श्रीकृष्ण	-12.308
प्रतिध्वनि	-12.3081
पीएफ	-12.3081
छिन्न	-12.3081
मदिरा	-12.3082
गुस्से	-12.3082
दुसर	-12.3082
▁\\	-12.3082
14.	-12.3083
निर्ण	-12.3083
स्टेड	-12.3083
सपाट	-12.3083
अमूर्त	-12.3084
सोलर	-12.3084
टेप	-12.3084
बालिका	-12.3084
उपलब	-12.3084
नामांक	-12.3085
प्रतिवेद	-12.3085
विषम	-12.3086
संवत	-12.3086
विलक्षण	-12.3086
एकाश्म	-12.3087
वू	-12.3087
धक्क	-12.3088
ैरह	-12.3088
संव्यवहार	-12.3089
आप्रवास	-12.3089
चिकन	-12.309
गूढ	-12.309
अंडर	-12.3091
फकीर	-12.3091
रफ्तार	-12.3092
उपनिवेश	-12.3092
हिट	-12.3093
मग्न	-12.3094
झारख	-12.3095
ज्जु	-12.3095
साहित्यकार	-12.3096
बुलेट	-12.3096
मिल्क	-12.3098
वर्ड	-12.3099
pg	-12.3099
तंबू	-12.31
बियर	-12.31
ट्ज	-12.3101
झूठला	-12.3101
तकालय	-12.3102
▁¦300	-12.3103
विट	-12.3103
ुग	-12.3104
वाजे	-12.3105
शपथ	-12.3106
समीकरण	-12.3107
कश्तिय	-12.3107
लाभकार	-12.3111
पिल्ल	-12.3112
आलू	-12.3113
कुलीन	-12.3113
lf	-12.3116
ome	-12.3118
▁.?	-12.3118
विहार	-12.3122
करदाता	-12.3122
अंगार	-12.3122
औज	-12.3124
गिरि	-12.3124
पुरूषों	-12.3127
विपक्षी	-12.3127
तनिक	-12.3131
पालक	-12.3132
स्थिरता	-12.3135
फिट	-12.3136
ुंडी	-12.3138
परायण	-12.3138
सुनो	-12.3138
दंग	-12.3142
मरू	-12.3142
▁¦2000-	-12.3144
तैर	-12.3145
ज्या	-12.3146
खिड	-12.3148
पत्रकार	-12.3154
सुनाए	-12.3155
मेर	-12.3156
टकरा	-12.3156
साढ	-12.3157
सूरज	-12.3158
काष्ठ	-12.316
नाशुक्र	-12.3164
अनुकूलित	-12.3165
बिछा	-12.3165
पाएँ	-12.3166
सूड	-12.3168
मुनि	-12.3172
स्केल	-12.3172
समूच	-12.3178
माण	-12.3183
कब्र	-12.3185
कान्त	-12.3189
कन्न	-12.3193
खगोल	-12.3194
चौथ	-12.3196
नागालै	-12.3196
त्यौ	-12.3197
नजात	-12.3198
विराम	-12.3198
िदास	-12.3199
वाइ	-12.32
द्रा	-12.3203
चाब	-12.3204
फाल	-12.3206
शैव	-12.3211
.12.201	-12.3214
ल्ली	-12.3214
नब्	-12.3215
इन्द्र	-12.3222
खरा	-12.3224
कपूर	-12.3224
खैर	-12.3224
जागर	-12.3232
ne	-12.3233
सोना	-12.3239
फिलीपी	-12.324
▁¦1.0	-12.3243
सरलता	-12.3244
कलिंग	-12.3251
रील	-12.3253
अवज्ञाकार	-12.3258
कुंज	-12.3262
अनाथ	-12.3266
स्तंभों	-12.3271
निवेदित	-12.3271
गुवा	-12.3275
टंक	-12.3276
रेंद्र	-12.3276
मानें	-12.3281
सादा	-12.3282
भिन्नता	-12.3286
एल्ब	-12.3286
ाइए	-12.3289
...............	-12.329
शक्	-12.3292
र्लो	-12.3294
बदन	-12.33
गुला	-12.3304
बंग	-12.3308
किंव	-12.3314
शियन	-12.3317
कूप	-12.3321
मरय	-12.3329
मसख	-12.3334
ंधी	-12.3336
186	-12.3339
अत्याध	-12.3343
कम्ब	-12.3345
बरफ	-12.3346
पट्टा	-12.335
ry	-12.3355
हटाए	-12.3371
बाबा	-12.3379
स्राव	-12.3379
पतन	-12.3394
अधर्म	-12.3399
नयन	-12.3402
छीन	-12.3408
ूठ	-12.3411
खुरा	-12.3416
डाई	-12.342
चुनत	-12.3428
मनाने	-12.3435
अपद	-12.3439
ेशिया	-12.3447
ka	-12.3455
हानिकार	-12.346
खीर	-12.3464
पुं	-12.3466
हलका	-12.3467
आसन	-12.3471
वेरी	-12.3472
कोमल	-12.3479
टकाएँ	-12.3485
कुंजीपट	-12.3486
वलय	-12.3499
ांत्र	-12.35
रांत	-12.3501
पेंट	-12.3505
ठे	-12.3506
िचा	-12.3509
ग्वाल	-12.3512
प्रदायिक	-12.3528
पदक	-12.3534
कंप	-12.3537
111	-12.3541
चीर	-12.3548
ारण	-12.3557
बहका	-12.3558
ऊंगा	-12.3567
रस्	-12.3571
बेर	-12.3575
रुवा	-12.3585
लटका	-12.3598
सिस्ट	-12.3603
टहल	-12.3617
पहरण	-12.3618
स्वभाव	-12.3619
गध	-12.3635
दहन	-12.3637
टवे	-12.3642
मास्टर	-12.3646
मिन्	-12.3663
प्रतिस्थाप	-12.3665
ंथन	-12.3668
िफ्ट	-12.3672
tur	-12.3673
चाट	-12.3677
पाम	-12.3686
शीत	-12.369
्मुख	-12.3692
बिल्ड	-12.3698
रिक्ति	-12.37
रुख	-12.3706
जाएँग	-12.3716
इश्	-12.3719
जेन्ट	-12.3723
मपंथ	-12.3726
ga	-12.3733
ंपिंग	-12.3745
एनआर	-12.377
उठने	-12.3783
एसए	-12.3803
आंत	-12.3803
क्रोएशि	-12.3818
बहाल	-12.3818
ब्रु	-12.3829
उलटे	-12.3888
लूक	-12.3909
आला	-12.391
छठ	-12.3913
रूम	-12.3916
ारसी	-12.3949
वेल्	-12.3961
वर्स	-12.3961
hn	-12.3965
दण्ड	-12.3967
प्राइ	-12.3973
एसटी	-12.4016
डोर	-12.4022
बॉय	-12.4022
so	-12.4022
द्दा	-12.4025
प्रकाशक	-12.4031
महत	-12.4031
सिस्को	-12.4037
स्ट्री	-12.4075
पयोग	-12.4079
गाल	-12.4081
पटर	-12.4093
टोल	-12.4105
चिन	-12.4106
स्टैं	-12.4112
जाऊ	-12.4122
फिस	-12.4132
ल्ला	-12.416
दूंग	-12.4175
fe	-12.4178
va	-12.4178
ुट	-12.4181
विदार	-12.4185
साझीदारो	-12.4205
लेखापरीक्ष	-12.4207
ऑंखे	-12.4207
्चे	-12.4219
आरज	-12.4274
सिरा	-12.4278
ग्लो	-12.4282
रहनेवाल	-12.4283
टिप्	-12.4313
विलास	-12.4315
स्टोर	-12.4331
साड	-12.4333
ट्ठ	-12.4334
2017¦	-12.4347
act	-12.4367
3.5	-12.4367
मुज	-12.4376
पुकारने	-12.4397
प्रौद्योगिकीय	-12.44
ब्रिज	-12.4421
धूम	-12.4426
डोल	-12.4427
-10	-12.4442
sc	-12.4444
ब्बा	-12.4449
डाइ	-12.4455
03¦	-12.4456
ूर्	-12.4458
भाल	-12.4466
ड्रि	-12.4493
पाश	-12.45
ड़	-12.4503
्नू	-12.451
उद्ग	-12.451
84¦	-12.4529
ांत्रिक	-12.4547
लोरा	-12.4557
वसा	-12.4573
118	-12.4582
्हों	-12.4607
wa	-12.4625
श्तर	-12.4629
दिग्	-12.4631
रीद	-12.4638
मुर्दे	-12.4642
िचे	-12.467
दुब	-12.4678
झूल	-12.468
मनु	-12.4687
धिकार	-12.4699
व्यू	-12.4702
63¦	-12.4703
pl	-12.4709
ृह	-12.4717
वक्	-12.4731
ॉर्म	-12.4734
ुक्का	-12.4736
थै	-12.4737
भिमान	-12.4766
िटि	-12.479
सुलझ	-12.4797
बरकत	-12.4824
झल	-12.4827
डालेंग	-12.4854
कुर्स	-12.4862
एसडी	-12.487
vii	-12.4872
दृष्ट	-12.4886
विनि	-12.4936
२१	-12.4937
प्लेन	-12.496
स्वर्ण	-12.4965
र्रे	-12.4966
धाव	-12.4973
डीएस	-12.4978
ड्रे	-12.4985
कार्न	-12.4999
धू	-12.4999
ध्या	-12.5008
एजें	-12.5015
आफत	-12.5016
लिप	-12.5026
एसएम	-12.5037
ृंगार	-12.5046
सीएल	-12.506
usa	-12.5084
द्घ	-12.509
ॉर	-12.5094
150	-12.5105
ण्य	-12.5106
परिसीम	-12.5111
जैक	-12.5129
धारकों	-12.517
कुरु	-12.5188
ढु	-12.5191
ट्रो	-12.522
मुद्रक	-12.5223
उत्प्रेर	-12.526
फ़	-12.5273
ब्लू	-12.528
हैरान	-12.5287
चो	-12.5294
बहि	-12.5325
44	-12.5333
गिला	-12.5335
अभियांत्र	-12.5341
ुच्छ	-12.5342
ंपिक	-12.5348
ह्यू	-12.536
प्रशास	-12.5366
ive	-12.5372
cre	-12.5377
ाइव	-12.5378
लंका	-12.538
1/	-12.5383
्रेट	-12.5386
कुश	-12.5387
राष	-12.539
मृद	-12.5395
िस्ता	-12.5408
हिंद	-12.5412
रूब	-12.5416
९०	-12.542
96	-12.5431
लगो	-12.5434
िद्ध	-12.5435
र्मर	-12.5449
गूँ	-12.5459
बुआ	-12.5469
ाफ्ट	-12.5479
एक्सेस	-12.5484
इनाम	-12.549
संयोज	-12.5498
वीसी	-12.55
टेशिय	-12.5502
हँस	-12.5508
▁¦60	-12.5515
बुराइय	-12.5523
सुवि	-12.553
युग्म	-12.5531
षाण	-12.5534
.01.201	-12.5535
मोनो	-12.5535
ाश्म	-12.554
ui	-12.5543
#	-12.5545
\\	-12.5546
’	-12.5547
¥	-12.5548
कन्	-12.5551
▁¦0.0	-12.5553
अध्यापक	-12.5554
कम्प्यूट	-12.5556
प्रस्तु	-12.5556
बोर्	-12.5557
प्रतिनिध	-12.556
ुलेख	-12.556
ईआईए	-12.556
5.0	-12.556
दिवा	-12.5561
हस्तांतर	-12.5563
2-2	-12.5563
ारंभ	-12.5564
ुलाम	-12.5565
लिप्य	-12.5565
error	-12.5565
सॉफ	-12.5566
पुतली	-12.5566
शूल	-12.5566
but	-12.5566
श्रोणि	-12.5566
.03.201	-12.5566
gnome	-12.5566
ऎ	-12.5566
group	-12.5566
नींबू	-12.5566
gnu	-12.5566
product	-12.5566
state	-12.5566
ukrain	-12.5566
ऑस्ट्रेलिया	-12.5566
हरिश्चन्द्र	-12.5566
1975¦	-12.5566
bilit	-12.5566
	-12.5566
§	-12.5566
अभियंता	-12.5566
अहसास	-12.5566
अहिल्या	-12.5566
आनुवंशिक	-12.5566
इख्ते	-12.5566
करूणाकर	-12.5566
डीवीडी	-12.5566
तफसील	-12.5566
द्वेष	-12.5566
नियोक्ता	-12.5566
परिप्रेक्ष्य	-12.5566
प्रलोभन	-12.5566
ब्लैक	-12.5566
माउंट	-12.5566
रिएक्टर	-12.5566
रेकॉर्ड	-12.5566
वास्तुशिल्प	-12.5566
विषाक्त	-12.5566
वृंदावन	-12.5566
व्यवधान	-12.5566
षडयंत्र	-12.5566
संबंद्ध	-12.5566
सार्वभौम	-12.5566
▁¦1700¦	-12.5566
▁¦1970¦	-12.5566
▁¦1974¦	-12.5566
अंतराफलक	-12.5566
एट्रिब्यूट	-12.5566
ओस्लो	-12.5566
जिज्ञास	-12.5566
ज्वालामुख	-12.5566
नामिबिया	-12.5566
पंद्रह	-12.5566
बेलारूस	-12.5566
रुधिर	-12.5566
सर्जरी	-12.5566
चप्पल	-12.5566
तैनात	-12.5566
प्राक्सी	-12.5566
रिफाइनर	-12.5566
अयस्क	-12.5566
मोहिनी	-12.5566
उछाल	-12.5566
चींटी	-12.5566
जाग्रत	-12.5566
मूर्ख	-12.5566
स्वीडन	-12.5566
720	-12.5566
गारंटी	-12.5566
ठुकरा	-12.5566
फेफड	-12.5566
भीष्म	-12.5566
माधव	-12.5566
श्रेय	-12.5566
ption	-12.5566
गरिमा	-12.5566
प्रेसिडें	-12.5566
नश्वर	-12.5566
अनुपलब्ध	-12.5566
अविलंब	-12.5566
निखार	-12.5566
बिचौलिय	-12.5566
ound	-12.5566
कुंभ	-12.5566
ज्ञेय	-12.5566
निर्दय	-12.5566
कट्टरपंथ	-12.5566
साहिब	-12.5566
8.6	-12.5566
card	-12.5566
नाट्य	-12.5566
बिंब	-12.5566
मुबारक	-12.5566
ऐंठन	-12.5566
फील्ड	-12.5566
long	-12.5566
क्षुद्र	-12.5566
radi	-12.5566
star	-12.5566
पूर्णिमा	-12.5566
पाउडर	-12.5566
इक्वि	-12.5566
वृक्कशोथ	-12.5566
लोकायुक्त	-12.5567
पहुच	-12.5567
यौन	-12.5567
रोमांच	-12.5567
टुंब	-12.5567
रोजमर्र	-12.5567
इकार्इ	-12.5567
प्रामाणिक	-12.5567
संगणक	-12.5567
दहशत	-12.5567
बहुलवाद	-12.5567
command	-12.5567
कठपुतली	-12.5567
श्रावण	-12.5567
भैरव	-12.5567
१९८	-12.5567
औजारपट्ट	-12.5567
क्रान्त	-12.5567
सूफी	-12.5567
बिठा	-12.5567
कंठ	-12.5567
िब्रू	-12.5567
तुल्य	-12.5567
त्योहार	-12.5567
गठबंधन	-12.5567
स्पैम	-12.5567
राजेश	-12.5567
रक्तस्राव	-12.5567
डैक	-12.5567
मॉन्टे	-12.5567
लुप्त	-12.5567
कोष्ठक	-12.5567
टेक्न	-12.5567
नाश्ता	-12.5567
time	-12.5567
पुतलिय	-12.5567
एटीएम	-12.5567
लवण	-12.5567
विनोद	-12.5567
कट्टर	-12.5567
ठाक	-12.5567
पुष्ट	-12.5567
terror	-12.5567
eet	-12.5567
अन्धा	-12.5567
निष्पक्ष	-12.5567
भूषण	-12.5567
ल्कोहल	-12.5567
zim	-12.5567
बंदूक	-12.5567
छेद	-12.5567
पंगु	-12.5567
ania	-12.5567
उकसा	-12.5567
क्रास	-12.5568
विलयन	-12.5568
दुष्कर	-12.5568
पोलिट	-12.5568
अस्पृश्य	-12.5568
प्लास्ट	-12.5568
वैभव	-12.5568
१८	-12.5568
अल्फ	-12.5568
भ्रू	-12.5568
कंकाल	-12.5568
बूँद	-12.5568
कोरोना	-12.5568
मुसल्ल	-12.5568
शंकु	-12.5568
chan	-12.5568
पिंजर	-12.5568
बेहोश	-12.5568
php	-12.5568
प्याल	-12.5568
नाफरमान	-12.5568
रुसवा	-12.5568
आनन्दमय	-12.5568
सैट	-12.5568
टेलिफ	-12.5568
बैटर	-12.5568
हेक्ट	-12.5568
वाहिनी	-12.5568
ock	-12.5569
अतिरिक	-12.5569
इर्द	-12.5569
फ्रो	-12.5569
उधारकर्ता	-12.5569
गुर्द	-12.5569
म्युनिस	-12.5569
निषेध	-12.5569
विधानमंडल	-12.5569
मानवाधिकार	-12.5569
नलिका	-12.5569
तबदील	-12.5569
परिसंपत्तिय	-12.5569
लाभप्रद	-12.5569
अनोख	-12.5569
kdes	-12.5569
निबंधन	-12.5569
अन्वेषण	-12.5569
जीवाणु	-12.5569
तबलीग	-12.557
लगाओ	-12.557
कवच	-12.557
ब्रॉ	-12.557
श्रय	-12.557
see	-12.557
बोतल	-12.557
nation	-12.557
लुभा	-12.557
ज्वार	-12.557
विधवा	-12.557
क्रमादेश	-12.557
बरामद	-12.557
धिक्कार	-12.557
कलंक	-12.557
८२	-12.5571
tra	-12.5571
फँस	-12.5571
मेहराब	-12.5571
निवृत्त	-12.5571
▁¦1963¦	-12.5571
२६	-12.5571
राणा	-12.5571
वाकिफ	-12.5571
str	-12.5571
उद्धार	-12.5571
▁”।	-12.5571
col	-12.5572
जागरण	-12.5572
श्यल	-12.5572
रिश्तेदार	-12.5572
डीलर	-12.5573
मिर्जा	-12.5573
चार्ज	-12.5573
गोत्र	-12.5573
असन्तोष	-12.5573
सिन्ध	-12.5573
इब्रा	-12.5573
दुष्ट	-12.5573
बंजर	-12.5574
प्रतिबन्ध	-12.5574
amp	-12.5574
lus	-12.5574
दुर्बल	-12.5574
जरूरतमंद	-12.5574
फर्न	-12.5574
मास्क	-12.5574
निर्भय	-12.5574
mon	-12.5574
हेल्	-12.5575
डिपो	-12.5575
बाल्ट	-12.5575
रॉय	-12.5576
इष्ट	-12.5576
डुबो	-12.5576
निर्बल	-12.5576
चाचा	-12.5576
▁¦1988	-12.5576
क्चर	-12.5576
ops	-12.5577
आवृति	-12.5577
अवसाद	-12.5577
पुश्त	-12.5577
निक्षेप	-12.5577
रुपरेखा	-12.5577
स्त्रो	-12.5577
प्रस्ता	-12.5577
▁¦1969	-12.5578
धनवान	-12.5578
tw	-12.5578
प्रोफाइल	-12.5578
रेजि	-12.5578
च्छद	-12.5578
इण्ड	-12.5579
ज्यों	-12.5579
कस्ब	-12.5579
इशार	-12.5579
दिष्ट	-12.5579
एचपी	-12.558
अज्र	-12.558
संयम	-12.558
प्रलय	-12.558
बूर	-12.558
समाध	-12.558
vp	-12.5581
माणिक	-12.5581
सम्यक	-12.5582
कार्यशाला	-12.5583
स्वेद	-12.5583
विनम्रता	-12.5583
▁¦1929	-12.5584
kc	-12.5584
समतल	-12.5585
चेंज	-12.5585
संपीड	-12.5585
पिंड	-12.5585
द्धार	-12.5585
tic	-12.5585
लार्ड	-12.5585
प्राप	-12.5586
des	-12.5586
बतायी	-12.5587
सूट	-12.5587
घटनाएँ	-12.5587
लूट	-12.5587
महानगर	-12.5587
वेदांत	-12.5587
हेम	-12.5589
मार्केट	-12.559
मनोहर	-12.559
उद्योगपति	-12.559
लीटर	-12.5591
फायरफ	-12.5591
अनुकरण	-12.5592
अस्वीकार्य	-12.5592
अपसर	-12.5592
झिम	-12.5592
उम्मीदवार	-12.5592
हेलिक	-12.5593
संयोजक	-12.5593
▁¦1994	-12.5594
निवार	-12.5595
आरटी	-12.5595
my	-12.5596
नजदीक	-12.5596
बुद्धिमान	-12.5597
सनात	-12.5598
निलय	-12.5598
गिलहर	-12.56
भूरी	-12.56
मीनार	-12.5601
बाजू	-12.5602
छवियों	-12.5602
पुण	-12.5602
खड्ड	-12.5602
बैग	-12.5603
जेपी	-12.5603
पिक्स	-12.5603
परिधी	-12.5605
संगीतकार	-12.5605
नित्य	-12.5606
प्रेक्ष	-12.5606
पीएन	-12.5607
विलोकन	-12.5608
आस्ट्र	-12.5608
कांच	-12.5608
कसरत	-12.5609
ड्यूल	-12.561
सर्प	-12.5611
पूर्वानुम	-12.5611
समेट	-12.5612
जीर्ण	-12.5612
मृदा	-12.5612
लगेंगे	-12.5612
खौलत	-12.5612
आइसो	-12.5613
साहसिक	-12.5614
अंत्य	-12.5615
फसाद	-12.5615
परिष	-12.5616
अध्यापकों	-12.5618
पगड	-12.5618
रहिए	-12.5619
राजनेता	-12.5619
वामन	-12.5621
झुठलाए	-12.5621
ुगु	-12.5622
आवृत्ति	-12.5623
अभिनेता	-12.5623
नॉर्	-12.5623
युग्मक	-12.5624
संस्थाएं	-12.5624
उबाल	-12.5624
चमकील	-12.5624
ब्राज	-12.5627
अभ्या	-12.5627
वृद्धा	-12.5628
झांक	-12.5629
md	-12.5631
तवर	-12.5631
पक्षकार	-12.5631
बैक्ट	-12.5631
▁¦2/	-12.5632
1964	-12.5632
आलिम	-12.5632
अहिंसा	-12.5632
पंजीय	-12.5633
शंस	-12.5634
ऑय	-12.5635
कार्यदिवस	-12.5636
राजराज	-12.5636
मनाए	-12.5636
नरेश	-12.5637
एंटि	-12.5637
साइड	-12.5637
गन्न	-12.5637
कार्यकर्ता	-12.5638
ीबिया	-12.5642
ग्रीक	-12.5642
ढीले	-12.5643
रियाद	-12.5645
क्रीड	-12.5645
पीपी	-12.5646
मोम	-12.5646
ब्रज	-12.5647
नाशक	-12.5647
कार्यशील	-12.5647
्कृत	-12.5647
कटु	-12.5649
आलेख	-12.5649
दॉ	-12.5649
उल्टा	-12.565
फटकार	-12.565
distribut	-12.5653
पोर्टल	-12.5656
विचित्र	-12.5657
बोह	-12.5658
उलटा	-12.566
बुख	-12.566
पोर्टफ	-12.5662
जनाब	-12.5662
विक्रम	-12.5663
्रैंड	-12.5664
एक्सेसेब	-12.5664
व्याज	-12.5666
भजन	-12.5667
मेडिक	-12.5672
्शे	-12.5673
निस्प	-12.5673
परिकल	-12.5674
अनियमित	-12.5674
पुरो	-12.5674
तितल	-12.5675
फरार	-12.5675
बलात	-12.5675
धब्ब	-12.5682
कामकाज	-12.5686
पंक	-12.5689
तहार	-12.569
गौरी	-12.5691
छुआ	-12.5694
स्टेप	-12.5697
जानकारिय	-12.5699
पिरा	-12.5701
गैल	-12.5702
टपक	-12.5704
चिन्हों	-12.5704
rt	-12.5706
आयुर्व	-12.5707
श्वास	-12.5711
बृहद	-12.5719
दीर्घा	-12.572
अनल	-12.5722
शरद	-12.5724
हनन	-12.5726
क्षार	-12.5734
स्वामि	-12.5734
बनारस	-12.5734
्मात	-12.5734
कलि	-12.5738
.10.201	-12.574
असफ	-12.5741
अप्रयुक्त	-12.5741
अहात	-12.5743
वेस्ट	-12.5745
गुआ	-12.575
जंतु	-12.5756
जमना	-12.5759
टखन	-12.5759
वायरल	-12.5761
वारिक	-12.5762
reat	-12.5763
आर्इ	-12.5764
कांप	-12.5774
खरीदार	-12.5774
हौज	-12.5778
ऑस्	-12.578
ॉकेट	-12.5783
अध्याप	-12.5784
दर्शाने	-12.5785
प्रभावश	-12.5785
इम्ति	-12.5791
सर्क	-12.5792
भ्रांत	-12.5793
ौली	-12.5795
एटी	-12.58
-12	-12.5801
मिति	-12.5801
आवर्त	-12.5806
िज्ञान	-12.5811
प्रतिष्ठान	-12.5818
आवश	-12.5819
लोहा	-12.5821
संख्यांक	-12.5825
चड	-12.5827
लेगी	-12.583
स्ला	-12.5842
इनसान	-12.5848
dra	-12.5852
2.3	-12.5863
▁.....	-12.5867
शायर	-12.5884
भट्टा	-12.5885
लीला	-12.5891
कपाट	-12.5894
पार्स	-12.59
ढाँचा	-12.59
पैड	-12.5914
ांगों	-12.5915
ish	-12.5915
दानव	-12.5934
ाम्बि	-12.5939
परिरक्ष	-12.5944
ृहस्पति	-12.5945
देशीराज्य	-12.5955
ैतू	-12.5956
प्रीमिय	-12.5957
दरार	-12.5993
ron	-12.5994
वर्म	-12.5999
ग्रेड	-12.6
गुजार	-12.6001
एसएस	-12.6023
वायर	-12.6043
जाहि	-12.6053
अतिवाद	-12.6061
अम्मा	-12.6068
युस	-12.607
भृंग	-12.6115
ile	-12.6116
ुकुम	-12.6129
१९३	-12.6159
एचआई	-12.6175
मिस	-12.6185
ंबु	-12.6189
गम्य	-12.6198
ल्लु	-12.6199
सारंग	-12.6208
हुँ	-12.622
लाहौ	-12.6226
yaa	-12.6228
दात	-12.6236
प्रभाकर	-12.6292
ात्रा	-12.6301
ईमानवालो	-12.6308
बरु	-12.6319
ूच	-12.6329
''।	-12.6352
बेकार	-12.6358
.00¦	-12.6362
आंक	-12.6368
पहनत	-12.6368
सन्न	-12.6383
बरकतवाल	-12.6391
अवसा	-12.6406
ठप	-12.6411
वंशज	-12.643
रोमान	-12.6449
ंकेति	-12.6469
न्वयन	-12.6469
▁¦110	-12.6471
पिच	-12.6489
आईएन	-12.6492
ाशित	-12.6505
rug	-12.651
प्लाय	-12.6524
ग्वा	-12.6532
सुननेवाल	-12.6543
मिर्	-12.6563
ogl	-12.6576
दीर्घकाल	-12.6604
जीएस	-12.6605
पनप	-12.6611
डर्स	-12.662
िश्च	-12.6651
निवृत्ति	-12.6658
ट्रांसल	-12.6666
ene	-12.6716
गोरख	-12.6724
उन्न	-12.6724
ल्टर	-12.6725
इफ्	-12.6741
fi	-12.6743
महिमा	-12.6765
du	-12.6773
्लेश	-12.6776
सूक्त	-12.6784
ढँ	-12.681
गन्दे	-12.6833
mer	-12.6835
पैले	-12.6847
30-	-12.685
uf	-12.6867
bet	-12.6917
om	-12.6918
ब्लॉ	-12.6927
▁¦3.	-12.6962
वाहि	-12.6968
वांछित	-12.6983
दाग	-12.6989
्ठा	-12.7011
माड	-12.7022
सम्पादित	-12.7032
सलामत	-12.7038
गुजरत	-12.704
अधिनिर्ण	-12.7041
नन्हे	-12.7103
हसन	-12.7109
ोद्योग	-12.7112
ru	-12.7119
▁....	-12.717
दसवे	-12.7174
रोट	-12.7181
तन्	-12.7192
बलु	-12.7192
ध्र	-12.7213
द्यो	-12.724
स्टीम	-12.7279
हॆ	-12.7295
टूर	-12.7295
अनर्	-12.7314
हर्षि	-12.7327
स्कृत	-12.7339
▁¦2006-	-12.7342
डायो	-12.7348
निपटन	-12.7352
fo	-12.7361
बेनि	-12.7371
फ्रांसिस	-12.7375
१०००	-12.7401
त्यो	-12.7405
िस्सा	-12.7435
शीट	-12.7437
छु	-12.744
ॅग	-12.7468
वैक्	-12.7472
ियोजन	-12.7516
...।	-12.7558
संघट	-12.757
बेरी	-12.7581
शास्त	-12.761
इन्फ	-12.762
हार्य	-12.7623
ुमार	-12.7641
▁¦184	-12.7653
शुद्धि	-12.7658
डालेग	-12.7694
ुजू	-12.7724
डीबी	-12.7776
wi	-12.7806
इंस्ट	-12.7809
टीडी	-12.7819
सिद्धांतो	-12.7823
संज्ञा	-12.7824
पैल	-12.7838
आईईए	-12.784
मेश्वर	-12.7845
चुनौति	-12.7857
कलात्म	-12.7892
uti	-12.7911
घुम	-12.7921
धुंध	-12.7965
पाटि	-12.7974
res	-12.7979
श्वस्त	-12.7986
kt	-12.8004
ख्वास्त	-12.8006
प्रजाति	-12.8017
लावन	-12.8023
फरीक	-12.8052
जाऊं	-12.8085
opi	-12.8107
ैक्त	-12.8123
खिसक	-12.8124
वार्ताल	-12.8133
चूह	-12.8135
अवस्थित	-12.8146
घमं	-12.8146
क्षु	-12.8159
जुलत	-12.8195
संख्यक	-12.8204
फ्रे	-12.8215
हर्ज	-12.8219
स्ली	-12.8244
द्दाम	-12.8262
ोचन	-12.8263
ring	-12.8286
ुश्क	-12.8373
ुद्द	-12.8383
प्रीम	-12.8386
सर्जन	-12.8394
राहु	-12.8398
यूएफ	-12.8408
कनेक्टि	-12.8413
मोंट	-12.8416
ess	-12.8429
फंक्	-12.8525
सियार	-12.8535
आरएफ	-12.8548
ुष्ट	-12.8553
झुकन	-12.8564
che	-12.8604
फिलीप	-12.8613
जिन्न	-12.8629
गुद	-12.8634
चलाएँ	-12.8673
ाण्डे	-12.8695
गौड	-12.8704
यक्ति	-12.8706
aya	-12.8712
मिष	-12.8716
हृद	-12.8753
श्रृंग	-12.8765
बीट	-12.882
900	-12.8825
वन्त	-12.8831
िधि	-12.8846
पत्न	-12.8847
सभ्य	-12.8849
hel	-12.8849
ढाँच	-12.8855
त्कार	-12.8856
पहुंचेग	-12.8856
फ्रां	-12.8863
प्रतिष	-12.8863
सृष्ट	-12.8867
प्रतीक्ष	-12.8872
विनम्र	-12.8877
फायर	-12.8879
!	-12.888
स्वयंसेव	-12.8881
}	-12.8881
”	-12.8881
टर्मिन	-12.8882
रूद्	-12.8883
ध्यापक	-12.8884
कार्यान्वय	-12.8886
िंदगी	-12.8886
ुबू	-12.8891
गवर्न	-12.8891
किराये	-12.8892
अनुसूचि	-12.8892
ुस्ल	-12.8893
rea	-12.8893
	-12.8893
br	-12.8893
°	-12.8894
अन्वेष	-12.8895
ास्तगार	-12.8895
fri	-12.8895
बत्ती	-12.8896
संक्र	-12.8897
क्षिप्त	-12.8898
mail	-12.8898
वृद्	-12.8898
चमत्क	-12.8898
लब्ध	-12.8898
ऑर्ग	-12.8899
प्रोग्र	-12.8899
gener	-12.8899
स्टर्लिंग	-12.8899
.07.201	-12.89
distri	-12.89
category	-12.89
micro	-12.89
value	-12.89
ईर्ष्य	-12.89
-8859-	-12.89
1,6	-12.89
font	-12.89
hypothes	-12.89
maildir	-12.89
इम्प्लाँट	-12.89
ऊर्ध्व	-12.89
तम्बाकू	-12.89
रुग्ण	-12.89
स्पिरिट	-12.89
,00,000	-12.89
date	-12.89
day	-12.89
direct	-12.89
ldap	-12.89
recur	-12.89
square	-12.89
¢	-12.89
अथॅारिटी	-12.89
अनावश्यक	-12.89
अलास्का	-12.89
आलोचक	-12.89
एक्सप्लोर	-12.89
एप्लिकेशन	-12.89
ऐश्वर्य	-12.89
कार्पोरेशन	-12.89
कार्बोनेट	-12.89
कैप्सूल	-12.89
कैलनबैक	-12.89
क्रिस्टोफर	-12.89
गम्भीर	-12.89
गुबरैल	-12.89
घोटाल	-12.89
चेतावनिय	-12.89
जमींदार	-12.89
टॉइड	-12.89
डायस्पो	-12.89
डिबेंचर	-12.89
तृप्ति	-12.89
द्वन्द्व	-12.89
धनुर्	-12.89
निःशक्तजन	-12.89
पब्लिश	-12.89
पुर्तगाल	-12.89
प्रफुल्ल	-12.89
प्रियंवद	-12.89
फॉस्फेट	-12.89
फ्रंट	-12.89
बदबख्त	-12.89
बुजुर्ग	-12.89
ब्रिगेड	-12.89
भित्तिचित्र	-12.89
यौवन	-12.89
रुझान	-12.89
लक्ष्मण	-12.89
वृन्	-12.89
वृषण	-12.89
शाश्वत	-12.89
सर्टिफ	-12.89
सॉल्वै	-12.89
स्लैब	-12.89
हिफाज	-12.89
▁¦07.02.201	-12.89
space	-12.89
अँग्रेज	-12.89
आत्मश्लाघ	-12.89
इऋल्म	-12.89
इलैक्ट्रि	-12.89
उग्रवाद	-12.89
ऑल्ट	-12.89
औपनिवेश	-12.89
कॉर्पोरे	-12.89
ग्रेच्युटी	-12.89
चैलेंज	-12.89
तिलहन	-12.89
तीक्ष्ण	-12.89
पर्वतारोह	-12.89
प्रत्यायोजन	-12.89
बैतुल	-12.89
यक्ष्म	-12.89
यूनिवर्स	-12.89
रवींद्र	-12.89
लातविया	-12.89
विश्वेश्वरैय	-12.89
शुद्व	-12.89
शेक्सप	-12.89
▁¦179	-12.89
▁¦1959	-12.89
अठारह	-12.89
अभिषेक	-12.89
इन्फ्लुएं	-12.89
कॉन्फ्रेंस	-12.89
ग्रीष्म	-12.89
तिथ्य	-12.89
दुशमन	-12.89
प्रतिस्पर्द्ध	-12.89
प्रशस्त	-12.89
यूआरएल	-12.89
यूरेनियम	-12.89
योद्धा	-12.89
राइन्द	-12.89
▁¦2010-11¦	-12.89
उदासीन	-12.89
नुस्ख	-12.89
फिलिस्तीन	-12.89
रौब	-12.89
वृंद	-12.89
शैशव	-12.89
सूत्रीविभाज	-12.89
▁¦21.3	-12.89
अधिष्ठाप	-12.89
किर्गिज	-12.89
क्षोभ	-12.89
ढिलाई	-12.89
सैंड	-12.89
स्तोत्र	-12.89
मुहाजिर	-12.89
रामचरित	-12.89
toric	-12.89
अटलांट	-12.89
ऋषिकेश	-12.89
ब्यौ	-12.89
impli	-12.89
server	-12.89
अनिष्ट	-12.89
चालुक	-12.89
वल्लभ	-12.89
सैय	-12.89
पुरातन	-12.89
व्यंजन	-12.89
सिकंदर	-12.89
सिगरेट	-12.89
सोशल	-12.89
फिलिप	-12.89
मधुमक्ख	-12.89
path	-12.89
बड़े	-12.89
organi	-12.89
आतिश	-12.89
आगंतुक	-12.89
क्षुब्	-12.89
१८९	-12.89
बैंगन	-12.89
वृहत	-12.89
अपवर्ज	-12.89
सर्किट	-12.89
अध्यात्म	-12.89
कपटाचार	-12.89
artic	-12.89
कुलाध	-12.89
नातेदार	-12.89
उँगल	-12.89
पचारिक	-12.89
स्कन्ध	-12.89
box	-12.89
कंडक्ट	-12.89
गोल्डन	-12.89
बहिष्क	-12.89
rently	-12.89
बेकिस्तान	-12.89
बाँसुर	-12.89
एनडीपीए	-12.89
पर्यवेक्ष	-12.89
प्रोन्नत	-12.89
जिम्बा	-12.89
परिचारक	-12.89
soft	-12.89
निर्भीक	-12.89
फार्मूल	-12.89
मैक्सि	-12.89
युनिट	-12.89
जिकिस्तान	-12.89
ब्रह्रा	-12.89
अननुज्ञ	-12.89
शोष	-12.89
कल्चर	-12.89
प्यास	-12.89
डकास्ट	-12.89
अंगूठ	-12.89
कार्लस	-12.89
१९४	-12.89
gla	-12.89
हस्तशिल्प	-12.89
तद्	-12.89
शाकाहार	-12.89
चौबीस	-12.8901
युवतिय	-12.8901
शब्दकोश	-12.8901
wor	-12.8901
माइक्रोफिल्म	-12.8901
fini	-12.8901
त्रिविध	-12.8901
प्रखर	-12.8901
रघुनाथ	-12.8901
भस्म	-12.8901
hai	-12.8901
अतिशय	-12.8901
मध्यच्छद	-12.8901
▁...!	-12.8901
सिपाह	-12.8901
lear	-12.8901
औधे	-12.8901
परिवीक्षा	-12.8901
नायिका	-12.8901
मुलतान	-12.8901
आर्द्र	-12.8901
वचनबद्ध	-12.8901
शिष्ठ	-12.8901
कुम्भ	-12.8901
word	-12.8901
बेहूद	-12.8901
६००	-12.8901
५००	-12.8901
स्कंध	-12.8901
कीटाणु	-12.8901
that	-12.8901
ागरि	-12.8901
मजलिस	-12.8901
प्रयाग	-12.8901
loa	-12.8901
वृद्धावस्था	-12.8901
कुर्बान	-12.8901
शूट	-12.8901
बुढाप	-12.8901
▁}'	-12.8901
ऑप्ट	-12.8902
क्षतिपूर्ति	-12.8902
ado	-12.8902
शिलालेख	-12.8902
स्वायत	-12.8902
डीडीओ	-12.8902
अंकगणित	-12.8902
प्रवण	-12.8902
इन्टरने	-12.8902
मांसपेशिय	-12.8902
फिशर	-12.8902
चालुक्य	-12.8902
ण्ण	-12.8902
निपुण	-12.8902
अभिव्यक	-12.8902
विषैल	-12.8902
टिप्पणियाँ	-12.8902
मिजाज	-12.8902
टुम्ब	-12.8902
बहिर्	-12.8902
हिचक	-12.8902
नियुक	-12.8902
डिप्	-12.8902
बांसुर	-12.8902
मृग	-12.8903
ध्वंस	-12.8903
ode	-12.8903
मार्टिन	-12.8903
inter	-12.8903
आंत्र	-12.8903
डुचे	-12.8903
विकिपीडियाः	-12.8903
संयुक	-12.8903
टास्क	-12.8903
मदयन	-12.8903
lib	-12.8903
प्राप्य	-12.8903
पदावल	-12.8903
तराश	-12.8903
usar	-12.8903
आईबीए	-12.8903
गौतम	-12.8903
मन्दिर	-12.8903
वाद्ययंत्र	-12.8903
pue	-12.8903
रूकू	-12.8903
५५	-12.8903
bar	-12.8903
ऋणदाता	-12.8903
ेडरेशन	-12.8903
सदुप	-12.8904
बढ़ा	-12.8904
तैमू	-12.8904
दूरबीन	-12.8904
oper	-12.8904
bab	-12.8904
▁¤£	-12.8904
ब्रेड	-12.8904
back	-12.8904
पाइपलाइन	-12.8904
पैटर	-12.8904
२८	-12.8904
प्रतिलिप्य	-12.8904
nse	-12.8904
चर्या	-12.8904
पाइंट	-12.8904
▁¦2.2	-12.8904
स्टार्ट	-12.8905
कल्ह	-12.8905
पैदाइश	-12.8905
कल्या	-12.8905
प्रत्याय	-12.8905
इलाहा	-12.8905
ड्रै	-12.8905
उपस्कर	-12.8905
▁¦1938¦	-12.8905
सहनशील	-12.8905
hou	-12.8905
टटोल	-12.8905
४०	-12.8905
3,5	-12.8905
चिट्ठ	-12.8905
गेंदबाज	-12.8905
निबन्ध	-12.8906
पुरःस्थाप	-12.8906
▁¦1939¦	-12.8906
परावर्त	-12.8906
अभिकल्प	-12.8906
▁¦12:	-12.8906
जलयान	-12.8906
▁¦1981¦	-12.8906
non	-12.8906
पत्नियों	-12.8906
पाउंड	-12.8906
अवरोह	-12.8907
गुरुत्व	-12.8907
अधिभोग	-12.8907
साइंस	-12.8907
अतंर	-12.8907
बाँट	-12.8907
▁¤...	-12.8907
ध्रुवीय	-12.8907
विद्याधर	-12.8907
अन्तर्ज्ञान	-12.8907
खरगोश	-12.8907
अंगुल	-12.8907
पायल	-12.8908
धकेल	-12.8908
समान्यत	-12.8908
संसर्ग	-12.8908
समामेल	-12.8908
२३	-12.8908
यूनान	-12.8908
सर्वांग	-12.8908
पॉँच	-12.8908
ग्राह्य	-12.8909
1/2	-12.8909
काल्प	-12.8909
रजिस्ट्रार	-12.8909
उछल	-12.8909
▁¦1909	-12.8909
कुंच	-12.8909
एयरलाइ	-12.8909
कुसूर	-12.8909
डोमिनि	-12.8909
स्पंद	-12.8909
क्लाइं	-12.8909
आभूषण	-12.891
सोपान	-12.891
डेरि	-12.891
गुमनाम	-12.891
पच्छ	-12.891
विमोच	-12.891
प्रोटेक्	-12.891
दृष्टिहीन	-12.8911
डेवल	-12.8911
भूगर्भ	-12.8911
पिण्ड	-12.8911
गद्द	-12.8911
pers	-12.8911
ier	-12.8911
एचटी	-12.8911
तलवार	-12.8911
एनकोड	-12.8911
▁¦1800	-12.8911
भूगोल	-12.8912
स्थााप	-12.8912
आऊंगा	-12.8912
अछूत	-12.8912
बेरोजगार	-12.8912
प्रत्याभूत	-12.8912
एसएच	-12.8912
खोखल	-12.8912
ंप्रदाय	-12.8913
देशभक्त	-12.8913
नरसिंह	-12.8913
215	-12.8913
विघट	-12.8913
किरायेदार	-12.8913
▁¦82	-12.8914
निबट	-12.8914
sou	-12.8914
अगस्त्य	-12.8914
गार्ड	-12.8914
स्पू	-12.8914
यादृ	-12.8914
▁¦400	-12.8915
ोसिस	-12.8915
पक्षपात	-12.8915
दीप्त	-12.8915
राज्याभिषेक	-12.8915
विपर्य	-12.8916
लेबनान	-12.8916
गलियार	-12.8916
सोनार	-12.8916
वेबपृष्ठ	-12.8916
गद्दार	-12.8917
बॉब	-12.8917
व्याध	-12.8917
राजवंश	-12.8917
लाभार्थ	-12.8917
वायवी	-12.8917
अणु	-12.8918
अधिभार	-12.8918
1012	-12.8918
tv	-12.8918
िहास	-12.8918
दलदल	-12.8919
▁¦1980	-12.8919
ङ्ग	-12.8919
पठार	-12.8919
पद्म	-12.892
कुवै	-12.892
कन्व	-12.8921
ita	-12.8921
्यार्थ	-12.8922
ज्ञानवान	-12.8922
तरक्क	-12.8922
अक्षरश	-12.8922
कलाबाज	-12.8923
पागल	-12.8923
ग्नो	-12.8923
▁->	-12.8923
होंठ	-12.8923
हमबिस्तर	-12.8924
संधान	-12.8924
अकादमिक	-12.8925
समाजविज्ञान	-12.8925
विवश	-12.8925
तुकला	-12.8925
मन्ना	-12.8926
मदुर	-12.8926
सायट	-12.8926
औट	-12.8926
आवेग	-12.8927
अगुआ	-12.8927
जमाराशि	-12.8927
कुंद	-12.8927
रिस्क	-12.8927
रस्ते	-12.8927
लज्ज	-12.8927
धीश	-12.8928
संबध	-12.8928
सप्त	-12.8928
कैम्प	-12.8928
द्रीय	-12.8929
लिंड	-12.8929
अविराम	-12.893
असहिष्णु	-12.893
cf	-12.893
▁¦183	-12.893
फुर्त	-12.893
सूचि	-12.893
बेस्ट	-12.8931
ड्राइवर	-12.8931
निलंब	-12.8932
gin	-12.8932
देशभक्ति	-12.8932
छुड	-12.8933
उत्तमकार	-12.8933
tha	-12.8933
पेंड	-12.8934
रिशत	-12.8934
्फुस	-12.8935
साउंड	-12.8935
प्रेरणादाय	-12.8936
लाइफ	-12.8936
सरिता	-12.8936
स्खलन	-12.8936
प्रतिशोध	-12.8936
▁¦41	-12.8937
संगृह	-12.8937
280	-12.8938
प्रिंस	-12.8939
वेतनमान	-12.894
तोहमत	-12.8941
संप्रतीक	-12.8942
बद्द	-12.8942
सम्मे	-12.8942
एक्सट	-12.8942
मद्द	-12.8943
▁¦134	-12.8943
सहेल	-12.8945
लौंड	-12.8946
अरण्य	-12.8946
ब्लड	-12.8946
वंदन	-12.8947
जनपद	-12.8949
प्लेस	-12.895
निहार	-12.895
करारनाम	-12.895
हॅ	-12.8951
अनावृ	-12.8951
पैठ	-12.8953
प्रकरण	-12.8954
bra	-12.8954
अभिज्ञान	-12.8955
गंगे	-12.8957
पवन	-12.8958
स्पेस	-12.8958
लाहौल	-12.8958
▁¦206	-12.896
वासंत	-12.8961
3000	-12.8961
लर्न	-12.8961
पद्य	-12.8961
नुकील	-12.8961
बोदे	-12.8962
सिब	-12.8962
र्तिक	-12.8963
यूजर	-12.8963
ॅड	-12.8963
▁¦1968	-12.8965
उबलत	-12.8966
बेध	-12.8966
एनीम	-12.8968
लिपट	-12.8969
लांच	-12.8976
एंगल	-12.8978
सार्व	-12.8978
वित्र	-12.898
उत्सर्ज	-12.8984
इलेक्ट्रिक	-12.8986
180	-12.8988
हर्ट	-12.8993
बेनिया	-12.8999
▁¦101	-12.9001
फॉस	-12.9001
छत्त	-12.9002
रवेल	-12.9004
राकस	-12.9004
मृदु	-12.9008
expo	-12.9009
सुरेन्द्रन	-12.9014
प्लाट	-12.9016
चन्द्रम	-12.9019
अरवि	-12.902
मेनिया	-12.9022
ज्यामित	-12.9025
चिल्ड्रन	-12.9032
कझो	-12.9036
श्रृंगार	-12.9037
उच्छ	-12.9037
घिसा	-12.9047
धम्म	-12.9065
मनोरम	-12.9066
आपत्ति	-12.9067
कैन्	-12.9073
र्तव	-12.9074
पोस्टर	-12.9082
ैम्प	-12.9087
कर्मचा	-12.9089
निर्बंध	-12.9093
ूद्ध	-12.9096
अनू	-12.9102
बतला	-12.9104
ुलेट	-12.9108
्यक्ति	-12.9124
एम्प	-12.9127
):	-12.9133
लम्प	-12.9133
थिर	-12.9134
चेम्	-12.9142
कूड	-12.9151
राथन	-12.9152
यूरोपिय	-12.9155
सिल्व	-12.9156
पाण्ड	-12.9171
्धा	-12.9174
टाप	-12.9175
तीर्थयात्र	-12.9202
्जिय	-12.921
लंकार	-12.9211
imp	-12.9211
ब्राय	-12.9228
निष्पा	-12.9235
ायब	-12.9247
आदर्शवाद	-12.9254
सिव	-12.9258
बारूद	-12.9265
परंपरावाद	-12.9268
सिग	-12.9276
उद्य	-12.9284
पॉज	-12.9288
डब्ल्यू	-12.9308
खोद	-12.932
हथक	-12.9331
आएँगे	-12.9336
चालाक	-12.9365
दुरु	-12.9367
खाएँगे	-12.9375
नीतिया	-12.9385
गर्द	-12.9391
कैप्	-12.9404
विसर्ज	-12.9404
मुजर	-12.9406
र्ति	-12.9422
भकोस	-12.944
ौकि	-12.9443
मुस्करा	-12.9452
वसाय	-12.9471
रयान	-12.9477
पुनराव	-12.9488
▁¦144	-12.9561
एमएनआर	-12.9586
महान्यायव	-12.9594
—	-13.3881
“	-13.3881
£	-13.3893
	-13.39
	-13.39
̃	-13.39
	-13.39
\	-14.3882
=	-14.3882
$	-14.3882
[	-14.3882
+	-14.3882
@	-14.3882
®	-14.3894
î	-14.3899
ॄ	-14.39
	-14.39
	-14.39
	-14.39
	-14.39
×	-14.39
ò	-14.39
þ	-14.39
ą	-14.39
ĺ	-14.39
॓	-14.39
‐	-14.39
₹	-14.39
ş	-14.39
`	-14.3997
~	-14.3998
	-14.3999
¶	-14.4
¡	-14.4001
	-14.4002
	-14.4003
«	-14.4004
	-14.4005
̄	-14.4006
̈	-14.4007
̧	-14.4008
¿	-14.4009
<	-14.401
⁄	-14.4011
7	-14.4012
5	-14.4013
¤	-14.4014
