<pad>	0
</s>	0
<unk>	0
▁¦	-0
▁𐋇	-1
an	-2
ma	-3
ch	-4
ˈ¦	-5
▁̈	-6
in	-7
aj	-8
co	-9
is	-10
▁,	-11
al	-12
naj	-13
yu	-14
et	-15
mam	-16
eb	-17
il	-18
▁.	-19
comam	-20
ca	-21
ha	-22
to	-23
un	-24
ay	-25
tz	-26
tu	-27
ni	-28
chi	-29
yin	-30
ti	-31
hun	-32
ebnaj	-33
xin	-34
ta	-35
caw	-36
el	-37
ab	-38
ah	-39
ey	-40
tx	-41
anma	-42
ul	-43
ax	-44
yul	-45
oj	-46
te	-47
wal	-48
can	-49
hune	-50
os	-51
di	-52
yet	-53
dios	-54
yeb	-55
ak	-56
tet	-57
tzet	-58
en	-59
mach	-60
yal	-61
yi	-62
xa	-63
es	-64
han	-65
isc	-66
che	-67
pax	-68
ya	-69
at	-70
▁:	-71
ẍi	-72
ix	-73
wi	-74
wa	-75
he	-76
ol	-77
haca	-78
unil	-79
ban	-80
ye	-81
mac	-82
isb	-83
no	-84
ic	-85
▁―	-86
yalni	-87
on	-88
taj	-89
jes	-90
sat	-91
paxo	-92
oc	-93
yuto	-94
yaj	-95
sunil	-96
bal	-97
isk	-98
yuxin	-99
con	-100
tato	-101
isto	-102
hey	-103
lah	-104
cha	-105
ico	-106
oh	-107
cano	-108
haw	-109
chal	-110
hac	-111
watx	-112
ilo	-113
ob	-114
cat	-115
tzo	-116
bey	-117
chu	-118
tek	-119
huntek	-120
jan	-121
yel	-122
hunu	-123
isba	-124
xol	-125
inal	-126
man	-127
ap	-128
uy	-129
yil	-130
chej	-131
bay	-132
yaja	-133
om	-134
tan	-135
cr	-136
ra	-137
cam	-138
cristo	-139
qu	-140
lax	-141
ojan	-142
ús	-143
jesús	-144
inan	-145
ju	-146
yiban	-147
je	-148
chis	-149
▁?	-150
ahan	-151
ulal	-152
yun	-153
yak	-154
machi	-155
ec	-156
hex	-157
ex	-158
chey	-159
niman	-160
hal	-161
jesu	-162
jesucristo	-163
col	-164
chin	-165
tey	-166
ism	-167
bil	-168
maẍ	-169
chah	-170
ayco	-171
hayet	-172
sa	-173
istx	-174
we	-175
lahwi	-176
itz	-177
tic	-178
teyet	-179
ischej	-180
yoc	-181
tzoti	-182
banil	-183
lo	-184
na	-185
win	-186
ayic	-187
isra	-188
israel	-189
ho	-190
cuy	-191
yanma	-192
wet	-193
ro	-194
otx	-195
um	-196
ojab	-197
oche	-198
▁¿	-199
la	-200
yip	-201
ayto	-202
chiwal	-203
ischejab	-204
yahaw	-205
wan	-206
ri	-207
wom	-208
em	-209
ej	-210
yan	-211
ayo	-212
hi	-213
ba	-214
tinan	-215
wu	-216
▁“	-217
tel	-218
im	-219
banile	-220
as	-221
yab	-222
xahan	-223
matx	-224
am	-225
yij	-226
isp	-227
istz	-228
lan	-229
chex	-230
matxa	-231
ojal	-232
heb	-233
bi	-234
hunun	-235
er	-236
isma	-237
isya	-238
tajil	-239
ib	-240
nihan	-241
anto	-242
iscuy	-243
iswi	-244
do	-245
emp	-246
tiemp	-247
ton	-248
▁,”	-249
anil	-250
ebil	-251
tut	-252
atan	-253
yilal	-254
uj	-255
▁;	-256
cham	-257
esp	-258
chij	-259
haxa	-260
yelap	-261
mo	-262
iswatx	-263
nimanil	-264
xi	-265
ebix	-266
tzotel	-267
heyanma	-268
yatut	-269
ablo	-270
chico	-271
heba	-272
inti	-273
ayxa	-274
juẍ	-275
nab	-276
wil	-277
pablo	-278
pni	-279
xan	-280
yilni	-281
tak	-282
íri	-283
ohtaj	-284
íritu	-285
espíritu	-286
us	-287
walil	-288
lahan	-289
pe	-290
tzal	-291
maca	-292
yapni	-293
hul	-294
ixim	-295
yalan	-296
texol	-297
chiwalan	-298
hol	-299
jet	-300
sata	-301
quin	-302
satcan	-303
icham	-304
ley	-305
yute	-306
da	-307
án	-308
tit	-309
ja	-310
amb	-311
yelapno	-312
yahawil	-313
hunel	-314
le	-315
chon	-316
santo	-317
chiw	-318
ahol	-319
yehi	-320
ar	-321
apni	-322
chak	-323
maẍto	-324
iscuywom	-325
és	-326
howal	-327
ón	-328
istzoti	-329
quex	-330
yaben	-331
ibn	-332
▁―¿	-333
istak	-334
nan	-335
ohtan	-336
abe	-337
ismaj	-338
isbi	-339
cab	-340
yah	-341
hach	-342
dro	-343
mul	-344
ulch	-345
teyin	-346
wax	-347
hel	-348
pedro	-349
cuybanile	-350
matz	-351
juẍta	-352
yo	-353
isés	-354
moisés	-355
▁!	-356
matzwalil	-357
ohal	-358
wetan	-359
▁‐	-360
mal	-361
tom	-362
waxan	-363
yinta	-364
choche	-365
yebpaxo	-366
nico	-367
tojan	-368
ayxaco	-369
bab	-370
etic	-371
yije	-372
li	-373
chel	-374
hec	-375
iss	-376
ismul	-377
ismajul	-378
hil	-379
gel	-380
iloj	-381
nich	-382
ángel	-383
chiak	-384
yuninal	-385
janma	-386
jin	-387
juan	-388
chahni	-389
chioc	-390
aco	-391
canoj	-392
amben	-393
istan	-394
yeli	-395
yalnipaxo	-396
itzitz	-397
mi	-398
tiempohal	-399
babel	-400
yuxinto	-401
ilni	-402
yechel	-403
ea	-404
mun	-405
ip	-406
maẍtaj	-407
én	-408
▁¡	-409
ilal	-410
macta	-411
sac	-412
camic	-413
cach	-414
ci	-415
cu	-416
jer	-417
ila	-418
isti	-419
ohta	-420
anmahil	-421
eh	-422
nabal	-423
camical	-424
eo	-425
mar	-426
go	-427
heyu	-428
cawan	-429
hawil	-430
mamin	-431
chiyij	-432
yanico	-433
chiswatx	-434
het	-435
obal	-436
chihal	-437
xil	-438
alén	-439
isyel	-440
jerus	-441
maẍtic	-442
¦	-443
▁	-444
a	-445
n	-446
i	-447
c	-448
t	-449
e	-450
o	-451
h	-452
y	-453
l	-454
ˈ	-455
m	-456
u	-457
𐋇	-458
j	-459
s	-460
b	-461
x	-462
̈	-463
w	-464
,	-465
.	-466
k	-467
z	-468
p	-469
r	-470
d	-471
ẍ	-472
:	-473
―	-474
q	-475
ú	-476
?	-477
¿	-478
g	-479
í	-480
é	-481
“	-482
”	-483
á	-484
;	-485
f	-486
ó	-487
v	-488
!	-489
¡	-490
‐	-491
‘	-492
’	-493
(	-494
)	-495
ñ	-496
