<pad>	0
</s>	0
<unk>	0
▁¦	-0
ti	-1
ai	-2
in	-3
os	-4
▁p	-5
ri	-6
au	-7
as	-8
ar	-9
ir	-10
si	-11
al	-12
▁k	-13
an	-14
en	-15
ei	-16
am	-17
▁s	-18
im	-19
▁𐋇	-20
▁t	-21
at	-22
▁,	-23
▁n	-24
ad	-25
om	-26
is	-27
es	-28
ro	-29
▁d	-30
us	-31
on	-32
▁v	-33
ki	-34
▁ir	-35
to	-36
ės	-37
▁.	-38
er	-39
li	-40
tin	-41
či	-42
▁b	-43
ek	-44
uri	-45
ra	-46
ij	-47
▁m	-48
st	-49
tų	-50
yb	-51
uo	-52
tik	-53
av	-54
▁su	-55
em	-56
iš	-57
ių	-58
um	-59
▁g	-60
uro	-61
eik	-62
oj	-63
ėl	-64
et	-65
ap	-66
▁r	-67
▁š	-68
urop	-69
▁j	-70
▁kad	-71
▁į	-72
cij	-73
ta	-74
or	-75
ur	-76
▁E	-77
aip	-78
ink	-79
arb	-80
ak	-81
aug	-82
ant	-83
ais	-84
ab	-85
▁pri	-86
uropos	-87
ži	-88
su	-89
el	-90
sij	-91
ėj	-92
end	-93
▁l	-94
pr	-95
ausi	-96
imo	-97
eg	-98
▁T	-99
▁pas	-100
yv	-101
už	-102
ali	-103
min	-104
▁at	-105
▁iš	-106
▁P	-107
omi	-108
aik	-109
▁kuri	-110
ie	-111
yra	-112
mo	-113
ag	-114
id	-115
pri	-116
▁-	-117
yti	-118
eis	-119
ėm	-120
ien	-121
oje	-122
eš	-123
kad	-124
rin	-125
▁ne	-126
gi	-127
dėl	-128
kai	-129
uos	-130
▁K	-131
un	-132
tas	-133
▁Europos	-134
aus	-135
▁bū	-136
▁ši	-137
čiau	-138
oli	-139
tar	-140
ui	-141
ini	-142
tr	-143
až	-144
▁ž	-145
me	-146
jų	-147
ama	-148
▁ap	-149
pas	-150
imą	-151
tai	-152
aud	-153
▁dėl	-154
te	-155
ok	-156
yk	-157
ym	-158
ci	-159
▁pat	-160
ne	-161
▁pr	-162
tu	-163
ame	-164
ūs	-165
inti	-166
ši	-167
alst	-168
usi	-169
lam	-170
▁už	-171
ing	-172
alstyb	-173
▁pro	-174
imas	-175
bū	-176
omisij	-177
vo	-178
▁tik	-179
ąj	-180
▁yra	-181
alim	-182
auj	-183
ung	-184
lamen	-185
irmin	-186
cijos	-187
kuri	-188
▁(	-189
irminink	-190
par	-191
▁S	-192
tis	-193
čių	-194
je	-195
eiki	-196
ys	-197
kl	-198
▁vis	-199
ams	-200
ko	-201
varb	-202
▁to	-203
▁si	-204
tą	-205
and	-206
avo	-207
eli	-208
ari	-209
sti	-210
ėtų	-211
ausim	-212
aneš	-213
▁𐊣	-214
ūr	-215
ąjung	-216
dži	-217
tos	-218
▁B	-219
omis	-220
abai	-221
ūsų	-222
▁tai	-223
europos	-224
veik	-225
uvo	-226
▁par	-227
20	-228
▁A	-229
▁kl	-230
▁f	-231
pa	-232
▁in	-233
yje	-234
alb	-235
ėti	-236
amas	-237
▁M	-238
jos	-239
il	-240
var	-241
▁pad	-242
pat	-243
ku	-244
rim	-245
inių	-246
ans	-247
ka	-248
esn	-249
ijos	-250
▁pag	-251
toj	-252
pro	-253
ami	-254
endr	-255
mon	-256
re	-257
oms	-258
tat	-259
yg	-260
▁turi	-261
uom	-262
irmininke	-263
▁teis	-264
lo	-265
▁Komisij	-266
eng	-267
anči	-268
umo	-269
▁valstyb	-270
ej	-271
vis	-272
dar	-273
kir	-274
ori	-275
uk	-276
ūl	-277
emon	-278
▁daug	-279
kur	-280
orė	-281
eig	-282
▁pasi	-283
ili	-284
ybos	-285
kos	-286
inės	-287
ems	-288
▁V	-289
▁kaip	-290
▁J	-291
io	-292
▁tur	-293
eki	-294
iu	-295
iau	-296
ekon	-297
auk	-298
olitik	-299
ekt	-300
aš	-301
gyv	-302
eikia	-303
orėčiau	-304
ov	-305
▁ki	-306
sl	-307
▁taip	-308
▁"	-309
▁per	-310
eikal	-311
ėms	-312
▁svarb	-313
amos	-314
▁klausim	-315
▁darb	-316
isi	-317
tikrin	-318
ul	-319
▁susi	-320
šk	-321
uoj	-322
▁veik	-323
gr	-324
▁N	-325
saug	-326
ed	-327
irm	-328
prend	-329
tum	-330
avimo	-331
tim	-332
žv	-333
ome	-334
▁Par	-335
▁kai	-336
raš	-337
one	-338
man	-339
vir	-340
▁nes	-341
inans	-342
uoti	-343
▁o	-344
pag	-345
▁kon	-346
▁	-347
i	-348
¦	-349
a	-350
s	-351
t	-352
r	-353
o	-354
e	-355
n	-356
u	-357
k	-358
m	-359
p	-360
l	-361
d	-362
j	-363
v	-364
g	-365
,	-366
b	-367
ų	-368
y	-369
ė	-370
.	-371
š	-372
ą	-373
ž	-374
𐋇	-375
į	-376
ū	-377
c	-378
č	-379
E	-380
z	-381
f	-382
ę	-383
P	-384
T	-385
0	-386
-	-387
S	-388
K	-389
2	-390
(	-391
)	-392
B	-393
A	-394
𐊣	-395
𐊼	-396
1	-397
h	-398
"	-399
M	-400
V	-401
D	-402
N	-403
J	-404
R	-405
G	-406
L	-407
Š	-408
I	-409
:	-410
9	-411
5	-412
?	-413
3	-414
7	-415
4	-416
8	-417
;	-418
C	-419
6	-420
O	-421
F	-422
U	-423
Ž	-424
/	-425
H	-426
Į	-427
w	-428
!	-429
Č	-430
Y	-431
W	-432
x	-433
é	-434
%	-435
q	-436
á	-437
'	-438
ö	-439
Z	-440
X	-441
Ū	-442
è	-443
í	-444
ó	-445
ü	-446
+	-447
ä	-448
ş	-449
ă	-450
Q	-451
[	-452
&	-453
]	-454
ß	-455
ń	-456
ć	-457
ø	-458
ú	-459
°	-460
ķ	-461
à	-462
ê	-463
ï	-464
ň	-465
ł	-466
·	-467
ý	-468
ő	-469
ţ	-470
ż	-471
ç	-472
ñ	-473
Ţ	-474
Á	-475
Ö	-476
_	-477
ò	-478
ī	-479
ľ	-480
̨	-481
έ	-482
π	-483
ρ	-484
•	-485
É	-486
Í	-487
Ó	-488
Ő	-489
Ř	-490
ś	-491
Ş	-492
Υ	-493
”	-494
ř	-495
υ	-496
