<pad>	0
</s>	0
<unk>	0
¦	-1.29876
▁¦	-1.29888
ܐ	-2.53901
ܘ	-4.37555
ܘܢ	-4.47228
ܗܘ	-4.75026
ܗ	-4.83847
ܠܐ	-4.8676
ܕ	-4.87578
ܡܢ	-4.91856
ܠܗ	-4.94057
ܝܢ	-5.03585
ܢ	-5.07388
ܕܝܢ	-5.20436
ܝ	-5.2327
ܠ	-5.37341
ܘܗܝ	-5.61056
ܐܢܐ	-5.68346
ܥܠ	-5.78753
ܒ	-5.80058
ܟܘܢ	-5.82216
ܫܘܥ	-5.87215
ܓܝܪ	-5.89097
ܐܡܪ	-5.97549
ܬܐ	-6.00176
ܬ	-6.01024
ܘܐܡܪ	-6.14355
ܗܘܢ	-6.14641
ܠܟ	-6.21176
ܐܝܟ	-6.21766
ܗܘܘ	-6.22237
ܘܠܐ	-6.23746
ܕܠܐ	-6.24531
ܟܕ	-6.25351
ܢܬܘܢ	-6.30291
ܐܝܬ	-6.31372
ܠܝ	-6.35475
ܡܛܠ	-6.37533
ܢܘܢ	-6.39181
ܐܦ	-6.4028
ܟܠ	-6.41824
ܗܢ	-6.42526
ܚܕ	-6.44834
ܐܢܬ	-6.46669
ܗܝ	-6.47503
ܕܐܠܗ	-6.50644
ܝܠܝܢ	-6.5125
ܠܝܢ	-6.51837
ܒܗ	-6.55515
ܡܐ	-6.56445
ܡ	-6.57195
ܡܕܡ	-6.62415
ܘܤ	-6.62936
ܡܫܝܚ	-6.75102
ܐܢܫ	-6.77492
ܢܐ	-6.77594
ܟܠܗ	-6.85081
ܥܡ	-6.85864
ܕܐ	-6.86256
ܘܟܕ	-6.86427
ܠܘܬ	-6.92231
ܫܐ	-6.92309
ܥܒܕ	-6.93095
ܐܢ	-6.94071
ܟ	-6.94756
ܐܠܗ	-7.07736
ܘܬܐ	-7.08577
ܕܐܝܬ	-7.10867
ܡܪܢ	-7.14777
ܠܢ	-7.18291
ܘܡܢ	-7.2012
ܟܝܠ	-7.23189
ܥܕ	-7.23775
ܕܡܢ	-7.24047
ܠܡ	-7.25715
ܗܕ	-7.27433
ܪܘܚ	-7.27823
ܐܝܟܢ	-7.28317
ܗܘܝܬ	-7.28935
ܤܓܝܐ	-7.30008
ܗܘܬ	-7.31538
ܫܠܡ	-7.33385
ܢܗܘ	-7.34191
ܩܕܡ	-7.35741
ܓܒܪ	-7.36254
ܘܠ	-7.37855
ܚܝ	-7.37885
ܗܟܢ	-7.38611
ܒܝܬ	-7.41177
ܒܢܝ	-7.41662
ܐܡܪܝܢ	-7.41887
ܕܝ	-7.43175
ܙܒܢ	-7.43741
ܝܕܥ	-7.44638
ܘܐܢ	-7.48153
ܕܢ	-7.48254
ܚܢܢ	-7.49616
ܘܒ	-7.507
ܡܪܝ	-7.5223
ܒܪ	-7.55576
ܢܫܐ	-7.55955
ܐܬܐ	-7.5618
ܐܪܥ	-7.56321
ܥܡܗ	-7.58202
ܒܪܗ	-7.60791
ܬܡܢ	-7.65775
ܡܢܗ	-7.66285
ܬܠܡܝܕ	-7.66549
ܢܝ	-7.6991
ܬܘܒ	-7.71626
ܐܚܪܢ	-7.73252
ܠܐܠܗ	-7.75579
ܠܥܠܡ	-7.76305
ܕܒ	-7.76758
ܫܡܝ	-7.77351
ܫܡܥܘܢ	-7.77748
ܒܝ	-7.78433
ܝܗܝ	-7.7939
ܡܠܬ	-7.79726
ܝܕܥܝܢ	-7.81591
ܝܐ	-7.82481
ܝܘܡ	-7.8317
ܡܝܬ	-7.83932
ܐܡܝܢ	-7.8475
ܚܙܐ	-7.87539
ܕܐܡܪ	-7.91421
ܝܗܘܕܝ	-7.92754
ܤ	-7.93343
ܕܐܦ	-7.93636
ܡܫܟܚ	-7.93857
ܠܝܬ	-7.9421
ܘܗ	-7.94569
ܛ	-7.9615
ܕܡܐ	-7.96617
ܟܢܫ	-7.96681
ܛܒ	-7.97281
ܕܐܢ	-7.97511
ܥܢ	-7.9758
ܟܐܦ	-7.98007
ܒܟܠ	-7.9883
ܝܬܝܪ	-7.98871
ܡܠܟ	-7.9891
ܕܗܘ	-7.98925
ܠܒܪ	-7.9958
ܘܥܠ	-7.99612
ܘܚܢܢ	-8.01217
ܐܙܠ	-8.01271
ܠܘܬܗ	-8.01543
ܪܐ	-8.01562
ܡܠܐܟ	-8.01648
ܨܒܐ	-8.02561
ܢܦܫܗ	-8.03218
ܢܡܘܤ	-8.05449
ܚܐ	-8.06901
ܡܬ	-8.07315
ܪܒܐ	-8.08081
ܘܗܘ	-8.09318
ܬܪܝܢ	-8.10655
ܕܐܢܫ	-8.12358
ܕܥܒܕ	-8.12649
ܟܗܢ	-8.13015
ܕܬ	-8.13878
ܘܟܠ	-8.14008
ܐܢܬܬ	-8.1523
ܬܗܘ	-8.15535
ܐܚܝ	-8.16059
ܕܟܠ	-8.16334
ܒܐ	-8.17137
ܘܕ	-8.17259
ܒܬܪ	-8.17358
ܥܠܡ	-8.18485
ܒܟܘܢ	-8.2002
ܒܥܐ	-8.21154
ܒܠܚܘܕ	-8.21424
ܡܕܝܢܬ	-8.21591
ܕܗ	-8.21798
ܐܝܕ	-8.22285
ܕܡ	-8.22306
ܘܐܝܬ	-8.22656
ܥ	-8.22659
ܠܚܡ	-8.2296
ܦ	-8.23258
ܘܡ	-8.24349
ܫܥܬ	-8.24784
ܡܗܝܡܢ	-8.25311
ܥܠܝܗ	-8.25384
ܦܘܠ	-8.25423
ܬܗ	-8.26004
ܪܒ	-8.26145
ܢܒܝ	-8.27031
ܕܩܘ	-8.27141
ܕܢܗܘ	-8.27715
ܩܕܝܫ	-8.2807
ܕܡܫܝܚ	-8.29288
ܢܫ	-8.29585
ܘܐܦ	-8.29611
ܒܪܘܚ	-8.30618
ܟܬܒ	-8.31044
ܩܕܡܝ	-8.32596
ܗܘܝ	-8.32749
ܐܝܬܝܗ	-8.32911
ܩܠܐ	-8.33697
ܪܒܝ	-8.35247
ܥܠܝ	-8.35387
ܕܫܐ	-8.36663
ܥܡܡ	-8.36874
ܕܚܝ	-8.37979
ܐܒܐ	-8.38019
ܡܠܐ	-8.38299
ܛܝܒܘܬ	-8.39027
ܦܪܝܫ	-8.39085
ܕܡܪܝ	-8.39542
ܝܗܒ	-8.396
ܫܡܥ	-8.40539
ܡܡܠܠ	-8.40964
ܫܦܝܪ	-8.41296
ܕܠܡܐ	-8.43094
ܚܙܘ	-8.43756
ܘܐܙܠ	-8.44323
ܫܒܥ	-8.44431
ܒܗܝܡܢܘܬ	-8.4451
ܡܘܫ	-8.44533
ܦܓܪ	-8.448
ܗܝܡܢܘܬ	-8.44974
ܕܒܗ	-8.45282
ܝܬܐ	-8.45487
ܒܢ	-8.45739
ܚܠܦ	-8.47364
ܗܘܝܢ	-8.47516
ܥܘܠ	-8.48219
ܬܘܢ	-8.4885
ܠܚܕ	-8.49558
ܢܦܩ	-8.49702
ܡܢܘ	-8.49947
ܕܐܬܐ	-8.5011
ܝܠ	-8.50424
ܒܝܕ	-8.5057
ܠܡܢ	-8.51246
ܢܘܪ	-8.51447
ܩܪܒ	-8.51532
ܠܡܐ	-8.51562
ܕܥܠ	-8.52413
ܤܓܝ	-8.53341
ܚܝܬ	-8.53369
ܩܡ	-8.53415
ܢܦܫ	-8.53971
ܒܫܡܝ	-8.54347
ܬܪܥ	-8.54462
ܩܐ	-8.54715
ܘܐܬܐ	-8.5561
ܨܒܝܢ	-8.55854
ܐܤܝܪ	-8.57286
ܚܛܝܬ	-8.57541
ܥܡܐ	-8.57555
ܘܬ	-8.57616
ܟܡܐ	-8.57658
ܠܒܝܬ	-8.57802
ܝܘܡܬ	-8.5819
ܪܚܡ	-8.59488
ܒܪܢܫ	-8.5993
ܒܝܫܬ	-8.60096
ܬܠܬ	-8.60751
ܤܒܪ	-8.61259
ܝܡܐ	-8.61323
ܩܘܒ	-8.61952
ܡܘܬ	-8.62169
ܐܚܘܗܝ	-8.6269
ܦܘܩܕܢ	-8.62927
ܕܥܠܡ	-8.63017
ܐܬܪ	-8.63033
ܦܐܪ	-8.63292
ܥܠܝܟ	-8.63356
ܪܫ	-8.65353
ܡܫܟܚܝܢ	-8.66143
ܦܝܠ	-8.66555
ܫ	-8.66926
ܩܠܝܠ	-8.67955
ܝܡܝܢ	-8.68091
ܘܝ	-8.68151
ܕܒܢܝ	-8.68955
ܐܬܘ	-8.68995
ܡܠܠ	-8.70286
ܒܝܫܐ	-8.70664
ܕܠ	-8.7115
ܕܪܘܚ	-8.71239
ܩܝܡܝܢ	-8.71426
ܙܪܥ	-8.71694
ܕܟܬܝܒ	-8.72845
ܡܠܟܘܬ	-8.72883
ܛܒܬ	-8.73122
ܥܝܢ	-8.7329
ܘܩܕܡ	-8.73648
ܩܪܐ	-8.73719
ܐܒܝ	-8.73829
ܢܤܒ	-8.73892
ܕܥܡ	-8.73961
ܫܘܠܛܢ	-8.74252
ܒܥܝܢ	-8.7466
ܗܢܘ	-8.74755
ܚܘܒ	-8.74837
ܡܝ	-8.75321
ܒܟܠܗ	-8.76478
ܘܝܗܒ	-8.76662
ܫܒܩ	-8.76999
ܪܡܐ	-8.77402
ܒܬܪܗ	-8.77527
ܤܦܪ	-8.77908
ܫܡܥܘ	-8.78241
ܡܬܝ	-8.7849
ܕܝܠܝ	-8.7886
ܕܫܡܝ	-8.79052
ܕܐܝܬܝܗ	-8.79093
ܥܒܕܝܢ	-8.7952
ܢܦܫܟ	-8.8079
ܥܒܪ	-8.80893
ܝܬܘܢ	-8.80996
ܢܦܠ	-8.82557
ܘܐܬܘ	-8.83469
ܠܐܘܪ	-8.83666
ܡܪ	-8.84638
ܘܢܦܩ	-8.84804
ܕܚܕ	-8.85491
ܕܝܗܘܕܝ	-8.85682
ܠܓܒܪ	-8.86294
ܝܬ	-8.87036
ܕܝܠܗ	-8.87379
ܫܕܪ	-8.87529
ܫܪܐ	-8.87844
ܕܐܪܥ	-8.88452
ܫܠܝܚ	-8.88597
ܠܬܠܡܝܕ	-8.88898
ܪܒܬ	-8.89962
ܪ	-8.9041
ܕܝܠܟ	-8.90457
ܒܝܘܡ	-8.9051
ܓܠܝ	-8.9054
ܕܡܝ	-8.90554
ܡܟܝܠ	-8.90654
ܐܡܪܬ	-8.91075
ܤܗܕ	-8.91167
ܕܫܡܗ	-8.91288
ܕܠܝܬ	-8.91298
ܘܤܦ	-8.91938
ܠܚܝ	-8.92822
ܥܡܝ	-8.93188
ܚܛܗ	-8.935
ܟܬܝܒ	-8.93633
ܠܟܠ	-8.93667
ܛܠܝ	-8.93716
ܘܩܡ	-8.93774
ܕܡܘܬ	-8.9419
ܟܝ	-8.94298
ܫܘ	-8.94866
ܘܟܠܗ	-8.95623
ܓ	-8.95693
ܚܪܝܢ	-8.95724
ܕܐܬ	-8.9599
ܐܝܤܪ	-8.96029
ܒܥܠ	-8.96188
ܥܤܪ	-8.9637
ܕܥܬܝܕ	-8.96386
ܠܘܩܒܠ	-8.96407
ܫܪܪ	-8.96789
ܚܫܘܟ	-8.97608
ܚܕܬܐ	-8.97684
ܫܠܝܛ	-8.97698
ܫܪܝܪ	-8.97708
ܕܓܠ	-8.9776
ܚܡܫ	-8.97933
ܕܟܕ	-8.98119
ܙܥܘܪ	-8.98226
ܒܐܦ	-8.98227
ܒܝܡ	-8.99329
ܕܒܪ	-8.99562
ܢܘܗܪ	-8.99585
ܬܪܥܤܪ	-8.99773
ܢܚܬ	-8.99913
ܒܐܝܕܗ	-9.00084
ܐܘܪܚ	-9.001
ܕܬܗܘ	-9.00373
ܕܝܗܒ	-9.008
ܬܝ	-9.00988
ܐܬܝܢ	-9.01605
ܪܓܠ	-9.01863
ܒܝܢܬ	-9.02804
ܫܡܗ	-9.03002
ܒܤܪ	-9.04109
ܦܠܚ	-9.04229
ܠܥܡ	-9.04316
ܗܪܟ	-9.04667
ܫܢܝܢ	-9.04971
ܐܝܕܗ	-9.05043
ܕܝܬܒ	-9.05145
ܕܐܝܟ	-9.05251
ܒܫܠܡ	-9.0534
ܐܪܒܥ	-9.05603
ܥܬܝܕ	-9.07122
ܐܝܕܝ	-9.07311
ܤܓܝܐܬ	-9.07655
ܠܟܠܗ	-9.07745
ܘܡܐ	-9.07762
ܩܘܡ	-9.08155
ܐܘܪ	-9.08282
ܨܒܝܢܗ	-9.08296
ܕܒܝܬ	-9.08925
ܕܫܡܥ	-9.09253
ܬܫܒܘܚܬ	-9.09346
ܤܡ	-9.10093
ܕܡܬܩܪ	-9.10601
ܩܕܝ	-9.10855
ܘܫܪܝ	-9.1175
ܠܝܘܡ	-9.11824
ܥܡܟ	-9.11961
ܩܫܝܫ	-9.12067
ܘܐܝܟ	-9.12258
ܤܠܩ	-9.12852
ܠܘܬܟ	-9.12958
ܚܪܬ	-9.13459
ܐܘܠܕ	-9.13653
ܕܗܒ	-9.13705
ܡܪܝܡ	-9.1385
ܠܠܝ	-9.13996
ܒܫܡܗ	-9.14552
ܩܥ	-9.14755
ܝܘܠܦܢ	-9.14846
ܡܡܠܠܝܢ	-9.14896
ܕܚܠܬ	-9.14941
ܘܒܪ	-9.15653
ܘܐܬ	-9.15718
ܠܥܠ	-9.16006
ܘܬܘܒ	-9.16032
ܫܬܐ	-9.16268
ܒܗܝܟܠ	-9.16369
ܟܤ	-9.16436
ܘܒܗ	-9.16564
ܫܡܥܝܢ	-9.16664
ܠܗܘ	-9.1682
ܒܐܘܪܚ	-9.16929
ܩܪܒܘ	-9.16931
ܠܐܢܫ	-9.16969
ܕܪܒ	-9.17048
ܚܡܪ	-9.17188
ܤܛ	-9.17996
ܫܪܟ	-9.18242
ܙܠ	-9.18501
ܡܠܟܘܬܗ	-9.18546
ܫܪܒܬ	-9.18594
ܐܬܝܬ	-9.18675
ܢܐܡܪ	-9.18791
ܐܡܪܘ	-9.18894
ܐܦܝ	-9.19018
ܕܒܫܡܝ	-9.19476
ܟܘܪܤܝ	-9.19655
ܒܚܕ	-9.19658
ܐܒܘܗܝ	-9.2008
ܠܡܐܡܪ	-9.2024
ܦܝܠܝܦ	-9.20336
ܠܡܕܝܢܬ	-9.20352
ܥܕܬ	-9.20546
ܩ	-9.20563
ܘܝܕ	-9.21041
ܚܙܝ	-9.21065
ܐܚܝܢ	-9.2112
ܘܐܚܪܢ	-9.21148
ܠܒܢܝ	-9.21398
ܕܢܐܬ	-9.21549
ܠܥܒܕ	-9.22118
ܒܡܠܬ	-9.22474
ܘܚܕ	-9.22603
ܡܠܦܢ	-9.22627
ܬܬ	-9.22635
v	-9.22821
𐋇	-9.22821
ܙ	-9.23029
ܚܒܝܒ	-9.23056
ܒܐܝܕܝ	-9.23113
ܝܗ	-9.23443
ܚܘܪ	-9.23995
ܝܬܒ	-9.24041
ܒܪܐ	-9.24219
ܝܕ	-9.24286
ܡܠܦ	-9.24329
ܫܐܠܘ	-9.24377
ܚܙܝܢ	-9.24689
ܩܪܝܬ	-9.24752
ܚܟܡܬ	-9.24773
ܗܝܡܢܘ	-9.2485
ܡܟܐ	-9.24933
ܘܡܛܠ	-9.25119
ܘܫܕܪ	-9.25393
ܦܩܕ	-9.25482
ܢܝܢ	-9.25997
ܚܝܠ	-9.26272
ܘܦܩܕ	-9.26612
ܕܥ	-9.26621
ܐܝܬܝ	-9.2704
ܐܠܘ	-9.27155
ܢܚ	-9.27494
ܥܓܠ	-9.27599
ܐܠܦ	-9.27964
ܝܟ	-9.28044
ܕܒܚ	-9.2809
ܘܫܐܠ	-9.28115
ܨ	-9.28132
ܡܠܝ	-9.28178
ܠܦܘܠ	-9.28239
ܕܒܝܫ	-9.28368
ܪܫܗ	-9.2841
ܡܚܕ	-9.28541
ܘܥܡ	-9.28913
ܠܡܥܒܕ	-9.29027
ܢܬܠ	-9.29055
ܒܝܬܗ	-9.29614
ܒܫܒ	-9.3022
ܕܗܢ	-9.30527
ܫܒܘܩ	-9.30637
ܘܩܪܐ	-9.30665
ܩܪܨ	-9.30731
ܡܩܒܠ	-9.30999
ܚܤ	-9.31087
ܟܪܝܗ	-9.31258
ܘܗܢ	-9.31564
ܒܢܡܘܤ	-9.31744
ܡܦܩ	-9.31749
ܘܪ	-9.31799
ܫܩܠ	-9.31839
ܝܥ	-9.31983
ܕܨܒ	-9.3199
ܒܪܡ	-9.32041
ܫܒ	-9.3209
ܪܥܝܢ	-9.32311
ܒܬܪܝ	-9.32469
ܪܝܫ	-9.32969
ܒܒܤܪ	-9.33438
ܘܠܘܤ	-9.33442
ܩܒܘܪ	-9.33558
ܘܩܥ	-9.34033
ܡܘܗܒܬ	-9.34053
ܘܫ	-9.34221
ܒܠ	-9.34559
ܢܛܪ	-9.34635
ܒܢܦܫܗ	-9.34658
ܫܪܝ	-9.35164
ܫܘܒܚ	-9.3531
ܪܡ	-9.35452
ܒܥܘ	-9.35662
ܘܚܙܐ	-9.35971
ܦܬܚ	-9.35977
ܓܢܒ	-9.36018
ܕܢܡܘܤ	-9.36198
ܒܟ	-9.36419
ܠܟܢܫ	-9.36493
ܕܬܠܬ	-9.36664
ܤܦܝܢܬ	-9.36735
ܠܡܪܝ	-9.36764
ܕܠܘܬ	-9.36857
ܕܫܕܪ	-9.38066
ܡܗܝܡܢܝܢ	-9.38243
ܡܬܠ	-9.38454
ܕܢܒܝ	-9.38496
ܘܩܪܒ	-9.38536
ܘܒܬܪ	-9.38559
ܤܗܕܘܬ	-9.38733
ܦܘܩ	-9.39593
ܕܐܢܬ	-9.39612
ܗܝܟܠ	-9.3969
ܕܚܠ	-9.39867
ܕܗܝܡܢܘܬ	-9.40144
ܫܡܫ	-9.40203
ܡܫܡܫܢ	-9.40444
ܠܦܝܢ	-9.40492
ܐܓܪ	-9.40668
ܕܪܚܡ	-9.41124
ܛܢܦ	-9.41183
ܐܝܩܪ	-9.41232
ܫܥܝ	-9.41445
ܕܙܒܢ	-9.41671
ܕܒܪܗ	-9.4175
ܐܘܠܨܢ	-9.41767
ܐܚܪܝ	-9.4182
ܒܢܝܢ	-9.42339
ܙܠܘ	-9.42579
ܝܗܘܕܐ	-9.42729
ܦܘܡܗ	-9.42816
ܡܢܟ	-9.4302
ܤܒܪܬ	-9.43112
ܥܡܪ	-9.43218
ܕܦ	-9.43457
ܕܒܤܪ	-9.43711
ܟܘܬ	-9.43721
ܒܒܝܬ	-9.43813
ܡܬܚܙ	-9.44128
ܩܒܪ	-9.44157
ܟܘܡܪ	-9.44397
ܐܙܠܘ	-9.44474
ܘܚܙܝܬ	-9.44734
ܕܗܟܢ	-9.44956
ܚܠ	-9.45382
ܬܪܬ	-9.45815
ܕܢܚ	-9.45904
ܗܪܘܕ	-9.46031
ܛܘܪ	-9.46093
ܬܐܡܪ	-9.46117
ܘܥܒܕ	-9.46141
ܠܐܬܪ	-9.46606
ܤܝܡ	-9.46714
ܝܗܒܬ	-9.46837
ܒܪܝ	-9.46967
ܘܬܗ	-9.47104
ܡܘܠܟܢ	-9.47161
ܕܡܗܝܡܢ	-9.47283
ܘܚܪ	-9.47372
ܕܢܤܒ	-9.47528
ܦܪܩ	-9.4764
ܕܩܪ	-9.47665
ܘܠܝܘܡ	-9.47774
ܤܡܝ	-9.48148
ܒܩܠ	-9.48236
ܤܝܐ	-9.48527
ܕܟܠܗ	-9.48576
ܬܕܚܠ	-9.48982
ܡܗܠܟܝܢ	-9.49023
ܫܐܠ	-9.49132
ܒܐܘܪ	-9.49234
ܕܢܐܙܠ	-9.49444
ܒܟܢܘܫܬ	-9.49536
ܠܒܘܬ	-9.49609
ܘܫܠܡ	-9.4969
ܠܡܘܬ	-9.49701
ܢܦܩܬ	-9.50002
ܕܝܘ	-9.50345
ܒܥ	-9.50469
ܘܥܢ	-9.50485
ܕܡܝܬ	-9.50502
ܒܕܡܘܬ	-9.50868
ܠܘ	-9.51121
ܕܩܐ	-9.51384
ܡܟܤ	-9.51505
ܘܒܥܝܢ	-9.51889
ܡܥܡܕ	-9.51916
ܕܝܬܩ	-9.5202
ܐܝܡܡ	-9.52048
ܦܨܚ	-9.52254
ܡܠܬܗ	-9.52868
ܩܝܡ	-9.52937
ܘܡܚ	-9.53218
ܘܗܘܝܬ	-9.53924
ܘܤܠܩ	-9.54194
ܐܫܟܚ	-9.54282
ܥܬܝܪܐ	-9.54356
ܐܡܗ	-9.54409
ܙܕܝܩܐ	-9.54759
ܠܦܐ	-9.55123
ܪܘ	-9.55199
ܒܦܓܪ	-9.55856
ܠܛܘܪ	-9.55987
ܕܐܟܠ	-9.56093
ܤܥܪ	-9.56271
ܕܡܡܠܠ	-9.56399
ܫܥ	-9.56732
ܠܢܫ	-9.56774
ܢܬ	-9.57073
ܙܕܩ	-9.57102
ܡܪܗ	-9.57192
ܐܬܚܙܝ	-9.57493
ܪܟ	-9.57569
ܕܢܬܠ	-9.57726
ܠܥܤ	-9.58172
ܕܩܕܡ	-9.58217
ܟܢܘܫܬ	-9.58233
ܘܤܡ	-9.58421
ܟܤܦ	-9.58446
ܘܠܝܬ	-9.59135
ܫܩܘܠ	-9.59496
ܕܦܓܪ	-9.59719
ܕܡܠܟ	-9.60105
ܘܤܦܪ	-9.60189
ܫܢ	-9.60215
ܢܗܪ	-9.60267
ܬܟܢܫܘ	-9.60786
ܓܒ	-9.6082
ܘܢܦܠ	-9.61222
ܠܥܕܬ	-9.6176
ܓܙܘܪܬ	-9.61932
ܙܩܝܦ	-9.61972
ܪܝܢ	-9.62226
ܚܙܝܬ	-9.62326
ܥܒܕܘ	-9.62438
ܩܘܪܒܢ	-9.62444
ܦܬܓܡ	-9.62734
ܦܩܚ	-9.62734
ܚܒܝܒܝ	-9.62801
ܚܛܝ	-9.62955
ܨܒܘܬ	-9.63079
ܐܟܘܠ	-9.63381
ܪܝܐ	-9.63423
ܝܪܬ	-9.63424
ܐܪܡܠܬ	-9.63671
ܙܕܗܪܘ	-9.63674
ܤܪܝܩ	-9.6377
ܕܡܟ	-9.63904
ܕܫܡܥܘ	-9.63949
ܠܟܝ	-9.64032
ܕܝܘܡ	-9.64157
ܟܐܢܘܬ	-9.64186
ܘܥ	-9.6443
ܢܦܫܢ	-9.64748
ܝܕܥܬ	-9.64785
ܕܪܡ	-9.6513
ܕܫܪܪ	-9.65144
ܒܥܒܕ	-9.6527
ܘܫܩܠ	-9.65439
ܢܥܒܕ	-9.65471
ܚܫ	-9.65606
ܤܓܕ	-9.65606
ܫܠܝ	-9.65632
ܕܐܡܪܝܢ	-9.6569
ܚܘܝ	-9.65823
ܘܒܟܠ	-9.65992
ܕܡܬ	-9.66528
ܡܐܟܘܠܬ	-9.66628
ܦܬܟ	-9.66945
ܓܒܝ	-9.6696
ܙܒ	-9.67272
ܠܒܝܬܗ	-9.67278
ܚܐܪ	-9.67298
ܟܦܢ	-9.67397
ܒܟܝ	-9.67464
ܒܨܠܘܬ	-9.67501
ܪܗܛ	-9.6754
ܬܢܢ	-9.67637
ܠܓܘ	-9.67659
ܤܝܡܬ	-9.67795
ܕܒܝ	-9.68029
ܤܢܝܐ	-9.68203
ܐܦܩ	-9.68355
ܒܟܬܒ	-9.68447
ܒܠܒܗ	-9.68528
ܢܩܘܡ	-9.6872
ܐܙܠܝܢ	-9.68724
ܘܩܫܝܫ	-9.68724
ܘܥܕ	-9.69113
ܒܚܝܠ	-9.69299
ܒܩ	-9.69731
ܕܤ	-9.69862
ܐܫܟܚܘ	-9.70278
ܥܝ	-9.70344
ܘܝܬܒ	-9.70436
ܒܡܕܝܢܬ	-9.70531
ܩܢܛܪܘܢ	-9.70586
ܕܗܘܝ	-9.70619
ܡܐܢ	-9.70686
ܐܟܚܕ	-9.70777
ܐܬܪܚܡ	-9.70957
ܕܚܙܐ	-9.71151
ܕܢܐܡܪ	-9.71355
ܘܚܝ	-9.71402
ܒܠܫܢ	-9.71674
ܐܝܠܢ	-9.71707
ܘܫܡܥܬ	-9.71756
ܕܚܙܝܢ	-9.71775
ܕܥܡܗ	-9.71783
ܚܘܪܒ	-9.71939
ܨܦܪ	-9.71942
ܡܛܪ	-9.72062
ܫܪܝܪܐ	-9.72117
ܡܤܗܕ	-9.72349
ܢܚܙܘܢ	-9.72472
ܒܥܠܕܒܒ	-9.72564
ܘܢܤܒ	-9.72696
ܕܩܕܝܫ	-9.73054
ܘܢܦܩܘ	-9.73463
ܢܡܠܠ	-9.73471
ܫܦܪ	-9.73718
ܛܐ	-9.73723
ܡܥܡܘܕܝܬ	-9.73822
ܒܡ	-9.73874
ܚܩ	-9.7443
ܠܒܝܫ	-9.74442
ܩܪܝ	-9.7474
ܘܤܓܝܐ	-9.74953
ܚܪ	-9.74962
ܓܠܝܠ	-9.75027
ܩܕܡܝܬ	-9.753
ܐܬܬ	-9.75391
ܠܐܢܬܬ	-9.7547
ܟܪ	-9.75746
ܒܚܘܒ	-9.75995
ܫܕܪܬ	-9.75997
ܓܠ	-9.7604
ܥܩܪ	-9.76184
ܪܫܝܬ	-9.76186
ܐܦܢ	-9.76279
ܒܝܫ	-9.76385
ܘܡܕܡ	-9.76515
ܟܦܪ	-9.76524
ܕܬܪܬ	-9.76626
ܫܡܥܬܘܢ	-9.76675
ܒܤܡ	-9.76818
ܢܦܩܘ	-9.76868
ܡܩܘ	-9.76869
ܕܐܒܪܗ	-9.76889
ܠܗܝܟܠ	-9.76913
ܩܢܝܢ	-9.77368
ܒܐܝܕ	-9.77526
ܢܝܚ	-9.78223
ܘܬܗܘ	-9.78413
ܥܒܕܗ	-9.78414
ܕܢܬ	-9.78441
ܕܥܡܪ	-9.78668
ܝܘܤ	-9.78694
ܥܡܢ	-9.79201
ܡܚܫܒܬ	-9.79223
ܕܐܙܠ	-9.79675
ܕܝܕܥ	-9.79823
ܡܘܕܐ	-9.79844
ܦܘܡ	-9.79898
ܫܬܝܢ	-9.79978
ܚܟܝܡܐ	-9.80028
ܕܥܘ	-9.80195
ܫܐܠܝܢ	-9.80224
ܬܟܘܢ	-9.80224
ܢܒܐ	-9.80266
ܕܬܕܥ	-9.80375
ܒܗܝ	-9.80385
ܡܫܚ	-9.80395
ܘܚ	-9.80633
ܘܟܐ	-9.80775
ܗܝܡܢ	-9.80788
ܘܠܝ	-9.80946
ܚܛ	-9.81084
ܢܨܪ	-9.81158
ܒܘܢ	-9.81163
ܕܢܚܬ	-9.81383
ܒܬܪܟ	-9.81582
ܪܫܝܢ	-9.81599
ܚܘܬ	-9.8174
ܡܫܪܝ	-9.81888
ܒܓܠ	-9.81893
ܬܐܪܬ	-9.81975
ܕܚܢܢ	-9.82057
ܕܝܡ	-9.82058
ܟܘܟܒ	-9.82357
ܐܟܠܝܢ	-9.82443
ܩܒܠ	-9.82448
ܥܒܕܝ	-9.82677
ܦܪܨܘܦ	-9.82679
ܥܝܢܝܗ	-9.82756
ܐܪܙ	-9.82844
ܕܢܚܙ	-9.82875
ܐܬܝܠܕ	-9.83095
ܤܐܡ	-9.83543
ܛܘܒܝܗ	-9.83743
ܩܠܗ	-9.83909
ܙܕܝܩܘܬ	-9.83993
ܚ	-9.84032
ܦܠܐ	-9.84492
ܕܒܟܠ	-9.84685
ܐܝܠ	-9.84776
ܫܬ	-9.84795
ܝܕܥܘ	-9.8481
ܘܒܪܟ	-9.84867
ܡܤܒܪ	-9.84909
ܕܐܬܝܗܒ	-9.84965
ܘܡܬ	-9.85241
ܚܕܘܬ	-9.85346
ܕܝܕܥܝܢ	-9.85379
ܫܒܬ	-9.8548
ܕܐܒ	-9.85531
ܕܝܠ	-9.85715
ܐܒܘܟ	-9.85733
ܩܨ	-9.85783
ܐܫܕ	-9.85865
ܘܒܢܝ	-9.85944
ܘܫܬܐ	-9.8622
ܐܫܟܚܬ	-9.86248
ܟܬܒܬ	-9.86351
ܒܛܝܒܘܬ	-9.86384
ܒܬܐ	-9.86785
ܕܓܠܝ	-9.87365
ܫܡܪܝ	-9.87605
ܕܡܕܝܢܬ	-9.87615
ܚܝܒ	-9.8796
ܘܐܚܕ	-9.88112
ܢܫܡܥ	-9.88231
ܠܒ	-9.88266
ܕܫܒ	-9.8827
ܬܘ	-9.88285
ܥܒܝܕ	-9.88294
ܬܗܝܡܢܘܢ	-9.88433
ܕܢܦܩ	-9.88583
ܡܕܝܢ	-9.88655
ܕܟܝܢ	-9.88682
ܗܝܡܢܘܬܟ	-9.88752
ܝܪܚ	-9.8889
ܚܠܝܡ	-9.89044
ܒܛܝܠ	-9.8908
ܚܝܒܝܢ	-9.89129
ܡܘܕܝܢ	-9.89521
ܡܟ	-9.89763
ܥܘܬܪ	-9.89791
ܘܐܬܝܗܒ	-9.8994
ܕܢܦܠ	-9.90283
ܥܡܕ	-9.90315
ܛܘܒ	-9.90376
ܒܗܘ	-9.90601
ܝܘ	-9.90691
ܬܥܒܕܘܢ	-9.90861
ܢܘܟܪܝ	-9.91066
ܘܠܡ	-9.91134
ܦܘܪܩܢ	-9.91178
ܚܪܫ	-9.9125
ܡܚܒ	-9.91669
ܦܤܩ	-9.9177
ܩܘܪܝ	-9.91886
ܕܛܒ	-9.91932
ܤܩ	-9.9253
ܡܦܤ	-9.92622
ܝܒܫ	-9.92722
ܤܒܪܝܢ	-9.92754
ܘܐܝܬܝ	-9.92818
ܬܫܥ	-9.92928
ܩܪܢ	-9.93382
ܡܬܛܦܝܤ	-9.93395
ܐܤܛܪܛܝܘܛ	-9.93403
ܢܐܙܠ	-9.93601
ܕܝܬܝܪ	-9.93622
ܐܚܘܟ	-9.93665
ܟܦܘܪ	-9.93815
ܬܪܝ	-9.9383
ܪܕܝܢ	-9.93878
ܟܘܒ	-9.9395
ܪܘܪܒ	-9.9397
ܕܡܗ	-9.94143
ܒܡܝ	-9.94152
ܥܙܪ	-9.94396
ܚܘܢ	-9.94422
ܠܡܠܟܘܬ	-9.94675
ܡܝܬܝܢ	-9.94718
ܝܪܟ	-9.94779
ܒܪܝܬ	-9.95062
ܕܡܬܩܪܝ	-9.95124
ܥܪܩ	-9.95275
ܘܐܢܬ	-9.9542
ܕܐܝܤܪ	-9.9544
ܡܤܟܢ	-9.9545
ܛܝܒܘ	-9.96082
ܕܕܘ	-9.96127
ܦܪܫ	-9.96365
ܠܡܫܡܥ	-9.96383
ܤܪ	-9.96466
ܡܚܐ	-9.96515
ܠܦ	-9.96663
ܘܫܡܥ	-9.96715
ܕܫܘ	-9.96749
ܕܚܙܘ	-9.96792
ܒܘܝܐ	-9.96961
ܫܡܟ	-9.97203
ܕܨ	-9.97285
ܨܝܕ	-9.97391
ܚܘ	-9.97412
ܕܫܦܝܪ	-9.97427
ܕܕܚܠ	-9.97461
ܕܢܐ	-9.9748
ܡܬܒܥ	-9.97492
ܚܡܬ	-9.97652
ܠܡܠܬ	-9.97721
ܫܡܥܬ	-9.9781
ܘܟ	-9.97868
ܠܢܦܫܗ	-9.97895
ܕܡܠܠ	-9.97989
ܓܐ	-9.98421
ܕܐܩܝܡ	-9.98616
ܕܟܝܐ	-9.98692
ܥܝܪ	-9.98784
ܘܡܠܦ	-9.9879
ܝܩܪ	-9.98794
ܝܕܝܥ	-9.99065
ܩܕܡܝܟ	-9.9911
ܟܠܢ	-9.99195
ܡܨܠ	-9.99251
ܠܫܢ	-9.99285
ܘܐܩܝܡ	-9.99394
ܤܡܝܟ	-9.99407
ܘܐܦܩ	-9.99542
ܥܢܢ	-9.99583
ܫܡܐ	-9.99617
ܡܗܠܟ	-9.99666
ܒܥܕܬ	-9.99723
ܕܢܥܒܕ	-9.99843
ܫܘܒܚܗ	-9.99875
ܚܤܡ	-10.0007
ܡܪܬ	-10.0019
ܡܫܕܪ	-10.0029
ܕܫܠܡ	-10.0042
ܤܘܤ	-10.0049
ܡܐܬ	-10.0063
ܕܬܬ	-10.0069
ܡܠܝܢ	-10.007
ܘܐܪܡܝ	-10.009
ܡܛܝ	-10.0101
ܕܤܥܪ	-10.0101
ܤܝܒܪܬ	-10.0102
ܡܢܝ	-10.0103
ܐܒܗܬ	-10.0109
ܢܤܒܬ	-10.012
ܘܐܬܚܙܝ	-10.0128
ܬܝܗܒ	-10.0136
ܫܪܝܢ	-10.0143
ܓܪ	-10.0152
ܘܐܪܒܥ	-10.0186
ܢܦܠܬ	-10.0213
ܐܒܪܗ	-10.0214
ܥܢܝ	-10.0219
ܡܚܘܬ	-10.0229
ܚܨܕ	-10.0241
ܪܒܢ	-10.0244
ܕܚܫ	-10.0249
ܟܐܢܐ	-10.0291
ܡܬܚܫܒ	-10.0291
ܡܫܒܚ	-10.0293
ܘܐܫܟܚ	-10.0297
ܫܘܒܗܪ	-10.0301
ܗܦܟ	-10.0306
ܫܘܬܦ	-10.0318
ܒܫܪܪ	-10.0341
ܬܝܒܘܬ	-10.0349
ܪܚܝܩ	-10.0353
ܘܕܒܪ	-10.0353
ܤܟܠ	-10.0378
ܤܘܓܐ	-10.041
ܕܚܙܝܬ	-10.0421
ܠܝܥ	-10.0423
ܨܒܘ	-10.0424
ܠܡܩܛܠ	-10.043
ܪܥܝ	-10.0436
ܠܓܠܝ	-10.0437
ܚܝܠܗ	-10.0437
ܩܪܝܒ	-10.0438
ܘܩ	-10.0448
ܕܠܝ	-10.0455
ܠܩܤܪ	-10.0465
ܥܪܒ	-10.0466
ܘܡܝܬ	-10.0471
ܐܒܕܢ	-10.0481
ܕܘܟ	-10.05
ܛܛ	-10.051
ܤܝܦ	-10.0511
ܕܡܪ	-10.0514
ܬܫܒܘܚܬܗ	-10.0541
ܐܬܡܠܝ	-10.0587
ܬܚ	-10.0588
ܩܢ	-10.0599
ܕܤܠܩ	-10.0614
ܓܡܘܢ	-10.0653
ܕܫܠܝܚ	-10.0664
ܤܢܐ	-10.0664
ܕܘܟܬ	-10.0686
ܕܡܗܝܡܢܝܢ	-10.0693
ܪܘܓܙ	-10.0698
ܥܒܕܬ	-10.0698
ܐܦܤ	-10.0704
ܡܓܕܦ	-10.0751
ܟܝܢ	-10.0754
ܘܚܝܠ	-10.0755
ܡܡܬܘ	-10.0756
ܬܬܐ	-10.0783
ܬܢܝܢ	-10.079
ܚܒܠ	-10.0801
ܤܡܟ	-10.0812
ܐܩܝܡ	-10.0875
ܝܗܘܕ	-10.0892
ܤܦܩ	-10.0897
ܫܒܩܬ	-10.0899
ܛܒܥ	-10.0903
ܙܢܝܘܬ	-10.0904
ܒܒܝܬܗ	-10.095
ܬܚܙܘܢ	-10.0958
ܪܕܦ	-10.0981
ܩܕܘܢ	-10.0987
ܡܫܟܢ	-10.1011
ܠܒܢܝܢ	-10.1026
ܠܡܫܝܚ	-10.1028
ܒܝܘܠܦܢ	-10.1033
ܠܡܡܠܠܘ	-10.1033
ܝܨܦ	-10.1097
ܕܐܒܝ	-10.1104
ܕܢܦܫܗ	-10.1129
ܢܤܒܝ	-10.1157
ܘܠܡܢ	-10.1157
ܦܪܚ	-10.1161
ܒܫܡ	-10.1164
ܫܪܒܬܗ	-10.118
ܕܟܐܢܘܬ	-10.1187
ܠܚܛܝ	-10.1189
ܬܪܬܝ	-10.1197
ܡܐܬܝܬ	-10.1202
ܡܠܚ	-10.1205
ܦܓܪܝ	-10.1218
ܡܟܝܟ	-10.1234
ܛܪ	-10.1236
ܡܨ	-10.1256
ܩܡܬ	-10.1263
ܐܚܝܕ	-10.1269
ܒܡܠܟܘܬ	-10.1274
ܒܝܘܡܬ	-10.1306
ܠܡܕܥ	-10.1306
ܒܝܕܥܬ	-10.1342
ܘܐܪܥ	-10.1342
ܡܘܡ	-10.1346
ܘܫܒܩ	-10.1346
ܘܝܕܥ	-10.1365
ܘܡܫܐܠ	-10.1383
ܘܚܘܒ	-10.1425
ܩܘ	-10.1437
ܡܫܠܡ	-10.1437
ܒܪܟ	-10.1441
ܨܠܘܬ	-10.1443
ܨܪܬ	-10.1447
ܝܘܪ	-10.1451
ܕܢܫܬ	-10.1456
ܕܛܝܒܘܬ	-10.1462
ܘܦܐ	-10.1488
ܒܕܚܠܬ	-10.1499
ܐܪܡܝ	-10.1505
ܤܘܪܝ	-10.1506
ܪܓ	-10.1509
ܡܝܬܬ	-10.152
ܚܘܡ	-10.1547
ܐܬܕܟܪ	-10.1555
ܢܒܗܬ	-10.1557
ܤܟܪ	-10.1566
ܩܛܘܠ	-10.1578
ܒܙܒܢ	-10.1583
ܐܓܪܬ	-10.1588
ܫܘܝ	-10.1599
ܒܡܕܒ	-10.1601
ܘܪܘܚ	-10.1602
ܡܫܬܥܒܕ	-10.1631
ܙܕܘܩ	-10.1635
ܡܓܕܠ	-10.1638
ܩܛܠ	-10.1648
ܡܨܝܕܬ	-10.1652
ܪܗܘܡܝ	-10.1654
ܪܫܝ	-10.1655
ܢܩܘ	-10.1659
ܢܤܒܘ	-10.1663
ܕܥܠܝ	-10.1663
ܤܗܕܝܢ	-10.1684
ܚܬ	-10.1694
ܕܩܤܪ	-10.1705
ܫܪܓ	-10.174
ܥܕܢ	-10.174
ܠܡܤܒ	-10.1748
ܫܘܬܦܘܬ	-10.1755
ܫܬܐܤܬ	-10.1761
ܕܚܠܘ	-10.1782
ܡܟܫ	-10.1783
ܕܤܓܝܐ	-10.1786
ܕܝܥ	-10.1811
ܐܬܓܠܝ	-10.1829
ܡܤܟܝܢ	-10.1858
ܩܠ	-10.1881
ܥܪܤ	-10.1887
ܡܛܝܒ	-10.1892
ܠܐܒܘܗܝ	-10.1916
ܕܢܫܪ	-10.1933
ܡܫܒܚܝܢ	-10.1935
ܕܡܝܬܪ	-10.1938
ܕܥܕܬ	-10.1948
ܥܒܕܝܟ	-10.1968
ܕܫܡܥܬ	-10.1976
ܕܚܛܝ	-10.1981
ܤܝܒܪ	-10.1992
ܤܝ	-10.2016
ܬܢܝ	-10.2021
ܕܩܡ	-10.2026
ܒܐܬܪ	-10.203
ܠܡܤܟ	-10.2038
ܘܟܢܫ	-10.2045
ܝܪܐ	-10.2045
ܕܡܠܐ	-10.2054
ܐܚܪܝܬ	-10.2063
ܥܘܪܠܘܬ	-10.2067
ܟܪܝ	-10.2072
ܤܘܩ	-10.2087
ܝܩ	-10.2091
ܩܝܤ	-10.2092
ܬܒܘ	-10.2151
ܛܝܒ	-10.2157
ܛܡܐ	-10.2158
ܕܦܪܝܫ	-10.2177
ܕܪ	-10.2198
ܫܠܚ	-10.2201
ܒܝܢܝ	-10.2204
ܕܚܝܠ	-10.2222
ܕܗܝ	-10.2224
ܕܛܠܝ	-10.2256
ܬܟ	-10.2258
ܚܝܠܬܢ	-10.2261
ܝܤ	-10.2275
ܓܡܝܪ	-10.2279
ܙܝܥ	-10.2281
ܘܬܡܢ	-10.2287
ܝܠܕ	-10.2292
ܦܨ	-10.2296
ܬܪܢܓ	-10.2303
ܟܢܝܫܝܢ	-10.2314
ܡܒܪܟ	-10.2314
ܦܠܓܘܬ	-10.2323
ܢܬܩܪ	-10.2324
ܕܡܠܐܟ	-10.2326
ܬܕܡܪܬ	-10.2327
ܕܡܠܟܘܬ	-10.2327
ܦܤ	-10.2334
ܠܡܩܡ	-10.2342
ܠܬܐ	-10.2343
ܙܡܪ	-10.235
ܕܡܫܟܚ	-10.2351
ܠܒܫ	-10.237
ܒܫܘܩ	-10.2384
ܡܫܬܠܡ	-10.2392
ܠܟܢܘܫܬ	-10.2398
ܐܪܟܘܢ	-10.2399
ܘܓܒܪ	-10.2402
ܗܝܡܢܘܬܗ	-10.2417
ܥܠܬ	-10.2419
ܡܥ	-10.242
ܢܚܫ	-10.2425
ܠܡܬܠ	-10.2432
ܬܘܪ	-10.2437
ܪܘܪܒܐ	-10.2449
ܕܫ	-10.2468
ܫܪܘ	-10.2474
ܠܩܪܝܬ	-10.2478
ܘܐܫܠܡ	-10.2481
ܡܚܝܒ	-10.2498
ܐܬܠ	-10.2531
ܘܚܙܘ	-10.2535
ܘܐܢܫ	-10.2538
ܕܐܬܘ	-10.2552
ܕܟܪܝܗ	-10.2575
ܒܢܦܫܟ	-10.2576
ܘܦ	-10.2607
ܠܪܘܚ	-10.261
ܚܫܡܝܬ	-10.2611
ܘܪܚܡ	-10.2617
ܠܤܛ	-10.2631
ܙܝܢ	-10.2634
ܚܘܐ	-10.2638
ܦܬܘܪ	-10.2653
ܦܪܥ	-10.266
ܪܝܚ	-10.2663
ܘܐܠܗ	-10.2674
ܥܝܢܟ	-10.2677
ܢܦܫܬ	-10.2695
ܒܟܝܢ	-10.2697
ܐܤܘܪ	-10.2698
ܒܪܬ	-10.2699
ܒܪܝܐ	-10.271
ܨܠܘ	-10.272
ܡܩܒܠܝܢ	-10.2725
ܘܝܬܝܪ	-10.2775
ܘܐܤܝ	-10.2782
ܡܚܝܢ	-10.2782
ܕܥܒܪ	-10.2784
ܩܝܦܐ	-10.2785
ܕܥܐܠ	-10.2788
ܗܪ	-10.2793
ܩܪܒܬ	-10.2805
ܡܤܝܒܪܢܘܬ	-10.2808
ܐܫܬܟܚ	-10.2817
ܤܗܕܘܬܗ	-10.2827
ܥܢܘ	-10.2839
ܡܫܬܡܥ	-10.2852
ܩܤܪ	-10.2866
ܐܚܪܢܝ	-10.2874
ܟܠܝܠ	-10.2875
ܒܤ	-10.2881
ܦܪܘܩ	-10.2885
ܤܟܠܘܬ	-10.2892
ܓܘܕܦ	-10.2897
ܐܚܘܕ	-10.2905
ܟܪܡ	-10.2905
ܡܕܒܚ	-10.291
ܝܠܘܕ	-10.2919
ܪܓܝܓܬ	-10.2924
ܛܥܝ	-10.2934
ܕܒܢ	-10.2956
ܕܐܝܬܝ	-10.2957
ܘܕܐ	-10.2961
ܫܘܒܩܢ	-10.2976
ܕܚ	-10.2977
ܘܙܒܢ	-10.2993
ܕܩܒܠܬ	-10.2994
ܕܫܪܝܪ	-10.3004
ܪܚܡܝ	-10.3005
ܦܠܚܝܢ	-10.3009
ܫܢܝ	-10.3011
ܦܗܤܛ	-10.3017
ܬܪܝܨ	-10.3018
ܕܤܒܪ	-10.3019
ܫܓܘܫ	-10.302
ܪܓܠܝܗ	-10.3022
ܐܚܝܕܝܢ	-10.3026
ܐܓܪܦ	-10.3028
ܙܘܥ	-10.3029
ܕܝܗܘܕ	-10.303
ܛܝܡܬܐ	-10.3038
ܙܒܘܪ	-10.3059
ܓܪܒ	-10.3062
ܩܒܠܘ	-10.3086
ܘܐܪܝܡ	-10.3086
ܢܕܥ	-10.3089
ܓܙܪܬ	-10.309
ܕܢܬܡܠ	-10.3099
ܐܬܦܬܚ	-10.3108
ܡܩܕܫ	-10.311
ܘܩܛܠ	-10.311
ܢܚܘ	-10.3123
ܐܫܬܠܡ	-10.3127
ܤܝܡܝܢ	-10.3127
ܡܫܠܡܢ	-10.3132
ܒܡܨܥܬ	-10.3134
ܙܝܬ	-10.3147
ܝܪܬܘܬ	-10.3161
ܘܒܥ	-10.3162
ܚܙܝܪ	-10.319
ܕܚܙܝܬܘܢ	-10.3196
ܒܡܕܡ	-10.3197
ܗܦܟܘ	-10.3198
ܫܒܚ	-10.3214
ܠܐܒܪܗ	-10.3217
ܐܟܪܙ	-10.3217
ܐܬܬܥܝܪ	-10.3219
ܗܝܡܢܬܘܢ	-10.324
ܒܛܠ	-10.3241
ܘܥܒܪ	-10.3245
ܕܟܐ	-10.3251
ܕܤܛ	-10.3251
ܝܘܛ	-10.3269
ܢܡܘܬ	-10.3277
ܢܥܒܪ	-10.329
ܚܤܪ	-10.3294
ܪܦ	-10.3301
ܤܓܕܘ	-10.3306
ܐܠܨ	-10.3307
ܛܢܦܘܬ	-10.3309
ܘܬܠܡܝܕ	-10.3314
ܐܬܝܐ	-10.3325
ܕܬܘܒ	-10.3327
ܒܫܘܒܚ	-10.3342
ܠܡܪܗ	-10.335
ܢܛܪܬ	-10.3356
ܨܦ	-10.3366
ܘܗܦܟ	-10.3383
ܘܗܘܝ	-10.3384
ܦܠܘܚ	-10.3387
ܕܙܪܥ	-10.3392
ܕܩ	-10.3396
ܕܢܢ	-10.3401
ܘܝܘܚܢ	-10.3405
ܡܝܬܪ	-10.3416
ܚܪܒ	-10.3425
ܠܐܒܝ	-10.3439
ܚܠܦܝ	-10.3469
ܚܬܢ	-10.3475
ܡܬܕܡܪ	-10.3484
ܫܡ	-10.3485
ܠܢܡܘܤ	-10.3487
ܩܪ	-10.3501
ܪܟܒ	-10.3505
ܕܝܘܢ	-10.3508
ܕܟܬܒ	-10.3523
ܙܢܝ	-10.3569
ܓܡܪ	-10.3581
ܪܥ	-10.3631
ܕܦܩܕ	-10.3638
ܡܤܝܒ	-10.3642
ܬܟܝܠ	-10.3648
ܕܨܒܝܢ	-10.3668
ܡܛܐ	-10.3682
ܨܒܝܬ	-10.3684
ܚܕܝ	-10.3688
ܒܐܘܠܨܢ	-10.3689
ܡܢܗܪ	-10.3699
ܒܗܬ	-10.3703
ܢܛܪܝܢ	-10.3708
ܡܬܚܒܠ	-10.3716
ܕܡܝܢ	-10.3717
ܓܪܬ	-10.3729
ܐܬܝܗܒ	-10.3739
ܘܐܬܦܢܝ	-10.3748
ܪܓܠܝܟ	-10.3754
ܩܘܫ	-10.3755
ܪܛܢ	-10.377
ܥܪܘܩ	-10.3785
ܥܬܝܩ	-10.3786
ܬܥܠ	-10.3788
ܡܫܘܚܬ	-10.3789
ܚܡܝܪ	-10.3791
ܕܐܡܪܬ	-10.3796
ܚܛܘܦ	-10.3797
ܠܬܚܬ	-10.3805
ܪܓܙ	-10.3807
ܘܐܪܡܝܘ	-10.3817
ܫܠܝܡ	-10.3817
ܘܫܕܪܘ	-10.3818
ܩܢܝ	-10.3821
ܘܐܬܬ	-10.3835
ܠܡܚܙ	-10.3852
ܪܡܝܢ	-10.3858
ܐܠܝܨ	-10.3865
ܘܡܠܟ	-10.3886
ܗܢܝܢ	-10.389
ܡܬܗܦܟ	-10.3895
ܒܕܘܟܬ	-10.3896
ܕܚܛܗ	-10.3916
ܘܕܚܠ	-10.3921
ܠܤܗܕܘܬ	-10.3922
ܘܠܐܡܗ	-10.3926
ܒܘܪܟܬ	-10.3944
ܕܟܪ	-10.3949
ܠܡܥܠ	-10.3952
ܪܝ	-10.3975
ܠܒܪܢܫ	-10.3976
ܘܡܡܠܠ	-10.398
ܕܥܡܝ	-10.4016
ܪܓܠܝ	-10.4016
ܠܛܠܝ	-10.4024
ܡܛܠܬܗ	-10.404
ܘܪܗܛ	-10.4041
ܒܢܝܗ	-10.4043
ܢܫܬܒܩ	-10.4049
ܝܩܐ	-10.406
ܒܬܫܡܫܬ	-10.4068
ܒܓܠܝ	-10.4087
ܒܕܡ	-10.4116
ܡܫܬ	-10.4128
ܒܓܠܝܢ	-10.4141
ܕܐܚ	-10.4156
ܘܝܥ	-10.4166
ܘܐܢܬܬ	-10.4172
ܐܫܬܡܥܬ	-10.4202
ܟܟܪ	-10.4205
ܝܩܝܪ	-10.4208
ܩܛܝܪ	-10.4217
ܕܒܥܝܢ	-10.4226
ܥܠܝܡ	-10.4229
ܠܬܠܬ	-10.4252
ܤܡܬ	-10.4292
ܠܥܒܪ	-10.4304
ܚܠܦܝܢ	-10.4304
ܘܫܡܥܘ	-10.4305
ܡܤܒܪܝܢ	-10.4332
ܗܠܟܘ	-10.4349
ܒܬܘܠܬ	-10.4378
ܡܠܠܘ	-10.4388
ܫܠܬܐ	-10.4388
ܬܥܒܕ	-10.4416
ܕܚܘܒ	-10.4421
ܕܡܙ	-10.4421
ܡܫܡܫ	-10.4468
ܕܠܒ	-10.4479
ܡܚ	-10.4486
ܡܨܥܬ	-10.4489
ܕܫܒܥ	-10.4498
ܟܬ	-10.4523
ܫܘܪܝ	-10.4526
ܕܡܟܝܢ	-10.4531
ܡܩܝܡ	-10.455
ܘܬܫܒܘܚܬ	-10.4604
ܢܤܒܝܢ	-10.4606
ܡܙܕܕܩ	-10.4619
ܘܐܝܠ	-10.4619
ܒܦܘܡ	-10.4624
ܐܫܟܚܢ	-10.4627
ܢܫܠܡ	-10.4628
ܝܘܬܪܢ	-10.4639
ܬܡܗ	-10.4645
ܠܐܡܗ	-10.4647
ܘܐܤܪ	-10.465
ܡܤܝܒܪܝܢ	-10.4651
ܬܘܩܠܬ	-10.4658
ܠܢܒܝ	-10.4659
ܡܫܚܠܦ	-10.4672
ܕܢܫܡܥ	-10.4673
ܠܒܘܫ	-10.4676
ܘܐܤ	-10.4676
ܢܬܒܛܠ	-10.4687
ܚܙܬ	-10.4699
ܠܩܕܝܫ	-10.4699
ܚܛܗܝܗ	-10.4701
ܕܢܫܠܡ	-10.4701
ܠܡܦܩ	-10.4702
ܕܐܤܗܕ	-10.4705
ܘܢܚܬ	-10.4718
ܚܠܦܝܟ	-10.472
ܢܗܠܟ	-10.4728
ܕܗܪܘܕ	-10.4729
ܝܠܦ	-10.4734
ܚܡ	-10.4739
ܠܒܗ	-10.4743
ܤܓܘܕ	-10.4744
ܤܒ	-10.4749
ܚܢܦ	-10.4763
ܬܕܥ	-10.4768
ܠܐܝܟ	-10.4778
ܩܝܡܬ	-10.478
ܙܟ	-10.478
ܨܝܕܢ	-10.4783
ܢܐܒܕ	-10.4788
ܬܫܬ	-10.4796
ܥܬܝܕܝܢ	-10.4815
ܚܨ	-10.4821
ܠܬܪܥܤܪ	-10.4832
ܠܩܪܝܒ	-10.4843
ܢܗܝܪܐ	-10.4853
ܒܫ	-10.4857
ܤܪܐ	-10.4859
ܩܘܡܘ	-10.4866
ܕܩܪܝܢ	-10.4869
ܡܫܥܒܕ	-10.4872
ܙܥܘܪܝ	-10.4906
ܡܬܪܥܝܢ	-10.4912
ܒܡܠܐ	-10.4957
ܕܢܚܘ	-10.4986
ܥܒܕܝܗ	-10.4997
ܘܐܟܠ	-10.5008
ܗܒܘ	-10.5035
ܕܗܝܟܠ	-10.5048
ܘܪܩ	-10.5069
ܒܤܝܡ	-10.5088
ܘܩܕܝܫ	-10.5097
ܝܗܝܒ	-10.5098
ܠܕܘܟܬ	-10.5113
ܘܡܪܝܡ	-10.5114
ܫܘܠܡ	-10.5124
ܥܒܕܬܘܢ	-10.5145
ܚܝܝܢ	-10.5147
ܫܡܥܢ	-10.5151
ܒܡܪ	-10.5182
ܘܡܠܐܟ	-10.5194
ܕܐܠܦ	-10.5222
ܕܬܫܡܫܬ	-10.5248
ܕܬܡܢ	-10.5248
ܬܦܠ	-10.5264
ܩܕ	-10.5267
ܕܙܟ	-10.5272
ܕܢܚܫ	-10.5277
ܐܬܩܪܝ	-10.5303
ܒܩܢ	-10.5311
ܥܐܠܝܢ	-10.5347
ܒܡܪܝ	-10.5362
ܕܬܠܡܝܕ	-10.5386
ܘܓ	-10.5391
ܓܒܝܬ	-10.5392
ܚܕܘ	-10.5404
ܥܕܪ	-10.5418
ܬܘܕܝܬ	-10.5426
ܤܐ	-10.5429
ܘܫܒ	-10.5465
ܕܝܕܥܬ	-10.5466
ܡܚܘ	-10.547
ܡܛܥܝܢ	-10.5478
ܡܩܕ	-10.5485
ܬܟܪܙ	-10.549
ܒܚܕܘܬ	-10.5493
ܙܕܩܦ	-10.5518
ܘܤܒܪ	-10.5524
ܡܘܕܥ	-10.5533
ܬܛܥ	-10.5535
ܩܝ	-10.5537
ܡܢܤܝܢ	-10.5541
ܦܫܛ	-10.5542
ܢܦܠܘ	-10.5543
ܘܐܝܬܝܗ	-10.5544
ܒܥܕ	-10.556
ܘܡܟܪܙ	-10.5566
ܡܤܬܟܠܝܢ	-10.5567
ܘܐܚ	-10.5579
ܕܩܪܝܒ	-10.5582
ܤܩܘܒܠ	-10.5606
ܕܐܚܝܕ	-10.5607
ܘܡܢܘ	-10.561
ܠܝܛ	-10.5615
ܒܥܝ	-10.5618
ܝܩܕ	-10.5622
ܡܡܪܚ	-10.5624
ܕܐܬܝܬ	-10.5626
ܕܢܩܘ	-10.5637
ܤܥܘܪ	-10.5648
ܫܪܝܘ	-10.5649
ܙܟܝ	-10.5651
ܤܒܘ	-10.5673
ܕܤܢܐ	-10.5697
ܒܨܒܝܢ	-10.5705
ܡܫܬܒܗܪܝܢ	-10.5728
ܠܝܗܘܕ	-10.5735
ܘܐܬܡܠܝ	-10.5741
ܘܩܪܝܒ	-10.5743
ܪܓܬ	-10.5747
ܕܫܘܒܚ	-10.5748
ܠܟܦܪ	-10.5753
ܘܫܩܠܘ	-10.5761
ܐܢܬܝ	-10.5764
ܡܟܪܙܝܢ	-10.5774
ܥܗܕ	-10.5777
ܟܒܪ	-10.5778
ܕܙܕܝܩܘܬ	-10.5789
ܠܫܠܝܚ	-10.579
ܕܢܡܠܠ	-10.5794
ܟܐܒ	-10.5801
ܡܚܒܠ	-10.5802
ܓܕ	-10.5807
ܘܟܒܪ	-10.5826
ܙܟܐ	-10.5838
ܕܒܢܡܘܤ	-10.5851
ܘܒܝܬ	-10.5851
ܟܘܬܝܢ	-10.5852
ܒܠܚܘܕܝ	-10.5865
ܡܠ	-10.5876
ܒܝܢ	-10.588
ܟܫܠ	-10.5891
ܝܩܝܪܬ	-10.5906
ܕܚܪ	-10.5908
ܡܠܘ	-10.591
ܕܙ	-10.5933
ܘܐܬܠ	-10.5938
ܬܪܥܝܬ	-10.5939
ܩܘܤ	-10.5942
ܕܡܛܝܒ	-10.5949
ܡܫܐܠ	-10.5972
ܕܪܥ	-10.5974
ܠܩ	-10.5975
ܢܦܩܝܢ	-10.6016
ܚܒܘ	-10.6018
ܡܫܡܠܝ	-10.6025
ܚܙ	-10.606
ܒܗܬܬ	-10.6063
ܠܥ	-10.6076
ܠܢܦܫ	-10.6092
ܘܫܝ	-10.6126
ܩܪܝܢ	-10.6127
ܚܒܪ	-10.6128
ܕܗܢܘ	-10.6128
ܒܢܒܝ	-10.6144
ܕܢܩܪ	-10.6187
ܘܥܒܕܘ	-10.6208
ܡܤܢ	-10.6255
ܢܫܟܚܘܢ	-10.6263
ܡܤܗܕܝܢ	-10.6289
ܕܤܓܝ	-10.6295
ܪܢܐ	-10.6299
ܥܗܕܝܢ	-10.6326
ܘܒܥܘ	-10.6334
ܘܕܡܐ	-10.6371
ܒܙܚ	-10.6375
ܘܓܒ	-10.6389
ܒܝܠ	-10.6397
ܕܒܪܘܚ	-10.6417
ܕܒܪܢܫ	-10.6418
ܕܐܬܩܪܝ	-10.6422
ܫܢܬ	-10.6431
ܫܘܘܕܝ	-10.6443
ܢܬܓܠ	-10.6453
ܟܤܝܐ	-10.6466
ܒܠܒ	-10.647
ܐܤܬܟܠܘ	-10.6474
ܘܐܡܝܢ	-10.6476
ܚܛܗܝܟ	-10.6488
ܘܨܒܝܢ	-10.6494
ܡܟܪܙ	-10.6501
ܕܡܢܗ	-10.6515
ܐܫܝܓ	-10.6528
ܐܢܛܝܘܟܝ	-10.6528
ܦܪܘܥ	-10.6529
ܡܛܬ	-10.6533
ܒܘܟܪ	-10.6535
ܚܪܝܦ	-10.6536
ܢܫܬܒܗܪ	-10.6536
ܚܢ	-10.6541
ܬܘܟܠܢ	-10.6542
ܗܒ	-10.6543
ܦܪܝܩ	-10.6548
ܒܡܘܡܬ	-10.6552
ܬܩܘ	-10.6553
ܗܦܘܟ	-10.6563
ܒܚܛܗܝ	-10.6564
ܒܨܝܪ	-10.6566
ܒܪܝܟ	-10.6569
ܕܢܩܛܠܘܢ	-10.6573
ܥܘܡܩ	-10.6574
ܕܗܝܡܢܘ	-10.6579
ܩܫܝܐ	-10.6582
ܡܓܢ	-10.6593
ܥܐܠ	-10.6595
ܒܦܪܨܘܦ	-10.6598
ܡܝܩܪ	-10.6605
ܡܤܬܒܪ	-10.6606
ܕܢܗܝܡܢ	-10.6611
ܡܦܫܩ	-10.6612
ܚܤܝܪ	-10.6613
ܘܐܫܬܥܝ	-10.6615
ܕܦܛ	-10.6617
ܡܚܒܝܢ	-10.6622
ܕܡܩܪܒ	-10.6624
ܕܤܝܡ	-10.664
ܘܠܫܢ	-10.6642
ܝܦ	-10.6644
ܠܘܝ	-10.6655
ܫܩ	-10.6669
ܬܩܘܡ	-10.6669
ܟܤܝܬ	-10.6682
ܘܐܘܕܝ	-10.6694
ܐܬܝܕܥܬ	-10.6701
ܘܛܝܡܬܐ	-10.6709
ܢܥܠܘܢ	-10.6709
ܠܡܫܪܝ	-10.6711
ܕܤܡܝܟ	-10.6713
ܠܡܐܚܕ	-10.6721
ܢܟܦ	-10.6722
ܘܠܡܠܐܟ	-10.6723
ܪܝܡ	-10.6724
ܕܘܡ	-10.6728
ܠܩܘܒܠ	-10.674
ܚܟܝܡ	-10.6742
ܒܝܫܘܬ	-10.6752
ܠܡܫܬܐ	-10.6753
ܢܛܝܟ	-10.6756
ܚܐܪܘܬ	-10.6758
ܚܪܬܗ	-10.6776
ܕܢܤܝܡ	-10.678
ܘܙ	-10.6789
ܕܢܕܥ	-10.6793
ܒܠܒܘܬ	-10.6806
ܡܢܪܬ	-10.6808
ܦܝܤ	-10.682
ܘܪܕ	-10.6822
ܘܐܚܪܝ	-10.6828
ܘܡܪ	-10.6862
ܥܬܝܪ	-10.6866
ܡܕܢܚ	-10.6867
ܘܤܡܘ	-10.6872
ܒܥܝܬ	-10.688
ܕܢܦܩܘܢ	-10.6884
ܘܢܛܪ	-10.6891
ܘܐܝܬܝܘ	-10.691
ܘܚܙܝ	-10.6912
ܤܦܤ	-10.6914
ܒܛܘܪ	-10.6915
ܠܒܟ	-10.6921
ܝܘܢܐ	-10.6933
ܕܝܗܘܕܐ	-10.6934
ܫܝܢ	-10.6959
ܕܐܫܪ	-10.6963
ܦܐ	-10.7002
ܡܘܒܠ	-10.7007
ܐܫܬܐܠ	-10.7016
ܦܪܥܘܢ	-10.7023
ܒܩܘ	-10.7024
ܢܤܓ	-10.7028
ܒܚܟܡܬ	-10.7041
ܦܘܠܚܢ	-10.7043
ܕܐܬܝ	-10.7044
ܒܛܢ	-10.7058
ܘܐܠܦ	-10.7089
ܕܢܘܒܕ	-10.7091
ܪܥܝܢܗ	-10.7096
ܘܢܩܝܡ	-10.7102
ܓܙܪ	-10.7104
ܢܘܚ	-10.7107
ܠܟܬܒ	-10.7112
ܝܪ	-10.7121
ܘܫܩ	-10.7128
ܘܕܝܘ	-10.713
▁	-10.713
ܘܚܙܝܢ	-10.7132
ܕܟܤ	-10.7133
ܘܡܫܡܫܢ	-10.7137
ܟܪܤ	-10.714
ܘܫܘ	-10.7146
ܚܕܬ	-10.7149
ܡܐܢܝ	-10.7154
ܪܩ	-10.7169
ܓܙ	-10.7187
ܚܐܝܢ	-10.7194
ܠܦܓܪ	-10.7194
ܤܘܟ	-10.7211
ܨܐܕܝ	-10.7214
ܢܫܟܚ	-10.7216
ܢܕܪܐ	-10.7222
ܢܩܒܠ	-10.7227
ܘܐܫܟܚܘ	-10.7261
ܡܬܪܥ	-10.727
ܡܫ	-10.7275
ܠܡܚܝ	-10.7283
ܕܡܚܒ	-10.7287
ܘܫܠܝܚ	-10.7293
ܕܤܒܪܬ	-10.7295
ܪܬ	-10.7309
ܠܬܫܒܘܚܬ	-10.7321
ܒܦ	-10.7324
ܪܢ	-10.7326
ܨܥܪ	-10.7329
ܫܒܩܘ	-10.7334
ܬܪܡ	-10.7358
ܓܡܝܪܐ	-10.7359
ܘܪܒܝ	-10.7387
ܦܠܚܝ	-10.7415
ܕܡܠܬ	-10.7427
ܛܢ	-10.7427
ܟܘܪܗܢ	-10.7445
ܤܢܝܩ	-10.7449
ܫܒܝܩ	-10.7468
ܐܝܤ	-10.7473
ܙܩܦ	-10.7476
ܕܫܐܕ	-10.748
ܫܠ	-10.7501
ܒܪܥܝܢ	-10.7501
ܘܒܪܢ	-10.7526
ܘܠܟܠܗ	-10.7526
ܡܩܪܒ	-10.7539
ܕܝܢܘܤ	-10.7545
ܕܟܝܘܬ	-10.7557
ܕܠܥܠ	-10.7561
ܕܫܪ	-10.7563
ܠܘܛ	-10.7579
ܡܕܒܪܢ	-10.7594
ܕܢܛܪ	-10.7595
ܘܬܠܬ	-10.7624
ܬܪܡܝ	-10.763
ܬܤܠܘܢܝܩ	-10.7639
ܩܘܪܢܠܝ	-10.7639
ܡܪܓܢܝܬ	-10.7639
ܦܫܝܩ	-10.764
ܩܘܪܢܬ	-10.764
ܐܬܠܒܒ	-10.764
ܙܡܘܪ	-10.7641
ܓܐܪ	-10.7643
ܛܘܗܡ	-10.765
ܚܨܘܕ	-10.7651
ܚܙܩ	-10.7669
ܛܘܒܝܟ	-10.767
ܛܠܡ	-10.7679
ܬܘܬܒ	-10.7695
ܘܢܩܛܠܘܢ	-10.7696
ܘܙܠ	-10.7699
ܒܚܪܬ	-10.7703
ܡܬܝܗܒ	-10.771
ܕܒܟܠܗ	-10.7711
ܡܛܝܢ	-10.772
ܦܪܛܘ	-10.7729
ܘܡܠܠ	-10.7734
ܐܬܒܛܠ	-10.7735
ܚܦܝܛܘܬ	-10.7737
ܐܬܕܟܝ	-10.774
ܢܘܒܕ	-10.7746
ܐܓܪܗ	-10.7752
ܕܡܛܠܬܗ	-10.7757
ܢܩܒܠܘܢ	-10.7765
ܠܐܒܘܟ	-10.7766
ܫܝ	-10.7767
ܘܨܠܝ	-10.7771
ܢܩܝܦ	-10.7777
ܙܟܘܬ	-10.7783
ܩܒܠܬܘܢ	-10.7789
ܨܐ	-10.7805
ܒܪܥܝܢܝ	-10.7809
ܒܬܪܥ	-10.7815
ܘܝܕܥܝܢ	-10.7815
ܡܒܙܚ	-10.7815
ܬܬܝܬܪ	-10.7817
ܒܢܘܗܪ	-10.7821
ܘܡܬܕܡܪ	-10.7839
ܕܟܝܬ	-10.784
ܤܢܝܢ	-10.7842
ܡܥܕܪܢ	-10.788
ܢܫܬܩܠ	-10.7884
ܬܫܡܫܬ	-10.7896
ܦܪ	-10.7902
ܛܢܢ	-10.791
ܕܫܩܠ	-10.7927
ܕܪܐ	-10.7931
ܩܥܬ	-10.7934
ܕܒܐܘܪ	-10.7944
ܕܡܛܠ	-10.7976
ܘܡܠܝ	-10.7976
ܐܪܡܝܬ	-10.7979
ܕܒܒܤܪ	-10.7994
ܦܓ	-10.8
ܬܒ	-10.8012
ܠܒܘܫܗ	-10.8015
ܕܟܘܪܤܝ	-10.8016
ܪܘܢ	-10.8018
ܕܐܠܘ	-10.8019
ܘܒܚܘܒ	-10.8043
ܡܦܩܕ	-10.8053
ܐܬܦܠܓ	-10.8054
ܘܐܒܝ	-10.8068
ܕܩܝܡ	-10.8075
ܡܤ	-10.8093
ܤܘܦ	-10.8101
ܫܬܡܥܘ	-10.8105
ܠܡܠܦ	-10.8113
ܬܝܬܪ	-10.8142
ܒܡܤܝܒܪܢܘܬ	-10.8157
ܐܬܝܕܥ	-10.8158
ܠܫܒܥ	-10.8159
ܕܩܝܡܬ	-10.8159
ܒܙܒܢܗ	-10.8161
ܘܡܠܬܗ	-10.8163
ܕܢܒܝܘܬ	-10.8168
ܕܚܛ	-10.817
ܕܥܬܝܕܝܢ	-10.8176
ܠܡܨܪܝ	-10.8181
ܠܤ	-10.8189
ܠܐܘܪܚ	-10.819
ܠܝܩܝ	-10.821
ܥܝܢܝܟ	-10.8214
ܤܟ	-10.822
ܕܡܫ	-10.8222
ܠܪܒܝ	-10.8238
ܒܦܘܩܕܢ	-10.8248
ܕܐܬܪ	-10.827
ܒܝܐ	-10.8285
ܚܤܝܢ	-10.8318
ܒܫܠܡܟ	-10.8336
ܕܓܠܘܬ	-10.834
ܚܕܝܢ	-10.8358
ܢܛܥ	-10.8358
ܨܗܝ	-10.836
ܕܐܤܝܪ	-10.8393
ܘܠܡܕܝܢܬ	-10.8395
ܛܝܪ	-10.8422
ܕܠܐܢܫ	-10.8427
ܬܚܝܒ	-10.8437
ܓܘܢ	-10.8443
ܪܥܘܬ	-10.8461
ܝܬܝܪܐ	-10.8474
ܡܘܠܝ	-10.8488
ܕܪܫ	-10.8496
ܫܩܠܬ	-10.852
ܘܢܦܩܬ	-10.8522
ܨܒܝ	-10.8523
ܡܪܝܪ	-10.8527
ܝܪܝܢ	-10.8541
ܘܩܪ	-10.8542
ܚܪܡ	-10.8577
ܚܒܪܝ	-10.8588
ܕܬܫܒܘܚܬ	-10.8605
ܕܠܘ	-10.8612
ܥܡܘܪ	-10.8618
ܕܥܟ	-10.8619
ܬܬܙܝܥܘ	-10.8624
ܘܫܘܠܛܢ	-10.864
ܒܪܚܡ	-10.8655
ܡܛܝܒܝܢ	-10.8665
ܢܒܝܘܬ	-10.8669
ܛܝܐ	-10.8671
ܡܬܟܪܟ	-10.8672
ܢܦܩܘܢ	-10.8675
ܐܬܟܪܟ	-10.8679
ܒܥܡܐ	-10.8702
ܕܒܤ	-10.8705
ܡܡ	-10.8714
ܕܩܛܠ	-10.8717
ܐܤܬܟܠ	-10.8719
ܥܪܩܘ	-10.8722
ܒܡܘܬ	-10.8744
ܬܡܠܠ	-10.8751
ܬܚܘܡ	-10.8761
ܕܐܬܬ	-10.8763
ܚܦܝܛ	-10.878
ܦܘܡܝ	-10.879
ܕܚܝܒ	-10.8797
ܐܫܬܒܗܪ	-10.8808
ܕܝܢܪ	-10.8815
ܦܬܝܚ	-10.8817
ܚܤܝܪܝ	-10.882
ܕܥܘܢ	-10.8822
ܦܛܪ	-10.8829
ܢܤܝܘܢ	-10.8846
ܪܡܝ	-10.8846
ܨܘ	-10.8849
ܡܟܝܟܘܬ	-10.8857
ܠܚܘ	-10.886
ܙܥܩ	-10.8865
ܩܛܪܓ	-10.8865
ܫܒܚܘ	-10.8868
ܙܝܙ	-10.8869
ܓܗܢ	-10.8874
ܚܕܥܤܪ	-10.8877
ܪܥܡ	-10.8882
ܓܝܤ	-10.8882
ܘܗܠܟ	-10.8884
ܡܬܬܙܝܥ	-10.8889
ܐܙܕܪܥ	-10.8889
ܟܘܪܤܘܬ	-10.8889
ܬܐܓܘܪܬ	-10.889
ܫܝܦܘܪ	-10.889
ܦܘܪܥܢ	-10.889
ܡܫܬܢܩ	-10.8891
ܡܬܟܬܫ	-10.8892
ܐܨܛܒܝ	-10.8896
ܬܫܒܩܘܢ	-10.8899
ܝܚܝܕܝ	-10.89
ܘܡܫܡܫ	-10.891
ܪܕܘܦܝ	-10.891
ܒܓܘ	-10.8915
ܦܪܝܤ	-10.8924
ܟܪܝܬ	-10.8925
ܕܩܪܒ	-10.8934
ܠܢܤܝܘܢ	-10.8939
ܒܠܚܘܕܝܗ	-10.894
ܒܥܪܤ	-10.8952
ܕܐܫܬܕܪ	-10.8953
ܘܐܘܚܕ	-10.8958
ܫܘܪ	-10.8963
ܘܦܠܚ	-10.8967
ܓܦ	-10.8981
ܘܡܗܝܡܢ	-10.8986
ܕܥܒܕܬ	-10.8986
ܕܐܤܝܡ	-10.8991
ܘܒܥܝ	-10.8996
ܘܒܗܕ	-10.9
ܢܓܕܘܢ	-10.9001
ܬܓܘܪ	-10.9002
ܕܟܢܫ	-10.9006
ܩܘܕ	-10.901
ܬܬܪܝܡ	-10.9012
ܒܓ	-10.9018
ܡܬܩܪܒܝܢ	-10.9019
ܕܩܒܠ	-10.9022
ܕܓܕ	-10.9026
ܬܕܟܝܬ	-10.9033
ܐܬܩܪܝܬ	-10.904
ܘܡܨܠܝܢ	-10.9049
ܡܫܠܡܢܘܬ	-10.9055
ܡܬܕܒܪ	-10.9066
ܥܝܪܝܢ	-10.9066
ܠܒܥܠ	-10.9068
ܠܛ	-10.9076
ܩܢܘܡ	-10.9076
ܒܟܐܢܘܬ	-10.9079
ܒܩܝܡܬ	-10.908
ܘܡܠܦܝܢ	-10.9081
ܠܨܠܡ	-10.9088
ܪܒܘܬ	-10.9103
ܘܕܥܘ	-10.9104
ܘܛܝܒܘܬ	-10.911
ܬܥܒܪ	-10.9115
ܪܘܚܝ	-10.9118
ܕܥܒܝܕ	-10.9118
ܩܒܠܬ	-10.9123
ܕܐܒܗܬ	-10.9132
ܐܬܢܒܝ	-10.9135
ܬܒܕܪܘ	-10.914
ܡܚܝ	-10.915
ܕܢܩܝܡ	-10.9153
ܠܚܪ	-10.9156
ܚܘܤ	-10.9156
ܘܩܘܝ	-10.9159
ܘܐܬܕܟܪ	-10.9161
ܥܘܝܪ	-10.9179
ܕܙܕܩ	-10.9188
ܥܒܪܝ	-10.919
ܠܡܨܠ	-10.9199
ܘܫܢܝ	-10.9205
ܡܠܬܟ	-10.9209
ܝܗܒܝܢ	-10.9213
ܛܪܘ	-10.9214
ܚܫܒ	-10.9226
ܤܘܤܝ	-10.9241
ܘܫܒܥ	-10.9243
ܘܦܪܫ	-10.9252
ܬܚܘܝܬ	-10.9291
ܘܪܫ	-10.9297
ܠܓܒܝ	-10.93
ܒܚܘ	-10.9302
ܦܓܪܟ	-10.9303
ܢܤܝܡ	-10.9304
ܢܗܝܡܢ	-10.9345
ܐܪܡܝܘ	-10.9351
ܡܬܝܕܥ	-10.9351
ܘܤܓܝ	-10.9354
ܘܤܛܪ	-10.9361
ܘܢܦܠܘ	-10.9366
ܒܦܠ	-10.9371
ܠܫܝ	-10.938
ܡܘܬܪ	-10.9382
ܠܡܚܤ	-10.9384
ܕܡܨܪܝ	-10.9387
ܡܬܡܠܠ	-10.9392
ܘܪܝܗ	-10.9412
ܒܟܘܪܗܢ	-10.9415
ܠܡܕܒܚ	-10.9417
ܗܪܘ	-10.9425
ܬܪܚܡ	-10.9452
ܤܛܪ	-10.9457
ܢܥܒܕܘܢ	-10.946
ܡܬܓܠ	-10.9462
ܢܦܐ	-10.9475
ܬܒܥܬ	-10.9514
ܕܕܝܠܗ	-10.9529
ܒܝܘܡܬܗ	-10.9534
ܩܪܛ	-10.9544
ܕܪܓ	-10.9554
ܕܡܫܠܡ	-10.9565
ܚܒܫ	-10.9584
ܘܚܐ	-10.9596
ܫܛܝ	-10.96
ܠܡܠܐܟ	-10.9606
ܠܩܕܡܝ	-10.9616
ܕܝܠܝܕ	-10.9617
ܥܝܝ	-10.9622
ܡܫܬܪ	-10.9625
ܕܡܫܬ	-10.9629
ܥܒܪܐ	-10.9634
ܐܬܚܫܒ	-10.9635
ܡܨܠܝܢ	-10.9639
ܤܘ	-10.9652
ܘܚܠܦ	-10.9659
ܕܦܘܩܕܢ	-10.966
ܐܠܗܟ	-10.9672
ܕܝܩܕ	-10.9682
ܢܚܬܬ	-10.9684
ܡܚܪ	-10.9686
ܠܗܝܡܢܘܬ	-10.9693
ܕܬܐܡܪ	-10.9696
ܕܓܒ	-10.9707
ܕܟܘ	-10.9763
ܒܘܪܟ	-10.9784
ܘܐܚܕܘ	-10.9793
ܟܪܙܘ	-10.9808
ܕܩܝ	-10.9822
ܕܕܝܘ	-10.9828
ܢܨܝ	-10.9829
ܕܒܝܗܘܕ	-10.9839
ܦܪܤ	-10.9844
ܬܟܝܠܝܢ	-10.9844
ܕܡܛܝ	-10.9849
ܛܥܝܘܬ	-10.9853
ܘܗܝܡܢܘ	-10.9859
ܬܠܡܝܕܝ	-10.9865
ܦܠܓ	-10.9874
ܐܬܒܪܝ	-10.9881
ܪܓܘܢ	-10.989
ܠܚ	-10.9896
ܠܫܐ	-10.9904
ܕܟܝ	-10.9916
ܕܦܠܚ	-10.992
ܕܩܫܝܫ	-10.9928
ܦܟ	-10.9959
ܢܬܟ	-10.9976
ܤܒܪܘ	-10.9976
ܬܟܠܘܢ	-10.9977
ܘܡܤܗܕ	-10.9979
ܦܢܝ	-10.9981
ܒܕܝܢ	-10.9984
ܐܦܠܘ	-10.9984
ܢܓܕ	-10.9987
ܕܡܪܗ	-10.9998
ܙܠܝ	-11.0004
ܤܬܘ	-11.0011
ܕܒܚܕ	-11.0017
ܚܫܚ	-11.0035
ܚܟܡ	-11.0035
ܒܐܫ	-11.0054
ܠܒܢ	-11.0057
ܛܠܝܘܬ	-11.0062
ܢܩܦ	-11.0065
ܕܗܝܡܢܬ	-11.0066
ܫܘܩ	-11.0089
ܡܫܬܥ	-11.0109
ܢܚܬܘ	-11.0115
ܘܢܬܠ	-11.0133
ܥܤܒ	-11.0144
ܒܫܘܠܛܢ	-11.015
ܙܕܩܬ	-11.0169
ܤܪܝ	-11.0171
ܫܒܝ	-11.0174
ܓܘܪ	-11.0177
ܒܥܠܕܒܒܝܟ	-11.0184
ܘܚܛܝ	-11.0187
ܬܡܝܗ	-11.0204
ܥܘܪ	-11.0215
ܬܐܙܠ	-11.023
ܘܚܘܝ	-11.0238
ܤܤ	-11.024
ܘܙܕܝܩ	-11.0245
ܡܝܬܘ	-11.0246
ܡܫܪܪ	-11.0252
ܡܘܡܬ	-11.0263
ܒܕܩ	-11.0266
ܕܪܫܝ	-11.0283
ܒܪܫ	-11.0285
ܢܙܕܕܩ	-11.0318
ܙܪܘܥ	-11.0318
ܢܫܬܟܚ	-11.0318
ܡܤܪܗܒ	-11.0318
ܡܫܝܓ	-11.0318
ܚܘܫܒܢ	-11.0318
ܡܫܬܡܥܢܘܬ	-11.0319
ܡܓܠܬ	-11.032
ܒܩܢܘܡܗ	-11.032
ܙܘܓ	-11.032
ܤܦܝܪ	-11.032
ܕܪܟܫ	-11.0321
ܦܓܥ	-11.0322
ܡܪܚܡܢ	-11.0324
ܥܙ	-11.0325
ܒܐܕܢܝ	-11.0325
ܡܙܕܪܥ	-11.0327
ܚܒܘܫܝ	-11.0329
ܬܩܒܠܘܢ	-11.0331
ܠܢܝܚܬ	-11.0333
ܒܡܕܥܝ	-11.0335
ܕܢܫܬܒܚ	-11.0337
ܕܢܤܩ	-11.0338
ܐܪܤܛ	-11.0341
ܫܬܝܩ	-11.0341
ܩܫܝܘܬ	-11.0343
ܘܐܘܒܠ	-11.0345
ܐܤܛܕܘ	-11.0347
ܚܘܛܪ	-11.0349
ܟܪܘܙܘܬ	-11.0355
ܠܥܕ	-11.0359
ܕܐܤܝ	-11.0362
ܙܘܝܬ	-11.0363
ܕܡܥ	-11.0371
ܛܥܝܢ	-11.0372
ܢܛܥܡ	-11.0373
ܘܢܫܠܡܘܢ	-11.0375
ܡܕܟ	-11.038
ܪܘܓܙܗ	-11.0381
ܕܓܢ	-11.0383
ܩܘܦܪ	-11.0384
ܢܫܡܫ	-11.0385
ܠܪܫ	-11.0385
ܝܘܢܝ	-11.0387
ܕܝܩܝ	-11.0389
ܒܪܩ	-11.0396
ܩܤܛ	-11.0397
ܬܩܕܫ	-11.0398
ܡܫܬܘܬ	-11.0411
ܝܠܦܬܘܢ	-11.0413
ܡܪܕܘܬ	-11.0416
ܦܘܠܓ	-11.0416
ܕܐܫܠܡ	-11.0417
ܕܙܢܝ	-11.0422
ܨܠܝ	-11.0425
ܐܬܦܢܝ	-11.0426
ܕܡܨ	-11.044
ܒܐܤܝ	-11.0448
ܕܢܩܪܒ	-11.0448
ܟܘܬܝ	-11.0449
ܘܬܡܝܗ	-11.045
ܪܘܫܡ	-11.0452
ܨܒܥ	-11.0457
ܛܥܘ	-11.0459
ܡܚܤ	-11.0461
ܒܐܤܟ	-11.0461
ܫܩܝܠ	-11.0467
ܒܚܝ	-11.047
ܓܘܓ	-11.0474
ܒܨܘ	-11.0474
ܛܥܢ	-11.0476
ܬܥܡܕܘ	-11.0482
ܟܪܝܘܬ	-11.0485
ܚܒܨ	-11.0487
ܟܪܝܗܘܬ	-11.0487
ܐܚܝܬܟ	-11.0489
ܘܒܝܕ	-11.0493
ܕܡܝܗ	-11.0494
ܒܕܡܥ	-11.0506
ܒܡܟܝܟܘܬ	-11.0514
ܕܒܝܚ	-11.0516
ܡܬܚܦܛ	-11.0521
ܝܕܝܥܝܢ	-11.0525
ܢܛܝܪ	-11.0525
ܒܩܪܝܬ	-11.0526
ܟܘܪ	-11.053
ܩܠܝܕ	-11.0531
ܪܚܡܬ	-11.0531
ܠܒܤܬܪܗ	-11.0531
ܕܡܚܒܝܢ	-11.0532
ܘܟܢܫܘ	-11.0536
ܕܬܬܠ	-11.0536
ܤܕܘ	-11.0541
ܡܨܪܝ	-11.0541
ܕܥܒܕܘ	-11.0548
ܘܚܙܬ	-11.055
ܬܐܠܕ	-11.0552
ܢܫܡܥܘܢ	-11.0555
ܬܘܠܬܗ	-11.0565
ܘܨܐ	-11.0572
ܡܦܪܫ	-11.0572
ܚܬܗ	-11.0573
ܫܬܩܠ	-11.0591
ܘܐܬܦܬܚ	-11.0599
ܬܤܒ	-11.0605
ܡܩܘܝܢ	-11.0608
ܡܥܕܪ	-11.0609
ܐܦܝܗ	-11.0611
ܡܪܚ	-11.0613
ܐܟܘܬܗ	-11.0616
ܕܦܪܚ	-11.062
ܩܘܘ	-11.0632
ܨܠܝܒ	-11.0637
ܘܬܡܗ	-11.0638
ܬܗܦܟ	-11.0655
ܕܤܡܝ	-11.0657
ܒܡܥܡܘܕܝܬ	-11.0659
ܠܥܝܢ	-11.0662
ܕܟܤܦ	-11.0665
ܕܐܫܟܚܬ	-11.0671
ܘܡܫܚ	-11.0696
ܐܝܛܠܝ	-11.0696
ܐܚܘܝܟ	-11.0705
ܝܠܕܬ	-11.0714
ܕܚܬ	-11.0714
ܘܟܬܒ	-11.0723
ܘܥܐܠ	-11.0732
ܬܢܒ	-11.0732
ܕܫܡܫ	-11.0737
ܐܫܬܝ	-11.0741
ܡܬܕܝܢ	-11.0742
ܡܬܢܛܪ	-11.0744
ܐܤܬܠ	-11.0745
ܚܕܝܘ	-11.0761
ܒܨ	-11.0768
ܤܒܥܘ	-11.0788
ܓܫܘ	-11.079
ܕܦܪ	-11.0796
ܕܚܠܦ	-11.0798
ܩܛ	-11.0799
ܬܕܡܪܘ	-11.0805
ܕܟܬܒܬ	-11.0813
ܡܤܠܝ	-11.0815
ܢܨ	-11.0854
ܦܤܘܩ	-11.0859
ܦܝ	-11.0869
ܘܡܤܟܢ	-11.0877
ܐܙܕܗܪ	-11.0877
ܕܫܐܠܝܢ	-11.0885
ܪܥܝܢܟ	-11.089
ܠܐܘܪܥ	-11.089
ܠܟܐܢܘܬ	-11.0892
ܠܩܛ	-11.0896
ܢܚܒ	-11.0906
ܗܦܟܬ	-11.093
ܠܬܫܡܫܬ	-11.0933
ܠܩܘܪܝ	-11.0944
ܒܪܬܝ	-11.0959
ܐܬܕܡܪ	-11.0964
ܘܡܚܝܢ	-11.0965
ܤܢܝܩܝܢ	-11.0983
ܕܢܩܘܡ	-11.0983
ܠܦܘܢ	-11.0997
ܘܫܡܫ	-11.1012
ܘܚܕܘܬ	-11.1028
ܘܚܡܬ	-11.1035
ܝܩܝܢ	-11.1045
ܡܛܥ	-11.1062
ܒܡܘܠܟܢ	-11.1064
ܤܝܡܘܢ	-11.1069
ܘܫܘܪ	-11.1089
ܕܐܝܤ	-11.109
ܪܩܘܤ	-11.1092
ܐܫܬܪܪ	-11.1095
ܕܚܕܘܬ	-11.1108
ܩܛܠܘ	-11.1109
ܛܝܢ	-11.1121
ܢܬܝܕܥ	-11.1135
ܘܐܠܘ	-11.1142
ܘܛܒ	-11.1149
ܘܬܪܬ	-11.1166
ܘܕܒܚ	-11.1166
ܘܐܬܕܡܪ	-11.1183
ܕܢܫܟܚ	-11.1186
ܐܒܕ	-11.1192
ܠܫܡ	-11.1194
ܘܫܥ	-11.1197
ܐܒܗܝܟ	-11.1199
ܬܛܦܝܤܘ	-11.1203
ܙܢܝܘܬܗ	-11.1204
ܘܨܠܘ	-11.1214
ܓܪܡ	-11.1217
ܕܡܚܐ	-11.1219
ܘܤܗܕ	-11.1234
ܒܤܝܡܘܬ	-11.1237
ܨܘܡ	-11.1242
ܕܥܝܢ	-11.1243
ܕܡܬܚܙ	-11.1243
ܘܗܒ	-11.1245
ܕܡܤܒܪ	-11.1247
ܘܒܫ	-11.1249
ܬܓܪ	-11.1263
ܐܬܩܪܒ	-11.1266
ܕܚܟܝܡ	-11.1269
ܕܡܫܡܫ	-11.1273
ܕܒܪܟ	-11.1291
ܘܫܪܝܪܐ	-11.1293
ܘܠܒܪ	-11.1307
ܡܠܟܘ	-11.131
ܓܠܝܬ	-11.1339
ܘܓܠ	-11.1339
ܒܐܬܘ	-11.1341
ܕܐܟ	-11.1356
ܩܒܠܢ	-11.1365
ܬܫܡܫܬܗ	-11.1377
ܘܥܤܪ	-11.1377
ܨܠܡ	-11.1378
ܫܛܝܘܬ	-11.1392
ܕܡܥܕ	-11.1396
ܫܪ	-11.1398
ܕܗܘܝܬ	-11.141
ܘܒܤܪ	-11.1411
ܒܡܕܝܢܬܗ	-11.1415
ܕܡܨܠ	-11.143
ܘܐܒ	-11.1432
ܘܬܫܡܫܬ	-11.1445
ܩܪܩܦܬ	-11.1446
ܚܘܝܘ	-11.1464
ܢܦ	-11.1467
ܢܤܝܒܪ	-11.1477
ܛܪܦ	-11.1481
ܝܬܪ	-11.1488
ܡܤܬܟܠ	-11.1497
ܤܡܘ	-11.1498
ܩܝܢ	-11.1516
ܠܡܫܐܠ	-11.1518
ܩܘܪܝܢ	-11.1519
ܩܪܢܬ	-11.1533
ܙܕܝܩ	-11.154
ܐܠܗܗ	-11.1544
ܒܚܠܡ	-11.1581
ܕܡܟܪܙ	-11.1585
ܕܡܩܘ	-11.1587
ܥܩ	-11.1596
ܤܦ	-11.1611
ܫܪܪܗ	-11.1613
ܐܚܙܝܟ	-11.1614
ܠܟܐܢܘ	-11.1623
ܘܩܪܘ	-11.1631
ܕܪܘܓܙ	-11.1633
ܩܕܫ	-11.1654
ܘܠܚܡ	-11.1664
ܡܦܢ	-11.1669
ܐܬܟܬܒ	-11.1675
ܘܕܚܠܬ	-11.1682
ܦܪܕ	-11.1688
ܛܫܝ	-11.1717
ܩܘܪ	-11.1731
ܡܨܚ	-11.1733
ܝܠܝܕ	-11.1737
ܩܘܝ	-11.174
ܓܘ	-11.1742
ܫܬܒܩ	-11.1743
ܒܝܗܘܕ	-11.1744
ܕܡܠܦ	-11.1747
ܡܦܝܤ	-11.1751
ܒܓܢ	-11.1759
ܕܐܫܟܚ	-11.1778
ܝܡܬܐ	-11.1784
ܨܘܪ	-11.1789
ܓܠܝܢ	-11.1804
ܐܕܪܟ	-11.1817
ܘܤܓܕ	-11.1817
ܢܟܤ	-11.1823
ܬܦܪܫ	-11.1825
ܡܤܒ	-11.1829
ܡܟܟ	-11.183
ܫܛ	-11.183
ܦܚ	-11.1841
ܒܠܥܕ	-11.1845
ܢܫܬܪ	-11.186
ܤܘܥܪܢ	-11.1863
ܪܗܘܡ	-11.1866
ܕܢܫܩ	-11.1867
ܐܤܟܡ	-11.1885
ܒܐܤܘܪ	-11.1895
ܐܤܛܦܢ	-11.1901
ܐܡܝܪ	-11.1908
ܐܫܬܕܪ	-11.1914
ܬܚܠܡ	-11.1921
ܕܩܒܠܘ	-11.1931
ܚܛܦ	-11.194
ܘܚܕܪ	-11.1964
ܫܒܩܢ	-11.1972
ܢܚܬܝ	-11.1978
ܠܡܐܤܝܘ	-11.1978
ܐܫܬܪܝ	-11.198
ܠܕܘܟܪܢ	-11.1984
ܐܤܛܘܟܤ	-11.1984
ܒܛܘܫܝ	-11.1984
ܛܘܦܤ	-11.1985
ܡܫܬܒܚ	-11.1985
ܐܤܛܠ	-11.1985
ܤܚܦ	-11.1985
ܓܚܟ	-11.1985
ܦܘܪܫܢ	-11.1986
ܩܘܦܝ	-11.1986
ܙܗܝܪ	-11.1986
ܛܘܦܢ	-11.1986
ܡܓܥܠ	-11.1986
ܚܫܝܒ	-11.1986
ܬܓܕܦ	-11.1987
ܬܚܦܝ	-11.1987
ܠܡܤܒܪ	-11.199
ܥܒܘܕ	-11.199
ܥܦܪ	-11.1991
ܫܟܒ	-11.1991
ܦܫܝܛܐ	-11.1991
ܤܬܪܩ	-11.1991
ܐܤܛܪܛ	-11.1992
ܗܪܛ	-11.1993
ܒܙܩ	-11.1994
ܐܫܬܒܚ	-11.1997
ܬܫܐܠܘܢ	-11.1997
ܬܐܟܠܘ	-11.2
ܬܬܠ	-11.2002
ܕܐܙܕܩܦ	-11.2021
ܘܐܤܩ	-11.2023
ܥܪܘܒ	-11.203
ܕܬܚܒ	-11.2031
ܬܫܟܚܘܢ	-11.2031
ܥܘܦ	-11.2032
ܚܡܤܢ	-11.2037
ܩܝܬܪ	-11.2039
ܢܤܬܟܠܘܢ	-11.2041
ܕܐܬܡܠܠ	-11.2041
ܐܬܐܤܝ	-11.2042
ܕܢܐܚܕܘܢ	-11.2042
ܠܡܩܒܠܘ	-11.2058
ܘܥܝܢ	-11.2061
ܕܡܛܫܝ	-11.2063
ܕܐܡܝܪ	-11.2065
ܕܢܕܘܢ	-11.2074
ܡܬܕܒܪܝܢ	-11.2079
ܘܦܛ	-11.208
ܬܪܓܡ	-11.208
ܥܝܢܝ	-11.2084
ܒܥܢ	-11.2085
ܛܪܘܢ	-11.2092
ܐܟܐܝ	-11.2092
ܚܛܘ	-11.2093
ܫܬܐܤ	-11.2093
ܟܝܤ	-11.2095
ܕܢܫܐܠܘܢ	-11.2098
ܫܬܥܒܕܘ	-11.2102
ܦܪܗ	-11.2107
ܡܒܕܪ	-11.2108
ܠܫܘܩ	-11.2111
ܠܪܓܝܓܬ	-11.2111
ܡܬܬܩܠ	-11.2114
ܢܤܒܪ	-11.2114
ܘܟܪܟ	-11.2115
ܐܬܚܫܚ	-11.2116
ܘܢܫܩ	-11.2117
ܕܐܟܐܝ	-11.2117
ܡܠܟܝܗ	-11.2122
ܕܠܩܘܒܠ	-11.2123
ܕܩܨܝ	-11.2125
ܠܒܥܠܝ	-11.2127
ܒܢܤܝܘܢ	-11.2135
ܕܢܥܠܘܢ	-11.2135
ܕܢܫܕܪ	-11.2154
ܘܕܪ	-11.2156
ܕܝܗܝܒ	-11.2159
ܘܪܓܡ	-11.2162
ܕܡܬܚܒܠ	-11.2173
ܩܠܝ	-11.2176
ܝܗܒܘ	-11.2176
ܢܫܬܡܥ	-11.2178
ܐܪܛܡ	-11.2181
ܕܐܘܪ	-11.2184
ܘܡܐܤ	-11.2193
ܒܬܘܕܝܬ	-11.2194
ܡܐܤ	-11.2196
ܚܓܝܪ	-11.2199
ܢܓܢ	-11.2201
ܐܕܢܗ	-11.2211
ܐܪܒܥܬ	-11.2217
ܬܢܤ	-11.224
ܡܚܘܝܢ	-11.224
ܡܦܤܝܢ	-11.2241
ܕܢܨܒ	-11.2244
ܕܚܒܠ	-11.2244
ܟܢܘܫ	-11.2259
ܒܦܠܓ	-11.2262
ܕܒܟܝܢ	-11.2267
ܬܚܒܠ	-11.2284
ܪܕܝܤ	-11.2287
ܒܠܒܟ	-11.2289
ܥܘܗܕܢ	-11.2297
ܩܨܝ	-11.2298
ܘܬܫܬ	-11.2298
ܕܘܢܘ	-11.2299
ܓܠܝܘܬ	-11.23
ܘܦܪܘܩ	-11.2314
ܕܬܫܐܠ	-11.2324
ܠܦܠܚ	-11.2326
ܘܐܩܝܡܘ	-11.2327
ܕܢܥܒܪ	-11.233
ܗܕܡܝܟ	-11.2331
ܢܬܒ	-11.2334
ܩܒܘ	-11.2335
ܕܐܚܝܕܝܢ	-11.2336
ܛܘܠ	-11.2337
ܪܒܘ	-11.2353
ܘܐܬܚܫܒ	-11.2353
ܕܫܦܪ	-11.2362
ܕܡܚܝܠ	-11.2364
ܡܥܤܪ	-11.2373
ܕܙܩܝܦ	-11.2382
ܠܡܠܟ	-11.2384
ܪܚܝ	-11.2386
ܘܬܚܙܘܢ	-11.2386
ܪܘܚܢܝ	-11.2407
ܒܝܘܡܝ	-11.2412
ܐܬܬܓܪ	-11.2415
ܕܐܒܘ	-11.2427
ܒܤܝܡܘܬܗ	-11.2428
ܪܓܡ	-11.2428
ܘܗܝܡܢܘܬ	-11.2429
ܢܫܒܚ	-11.2432
ܒܠܥ	-11.2435
ܘܒܝܘܠܦܢ	-11.2436
ܢܫܬܐ	-11.2437
ܕܐܬܟܢ	-11.2454
ܬܩܪ	-11.2455
ܢܫܝܟ	-11.2464
ܐܝܬܝܘ	-11.2469
ܐܬܐܤܝܬ	-11.2471
ܒܓܙܘܪܬ	-11.2486
ܘܟܘܟܒ	-11.2514
ܒܩܪ	-11.252
ܕܙܕܝܩ	-11.2525
ܘܡܛܝ	-11.2525
ܡܕܥ	-11.253
ܒܤܒܪܬ	-11.2535
ܒܘܪܟܝ	-11.2536
ܘܒܗܝܡܢܘܬ	-11.2537
ܡܥܗܕ	-11.2547
ܠܤܒܪܬ	-11.2551
ܘܩܒܠ	-11.2561
ܤܠܩܝܢ	-11.2563
ܐܬܪܡܝ	-11.2568
ܠܡܪ	-11.2569
ܪܕܘ	-11.2579
ܘܪܓܠ	-11.2591
ܚܘܪܘ	-11.2593
ܛܘܗܡܗ	-11.2593
ܐܩܝܡܟ	-11.26
ܕܡܘܪ	-11.2602
ܚܨܝܟ	-11.2622
ܦܪܬ	-11.2638
ܠܡܚ	-11.2639
ܕܚܩ	-11.2641
ܢܠܦ	-11.2647
ܨܗ	-11.2651
ܥܛܠ	-11.2653
ܘܒܡ	-11.2681
ܥܪܩܬ	-11.2683
ܘܫܕ	-11.2689
ܠܫܘܒܚ	-11.27
ܠܒܫܘ	-11.2701
ܨܦܬ	-11.2703
ܕܫܬܐ	-11.2706
ܕܫܕܪܬ	-11.2708
ܥܡܕܘ	-11.2709
ܬܓܢ	-11.2711
ܟܪܟ	-11.2715
ܕܐܤܬ	-11.2719
ܐܬܕܒܪ	-11.272
ܠܢܦܫܟ	-11.2723
ܕܐܡܗ	-11.2726
ܟܘܡܪܘܬ	-11.2728
ܛܥ	-11.273
ܟܢܫܘ	-11.2738
ܘܐܡܗ	-11.2742
ܦܘܡܟ	-11.2756
ܨܠ	-11.2762
ܕܡܘܗܒܬ	-11.2773
ܬܓܙܪ	-11.2777
ܝܘܩܪ	-11.2777
ܠܐܝܤ	-11.2783
ܒܬܐܪܬ	-11.2785
ܘܚܡ	-11.2794
ܐܠܒܫ	-11.2803
ܘܥܪܩ	-11.2814
ܬܦܩ	-11.2815
ܡܫܬܕ	-11.2822
ܘܢܫܟܚ	-11.2827
ܫܥܒܕ	-11.2832
ܕܢܕܒܪ	-11.2842
ܒܕܪ	-11.2852
ܚܪܘ	-11.2853
ܠܟܪܤ	-11.2856
ܫܩܝܠܝܢ	-11.287
ܥܠܘܒ	-11.2871
ܠܛܪ	-11.2873
ܘܡܦܩ	-11.2878
ܡܨܥ	-11.2879
ܘܠܘ	-11.2892
ܬܒܩܘ	-11.2893
ܘܡܤܟ	-11.2908
ܬܛܥܡ	-11.2909
ܕܪܥܝܢ	-11.2911
ܘܬܒܥ	-11.2914
ܕܢܫܐܠ	-11.2917
ܡܬܗ	-11.2934
ܘܪܒ	-11.295
ܘܫܪܝܪ	-11.2951
ܘܡܤ	-11.2956
ܦܠܓܘ	-11.296
ܢܬܚܙ	-11.2963
ܕܐܝܬܝܟ	-11.2968
ܘܩܡܬ	-11.2982
ܕܡܩܒܠ	-11.2986
ܕܒܬܪܗ	-11.2995
ܢܠܒܫ	-11.2996
ܘܙܢܝ	-11.2996
ܬܪܝܡ	-11.3002
ܬܩܒܠ	-11.302
ܗܘܦܟܝ	-11.3027
ܘܦܠ	-11.3029
ܠܓܐ	-11.304
ܐܡܟ	-11.3052
ܒܒܥܠ	-11.3055
ܝܬܝܪܘܬ	-11.3064
ܫܕܪܢ	-11.3076
ܬܬܩܪ	-11.308
ܗܪܝܢ	-11.3082
ܬܩܛܠܘ	-11.3086
ܡܥܩܡ	-11.3089
ܘܡܬܩܪ	-11.3094
ܘܟܪܝܬ	-11.3095
ܕܡܪܝܡ	-11.3106
ܢܬܦܢ	-11.3113
ܘܦܠܓ	-11.3119
ܕܠܒܢܝ	-11.3138
ܬܦܤܩ	-11.3142
ܕܥܓܠ	-11.3149
ܫܒܝܠ	-11.3174
ܝܠܦܬ	-11.3196
ܪܤ	-11.3218
ܐܫܬܘ	-11.3231
ܒܚܫ	-11.3259
ܘܢܘܗܪ	-11.3259
ܘܤܡܝ	-11.3265
ܐܬܩܛܠ	-11.3266
ܘܫܠܝܛ	-11.3268
ܙܢܝܘ	-11.3288
ܡܥܪܒ	-11.3291
ܕܒܡ	-11.3292
ܛܦ	-11.3293
ܩܕܝܫܘܬ	-11.3295
ܕܬܥܒܕ	-11.3307
ܬܛܝܒ	-11.3307
ܕܢܬܚܙ	-11.3324
ܐܝܬܝܟ	-11.334
ܕܩܢ	-11.3357
ܢܘܒܕܝ	-11.3375
ܫܬܩܘ	-11.3381
ܘܓܪ	-11.3403
ܕܚܕܪܝܗ	-11.3406
ܘܕܚܝ	-11.341
ܕܒܚܝ	-11.341
ܪܘܝܘ	-11.3413
ܕܚܝܝܢ	-11.3461
ܙܕܒܢ	-11.3466
ܒܤܒܪ	-11.3472
ܡܤܝܒܪ	-11.3485
ܕܐܫܬ	-11.3488
ܘܒܚܝ	-11.3488
ܠܙܢܝ	-11.3493
ܘܠܒ	-11.3499
ܕܠܡܢ	-11.3503
ܩܫܝ	-11.3507
ܕܪܘ	-11.351
ܢܪܚܡ	-11.3522
ܬܘܠܬ	-11.3553
ܘܤܛ	-11.3556
ܡܫܬܘܬܦ	-11.3558
ܬܥܤܪ	-11.3578
ܘܟܐܦ	-11.3588
ܕܐܬܐܤܝ	-11.3588
ܬܠܡܕ	-11.3589
ܡܤܟ	-11.3591
ܢܗܝܪ	-11.3594
ܕܐܬܠ	-11.3603
ܕܕܚܠܬ	-11.3618
ܕܐܪܒܥ	-11.3618
ܘܡܫܒܚ	-11.3627
ܕܟܐܢ	-11.3637
ܘܥܠܘ	-11.364
ܒܐܓܪܬ	-11.3641
ܘܡܩܒܠ	-11.3644
ܐܠܟܤܢܕܪ	-11.3659
ܥܪܛܠ	-11.3674
ܘܒܚܕ	-11.3683
ܘܝܗܒܘ	-11.3683
ܘܠܬܐ	-11.3691
ܡܨܠܝ	-11.3693
ܤܒܠ	-11.3701
ܫܐܠܬ	-11.3714
ܕܢܒܥ	-11.3718
ܚܙܝܬܘܢ	-11.3734
ܘܢܓܕ	-11.3748
ܚܘܒܟ	-11.3762
ܠܐܒܗܝ	-11.3764
ܒܟܐ	-11.3773
ܢܨܒ	-11.3773
ܥܒܪܘ	-11.3797
ܐܬܬܤܝܡ	-11.3817
ܠܙܒܢ	-11.383
ܡܦܘܠ	-11.3833
ܪܕܦܘ	-11.3836
ܠܐܪܒܥ	-11.3845
ܕܛܥ	-11.3853
ܢܩܫ	-11.3855
ܓܘܫܡ	-11.3859
ܢܡܝܬܘܢ	-11.3868
ܐܤܬܡܟ	-11.3874
ܤܘܛ	-11.3876
ܡܬܒܥܝ	-11.3896
ܐܫܬܥܝ	-11.39
ܒܘܩܝ	-11.3905
ܤܥܪܝܢ	-11.3925
ܡܫܬܒܩ	-11.3927
ܒܤܬܪܗ	-11.3934
ܚܦܛ	-11.3938
ܝܫܝ	-11.3942
ܚܕܪܝ	-11.3953
ܪܕܦܝܢ	-11.3961
ܐܚܒܢ	-11.3966
ܘܩܦ	-11.3972
ܬܫܢܝܩ	-11.3976
ܘܦܐܪ	-11.3981
ܐܨܛܪܝ	-11.3984
ܬܦܫܚ	-11.3984
ܓܡܘܪ	-11.3984
ܦܪܘܓܝ	-11.3984
ܛܠܢܝܬ	-11.3985
ܘܐܫܬܓܫ	-11.3985
ܡܬܛܦܝܤܢܘܬ	-11.3987
ܐܬܟܤܝ	-11.3987
ܬܪܓܪܓܘ	-11.3988
ܘܐܫܬܟܚ	-11.3988
ܙܩܘܦ	-11.3989
ܪܩܕܬ	-11.3992
ܪܘܙ	-11.3993
ܦܪܘܫ	-11.3995
ܢܬܟܫܠ	-11.3997
ܡܫܠܛ	-11.3997
ܟܪܤܛܝ	-11.3997
ܪܒܝܥܝ	-11.4002
ܬܩܢܘ	-11.4003
ܐܢܢܩ	-11.4003
ܪܚܒ	-11.4005
ܢܓܗ	-11.4005
ܕܢܩܛܘܠ	-11.4008
ܥܘܩܤ	-11.4014
ܢܩܒܬ	-11.4014
ܒܫܝܘ	-11.4015
ܡܟܬܪ	-11.4017
ܚܓܝܤ	-11.402
ܬܬܕܡܪ	-11.4021
ܐܦܦܪ	-11.4022
ܡܥܒܕܢ	-11.4023
ܠܡܦܕܝ	-11.4023
ܚܡܝܡ	-11.4028
ܒܨܘܪ	-11.4028
ܕܢܦܪܩ	-11.4029
ܒܟܪܤ	-11.4029
ܐܤܦܪܝܕ	-11.403
ܢܙܩܦܘܢ	-11.404
ܕܐܪܝܘ	-11.404
ܐܫܬܘܕܥܘ	-11.4041
ܘܬܟ	-11.4046
ܡܬܙܝܥ	-11.4054
ܡܬܝܠܕ	-11.4063
ܬܐܚܕܘܢ	-11.4065
ܒܚܨ	-11.4069
ܢܓܕܦ	-11.4069
ܒܢܬ	-11.407
ܚܬܡ	-11.4073
ܕܢܝܬܘܢ	-11.4077
ܕܡܚ	-11.408
ܒܚܤܝܪܘܬ	-11.4081
ܕܡܬܟܢܫ	-11.4083
ܤܩܘ	-11.4084
ܡܨܥܪ	-11.4084
ܢܐܪܬ	-11.4085
ܕܨܘܪ	-11.409
ܕܫܒܩ	-11.4096
ܠܠܘܝ	-11.4099
ܕܬܬܡܠ	-11.4103
ܕܚܕܪܝ	-11.4105
ܡܩ	-11.4106
ܕܩܕܡܝ	-11.4109
ܕܐܫܬܒܗܪ	-11.4121
ܘܪܘܙ	-11.4121
ܕܝܠܕܬ	-11.4123
ܚܕܪܘܗ	-11.4128
ܕܫܪܝ	-11.413
ܘܐܤܗܕ	-11.4135
ܬܚܛ	-11.4135
ܕܛܠܡ	-11.414
ܡܬܢܤ	-11.414
ܠܫܘܒܩܢ	-11.4141
ܘܡܙܒܢ	-11.4152
ܐܤܬܒܪ	-11.4165
ܕܢܦܫ	-11.4168
ܕܢܐܟܠ	-11.4171
ܠܬܚܘ	-11.4172
ܘܐܩܦ	-11.4173
ܢܬܪܥ	-11.4187
ܕܡܘܒܠ	-11.4188
ܢܫܕܪ	-11.4191
ܡܬܐܡܪ	-11.4192
ܟܬܪ	-11.4193
ܒܠܘ	-11.4194
ܘܐܬܪܡܝ	-11.4198
ܢܬܩܛܠ	-11.4207
ܢܤܐ	-11.4209
ܠܥܢܝ	-11.4212
ܘܡܬܟܪܟ	-11.4215
ܘܐܫܬܘܕܥܘ	-11.422
ܕܐܟܪܙ	-11.4223
ܐܬܐܠܨ	-11.4224
ܫܬܩ	-11.4228
ܡܒܪܟܝܢ	-11.4231
ܕܢܩܒܠܘܢ	-11.4234
ܕܒܪܝ	-11.4238
ܕܢܛܪܘܢ	-11.424
ܕܡܛܐ	-11.4241
ܦܚܡ	-11.4244
ܕܚܝܠܬܢ	-11.4249
ܘܫܘܒܚ	-11.4253
ܪܚܝܩܝܢ	-11.4271
ܢܘܕܥ	-11.4277
ܦܢܛ	-11.428
ܢܫܬܘ	-11.4282
ܐܩܝܡܘ	-11.4285
ܕܪܥܝ	-11.4302
ܕܬܝܒܘܬ	-11.4306
ܬܤܗܕ	-11.4307
ܘܪܓܬ	-11.4308
ܫܚܩ	-11.4315
ܕܡܤܝܒ	-11.4316
ܢܙܒܢ	-11.4323
ܦܬܝ	-11.4323
ܢܪܡ	-11.4324
ܚܫܚܬ	-11.4326
ܬܩܝܡ	-11.4328
ܬܬܒܥ	-11.4333
ܬܘܠܡ	-11.4333
ܕܠܫܢ	-11.4334
ܪܘܚܢܐ	-11.4334
ܠܡܕܟܝܘ	-11.4342
ܒܩܕܝܫܘ	-11.4344
ܡܫܬܝ	-11.4345
ܐܬܩܒܪ	-11.4346
ܒܫܢܬ	-11.4347
ܒܩܪܝܢ	-11.4356
ܕܢܛܪܝܢ	-11.4356
ܠܩܫܝܫ	-11.4361
ܡܥܝܢ	-11.4375
ܘܐܤܬܡܟ	-11.4377
ܫܢܝܗ	-11.4378
ܕܐܪܙ	-11.4381
ܐܬܟܪܟܘ	-11.439
ܘܓܘܕܦ	-11.4397
ܘܫܕܝܗ	-11.4398
ܕܟܦܪ	-11.4408
ܒܒܥܘܬ	-11.4411
ܢܚܛ	-11.4417
ܕܒܥܠܕܒܒ	-11.4418
ܘܒܛܠ	-11.4424
ܕܦܠܓ	-11.4426
ܐܬܕܟ	-11.4433
ܘܡܤܒܪܝܢ	-11.4434
ܕܗܝܡܢ	-11.444
ܬܕܒܪ	-11.4442
ܕܪܗܛ	-11.4444
ܕܟܦܢ	-11.4446
ܡܟܤܝ	-11.4458
ܘܡܗܠܟ	-11.4465
ܐܬܦܪܫ	-11.4471
ܫܩܠܘ	-11.4473
ܚܝܒܘܬ	-11.4483
ܕܡܟܤ	-11.4499
ܒܐܦܝ	-11.4502
ܬܬܕܝܢ	-11.4517
ܘܡܬܚܫܒ	-11.4524
ܘܒܕܚܠܬ	-11.4525
ܕܒܙܒܢ	-11.4534
ܕܢܗܪ	-11.4535
ܠܓܠܝܢ	-11.4536
ܘܕܐܪܒܥ	-11.4548
ܛܘܟ	-11.4561
ܪܥܝܢܝ	-11.4563
ܡܬܟܢܫ	-11.4573
ܫܬܪܪ	-11.4577
ܘܚܤܡ	-11.4578
ܕܤܒܪܝܢ	-11.4583
ܘܐܒܗܬ	-11.4587
ܕܫܝ	-11.4588
ܠܦܝܠ	-11.459
ܡܙܕܒܢ	-11.4591
ܕܐܒܕܢ	-11.4591
ܐܥܡܕܬ	-11.4591
ܕܛܘܪ	-11.4592
ܐܫܬܟܚܬ	-11.4602
ܕܐܚܒܢ	-11.4605
ܝܫ	-11.4612
ܠܒܤܪ	-11.4613
ܘܠܡܫܪ	-11.4614
ܕܓܡܝܪ	-11.4615
ܕܟܪܡ	-11.4617
ܘܡܤܒܪ	-11.4619
ܢܪܓ	-11.4632
ܕܡܐܬ	-11.4633
ܘܐܒܘܟ	-11.4641
ܘܕܝ	-11.4643
ܠܨܒܝܢܗ	-11.4644
ܤܝܢܝ	-11.4676
ܡܘܬܗ	-11.4678
ܕܐܒܗܝ	-11.4686
ܘܗܒܘ	-11.4687
ܤܟܠܘܬܗ	-11.4698
ܪܢܝܢ	-11.4703
ܐܘܠܨܢܝ	-11.4723
ܙܘܙ	-11.4728
ܕܓܢܒ	-11.4733
ܕܐܫܠܡܬ	-11.4754
ܢܬܡܠ	-11.4766
ܘܬܪܝ	-11.4772
ܘܤܪܝܩ	-11.4774
ܕܫܪܒܬ	-11.4774
ܢܩܪܒܘܢ	-11.479
ܒܥܘܪܠܘܬ	-11.4796
ܘܐܟܠܬ	-11.4803
ܘܤܥܪ	-11.4833
ܘܠܥܤ	-11.4842
ܡܦܝܤܝܢ	-11.4844
ܤܝܡܘ	-11.4852
ܘܒܟܠܗ	-11.4853
ܒܥܘܬ	-11.4859
ܘܦܬܚ	-11.4875
ܒܡܘܗܒܬ	-11.4877
ܒܪܝܫ	-11.4897
ܢܬܩܪܒ	-11.4924
ܘܦܪܩ	-11.4925
ܡܬܢܒܝܢ	-11.4944
ܬܝܬܘܢ	-11.4957
ܢܟܤܝ	-11.4966
ܠܢܦܫܬ	-11.4981
ܒܐܤܛ	-11.4985
ܕܤܐܡ	-11.4988
ܘܡܥܩ	-11.4999
ܐܚܒ	-11.5001
ܐܬܛܦܝܤ	-11.5015
ܘܢܩܦ	-11.5028
ܪܢܝܐ	-11.5057
ܘܒܪܘܚ	-11.5076
ܠܐܚܝܟ	-11.5087
ܕܕܡܟ	-11.5089
ܘܐܚܬ	-11.5092
ܩܛܠܝ	-11.5093
ܢܝܩܪ	-11.5095
ܙܠܝܢ	-11.5104
ܘܐܘܕܥ	-11.5109
ܐܘܒܕ	-11.5122
ܘܫܒܘܩ	-11.5125
ܘܩܪܒܬ	-11.5136
ܘܪܝܫ	-11.5145
ܒܥܝܢܝ	-11.5145
ܬܠܘ	-11.5152
ܚܫܟ	-11.5153
ܙܘܪ	-11.5154
ܢܦܬܚ	-11.5162
ܤܘܟܠ	-11.5169
ܤܟܠܬ	-11.5182
ܠܡܚܙܝ	-11.5193
ܘܡܨܠ	-11.5204
ܡܬܩܪܝ	-11.5207
ܒܚܛܗ	-11.5236
ܠܡܒܥ	-11.5236
ܢܥܒܪܢ	-11.5245
ܦܬܘܪܗ	-11.5251
ܦܫ	-11.5252
ܤܒܪܢ	-11.5264
ܕܪܬ	-11.5275
ܫܒܘܩܝ	-11.5276
ܕܒܟ	-11.5299
ܕܢܪܡ	-11.5306
ܩܪܘ	-11.5308
ܠܡܟܝܟ	-11.5322
ܒܡܩܕ	-11.5333
ܫܕܪܘ	-11.5333
ܥܪܤܗ	-11.534
ܡܨܪ	-11.5351
ܡܬܚܪ	-11.5362
ܕܝܫ	-11.5364
ܟܪܤܗ	-11.5365
ܕܬܫ	-11.5371
ܠܡܦܩܘ	-11.5385
ܬܬܚܝܒ	-11.5398
ܕܝܩ	-11.5424
ܬܤܝܡ	-11.544
ܕܢܪܕ	-11.5472
ܢܫܟܚܝ	-11.55
ܬܪܗܒ	-11.5506
ܢܝܚܘ	-11.5514
ܕܫܩܝܠ	-11.5516
ܘܫܡܗ	-11.552
ܕܫܠܝܛ	-11.5521
ܒܐܒܝ	-11.5523
ܠܚܒܪ	-11.5548
ܒܢܟܠ	-11.555
ܘܥܠܬ	-11.5555
ܐܘܕܥ	-11.5555
ܠܤܦܪ	-11.5575
ܒܟܢܫ	-11.5592
ܐܫܬܥܒܕ	-11.5594
ܡܥܠܢ	-11.5608
ܘܐܫܬܡܥ	-11.5623
ܘܐܟܪܙ	-11.5624
ܘܠܠ	-11.5657
ܘܚܡܫ	-11.5659
ܘܚܪܬ	-11.566
ܒܐܘܪܝ	-11.5662
ܕܓܘ	-11.5667
ܨܝܢ	-11.5668
ܬܩܫ	-11.5686
ܕܤܢܝܩ	-11.5686
ܠܟܪܡ	-11.5689
ܟܬܒܝܢ	-11.5703
ܡܩܘܝ	-11.5709
ܕܡܦܩ	-11.5718
ܐܦܩܬ	-11.5726
ܘܐܒܐ	-11.5729
ܢܗܦܟ	-11.5729
ܢܓܕܗ	-11.5736
ܕܬܫܬ	-11.5747
ܘܡܦܝܤ	-11.5778
ܨܪܝܢ	-11.5781
ܘܒܪܬ	-11.5786
ܡܬܟܫܠ	-11.5794
ܚܨܝ	-11.5795
ܕܐܬܚܙܝ	-11.5816
ܬܘܬܪ	-11.582
ܘܐܫܬ	-11.5822
ܤܠܘܢ	-11.5823
ܬܝܗܝ	-11.5837
ܕܡܗܠܟ	-11.5866
ܢܦܪܫ	-11.5874
ܠܡܕܒܪ	-11.5882
ܠܐܤܘܪ	-11.5897
ܕܤܗܕܘܬ	-11.59
ܫܚܢ	-11.5902
ܬܩܦ	-11.5915
ܒܚܪ	-11.5917
ܢܟܦܢ	-11.5927
ܬܦܠܓ	-11.5948
ܕܕܪ	-11.5955
ܘܕܟܠܗ	-11.5965
ܘܡܤܝܒܪܢܘܬ	-11.599
ܪܝܡܘ	-11.5995
ܡܥܪ	-11.6031
ܡܫܓ	-11.6032
ܕܐܘܠܨܢ	-11.6041
ܠܛܝܒܘܬ	-11.6043
ܝܬܒܬ	-11.6049
ܘܥܪܒ	-11.6056
ܡܕܥܝ	-11.6113
ܢܥܡܕ	-11.6113
ܐܫܬܘܕܥ	-11.6121
ܘܒܘܪܟ	-11.6124
ܡܬܪ	-11.6124
ܕܡܬܪܥ	-11.6139
ܬܫܒܚ	-11.6156
ܘܡܠܦܢ	-11.616
ܕܙܝ	-11.6167
ܡܩܕܡ	-11.6169
ܘܠܟܠ	-11.6197
ܥܗܕܘ	-11.6201
ܙܪܥܟ	-11.6209
ܕܫܘܝ	-11.6209
ܘܪܤ	-11.621
ܡܬܕܡ	-11.623
ܬܚܦܛ	-11.6234
ܠܬܪܥ	-11.6245
ܦܗ	-11.625
ܐܬܓܡܪ	-11.625
ܓܝܢ	-11.6278
ܐܬܓ	-11.6282
ܢܩܛܠܘܢ	-11.6283
ܕܠܒܢܝܢ	-11.6283
ܛܢܝܢ	-11.6284
ܬܬܩܠ	-11.6308
ܬܫܟܚ	-11.6319
ܪܪܟ	-11.6321
ܡܨܒܬ	-11.6341
ܕܐܬܦܩܕ	-11.6342
ܢܟܤܬ	-11.6363
ܐܬܚܝܠ	-11.6371
ܚܒܬ	-11.6381
ܠܦܝ	-11.6382
ܦܛ	-11.6389
ܠܡܬܒ	-11.6393
ܒܚܪܘ	-11.6394
ܐܫܬܘܕܝ	-11.6395
ܦܤܩܘ	-11.6399
ܡܪܥܝܬ	-11.64
ܡܬܐܤܝ	-11.6404
ܓܢܤ	-11.6411
ܡܚܘܝ	-11.6414
ܥܪܒܝ	-11.6415
ܘܒܠܥ	-11.6418
ܡܬܦܠܓ	-11.642
ܫܫܠ	-11.6421
ܘܡܬܝ	-11.6425
ܟܪܘܙ	-11.6432
ܐܘܡܢܘܬܗ	-11.6441
ܘܡܫܘ	-11.6445
ܕܙܠ	-11.6446
ܐܙܕܕܩ	-11.6452
ܘܐܚܝܕ	-11.6457
ܚܬܝܪ	-11.6457
ܘܢܚܬܘ	-11.6464
ܫܦܝ	-11.647
ܢܐܚܕܘܢ	-11.6476
ܠܐܒܘܗ	-11.6481
ܐܝܙܓܕ	-11.6484
ܓܪܝܨ	-11.6484
ܕܙܪܝܥ	-11.6484
ܡܫܬܟܚ	-11.6484
ܬܟܫܦ	-11.6484
ܕܦܩܝܕ	-11.6484
ܦܫܝܓ	-11.6484
ܡܬܪܓܪܓ	-11.6484
ܩܦܚܝܢ	-11.6484
ܩܛܓܪܢ	-11.6485
ܛܝܡܝ	-11.6485
ܬܬܥܝܩ	-11.6485
ܟܢܘܬܗ	-11.6485
ܒܛܟܤ	-11.6485
ܡܬܬܢܝܚ	-11.6485
ܕܐܤܠܝܘ	-11.6485
ܙܕܘܓ	-11.6485
ܠܓܝܘܢ	-11.6485
ܙܩ	-11.6486
ܐܬܟܪܗ	-11.6487
ܫܡܘܥ	-11.6488
ܬܪܘܨ	-11.6488
ܡܪܥܬ	-11.6489
ܕܢܬܩܢ	-11.6489
ܟܘܠܬܢ	-11.6491
ܕܢܬܢܛܪ	-11.6491
ܕܤܓ	-11.6492
ܡܬܬܢܚ	-11.6492
ܘܐܬܪܥܝ	-11.6492
ܚܒܢܢ	-11.6493
ܦܟܝܗ	-11.6493
ܢܫܩܠܘܢ	-11.6493
ܢܬܡܟܟ	-11.6493
ܘܢܚܝܒܘܢ	-11.6493
ܬܗܝܪ	-11.6495
ܦܠܝܓ	-11.6495
ܤܠܡܘܢ	-11.6499
ܐܬܚܪܪܬ	-11.6499
ܡܬܐܠܨܝܢ	-11.6504
ܐܬܕܡܝܬ	-11.6504
ܡܤܬܥܪ	-11.6504
ܠܒܝ	-11.6505
ܢܬܚܠܦ	-11.6506
ܩܝܛ	-11.6515
ܓܙܝܪ	-11.6516
ܡܫܬܘܕܥܝܢ	-11.6517
ܕܢܟܪܙ	-11.6522
ܢܬܬܤܝܡ	-11.6523
ܩܐܪܤ	-11.6525
ܟܤܝܢ	-11.6526
ܕܐܚܒܬ	-11.6527
ܬܫܬܘܬܦ	-11.653
ܥܪܛܠܝ	-11.6533
ܠܚܤܝܪܘܬ	-11.6534
ܚܠܨ	-11.6535
ܐܘܩܝܢ	-11.6535
ܕܢܓܠ	-11.6536
ܒܤܘܥܪܢ	-11.6537
ܡܬܬܘܤܦ	-11.6541
ܬܬܟܤ	-11.6543
ܪܩܘܢ	-11.6547
ܒܗܕܡܝ	-11.6548
ܠܡܫܠܡܘ	-11.6552
ܢܩܛܪܓܘܢ	-11.6553
ܓܪܓ	-11.6553
ܢܫܘܛ	-11.6557
ܕܡܤܟܠ	-11.6561
ܡܚܪܪ	-11.6563
ܠܡܦܬܚ	-11.6564
ܒܩܢܝ	-11.6567
ܢܦܨܝܢ	-11.6568
ܘܬܩܢܬ	-11.6569
ܢܫܬܘܬܦ	-11.6572
ܒܪܒܘܬ	-11.6574
ܕܢܫܬܥܒܕ	-11.6577
ܢܬܬܢܝܚ	-11.6577
ܕܬܫܟܚ	-11.6578
ܠܡܫܬܘܬ	-11.6582
ܕܡܒܝܐ	-11.6585
ܘܚܢܩ	-11.6587
ܕܢܤܗܕ	-11.6589
ܘܠܕܝܬܒ	-11.6589
ܕܦܢܛ	-11.659
ܒܫܘܠܡ	-11.6591
ܥܫܝܢ	-11.6597
ܒܢܝܟܝ	-11.66
ܕܒܠܒ	-11.6601
ܡܬܝܬܪ	-11.6602
ܐܤܪܘܢ	-11.6606
ܢܬܝܠܕ	-11.6607
ܘܐܬܝ	-11.6607
ܬܐܒܕ	-11.6613
ܕܐܤܛܦܢ	-11.6616
ܡܬܪܤ	-11.6617
ܡܟܬܡ	-11.662
ܘܠܝܬܝܗ	-11.6624
ܡܬܢܒܝ	-11.6626
ܘܐܤܝܪ	-11.6627
ܘܥܪܛܠܝ	-11.6627
ܘܛܥܡ	-11.6627
ܡܬܝܬܪܝܢ	-11.6627
ܡܬܕܝܢܝܢ	-11.6633
ܐܫܬܘܬܦܬ	-11.6635
ܫܘܛ	-11.6636
ܕܛܝܒ	-11.6639
ܘܐܬܚܝܠ	-11.664
ܕܬܩܒܠܘܢ	-11.6641
ܢܚܕܘܢ	-11.6642
ܥܨܝܢ	-11.6643
ܕܢܩܦ	-11.6644
ܢܨܥܪܘܢ	-11.665
ܠܡܕܝܢܬܗ	-11.6652
ܚܤܝܪܘܬ	-11.666
ܤܕܩ	-11.6671
ܬܘܠܥ	-11.6672
ܓܢܬ	-11.6673
ܬܬܕܡ	-11.6676
ܬܟܤܝܬ	-11.6676
ܡܬܒܛܠ	-11.6677
ܚܫܘܒ	-11.6678
ܕܛܢܢ	-11.668
ܡܨܥܪܢ	-11.6701
ܒܚܪܝܢ	-11.6709
ܠܕܪܬ	-11.6714
ܘܥܒܕܝܢ	-11.6718
ܒܩܤܪ	-11.6719
ܒܦܫܝܛܘܬ	-11.6722
ܠܪܗܘܡܝ	-11.6723
ܫܘܚܢ	-11.6726
ܕܐܫ	-11.6726
ܠܩܘ	-11.6728
ܐܚܒܬܟ	-11.6729
ܢܫܡܫܘܢ	-11.673
ܘܡܫܬܥ	-11.6732
ܪܘܒ	-11.6736
ܫܟܝ	-11.6739
ܬܪܢ	-11.674
ܕܠܡܠܐܟ	-11.6742
ܕܛܥܝܢ	-11.6743
ܫܪܘܢ	-11.6745
ܛܥܡ	-11.6746
ܬܥܕܪ	-11.6748
ܒܟܤܦ	-11.6749
ܠܬܢܝܢ	-11.6752
ܘܠܩܫܝܫ	-11.6754
ܒܚ	-11.6757
ܕܢܬܓܠ	-11.6761
ܠܒܥܠܕܒܒܝ	-11.6761
ܡܒܛܠ	-11.6764
ܢܒܤ	-11.6765
ܠܚܨܕ	-11.6765
ܡܬܩ	-11.6769
ܡܬܚܠܡ	-11.6775
ܢܕܪܟ	-11.6776
ܠܬܪܝ	-11.6779
ܡܕܓܠ	-11.678
ܕܐܬܗܝܡܢ	-11.678
ܝܥܢܘܬ	-11.6784
ܘܡܚܪ	-11.6787
ܕܒܛܠ	-11.6794
ܦܘܢܝ	-11.6803
ܘܛܢܢ	-11.6809
ܕܐܫܕܪ	-11.681
ܕܐܦܩ	-11.6813
ܡܒܗܬ	-11.6817
ܒܚܪܒ	-11.6818
ܬܬܦܠܓ	-11.6818
ܕܐܦܢ	-11.6823
ܕܐܫܬܠܡ	-11.6832
ܠܡܐܬܝܬ	-11.6833
ܘܡܐܟܠ	-11.6835
ܛܢܘ	-11.6836
ܘܐܚܝܟ	-11.6837
ܕܛܡܐ	-11.6844
ܒܕܪܬ	-11.6848
ܘܟܘܪܗܢ	-11.6856
ܢܩܝܡ	-11.6863
ܫܘܡܠܝ	-11.6865
ܡܬܪܕܦ	-11.6866
ܘܐܬܬܢܝܚ	-11.6867
ܬܒܥܘܢ	-11.6868
ܢܕܘܢ	-11.6874
ܨܒܥܬ	-11.6882
ܐܤܛܤܝ	-11.6893
ܬܚܠܛ	-11.6896
ܕܢܗܦ	-11.6897
ܗܠܟܬ	-11.6899
ܡܚܒܠܢ	-11.6899
ܕܡܝܩܪ	-11.69
ܕܝܕܥܬܘܢ	-11.6903
ܘܐܘܠܨܢ	-11.6904
ܘܡܬܝܗܒ	-11.6905
ܕܢܩܪܘܢ	-11.6908
ܬܪܒܝܬ	-11.6912
ܐܘܒܠܘ	-11.6914
ܕܪܟܬ	-11.6915
ܕܡܚܝܢ	-11.6916
ܐܠܟܤܢܕܪܝ	-11.6917
ܕܢܫܠܡܘܢ	-11.6919
ܕܬܪܥܝܬ	-11.692
ܕܚܨܕ	-11.692
ܕܒܕܚܠܬ	-11.6927
ܒܐܪܒܥ	-11.6942
ܠܡܝ	-11.6945
ܘܢܥܒܕܘܢ	-11.6948
ܐܡܠܟܬ	-11.6951
ܕܐܦܠܘ	-11.6958
ܒܬܝܗ	-11.6959
ܕܐܓܪܬ	-11.696
ܘܡܢܗ	-11.696
ܐܒܕܘ	-11.6961
ܪܝܫܝܬ	-11.6966
ܥܩܬ	-11.697
ܨܪ	-11.6973
ܚܘܝܬ	-11.6981
ܩܘܪܒܢܝ	-11.6982
ܒܐܝܤܪ	-11.6983
ܕܢܩܒܠ	-11.699
ܬܬܩܪܒ	-11.6998
ܫܒܚܬ	-11.7007
ܘܐܝܤ	-11.702
ܘܪܛܢ	-11.7022
ܦܩܘ	-11.7025
ܕܒܒܝܬ	-11.703
ܬܒܤ	-11.7031
ܘܦܓܪ	-11.7034
ܡܤܟܠܝܢ	-11.7039
ܘܪܕܘ	-11.704
ܘܝܩܕ	-11.7051
ܢܤܦܩ	-11.7055
ܘܥܠܘܒ	-11.7056
ܘܚܬܡ	-11.706
ܥܪܦ	-11.7067
ܘܫܠܚ	-11.7074
ܨܚ	-11.7096
ܫܘܥܒܕ	-11.7101
ܚܘܕܘ	-11.7109
ܠܥܩܪ	-11.7117
ܕܡܤܗܕ	-11.7124
ܘܡܟܪܙܝܢ	-11.7128
ܕܢܛܥ	-11.7135
ܬܩܝܦ	-11.7156
ܘܒܚܕܘܬ	-11.716
ܘܡܠܐ	-11.7165
ܒܬܠܬ	-11.7199
ܒܪܘܓܙ	-11.7205
ܘܐܬܩܪܒ	-11.7227
ܕܫܝܠ	-11.7228
ܓܕܦܘ	-11.723
ܕܐܬܩܪܝܬ	-11.7235
ܪܚ	-11.7235
ܓܝܘ	-11.7239
ܢܕܚܠ	-11.724
ܕܚܘ	-11.7242
ܡܚܘܢ	-11.7245
ܘܛܡܐ	-11.725
ܠܡܥܡܕ	-11.7253
ܤܦܘܬܗ	-11.7258
ܡܬܒܤܡ	-11.7263
ܠܤܒܪ	-11.7284
ܒܛܢܬ	-11.7292
ܬܒܝܐܘ	-11.7295
ܘܢܫܒܚ	-11.731
ܬܦܬܚ	-11.7312
ܕܒܐܓܪ	-11.7315
ܠܡܪܥ	-11.7327
ܕܨܒܝ	-11.7331
ܡܬܩܪ	-11.7336
ܪܘܫܥ	-11.7338
ܘܐܬܓܠܝ	-11.7345
ܘܫܒܩܘ	-11.7349
ܒܫܗ	-11.7353
ܒܕܡܝ	-11.7363
ܓܢ	-11.7387
ܚܫܒܬ	-11.7388
ܢܦܪܥ	-11.7402
ܢܩܥ	-11.7413
ܤܬܟܠܘ	-11.7423
ܕܢܫܡܥܘܢ	-11.7427
ܡܠܝܟ	-11.7428
ܟܦܪܬ	-11.7431
ܘܒܥܠܕܒܒ	-11.7441
ܬܗܪ	-11.7447
ܩܪܩܦܬܗ	-11.7455
ܘܪܤܝ	-11.7464
ܬܒܠܥ	-11.7508
ܡܫܪ	-11.7512
ܘܟܦܢ	-11.7514
ܘܒܛܝܒܘܬ	-11.7515
ܘܟܠܝܠ	-11.7529
ܤܬܡܟܘ	-11.753
ܬܩܪܒܘ	-11.7548
ܘܒܒܝܬ	-11.755
ܕܨܦܪ	-11.7559
ܢܢܗܪ	-11.7574
ܕܫܐܠ	-11.758
ܬܚܬܪ	-11.7587
ܚܝܝܟ	-11.759
ܫܠܝܢ	-11.7595
ܕܒܒܝܬܗ	-11.7596
ܘܒܙܒܢ	-11.7601
ܕܚܡܫ	-11.7603
ܐܫܩܝܬ	-11.7605
ܤܪܝܩܘܬ	-11.7612
ܕܦܪܫ	-11.7616
ܘܟܐܒ	-11.7619
ܘܙܕܝܩܘܬ	-11.7619
ܕܩܥܝ	-11.7622
ܘܦܥ	-11.7626
ܗܪܘܕܝ	-11.7633
ܘܓܕ	-11.7634
ܢܨܗ	-11.7635
ܦܘܩܕܢܝ	-11.7646
ܕܡܥܠ	-11.7648
ܩܦܤ	-11.7669
ܠܡܗܝܡܢ	-11.7691
ܠܪܝܫ	-11.7695
ܢܬܟܬܒ	-11.7711
ܐܬܬܢܝܚ	-11.772
ܘܢܬܦ	-11.7721
ܦܫܩ	-11.7734
ܢܬܐܤ	-11.7771
ܘܒܦ	-11.7776
ܡܘܪܒ	-11.7793
ܕܛܘ	-11.7803
ܕܪܘܓܙܗ	-11.7804
ܘܦܘܩ	-11.782
ܢܟܦܘ	-11.7826
ܕܬܚ	-11.7833
ܘܡܗܠܟܝܢ	-11.7853
ܕܢܡܠ	-11.7856
ܘܒܨܦ	-11.7864
ܡܫܡܥܬܗ	-11.7867
ܒܗܘܦܟ	-11.7871
ܕܕܒܪ	-11.7876
ܕܢܦܩܘ	-11.7885
ܕܬܐܒ	-11.7887
ܘܒܤܝܡ	-11.7893
ܘܐܓܪ	-11.792
ܢܤܒܢ	-11.7922
ܫܪܝܬ	-11.7963
ܠܙܕܝܩܘ	-11.7963
ܒܪܫܗ	-11.8004
ܐܝܕܝܟ	-11.8007
ܒܒܘܝܐ	-11.8008
ܘܝܠܦ	-11.8028
ܘܕܬܠܬ	-11.8034
ܕܡܫܬܡ	-11.8055
ܕܒܕܪ	-11.8069
ܒܨܪܬ	-11.807
ܬܓܡܪܘ	-11.8111
ܠܕܘܟܬܗ	-11.8118
ܕܡܡܬ	-11.8132
ܥܬܪܘ	-11.8148
ܠܢܘܗܪ	-11.8167
ܡܫܬܡܗ	-11.8168
ܒܐܫܬ	-11.8207
ܠܡܚܫ	-11.8222
ܪܕܝ	-11.8223
ܬܬܢܤ	-11.8228
ܬܟܫܠܘ	-11.8245
ܠܘܩ	-11.8254
ܬܛܪ	-11.8265
ܐܫܬܝܘ	-11.8267
ܡܚܝܠ	-11.829
ܐܘܕܥܢ	-11.8292
ܘܬܘܠܬ	-11.8306
ܫܬܠܡ	-11.8309
ܡܝܬܝ	-11.8318
ܪܝܢܝ	-11.8318
ܨܠܘܬܟ	-11.833
ܥܡܕܬ	-11.8338
ܘܗܓܡ	-11.8351
ܐܤܦܘ	-11.8351
ܤܬܡܟ	-11.8359
ܫܠܡܟ	-11.8359
ܒܫܪܒܬ	-11.8365
ܐܫܬܪ	-11.8372
ܐܫܬܘܬܦ	-11.8433
ܘܦܘܡ	-11.8439
ܕܬܟܝܠ	-11.845
ܕܘܒܪܝ	-11.845
ܘܫܝܢ	-11.846
ܢܬܦܬܚ	-11.8467
ܕܡܬܢܒ	-11.8469
ܐܫܬܡܥ	-11.8478
ܥܡܘܕ	-11.852
ܕܡܦܩܕ	-11.8548
ܕܝܘܛ	-11.8553
ܥܛ	-11.8561
ܟܘܪܗܢܝ	-11.8584
ܘܐܫܘ	-11.8589
ܡܫܬܒܗܪ	-11.8592
ܠܥܒܕܝ	-11.8595
ܤܬܪ	-11.8627
ܘܡܘܪ	-11.8629
ܘܫܒܩܬ	-11.864
ܕܙܥܘܪ	-11.8666
ܘܐܚܒ	-11.8673
ܢܐܩܪ	-11.8674
ܬܒܝܐܘܢ	-11.8716
ܠܚܤܝ	-11.8732
ܬܦܪܥ	-11.8732
ܐܫܠܡܬܘܢ	-11.8732
ܬܬܪܥ	-11.8785
ܘܠܪܘܚ	-11.8812
ܬܚܙܝܢ	-11.8844
ܕܐܚܫܡ	-11.8845
ܚܕܝܗ	-11.8855
ܐܬܓܒ	-11.888
ܬܬܥܝܪ	-11.8885
ܘܐܫܬܥ	-11.8897
ܒܩܛ	-11.8924
ܘܪܚ	-11.8934
ܬܥܛܦ	-11.895
ܤܦܝܢ	-11.8955
ܡܪܛܘܛ	-11.8976
ܡܬܩܪܒ	-11.8984
ܠܓ	-11.8992
ܩܛܠܬ	-11.8998
ܠܡܓ	-11.9005
ܕܚܘܝ	-11.9025
ܡܬܕܟ	-11.9107
ܘܠܪ	-11.9126
ܬܦܟ	-11.9144
ܪܡܝܘ	-11.9156
ܡܓܘ	-11.917
ܒܤܓܝܐ	-11.9176
ܕܡܫܬܒܗܪ	-11.918
ܘܒܝ	-11.9207
ܬܕܡܘ	-11.922
ܡܬܓܠܝ	-11.9233
ܠܫܢܝ	-11.9234
ܐܘܪܚܬܗ	-11.9265
ܗܝܡܢܬ	-11.9274
ܒܥܙ	-11.9282
ܕܬܫܪ	-11.9332
ܘܒܩܛ	-11.9333
ܬܟܬܒܘ	-11.9339
ܕܚܤܝܪ	-11.9342
ܟܠܡܕ	-11.9358
ܡܫܕ	-11.9372
ܕܓܦ	-11.9433
ܦܫܝܛܘܬ	-11.9496
ܪܗܒܘ	-11.9511
ܤܦܘܬ	-11.9516
ܚܢܩ	-11.9532
ܒܨܪ	-11.9548
ܘܡܦ	-11.9593
ܢܓܘ	-11.9594
ܬܬܦ	-11.9595
ܕܢܟܤ	-11.9614
ܕܬܒܥ	-11.9627
ܘܐܚܪ	-11.9629
ܠܡܘܒܕܘ	-11.9661
ܬܦܨܝ	-11.9686
ܡܬܕܟܪ	-11.9693
ܪܡܙ	-11.9697
ܕܢܤܬ	-11.9699
ܘܕܝܘܤ	-11.9704
ܕܐܪܡܝ	-11.9711
ܨܐܕ	-11.9714
ܒܕܘܟ	-11.973
ܘܛܫ	-11.9737
ܠܪܥܝ	-11.9741
ܤܢܝܩܘܬ	-11.9744
ܥܛܝܦ	-11.9745
ܕܙܒܘ	-11.9752
ܘܢܤܬ	-11.9752
ܟܢܝܫ	-11.9758
ܠܝܬܝܗ	-11.9776
ܥܩܒܘ	-11.9782
ܕܒܫ	-11.979
ܙܗܪ	-11.9798
ܩܝܡܝ	-11.98
ܫܠܡܢܝ	-11.9802
ܕܢܦܬ	-11.9805
ܙܕܩܬܟ	-11.9808
ܬܡܟܟܘ	-11.9808
ܒܙܥ	-11.9816
ܬܬܘܤܦ	-11.9817
ܒܫܘܘܕܥ	-11.9818
ܒܡܘܟܟ	-11.9818
ܠܤܘܚܦ	-11.9818
ܤܬܢܩ	-11.9818
ܪܕܝܦܘܬ	-11.9818
ܫܓܝܫ	-11.9818
ܝܨܝܦ	-11.9818
ܘܡܬܟܫܦܝܢ	-11.9818
ܛܪܘܦܝܡ	-11.9818
ܐܩܦܬ	-11.9818
ܬܫܬܟܚ	-11.9818
ܕܡܕܪܟ	-11.9818
ܬܟܬܘܫ	-11.9818
ܫܒܗܪܢ	-11.9818
ܢܫܬܢܩ	-11.9818
ܡܗܦܟܝܢ	-11.9818
ܦܪܨ	-11.9819
ܬܫܢܩܢ	-11.9819
ܠܐܘܨܪ	-11.9819
ܡܨܛܪܝ	-11.982
ܐܬܡܨܝ	-11.982
ܨܛܥܪ	-11.982
ܘܬܪܤܝ	-11.982
ܤܬܬܪ	-11.9822
ܠܡܬܕܢ	-11.9822
ܡܦܠ	-11.9822
ܤܘܢܩܢ	-11.9823
ܫܛܬܘܢ	-11.9823
ܟܢܥܢ	-11.9823
ܪܘܪܒܢܝܗ	-11.9824
ܫܘܪܥܬ	-11.9826
ܘܡܦܠܓ	-11.9827
ܠܡܝܬܝܘ	-11.9827
ܐܬܦܫܛ	-11.9827
ܪܟܝܟ	-11.9828
ܕܢܡܚܘܢ	-11.9828
ܕܕܠܚ	-11.9829
ܕܓܡܠ	-11.9829
ܡܘܩܕ	-11.983
ܠܥܘܕܪܢ	-11.983
ܡܙܓ	-11.983
ܕܢܬܕܡܪ	-11.983
ܠܡܐܤܝܘܬܗ	-11.9831
ܕܐܬܢܝܚ	-11.9832
ܘܙܦ	-11.9833
ܘܡܚܪܩ	-11.9834
ܐܬܚܢܢܬ	-11.9836
ܘܐܬܬܘܤܦ	-11.9837
ܪܡܪܡ	-11.9838
ܐܬܟܬܫ	-11.9839
ܛܪܛ	-11.9841
ܤܦܝܩ	-11.9841
ܘܡܓܪ	-11.9846
ܬܚܘܡܝܗ	-11.9847
ܒܡܐܟܠ	-11.9848
ܐܙܕܒܢܬ	-11.9848
ܤܥܝܪ	-11.9848
ܘܐܫܦܥ	-11.985
ܕܫܓܫ	-11.9851
ܘܐܘܬܒ	-11.9852
ܘܥܝܢܝ	-11.9853
ܡܫܬܓܫ	-11.9853
ܒܕܘܟܝܬ	-11.9854
ܐܬܚܪܝ	-11.9855
ܡܬܬܕܝܢ	-11.9855
ܒܪܓܝܓܬ	-11.9858
ܘܬܕܘܢ	-11.9858
ܕܡܙܕܩ	-11.9859
ܠܡܪܓܙ	-11.986
ܬܩܛܥ	-11.9862
ܐܬܬܪܝܡܬ	-11.9872
ܕܢܓܪ	-11.9873
ܘܟܢܝ	-11.9874
ܠܡܙܥܩ	-11.9877
ܕܢܤܒܥ	-11.9879
ܕܐܫܬܒܩ	-11.9883
ܪܗܝܒ	-11.9884
ܘܡܚܦ	-11.9885
ܕܤܪܝܩ	-11.9886
ܓܓ	-11.9887
ܡܬܟܪܙ	-11.9888
ܘܒܩܘܪ	-11.989
ܬܬܚܫܒ	-11.9894
ܠܚܕܘܬܗ	-11.9895
ܒܡܤܒ	-11.9898
ܫܬܘܙܒ	-11.9899
ܒܐܘܡܢܘܬ	-11.99
ܙܩܦܬܘܢ	-11.9904
ܡܬܦܫܩ	-11.9905
ܥܙܝܙ	-11.9905
ܕܐܬܟܪܙ	-11.9905
ܘܡܥܛܦ	-11.9905
ܕܥܛܝܦ	-11.9905
ܘܐܙܕܕܩܬ	-11.9907
ܐܬܒܨܪ	-11.9907
ܡܬܚܫܚ	-11.9914
ܤܘܚܝܢ	-11.9917
ܘܪܬܝܬ	-11.9919
ܐܘܩܕ	-11.9919
ܡܫܬܚܠܦ	-11.992
ܡܙܗܪ	-11.9921
ܬܫܠܡܘܢ	-11.9924
ܡܛܫܝܐ	-11.993
ܪܓܫܝ	-11.993
ܕܡܠܝܟ	-11.993
ܐܫܬܥ	-11.9932
ܬܕܘܕ	-11.9936
ܕܡܪܥܝܬ	-11.9942
ܕܡܬܦܠܓ	-11.9947
ܫܘܫܢ	-11.9955
ܠܩܝܡܬ	-11.9956
ܡܤܒܪܢܘܬ	-11.9957
ܡܫܬܒܩܝܢ	-11.9958
ܕܘܢܒܝܬ	-11.9959
ܬܥܡܠ	-11.9963
ܬܥܬܪ	-11.9963
ܘܪܡܙ	-11.9964
ܘܬܩܢ	-11.9965
ܕܛܝܒܬ	-11.9966
ܘܡܬܕܟܪ	-11.9968
ܡܬܚܡܬ	-11.9968
ܒܚܪܥܘܬ	-11.9969
ܘܩܛܠܬܘܢ	-11.9973
ܢܩܪܘܢ	-11.9976
ܠܡܘܒܕܘܬ	-11.9977
ܢܬܪܝܡ	-11.9978
ܕܚܫܚܬ	-11.9982
ܥܘܩ	-11.9982
ܕܢܬܩܪܒ	-11.9982
ܚܡܤܢܢ	-11.9983
ܚܪܪܟ	-11.9992
ܕܒܘܩܝ	-11.9998
ܘܒܪܓܝܓܬ	-12
ܢܚܫܟ	-12.0004
ܒܘܚܪܢ	-12.0005
ܘܠܩܝܡܬ	-12.0005
ܦܘܪ	-12.0006
ܕܤܘܥܪܢ	-12.0012
ܠܬܝ	-12.0012
ܕܬܩܝܡ	-12.0013
ܬܬܚܕܬ	-12.0014
ܕܐܒܗܝܟ	-12.0015
ܘܡܨܒܬ	-12.0022
ܢܢܤܝ	-12.0023
ܬܚܪܪ	-12.0029
ܕܒܐܝܕܝܗ	-12.0031
ܘܐܬܚ	-12.0033
ܘܐܫܬܘܕܝ	-12.0034
ܨܘܪܝ	-12.0038
ܘܠܐܦܝ	-12.0045
ܬܦܨܚܘ	-12.0046
ܢܫܬܘܢ	-12.0049
ܘܚܫܟ	-12.0057
ܛܪܦܝܢ	-12.006
ܩܠܘܕܝ	-12.0061
ܘܠܐܪܡ	-12.0061
ܒܤܘܓܐ	-12.0061
ܒܫܘܒܗܪ	-12.0062
ܘܐܘܒܕ	-12.0062
ܒܡܚܙ	-12.007
ܠܡܨܥܬ	-12.0078
ܕܡܥܤܪ	-12.008
ܕܦܬܝܚ	-12.0082
ܕܡܬܟܪܟ	-12.0087
ܘܕܚܡܫ	-12.0094
ܘܫܚܩ	-12.0099
ܡܪܒܥܐ	-12.01
ܤܒܥܬ	-12.0101
ܘܠܓܠܝܢ	-12.0102
ܘܦܬܚܬ	-12.0104
ܦܐܪܝܗ	-12.0109
ܘܐܬܐܒܠ	-12.0113
ܒܕܝܢܪ	-12.0115
ܡܪܕܝܬ	-12.0119
ܢܪܕܦܘܢ	-12.0123
ܡܬܒܢ	-12.0125
ܕܠܘܛ	-12.0128
ܘܐܫܬܪܝ	-12.0131
ܕܟܪܝܘܬ	-12.0134
ܘܚܛܦ	-12.0139
ܘܙܩ	-12.0144
ܕܦܝܤ	-12.0145
ܕܩܪܝܒܝܢ	-12.0149
ܩܦܘ	-12.0152
ܕܫܘܘܕܝ	-12.0154
ܐܬܬܘܝ	-12.0161
ܘܢܩܫ	-12.0164
ܡܪܚܡܢܘܬ	-12.0166
ܕܡܬܝܗܒ	-12.0167
ܕܤܘܟ	-12.0168
ܝܘܪܩ	-12.0173
ܒܤܘܟ	-12.0187
ܕܡܤܒܪܢ	-12.0188
ܫܕܘ	-12.0194
ܕܢܤܡ	-12.0201
ܘܛܥܢ	-12.0203
ܐܠܨܝܢ	-12.0203
ܦܪܓ	-12.0211
ܕܡܪܟ	-12.0214
ܕܬܩܘܡ	-12.0218
ܘܫܠ	-12.0224
ܘܡܤܒ	-12.0225
ܩܛܠܬܘܢ	-12.0229
ܕܢܨ	-12.0238
ܕܫܥܒܕ	-12.0244
ܘܙܩܦ	-12.025
ܠܝܛܝܢ	-12.0252
ܠܓܡ	-12.0255
ܘܛܫܝ	-12.0259
ܡܬܡܠ	-12.026
ܐܬܩܪܒܬ	-12.0266
ܠܕܡܗ	-12.0268
ܕܝܩܝܪ	-12.0282
ܠܚܫ	-12.0285
ܕܠܝܠ	-12.0286
ܕܡܫܬܘܬ	-12.0289
ܕܝܪܬܘܬ	-12.0296
ܘܡܥܕܪܢ	-12.0298
ܡܫܘ	-12.0308
ܘܩܒܠܬܘܢ	-12.0315
ܘܒܟܐܢܘܬ	-12.0322
ܘܢܨܠ	-12.0329
ܘܨܥܪ	-12.0334
ܠܡܐܪܬ	-12.0336
ܘܐܬܦܢܝܬ	-12.0338
ܘܠܘܛ	-12.035
ܬܒܚܪ	-12.0351
ܕܡܟܤܝ	-12.0369
ܬܒܗܬ	-12.038
ܕܐܚܝܟ	-12.0384
ܬܪܚܩ	-12.0385
ܤܪܕ	-12.0388
ܕܤܒܪܢ	-12.0392
ܦܪܨܘܦܝ	-12.0394
ܦܠܫ	-12.0396
ܘܠܒܢ	-12.0407
ܡܤܟܠ	-12.0411
ܕܡܓܕܦ	-12.0415
ܥܤܪܬ	-12.0422
ܡܫܬܡܠ	-12.0428
ܪܟܢ	-12.0428
ܘܡܩܪܒ	-12.0434
ܘܡܛܥܝܢ	-12.0441
ܒܤܕܘ	-12.0441
ܕܫܘܒܗܪ	-12.0442
ܕܗܪܘܕܝ	-12.0446
ܚܝܨܐ	-12.0447
ܒܟܪܝܗܘܬ	-12.0452
ܠܡܙ	-12.0457
ܘܡܠܘ	-12.0461
ܐܬܗܝܡܢ	-12.0462
ܕܡܐܬܝܬ	-12.0464
ܠܤܦ	-12.0465
ܡܫܬܐܠ	-12.0466
ܒܨܗܝ	-12.047
ܟܢܫܬܘܢ	-12.0474
ܒܙܕܩܬ	-12.0478
ܓܦܝܗ	-12.0483
ܬܫܒܚܬ	-12.0495
ܕܢܡܘܬ	-12.0496
ܕܡܬܩܢ	-12.0546
ܘܥܛ	-12.055
ܒܚܒ	-12.0554
ܡܛܝܬ	-12.0562
ܤܒܥ	-12.0563
ܕܐܫܘ	-12.0568
ܕܡܫܬܡܥ	-12.0588
ܠܓܡܪ	-12.0592
ܥܒ	-12.0597
ܥܬܗ	-12.0606
ܘܠܪܫ	-12.0613
1	-12.4818
)	-13.4818
4	-13.4818
5	-13.4818
9	-13.4818
:	-13.4818
