<pad>	0
</s>	0
<unk>	0
▁እ	-0
▁አ	-1
▁በ	-2
▁የ	-3
▁ከ	-4
▁ይ	-5
▁ወ	-6
▁ነ	-7
▁እን	-8
▁መ	-9
ንም	-10
ቸው	-11
▁ለ	-12
አብ	-13
▁ተ	-14
ግዚ	-15
ሔር	-16
ግዚአብ	-17
ግዚአብሔር	-18
▁ሰ	-19
▁ሁ	-20
▁ል	-21
ንድ	-22
▁ያ	-23
▁ወደ	-24
▁ስ	-25
▁ሁሉ	-26
▁ዘ	-27
ርሱ	-28
ችሁ	-29
▁ም	-30
▁እግዚአብሔር	-31
▁እንደ	-32
▁ብ	-33
▁የሚ	-34
▁ላ	-35
▁ነበ	-36
▁በእ	-37
▁አለ	-38
▁ግ	-39
ለሁ	-40
▁ደ	-41
▁ዘንድ	-42
▁ት	-43
▁ላይ	-44
ም።	-45
ንተ	-46
ገር	-47
▁እንዲ	-48
▁ነው	-49
ል።	-50
▁ሆ	-51
ውን	-52
ኤል	-53
▁ባ	-54
▁ስለ	-55
ድር	-56
▁ግን	-57
▁ከእ	-58
▁የእ	-59
▁እነ	-60
ዎች	-61
ጊዜ	-62
▁ቀ	-63
ትን	-64
ዚህ	-65
▁የተ	-66
▁ድ	-67
▁ጊዜ	-68
▁ታ	-69
▁ልጆ	-70
ትም	-71
▁አይ	-72
ውም	-73
ስራ	-74
▁ማ	-75
▁ጋ	-76
▁ሕ	-77
▁ነገር	-78
ስራኤል	-79
▁ን	-80
▁እርሱ	-81
▁ልጆች	-82
▁ክ	-83
▁ጋር	-84
▁አም	-85
▁እኔ	-86
▁ይህ	-87
ው።	-88
▁በአ	-89
▁ቤ	-90
▁ልጅ	-91
ል፤	-92
ዚያ	-93
▁ነበር	-94
▁ው	-95
▁በመ	-96
▁አል	-97
▁ጠ	-98
ልና	-99
ርስ	-100
ሪያ	-101
▁ዓ	-102
▁ኢ	-103
ችን	-104
▁እንዲህ	-105
ል፥	-106
▁ፈ	-107
ቸው።	-108
በት	-109
▁ንጉ	-110
ፊት	-111
ደረ	-112
▁ሰው	-113
▁ገ	-114
▁እንዳ	-115
▁መን	-116
ንና	-117
ለም	-118
▁እስ	-119
ለው	-120
▁ለእ	-121
ደር	-122
ለት	-123
▁ቃ	-124
ላችሁ	-125
▁አን	-126
ጌታ	-127
▁የአ	-128
ናንተ	-129
▁ሕዝ	-130
▁ፍ	-131
ም፥	-132
ይ፥	-133
ያስ	-134
ን፥	-135
▁ና	-136
ሥራ	-137
ነት	-138
ሠራ	-139
▁አላ	-140
▁አምላ	-141
▁ደግ	-142
ተኛ	-143
▁ሳ	-144
▁ቤት	-145
▁የእግዚአብሔር	-146
▁ነበረ	-147
ለህ	-148
▁ፊት	-149
▁ደግሞ	-150
▁የም	-151
ቸውም	-152
▁ቢ	-153
ያን	-154
ቶች	-155
▁ቀን	-156
▁ሆይ፥	-157
ስጥ	-158
ት።	-159
▁እጅ	-160
▁መል	-161
▁በዚያ	-162
▁አስ	-163
▁በም	-164
▁ዳ	-165
▁አንተ	-166
▁ከተ	-167
▁ከአ	-168
ቱም	-169
▁እነሆ	-170
▁በሰ	-171
▁አት	-172
ረስ	-173
ሆን	-174
ማይ	-175
▁ወይ	-176
▁ሰዎች	-177
ሉ።	-178
▁ሆነ	-179
ህን	-180
ስት	-181
▁ቃል	-182
▁ኃ	-183
▁ካ	-184
ለች	-185
▁ምድር	-186
ቸውን	-187
ገድ	-188
▁ሲ	-189
▁ቅ	-190
ባት	-191
▁ድረስ	-192
▁ጌታ	-193
ን።	-194
መጣ	-195
▁ይላ	-196
ሆና	-197
ነበ	-198
መለ	-199
ናገ	-200
ርሱም	-201
▁ንጉሥ	-202
ምን	-203
▁አንድ	-204
ካከ	-205
▁ሊ	-206
▁እስከ	-207
ጢአ	-208
▁ጥ	-209
▁በእግዚአብሔር	-210
▁ራ	-211
ቱን	-212
ፍራ	-213
▁አለው።	-214
ለሁ።	-215
▁አምላክ	-216
▁የሰ	-217
ኋላ	-218
ህም	-219
▁ነው።	-220
ዊት	-221
▁ኢየ	-222
ስም	-223
ገባ	-224
▁ውስጥ	-225
▁ብሎ	-226
ሆነ	-227
ቀመ	-228
ችኋ	-229
▁ሌ	-230
ሳሌ	-231
ቸዋ	-232
▁አድር	-233
ብር	-234
▁ዕ	-235
▁ነበር።	-236
ት፥	-237
▁ሴ	-238
▁ዓመ	-239
▁አለ።	-240
▁እናንተ	-241
ዳን	-242
ወጣ	-243
▁የእስራኤል	-244
ነሣ	-245
ለሁ፥	-246
▁ሙ	-247
▁እግዚአብሔርም	-248
ውንም	-249
▁በኋላ	-250
▁የሚያ	-251
▁ነገ	-252
ም፤	-253
▁ለአ	-254
ለሁ፤	-255
▁ያለ	-256
መን	-257
ተው	-258
▁ቍ	-259
መል	-260
▁ይሆና	-261
ውያን	-262
▁በተ	-263
ሁዳ	-264
ርም	-265
▁ስለዚህ	-266
▁ወንድ	-267
ካከል	-268
ደረገ	-269
▁ድን	-270
▁እርሱም	-271
ምም	-272
▁እነሆ፥	-273
▁ሞ	-274
ትና	-275
ልን	-276
▁አሳ	-277
ዛብ	-278
ሩሳሌ	-279
ርባ	-280
ግብ	-281
ና።	-282
▁ሥ	-283
ኞች	-284
▁ሄ	-285
▁ነበሩ	-286
▁ይህን	-287
▁መካከል	-288
▁ወይም	-289
▁ምን	-290
ሕዛብ	-291
▁ሕዝብ	-292
▁ኃጢአ	-293
ላቸው	-294
▁ልብ	-295
▁ንጉሡ	-296
ኢየ	-297
ርያ	-298
▁ኢየሱ	-299
▁የወ	-300
ቶቻ	-301
ከተ	-302
▁ነው፤	-303
ዋዕ	-304
▁ባሪያ	-305
▁አው	-306
▁እንዲሁ	-307
▁ዛ	-308
▁ዓመት	-309
▁ሙሴ	-310
ሥዋዕ	-311
ሉ፤	-312
▁ሥራ	-313
ቹም	-314
▁ለመ	-315
ሉ፥	-316
ጠፋ	-317
▁አይደ	-318
ድን	-319
▁አሁ	-320
ልም	-321
ሮች	-322
ህና	-323
▁የመ	-324
▁መሥዋዕ	-325
▁ነፍ	-326
▁ደስ	-327
▁ይሰ	-328
ረው	-329
ራት	-330
▁ሚ	-331
▁ሁለት	-332
ሞች	-333
▁ዮ	-334
ላቅ	-335
ፈር	-336
ንን	-337
ርስዋ	-338
▁ብዙ	-339
ቸው፤	-340
ቤቱ	-341
ኝ።	-342
▁ጽ	-343
ያው	-344
▁ከፍ	-345
▁እነዚህ	-346
ላለም	-347
ይሁዳ	-348
▁በሚ	-349
▁በደ	-350
▁ወር	-351
▁ስፍራ	-352
▁እግዚአብሔርን	-353
▁ሕዝቡ	-354
ሕዝ	-355
ራራ	-356
▁ወገ	-357
ምና	-358
▁መልካ	-359
ዲህ	-360
▁እንጂ	-361
▁ጀ	-362
▁ለእግዚአብሔር	-363
▁የነበ	-364
ንጉ	-365
▁ስም	-366
▁ሸ	-367
ቆች	-368
▁መቶ	-369
▁ክፉ	-370
ት፤	-371
▁ከሰ	-372
ግሥ	-373
ቀር	-374
▁በታ	-375
ይወ	-376
▁ር	-377
ርስቶ	-378
ድቅ	-379
ሩሳሌም	-380
ፈስ	-381
▁አባ	-382
ዘላለም	-383
ልቅ	-384
በላ	-385
ገለ	-386
▁በዚህ	-387
▁አላቸው።	-388
▁እጅግ	-389
▁በል	-390
▁በምድር	-391
▁በዚያም	-392
▁እና	-393
▁ተቀ	-394
▁በው	-395
▁እስራኤል	-396
ታቸው	-397
▁ከመ	-398
▁ሁለ	-399
▁ይሁ	-400
▁ነበረ።	-401
ቢያ	-402
▁በወ	-403
▁እነርሱ	-404
▁ለሚ	-405
▁እኔም	-406
ርስቶስ	-407
▁ሦ	-408
▁በላ	-409
▁ሐ	-410
▁ኤ	-411
ድረ	-412
ታችሁ	-413
▁ወን	-414
ጀራ	-415
▁ማን	-416
▁ሺ	-417
▁በየ	-418
▁የማ	-419
▁ይወ	-420
▁ኢየሱስ	-421
ሳት	-422
▁እንግ	-423
ደርጋ	-424
▁ከእነ	-425
ልክ	-426
▁ነበር፤	-427
ተኛው	-428
▁በዳ	-429
▁ዓይ	-430
▁በማ	-431
▁ተናገ	-432
ቸው፥	-433
ደርግ	-434
ንያ	-435
▁ከተማ	-436
▁የእግዚአብሔርን	-437
ሩት	-438
ውያ	-439
▁ቆ	-440
▁በእስራኤል	-441
▁መጣ	-442
ብም	-443
▁እንደሚ	-444
ጥቶ	-445
ው፥	-446
▁መንገድ	-447
ዴት	-448
ሆኑ	-449
▁ሁሉ፥	-450
▁ምስ	-451
▁መሥዋዕት	-452
▁ጸ	-453
▁አቤቱ	-454
ስተ	-455
▁ተነ	-456
▁የምት	-457
▁በፊ	-458
▁እየ	-459
▁ሽ	-460
▁የሆነ	-461
ጠብ	-462
አልና	-463
ች።	-464
▁ድም	-465
ናገር	-466
▁እንዳይ	-467
ችም	-468
ምሮ	-469
▁ጊዜ፥	-470
▁ይላል።	-471
▁ኢዮ	-472
▁ሠራ	-473
▁አገ	-474
▁ውኃ	-475
ሉት	-476
▁በኢየ	-477
ኝ፥	-478
ውነት	-479
ቃጠ	-480
ቀረ	-481
▁ከዚያ	-482
▁አታ	-483
▁ከእርሱ	-484
▁ፍር	-485
▁አለቆች	-486
ምላ	-487
▁ሺህ	-488
በረ	-489
ንጉሡ	-490
▁በር	-491
▁ብር	-492
ቱንም	-493
▁አጠ	-494
ልፍ	-495
▁ዝ	-496
▁ለማ	-497
▁ተሰ	-498
▁አለቃ	-499
ኝ፤	-500
▁በዓ	-501
▁አገር	-502
▁እኛ	-503
▁ይላል	-504
▁ኪ	-505
▁በግ	-506
ለደ	-507
▁እንድ	-508
▁እንዲህም	-509
ኑም	-510
ና፥	-511
▁ዛሬ	-512
ገብ	-513
▁አሕዛብ	-514
ዎቹ	-515
▁አደረገ	-516
ን፤	-517
▁አቤቱ፥	-518
ዕቆ	-519
ላም	-520
ታት	-521
▁ሠ	-522
▁ዘመን	-523
ቻቸው	-524
▁መልካም	-525
ቅደ	-526
ሩም	-527
ው፤	-528
▁ታላቅ	-529
ቅር	-530
▁ሰማ	-531
መስ	-532
እዛ	-533
▁ከሚ	-534
ሠዊ	-535
ገና	-536
▁አብ	-537
▁ከወ	-538
▁እነርሱም	-539
ኛው	-540
ኖች	-541
ሁ።	-542
ዶች	-543
▁አሉ	-544
▁ዳዊ	-545
ሰማ	-546
▁እርስዋ	-547
▁ለዘላለም	-548
ቀደ	-549
▁የሠራ	-550
ኖር	-551
▁ሄደ	-552
▁መለ	-553
▁እርሱም።	-554
በር	-555
ክር	-556
ይፍ	-557
▁በጎ	-558
▁በመን	-559
ቀመጡ	-560
▁ጣ	-561
▁አዘ	-562
ከራ	-563
ህንም	-564
ባቸው	-565
▁ቅዱ	-566
▁ጀምሮ	-567
▁ጕ	-568
▁በሕ	-569
▁አደረ	-570
ዋን	-571
▁አያ	-572
▁የበ	-573
▁ዘንድ፥	-574
ሎች	-575
▁መስ	-576
ሱን	-577
ኖሩ	-578
ፈል	-579
▁ነበረ፤	-580
▁ወጣ	-581
▁ነበሩ።	-582
▁እስኪ	-583
▁ከእኔ	-584
ችሁን	-585
መሰ	-586
▁ሥጋ	-587
መና	-588
ስን	-589
▁ትእዛ	-590
▁ስድ	-591
▁እያ	-592
▁ባለ	-593
ነገ	-594
ቀድ	-595
▁አደ	-596
▁ድምፅ	-597
▁ከም	-598
▁ሌላ	-599
▁በባ	-600
▁በፍ	-601
▁ጻ	-602
አቸው	-603
▁ብት	-604
▁ነው፥	-605
▁ፊ	-606
▁እንግዲህ	-607
ሕዝቡ	-608
▁እሰ	-609
ውቃ	-610
ድም	-611
▁በእርሱ	-612
ሩ።	-613
ርዳ	-614
▁ይበ	-615
▁አሁን	-616
ጠራ	-617
▁ቍርባ	-618
▁እንጀራ	-619
ኖራ	-620
ረት	-621
ይወት	-622
▁ያል	-623
ላችሁ።	-624
▁አይደለም	-625
▁አንዱ	-626
ዙሪያ	-627
▁ሰባት	-628
▁ተራራ	-629
ልህ	-630
▁ኃጢአት	-631
ለህ።	-632
▁ወዳ	-633
ሰው	-634
ኃጢአ	-635
▁ሰጠ	-636
ይን	-637
▁ክርስቶስ	-638
ልና።	-639
▁ዕቃ	-640
▁የለ	-641
▁የባ	-642
▁ይልቅ	-643
▁ሆኖ	-644
▁ማንም	-645
ረገ	-646
ች፥	-647
▁ክንድ	-648
▁መንግሥ	-649
ቀበ	-650
▁አጠገብ	-651
ተዋ	-652
▁ያስ	-653
▁ሦስት	-654
ረከ	-655
ዓት	-656
▁አማ	-657
ኩል	-658
▁ከአንተ	-659
ላችኋ	-660
▁አሁንም	-661
ሀያ	-662
ርቅ	-663
▁እንዴት	-664
ውያንም	-665
ያንዳን	-666
ገዛ	-667
▁ኢያ	-668
▁መንፈስ	-669
ፈራ	-670
▁ጭ	-671
▁አየ	-672
ህ፥	-673
ጋይ	-674
ችሁም	-675
▁እግ	-676
▁ተነሥ	-677
▁ወገን	-678
▁ስሙ	-679
▁ብቻ	-680
▁ተመለ	-681
▁ከተሞች	-682
ሄድ	-683
በታ	-684
▁ዋ	-685
▁ከእግዚአብሔር	-686
ፋት	-687
▁ካህና	-688
ምራ	-689
ንስ	-690
ተኞች	-691
ፋን	-692
▁አልተ	-693
መረ	-694
▁ብለው	-695
▁ከዚህ	-696
▁ንጉሡም	-697
ሁ፥	-698
ህል	-699
ሕር	-700
ዋም	-701
▁ሴቶች	-702
▁ተመል	-703
▁ዳዊት	-704
መጡ	-705
▁ጨ	-706
▁በራ	-707
▁ያለውን	-708
ሩን	-709
ቢሎ	-710
ግብፅ	-711
▁ምድ	-712
▁በታች	-713
▁ይሆናል።	-714
ልና፥	-715
ቹን	-716
▁አሳል	-717
▁የተነሣ	-718
▁አሥራ	-719
ሎሞ	-720
ጠን	-721
ጥር	-722
▁በክ	-723
ጠው	-724
▁በኩል	-725
ችንም	-726
▁በአንድ	-727
▁አሉት።	-728
ደደ	-729
▁በቀ	-730
▁ዳር	-731
▁ሕግ	-732
▁ሳይ	-733
▁መዛ	-734
▁ገና	-735
▁አምላካ	-736
ሙር	-737
▁ወለደ	-738
▁የማይ	-739
▁አምስት	-740
ልስጥ	-741
▁ልጁ	-742
ንግ	-743
▁ጠላ	-744
ልስጥኤ	-745
▁ከእስራኤል	-746
ልሃ	-747
▁ከብ	-748
ገረ	-749
ለች።	-750
▁ወሰ	-751
▁ክብር	-752
▁እነሆም፥	-753
ስፋ	-754
ባባ	-755
ወር	-756
ደርጉ	-757
▁ወስ	-758
▁ተናገረ	-759
▁ከእናንተ	-760
▁እግዚአብሔር።	-761
በሰ	-762
▁አፍ	-763
▁ፍሬ	-764
ገደ	-765
▁ብላ	-766
ብን	-767
ልክት	-768
▁ስላ	-769
▁ኃይ	-770
ቸውንም	-771
▁ዳዊትም	-772
ና፤	-773
▁ርስ	-774
ጡ።	-775
▁ፈጽ	-776
▁ነገሥ	-777
▁ድንኳ	-778
ሁ፤	-779
ታው	-780
▁መጥ	-781
▁አራ	-782
▁ራስ	-783
▁በት	-784
ሮን	-785
▁ሂ	-786
▁ሴት	-787
▁ካህ	-788
▁ነገድ	-789
ዱም	-790
▁ኤል	-791
▁እር	-792
ር፥	-793
▁በፊት	-794
ነግ	-795
ዘው	-796
ድና	-797
▁ስን	-798
▁ናቸው።	-799
▁ለእስራኤል	-800
ድ፥	-801
▁ሥር	-802
▁ከዚያም	-803
ረብ	-804
ዖን	-805
ቀመጥ	-806
ሱም	-807
ሠዊያ	-808
ሞት	-809
▁በቤ	-810
▁የሰው	-811
▁በይሁዳ	-812
▁ከእርሱም	-813
▁ይሆን	-814
ርን	-815
ኢዮ	-816
▁በእኔ	-817
ልስጥኤማ	-818
ለን	-819
ሊት	-820
ውል	-821
▁በነ	-822
▁የእስራኤልም	-823
ቅም	-824
▁የታ	-825
▁ይጠ	-826
▁ያለው	-827
ማግ	-828
▁ሳኦ	-829
ገቡ	-830
▁ግብ	-831
ጆች	-832
ፎች	-833
ዋል።	-834
▁በስ	-835
▁ለም	-836
ሴፍ	-837
ታን	-838
▁ተከ	-839
▁በዚያን	-840
▁የእግዚአብሔርም	-841
ትንም	-842
▁ሰባ	-843
▁ይመጣ	-844
▁በከ	-845
▁ደግሞም	-846
ገኘ	-847
▁ቍርባን	-848
▁ከን	-849
ተኛውም	-850
▁ቍጣ	-851
▁አጥ	-852
ሩ፥	-853
ግባ	-854
▁ነበር፥	-855
ረሰ	-856
▁በሁ	-857
▁መታ	-858
▁የሌ	-859
▁አድርገ	-860
ሳን	-861
ጠላ	-862
▁በሌ	-863
▁የቀ	-864
▁ምንም	-865
▁አባት	-866
▁ትእዛዝ	-867
▁ከእነርሱ	-868
ለህ፤	-869
ማግሌ	-870
▁በብ	-871
▁መዛሙር	-872
ገል	-873
▁ትን	-874
ላለ	-875
▁ረ	-876
ች፤	-877
▁የለም	-878
▁በኢየሩሳሌም	-879
ወድ	-880
ጽሐ	-881
▁ሀያ	-882
▁አሉ።	-883
▁አድርጎ	-884
ቴን	-885
▁ጉ	-886
▁እው	-887
▁ወይስ	-888
▁የሠራዊት	-889
ደው	-890
ንም፥	-891
▁በበ	-892
▁ጥበ	-893
▁ተቀም	-894
ባል	-895
ዘጋ	-896
▁ሰም	-897
▁አሰ	-898
▁ሕዝቡም	-899
መው	-900
▁ቁ	-901
▁አራት	-902
▁ባሪያዎች	-903
ታል።	-904
ንም።	-905
ንድር	-906
ሶች	-907
ጀመ	-908
▁መብ	-909
▁ዘር	-910
ሮስ	-911
ለውን	-912
▁ምሕ	-913
▁ይቀ	-914
▁ይሁዳ	-915
እክ	-916
ለት።	-917
በትን	-918
ደረግ	-919
▁ልጆች፥	-920
ላሳ	-921
ጡ፥	-922
ረውን	-923
▁ለሰ	-924
▁በቅ	-925
▁ያሉ	-926
▁መቅደ	-927
▁ወንድሞ	-928
ሳችሁ	-929
▁ያዕቆ	-930
ታችን	-931
▁መንገ	-932
▁ሙሴም	-933
▁በእነ	-934
ሉም	-935
ሥር	-936
ውሎ	-937
ያም	-938
ደነ	-939
▁እንድት	-940
ሄዳ	-941
አል።	-942
▁ይሆናል፤	-943
▁መር	-944
ቀመጠ	-945
▁ፈር	-946
▁ኢየሱስም	-947
ርኮ	-948
ታም	-949
ሳቸው	-950
▁በዘ	-951
▁ነፍስ	-952
▁ኪዳን	-953
ሩ፤	-954
▁በጥ	-955
▁አውራ	-956
▁እያንዳን	-957
ምህ	-958
ረደ	-959
ድቃ	-960
ቢሎን	-961
▁ባል	-962
ጀመሪያ	-963
▁እውነት	-964
▁ነገሥታት	-965
ከብ	-966
ዋል፤	-967
▁መልሶ	-968
▁ቅዱስ	-969
▁በሰማ	-970
▁ተስፋ	-971
▁ቸ	-972
ለህ፥	-973
▁ሆን	-974
▁ሊያ	-975
በዛ	-976
ብዓ	-977
ኑን	-978
ዱ፥	-979
▁ምንድር	-980
ደርገ	-981
▁የል	-982
▁ይፈ	-983
▁ናቸው፤	-984
▁ኢየሩሳሌም	-985
ዊው	-986
▁ወዲ	-987
▁ደም	-988
▁አስቀድ	-989
ነው	-990
ጸና	-991
መለከ	-992
ባቶቻ	-993
ነበረ	-994
▁ለል	-995
▁ሆነ፤	-996
▁ይህም	-997
▁እንዲያ	-998
ኖስ	-999
▁ሚስ	-1000
▁ገደ	-1001
ንቀ	-1002
ዛት	-1003
ጆሮ	-1004
ለች፤	-1005
ሩትን	-1006
ናገራ	-1007
▁ፍርድ	-1008
▁ሽማግሌ	-1009
▁አደረጉ	-1010
ሁድ	-1011
ይም	-1012
▁ታላ	-1013
▁በቀር	-1014
▁መሠዊያ	-1015
▁አወ	-1016
▁እጁ	-1017
▁የዘ	-1018
▁ልብስ	-1019
▁በእውነት	-1020
▁በዙሪያ	-1021
▁አንተም	-1022
▁የከ	-1023
▁ሰሎሞ	-1024
ርቶ	-1025
ሱስ	-1026
ኑ።	-1027
ጡ፤	-1028
▁ዐ	-1029
▁ጌ	-1030
▁ለወ	-1031
▁ደቀ	-1032
▁ነፍሴ	-1033
ለማ	-1034
ቈጠ	-1035
ዱ።	-1036
ለች፥	-1037
▁የይሁዳ	-1038
ሄዱ	-1039
ላት	-1040
▁ሞተ	-1041
▁በእናንተ	-1042
ሬም	-1043
▁ነውና	-1044
ልኝ	-1045
ቴና	-1046
በትም	-1047
ግብጽ	-1048
አቸው።	-1049
▁በአን	-1050
ሰሙ	-1051
ቶቹ	-1052
ባችሁ	-1053
ደሪያ	-1054
ጽሐፍ	-1055
▁ያዘ	-1056
ላችሁ፤	-1057
ቅያስ	-1058
ልጣ	-1059
ሽን	-1060
ያዕቆ	-1061
▁ጽድቅ	-1062
መነ	-1063
ሜን	-1064
ብስ	-1065
ቸዋል።	-1066
ረድ	-1067
ሸከ	-1068
ዓብ	-1069
▁ወጥ	-1070
▁የሞ	-1071
▁ድንኳን	-1072
▁መሰ	-1073
▁ይለ	-1074
▁የምታ	-1075
▁በአንተ	-1076
▁ያደርጋ	-1077
▁ከእነርሱም	-1078
ራም	-1079
ቅል	-1080
አል፤	-1081
▁ጠራ	-1082
ለዳ	-1083
ምር	-1084
▁ነፋ	-1085
ድማ	-1086
ድጓ	-1087
▁ጮ	-1088
ዳዊት	-1089
▁መከራ	-1090
▁ብርሃ	-1091
▁እንኳ	-1092
ቦት	-1093
ኑ፥	-1094
ገኝ	-1095
▁ከባ	-1096
▁መጣ።	-1097
▁ሙሴን	-1098
▁ሚስት	-1099
▁ሰላም	-1100
▁ሰይፍ	-1101
▁በውኑ	-1102
▁ነበርና	-1103
▁ነኝ	-1104
▁ባሕር	-1105
ችል	-1106
▁ሌዋ	-1107
▁የደ	-1108
▁እርስ	-1109
▁ስለዚህም	-1110
ቢት	-1111
▁መጥቶ	-1112
▁የሚያስ	-1113
ረጋ	-1114
ስ፥	-1115
ራቸው	-1116
ዋንም	-1117
ላችሁ፥	-1118
▁መልአ	-1119
ስሐ	-1120
ሆን፥	-1121
▁ርስት	-1122
ለቆ	-1123
▁በፈ	-1124
▁ስድስት	-1125
▁ነበረ፥	-1126
ዶም	-1127
▁የምድር	-1128
▁የእስራኤልን	-1129
ቴም	-1130
ፀሐ	-1131
ቻቸውም	-1132
▁ዳርቻ	-1133
▁ነበሩ፤	-1134
ህ።	-1135
ስማ	-1136
ሽም	-1137
ጋና	-1138
▁ጫ	-1139
▁ምና	-1140
▁ጠጅ	-1141
▁ነገሠ	-1142
▁ለአንተ	-1143
▁የወይን	-1144
▁ለባ	-1145
▁ቤተ	-1146
ሰጥ	-1147
ምላካ	-1148
ችንን	-1149
▁ለብ	-1150
▁በለ	-1151
▁ገባ	-1152
▁ለምን	-1153
▁መለሰ	-1154
▁ቢሆን	-1155
ቀደሰ	-1156
▁ሦስ	-1157
▁ተወ	-1158
▁ይገባ	-1159
▁ወንድሞች	-1160
ራችሁ	-1161
ታቸውን	-1162
▁አንቺ	-1163
▁የሚቃጠ	-1164
ቀው	-1165
ቂት	-1166
ያ፥	-1167
ርነት	-1168
▁ንጹ	-1169
▁በሕይወት	-1170
▁ሁል	-1171
▁በኤ	-1172
▁ጠብ	-1173
▁ባለው	-1174
▁እሳት	-1175
▁ድንጋይ	-1176
ሥጋ	-1177
ዬን	-1178
▁ቈ	-1179
▁ኖ	-1180
▁ላከ	-1181
▁ነቢ	-1182
▁ዛፍ	-1183
▁አመጣ	-1184
ሩሳሌምም	-1185
▁አምሳ	-1186
▁በመካከ	-1187
ሉን	-1188
ሱ።	-1189
▁በረ	-1190
▁አምላክህ	-1191
▁ጎ	-1192
ቹንም	-1193
▁አድ	-1194
▁ከማ	-1195
▁ልጅ፥	-1196
▁ሰማይ	-1197
▁በላይ	-1198
▁መጽሐፍ	-1199
▁እንዳዘ	-1200
ሙን	-1201
ሞታ	-1202
ቀቅ	-1203
▁ሜ	-1204
▁ቀር	-1205
▁በእሳት	-1206
▁እርስዋም	-1207
ብ፥	-1208
▁የና	-1209
▁የኤ	-1210
▁በከተ	-1211
▁ወርቅ	-1212
▁ሁልጊዜ	-1213
▁መንግሥት	-1214
▁እንዲሁም	-1215
ርሃ	-1216
ባኤ	-1217
ብሎ	-1218
ነዓ	-1219
ዩም	-1220
ዮን	-1221
ልና፤	-1222
▁ማኅ	-1223
▁በሬ	-1224
▁ከበ	-1225
▁እንስ	-1226
ርና	-1227
ፈው	-1228
ኮረብ	-1229
▁በጽ	-1230
▁ተና	-1231
▁የፍ	-1232
▁ለእኔ	-1233
ህ፤	-1234
ሉአ	-1235
ወስ	-1236
ጳውሎ	-1237
▁ይዞ	-1238
▁በድን	-1239
▁ዮሴፍ	-1240
▁በምድረ	-1241
▁በሰይፍ	-1242
ምነት	-1243
ትንና	-1244
▁ይህንም	-1245
▁ኃያ	-1246
▁እባ	-1247
▁አንዳ	-1248
▁አወጣ	-1249
▁እንዳት	-1250
▁እንዲሆን	-1251
ተህ	-1252
ካህና	-1253
▁በፊቱ	-1254
▁ቤቶች	-1255
▁የጌታ	-1256
ዋል	-1257
ጴጥ	-1258
ብርሃ	-1259
▁ልት	-1260
▁ምድረ	-1261
▁ምድሪ	-1262
ቡ።	-1263
ችሁ፥	-1264
▁ሲል	-1265
▁ተራ	-1266
▁አሮ	-1267
▁ዕጣ	-1268
በው	-1269
ለሁና	-1270
▁ያን	-1271
ናት	-1272
ጡት	-1273
▁ሮ	-1274
መለስ	-1275
▁ርኩ	-1276
▁ገብ	-1277
▁ፈቃ	-1278
▁አሳልፎ	-1279
▁አድርግ	-1280
ብህ	-1281
ሙኤል	-1282
▁አካ	-1283
▁የዮ	-1284
▁ሆነ፥	-1285
▁ምርኮ	-1286
▁በጌታ	-1287
▁ተነሣ	-1288
▁በንጉሡ	-1289
ዎችም	-1290
ፋንታ	-1291
▁ለራ	-1292
▁ቅን	-1293
▁ከጥ	-1294
▁ጆሮ	-1295
▁ጊዜም	-1296
▁አደርጋ	-1297
▁ከሰማይ	-1298
ረክ	-1299
ዘን	-1300
ዎቹም	-1301
▁የክ	-1302
▁የኢየ	-1303
▁ከምድር	-1304
ለ።	-1305
መድ	-1306
ረኛ	-1307
ርሳ	-1308
ሰት	-1309
ጠጣ	-1310
ፈሩ	-1311
ችው።	-1312
▁ይኖራ	-1313
በሩ	-1314
ንዘ	-1315
አል	-1316
ካም	-1317
ገሩ	-1318
ገኙ	-1319
▁ምክ	-1320
▁የነ	-1321
▁የዓ	-1322
▁ይታ	-1323
▁አሥር	-1324
▁ይሁን።	-1325
ይቱ	-1326
ለህን	-1327
ቻችሁ	-1328
ዳቸው	-1329
ፈሪያ	-1330
▁አበ	-1331
▁ከሁ	-1332
ታቸውም	-1333
▁ሠላሳ	-1334
▁ትሆና	-1335
▁ናቸው	-1336
▁አገል	-1337
▁ዓለም	-1338
▁መልአክ	-1339
▁ተቀመጠ	-1340
ጠበ	-1341
መልስ	-1342
▁መጋ	-1343
▁የሕ	-1344
▁ይመ	-1345
▁ይነ	-1346
▁ጴጥ	-1347
ርምያስ	-1348
▁ታውቃ	-1349
▁ግን።	-1350
▁እናንተም	-1351
ልጥ	-1352
▁ልጄ	-1353
▁ፈጥ	-1354
▁ወጥቶ	-1355
▁ፋንታ	-1356
▁ከእንግ	-1357
▁አማልክት	-1358
ምት	-1359
ሱ፥	-1360
ብራ	-1361
ዱ፤	-1362
ጠቀ	-1363
▁ዔ	-1364
▁ባይ	-1365
▁እንጨ	-1366
▁ወሰደ	-1367
▁እንዳል	-1368
▁ያደረገ	-1369
▁በእግዚአብሔርም	-1370
ቁ።	-1371
ኢያ	-1372
ሥራቅ	-1373
▁ከደ	-1374
ልንጀራ	-1375
▁ይወጣ	-1376
▁አልነበረ	-1377
ቤል	-1378
ጊያ	-1379
ጠብቅ	-1380
▁ጕል	-1381
▁ሕያው	-1382
▁ምሳሌ	-1383
ዮች	-1384
▁አዳ	-1385
▁ሁሉን	-1386
▁ዓይን	-1387
▁የአባ	-1388
ኝም	-1389
ጽና	-1390
▁ቦ	-1391
ለን።	-1392
▁ቢያ	-1393
▁ነቢያ	-1394
▁እርሻ	-1395
▁ይበላ	-1396
▁ተናገር	-1397
▁አደባባ	-1398
▁ወንዶች	-1399
▁ፍልስጥኤማ	-1400
ላል	-1401
ሙሴ	-1402
ሴሎ	-1403
▁መዝ	-1404
▁ዘይ	-1405
▁የራ	-1406
▁አለኝ።	-1407
▁ለእናንተ	-1408
ሎት	-1409
ፍታ	-1410
▁ስማ	-1411
ውያንን	-1412
▁ትውል	-1413
▁አርባ	-1414
▁አንዲ	-1415
▁አጠፋ	-1416
▁ይሰጣ	-1417
▁ጳውሎ	-1418
ለሽ	-1419
ኅን	-1420
ወቅ	-1421
ጻፈ	-1422
▁ከእኛ	-1423
▁የተባ	-1424
ሳኦ	-1425
ቃጥ	-1426
ውቅ	-1427
ፍት	-1428
▁ስት	-1429
▁አክ	-1430
▁ይዘ	-1431
ላቸውም	-1432
ላቸው።	-1433
▁ምሕረ	-1434
▁በፊትህ	-1435
▁ካህኑም	-1436
ሁት	-1437
ኃኒ	-1438
መሰግ	-1439
ምላክ	-1440
ሶርያ	-1441
▁ቀረ	-1442
▁ባየ	-1443
▁ወራት	-1444
▁መልሶ።	-1445
▁በታላቅ	-1446
▁እስራኤልም	-1447
ኸው	-1448
ደድ	-1449
▁ክፍ	-1450
▁አስቀድሞ	-1451
▁ርኵ	-1452
▁አር	-1453
▁አቤ	-1454
ሠዊያው	-1455
▁ተቀመጡ	-1456
▁የንጉሡ	-1457
▁በአሕዛብ	-1458
▁ፋ	-1459
ውንና	-1460
ድኃኒ	-1461
ፍሬም	-1462
▁ከክ	-1463
▁ወዮ	-1464
▁የብ	-1465
▁ንጹሕ	-1466
▁ዙሪያ	-1467
▁ድንጋ	-1468
▁ሕዝቡን	-1469
▁በሰማይ	-1470
▁እላችኋ	-1471
▁አይደለምን	-1472
▁እነርሱም።	-1473
መር	-1474
መኑ	-1475
ታል፤	-1476
ገለግ	-1477
▁ታስ	-1478
▁ገለ	-1479
▁ወዲያ	-1480
▁የተወ	-1481
ስና	-1482
ብና	-1483
ትህ	-1484
ገኛ	-1485
ጠኝ	-1486
ናገሩ	-1487
▁ተማ	-1488
▁ይባ	-1489
▁ከአባ	-1490
▁ሽማግሌዎች	-1491
ሰድ	-1492
▁ለተ	-1493
▁ሕፃ	-1494
▁ተለ	-1495
▁ይከ	-1496
ቶቻቸው	-1497
▁በእር	-1498
▁ወስዶ	-1499
▁ጉባኤ	-1500
▁ፈጽሞ	-1501
▁በግብፅ	-1502
▁በእርሱም	-1503
▁አደረገ።	-1504
በስ	-1505
▁ጐ	-1506
ችንና	-1507
አል፥	-1508
ዳችሁ	-1509
▁መግ	-1510
▁ሳለ	-1511
▁የይ	-1512
▁ያሳ	-1513
▁ብለህ	-1514
▁ታቦት	-1515
▁አንበ	-1516
▁እሰጣ	-1517
▁አምላኬ	-1518
ረግ	-1519
ቡ፥	-1520
ነትም	-1521
▁ሰጣ	-1522
▁ሆነው	-1523
▁ሰውም	-1524
▁ወዲህ	-1525
▁ጥቂት	-1526
▁ሥርዓት	-1527
▁እንደዚህ	-1528
ለበት	-1529
ላል።	-1530
ዋል፥	-1531
▁መቅ	-1532
▁ቀድ	-1533
▁በሐ	-1534
▁በዮ	-1535
▁ብዬ	-1536
ርዳኖስ	-1537
▁በእጁ	-1538
▁በእጅ	-1539
▁ብርሃን	-1540
▁ተነሥቶ	-1541
▁የለም።	-1542
▁የወርቅ	-1543
ርድ	-1544
ቁ፥	-1545
ነፍ	-1546
ጹም	-1547
▁በኵ	-1548
▁የፈ	-1549
▁ሆነ።	-1550
▁በሁለ	-1551
▁ጌታዬ	-1552
▁ምስክር	-1553
▁ትንቢት	-1554
▁አብርሃ	-1555
▁ወለደ፤	-1556
▁የተቀደሰ	-1557
ንቃ	-1558
▁ጦ	-1559
▁ውጭ	-1560
ቶቼ	-1561
ውጣ	-1562
ሩንም	-1563
ንድሞ	-1564
ፀሐይ	-1565
▁ብታ	-1566
▁ከቶ	-1567
▁ከንቱ	-1568
▁የተሰ	-1569
▁ጻድቅ	-1570
▁ምክንያ	-1571
▁ብላቴና	-1572
ላን	-1573
ያት	-1574
▁አፈ	-1575
▁ዮሐ	-1576
▁ሆንሁ	-1577
▁በውኃ	-1578
▁ሳሙኤል	-1579
ለኛ	-1580
ነትን	-1581
▁ርኩስ	-1582
▁ኃይል	-1583
▁ያህል	-1584
ሠሩ	-1585
ረጃ	-1586
ተና	-1587
ዝራ	-1588
▁መቃ	-1589
▁ዝም	-1590
ቻቸውን	-1591
▁አለ፤	-1592
▁ወደሚ	-1593
▁የቀረ	-1594
መቱ	-1595
ወጡ	-1596
ዋጋ	-1597
▁ሎ	-1598
▁ከፈ	-1599
▁ብዛት	-1600
▁በእርስዋ	-1601
ሙት	-1602
ውና	-1603
ማይቱ	-1604
በት።	-1605
ታል፥	-1606
▁ትሰ	-1607
▁ከሌ	-1608
ኃጢአት	-1609
▁ሁሉም	-1610
▁መጠን	-1611
▁እስክ	-1612
▁እኔን	-1613
▁ያስተ	-1614
▁ያወጣ	-1615
▁ገንዘ	-1616
▁በመንገድ	-1617
ሞን	-1618
▁ዱ	-1619
ለም።	-1620
ንያም	-1621
▁ለሌ	-1622
▁ሕዝቤ	-1623
▁ሰረገ	-1624
▁ያውቃ	-1625
▁አይሁድ	-1626
▁ኤርምያስ	-1627
ማን	-1628
ተኞ	-1629
ድዳ	-1630
▁ዙ	-1631
▁በድ	-1632
አብርሃ	-1633
▁ወዴት	-1634
▁ለእርሱ	-1635
▁አድርጌ	-1636
▁ከግብፅ	-1637
ሞራ	-1638
ቡ፤	-1639
ታል	-1640
ኃይ	-1641
▁ተፈ	-1642
▁ተቀምጦ	-1643
▁እንዳለ	-1644
▁ይሁን፤	-1645
ሙ።	-1646
ምጣ	-1647
ፍረ	-1648
ጠብቁ	-1649
▁ተከተ	-1650
ረዳ	-1651
ከት	-1652
ውቁ	-1653
ድል	-1654
▁ሣ	-1655
▁ኑ	-1656
▁ዲ	-1657
ሃል።	-1658
▁ራሳ	-1659
▁ሰን	-1660
▁ሄደ።	-1661
▁አዘዘ	-1662
▁ከእንግዲህ	-1663
▁የነበረውን	-1664
▁በኢየሩሳሌምም	-1665
ስታ	-1666
ፍጥ	-1667
ላቸዋ	-1668
በት፥	-1669
ድጓድ	-1670
▁ከፊ	-1671
▁ዘመ	-1672
ራቸው።	-1673
▁ሁለቱ	-1674
▁በከን	-1675
▁ሕይወት	-1676
▁መልእክ	-1677
▁ነውና።	-1678
▁አድርጉ	-1679
ላው	-1680
መኛ	-1681
ማት	-1682
ሬት	-1683
ቆም	-1684
ክል	-1685
ዓዛ	-1686
ዕራ	-1687
ለችው	-1688
ናችሁ	-1689
▁በሦ	-1690
▁ይል	-1691
▁ባድማ	-1692
▁ተብሎ	-1693
▁ወንዝ	-1694
▁ምክንያት	-1695
ኖረ	-1696
ኋችሁ	-1697
ንጉሥ	-1698
▁ትዕ	-1699
ስተኛው	-1700
▁ሌሊት	-1701
▁በሕዝ	-1702
▁ክፍል	-1703
▁የዚያ	-1704
▁ምልክት	-1705
ገዙ	-1706
ሆነው	-1707
ሱንም	-1708
▁መጠ	-1709
▁ቆሞ	-1710
▁ከኤ	-1711
ባቸውን	-1712
ያዕቆብ	-1713
▁ሰቅል	-1714
▁በየወ	-1715
▁አቀረ	-1716
▁የሚበ	-1717
▁ቢሆን፥	-1718
▁ነገሠ።	-1719
▁አደባባይ	-1720
ቈጣ	-1721
ቦች	-1722
ጠፉ	-1723
ፍና	-1724
▁ቂ	-1725
ምህር	-1726
ምርያ	-1727
ትም፥	-1728
▁አህ	-1729
▁ዮና	-1730
ገናኛው	-1731
▁ሸለቆ	-1732
▁ተናግ	-1733
▁ይቅር	-1734
▁ማደሪያ	-1735
▁አላት።	-1736
▁መዛሙርቱ	-1737
▁እላችኋለሁ፥	-1738
ልሁ	-1739
ቡም	-1740
▁ተጠ	-1741
▁የቤ	-1742
▁ደር	-1743
▁መንፈ	-1744
▁ራሱን	-1745
▁ሳኦል	-1746
▁እርሱን	-1747
▁የዘላለም	-1748
ሪሳ	-1749
▁መክ	-1750
▁ራእ	-1751
▁በገ	-1752
▁የጽ	-1753
▁ይሻ	-1754
▁ጽኑ	-1755
▁ፈራ	-1756
▁አመጡ	-1757
▁ይሁን	-1758
▁ከዚህም	-1759
▁መስፈሪያ	-1760
▁እስራኤልን	-1761
ሰና	-1762
ሽንም	-1763
ቀርባ	-1764
ኤል፥	-1765
ዖንም	-1766
▁ኋላ	-1767
▁ዋጋ	-1768
▁ዝና	-1769
▁ቅጥር	-1770
▁ተቀበ	-1771
▁ይመስ	-1772
▁ፈቃድ	-1773
▁መቅደስ	-1774
▁ይናገራ	-1775
▁የሆነውን	-1776
ሪክ	-1777
ጨረ	-1778
▁በዕ	-1779
▁አግ	-1780
▁ስንኳ	-1781
▁አስተ	-1782
▁ይወስ	-1783
▁ካህናት	-1784
▁ዳዊትን	-1785
▁በክርስቶስ	-1786
ጆቹ	-1787
ጌል	-1788
ፍን	-1789
ማችሁ	-1790
▁ለበ	-1791
▁የሴ	-1792
አልና።	-1793
▁በብዙ	-1794
▁እውቀ	-1795
▁ከአን	-1796
▁ለንጉሡ	-1797
▁ሠራዊት	-1798
▁የሚኖሩ	-1799
▁ተናገረው።	-1800
ማም	-1801
ሰ።	-1802
ቍጣ	-1803
በራ	-1804
ብኝ	-1805
ቱና	-1806
ዓድ	-1807
ዱን	-1808
ድሜ	-1809
ጕር	-1810
▁ሬ	-1811
▁መረ	-1812
▁ሲያ	-1813
▁አጋ	-1814
▁ጠየ	-1815
▁አዘጋ	-1816
▁ይጠፋ	-1817
▁ታደርጋ	-1818
▁የነበሩ	-1819
▁መሰምርያ	-1820
ለኝ	-1821
ያዊ	-1822
ሃለሁ	-1823
▁ሰፈ	-1824
▁በሞ	-1825
▁ታና	-1826
▁ወድ	-1827
▁ሥርዓ	-1828
▁ሰልፍ	-1829
▁በላያ	-1830
▁በአባ	-1831
▁ካህኑ	-1832
▁ዓይኖ	-1833
▁ጥበብ	-1834
▁ሁለተኛ	-1835
▁ትውልድ	-1836
▁ኢዮአብ	-1837
▁በምድርም	-1838
ሌክ	-1839
ኑ፤	-1840
ንቅ	-1841
ግር	-1842
ማል።	-1843
▁ማዕ	-1844
▁ትወ	-1845
▁አዋ	-1846
▁እል	-1847
▁ክን	-1848
ሃለሁ።	-1849
▁በጎች	-1850
▁እኛም	-1851
▁ይህች	-1852
▁ሳኦልም	-1853
▁እንጨት	-1854
▁የተናገ	-1855
ቁን	-1856
ጨነ	-1857
ድረግ	-1858
አልና፥	-1859
▁በረከ	-1860
▁ከኢየ	-1861
▁ክርስ	-1862
▁ደስታ	-1863
▁በሕዝቡ	-1864
▁ከይሁዳ	-1865
▁ወደዚህ	-1866
▁የነበረ	-1867
▁ጴጥሮስ	-1868
▁ነበርና።	-1869
▁እነዚህን	-1870
ሰብ	-1871
ቅን	-1872
ጸል	-1873
▁ሹ	-1874
▁ኬ	-1875
▁ጩ	-1876
ለምን	-1877
ርብዓ	-1878
ናቸው	-1879
ዊትም	-1880
ጋችሁ	-1881
▁ሚዛ	-1882
▁ፍየ	-1883
▁ቍጥር	-1884
▁እየተ	-1885
▁ወይፈ	-1886
▁ወደቀ	-1887
▁የመን	-1888
▁ጊዜ።	-1889
▁ያሉትን	-1890
▁ሕዝቅያስ	-1891
▁አደረገ፤	-1892
ርክ	-1893
ሾች	-1894
ቁ፤	-1895
ችው	-1896
▁ጢ	-1897
▁ተመ	-1898
▁ተሸ	-1899
▁ከል	-1900
ናቸውም	-1901
▁በዓይ	-1902
▁ነፋስ	-1903
▁ወጣ።	-1904
▁አንዳች	-1905
▁ወገኖች	-1906
▁በመጀመሪያ	-1907
ቲቱ	-1908
ወት	-1909
ለን፤	-1910
ሜሌክ	-1911
▁ማዶ	-1912
▁ርዝ	-1913
▁ቃሌ	-1914
▁አዝ	-1915
▁እኅ	-1916
▁የሐ	-1917
▁ያላ	-1918
▁ይሸ	-1919
▁በሰው	-1920
▁በእጃ	-1921
▁ክፋት	-1922
▁ወረደ	-1923
▁ይሠራ	-1924
▁ልጆች፤	-1925
▁አደረግ	-1926
▁ክርስቲ	-1927
▁ወንድም	-1928
ለቅ	-1929
ናወ	-1930
ስያስ	-1931
ቀርቡ	-1932
▁ከዓ	-1933
▁የዳ	-1934
▁በኢዮ	-1935
▁በወን	-1936
▁እጁን	-1937
▁ጨለማ	-1938
▁ፈቀቅ	-1939
▁ለሕዝቡ	-1940
▁መድኃኒ	-1941
▁በተራራ	-1942
ቃል	-1943
ኸኝ	-1944
ወቀ	-1945
ገት	-1946
ርያም	-1947
ፈርድ	-1948
ማይቱም	-1949
▁ለእነ	-1950
▁በሰባ	-1951
▁በደረ	-1952
▁ይመለ	-1953
▁ይወድቃ	-1954
▁ኵ	-1955
ደረጉ	-1956
▁ተዋ	-1957
▁ኪዳ	-1958
▁የኢ	-1959
▁በመል	-1960
▁በመጣ	-1961
▁በምት	-1962
▁በገባ	-1963
▁አጥን	-1964
▁የኢዮ	-1965
▁ያልተ	-1966
▁ያጠፋ	-1967
▁ምስጋና	-1968
▁አንዲት	-1969
▁በኢየሱስ	-1970
▁የነበሩትን	-1971
አት	-1972
የት	-1973
▁ች	-1974
ለውም	-1975
ላእክ	-1976
ኑንም	-1977
ዎችን	-1978
▁መቼ	-1979
▁ሰይ	-1980
▁አቢ	-1981
▁ጋሻ	-1982
▁ጠቦ	-1983
ላችሁን	-1984
ፈርዖን	-1985
▁ነኝ፤	-1986
▁አውቃ	-1987
▁የሆኑ	-1988
▁ደመና	-1989
▁ጠርቶ	-1990
▁ፍቅር	-1991
▁በእነርሱ	-1992
ማው	-1993
ናን	-1994
ባቸዋ	-1995
ቴንም	-1996
ከደነ	-1997
▁ሰላ	-1998
▁በና	-1999
▁ከቤ	-2000
▁ፈረ	-2001
▁ሥልጣ	-2002
▁እያሉ	-2003
▁ከመን	-2004
▁የብር	-2005
▁በመቅደ	-2006
▁እያንዳንዱ	-2007
ሙም	-2008
ማስ	-2009
ሞላ	-2010
ሱ፤	-2011
ሳይ	-2012
ቂያ	-2013
▁ኀ	-2014
ርያስ	-2015
▁ልቤ	-2016
▁ሞት	-2017
▁ተደ	-2018
▁ጸጋ	-2019
▁ነኝ።	-2020
▁ኢያሱ	-2021
▁ይሄዳ	-2022
▁ይዘው	-2023
▁በአሥራ	-2024
▁በመሠዊያው	-2025
▁አምላካችን	-2026
▁አይደለም።	-2027
ለዋ	-2028
ደዱ	-2029
ጠባ	-2030
ለት፤	-2031
▁ቀኝ	-2032
▁ቦታ	-2033
▁አዲ	-2034
▁ስለሚ	-2035
▁በሥጋ	-2036
▁በፊቴ	-2037
▁አሳብ	-2038
▁አገኘ	-2039
▁ወጣ፥	-2040
▁የሚል	-2041
▁የተለ	-2042
▁መጥተው	-2043
▁ሰሎሞን	-2044
▁አለው፤	-2045
▁አደርግ	-2046
▁ጳውሎስ	-2047
ሦር	-2048
ጸመ	-2049
ጻሜ	-2050
▁ሞገ	-2051
▁ተን	-2052
▁ከቀ	-2053
▁ከታ	-2054
▁በሰን	-2055
▁በእኛ	-2056
▁ነውን	-2057
▁አለቆ	-2058
▁ወይን	-2059
▁ሰዎችም	-2060
▁አንተን	-2061
▁ከእርስዋ	-2062
ሩቅ	-2063
ቡን	-2064
ንቋ	-2065
ድርግ	-2066
▁የላ	-2067
▁ቀንም	-2068
▁በሆነ	-2069
▁እግር	-2070
▁ምድርን	-2071
▁ያደርግ	-2072
▁በአንድነት	-2073
ሁም	-2074
ኛል	-2075
ድራ	-2076
ጠረ	-2077
▁ኦ	-2078
ቃጠል	-2079
ትን፥	-2080
ገለጠ	-2081
▁ናቡ	-2082
▁ጠቢ	-2083
▁ስምን	-2084
▁በደል	-2085
▁አንዳን	-2086
▁እነዚያ	-2087
▁ያዕቆብም	-2088
▁እግዚአብሔር፤	-2089
▁እግዚአብሔርንም	-2090
ማል	-2091
ፊያ	-2092
ባችኋ	-2093
ትም፤	-2094
ኛውም	-2095
▁ሰጥ	-2096
▁ስጦ	-2097
▁አሜ	-2098
▁ናት፤	-2099
▁አቅር	-2100
▁አንሥ	-2101
▁ካህን	-2102
▁ምሕረት	-2103
▁ተመልከ	-2104
▁ነገርን	-2105
▁አባቶቻ	-2106
▁እንዳያ	-2107
▁የሚገባ	-2108
ቡብ	-2109
ሉት።	-2110
መስግ	-2111
ረኞች	-2112
ኛል።	-2113
ጨለማ	-2114
ጨረሻ	-2115
▁የጥ	-2116
▁ጽዋ	-2117
ላቸው፥	-2118
▁ምድርም	-2119
▁በዚህም	-2120
▁ወደዚያ	-2121
▁የአሕዛብ	-2122
▁አምላካችሁ	-2123
ራን	-2124
ብላ	-2125
ገሥ	-2126
መልሳ	-2127
ውም።	-2128
ፈልጉ	-2129
▁ቆመ	-2130
▁እሳ	-2131
▁እዘ	-2132
▁ክፋ	-2133
▁ወሬ	-2134
▁ይጥ	-2135
ዶምያስ	-2136
▁ሰደደ	-2137
▁ትበላ	-2138
▁ኢያሱም	-2139
▁አለችው።	-2140
▁እነዚህም	-2141
▁የነበሩት	-2142
▁በእስራኤልም	-2143
ሌታ	-2144
ምባ	-2145
ሽ፥	-2146
ዬም	-2147
▁ሐሰ	-2148
▁አቆ	-2149
▁መልክ	-2150
▁ምክር	-2151
▁ሰዓት	-2152
▁በኃይ	-2153
▁በባሕር	-2154
▁አለች።	-2155
▁አገልግ	-2156
▁ኤልያስ	-2157
▁ያዕቆብ	-2158
▁ድረስ፥	-2159
ቀላ	-2160
ቅ፥	-2161
ተን	-2162
ቱ፥	-2163
ነጻ	-2164
ገጃ	-2165
ጎች	-2166
ቀበል	-2167
ዋርያ	-2168
▁ሸክ	-2169
▁ቀለ	-2170
▁እጃ	-2171
▁የዕ	-2172
▁ደዌ	-2173
▁ጠባ	-2174
ከደነፆ	-2175
▁በምን	-2176
▁ነገሩ	-2177
▁እውነ	-2178
▁ከከተ	-2179
▁ደረሰ	-2180
▁ለዳዊት	-2181
▁መሰምርያዋ	-2182
▁የእግዚአብሔርንም	-2183
መታ	-2184
መት	-2185
ነሡ	-2186
ከር	-2187
ዎን	-2188
ዮስ	-2189
ሁትን	-2190
ደሮች	-2191
ጠብቃ	-2192
▁መሠ	-2193
▁መው	-2194
▁በዙ	-2195
▁ቤቱ	-2196
▁ተጽ	-2197
▁ይደ	-2198
ዎቹንም	-2199
▁በከንቱ	-2200
▁አንበሳ	-2201
▁ኃጢአትን	-2202
ረጥ	-2203
ቁም	-2204
ኪያ	-2205
ደል	-2206
በት፤	-2207
አቸዋ	-2208
▁ለዘ	-2209
▁ለደ	-2210
▁ሌሎ	-2211
▁መባ	-2212
▁ሰል	-2213
▁ተዘ	-2214
▁ይነግ	-2215
አብርሃም	-2216
▁መስገጃ	-2217
▁ከሕዝቡ	-2218
▁ዓይኖች	-2219
▁ይሆናል፥	-2220
▁አይደለም፤	-2221
ማማ	-2222
ማረ	-2223
ንቆ	-2224
ውር	-2225
ጥም	-2226
ጥን	-2227
ሉትን	-2228
▁ሂድ	-2229
▁ለካ	-2230
▁መጻ	-2231
▁በሴ	-2232
▁እወ	-2233
▁እጄ	-2234
▁ካል	-2235
▁ደጅ	-2236
▁ድሀ	-2237
▁ፈሳ	-2238
ባቸው።	-2239
▁መንጋ	-2240
▁አምስ	-2241
▁ፍጻሜ	-2242
▁ነውና፤	-2243
▁አልሁ።	-2244
▁አደረጉ።	-2245
▁እግዚአብሔርም።	-2246
ወሰ	-2247
ገላ	-2248
ገዱ	-2249
ጠር	-2250
ቶቹም	-2251
ቶችን	-2252
▁ጣዖ	-2253
▁ፈን	-2254
▁ለሰው	-2255
▁ማስተ	-2256
▁ሰውን	-2257
▁በስተ	-2258
▁በቤቱ	-2259
▁በነገ	-2260
▁አለቀ	-2261
▁ካለው	-2262
▁ወጣ፤	-2263
▁የሰማይ	-2264
▁በመንፈስ	-2265
ቀል	-2266
ዝም	-2267
ተውም	-2268
ዎቹን	-2269
ጣችሁ	-2270
▁ዳን	-2271
ባቸውም	-2272
▁ቢኖር	-2273
▁ናት።	-2274
▁ናችሁ	-2275
▁አይቶ	-2276
▁እግሮ	-2277
▁የሚወ	-2278
▁ግብጽ	-2279
▁ባሪያህ	-2280
▁አቤሴሎ	-2281
▁አንዱን	-2282
▁እንስሳ	-2283
▁ኢየሱስም።	-2284
ለቀ	-2285
ለ፤	-2286
ሜዳ	-2287
ምነ	-2288
ሬታ	-2289
ሶም	-2290
በለ	-2291
አለሁ	-2292
ፈልጋ	-2293
▁በሸ	-2294
▁በጣ	-2295
▁ጩኸ	-2296
▁ጮኸ	-2297
ሃለሁ፤	-2298
▁ለጌታ	-2299
▁ቀርቦ	-2300
▁ተጠን	-2301
▁አሮን	-2302
▁ጕልማ	-2303
▁መጋረጃ	-2304
▁በእጅህ	-2305
▁የለም፤	-2306
▁ሰሎሞንም	-2307
▁የሚቃጠለውን	-2308
ማር	-2309
ከማ	-2310
ዓን	-2311
ሃልና	-2312
ሣፍጥ	-2313
▁ልዩ	-2314
▁ባዩ	-2315
▁ተባ	-2316
▁ትላ	-2317
▁አዛ	-2318
▁ከራ	-2319
▁የግ	-2320
▁ዳግ	-2321
ተኞችን	-2322
ካህናት	-2323
▁ነውር	-2324
▁ከሆነ	-2325
▁የነገ	-2326
▁ያሉት	-2327
ታቸውንም	-2328
▁በሌሊት	-2329
▁ተራሮች	-2330
▁ወዳለው	-2331
▁የሚመስ	-2332
▁አድርገው	-2333
ለቱ	-2334
ሳው	-2335
ሶን	-2336
ፈተ	-2337
▁ቡ	-2338
ማል፥	-2339
ዎች፥	-2340
ዘጋጀ	-2341
▁ከሕ	-2342
▁ከነ	-2343
ናውያን	-2344
ደርገው	-2345
▁ሕይወ	-2346
▁ቀድሞ	-2347
▁በሚያ	-2348
▁አንደ	-2349
ቻቸውንም	-2350
▁ናቸው፥	-2351
▁ከግብጽ	-2352
▁የሚሆን	-2353
▁እንደሚያ	-2354
▁ከእስራኤልም	-2355
ሉና	-2356
ሠዋ	-2357
ቼን	-2358
ዳና	-2359
ለት፥	-2360
ሉም።	-2361
ላችን	-2362
ርንጫ	-2363
ቃችሁ	-2364
ቶችም	-2365
ኛል፤	-2366
ደባባ	-2367
▁ወረ	-2368
▁ምስክ	-2369
▁ሰውነ	-2370
▁በቤት	-2371
▁ከነዓ	-2372
▁ዙፋን	-2373
▁የዚህ	-2374
ባቶቻቸው	-2375
▁ሥልጣን	-2376
▁ቅዱሳን	-2377
▁ነውና፥	-2378
▁አልዓዛ	-2379
▁የዚያን	-2380
ረ፥	-2381
ነጋ	-2382
ጠነ	-2383
ጠጡ	-2384
ሃል፤	-2385
ተው።	-2386
ታንም	-2387
ይሁድ	-2388
ፈልግ	-2389
▁ራሱ	-2390
▁ተሻ	-2391
▁ተአ	-2392
▁አና	-2393
▁የው	-2394
▁ዳሩ	-2395
ላቸውን	-2396
▁ሁሉ።	-2397
▁በምድ	-2398
▁በራሱ	-2399
▁በትር	-2400
▁ተጽፎ	-2401
▁አገባ	-2402
▁ዕድሜ	-2403
▁ለባሪያ	-2404
▁መቃብር	-2405
▁መጀመሪያ	-2406
▁እግዚአብሔር፥	-2407
ሙ፥	-2408
ርከ	-2409
ሰር	-2410
ቁት	-2411
ብት	-2412
ዕማ	-2413
ጠግ	-2414
ፋጭ	-2415
ፍር	-2416
ሳኦል	-2417
ቀርብ	-2418
ኋቸው	-2419
ውን፥	-2420
▁ሠር	-2421
▁ከሞ	-2422
▁ደረ	-2423
ኅንነት	-2424
ደረገው	-2425
▁ሄዱ።	-2426
▁ለፊት	-2427
▁መጡ።	-2428
▁በብር	-2429
▁በዓል	-2430
▁ነቢይ	-2431
▁አባቴ	-2432
▁አይሁ	-2433
▁ኢዮአ	-2434
▁እባክ	-2435
▁ዘይት	-2436
▁የሰማ	-2437
▁የአን	-2438
▁ግንብ	-2439
▁ጭፍራ	-2440
▁ዮሴፍም	-2441
ሊላ	-2442
ሚያ	-2443
ሰሰ	-2444
ሴም	-2445
ድነ	-2446
ጃፍ	-2447
ፉን	-2448
▁ኮ	-2449
በኞች	-2450
ተላለ	-2451
ቱንና	-2452
አችሁ	-2453
ወትር	-2454
ውም፥	-2455
▁ልኮ	-2456
▁በቃ	-2457
ሃለሁ፥	-2458
▁መቅሠ	-2459
▁በሙሴ	-2460
▁ከጌታ	-2461
▁ዕለት	-2462
▁ገብቶ	-2463
▁ግን፥	-2464
▁አልሰማ	-2465
▁አሳልፌ	-2466
▁እጅግም	-2467
▁የተቈጠ	-2468
▁ጕድጓድ	-2469
▁ባልንጀራ	-2470
▁ይሆናሉ።	-2471
▁በዮርዳኖስ	-2472
ሪም	-2473
ርፍ	-2474
ሲካ	-2475
ኅና	-2476
ነካ	-2477
ዘዙ	-2478
ጥ፥	-2479
ጸም	-2480
▁ቋ	-2481
ማል፤	-2482
ንም፤	-2483
▁ነህ	-2484
▁አሸ	-2485
▁አኪ	-2486
▁ከግ	-2487
▁የሁ	-2488
▁ግም	-2489
ታችሁን	-2490
ችኋል፤	-2491
አቸውም	-2492
ዋለሁ።	-2493
▁መብል	-2494
▁ነገረ	-2495
▁አያስ	-2496
▁አድነ	-2497
▁ከሰው	-2498
▁የምን	-2499
▁የበግ	-2500
▁ርኵሰት	-2501
▁ብዙዎች	-2502
▁አንዱም	-2503
▁የተሠራ	-2504
▁ያደርጉ	-2505
▁ዳግመኛ	-2506
▁ገንዘብ	-2507
▁ተቀመጡ።	-2508
▁የነበረው	-2509
ልታ	-2510
ሉንም	-2511
መጣው	-2512
ዎችና	-2513
ድቃን	-2514
▁ሌሊ	-2515
▁ልቅ	-2516
▁ሎሌ	-2517
▁ቁር	-2518
▁ተቈ	-2519
▁አእ	-2520
▁ክብ	-2521
▁ውሰ	-2522
▁የጋ	-2523
▁ሌሎች	-2524
▁ይነሣ	-2525
▁ይገድ	-2526
▁ደጃፍ	-2527
ቶቻቸውም	-2528
ከደነፆር	-2529
▁ሁለቱን	-2530
▁ልብሱን	-2531
▁መላእክ	-2532
▁ስምንት	-2533
▁በግብጽ	-2534
▁በፍጹም	-2535
▁ኃያላን	-2536
▁የሕዝቡ	-2537
▁የተጻፈ	-2538
ረፈ	-2539
ችላ	-2540
ኵራ	-2541
ወግ	-2542
ዩን	-2543
ጠይ	-2544
ፀን	-2545
ፋ፥	-2546
ፍቶ	-2547
▁ሃ	-2548
መሰገ	-2549
በረታ	-2550
ባትም	-2551
ድርጉ	-2552
▁መሐ	-2553
▁ማል	-2554
▁እላ	-2555
▁የሸ	-2556
▁ያያ	-2557
▁ይጨ	-2558
▁ዱቄ	-2559
▁ላይ፥	-2560
▁ስጦታ	-2561
▁ቆመው	-2562
▁በልቡ	-2563
▁አልቻ	-2564
▁አትበ	-2565
▁አይታ	-2566
▁ከነበ	-2567
▁ፀሐይ	-2568
▁ፈሪሳ	-2569
▁መግቢያ	-2570
▁በመከራ	-2571
▁በአንቺ	-2572
▁ነፍሴን	-2573
▁አይገባ	-2574
▁እምነት	-2575
▁ፍርድን	-2576
▁በፊታቸው	-2577
▁እንዳዘዘ	-2578
ልሙ	-2579
ረዱ	-2580
ስ።	-2581
ቃወ	-2582
ጣን	-2583
ፈለ	-2584
ናገረ	-2585
▁ሆኑ	-2586
▁መና	-2587
▁ተጣ	-2588
▁የጌ	-2589
▁ይቈ	-2590
▁ጥላ	-2591
ችኋል።	-2592
ዋውያን	-2593
▁ለአባ	-2594
▁ቃሉን	-2595
▁በጠላ	-2596
▁ተነሡ	-2597
▁አግኝ	-2598
▁የሚሰ	-2599
▁የከተ	-2600
▁ይስሐ	-2601
▁ይህችን	-2602
ለዱ	-2603
ምሩ	-2604
ቅዱ	-2605
ኣል	-2606
ድድ	-2607
ፈታ	-2608
ፉ።	-2609
▁ለቀ	-2610
▁ሜዳ	-2611
▁በጕ	-2612
▁አቅ	-2613
▁ኤሊ	-2614
▁ከስ	-2615
አቸው፤	-2616
ኮረብታ	-2617
ገለዓድ	-2618
▁ልጁን	-2619
▁ልጆቹ	-2620
▁መጣ፥	-2621
▁ምናል	-2622
▁ራእይ	-2623
▁ሰጥቶ	-2624
▁ስድሳ	-2625
▁በነበ	-2626
▁አትፍ	-2627
▁አኖረ	-2628
▁የምና	-2629
▁ያመጣ	-2630
▁በጽድቅ	-2631
▁ባቢሎን	-2632
▁ተሰበሰ	-2633
▁አመስግ	-2634
▁የታመነ	-2635
▁ጠላቶች	-2636
▁የአምላካ	-2637
ሃት	-2638
ሎን	-2639
ሐፊ	-2640
ምረ	-2641
ረጠ	-2642
ቱ።	-2643
ጥኣ	-2644
▁ሀ	-2645
ሮንም	-2646
ንቀሳ	-2647
ዊውም	-2648
ይቱም	-2649
▁መሳ	-2650
▁በዝ	-2651
▁እኵ	-2652
▁እጥ	-2653
▁ፈል	-2654
▁ምልክ	-2655
▁ተለይ	-2656
▁ያቃጥ	-2657
▁ይሆኑ	-2658
▁በሕይወ	-2659
▁ቸርነት	-2660
▁የሚሆነ	-2661
▁ዮሐንስ	-2662
▁በእምነት	-2663
▁የሚያደርግ	-2664
ሙ፤	-2665
ረባ	-2666
በቅ	-2667
ብዳ	-2668
ዘዝ	-2669
ጉም	-2670
ጉን	-2671
ጠቅ	-2672
ፈት	-2673
ሙንም	-2674
ዋለሁ	-2675
ውም፤	-2676
ያውቅ	-2677
▁ዕረ	-2678
▁ያየ	-2679
▁ጥሩ	-2680
▁ሁለቱም	-2681
▁ሰፈሩ።	-2682
▁በኋላ፥	-2683
▁እንድን	-2684
▁የባሪያ	-2685
▁የተመረ	-2686
▁ያገለግ	-2687
▁ይመለሳ	-2688
▁ሌዋውያን	-2689
▁በመካከላቸው	-2690
ዞች	-2691
ግጥ	-2692
ጮኻ	-2693
ሎሞን	-2694
ኖረው	-2695
ኛልና	-2696
ዕራብ	-2697
ገለጥ	-2698
▁ሆና	-2699
▁ለሁ	-2700
▁በጭ	-2701
▁እጆ	-2702
▁ከዘ	-2703
▁ያሰ	-2704
ዴቅያስ	-2705
▁ሠራዊ	-2706
▁ሰምቶ	-2707
▁በውስ	-2708
▁በየአ	-2709
▁ተከት	-2710
▁አይሆ	-2711
▁ዛሬም	-2712
▁የምድ	-2713
▁ይሞታ	-2714
▁ይሰማ	-2715
▁ጠጕር	-2716
▁ጣፋጭ	-2717
▁በዳዊት	-2718
▁አስተዋ	-2719
▁የዳዊት	-2720
▁በርሳቸው	-2721
▁ተናገረ።	-2722
▁እርሱንም	-2723
ሪኮ	-2724
በቃ	-2725
በ።	-2726
ነቱ	-2727
ዳይ	-2728
ጋው	-2729
ግሣ	-2730
ፋስ	-2731
▁ጓ	-2732
ርዳኖ	-2733
ደርስ	-2734
▁ስብ	-2735
▁ይስ	-2736
▁ይተ	-2737
▁ፍላ	-2738
በታል።	-2739
አቸው፥	-2740
▁ሄደ፥	-2741
▁ቅሬታ	-2742
▁በስም	-2743
▁ተባት	-2744
▁አልወ	-2745
▁አዲስ	-2746
▁እሆና	-2747
▁ከክፉ	-2748
ችኋለሁ።	-2749
▁ሐዋርያ	-2750
▁የኃጢአ	-2751
▁ይሁዳም	-2752
▁ዳንኤል	-2753
▁ምናልባት	-2754
▁ነበረች።	-2755
ለ፥	-2756
ልቶ	-2757
መካ	-2758
ጣት	-2759
መለሰ	-2760
ችውን	-2761
ገናኘ	-2762
▁ስሜ	-2763
▁በጸ	-2764
▁አሥ	-2765
▁ሰብስ	-2766
▁ቃሌን	-2767
▁በሜዳ	-2768
▁በሠራ	-2769
▁በአራ	-2770
▁በኢያ	-2771
▁ታላቁ	-2772
▁ነኝ፥	-2773
▁እሄዳ	-2774
▁እንቢ	-2775
▁የሌለ	-2776
▁የሰጠ	-2777
▁አራዊት	-2778
▁የሚችል	-2779
▁የአንድ	-2780
▁ድንበር	-2781
▁ሳሙኤልም	-2782
▁ከእነዚህ	-2783
▁ወንዶችና	-2784
▁በእርስዋም	-2785
▁እርስዋም።	-2786
ልስጥኤማውያን	-2787
ረሳ	-2788
ረካ	-2789
ስቱ	-2790
ቀና	-2791
ቴል	-2792
ከረ	-2793
ግቶ	-2794
▁ዞ	-2795
ዋልና	-2796
ዓብም	-2797
ጽናና	-2798
▁ማር	-2799
▁ባት	-2800
▁ከሙ	-2801
▁ከሴ	-2802
▁ፈለ	-2803
ምላክህ	-2804
ርብዓም	-2805
▁ሂድ፥	-2806
▁ሄደ፤	-2807
▁ለዚህ	-2808
▁ልቅሶ	-2809
▁ስላል	-2810
▁በልብ	-2811
▁አስታ	-2812
▁አነሣ	-2813
▁ፈንታ	-2814
▁መጨረሻ	-2815
▁ማኅበር	-2816
▁ሰላምታ	-2817
▁ቅርንጫ	-2818
▁እለምን	-2819
▁እኔም።	-2820
▁ካህናቱ	-2821
▁የከበረ	-2822
▁በየወገና	-2823
▁ተቀመጠ።	-2824
▁ኢዮሣፍጥ	-2825
▁ለእግዚአብሔርም	-2826
ምለ	-2827
ምታ	-2828
ሬን	-2829
ኔን	-2830
ኩ።	-2831
ጥራ	-2832
መላለ	-2833
ሮችም	-2834
በሩም	-2835
ብዳቤ	-2836
ቲቱም	-2837
ኖሩት	-2838
ኸውን	-2839
▁ሞላ	-2840
▁ብን	-2841
▁ተኝ	-2842
▁የቆ	-2843
ላቸው፤	-2844
ቸውም።	-2845
▁ለሚያ	-2846
▁ለእኛ	-2847
▁መለከ	-2848
▁ብርቱ	-2849
▁ናትና	-2850
▁ዓመፀ	-2851
▁በግምባ	-2852
▁አሮንም	-2853
▁እንድታ	-2854
▁ይላሉ።	-2855
▁ይወስዳ	-2856
▁እባክህ፥	-2857
▁ለእያንዳን	-2858
▁በመገናኛው	-2859
ሃል	-2860
ለከ	-2861
ሔም	-2862
ስል	-2863
ቃም	-2864
በብ	-2865
ባን	-2866
ክራ	-2867
ዝን	-2868
ዴን	-2869
ፈጽ	-2870
▁ጃ	-2871
ግሥት	-2872
▁ልባ	-2873
▁ንገ	-2874
▁የት	-2875
▁የጻ	-2876
▁ይው	-2877
ባቸው፥	-2878
▁ሠራ።	-2879
▁ሶርያ	-2880
▁አድም	-2881
▁ኤልያ	-2882
▁እድል	-2883
▁ጠባቂ	-2884
ቸዋለሁ።	-2885
▁በወርቅ	-2886
▁አመሰግ	-2887
▁አስነሣ	-2888
▁አባቶች	-2889
▁ያደረግ	-2890
▁ይሆናል	-2891
▁ኢየሱስን	-2892
▁የኢየሱስ	-2893
▁የይሁዳም	-2894
ለድ	-2895
ሳም	-2896
ቀት	-2897
ኰራ	-2898
ውራ	-2899
ዳሄ	-2900
ዶክ	-2901
▁ሱ	-2902
ሃል፥	-2903
ለን፥	-2904
ማቸው	-2905
ባኖስ	-2906
ቻችን	-2907
▁ለይ	-2908
▁ልታ	-2909
▁ቸር	-2910
▁ኖሮ	-2911
▁ከዋ	-2912
▁ከዮ	-2913
▁የሮ	-2914
▁የዔ	-2915
▁የጠ	-2916
▁ጮኹ	-2917
▁በሰሙ	-2918
▁በቍጣ	-2919
▁አህያ	-2920
▁አቃጠ	-2921
▁አበዛ	-2922
▁አኖራ	-2923
▁ከሚያ	-2924
▁የእህ	-2925
▁በኃጢአ	-2926
▁ተቀመጥ	-2927
▁ነቢያት	-2928
▁ወለደ።	-2929
▁ዘንድ።	-2930
▁ይቀመጣ	-2931
▁ፈርዖን	-2932
▁እውነተኛ	-2933
▁የባቢሎን	-2934
▁የተቀመጡ	-2935
ርፋ	-2936
ሳዕ	-2937
ናጸ	-2938
ክስ	-2939
ዘራ	-2940
ዶን	-2941
▁ጲ	-2942
ለው፥	-2943
ምና፥	-2944
ሮስም	-2945
ከተል	-2946
▁ለድ	-2947
▁መዓ	-2948
▁ከሐ	-2949
▁ያም	-2950
ሳቸውም	-2951
አለሁ፤	-2952
▁ለልጅ	-2953
▁ለልጆ	-2954
▁ልጁም	-2955
▁ልጅም	-2956
▁መርከ	-2957
▁መጣ፤	-2958
▁ምንጭ	-2959
▁ሰበሰ	-2960
▁ሰፈር	-2961
▁ተጻፈ	-2962
▁ታላላ	-2963
▁አባቱ	-2964
▁እናት	-2965
▁ከሁሉ	-2966
▁የማያ	-2967
▁ያመጡ	-2968
▁ይሸከ	-2969
▁ደርሶ	-2970
▁በጨለማ	-2971
▁ትምህር	-2972
▁ወንጌል	-2973
▁ዘላለም	-2974
▁በእርግጥ	-2975
▁በእነዚህ	-2976
▁በዙሪያው	-2977
▁መሥዋዕትና	-2978
▁እንዳዘዘው	-2979
▁አልነበረም።	-2980
ስህ	-2981
ቀ።	-2982
ኝን	-2983
ኩም	-2984
ኬም	-2985
ክሩ	-2986
ኵር	-2987
ዶቹ	-2988
ሁም።	-2989
ልኝ።	-2990
▁ብል	-2991
ታችሁም	-2992
▁ለአን	-2993
▁በወጣ	-2994
▁ነኝና	-2995
▁አለ፥	-2996
▁ከብዙ	-2997
▁ከተሞ	-2998
▁ጥፋት	-2999
▁ፋሲካ	-3000
ያዕቆብም	-3001
▁እስክት	-3002
▁ሁለተኛው	-3003
▁በአምላካ	-3004
▁ተነሥተው	-3005
▁ከአሕዛብ	-3006
▁አገልግሎት	-3007
▁የኢየሩሳሌም	-3008
ላጦ	-3009
ሌም	-3010
ልባ	-3011
ሮቹ	-3012
ቼም	-3013
ኦል	-3014
ክላ	-3015
ኮር	-3016
ዩ፥	-3017
ደዳ	-3018
ጠ፥	-3019
ለቆች	-3020
ናል።	-3021
▁ለክ	-3022
▁ሊቀ	-3023
▁ሐሤ	-3024
▁ስእ	-3025
▁ታያ	-3026
▁ኪሩ	-3027
▁ድር	-3028
መለከት	-3029
ቢሎንም	-3030
ቸዋል፤	-3031
አቸውን	-3032
ውያንና	-3033
▁በሥራ	-3034
▁ታሪክ	-3035
▁አልፎ	-3036
▁እስካ	-3037
▁የተጠ	-3038
▁የድን	-3039
▁ይፈር	-3040
▁ግምጃ	-3041
ቸዋለሁ፤	-3042
▁ሁሉንም	-3043
▁መክሊት	-3044
▁ሰማያት	-3045
▁ሰዎችን	-3046
▁በድንኳ	-3047
▁ወገን፥	-3048
▁የእሳት	-3049
▁ጠቦቶች	-3050
▁ለአሕዛብ	-3051
▁አሕዛብን	-3052
▁ይመጣል፥	-3053
▁መዛሙርቱም	-3054
▁በእነርሱም	-3055
▁ክርስቲያን	-3056
ሁህ	-3057
ሮድ	-3058
ሴን	-3059
በቱ	-3060
ዩ።	-3061
▁ኅ	-3062
▁ኩ	-3063
ምራት	-3064
ሰቢያ	-3065
ቢያት	-3066
ኛውን	-3067
ያውቁ	-3068
▁ሆይ	-3069
▁ሸሽ	-3070
▁ተር	-3071
▁እቀ	-3072
▁ያዙ	-3073
▁ላከ።	-3074
▁በኵር	-3075
▁አሉ፤	-3076
▁እሰጥ	-3077
▁ወጡ።	-3078
▁ወፎች	-3079
▁የሕዝ	-3080
▁ይገደ	-3081
▁ፈረሰ	-3082
ቸዋለሁ፥	-3083
▁በደስታ	-3084
▁ተገለጠ	-3085
▁ነገሥታ	-3086
▁አትፍራ	-3087
▁ከኃጢአ	-3088
▁ከእኔም	-3089
▁ክንድ፥	-3090
▁የሚወድ	-3091
▁ሕዝቡንም	-3092
▁ማናቸውም	-3093
▁ስለዚህ፥	-3094
▁በመልካም	-3095
▁በመካከል	-3096
▁አሕዛብም	-3097
▁አብርሃም	-3098
▁አይደለሁ	-3099
▁የሚሆነውን	-3100
▁የክርስቶስ	-3101
ለል	-3102
ለጥ	-3103
ልጦ	-3104
ሳድ	-3105
ሸጉ	-3106
ብሻ	-3107
ንኳ	-3108
ንጨ	-3109
ኞቹ	-3110
ከሩ	-3111
ጮኽ	-3112
ሉም፤	-3113
መለሱ	-3114
ስተዋ	-3115
ነዓን	-3116
ዘውን	-3117
ግሣጽ	-3118
▁መኖ	-3119
▁ማረ	-3120
▁ማታ	-3121
▁ምኞ	-3122
▁ሰጡ	-3123
▁በሲ	-3124
▁በዛ	-3125
▁ባሉ	-3126
▁አኑ	-3127
▁እኩ	-3128
▁የፊ	-3129
▁ይቆ	-3130
ዎችንም	-3131
▁ለመን	-3132
▁ቀለበ	-3133
▁በክፉ	-3134
▁ትኖራ	-3135
▁ነቢዩ	-3136
▁የሚከ	-3137
▁መምህር	-3138
▁ታቀርባ	-3139
▁ነገር፥	-3140
▁ነፍሱን	-3141
▁አንቀላ	-3142
▁ከአንቺ	-3143
▁እንዳደረገ	-3144
▁ያደረገውን	-3145
▁ከኢየሩሳሌም	-3146
ለየ	-3147
መህ	-3148
ቅና	-3149
ባም	-3150
ብረ	-3151
ብ።	-3152
ኑት	-3153
ናዳ	-3154
ግሩ	-3155
ጠም	-3156
▁ሾ	-3157
▁ዖ	-3158
ህንና	-3159
ለችና	-3160
ዘረጋ	-3161
ፍረት	-3162
▁ሸሹ	-3163
▁ትቀ	-3164
▁ክር	-3165
▁ውጣ	-3166
▁ጸሎ	-3167
ኋቸው።	-3168
አለሁ።	-3169
▁ልመና	-3170
▁መውጫ	-3171
▁ምስል	-3172
▁በቅን	-3173
▁በአጠ	-3174
▁በውጭ	-3175
▁በዙፋ	-3176
▁ትቢያ	-3177
▁አንጻ	-3178
▁እህል	-3179
▁ከጠላ	-3180
▁የወይ	-3181
▁ጀመር	-3182
▁ጲላጦ	-3183
▁ጸሐፊ	-3184
▁ሁላችሁ	-3185
▁ሌዋውያ	-3186
▁በባሪያ	-3187
▁ተነሣ፥	-3188
▁እስኪያ	-3189
▁ከንጉሡ	-3190
▁የሆነው	-3191
▁በመጀመሪያው	-3192
ሂድ	-3193
ህኑ	-3194
ልድ	-3195
ሽራ	-3196
ወቁ	-3197
ፉ፥	-3198
ፍሬ	-3199
ለምና	-3200
ቀበሉ	-3201
ቤልም	-3202
ወርድ	-3203
▁ልቡ	-3204
▁ምላ	-3205
▁ታም	-3206
▁የገ	-3207
ራቸውን	-3208
ሳይያስ	-3209
ቻችሁን	-3210
ዋለሁ፤	-3211
▁መሬት	-3212
▁በለዓ	-3213
▁አለፈ	-3214
▁አገኙ	-3215
▁ዓመፃ	-3216
▁ዘወር	-3217
▁ዘጠኝ	-3218
▁ዛፎች	-3219
▁ሳይሆን	-3220
▁በሰሜን	-3221
▁እመልሳ	-3222
▁የሚያሰ	-3223
▁በላቸው።	-3224
▁ተቀምጠው	-3225
▁አደረገ፥	-3226
▁ፍልስጥኤማውያንም	-3227
ልሽ	-3228
ርት	-3229
ኋለ	-3230
ኤላ	-3231
ጋት	-3232
ጠ።	-3233
▁ሻ	-3234
ለው።	-3235
መልኩ	-3236
ሞንም	-3237
ብሮን	-3238
ቶቹን	-3239
ዘጋጅ	-3240
ያዋን	-3241
ዱንም	-3242
ፍራው	-3243
▁ሐና	-3244
▁ሙሉ	-3245
▁ናት	-3246
▁የሳ	-3247
ቸዋል፥	-3248
ንቀጠቀ	-3249
ዛቸው።	-3250
▁መጡ፥	-3251
▁በሁሉ	-3252
▁በቅዱ	-3253
▁በተራ	-3254
▁ንስሐ	-3255
▁የእኔ	-3256
▁ግብፅ	-3257
▁ልጆችም	-3258
▁መቅደሱ	-3259
▁በደቡብ	-3260
▁ብላችሁ	-3261
▁አንሥቶ	-3262
▁አይተው	-3263
▁እጅህን	-3264
▁ከተማይ	-3265
▁ደብዳቤ	-3266
▁በርሳችሁ	-3267
▁በእጃቸው	-3268
▁በይሁዳም	-3269
▁ኃጢአተኛ	-3270
▁ንጉሡም።	-3271
▁አለቆችና	-3272
▁አደረጉ፤	-3273
▁የሚቃጠል	-3274
▁ኃጢአተኞች	-3275
▁አብርሃምም	-3276
▁ታውቃላችሁ።	-3277
▁የእስራኤልንም	-3278
ሥጢ	-3279
ስረ	-3280
ቀጥ	-3281
በኛ	-3282
ብሩ	-3283
ታ፥	-3284
ቴር	-3285
ኔር	-3286
ንቁ	-3287
ንት	-3288
ኖን	-3289
ዎስ	-3290
ይት	-3291
ድቁ	-3292
ዶና	-3293
ሁት።	-3294
ሁዳን	-3295
ስጋና	-3296
አት።	-3297
ክልት	-3298
ጋውም	-3299
▁ለዓ	-3300
▁ማለ	-3301
▁ቅድ	-3302
▁ብፁ	-3303
▁ችግ	-3304
▁አቁ	-3305
▁እመ	-3306
▁ከከ	-3307
▁የያ	-3308
▁ይጐ	-3309
ኖቻቸው	-3310
ካርያስ	-3311
▁ላሉት	-3312
▁መጡ፤	-3313
▁ሙሴና	-3314
▁ትልቅ	-3315
▁ወስደ	-3316
▁ዘረጋ	-3317
▁ጠላት	-3318
▁ፍጹም	-3319
▁ሰጠው።	-3320
▁ተመልሶ	-3321
▁ተናግሮ	-3322
▁እንደሌ	-3323
▁እንዳታ	-3324
▁እጁንም	-3325
▁ወጥተው	-3326
▁ሴዴቅያስ	-3327
▁በላያቸው	-3328
▁በምሥራቅ	-3329
▁እንደምት	-3330
▁የአባቶቻ	-3331
▁የይሁዳን	-3332
ሆች	-3333
ላይ	-3334
መፀ	-3335
ርግ	-3336
ሰበ	-3337
በ፤	-3338
ብል	-3339
ወረ	-3340
ወዝ	-3341
ዳም	-3342
ግሬ	-3343
ጣል	-3344
ፉም	-3345
ፍ፥	-3346
▁ፌ	-3347
ለትም	-3348
ማስቆ	-3349
ሪዎች	-3350
ኞቹም	-3351
ጊብዓ	-3352
ጥኣን	-3353
ፈልገ	-3354
ፍራት	-3355
▁ሬሳ	-3356
▁ሽታ	-3357
▁ቅር	-3358
▁በጌ	-3359
▁ባዶ	-3360
▁ዋይ	-3361
▁ውኆ	-3362
▁ዘን	-3363
መሰክር	-3364
ቶቻችሁ	-3365
ችኋለሁ	-3366
▁ሞገስ	-3367
▁በል።	-3368
▁ታናሽ	-3369
▁አሞራ	-3370
▁አካዝ	-3371
▁አይቻ	-3372
ላችኋል።	-3373
ሩሳሌምን	-3374
▁ልባቸው	-3375
▁ምሥራቅ	-3376
▁በውስጥ	-3377
▁ተሰብስ	-3378
▁ነገሠ፤	-3379
▁አእምሮ	-3380
▁ለሚቃጠል	-3381
▁ለኃጢአት	-3382
▁መልካሙን	-3383
▁ምድሪቱን	-3384
▁በባቢሎን	-3385
▁ከአባቶቹ	-3386
▁ወዲያውም	-3387
▁የያዕቆብ	-3388
▁ይላልና።	-3389
▁ፈርዖንም	-3390
▁በከተማይቱ	-3391
▁መሰምርያዋን፥	-3392
ለታ	-3393
በሉ	-3394
ቤዠ	-3395
ብ፤	-3396
ቱ፤	-3397
ደክ	-3398
ጠና	-3399
ፉ፤	-3400
▁ቄ	-3401
ራምም	-3402
ሰናከ	-3403
ንደረ	-3404
ይዝራ	-3405
ጀመረ	-3406
ፈስስ	-3407
ፍረተ	-3408
ፎችም	-3409
▁ረዳ	-3410
▁በጉ	-3411
▁ዓም	-3412
▁ዓሣ	-3413
▁ይረ	-3414
ቻችሁም	-3415
▁በሉ።	-3416
▁በጆሮ	-3417
▁ትሰጣ	-3418
▁አብያ	-3419
▁ከንፈ	-3420
▁ከፊት	-3421
▁የተዋ	-3422
▁ይበሉ	-3423
▁ይጠራ	-3424
ስተኛውም	-3425
▁ስምዖን	-3426
▁በረከት	-3427
▁በጽዮን	-3428
▁ብቻውን	-3429
▁ተመለሰ	-3430
▁ንጉሥ፥	-3431
▁አየሁ፥	-3432
▁ኤልሳዕ	-3433
▁ወርዱም	-3434
▁ዘወትር	-3435
▁የወንድ	-3436
▁ለአባቶቻ	-3437
▁ለእነርሱ	-3438
▁የአምላክ	-3439
▁የካህናት	-3440
▁በሰባተኛው	-3441
▁አይደለም፥	-3442
▁ለእስራኤልም	-3443
▁ናቡከደነፆር	-3444
ሄደ	-3445
ህሉ	-3446
ርደ	-3447
ቅ።	-3448
በ፥	-3449
ተም	-3450
ትዮ	-3451
ገም	-3452
ቅረብ	-3453
በትና	-3454
በው።	-3455
ኛል፥	-3456
ኝነት	-3457
ኳንን	-3458
ገረዙ	-3459
▁ለሴ	-3460
▁ምሰ	-3461
▁ሸሸ	-3462
▁ዕው	-3463
▁ይይ	-3464
ዋለሁ፥	-3465
▁መሐላ	-3466
▁ሞተ።	-3467
▁ቋንቋ	-3468
▁በእጄ	-3469
▁አትግ	-3470
▁ከጥሩ	-3471
▁ወጡ፥	-3472
▁የሚታ	-3473
▁የተከ	-3474
▁ያልፋ	-3475
▁ይልቁ	-3476
▁ገበታ	-3477
▁ጠቢብ	-3478
▁ጠቦት	-3479
ችኋለሁ፤	-3480
▁ለወንድ	-3481
▁ሌሎችን	-3482
▁ርዝመቱ	-3483
▁ንጉሡን	-3484
▁አንጻር	-3485
▁አዘዘ።	-3486
▁አጋንን	-3487
▁እነሆም	-3488
▁ወዲያው	-3489
▁የሚመጣ	-3490
▁ይመልስ	-3491
▁መንደሮች	-3492
▁በመንግሥ	-3493
▁በማደሪያ	-3494
▁በድንጋይ	-3495
▁አሁንም፥	-3496
▁ከአንተም	-3497
▁ፍልስጥኤማውያን	-3498
ራ፥	-3499
በዙ	-3500
ብያ	-3501
ዝር	-3502
ዶል	-3503
ጃጅ	-3504
ጣም	-3505
ጽጳ	-3506
▁ቶ	-3507
▁ኰ	-3508
ላል፤	-3509
ባትን	-3510
ትዮጵ	-3511
ይቱን	-3512
ገባው	-3513
▁ሕል	-3514
▁ራብ	-3515
▁በሉ	-3516
▁ታቦ	-3517
▁አረ	-3518
▁የካ	-3519
▁ጦር	-3520
ልሙትና	-3521
ሳቸውን	-3522
በትንም	-3523
ባቸው፤	-3524
ንያምም	-3525
▁ሚዛን	-3526
▁ማለት	-3527
▁ቀን፥	-3528
▁በገዛ	-3529
▁ንገረ	-3530
▁አምባ	-3531
▁አክሊ	-3532
▁ከሰማ	-3533
▁ክፉን	-3534
▁የበደ	-3535
▁ይሄዱ	-3536
▁ጮኸ።	-3537
▁ፈሳሽ	-3538
ለዳውያን	-3539
▁ሆናችሁ	-3540
▁ለሰልፍ	-3541
▁ለይሁዳ	-3542
▁ልጆችና	-3543
▁መኖሪያ	-3544
▁በእርሻ	-3545
▁በዓለም	-3546
▁እናውቃ	-3547
▁እግሮች	-3548
▁ከሙታን	-3549
▁የአባት	-3550
▁የግብጽ	-3551
▁በሰንበት	-3552
▁ካህናቱም	-3553
ርህ	-3554
ርማ	-3555
ስር	-3556
ሻል	-3557
በዘ	-3558
ንቍ	-3559
ዊም	-3560
ዋት	-3561
የው	-3562
ግም	-3563
ግዱ	-3564
ጠመ	-3565
▁ፀ	-3566
ሦስት	-3567
ሩትም	-3568
ባት፥	-3569
ኝም።	-3570
ጕዘው	-3571
ጣል።	-3572
ጤክስ	-3573
▁ሆኜ	-3574
▁ለጥ	-3575
▁ተዉ	-3576
▁እይ	-3577
▁ከገ	-3578
▁ዘለ	-3579
▁የሜ	-3580
▁የቂ	-3581
▁ያዝ	-3582
▁ለነበ	-3583
▁መናፍ	-3584
▁ምሥጢ	-3585
▁ስሙ፤	-3586
▁በመስ	-3587
▁በባሕ	-3588
▁አፈር	-3589
▁ከዋክ	-3590
▁ወሰዱ	-3591
▁ውሰድ	-3592
▁ዝናብ	-3593
▁የሚመ	-3594
▁ጩኸት	-3595
ላቸውም።	-3596
▁መዝሙር	-3597
▁ምሕረቱ	-3598
▁ሰዎቹም	-3599
▁በዚህች	-3600
▁በየወገ	-3601
▁ተጕዘው	-3602
▁ተጠንቀ	-3603
▁ትእዛዙ	-3604
▁አንተና	-3605
▁እናገራ	-3606
▁እንግዳ	-3607
▁ከወዴት	-3608
▁ዓይነት	-3609
▁የተቀረ	-3610
▁የዮሴፍ	-3611
▁ዮርዳኖ	-3612
▁ጕልማሳ	-3613
▁ጽድቅን	-3614
▁መድኃኒት	-3615
▁ተናገረው	-3616
▁ኢዮአብም	-3617
▁ከወንድሞ	-3618
▁የሚናገር	-3619
▁ይኖራል።	-3620
▁ድንጋዮች	-3621
▁ለዘላለምም	-3622
ለፈ	-3623
ላ፥	-3624
ቀም	-3625
ቢዩ	-3626
ችና	-3627
ካፈ	-3628
▁a	-3629
ልኝ፥	-3630
ሩት።	-3631
ራል።	-3632
ርሳቤ	-3633
ናል፤	-3634
ውን።	-3635
ያስተ	-3636
ጐናጸ	-3637
ጸልይ	-3638
▁ሄዶ	-3639
▁ቅጥ	-3640
▁በሙ	-3641
▁በቍ	-3642
▁ወል	-3643
▁ወፍ	-3644
▁የኬ	-3645
▁የዝ	-3646
ለዋል።	-3647
ቸውም፤	-3648
ቻቸው።	-3649
▁ላይም	-3650
▁መሆኑ	-3651
▁ሺህም	-3652
▁በእሳ	-3653
▁በዳም	-3654
▁አሰና	-3655
▁አበባ	-3656
▁ውኃም	-3657
▁የላከ	-3658
▁የውኃ	-3659
▁ድንቅ	-3660
▁ገባ።	-3661
▁ግብር	-3662
▁ፍላጻ	-3663
▁መሠረት	-3664
▁መንገሥ	-3665
▁ስንፍና	-3666
▁በዚያች	-3667
▁ነበሩ፥	-3668
▁እንግዲ	-3669
▁እኵሌታ	-3670
▁ከወሩም	-3671
▁የሰውን	-3672
▁የግብፅ	-3673
▁ለወንድሞ	-3674
▁ራሳቸውን	-3675
▁በአደባባ	-3676
▁እንዳለው	-3677
▁ደግሞም።	-3678
▁ተናገራቸው።	-3679
ሉኝ	-3680
ሰጠ	-3681
ሱት	-3682
ሸሸ	-3683
ዋ፥	-3684
ድኑ	-3685
ጮኹ	-3686
ላል፥	-3687
መቱም	-3688
ኞችም	-3689
▁ልን	-3690
▁ሽቱ	-3691
▁ትታ	-3692
▁እም	-3693
▁የጦ	-3694
▁የፋ	-3695
▁ይን	-3696
▁ድል	-3697
▁ግፍ	-3698
▁ጫማ	-3699
ተዋል፤	-3700
ዋለህ።	-3701
ዋልና፥	-3702
▁ለሕዝ	-3703
▁ማለዳ	-3704
▁ስማ፤	-3705
▁ስምህ	-3706
▁ተሸክ	-3707
▁አልፈ	-3708
▁ወጡ፤	-3709
▁ይጮኻ	-3710
▁ልጆቹም	-3711
▁ሰረገላ	-3712
▁በሰላም	-3713
▁በሰልፍ	-3714
▁በፍርድ	-3715
▁እንዳላ	-3716
▁ደግሞ።	-3717
▁ጠርቶ።	-3718
▁ለማድረግ	-3719
▁በልባቸው	-3720
▁ክርስቲያ	-3721
▁የምድርም	-3722
▁ዳዊትም።	-3723
▁ያደርጋል።	-3724
▁እያንዳንዱም	-3725
በሳ	-3726
ዑል	-3727
ዩ፤	-3728
ጉ።	-3729
▁ሉ	-3730
ላቶች	-3731
ሙትን	-3732
ሮችን	-3733
ሰርይ	-3734
ቀርበ	-3735
ኸውም	-3736
ወሪያ	-3737
ወስዳ	-3738
ዘምራ	-3739
▁መሣ	-3740
▁በን	-3741
▁በኢ	-3742
▁በጠ	-3743
▁ነጭ	-3744
▁አፌ	-3745
▁ከና	-3746
▁ወተ	-3747
▁ደመ	-3748
▁ግድ	-3749
▁ጠል	-3750
ኛልና፥	-3751
አልና፤	-3752
▁ለመነ	-3753
▁ሰልፈ	-3754
▁ሰጥቼ	-3755
▁በሮች	-3756
▁ባረከ	-3757
▁አቆመ	-3758
▁አብዝ	-3759
▁አኖሩ	-3760
▁አውሬ	-3761
▁አጸና	-3762
▁ወድቆ	-3763
▁የመጣ	-3764
▁የሚጠ	-3765
▁የተመ	-3766
▁የናስ	-3767
▁የገዛ	-3768
▁ያገኛ	-3769
▁ዱቄት	-3770
▁መሳፍን	-3771
▁ሙሴን።	-3772
▁ሰምተው	-3773
▁ሰዎች፥	-3774
▁ስሙንም	-3775
▁በደመና	-3776
▁ተመልሰ	-3777
▁ተግሣጽ	-3778
▁አለቃ፥	-3779
▁አይገኝ	-3780
▁እንዲሰ	-3781
▁ይሁኑ።	-3782
▁ይቀበላ	-3783
▁አለቆችም	-3784
▁አቤሴሎም	-3785
▁አድርገህ	-3786
▁አድርግ።	-3787
▁ወንድሞቼ	-3788
▁ያውቃሉ።	-3789
▁ጴጥሮስም	-3790
▁መስገጃዎች	-3791
▁በሁለተኛው	-3792
ለቃ	-3793
ሎም	-3794
ቅረ	-3795
በተ	-3796
በድ	-3797
ታይ	-3798
ንቶ	-3799
ግድ	-3800
ጓዙ	-3801
ሁም፤	-3802
ለሞታ	-3803
ሠላሳ	-3804
ቀመጫ	-3805
በሰቡ	-3806
ባለው	-3807
ናወጥ	-3808
ዋልን	-3809
ጠበቅ	-3810
ፈጸም	-3811
ፋቸው	-3812
▁ቍጥ	-3813
▁ባሕ	-3814
▁ከር	-3815
▁ከሳ	-3816
▁ዘም	-3817
▁የጣ	-3818
▁ያዩ	-3819
▁ጓዳ	-3820
ዳቸውም	-3821
▁ሄደው	-3822
▁ለራሱ	-3823
▁ሊሆን	-3824
▁መካከ	-3825
▁ሠርቶ	-3826
▁ሮብዓ	-3827
▁ሰማያ	-3828
▁ሰነፍ	-3829
▁በላዩ	-3830
▁በመጡ	-3831
▁በቤተ	-3832
▁በአል	-3833
▁ባላቅ	-3834
▁ተቈጣ	-3835
▁ኃያል	-3836
▁ነህ፤	-3837
▁አታስ	-3838
▁የመቶ	-3839
▁የኢያ	-3840
▁ይገዛ	-3841
▁ድምፁ	-3842
▁ድንግ	-3843
▁ፈጥኖ	-3844
▁ፊቱን	-3845
▁መዛግብ	-3846
▁ምናምን	-3847
▁ምድር፥	-3848
▁በዓይን	-3849
▁አለው፥	-3850
▁አላገኘ	-3851
▁አልሰሙ	-3852
▁አየሁ፤	-3853
▁አደረጋ	-3854
▁ኤፍሬም	-3855
▁ወደምት	-3856
▁ያቀርባ	-3857
▁ይቀመጡ	-3858
▁ጻድቃን	-3859
▁ፈረሶች	-3860
▁ፍርሃት	-3861
▁ሰረገሎች	-3862
▁በሰማርያ	-3863
▁ተመለሱ።	-3864
▁አራተኛው	-3865
▁አትክልት	-3866
▁እንስሶች	-3867
▁የሚመስል	-3868
▁የቀረውም	-3869
▁ይሆናሉ፤	-3870
▁እስራኤልንም	-3871
ማሩ	-3872
ማ፥	-3873
ሴቦ	-3874
ቅድ	-3875
በዝ	-3876
በደ	-3877
ናም	-3878
ንብ	-3879
አስ	-3880
ከው	-3881
ደኛ	-3882
ዶቅ	-3883
ጠሩ	-3884
ጸየ	-3885
ፈን	-3886
ልንጀ	-3887
ሎችም	-3888
ቶችህ	-3889
ችው፤	-3890
ኑትን	-3891
ኞችን	-3892
ኤልም	-3893
ወስድ	-3894
▁ለስ	-3895
▁ሰብ	-3896
▁ሳሉ	-3897
▁ስደ	-3898
▁ባላ	-3899
▁ተኛ	-3900
▁ነጋ	-3901
▁ዓለ	-3902
▁የዋ	-3903
▁ያጥ	-3904
▁ጥቂ	-3905
▁ፈት	-3906
ለሁና፥	-3907
ላችሁም	-3908
መለከቱ	-3909
ዛርያስ	-3910
ጤክስስ	-3911
ፀሐይም	-3912
▁ልብህ	-3913
▁መጋረ	-3914
▁ሞዓብ	-3915
▁ሴቲቱ	-3916
▁በማኅ	-3917
▁በቀን	-3918
▁በቀኝ	-3919
▁በነፍ	-3920
▁በእው	-3921
▁በፈቃ	-3922
▁አለኝ	-3923
▁አመለ	-3924
▁አመን	-3925
▁አንገ	-3926
▁አይተ	-3927
▁ኢያቡ	-3928
▁እልፍ	-3929
▁እረኛ	-3930
▁ከደቀ	-3931
▁ወደደ	-3932
▁ያዘዝ	-3933
ርስቶስም	-3934
ችኋለሁ፥	-3935
▁ሐሰተኛ	-3936
▁መለከት	-3937
▁መተላለ	-3938
▁መጥቶ።	-3939
▁ማዕዘን	-3940
▁ሴቲቱም	-3941
▁በሁለት	-3942
▁በማለዳ	-3943
▁በኮረብ	-3944
▁በጀመረ	-3945
▁በጎች፥	-3946
▁እኔንም	-3947
▁እኩሌታ	-3948
▁ክርክር	-3949
▁ክፋትን	-3950
▁ወስደው	-3951
▁የሚሰማ	-3952
▁ይደረግ	-3953
▁ይጠብቃ	-3954
▁ጥበብን	-3955
▁ጽኑዓን	-3956
▁ለእርሱም	-3957
▁ምድሪቱም	-3958
▁አቤሜሌክ	-3959
▁አታድርጉ	-3960
▁እናንተን	-3961
▁እንደማይ	-3962
▁ዘካርያስ	-3963
▁የተለወሰ	-3964
▁የተናገር	-3965
▁ከእናንተም	-3966
ሄል	-3967
ለጠ	-3968
ሣኤ	-3969
ሽ።	-3970
ናል	-3971
ያዣ	-3972
ግዳ	-3973
▁ቴ	-3974
ሁም፥	-3975
ማውም	-3976
ስሐቅ	-3977
ቡብም	-3978
ትም።	-3979
ናዊው	-3980
ወድድ	-3981
ወጣው	-3982
ጣቸው	-3983
▁ሸማ	-3984
▁ቀደ	-3985
▁አሞ	-3986
▁አጽ	-3987
▁እሾ	-3988
▁ወግ	-3989
▁የን	-3990
▁የድ	-3991
▁ያደ	-3992
▁ይች	-3993
▁ገዛ	-3994
▁ጠር	-3995
ምለኪያ	-3996
ሳኦልም	-3997
ተኞችም	-3998
ናገረው	-3999
ውያን፥	-4000
▁መልሰ	-4001
▁በልቤ	-4002
▁በአር	-4003
▁ቤትም	-4004
▁ብላቴ	-4005
▁እያለ	-4006
▁ከኢዮ	-4007
▁የማን	-4008
▁ይገለ	-4009
▁ግብፃ	-4010
▁ጠማማ	-4011
▁ጠየቀ	-4012
▁ፊቴን	-4013
ወርወሪያ	-4014
▁ሕዝቤን	-4015
▁መዝገብ	-4016
▁በስውር	-4017
▁በኃይል	-4018
▁በናያስ	-4019
▁በእኔና	-4020
▁ነበረና	-4021
▁ነገሮች	-4022
▁አሮንን	-4023
▁አብረው	-4024
▁አይችል	-4025
▁አገልጋ	-4026
▁እውቀት	-4027
▁ከወንድ	-4028
▁ከዳዊት	-4029
▁የመቅደ	-4030
▁የሚሄድ	-4031
▁የሚበላ	-4032
▁የእህል	-4033
▁የእርሱ	-4034
▁ያመሰግ	-4035
▁ይጠብቁ	-4036
▁ድንጋጤ	-4037
▁ጀመር።	-4038
▁ለአምላካ	-4039
▁መንገዱን	-4040
▁መገናኛው	-4041
▁ሰጣቸው።	-4042
▁ኢሳይያስ	-4043
▁እንደሆነ	-4044
▁እንዲሆኑ	-4045
▁በዙሪያውም	-4046
▁የተናገረውን	-4047
ልጶ	-4048
ቄም	-4049
ቅ፤	-4050
ባው	-4051
ኅኒ	-4052
ዞት	-4053
ፈረ	-4054
ፋ።	-4055
ሉትም	-4056
ሉት፤	-4057
ርያት	-4058
ታውቁ	-4059
ኑት።	-4060
ዊውን	-4061
ዘጋጁ	-4062
ዛችሁ	-4063
▁ሀብ	-4064
▁ለዮ	-4065
▁ልማ	-4066
▁መካ	-4067
▁ሣር	-4068
▁ቀጥ	-4069
▁በካ	-4070
▁ባያ	-4071
▁ተሳ	-4072
▁ተጋ	-4073
▁ትሁ	-4074
▁ቸነ	-4075
▁ከት	-4076
▁ወራ	-4077
▁ዐፀ	-4078
▁የኃ	-4079
▁ገዥ	-4080
▁ጽሕ	-4081
ለታል።	-4082
ዳቸውን	-4083
▁ሄዱ፤	-4084
▁ሆነች	-4085
▁ስንዴ	-4086
▁በስሜ	-4087
▁በበረ	-4088
▁ተቀብ	-4089
▁ተንኰ	-4090
▁ትሆን	-4091
▁ነህና	-4092
▁አትስ	-4093
▁አውቆ	-4094
▁አጥብ	-4095
▁እሠራ	-4096
▁እኅት	-4097
▁እጥፍ	-4098
▁ከሕዝ	-4099
▁ከመስ	-4100
▁ከሩቅ	-4101
▁ዐውሎ	-4102
▁የቃል	-4103
▁የእነ	-4104
▁ደጆች	-4105
▁ለኃጢአ	-4106
▁ሕዝብም	-4107
▁መቅሠፍ	-4108
▁መኳንን	-4109
▁ሲናገር	-4110
▁በሞዓብ	-4111
▁በሰረገ	-4112
▁በደረሰ	-4113
▁ተቀበረ	-4114
▁አማልክ	-4115
▁አታውቁ	-4116
▁ዓመትም	-4117
▁የሚሠራ	-4118
▁ሁልጊዜም	-4119
▁በመቅደስ	-4120
▁ተነሥተህ	-4121
▁ትምህርት	-4122
▁አይደለች	-4123
▁የሕይወት	-4124
▁የተወለደ	-4125
▁አዘዛቸው።	-4126
▁አድርጋችሁ	-4127
▁የሚያደርጉ	-4128
▁ዮርዳኖስን	-4129
▁ኢየሩሳሌምም	-4130
ሆድ	-4131
ሔል	-4132
ሶር	-4133
ሽ፤	-4134
ንጫ	-4135
ከፍ	-4136
ካዝ	-4137
ዕድ	-4138
ይሁ	-4139
ደሮ	-4140
ጉ፥	-4141
ግና	-4142
ጸጸ	-4143
ፈቱ	-4144
ለንና	-4145
ልህ።	-4146
ምናሴ	-4147
ረከሰ	-4148
ሳንም	-4149
ጃችሁ	-4150
ገልጥ	-4151
ጠውን	-4152
ጡትን	-4153
▁መጡ	-4154
▁ተሞ	-4155
▁አነ	-4156
▁ከየ	-4157
▁ከዳ	-4158
▁ዙፋ	-4159
▁ጻፍ	-4160
ለውንም	-4161
ታችንን	-4162
ቸዋለሁ	-4163
▁ሁሉና	-4164
▁ሂዱ፥	-4165
▁ሄሮድ	-4166
▁ሌላም	-4167
▁ሕግን	-4168
▁ሕፃና	-4169
▁ሞልቶ	-4170
▁ሠራ፥	-4171
▁ሥራው	-4172
▁ቃሎች	-4173
▁በላዬ	-4174
▁ቤትና	-4175
▁አውጥ	-4176
▁እስማ	-4177
▁እጄን	-4178
▁የሞተ	-4179
▁የተቀ	-4180
▁ያከብ	-4181
▁ይሰጡ	-4182
▁ደነገ	-4183
▁ድምፃ	-4184
▁ጀመረ	-4185
▁በሕዝቤ	-4186
▁በሦስት	-4187
▁በደኅና	-4188
▁ባሪያዬ	-4189
▁አባቱም	-4190
▁አደርገ	-4191
▁ዮናታን	-4192
ቶቻቸውንም	-4193
▁መላእክት	-4194
▁ሦስተኛው	-4195
▁ቀለበቶች	-4196
▁በመሠዊያ	-4197
▁በሰማያት	-4198
▁ተቀመጠ፤	-4199
▁ተናገሩ።	-4200
▁ተአምራት	-4201
▁ታላላቆች	-4202
▁አላቸው፤	-4203
▁አድርግ፤	-4204
▁እውቀትን	-4205
▁እጃቸውን	-4206
▁ከነበሩት	-4207
▁ወንድሞቹ	-4208
▁የሚቀመጡ	-4209
▁የሚበልጥ	-4210
▁ያዕቆብን	-4211
▁ዮርዳኖስ	-4212
▁ያደርጋል፤	-4213
ልፋ	-4214
ሐን	-4215
ምሬ	-4216
ሳዊ	-4217
ቈጡ	-4218
ባ፥	-4219
ኪሩ	-4220
ዙም	-4221
ያዘ	-4222
ገሣ	-4223
ጽፍ	-4224
ሁበት	-4225
ህም።	-4226
ሊትም	-4227
ላቴና	-4228
ሎጊያ	-4229
ቀረበ	-4230
ቡንም	-4231
ብኝ፤	-4232
ታልና	-4233
ነውን	-4234
ነጃጅ	-4235
ነፎች	-4236
ኰራኵ	-4237
ገኘው	-4238
▁ልክ	-4239
▁መራ	-4240
▁ሰገ	-4241
▁ሳት	-4242
▁ሶም	-4243
▁ትቶ	-4244
▁እህ	-4245
▁የሱ	-4246
▁ይሉ	-4247
▁ጭፍ	-4248
ለሁና።	-4249
ለትም።	-4250
ማለሁ፥	-4251
ቀደሰው	-4252
ቅዱሳን	-4253
ተዋልና	-4254
ችሁንም	-4255
ችኋልና	-4256
ናቸውን	-4257
ዶክዮስ	-4258
▁ለማን	-4259
▁ለብቻ	-4260
▁ሊገድ	-4261
▁መቅረ	-4262
▁ሰውዮ	-4263
▁ሰው።	-4264
▁ሰገደ	-4265
▁ቀበሩ	-4266
▁ቀንና	-4267
▁ቀንደ	-4268
▁በሌላ	-4269
▁በትዕ	-4270
▁በአም	-4271
▁በፍታ	-4272
▁ታጠፋ	-4273
▁አልቅ	-4274
▁አሳየ	-4275
▁አትሁ	-4276
▁አዕማ	-4277
▁አድና	-4278
▁እርግ	-4279
▁እስራ	-4280
▁ከወይ	-4281
▁ወዳጅ	-4282
▁ዓመፅ	-4283
▁የሥጋ	-4284
▁ያለች	-4285
▁ይመጡ	-4286
▁ይሰጠ	-4287
▁ይደር	-4288
ቶቻቸውን	-4289
▁ለምድር	-4290
▁መጠጊያ	-4291
▁ሚስቱን	-4292
▁ሚስቶች	-4293
▁ሰላምን	-4294
▁ቀንበር	-4295
▁በሐሰት	-4296
▁በመንገ	-4297
▁በኋላም	-4298
▁በዘይት	-4299
▁በፊቱም	-4300
▁ተናግሬ	-4301
▁ነገዶች	-4302
▁የንጉሥ	-4303
▁የጌታን	-4304
▁የጽድቅ	-4305
▁ያልሆነ	-4306
▁ያቀርቡ	-4307
▁ይሁን፥	-4308
▁ይመለስ	-4309
▁ጃንደረ	-4310
▁ጠላቶቼ	-4311
▁ፊትህን	-4312
▁በንጉሡም	-4313
▁ባሪያዎቹ	-4314
▁አልዓዛር	-4315
▁እነርሱን	-4316
▁እውነትን	-4317
▁ከተሞችና	-4318
▁ከዘላለም	-4319
▁የንጉሡን	-4320
▁እንዳደረግ	-4321
▁የሚኖሩትን	-4322
▁የተቈጠሩት	-4323
▁ለእያንዳንዱ	-4324
▁እያንዳንዳቸው	-4325
ርጥ	-4326
ሳፍ	-4327
ስ፤	-4328
በቀ	-4329
ባር	-4330
ዊቱ	-4331
ዝና	-4332
ደገ	-4333
ግራ	-4334
ጠ፤	-4335
▁ቲ	-4336
▁ጤ	-4337
▁ጾ	-4338
ህነት	-4339
ልኝ፤	-4340
መልሱ	-4341
ምና፤	-4342
ሠሩት	-4343
ሥራት	-4344
ባል፥	-4345
ተውል	-4346
ታዘዙ	-4347
ችኋል	-4348
ዖንን	-4349
ደንግ	-4350
ገረዝ	-4351
ግብፃ	-4352
ፈሩት	-4353
▁ለሕ	-4354
▁ለቤ	-4355
▁ስጠ	-4356
▁በኬ	-4357
▁ታጥ	-4358
▁ትር	-4359
▁ከጽ	-4360
▁ክፈ	-4361
▁ዋሻ	-4362
▁ያነ	-4363
▁ጨረ	-4364
▁ጻፈ	-4365
ልሃል።	-4366
ተዋል።	-4367
ተዋል፥	-4368
ታለሁ።	-4369
ችኋል፥	-4370
ኋለኛው	-4371
▁መራራ	-4372
▁ሙታን	-4373
▁ምግብ	-4374
▁ሠራ፤	-4375
▁ሸክም	-4376
▁በቤቴ	-4377
▁ባሉት	-4378
▁ቤቱም	-4379
▁ትዕቢ	-4380
▁ኃያላ	-4381
▁አለው	-4382
▁አወቅ	-4383
▁አየ፤	-4384
▁አይበ	-4385
▁አግብ	-4386
▁እልል	-4387
▁እርም	-4388
▁እንቅ	-4389
▁ወንዶ	-4390
▁ወንጌ	-4391
▁ዕጣን	-4392
▁የመታ	-4393
▁የደረ	-4394
▁ያድና	-4395
▁ይሄድ	-4396
▁ጌታን	-4397
▁ጽዮን	-4398
▁ፍየል	-4399
▁ለአሥራ	-4400
▁ልጆቹን	-4401
▁መጻተኛ	-4402
▁ራስህን	-4403
▁ሰማሁ።	-4404
▁ስእለት	-4405
▁ቀንዶች	-4406
▁በሁለቱ	-4407
▁በሕዝብ	-4408
▁በቤቱም	-4409
▁በነበረ	-4410
▁በንጉሥ	-4411
▁በአምላ	-4412
▁በአባቱ	-4413
▁በክብር	-4414
▁በወንድ	-4415
▁ባለችው	-4416
▁ተአምራ	-4417
▁ታደርግ	-4418
▁ትዕቢት	-4419
▁አዘጋጀ	-4420
▁እስትን	-4421
▁እናቱም	-4422
▁ወሰደ፥	-4423
▁ወጥመድ	-4424
▁የክብር	-4425
▁ዳዊትና	-4426
▁ሁለቱንም	-4427
▁ለያዕቆብ	-4428
▁መቅሠፍት	-4429
▁መታሰቢያ	-4430
▁ተመለሰ።	-4431
▁ተመለከተ	-4432
▁ነበርና፥	-4433
▁እናደርጋ	-4434
▁ከተማይቱ	-4435
▁ከኢየሱስ	-4436
▁ዮናታንም	-4437
▁መሥዋዕት፥	-4438
▁መንግሥታት	-4439
▁በሦስተኛው	-4440
▁ተሰብስበው	-4441
▁በመካከላችሁ	-4442
ሊም	-4443
ልማ	-4444
ልኮ	-4445
መፅ	-4446
ሞቱ	-4447
ርቃ	-4448
ርዮ	-4449
ሸን	-4450
ቂቱ	-4451
ቅላ	-4452
ወራ	-4453
ዋር	-4454
ጠጥ	-4455
ጥረ	-4456
ፍህ	-4457
ሃልን	-4458
ህም፤	-4459
ላት፥	-4460
ሦርም	-4461
ሳችን	-4462
ቀድሞ	-4463
ብኝ።	-4464
ችልም	-4465
ወድቅ	-4466
ዊትን	-4467
ዝበዛ	-4468
ገልግ	-4469
ጊዜው	-4470
ጣሉ፥	-4471
ፉንም	-4472
▁ለፍ	-4473
▁ቀስ	-4474
▁ቅጠ	-4475
▁ታው	-4476
▁ከው	-4477
▁ከዛ	-4478
▁ዝቅ	-4479
▁ይዋ	-4480
▁ይጣ	-4481
▁ጌዴ	-4482
ለውም።	-4483
ሊባኖስ	-4484
ቀመጠው	-4485
ቻለሁ።	-4486
ዋለህ፤	-4487
▁ሙሽራ	-4488
▁ርጉም	-4489
▁ስለት	-4490
▁ቀንድ	-4491
▁በረዶ	-4492
▁በበሩ	-4493
▁በተሰ	-4494
▁በየዓ	-4495
▁ቤቱን	-4496
▁ብልሃ	-4497
▁ተዘል	-4498
▁ነህ፥	-4499
▁ናት፥	-4500
▁አደራ	-4501
▁እምነ	-4502
▁ከሀያ	-4503
▁ከምድ	-4504
▁ካሉት	-4505
▁ወደድ	-4506
▁የሁለ	-4507
▁የሌዊ	-4508
▁የሞላ	-4509
▁የወን	-4510
▁የዘን	-4511
▁የፍየ	-4512
▁ያድነ	-4513
▁ጕድጓ	-4514
▁ጥርስ	-4515
▁ጸሎት	-4516
ጐናጸፊያ	-4517
▁ሁለትም	-4518
▁መፍራት	-4519
▁ሙሴንና	-4520
▁ማርያም	-4521
▁ሦስተኛ	-4522
▁በነገሠ	-4523
▁ባለጠግ	-4524
▁ተዘጋጅ	-4525
▁ኃፍረተ	-4526
▁አልነበ	-4527
▁አባቱን	-4528
▁አየሁ።	-4529
▁እመልስ	-4530
▁ከአንድ	-4531
▁ወዳጆች	-4532
▁የለም፥	-4533
▁የሚነካ	-4534
▁የሚኖር	-4535
▁የሶርያ	-4536
▁የተስፋ	-4537
▁የአሦር	-4538
▁ይወርዳ	-4539
▁ጠራው።	-4540
▁ፈጽመው	-4541
▁ልጆቻችሁ	-4542
▁በኤፍሬም	-4543
▁በከነዓን	-4544
▁በፊታችሁ	-4545
▁ነገሩት።	-4546
▁አሳልፈው	-4547
▁የሕዝቡን	-4548
▁መወርወሪያ	-4549
▁ባሪያዎችህ	-4550
▁የአብርሃም	-4551
▁አደርጋለሁ።	-4552
▁ኢየሩሳሌምን	-4553
ልስጥኤማውያንም	-4554
▁በመካከላቸውም	-4555
መም	-4556
ሜሎ	-4557
ምሰ	-4558
ሰረ	-4559
ናው	-4560
ዘዘ	-4561
ዚች	-4562
ያዝ	-4563
ይዙ	-4564
ጠጋ	-4565
▁ዶ	-4566
ሉም፥	-4567
ልባል	-4568
ቀደሱ	-4569
ነሣው	-4570
ኝም፤	-4571
ከተሉ	-4572
ያስን	-4573
ዬንም	-4574
▁ሊሰ	-4575
▁ላክ	-4576
▁መቱ	-4577
▁ረጅ	-4578
▁ሳያ	-4579
▁በቈ	-4580
▁በቸ	-4581
▁ተገ	-4582
▁ናስ	-4583
▁አጣ	-4584
▁የቃ	-4585
▁የቅ	-4586
▁የዛ	-4587
▁የጭ	-4588
▁የጸ	-4589
▁ደሴ	-4590
▁ደከ	-4591
▁ደካ	-4592
▁ግል	-4593
▁ግዛ	-4594
▁ጠይ	-4595
▁ጸል	-4596
▁ፍቺ	-4597
▁ፍጹ	-4598
ሰማርያ	-4599
ሽማግሌ	-4600
በታል፤	-4601
ትዮጵያ	-4602
አለሁና	-4603
አለሁ፥	-4604
ውንም፥	-4605
▁ልሔም	-4606
▁መለሱ	-4607
▁መስኮ	-4608
▁ሞተ፥	-4609
▁ሲኦል	-4610
▁ስሙን	-4611
▁ብረት	-4612
▁ትተው	-4613
▁አልጋ	-4614
▁አምጡ	-4615
▁አምጥ	-4616
▁አስጨ	-4617
▁አውጣ	-4618
▁አዳነ	-4619
▁አፍስ	-4620
▁ከኢያ	-4621
▁ኮረብ	-4622
▁ዕንቍ	-4623
▁የአገ	-4624
▁ያለቅ	-4625
▁ያነሣ	-4626
▁ያደረ	-4627
▁ያጸና	-4628
▁ግብዣ	-4629
ልንጀራው	-4630
▁ሁላችን	-4631
▁ለሰማይ	-4632
▁ልጆችን	-4633
▁ልጆች።	-4634
▁መሣሪያ	-4635
▁ምሥጢር	-4636
▁ምድሪቱ	-4637
▁ስምህን	-4638
▁በሸለቆ	-4639
▁በኵራት	-4640
▁በፍቅር	-4641
▁ብፁዓን	-4642
▁ትእዛዜ	-4643
▁አሜን።	-4644
▁አርነት	-4645
▁አስታው	-4646
▁አስወግ	-4647
▁እናገር	-4648
▁ከባሪያ	-4649
▁ወስደህ	-4650
▁የአንተ	-4651
▁ይፈልጉ	-4652
▁ፍየሎች	-4653
▁ለራሳቸው	-4654
▁ምሕረትን	-4655
▁ምስክሮች	-4656
▁ሰባተኛው	-4657
▁የተባረከ	-4658
▁ያለበትን	-4659
▁ይመጣል።	-4660
▁መለሰለት።	-4661
▁ከተማይቱም	-4662
▁ያስተሰርይ	-4663
▁በሰባተኛውም	-4664
▁በየአባቶቻቸው	-4665
ለያ	-4666
መራ	-4667
ሣት	-4668
ረቤ	-4669
ራሪ	-4670
ሸት	-4671
ብሳ	-4672
ኋት	-4673
ነቴ	-4674
ኑር	-4675
ደለ	-4676
ደላ	-4677
ዴስ	-4678
ድጋ	-4679
ድፍ	-4680
ጥ።	-4681
ፉት	-4682
ሻል፤	-4683
ናል፥	-4684
አብያ	-4685
ዮችን	-4686
ዴዎች	-4687
ገሩ።	-4688
ጢሮስ	-4689
▁ለኤ	-4690
▁ሰለ	-4691
▁ቀይ	-4692
▁ቂጣ	-4693
▁ኑ፥	-4694
▁ኖኅ	-4695
▁ኢዩ	-4696
▁ደን	-4697
▁ግራ	-4698
▁ጸጥ	-4699
ሃልና፥	-4700
ንቀሳቃ	-4701
▁መብራ	-4702
▁ማታም	-4703
▁ማዳን	-4704
▁ምነው	-4705
▁ስሙም	-4706
▁ስሙ።	-4707
▁ስድብ	-4708
▁ቅዱሳ	-4709
▁ቆሙ።	-4710
▁በሀያ	-4711
▁በመር	-4712
▁በራብ	-4713
▁በቅድ	-4714
▁ቢሆኑ	-4715
▁ተቈጠ	-4716
▁ተደነ	-4717
▁ታናሹ	-4718
▁ትችላ	-4719
▁አለን	-4720
▁ከታና	-4721
▁ከእጅ	-4722
▁ክንፍ	-4723
▁የበረ	-4724
▁ይዋጋ	-4725
▁ዮሐን	-4726
▁ፊልጶ	-4727
▁ልባችሁ	-4728
▁መከራን	-4729
▁ምስሎች	-4730
▁ርዝመት	-4731
▁በከተማ	-4732
▁ተለይቶ	-4733
▁አክሊል	-4734
▁አዘጋጁ	-4735
▁እሰበስ	-4736
▁ከሁለት	-4737
▁ከአሥር	-4738
▁ከፀሐይ	-4739
▁ክፉውን	-4740
▁ኮረብታ	-4741
▁የሞዓብ	-4742
▁የአሮን	-4743
▁የወለደ	-4744
▁ይናገሩ	-4745
▁ይናገር	-4746
▁ይወርሳ	-4747
▁ማስተዋል	-4748
▁አንደኛው	-4749
▁እንግዶች	-4750
▁ከምድርም	-4751
▁ለእነርሱም	-4752
▁በአሕዛብም	-4753
▁አምላክህን	-4754
▁አንዳንዶቹ	-4755
▁ከተማይቱን	-4756
▁ክርስቶስን	-4757
▁የማምለኪያ	-4758
▁በሁለተኛውም	-4759
ራር	-4760
ሰስ	-4761
ቆሙ	-4762
ቡት	-4763
ተክ	-4764
ነሰ	-4765
ናባ	-4766
ናከ	-4767
ኩን	-4768
ዘረ	-4769
ደቀ	-4770
ጉ፤	-4771
ጮች	-4772
ፈህ	-4773
ፈኛ	-4774
ለሁን	-4775
ልሃል	-4776
ምጣት	-4777
ሞትም	-4778
ሞት፥	-4779
ሰጥህ	-4780
ሸከም	-4781
ባት።	-4782
ነገረ	-4783
ያምኑ	-4784
ያንም	-4785
ዴንም	-4786
ገኝ፥	-4787
ጠግብ	-4788
ጥረት	-4789
ፈስሳ	-4790
ፈጸመ	-4791
ፋችሁ	-4792
▁መት	-4793
▁ምሽ	-4794
▁ሳን	-4795
▁ብረ	-4796
▁ብሩ	-4797
▁ተላ	-4798
▁ታች	-4799
▁ትከ	-4800
▁አመ	-4801
▁ከይ	-4802
▁ወላ	-4803
▁ያይ	-4804
▁ዱር	-4805
▁ጢስ	-4806
▁ፈጣ	-4807
ንተኛው	-4808
ዛብሎን	-4809
▁ሆነህ	-4810
▁ሆንህ	-4811
▁ለመታ	-4812
▁ሐውል	-4813
▁ሕልም	-4814
▁መልስ	-4815
▁መታጠ	-4816
▁ሦስቱ	-4817
▁ርግብ	-4818
▁ሲል።	-4819
▁ሳለሁ	-4820
▁ሳንቃ	-4821
▁ሹማም	-4822
▁ቀርቶ	-4823
▁ቍስል	-4824
▁በሕግ	-4825
▁በመሸ	-4826
▁በማይ	-4827
▁በግራ	-4828
▁ብዙም	-4829
▁ተባባ	-4830
▁ትሞታ	-4831
▁ትንቢ	-4832
▁አላስ	-4833
▁አልታ	-4834
▁አስቀ	-4835
▁አትው	-4836
▁አየ።	-4837
▁አያሌ	-4838
▁አድራ	-4839
▁ከድን	-4840
▁ዝግባ	-4841
▁የሚሸ	-4842
▁የአማ	-4843
▁የኢፍ	-4844
▁የወጣ	-4845
▁የገደ	-4846
▁ይኖር	-4847
▁ይፈሩ	-4848
▁ደኅና	-4849
▁ገለባ	-4850
▁ጸለየ	-4851
▁ለአንድ	-4852
▁መሎጊያ	-4853
▁ሰንበት	-4854
▁በለው።	-4855
▁በሬዎች	-4856
▁በነቢዩ	-4857
▁ባለበት	-4858
▁ተመልክ	-4859
▁ተነሡ፥	-4860
▁ችግረኛ	-4861
▁አንድም	-4862
▁አይሁዳ	-4863
▁እረኞች	-4864
▁እርሱና	-4865
▁ወሰደ።	-4866
▁ዕረፍት	-4867
▁ያለበት	-4868
▁ያደረጉ	-4869
▁ይችላል	-4870
▁ገብተው	-4871
▁ለባሪያህ	-4872
▁መልካምን	-4873
▁መናፍስት	-4874
▁ምድርንም	-4875
▁በሌሊትም	-4876
▁በተራራው	-4877
▁ነበረች፤	-4878
▁ነገረው።	-4879
▁አመሰግን	-4880
▁ኤዶምያስ	-4881
▁የሚለውን	-4882
▁የሚጠብቅ	-4883
▁የእናንተ	-4884
▁ያዘዘውን	-4885
▁ሁለተኛውም	-4886
▁ንገራቸው።	-4887
▁በሦስተኛውም	-4888
ለይ	-4889
ሚስ	-4890
ምዋ	-4891
ሳደ	-4892
ቄዶ	-4893
በሬ	-4894
በቁ	-4895
ብሽ	-4896
ተወ	-4897
ትዋ	-4898
ቹና	-4899
ኔም	-4900
ንሐ	-4901
ውስ	-4902
ዓባ	-4903
ያ።	-4904
ዱር	-4905
ዱት	-4906
ድሶ	-4907
ጐራ	-4908
▁ሶ	-4909
ሁት፤	-4910
ሁት፥	-4911
መውን	-4912
ሜንም	-4913
ረኛው	-4914
ሸከሙ	-4915
ሻል።	-4916
በዛዝ	-4917
ቤሴሎ	-4918
ችም፥	-4919
ኅንነ	-4920
ዓብን	-4921
ዛቸው	-4922
ዩንም	-4923
ገርህ	-4924
ጨንቁ	-4925
▁ሆድ	-4926
▁ለታ	-4927
▁ለነ	-4928
▁ሚካ	-4929
▁ሰበ	-4930
▁ቤቴ	-4931
▁ታመ	-4932
▁ታየ	-4933
▁ነን	-4934
▁ኬጢ	-4935
▁ዔሳ	-4936
▁ዕዳ	-4937
▁የር	-4938
▁የስ	-4939
▁ጠግ	-4940
▁ጭቃ	-4941
መለከታ	-4942
ቃጠለው	-4943
ንቀሳቀ	-4944
ደርግ፥	-4945
ገልገል	-4946
▁ለኢዮ	-4947
▁ሕፃን	-4948
▁መሆን	-4949
▁መቶም	-4950
▁ስሜን	-4951
▁በመሰ	-4952
▁ነደደ	-4953
▁አላየ	-4954
▁አማሌ	-4955
▁አቁማ	-4956
▁አዝዞ	-4957
▁አዳራ	-4958
▁አጠጣ	-4959
▁እኔስ	-4960
▁ከፍታ	-4961
▁ዓምድ	-4962
▁የሙሴ	-4963
▁የኤል	-4964
▁የፈር	-4965
▁ያመለ	-4966
▁ይውጣ	-4967
▁ይድና	-4968
▁ይጠጣ	-4969
▁ደሙን	-4970
▁ገመድ	-4971
▁ፈረሶ	-4972
▁ፈጥነ	-4973
ቸዋለህ።	-4974
▁መሆኑን	-4975
▁መለሰ።	-4976
▁ማንንም	-4977
▁ምዕራብ	-4978
▁ሞገስን	-4979
▁ሥራውን	-4980
▁በመንፈ	-4981
▁በሚኖሩ	-4982
▁በትእዛ	-4983
▁ናቸውና	-4984
▁አባትህ	-4985
▁አዘጋጅ	-4986
▁እንስሶ	-4987
▁እንጂ።	-4988
▁ከመቅደ	-4989
▁ከተራራ	-4990
▁ከነዓና	-4991
▁ከአሥራ	-4992
▁ከጥንት	-4993
▁ወለደች	-4994
▁ወሰደ፤	-4995
▁ወንድሙ	-4996
▁የሚሄዱ	-4997
▁የሚባል	-4998
▁የዚህን	-4999
▁ያድርግ	-5000
▁ይመጣል	-5001
▁ይወድዳ	-5002
▁ፈጽመህ	-5003
▁ለልጆቹም	-5004
▁ለፈርዖን	-5005
▁መዛሙርት	-5006
▁በልባችሁ	-5007
▁በነበረው	-5008
▁በኢያሪኮ	-5009
▁ነበሩት፤	-5010
▁አምላክም	-5011
▁አቢሜሌክ	-5012
▁ለአብርሃም	-5013
▁መጐናጸፊያ	-5014
▁ምድሪቱንም	-5015
▁ተጽፎአል።	-5016
▁አሉአቸው።	-5017
▁አምላክህም	-5018
▁አንቀላፋ፥	-5019
▁እንዳይሆን	-5020
▁ከመጀመሪያ	-5021
▁መልእክተኞችን	-5022
▁ከእግዚአብሔርም	-5023
ላቁ	-5024
ሜም	-5025
ሪቱ	-5026
ሮት	-5027
ሰደ	-5028
ሴር	-5029
ሻው	-5030
ቆስ	-5031
ብሮ	-5032
ብሰ	-5033
ተረ	-5034
ናክ	-5035
ደቅ	-5036
ዳድ	-5037
ጁን	-5038
▁ዜ	-5039
ለው፤	-5040
ሉት፥	-5041
ሐንስ	-5042
መለሳ	-5043
መልካ	-5044
መስል	-5045
ሚናዳ	-5046
ማሉ።	-5047
ምና።	-5048
ሠራው	-5049
ሮቹም	-5050
ሻለሁ	-5051
ቃብር	-5052
ቸዋል	-5053
ቼንም	-5054
ገለዓ	-5055
ጠይቅ	-5056
ፈርስ	-5057
▁ማቅ	-5058
▁በሱ	-5059
▁ቡቃ	-5060
▁ትጠ	-5061
▁ነቀ	-5062
▁ኑሮ	-5063
▁ና፥	-5064
▁ንግ	-5065
▁ይብ	-5066
▁ደክ	-5067
▁ገዳ	-5068
▁ጮኽ	-5069
ሉአቸው	-5070
ልቅያስ	-5071
መናችሁ	-5072
ማውያን	-5073
ፍታሌም	-5074
▁ለሞት	-5075
▁ለነፍ	-5076
▁ለደቀ	-5077
▁ለድሀ	-5078
▁መሠረ	-5079
▁ምሰሶ	-5080
▁ምናሴ	-5081
▁ምኞት	-5082
▁ሰጠ።	-5083
▁ሲመጣ	-5084
▁ቃልህ	-5085
▁በልዩ	-5086
▁በስድ	-5087
▁በዕጣ	-5088
▁በፈረ	-5089
▁ትወዳ	-5090
▁ነህን	-5091
▁ነፍሰ	-5092
▁አመነ	-5093
▁አሠራ	-5094
▁አዋጅ	-5095
▁አዘነ	-5096
▁እናቱ	-5097
▁እወቅ	-5098
▁እጅ፥	-5099
▁ከሆን	-5100
▁ከቤተ	-5101
▁ዕረፍ	-5102
▁የቀና	-5103
▁የአኪ	-5104
▁የወር	-5105
▁የጦር	-5106
▁ያውቁ	-5107
▁ይረግ	-5108
▁ይሰጥ	-5109
▁ይበዛ	-5110
▁ይነጋ	-5111
▁ይገዙ	-5112
▁ይጠቅ	-5113
▁ድካም	-5114
▁ገሊላ	-5115
▁ገባ፥	-5116
▁ጌታም	-5117
▁ጥልቅ	-5118
ላቸውንም	-5119
ራቸውንም	-5120
ችኋልና፥	-5121
ናቸውንም	-5122
ደርገውን	-5123
▁ለማንም	-5124
▁ለእህል	-5125
▁ልጆችህ	-5126
▁ማኅፀን	-5127
▁በልብህ	-5128
▁በስፍራ	-5129
▁በነገር	-5130
▁ታደርጉ	-5131
▁ነፋስም	-5132
▁እንደዚ	-5133
▁እንጂ፥	-5134
▁ከመካከ	-5135
▁ከሰሜን	-5136
▁ወይፈን	-5137
▁ዓመታት	-5138
▁የቀሩት	-5139
▁የተለየ	-5140
▁የአገሩ	-5141
▁የወደደ	-5142
▁ያድርጉ	-5143
▁ይቀመጥ	-5144
▁ፀሐይም	-5145
▁መልካምም	-5146
▁መንፈስም	-5147
▁ሰጣቸው፤	-5148
▁በነጋውም	-5149
▁በወንድሞ	-5150
▁ተመለሱ፤	-5151
▁ተመልሰው	-5152
▁ተንቀሳቃ	-5153
▁ነበልባል	-5154
▁አሜስያስ	-5155
▁አስተዋይ	-5156
▁ኢዮስያስ	-5157
▁እላለሁ።	-5158
▁ከምሥራቅ	-5159
▁ወንድሙን	-5160
▁ወንጌልን	-5161
▁የሚቀመጥ	-5162
▁የተቀረጸ	-5163
▁የተቈጠሩ	-5164
▁የተወደደ	-5165
▁ይሰጣል።	-5166
▁ጥበበኞች	-5167
▁በአምላክህ	-5168
▁አምስተኛው	-5169
▁እነርሱንም	-5170
▁የተናገረው	-5171
ላማ	-5172
ማሬ	-5173
ሠዉ	-5174
ርካ	-5175
ቀ፥	-5176
በል	-5177
ቶን	-5178
ነቀ	-5179
ኑና	-5180
ናቱ	-5181
ኘት	-5182
ዘገ	-5183
ይር	-5184
ገራ	-5185
ጋጠ	-5186
ጋ፥	-5187
ጐደ	-5188
ጡም	-5189
ጥእ	-5190
ፈነ	-5191
▁ጅ	-5192
▁ጊ	-5193
ሃቸው	-5194
ህበት	-5195
ሉና።	-5196
ሬንም	-5197
ታንን	-5198
ታንያ	-5199
ቻት።	-5200
ወጣ፥	-5201
ዖንና	-5202
ያብሎ	-5203
ደነግ	-5204
ፈጽም	-5205
▁መሸ	-5206
▁ሠሪ	-5207
▁ራሴ	-5208
▁ሮማ	-5209
▁ስጡ	-5210
▁ሸም	-5211
▁በሮ	-5212
▁በቁ	-5213
▁በጨ	-5214
▁ባሮ	-5215
▁ብለ	-5216
▁ተጨ	-5217
▁ቸል	-5218
▁ኅብ	-5219
▁አቀ	-5220
▁ኤፉ	-5221
▁ከፋ	-5222
▁ዘሩ	-5223
▁ይሞ	-5224
▁ገሠ	-5225
▁ገድ	-5226
▁ጫፍ	-5227
ለሁና፤	-5228
ለችና፥	-5229
ርሳቤህ	-5230
ቶቹንም	-5231
ዋልና።	-5232
▁ሄዱ፥	-5233
▁ሆኑ፥	-5234
▁ለሠራ	-5235
▁መርም	-5236
▁መብረ	-5237
▁መያዣ	-5238
▁ምንስ	-5239
▁ርኵስ	-5240
▁ሰው፥	-5241
▁በየሰ	-5242
▁ተኝቶ	-5243
▁ተከማ	-5244
▁ታንኳ	-5245
▁ትሄዳ	-5246
▁ትሰማ	-5247
▁ትወድ	-5248
▁ኖረ፥	-5249
▁አስወ	-5250
▁አነገ	-5251
▁አንካ	-5252
▁አውቄ	-5253
▁እሆን	-5254
▁እርሾ	-5255
▁ከምት	-5256
▁ከሥጋ	-5257
▁ከእን	-5258
▁ከወን	-5259
▁ዘመና	-5260
▁የልጅ	-5261
▁የሚቀ	-5262
▁የማት	-5263
▁የተና	-5264
▁የአሞ	-5265
▁የገባ	-5266
▁ያማረ	-5267
▁ይሠሩ	-5268
▁ይጠብ	-5269
▁ዮዳሄ	-5270
▁ደቡብ	-5271
▁ጠየቁ	-5272
▁ጠፍቶ	-5273
▁ጮኹ።	-5274
▁ጻፎች	-5275
ላቸዋል።	-5276
ሞራውያን	-5277
▁ለልጆቹ	-5278
▁መቀመጫ	-5279
▁ማድረግ	-5280
▁ሞተም።	-5281
▁ሰዎች።	-5282
▁ቁርበት	-5283
▁በግዞት	-5284
▁ብዝበዛ	-5285
▁ተመላለ	-5286
▁ታላቅና	-5287
▁ትንሣኤ	-5288
▁ነገሩን	-5289
▁አለቃው	-5290
▁አላወቀ	-5291
▁አልቀረ	-5292
▁አመሰገ	-5293
▁እንዳን	-5294
▁እፍረት	-5295
▁ወንድሜ	-5296
▁ዓመፀኛ	-5297
▁ዕጣንም	-5298
▁የሚለው	-5299
▁የሚሰጥ	-5300
▁የተገኘ	-5301
▁ይኖራል	-5302
▁ይኸውም	-5303
▁ጲላጦስ	-5304
▁ለሰሎሞን	-5305
▁መጋረጆች	-5306
▁ምናምንቴ	-5307
▁ራሳችሁን	-5308
▁በመቅደሱ	-5309
▁በእጃችሁ	-5310
▁በዳዊትም	-5311
▁በጌታችን	-5312
▁ተመለሱ፥	-5313
▁ተከትለው	-5314
▁ተጠንቀቅ	-5315
▁አትደንግ	-5316
▁አደረጉ፥	-5317
▁አድርጉ፤	-5318
▁ኢየሱስ።	-5319
▁ወለደች።	-5320
▁የኃጢአት	-5321
▁ይስሐቅም	-5322
▁ዳዊትን።	-5323
▁ቅርንጫፎች	-5324
▁ወንድሞቹም	-5325
▁በከተማይቱም	-5326
▁አደርጋለሁ፤	-5327
▁ክርስቲያናት	-5328
▁በየወገኖቻቸው	-5329
ላሊ	-5330
ልፉ	-5331
ሠረ	-5332
ረ።	-5333
ስቴ	-5334
ቈር	-5335
ቡና	-5336
ቤን	-5337
ተሽ	-5338
ችግ	-5339
ነቅ	-5340
ኩ፥	-5341
ወል	-5342
ዛን	-5343
ድላ	-5344
ጥል	-5345
ጥና	-5346
ፍሩ	-5347
ለኞች	-5348
ሉምን	-5349
ላሉ።	-5350
ላት።	-5351
ሥታት	-5352
ሮንና	-5353
ሳኮር	-5354
ኔንም	-5355
አልን	-5356
ወርሱ	-5357
ዓትም	-5358
ዚያም	-5359
ዮንን	-5360
ደርሱ	-5361
ገቡም	-5362
ፋትም	-5363
▁ላሉ	-5364
▁ሕጉ	-5365
▁መከ	-5366
▁ሚክ	-5367
▁ማሰ	-5368
▁ሞቶ	-5369
▁ስታ	-5370
▁ሽን	-5371
▁ቍራ	-5372
▁በፋ	-5373
▁ባር	-5374
▁ትም	-5375
▁አቃ	-5376
▁አዴ	-5377
▁አፋ	-5378
▁ከኢ	-5379
▁ከጕ	-5380
▁ውስ	-5381
▁ዘው	-5382
▁ይክ	-5383
▁ግመ	-5384
▁ጠጋ	-5385
▁ጠጕ	-5386
▁ጠጣ	-5387
▁ጥል	-5388
▁ጥም	-5389
▁ጨካ	-5390
▁ጨው	-5391
▁ጽድ	-5392
ታችንም	-5393
ቻለሁ፤	-5394
ነጃጅት	-5395
ኛላችሁ	-5396
ካህናቱ	-5397
ዊውንም	-5398
ዳችሁም	-5399
ፈሪያው	-5400
▁ለሌላ	-5401
▁ላከ፤	-5402
▁ልማድ	-5403
▁ልጅህ	-5404
▁መልከ	-5405
▁መስሎ	-5406
▁ሚዛኑ	-5407
▁ሞትን	-5408
▁ሰማ።	-5409
▁ሰዎቹ	-5410
▁ስላላ	-5411
▁በሩቅ	-5412
▁በሰጠ	-5413
▁በአህ	-5414
▁በክን	-5415
▁በደም	-5416
▁ብርና	-5417
▁ብንያ	-5418
▁ተሰጠ	-5419
▁ታውቁ	-5420
▁ትሆኑ	-5421
▁አበኔ	-5422
▁አካል	-5423
▁አይዞ	-5424
▁እኔና	-5425
▁እጅህ	-5426
▁ከሕግ	-5427
▁ከእጄ	-5428
▁ክምር	-5429
▁ወርዶ	-5430
▁ውኆች	-5431
▁ዘርፍ	-5432
▁የሆን	-5433
▁የመሰ	-5434
▁የስም	-5435
▁የዘበ	-5436
▁የጠራ	-5437
▁ይሠዋ	-5438
▁ዮፍታ	-5439
▁ግርማ	-5440
ሳቸውንም	-5441
ባቸዋል።	-5442
▁መንደሮ	-5443
▁ሰማንያ	-5444
▁ሰረገሎ	-5445
▁ሰውነት	-5446
▁ሰደደ።	-5447
▁በእንጨ	-5448
▁በእግር	-5449
▁በዚያው	-5450
▁በግልጥ	-5451
▁ተቀምጠ	-5452
▁ነበረው	-5453
▁ናችሁ።	-5454
▁አልመጣ	-5455
▁አንቺም	-5456
▁አንዲቱ	-5457
▁አድርጋ	-5458
▁እንሂድ	-5459
▁እንደተ	-5460
▁እንዳሉ	-5461
▁ከሦስት	-5462
▁ውኃውም	-5463
▁የሕይወ	-5464
▁የተጠራ	-5465
▁ያደርገ	-5466
▁ይፈርዳ	-5467
▁ፊተኛው	-5468
▁መካከልም	-5469
▁ሳኦልም።	-5470
▁በገለዓድ	-5471
▁በፈርዖን	-5472
▁ተነሥቶም	-5473
▁ትእዛዛት	-5474
▁አምላኬ፥	-5475
▁ወንድምህ	-5476
▁ዓዛርያስ	-5477
▁የአይሁድ	-5478
▁የኤፍሬም	-5479
▁የድንጋይ	-5480
▁ይባላል።	-5481
▁ግልሙትና	-5482
▁ሕዝቅያስም	-5483
▁መልእክተኛ	-5484
▁ተሰበሰቡ።	-5485
▁አቤሴሎምም	-5486
▁ኤርምያስም	-5487
▁እንግዲያስ	-5488
▁የሚያስፈራ	-5489
▁የያዕቆብም	-5490
▁የደኅንነት	-5491
▁ይወድቃሉ።	-5492
▁ለወንድሞቹም	-5493
▁በአምላካችን	-5494
▁በየወገናቸው	-5495
ሊና	-5496
መች	-5497
ማኖ	-5498
ሣር	-5499
ሪ፥	-5500
ሬስ	-5501
ሰጡ	-5502
ስቍ	-5503
ቀ፤	-5504
ባላ	-5505
ብቃ	-5506
ታር	-5507
ንጎ	-5508
ክህ	-5509
ወሩ	-5510
ዋጉ	-5511
ዓም	-5512
ዳ፥	-5513
ድኤ	-5514
ዶስ	-5515
ጠች	-5516
ጸኑ	-5517
ሉና፥	-5518
መውም	-5519
መው።	-5520
ሠራ፥	-5521
ቂዎች	-5522
ቈጠር	-5523
በቱም	-5524
ባትህ	-5525
ታውቅ	-5526
ትውል	-5527
ኖችም	-5528
ኪያስ	-5529
ክዓብ	-5530
ኵራብ	-5531
ወርዱ	-5532
ዎችህ	-5533
ደውን	-5534
ድንም	-5535
ጣሉ።	-5536
▁ሂዱ	-5537
▁ሃሌ	-5538
▁ለጋ	-5539
▁ሳል	-5540
▁ቦዔ	-5541
▁ተው	-5542
▁ትሸ	-5543
▁እፈ	-5544
▁ከሲ	-5545
▁ከድ	-5546
▁ኵሬ	-5547
▁ያው	-5548
መልካም	-5549
በትም።	-5550
ቶቻችን	-5551
▁ሆኑ።	-5552
▁ለመው	-5553
▁ልጆቼ	-5554
▁ሰባቱ	-5555
▁ሰጡ።	-5556
▁ቀረበ	-5557
▁በመለ	-5558
▁በሙሉ	-5559
▁በማን	-5560
▁በቅር	-5561
▁በእን	-5562
▁በእግ	-5563
▁በገና	-5564
▁ባልተ	-5565
▁ባልዋ	-5566
▁ትወር	-5567
▁ኀዘን	-5568
▁ነህ።	-5569
▁ነፍሱ	-5570
▁ንገሩ	-5571
▁አረከ	-5572
▁አሸዋ	-5573
▁አትሥ	-5574
▁አዎን	-5575
▁እጆች	-5576
▁ከላይ	-5577
▁ከበቡ	-5578
▁የልብ	-5579
▁የሚሻ	-5580
▁የሞት	-5581
▁የቤቱ	-5582
▁የእው	-5583
▁ያንን	-5584
▁ይቃጠ	-5585
▁ይወጡ	-5586
▁ገባ፤	-5587
▁ፈጽሜ	-5588
ርብዓምም	-5589
ተኛውንም	-5590
ዎቹንም፥	-5591
ይዝራኤል	-5592
▁ሕዝብህ	-5593
▁መዘምራ	-5594
▁ሰማያዊ	-5595
▁ሰጠው፤	-5596
▁በተስፋ	-5597
▁በአንዱ	-5598
▁በአገሩ	-5599
▁ቸነፈር	-5600
▁አለች፤	-5601
▁አንተ።	-5602
▁አውድማ	-5603
▁አዕማድ	-5604
▁እሳትም	-5605
▁እናቱን	-5606
▁እንዳስ	-5607
▁ከመከራ	-5608
▁የለምን	-5609
▁የለበሰ	-5610
▁የሚወጣ	-5611
▁የምድረ	-5612
▁የተቀበ	-5613
▁የአምላ	-5614
▁ያስነሣ	-5615
▁ይባርክ	-5616
▁ይፈጸም	-5617
▁ገለዓድ	-5618
▁ገደለ።	-5619
▁ጋለሞታ	-5620
▁ሰልፈኞች	-5621
▁በእሳትም	-5622
▁ነበርና፤	-5623
▁ንጉሡንም	-5624
▁አለቆች፥	-5625
▁አሳልፈህ	-5626
▁አይደለህ	-5627
▁አገልጋይ	-5628
▁እንቅልፍ	-5629
▁እንኪያስ	-5630
▁እንደምታ	-5631
▁እንዴትስ	-5632
▁እንጀራን	-5633
▁ከብንያም	-5634
▁ወዳለበት	-5635
▁ዕቃውንም	-5636
▁የመንግሥ	-5637
▁የተደረገ	-5638
▁የዳዊትም	-5639
▁ያለውንም	-5640
▁ያስተምራ	-5641
▁ያደረገው	-5642
▁ይሆናሉ፥	-5643
▁ይልቁንም	-5644
▁ድንበሩም	-5645
▁ለኃጢአትም	-5646
▁አሕዛብንም	-5647
▁አምላካቸው	-5648
▁አንዳንዶች	-5649
▁እርስዋንም	-5650
▁ከእርስዋም	-5651
▁አልነበረም፤	-5652
▁ከመስፈሪያው	-5653
▁ከፍልስጥኤማውያን	-5654
ልካ	-5655
ልያ	-5656
መፃ	-5657
ሜኢ	-5658
ረህ	-5659
ረን	-5660
ረኩ	-5661
ርዛ	-5662
ርዱ	-5663
በቴ	-5664
ባብ	-5665
ቱት	-5666
ታ።	-5667
ወቃ	-5668
ዝ፥	-5669
ያዙ	-5670
ደም	-5671
ገዳ	-5672
ጣዖ	-5673
ጥታ	-5674
▁ሔ	-5675
▁ሖ	-5676
▁ጡ	-5677
ለሽ።	-5678
ልቅሶ	-5679
ሳል፥	-5680
ብኝ፥	-5681
ተውሉ	-5682
ቲቱን	-5683
ነትና	-5684
ንስሳ	-5685
ወልድ	-5686
ያችሁ	-5687
ዶችም	-5688
ጃቸው	-5689
▁ለና	-5690
▁ለው	-5691
▁ልበ	-5692
▁ምራ	-5693
▁ቈር	-5694
▁በኣ	-5695
▁በዋ	-5696
▁በጫ	-5697
▁ባሳ	-5698
▁ባስ	-5699
▁ብዛ	-5700
▁እብ	-5701
▁ከጋ	-5702
▁የሻ	-5703
▁የኀ	-5704
▁ዮአ	-5705
▁ጠፋ	-5706
ለዋል፤	-5707
ራውያን	-5708
ቶአል።	-5709
ነታቸው	-5710
ገባቸው	-5711
ገናኘው	-5712
▁ሂድ፤	-5713
▁ሄደህ	-5714
▁ለመግ	-5715
▁ለሙሴ	-5716
▁ላለው	-5717
▁ላሞች	-5718
▁ላከ፥	-5719
▁መንሻ	-5720
▁ማርያ	-5721
▁ሲነጋ	-5722
▁ሳለ፥	-5723
▁በለስ	-5724
▁በቅጥ	-5725
▁በታቦ	-5726
▁በወይ	-5727
▁በጽኑ	-5728
▁በፈር	-5729
▁ተዋጋ	-5730
▁ትሠራ	-5731
▁ነን።	-5732
▁ነን፤	-5733
▁አሜን	-5734
▁ኢዮብ	-5735
▁ከእጁ	-5736
▁ከፊቴ	-5737
▁ወልደ	-5738
▁ዘንግ	-5739
▁የቀደ	-5740
▁የተጻ	-5741
▁ያበዛ	-5742
▁ያወጡ	-5743
▁ይስማ	-5744
▁ይቀድ	-5745
▁ይከተ	-5746
▁ጎዶል	-5747
▁ፀነሰ	-5748
▁ፍርሃ	-5749
ልሃለሁ፥	-5750
ቶቻችሁም	-5751
▁ለሌሎች	-5752
▁ለንጉሥ	-5753
▁ለእኔም	-5754
▁ሊባኖስ	-5755
▁መዝጊያ	-5756
▁ራሱንም	-5757
▁በሕያው	-5758
▁በአንደ	-5759
▁በወንዝ	-5760
▁በዕድሜ	-5761
▁በጥበብ	-5762
▁ንጉሥ።	-5763
▁አላቸው	-5764
▁አስተማ	-5765
▁አውጥቶ	-5766
▁አይሆን	-5767
▁እለምና	-5768
▁ከሆነ፥	-5769
▁ከከተማ	-5770
▁ክፉዎች	-5771
▁የመጠጥ	-5772
▁የሚያሳ	-5773
▁የምናሴ	-5774
▁የዝግባ	-5775
▁ይጨምር	-5776
▁ጥቂቶች	-5777
▁በምዕራብ	-5778
▁በተራሮች	-5779
▁በተቀደሰ	-5780
▁ነጋዴዎች	-5781
▁አላደረገ	-5782
▁አልሁት።	-5783
▁አልወደደ	-5784
▁አምላክ፥	-5785
▁እርስዋን	-5786
▁እነዚያም	-5787
▁እንደሌለ	-5788
▁ከባቢሎን	-5789
▁ከኤፍሬም	-5790
▁የሚያህል	-5791
▁የምትኖሩ	-5792
▁የምድርን	-5793
▁የቀረውን	-5794
▁የተባለች	-5795
▁የዘንባባ	-5796
▁ያገለግሉ	-5797
▁ይለዋል፤	-5798
▁ይሻላል።	-5799
▁ፈረሰኞች	-5800
▁ሌዋውያኑም	-5801
▁በተራራማው	-5802
▁አደርጋለሁ	-5803
▁ኢዮርብዓም	-5804
▁የሚያገለግ	-5805
▁አደርጋለሁ፥	-5806
▁እለምንሃለሁ	-5807
ሊባ	-5808
ልዳ	-5809
ሕተ	-5810
ሞቴ	-5811
ሩክ	-5812
ሴይ	-5813
ቀህ	-5814
ቆማ	-5815
ባቱ	-5816
ነፈ	-5817
ወጥ	-5818
ውሬ	-5819
ዎቼ	-5820
ያፊ	-5821
ገው	-5822
ግን	-5823
ጣሉ	-5824
ፋም	-5825
ፍም	-5826
ፍዋ	-5827
ሄድ፥	-5828
ሙትም	-5829
ምረው	-5830
ሴቦን	-5831
ስማት	-5832
ሻል፥	-5833
ቀውም	-5834
ቈጠሩ	-5835
ቶችዋ	-5836
ችሁት	-5837
ችበት	-5838
ንቀት	-5839
አት፥	-5840
ከማቹ	-5841
ይማኖ	-5842
ገባ፥	-5843
ገናኛ	-5844
ግባ።	-5845
ፍታሌ	-5846
▁ሄኖ	-5847
▁ለከ	-5848
▁ሰድ	-5849
▁በቂ	-5850
▁በኮ	-5851
▁በጋ	-5852
▁ቤዛ	-5853
▁ታወ	-5854
▁ትክ	-5855
▁አከ	-5856
▁አጸ	-5857
▁እታ	-5858
▁ከጭ	-5859
▁ይራ	-5860
▁ድብ	-5861
▁ግደ	-5862
ሃቸው።	-5863
ላችሁና	-5864
ሠሩትን	-5865
ሥራቅም	-5866
ሳቸው።	-5867
ብሃል።	-5868
ቶችንም	-5869
ቻችንም	-5870
ኋቸው፤	-5871
ጣቸው።	-5872
ጽናናት	-5873
▁ሁኑ።	-5874
▁ለማጥ	-5875
▁ልቡም	-5876
▁ሐሤት	-5877
▁መበለ	-5878
▁መከር	-5879
▁ምጽጳ	-5880
▁ራሔል	-5881
▁ሰገዱ	-5882
▁በሰገ	-5883
▁በሲና	-5884
▁በጥሩ	-5885
▁ተገል	-5886
▁ተገኘ	-5887
▁ተገኝ	-5888
▁ተገዙ	-5889
▁ታገኛ	-5890
▁አማካ	-5891
▁አሦር	-5892
▁አዛዥ	-5893
▁እባብ	-5894
▁ከሞተ	-5895
▁ከሠራ	-5896
▁ከፈተ	-5897
▁ክፉም	-5898
▁ዓረባ	-5899
▁የሚነ	-5900
▁የርስ	-5901
▁የቤት	-5902
▁የተሳ	-5903
▁የወጡ	-5904
▁የዮና	-5905
▁የጠላ	-5906
▁ያፍራ	-5907
▁ይስጥ	-5908
▁ይችላ	-5909
▁ይጸና	-5910
▁ይፈራ	-5911
▁ድርሻ	-5912
▁ጀርባ	-5913
▁ጸንቶ	-5914
ልስጥኤም	-5915
ባቸውንም	-5916
▁ለብሰው	-5917
▁ለካህኑ	-5918
▁ሌላውን	-5919
▁ሕያዋን	-5920
▁መርከብ	-5921
▁መብራት	-5922
▁ምስጉን	-5923
▁ሮብዓም	-5924
▁ሰይጣን	-5925
▁ቃሉንም	-5926
▁በብርቱ	-5927
▁በታንኳ	-5928
▁በከተሞ	-5929
▁ባለጠጋ	-5930
▁ባደረግ	-5931
▁ተናገሩ	-5932
▁ተደረገ	-5933
▁ኃይልን	-5934
▁ንጉሥም	-5935
▁አላወቁ	-5936
▁አላገኙ	-5937
▁አልበላ	-5938
▁አመጡ።	-5939
▁አሮንና	-5940
▁አስብ።	-5941
▁አስተው	-5942
▁አስቴር	-5943
▁አስገባ	-5944
▁አይሰማ	-5945
▁አፈሰሰ	-5946
▁እሳትን	-5947
▁ከሁለቱ	-5948
▁ከንፈር	-5949
▁ከፊትህ	-5950
▁ካለችው	-5951
▁ኬብሮን	-5952
▁ወረደ።	-5953
▁ወደቁ።	-5954
▁የሚሆኑ	-5955
▁የራሱን	-5956
▁ይሆናሉ	-5957
▁ይላል፤	-5958
▁ይበልጣ	-5959
▁ይዘረጋ	-5960
▁ጌታችን	-5961
▁ጽላቶች	-5962
▁መርከቦች	-5963
▁ሰማይንና	-5964
▁በኃጢአት	-5965
▁በአይሁድ	-5966
▁ተባባሉ።	-5967
▁አልተገኘ	-5968
▁አባታችሁ	-5969
▁አንዳችም	-5970
▁አድርጉ።	-5971
▁እሄዳለሁ	-5972
▁እስኪሞት	-5973
▁እንጀራም	-5974
▁ወይፈን፥	-5975
▁የቀሩትም	-5976
▁የብንያም	-5977
▁የተመረጡ	-5978
▁ይጠፋል።	-5979
▁ለአምላክህ	-5980
▁ልጆቻቸውን	-5981
▁አባቶቻቸው	-5982
▁አታውቁምን	-5983
▁እንደሚሆን	-5984
▁የንጉሡንም	-5985
▁ባልንጀራውን	-5986
▁አምላካችሁን	-5987
▁የሚቃጠለውንም	-5988
ለጋ	-5989
ላፊ	-5990
መሩ	-5991
መ፥	-5992
ሰነ	-5993
ሰኝ	-5994
ሰዳ	-5995
ሴስ	-5996
ስጦ	-5997
ቤት	-5998
ተኸ	-5999
ታስ	-6000
ቻል	-6001
ኃሚ	-6002
ኃያ	-6003
ኒ፥	-6004
ኝታ	-6005
ኩስ	-6006
ዕሤ	-6007
ዘነ	-6008
ዘኑ	-6009
ደን	-6010
ገፋ	-6011
ጠቡ	-6012
ጫወ	-6013
▁ዑ	-6014
ላም፥	-6015
ማሉ፤	-6016
ርትራ	-6017
ሶንም	-6018
ባል፤	-6019
ባት፤	-6020
ቱም፥	-6021
ታዊው	-6022
ቶች፥	-6023
ንያ፥	-6024
አት፤	-6025
ኤልን	-6026
ኸኝ።	-6027
ዶክዮ	-6028
ገናኙ	-6029
ገድል	-6030
ጸድቅ	-6031
ፍራጥ	-6032
▁ለሞ	-6033
▁መተ	-6034
▁ረገ	-6035
▁ቀባ	-6036
▁ቀኑ	-6037
▁በች	-6038
▁በዔ	-6039
▁በጻ	-6040
▁ተሠ	-6041
▁ተሾ	-6042
▁ተቆ	-6043
▁ነግ	-6044
▁እሺ	-6045
▁እከ	-6046
▁ክቡ	-6047
▁የሲ	-6048
▁የቄ	-6049
▁የጎ	-6050
▁ይጭ	-6051
▁ጀመ	-6052
▁ጌል	-6053
▁ጎቶ	-6054
ልሃለሁ	-6055
ማለሁ፤	-6056
ስማቸው	-6057
ቄዶንያ	-6058
ኋችሁ።	-6059
ኛልና።	-6060
ዋለህ፥	-6061
ዶንያስ	-6062
ጣቸውን	-6063
ፍሬምም	-6064
▁ለብዙ	-6065
▁ልቡን	-6066
▁መጽሐ	-6067
▁ሚስቱ	-6068
▁ማልዶ	-6069
▁ረጅም	-6070
▁ርኵሰ	-6071
▁ሰሜን	-6072
▁ሰፈሩ	-6073
▁ስንት	-6074
▁ስድስ	-6075
▁ሺህ፥	-6076
▁ቀስት	-6077
▁ቆመ።	-6078
▁በበዓ	-6079
▁በተን	-6080
▁በአገ	-6081
▁በኣል	-6082
▁በግ፥	-6083
▁ባወጣ	-6084
▁ተሰማ	-6085
▁ተገረ	-6086
▁ተጓዙ	-6087
▁ንግሥ	-6088
▁አሉ፥	-6089
▁አራቱ	-6090
▁አሮጌ	-6091
▁እልከ	-6092
▁እወዳ	-6093
▁ከበር	-6094
▁ውበት	-6095
▁ውኃን	-6096
▁ዕውር	-6097
▁የልጆ	-6098
▁የቂጣ	-6099
▁ያቅር	-6100
▁ያገኙ	-6101
▁ይለው	-6102
▁ይከፍ	-6103
▁ይፈጽ	-6104
▁ገቡ፤	-6105
▁ጋር፥	-6106
▁ግልገ	-6107
▁ግንድ	-6108
▁ግዛት	-6109
▁ጭልፋ	-6110
ላቸውም፥	-6111
ቶቻችንም	-6112
▁ልጅንም	-6113
▁መናገር	-6114
▁ሙሴም።	-6115
▁ማኅተም	-6116
▁ሠራተኛ	-6117
▁ሰማርያ	-6118
▁ስለምን	-6119
▁በምሳሌ	-6120
▁በብልሃ	-6121
▁በአባቴ	-6122
▁በደለኛ	-6123
▁ብላቴኖ	-6124
▁ብትሆን	-6125
▁ትወስዳ	-6126
▁ናችሁ፤	-6127
▁አንበጣ	-6128
▁አያውቅ	-6129
▁አድራጊ	-6130
▁አጥንት	-6131
▁እንደም	-6132
▁ከወርቅ	-6133
▁ከዓለም	-6134
▁ወረደ፥	-6135
▁ወንዞች	-6136
▁ውሰድ፥	-6137
▁ዘርግቶ	-6138
▁የበኵር	-6139
▁የባሕር	-6140
▁የአሞን	-6141
▁የጽዮን	-6142
▁ይመልሳ	-6143
▁ይስሐቅ	-6144
▁ይነግሣ	-6145
▁ይጠብቅ	-6146
▁ይፈልጋ	-6147
▁ደሴቶች	-6148
▁ጠብቅ።	-6149
▁ፈራጆች	-6150
ላችኋለሁ።	-6151
ቡከደነፆር	-6152
▁መንግሥተ	-6153
▁መዛግብት	-6154
▁መጥተው።	-6155
▁ሴቶችንም	-6156
▁ቀርበው።	-6157
▁በላያችን	-6158
▁በሌለበት	-6159
▁በመጨረሻ	-6160
▁በቅንነት	-6161
▁በይሁዳና	-6162
▁ኃጢአትም	-6163
▁አመሰግና	-6164
▁አመስግኑ	-6165
▁አንዳንድ	-6166
▁አካዝያስ	-6167
▁አይሁዳዊ	-6168
▁እርሱንና	-6169
▁እስኪመጣ	-6170
▁እንዳልተ	-6171
▁እንዳይወ	-6172
▁ከዋክብት	-6173
▁የሚያውቅ	-6174
▁የሳኦልም	-6175
▁የተቀመጠ	-6176
▁የተባለው	-6177
▁የተናገረ	-6178
▁የእህሉን	-6179
▁ይህችንም	-6180
▁ይመጣል፤	-6181
▁ለሌዋውያን	-6182
▁በኤዶምያስ	-6183
▁ተከተሉት።	-6184
▁አውቃለሁ።	-6185
▁አይሆንም።	-6186
▁አይደላችሁ	-6187
▁አደረገው።	-6188
▁እነዚህንም	-6189
▁እንደዚህም	-6190
▁የባቢሎንም	-6191
▁የአሕዛብን	-6192
▁ያደርጋል፥	-6193
▁ሁለተኛውንም	-6194
▁የተቀደሰውን	-6195
ሌብ	-6196
ሌን	-6197
ሥታ	-6198
ረሱ	-6199
ሬብ	-6200
ርዓ	-6201
ሰኘ	-6202
ሰኛ	-6203
ስሁ	-6204
ሽና	-6205
ቤም	-6206
ቤዥ	-6207
ኒም	-6208
ናፍ	-6209
አዛ	-6210
ከለ	-6211
ካል	-6212
ክሮ	-6213
ዔል	-6214
ዝዝ	-6215
ይና	-6216
ጕረ	-6217
ጠት	-6218
ጡን	-6219
ጥሮ	-6220
ጦፌ	-6221
▁ሩ	-6222
ሉአት	-6223
ልህ፥	-6224
ልም።	-6225
ልን።	-6226
ልን፥	-6227
መልክ	-6228
ረው፥	-6229
ርባን	-6230
ሰሙ፥	-6231
ቀም።	-6232
ቀረቡ	-6233
ቀውን	-6234
ቃወም	-6235
በስብ	-6236
ባል።	-6237
ነገር	-6238
ናወን	-6239
ንበት	-6240
ዎንም	-6241
ያቸው	-6242
ዮችም	-6243
ዲህም	-6244
ድራት	-6245
ዶችን	-6246
ገቡት	-6247
ግተው	-6248
ጣል፤	-6249
ጨነቁ	-6250
ጸያፊ	-6251
ጹምም	-6252
ፈሩም	-6253
ፉትን	-6254
▁ሐማ	-6255
▁ሰቅ	-6256
▁ሰፊ	-6257
▁ሲሉ	-6258
▁ቀበ	-6259
▁ቅረ	-6260
▁በሳ	-6261
▁በዐ	-6262
▁በዖ	-6263
▁በይ	-6264
▁ቢሰ	-6265
▁ከሸ	-6266
▁ከጌ	-6267
▁ዝን	-6268
▁የቢ	-6269
▁ይሹ	-6270
▁ዲዳ	-6271
▁ገላ	-6272
▁ገረ	-6273
▁ገዢ	-6274
▁ግቢ	-6275
▁ጕብ	-6276
ሆናችሁ	-6277
ለታል፤	-6278
ለታል፥	-6279
ስሐቅም	-6280
በትም፤	-6281
ተኛይቱ	-6282
ታልና፥	-6283
ቶችህም	-6284
ዋልና፤	-6285
ገደሉት	-6286
▁ለልጁ	-6287
▁ለብሶ	-6288
▁መጥቼ	-6289
▁መጻሕ	-6290
▁ምላስ	-6291
▁ምድራ	-6292
▁ሞተ፤	-6293
▁ሲወጣ	-6294
▁ስትል	-6295
▁ቀርባ	-6296
▁ቀኑን	-6297
▁በመታ	-6298
▁በመዝ	-6299
▁በቃል	-6300
▁በበት	-6301
▁በአሥ	-6302
▁በአሳ	-6303
▁በወጡ	-6304
▁በዳር	-6305
▁በግን	-6306
▁በጣም	-6307
▁ቡሩክ	-6308
▁ቡቃያ	-6309
▁ባሮክ	-6310
▁ቤቴል	-6311
▁ቤትህ	-6312
▁ተቀደ	-6313
▁ተናወ	-6314
▁ትመጣ	-6315
▁ትርጓ	-6316
▁ትንሽ	-6317
▁አምጣ	-6318
▁አሰኘ	-6319
▁አሳድ	-6320
▁አትን	-6321
▁አእላ	-6322
▁አየ፥	-6323
▁እርዳ	-6324
▁እናስ	-6325
▁እኛን	-6326
▁እኵሌ	-6327
▁ከሥራ	-6328
▁ከብት	-6329
▁ወስዳ	-6330
▁ወዳጄ	-6331
▁የመረ	-6332
▁የቀኝ	-6333
▁የእን	-6334
▁የጽሩ	-6335
▁ያውቅ	-6336
▁ያድር	-6337
▁ይህስ	-6338
▁ይሞላ	-6339
▁ይከብ	-6340
▁ደስም	-6341
▁ደንቆ	-6342
▁ጃግሬ	-6343
▁ፈረስ	-6344
▁ፈራጅ	-6345
ውያንንም	-6346
ገባቸውም	-6347
▁ሁለቱ፤	-6348
▁ለዮሴፍ	-6349
▁ሐሰትን	-6350
▁ሥራቸው	-6351
▁ሳኦልን	-6352
▁ስለምት	-6353
▁በውኃም	-6354
▁ብንያም	-6355
▁ተወለዱ	-6356
▁ተፈጸመ	-6357
▁ታላቅም	-6358
▁ነቢዩም	-6359
▁ነገርም	-6360
▁አለቀሰ	-6361
▁አለፈ፥	-6362
▁አቅርቡ	-6363
▁አክዓብ	-6364
▁አይጠፋ	-6365
▁አግኝቶ	-6366
▁እዘረጋ	-6367
▁ከዋክብ	-6368
▁ከፈሪሳ	-6369
▁ኪዳኑን	-6370
▁ዕቃዎች	-6371
▁የለምና	-6372
▁የሚያን	-6373
▁የሰረገ	-6374
▁የሳኦል	-6375
▁የተሞላ	-6376
▁የተረገ	-6377
▁የዔሳው	-6378
▁ይባረክ	-6379
▁ዮሴፍን	-6380
▁ድምፁን	-6381
▁ጐበዛዝ	-6382
▁ጽሕፈት	-6383
አብርሃምና	-6384
▁ልጆቹንም	-6385
▁ልጆቻቸው	-6386
▁መልሰው።	-6387
▁ማሰማርያ	-6388
▁ምሕረትህ	-6389
▁ምርኮኞች	-6390
▁በለዓምም	-6391
▁በሕይወቱ	-6392
▁በብንያም	-6393
▁በየዓመቱ	-6394
▁በግብፅም	-6395
▁ተቀመጡ፤	-6396
▁ንጉሡን።	-6397
▁አብራምም	-6398
▁አንተም፥	-6399
▁እንዲያስ	-6400
▁እንዳያስ	-6401
▁ከይሁዳም	-6402
▁ወይፈኖች	-6403
▁ወዮላቸው	-6404
▁የሚያምን	-6405
▁የሚያውቁ	-6406
▁የሚጠብቁ	-6407
▁የአባቱን	-6408
▁የአደባባ	-6409
▁የዳዊትን	-6410
▁ይወጣል፤	-6411
▁ይገደል።	-6412
▁መርዶክዮስ	-6413
▁በሕይወትም	-6414
▁በማደሪያው	-6415
▁ባለጠግነት	-6416
▁ትሆናለች፤	-6417
▁አይችልም።	-6418
▁እንድትሆን	-6419
▁ከከተማይቱ	-6420
▁ክርስቶስም	-6421
▁ወንዶችንም	-6422
▁ፈሪሳውያን	-6423
▁ከእንግዲህም	-6424
ልፈ	-6425
መ።	-6426
ሚም	-6427
ረጀ	-6428
ርሰ	-6429
ርሻ	-6430
ሱና	-6431
ሹም	-6432
በክ	-6433
ችሉ	-6434
ዘር	-6435
ዙን	-6436
ይ።	-6437
ይ፤	-6438
ዳር	-6439
ዴም	-6440
ዴቅ	-6441
ጐበ	-6442
ጠየ	-6443
ጭድ	-6444
ፎቹ	-6445
ሁትም	-6446
ለህና	-6447
መለመ	-6448
መልጥ	-6449
ማትም	-6450
ምራዊ	-6451
ረክሱ	-6452
ርንች	-6453
ሰማ፥	-6454
ሰብክ	-6455
ሳል።	-6456
ሳደድ	-6457
ሳድዱ	-6458
ቃል፥	-6459
ቅበዘ	-6460
ባሉ።	-6461
ችም፤	-6462
ናልና	-6463
ናን፥	-6464
ንተው	-6465
ዊቱም	-6466
ገናኝ	-6467
ፋይም	-6468
▁ሄድ	-6469
▁ለሐ	-6470
▁ለዔ	-6471
▁ልከ	-6472
▁ሜሱ	-6473
▁ምጽ	-6474
▁ሩቅ	-6475
▁ሰሎ	-6476
▁በኩ	-6477
▁ተረ	-6478
▁ተኣ	-6479
▁ታጠ	-6480
▁ትሻ	-6481
▁አዎ	-6482
▁አዩ	-6483
▁ኤዊ	-6484
▁እሸ	-6485
▁እበ	-6486
▁ከዕ	-6487
▁ወጭ	-6488
▁ውሸ	-6489
▁ዕራ	-6490
▁የኦ	-6491
▁ያዋ	-6492
▁ያፈ	-6493
▁ይጋ	-6494
▁ገል	-6495
▁ጠፍ	-6496
▁ጤና	-6497
▁ጥር	-6498
ልሃል፤	-6499
መሰክራ	-6500
ማለሁ።	-6501
ራቸው፤	-6502
ቃጠልም	-6503
ኋቸው፥	-6504
ደርጉ፥	-6505
ጠብቅ፥	-6506
▁ለኢየ	-6507
▁ልዑል	-6508
▁ሕፃኑ	-6509
▁መዳን	-6510
▁ሰይጣ	-6511
▁ሴኬም	-6512
▁ስእለ	-6513
▁ቈረጠ	-6514
▁በመረ	-6515
▁በምስ	-6516
▁በሴሎ	-6517
▁በበታ	-6518
▁በበጎ	-6519
▁በጕል	-6520
▁በጣዖ	-6521
▁ብልህ	-6522
▁ታምነ	-6523
▁ታወጣ	-6524
▁ትርፍ	-6525
▁ትነግ	-6526
▁አልሰ	-6527
▁አዋቂ	-6528
▁አውቀ	-6529
▁አዴር	-6530
▁አድኖ	-6531
▁አጽና	-6532
▁እገባ	-6533
▁እፍረ	-6534
▁ከለከ	-6535
▁ከሞት	-6536
▁ከዳን	-6537
▁ወይራ	-6538
▁ወዳሉ	-6539
▁ውኃው	-6540
▁ዔሳው	-6541
▁ዕንቅ	-6542
▁የሚሉ	-6543
▁የምስ	-6544
▁የሰለ	-6545
▁የቤተ	-6546
▁የታመ	-6547
▁የኃይ	-6548
▁የአቢ	-6549
▁የኢን	-6550
▁የዕጣ	-6551
▁የጸና	-6552
▁ያድን	-6553
▁ይተኛ	-6554
▁ይዘህ	-6555
▁ይፈጸ	-6556
▁ደምን	-6557
▁ደንግ	-6558
▁ጀምሬ	-6559
▁ገበሬ	-6560
▁ግብጻ	-6561
▁ጢሞቴ	-6562
ብራውያን	-6563
ዎቻቸውም	-6564
▁ሁለት።	-6565
▁ሄዳችሁ	-6566
▁ለማየት	-6567
▁ለጌታዬ	-6568
▁ሌላውም	-6569
▁ልጃችሁ	-6570
▁ሚክያስ	-6571
▁ስፍራው	-6572
▁ቁመቱም	-6573
▁ቃልህን	-6574
▁ቅንዓት	-6575
▁በአራቱ	-6576
▁በእኔም	-6577
▁ባልንጀ	-6578
▁ባይሆን	-6579
▁ብርታት	-6580
▁ብቻዬን	-6581
▁ተናግረ	-6582
▁ታላላቅ	-6583
▁ታላላቆ	-6584
▁ትርጓሜ	-6585
▁ነበረች	-6586
▁ነፍስህ	-6587
▁ንጹሐን	-6588
▁ንጹሕም	-6589
▁አሥራት	-6590
▁አስመጣ	-6591
▁አበኔር	-6592
▁አገሮች	-6593
▁አግኝቼ	-6594
▁እሰድዳ	-6595
▁እንስት	-6596
▁እንደማ	-6597
▁እያለቀ	-6598
▁ከሆነው	-6599
▁ከሚኖሩ	-6600
▁ከምድረ	-6601
▁ከአባቴ	-6602
▁ከወለደ	-6603
▁ወርቅና	-6604
▁ወደቀ፥	-6605
▁የሆኑት	-6606
▁የሚሠሩ	-6607
▁የሚገዛ	-6608
▁የረከሰ	-6609
▁የሮቤል	-6610
▁የሰሎሞ	-6611
▁የተባለ	-6612
▁የነገር	-6613
▁የከነዓ	-6614
▁ይህችም	-6615
▁ይመለሱ	-6616
▁ደማስቆ	-6617
▁ጠቢባን	-6618
▁ለሕዝቡም	-6619
▁ልብሱንም	-6620
▁ሐዋርያት	-6621
▁መታጠቂያ	-6622
▁ሥርዓትና	-6623
▁ቈነጃጅት	-6624
▁ቍርባን፥	-6625
▁በመጽሐፍ	-6626
▁በሰማይም	-6627
▁በስፍራው	-6628
▁በሸለቆው	-6629
▁በነቢያት	-6630
▁በየትውል	-6631
▁በደቡብም	-6632
▁በድንኳኑ	-6633
▁በፍጹምም	-6634
▁ተናገረ፤	-6635
▁ነበሩት።	-6636
▁አለቻት።	-6637
▁አስጸያፊ	-6638
▁አታድርግ	-6639
▁አኖረው።	-6640
▁አክዓብም	-6641
▁አድርግ፥	-6642
▁ከመካከል	-6643
▁ከኃጢአት	-6644
▁ከፈርዖን	-6645
▁ዓይኖችህ	-6646
▁የሌለበት	-6647
▁የምስጋና	-6648
▁የንጉሡም	-6649
▁የአሞንም	-6650
▁ያመሰግኑ	-6651
▁ጠየቁት።	-6652
▁ለማገልገል	-6653
▁መሥዋዕትን	-6654
▁መንግሥቱን	-6655
▁በመንገድም	-6656
▁በአደባባይ	-6657
▁አልሰማችሁ	-6658
▁አባቶቻችሁ	-6659
▁አባቶቻችን	-6660
▁አይደሉምን	-6661
▁አገልጋዮች	-6662
▁እስትንፋስ	-6663
▁የኤዶምያስ	-6664
▁ይላቸዋል።	-6665
▁መልእክተኞች	-6666
▁በአንድነትም	-6667
▁ታቀርባላችሁ።	-6668
▁እግዚአብሔርን።	-6669
ለፉ	-6670
ሊታ	-6671
ልቁ	-6672
ሕም	-6673
ማፀ	-6674
ምሳ	-6675
ሪው	-6676
ሮና	-6677
ሳል	-6678
ቀሩ	-6679
ቀጣ	-6680
ቋጦ	-6681
በች	-6682
ባበ	-6683
ባጥ	-6684
ተራ	-6685
ተከ	-6686
ነዌ	-6687
ካር	-6688
ክሪ	-6689
ዋና	-6690
ዝሬ	-6691
ዳራ	-6692
ዳቋ	-6693
ገሡ	-6694
ገን	-6695
ግ፥	-6696
ጕን	-6697
ፍ።	-6698
▁ፉ	-6699
ለሽ፤	-6700
ላሉ፤	-6701
ላትያ	-6702
ልም፤	-6703
ልዓዛ	-6704
መድም	-6705
ማለሁ	-6706
ረው፤	-6707
ሪቱም	-6708
ርየት	-6709
ሱንና	-6710
ስረያ	-6711
ሻገር	-6712
ተኛም	-6713
ወደው	-6714
ዛብሎ	-6715
የውን	-6716
ጆቹም	-6717
ገልገ	-6718
ገረዘ	-6719
ጨነቅ	-6720
ጸልያ	-6721
ፈቀደ	-6722
▁ለገ	-6723
▁ላል	-6724
▁ላባ	-6725
▁ሹም	-6726
▁ቀላ	-6727
▁ቆር	-6728
▁በሽ	-6729
▁በቆ	-6730
▁በኀ	-6731
▁ተጐ	-6732
▁ትበ	-6733
▁አዶ	-6734
▁እጨ	-6735
▁ከረ	-6736
▁ከቃ	-6737
▁ከቅ	-6738
▁ከዝ	-6739
▁ከጻ	-6740
▁ወታ	-6741
▁የሆ	-6742
▁ይግ	-6743
▁ደሙ	-6744
▁ደቦ	-6745
▁ዲና	-6746
▁ግባ	-6747
▁ጕን	-6748
▁ጡት	-6749
▁ጥሎ	-6750
▁ጥፋ	-6751
ሃልና።	-6752
ሄድበት	-6753
ለትም፤	-6754
ለችና።	-6755
መላለስ	-6756
ምራዊም	-6757
ቀመጡት	-6758
ቀበለው	-6759
በታል፥	-6760
ቤሴሎም	-6761
ተኛውን	-6762
ታላችሁ	-6763
ቻለሁ፥	-6764
ችንንም	-6765
ዎቻቸው	-6766
ያብሎስ	-6767
ጌልገላ	-6768
▁ሀብት	-6769
▁ሆነን	-6770
▁ለምጻ	-6771
▁ለምጽ	-6772
▁ላባም	-6773
▁ላኩ።	-6774
▁ልቤም	-6775
▁ልቤን	-6776
▁መታ፤	-6777
▁መዓት	-6778
▁ሞዓባ	-6779
▁ራሴን	-6780
▁ርስቱ	-6781
▁ሰጠ፥	-6782
▁ስለሌ	-6783
▁ስማ፥	-6784
▁ቀልጦ	-6785
▁ቀኖች	-6786
▁ቅጣት	-6787
▁በመዓ	-6788
▁በራሴ	-6789
▁በቀል	-6790
▁በአፌ	-6791
▁በጸና	-6792
▁ተነጋ	-6793
▁ተጠመ	-6794
▁ታለቅ	-6795
▁ትመስ	-6796
▁ትወጣ	-6797
▁ትገባ	-6798
▁ትገዛ	-6799
▁አላው	-6800
▁አመድ	-6801
▁አሞን	-6802
▁አሳይ	-6803
▁አብድ	-6804
▁አታም	-6805
▁አትብ	-6806
▁አትች	-6807
▁አነበ	-6808
▁አወጡ	-6809
▁አድን	-6810
▁እመጣ	-6811
▁እሰማ	-6812
▁እሰጠ	-6813
▁እቀጣ	-6814
▁እንባ	-6815
▁ከማኅ	-6816
▁ከቤት	-6817
▁ኵላሊ	-6818
▁ወርቁ	-6819
▁ወንበ	-6820
▁ወድዶ	-6821
▁የተረ	-6822
▁የተራ	-6823
▁የነዌ	-6824
▁የአራ	-6825
▁የጠቢ	-6826
▁ያመነ	-6827
▁ያገኘ	-6828
▁ያጠፉ	-6829
▁ይብላ	-6830
▁ይገቡ	-6831
▁ይገኛ	-6832
▁ይጠይ	-6833
▁ድሆች	-6834
▁ገለዓ	-6835
▁ጕብጕ	-6836
▁ጨረቃ	-6837
▁ፈተና	-6838
ላችኋል፤	-6839
ቶቻችሁን	-6840
ቻችሁንም	-6841
አቸውም።	-6842
አቸውንም	-6843
ያንዳንዱ	-6844
▁ሄሮድስ	-6845
▁ለአሮን	-6846
▁ሕዝብን	-6847
▁ሚስቱም	-6848
▁ምድሩን	-6849
▁ሰዎችና	-6850
▁ሳንቆች	-6851
▁በሆነው	-6852
▁በላዩም	-6853
▁በማዕድ	-6854
▁በሠላሳ	-6855
▁በርናባ	-6856
▁በሳኦል	-6857
▁በሶርያ	-6858
▁በቀረበ	-6859
▁በባሕሩ	-6860
▁በተነሣ	-6861
▁በአልጋ	-6862
▁በዚህና	-6863
▁በጎነት	-6864
▁ቢኖር፥	-6865
▁ተቀብሎ	-6866
▁ንጉሡና	-6867
▁አልተወ	-6868
▁አመንዝ	-6869
▁አቁማዳ	-6870
▁አንገት	-6871
▁አደሰ።	-6872
▁እነግራ	-6873
▁እንሄዳ	-6874
▁ከምናሴ	-6875
▁ከሰፈሩ	-6876
▁ከሶርያ	-6877
▁ከተማም	-6878
▁ከግራር	-6879
▁ወተትና	-6880
▁ወንድማ	-6881
▁ውሰድ፤	-6882
▁ዕውሮች	-6883
▁የሕዝብ	-6884
▁የመከራ	-6885
▁የሚሉት	-6886
▁የሚናገ	-6887
▁የሚያም	-6888
▁የሰውም	-6889
▁የተረፈ	-6890
▁የአሥራ	-6891
▁የካህና	-6892
▁የዮዳሄ	-6893
▁የፈጠረ	-6894
▁ያዘዘው	-6895
▁ይሁኑ፤	-6896
▁ድንገት	-6897
▁ጌልገላ	-6898
▁ፈጥነህ	-6899
▁ፍጥረት	-6900
ለዳውያንም	-6901
▁ሕይወትን	-6902
▁ሰሎሞንን	-6903
▁ሰውዮውም	-6904
▁ስምህንም	-6905
▁በሬዎች፥	-6906
▁በሰይፍና	-6907
▁በስምንተ	-6908
▁በኬብሮን	-6909
▁በግምባሩ	-6910
▁ባሪያውን	-6911
▁ተመለከት	-6912
▁ተግሣጽን	-6913
▁ነበረች፥	-6914
▁አቀረቡ።	-6915
▁አገልግሎ	-6916
▁ኤልያስም	-6917
▁እንደዚያ	-6918
▁እንዲኖር	-6919
▁እንጀራና	-6920
▁ከሰማይም	-6921
▁ወዳለችው	-6922
▁የመድኃኒ	-6923
▁የቀሩትን	-6924
▁ይወጣል።	-6925
▁ይጠፋሉ።	-6926
▁ጕልማሶች	-6927
▁ጠየቀው።	-6928
▁ጳውሎስም	-6929
▁ፈጽማችሁ	-6930
▁ልጆቻቸውም	-6931
▁መሠዊያውን	-6932
▁ስምንተኛው	-6933
▁ታደርጋለህ	-6934
▁ኃጢአትንም	-6935
▁እሰጣለሁ።	-6936
▁እስኪፈጸም	-6937
▁እንደሚገባ	-6938
▁ከወንድሞቹ	-6939
▁የሌለበትን	-6940
▁የዘላለምን	-6941
▁የይሁዳንም	-6942
▁ለአምላካችን	-6943
▁የተቀመጡትን	-6944
▁በፍልስጥኤማውያን	-6945
ሞተ	-6946
ሮም	-6947
ሮጥ	-6948
ቁሔ	-6949
ቃይ	-6950
ቈረ	-6951
ቢስ	-6952
ቤር	-6953
ተዉ	-6954
ንጆ	-6955
ኦስ	-6956
ከም	-6957
ከና	-6958
ኪሶ	-6959
ዬና	-6960
ይዓ	-6961
ዳት	-6962
ገሠ	-6963
ፃን	-6964
ፋጥ	-6965
ህም፥	-6966
ላውም	-6967
መቂያ	-6968
ሮንን	-6969
ሰለት	-6970
ሰጠው	-6971
ሳሉ፥	-6972
ሳዊው	-6973
ቤልና	-6974
ተዋል	-6975
ታንና	-6976
ቶችሽ	-6977
ችሁ።	-6978
ችም።	-6979
ችን፥	-6980
ንዘብ	-6981
ከብር	-6982
ውጣት	-6983
ያምን	-6984
ዳችን	-6985
ግልና	-6986
ጣል፥	-6987
ፍርና	-6988
▁ሂጂ	-6989
▁ለጎ	-6990
▁ለጠ	-6991
▁ሕያ	-6992
▁ሕጌ	-6993
▁ማስ	-6994
▁ምር	-6995
▁ሠዋ	-6996
▁ሣራ	-6997
▁ረስ	-6998
▁ሳዶ	-6999
▁ቈረ	-7000
▁በዲ	-7001
▁ተቃ	-7002
▁ናታ	-7003
▁ናዳ	-7004
▁አሻ	-7005
▁አሽ	-7006
▁አዞ	-7007
▁ከሮ	-7008
▁ከቆ	-7009
▁ከካ	-7010
▁ከዔ	-7011
▁ኪስ	-7012
▁ዋና	-7013
▁የሙ	-7014
▁የጨ	-7015
▁ያዳ	-7016
▁ያድ	-7017
▁ይሽ	-7018
▁ይቻ	-7019
▁ግማ	-7020
ልጥግና	-7021
ሳችሁም	-7022
ሻለሁ።	-7023
ቀርበው	-7024
ቀበሉት	-7025
ባታል።	-7026
ብርሃን	-7027
ተናል፤	-7028
ቱንም፥	-7029
ኋችሁ፤	-7030
ወስደው	-7031
ዎቹንና	-7032
ይሁድም	-7033
ይቱንም	-7034
ደርጉት	-7035
ደርግብ	-7036
ፋቸውም	-7037
ፍራጥስ	-7038
▁ለሁሉ	-7039
▁ለካ።	-7040
▁ለጠላ	-7041
▁ሉያ።	-7042
▁መረጥ	-7043
▁መካን	-7044
▁መጠጥ	-7045
▁ምዋር	-7046
▁ሠሩ፤	-7047
▁ሳሉ፥	-7048
▁ሸሽቶ	-7049
▁ሸክላ	-7050
▁በሐሰ	-7051
▁በመግ	-7052
▁በምና	-7053
▁በሞት	-7054
▁በራስ	-7055
▁በተወ	-7056
▁በአማ	-7057
▁በጠራ	-7058
▁ቢያስ	-7059
▁ባልቴ	-7060
▁ባረካ	-7061
▁ብሩን	-7062
▁ተማከ	-7063
▁ተጠራ	-7064
▁ተጠበ	-7065
▁ታስሮ	-7066
▁ትቀድ	-7067
▁ትጠፋ	-7068
▁ንስር	-7069
▁አልራ	-7070
▁አማት	-7071
▁አሰብ	-7072
▁አስቦ	-7073
▁አስነ	-7074
▁አያው	-7075
▁አይቼ	-7076
▁አዳና	-7077
▁ኤልዛ	-7078
▁እያዩ	-7079
▁እጠራ	-7080
▁ኦርዮ	-7081
▁ከበረ	-7082
▁ከአማ	-7083
▁ኮከብ	-7084
▁ወርድ	-7085
▁ወስጄ	-7086
▁ወገብ	-7087
▁ውድማ	-7088
▁ውጣ፥	-7089
▁ዝማሬ	-7090
▁የሀያ	-7091
▁የመጡ	-7092
▁የሚባ	-7093
▁የማዕ	-7094
▁የሰላ	-7095
▁የአብ	-7096
▁የጋድ	-7097
▁ያበራ	-7098
▁ያገባ	-7099
▁ይመታ	-7100
▁ይይዛ	-7101
▁ደረጃ	-7102
▁ደዌው	-7103
▁ገቡ።	-7104
▁ገቡ፥	-7105
▁ገብስ	-7106
▁ገዳይ	-7107
▁ጊብዓ	-7108
▁ጋርም	-7109
▁ጠንቋ	-7110
▁ፈሩ።	-7111
▁ፊትም	-7112
ላቸዋል፤	-7113
ልሃለሁ፤	-7114
መለከተው	-7115
ርያትይዓ	-7116
ተዋልና፥	-7117
ኅንነትም	-7118
ደረጋችሁ	-7119
▁ለማዳን	-7120
▁ለድሆች	-7121
▁ሌሊትም	-7122
▁መልሰው	-7123
▁መርገም	-7124
▁መናወጥ	-7125
▁መግባት	-7126
▁ራሳችሁ	-7127
▁ሰብስቦ	-7128
▁ሳኦልና	-7129
▁ቀለበት	-7130
▁ቀርበው	-7131
▁ቀርቦ።	-7132
▁በለዓም	-7133
▁በትውል	-7134
▁በአፍህ	-7135
▁በእንግ	-7136
▁በወይን	-7137
▁በዙፋኑ	-7138
▁በጊብዓ	-7139
▁በፈጸመ	-7140
▁በፍታም	-7141
▁ቤቶች፥	-7142
▁ብልቶች	-7143
▁ተሰጥቶ	-7144
▁ተነሣና	-7145
▁ተነሣ፤	-7146
▁ታላቁን	-7147
▁ትምክህ	-7148
▁ነገድ፥	-7149
▁ንግሥት	-7150
▁አላችሁ	-7151
▁አላውቅ	-7152
▁አመጡ፤	-7153
▁አብያተ	-7154
▁አንተስ	-7155
▁አዘንብ	-7156
▁አዘዘ፥	-7157
▁አይቀር	-7158
▁አይኖር	-7159
▁አግብቶ	-7160
▁ኢዮብም	-7161
▁እንዳየ	-7162
▁እየሰበ	-7163
▁ከሰይፍ	-7164
▁ከሴቶች	-7165
▁ኪዳኔን	-7166
▁ካልሆነ	-7167
▁ክብርን	-7168
▁ወረደ፤	-7169
▁ወንበር	-7170
▁ወገን።	-7171
▁ዓይኖቼ	-7172
▁ዘመንም	-7173
▁ዘንድ፤	-7174
▁የሌለው	-7175
▁የሚፈራ	-7176
▁የተጠላ	-7177
▁የታወቀ	-7178
▁የኢዮአ	-7179
▁የያዕቆ	-7180
▁የፍየል	-7181
▁ያለችው	-7182
▁ያመስግ	-7183
▁ይመላለ	-7184
▁ይፈርድ	-7185
▁ደመወዝ	-7186
▁ደሙንም	-7187
▁ደረሰ።	-7188
▁ድምፅ፥	-7189
▁ጣዖታት	-7190
▁ፈጥነው	-7191
▁ፍርዴን	-7192
▁ለመሥራት	-7193
▁ለራሳችሁ	-7194
▁ሊያደርግ	-7195
▁ሊገናኘው	-7196
▁ሌሎችንም	-7197
▁ልባችሁን	-7198
▁መሠዊያው	-7199
▁መንኰራኵ	-7200
▁መንገዴን	-7201
▁መጻተኞች	-7202
▁በአገርህ	-7203
▁በአፋቸው	-7204
▁በዓይንህ	-7205
▁ባሪያህን	-7206
▁ትንቢትን	-7207
▁አለቆቹም	-7208
▁አንተንም	-7209
▁አዶንያስ	-7210
▁እናድርግ	-7211
▁እንዳዘዝ	-7212
▁ከሕዝቡም	-7213
▁ከነበረው	-7214
▁ወለደች፤	-7215
▁የሠራውን	-7216
▁የተቀደሱ	-7217
▁የነበረች	-7218
▁የአሮንም	-7219
▁የኮረብታ	-7220
▁የጻድቃን	-7221
▁ይሄዳል፤	-7222
▁ይልቁንስ	-7223
▁ይነጋገር	-7224
▁ይኖራል፤	-7225
▁ዳግመኛም	-7226
▁ሌዋውያንን	-7227
▁ልብሳቸውን	-7228
▁ሶርያውያን	-7229
▁በማናቸውም	-7230
▁በተቀደሰው	-7231
▁በፊታቸውም	-7232
▁ብላቴናውን	-7233
▁ትሆናለች፥	-7234
▁አስቀድመው	-7235
▁አጠፋለሁ፥	-7236
▁እናንተም።	-7237
▁ወንድሞቹን	-7238
▁የሚገባውን	-7239
▁የተጻፈውን	-7240
▁ይወድቃል።	-7241
▁ሽማግሌዎችም	-7242
▁በመሠዊያውም	-7243
▁በጠላቶቻቸው	-7244
▁ኃጢአታቸውን	-7245
▁አይደለችምን	-7246
▁ከተማይቱንም	-7247
▁የሌለባቸውን	-7248
▁የከተማይቱም	-7249
▁የፍልስጥኤማ	-7250
▁ፈሪሳውያንም	-7251
▁በስምንተኛውም	-7252
KW	-7253
ሁን	-7254
ለስ	-7255
ላቴ	-7256
ሎቹ	-7257
መፁ	-7258
ሞር	-7259
ራቱ	-7260
ሰለ	-7261
ሳ፥	-7262
ሸሽ	-7263
ሺህ	-7264
ሺ፥	-7265
ሾህ	-7266
በሱ	-7267
ባይ	-7268
ቦር	-7269
ቦቹ	-7270
ኑሄ	-7271
ናቂ	-7272
ናቶ	-7273
ናግ	-7274
ወዱ	-7275
ያና	-7276
ያዛ	-7277
ደት	-7278
ጉት	-7279
ጥ፤	-7280
ጸው	-7281
ፈጠ	-7282
ፍሰ	-7283
▁ኒ	-7284
▁ጺ	-7285
ልጠው	-7286
መልሰ	-7287
ሙት፥	-7288
ማማች	-7289
ምንት	-7290
ሥርዓ	-7291
ረክስ	-7292
ረድ፥	-7293
ራቢያ	-7294
ሳሉ።	-7295
ሳሉ፤	-7296
ሳል፤	-7297
ቃሉ።	-7298
ቃል።	-7299
ታለሁ	-7300
ኋለኛ	-7301
ኛለህ	-7302
ካችሁ	-7303
ኸኝ፥	-7304
ዕለቱ	-7305
ደረጋ	-7306
ግርህ	-7307
ግኘት	-7308
ጣሉ፤	-7309
ጨንቅ	-7310
ፈስሰ	-7311
ፍረስ	-7312
▁ሄዱ	-7313
▁ለቅ	-7314
▁ለጌ	-7315
▁ለግ	-7316
▁ሌባ	-7317
▁መበ	-7318
▁ሚሳ	-7319
▁ምጥ	-7320
▁ሠሩ	-7321
▁ረክ	-7322
▁ርኅ	-7323
▁ሰነ	-7324
▁ሲሶ	-7325
▁ቀና	-7326
▁ቁባ	-7327
▁ቅኔ	-7328
▁በኦ	-7329
▁ተካ	-7330
▁ታማ	-7331
▁ታሳ	-7332
▁ኀዘ	-7333
▁ነጻ	-7334
▁አሣ	-7335
▁ካላ	-7336
▁ዖዝ	-7337
▁የሎ	-7338
▁የረ	-7339
▁የሶ	-7340
▁የሽ	-7341
▁ይገ	-7342
▁ድካ	-7343
▁ጣት	-7344
▁ጥራ	-7345
▁ጥጃ	-7346
▁ጭን	-7347
ለዋልና	-7348
ላችኋል	-7349
መለከተ	-7350
መሰክሩ	-7351
ማቸውም	-7352
ቃውያን	-7353
ቢሎንን	-7354
ባትም።	-7355
ታለሁ፤	-7356
ታልና።	-7357
ቶአል፤	-7358
ቻለሁና	-7359
ናችሁም	-7360
ኪሩቤል	-7361
ዕራብም	-7362
ፈልገው	-7363
▁ለማይ	-7364
▁ለስም	-7365
▁ለድን	-7366
▁ሊመጣ	-7367
▁ሌላው	-7368
▁ልጅን	-7369
▁መረብ	-7370
▁መድረ	-7371
▁ማድጋ	-7372
▁ምንቸ	-7373
▁ሰበረ	-7374
▁ስሙ፥	-7375
▁ቅርብ	-7376
▁ቆመ፥	-7377
▁ቍጣው	-7378
▁በል፤	-7379
▁በምሕ	-7380
▁በምታ	-7381
▁በባለ	-7382
▁በየስ	-7383
▁ብሆን	-7384
▁ተረድ	-7385
▁ተቃጠ	-7386
▁ተፈቅ	-7387
▁ታቃጥ	-7388
▁አብሮ	-7389
▁አንጀ	-7390
▁አከብ	-7391
▁አፉን	-7392
▁እልካ	-7393
▁እኛስ	-7394
▁ከልክ	-7395
▁ከብር	-7396
▁ከአፉ	-7397
▁ኪሩብ	-7398
▁ክብሩ	-7399
▁ወለል	-7400
▁ዓለት	-7401
▁የራቀ	-7402
▁የብዙ	-7403
▁የተላ	-7404
▁የተሞ	-7405
▁የትዕ	-7406
▁የእና	-7407
▁ያሰማ	-7408
▁ያኖራ	-7409
▁ይምጣ	-7410
▁ይወዳ	-7411
▁ይደነ	-7412
▁ደመወ	-7413
▁ድምፄ	-7414
▁ድስት	-7415
▁ጀምረ	-7416
▁ገነት	-7417
▁ገናም	-7418
▁ጋሻና	-7419
▁ጌታው	-7420
▁ጸጋና	-7421
▁ፈለገ	-7422
▁ፊንሐ	-7423
▁ፍለጋ	-7424
መለስም።	-7425
ታላችሁ።	-7426
ታችሁንም	-7427
አለሁና።	-7428
ዋውያንም	-7429
▁ሆንሁ።	-7430
▁ለልጆች	-7431
▁ለሚኖሩ	-7432
▁ሌሊትና	-7433
▁ልጅህን	-7434
▁ልጆችዋ	-7435
▁መሸፈኛ	-7436
▁መጥተህ	-7437
▁ሥጋውን	-7438
▁ሦስቱም	-7439
▁ራሳቸው	-7440
▁ሰባትም	-7441
▁ሳያውቅ	-7442
▁ሴቶችም	-7443
▁ቀርሜሎ	-7444
▁በሉት።	-7445
▁በመልካ	-7446
▁በሰዎች	-7447
▁በቅዱስ	-7448
▁በቤቴል	-7449
▁በታቦቱ	-7450
▁በኃይሉ	-7451
▁በኢዮአ	-7452
▁በእጁም	-7453
▁በእግሩ	-7454
▁በወኅኒ	-7455
▁በውስጡ	-7456
▁ባደረገ	-7457
▁ብድራት	-7458
▁ተባለ።	-7459
▁ተገልጦ	-7460
▁ትናገራ	-7461
▁ትጠብቅ	-7462
▁ኅብስት	-7463
▁ነውርም	-7464
▁ነፍሳት	-7465
▁አህዮች	-7466
▁አላወቅ	-7467
▁አልደረ	-7468
▁አምስቱ	-7469
▁አታውቅ	-7470
▁አንተ፥	-7471
▁አያውቁ	-7472
▁ኢያሪኮ	-7473
▁እዘምራ	-7474
▁እግሮቹ	-7475
▁እጠብቃ	-7476
▁እፈልጋ	-7477
▁ከሕዝብ	-7478
▁ከንጉሥ	-7479
▁ከአሦር	-7480
▁ከወይን	-7481
▁ከገሊላ	-7482
▁ካህኑን	-7483
▁የመረጥ	-7484
▁የተሠሩ	-7485
▁የዓለም	-7486
▁የግሪክ	-7487
▁የጻድቅ	-7488
▁ያሉት፥	-7489
▁ይሰበስ	-7490
▁ድንኳኑ	-7491
▁ገደለ፤	-7492
▁ለማደሪያ	-7493
▁ለአንተም	-7494
▁መለከቱን	-7495
▁መካከል፥	-7496
▁ሰማያትን	-7497
▁በሕዝቡም	-7498
▁በሕዝብህ	-7499
▁በሚሆነው	-7500
▁በማድረግ	-7501
▁በራሳቸው	-7502
▁በተናገረ	-7503
▁በተፈጸመ	-7504
▁በአጠገቡ	-7505
▁በኤርትራ	-7506
▁በግብጽም	-7507
▁ተንቀጠቀ	-7508
▁ናቸውና።	-7509
▁አለቆች።	-7510
▁አንተም።	-7511
▁አውቃለሁ	-7512
▁አጋንንት	-7513
▁ኢያሱን።	-7514
▁እርግማን	-7515
▁እንደዚሁ	-7516
▁ከመከተል	-7517
▁ከሰማያዊ	-7518
▁ኬልቅያስ	-7519
▁የሆኑትን	-7520
▁የለውም።	-7521
▁የሚያሰኝ	-7522
▁የማይገባ	-7523
▁የምናሴም	-7524
▁የሰሎሞን	-7525
▁የተመሰገ	-7526
▁የተመሸጉ	-7527
▁የተነገረ	-7528
▁የተወለዱ	-7529
▁የአሦርም	-7530
▁የፈርዖን	-7531
▁ያለችውን	-7532
▁ይመጣሉ፥	-7533
▁ዮሐንስም	-7534
▁ደኅንነት	-7535
▁ፍርድንና	-7536
▁ሌዋውያንም	-7537
▁ሦስተኛውም	-7538
▁በመንደሮች	-7539
▁በአሥረኛው	-7540
▁በአራተኛው	-7541
▁በእናንተም	-7542
▁ባሪያዎቹም	-7543
▁ተጠንቀቁ።	-7544
▁ታውቃላችሁ	-7545
▁ትሆናለህ።	-7546
▁ትእዛዙንም	-7547
▁እንድትሆኑ	-7548
▁እንግዲህ።	-7549
▁ከለዳውያን	-7550
▁ከአባታችን	-7551
▁ከእነዚህም	-7552
▁የሌዋውያን	-7553
▁የዘበኞቹም	-7554
▁ለአባቶቻቸው	-7555
▁በአርጤክስስ	-7556
▁እናውቃለን።	-7557
▁እናደርጋለን	-7558
▁የአምላክህን	-7559
▁የአምላካችንን	-7560
▁በእግዚአብሔርና	-7561
▁የኢየሩሳሌምንም	-7562
ለፍ	-7563
ልዋ	-7564
ሕና	-7565
ማለ	-7566
ረ፤	-7567
ሬና	-7568
ርጉ	-7569
ሳኮ	-7570
ቀኝ	-7571
ቅሠ	-7572
ቋቋ	-7573
ባለ	-7574
ተነ	-7575
ትር	-7576
ቶ።	-7577
ናጽ	-7578
ንቱ	-7579
ኖቹ	-7580
ካች	-7581
ክም	-7582
ዖር	-7583
ዘኛ	-7584
ዙ።	-7585
ዦች	-7586
ዩት	-7587
ያማ	-7588
ዮቹ	-7589
ደና	-7590
ደግ	-7591
ዲቱ	-7592
ድዱ	-7593
ጁም	-7594
ጠህ	-7595
ጠል	-7596
ጠማ	-7597
ጦን	-7598
ጫው	-7599
ፈሰ	-7600
▁ሪ	-7601
ሁህ፤	-7602
ሄዱም	-7603
ለሽ፥	-7604
ለትን	-7605
ሉና፤	-7606
ምር፥	-7607
ምን፥	-7608
ሠለጥ	-7609
ረሰ።	-7610
ራምን	-7611
ሽም።	-7612
ቀመጪ	-7613
ቀው፥	-7614
በላው	-7615
በልጥ	-7616
ቤልዩ	-7617
ትምህ	-7618
ናይም	-7619
ንቀላ	-7620
ኖር፥	-7621
ኖስም	-7622
ወድዱ	-7623
ዋንና	-7624
ዘጋጃ	-7625
ደውም	-7626
ድነት	-7627
ዶችና	-7628
ጐራጐ	-7629
ጠኛው	-7630
ጠፋ፥	-7631
ጨምር	-7632
ፈርዳ	-7633
ፈወስ	-7634
ፋስቂ	-7635
▁ሊወ	-7636
▁ልሔ	-7637
▁መኰ	-7638
▁ሽባ	-7639
▁ቃየ	-7640
▁ከኬ	-7641
▁ካሉ	-7642
▁ወጡ	-7643
▁ውዴ	-7644
▁ውጡ	-7645
▁ያወ	-7646
▁ይና	-7647
▁ዶሮ	-7648
▁ጌጥ	-7649
▁ጥና	-7650
ለውም፤	-7651
መለስ፥	-7652
ሩአቸው	-7653
ሳችሁን	-7654
ስተዋል	-7655
ሻለሁ፤	-7656
ቃቸው።	-7657
ኖርበት	-7658
ደረጉት	-7659
ግራችሁ	-7660
ጠፋቸው	-7661
ፋንታው	-7662
▁ለምት	-7663
▁ለነገ	-7664
▁ለጣዖ	-7665
▁ሊያስ	-7666
▁ልጄን	-7667
▁ሕሊና	-7668
▁መኝታ	-7669
▁መዕሤ	-7670
▁መጋቢ	-7671
▁ሚዳቋ	-7672
▁ማልሁ	-7673
▁ማንን	-7674
▁ምንኛ	-7675
▁ራእዩ	-7676
▁ሰማ፤	-7677
▁ሰምቼ	-7678
▁ሴትም	-7679
▁ሸሹ።	-7680
▁ሸንጎ	-7681
▁ቀን።	-7682
▁ቃልን	-7683
▁በማታ	-7684
▁በራእ	-7685
▁በርስ	-7686
▁በርኵ	-7687
▁በንጹ	-7688
▁በአፉ	-7689
▁በኤል	-7690
▁በወገ	-7691
▁በዕቃ	-7692
▁በዘመ	-7693
▁በገደ	-7694
▁በጎቹ	-7695
▁ባየች	-7696
▁ብልጣ	-7697
▁ተስማ	-7698
▁ተሸከ	-7699
▁ተከፈ	-7700
▁ተደፋ	-7701
▁ተገለ	-7702
▁ታመን	-7703
▁ታውቅ	-7704
▁ኋላው	-7705
▁ነገም	-7706
▁ኑኃሚ	-7707
▁	-7708
ን	-7709
ም	-7710
አ	-7711
በ	-7712
እ	-7713
ር	-7714
ው	-7715
ል	-7716
ት	-7717
ለ	-7718
ስ	-7719
የ	-7720
ይ	-7721
።	-7722
ነ	-7723
መ	-7724
ደ	-7725
፥	-7726
ብ	-7727
ና	-7728
ች	-7729
ድ	-7730
ተ	-7731
ያ	-7732
ከ	-7733
ሁ	-7734
ግ	-7735
ላ	-7736
ወ	-7737
ህ	-7738
ሰ	-7739
ገ	-7740
ራ	-7741
፤	-7742
ረ	-7743
ባ	-7744
ታ	-7745
ዚ	-7746
ሉ	-7747
ማ	-7748
ቸ	-7749
ቀ	-7750
ጠ	-7751
ዘ	-7752
ዳ	-7753
ፍ	-7754
ሆ	-7755
ሱ	-7756
ሔ	-7757
ሳ	-7758
ቅ	-7759
ክ	-7760
ጥ	-7761
ሚ	-7762
ዋ	-7763
ፈ	-7764
ቱ	-7765
ሩ	-7766
ጋ	-7767
ጣ	-7768
ሥ	-7769
ቶ	-7770
ሞ	-7771
ቃ	-7772
ሕ	-7773
ካ	-7774
ዲ	-7775
ኤ	-7776
ዝ	-7777
ዓ	-7778
ቤ	-7779
ጅ	-7780
ኛ	-7781
ጉ	-7782
ዛ	-7783
ኝ	-7784
ዎ	-7785
ሌ	-7786
ሎ	-7787
ኑ	-7788
ኔ	-7789
ጆ	-7790
ሙ	-7791
ሮ	-7792
ፋ	-7793
ዱ	-7794
ጊ	-7795
ቢ	-7796
ሴ	-7797
ኢ	-7798
ኖ	-7799
?	-7800
ፊ	-7801
ሠ	-7802
ሪ	-7803
ዜ	-7804
ቡ	-7805
ዕ	-7806
ቻ	-7807
ዊ	-7808
ቆ	-7809
ሽ	-7810
ጡ	-7811
ዮ	-7812
ኃ	-7813
ጽ	-7814
ቹ	-7815
ኋ	-7816
ጌ	-7817
ሬ	-7818
ዙ	-7819
ቁ	-7820
ሃ	-7821
ሊ	-7822
ዶ	-7823
ሐ	-7824
ሸ	-7825
ቴ	-7826
ሄ	-7827
ፉ	-7828
ጀ	-7829
ሣ	-7830
ጸ	-7831
ሶ	-7832
ሲ	-7833
ጢ	-7834
ሜ	-7835
ሡ	-7836
ሻ	-7837
ጨ	-7838
ዩ	-7839
ጎ	-7840
ኪ	-7841
ጻ	-7842
ቍ	-7843
ኩ	-7844
ቦ	-7845
ጭ	-7846
ኞ	-7847
ዬ	-7848
ዴ	-7849
ኮ	-7850
ጃ	-7851
ቈ	-7852
ሦ	-7853
ጁ	-7854
ቼ	-7855
ፎ	-7856
ቂ	-7857
ፅ	-7858
ጦ	-7859
ጕ	-7860
ኳ	-7861
ኅ	-7862
ኸ	-7863
ዖ	-7864
ኵ	-7865
ጫ	-7866
ሺ	-7867
ጂ	-7868
ኦ	-7869
ሀ	-7870
ጐ	-7871
ኘ	-7872
ዞ	-7873
ኬ	-7874
ፀ	-7875
ጹ	-7876
ጮ	-7877
ጄ	-7878
ጓ	-7879
ዔ	-7880
ፌ	-7881
ሹ	-7882
ሾ	-7883
ቄ	-7884
ቲ	-7885
ፃ	-7886
ሂ	-7887
ኒ	-7888
ቺ	-7889
ኙ	-7890
ቋ	-7891
ጳ	-7892
!	-7893
ኰ	-7894
ዐ	-7895
ኣ	-7896
ጩ	-7897
ጤ	-7898
ጴ	-7899
ዌ	-7900
ኀ	-7901
ዉ	-7902
ዑ	-7903
ፁ	-7904
ሤ	-7905
ኹ	-7906
ጾ	-7907
ዣ	-7908
ሖ	-7909
ዥ	-7910
ጵ	-7911
ኽ	-7912
ፆ	-7913
ኜ	-7914
ኻ	-7915
ጪ	-7916
ጲ	-7917
ሑ	-7918
ኆ	-7919
ዪ	-7920
ዒ	-7921
a	-7922
ሒ	-7923
ሼ	-7924
ዠ	-7925
ጶ	-7926
W	-7927
ዢ	-7928
ኡ	-7929
ኚ	-7930
ጼ	-7931
ጺ	-7932
ጬ	-7933
ዦ	-7934
ዤ	-7935
ሢ	-7936
ቾ	-7937
ሓ	-7938
ዡ	-7939
ፄ	-7940
K	-7941
g	-7942
ኄ	-7943
r	-7944
ኾ	-7945
ጰ	-7946
ጱ	-7947
k	-7948
ቧ	-7949
ፔ	-7950
ፕ	-7951
T	-7952
ኺ	-7953
d	-7954
*	-7955
1	-7956
v	-7957
"	-7958
l	-7959
ሷ	-7960
ፐ	-7961
ፓ	-7962
2	-7963
s	-7964
D	-7965
3	-7966
[	-7967
]	-7968
o	-7969
ፑ	-7970
ፒ	-7971
(	-7972
)	-7973
-	-7974
5	-7975
A	-7976
e	-7977
ቊ	-7978
ዷ	-7979
ፂ	-7980
0	-7981
4	-7982
@	-7983
b	-7984
m	-7985
u	-7986
ሏ	-7987
ቷ	-7988
ቿ	-7989
ኗ	-7990
ኟ	-7991
ኲ	-7992
ኼ	-7993
ጒ	-7994
ጧ	-7995
ፏ	-7996
