<pad>	0
</s>	0
<unk>	0
▁¦	-0
▁𐋇	-1
ti	-2
▁,	-3
ai	-4
in	-5
os	-6
ri	-7
pa	-8
au	-9
▁.	-10
si	-11
ir	-12
al	-13
ar	-14
an	-15
en	-16
as	-17
ei	-18
am	-19
im	-20
to	-21
su	-22
ro	-23
es	-24
ko	-25
tu	-26
ki	-27
ka	-28
ra	-29
st	-30
ku	-31
li	-32
vi	-33
mo	-34
ne	-35
ės	-36
či	-37
tai	-38
tin	-39
er	-40
at	-41
dė	-42
kad	-43
ij	-44
us	-45
pri	-46
mi	-47
tų	-48
yb	-49
ši	-50
me	-51
po	-52
tik	-53
ta	-54
ek	-55
kai	-56
iš	-57
pr	-58
uo	-59
gal	-60
eu	-61
je	-62
euro	-63
kuri	-64
ių	-65
eik	-66
dėl	-67
dar	-68
sa	-69
bū	-70
cij	-71
di	-72
re	-73
gi	-74
min	-75
europ	-76
vo	-77
ms	-78
no	-79
▁𐊣	-80
ant	-81
rin	-82
te	-83
ju	-84
europos	-85
ma	-86
ži	-87
jo	-88
par	-89
end	-90
ap	-91
kl	-92
tar	-93
ausi	-94
rė	-95
imo	-96
tei	-97
ab	-98
var	-99
jos	-100
ke	-101
pro	-102
aug	-103
už	-104
do	-105
val	-106
prie	-107
yra	-108
pat	-109
ais	-110
jų	-111
yv	-112
pir	-113
vy	-114
tas	-115
ly	-116
▁-	-117
yti	-118
de	-119
mon	-120
bu	-121
pasi	-122
ie	-123
komi	-124
ini	-125
są	-126
ja	-127
nu	-128
mu	-129
čiau	-130
turi	-131
mą	-132
aus	-133
susi	-134
dži	-135
ama	-136
mas	-137
man	-138
lai	-139
be	-140
nau	-141
bi	-142
ci	-143
teis	-144
sti	-145
sų	-146
is	-147
imą	-148
on	-149
ame	-150
taip	-151
men	-152
veik	-153
šal	-154
mis	-155
na	-156
rei	-157
tr	-158
lam	-159
tą	-160
pas	-161
svar	-162
styb	-163
valstyb	-164
inti	-165
ing	-166
kaip	-167
ng	-168
tos	-169
komisi	-170
av	-171
▁(	-172
imas	-173
pirmin	-174
bend	-175
cijos	-176
lamen	-177
jung	-178
du	-179
eš	-180
pirminin	-181
kos	-182
čių	-183
▁)	-184
tis	-185
ve	-186
pran	-187
per	-188
mų	-189
vien	-190
le	-191
lab	-192
ky	-193
gali	-194
ty	-195
kia	-196
lo	-197
ni	-198
ams	-199
klausi	-200
mes	-201
vai	-202
gr	-203
darb	-204
poli	-205
vis	-206
nuo	-207
parlamen	-208
or	-209
kur	-210
gyv	-211
ver	-212
galim	-213
kon	-214
pra	-215
praneš	-216
turė	-217
sąjung	-218
uos	-219
pi	-220
oje	-221
būtų	-222
ūsų	-223
kal	-224
▁¦2	-225
reik	-226
žin	-227
buvo	-228
va	-229
▁"	-230
ger	-231
mok	-232
būti	-233
labai	-234
nes	-235
nar	-236
kar	-237
ys	-238
ui	-239
tari	-240
savo	-241
ūr	-242
saug	-243
dal	-244
pl	-245
sk	-246
sie	-247
ijos	-248
daug	-249
bal	-250
bus	-251
pirmininke	-252
ami	-253
ge	-254
tus	-255
lin	-256
norė	-257
ėj	-258
amas	-259
anči	-260
mūsų	-261
eng	-262
spr	-263
apie	-264
kas	-265
todėl	-266
lyg	-267
eko	-268
že	-269
oj	-270
pag	-271
ką	-272
din	-273
ybos	-274
▁¦20	-275
atsi	-276
ste	-277
toj	-278
priemon	-279
padė	-280
tačiau	-281
eig	-282
tarp	-283
ekono	-284
komisijos	-285
nari	-286
vyk	-287
inan	-288
ties	-289
mos	-290
norėčiau	-291
bet	-292
tais	-293
ose	-294
vir	-295
tikrin	-296
dy	-297
kin	-298
da	-299
ėms	-300
ter	-301
skir	-302
jau	-303
kyti	-304
so	-305
amos	-306
mus	-307
kalb	-308
auk	-309
veiks	-310
reikal	-311
keli	-312
stat	-313
tini	-314
pasiū	-315
lie	-316
finan	-317
umo	-318
0¦	-319
usi	-320
ak	-321
aiš	-322
augi	-323
for	-324
cial	-325
ją	-326
paž	-327
turime	-328
pasiūly	-329
pak	-330
mano	-331
inių	-332
omis	-333
užtikrin	-334
vie	-335
▁¦1	-336
esn	-337
sav	-338
darbo	-339
dir	-340
der	-341
kri	-342
sku	-343
proc	-344
sprend	-345
tori	-346
turėtų	-347
reikia	-348
šiuo	-349
sri	-350
prieš	-351
iz	-352
lei	-353
žmon	-354
mė	-355
mės	-356
kurie	-357
ang	-358
naudo	-359
tiks	-360
sieki	-361
ji	-362
skai	-363
pagrin	-364
manau	-365
dien	-366
valstybės	-367
oms	-368
suo	-369
nai	-370
politik	-371
sąjungos	-372
dab	-373
ch	-374
gin	-375
dabar	-376
tikr	-377
aš	-378
ry	-379
tau	-380
maž	-381
cija	-382
ekt	-383
ank	-384
pagal	-385
ba	-386
duo	-387
žve	-388
visi	-389
sių	-390
bendr	-391
pe	-392
tume	-393
toki	-394
parlamento	-395
imų	-396
kom	-397
mai	-398
škai	-399
ble	-400
ent	-401
tam	-402
tuo	-403
vei	-404
daugi	-405
inės	-406
proble	-407
tina	-408
stitu	-409
gyven	-410
▁:	-411
ypa	-412
galimyb	-413
komisija	-414
str	-415
žino	-416
regi	-417
tyje	-418
gyvend	-419
pilie	-420
įsi	-421
disku	-422
lių	-423
ciją	-424
tink	-425
pateik	-426
įgyvend	-427
ime	-428
siste	-429
rez	-430
raš	-431
auj	-432
lgi	-433
priim	-434
sta	-435
lio	-436
ener	-437
ūros	-438
ga	-439
šį	-440
atsa	-441
pone	-442
galė	-443
jie	-444
bendra	-445
kų	-446
ud	-447
kurios	-448
teik	-449
susitari	-450
zi	-451
tinės	-452
pasau	-453
ekonomi	-454
mums	-455
pras	-456
tie	-457
social	-458
ūri	-459
narių	-460
institu	-461
ati	-462
sto	-463
stra	-464
ektyv	-465
apsaug	-466
por	-467
ypač	-468
gai	-469
uk	-470
lik	-471
teisės	-472
kiai	-473
valstybių	-474
cijų	-475
teg	-476
pab	-477
ėmis	-478
imus	-479
padar	-480
amą	-481
šios	-482
gu	-483
sek	-484
atsižve	-485
pareig	-486
diskusi	-487
avimo	-488
kio	-489
ėra	-490
dide	-491
tojų	-492
tek	-493
dami	-494
vertin	-495
sty	-496
▁¦200	-497
tį	-498
narės	-499
tiksl	-500
ėje	-501
▁?	-502
metu	-503
poni	-504
sutar	-505
šio	-506
el	-507
tinių	-508
daugiau	-509
nor	-510
svarbi	-511
osi	-512
laiko	-513
šių	-514
taryb	-515
liu	-516
mais	-517
šis	-518
dr	-519
tvar	-520
pakei	-521
ėjo	-522
pasa	-523
balsav	-524
gerb	-525
nustat	-526
did	-527
imu	-528
ausia	-529
jis	-530
čia	-531
darbi	-532
jusi	-533
užtikrinti	-534
ija	-535
nei	-536
dama	-537
nėra	-538
bendradarbi	-539
siekiant	-540
▁.,	-541
ėti	-542
klaus	-543
liau	-544
pasiek	-545
kriz	-546
ybės	-547
ausiai	-548
ori	-549
past	-550
kuris	-551
jai	-552
prek	-553
uosi	-554
lė	-555
rū	-556
inio	-557
mog	-558
gan	-559
atve	-560
fi	-561
nori	-562
lais	-563
prin	-564
politikos	-565
ima	-566
aplin	-567
svarbu	-568
virtin	-569
bei	-570
tarptau	-571
biud	-572
sime	-573
biudže	-574
imai	-575
ęs	-576
demok	-577
demokra	-578
gų	-579
galima	-580
jei	-581
mui	-582
visų	-583
ūs	-584
mat	-585
la	-586
se	-587
čiai	-588
trauk	-589
šian	-590
visuo	-591
inter	-592
lt	-593
šiandien	-594
ųjų	-595
amai	-596
žmog	-597
bai	-598
plė	-599
rink	-600
prisi	-601
naudoj	-602
joje	-603
infor	-604
rak	-605
ten	-606
mini	-607
auti	-608
poži	-609
komite	-610
iki	-611
kių	-612
šalių	-613
teisių	-614
katin	-615
gam	-616
pritari	-617
sąlyg	-618
nuos	-619
dų	-620
tur	-621
dyti	-622
įgyvendin	-623
arba	-624
cion	-625
kiek	-626
rijos	-627
frak	-628
ekonomikos	-629
lg	-630
ali	-631
imui	-632
ančių	-633
didži	-634
sektori	-635
dos	-636
uoti	-637
strateg	-638
uose	-639
jek	-640
ag	-641
amų	-642
jas	-643
ves	-644
taisy	-645
žmogaus	-646
visiškai	-647
das	-648
vyri	-649
▁;	-650
progr	-651
parlamentas	-652
prival	-653
pre	-654
vė	-655
sio	-656
siek	-657
tiek	-658
rėž	-659
finans	-660
tarybos	-661
umą	-662
sudar	-663
sis	-664
teri	-665
kel	-666
lau	-667
nepa	-668
suteik	-669
jus	-670
gijos	-671
būt	-672
klausimas	-673
praš	-674
ęsti	-675
spor	-676
kus	-677
šią	-678
srityje	-679
lis	-680
krei	-681
metų	-682
direktyv	-683
pirma	-684
den	-685
cional	-686
nors	-687
kurį	-688
vyriaus	-689
kurių	-690
informa	-691
šalys	-692
požiūri	-693
esni	-694
inga	-695
oliu	-696
plan	-697
pagrindin	-698
kre	-699
esu	-700
lan	-701
galime	-702
rezoliu	-703
žmonių	-704
tro	-705
žemės	-706
pakeiti	-707
kol	-708
privalo	-709
nacional	-710
susijusi	-711
veiksmin	-712
pranešimą	-713
ban	-714
priemonių	-715
ras	-716
teiki	-717
priklaus	-718
daly	-719
įvai	-720
sąjunga	-721
jį	-722
pti	-723
stų	-724
sun	-725
atei	-726
įmon	-727
skatin	-728
projek	-729
patvirtin	-730
tiki	-731
antis	-732
inius	-733
mokes	-734
reg	-735
dov	-736
princi	-737
visuomen	-738
ėk	-739
čio	-740
onos	-741
gos	-742
rodo	-743
damas	-744
nų	-745
dėmes	-746
kė	-747
ybę	-748
vidu	-749
5¦	-750
būtina	-751
inę	-752
fon	-753
rinkos	-754
acijos	-755
sukur	-756
tran	-757
veiksmų	-758
duk	-759
dirb	-760
tyri	-761
vienas	-762
dą	-763
organ	-764
raštu	-765
siems	-766
ps	-767
pavy	-768
dalyv	-769
produk	-770
il	-771
ski	-772
stės	-773
region	-774
oti	-775
sien	-776
pv	-777
inis	-778
ekonomin	-779
ven	-780
anti	-781
toliau	-782
atsižvelgi	-783
eigu	-784
dėti	-785
jeigu	-786
galėtų	-787
lygi	-788
engti	-789
uoj	-790
viena	-791
reglamen	-792
varto	-793
reiš	-794
konkur	-795
stan	-796
abe	-797
tijos	-798
energijos	-799
rem	-800
pasakyti	-801
žo	-802
log	-803
9¦	-804
jog	-805
prekybos	-806
pen	-807
svei	-808
laisv	-809
tui	-810
bos	-811
ukt	-812
pasl	-813
čius	-814
įtrauk	-815
net	-816
labi	-817
visa	-818
tre	-819
bendro	-820
gru	-821
kok	-822
baig	-823
mir	-824
geri	-825
klausimą	-826
asmen	-827
kartu	-828
vadov	-829
pvz	-830
dauge	-831
džio	-832
kurią	-833
ančios	-834
jūsų	-835
politi	-836
paslaug	-837
turėtume	-838
priklauso	-839
abejo	-840
darbuo	-841
pranešime	-842
sp	-843
grį	-844
šali	-845
lyje	-846
nusi	-847
nuomon	-848
biudžeto	-849
regio	-850
pos	-851
sab	-852
koti	-853
rezu	-854
lisab	-855
osios	-856
taiko	-857
▁¦201	-858
kuriuos	-859
pozi	-860
remi	-861
šalim	-862
iją	-863
klima	-864
atas	-865
organiz	-866
teising	-867
konkuren	-868
įsipareig	-869
ru	-870
ragin	-871
pati	-872
europo	-873
apsaugos	-874
steb	-875
vert	-876
moter	-877
sveika	-878
alo	-879
yje	-880
kartą	-881
lėš	-882
aukš	-883
kymo	-884
pais	-885
ponia	-886
tinio	-887
lisabonos	-888
pabrėž	-889
klimato	-890
tech	-891
didel	-892
8¦	-893
ln	-894
kie	-895
sporto	-896
moks	-897
avimą	-898
frakcijos	-899
gą	-900
vių	-901
stab	-902
imtis	-903
iniai	-904
išlai	-905
europa	-906
jė	-907
jūs	-908
ojo	-909
rie	-910
kole	-911
veikl	-912
spręsti	-913
ijoje	-914
staty	-915
dėmesį	-916
klausimu	-917
ran	-918
rių	-919
žvi	-920
atyv	-921
negali	-922
plėtr	-923
avimas	-924
žinoma	-925
žas	-926
io	-927
iu	-928
dėlto	-929
kontro	-930
ponios	-931
pu	-932
ūkio	-933
7¦	-934
ėtų	-935
pram	-936
pažei	-937
atsižvelgiant	-938
ėme	-939
pavyz	-940
ponai	-941
vid	-942
kovo	-943
atžvi	-944
deryb	-945
konkre	-946
inin	-947
atsto	-948
papras	-949
atžvilgi	-950
šie	-951
atveju	-952
taryba	-953
kuo	-954
umas	-955
šim	-956
vaid	-957
vardu	-958
šiame	-959
susitik	-960
europoje	-961
3¦	-962
atlik	-963
cijas	-964
pramon	-965
priežas	-966
vyriausyb	-967
vimo	-968
aplinkos	-969
dymo	-970
inves	-971
tiems	-972
piliečių	-973
eur	-974
nesu	-975
tvir	-976
inici	-977
priemones	-978
dvi	-979
pateikti	-980
gas	-981
atžvilgiu	-982
part	-983
vidaus	-984
padėkoti	-985
inį	-986
taigi	-987
tojams	-988
atsižvelg	-989
rūp	-990
ištek	-991
partne	-992
proces	-993
svarbus	-994
ed	-995
siū	-996
mažin	-997
2¦	-998
atli	-999
duomen	-1000
vysty	-1001
kinti	-1002
pil	-1003
skait	-1004
turin	-1005
nustaty	-1006
pirminink	-1007
įgyvendinti	-1008
gra	-1009
sus	-1010
finansų	-1011
imi	-1012
rib	-1013
tikos	-1014
balsavau	-1015
politiką	-1016
ūk	-1017
grei	-1018
kitų	-1019
kius	-1020
kult	-1021
darbą	-1022
šioje	-1023
ingas	-1024
energe	-1025
pažang	-1026
diskusijos	-1027
pusi	-1028
teigi	-1029
glo	-1030
vieš	-1031
politika	-1032
ef	-1033
tri	-1034
prieži	-1035
iniciatyv	-1036
ats	-1037
siu	-1038
proced	-1039
aiškiai	-1040
yn	-1041
pek	-1042
padaryti	-1043
žu	-1044
nus	-1045
tinę	-1046
tinis	-1047
go	-1048
tel	-1049
koje	-1050
džiai	-1051
pirmi	-1052
labiau	-1053
tok	-1054
šti	-1055
naujo	-1056
būtent	-1057
pritariu	-1058
6¦	-1059
grin	-1060
vaiz	-1061
būtin	-1062
pagrind	-1063
skiri	-1064
tarti	-1065
tikrųjų	-1066
įsipareigoj	-1067
pus	-1068
priimti	-1069
iai	-1070
pui	-1071
palai	-1072
saugumo	-1073
visiems	-1074
daž	-1075
pasiekti	-1076
angi	-1077
audo	-1078
doku	-1079
grup	-1080
sant	-1081
timi	-1082
aspek	-1083
taisykl	-1084
galimybę	-1085
auja	-1086
vers	-1087
dokumen	-1088
1¦	-1089
tę	-1090
šk	-1091
anks	-1092
jame	-1093
klai	-1094
met	-1095
tru	-1096
jums	-1097
lygmen	-1098
pastang	-1099
tojai	-1100
mėn	-1101
nen	-1102
iniu	-1103
reng	-1104
tikrai	-1105
tikiuosi	-1106
transporto	-1107
asi	-1108
kis	-1109
sėk	-1110
vieno	-1111
nepais	-1112
kei	-1113
pavo	-1114
tiesio	-1115
kir	-1116
tuoj	-1117
kil	-1118
tinį	-1119
derin	-1120
kijos	-1121
svarb	-1122
žių	-1123
institucijos	-1124
ėm	-1125
vės	-1126
maisto	-1127
00¦	-1128
fer	-1129
grie	-1130
galioj	-1131
veikti	-1132
siekiama	-1133
ber	-1134
orite	-1135
sistemos	-1136
nustatyti	-1137
kti	-1138
susij	-1139
pasaulio	-1140
ad	-1141
nis	-1142
vos	-1143
šiuos	-1144
priorite	-1145
galiausiai	-1146
tyvi	-1147
papil	-1148
sumaž	-1149
standar	-1150
sukurti	-1151
pabrėžti	-1152
sveikatos	-1153
ūrų	-1154
džia	-1155
sudė	-1156
atstov	-1157
finansav	-1158
pirmininkauj	-1159
4¦	-1160
it	-1161
rim	-1162
engi	-1163
kant	-1164
griež	-1165
numat	-1166
vieną	-1167
atkrei	-1168
reiškia	-1169
kan	-1170
strukt	-1171
klausimus	-1172
priemonės	-1173
tol	-1174
panai	-1175
atskir	-1176
gar	-1177
mone	-1178
ūrin	-1179
tinai	-1180
bendrą	-1181
didesn	-1182
pirmiausia	-1183
nesi	-1184
strai	-1185
santy	-1186
pakank	-1187
pači	-1188
reikalav	-1189
pasin	-1190
stipr	-1191
visos	-1192
krizės	-1193
moterų	-1194
api	-1195
ate	-1196
nie	-1197
aliz	-1198
požiūriu	-1199
dėj	-1200
maži	-1201
noriu	-1202
refor	-1203
čiams	-1204
spe	-1205
sąjungoje	-1206
įvy	-1207
juos	-1208
mosi	-1209
komiteto	-1210
pranešėj	-1211
lta	-1212
lės	-1213
kūri	-1214
vaidmen	-1215
ūra	-1216
ūrą	-1217
šalies	-1218
vyr	-1219
įvyk	-1220
antra	-1221
tokia	-1222
vietos	-1223
kadangi	-1224
af	-1225
pini	-1226
techno	-1227
atsakom	-1228
tarybai	-1229
tinkamai	-1230
pasaulyje	-1231
pasinaudo	-1232
ings	-1233
stai	-1234
didin	-1235
įskait	-1236
plėtros	-1237
pasiūlymą	-1238
įskaitant	-1239
sen	-1240
guli	-1241
kelia	-1242
parei	-1243
taikyti	-1244
valstybėse	-1245
daro	-1246
kele	-1247
skri	-1248
kitos	-1249
styti	-1250
įstaty	-1251
valstybėms	-1252
pan	-1253
tra	-1254
dėjo	-1255
klių	-1256
dešim	-1257
ėjimo	-1258
žings	-1259
bendrijos	-1260
atų	-1261
viz	-1262
nariai	-1263
bendradarbiavimo	-1264
bo	-1265
savai	-1266
atliek	-1267
padėtis	-1268
problema	-1269
20¦	-1270
nių	-1271
rio	-1272
van	-1273
paro	-1274
džios	-1275
srity	-1276
šalis	-1277
reguli	-1278
šalyse	-1279
energetikos	-1280
aki	-1281
oro	-1282
smu	-1283
leng	-1284
šalims	-1285
nepaisant	-1286
pie	-1287
skur	-1288
paten	-1289
padėti	-1290
žmonės	-1291
hu	-1292
kli	-1293
soli	-1294
inimo	-1295
jusių	-1296
straips	-1297
ateityje	-1298
nary	-1299
remti	-1300
išs	-1301
kios	-1302
iškai	-1303
kuriuo	-1304
nebuvo	-1305
kalbant	-1306
bar	-1307
muo	-1308
ines	-1309
rius	-1310
pastar	-1311
ataskai	-1312
parlamente	-1313
džių	-1314
kodėl	-1315
kurio	-1316
kurias	-1317
akivaiz	-1318
paslaugų	-1319
pranešimas	-1320
pagrindinių	-1321
toje	-1322
jiems	-1323
siūlo	-1324
teisė	-1325
ino	-1326
kau	-1327
nuost	-1328
pagrį	-1329
tuoti	-1330
geb	-1331
rezult	-1332
užsien	-1333
nuomone	-1334
dai	-1335
juo	-1336
tumo	-1337
šias	-1338
daryti	-1339
metais	-1340
privalome	-1341
direktyvos	-1342
ep	-1343
cing	-1344
veng	-1345
pareng	-1346
kuriame	-1347
pranešimo	-1348
rai	-1349
vėl	-1350
posė	-1351
ausias	-1352
sutarties	-1353
▁¦3	-1354
kro	-1355
lius	-1356
moky	-1357
nuro	-1358
ausių	-1359
daugu	-1360
kitas	-1361
norime	-1362
sudėtin	-1363
jam	-1364
kiu	-1365
rusi	-1366
esame	-1367
gerai	-1368
naujų	-1369
reikš	-1370
sunku	-1371
suoti	-1372
kurioje	-1373
agent	-1374
dalis	-1375
tinka	-1376
vadin	-1377
vakar	-1378
naudoti	-1379
pareišk	-1380
reikėtų	-1381
srityse	-1382
lygmeniu	-1383
fak	-1384
gau	-1385
yta	-1386
teisę	-1387
skirti	-1388
didinti	-1389
produktų	-1390
taisyklių	-1391
visuomenės	-1392
ūrė	-1393
dant	-1394
tero	-1395
žini	-1396
atsak	-1397
rikos	-1398
kuriose	-1399
nusikal	-1400
priežiūros	-1401
▁".	-1402
besi	-1403
kita	-1404
mato	-1405
gauti	-1406
priėm	-1407
dažnai	-1408
džiaugi	-1409
suteikti	-1410
ūz	-1411
ios	-1412
mln	-1413
spa	-1414
ėja	-1415
fika	-1416
užim	-1417
esnio	-1418
papildo	-1419
veiklos	-1420
auto	-1421
patir	-1422
nagrin	-1423
neturi	-1424
skaidr	-1425
sumažinti	-1426
šū	-1427
eno	-1428
dėme	-1429
proto	-1430
tuose	-1431
visas	-1432
leisti	-1433
mokesčių	-1434
skatinti	-1435
institucijų	-1436
co	-1437
stas	-1438
aiškin	-1439
narėse	-1440
padėtį	-1441
laikyti	-1442
pagalbos	-1443
ančius	-1444
vartotojų	-1445
ser	-1446
naud	-1447
cijai	-1448
tiesų	-1449
visus	-1450
investi	-1451
įvertin	-1452
▁¦2009¦	-1453
piliečiams	-1454
amo	-1455
gir	-1456
ruo	-1457
yba	-1458
šia	-1459
▁",	-1460
lygio	-1461
vykdo	-1462
narėms	-1463
tinius	-1464
sistemą	-1465
sąlygas	-1466
išteklių	-1467
gyventojų	-1468
žal	-1469
lėšų	-1470
dialo	-1471
gerinti	-1472
solidar	-1473
tikslas	-1474
20	-1475
dav	-1476
kusi	-1477
mobi	-1478
linių	-1479
rasti	-1480
teises	-1481
vartoj	-1482
svarsty	-1483
kš	-1484
mar	-1485
naš	-1486
toks	-1487
kovos	-1488
porei	-1489
povei	-1490
tines	-1491
įmano	-1492
kuriais	-1493
paramos	-1494
vaidmenį	-1495
cūz	-1496
jūros	-1497
kuria	-1498
metus	-1499
galbūt	-1500
paramą	-1501
atitink	-1502
suderin	-1503
žmonėms	-1504
valdžios	-1505
les	-1506
tiš	-1507
damos	-1508
prancūz	-1509
problemų	-1510
užsienio	-1511
technolog	-1512
bą	-1513
lu	-1514
timo	-1515
ingai	-1516
narys	-1517
tinkl	-1518
geriau	-1519
pripaž	-1520
darbuotojų	-1521
susitarimas	-1522
buv	-1523
kalbė	-1524
rekom	-1525
dešimt	-1526
dirbti	-1527
pradėti	-1528
reikalų	-1529
sistema	-1530
pramonės	-1531
rekomend	-1532
susitarimo	-1533
nepriklauso	-1534
mę	-1535
deja	-1536
inte	-1537
kito	-1538
antys	-1539
kinin	-1540
patik	-1541
ėjimą	-1542
susidu	-1543
turėti	-1544
įsitik	-1545
gė	-1546
jais	-1547
rūpin	-1548
cijoms	-1549
kompro	-1550
sprendimo	-1551
strategijos	-1552
ria	-1553
ingos	-1554
ketin	-1555
palan	-1556
tarpi	-1557
terori	-1558
uje	-1559
pake	-1560
mažiau	-1561
sėkmin	-1562
tiniai	-1563
interne	-1564
stiprin	-1565
klausimų	-1566
negalime	-1567
eg	-1568
bul	-1569
dės	-1570
myn	-1571
pai	-1572
kelb	-1573
visą	-1574
pasku	-1575
tyrimų	-1576
tvirtin	-1577
cen	-1578
šei	-1579
gero	-1580
dį	-1581
dys	-1582
tes	-1583
aktų	-1584
esnės	-1585
prašy	-1586
tiniu	-1587
turės	-1588
vyksta	-1589
įvairi	-1590
taikymo	-1591
organiza	-1592
susijusių	-1593
laikotarpi	-1594
rezoliucijos	-1595
fr	-1596
kry	-1597
lat	-1598
plo	-1599
res	-1600
trum	-1601
galai	-1602
cijoje	-1603
▁¦0	-1604
apsi	-1605
drau	-1606
pajė	-1607
aišku	-1608
veikį	-1609
atsaky	-1610
poveikį	-1611
pirmininko	-1612
pla	-1613
nuspr	-1614
stabil	-1615
kriteri	-1616
problemas	-1617
stiprinti	-1618
▁¦5	-1619
išsi	-1620
joms	-1621
leid	-1622
liai	-1623
prof	-1624
šiam	-1625
didžiu	-1626
pažeid	-1627
interes	-1628
sprendži	-1629
bau	-1630
ijų	-1631
grai	-1632
rinką	-1633
čiausi	-1634
šalyje	-1635
bran	-1636
gamin	-1637
rengi	-1638
atlikti	-1639
kuriomis	-1640
komisijai	-1641
sprendimą	-1642
mer	-1643
ijai	-1644
rizi	-1645
esnis	-1646
vaikų	-1647
tikslų	-1648
žinome	-1649
rezulta	-1650
inf	-1651
trū	-1652
ved	-1653
meto	-1654
esmės	-1655
pamin	-1656
taiky	-1657
tvark	-1658
sudaro	-1659
▁¦2020¦	-1660
pakankamai	-1661
sprendimus	-1662
rd	-1663
len	-1664
įst	-1665
rėži	-1666
vertyb	-1667
dėmesio	-1668
ilgalai	-1669
atkreipti	-1670
ce	-1671
kėl	-1672
žuv	-1673
apib	-1674
▁¦19	-1675
kelių	-1676
turiu	-1677
atsisa	-1678
vadovų	-1679
vanden	-1680
tvarkos	-1681
panaikin	-1682
problemos	-1683
klausimais	-1684
džiaugiuosi	-1685
ny	-1686
tė	-1687
žen	-1688
amie	-1689
dvie	-1690
gruo	-1691
iššū	-1692
sang	-1693
krizę	-1694
naują	-1695
vietų	-1696
sanglau	-1697
skirtin	-1698
kiekvien	-1699
sky	-1700
dalį	-1701
tarn	-1702
ančią	-1703
nijos	-1704
uomen	-1705
dauguma	-1706
efektyv	-1707
kalbėti	-1708
valdymo	-1709
parlamentui	-1710
informacijos	-1711
nk	-1712
kiau	-1713
mams	-1714
mili	-1715
rati	-1716
švie	-1717
linės	-1718
norin	-1719
įmonių	-1720
galimybes	-1721
tės	-1722
duoti	-1723
kelią	-1724
vokie	-1725
tokios	-1726
regiono	-1727
partnery	-1728
įtraukti	-1729
kontrolės	-1730
sprendimas	-1731
susitarimą	-1732
pasinaudoti	-1733
tarptautinės	-1734
oji	-1735
vyst	-1736
kurti	-1737
atrodo	-1738
naujos	-1739
prieštar	-1740
pasiūlymas	-1741
būsi	-1742
grės	-1743
kada	-1744
lauk	-1745
šiau	-1746
ordin	-1747
žiūrė	-1748
derybų	-1749
global	-1750
konven	-1751
gyvenimo	-1752
smur	-1753
nebus	-1754
nelyg	-1755
laikas	-1756
leidži	-1757
naujas	-1758
siekti	-1759
ūkinin	-1760
koordin	-1761
ministra	-1762
remiantis	-1763
kams	-1764
nauj	-1765
tada	-1766
pažin	-1767
prezi	-1768
kaitos	-1769
visada	-1770
piliečiai	-1771
administra	-1772
konkurencing	-1773
cin	-1774
glob	-1775
itin	-1776
žvej	-1777
esnių	-1778
kompe	-1779
laiky	-1780
iniais	-1781
matyti	-1782
uosius	-1783
duomenų	-1784
kompeten	-1785
preziden	-1786
demokrati	-1787
susirūpin	-1788
aukščiausi	-1789
blo	-1790
miš	-1791
sub	-1792
vyks	-1793
aplink	-1794
kystės	-1795
nuolat	-1796
turėjo	-1797
paskelb	-1798
tiesiog	-1799
▁¦2008¦	-1800
padėties	-1801
finansinių	-1802
biu	-1803
kam	-1804
poky	-1805
riai	-1806
fondo	-1807
ančias	-1808
sudary	-1809
vertus	-1810
pagalbą	-1811
galėtume	-1812
pavyzdži	-1813
ekonomini	-1814
klausimai	-1815
vystymosi	-1816
darbotvark	-1817
bli	-1818
▁),	-1819
dito	-1820
mies	-1821
neiš	-1822
orės	-1823
reag	-1824
liber	-1825
nelai	-1826
teikti	-1827
veiklą	-1828
sektoriaus	-1829
socialinės	-1830
svarbiausia	-1831
del	-1832
jav	-1833
nio	-1834
ron	-1835
rės	-1836
išme	-1837
mani	-1838
pera	-1839
atvir	-1840
ginti	-1841
karto	-1842
tegra	-1843
diskri	-1844
teikia	-1845
apibrėž	-1846
branduo	-1847
pateiki	-1848
special	-1849
pasireng	-1850
įsitikin	-1851
diskrimin	-1852
cent	-1853
dėko	-1854
kyla	-1855
ankst	-1856
elekt	-1857
komis	-1858
tokių	-1859
trukt	-1860
trūku	-1861
išorės	-1862
pastab	-1863
pabrėži	-1864
žingsnis	-1865
balsavimas	-1866
teisingumo	-1867
žr	-1868
bio	-1869
vin	-1870
▁¦1¦	-1871
acija	-1872
kreip	-1873
kitaip	-1874
naudos	-1875
ėjimas	-1876
integra	-1877
susijęs	-1878
parengti	-1879
sprendimų	-1880
ano	-1881
galu	-1882
truk	-1883
viso	-1884
šiai	-1885
priva	-1886
keletą	-1887
pritar	-1888
saugos	-1889
ministr	-1890
protokol	-1891
svarstyti	-1892
bendruomen	-1893
ekonominės	-1894
pirmininkas	-1895
rezoliuciją	-1896
bendradarbiavimą	-1897
dis	-1898
kime	-1899
konf	-1900
gerbi	-1901
likti	-1902
pabai	-1903
tampa	-1904
moteri	-1905
tikslus	-1906
anksčiau	-1907
neturėtų	-1908
padidinti	-1909
dus	-1910
▁¦4	-1911
jokių	-1912
pavoj	-1913
sveik	-1914
dėkoju	-1915
pareik	-1916
tinėje	-1917
daugelis	-1918
klausimo	-1919
pasirink	-1920
prieglob	-1921
direktyva	-1922
žy	-1923
ros	-1924
įta	-1925
klas	-1926
užsi	-1927
usios	-1928
nutrauk	-1929
sumažin	-1930
įmanoma	-1931
laikytis	-1932
pritarti	-1933
▁!	-1934
erd	-1935
suk	-1936
tys	-1937
amus	-1938
apri	-1939
dali	-1940
žemi	-1941
feren	-1942
moksl	-1943
tinti	-1944
šiais	-1945
susiję	-1946
neabejo	-1947
princip	-1948
▁¦2010¦	-1949
sektoriuje	-1950
ein	-1951
ekl	-1952
antį	-1953
baus	-1954
ingą	-1955
išva	-1956
muni	-1957
rumu	-1958
lieka	-1959
opera	-1960
tikro	-1961
derybas	-1962
poveikio	-1963
mokslinių	-1964
sanglaudos	-1965
ho	-1966
idė	-1967
nos	-1968
san	-1969
bent	-1970
chan	-1971
ital	-1972
reli	-1973
mažai	-1974
parti	-1975
pradė	-1976
valsti	-1977
kokybės	-1978
rinkoje	-1979
besivyst	-1980
pakeisti	-1981
sąjungai	-1982
diskusijas	-1983
priežasčių	-1984
stu	-1985
situ	-1986
šiol	-1987
ūkst	-1988
torin	-1989
supras	-1990
europai	-1991
aplinkyb	-1992
balsuoti	-1993
teritori	-1994
balsavimo	-1995
informacija	-1996
ine	-1997
ome	-1998
laiv	-1999
umui	-2000
vyko	-2001
skubi	-2002
spaud	-2003
kovoti	-2004
mechan	-2005
pinigų	-2006
laisvės	-2007
automobi	-2008
išspręsti	-2009
pasiūlymų	-2010
pastangas	-2011
rezultatų	-2012
finansavimo	-2013
mal	-2014
zmo	-2015
dujų	-2016
kitą	-2017
kliū	-2018
tikė	-2019
galvo	-2020
tinku	-2021
valdy	-2022
profes	-2023
skirtu	-2024
įmonės	-2025
apsauga	-2026
sutartį	-2027
šalimis	-2028
mechaniz	-2029
pasiūlymo	-2030
bir	-2031
grą	-2032
rau	-2033
trau	-2034
login	-2035
minti	-2036
persp	-2037
tojus	-2038
treči	-2039
galimybių	-2040
programos	-2041
strategija	-2042
strategiją	-2043
informaciją	-2044
ną	-2045
avo	-2046
būs	-2047
ems	-2048
zon	-2049
atos	-2050
glau	-2051
kšči	-2052
minė	-2053
ausią	-2054
kaimo	-2055
pirmą	-2056
sijos	-2057
tapti	-2058
iniams	-2059
parama	-2060
pasaky	-2061
gamybos	-2062
gracijos	-2063
protokolą	-2064
finansinės	-2065
demokratijos	-2066
zo	-2067
efek	-2068
plat	-2069
pobū	-2070
vali	-2071
muose	-2072
nauja	-2073
ukrai	-2074
ėjusi	-2075
▁¦20¦	-2076
beveik	-2077
dalies	-2078
europą	-2079
bendros	-2080
derybos	-2081
pasitik	-2082
įgalioj	-2083
frakcija	-2084
greičiau	-2085
supapras	-2086
užimtumo	-2087
dalyvauti	-2088
galimybės	-2089
taisykles	-2090
atsižvelgti	-2091
liz	-2092
kija	-2093
pietų	-2094
vidur	-2095
ystės	-2096
kaimyn	-2097
paskir	-2098
veikla	-2099
konflik	-2100
komisiją	-2101
ml	-2102
įg	-2103
gyn	-2104
įro	-2105
char	-2106
rašy	-2107
sako	-2108
tapo	-2109
balsu	-2110
lygin	-2111
ficial	-2112
humani	-2113
infras	-2114
kščion	-2115
norint	-2116
regionų	-2117
humanitar	-2118
krikščion	-2119
valstybes	-2120
reglamento	-2121
infrastrukt	-2122
abi	-2123
gus	-2124
kui	-2125
deda	-2126
ingi	-2127
jūrų	-2128
kite	-2129
prak	-2130
judėj	-2131
nuola	-2132
techn	-2133
tenka	-2134
tūkst	-2135
aujama	-2136
komuni	-2137
manome	-2138
žmones	-2139
oficial	-2140
vertinu	-2141
apsaugoti	-2142
palankiai	-2143
tap	-2144
ybą	-2145
amži	-2146
gran	-2147
imis	-2148
mlrd	-2149
portu	-2150
tomis	-2151
aktyvi	-2152
nariams	-2153
regionu	-2154
sąlygos	-2155
aiškinti	-2156
paskatin	-2157
pažangos	-2158
poziciją	-2159
sutartis	-2160
komitetas	-2161
naudojimo	-2162
struktūrin	-2163
įgyvendinimo	-2164
fu	-2165
ob	-2166
jui	-2167
ūrį	-2168
esnę	-2169
link	-2170
tams	-2171
vari	-2172
konsu	-2173
nesen	-2174
▁¦10¦	-2175
atitik	-2176
ypatin	-2177
▁¦000¦	-2178
požiūrį	-2179
regione	-2180
svarsto	-2181
konstitu	-2182
kultūros	-2183
pažeidži	-2184
politinių	-2185
pozicijos	-2186
susijusius	-2187
sal	-2188
umu	-2189
vas	-2190
apim	-2191
būdu	-2192
esnį	-2193
koki	-2194
pats	-2195
sčio	-2196
toms	-2197
aciją	-2198
imais	-2199
tikrą	-2200
veiki	-2201
vimas	-2202
baudži	-2203
nebūtų	-2204
verslo	-2205
kuriems	-2206
padidin	-2207
pasveik	-2208
tariant	-2209
žuvinin	-2210
globaliz	-2211
nuomonės	-2212
portugal	-2213
sudaryti	-2214
pranešėjas	-2215
vyriausybės	-2216
še	-2217
tyv	-2218
vež	-2219
giai	-2220
paci	-2221
saky	-2222
site	-2223
tuos	-2224
uoja	-2225
ėjus	-2226
kelti	-2227
neigi	-2228
praei	-2229
sąžin	-2230
žemio	-2231
milijo	-2232
veikia	-2233
kalbame	-2234
nepriim	-2235
pripažin	-2236
direktyvą	-2237
pagerinti	-2238
taisyklės	-2239
daugiausia	-2240
kiš	-2241
ryž	-2242
slo	-2243
jaun	-2244
ėjau	-2245
užkir	-2246
nurody	-2247
vengti	-2248
afrikos	-2249
nuomonę	-2250
konkreči	-2251
skaičius	-2252
visapusi	-2253
prieglobsčio	-2254
mių	-2255
puo	-2256
šir	-2257
eiti	-2258
esus	-2259
many	-2260
tumė	-2261
▁¦2¦	-2262
ančio	-2263
apgai	-2264
dviejų	-2265
kūrimo	-2266
raginu	-2267
didelis	-2268
vykdyti	-2269
atitinka	-2270
partijos	-2271
kompromis	-2272
solidarumo	-2273
pagrindinis	-2274
patvirtinti	-2275
avi	-2276
elg	-2277
ken	-2278
ūro	-2279
istų	-2280
mojo	-2281
žodži	-2282
numaty	-2283
preven	-2284
rijoje	-2285
siekia	-2286
sritis	-2287
ančioms	-2288
dalykas	-2289
pažangą	-2290
svarbūs	-2291
teikiama	-2292
demokratų	-2293
pavyzdžiui	-2294
priemonėmis	-2295
nacionalinių	-2296
reikalavimus	-2297
by	-2298
eid	-2299
paj	-2300
abie	-2301
nare	-2302
pažy	-2303
usių	-2304
aprib	-2305
atsin	-2306
laiką	-2307
pasek	-2308
prant	-2309
užduo	-2310
darbas	-2311
išsaug	-2312
sustab	-2313
trečia	-2314
cijomis	-2315
europie	-2316
sutinku	-2317
komitete	-2318
problemą	-2319
programą	-2320
diskusijų	-2321
jungtinių	-2322
nusikalti	-2323
az	-2324
jt	-2325
nl	-2326
rež	-2327
dary	-2328
aktus	-2329
aptar	-2330
ispan	-2331
kaita	-2332
padės	-2333
tinas	-2334
čiųjų	-2335
baigti	-2336
apsaugą	-2337
kalbėjo	-2338
mirties	-2339
rinkimų	-2340
sveikin	-2341
sąjungą	-2342
tvirtai	-2343
įvairių	-2344
konferen	-2345
neseniai	-2346
pareigas	-2347
gav	-2348
lap	-2349
pit	-2350
stą	-2351
vil	-2352
ijas	-2353
ingų	-2354
sias	-2355
draud	-2356
galio	-2357
galiu	-2358
kokia	-2359
koleg	-2360
prasi	-2361
audito	-2362
augimo	-2363
ausios	-2364
mėnesi	-2365
papraš	-2366
atliekų	-2367
išmetam	-2368
pranešė	-2369
skirtas	-2370
įmonėms	-2371
atsinauj	-2372
paaiškin	-2373
siekdami	-2374
tinkamas	-2375
partnerystės	-2376
žuvininkystės	-2377
jan	-2378
imės	-2379
pana	-2380
rija	-2381
šiek	-2382
balan	-2383
bulga	-2384
lanks	-2385
atnauj	-2386
dalykų	-2387
pasaul	-2388
pačios	-2389
žinoti	-2390
pusiaus	-2391
rusijos	-2392
daugelio	-2393
negalima	-2394
pernelyg	-2395
pasveikinti	-2396
eb	-2397
kt	-2398
lę	-2399
nį	-2400
vę	-2401
che	-2402
kiti	-2403
leis	-2404
pato	-2405
tojo	-2406
tokį	-2407
galės	-2408
mastu	-2409
nieko	-2410
tęsti	-2411
uojant	-2412
airijos	-2413
šiaurės	-2414
kontroli	-2415
įtvirtin	-2416
akivaizdu	-2417
teisingai	-2418
perspektyv	-2419
reikalingas	-2420
susirūpinimą	-2421
serb	-2422
tarš	-2423
štai	-2424
biuro	-2425
nares	-2426
tokio	-2427
asmenų	-2428
miršti	-2429
nenori	-2430
teisėk	-2431
aptarti	-2432
išlaidų	-2433
taikoma	-2434
▁¦2007¦	-2435
bendrosios	-2436
panaikinti	-2437
reguliavimo	-2438
my	-2439
▁).	-2440
dele	-2441
jant	-2442
tiko	-2443
vizų	-2444
apima	-2445
ausio	-2446
impor	-2447
kainų	-2448
muoti	-2449
skite	-2450
prakti	-2451
prašau	-2452
moterys	-2453
puikiai	-2454
galėsime	-2455
sąlygomis	-2456
veiksmingai	-2457
et	-2458
lp	-2459
če	-2460
rti	-2461
šką	-2462
niek	-2463
angli	-2464
centr	-2465
rytoj	-2466
sugeb	-2467
ženkl	-2468
intere	-2469
tavimo	-2470
teisin	-2471
tiškai	-2472
visoms	-2473
įvairo	-2474
žinias	-2475
kolegos	-2476
paremti	-2477
apgailes	-2478
suintere	-2479
veiksmus	-2480
stabilumo	-2481
vengrijos	-2482
iniciatyva	-2483
labiausiai	-2484
socialinių	-2485
viduržemio	-2486
organizacijos	-2487
ūp	-2488
gen	-2489
ško	-2490
bank	-2491
gele	-2492
gyvū	-2493
omen	-2494
pava	-2495
rytų	-2496
tema	-2497
virš	-2498
didėj	-2499
ginkl	-2500
inova	-2501
kapit	-2502
kvali	-2503
publi	-2504
refer	-2505
tokie	-2506
galiau	-2507
laikin	-2508
procesą	-2509
leiskite	-2510
pagaliau	-2511
priežastis	-2512
pripažinti	-2513
investicijų	-2514
gim	-2515
grįž	-2516
negu	-2517
užuo	-2518
jomis	-2519
momis	-2520
stato	-2521
tautų	-2522
vykdy	-2523
didelį	-2524
keturi	-2525
kuriai	-2526
vėliau	-2527
geležin	-2528
greitai	-2529
grindži	-2530
kalbama	-2531
projektą	-2532
sektorių	-2533
vartojimo	-2534
teisėkūros	-2535
elį	-2536
izra	-2537
liui	-2538
pabė	-2539
para	-2540
amasi	-2541
pašal	-2542
plėto	-2543
tikras	-2544
visose	-2545
derinti	-2546
paklaus	-2547
įveikti	-2548
amerikos	-2549
atvejais	-2550
interesų	-2551
požiūris	-2552
suprasti	-2553
teisinga	-2554
turkijos	-2555
reikalinga	-2556
reikalavimų	-2557
py	-2558
vį	-2559
alų	-2560
ilg	-2561
nės	-2562
tan	-2563
ąją	-2564
amės	-2565
civi	-2566
jaus	-2567
kryp	-2568
mane	-2569
moje	-2570
neri	-2571
tame	-2572
tose	-2573
▁¦3¦	-2574
fondų	-2575
subsi	-2576
sąraš	-2577
tikrų	-2578
uždav	-2579
grupės	-2580
kitais	-2581
tinėms	-2582
dėmesys	-2583
palaiko	-2584
suprant	-2585
išvengti	-2586
naudotis	-2587
respubli	-2588
socialin	-2589
taikomos	-2590
žvejybos	-2591
jungtinės	-2592
naudojimą	-2593
padarinių	-2594
pasiūlymus	-2595
pirmininka	-2596
apgailestau	-2597
atsakomybės	-2598
/20	-2599
ded	-2600
kor	-2601
pel	-2602
▁¦6	-2603
planą	-2604
rinka	-2605
sutel	-2606
tokiu	-2607
visai	-2608
istori	-2609
ketvir	-2610
rengti	-2611
didelių	-2612
savaitę	-2613
tikslai	-2614
▁¦2011¦	-2615
dešimtme	-2616
komunika	-2617
kultūrin	-2618
pastangų	-2619
patikrin	-2620
interneto	-2621
susiduria	-2622
veiksming	-2623
automobilių	-2624
laikotarpiu	-2625
prancūzijos	-2626
įsipareigojimų	-2627
amb	-2628
bri	-2629
▁¦7	-2630
▁¦8	-2631
mažu	-2632
noje	-2633
suvo	-2634
šved	-2635
žali	-2636
bandy	-2637
birže	-2638
gerin	-2639
iškas	-2640
kalba	-2641
kelei	-2642
netgi	-2643
pagar	-2644
sienų	-2645
kitose	-2646
tikimės	-2647
ateities	-2648
procesas	-2649
projekto	-2650
diskusija	-2651
neabejotinai	-2652
aukščiausiojo	-2653
mvį	-2654
sijų	-2655
spin	-2656
uoju	-2657
aiški	-2658
dieną	-2659
dienį	-2660
esmin	-2661
karal	-2662
kokyb	-2663
linin	-2664
tikiu	-2665
apskri	-2666
atvejų	-2667
didelę	-2668
išsami	-2669
nuošir	-2670
priein	-2671
skirta	-2672
taikos	-2673
balsavo	-2674
bendras	-2675
kurioms	-2676
pareigū	-2677
pavaduo	-2678
program	-2679
atsakyti	-2680
priemonė	-2681
programa	-2682
santykių	-2683
veiksmai	-2684
čiausiai	-2685
švietimo	-2686
laikotarp	-2687
politinės	-2688
prisijung	-2689
susijusios	-2690
aplinkosaug	-2691
supaprastin	-2692
drą	-2693
prar	-2694
punk	-2695
tele	-2696
bulin	-2697
cinės	-2698
nedel	-2699
reali	-2700
tikra	-2701
tikri	-2702
torių	-2703
šiose	-2704
baltar	-2705
kuriam	-2706
sakyti	-2707
sąlygų	-2708
antiems	-2709
pagalba	-2710
referend	-2711
siekdama	-2712
apskritai	-2713
liberaliz	-2714
rekomenda	-2715
pusiausvyr	-2716
standartus	-2717
ks	-2718
-20	-2719
apy	-2720
dve	-2721
ele	-2722
hag	-2723
ginč	-2724
nebe	-2725
cinių	-2726
imams	-2727
izrae	-2728
kokių	-2729
vykst	-2730
analiz	-2731
galėjo	-2732
mokykl	-2733
nuosav	-2734
pavyko	-2735
stipri	-2736
svarbų	-2737
neteisė	-2738
stebėti	-2739
vaidmuo	-2740
ilgalaik	-2741
naudinga	-2742
požiūrio	-2743
praėjusi	-2744
vieninte	-2745
atsakomyb	-2746
baltarusi	-2747
interesus	-2748
skaidrumo	-2749
žiniasklai	-2750
sprendžiant	-2751
institucijoms	-2752
ds	-2753
gy	-2754
nr	-2755
vą	-2756
naf	-2757
neį	-2758
čiu	-2759
giau	-2760
iška	-2761
ploj	-2762
ribo	-2763
ribų	-2764
šeng	-2765
ūras	-2766
pačių	-2767
siais	-2768
viską	-2769
vykti	-2770
pabėgė	-2771
pacien	-2772
sričių	-2773
versti	-2774
vienos	-2775
visoje	-2776
žinote	-2777
amžiaus	-2778
nustato	-2779
omenyje	-2780
vandens	-2781
birželio	-2782
pobūdžio	-2783
kriterijus	-2784
pritariame	-2785
socialistų	-2786
suinteresuo	-2787
ato	-2788
paš	-2789
vel	-2790
yst	-2791
ėjų	-2792
įsp	-2793
imti	-2794
koso	-2795
mirš	-2796
romų	-2797
roso	-2798
sank	-2799
atsar	-2800
avimu	-2801
geras	-2802
lyčių	-2803
steng	-2804
davimo	-2805
ketina	-2806
sakant	-2807
svarbą	-2808
tikslo	-2809
tingai	-2810
šiomis	-2811
leidžia	-2812
moteris	-2813
niekada	-2814
pavojus	-2815
teroriz	-2816
tiniais	-2817
žiūrėti	-2818
biudžetą	-2819
konsulta	-2820
paminėti	-2821
parodyti	-2822
patenkin	-2823
pagrindas	-2824
sėkmingai	-2825
tiesiogiai	-2826
įsitikinęs	-2827
vartotojams	-2828
pirmininkaujanči	-2829
kvo	-2830
oni	-2831
rug	-2832
kais	-2833
kumo	-2834
mokė	-2835
teig	-2836
tris	-2837
vimą	-2838
anori	-2839
būdas	-2840
dirba	-2841
intel	-2842
kopen	-2843
lėšos	-2844
pieno	-2845
tiesa	-2846
tojas	-2847
delega	-2848
dienos	-2849
kilmės	-2850
minėjo	-2851
nerimą	-2852
tarpus	-2853
torius	-2854
anglies	-2855
barroso	-2856
saugumą	-2857
tinėmis	-2858
šengeno	-2859
principų	-2860
išlaikyti	-2861
pasiektas	-2862
sprendimai	-2863
sustiprinti	-2864
tarpvalstyb	-2865
nacionalinės	-2866
įgyvendinant	-2867
konkurencijos	-2868
pt	-2869
laik	-2870
stoj	-2871
timą	-2872
tęsi	-2873
darbu	-2874
gyvyb	-2875
iniam	-2876
kiais	-2877
įstai	-2878
elemen	-2879
nepasi	-2880
pažymė	-2881
sausio	-2882
supran	-2883
teismo	-2884
termin	-2885
vakarų	-2886
apriboj	-2887
centrin	-2888
dialogą	-2889
garanti	-2890
reikšti	-2891
skaičių	-2892
tiekimo	-2893
tyrimus	-2894
išlaidas	-2895
numatyta	-2896
pagrindą	-2897
reikšmin	-2898
išteklius	-2899
įvertinti	-2900
globalizacijos	-2901
amu	-2902
ksi	-2903
sau	-2904
▁.)	-2905
didė	-2906
dieg	-2907
ektr	-2908
enos	-2909
mode	-2910
rang	-2911
čios	-2912
išgir	-2913
nario	-2914
patys	-2915
tradi	-2916
žinau	-2917
biurok	-2918
laisvę	-2919
komisar	-2920
efektyvi	-2921
gruodžio	-2922
gyvenimą	-2923
nepapras	-2924
plojimai	-2925
pritaria	-2926
graikijos	-2927
pakeitimų	-2928
panaudoti	-2929
prisidėti	-2930
sustiprin	-2931
lų	-2932
geo	-2933
nas	-2934
sep	-2935
koks	-2936
energ	-2937
esant	-2938
kiame	-2939
rumun	-2940
kelias	-2941
padary	-2942
tumėte	-2943
įsteig	-2944
daugelį	-2945
kartais	-2946
laikoma	-2947
plėtoti	-2948
trumpai	-2949
integruo	-2950
kopenhag	-2951
mokesčio	-2952
nusprend	-2953
pavyzdys	-2954
priminti	-2955
reaguoti	-2956
vadovauj	-2957
daugelyje	-2958
projektas	-2959
standartų	-2960
imigracijos	-2961
krikščionių	-2962
darbuotojams	-2963
svarbiausias	-2964
bendradarbiauti	-2965
pirmininkaujanti	-2966
▁%	-2967
ači	-2968
dio	-2969
eta	-2970
ren	-2971
uni	-2972
ačiū	-2973
galų	-2974
jose	-2975
juod	-2976
kredi	-2977
laivų	-2978
rinkų	-2979
tinei	-2980
tingų	-2981
trans	-2982
vesti	-2983
zonos	-2984
įpras	-2985
▁¦27¦	-2986
manymu	-2987
naikin	-2988
numato	-2989
tuomet	-2990
visame	-2991
prekyba	-2992
sistemų	-2993
siūloma	-2994
kompromi	-2995
padaryta	-2996
savanori	-2997
trečiųjų	-2998
užkirsti	-2999
straipsnio	-3000
užtikrinant	-3001
technologijų	-3002
egi	-3003
lib	-3004
mbu	-3005
oma	-3006
pli	-3007
ding	-3008
kent	-3009
malo	-3010
moms	-3011
taps	-3012
trūk	-3013
baigi	-3014
esnes	-3015
lengv	-3016
priek	-3017
sritį	-3018
valiu	-3019
versl	-3020
malonu	-3021
ančiais	-3022
didesnį	-3023
lyginti	-3024
pagrindu	-3025
pasaulin	-3026
ratifika	-3027
suteikta	-3028
konkrečių	-3029
pakeitimą	-3030
didžiausią	-3031
regionuose	-3032
susitarimų	-3033
rą	-3034
eks	-3035
gre	-3036
ina	-3037
ind	-3038
ėmė	-3039
ėsi	-3040
gana	-3041
graf	-3042
gruz	-3043
karo	-3044
maty	-3045
minu	-3046
niai	-3047
peln	-3048
spar	-3049
voje	-3050
žinių	-3051
daugyb	-3052
pageid	-3053
skirtų	-3054
sutari	-3055
sąskai	-3056
proceso	-3057
rizikos	-3058
skubiai	-3059
vykdant	-3060
elektron	-3061
pirmasis	-3062
priėmimo	-3063
suteikia	-3064
teisinės	-3065
balsavimą	-3066
ekonomika	-3067
paslaugas	-3068
atsakomybę	-3069
susitikime	-3070
priežasties	-3071
ac	-3072
sv	-3073
▁'	-3074
dekl	-3075
uotų	-3076
visu	-3077
ybai	-3078
▁¦14	-3079
aljan	-3080
direk	-3081
draus	-3082
komer	-3083
laiku	-3084
lygiu	-3085
timas	-3086
balsuo	-3087
dalimi	-3088
dedant	-3089
deklar	-3090
džioje	-3091
gyvena	-3092
iniame	-3093
jokios	-3094
keisti	-3095
kelion	-3096
kijoje	-3097
kokios	-3098
mokėti	-3099
plėtrą	-3100
reikės	-3101
teršal	-3102
▁¦2006¦	-3103
turėsime	-3104
kvalifika	-3105
naudojant	-3106
pasiūlyme	-3107
pateiktas	-3108
santykius	-3109
suderinti	-3110
pakeitimus	-3111
vokietijos	-3112
finansavimą	-3113
integracijos	-3114
įsipareigojimus	-3115
ari	-3116
lūk	-3117
žai	-3118
gerą	-3119
klei	-3120
lemi	-3121
rodi	-3122
▁¦5¦	-3123
kitus	-3124
poten	-3125
ptimi	-3126
stabi	-3127
taptų	-3128
tokią	-3129
kroati	-3130
atkreip	-3131
srities	-3132
teisėms	-3133
aspektus	-3134
atidžiai	-3135
duomenys	-3136
priimtas	-3137
rengiant	-3138
taikomas	-3139
įstatymų	-3140
žmonėmis	-3141
potencial	-3142
regioninės	-3143
susitikimo	-3144
konvencijos	-3145
aplinkybėmis	-3146
pastaruosius	-3147
kūr	-3148
tal	-3149
ambi	-3150
dies	-3151
išim	-3152
mėne	-3153
nenu	-3154
reak	-3155
silp	-3156
siun	-3157
smul	-3158
stos	-3159
▁¦4¦	-3160
diplo	-3161
kateg	-3162
kuoti	-3163
lėšas	-3164
minim	-3165
mėnes	-3166
patek	-3167
supra	-3168
šioms	-3169
ekolog	-3170
ektros	-3171
grąžin	-3172
kalbos	-3173
kokybę	-3174
kompen	-3175
medžia	-3176
pasakė	-3177
plėtra	-3178
tekste	-3179
turint	-3180
būtinas	-3181
didelės	-3182
istorin	-3183
mažinti	-3184
sunkumų	-3185
taikant	-3186
tinkama	-3187
elektros	-3188
išnagrin	-3189
kategori	-3190
kuriuose	-3191
principo	-3192
pranešimu	-3193
paaiškinti	-3194
reglamentą	-3195
pagrindinės	-3196
pareiškimai	-3197
susitarimus	-3198
lb	-3199
apr	-3200
eis	-3201
ner	-3202
enar	-3203
funk	-3204
išdė	-3205
kova	-3206
lygį	-3207
draug	-3208
esama	-3209
miškų	-3210
riboj	-3211
vieto	-3212
atliko	-3213
ausius	-3214
balkan	-3215
galios	-3216
kaltin	-3217
kistan	-3218
matome	-3219
niekas	-3220
nukent	-3221
plenar	-3222
šaliai	-3223
aplinką	-3224
bendrai	-3225
kinijos	-3226
laisvių	-3227
registr	-3228
suteiki	-3229
viešųjų	-3230
norėtume	-3231
posėdžio	-3232
agentūros	-3233
ekonominę	-3234
pareikšti	-3235
pranešėja	-3236
sektorius	-3237
socialinę	-3238
ekonomikai	-3239
neturėtume	-3240
reikalauja	-3241
rezultatus	-3242
technologijas	-3243
bž	-3244
lį	-3245
ppe	-3246
rus	-3247
ėse	-3248
aišk	-3249
bėra	-3250
gaun	-3251
gera	-3252
išpl	-3253
narė	-3254
tumą	-3255
šalį	-3256
bando	-3257
inėje	-3258
kijai	-3259
liams	-3260
masto	-3261
orien	-3262
reiki	-3263
reišk	-3264
sando	-3265
siant	-3266
čiais	-3267
▁¦50¦	-3268
augimą	-3269
esnius	-3270
leistų	-3271
naujus	-3272
nuosek	-3273
nuosta	-3274
perkėl	-3275
sulauk	-3276
tikisi	-3277
tikslą	-3278
uojama	-3279
vietas	-3280
žodžio	-3281
kasdien	-3282
pažanga	-3283
vokieti	-3284
dalyvauj	-3285
instituc	-3286
biudžetas	-3287
palaikyti	-3288
politikai	-3289
sektoriui	-3290
informuoti	-3291
nedelsiant	-3292
rezultatas	-3293
socialinio	-3294
diskusijose	-3295
iniciatyvos	-3296
tarptautinių	-3297
aplinkosaugos	-3298
pą	-3299
būd	-3300
kaž	-3301
ėte	-3302
/200	-3303
esti	-3304
ingo	-3305
skol	-3306
tali	-3307
tern	-3308
tine	-3309
tųsi	-3310
amumo	-3311
dažni	-3312
fikuo	-3313
garan	-3314
išpuo	-3315
kalbu	-3316
kiant	-3317
tuoja	-3318
vengi	-3319
ąsias	-3320
altern	-3321
atspin	-3322
bendrų	-3323
pajėgu	-3324
vaistų	-3325
šiuose	-3326
gerokai	-3327
kitomis	-3328
pakarto	-3329
sukurta	-3330
taikomi	-3331
vidurio	-3332
vietoje	-3333
įpareig	-3334
nagrinėj	-3335
pasiekta	-3336
nusikalst	-3337
nustatyta	-3338
policijos	-3339
procedūrą	-3340
atsinaujin	-3341
pakeitimas	-3342
patenkinti	-3343
persvarsty	-3344
prezidento	-3345
procedūros	-3346
susijusias	-3347
svarbiausių	-3348
vienintelis	-3349
paprasčiausiai	-3350
fe	-3351
50¦	-3352
ash	-3353
aso	-3354
baz	-3355
dem	-3356
ris	-3357
ska	-3358
afri	-3359
kilo	-3360
mąsi	-3361
žais	-3362
bankų	-3363
damie	-3364
leido	-3365
motin	-3366
pelno	-3367
užuot	-3368
ūroje	-3369
▁¦30¦	-3370
artimi	-3371
ateitį	-3372
aujame	-3373
kampan	-3374
laukia	-3375
mokyti	-3376
padėtų	-3377
susido	-3378
viskas	-3379
abipusi	-3380
atsitik	-3381
dialogo	-3382
tinkamą	-3383
mažinimo	-3384
mėnesius	-3385
pabaigos	-3386
pakistan	-3387
taryboje	-3388
teigiama	-3389
trečiosi	-3390
ekonomiką	-3391
finansinę	-3392
nuostatos	-3393
pasiūlyti	-3394
projektus	-3395
sutartyje	-3396
kiekvienos	-3397
pranešėjui	-3398
visuomenei	-3399
prioritetus	-3400
rezoliucija	-3401
akivaizdžiai	-3402
darbotvarkės	-3403
tarptautinio	-3404
gn	-3405
qu	-3406
egz	-3407
gri	-3408
her	-3409
išk	-3410
los	-3411
▁¦9	-3412
blog	-3413
japo	-3414
sesi	-3415
siai	-3416
uota	-3417
atein	-3418
brius	-3419
ceden	-3420
inėms	-3421
katas	-3422
labui	-3423
lygis	-3424
medži	-3425
relig	-3426
saugi	-3427
sukel	-3428
tegin	-3429
▁¦199	-3430
▁¦25¦	-3431
grantų	-3432
lapkri	-3433
liepos	-3434
pasteb	-3435
sienos	-3436
skaiči	-3437
svarst	-3438
taršos	-3439
trukus	-3440
įtakos	-3441
šeimos	-3442
damiesi	-3443
gyventi	-3444
kitiems	-3445
kūrimas	-3446
palaiky	-3447
plataus	-3448
suteiks	-3449
abejonių	-3450
pozicija	-3451
preceden	-3452
saugumas	-3453
skiriama	-3454
sveikinu	-3455
tikslais	-3456
bendrovių	-3457
naudingas	-3458
nuostatas	-3459
paprašyti	-3460
politinio	-3461
sutartimi	-3462
ekonominių	-3463
pabrėžiama	-3464
pasiūlymai	-3465
veiksmingą	-3466
apsvarstyti	-3467
gyventojams	-3468
atsižvelgiama	-3469
geg	-3470
ims	-3471
sch	-3472
įdo	-3473
dyje	-3474
goje	-3475
koms	-3476
lank	-3477
liko	-3478
misi	-3479
nele	-3480
ombu	-3481
suoj	-3482
vyrų	-3483
ėjai	-3484
žiau	-3485
▁¦6¦	-3486
aktai	-3487
dsmen	-3488
geguž	-3489
gomis	-3490
kriti	-3491
mybės	-3492
reikį	-3493
slova	-3494
stymo	-3495
sukči	-3496
tvari	-3497
vertę	-3498
šiems	-3499
avimui	-3500
gyvūnų	-3501
naftos	-3502
priekį	-3503
rimtai	-3504
aukštos	-3505
poreikį	-3506
prievar	-3507
▁¦2013¦	-3508
abejonės	-3509
duomenis	-3510
italijos	-3511
liaudies	-3512
medžiagų	-3513
ministrų	-3514
netrukus	-3515
nuomonei	-3516
reformas	-3517
skiriasi	-3518
susiduri	-3519
tarnybos	-3520
transpor	-3521
užduotis	-3522
lapkričio	-3523
ombudsmen	-3524
įsigalioj	-3525
įtrauktas	-3526
atsisakyti	-3527
patvirtino	-3528
straipsnis	-3529
vartotojai	-3530
laikotarpio	-3531
nuoširdžiai	-3532
reikalaujama	-3533
cs	-3534
aty	-3535
noz	-3536
žlu	-3537
aktu	-3538
egip	-3539
eurų	-3540
gais	-3541
gani	-3542
gelb	-3543
real	-3544
sprę	-3545
aktyv	-3546
amojo	-3547
dvigu	-3548
išaug	-3549
jokio	-3550
savar	-3551
siūly	-3552
sunki	-3553
įvyko	-3554
abiejų	-3555
galite	-3556
kinija	-3557
minist	-3558
narius	-3559
pajamų	-3560
prieig	-3561
smurto	-3562
vaikai	-3563
aisiais	-3564
tiniame	-3565
aplinkai	-3566
atstovai	-3567
galimybe	-3568
griežtai	-3569
kovojant	-3570
palaikau	-3571
reformos	-3572
įvykdymo	-3573
ataskaitą	-3574
diskutuoj	-3575
kiekvieną	-3576
poreikius	-3577
pradžioje	-3578
teigiamai	-3579
parlamentą	-3580
rezultatai	-3581
institucija	-3582
nepriimtina	-3583
organizacijų	-3584
tarptautiniu	-3585
infrastruktūros	-3586
ur	-3587
jun	-3588
-201	-3589
belg	-3590
dytų	-3591
inei	-3592
pikt	-3593
pirk	-3594
rūmų	-3595
sėjo	-3596
viau	-3597
įtik	-3598
dinti	-3599
kaden	-3600
moder	-3601
pasak	-3602
perži	-3603
rūmai	-3604
stras	-3605
susie	-3606
tiesą	-3607
trijų	-3608
įrody	-3609
dalyje	-3610
džiaug	-3611
ekspor	-3612
grupių	-3613
inimas	-3614
ininkų	-3615
kolegų	-3616
kreipi	-3617
lengva	-3618
mėnesį	-3619
parodė	-3620
pavojų	-3621
prasme	-3622
rusija	-3623
stengi	-3624
tiniam	-3625
tojais	-3626
amosios	-3627
atlygin	-3628
gegužės	-3629
kuriant	-3630
lygybės	-3631
pasiraš	-3632
pavadin	-3633
pensijų	-3634
pokyčių	-3635
savaran	-3636
skatina	-3637
didesnio	-3638
draudimo	-3639
ganistan	-3640
keleivių	-3641
ketvirta	-3642
neturime	-3643
pateikta	-3644
programų	-3645
tvarkyti	-3646
bendrovės	-3647
išsaugoti	-3648
laikomasi	-3649
palyginti	-3650
pasiūlymu	-3651
principas	-3652
programas	-3653
strategin	-3654
sveikatai	-3655
tiesiogin	-3656
kiekvienas	-3657
parlamentu	-3658
pranešimui	-3659
reikalauti	-3660
susitikimą	-3661
sustabdyti	-3662
darbotvarkę	-3663
darbuotojai	-3664
susitikimas	-3665
pagrindiniai	-3666
žiniasklaidos	-3667
ale	-3668
cep	-3669
ton	-3670
tęs	-3671
vys	-3672
šeš	-3673
akto	-3674
pral	-3675
viai	-3676
ūrai	-3677
ančia	-3678
demon	-3679
gener	-3680
išmok	-3681
kartų	-3682
nauji	-3683
nesėk	-3684
pagam	-3685
sukėl	-3686
įtrau	-3687
▁¦12¦	-3688
didėja	-3689
kandid	-3690
mokymo	-3691
paketo	-3692
pastat	-3693
prekių	-3694
skurdo	-3695
statis	-3696
sėkmės	-3697
tarybą	-3698
tokias	-3699
viduje	-3700
visais	-3701
zonoje	-3702
žengti	-3703
aspektų	-3704
didelio	-3705
diploma	-3706
medžiag	-3707
palikti	-3708
piktnau	-3709
rugsėjo	-3710
tiniams	-3711
aspektas	-3712
elektrin	-3713
kontrolę	-3714
numatyti	-3715
posėdyje	-3716
raginama	-3717
speciali	-3718
svarbios	-3719
vertinti	-3720
išreikšti	-3721
pabėgėlių	-3722
procedūrų	-3723
afganistan	-3724
pasiūlymui	-3725
vyriausybių	-3726
ata	-3727
dūr	-3728
ide	-3729
ker	-3730
mil	-3731
sak	-3732
▁..	-3733
argu	-3734
ario	-3735
arti	-3736
fron	-3737
kėme	-3738
nami	-3739
rimo	-3740
trof	-3741
tųjų	-3742
vado	-3743
vais	-3744
atidė	-3745
forma	-3746
muisi	-3747
nepak	-3748
pridė	-3749
proga	-3750
rūpes	-3751
speci	-3752
sutik	-3753
aptari	-3754
atsira	-3755
britan	-3756
briuse	-3757
fondas	-3758
lestin	-3759
mažumų	-3760
skurdu	-3761
status	-3762
stebės	-3763
sąlyga	-3764
tokius	-3765
aljanso	-3766
argumen	-3767
dalykai	-3768
nemanau	-3769
pradėjo	-3770
praėjus	-3771
prekybą	-3772
skirtos	-3773
teršalų	-3774
▁¦2012¦	-3775
biologin	-3776
derybose	-3777
izraelio	-3778
karalyst	-3779
nuostatų	-3780
suprantu	-3781
inovacijų	-3782
leidžiama	-3783
nutraukti	-3784
paklausti	-3785
socialinį	-3786
vertinimo	-3787
bulgarijos	-3788
dabartinės	-3789
duomenimis	-3790
ekonominio	-3791
finansuoti	-3792
piktnaudži	-3793
procedūras	-3794
ataskaitoje	-3795
susitarimai	-3796
prieštarauja	-3797
įgyvendinimas	-3798
abu	-3799
des	-3800
gaz	-3801
kny	-3802
mor	-3803
niu	-3804
sko	-3805
auju	-3806
bžūp	-3807
davo	-3808
grąž	-3809
kuli	-3810
make	-3811
prog	-3812
sual	-3813
tasi	-3814
vald	-3815
vėje	-3816
amųjų	-3817
antai	-3818
antro	-3819
banko	-3820
dalij	-3821
egzis	-3822
imasi	-3823
kelio	-3824
kiekį	-3825
liais	-3826
parem	-3827
sakau	-3828
tiški	-3829
valdo	-3830
ėjimų	-3831
▁¦11¦	-3832
▁¦15¦	-3833
daugia	-3834
griežt	-3835
imuose	-3836
kainos	-3837
likusi	-3838
padeda	-3839
paskol	-3840
plėtoj	-3841
propag	-3842
protin	-3843
skirtą	-3844
uojami	-3845
įgalio	-3846
bulinti	-3847
jaunimo	-3848
laisvai	-3849
negaliu	-3850
nukreip	-3851
procese	-3852
reformų	-3853
strasbū	-3854
turkija	-3855
vykdoma	-3856
bendrąją	-3857
dabartin	-3858
kryptimi	-3859
lenkijos	-3860
pamiršti	-3861
pareikal	-3862
priimant	-3863
rinkimus	-3864
užbaigti	-3865
švedijos	-3866
dokumentų	-3867
katastrof	-3868
pavyzdžių	-3869
pranešėjo	-3870
principus	-3871
procedūra	-3872
terorizmu	-3873
iniciatyvą	-3874
pakeitimai	-3875
pasaulinės	-3876
prioritetų	-3877
nepaprastai	-3878
pusiausvyrą	-3879
prisitaikymo	-3880
visapusiškai	-3881
ec	-3882
ol	-3883
th	-3884
išką	-3885
kong	-3886
nesą	-3887
¦	-3888
▁	-3889
i	-3890
a	-3891
s	-3892
t	-3893
r	-3894
o	-3895
e	-3896
n	-3897
u	-3898
k	-3899
m	-3900
p	-3901
l	-3902
d	-3903
v	-3904
j	-3905
𐋇	-3906
g	-3907
,	-3908
b	-3909
ų	-3910
y	-3911
ė	-3912
š	-3913
.	-3914
ą	-3915
ž	-3916
į	-3917
ū	-3918
c	-3919
č	-3920
f	-3921
z	-3922
𐊣	-3923
𐊼	-3924
ę	-3925
0	-3926
-	-3927
2	-3928
(	-3929
)	-3930
h	-3931
1	-3932
"	-3933
:	-3934
5	-3935
9	-3936
?	-3937
3	-3938
7	-3939
4	-3940
8	-3941
;	-3942
6	-3943
/	-3944
w	-3945
!	-3946
x	-3947
q	-3948
é	-3949
%	-3950
á	-3951
'	-3952
ö	-3953
è	-3954
í	-3955
ó	-3956
ü	-3957
+	-3958
ş	-3959
ä	-3960
ă	-3961
&	-3962
[	-3963
]	-3964
ń	-3965
ß	-3966
ć	-3967
°	-3968
ø	-3969
ú	-3970
ţ	-3971
à	-3972
ê	-3973
ï	-3974
ķ	-3975
ł	-3976
ň	-3977
ő	-3978
·	-3979
ç	-3980
ñ	-3981
ý	-3982
ż	-3983
_	-3984
ò	-3985
ī	-3986
ľ	-3987
ř	-3988
ś	-3989
̨	-3990
έ	-3991
π	-3992
ρ	-3993
υ	-3994
”	-3995
•	-3996
