<pad>	0
</s>	0
<unk>	0
,	-3.08038
▁ᎠᎴ	-3.77255
.	-3.79647
▁ᎾᏍᎩ	-3.99662
Ꮓ	-4.06925
▁Ꭴ	-4.10254
Ꭲ	-4.15288
Ꮫ	-4.16185
Ꭹ	-4.17001
;	-4.19623
Ꮅ	-4.22705
Ꮒ	-4.24229
▁Ꭰ	-4.25724
Ꮎ	-4.26333
Ꮧ	-4.26424
▁	-4.3106
Ꮣ	-4.33366
Ꭶ	-4.46427
Ꮕ	-4.57533
ᏍᏗ	-4.66825
▁ᎯᎠ	-4.69221
Ꮈ	-4.72478
Ꭿ	-4.786
▁ᎨᏒ	-4.80003
Ꮑ	-4.80752
Ꮵ	-4.92618
Ꮙ	-4.94059
Ꭺ	-5.00755
Ꮟ	-5.01579
Ꭽ	-5.0337
Ꮩ	-5.05679
Ꭸ	-5.0598
Ꮿ	-5.10028
Ꭼ	-5.11464
Ꮞ	-5.14881
Ꮥ	-5.17335
Ꮢ	-5.21042
ᏍᎩ	-5.2632
▁Ꮵ	-5.27606
▁ᎥᏝ	-5.28642
▁Ꮧ	-5.29123
Ꮆ	-5.29329
▁Ᏹ	-5.30249
▁ᎨᏒᎢ	-5.3277
▁Ꭲ	-5.3328
ᏰᏃ	-5.33414
Ꮂ	-5.33976
▁Ꮷ	-5.35906
Ᏹ	-5.37049
▁Ꮎ	-5.37554
▁Ꭶ	-5.403
Ꮻ	-5.41781
Ꮳ	-5.42016
Ᏸ	-5.43049
Ᏺ	-5.4448
▁ᎤᏁᎳᏅᎯ	-5.44489
Ꮄ	-5.46215
Ꮃ	-5.46501
▁ᎤᏂ	-5.47131
Ᏼ	-5.48121
Ꮹ	-5.48303
Ꮤ	-5.48374
Ꮺ	-5.48382
Ꭾ	-5.56151
Ᏻ	-5.56196
▁Ꮣ	-5.56446
ᏍᏓ	-5.58024
Ꭵ	-5.58939
Ꮸ	-5.59125
▁ᎠᏂ	-5.59304
Ꮴ	-5.59753
Ꮲ	-5.61958
ᏍᎦ	-5.66302
▁Ꭱ	-5.69396
ᏍᎩᏂ	-5.71487
▁Ꮪ	-5.71612
▁ᎤᎾ	-5.72544
Ꮪ	-5.7321
?	-5.81148
Ꮜ	-5.81809
▁ᎩᎶ	-5.82596
Ꮇ	-5.84683
▁ᎢᏳ	-5.85561
▁ᎢᎦ	-5.86534
ᏗᏱ	-5.87114
▁Ꮔ	-5.88296
Ꮨ	-5.89506
▁ᎾᏍᏉ	-5.90891
Ꮖ	-5.91888
▁ᏴᏫ	-5.92901
▁Ꮳ	-5.94052
▁ᏥᏌ	-5.96148
▁ᎾᏍᎩᏯ	-6.00594
▁ᎠᏴ	-6.01048
-	-6.01551
ᏍᏗᏱ	-6.02687
▁ᎬᏩ	-6.02889
▁Ꮻ	-6.0291
▁ᎢᏥ	-6.03595
▁ᎨᏎᏍᏗ	-6.03696
▁ᎢᏣ	-6.0656
ᏍᎨᏍᏗ	-6.08913
▁ᏂᎨᏒᎾ	-6.10838
ᏓᏅ	-6.10946
▁ᎤᎬᏫᏳᎯ	-6.11277
Ꮠ	-6.11448
ᏍᎪ	-6.1236
Ꮼ	-6.12948
▁ᏂᎯ	-6.14053
▁Ꭼ	-6.14185
▁ᏥᎩ	-6.14228
ᏤᎵ	-6.1511
ᎯᏳ	-6.16569
ᏰᎸ	-6.16963
Ꭷ	-6.17076
▁ᎠᏎᏃ	-6.18157
▁ᎢᏳᏍᏗ	-6.18758
▁Ꮥ	-6.22094
Ꭱ	-6.22513
ᏍᏛ	-6.2357
▁ᎾᎿ	-6.25989
▁Ꮒ	-6.26286
▁ᎦᎶᏁᏛ	-6.30165
▁Ꮕ	-6.32755
▁Ꭳ	-6.33054
ᏁᎸ	-6.3383
Ꮦ	-6.3541
▁Ꭸ	-6.35647
▁ᏱᎩ	-6.36904
ᏒᎩ	-6.38387
ᎵᏍᏓ	-6.39105
ᏍᎬ	-6.40156
ᏍᏆ	-6.40917
Ꮀ	-6.41338
▁ᎪᎱᏍᏗ	-6.41735
▁ᎠᎩ	-6.43653
ᏎᎢ	-6.44886
ᏁᏗ	-6.45564
▁ᏂᎦᏛ	-6.45778
Ꭰ	-6.46804
Ꮰ	-6.47224
ᏓᎴ	-6.48043
ᏅᎯ	-6.48464
Ꮔ	-6.49614
▁Ꮽ	-6.49793
▁ᎢᏨ	-6.50371
Ꮘ	-6.51258
ᎬᏩ	-6.51512
▁ᎣᏍᏛ	-6.51513
ᏁᎢ	-6.52366
▁ᎠᏆ	-6.57978
ᏁᎲ	-6.58135
▁Ꮶ	-6.58896
▁ᎢᏳᏃ	-6.5904
ᎮᏍᏗ	-6.59691
ᏅᎩ	-6.62633
▁ᎿᏉᏃ	-6.64207
ᏍᎬᎢ	-6.64363
▁ᎤᏲ	-6.6661
ᎲᎢ	-6.67143
ᏔᏅ	-6.6799
ᏍᏔᏅ	-6.69054
ᏩᏛ	-6.70252
ᎸᎯ	-6.70513
ᏄᎪ	-6.71056
▁ᎤᏪᏥ	-6.71153
ᏍᏕ	-6.7117
▁ᏞᏍᏗ	-6.71202
▁ᎡᎶᎯ	-6.71475
Ꮏ	-6.7237
▁ᎤᏪ	-6.72834
▁Ꭿ	-6.73504
ᏔᏅᎯ	-6.73553
ᏁᏗᏱ	-6.73871
▁ᎤᏣᏘ	-6.73906
Ꭻ	-6.74019
▁Ꭵ	-6.74473
▁ᎤᏩᏒ	-6.75028
Ꮶ	-6.77017
▁ᎾᏍᎩᏃ	-6.77397
▁ᎠᏓ	-6.79221
▁ᎤᏓ	-6.79453
▁ᏂᎦᎥ	-6.79489
Ꮷ	-6.79616
Ꮡ	-6.7991
ᎸᎩ	-6.80212
▁ᎠᏥ	-6.80294
ᎴᎢ	-6.81873
▁ᎿᏉ	-6.82815
▁ᏚᏂ	-6.83585
▁ᎦᏙ	-6.84847
▁Ᏻ	-6.85678
Ꮯ	-6.86344
ᏙᏗ	-6.86579
▁ᎠᏥᎸ	-6.86617
▁ᎤᏁ	-6.87449
▁ᎤᎵ	-6.88514
Ꮝ	-6.88556
ᏁᎸᎯ	-6.88601
▁ᎨᏥ	-6.889
ᎯᏍᏗ	-6.89126
▁ᎬᏂᎨᏒ	-6.89191
▁Ꭷ	-6.90336
▁Ꮿ	-6.91355
ᏙᏓ	-6.91612
ᏁᎯ	-6.92427
▁ᎠᎾ	-6.92625
▁ᏧᏂ	-6.93086
▁ᎠᏓᏅᏙ	-6.93459
▁ᏄᏍᏛ	-6.93651
▁ᎪᎯ	-6.93988
ᏍᏙ	-6.94341
▁ᎧᏃᎮᏛ	-6.94412
▁ᎦᎸᏉᏗᏳ	-6.96216
▁ᏗᏂ	-6.96881
▁ᎦᎸᎳᏗ	-6.97823
▁ᏰᎵ	-6.98259
Ꮗ	-6.99215
▁ᎤᏟ	-6.9946
▁Ꮩ	-6.99895
▁ᏧᎾ	-7.00844
▁ᎣᏏᏳ	-7.00994
▁ᎾᎯᏳ	-7.01057
ᎦᏘ	-7.01558
▁ᏗᎧᎿᏩᏛᏍᏗ	-7.01707
ᏙᎵ	-7.01764
ᏁᎭ	-7.02076
ᎦᎵ	-7.02116
▁ᎢᏴᏛ	-7.02467
ᏅᎢ	-7.02759
▁ᎢᎬᏱ	-7.0281
ᏚᎵ	-7.03329
▁Ꮴ	-7.03643
ᎸᎢ	-7.03683
ᎦᏔᎲ	-7.03718
Ꭴ	-7.03833
Ꮱ	-7.04262
▁ᎤᏤᎵ	-7.05
▁ᏂᎬ	-7.05334
ᏍᏙᏗ	-7.07756
▁ᎯᎠᏃ	-7.08662
ᏒᎢ	-7.09414
▁ᎾᏂᎥ	-7.09998
ᏁᎵ	-7.11142
▁ᎠᏍᎦᏯ	-7.11582
▁ᎡᎯ	-7.11819
ᏨᎯ	-7.12
▁ᏌᏉ	-7.12378
ᎦᏔᎭ	-7.12387
ᎷᏨ	-7.12602
▁ᏂᎦ	-7.12619
ᏍᎨᎢ	-7.12666
ᏍᏚ	-7.13188
ᎳᏗ	-7.14358
▁ᏗᎦ	-7.14695
▁ᎠᏎ	-7.15132
▁ᎢᏯ	-7.1526
▁ᎢᏤ	-7.15595
▁ᎢᎩ	-7.15657
ᎲᎩ	-7.15883
ᏍᎪᎢ	-7.15894
▁ᏄᏪᏎᎢ	-7.1602
ᏍᎨ	-7.16344
ᏛᎦ	-7.16357
▁ᎤᏤᎵᎦ	-7.17789
ᏒᎯ	-7.18243
▁ᏗᎨ	-7.19525
▁ᏚᎾ	-7.20084
▁ᏕᏥ	-7.20536
▁ᎤᏬ	-7.22159
ᏙᎯ	-7.22467
▁ᎬᏂᏳᏉ	-7.22902
▁ᎡᏥ	-7.25424
▁ᏕᏣ	-7.25535
▁Ꭺ	-7.25845
▁ᎢᏳᎵᏍᏙᏗᏱ	-7.284
ᏲᎯ	-7.28661
ᏲᎱ	-7.28667
ᎮᎢ	-7.28736
ᎪᎲ	-7.289
ᏍᏙᏗᏱ	-7.296
ᎢᏳ	-7.30083
▁ᏍᎩ	-7.30252
ᎦᏴᎵᎨ	-7.30777
Ꮉ	-7.30802
ᏯᏅ	-7.31638
▁ᏚᏳᎪᏛ	-7.31745
▁ᏂᏚ	-7.32346
▁ᏥᏌᏃ	-7.326
ᏪᎳ	-7.33028
ᏓᏅᏛ	-7.3307
▁[	-7.33215
ᎵᏍᏙᏗ	-7.33954
]	-7.34208
ᎯᏍᏗᏱ	-7.35124
ᏲᎵ	-7.35441
▁ᎤᏂᏣᏘ	-7.35724
ᎬᎢ	-7.36179
▁ᏗᏣ	-7.36314
▁ᏗᏥ	-7.37601
Ꮋ	-7.37761
ᎾᏄᎪᏫ	-7.37838
▁ᎨᏎᎢ	-7.38252
▁Ꮹ	-7.38339
ᎴᏅ	-7.38387
ᏪᏎᎸ	-7.38533
ᎨᏍᏗ	-7.38954
ᏍᏕᎸ	-7.40321
▁ᏕᎦ	-7.40874
ᏲᏎ	-7.42119
▁ᏔᎵᏁ	-7.43861
▁ᎠᏁᎯ	-7.43955
▁ᎠᏂᏧᏏ	-7.44168
▁ᏂᏥ	-7.44559
▁ᏧᏓᎴᏅᏛ	-7.45272
ᏗᎭ	-7.45981
▁ᏂᏣ	-7.4633
▁ᎬᏩᏍᏓᏩᏗᏙᎯ	-7.46471
ᏍᎬᎾ	-7.47282
▁Ꭽ	-7.47886
ᏗᏍᎬ	-7.4823
▁ᎤᎬᏩᎵ	-7.48736
ᏁᎴ	-7.4886
ᏍᎬᎩ	-7.4906
ᎰᎢ	-7.50412
▁ᏥᏂ	-7.50552
▁ᏥᎪ	-7.51359
ᏁᎸᎩ	-7.51656
▁ᏉᎳ	-7.52265
ᏁᎮᏍᏗ	-7.52963
▁ᏣᏂ	-7.53393
Ꮭ	-7.53799
ᏔᏁ	-7.54748
▁ᏄᎾ	-7.54782
▁ᎤᏁᏨ	-7.54819
▁ᏈᏓ	-7.55271
ᏁᎸᎢ	-7.55414
ᏙᏗᏱ	-7.55701
ᎳᏫ	-7.55728
ᏍᏔᏁ	-7.55985
ᏅᏏᏛ	-7.56067
▁ᏅᏓᏳ	-7.56207
▁ᎣᎩ	-7.56812
ᎧᎿ	-7.57575
▁ᏓᏂ	-7.57659
ᏄᏬ	-7.57692
ᏅᏟ	-7.58187
▁ᏂᏚᏪᏎᎴᎢ	-7.59624
▁ᏂᎪᎯᎸ	-7.59625
▁Ꮸ	-7.60458
▁ᎦᎪ	-7.60716
▁ᏄᏪᏒᎩ	-7.60923
ᏅᏏᏓᏍᏗ	-7.60924
ᏁᎴᎢ	-7.60944
ᎲᏍᎩ	-7.61172
▁ᎬᏗ	-7.61385
▁ᎪᎯᏳᏗ	-7.62259
ᏩᏗᏒ	-7.62601
▁ᎤᏙᎯᏳᎯᏯ	-7.6266
▁ᎠᎹ	-7.63523
▁ᏄᏪᏎᎴᎢ	-7.63559
▁Ᏼ	-7.64359
▁ᏝᏍᎪ	-7.64909
▁ᎦᏙᏃ	-7.65443
▁ᏅᏓ	-7.6575
ᏗᎦᎳᏫᎢᏍᏗᏱ	-7.66272
ᏓᏅᏙ	-7.6687
ᎫᏴ	-7.68724
▁Ꮡ	-7.69474
▁ᏥᎷᏏᎵᎻ	-7.69768
▁ᎢᏧᎳᎭ	-7.69768
ᎵᏍᏓᏴᏗ	-7.70256
▁ᎤᏅᏒ	-7.70733
Ꮮ	-7.71189
▁ᏗᎬᏩ	-7.72255
▁ᏔᎵ	-7.72505
▁ᎣᎦ	-7.7255
▁ᏣᎬᏫᏳᎯ	-7.73394
ᏐᏅ	-7.74705
▁ᎬᏂᏛ	-7.74995
ᏍᏆᏂᎪᏗ	-7.75631
▁ᏂᏚᏪᏎᎸᎩ	-7.75632
▁ᎠᎨᏴ	-7.75718
▁ᎡᏣ	-7.76133
▁ᎡᏍᎦ	-7.7614
▁ᏅᏩᏓᎴ	-7.77155
▁ᎠᏰᎵ	-7.77368
▁ᏄᏪᏎᎸᎩ	-7.78703
Ꭳ	-7.79722
▁ᎦᏚ	-7.80106
▁ᎦᏚᎲ	-7.80976
▁ᏂᎦᏗᏳ	-7.82676
▁ᏙᏓ	-7.82797
▁ᏕᎤ	-7.83122
▁ᎤᏓᏙᎵᏍᏗ	-7.83358
▁ᎠᏕᎸ	-7.83658
▁ᏅᏗᎦᎵᏍᏙᏗᎭ	-7.84297
▁ᏧᏪᏥ	-7.84334
▁ᏥᏄ	-7.8525
▁ᏧᎾᏓᎴᏅᏛ	-7.85957
ᏟᎶᏍ	-7.87325
ᎬᏫᏳ	-7.87653
▁ᎢᏯᏂᏛ	-7.88548
ᏍᏔᏂ	-7.90712
▁ᏄᎵᏍᏔᏅ	-7.92008
ᏓᏙᎵᏍᏗ	-7.93208
Ꮬ	-7.93787
ᏁᏟᏴ	-7.94709
▁ᎠᏏᏴᏫ	-7.95614
▁ᎪᏪᎵ	-7.96554
▁ᎤᏙᎯᏳᎯ	-7.97805
▁ᎩᎳᏉ	-7.9842
▁ᎬᏩᎦᏘᏯ	-7.98422
ᏁᎳᏅᎯ	-7.98678
"	-8.02283
▁ᏧᎾᏁᎶᏗ	-8.02283
ᏚᎸᏫᏍᏓᏁ	-8.02285
ᏍᎩᏂᏃᏅ	-8.03458
▁ᎤᏲᎱᏒ	-8.04455
!	-8.05283
▁ᏄᎬᏫᏳᏒ	-8.05285
▁ᎢᏳᏩᏂᏌᏛ	-8.06304
▁ᏂᏨᏪᏎᎭ	-8.06304
▁ᎤᏇᏓᎵ	-8.06304
▁ᏗᎧᎿᏩᏗᏙᎯ	-8.07334
▁ᎤᎵᏂᎩᏛ	-8.08378
ᎪᏩᏛᏗ	-8.08515
▁ᎢᏓᎵᏅᏟ	-8.09429
▁ᏗᎦᎸᏫᏍᏓᏁᏗ	-8.09497
ᎷᏤᎸ	-8.11755
Ꮊ	-8.14845
▁ᏱᎨᏎᏍᏗ	-8.14865
ᎨᏳᎯ	-8.15016
Ꮾ	-8.15988
▁ᎦᎵᏉᎩ	-8.15991
▁ᎤᏚᎩ	-8.1628
▁ᏅᏩᏙᎯᏯᏛ	-8.18274
▁ᎤᏕᎵᏛ	-8.18282
Ꮁ	-8.18535
Ꮽ	-8.19277
▁ᏧᎬᏩᎶᏗ	-8.20614
▁ᏧᏙᎢᏛ	-8.20616
▁ᎠᏂᏍᎦᏯ	-8.20644
▁ᏄᏂᏪᏒᎩ	-8.21804
▁ᎢᎨᏎᏍᏗ	-8.21805
ᎠᏁᎶᎯ	-8.21811
▁ᏄᏂᏪᏎᎢ	-8.23009
▁ᎤᏁᎳᎩ	-8.23038
▁ᎠᎾᏙᎴᎰᏍᎩ	-8.24228
ᏙᎴᎰᏒ	-8.24229
▁ᎤᎾᏓᏅᏘ	-8.24237
ᎵᏍᎪᎸᏓ	-8.24242
ᏁᏤᎸ	-8.2486
▁ᏔᎳᏚ	-8.26713
▁ᏅᏗᎦᎵᏍᏙᏗᏍᎨ	-8.27979
▁ᏄᎵᏍᏔᏁ	-8.27987
▁ᎢᎸᎯᏳ	-8.28026
ᏃᎮᏍᎬ	-8.29251
ᎾᏝᎢ	-8.29417
▁ᎠᏂᏔᎵ	-8.30657
ᎸᏫᏍᏓᏁᏗ	-8.318
▁ᏌᏩᏂ	-8.31876
ᎵᏍᏕᎸᏙᏗ	-8.31889
▁ᏄᏂᎬᏫᏳᏒ	-8.33209
ᎦᏙᎥᎯᏍᏗ	-8.33214
▁ᎤᎾᏛᎦᏅ	-8.33284
▁ᎢᏏᎵ	-8.33413
▁ᎡᏆᎭᎻ	-8.3456
▁ᏅᏓᏳᏓᎴᏅᎯ	-8.3456
▁ᏱᎰᏩ	-8.34574
▁ᏥᎨᏐ	-8.34591
ᏬᏂᎯᏍᏗ	-8.34638
▁ᎨᎵᎵ	-8.34725
▁ᎦᏓᎭ	-8.36101
▁ᎠᏍᎦᏂ	-8.36235
ᎸᏉᏙᏗ	-8.36801
ᎸᏉᏗᏳ	-8.36927
▁ᎠᏂᏆᎵᏏ	-8.37319
ᏕᏘᏴ	-8.37347
▁ᏚᏙᎥ	-8.37353
▁ᎤᎾᏤᎵᎦ	-8.37357
ᎨᎶᎯ	-8.37435
▁ᏗᏂᎧᎿᏩᏗᏙᎯ	-8.38727
▁ᎤᎾᏓᏡᎬ	-8.38727
ᎬᏫᏳᏌᏕ	-8.3873
▁ᎠᏙᎴᎰᏍᎩ	-8.41605
)	-8.80342
:	-9.83938
'	-10.6273
~	-11.7201
Ꮍ	-12.2201
Ꮚ	-13.2197
(	-13.2198
Ꮌ	-13.2199
Ꮛ	-13.22
[	-13.2201
\	-13.2201
