<pad>	0
</s>	0
<unk>	0
¦	-1.32585
▁¦	-1.35915
▁.	-4.08728
▁,	-4.65552
े	-5.08679
आहे	-5.1236
ी	-5.19047
च्या	-5.25532
आणि	-5.29346
त	-5.32105
ा	-5.37271
ं	-5.60979
▁	-5.67324
न	-5.72407
ला	-5.7259
ची	-5.73377
ल	-5.75082
चा	-5.75684
या	-5.79322
ही	-5.81434
क	-5.81479
स	-6.01407
च	-6.04819
वा	-6.07929
मध्ये	-6.08202
चे	-6.08989
व	-6.10548
ने	-6.18413
र	-6.20431
कोरोना	-6.25054
य	-6.26728
ील	-6.26884
आहेत	-6.29709
ात	-6.33684
-	-6.36133
𐊣	-6.45265
𐊼	-6.45265
ो	-6.47092
ते	-6.47929
नाही	-6.49581
्या	-6.5198
म	-6.52412
वर	-6.54948
हे	-6.56146
ना	-6.57936
अ	-6.61856
ित	-6.63606
साठी	-6.65232
ज	-6.67378
ून	-6.69486
ड	-6.72114
▁"	-6.72856
लस	-6.7409
▁(	-6.74984
ट	-6.76205
पण	-6.77228
ले	-6.77927
𐋇	-6.79141
ू	-6.79225
तर	-6.79868
ली	-6.80034
किं	-6.8024
हा	-6.80841
की	-6.83522
▁'	-6.83677
आरोग्य	-6.84823
▁)	-6.84883
काही	-6.87916
यांनी	-6.91499
▁?	-6.93143
प	-6.93969
का	-6.95814
एक	-6.96374
करण्यात	-6.97243
ल्या	-6.98861
आ	-7.00762
कमी	-7.03704
चं	-7.03971
ता	-7.06378
शी	-7.07271
असं	-7.09016
ग	-7.09562
त्या	-7.09688
शकत	-7.09889
केली	-7.1056
-19	-7.11403
फ	-7.11595
ळ	-7.13344
होत	-7.1585
ब	-7.16489
द	-7.16982
मुळे	-7.17703
विषाणू	-7.21277
सर्व	-7.2415
्	-7.26129
माहिती	-7.26809
सा	-7.28789
ु	-7.3123
होते	-7.31775
श	-7.31862
वि	-7.32199
▁:	-7.32527
ाच्या	-7.33567
करोना	-7.34292
संसर्ग	-7.34953
कोव्हिड	-7.35013
केले	-7.35063
पासून	-7.35513
ह	-7.36801
ज्या	-7.37141
पर्यंत	-7.37497
काम	-7.38023
वापर	-7.39029
सुरू	-7.40326
डॉ	-7.41204
आले	-7.4296
िक	-7.43398
र्	-7.44302
ऑक्सिजन	-7.45494
ण	-7.46151
जास्त	-7.46597
प्र	-7.46807
इतर	-7.46823
्स	-7.47694
अनेक	-7.48498
रुग्ण	-7.49164
ती	-7.50847
हात	-7.51271
आली	-7.51446
होती	-7.52181
होता	-7.52536
लं	-7.53452
केला	-7.54445
बंद	-7.54748
थ	-7.55124
असलेल्या	-7.55547
लसीकरण	-7.57961
करण्यासाठी	-7.58386
करत	-7.58672
रा	-7.59376
राज्य	-7.60154
ई	-7.60265
नी	-7.61936
नंतर	-7.62364
येत	-7.62823
केंद्र	-7.64257
सं	-7.64722
▁-	-7.64742
पेक्षा	-7.64981
राज्यात	-7.65011
झाला	-7.66476
एका	-7.6703
ांना	-7.67058
झाली	-7.67549
1	-7.67717
तो	-7.67904
चाचणी	-7.68101
ध	-7.68906
पा	-7.69076
i	-7.69162
कडे	-7.69256
जे	-7.69354
नि	-7.69496
covid	-7.69872
री	-7.70959
दोन	-7.71475
करून	-7.72163
लशी	-7.72499
लॉकडाऊन	-7.73307
ावर	-7.73729
.	-7.73775
त्यांच्या	-7.73927
करण्या	-7.73937
संख्या	-7.74371
औषध	-7.74756
सरकार	-7.75166
आजार	-7.75218
असे	-7.75222
म्हणून	-7.75815
अधिक	-7.76016
मृत्यू	-7.76017
मधील	-7.77001
काय	-7.77736
ाचा	-7.78476
ि	-7.79129
असेल	-7.79808
्य	-7.80562
अशा	-7.80717
कारण	-7.80805
झालेल्या	-7.81141
ांनी	-7.82939
ॅ	-7.84326
तरी	-7.8448
दिली	-7.85092
तयार	-7.8514
आता	-7.85211
रि	-7.85559
ाची	-7.85892
क्	-7.86026
इ	-7.8623
तील	-7.86506
ख	-7.87276
व्हायरस	-7.87652
त्यांना	-7.88051
ाने	-7.88098
सह	-7.88345
देण्यात	-7.88731
उपलब्ध	-7.89082
ाला	-7.89187
s	-7.89207
परिणाम	-7.90045
मा	-7.90273
२	-7.90541
मे	-7.90971
स्	-7.91025
यांच्या	-7.91113
म्हणजे	-7.91523
ए	-7.9154
v	-7.91765
म्हटलं	-7.92261
मात्र	-7.92533
गेल्या	-7.92887
वाढ	-7.93719
आला	-7.93836
आम्ही	-7.94016
म्हणाले	-7.9459
त्यामुळे	-7.95219
त्यांनी	-7.95458
असा	-7.95521
केलं	-7.95588
करणे	-7.96105
उ	-7.96313
उपचार	-7.96602
टक्के	-7.97097
जात	-7.97363
अशी	-7.99007
नुसार	-7.99037
एप्रिल	-7.99205
दर	-7.99594
ंग	-7.99788
▁¦2020	-8.00007
को	-8.00376
मी	-8.01008
मोठ्या	-8.01167
व्ह	-8.01315
कडून	-8.01488
आढळ	-8.01539
6	-8.01572
देशात	-8.02004
ह्या	-8.02288
3	-8.02664
महाराष्ट्रात	-8.02973
असून	-8.03235
सध्या	-8.04118
ातील	-8.04173
लोक	-8.04211
8	-8.04294
,	-8.04903
भारतात	-8.05503
सी	-8.05611
c	-8.05761
केल्या	-8.05763
असल्याचं	-8.05816
प्रकार	-8.05841
शाळा	-8.06137
होतं	-8.06717
भ	-8.07003
परिस्थिती	-8.07353
हजार	-8.07376
ांच्या	-8.07716
स्ट	-8.07874
▁."	-8.0793
िंग	-8.08284
दा	-8.08314
येई	-8.08991
टी	-8.09035
co	-8.09079
से	-8.09544
ण्यासाठी	-8.09616
सांगता	-8.10529
सरकारने	-8.10765
ष	-8.10927
णे	-8.10983
डोस	-8.11148
ांची	-8.11556
मार्च	-8.11611
कोविड	-8.11668
वैद्यकीय	-8.1197
रुग्णां	-8.12214
निर्णय	-8.12292
9	-8.12304
दिले	-8.12627
१	-8.12686
होऊ	-8.12814
डी	-8.13218
o	-8.134
बाबत	-8.13461
ंड	-8.13733
झ	-8.13814
झाले	-8.14286
प्रमाण	-8.14339
लक्षण	-8.14415
बदल	-8.1443
n	-8.14617
देश	-8.14831
लक्ष	-8.1516
कर	-8.15304
e	-8.15354
ासाठी	-8.15421
आलं	-8.15524
ंना	-8.15577
सांगितलं	-8.1601
होतो	-8.16102
गरज	-8.16354
भर	-8.16524
लोकांना	-8.16806
जर	-8.16817
गंभीर	-8.16932
नवीन	-8.17892
जी	-8.18311
ाचे	-8.18583
a	-8.19175
लि	-8.19186
चीन	-8.19956
मास्क	-8.20164
संसर्गा	-8.20285
सि	-8.20358
ओ	-8.20553
आपल्या	-8.206
ेल	-8.2071
वी	-8.20863
रे	-8.2177
होणार	-8.22222
शा	-8.22257
दुसऱ्या	-8.22489
प्रवास	-8.22497
लाख	-8.22754
समावेश	-8.24196
दिवस	-8.2443
वे	-8.24776
नं	-8.25243
बा	-8.25322
ांत	-8.25737
रुग्णालयात	-8.26298
होण्या	-8.26347
करू	-8.26388
p	-8.26489
के	-8.26508
t	-8.27111
7	-8.28572
आज	-8.28842
व्यक्ती	-8.29068
मुंबई	-8.29207
शकते	-8.29457
असल्याच	-8.29687
सीओव्ही	-8.29809
सु	-8.2999
द्वार	-8.30172
करण्याच	-8.3064
ठर	-8.31282
4	-8.31307
भाग	-8.31492
ठ	-8.31594
पर	-8.31944
नाहीत	-8.32125
डि	-8.32146
स्थिती	-8.32345
विचार	-8.32426
आपण	-8.32427
पुढे	-8.32746
लो	-8.33008
काळात	-8.33369
प्रसार	-8.33488
दरम्यान	-8.33869
r	-8.341
देख	-8.34247
ांमध्ये	-8.34867
तीन	-8.34897
शक्यता	-8.35434
ण्यात	-8.36091
जागतिक	-8.36155
्र	-8.3634
h	-8.36539
आलेल्या	-8.36861
आल्या	-8.36895
m	-8.37103
सेवा	-8.37139
जा	-8.37193
जाहीर	-8.37318
घा	-8.37508
३	-8.37662
निर्माण	-8.38101
झाल्या	-8.38122
येथ	-8.38892
ठाकरे	-8.38978
0¦	-8.38991
निर्बंध	-8.39287
घ	-8.394
पूर्ण	-8.39518
परवानगी	-8.39685
बाहेर	-8.40085
णाऱ्या	-8.40409
रोग	-8.40435
येणार	-8.40899
प्रमाणात	-8.40927
म्हणतात	-8.40931
असते	-8.41398
तात	-8.41575
व्या	-8.4198
केलेल्या	-8.41996
असलेल	-8.42038
तुम्हाला	-8.42109
sars	-8.42109
सोबत	-8.42259
राज	-8.42275
णार	-8.42408
▁¦10	-8.42493
लेल्या	-8.42677
मदत	-8.42738
महत्त्वाच	-8.42802
लागू	-8.43359
वरील	-8.43513
वाढत	-8.43995
लोकां	-8.43997
शि	-8.44019
जाऊ	-8.44088
पूर्वी	-8.44132
चाचण्या	-8.44234
आवश्यक	-8.45282
पड	-8.45565
४	-8.45776
यांना	-8.45817
दिसून	-8.45893
दाखल	-8.46286
आजारा	-8.46737
ंनी	-8.46738
प्रयत्न	-8.47142
प्रश्न	-8.47573
योग्य	-8.47583
जाई	-8.47627
पी	-8.47684
खा	-8.48021
2	-8.48048
रोजी	-8.48178
जाते	-8.48353
न्स	-8.48441
कोटी	-8.48491
d	-8.48557
टे	-8.48651
4¦	-8.48822
ति	-8.4901
भारत	-8.49278
संच	-8.49288
कि	-8.49333
मि	-8.49577
बद्दल	-8.49635
बोलता	-8.49672
करा	-8.49742
ठिकाणी	-8.49941
ेश	-8.50008
कोणत्या	-8.5026
ांचा	-8.50695
शे	-8.50914
दिसत	-8.51271
काळजी	-8.51558
ंमध्ये	-8.51859
मागणी	-8.52001
2¦	-8.52396
▁;	-8.5295
भागात	-8.5311
ीत	-8.53271
करणाऱ्या	-8.53845
नियंत्रण	-8.5411
प्	-8.54207
धोका	-8.54274
पुरवठा	-8.54274
संबंधित	-8.54314
मंत्री	-8.54519
कोरोनाची	-8.54738
याचा	-8.54741
विकस	-8.54918
क्त	-8.55149
क्ष	-8.55425
मुख्यमंत्र	-8.55662
करता	-8.558
हि	-8.5596
शक	-8.55995
ै	-8.56069
प्रमाणे	-8.56143
ांवर	-8.56478
मान	-8.56479
असताना	-8.56512
आधार	-8.56642
ामध्ये	-8.56949
पुन्हा	-8.57082
कार्य	-8.57163
/	-8.57215
उत्पादन	-8.57256
नोंद	-8.57375
मधून	-8.5756
ंच्या	-8.57932
धा	-8.59208
पहिल्या	-8.59498
हून	-8.59592
स्त	-8.59612
संपर्क	-8.59717
उद्धव	-8.59974
शोध	-8.60371
टेस्ट	-8.605
रो	-8.60579
परीक्षा	-8.60957
स्पष्ट	-8.6096
प्रत्येक	-8.61452
बीबीसी	-8.61452
तेव्हा	-8.61568
ाय	-8.61622
एस	-8.61659
पंतप्रधान	-8.61949
राज्या	-8.61979
-2	-8.6222
सार्स	-8.62502
त्र	-8.62818
5¦	-8.62944
ंचा	-8.6304
महाराष्ट्र	-8.63248
गेले	-8.6362
ढ	-8.63811
गा	-8.63826
चार	-8.64212
मोठ	-8.64389
▁¦20	-8.64578
काढ	-8.64755
ायला	-8.648
असू	-8.64809
मो	-8.64989
दिला	-8.65115
्यु	-8.65223
णं	-8.6543
त्	-8.65468
तुम्ही	-8.65503
किती	-8.65578
ट्र	-8.65639
विभागा	-8.65736
विशेष	-8.66021
साथी	-8.6633
झालेल	-8.66856
▁¦19	-8.66973
होई	-8.67088
टा	-8.67304
०	-8.67426
८	-8.67562
l	-8.67564
जानेवारी	-8.67592
सार्वजनिक	-8.67592
पसर	-8.67911
ांसाठी	-8.68134
डेटा	-8.68143
मन	-8.68168
लसी	-8.68517
६	-8.68605
पैकी	-8.68664
मला	-8.68729
नव्हत	-8.68756
रुग्णांना	-8.6903
५	-8.69106
जीव	-8.69262
उत्तर	-8.69343
द्या	-8.69407
वाट	-8.69495
ऑफ	-8.69803
ीन	-8.69904
तून	-8.70074
ेंद्र	-8.70191
ंची	-8.70606
मिळ	-8.70627
कार	-8.70729
शिवाय	-8.7081
शहरात	-8.7089
महिन्यात	-8.70944
प्रति	-8.71165
प्रतिबंध	-8.71402
आधी	-8.71572
3¦	-8.71585
फे	-8.71787
वेळ	-8.71828
७	-8.71905
राष्ट्रीय	-8.72461
लहान	-8.72503
ग्र	-8.72538
माग	-8.72542
डे	-8.72729
करतात	-8.72744
गु	-8.72836
5	-8.73084
याची	-8.73201
नये	-8.7339
ऑ	-8.7349
मु	-8.73669
जन	-8.74095
९	-8.74104
नाव	-8.74219
ताना	-8.74358
पाहिजे	-8.75267
लक्षणं	-8.75405
यु	-8.75418
शिक्षण	-8.75631
याबाबत	-8.75696
0	-8.75793
ण्याची	-8.76198
नस	-8.76732
बस	-8.76753
▁¦1¦	-8.76822
ऊ	-8.76883
पॉझिटिव्ह	-8.76991
चर्चा	-8.77049
मोदी	-8.77222
संपूर्ण	-8.77395
लागण	-8.77477
गेल	-8.77491
ठेव	-8.77939
विविध	-8.78157
झालं	-8.78204
वय	-8.7861
असतात	-8.78693
डॉक्टर	-8.79248
उच्च	-8.79337
जगभरात	-8.79338
असतो	-8.79383
श्वसन	-8.79501
u	-8.79598
मत	-8.79688
अंदाज	-8.79933
करण्यास	-8.79977
सामान्य	-8.80189
बर	-8.80784
दार	-8.81087
तीव्र	-8.81134
वेळी	-8.81375
वर्षा	-8.81379
50¦	-8.81848
णी	-8.8193
जिल्ह्यात	-8.82122
कंपनी	-8.82139
बोल	-8.82154
00	-8.82294
येऊ	-8.8235
करणार	-8.82585
ंद	-8.83481
ीय	-8.83529
आपल	-8.83562
पूर्व	-8.83639
आय	-8.83682
त्यात	-8.84128
ातून	-8.84173
b	-8.84201
केसेस	-8.84207
सारख्या	-8.84398
अभ्यास	-8.84559
म्	-8.84936
ुद्धा	-8.84991
7¦	-8.85326
अस	-8.85412
कालावधी	-8.85455
समोर	-8.85457
प्रभावी	-8.85655
र्ड	-8.85665
घेतला	-8.85749
वर्ष	-8.86086
डा	-8.86138
असल	-8.86205
पत्र	-8.87327
राहत	-8.87405
कु	-8.87406
देत	-8.87453
्यात	-8.8746
यासाठी	-8.87481
आढळले	-8.87582
बि	-8.87841
फेब्रुवारी	-8.88011
अंतर	-8.88023
र्स	-8.88033
ावं	-8.88037
जो	-8.88072
पे	-8.88287
त्यानंतर	-8.88306
पि	-8.88501
एकूण	-8.88661
काळ	-8.88944
ंट	-8.88992
हॉस्पिटल	-8.89083
सरकारी	-8.89118
तुमच्या	-8.89472
णा	-8.89971
पाच	-8.89997
केंद्रीय	-8.90028
ग्	-8.90102
ताप	-8.90193
जाणार	-8.90225
ब्	-8.90316
सूचना	-8.90561
खूप	-8.90635
कार्यक्रम	-8.90647
सर	-8.90738
ंत	-8.90816
अर्थ	-8.91117
असल्याने	-8.91301
ेशन	-8.91618
सेच	-8.91716
परत	-8.91765
बेड्स	-8.92017
ठेवण्या	-8.92142
संस्था	-8.922
लाटे	-8.92243
त्याच्या	-8.92287
मुल	-8.92387
लागत	-8.92435
वर्षां	-8.92532
रूग्णां	-8.92563
व्हा	-8.93237
झा	-8.93659
कुटुंब	-8.93929
सेंटर	-8.94014
त्रास	-8.94029
जेव्हा	-8.94061
गृह	-8.94075
धुण्या	-8.94125
कल	-8.94151
घरी	-8.9439
f	-8.94703
सुरक्षित	-8.94703
▁“	-8.94706
ंवर	-8.94881
जाण	-8.95025
गाव	-8.95183
शक्य	-8.95371
प्रतिसाद	-8.95397
संशोधन	-8.95399
रुग्णसंख्या	-8.95581
पाठव	-8.95811
स्व	-8.95824
खासगी	-8.96097
ेवळ	-8.96129
जवळ	-8.96153
जिल्हा	-8.96179
घेत	-8.96283
जातो	-8.966
रात्री	-8.96801
बी	-8.9689
सांगितले	-8.96907
ांचे	-8.974
गर्दी	-8.9751
अनु	-8.9754
असतील	-8.97555
गो	-8.9767
▁¦5	-8.97736
शरीरात	-8.98048
आकडेवारी	-8.98224
निर्मिती	-8.98224
8¦	-8.98224
नर	-8.98224
वर्षी	-8.98251
आदेश	-8.98582
रण	-8.98618
ौ	-8.98699
ेस	-8.9906
जि	-8.99374
आर्थिक	-8.99668
दोन्ही	-8.99669
घर	-8.997
त्व	-9.00053
व्यक्त	-9.00091
मुंबईत	-9.00158
येणाऱ्या	-9.004
अजून	-9.0049
केंद्रा	-9.00498
बे	-9.00569
घेऊन	-9.00578
कर्मचारी	-9.01133
शिफारस	-9.01133
बो	-9.01191
लशीच्या	-9.01554
प्रमुख	-9.01904
िया	-9.01918
▁¦12	-9.01939
मिळत	-9.0215
िल	-9.02267
स्थानिक	-9.02648
प्रदेश	-9.02813
दिल्ली	-9.02831
टि	-9.0284
ीम	-9.02857
वाद	-9.03804
महा	-9.04056
▁¦14	-9.04276
सुरुवात	-9.04322
अधिकारी	-9.04337
▁¦30	-9.044
घ्या	-9.04402
त्याचा	-9.04594
पार	-9.04753
न्	-9.04785
पद्धती	-9.04885
तास	-9.05086
करताना	-9.05166
दु	-9.05405
लशीं	-9.05505
क्षमता	-9.0562
फार	-9.05624
ग्रामीण	-9.05662
प्रवेश	-9.05663
वेगान	-9.05697
शहर	-9.05823
यात	-9.06178
वरून	-9.06315
चाचण्यां	-9.06343
छ	-9.06434
विलगीकरण	-9.06439
भा	-9.06484
करावी	-9.06517
त्याच	-9.06564
ामुळे	-9.07238
नियम	-9.07298
घेतली	-9.07344
आण	-9.07353
संदर्भात	-9.07968
पुणे	-9.08036
भारता	-9.08078
▁¦15	-9.08208
सहा	-9.08331
पु	-9.0838
नव्या	-9.08637
आणखी	-9.088
▁‘	-9.0882
विद्यार्थ्यां	-9.0903
माल	-9.09226
टाळ	-9.09332
9¦	-9.09399
एम	-9.09441
होण्याची	-9.09559
▁’	-9.09609
टोपे	-9.09613
मध्य	-9.09663
क्षेत्रात	-9.10182
गरजेच	-9.10272
पुर	-9.10321
उपाय	-9.1034
श्वास	-9.10344
पाळ	-9.10375
लॉकडाउन	-9.10406
उपस्थित	-9.10694
पो	-9.108
मुलां	-9.11012
कधी	-9.11226
बरे	-9.11442
ावी	-9.11829
बरोबर	-9.12039
पर्याय	-9.12141
गेली	-9.12184
आमच्या	-9.12276
तः	-9.12297
मुख्य	-9.12525
प्रकरण	-9.12772
तज्ज्ञ	-9.12778
व्यवस्था	-9.12862
होणाऱ्या	-9.12882
अन्य	-9.12957
परंत	-9.13014
श्र	-9.13172
घेण्यात	-9.1336
रुग्णांच	-9.13541
दूर	-9.13621
घेण्या	-9.13742
प्रमाणावर	-9.13829
अॅ	-9.13932
अप	-9.14199
करणं	-9.14247
घट	-9.14313
g	-9.14467
यामुळे	-9.14536
नागपूर	-9.14539
घोषणा	-9.14548
असणाऱ्या	-9.1457
त्यांची	-9.14631
स्ट्र	-9.14775
विक	-9.14809
उद्रेका	-9.14934
एचसीओव्ही	-9.15387
कृती	-9.15603
मते	-9.15842
ृ	-9.15851
वाढव	-9.16202
विमान	-9.16465
ण्याच	-9.16825
नल	-9.16836
दुसरी	-9.16867
who	-9.17103
तुलने	-9.17104
विकास	-9.17121
बेड	-9.17195
आतापर्यंत	-9.1734
लाट	-9.1754
▁¦2¦	-9.17836
क्स	-9.17965
आमच	-9.18181
जातं	-9.18415
सेल	-9.18443
युके	-9.18456
सुरु	-9.18873
करतो	-9.18874
यांचा	-9.18882
योजना	-9.18953
रुग्णालय	-9.18966
ल्यानंतर	-9.19292
ओळख	-9.19535
क्वारंटाईन	-9.19735
दाखव	-9.19752
सम	-9.20147
निक	-9.20161
गोष्टी	-9.20298
समज	-9.206
भीती	-9.20629
प्रक्रिया	-9.2065
अत्या	-9.20861
विषाणूच्या	-9.20902
कॅ	-9.2095
रु	-9.21097
महिन्या	-9.21338
पुण्यात	-9.21496
आपल्याला	-9.21528
प्राथमिक	-9.21529
सुविधा	-9.21529
पुष्टी	-9.21529
कर्मचाऱ्यां	-9.21538
ार्थ	-9.2155
टो	-9.21552
ात्मक	-9.21573
आर	-9.21623
विरोधी	-9.21756
स्थ	-9.21859
पोहोच	-9.21956
लशीचा	-9.22038
द्द	-9.22142
त्याची	-9.22234
रेमडेसिवीर	-9.22438
स्पर्श	-9.22438
दी	-9.22511
झाल्यानंतर	-9.22566
दुख	-9.22782
भूत	-9.22995
रूग्ण	-9.23133
इन्स्टिट्यूट	-9.23355
इटली	-9.23356
रुग्णालया	-9.23365
विरोधात	-9.23712
नागरिकां	-9.23791
देशा	-9.23857
आम्हाला	-9.24281
तपासणी	-9.24291
संप	-9.24399
डॉक्टरां	-9.24403
देण्या	-9.24985
ावे	-9.2509
अत्यं	-9.25216
संभाव्य	-9.25216
त्याला	-9.25262
▁¦11	-9.25272
जोख	-9.25351
घड	-9.25526
इं	-9.25604
साध	-9.25606
तु	-9.25902
नियोजन	-9.25969
वश्यक	-9.26062
तुटवडा	-9.26159
संस्थे	-9.2616
ंतर्गत	-9.26166
कोणती	-9.26191
करते	-9.26191
जण	-9.262
वर्ग	-9.26443
थेट	-9.26699
मोठा	-9.2705
सामाजिक	-9.27112
▁!	-9.27126
वून	-9.27387
यावर	-9.27615
मर्याद	-9.27619
विषय	-9.27681
्यावर	-9.27906
इंजेक्शन	-9.28073
हळू	-9.28076
लवकर	-9.28076
शेवट	-9.28086
एखाद्या	-9.28156
मग	-9.28167
चालू	-9.28201
परि	-9.28322
सर्वाधि	-9.28421
फि	-9.28579
मार्ग	-9.28651
देऊ	-9.29045
असल्यास	-9.29045
▁¦24	-9.29095
जाण्या	-9.29129
टप्प्यात	-9.29306
बल	-9.29433
टन	-9.29523
व्ही	-9.29619
सुरक्षा	-9.29849
आव्हान	-9.30031
लोकांनी	-9.30285
लोकांच्या	-9.30381
जसे	-9.3046
करावा	-9.30548
सोड	-9.30556
अवलंब	-9.31014
फ्लू	-9.31015
जवळपास	-9.31015
पालन	-9.3102
आग	-9.31057
तज्ज्ञां	-9.31119
िन	-9.31661
धु	-9.31812
राम	-9.31847
वर्	-9.31947
वुहान	-9.32014
सोश	-9.32017
खर्च	-9.32022
नोंदणी	-9.32054
क्रम	-9.32219
एन	-9.32268
टाक	-9.32409
देता	-9.32622
्व	-9.32659
प्रकरणां	-9.32704
येण्या	-9.32803
थांब	-9.33008
कोव्हॅक्सिन	-9.33043
पूर	-9.33097
ानुसार	-9.33154
पातळी	-9.332
लोकसंख्ये	-9.33234
पत्रकार	-9.33348
सात	-9.33412
सरकारच्या	-9.33544
पातळीवर	-9.33868
वाहतूक	-9.34045
निदान	-9.3405
िटी	-9.34089
ीकरण	-9.34096
नगर	-9.34097
१९	-9.34099
पक्ष	-9.34131
बाधित	-9.34231
अमेरिके	-9.34592
सर्	-9.34884
टर	-9.34899
ास	-9.34918
साधारण	-9.35076
तिथे	-9.35077
स्वतः	-9.35096
ियन	-9.35187
भारतीय	-9.35208
स्प	-9.35219
मराठी	-9.35268
त्यासाठी	-9.35325
बंदी	-9.35433
दाय	-9.35489
'	-9.35779
संक्रमण	-9.35987
डिसेंबर	-9.36118
छाती	-9.36123
परिणामकारक	-9.36137
दिलं	-9.36161
साम	-9.36368
दिल्या	-9.36509
असल्याची	-9.36715
कोरोनाव्हायरस	-9.36721
तयारी	-9.36906
ड्र	-9.37019
अमरावती	-9.3717
नागरिक	-9.37274
अहवाल	-9.37305
उप	-9.37316
प्रशासना	-9.37485
संबंधी	-9.37643
वेगळ	-9.37659
र्म	-9.37888
सांगत	-9.3805
पॅ	-9.38053
मॅ	-9.38063
निश्चित	-9.38234
बहुतांश	-9.38234
सौम्य	-9.38234
सल्ला	-9.38235
भाजप	-9.38239
लाटेत	-9.38341
भाव	-9.38348
करावे	-9.38681
वेळा	-9.3917
मुलांना	-9.39184
दिव	-9.39207
▁¦6¦	-9.39223
व्हि	-9.39264
y	-9.39309
उदाहरण	-9.39309
रेल्वे	-9.39309
फोर्स	-9.3931
आरोप	-9.39311
सत	-9.39396
सगळ्या	-9.39424
ठा	-9.39425
जनते	-9.39624
रक्त	-9.3991
विषयी	-9.40056
ace	-9.40133
▁¦200	-9.40228
टिक	-9.40319
जून	-9.40361
पद	-9.40369
पोलीस	-9.40397
मुक्त	-9.40435
करावं	-9.40448
होऊन	-9.40654
त्यांचे	-9.40656
यामध्ये	-9.40668
हॉस्पिटलमध्ये	-9.40782
लेले	-9.41232
रेट	-9.41457
टास्क	-9.41496
थोड	-9.41519
▁¦18	-9.41592
कार्यालय	-9.42089
लोकांमध्ये	-9.42198
ट्स	-9.42314
जातात	-9.42375
्यू	-9.42525
विद्यार्थी	-9.42606
मोहीम	-9.42615
दररोज	-9.4263
घेण्यासाठी	-9.42782
माझ्या	-9.42871
तुमच	-9.4355
सकाळी	-9.43732
नका	-9.44015
दुकान	-9.44031
बन	-9.4413
संपर्कात	-9.44327
रित्या	-9.44434
w	-9.44859
अध्यक्ष	-9.44866
अद्याप	-9.44867
सांगण्या	-9.4488
अभि	-9.44936
पवार	-9.44958
टप्प्या	-9.45035
नमुने	-9.45176
देशांमध्ये	-9.45328
हो	-9.45497
हर	-9.45525
मानवी	-9.45606
दिवसात	-9.45802
स्वच्छ	-9.45935
क्षेत्र	-9.45983
अनुभव	-9.46018
मान्यता	-9.46077
दुसरा	-9.46212
घेता	-9.4635
क्ल	-9.4661
ाचं	-9.46651
प्रा	-9.4667
पट	-9.46889
देण	-9.47167
तिसऱ्या	-9.47179
माध्यमातून	-9.47187
साठा	-9.47254
राहिल	-9.47482
साय	-9.47495
याच	-9.47772
▁).	-9.47785
सरकारला	-9.47849
मार	-9.47858
लढ	-9.47882
साथ	-9.48017
यांची	-9.48293
व्हेरियंट	-9.48355
प्रणाली	-9.48355
राजकीय	-9.48356
चित्र	-9.48356
अन्न	-9.48433
स्थळ	-9.48459
वापरा	-9.48831
इन्	-9.48835
दिवसां	-9.49047
पुढील	-9.49546
बायोटेक	-9.49546
उद्योग	-9.49557
मधल्या	-9.49658
िष्ट	-9.49684
लशीचे	-9.49692
केअर	-9.49711
आंतर	-9.50085
घटना	-9.50161
घरात	-9.50227
व्यक्तीं	-9.50417
यंत्रणा	-9.50472
देण्याच	-9.5062
वृत्त	-9.5075
सुमार	-9.50781
जन्य	-9.50865
मानवा	-9.50933
केल्यानंतर	-9.50998
राय	-9.51163
पाळी	-9.51283
आवश्यकता	-9.51308
बैठक	-9.51314
जोड	-9.51377
जणां	-9.51555
रुपय	-9.51691
टक्क्यां	-9.5197
संचालक	-9.5197
खाली	-9.51975
समस्या	-9.51977
कडक	-9.51984
प्रसिद्ध	-9.52
महिन्यां	-9.52049
प्रभावित	-9.52065
नागरिकांना	-9.5211
निर्	-9.52167
हवा	-9.52464
राव	-9.52485
उद्रेक	-9.52626
म्हणण	-9.52706
रुग्णांचा	-9.52946
ण्यास	-9.53069
ष्ट	-9.53072
कृत	-9.53078
शिक	-9.53127
सारखी	-9.53192
मिळाली	-9.53205
फोन	-9.53227
▁¦16	-9.53258
ँ	-9.53348
करायच	-9.53419
तासां	-9.5344
येते	-9.53679
होण	-9.5393
पूर्णपण	-9.54106
नसत	-9.54118
,000	-9.54454
दक्षिण	-9.54454
धोरण	-9.54456
लागली	-9.54459
रिपोर्ट	-9.54478
संरक्षण	-9.54492
gp	-9.54493
यू	-9.54599
जगात	-9.54607
▁¦60	-9.5475
आठवड्यात	-9.54887
लावल	-9.54909
वापरण्या	-9.54919
संनिरीक्षण	-9.55014
असणार	-9.55212
काली	-9.55558
ूर	-9.55566
‍	-9.5572
विशिष्ट	-9.5572
साबण	-9.55827
त्यांचा	-9.55971
झाल्याचं	-9.56019
्ट	-9.56166
बाब	-9.56497
परिस्थितीत	-9.56549
कशी	-9.5671
था	-9.56967
कर्मचाऱ्यांना	-9.56988
सप्टेंबर	-9.57002
जिथे	-9.57003
लागणार	-9.57027
भेट	-9.57039
आवाहन	-9.57042
संसर्गजन्य	-9.57071
ज्यांना	-9.57231
अन	-9.57583
अॅप	-9.57904
नसल्या	-9.58209
प्राणवायू	-9.58301
फत	-9.58598
पाहिल	-9.58687
सेवे	-9.58877
होम	-9.589
घेऊ	-9.59293
जारी	-9.59393
लावण्या	-9.59403
दीप	-9.59406
ांचं	-9.59479
सचिव	-9.59616
सॅनिटायझर	-9.59617
चिकित्सालय	-9.59617
मार्गदर्शक	-9.59617
महापालिके	-9.59621
उपाययोजना	-9.59634
१०	-9.59693
देव	-9.59731
गत	-9.60079
मूळ	-9.60108
दि	-9.60201
मंत्रालया	-9.60212
सोप	-9.60452
पडत	-9.60499
त्याचे	-9.60828
धार	-9.60866
खरेदी	-9.6095
बऱ्याच	-9.6095
▁%)	-9.6095
दशलक्ष	-9.6095
आढाव	-9.60951
देशभरात	-9.60956
कमतरत	-9.60971
र्ट	-9.60988
ब्ल	-9.61011
विभाग	-9.61129
▁¦100	-9.61212
महाराष्ट्रा	-9.61228
माझ	-9.61228
जागा	-9.61351
अँप	-9.6165
ठिकाण	-9.61733
नर्स	-9.61736
गेला	-9.61741
वाढवण्या	-9.61998
फायझर	-9.62301
वितरण	-9.62304
करुन	-9.62304
अर्ज	-9.62323
करणारे	-9.62354
इंडिया	-9.62363
आठवड्या	-9.62368
राहण्या	-9.62462
करोनाबाधित	-9.62523
मानव	-9.62569
गर्भ	-9.62732
बळ	-9.63222
सूच	-9.63317
विद्यापीठ	-9.63671
अगदी	-9.63671
जंतू	-9.63672
ज्ञात	-9.63694
मुद्द	-9.63695
परिषद	-9.63729
वाटतं	-9.64017
दिन	-9.64045
देशांनी	-9.6427
जरी	-9.64274
वाढली	-9.6428
काळा	-9.64377
नेते	-9.64567
रोगा	-9.64596
पेशी	-9.64979
सू	-9.65005
ऑक्सफर्ड	-9.6506
▁¦2021	-9.6506
प्राप्त	-9.6506
सिरम	-9.65061
द्रव	-9.65069
फायद	-9.6507
पहिला	-9.65225
मिळव	-9.6526
सुरुवातीला	-9.65347
ंदा	-9.65507
▁¦17	-9.6556
यावेळी	-9.65735
सोबतच	-9.6595
उपचारा	-9.65969
काल	-9.66021
संख्ये	-9.66048
वार	-9.66146
क्षण	-9.66161
व्यक्तीला	-9.66357
मृत्यु	-9.6644
जिनोम	-9.66469
दर्शव	-9.66469
मेडिकल	-9.66469
संक्रमित	-9.66469
सीरम	-9.66471
वेगवेगळ्या	-9.66545
मागे	-9.66643
दिस	-9.66767
खालील	-9.66839
न्यू	-9.67159
महत्वाच	-9.67302
नाक	-9.6734
दावा	-9.67688
rc	-9.67729
जाव	-9.6774
अंमलबजावणी	-9.67897
ट्वीट	-9.67897
प्रादुर्भाव	-9.67897
म्युटेशन	-9.67897
व्यवस्थापन	-9.67903
नसलेल्या	-9.67952
कंपन्यां	-9.67998
देण्यासाठी	-9.68085
तपास	-9.68142
प्रदा	-9.68189
पत्रक	-9.68197
आठ	-9.68244
ल्ड	-9.68255
मुख	-9.68435
शन	-9.6844
राख	-9.68491
ंपैकी	-9.68527
्युट	-9.6854
संबंध	-9.68582
दिवसांत	-9.69173
सारखे	-9.69235
स्त्र	-9.69329
पॉल	-9.69346
फडणवीस	-9.69346
वटवाघळ	-9.69346
समुदाय	-9.69347
अखेर	-9.69347
ट्रायल	-9.69347
बाजू	-9.69361
नसल्याचं	-9.6946
in	-9.69555
पद्धतीने	-9.69746
ासह	-9.70119
ण्याच्या	-9.70311
रुग्णांमध्ये	-9.707
युनायटे	-9.70817
क्लिनिक	-9.70817
रेमडेसिव्हिर	-9.70817
करायला	-9.70906
मेंट	-9.7093
ांमुळे	-9.70948
शै	-9.71027
तोंड	-9.71148
ज्यात	-9.71321
at	-9.71372
▁¦5¦	-9.71766
भार	-9.71992
आयोज	-9.7208
निष्कर्ष	-9.72309
al	-9.72387
आरोग्यमंत्र	-9.72457
अडचणी	-9.7251
गटा	-9.7253
वाटत	-9.72619
शरीरा	-9.7268
कसं	-9.72833
झाल्याने	-9.7311
झाल्याचे	-9.73191
धुण	-9.73203
▁्	-9.73254
ाईन	-9.73295
बाबतीत	-9.73354
देशां	-9.73424
संकट	-9.73549
य़ा	-9.73582
येतो	-9.73582
संघटने	-9.73615
बनव	-9.73636
रक्ता	-9.73724
हॉटेल	-9.73825
कठोर	-9.73825
एवढ	-9.73825
साठव	-9.7383
उघड	-9.73841
▁¦31	-9.73889
रोखण्यासाठी	-9.73901
कोणता	-9.73903
साथरोग	-9.73965
लागल्या	-9.74004
होणं	-9.74303
मार्गा	-9.74516
चिन	-9.74516
er	-9.74541
बाजार	-9.74748
आधीच	-9.74759
वाड	-9.74944
याविषयी	-9.7521
समाव	-9.75318
धर	-9.75347
हृदय	-9.75363
ऑनलाईन	-9.75363
शासकीय	-9.75363
मिनिट	-9.75365
उपयोग	-9.75371
२०	-9.75443
येतील	-9.75463
दिवसांपासून	-9.75467
वेळे	-9.75586
खर	-9.7561
व्यक्तींना	-9.75678
प्रशासनाने	-9.75707
मात	-9.75711
दिवसा	-9.75713
बैठकीत	-9.75722
सादर	-9.75777
एन्	-9.75813
करण	-9.75852
फिर	-9.76069
भो	-9.76191
मूळा	-9.76346
रुग्णा	-9.764
ः	-9.76404
रुग्णांवर	-9.76576
कोड	-9.76626
वेग	-9.76718
▁¦40	-9.76924
अँटीबॉडी	-9.76926
रेमडेसिविर	-9.76926
भूमिका	-9.76926
सदस्य	-9.76926
सुधार	-9.76957
संवाद	-9.77037
ब्रिटन	-9.77046
प्रचार	-9.77143
मर्स	-9.77278
पुण्या	-9.77333
कम	-9.7739
व्हायरसच्या	-9.77576
रुप	-9.77847
▁¦2019	-9.77952
रोख	-9.78046
्च	-9.78188
प्रि	-9.78487
चिंता	-9.78513
म्हटले	-9.78513
हेल्थ	-9.78513
कारवाई	-9.78513
चौकशी	-9.78519
असण	-9.78709
आलेला	-9.78787
टीका	-9.7899
कामगार	-9.79385
प्रवाशां	-9.79454
70¦	-9.79479
दिल्लीत	-9.7967
भू	-9.79762
कं	-9.79963
ग्रस्त	-9.7999
महाविद्यालय	-9.80126
विरुद्ध	-9.80126
कुठे	-9.80126
प्रथम	-9.80127
अजित	-9.80131
▁...	-9.80132
देणार	-9.80165
संशयित	-9.80179
स्थान	-9.80389
वेल	-9.80428
पेशीं	-9.80453
मधल	-9.80496
घेतल्या	-9.80575
जग	-9.80649
घटक	-9.80737
युरोप	-9.80852
वळ	-9.8093
पुरव	-9.80942
सुरुवाती	-9.81015
फुफ्फुसां	-9.81117
एकाच	-9.81128
क्षमते	-9.81211
महिला	-9.81256
▁¦25	-9.8136
सर्वां	-9.81422
युक्त	-9.81694
शक्ती	-9.81765
icu	-9.81765
खोकला	-9.81765
टँकर	-9.81765
प्राधान्य	-9.81765
प्रकल्प	-9.81765
पालक	-9.81774
उपक्रम	-9.81779
प्रसारा	-9.81794
घेतल्यानंतर	-9.81839
रुग्णसंख्ये	-9.81875
पाणी	-9.81892
घालण्या	-9.81901
योग	-9.81914
एकत्र	-9.81948
केस	-9.81968
मांड	-9.81981
किट	-9.82049
समाज	-9.8207
महाराष्ट्राला	-9.82304
बाल	-9.82397
गाय	-9.826
घेतले	-9.8265
इन	-9.82749
रोज	-9.83034
कमीत	-9.83119
आठवड	-9.83249
दहा	-9.83313
अधिकाऱ्यांन	-9.83346
ाधिक	-9.83386
िश	-9.83426
शास्त्रज्ञ	-9.83432
पार्श्वभूमीवर	-9.83432
आकडा	-9.83433
आयोगा	-9.83443
घ्यावी	-9.83493
▁¦22	-9.83504
▁¦28	-9.83506
आयुक्त	-9.83522
दुर्	-9.83626
सभा	-9.83656
महिलां	-9.83954
नेमक	-9.84011
प्रशासन	-9.84323
ल्याचं	-9.8435
ँड	-9.84605
श्वसना	-9.84657
अभ्यासा	-9.84662
स्थाप	-9.84674
कोण	-9.84844
भास	-9.84964
नियमावली	-9.85127
वारंवार	-9.85127
अतिशय	-9.85127
उद्भव	-9.85127
राहणार	-9.8513
प्राण्यां	-9.85142
स्ट्रेन	-9.85164
पुढच्या	-9.8518
▁¦23	-9.85212
▁”	-9.85282
मार्चला	-9.85293
गोळ	-9.85322
पहिली	-9.85369
उभ	-9.85735
वाचव	-9.85768
कोरोनाबाधित	-9.85785
rt	-9.85785
द्ध	-9.85869
त्यावर	-9.85894
अधिकाऱ्यां	-9.85957
हित	-9.86222
प्रभाव	-9.86241
कायम	-9.86294
अमेरिकेत	-9.86378
धार्मिक	-9.86851
वातावरण	-9.86851
वृद्ध	-9.86851
व्यवसाय	-9.86851
व्यावसायिक	-9.86851
rsc	-9.86851
रविवार	-9.86852
प्रोटीन	-9.86867
लागला	-9.86868
उद्देश	-9.86882
ल्प	-9.86959
खोल	-9.86977
स्वच्छता	-9.86981
लागले	-9.87033
सायन	-9.87041
घेण्यास	-9.87363
क्षेत्रा	-9.87386
पाण्या	-9.87523
लसीं	-9.87574
ॅक्स	-9.87857
आठवड्यां	-9.8811
एखाद	-9.88458
जैविक	-9.88589
mers	-9.88605
पश्चिम	-9.88605
पृष्ठभाग	-9.88605
प्रोटोकॉल	-9.88605
जर्मनी	-9.88605
सोनू	-9.88605
समूह	-9.88611
प्रकाशित	-9.88692
ॅक्ट	-9.88883
मंत्रालयाने	-9.88902
लसीकरणासाठी	-9.88904
संकटा	-9.88929
यश	-9.88956
किंमत	-9.89041
येण	-9.89325
ांशी	-9.89379
दुसरीकड	-9.89458
एकदा	-9.89782
वाढू	-9.89806
न्य	-9.89809
गण	-9.89874
िओ	-9.90059
जगा	-9.90149
ठेवण	-9.90163
कंपन्या	-9.90264
कसा	-9.90301
व्हेंटिलेटर	-9.90332
काँग्रेस	-9.90391
पुरवठ्या	-9.90391
महामारी	-9.90391
जाणवत	-9.90414
प्रक्रिये	-9.90419
पोस्ट	-9.90462
संघटना	-9.90465
मिळेल	-9.90488
डॉक्टर्स	-9.90567
पुरेस	-9.90589
त्यावेळी	-9.90666
२४	-9.90701
शिक्षक	-9.90761
rna	-9.90786
नोंदवल	-9.90954
मुलांमध्ये	-9.90987
ांमधील	-9.91042
महिन	-9.91058
शासना	-9.91261
उद्	-9.91268
वेत	-9.91294
णारे	-9.91574
न्ट	-9.916
विद्यार्थ्यांना	-9.91681
ट्विट	-9.92209
बातमी	-9.92211
गैर	-9.92212
नॅश	-9.92215
ट्रेन	-9.92225
कुमार	-9.92233
ल्ल	-9.92236
प्रयोगशाळा	-9.92239
कोरड	-9.92247
योज	-9.92276
बहु	-9.92276
लांब	-9.92316
नसल्याने	-9.92505
▁,"	-9.92601
वापरासाठी	-9.92798
जिल्ह्य	-9.92804
कंपनीने	-9.92841
सापडल	-9.92953
गट	-9.92993
मदती	-9.93083
ांकडून	-9.93796
लोकांची	-9.93844
साबणा	-9.93905
िव्ह	-9.94001
व्हॅक्सिन	-9.94027
फ्रान्स	-9.94061
अपेक्षित	-9.94061
शुक्रवार	-9.94061
इशारा	-9.94061
निवडणूक	-9.94063
तुलना	-9.94063
समिती	-9.94064
तरुण	-9.94068
भाष	-9.94136
▁¦13	-9.94243
स्थापन	-9.9446
प्राणी	-9.94599
राज्यांना	-9.94743
पाय	-9.95205
ठेवाव	-9.9527
cr	-9.95313
१५	-9.95386
तपासण्या	-9.95463
नमुन्यां	-9.95661
स्वत	-9.9582
आपत्	-9.95882
cdc	-9.95948
आयसोलेशन	-9.95948
उत्पन्न	-9.95948
प्रारंभ	-9.95948
अडथळ	-9.95948
व्हायरल	-9.95948
खात्री	-9.95949
सहभागी	-9.95949
इथे	-9.95951
उलट	-9.95969
ीण	-9.96035
उत्पादक	-9.96116
मृत्यूदर	-9.96266
आल्यानंतर	-9.96385
अँड	-9.96392
दुखण	-9.96395
जातील	-9.96499
तिरिक्त	-9.96805
ंजय	-9.97014
ar	-9.97309
ed	-9.97353
निर्देश	-9.9741
थापि	-9.97781
ज्येष्ठ	-9.97871
तक्रार	-9.97871
कुठल्या	-9.97871
दीर्घ	-9.97871
बायो	-9.97873
असतं	-9.97878
सर्दी	-9.9789
प्रयोग	-9.97903
असण्याची	-9.97919
जोखमी	-9.97943
जाणाऱ्या	-9.97982
वर्धन	-9.98094
खुल	-9.98101
कोव्ह	-9.98124
म्हणत	-9.98204
जबाबदारी	-9.98279
मिळणार	-9.98338
लागतील	-9.9844
वेगळे	-9.98441
यांचे	-9.98533
पडू	-9.98669
िमान	-9.98818
पती	-9.99002
गोष्टीं	-9.99135
एक्स	-9.99247
प्रथिन	-9.99832
धोक्या	-9.99832
अधिकृत	-9.99832
तंत्रज्ञान	-9.99836
प्रजाती	-9.99836
त्यांचं	-9.99853
▁¦21	-9.99885
उचल	-9.99913
१८	-9.99944
वगळ	-9.99973
संकल	-10.0004
योजने	-10.0006
नाशिक	-10.0006
पाठ	-10.0016
मध्यम	-10.0019
राहू	-10.002
लेख	-10.0047
चौ	-10.0048
अँ	-10.0067
पाहता	-10.0079
धर्म	-10.0099
स्वरूप	-10.0105
नाहीये	-10.0143
यंत्रणे	-10.0146
कोरोनाग्रस्तां	-10.0153
घोष	-10.0181
k	-10.0183
इतिहास	-10.0183
युनिव्हर्सिटी	-10.0183
यशस्वी	-10.0183
हर्ष	-10.0183
पाटील	-10.0183
मिळाल्या	-10.0194
हॅ	-10.0208
यांच्याशी	-10.0208
चुकीच	-10.0213
शिक्षणा	-10.0213
त्ता	-10.0223
पाहण	-10.023
रूप	-10.0234
पोट	-10.0254
कोणी	-10.0264
कारक	-10.027
आकडे	-10.0275
बाबी	-10.0283
स्थितीत	-10.0298
झाल्यास	-10.0309
जिम	-10.0317
वस्तू	-10.0329
गोष्ट	-10.0332
सगळ्यां	-10.0365
न्न	-10.0366
अल्कोहोल	-10.0387
ऐवजी	-10.0387
सकारात्मक	-10.0387
मानसिक	-10.0387
महापालिका	-10.0388
जेवण	-10.0389
बोर्डा	-10.0391
क्षणिक	-10.0396
क्शन	-10.0398
मूल	-10.0403
कोणते	-10.0407
सरकारनं	-10.0415
सामना	-10.0417
सरकारकडून	-10.042
▁¦27	-10.0436
५०	-10.0453
माध्यम	-10.0489
ांपासून	-10.0494
यासंदर्भात	-10.0507
टप्प	-10.0512
अधिकार	-10.0545
मार्	-10.055
टाळा	-10.0555
प्राण	-10.0558
आलेले	-10.0561
लागते	-10.0581
निरीक्षण	-10.0591
पोर्ट	-10.0594
phe	-10.0596
अनिवार्य	-10.0596
क्रमांक	-10.0596
झपाट्यान	-10.0596
पीसीआर	-10.0596
शनिवार	-10.0596
मासिक	-10.0596
इतकी	-10.0596
बारावी	-10.0597
रशिया	-10.0597
तातडीन	-10.0601
रुग्णालयां	-10.0601
संयुक्त	-10.0602
मीटर	-10.0604
मोज	-10.0628
ठेवा	-10.0631
लोकल	-10.0633
्काळ	-10.0639
मार्चपर्यंत	-10.064
मनात	-10.0649
अध	-10.0663
जिल्ह्या	-10.0667
हु	-10.0681
मर्यादा	-10.0695
आई	-10.0701
ma	-10.0712
ct	-10.0713
भरती	-10.0729
▁/	-10.0748
नियंत्र	-10.0771
अहवाला	-10.0781
अति	-10.0783
विकार	-10.0795
चेहऱ्या	-10.0808
मोहिमे	-10.0808
विश्लेषण	-10.0808
कॉलेज	-10.0808
प्रत्यक्ष	-10.0808
सिक्वेंसिंग	-10.0808
इतक्या	-10.0808
बातम्या	-10.0808
स्थगित	-10.0808
घ्यायला	-10.0809
पुरावा	-10.0809
लागलं	-10.0809
निवड	-10.081
खास	-10.081
शिंक	-10.0814
सुरूवात	-10.0825
घेतलेल्या	-10.0827
as	-10.0833
अभाव	-10.0837
घेणं	-10.0843
यूके	-10.0849
उपचारासाठी	-10.0853
ठेवण्यासाठी	-10.0862
दुकानं	-10.0878
युनिट	-10.0885
रूग्णांमध्ये	-10.0887
वरुन	-10.0916
▁¦45	-10.0918
साधन	-10.0948
कदाच	-10.0953
िड	-10.0975
संख्येत	-10.098
re	-10.0984
करित	-10.0987
मंजूर	-10.1026
नेटवर्क	-10.1026
बंगाल	-10.1026
व्यतिरिक्त	-10.1026
सर्वेक्षण	-10.1026
वाजेपर्यंत	-10.1026
माणसा	-10.1026
दहावी	-10.1029
़्	-10.1031
मिळाला	-10.1041
विश्वास	-10.1044
संक्रमणा	-10.1053
चालव	-10.1061
नियमित	-10.1063
हवी	-10.1068
खरं	-10.1084
आशा	-10.1085
याबद्दल	-10.1086
pe	-10.1092
ताण	-10.1149
णारा	-10.116
समान	-10.1211
राष्ट्र	-10.1245
कंट्रोल	-10.1248
सोसायटी	-10.1248
घराबाहेर	-10.1248
असल्यामुळे	-10.1248
इंटर	-10.1252
लाखां	-10.1269
मूद	-10.1271
जेणे	-10.1283
रुग्णालयांमध्ये	-10.1284
निकाल	-10.1289
95	-10.1312
ायचं	-10.1332
विरोध	-10.1346
कार्यालया	-10.1353
क्रिया	-10.1378
असता	-10.1388
मरण	-10.1392
रिक्त	-10.1392
घेण	-10.1435
निधी	-10.1474
ऑक्टोबर	-10.1475
खबरदारी	-10.1475
मधुमेह	-10.1475
विक्री	-10.1475
सहाय्य	-10.1475
झोन	-10.1476
कोव्हॅक्सीन	-10.1477
लग्न	-10.1477
वर्षभरा	-10.1478
ड्राय	-10.1479
ाईक	-10.1479
पेपर	-10.1485
एकत्रित	-10.1494
सहकार्य	-10.1494
नातेवाईक	-10.1511
जणांना	-10.1514
बंधन	-10.1532
ांपेक्षा	-10.1532
आणण्या	-10.1541
बैठकी	-10.1546
प्रच	-10.1555
गॅ	-10.1558
सर्वांना	-10.1583
कक्ष	-10.159
माध्यमां	-10.1591
नमुन	-10.1592
नमुन्या	-10.1601
बघ	-10.1619
वाढले	-10.1638
टोच	-10.1648
गावात	-10.1683
म्हणाल	-10.1687
संरक्ष	-10.1701
सिद्ध	-10.1706
ब्राझील	-10.1708
निगेटिव्ह	-10.1708
मंजुरी	-10.1708
वैयक्तिक	-10.1708
सूक्ष्म	-10.1708
टाळेबंदी	-10.1708
तालुक्यात	-10.1708
सक्षम	-10.1708
जनरल	-10.1708
व्यायाम	-10.1709
घेणार	-10.1709
पुरेश	-10.1737
प्रांत	-10.1751
दिवसांचा	-10.1789
साधला	-10.1793
यापैकी	-10.1797
ज्यांच	-10.1825
हजारो	-10.1835
वाढत्या	-10.1873
डिज	-10.1886
कठ	-10.1898
म्हण	-10.1917
ेअर	-10.192
आयुष्य	-10.1946
मॉडर्ना	-10.1946
सोमवार	-10.1946
अचानक	-10.1946
विनंती	-10.1946
घेणाऱ्या	-10.1946
डोळ	-10.1946
खेळ	-10.1946
लॅब	-10.1949
शास्त्र	-10.195
राहु	-10.1952
ठाणे	-10.1953
ेट्रिक	-10.1953
यांचं	-10.1955
▁¦29	-10.1955
सुचव	-10.1956
खंड	-10.1979
संघटनेने	-10.1979
राज्यांमध्ये	-10.1988
अमेरिक	-10.202
वेळेत	-10.2025
प्रवाशांना	-10.2041
डाय	-10.2065
संनिरीक्षणा	-10.2087
िन्ह	-10.2092
गेलं	-10.2101
फॉर	-10.2121
मुख्यमंत्र्यां	-10.2134
दंड	-10.2167
बांध	-10.2184
प्रॅक्टिस	-10.2186
शाळेत	-10.2189
न्यूमोनिया	-10.219
असोसिएशन	-10.219
इफेक्ट	-10.219
कोव्हिशिल्ड	-10.219
सरासरी	-10.219
शब्द	-10.219
नेहमी	-10.219
ऑफिस	-10.219
कोरिया	-10.219
व्यापक	-10.2192
फटका	-10.2194
दिवसांपूर्वी	-10.2194
तंत्र	-10.2195
पट्ट	-10.2199
झोप	-10.2204
फेस	-10.2222
जोशी	-10.2223
घ्यायच	-10.2228
कार्ड	-10.2237
महत्त्व	-10.2267
भारतामध्ये	-10.2274
मिळालेल	-10.2281
ाईड	-10.2294
मान्य	-10.2314
हवेत	-10.2331
देशांत	-10.2372
धुवा	-10.2383
डोक	-10.2391
िस्ट	-10.2392
)	-10.2406
डॉक्टरांना	-10.242
.5	-10.2421
x	-10.244
इंग्लंड	-10.244
कोव्हिशील्ड	-10.244
छोट्या	-10.244
नोव्हेंबर	-10.244
वाहतुकी	-10.244
वैज्ञानिक	-10.244
देखरेख	-10.244
खाजगी	-10.244
नियामक	-10.244
एकमेकां	-10.244
रोजगार	-10.244
प्रयोगशाळेत	-10.244
इमारत	-10.244
पुरावे	-10.2443
पाहाय	-10.2444
▁¦26	-10.2445
कोणाला	-10.2446
वयोगटात	-10.2448
स्तरावर	-10.2453
पावले	-10.2455
तिसर	-10.2459
राजकारण	-10.2466
मुलांसाठी	-10.2489
वाढल्या	-10.2491
यादी	-10.2493
थंड	-10.2503
पालकां	-10.2529
es	-10.2533
मिळाले	-10.2614
३०	-10.2634
नातेवाईकां	-10.2656
ऐ	-10.2696
बुधवार	-10.2696
लगेच	-10.2696
निष्	-10.2696
गुजरात	-10.2696
कोविन	-10.2696
इराण	-10.2697
संधी	-10.2697
हवं	-10.2698
प्रतिक्रिया	-10.2698
म्बो	-10.2701
अंश	-10.2703
कुणा	-10.2704
वास्तव	-10.2705
पसरतो	-10.272
सर्वसामान्य	-10.2728
प्रशिक्षण	-10.2733
ii	-10.2746
सूचनां	-10.2749
कोरोनाग्रस्त	-10.2766
घरीच	-10.2787
संख्य	-10.2803
तापमाना	-10.2804
मिळवण्या	-10.2836
हाताळ	-10.2849
उत्त	-10.2885
उल्लेख	-10.2959
कॅलिफोर्निया	-10.2959
साखळी	-10.2959
सिंड्रोम	-10.2959
•	-10.2959
संबोध	-10.2959
महानगरपालिक	-10.2959
रोगजनक	-10.2959
आटोक	-10.296
बँक	-10.296
फरक	-10.2961
सातत्यान	-10.2967
नुकत	-10.2971
gi	-10.2974
दिल्यानंतर	-10.2974
बार	-10.2993
श्व	-10.2993
उपकरण	-10.2996
उभार	-10.3039
पडल्या	-10.3041
त्यानुसार	-10.3045
मागो	-10.3048
पक	-10.3052
१३	-10.3056
अमेरिका	-10.3075
बाजारात	-10.308
सीमा	-10.3081
पोहोचल	-10.3096
माज	-10.3124
तापमान	-10.3125
अभ्यासात	-10.3148
ालेय	-10.3165
जबाबदार	-10.3172
प्रकाश	-10.3217
व्यवस्थे	-10.3228
गोंधळ	-10.323
संचारबंदी	-10.323
पालघर	-10.323
देणाऱ्या	-10.323
वसई	-10.323
प्रतिनिधी	-10.3232
बिघड	-10.3234
पथक	-10.3234
निर्यात	-10.3236
व्हेंटिलेटर्स	-10.3239
स्वीकार	-10.3241
उपमुख्यमंत्र	-10.3299
अर्थात	-10.3304
राहील	-10.3313
पक्षी	-10.3381
काढण्या	-10.3408
दुसर	-10.3409
;	-10.3473
नियमां	-10.3477
तोंडा	-10.3491
इंडिय	-10.3496
फुफ्फुसा	-10.3503
उड्डाण	-10.3507
अॅक्टिव्ह	-10.3507
नैसर्गिक	-10.3507
प्रावस्था	-10.3507
मूल्यांकन	-10.3507
फार्मा	-10.3507
इम्युन	-10.3507
लढाई	-10.3507
बहुतेक	-10.3507
इतके	-10.3508
इतका	-10.3508
मुखवट	-10.3509
एअर	-10.351
विजय	-10.3513
जिकल	-10.3514
मृत्युदर	-10.3514
आरटी	-10.3517
ाइड	-10.3534
गाठ	-10.3548
भि	-10.3557
र्जी	-10.3559
शोधण्या	-10.356
लक्षणां	-10.3574
वेगवेगळ	-10.3576
रूग्णालयात	-10.363
बंधनकार	-10.3697
प्रतिकार	-10.3747
राबव	-10.3761
यंत्र	-10.3775
जलद	-10.3779
च्छ	-10.3792
चंद्र	-10.3792
आयसीयू	-10.3793
कँडीडेट	-10.3793
तुटवड्या	-10.3793
दैनं	-10.3793
स्वॅब	-10.3793
तज्ञ	-10.3793
अश्या	-10.3794
िटल	-10.3794
कारखान	-10.3795
पीपी	-10.3808
गाडी	-10.3812
उपचारांसाठी	-10.3812
ंडवे	-10.3819
वाहन	-10.3821
त्यापैकी	-10.3841
पाठवण्या	-10.3897
कार्यक्षमत	-10.3914
मंत्र्यां	-10.3925
हवे	-10.3985
पल्	-10.3995
विषाणूरोध	-10.4012
६०	-10.4012
लसीकरणाच	-10.4014
दिवाळी	-10.4087
पूनावाला	-10.4087
विस्तार	-10.4087
गुरुवार	-10.4087
तात्पुरत	-10.4087
दृष्टीने	-10.4087
वैशिष्ट्य	-10.4087
सक्रिय	-10.4087
गुणकार	-10.4087
फोटो	-10.4087
इतकं	-10.4087
सारखा	-10.4087
परिसरात	-10.4088
शारीर	-10.4088
ंगण	-10.4088
माहीत	-10.4091
स्टेट्स	-10.4092
भाजी	-10.4099
लक्षणीय	-10.4103
रोगप्रतिकारक	-10.411
कायद्या	-10.4111
आणण्यासाठी	-10.4116
शहरांमध्ये	-10.412
़	-10.4128
ांनुसार	-10.4143
ठेवून	-10.4149
संख्येन	-10.4232
करीत	-10.4241
विल्	-10.4258
शहरां	-10.4271
पद्धत	-10.431
युद्ध	-10.4321
त्मक	-10.4371
प्रतिकारशक्ती	-10.4389
गोपनीयत	-10.439
ग्राहक	-10.439
न्युमोनिया	-10.439
वेबसाईट	-10.439
सगळी	-10.439
ह्रदय	-10.439
आणीबाणी	-10.439
मोबाईल	-10.439
आघाडी	-10.439
कॅनडा	-10.439
सिस्टम	-10.4391
मार्गदर्शन	-10.4391
स्वतंत्र	-10.4392
नियमांचं	-10.4403
पोशिंद्या	-10.4405
मानल	-10.4413
अलीकड	-10.4414
राखण	-10.4415
ायिक	-10.4428
पोलिसांन	-10.4429
उपायां	-10.4431
▁¦2.	-10.4443
.7	-10.4472
सूद	-10.4492
१६	-10.4496
डोन	-10.4545
युरोपिय	-10.4562
रुग्णालयांना	-10.4573
सांगा	-10.4626
आकार	-10.4636
पोलिसां	-10.4663
ट्ट	-10.4666
प्रौढ	-10.4703
[	-10.4703
आपात्काल	-10.4703
प्रस्ताव	-10.4703
मंगळवार	-10.4703
लूकस	-10.4703
सारखं	-10.4703
पोहच	-10.4703
हायड्र	-10.4703
विरार	-10.4703
गमाव	-10.4703
सेवक	-10.4707
ओळखपत्र	-10.4708
कुणी	-10.4711
कर्त्या	-10.4711
आपत्ती	-10.4714
मित्र	-10.4716
बाळा	-10.4719
गेल्यावर्षी	-10.4719
उंट	-10.4728
मंत्र्यांनी	-10.4733
शिक्ष	-10.4734
आदी	-10.4734
२५	-10.4745
43	-10.4747
घसा	-10.4756
घालत	-10.4769
क्लो	-10.4778
फॉर्म	-10.4791
ाऊन	-10.4819
दिसल	-10.4831
संदर्भ	-10.4854
मीडियावर	-10.4901
मोदींन	-10.4902
मृत्यूंच	-10.4969
राहण	-10.4998
४०	-10.5011
कुंभमेळ	-10.5023
एजन्सी	-10.5025
गुंतागुंत	-10.5025
मॉडेल	-10.5025
स्थलांतर	-10.5025
अंतिम	-10.5025
अतिदक्षत	-10.5025
उद्दिष्ट	-10.5025
कचऱ्याच	-10.5025
जनुकीय	-10.5025
जिल्हाधिका	-10.5025
प्लॅटफॉर्म	-10.5025
लॉकडॉऊन	-10.5025
सगळं	-10.5025
लिहिलं	-10.5025
प्लांट	-10.5025
राहणाऱ्या	-10.5025
वर्तमान	-10.5025
सामग्री	-10.5025
डायरिया	-10.5025
केरळ	-10.5026
इथं	-10.5026
वर्णन	-10.5026
नक्की	-10.5026
▁]	-10.5026
जपान	-10.5026
win	-10.5027
निधन	-10.5028
प्रतिजैविक	-10.5028
विज्ञान	-10.503
कोडिंग	-10.5032
▁–	-10.5034
▁¦500	-10.5035
मुख्यमंत्र्यांनी	-10.5039
प्पी	-10.5041
डोसेस	-10.5041
सुपर	-10.5048
चक्र	-10.5065
व्यक्ति	-10.5234
यांसारख	-10.5281
पोशिंद	-10.5343
अचूक	-10.5359
आरएनए	-10.5359
औरंगाबाद	-10.5359
नुकसान	-10.5359
प्रतिपिंड	-10.5359
प्रोत्साह	-10.5359
रेड्डी	-10.5359
रेस्पिरेटर	-10.5359
विश्वविद्यालय	-10.5359
हैदराबाद	-10.5359
निमित्त	-10.5359
शुद्ध	-10.5359
ऑगस्ट	-10.5359
पैसे	-10.5359
मिळालं	-10.5359
संकेत	-10.5359
स्वयं	-10.5359
ठोस	-10.5359
स्पेन	-10.536
आश्रय	-10.536
चांगला	-10.536
अडक	-10.5361
ढकलल	-10.5362
साहित्य	-10.5362
दबाव	-10.5363
प्रॅक्टिसेस	-10.5364
किराण	-10.5368
अटक	-10.5369
मिशन	-10.5369
शंका	-10.5374
शकणार	-10.5494
फुफ्फुस	-10.5499
दिसण्या	-10.5532
प्रतिरोध	-10.556
आफ्रिक	-10.5697
पालिके	-10.5703
पालिका	-10.5703
हस्तक्षेप	-10.5704
#	-10.5704
अॅस्ट्राझेनका	-10.5704
आंदोलन	-10.5704
ट्रेसिंग	-10.5704
व्यवहार	-10.5704
स्पुटनिक	-10.5704
ट्रम्प	-10.5704
ट्रान्स	-10.5704
तब्येत	-10.5704
दवाखान्यात	-10.5705
कचरा	-10.5705
अमित	-10.5705
विनाश	-10.5705
विद्यमान	-10.5706
रोगप्रतिकारशक्ती	-10.5707
शेतक	-10.5708
राजस्थान	-10.5708
सूत्र	-10.5709
घटकां	-10.571
बालकां	-10.5717
प्रोट	-10.5721
१४	-10.5728
सद्यस्थिती	-10.575
डॉलर	-10.576
मृत	-10.5771
वर्ध	-10.5839
पत्त	-10.5895
eu	-10.5902
नियोज	-10.5928
स्टेट	-10.6056
ोलॉजी	-10.606
ऍ	-10.6061
ऑनलाइन	-10.6061
जुलै	-10.6061
डिस्टन्सिंग	-10.6061
मजुरां	-10.6061
मायक्रो	-10.6061
शिथिल	-10.6061
कॉन्ट	-10.6061
अतिसार	-10.6061
पेशंट	-10.6061
मार्केट	-10.6061
दुपारी	-10.6061
रस्त्यावर	-10.6061
आमदार	-10.6061
मंडळा	-10.6061
सर्व्हे	-10.6061
वक्तव्य	-10.6062
सेप्ट	-10.6063
पहिल्यांदा	-10.6066
उशीर	-10.6066
बांधकाम	-10.607
संसाधन	-10.6072
स्थिर	-10.6082
पार्ट	-10.6084
78	-10.6129
मीडिया	-10.6201
कामगारां	-10.6228
टाळण	-10.6314
मराठ	-10.6365
क्रिये	-10.6368
”	-10.6397
ऩ	-10.6427
निवडणुकी	-10.6431
icmr	-10.6431
उत्परिवर्तन	-10.6431
महापौर	-10.6431
म्युकरमायकोसिस	-10.6431
वरिष्ठ	-10.6431
अनलॉक	-10.6431
राजधानी	-10.6431
इच्छा	-10.6431
स्टोअर	-10.6431
नकारात्मक	-10.6431
द्राव	-10.6431
रक्तदाब	-10.6431
मुंडे	-10.6431
टक्केवारी	-10.6431
चांगली	-10.6432
बाळग	-10.6432
घातक	-10.6433
कोर्टा	-10.6433
कुंभमेळ्यात	-10.6434
कर्ज	-10.6435
अद्यतन	-10.6436
बालरोग	-10.6436
अँटी	-10.6437
थांबवण्या	-10.6437
दुर्लक्ष	-10.6438
कोल्ड	-10.644
नोंदवण्या	-10.6441
लढण्यासाठी	-10.6441
बीटा	-10.6442
दिवसभरा	-10.6442
तणाव	-10.6453
पदार्थ	-10.651
विद्य	-10.6594
रूग्णालय	-10.6648
रोधक	-10.6659
व्हायच	-10.6663
न्याय	-10.6673
पालकमंत्र	-10.668
वर्षांवर	-10.6696
निघाल	-10.6736
संशोधकांन	-10.6781
रोगप्रतिकार	-10.6788
सुरक्षे	-10.6798
तिथं	-10.6807
फ्रंटला	-10.6816
उल्लंघन	-10.6816
कुठली	-10.6816
कृष्ण	-10.6816
दुप्पट	-10.6816
पुनावाला	-10.6816
पॅनगोलिन्स	-10.6816
सगळे	-10.6816
सिलिंडर	-10.6816
सिलेंडर	-10.6816
हुबेई	-10.6816
भविष्यात	-10.6816
भूषण	-10.6816
दोघां	-10.6816
मजूर	-10.6816
अनावश्यक	-10.6816
घालणे	-10.6816
चांगलं	-10.6816
चांगल्या	-10.6816
आनंद	-10.6816
जुना	-10.6816
चांगले	-10.6816
फूट	-10.6817
मलिक	-10.6817
नव्हे	-10.6819
कच्च	-10.6819
सांगू	-10.6832
मागितल	-10.6835
ांबाबत	-10.6839
प्रवाश	-10.685
परवान	-10.6867
झेन	-10.6869
ओळखण्या	-10.6898
tra	-10.6912
शासन	-10.7013
कल्पना	-10.7026
जिल्ह	-10.7043
२००	-10.7062
िअर	-10.7068
पहिल	-10.7109
चुक	-10.7182
संशय	-10.7214
चिकित्सा	-10.7216
कित्येक	-10.7216
क्लोरोक्वीन	-10.7216
गांधी	-10.7216
गांभीर्य	-10.7216
दृष्टीकोन	-10.7216
दृष्ट्या	-10.7216
पर्यटक	-10.7216
शुल्क	-10.7216
संवेदनशील	-10.7216
समारंभ	-10.7216
सविस्तर	-10.7216
सिंगापूर	-10.7216
प्राध्याप	-10.7216
फैलाव	-10.7216
जेसिका	-10.7216
महिले	-10.7216
निदर्शना	-10.7216
व्याधी	-10.7216
सिंह	-10.7216
जयंत	-10.7216
शांक	-10.7216
स्वरुपाच	-10.7216
कळवि	-10.7216
सर्वोच	-10.7217
२०२०	-10.7217
अर्थव्यवस्थे	-10.7218
बंध	-10.7218
वाजता	-10.7219
शोक	-10.7219
दूरस्थ	-10.7221
आफ्रिकेत	-10.7223
जिल्ह्यांमध्ये	-10.7225
जहाज	-10.7226
रियल	-10.7238
▁¦33	-10.7243
संशोधक	-10.7252
▁¦0.	-10.7299
अब्ज	-10.7302
नागरिकांन	-10.7346
मंत्रालय	-10.7374
बोलाव	-10.7399
रोखण्या	-10.7489
सांगितल	-10.7533
थकव	-10.7544
न्यायालय	-10.7564
ब्रिट	-10.7601
परीक्षे	-10.7632
कर्फ्यू	-10.7632
डिस्टंसिंग	-10.7632
विस्तृत	-10.7632
व्हीडिओ	-10.7632
सीडीसी	-10.7632
स्नायू	-10.7632
जिवंत	-10.7632
रिसर्च	-10.7632
सुरवात	-10.7632
ब्रेक	-10.7632
आपापल	-10.7632
नाईट	-10.7633
सेरोलॉज	-10.7633
कागदपत्र	-10.7633
ाऊंड	-10.7637
बुक	-10.7639
▁¦48	-10.7653
स्त्राव	-10.7691
लागण्याच	-10.7818
शिल्	-10.7931
पक्षनेत	-10.7947
ठाकरेंन	-10.7968
लावण	-10.803
संध्याकाळ	-10.8067
अध्ययना	-10.8067
उमेदवार	-10.8067
केजरीवाल	-10.8067
कोल्हापूर	-10.8067
जनजागृती	-10.8067
जॉन्सन	-10.8067
दुष्परिणाम	-10.8067
पाकिस्तान	-10.8067
शेकडो	-10.8067
समन्वय	-10.8067
सिस्टिम	-10.8067
स्कूल	-10.8067
हॉटस्पॉट	-10.8067
वंचित	-10.8067
हंगाम	-10.8067
कुठला	-10.8067
तारीख	-10.8067
धक्का	-10.8067
विलग	-10.8067
सल्ल्या	-10.8067
रविंद	-10.8067
दोष	-10.8067
ांत्रिक	-10.8067
तत्त्व	-10.8067
आवृत्ती	-10.8067
डॉक्टरांन	-10.8067
आम्ल	-10.8067
घालून	-10.8068
द्यायला	-10.8068
निर्जंतुकीकरण	-10.8068
अंमल	-10.8068
चंद्रपूर	-10.8068
वर्तन	-10.8069
रामदेव	-10.807
राज्यभरात	-10.8072
पोहोचवण्या	-10.8076
निवास	-10.8087
ियम	-10.81
▁¦400	-10.8102
द्यायच	-10.8162
वस्तूंच	-10.8194
ुरेश	-10.8206
"	-10.8219
बनवण्या	-10.8225
पसरण्याच	-10.8379
ज्ञान	-10.8515
जायच	-10.852
औ	-10.8522
जिल्हाधिकाऱ्यां	-10.8522
पिंपरी	-10.8522
अल्कोहल	-10.8522
दूषित	-10.8522
युनेस्को	-10.8522
हाँगकाँग	-10.8522
२२९ई	-10.8522
पर्यटन	-10.8522
प्रार्थना	-10.8522
दर्जा	-10.8522
अॅडव्ह	-10.8522
शस्त्रक्रिय	-10.8522
अवघड	-10.8522
बिहार	-10.8522
स्वरुपात	-10.8522
राऊत	-10.8522
मोकळ	-10.8522
राष्ट्राध्यक्ष	-10.8522
ायदेशीर	-10.8522
परवड	-10.8522
देखभाल	-10.8522
वाईट	-10.8522
सेकंद	-10.8522
कल्याण	-10.8523
बराच	-10.8523
rtpc	-10.8523
आशिया	-10.8523
चोळ	-10.8523
ायटीस	-10.8524
सामोर	-10.8525
पुनर्	-10.8525
प्रभावीपणा	-10.8527
बचाव	-10.8528
खाटांच	-10.8536
लंडन	-10.8537
वयोगटा	-10.8983
पुढच	-10.8988
ञ	-10.8989
निर्जंतुक	-10.8997
$	-10.8998
चिंचवड	-10.8998
डब्लूएचओ	-10.8998
थेरपी	-10.8998
दूतावास	-10.8998
मृतदेह	-10.8998
सुरळीत	-10.8998
हॅण्ड	-10.8998
▁¦2019-20	-10.8998
राष्ट्रवादी	-10.8998
सुट्टी	-10.8998
इंटरनेट	-10.8998
जिल्ह्य़ात	-10.8998
आरंभ	-10.8998
मेसेज	-10.8998
स्रोत	-10.8998
पावलं	-10.8998
विभाज	-10.8999
घातली	-10.8999
माणसं	-10.8999
बॅट	-10.9
सलग	-10.9001
दौर	-10.9003
सांगायच	-10.9008
कुटुंबीयां	-10.9057
्षिक	-10.9073
वंश	-10.9111
चर्च	-10.9122
स्वरूपाच	-10.9192
अधिकाऱ्या	-10.9278
अग्नि	-10.9385
रुपयांच	-10.943
खाद्य	-10.9498
http	-10.9498
ऋ	-10.9498
सुश्रुष	-10.9498
निष्क्रिय	-10.9498
पुरुषां	-10.9498
सहकाऱ्यां	-10.9498
अजिबात	-10.9498
अस्तित्व	-10.9498
कुठले	-10.9498
कृषी	-10.9498
जिवाणू	-10.9498
दृष्टिकोन	-10.9498
विधानसभ	-10.9498
सोलापूर	-10.9498
z	-10.9498
चिंताजनक	-10.9498
मल्टि	-10.9498
प्ताह	-10.9498
स्कॅन	-10.9498
जंतु	-10.9498
मोहन	-10.9498
पांडे	-10.9498
ग्लोब	-10.9499
विवेक	-10.9499
बरीच	-10.9499
कागद	-10.95
मांजर	-10.95
गुन्ह	-10.95
घरोघर	-10.9501
प्रवक्त	-10.9507
मांस	-10.9522
ठरवल	-10.9701
ियो	-10.9735
पाहत	-10.9779
पडण्या	-10.9974
द्योग	-11.0021
व्हॅक्सीन	-11.0021
दुर्दैव	-11.0024
उन्हाळ	-11.0024
सॅनिटा	-11.0024
आखाड्या	-11.0024
खोकताना	-11.0024
तालुका	-11.0024
प्राधिकरणा	-11.0024
बायोएनटेक	-11.0024
रिकव्हरी	-11.0024
हाफकिन	-11.0024
पशूजन्	-11.0024
पॅकेज	-11.0024
हरिद्वार	-11.0024
अवयवां	-11.0024
सल्लागार	-11.0024
उर्वर	-11.0024
प्रामुख्यान	-11.0024
नागरी	-11.0024
तेवढ	-11.0025
प्रधान	-11.0025
गरम	-11.0026
स्त्रोत	-11.0026
अलिकड	-11.0027
आत्तापर्यं	-11.0027
ेश्वर	-11.0029
बोटां	-11.0036
णूक	-11.0051
शिक्षणमंत्र	-11.0084
बाधितांच	-11.0172
०००	-11.0238
अद्य	-11.0276
जाणवल	-11.0301
ानंद	-11.0324
वाढण्या	-11.0366
मृतांच	-11.047
q	-11.058
gen	-11.058
आदिवासी	-11.058
तारखे	-11.058
दुरुस्त	-11.058
मेडिसिन	-11.058
eea	-11.058
एरोसोल	-11.058
कामगिरी	-11.058
कार्यकर्ते	-11.058
कौतुक	-11.058
थायलंड	-11.058
दृश्य	-11.058
न्फ्लुएन्झा	-11.058
प्रदूषण	-11.058
बाजारपेठा	-11.058
व्यवस्थित	-11.058
सज्ज	-11.058
साताऱ्यात	-11.058
सामुदायिक	-11.058
स्फोट	-11.058
हायपॉक्सिया	-11.058
जीनोम	-11.058
हायकोर्टा	-11.058
गरोदर	-11.058
संमेलन	-11.058
श्रेणी	-11.058
खोकल्या	-11.058
हल्ला	-11.058
फोर्ट	-11.058
किमती	-11.058
जीनसंच	-11.058
गरीब	-11.0581
गुप्त	-11.0581
पाऊल	-11.0582
पगार	-11.0582
ंस्कृत	-11.0699
शिकवण	-11.0701
पुरवण्या	-11.0723
खाण्या	-11.0804
महत्व	-11.082
पत्रकारां	-11.0994
अडचण	-11.1088
सद्य	-11.1089
दवाखान	-11.1166
इलेक्ट्रॉन	-11.1168
जागरूक	-11.1168
अंत्यसंस्कार	-11.1168
अहमदनगर	-11.1168
आसपास	-11.1168
औपचारिक	-11.1168
कर्नाटक	-11.1168
खवखवण	-11.1168
जावडेकर	-11.1168
डेन्मार्क	-11.1168
तृतीय	-11.1168
प्लाझ्मा	-11.1168
म्ब्युलन्स	-11.1168
रेस्टॉरंट	-11.1168
व्हेंटीलेटर	-11.1168
स्टोरेज	-11.1168
टिश्यू	-11.1168
शिफारशी	-11.1168
app	-11.1168
ili	-11.1168
बिंदू	-11.1168
mis	-11.1168
शिवसेन	-11.1168
उच्चांक	-11.1168
स्वागत	-11.1168
एनएल	-11.1168
शिवाजी	-11.1168
इथल्या	-11.1168
भागीदार	-11.1168
वर्तवल	-11.1168
टॅक्सी	-11.1168
पार्सल	-11.1168
:	-11.314
(	-11.3909
j	-11.3943
<	-11.6686
≥	-11.6686
>	-11.7797
–	-11.9012
‘	-11.9013
+	-11.9047
ॲ	-12.2142
*	-12.2142
!	-12.4108
’	-12.6608
_	-12.6642
×	-12.6642
α	-12.9975
“	-13.4942
ऎ	-13.4975
=	-13.4975
β	-13.4975
—	-13.4975
]	-14.4943
?	-14.4944
%	-14.4973
ऱ	-14.4974
~	-14.4975
ß	-14.4975
å	-14.4975
γ	-14.4975
ॉ	-14.4975
