<pad>	0
</s>	0
<unk>	0
▁	-2.52278
၊	-3.81265
ကို	-3.82142
သည်	-4.09797
သော	-4.13542
၍	-4.69401
နှင့်	-4.7253
မ	-4.91154
၌	-5.02844
ရ	-5.10766
▁အ	-5.17661
၍၊	-5.25304
၏	-5.2857
▁ငါ	-5.34605
▁မ	-5.35617
တို့ကို	-5.37322
ကြ၏။	-5.38499
အ	-5.40412
တို့သည်	-5.49174
်	-5.55411
၏။	-5.56817
ကြ	-5.64276
သား	-5.67366
တော်	-5.67748
▁ထို	-5.70895
း	-5.80754
ခြင်း	-5.84567
လေ၏။	-5.85931
ရာ	-5.89097
လ	-5.90389
စေ	-5.91789
သ	-6.01778
သို့	-6.02387
▁ထာဝရဘုရား	-6.03487
က	-6.04842
▁သူတို့	-6.05336
တ	-6.05633
ရှိ	-6.07644
▁သင်တို့	-6.11231
▁လူ	-6.11458
တော်မူ	-6.13004
မှ	-6.15406
▁မိမိ	-6.17939
အား	-6.1816
▁ငါ့	-6.18588
ပါ	-6.22382
ဖြစ်	-6.23236
တော်မူ၏။	-6.2336
သောသူ	-6.24991
တို့	-6.25743
လျက်	-6.26004
ထား	-6.28355
လျက်၊	-6.30771
လျှင်၊	-6.31156
များ	-6.33617
ပြု	-6.36176
။	-6.37618
▁ငါသည်	-6.37833
ရမည်။	-6.38578
▁သင်သည်	-6.40369
ပေး	-6.41733
▁သူ	-6.43008
ု	-6.4387
▁ကိုယ်	-6.44101
လည်း	-6.44285
▁အကျွန်ုပ်	-6.46606
▁သင်တို့သည်	-6.4669
ဗ	-6.47061
နေ	-6.47225
▁ဘုရားသခင်	-6.48176
က်	-6.489
ကြလော့။	-6.49761
▁သူတို့သည်	-6.4982
လိမ့်မည်။	-6.50087
အားဖြင့်	-6.51081
မြို့	-6.53179
့	-6.54606
ခြင်းကို	-6.55274
▁သင်၏	-6.55552
▁ပြု	-6.56327
ပင်	-6.56481
စား	-6.56961
လော့။	-6.58304
▁ထာဝရဘုရားသည်	-6.58816
က၊	-6.59337
လျှင်	-6.62111
သဖြင့်၊	-6.62267
ကဲ့သို့	-6.62635
▁နေ	-6.62768
တွင်	-6.63911
▁သူ၏	-6.64604
မည်။	-6.65027
▁တ	-6.65922
ဒ	-6.66723
ဟု	-6.66734
သွား	-6.67335
ာ	-6.67675
ိ	-6.68684
များကို	-6.68923
ံ	-6.69559
သောအခါ၊	-6.70925
ရှ	-6.71269
ယ	-6.71295
▁ရောက်	-6.73639
▁တဖန်	-6.73706
သာ	-6.7384
▁ငါတို့	-6.74034
▁ထိုသို့	-6.74514
ကြလိမ့်မည်။	-6.76081
▁ဤ	-6.77027
▁ထာဝရဘုရား၏	-6.77123
ုတ်	-6.78123
န	-6.78209
▁ထိုအခါ	-6.78895
ခြင်းငှါ	-6.79324
၎င်း၊	-6.80433
တ်	-6.80737
ဇ	-6.80794
သိ	-6.82285
ဖြစ်၏။	-6.83399
▁သင်	-6.83512
ကို၎င်း၊	-6.84168
ရ။	-6.84457
သူ	-6.8546
▁ဘုရား	-6.85494
ခံ	-6.86527
ို	-6.86877
ကလည်း၊	-6.87602
လူ	-6.88682
▁မိန့်တော်မူ၏။	-6.88939
မြင်	-6.89117
နာ	-6.89144
မည်	-6.89625
မင်း	-6.89726
ပ်	-6.89855
င်	-6.90446
န်	-6.905
နှစ်	-6.90931
မှာ	-6.90974
▁အကြောင်းမူကား၊	-6.91115
▁မိန့်တော်မူ	-6.9127
▁ကိုယ်တော်	-6.91455
ပြီ။	-6.92398
လာ	-6.93247
တော်မူသော	-6.94015
▁သူသည်	-6.94773
တတ်၏။	-6.95039
မည်ဟု	-6.95758
▁ငါ့ကို	-6.95896
ရသော	-6.96359
ထ	-6.96838
ရှိ၏။	-6.96943
သောကြောင့်၊	-6.97001
စေခြင်းငှါ	-6.97063
အဘို့	-6.97332
ခြင်း၊	-6.9839
ကြီး	-6.98936
ကား၊	-6.99212
▁သေ	-6.99253
▁ဘုရားသခင်၏	-6.99293
ဘ	-7.00588
မိ	-7.00882
ဖ	-7.01719
▁အပြစ်	-7.02246
▁သား	-7.02465
▁သင့်	-7.02853
နိုင်	-7.0298
▁ရှိ	-7.03587
▁မြို့	-7.03708
တို့အား	-7.03754
စ	-7.03869
တော်ကို	-7.03882
သောသူသည်	-7.04054
မျှ	-7.04315
ပ	-7.0554
ဘဲ	-7.05971
စွာ	-7.06129
င်း	-7.06189
လက်	-7.06975
တတ်	-7.07321
ထဲက	-7.07847
အမျိုး	-7.07935
▁ရှင်ဘုရင်	-7.08032
ခ	-7.08912
ငါ	-7.09538
ပါ၏။	-7.09696
ရေ	-7.11137
ကိုလည်း	-7.11215
▁ဣသရေလ	-7.11287
သည်လည်း	-7.12136
ဝ	-7.12407
ဆို	-7.12415
ယူ	-7.1252
ွ	-7.13618
တိုင်အောင်	-7.13858
လိုက်	-7.14702
တောင်	-7.14909
ရောက်	-7.15023
မှစ၍	-7.15303
ကြောင့်	-7.15337
▁အဘယ်သို့	-7.15523
မ်း	-7.16276
ဲ	-7.16454
ချ	-7.16901
အဘ	-7.17092
သောအခါ	-7.17493
ပြ	-7.17718
၎င်း	-7.1845
▁ရေ	-7.18784
သည်ကား၊	-7.19082
▁အလွန်	-7.19422
▁အာ	-7.20385
ဆ	-7.20431
▁ယဇ်ပုရောဟိတ်	-7.20687
ဆောင်	-7.20807
▁သွား	-7.21538
▁သူတို့ကို	-7.21763
သော်လည်း၊	-7.21893
သတည်း။	-7.22237
▁ဣသရေလအမျိုးသား	-7.22608
▁စိတ်	-7.22613
ဖြင့်	-7.22737
ဦး	-7.23182
စကား	-7.23336
ရှေ့မှာ	-7.23387
ပြီးမှ၊	-7.23591
တည်းဟူသော	-7.24229
▁ထာဝရ	-7.24526
▁အို	-7.248
ထံသို့	-7.24813
▁သင့်ကို	-7.24849
တို့၌	-7.25691
ဂ	-7.25953
တို့၏	-7.26017
ပြီးလျှင်၊	-7.26057
ဝင်	-7.2615
သေ	-7.2681
ပေါ်မှာ	-7.27476
ကား	-7.27995
ုံ	-7.28168
လုပ်	-7.28198
ပြန်	-7.28681
မူကား၊	-7.29578
တော်မူပါ။	-7.29621
ိမ်	-7.29696
▁ဖြစ်	-7.29709
ရိ	-7.3003
ကြား	-7.30145
▁လက်	-7.31419
ပြည်	-7.31502
▁သခင်	-7.32202
ည်	-7.32496
တည်း။	-7.32946
ရှိသော	-7.32947
တည်း	-7.3386
▁အသက်	-7.33902
▁ငါ၏	-7.34599
▁အဘယ်	-7.34942
▁ငါတို့သည်	-7.35113
▁ဒါဝိဒ်	-7.3515
တရား	-7.35381
တည်	-7.35459
▁ခံရ	-7.35633
သနည်း။	-7.36373
လေ	-7.36503
ေ	-7.37086
စရာ	-7.37652
ထဲသို့	-7.3886
▁သိ	-7.3938
▁ကိုယ်တော်သည်	-7.39664
▁ယခု	-7.39749
နှင့်အတူ	-7.40547
ထွက်	-7.4139
ုန်	-7.41612
▁အမှု	-7.41871
▁ပေး	-7.41948
▁တည်	-7.42274
ပြော	-7.42374
နိ	-7.42375
စကားကို	-7.42601
▁မြင်	-7.4376
အပေါင်းတို့	-7.44364
ညီ	-7.44823
အပေါင်းတို့သည်	-7.45297
နေရာ	-7.45379
မရှိ	-7.45417
မြ	-7.45504
ထက်	-7.45741
နေ့	-7.45786
▁မိမိတို့	-7.45807
▁စီရင်	-7.4599
▁ယေရုရှလင်မြို့	-7.4614
စီရင်	-7.46565
▁ပ	-7.46693
ငယ်	-7.46748
▁မိန်းမ	-7.46831
သည်ဟု	-7.47281
▁ဧ	-7.47736
▁ကောင်းကင်	-7.4811
၏သား	-7.48374
ောင်	-7.485
သောကြောင့်	-7.49147
ရ၏။	-7.4934
ရှင်ဘုရင်	-7.49588
တိုင်	-7.49683
▁သတ်	-7.49985
တတ်သော	-7.50114
လိ	-7.50573
▁ဆို	-7.50622
ရှာ	-7.50662
ချက်	-7.50715
စု	-7.51129
▁ခံ	-7.51142
ဘုရား	-7.51353
လုံး	-7.51439
သဖြင့်	-7.51575
▁ပြော	-7.51788
▁သူ့	-7.51824
စောင့်	-7.51839
ကြောင်းကို	-7.51933
ပါ။	-7.52066
▁ဣသရေလအမျိုး	-7.52116
သောသူ၊	-7.52278
ဆုံး	-7.52331
လှ	-7.5261
▁မီး	-7.52655
သည်အတိုင်း၊	-7.52726
ကျ	-7.53212
တို့တွင်	-7.53825
▁လျှောက်	-7.54622
တိုက်	-7.55063
▁မြေ	-7.56143
ရက်	-7.56538
▁အကျွန်ုပ်တို့	-7.56682
ဘို့	-7.57137
မှီ	-7.5719
ှ	-7.57672
ရော	-7.57892
▁ထိုသူ	-7.57936
▁လိုက်	-7.58008
ထာဝရဘုရား	-7.58039
ည	-7.58233
▁အဘယ်သူ	-7.58378
အလို	-7.58687
တွေ့	-7.59212
▁ကိုယ်တော်ကို	-7.59419
နည်း	-7.59635
သလော။	-7.59985
တို့နှင့်	-7.60154
လော့ဟု	-7.60188
အမှု	-7.60261
▁ထား	-7.60341
ပေါ်	-7.60704
▁ဘုရားသခင်သည်	-7.60868
▁ကိုယ်တော်၏	-7.61099
▁ကျောက်	-7.61393
ကြပြီ။	-7.6144
▁နားထောင်	-7.61747
မြို့၊	-7.61866
အရာ	-7.61871
မာ	-7.61887
▁သင်တို့ကို	-7.62531
▁အဘ	-7.62564
သည်ဖြစ်၍၊	-7.62819
တင်	-7.63114
▁ကောင်း	-7.6322
ဇာ	-7.63514
▁ပရောဖက်	-7.63975
စေခြင်းငှါ၊	-7.64112
အပြစ်	-7.64156
▁ကြား	-7.6426
ကျွန်	-7.64452
ယ်	-7.64644
ကောင်း	-7.64673
▁စား	-7.64721
▁အဘယ်ကြောင့်	-7.65047
နှင့်တကွ	-7.65449
▁လာ	-7.66199
လွန်	-7.66408
▁တရား	-7.67112
စိတ်	-7.6717
▁လုပ်	-7.67442
အတိုင်း	-7.67764
မြတ်	-7.67826
နှုတ်	-7.67978
အမှုကို	-7.68514
သုံး	-7.68716
▁မြေကြီး	-7.68723
ော	-7.68855
ဆက်	-7.69173
▁စကား	-7.69233
မရှိ။	-7.70109
အပ်	-7.70767
အိမ်	-7.70884
▁သူ့ကို	-7.70967
လိမ့်မည်ဟု	-7.71108
▁သိုး	-7.71191
▁နှုတ်	-7.71356
ကာလ	-7.71372
ကုန်	-7.71378
▁တောင်	-7.71896
လို	-7.71896
အရပ်	-7.71935
ပြီးမှ	-7.71946
သောသူတို့သည်	-7.72316
▁ထာဝရဘုရားကို	-7.72572
လေး	-7.72773
သကဲ့သို့	-7.7306
တိ	-7.731
သနည်းဟု	-7.73288
▁ကျွန်	-7.73379
စုံ	-7.73585
သမီး	-7.73615
မင်းကြီး	-7.73834
ပျက်	-7.74454
ကြ။	-7.7448
ုပ်	-7.74917
သည်အတိုင်း	-7.75771
ဘုရားသခင်	-7.75938
အရာ၌	-7.76221
ရှိသမျှ	-7.76542
ယော	-7.7677
▁နောက်တဖန်	-7.77327
▁ရှောလု	-7.77849
▁ဗိမာန်တော်	-7.7789
နား	-7.77951
တံခါး	-7.78681
သင်	-7.78872
များ၊	-7.78984
အာ	-7.79109
အမျက်	-7.7941
န်း	-7.79523
ခြင်းသို့	-7.79564
အတွက်	-7.79881
အုပ်	-7.80396
ကို၎င်း	-7.80748
အမျိုးသား	-7.80853
▁အသက်ရှင်	-7.80924
▁သန့်ရှင်း	-7.81034
လော	-7.81055
တိုင်း	-7.81118
ဟ	-7.81172
တော်မူပြီ။	-7.81453
မှတ်	-7.81479
ဟူမူကား၊	-7.82152
သော်၊	-7.82156
▁ငွေ	-7.82258
ကာ	-7.82466
▁ဘ	-7.8262
▁စောင့်	-7.82637
အပေါ်မှာ	-7.827
သတ်	-7.83022
သခင်	-7.83163
▁ရွှေ	-7.83652
▁အကြောင်း	-7.83769
မြေ	-7.83819
▁အကျွန်ုပ်သည်	-7.83877
ဝန်	-7.83977
အချိန်	-7.84028
နိုင်ငံ	-7.84116
မည်အကြောင်း၊	-7.84565
သမျှ	-7.84783
▁တိုက်	-7.84888
ွေ	-7.84953
▁အကျွန်ုပ်ကို	-7.85201
ငါး	-7.85228
▁မင်း	-7.85435
▁ထ	-7.85648
ဘွား	-7.85874
ရလိမ့်မည်။	-7.8596
▁ကျ	-7.85964
သင့်	-7.86145
▁သ	-7.86232
ရပ်	-7.86534
ိတ်	-7.86953
▁အရာ	-7.86986
ရှေ့	-7.87164
ပယ်	-7.87225
▁မျက်နှာ	-7.87463
ကိုယ်	-7.87543
▁ပြ	-7.87715
ဖြစ်စေ၊	-7.87743
ခံရ	-7.88052
▁ထိုသူသည်	-7.88123
ကြွ	-7.88394
အပေါင်းတို့ကို	-7.88465
လင်	-7.88633
▁ရှာ	-7.88696
ော်	-7.88772
ဘက်	-7.88902
သစ်	-7.88922
နောက်	-7.89304
စ်	-7.89392
▁သင်တို့၏	-7.89469
ပြုသော	-7.89547
ောက်	-7.89808
▁ယေ	-7.89936
ရကြမည်။	-7.90072
ရှင်	-7.9047
▁ပြည့်စုံ	-7.90591
▁နွား	-7.9063
မည်အကြောင်း	-7.90825
မြို့သို့	-7.91657
ခြောက်	-7.92116
လမ်း	-7.92209
▁ပူဇော်	-7.92465
▁အာရုန်	-7.92687
▁က	-7.92767
မျိုး	-7.93055
▁တော	-7.93147
▁အမျိုး	-7.93245
ပေါင်း	-7.93265
▁ထိုသူတို့သည်	-7.93283
မိန်းမ	-7.9346
သီး	-7.93495
▁မူ	-7.93513
▁သန့်ရှင်းသော	-7.93579
လည်း၊	-7.9358
မျက်နှာ	-7.93825
▁လူများ	-7.94112
ထဲမှာ	-7.94472
တဘက်၌	-7.94479
▁အခြားသော	-7.95251
သားတို့သည်	-7.9529
ကောင်	-7.95307
▁ယာကုပ်	-7.95494
ပြင်	-7.95511
▁ယုဒ	-7.95543
▁ဆောင်ခဲ့	-7.95656
ခုနစ်	-7.95707
သိမ်း	-7.95718
▁မည်။	-7.95765
ပိုင်	-7.95837
▁ချီးမွမ်း	-7.95969
ဆိုင်	-7.96305
▁လူမျိုး	-7.9634
သည်ကို	-7.9687
တူ	-7.97093
ရှု	-7.9718
▁ဝင်	-7.97321
ီး	-7.97495
အပေါင်း	-7.97575
▁သူတို့၏	-7.97627
နှစ်ယောက်	-7.97801
တန်ဆာ	-7.97879
▁ထင်ရှား	-7.97921
ရှေ့တော်၌	-7.98008
လှည့်	-7.98459
▁မောရှေ	-7.98504
ကြပါ၏။	-7.98537
လာ၍	-7.98709
▁တဲတော်	-7.98898
လျှောက်	-7.98952
▁ပြောဆို	-7.98967
မှန်	-7.99
▁ထွက်	-7.99236
▁သူတပါး	-7.99479
▁တွေ့	-7.99713
မ္မ	-7.99768
▁ထိုကြောင့်	-7.9981
▁လေ	-7.99919
▁အဘယ်သူမျှ	-8.00022
▁ကာလ	-8.00176
▁ယော	-8.00177
▁ယနေ့	-8.00436
ဖြစ်သော	-8.00548
ချစ်	-8.00606
အရပ်၌	-8.00724
▁အား	-8.00904
ူး	-8.00969
ပြည်၌	-8.01251
ဂါ	-8.01344
ပြီဟု	-8.01464
ချုပ်	-8.01489
▁သို့ဖြစ်၍	-8.01599
▁ကျွန်တော်	-8.01789
▁အိမ်	-8.018
နှင့်။	-8.01954
▁ပူဇော်သက္ကာ	-8.02277
ောင်း	-8.02298
▁နာ	-8.02433
သော်လည်း	-8.02585
▁ဖျက်ဆီး	-8.02595
▁စေလွှတ်	-8.02778
ပုံ	-8.02858
အသက်	-8.02982
တပ်	-8.03163
▁ကယ်တင်	-8.03185
လျက်နေ	-8.03973
ခါ	-8.04548
တော	-8.04671
▁အပ်	-8.04873
သမျှသော	-8.05025
သွား၍	-8.05176
ဘူး	-8.05334
ထွက်၍	-8.05373
လည်	-8.05484
▁ယဇ်	-8.05794
အကြံ	-8.05996
လက်မှ	-8.06171
စေလွှတ်	-8.06243
▁ဟောပြော	-8.06301
မြင့်	-8.06357
ဟိ	-8.06544
ထောက်	-8.06632
▁တပါးအမျိုးသား	-8.07028
ချင်း	-8.07137
ဖြတ်	-8.07177
မသိ	-8.07338
ဖြစ်၍၊	-8.07464
ရွာ	-8.07498
သူတို့	-8.07672
▁မိ	-8.07744
▁ခေါ်	-8.07807
ကြနှင့်။	-8.08009
သကဲ့သို့၊	-8.08066
▁ကျင့်	-8.08157
ဘက်၌	-8.08266
ဘဲနေ	-8.08356
▁ပြစ်မှား	-8.08375
ရမည်	-8.08405
ပါပြီ။	-8.08447
ပါး	-8.08454
ကျင့်	-8.08519
တပါး	-8.08569
▁ပညာ	-8.09022
လွတ်	-8.09117
▁မေး	-8.09483
ခဲ့	-8.09742
▁အစဉ်	-8.09753
မယား	-8.09765
မြောက်	-8.09793
▁ဝမ်းမြောက်	-8.09853
▁ရန်သူ	-8.09888
▁မိုဃ်း	-8.10067
▁နား	-8.10089
▁ခမည်းတော်	-8.10321
▁မီးရှို့	-8.1047
နှ	-8.10494
ဆိုး	-8.10516
တရားကို	-8.10716
ရန်	-8.10931
နားမှာ	-8.10959
ခေါ်	-8.11042
အောင်	-8.1114
ခြင်းနှင့်	-8.11383
▁ပြည်	-8.11435
▁ယောက်ျား	-8.11562
▁ပြန်	-8.1158
ပြီး	-8.11612
▁ယဇ်ပလ္လင်	-8.11793
ခြေ	-8.11816
သဘော	-8.11908
▁ဟု	-8.11976
လွှတ်	-8.12042
▁ပြေး	-8.12097
င	-8.12114
ဝတ်	-8.12309
▁သစ္စာ	-8.12462
သက်	-8.12791
▁ဘုရားသခင်ကို	-8.13024
▁စိတ်နှလုံး	-8.13184
လိမ့်	-8.13386
မဟုတ်	-8.13426
လွှဲ	-8.13431
ရကြ၏။	-8.13431
ဥစ္စာ	-8.1344
▁ကြည့်ရှု	-8.13468
အပြစ်ကို	-8.13556
▁သို့ရာတွင်	-8.13608
ရဲ	-8.13937
လဲ	-8.14001
မက်	-8.1406
နေသော	-8.14198
ြ	-8.14203
မပြု	-8.14445
ကျောက်	-8.14577
ဧ	-8.14784
ရှိသမျှတို့ကို	-8.1479
္	-8.14825
စီး	-8.14873
▁စစ်တိုက်	-8.15013
ဟော	-8.1502
ဝေး	-8.15035
မှတပါး	-8.15183
တဆယ်	-8.15379
နှစ်ဆယ်	-8.15586
▁အိမ်တော်	-8.15723
အံ့	-8.15864
▁ကျွန်ုပ်	-8.15934
▁ကြ	-8.15994
ပွဲ	-8.16295
ခွက်	-8.16349
သက်သေ	-8.16581
ဆင်း	-8.1678
ဆို၏။	-8.16977
▁ထာဝရဘုရားအား	-8.17152
▁ထိုသူတို့	-8.17158
ဏ္	-8.17329
စေမည်။	-8.17372
▁သို့သော်လည်း	-8.17435
▁အရှင်ထာဝရဘုရား	-8.17555
▁န	-8.17665
▁ခ	-8.17711
▁ဆင်းရဲ	-8.17755
ပြု၍	-8.17864
▁ရှေ့တော်၌	-8.17889
▁ဆုတောင်း	-8.17918
ျ	-8.18045
▁ဆောင်	-8.18133
သံ	-8.18301
▁ရှေ	-8.18305
▁ပင်လယ်	-8.18373
စာ	-8.18445
▁တိရစ္ဆာန်	-8.18746
ခု	-8.19041
သားတို့	-8.19093
အဆွေအမျိုး	-8.19152
▁လေဝိသား	-8.19215
ပလ္လင်	-8.19273
▁ယောသပ်	-8.19643
▁တံခါး	-8.19771
တတ်ကြ၏။	-8.19781
ဖြစ်စေ	-8.19803
ခြင်းရှိ	-8.19847
အသက်ကို	-8.19884
ေလ	-8.20185
တွင်၊	-8.20229
နာမ	-8.20302
▁ညှဉ်းဆဲ	-8.20627
▁ဆုံးမ	-8.20796
▁ခရစ်တော်	-8.20893
▁တပ်	-8.20978
ား	-8.21024
စီ	-8.21152
▁ချ	-8.21322
စွဲ	-8.21327
ပြား	-8.21358
ပါဟု	-8.21468
▁ခြေ	-8.21753
▁ယေရှု	-8.21832
စရာဘို့	-8.22065
တန်ခိုး	-8.22155
တော်သည်	-8.22155
▁ကောင်းကင်တမန်	-8.22486
မြို့၌	-8.2259
လု	-8.22903
အချို့	-8.22995
၌၎င်း၊	-8.22997
▁ယုဒပြည်	-8.23271
ရှိရာသို့	-8.23314
ယူ၍	-8.23331
ပြည်သို့	-8.23459
ခြင်းငှါ၊	-8.23483
ဖွင့်	-8.23573
လူတို့	-8.23591
လျက်ရှိ၏။	-8.23757
တော်မူမည်။	-8.23879
ပျောက်	-8.24019
▁စ	-8.24264
ဖြစ်သတည်း။	-8.24291
▁ယေရှုသည်	-8.2447
▁သူငယ်	-8.24494
ွန်	-8.24544
▁နောက်	-8.24634
ဒ်	-8.24924
သောသူတို့ကို	-8.25061
ူ	-8.25124
ဖြစ်ကြ၏။	-8.25356
ပါမည်။	-8.258
ပျို	-8.25813
▁လွှတ်	-8.25938
▁တယောက်	-8.26007
ချင်	-8.2607
▁မုန့်	-8.26077
မည်နည်း။	-8.26523
သောအရာ	-8.26655
အံ့သောငှါ	-8.26741
ဆွဲ	-8.26779
ဒေ	-8.26786
ဟူ၍	-8.26935
ည်း	-8.26943
ိုင်း	-8.27165
ကိုမျှ	-8.27337
▁ချစ်	-8.27338
ဲ့	-8.27341
ထင်	-8.27481
▁ကိုယ်ကို	-8.27878
သောသူတို့	-8.27943
▁ယောရှု	-8.28181
ပြီ	-8.28356
▁ဟော	-8.28681
ကျေးဇူး	-8.28714
ျာ	-8.2895
▁စကားကို	-8.29011
▁သက်သေခံ	-8.29076
၌ရှိသော	-8.29213
ယာ	-8.29266
ပြည့်	-8.29306
ဒိ	-8.29391
▁သုံး	-8.29426
▁လမ်း	-8.29459
သည်လည်း၊	-8.29561
▁အဝတ်	-8.30036
စဉ်	-8.30428
လျက်ရှိ	-8.30435
▁ကြောက်ရွံ့	-8.30441
စစ်	-8.30447
▁အောက်မေ့	-8.30531
တဲ	-8.30677
▁ခန့်ထား	-8.30884
အမျိုးအနွယ်	-8.30974
▁ထိုင်	-8.31256
ဘေး	-8.31417
▁ရှောလမုန်	-8.31441
ဆေး	-8.31514
တယောက်	-8.31539
တံ	-8.31728
▁မူ၏။	-8.32028
၏ဟု	-8.32162
ိညာဉ်	-8.32242
သန့်ရှင်း	-8.32276
ဒဏ်	-8.32289
ပတ်လုံး	-8.32353
▁အကျွန်ုပ်၏	-8.32353
▁အာဗြဟံ	-8.32416
မြို့သား	-8.32436
ဖျက်	-8.32896
ခြ	-8.32986
ပြန်၍	-8.33011
▁ဒါဝိဒ်သည်	-8.33134
▁သာ၍	-8.33189
ရေး	-8.33568
ဆန်	-8.33659
ဘွယ်	-8.33695
ပါစေသော။	-8.3376
▁အနာ	-8.33796
▁တင်	-8.33808
▁ကိုယ်တိုင်	-8.33835
▁မိုဃ်းကောင်းကင်	-8.33928
▁ဟာ	-8.33997
မူကား	-8.34059
▁သခင်ဘုရား	-8.34085
ခဲ	-8.34289
မွေး	-8.34328
▁အဲဂုတ္တုပြည်	-8.34397
ီ	-8.34662
သေး	-8.34747
▁အိုထာဝရဘုရား၊	-8.34883
ရှေ့၌	-8.34975
▁စစ်	-8.35051
▁ထွက်သွား	-8.35348
ပေါက်	-8.35412
စည်း	-8.35487
ကြလော့ဟု	-8.35684
အရှင်	-8.35705
သောက်	-8.35705
အရာကို	-8.36071
ဖျက်ဆီး	-8.36092
ရိတ်	-8.36209
ကြိုး	-8.36252
ရကြလိမ့်မည်။	-8.36443
▁ငါ့အား	-8.36478
မိုက်	-8.36563
ခံရသော	-8.36606
မခံ	-8.36658
လက်သို့	-8.36691
တခု	-8.36726
ပန်း	-8.3678
ညစ်ညူး	-8.36895
▁အကယ်စင်စစ်	-8.36895
ရိုး	-8.37048
▁ဥစ္စာ	-8.37082
▁ထိုကြောင့်၊	-8.37091
နယ်	-8.37129
▁ဣသရေလအမျိုး၏	-8.37171
စေ့	-8.37372
တော်မူ၍၊	-8.37675
▁မြစ်	-8.37748
တော်မမူ	-8.37752
ရာအရပ်	-8.37802
▁ကဲ့ရဲ့	-8.37898
▁ခပ်သိမ်းသော	-8.3807
▁ဆီ	-8.38296
▁ဂိ	-8.38452
ချိုင့်	-8.38471
အမျိုးမျိုး	-8.38652
ကယ်	-8.38684
ရှက်	-8.38733
တော်၌	-8.38937
▁နန်းတော်	-8.38993
ကြည့်	-8.39265
ဘဲ၊	-8.3975
မိန့်တော်မူ	-8.39814
▁သင်၏ဘုရားသခင်	-8.39829
▁မြော်လင့်	-8.39869
▁ပေါလု	-8.39869
▁စပျစ်ရည်	-8.399
ပါသည်ဟု	-8.39998
▁အသွေး	-8.40213
▁သို့မဟုတ်	-8.40259
ရှောင်	-8.40298
▁ဝ	-8.40387
နိုင်သော	-8.40445
ရကြ	-8.40459
စေဟု	-8.40503
ရမည်ဟု	-8.40887
▁အရင်	-8.40968
▁ဝတ်	-8.41025
ငါ့	-8.41063
တွင်း	-8.41102
▁ဝိညာဉ်တော်	-8.41122
တ္တ	-8.41131
လင်း	-8.4129
▁မေ	-8.41306
ဆယ်	-8.41411
▁အရပ်	-8.41501
ငှက်	-8.41583
ဝိညာဉ်	-8.41699
▁ဗေ	-8.41784
တောင်း	-8.41977
တကောင်	-8.42134
မည်လော။	-8.42146
▁အကျိုး	-8.42232
တို့၊	-8.42262
အခွင့်	-8.42282
ဖန်	-8.42326
များပြား	-8.42337
လာ၍၊	-8.42338
▁မတရားသော	-8.4262
ခင်ပွန်း	-8.42655
ဟာ	-8.42922
▁တက်	-8.43287
တို့သည်လည်း	-8.43428
ရှိသမျှကို	-8.43507
▁ဘေး	-8.43831
▁နှစ်	-8.44018
ပေးတော်မူ	-8.44036
ချိန်	-8.44114
နက်	-8.44232
▁ထိုမိန်းမ	-8.44292
ကြပါ	-8.44631
လေပြီ။	-8.44734
▁ကျေးဇူး	-8.44918
ပညတ်	-8.45023
ေး	-8.45046
လူမျိုး	-8.45082
▁သင်၌	-8.45426
မော	-8.45452
▁လေး	-8.45458
▁ပြန်ပြော	-8.45509
▁ညီအစ်ကို	-8.45592
▁ဟေ	-8.45647
▁ထိုနောက်	-8.45762
ပြစ်မှား	-8.45861
▁ဧဖရိမ်	-8.45943
သင်တို့	-8.46095
လူတို့သည်	-8.46104
ထွန်း	-8.46142
ပေ	-8.46152
ဖြစ်တော်မူ၏။	-8.46176
ချောင်း	-8.46188
ကပ်	-8.46219
မရှိ၊	-8.46299
▁ပေတရု	-8.46502
ထူး	-8.4659
▁ဥာဏ်	-8.46703
▁အစဉ်အမြဲ	-8.46768
ဖွဲ့	-8.47057
ဟူသော	-8.47069
ဏ	-8.47289
▁သားတော်	-8.47296
▁ကျွန်မ	-8.47492
ရစ်	-8.4756
တို့ကို၎င်း၊	-8.47569
သောသူကို	-8.47614
ကဲ့သို့၎င်း၊	-8.4769
မင်္ဂလာ	-8.47726
ချိုး	-8.47746
လက်၌	-8.47761
တော်မူလျှင်၊	-8.47819
▁ထုတ်	-8.47961
ရကြ။	-8.48095
▁စင်ကြယ်	-8.48128
▁မှတ်	-8.48184
များတို့သည်	-8.48195
▁အမျိုးသား	-8.48233
ပညာ	-8.48313
▁မီးရှို့ရာယဇ်	-8.48394
စက်	-8.48449
ဥစ္စာကို	-8.48524
အတွင်း	-8.48646
ခြင်းအမှု	-8.48804
ပြုစု	-8.48885
▁မယား	-8.48911
▁ငါတို့ကို	-8.49114
စေ၍၊	-8.49257
မုန်း	-8.49395
ဆင်	-8.4944
▁ထောင်	-8.49484
▁သင်တို့အား	-8.49651
ဝိုင်း	-8.49681
ကြလိမ့်မည်ဟု	-8.49775
▁မသိ	-8.49858
▁ဧလ	-8.49926
ဒါဝိဒ်	-8.50065
▁ရောက်လာ	-8.5009
သားကား	-8.50098
ကင်ဗိုလ်ခြေအရှင်	-8.5011
?????????	-8.50173
▁အမျက်တော်	-8.50185
မုန့်	-8.50188
▁အတိုင်း	-8.5023
သွင်း	-8.50379
ထို	-8.50443
ပြင်းစွာ	-8.50506
နင်း	-8.5077
▁ထိုသို့သော	-8.50835
နည်း။	-8.51029
ညဉ့်	-8.51674
စေ။	-8.51706
▁ကျိန်ဆို	-8.51796
▁ဣသ	-8.51892
ပြီးလျှင်	-8.52023
မြစ်	-8.5228
▁အချင်းချင်း	-8.52288
▁ပြင်ဆင်	-8.5229
▁ဗာဗုလုန်	-8.52299
အရပ်သို့	-8.5231
လုလင်	-8.52314
လူတို့ကို	-8.52397
ငြိမ်း	-8.52447
ခွဲ	-8.52476
စေသော	-8.52608
▁ယုဒရှင်ဘုရင်	-8.52963
မျက်	-8.52985
▁ပညတ်တရား	-8.53122
အိမ်သို့	-8.53197
▁ယာ	-8.53208
ထိ	-8.53305
ပြည်ကို	-8.53362
▁အဲဂုတ္တု	-8.53412
▁များစွာသော	-8.53461
အစရှိသော	-8.53471
▁လုပ်ကြံ	-8.53472
အလယ်၌	-8.53525
▁ပရိသတ်	-8.53529
ဝေ	-8.53728
ကူး	-8.53804
မီး	-8.53885
ဆရာ	-8.53915
▁ယုံကြည်ခြင်း	-8.54046
▁လောကီ	-8.54072
တရာ	-8.54114
▁ယော်ဒန်မြစ်	-8.5467
▁ဘိုးဘေးတို့	-8.54959
▁မြင်း	-8.55124
ါ	-8.55223
▁ဤအမှု	-8.55243
အောက်	-8.55317
မျက်စိ	-8.55363
▁ကောင်းကြီးပေး	-8.55463
▁မျက်စိ	-8.55808
▁ဝန်ခံ	-8.55911
▁လုယူ	-8.55929
▁ကောင်းသော	-8.55937
▁လိမ့်မည်။	-8.5595
ပါစေ။	-8.55979
သောသူဖြစ်	-8.55995
ရှိသမျှတို့သည်	-8.56089
များနှင့်	-8.56112
▁လည်း	-8.56156
▁စပါး	-8.56251
▁ယုံကြည်	-8.5633
ခရိုင်	-8.56358
နောက်သို့	-8.5644
ပွင့်	-8.5651
ခတ်	-8.56631
▁ထိုမြို့	-8.56826
အပေါ်သို့	-8.56911
▁အောင်	-8.56986
ထားသော	-8.56995
တဘက်	-8.57127
ပတ်	-8.57304
ပူဇော်	-8.57332
စေတော်မူ	-8.57389
ဇိ	-8.5741
အိုး	-8.57445
▁သို့သော်လည်း၊	-8.57463
တက်	-8.57498
▁သတိ	-8.57501
▁မောရှေသည်	-8.57576
တို့က၊	-8.57599
ရွက်	-8.57657
လူအပေါင်းတို့သည်	-8.57665
▁သံ	-8.57736
▁မပြု	-8.57856
သလောဟု	-8.57952
▁သူတို့အား	-8.57984
ရှစ်	-8.57998
သိုး	-8.58055
အမိန့်တော်	-8.58341
▁ယေရှုခရစ်	-8.58386
▁မြည်း	-8.58412
ရဟု	-8.58419
▁မခံ	-8.5848
▁သွား၍	-8.58911
ခိုး	-8.58945
ကြာ	-8.58976
ဗာ	-8.59097
ကာလ၌	-8.59121
စေတော်မူ၏။	-8.59247
သံကို	-8.59465
လောက်	-8.59615
ဖြေ	-8.59647
▁ဂေ	-8.59674
သောအမှု	-8.59742
စပ်	-8.59748
▁မောရှေအား	-8.59859
ွန်း	-8.59909
▁ဗိုလ်	-8.59927
▁တောင်း	-8.60007
▁ချီးမြှောက်	-8.60104
ဆောင်ခဲ့	-8.60113
ထ၍	-8.60132
မပြော	-8.60152
မိန့်တော်မူ၏။	-8.60239
ခိုင်ခံ့	-8.60296
▁နံနက်	-8.60297
သွား၍၊	-8.60331
မှီတိုင်အောင်	-8.60354
▁သိမ်းယူ	-8.60357
ထိုင်	-8.60426
ရှောက်	-8.60439
▁မစင်ကြယ်	-8.60464
▁အသီး	-8.60501
ဝင်၍	-8.60545
▁ဣ	-8.60576
▁သဘော	-8.60798
အမွေခံ	-8.60883
၏ဘုရားသခင်	-8.61004
▁တပည့်တော်တို့	-8.61113
ဖြစ်လိမ့်မည်။	-8.61129
တော်မူသဖြင့်၊	-8.61164
တေ	-8.61274
▁မုသာ	-8.61304
နိုင်။	-8.61348
ထင်ရှား	-8.61363
ငွေ	-8.61484
နှင့်အညီ	-8.61574
သည်မဟုတ်။	-8.61694
အစ်ကို	-8.61787
ပိ	-8.61943
သန်	-8.61995
▁ကြွေးကြော်	-8.62031
▁မင်းကြီး	-8.62075
▁ခွန်အား	-8.62112
▁အသံ	-8.62151
ဗိုလ်ခြေ	-8.62164
လူ၊	-8.62227
ခေါင်း	-8.62242
အချိန်၌	-8.62333
စည်းစိမ်	-8.6234
အလုံးစုံတို့ကို	-8.62352
ဘိ	-8.62597
ရင်း	-8.62606
▁ထိုသူကို	-8.62654
သို့ရောက်	-8.62757
▁ဆင်း	-8.62849
ဆိုလျှင်၊	-8.6287
ကျွေး	-8.62901
▁ထာဝရဘုရားမိန့်	-8.6295
ညီအစ်ကို	-8.63017
▁အမွေ	-8.63098
▁သောက်	-8.63283
ွယ်	-8.6333
▁ဆောင်ရွက်	-8.6338
မြင်လျှင်၊	-8.63545
ဖုံး	-8.63563
ဆောက်	-8.63652
အိမ်၌	-8.64002
ဟူ၍၎င်း၊	-8.64035
▁အုပ်စိုး	-8.64052
နေ့ရက်	-8.64111
နီး	-8.64111
ပြေး	-8.6434
မရှိဘဲ	-8.64343
▁စာ	-8.64381
မနေ	-8.64406
▁သို့ဖြစ်၍၊	-8.64445
ဆီသို့	-8.64452
▁ပြန်လာ	-8.64637
အမှုအရာ	-8.64676
အဝတ်ကို	-8.64724
▁အမိ	-8.64732
▁ငါမ	-8.64809
သီချင်း	-8.64874
▁နားမထောင်	-8.64949
▁သိုးသငယ်	-8.6503
ပြောင်း	-8.65043
▁ကြောက်	-8.65082
အမျိုးသားတို့	-8.65201
မေး	-8.65259
ဌာန	-8.65268
ဒေါ	-8.65541
▁စောင့်ရှောက်	-8.65625
▁မြောက်	-8.65687
▁ဗာ	-8.65936
ယောက်ျား	-8.66021
▁ပညာရှိ	-8.66232
သုံးဆယ်	-8.66375
▁ယူ၍	-8.66382
▁ကျေးဇူးတော်	-8.66524
▁အဲဂုတ္တုပြည်မှ	-8.66607
▁လွတ်	-8.66867
▁မင်္ဂလာရှိ	-8.66891
▁ကြေးဝါ	-8.66943
ဖလား	-8.66947
ရှိ၍၊	-8.67378
▁လယ်	-8.67402
▁ဟ	-8.6743
ပု	-8.67626
မူ	-8.6769
▁သိမ်းသွား	-8.67698
အကြောင်းကို	-8.6774
အဆွေ	-8.67742
▁အသီးအသီး	-8.67798
ဆင်ခြင်	-8.68103
▁သင်တို့၌	-8.68112
စိတ်နှလုံး	-8.68131
ပစ်	-8.68136
များစွာ	-8.68144
▁ထိုမင်း	-8.68192
တို့ကိုလည်း	-8.68259
▁ယ	-8.68278
စိုက်	-8.6833
▁ရှုရိ	-8.68338
▁ဒုစရိုက်ကို	-8.68374
အမည်ရှိသော	-8.68449
ဥပုသ်နေ့	-8.68471
▁ချီ	-8.68595
ဖာ	-8.68616
▁ထိုပြည်	-8.68672
▁အတူ	-8.68832
ဗျာဒိတ်	-8.68912
▁သင်တို့တွင်	-8.69019
▁ရေးထား	-8.69071
▁ကိုးကွယ်	-8.69167
သူအပေါင်းတို့သည်	-8.69175
ခေါ်၍	-8.69215
▁မှန်	-8.69254
တော်မမူ။	-8.6926
ယဇ်	-8.69393
သားတို့ကို	-8.69488
ရင်	-8.69644
ပြည်၊	-8.69686
လက်နက်	-8.69785
န့်	-8.69846
▁ဒုစရိုက်	-8.69903
ဆန့်	-8.70007
ကြွင်း	-8.70069
သောသူ၏	-8.70126
▁ပျက်စီး	-8.70324
▁ပေးတော်မူ	-8.70361
တံခါးဝ	-8.704
နေ၏။	-8.70454
လောင်	-8.70536
▁ရန်သူတို့	-8.70565
▁ဤသို့	-8.70695
အားကြီး	-8.70792
▁စည်းဝေး	-8.70817
အမျိုး၊	-8.71619
▁အော်ဟစ်	-8.71824
အမည်	-8.71871
▁မှောင်မိုက်	-8.71874
စေ၏။	-8.71942
▁သနား	-8.72032
▁ကိုယ်တော်ကျွန်	-8.72169
အကြီး	-8.72212
င့်	-8.723
▁ခြင်္သေ့	-8.723
လိုက်၍	-8.72306
ဟေ	-8.72478
ခါး	-8.72494
▁ကြီးစွာသော	-8.72635
▁တောင်းပန်	-8.72681
ထက်သာ၍	-8.72688
မြို့ရွာ	-8.72799
စာကို	-8.72985
တယောက်သည်	-8.73037
ဝယ်	-8.73216
သမား	-8.73334
လယ်	-8.73345
လျော့	-8.73405
▁တော၌	-8.73447
စွန့်ပစ်	-8.73459
ရသောအခွင့်	-8.73488
▁ထိုအမှု	-8.73591
မတ်	-8.73609
▁နှစ်သက်	-8.73654
စဉ်တွင်၊	-8.73664
▁နှုတ်ကပတ်တော်	-8.73821
▁နေရ	-8.73865
မြို့နှင့်	-8.73958
တထောင်	-8.74066
မှု	-8.74137
စင်	-8.74241
▁ထ၍	-8.74333
ဒန်	-8.74511
အကျိုးကို	-8.74676
ရောက်သောအခါ၊	-8.74798
အသီး	-8.74855
တော်မူခြင်း	-8.74889
▁အချိန်	-8.74893
အခါ	-8.74899
ငါးဆယ်	-8.74952
ွင်း	-8.75165
ပို	-8.7555
▁လူအပေါင်းတို့	-8.75579
▁အခွင့်	-8.75613
▁ပါ	-8.75786
▁ညီအစ်ကိုတို့	-8.75962
အမျိုးသား၊	-8.76207
▁ဘုရားသခင့်	-8.76229
▁အထက်က	-8.76309
▁ယောဟန်	-8.76323
▁နှလုံး	-8.76516
▁ဣသရေလရှင်ဘုရင်	-8.76593
▁သွင်း	-8.7675
လိမ့်မည်	-8.76781
ကြဲ	-8.76949
ဖန်ဆင်း	-8.76984
▁ဖ	-8.77093
တန်	-8.77127
▁ထမြောက်	-8.77151
လုပ်သော	-8.77245
ုန်မြို့	-8.77248
အမျိုးသားတို့သည်	-8.77367
▁ငါ့သား	-8.77422
▁ထိုအ	-8.77425
ယေရှု	-8.77464
▁ဥ	-8.77581
▁နေကြ၏။	-8.77625
▁တာ	-8.7766
မြည်	-8.77666
ပေါ်သို့	-8.77677
စဉ်၊	-8.77761
▁ကျေးဇူးပြု	-8.77767
တမန်	-8.77779
▁ငါ့စကားကို	-8.77891
ပြည့်စုံ	-8.77935
▁ယေရှုကလည်း၊	-8.78033
▁နိုင်ငံတော်	-8.78046
▁ရွှင်လန်း	-8.78145
အပေါ်၌	-8.78162
▁ခေါင်း	-8.78317
▁ဆယ်	-8.78394
တပည့်	-8.78559
အလုံးအရင်း	-8.78592
တော်မူပါဟု	-8.78603
ကွဲပြား	-8.78608
တာ	-8.78612
ကျိန်	-8.78656
မဟုတ်။	-8.78701
▁ယေရုရှလင်မြို့၌	-8.7873
ထဲ၌	-8.78741
သော်၎င်း၊	-8.78869
▁ဖြောင့်မတ်သောသူ	-8.79045
▁မကောင်းသော	-8.79082
ရှိကြ၏။	-8.79236
▁သို့	-8.79265
▁ဖြောင့်မတ်ခြင်း	-8.79269
▁ထိုအရပ်၌	-8.79298
▁ဖိလိတ္တိလူတို့	-8.79366
▁ဖိလိတ္တိ	-8.79369
▁ယဇ်ပူဇော်	-8.79409
အသွေး	-8.79497
▁အရှင်	-8.79513
▁ဖြစ်၏။	-8.79531
ဘော်	-8.79621
အနားမှာ	-8.79693
မည်နည်းဟု	-8.7973
▁ပစ်	-8.79799
အကြောင်းအရာ	-8.79831
ဆီ	-8.79845
▁ကြောင့်၊	-8.79893
သနား	-8.79945
▁ရထား	-8.79951
တ္တိ	-8.80067
ကြံစည်	-8.80149
▁ဆက်	-8.80252
▁အိပ်	-8.80256
▁မှာထား	-8.80336
မြွက်ဆို	-8.80383
ဖြစ်သည်ဟု	-8.80392
ကွာ	-8.80428
စေနှင့်။	-8.80474
အသံကို	-8.80647
▁ဆို၏။	-8.80762
သေတ္တာ	-8.80763
မှာထား	-8.80764
တောင်ပေါ်မှာ	-8.80991
▁ငိုကြွေး	-8.81052
▁နေရာ	-8.81153
ကန်	-8.81209
မျက်နှာကို	-8.81261
▁ချမ်းသာ	-8.81353
▁လက်ျာ	-8.81366
▁ရှိသော	-8.81404
အကြောင်း	-8.81453
ပေးလိုက်	-8.8149
▁ရုပ်တု	-8.81549
▁အလျင်အမြန်	-8.8173
နှောင့်ရှက်	-8.8173
ဘုန်း	-8.81821
▁အာရ	-8.81833
ပို့	-8.8188
▁ကြားပြော	-8.81947
ကျပ်	-8.82015
သော်	-8.82187
ပါ၏ဟု	-8.82478
▁နာမတော်	-8.82513
ဖြူ	-8.82531
▁ထိုမှတပါး၊	-8.82545
▁အမှုကို	-8.82624
နေ့၌	-8.82658
▁လက်တော်	-8.82815
အခန်း	-8.8283
▁အသက်ကြီး	-8.82908
သာ၍	-8.82961
စစ်ကြော	-8.83302
သတ္တဝါ	-8.83337
▁လူများတို့သည်	-8.83367
ကြောင်း	-8.83466
ပူဇော်သက္ကာ	-8.83565
မင်းကြီးသည်	-8.83769
ရှေ	-8.83791
▁ယုဒလူတို့	-8.84052
တစုံတယောက်	-8.84058
ရှုံး	-8.84148
ကု	-8.8422
မဟုတ်၊	-8.84338
လတံ့သော	-8.84363
ကေ	-8.84397
▁နှင်ထုတ်	-8.84465
▁ကိ	-8.8447
ပြောဆို	-8.84513
တော်မူသည်ကား၊	-8.84808
တကျိပ်	-8.8491
▁ယေရမိ	-8.84971
ပြု၍၊	-8.85023
လှူ	-8.85068
အစာ	-8.85108
▁ဇေ	-8.8513
ဖြစ်၍	-8.85162
စေခြင်းငှါ၎င်း၊	-8.85223
▁မြေပေါ်မှာ	-8.85239
အကျင့်	-8.8524
ချီးမွမ်း	-8.85273
▁ရိုက်	-8.85328
နားထောင်	-8.85344
▁မာ	-8.85366
ဟောပြော	-8.85467
သူရဲ	-8.85656
▁?????????	-8.85777
မေတ္တာ	-8.85795
စိုးစံ	-8.85796
အစဉ်	-8.85869
အမည်ဖြင့်	-8.85891
ခြင်းအားဖြင့်	-8.86023
ဟုဆို	-8.86023
ကြိုးစား	-8.86027
စာရင်း	-8.86028
▁အလင်း	-8.86143
▁ဆိုကြ၏။	-8.86162
အရိုး	-8.86229
ရှိရာ	-8.86404
ေါ	-8.8641
သောအရာကို	-8.86447
မြို့မှ	-8.86496
ရေတွက်	-8.86629
ကိုယူ၍	-8.8687
▁ချဉ်းကပ်	-8.86891
ဘူးသော	-8.86899
▁အရှေ့	-8.86942
အောက်၌	-8.8707
နွား	-8.87187
▁အထံတော်သို့	-8.87218
▁ဆင့်ဆို	-8.87313
ပတ်လည်၌	-8.87336
ထည့်	-8.87471
အမျိုးသားချင်း	-8.87486
▁သင်္ဂြိုဟ်	-8.87486
▁စုဝေး	-8.87538
▁ဆောင်သွား	-8.87588
▁မိုဃ်းတိမ်	-8.87606
တယောက်မျှ	-8.87673
▁ဆိတ်	-8.8772
▁ဘော်ပြ	-8.87767
နည်းဟု	-8.87911
▁ငါ၌	-8.87915
ဘွယ်သော	-8.87955
ညှဉ်းဆဲ	-8.88073
▁သမီး	-8.88281
လွှမ်းမိုး	-8.88317
နှလုံး	-8.88363
▁ဘွားမြင်	-8.88393
▁ထာဝရဘုရားကလည်း၊	-8.88446
လေးဆယ်	-8.88504
▁သေတ္တာတော်	-8.88505
▁မြေကြီးပေါ်မှာ	-8.88551
ထံတော်သို့	-8.88572
ဘိုးဘေး	-8.88594
သောနေ့၌	-8.88968
ကိုးကွယ်	-8.89007
ဝမ်းမြောက်	-8.89024
ကြဟု	-8.89064
▁တပါး	-8.89142
နှင့်၎င်း၊	-8.89142
လွင်ပြင်	-8.89171
▁မနာရှေ	-8.89172
▁ပရိသတ်စည်းဝေးရာ	-8.89179
▁သီချင်းဆို	-8.89208
ယေ	-8.8949
ရှိသည်အတိုင်း	-8.8951
ထုတ်	-8.89709
▁အကြောင်း၊	-8.89801
ဖြစ်ကြောင်းကို	-8.899
ရွေး	-8.8994
▁သင်နှင့်	-8.89948
▁ထာဝရဘုရားက၊	-8.89992
တုန်လှုပ်	-8.90034
ကြလိမ့်	-8.90123
▁ပညတ်တော်	-8.90136
▁ထိုသခင်	-8.90154
လမ်းသို့	-8.90215
ကြောက်	-8.90283
ခွ	-8.90337
ဖိ	-8.90356
▁စီရင်တော်မူ	-8.90373
တော်မူလိမ့်မည်။	-8.90415
▁ဤသူ	-8.90544
▁ပြည်သား	-8.9059
နှင့်ပြည့်စုံ	-8.9061
လုံးကို	-8.90882
နန်းစံ	-8.90903
ဩဝါဒ	-8.90903
ရှုတ်ချ	-8.90904
ရွံရှာ	-8.90914
▁စစ်သူရဲ	-8.9093
▁ထိုအရပ်	-8.90969
▁ပြန်သွား	-8.91127
▁ကျေးဇူးတော်ကို	-8.91325
????????????????	-8.91378
ညည်းတွား	-8.9178
▁ဘောဇဉ်	-8.9178
သွေးဆောင်	-8.91813
▁ပညတ်	-8.91874
▁ပယ်ရှင်း	-8.91949
အချို့တို့သည်	-8.92047
▁အခြား	-8.92093
▁ထိုနောက်မှ	-8.92122
ဖြစ်ပါ၏။	-8.92284
စရာအကြောင်း	-8.92299
▁ငါး	-8.92357
▁ဇိ	-8.92382
ကြည့်ရှု	-8.92447
▁ရှိ၏။	-8.92468
▁မဟုတ်လော။	-8.92602
▁ပဌမ	-8.92665
မှူးမတ်	-8.92677
စမ်း	-8.9271
▁တစုံတခု	-8.92933
▁လူသည်	-8.93099
▁သားသမီး	-8.93155
ကြလျှင်၊	-8.932
ဆိုသော်၊	-8.93216
▁တန်ဆာ	-8.93263
ထဲ	-8.93379
▁ဘုရား၏	-8.93448
▁အထက်	-8.93487
ဘုရား၊	-8.93498
ပယ်ရှား	-8.93559
▁??????????	-8.93559
တကားဟု	-8.93565
လောဟု	-8.93634
ကာလပတ်လုံး	-8.93732
ရုပ်တု	-8.93762
စွန့်	-8.93778
▁ဣသရေလအမျိုးကို	-8.9391
▁ကြည့်	-8.94002
နှင့်ဆိုင်သော	-8.94032
▁အချင်း	-8.94061
▁ဝတ်ပြု	-8.94302
ထမ်း	-8.94318
မိမိ	-8.9436
▁မေးမြန်း	-8.94374
ခရီး	-8.9438
မှည့်	-8.9446
▁ရွေး	-8.94511
ဆင်းရဲ	-8.94527
▁တည်ဆောက်	-8.94549
▁ဗင်္ယာမိန်	-8.94555
▁ဗျာဒိတ်တော်	-8.94606
▁ယုဒလူ	-8.94684
▁ထိုနည်းတူ	-8.9473
ပရောဖက်	-8.94738
▁စီး	-8.94775
ဖူး	-8.94802
▁ပြုတော်မူ	-8.94803
▁ဘုန်း	-8.95141
▁ဝမ်း	-8.95219
▁အလိုရှိ	-8.95359
▁ဒုတိယ	-8.95368
ကဲ့သို့၎င်း	-8.95399
ကိုးစား	-8.95455
▁ခံရသော	-8.95521
▁မြို့ရိုး	-8.95547
ထံ၌	-8.95631
ခန်း	-8.95648
ကွယ်	-8.95831
▁သင်္ဘော	-8.95858
ရွှေ	-8.95875
▁စွန့်	-8.95899
ခေါ	-8.9595
အလုံးစုံ	-8.96142
▁ပွဲ	-8.96251
ခိုင်မာ	-8.96285
▁ထမ်း	-8.96311
လေ့	-8.96319
▁အသရေ	-8.96402
▁ဧလိ	-8.96499
တို	-8.96521
▁အခါ၊	-8.9654
အိမ်တော်	-8.96743
▁မှာ	-8.96818
▁ဖြစ်၍၊	-8.96943
စဉ်တွင်	-8.97096
စေခြင်းငှာ	-8.97102
▁မင်္ဂလာ	-8.97104
▁ဗာဗုလုန်မြို့	-8.9715
မသွား	-8.97233
▁ငြိမ်ဝပ်စွာ	-8.97267
▁ချက်ခြင်း	-8.97312
လတံ့။	-8.97332
▁ဧလိယ	-8.97335
ပါမည်ဟု	-8.97342
▁နာမတော်ကို	-8.9738
နီ	-8.9739
▁ဝါကြွား	-8.97417
ကြားလျှင်၊	-8.9745
▁ငါ့ထံသို့	-8.97457
ဆိတ်ညံ	-8.9748
နှစ်ပါး	-8.97503
နှင့်တကွ၊	-8.97556
▁မောဘ	-8.97695
လူများ	-8.97703
▁ထိုကာလ၌	-8.97718
▁မာန	-8.97834
▁ယူ	-8.97997
▁ရှင်ဘုရင်သည်	-8.98087
ကျယ်	-8.98098
ဖြောင့်	-8.98128
အိပ်ပျော်	-8.98146
ရှိသမျှတို့	-8.98162
ွဲ	-8.98199
▁အာဇ	-8.98458
သည်မဟုတ်လော။	-8.98724
ပေ၏။	-8.98788
▁အာသ	-8.98804
တစုံတခု	-8.98805
အဝတ်	-8.98956
ဒုက္ခ	-8.99088
▁အံ့ဩ	-8.99089
ချည်နှောင်	-8.99089
ညွတ်	-8.9909
ချွတ်	-8.99091
သင်္ချိုင်း	-8.99134
မျိုးစေ့	-8.99378
ထာဝရ	-8.99474
ကျန်	-8.99477
▁နှိုးဆော်	-8.99489
တော်မူသည်ကို	-8.99586
▁အကျင့်	-8.99634
ဇေ	-8.99648
မည်သည်ကား	-8.99689
ရှေ့တော်	-8.99766
▁အမှန်	-8.99767
▁ကြောင့်	-8.99838
▁ရပ်နေ	-8.99895
ရမည်အကြောင်း၊	-9.00039
▁????????	-9.0004
▁အချည်းနှီး	-9.00042
တရှောက်လုံး	-9.00044
အသေကောင်	-9.00053
ယုံကြည်	-9.00055
ဗေလ	-9.00061
▁ဝိညာဉ်	-9.00138
▁ဘုရားသည်	-9.00139
▁နှိမ့်ချ	-9.00167
ခက်	-9.00299
▁အနှစ်	-9.00313
ထံ	-9.00377
▁ဣသရေလလူတို့	-9.00535
▁ကင်းလွတ်	-9.00555
ရန်သူ	-9.00689
▁ကရုဏာတော်	-9.01089
တို့အဘို့	-9.01208
▁တရားစီရင်	-9.0125
တယောက်ကို	-9.0127
ရှိသည်ကို	-9.01723
ဆိုလျက်၊	-9.01772
▁သန့်ရှင်းစေ	-9.01821
လ၊	-9.01838
အောက်မေ့	-9.01887
နံ	-9.01925
▁ရှမွေလ	-9.01974
▁သန့်ရှင်းရာဌာန	-9.01974
▁သမ္မာ	-9.01974
▁ခရီးသွား	-9.02034
▁ကယ်တင်တော်မူ	-9.02094
▁လဲ	-9.02095
▁သူ၏သား	-9.02096
သောအမှုကို	-9.02101
ပေါ်၌	-9.0213
▁ဗက်	-9.02131
▁ကောက်	-9.02256
ရှိသည်ဟု	-9.02404
မေးလျှင်၊	-9.02441
▁သို့ရာတွင်၊	-9.02489
▁မရှိ	-9.02812
▁လူတို့သည်	-9.02852
▁ငါမြင်	-9.02922
ဟူ	-9.02945
▁တိတ်ဆိတ်စွာ	-9.02955
▁?????	-9.03034
▁နေ့ရက်	-9.03111
တတ်။	-9.03181
ကျန်ကြွင်း	-9.03262
သောစိတ်နှင့်	-9.03304
တို့နှင့်အတူ	-9.03465
▁ထိုသို့ပြု	-9.03573
▁အာန	-9.03594
များတို့ကို	-9.03804
▁ယုဒအမျိုး	-9.03813
▁ကရုဏာ	-9.03823
ပေး၏။	-9.03854
တို့ကို၎င်း	-9.03902
▁အတောင်	-9.03914
ျဉ်း	-9.03944
▁လော့။	-9.04008
အကျင့်ကို	-9.04216
▁??????????????	-9.04368
▁ဖြစ်ကြ၏။	-9.04514
ကလည်း	-9.04626
ငြိမ်	-9.0464
သောစကားကို	-9.04655
▁ငါပြု	-9.04669
ဝမ်း	-9.04733
▁ဖြောင့်မတ်	-9.04744
ဖြစ်ကြ	-9.04755
သည်တိုင်အောင်	-9.04791
ဣ	-9.04821
▁အဘိုး	-9.04947
ရိုသေ	-9.04949
▁မေးလျှောက်	-9.05037
ညှိ	-9.05052
လျောက်	-9.05081
▁အသေခံ	-9.05184
▁အဘယ်သူသည်	-9.05192
▁ပြင်	-9.05398
ကြသနည်း။	-9.05403
ခန့်ထား	-9.05408
▁ပြုပြင်	-9.0541
အမြစ်	-9.05436
▁အမိန့်တော်ကို	-9.05471
▁မစ	-9.0555
ထပ်	-9.05586
ပေးမည်။	-9.05742
သောသူတို့၏	-9.05746
ကျင်	-9.05894
▁အကြင်သူသည်	-9.05957
▁ဒဏ်ခတ်	-9.05958
ပြည်မှ	-9.06091
▁မှာထားတော်မူ	-9.06092
ထိပ်	-9.0613
▁ခရစ်တော်၏	-9.06135
ယုဒ	-9.06194
▁မိန့်တော်	-9.06199
▁ရှိကြ၏။	-9.06305
ရှင်း	-9.0633
စပါး	-9.06695
၌လည်း	-9.06725
ထုံးဖွဲ့	-9.06975
အာဏာ	-9.06977
ခိုက်	-9.06979
ထိန်း	-9.07003
ဂုဏ်အသရေ	-9.07026
တို့မှ	-9.07095
ခြင်းသို့ရောက်	-9.07275
ပြေ	-9.07289
အကျွန်ုပ်	-9.07348
▁သူရဲ	-9.07435
အသံ	-9.07569
ဘက်သို့	-9.07824
အကျိုး	-9.07875
သည်တကား။	-9.08006
▁အမှုတော်	-9.08043
သည်နှင့်အညီ၊	-9.08065
▁နားလည်	-9.08103
ရှိတော်မူ	-9.08126
▁မိဘ	-9.08314
လမ်းကို	-9.08494
ရိုက်	-9.08603
ဆိတ်	-9.08694
▁ကြွလာ	-9.08708
ပြင်သို့	-9.08768
▁ဖန်ဆင်းတော်မူ	-9.0877
ခိုလှုံ	-9.08825
▁အတွင်း	-9.08883
ဖြောင့်မတ်	-9.08919
▁????????????	-9.08933
▁ကယ်နှုတ်	-9.09055
အလိုငှါ	-9.0909
ပြတ်	-9.09131
ဟာန	-9.09406
လာသော	-9.09428
ချီ	-9.09507
▁နက်ဖြန်နေ့	-9.09574
▁ကိုင်	-9.09754
ဝါ	-9.10009
ဆက်ဆံ	-9.10102
▁နန်းထိုင်	-9.10102
▁တပြည်လုံး	-9.10102
▁အဘိ	-9.10116
က္က	-9.10125
လုပ်၍	-9.10236
▁တရားသဖြင့်	-9.10359
ရှိ၍	-9.10485
▁ယွာဘ	-9.10578
လှန်	-9.10653
▁စိုးရိမ်	-9.10668
အစိုးရ	-9.1069
စောင်	-9.10779
ကြစေ။	-9.10838
▁ငှါ	-9.10998
▁မှားယွင်း	-9.11035
ဘမ်းဆီး	-9.11164
လျှာ	-9.11165
စဉ်အခါ	-9.11201
ရှိသောသူ	-9.11226
▁သုံးရက်	-9.11304
▁လင်	-9.11346
▁???????????	-9.11428
ပိုင်း	-9.11464
မရှိသော	-9.1153
▁ကင်း	-9.11549
ဆုံးမ	-9.11611
▁ယခုမှာ	-9.11716
▁ဝေး	-9.11776
အနား	-9.11826
▁ဆီးတား	-9.11832
▁အမှုတော်ကို	-9.11863
အပြစ်ကြောင့်	-9.12007
▁လွန်ကျူး	-9.12017
၌နေသော	-9.12021
ဘာသာ	-9.12136
▁သွန်သင်	-9.1214
▁ရှေး	-9.12177
သတို့သမီး	-9.12211
▁စုံစမ်း	-9.12244
▁အစဉ်မပြတ်	-9.12265
တန်တိုင်း	-9.12302
နှမ	-9.12387
ပေါင်းဘော်	-9.12395
ဒေါသ	-9.12415
တတ်သောသူ	-9.12496
ဖြစ်သည်ကို	-9.12607
သူငယ်	-9.12847
▁သိတင်း	-9.12878
▁ဟာမ	-9.13062
သမျှတို့ကို	-9.13092
▁ကောင်းကြီး	-9.13125
ပဌနာ	-9.13241
နံ့သာ	-9.13326
ထံမှ	-9.13445
တစု	-9.13451
ပေတည်း။	-9.13456
▁ကျမ်းစာ	-9.13643
ခြင်းငှာ	-9.13646
▁မမြင်	-9.13861
▁ကြီး	-9.1396
ဝိညာဉ်တော်	-9.14119
နိုင်အောင်	-9.14171
မန်	-9.14214
▁အဲဂုတ္တုပြည်၌	-9.14268
▁ငါပြော	-9.14394
▁ဂိလဒ်ပြည်	-9.14425
▁ဣဇာက်	-9.14449
ထံတော်၌	-9.14464
ခြင်းငှါ၎င်း၊	-9.14633
▁ဤလူမျိုး	-9.14657
န္	-9.14658
▁သင့်အား	-9.14873
ရှိပါ၏။	-9.14916
▁ယဇ်ပုရောဟိတ်သည်	-9.15008
▁အခွင့်ကို	-9.15124
▁ကျန်ကြွင်းသော	-9.1521
▁သူ၌	-9.15474
ဖျား	-9.15537
အမိ	-9.1554
▁စစ်ချီ	-9.15564
သားမြေး	-9.15584
▁မြည်တမ်း	-9.15602
နည်းဟူမူကား၊	-9.15729
▁ပုန်ကန်	-9.15753
တမျိုး	-9.15795
နှစ်တွင်	-9.15861
▁တော်ကို	-9.15887
▁ကျွန်ခံ	-9.15927
▁ဥယျာဉ်	-9.15988
▁ဗာလ	-9.16077
ရမည်အကြောင်း	-9.16163
လောင်း	-9.16206
နည်းတူ	-9.16451
မြဲ	-9.16485
ခြင်းကိုခံရ	-9.16585
▁မြေမှုန့်	-9.1666
▁အကုန်အစင်	-9.1666
မေ့လျော့	-9.16661
အရိပ်	-9.16685
ပြီးသော	-9.16713
▁ရှောက်သွား	-9.16754
▁မတရားသောသူ	-9.16803
အသက်ရှင်	-9.16811
ဆီဥ	-9.16816
တကောင်၊	-9.16887
▁ပိတ်	-9.16914
ွား	-9.16921
ခြင်းအကြောင်း	-9.16942
▁ကုလားကာ	-9.17074
လော့	-9.17098
တို့နှင့်တကွ	-9.17335
ဖောက်	-9.17383
ပါပြီဟု	-9.17465
သေး၏။	-9.17533
▁ကြီးသော	-9.17541
▁တပည့်တော်	-9.1756
ငြင်း	-9.17785
▁အချင်းလူသား၊	-9.17796
အိမ်နီးချင်း	-9.17797
အပ်နှံ	-9.17798
ပြည်သူပြည်သား	-9.17825
လှည့်လည်	-9.17902
တိရစ္ဆာန်	-9.17915
မယူ	-9.18086
သမျှအတိုင်း	-9.18246
▁လူအသက်ကို	-9.18436
▁လျ	-9.18462
ခြင်းရှိ၏။	-9.18533
ဆပ်	-9.18537
လျက်ရှိသော	-9.18779
နိမိတ်လက္ခဏာ	-9.18946
သုံးယောက်	-9.18947
▁?????????????	-9.18955
ကျိုး	-9.19054
▁ကိုယ်ကိုကိုယ်	-9.19059
▁အရှင်မင်းကြီး	-9.19156
▁မတွေ့	-9.19281
ဖြစ်စေခြင်းငှါ	-9.19375
▁အပြစ်တင်	-9.19403
▁ဤသူတို့သည်	-9.19518
တဦး	-9.19631
လာ၏။	-9.19654
▁မောရှေနှင့်	-9.19687
ထမ်းဘိုး	-9.20109
နှစ်ကောင်	-9.20129
စပျစ်ဥယျာဉ်	-9.20132
▁စားသောက်	-9.20264
ကြသောအခါ၊	-9.20264
▁စုဝေးစေ	-9.20311
အဘယ်သို့	-9.2038
▁ငါကြား	-9.20743
သို့သွား၍	-9.20875
▁ယေရောဗောင်	-9.21285
▁ဖာရောဘုရင်	-9.21285
▁အာဟပ်	-9.21285
စို့	-9.21287
▁ရှက်ကြောက်	-9.21288
စပ်ကြား	-9.21413
သင်၏	-9.21525
▁ဤသူသည်	-9.2184
▁အတိုင်း၊	-9.22062
▁ယောနသန်	-9.22476
ရွေ့	-9.22476
ကျွမ်း	-9.22477
လည်ပင်း	-9.22477
လွှင့်	-9.22485
နိုး	-9.22489
စပျစ်သီး	-9.22652
ဘို့ရာ	-9.22727
▁ယနေ့တိုင်အောင်	-9.22746
▁လူအမျိုးမျိုး	-9.23013
▁မိုက်သောသူ	-9.23329
အပေါ်	-9.23545
▁ယုဒအမျိုးသား	-9.23583
▁ရဲရင့်	-9.2368
▁အာမောရိ	-9.2368
တဘက်တချက်	-9.23681
▁သို့ပြုလျှင်	-9.23701
▁သိုးထိန်း	-9.23736
ဇော	-9.23773
▁စားပွဲ	-9.23855
ဥ	-9.23895
▁အရေဖျားလှီး	-9.23896
▁မြို့နယ်	-9.23922
▁ငါ၏လူ	-9.24045
အိပ်	-9.24187
ဟံ	-9.2433
သောသူတို့အား	-9.24445
န္န	-9.24567
ဦးမည်။	-9.24647
▁ထာဝရဘုရားအဘို့	-9.24844
ခေါ်ဝေါ်	-9.249
ကြကုန်အံ့။	-9.249
▁ငြိမ်သက်ခြင်း	-9.249
▁ဆင့်ဆိုရမည်မှာ၊	-9.24907
နု	-9.2491
စိတ်ဝိညာဉ်	-9.24951
▁ဧဒုံ	-9.24965
သက်သက်	-9.24994
ရေတွင်း	-9.25093
▁ယုံ	-9.25093
▁သားရဲ	-9.2527
ကြသော်၊	-9.25311
▁မီးဖြင့်	-9.25323
ဟေဇကိ	-9.25602
▁ထိုအရာ	-9.25606
နန်း	-9.25633
နှင်ထုတ်	-9.25669
နှစ်သက်	-9.25971
▁မိန့်	-9.26057
▁ရုဗင်	-9.26134
ရူပါရုံ	-9.26134
အစွမ်းသတ္တိ	-9.26134
▁နို့	-9.26135
▁အခြားတပါးသော	-9.26137
တော်မမူပါနှင့်။	-9.26151
▁အိပ်မက်	-9.26185
▁တိုင်ပင်	-9.262
ဒ္ဒ	-9.26241
သောအရာတို့ကို	-9.26325
▁ဤအရပ်	-9.26952
▁ထိုစကားကို	-9.27055
အလိုအလျောက်	-9.27385
▁ထို့ကြောင့်	-9.27388
အလင်း	-9.27392
▁ပို့ဆောင်	-9.27394
▁ဧလိရှဲ	-9.27397
▁ကြီးမြတ်	-9.27477
▁ထားဘေး	-9.27555
ဟောင်း	-9.27598
▁ခါနာန်ပြည်	-9.27766
နှုတ်ကပတ်တော်သည်	-9.27898
▁ထိုနေ့၌	-9.2793
▁သိမြင်	-9.28059
မှူး	-9.28114
ခုတ်	-9.28294
▁သားဦး	-9.28304
အသီးအသီး	-9.28406
▁ကော	-9.28413
အမွေ	-9.28586
မှီဝဲ	-9.28651
အထွ	-9.28677
သွန်းလောင်း	-9.28721
တယောက်တည်း	-9.28741
ပြု၏။	-9.28762
တခါ	-9.28795
လှုပ်	-9.28906
▁မရောက်	-9.28947
▁အမိန့်တော်ရှိ	-9.28985
လေသော်၊	-9.28997
အသံနှင့်	-9.29039
▁လမ်း၌	-9.29055
ထိုက်	-9.29385
နှိမ့်ချ	-9.29764
ဖြန့်	-9.29856
ဒံယေလ	-9.29932
ယောရှဖတ်	-9.29932
▁မထီမဲ့မြင်ပြု	-9.29932
▁ကျိန်ဆဲ	-9.29933
▁သတ္တမ	-9.29933
▁သမုတ်	-9.29938
▁ညဦး	-9.29964
▁သစ်ပင်	-9.29979
▁ဂေါ	-9.2998
▁အနံ	-9.30022
မရှိရ။	-9.30023
စာရေး	-9.3031
▁လျှောက်လေ၏။	-9.3039
▁သူအပေါင်းတို့	-9.30585
▁သတိပြု	-9.30746
▁ဂတိတော်	-9.30752
ကိုယ်တော်	-9.30797
▁စားစရာ	-9.31216
▁နက်နဲ	-9.31231
ထုံးစံ	-9.31231
ဆံပင်	-9.31233
အစဉ်အဆက်	-9.31234
မင်္ဂလာရှိ	-9.31249
အရှိန်	-9.31286
▁အမိန့်	-9.31308
မိုး	-9.31326
ခန္	-9.31357
ထိုက်သော	-9.31365
တောင်းပန်	-9.31404
လျက်နေ၏။	-9.31472
ထံမှာ	-9.31522
▁ယေရှုက	-9.31609
▁မှာလိုက်	-9.31637
▁ဒါဝိဒ်၏	-9.31656
ပြပ်ဝပ်	-9.31671
မသေ	-9.31777
ကြသည်ကို	-9.31782
▁အရပ်ရပ်	-9.31825
▁ရှင်ဘုရင်၏	-9.31839
▁မောဘပြည်	-9.31883
သည်ဖြစ်၍	-9.31916
လတံ့	-9.32036
▁မကြောက်	-9.32051
▁ဖြောင့်မတ်သော	-9.3206
ရောက်လာ	-9.32301
ခန့်	-9.3242
▁ဤမြို့	-9.32502
ပျော်မွေ့	-9.32547
▁ကယ်လွှတ်	-9.32553
အိုင်	-9.32574
▁တရားတော်	-9.32641
မည်လောဟု	-9.32753
နိုင်ငံတော်	-9.32944
နေ့တွင်	-9.32956
သောနောက်၊	-9.33015
မျှော်	-9.33036
▁ဤအရပ်၌	-9.33315
ပူ	-9.33504
မြဲမြံ	-9.3388
သခင်ယေရှုခရစ်	-9.3388
▁အမှီပြု၍	-9.33884
▁သည်းခံ	-9.33897
▁အကြင်	-9.33902
ပျက်စီးခြင်းသို့	-9.33941
လျင်	-9.33945
▁ရွေးနှုတ်	-9.33957
လှံတံ	-9.3399
ဤ	-9.34001
သို့၎င်း၊	-9.34146
▁ငါသည်လည်း	-9.34155
ွေလ	-9.34351
ရွေးကောက်	-9.344
▁ကျွန်တော်တို့	-9.34433
ပေါင်းကား	-9.34443
မြေကြီး	-9.34474
ကြသလော။	-9.3457
▁အမြဲ	-9.34601
▁အသေသတ်ခြင်းကို	-9.34885
ဟန်	-9.35041
စိမ်း	-9.35043
အကြီးအကဲ	-9.35231
▁ရှေ့ဦးစွာ	-9.35231
လက်ဝါးကပ်တိုင်	-9.35232
▁သမုဒ္ဒရာ	-9.35232
ပကတိ	-9.35238
▁ဆုံးရှုံး	-9.35239
▁လျှောက်ဆို	-9.35311
ဒုစရိုက်	-9.3552
▁ဆင်းသက်သော	-9.35532
သွား၏။	-9.35765
နှင့်သူ၏	-9.35846
▁ဆိုလေ၏။	-9.35939
သို့သွား	-9.35953
▁ယူသွား	-9.36018
▁နောင်	-9.36238
ဘုရင်	-9.36554
မပြတ်	-9.36594
နေဗုခဒ်နေဇာ	-9.36601
တင့်တယ်	-9.36601
▁သုတ်သင်ပယ်ရှင်း	-9.36601
▁ဧည့်သည်	-9.36601
▁ရှင်းရှင်း	-9.36603
▁သွန်း	-9.3663
နှစ်ရာ	-9.36781
▁အမ္မုန်	-9.3693
လျက်ရှိကြ၏။	-9.36935
▁ငါ့ရှေ့မှာ	-9.36991
ချီးမြှောက်	-9.37016
ကွဲ	-9.37079
▁ကြားရ	-9.37149
▁ကြွင်းသော	-9.37257
လျော	-9.37278
▁မဟာ	-9.37278
ခုံ	-9.37314
▁အလျှင်းမ	-9.37534
▁နတ်ဆိုး	-9.37692
ရွံ	-9.37942
လက္ခဏာ	-9.3799
▁မုတ်ဆိုးမ	-9.3799
▁အဗရှလုံ	-9.3799
▁အံ့ဘွယ်သော	-9.37999
အရေအတွက်	-9.38006
စ္စ	-9.38059
လဲ၍	-9.38268
ပိုက်	-9.3829
▁တန်ခိုးတော်	-9.38294
ပျက်စီး	-9.38304
▁ဂုဏ်	-9.38371
တော်မူသည်ဟု	-9.38618
▁ဝင်စား	-9.38678
▁ငါမှာထား	-9.38881
ပြေး၍	-9.38894
ရေလ	-9.39113
ကြွလာ	-9.39159
ကျော်	-9.39286
ငတ်မွတ်	-9.39399
တိုးပွား	-9.39399
ပြီတကား။	-9.39399
▁အာဗြံ	-9.39399
အပေါင်းအဘော်	-9.39399
တဝက်	-9.39414
ဗ္ဗ	-9.39418
▁ထိုအတူ	-9.39469
တုရ	-9.39493
ကျိပ်	-9.39501
▁ဘုန်းကြီး	-9.39557
▁ရှမာရိမြို့	-9.39573
ဘက်မှာ	-9.39685
▁အိုဘုရားသခင်	-9.3976
▁အားကြီးသော	-9.39933
တော်မူသည်အတိုင်း	-9.39935
စိုးရိမ်	-9.40061
တပါးတည်း	-9.4015
ဆီး	-9.40168
ချေး	-9.4029
လက်ထက်	-9.40321
နှင်	-9.40329
▁ထိုသူ၏	-9.4059
ပါလော့။	-9.40617
ပတ်လည်	-9.40652
▁ငြိမ်ဝပ်	-9.40742
ကလေး	-9.40746
ညှိုးငယ်	-9.40827
ယှဉ်	-9.40827
လက်ရုံး	-9.40827
လှုပ်ရှား	-9.40827
▁ဤလောက	-9.40829
▁ဤရွေ့ကား	-9.40831
▁စေ့စေ့	-9.40833
▁သက်ရောက်	-9.40851
▁ဘုန်းတော်	-9.40851
▁မီးလောင်	-9.40942
ချေ	-9.41025
စွန်း	-9.41053
အကောင်	-9.41181
▁တောင်ပေါ်	-9.41366
လုံ	-9.41747
ကျေးဇူးတော်ကို	-9.41987
ဆူ	-9.42005
▁ပေးတော်မူ၏။	-9.42044
မာရိ	-9.42167
မ္မအမှု	-9.42207
မြေး	-9.4223
ဇေဒကိ	-9.42276
နှိပ်စက်	-9.42277
အင်တုံ	-9.42277
နွမ်း	-9.42278
အနည်းငယ်	-9.42294
▁အခွင့်ရှိ	-9.42317
▁ပြန်လျှောက်	-9.4243
ခြုံ	-9.42485
လ္လ	-9.4256
သောစိတ်ရှိ	-9.42723
လက်ျာ	-9.4285
▁အစိုးရသော	-9.42928
▁ဒုစရိုက်အပြစ်	-9.42974
ဥာဏ်	-9.43218
ယာကုပ်	-9.43219
ကယ်တင်	-9.43373
▁ခေါ်၍၊	-9.43452
ကြည့်ရှု၍	-9.43548
အခွင့်နှင့်	-9.43585
ဖြိုဖျက်	-9.43747
ဘေးဥပဒ်	-9.43747
ဆည်းကပ်	-9.43747
မြှား	-9.43747
▁အခွန်	-9.43752
▁မယ်တော်	-9.43769
▁ချို	-9.43774
▁အဲဂုတ္တုလူတို့	-9.43785
အရွယ်	-9.43785
▁သက်သာ	-9.43838
ငိုကြွေးမြည်တမ်း	-9.43855
အောက်မှာ	-9.44
▁ထွက်လာ	-9.44028
ကြပါစေသော။	-9.4413
အရောင်	-9.44212
ယဇ်ပုရောဟိတ်မင်း	-9.44387
▁ယေရုရှလင်	-9.44451
ဆဲ	-9.44481
▁မိမိလူ	-9.44487
▁လွှတ်လိုက်	-9.44578
ကြပါပြီ။	-9.44613
▁ပရောဖက်ပြု	-9.44669
▁ပြန်ပြော၏။	-9.44799
အလယ်	-9.44828
မီးရှို့	-9.44843
ဣသရေလ	-9.44975
လူအစုအဝေး	-9.4524
▁တံပိုးမှုတ်	-9.4524
▁ဖါရောဘုရင်	-9.4524
▁ကြွယ်ဝ	-9.4524
နှမြော	-9.4524
▁မုန့်ညက်	-9.4524
ခြင်းကိုခံ	-9.4524
ယဇ်ပလ္လင်ပေါ်မှာ	-9.45283
ိညာဉ်တရား	-9.45457
ပြာ	-9.45695
အာရှုရိရှင်ဘုရင်	-9.45858
မျက်မှောက်၌	-9.45868
နိုင်သနည်း။	-9.45962
ထောင့်	-9.46002
ကိုခေါ်၍၊	-9.46167
▁ထိုမြို့၌	-9.46287
ဟူ၍၎င်း	-9.46299
ပယ်ရှင်း	-9.46521
မောရှေ	-9.46535
▁ချီသွား	-9.46633
▁မိဒျန်	-9.46755
မိန်းမောတွေဝေ	-9.46755
▁နံ့သာပေါင်းကို	-9.46755
မွှေ	-9.46756
▁တတိယ	-9.46756
ကိုယ်တိုင်	-9.46869
ပြန်လျှင်၊	-9.47108
သန္	-9.47126
၌ပါသော	-9.47212
အဝင်	-9.47308
ကျိန်ဆို	-9.47501
ခင်	-9.4762
ကူ	-9.4788
▁တပ်ချ	-9.48001
အသရေ	-9.48044
ချမ်းသာ	-9.48053
သိတင်း	-9.48129
အကြွင်းမဲ့	-9.48293
▁ထိုမျှမက	-9.48294
နှင့်စပ်ဆိုင်	-9.48295
▁ရှိမုန်	-9.483
▁မိမိလက်	-9.48308
ခုနစ်ဆယ်	-9.48396
စွဲလမ်း	-9.48423
▁ဆင်းရဲသား	-9.48691
မရောက်မှီ	-9.48984
လက်ထက်၌	-9.49475
▁လူတိုင်း	-9.49541
▁ငါ့ကျွန်	-9.49618
တန်း	-9.49717
လုပ်ကြံ	-9.49835
ိဖုရား	-9.49856
▁ဘိသိက်	-9.49856
▁လေဗနုန်	-9.49856
▁လက်ဝဲ	-9.49856
အဆွေအမျိုးအလိုက်	-9.49857
ဝံ့	-9.49858
▁ကျွေးမွေး	-9.4986
နောက်တော်သို့	-9.49885
ပြင်ဆင်	-9.49926
▁စေလွှတ်တော်မူ	-9.49948
မလာ	-9.50086
▁ထောက်၍	-9.50221
▁ဆင်းရဲသောသူ	-9.50227
ဝါး	-9.50311
▁မီးရှို့ရာ	-9.50454
ခေါင်းပေါ်မှာ	-9.50558
ပ္ပ	-9.50893
▁လှေ	-9.51305
▁မြင်းစီးသူရဲ	-9.51443
အကြံအစည်	-9.51443
ပမာဏ	-9.51444
▁အဘိမလက်	-9.51444
▁စာရေးတံ	-9.51446
▁ဒါ	-9.5147
တိုင်တည်၍	-9.51511
▁အသက်ကြီးသူတို့	-9.51539
အော်ဟစ်	-9.51553
ဆုတောင်း	-9.51558
ထွေး	-9.5156
▁ဧဝံဂေလိတရားကို	-9.51577
စကားဟူမူကား၊	-9.51613
အရှင်ဘုရားသခင်	-9.5169
▁သိမှတ်	-9.51836
ကိုင်လျက်	-9.51913
လေးထောင်	-9.51956
ပါစေနှင့်။	-9.52043
▁ဗာလမ်	-9.52097
ိမ်မြို့	-9.52321
▁အာရှုရိ	-9.52393
ထွက်သွား	-9.52584
ယဇ်ပလ္လင်	-9.52758
နှုတ်ကပတ်	-9.52908
ပေါ	-9.53042
▁သိုးထီး	-9.53056
▁ဘုန်းအသရေ	-9.53071
ထရံ	-9.53089
နှင့်တူ၏။	-9.53098
▁ယေရု	-9.53113
ငှါး	-9.53214
▁ကောင်းကင်ဘုံ၌	-9.53253
▁ယာကုပ်အမျိုး	-9.5328
အခြား	-9.53314
သေး။	-9.53625
ကြပြီဟု	-9.53658
အထဲ၌	-9.53675
▁ကောင်းကင်ဘုံ	-9.53735
▁နေရာကျ	-9.53906
အရပ်ရပ်တို့	-9.54027
▁နားထောင်ကြလော့။	-9.54121
နှစ်သောင်း	-9.54286
လိမ့်မည်နည်း။	-9.54314
▁မမူ	-9.54341
▁မိမိကျွန်	-9.54445
▁ခုနစ်ရက်	-9.54692
သွေ့ခြောက်	-9.54695
▁ကုလားအုပ်	-9.54695
ဥပမာ	-9.54696
▁ညဉ့်အခါ	-9.54699
▁ငါသိ၏။	-9.54723
▁တပ်မှူး	-9.54735
ကဲ့ရဲ့	-9.54758
▁အသီးသီး	-9.54796
▁အဘယ်မှာ	-9.54861
▁နောင်တရ	-9.54973
မြော်လင့်	-9.55096
သစ္စာ	-9.55097
ပေါလု	-9.55121
လျှင်၎င်း၊	-9.55147
▁စကားတော်ကို	-9.55415
▁ပူဇော်ရမည်။	-9.55602
ပြန်ပြော	-9.55666
ကြည့်၍	-9.56027
ငှာ	-9.56076
နှစ်နှစ်	-9.56162
ကောင်း၏။	-9.56185
ခြားနား	-9.56362
ပညတ္တိကျမ်း	-9.56362
မွေ့လျော်	-9.56362
အင်္ကျီ	-9.56362
▁မော်ဒကဲ	-9.56362
▁ပိတ်ချော	-9.56362
အပိုင်းအခြား	-9.56362
ကောင်းမွန်	-9.56377
▁သို့ဖြစ်လျှင်	-9.56399
အသားကို	-9.56431
▁ခဏ	-9.56467
▁နှုတ်ဆောင်	-9.56522
တော်မူပြီဟု	-9.5661
တကာတို့	-9.56618
ပြုသောအမှု	-9.56768
ဗိုလ်	-9.56895
ဆောင်ရွက်	-9.5711
္ဌာန်	-9.57235
မြွက်	-9.57466
▁ခံရမည်။	-9.5748
အကြောင်းကြောင့်	-9.57825
ရှိသနည်း။	-9.57941
ကျမ်းပြုဆရာ	-9.58057
စေတနာစိတ်	-9.58057
လေရာရာ၌	-9.58057
▁နေ့တိုင်း	-9.58085
▁မြင့်သောအရပ်	-9.58187
▁ဆု	-9.58275
▁ဝစွာ	-9.58423
အနောက်ဘက်	-9.58647
▁ကြည့်ရှုလော့။	-9.58673
အလျှင်း	-9.58792
မတတ်နိုင်	-9.58819
▁ယောက်	-9.59029
သားဖြစ်သော	-9.59313
▁ယခုတွင်	-9.59404
ပါနှင့်။	-9.59716
အင်္ဂါ	-9.59781
▁ဆန့်ကျင်ဘက်	-9.59781
ပူပန်	-9.59781
▁အရှက်ကွဲ	-9.59781
မျက်ရည်	-9.59782
▁တကွ	-9.59785
အပြစ်ဖြေရာ	-9.59799
▁ခေါ်တော်မူ	-9.59863
ခြောက်ဆယ်	-9.599
▁တမန်တော်တို့	-9.59907
လမ်းဖြင့်	-9.60405
▁ယေဟု	-9.60499
ကင်းလွတ်	-9.60645
▁အဘယ်အရာ	-9.60701
အခ	-9.609
▁လောက	-9.60942
ဝပ်	-9.60969
▁ရှေးကာလ	-9.61249
ကြောင်းကို၎င်း၊	-9.61324
▁ခေရုဗိမ်	-9.61435
ပိုင်းခြား	-9.61535
ပျားရည်	-9.61535
ပတ်ဝန်းကျင်	-9.61536
ဆိုးညစ်	-9.61536
▁အမဲသား	-9.61536
ဦးချို	-9.61536
တော့။	-9.61537
ပါစေသောဟု	-9.6154
ဟာယယဇ်	-9.61552
ဟာယဖွဲ့	-9.61556
▁တည်းခို	-9.61704
▁ပြည်တန်ဆာ	-9.61715
ရပ်နေ	-9.62025
▁လူများတို့အား	-9.62038
ယုံကြည်ခြင်း	-9.62078
▁ယခုမူကား	-9.62206
ပြည်သားတို့	-9.62241
နှိုးဆော်	-9.62567
ရွှင်လန်း	-9.62568
နှစ်ခု	-9.62573
ခြင်းအလိုငှါ	-9.63249
တသောင်း	-9.63271
▁တမန်တော်	-9.63272
တိုးပွါး	-9.63321
▁မိက္ခာ	-9.63321
▁ဗာရှန်	-9.63322
▁ကျင်လည်	-9.63326
သည်ရှိသော်၊	-9.63346
နိုင်ကြ။	-9.63377
▁လမ်းခရီး	-9.63378
▁သစ်သား	-9.63478
▁ဗတ္တိဇံကို	-9.63483
▁တတ်နိုင်	-9.63496
▁နေရာချ	-9.6356
▁ဝမ်းမြောက်ခြင်း	-9.63778
▁ယောဘ	-9.63834
▁စိတ်ပျက်	-9.63837
အစေခံ	-9.63876
လှဲ	-9.63966
အနက်ကို	-9.64027
▁ထားဖြင့်	-9.64056
ဖြစ်၏ဟု	-9.64076
အိပ်ရာ	-9.6408
▁အသက်ရှင်တော်မူ	-9.64374
▁ယူခဲ့	-9.64476
အဘယ်သူ	-9.64528
ယဇ်ပုရောဟိတ်	-9.64537
ချဉ်းကပ်	-9.65075
သရဖူ	-9.65139
▁ပိလတ်မင်း	-9.65139
▁မတရားသဖြင့်	-9.65142
▁ကိုက်စား	-9.65145
▁တန်ခိုးကြီး	-9.6517
▁အလိုတော်ရှိ	-9.65171
▁ပဌနာပြု	-9.65279
▁ထပ်၍	-9.6528
▁ငါ့ခမည်းတော်	-9.65294
▁မိမိအဝတ်ကို	-9.65696
ဘော်ပြ	-9.65806
အရှေ့ဘက်	-9.66114
မျက်မှောက်	-9.66217
ခံထိုက်	-9.66284
စုဝေး	-9.66773
▁ဧဒုံပြည်	-9.66893
ယစ်မူး	-9.66991
ချိုးဖဲ့	-9.66991
ဖြန်း	-9.66992
▁ငြင်းပယ်	-9.66996
နိုင်ရာ။	-9.66998
ယောယဒ	-9.67
▁အပြည်ပြည်	-9.67048
▁ပေးသနားတော်မူ	-9.67063
အနီးသို့	-9.67196
▁ငါ၏နာမ	-9.6729
ဖါ	-9.67431
ဟာယ	-9.67546
ပြင်မှာ	-9.67615
▁ငါတို့ဘုရားသခင်	-9.67783
▁သိတင်းကြား	-9.67963
▁???????	-9.68009
အလောင်း	-9.68093
ကျော့ကွင်း	-9.68878
▁အမြင့်ဆုံးသော	-9.68878
စေသတည်းဟု	-9.68878
ထောင်လွှား	-9.68878
သည်နည်းတူ၊	-9.68941
▁ရွှေငွေ	-9.68999
▁နားမထောင်ဘဲ	-9.691
ခိုလှုံရာ	-9.69284
နွယ်	-9.69316
▁ဂတိ	-9.6962
ခဲ့ပြီ။	-9.70029
▁မြင့်သော	-9.70742
ပွါး	-9.70801
လိုသောငှါ	-9.70801
ထောမနာ	-9.70801
▁အခါမလည်	-9.70801
▁နူနာ	-9.70801
▁ရန်ဘက်ပြု	-9.70801
▁သစ္စာဂတိ	-9.70801
ကျော်စော	-9.70802
▁တရားသူကြီး	-9.70802
▁နောဧ	-9.70802
▁စပ်ဆိုင်	-9.7081
▁ထင်မှတ်	-9.70815
▁စုံဘက်	-9.70823
▁ဆုတ်	-9.7104
အရပ်တို့၌	-9.71556
နှောင်	-9.71728
မ္မလူ	-9.71786
ဆိုသည်အတိုင်း၊	-9.72199
▁အခွင့်ပေး	-9.7245
▁မွတ်သိပ်	-9.72761
ဖုံးလွှမ်း	-9.72762
▁အနိုင်အထက်	-9.72762
ကြကုန်အံ့ဟု	-9.72762
နှံ့ပြား	-9.72762
▁စတုတ္ထ	-9.72762
▁စားခန်းချကြ၏။	-9.72762
▁ရည်မှတ်၍	-9.72762
ရောနှော	-9.72762
ရှောလမုန်	-9.72787
▁အိုဣသရေလအမျိုး	-9.72849
သွားရာလမ်း	-9.72856
▁ဖြောင့်မတ်စွာ	-9.72951
▁ဆိုလို	-9.73238
စာတန်	-9.7334
▁ဖာရိရှဲတို့	-9.73401
▁ကျမ်းစာလာ	-9.73532
သွေး	-9.73539
▁ချမ်းသာပေး	-9.7393
ဣသရေလအမျိုး	-9.74314
ယောက္ခမ	-9.74762
▁တကျွန်းတနိုင်ငံ	-9.74762
လှည့်ဖြား	-9.74762
▁ဆူးပင်	-9.74762
▁ပသခါပွဲ	-9.74763
အပြစ်ဖြေခြင်းကို	-9.74767
▁စင်စစ်	-9.74767
ထံတော်မှ	-9.74775
▁တိုင်းနိုင်ငံ	-9.74784
▁သိုးနွား	-9.74874
▁ရွှေစင်	-9.74877
သွန်သင်	-9.74948
မေးမြန်း	-9.74952
ကြောက်ရွံ့	-9.74961
ဗေဒ	-9.74971
ဂဒ်	-9.75002
▁မူပါ။	-9.75115
နေ့ရက်ကာလ	-9.75193
▁အရှင်ဘုရား	-9.7591
ပေါင်	-9.76628
▁လှံ	-9.76727
▁အခြားသောသူ	-9.76774
▁ဇာခရိ	-9.76803
▁ဖါရောမင်း	-9.76803
▁မွှေးကြိုင်	-9.76803
▁ရောဗောင်	-9.76803
▁တရားစရပ်	-9.76803
▁အနတ္တ	-9.76805
နှုတ်ခမ်း	-9.76806
▁တယောက်ကိုတယောက်	-9.76809
ငြင်းခုံ	-9.76818
▁ဦးခေါင်း	-9.76821
▁ပလ္လင်တော်	-9.7698
▁နောက်ဆုံး	-9.7708
တော်မူထသော၊	-9.77124
▁အသီးအနှံ	-9.77126
ဆင့်ဆို	-9.77177
စပျစ်ရည်	-9.7718
▁ဆိုးသော	-9.77358
ျေလ	-9.77745
အရပ်ရပ်၌	-9.7808
အရပ်ရပ်သို့	-9.78255
အမ္မုန်အမျိုးသား	-9.78393
စင်ကြယ်	-9.78591
ထိတ်လန့်	-9.78886
အနွှယ်	-9.78886
▁ရှလင်မြို့	-9.78889
တော်မူစေသတည်း။	-9.7897
ိရှဲ	-9.79175
▁သစ္စာစောင့်	-9.79183
ပြည်သား၊	-9.79184
နောင်တ	-9.79343
အုပ်စိုး	-9.79451
▁အကြံရှိ	-9.79488
အာရုန်	-9.79566
▁ဇိအုန်မြို့	-9.802
▁ဇိအုန်တောင်	-9.80293
▁မေထုန်	-9.80653
လွှ	-9.8081
တံဆိပ်	-9.81012
နှစ်သိမ့်	-9.81014
▁ရှံဆုန်	-9.81014
အိမ်သူအိမ်သား	-9.81014
▁နွားထီး	-9.81014
မှီခို	-9.81015
ပခုံး	-9.81016
စွမ်း	-9.81017
▁ဖုံးအုပ်	-9.81024
ပြုမူသော	-9.81029
▁ခုနစ်ရက်ပတ်လုံး	-9.81046
▁မြွက်ဆို၏။	-9.811
▁ဂဒ်အမျိုး	-9.81105
▁အသက်ချမ်းသာ	-9.81109
▁ဤမည်သော	-9.81303
အမည်ရှိ၏။	-9.81338
ကျမ်းစာ	-9.81716
ကျောင်း	-9.81798
▁ဟေဗြုန်မြို့	-9.81835
စည်းဝေးရာ	-9.82021
▁ရွေးကောက်တော်မူ	-9.82344
▁ရှမာရိ	-9.82933
ဌ	-9.83055
ဝေဒနာကို	-9.83188
အမှန်ဆိုသည်ကား၊	-9.83188
▁ယေရိခေါမြို့	-9.83188
ပျဉ်ပြား	-9.83188
▁ဇာဗုလုန်	-9.83188
▁ရာခေလ	-9.83188
▁ရုပ်တုဆင်းတု	-9.83188
▁ဆိတ်သငယ်	-9.83188
▁ညဦးယံ	-9.83188
▁အာဗနာ	-9.8319
▁အစာရှောင်	-9.83193
▁ရှိမောင်	-9.83196
▁အာမလက်	-9.83197
တောင့်တ	-9.83215
▁ကျိန်းဝပ်တော်မူ	-9.83548
ဗေရ	-9.84775
▁ဟစ်ကြော်	-9.85261
သင်္ချိုင်းတွင်း	-9.85303
▁ဒမာသက်မြို့	-9.8541
▁ဣရှမေလ	-9.8541
▁ဂိဒေါင်	-9.8541
▁အထပ်ထပ်	-9.8541
▁ဧသတာ	-9.8541
ပျံ	-9.85414
ယေရှဲ	-9.85417
▁အလိုလို	-9.85447
▁ငါဆိုသည်ကား	-9.8566
▁ဗာလဘုရား	-9.85681
▁ဒဏ်ပေး	-9.85996
▁ပရိသတ်အပေါင်း	-9.8627
မြေတွင်း	-9.86422
ပရိသတ်	-9.86533
အစဉ်အမြဲ	-9.86599
ကောင်းကင်တမန်	-9.86615
▁ခပ်သိမ်းသောအရာ	-9.87227
▁ဟေရုဒ်	-9.87682
▁ဂျုံ	-9.87683
▁အထူးသဖြင့်	-9.87684
▁လာဗန်	-9.87684
▁ဇိဒုန်	-9.87693
▁မြေကြီးစွန်း	-9.87758
▁မီးခုံ	-9.87777
အနန္တတန်ခိုးရှင်	-9.87807
▁အားထုတ်	-9.87819
▁ဟိတ်	-9.87893
▁ခပ်သိမ်း	-9.88132
▁ဆိုးသောသူ	-9.88642
လေသမျှ	-9.88938
ဥယျာဉ်	-9.89017
ဂုဏ်တော်ကို	-9.89257
ကျိန်းဝပ်	-9.89624
ပရိယာယ်	-9.90008
▁ဤမျှလောက်	-9.90009
▁မျက်စိကန်း	-9.90009
▁ဂိဗာမြို့	-9.90012
▁တဖန်တုံ	-9.90012
▁ဟိတ္တိ	-9.90016
တော့ဟု	-9.90029
မှပြောင်း၍	-9.90039
▁စမ်းရေ	-9.90069
▁သံတမန်	-9.90075
ခဲ့ပြီးသော	-9.90342
ကြောက်မက်ဘွယ်သော	-9.91145
▁ဂါလိလဲပြည်	-9.91577
▁ကြိုးစားအားထုတ်	-9.92389
▁ဟေဗြဲ	-9.92389
▁ဩဇိ	-9.92389
နံနက်စောစော	-9.92389
မြှောက်	-9.92389
▁ဗေသလမြို့	-9.92389
ရှာဖွေ	-9.92392
ဗောဇ	-9.92397
▁ကွယ်ကာ	-9.92398
တွင်းထဲသို့	-9.92398
▁ရန်တွေ့	-9.92414
▁သွန်းလောင်းရာ	-9.92431
ပေါက်ဘော်	-9.92462
▁ဆက်ဆက်	-9.92569
အဲဂုတ္တုပြည်သို့	-9.92985
▁အသေသတ်	-9.9301
▁တစုံတယောက်သောသူ	-9.93196
▁ဖာရိရှဲ	-9.94036
ဝါကြွား	-9.94284
ငိုကြွေး	-9.94288
ဘုံဗိမာန်	-9.94828
▁ဇာတိပကတိ	-9.94828
▁ယဇ်ပုရော	-9.94828
▁ရွေးချယ်	-9.94828
▁ထိမိ၍	-9.94829
လျှို	-9.94829
ငါးယောက်	-9.9483
▁ရှေခင်မြို့	-9.9483
အာခဇိ	-9.94831
ရှေမာယ	-9.94832
▁ကွယ်ပျောက်	-9.94834
▁မစားရ။	-9.94845
▁ခုနစ်နှစ်	-9.94996
▁အပြစ်ဖြေရာယဇ်	-9.95649
▁သံလွင်	-9.95891
▁လယ်ပြင်	-9.96217
ခမည်းတော်	-9.96645
မျို	-9.97053
ဧဝံဂေလိတရား	-9.97117
လျှော	-9.97142
ဆွေးနွေး	-9.97328
ပုန်းရှောင်	-9.97328
ရမည်မှာ၊	-9.97329
▁စာရင်းဝင်	-9.97358
ရှို့	-9.97373
▁ရွံရှာဘွယ်	-9.97396
▁ကျိန်ခြင်း	-9.98099
အလုပ်ကို	-9.98415
▁ဟေဇကိမင်း	-9.98422
▁ငါ၏လူတို့	-9.98717
▁ခါနာန်	-9.99109
▁ကုရှ	-9.99172
▁စပျစ်	-9.99458
မြည်တမ်း	-9.99552
ကြီးစွာသော	-9.99797
တပည့်တော်တို့အား	-9.99855
▁ကောဟတ်	-9.99892
ကြီးပွား	-9.99893
▁ဟုတ်မှန်	-9.99893
▁အမင်္ဂလာရှိကြ၏။	-9.99898
▁စစ်ကြောစီရင်	-9.99907
▁နှင်း	-9.99982
▁ဗိုလ်ခြေအရှင်	-10.0004
▁ဘိုးဘေးများ	-10.0047
▁မတရားသောသူတို့	-10.0054
သောင်းနှစ်ထောင်	-10.0095
ပြုမိသော	-10.0123
▁ရေလအမျိုး	-10.016
▁ပြပ်ဝပ်လျက်	-10.0163
ခရစ်တော်	-10.0232
▁ပုရောဟိတ်	-10.0252
▁မရဏာနိုင်ငံ	-10.0252
စပျစ်နွယ်ပင်	-10.0252
္ဌမ	-10.0252
▁တုရုမြို့	-10.0252
အဆွေအမျိုးသူကြီး	-10.0252
ခုနစ်ယောက်	-10.0252
▁ခုတ်လှဲ	-10.0252
▁တကား။	-10.0253
သည်မှန်လျှင်၊	-10.0255
ကောင်းကင်	-10.0258
ခွါ	-10.0258
ကရုဏာ	-10.0261
▁ဘာသာစကား	-10.0279
ကြနှင့်ဟု	-10.0292
မဟုတ်လော။	-10.0375
ထွာ	-10.0483
အိမ်ထောင်	-10.0484
ဗတ္တိဇံ	-10.0498
ကမ္ဘာ	-10.0523
လှိုင်းတံပိုး	-10.0523
▁ဖိလိပ္ပု	-10.0523
▁အပြစ်မပါသော	-10.0523
မိဇပါမြို့	-10.0523
▁မေရာရိ	-10.0523
▁ခွေး	-10.0523
▁ခါးပန်း	-10.0523
▁စိရ	-10.0524
မှားယွင်း	-10.0556
▁ခါနနိလူ	-10.08
▁မြေတပြင်လုံး	-10.08
▁ဟေရှဘုန်	-10.08
▁သက္ကာ	-10.08
သုံးထောင်	-10.0801
ဥရိယ	-10.0801
တခွန်း	-10.0801
မြစ်တား	-10.0801
ထံတော်က	-10.0801
▁ပြီးစီး	-10.0802
▁အရာရာ၌	-10.0802
ဘယ်မျှကာလပတ်လုံး	-10.0803
▁လျှော်	-10.0804
ရှောလု	-10.0841
လွန်ကျူး	-10.0859
ခွန်အား	-10.0861
မိုဃ်းရွာ	-10.1052
မထီမဲ့	-10.1086
ခင်းကျင်း	-10.1086
ငြူစူ	-10.1086
မြေကြီးတပြင်လုံး	-10.1086
▁ကမ္ဘာအဆက်ဆက်	-10.1086
▁မာရ်နတ်	-10.1086
▁အာမင်။	-10.1086
ပြင်းထန်	-10.1086
လျှို့ဝှက်	-10.1086
▁စောစော	-10.1086
▁ကျန်းမာ	-10.1086
▁ရေငတ်	-10.1086
ဆွတ်	-10.1086
▁တံဆိပ်ခတ်	-10.1086
ချစ်ခြင်းမေတ္တာ	-10.1086
▁ဟေလသ	-10.1087
▁လျောက်ပတ်	-10.1087
▁ထိုသိတင်းကို	-10.1088
▁ကြွေး	-10.1088
▁နှုတ်ကပတ်တရား	-10.109
အစ်မ	-10.1103
အလံ	-10.1129
ဖြောင့်မတ်ရာသို့	-10.1132
ကောင်းကြီးပေး	-10.1175
အနံ့	-10.1249
ဗင်္ယာမိန်အမျိုး	-10.1275
▁????	-10.1305
▁စွန်ပလွံ	-10.138
မှဆင်းသက်သော	-10.138
▁ကယ်မသနား	-10.138
သည်သာမက၊	-10.138
▁ဗေနာယ	-10.138
▁နံ့သာမျိုး	-10.1381
▁မုယော	-10.1381
ရေခပ်	-10.1382
ဆီးတား	-10.1494
ညံ့	-10.1595
▁ယောယကိမ်	-10.1683
▁လျင်မြန်	-10.1683
ထူးခြား	-10.1683
▁ကြောက်လန့်	-10.1683
အကြီးအငယ်	-10.1683
▁ရှာကြံ	-10.1684
▁သင်္ဘောသဖန်းပင်	-10.1684
▁ငွေရတတ်	-10.1698
▁အဘယ်မှာရှိသနည်း	-10.172
သင်္ဘော	-10.1827
▁ယေဇရေလမြို့	-10.1996
ရွံ့ရှာဘွယ်	-10.1996
▁ချိန်းချက်သော	-10.1996
▁ပြာသောအထည်	-10.1996
▁အကြည့်အရှု	-10.1996
▁အစာခေါင်းပါး	-10.1996
▁သောဒုံမြို့	-10.1996
▁ပေရသိ	-10.1996
လေ့ကျက်	-10.1996
▁ဝမ်းနည်းခြင်း	-10.1997
▁အသက်ပျိုသော	-10.2005
စစ်တိုက်ခြင်းငှါ	-10.2053
ယွာဘ	-10.2172
▁နက်ဖြန်	-10.2175
ပြစ်ဖြေရာယဇ်ဘို့	-10.2211
အရေဖျားလှီးခြင်း	-10.226
▁ဖြည်	-10.2265
▁ဘိုးဘ	-10.2311
ထိမ်းမြား	-10.2318
အညစ်အကြေး	-10.2318
အထုံးအဖွဲ့	-10.2318
▁နေ့ညဉ့်မပြတ်	-10.2318
▁ပဥ္စမ	-10.2318
▁အဘယ်မျှလောက်	-10.2318
▁လက်စသတ်	-10.2318
ဗာနဗ	-10.2319
ဆုတောင်းပဌနာပြု	-10.2319
▁သူ့မယားကို	-10.2319
ဇိအုန်သတို့သမီး	-10.2328
မိုဃ်းလင်း	-10.2507
နှစ်ထောင်	-10.2516
ကုလားကာ	-10.2529
▁မချဉ်း	-10.2558
လျှပ်စစ်	-10.2652
▁တဆေးမဲ့	-10.2652
▁မွမ်းမံ	-10.2652
▁အာရှရပင်	-10.2652
▁ဧကန်အမှန်	-10.2652
ရင်ခွင်	-10.2652
▁စူးစမ်း	-10.2652
▁တွားတတ်သော	-10.2652
▁တသက်လုံး	-10.2652
ဩ	-11.7763
ဃ	-11.7764
ဦ	-11.7765
ဉ	-11.7766
၎	-11.7767
?	-11.7768
