<pad>	0
</s>	0
<unk>	0
¦	-1.29009
▁¦	-1.65582
▁	-3.18741
𐋇	-3.59536
s	-3.71936
▁,	-3.73119
ų	-4.02204
▁.	-4.18513
i	-4.28266
o	-4.41689
ir	-4.65188
ą	-4.70066
as	-5.14295
e	-5.20525
į	-5.31754
kad	-5.33914
os	-5.38202
a	-5.58018
p	-5.60823
us	-5.60916
u	-5.61473
tai	-5.68938
dėl	-5.75957
ne	-5.76408
𐊣	-5.91206
𐊼	-5.91206
europo	-5.91644
je	-5.98643
su	-6.01152
ai	-6.04118
es	-6.05598
to	-6.1277
iš	-6.18255
kai	-6.18422
yra	-6.22354
me	-6.23797
m	-6.3127
ę	-6.31382
▁-	-6.3399
y	-6.46348
kuri	-6.51887
čiau	-6.54184
ti	-6.56322
ta	-6.63001
vis	-6.64638
pat	-6.67528
▁(	-6.71816
būt	-6.74575
turi	-6.77418
ši	-6.7953
k	-6.83423
▁)	-6.87863
tik	-6.88055
už	-6.88979
pa	-6.89318
ams	-6.91283
t	-6.9711
parlament	-6.98078
ar	-6.98823
labai	-7.03439
ui	-7.04465
būti	-7.04694
oje	-7.07371
d	-7.07596
ės	-7.09348
jų	-7.10664
▁"	-7.10667
ji	-7.11095
buvo	-7.11412
savo	-7.11473
au	-7.11566
pirmininke	-7.14718
api	-7.15843
is	-7.17547
mūs	-7.18341
mes	-7.1844
per	-7.18618
ais	-7.21359
omis	-7.22148
norė	-7.24409
nes	-7.24989
be	-7.27686
dar	-7.2989
ems	-7.30468
pranešim	-7.30483
bet	-7.32257
komisijo	-7.3334
bus	-7.34862
gali	-7.36907
n	-7.38851
nt	-7.42169
z	-7.43651
ių	-7.45462
turėt	-7.45662
g	-7.47427
reikia	-7.48172
nuo	-7.49606
aus	-7.50377
šiuo	-7.52114
jau	-7.52634
nari	-7.53094
ė	-7.53941
te	-7.53984
šali	-7.54268
oms	-7.54615
jo	-7.56473
komisija	-7.58032
valstybės	-7.59373
j	-7.59806
jos	-7.61005
aš	-7.61522
sąjungo	-7.63399
ma	-7.64318
tų	-7.66347
kurios	-7.66635
darbo	-7.67364
kurie	-7.68198
svarbu	-7.68764
kur	-7.69312
mano	-7.69377
ko	-7.70993
in	-7.71229
▁:	-7.73696
metu	-7.75028
mum	-7.76495
prieš	-7.77325
li	-7.77647
mana	-7.78194
uose	-7.79058
klausim	-7.79477
ame	-7.79877
pone	-7.81584
daug	-7.82195
l	-7.82235
at	-7.82601
c	-7.84009
pač	-7.84615
užtikrint	-7.8504
šį	-7.8539
ant	-7.85918
valstybi	-7.87811
pasiūlym	-7.88375
vien	-7.88485
mi	-7.88777
b	-7.89032
teisės	-7.90481
šios	-7.90875
prie	-7.91202
susitarim	-7.93645
nor	-7.94495
de	-7.94626
mas	-7.95242
jūs	-7.95254
sprendim	-7.96461
narės	-7.96653
dabar	-7.97459
▁?	-7.9796
ys	-7.98242
viena	-7.9852
daugiau	-7.98898
tiksl	-7.99188
tam	-7.9948
ja	-7.99501
v	-7.99632
po	-7.99695
gerb	-7.99707
šio	-7.99831
kit	-8.00018
man	-8.01054
nu	-8.03369
siekiant	-8.04272
nėr	-8.0604
kas	-8.06192
ką	-8.06271
r	-8.06857
am	-8.06979
re	-8.07135
▁.,	-8.07588
iki	-8.09421
š	-8.10538
politikos	-8.10652
region	-8.1092
biudžet	-8.11661
visi	-8.11663
nori	-8.12567
teisi	-8.12687
padėti	-8.12764
jie	-8.13218
bei	-8.13396
pagal	-8.14814
galimyb	-8.1638
darb	-8.16751
šis	-8.16908
rink	-8.17231
klausimu	-8.17328
kart	-8.17773
šiandien	-8.17799
pilieči	-8.18317
sąjunga	-8.19325
na	-8.19356
komitet	-8.19454
ekonomiko	-8.20627
taryba	-8.2105
iai	-8.21138
veiksm	-8.22278
žmog	-8.22327
susijusi	-8.22529
tarybo	-8.22929
jei	-8.23054
ją	-8.24141
mis	-8.24185
keli	-8.24474
pasi	-8.24955
jam	-8.25169
galima	-8.26472
būtina	-8.28233
mo	-8.2885
▁;	-8.28874
ž	-8.29542
visiška	-8.30162
negali	-8.31053
ose	-8.31423
arba	-8.32188
f	-8.32537
srity	-8.32707
teis	-8.33464
ni	-8.35145
bendradarbiavim	-8.35727
iuosi	-8.36061
metų	-8.36137
žmoni	-8.36181
dali	-8.36712
čia	-8.37578
projekt	-8.3771
žemė	-8.37873
tarp	-8.38714
ties	-8.38829
čių	-8.39619
-	-8.39694
energij	-8.39733
šalys	-8.39735
europa	-8.40042
pirminink	-8.40883
gal	-8.40962
ėme	-8.41456
turim	-8.422
mą	-8.43029
priemoni	-8.43328
tuo	-8.43698
al	-8.44394
ume	-8.44404
pirma	-8.44779
ūki	-8.44838
dėmes	-8.44936
inės	-8.45927
lo	-8.4599
nustatyt	-8.46222
galėt	-8.46941
inių	-8.47384
ent	-8.4752
ri	-8.47686
h	-8.48464
pasakyti	-8.48614
rinkos	-8.49206
ųjų	-8.49658
iu	-8.50953
iau	-8.50959
toliau	-8.51192
pv	-8.51652
igu	-8.52653
raštu	-8.52907
fond	-8.53149
svarb	-8.53205
atsižvelgia	-8.53665
kuriuos	-8.53774
20	-8.53979
tiek	-8.54189
imti	-8.55585
vard	-8.55626
pagrindini	-8.55836
tas	-8.56217
jog	-8.56357
kartu	-8.56575
0	-8.56926
nei	-8.57309
ūs	-8.57837
proc	-8.57879
6	-8.57927
5	-8.58168
politik	-8.58666
tyrim	-8.58748
do	-8.58809
finans	-8.59078
prekybo	-8.59321
problema	-8.59333
ing	-8.59976
klimat	-8.60422
moter	-8.60585
osios	-8.60771
proces	-8.60816
dami	-8.6099
paslaug	-8.61139
sime	-8.61477
param	-8.62151
,	-8.62708
atveju	-8.63302
lisabono	-8.63333
laik	-8.63518
lėš	-8.63557
2	-8.63597
akt	-8.63813
pagalb	-8.64652
apsaugos	-8.65014
pri	-8.65071
ponia	-8.65398
kita	-8.6559
žinoma	-8.66102
la	-8.66484
politika	-8.66929
mos	-8.67006
pona	-8.67159
maž	-8.67562
pasauli	-8.6776
laisv	-8.67764
frakcijos	-8.67969
plan	-8.68063
šie	-8.6814
šiam	-8.68246
reikal	-8.68643
sistem	-8.68932
poni	-8.68943
reglament	-8.68962
priemone	-8.69035
ga	-8.6995
ap	-8.71043
tikrų	-8.71941
toki	-8.72574
ms	-8.72877
tokia	-8.73182
eur	-8.73466
pritari	-8.73821
ba	-8.7391
transport	-8.7426
vida	-8.74926
ki	-8.75482
net	-8.75577
balsav	-8.75803
kelia	-8.75977
priimti	-8.76155
produkt	-8.76256
ro	-8.76308
pateikti	-8.76349
atžvilgiu	-8.76358
padėko	-8.768
taigi	-8.77092
padėt	-8.7722
ra	-8.77226
sutarti	-8.77318
klausima	-8.77878
esni	-8.77934
deryb	-8.77995
le	-8.78475
vartotoj	-8.78803
tu	-8.79166
sukurt	-8.79225
vaik	-8.80014
ū	-8.80177
dideli	-8.80221
ka	-8.80294
ch	-8.80301
pakeitim	-8.80357
an	-8.80626
tą	-8.80678
įgyvendinti	-8.80832
sveikat	-8.81285
jum	-8.81499
darbuotoj	-8.82347
du	-8.82665
reiškia	-8.8299
uot	-8.83213
svarbi	-8.83467
diskusijos	-8.84301
aiškiai	-8.8442
gyvenim	-8.84459
reikė	-8.84573
maist	-8.8473
tikrai	-8.85016
viet	-8.85205
susitikim	-8.85375
visos	-8.85499
padaryti	-8.85875
turėtum	-8.86068
susi	-8.86222
labiau	-8.86481
gi	-8.86871
mėn	-8.87334
mu	-8.87945
imo	-8.88266
balsavim	-8.88346
ateit	-8.88634
or	-8.88643
jai	-8.89024
nuomone	-8.89085
kriz	-8.89201
8	-8.89662
pasiekti	-8.8986
kr	-8.90005
9	-8.90294
vadov	-8.90397
ojo	-8.90758
dokument	-8.90816
gyventoj	-8.91888
pažang	-8.91903
dien	-8.92196
princip	-8.92246
euro	-8.92277
siekiama	-8.92336
veik	-8.92391
pasaul	-8.92392
informacij	-8.9263
antra	-8.92658
saugum	-8.92843
požiūriu	-8.93136
mokesči	-8.93677
klausimai	-8.941
sektoriu	-8.94162
da	-8.94228
šiuos	-8.94321
tinkam	-8.94708
pl	-8.94806
galiausia	-8.9531
institucijos	-8.9536
valstybėm	-8.95761
mus	-8.95947
rinkim	-8.96505
ve	-8.96529
iškai	-8.96631
neturi	-8.96794
sąlyg	-8.96825
imas	-8.97204
susiję	-8.97351
pabrėžti	-8.97395
privalom	-8.97484
laiko	-8.97595
sistemos	-8.97665
šia	-8.97845
en	-8.97911
socialini	-8.98438
yti	-8.98784
esu	-8.98796
pradėt	-8.99066
oro	-8.99292
pirmiausia	-8.99454
va	-8.99676
ži	-8.99817
pra	-8.99933
valdym	-9.00044
sumažint	-9.00046
finansavim	-9.00098
visa	-9.00225
program	-9.00576
no	-9.00665
umo	-9.01124
1	-9.01389
spręsti	-9.01414
rezultat	-9.01569
priemonės	-9.01581
pagrind	-9.01649
ci	-9.02138
▁¦20	-9.02208
kuria	-9.02671
nariai	-9.02808
angi	-9.03157
ėms	-9.03183
dažn	-9.03203
uoti	-9.03315
ju	-9.03564
pateik	-9.04294
krizės	-9.04343
▁¦3	-9.04375
aplinkos	-9.04541
įvairi	-9.04622
parengt	-9.05005
taisykl	-9.05355
kuo	-9.05359
fr	-9.06128
suteikt	-9.06229
sąjungoje	-9.06574
vaidmen	-9.06604
kain	-9.06992
▁¦200	-9.07647
asmen	-9.07703
/	-9.07743
kurio	-9.07915
uoja	-9.08337
sistema	-9.08361
naudoti	-9.08421
yb	-9.08646
įskait	-9.08911
vietos	-9.08942
žmonėm	-9.09568
žmonė	-9.09703
skirti	-9.09708
el	-9.09721
išlaid	-9.10075
vo	-9.10205
ištekli	-9.10264
daugeli	-9.10333
politini	-9.1036
nti	-9.10447
teism	-9.10466
3	-9.10607
bank	-9.10632
įstatym	-9.10667
leisti	-9.10689
lygmeni	-9.10728
įgyvendinim	-9.10994
bendrijo	-9.11088
bi	-9.11091
veikti	-9.11559
kiek	-9.11619
energetiko	-9.12463
sen	-9.12979
džiaug	-9.13068
nepaisant	-9.13069
juos	-9.13129
problem	-9.13429
diskusij	-9.1353
jus	-9.13543
kuriuo	-9.13743
šalim	-9.13835
nare	-9.13991
dalyk	-9.14557
finansini	-9.14863
rezoliucij	-9.14953
rd	-9.15004
vyriausyb	-9.15077
metai	-9.15172
inio	-9.15438
taikyti	-9.15628
joki	-9.15655
įsipareigojim	-9.15658
kalbant	-9.16227
4	-9.16701
plėtro	-9.16752
.	-9.16884
vi	-9.17009
mokslini	-9.17315
pranešėja	-9.17526
kitos	-9.17558
narėm	-9.17903
min	-9.17925
dama	-9.18096
fi	-9.18422
nebuvo	-9.18627
atsi	-9.1866
vertinim	-9.18684
w	-9.18696
sritys	-9.18715
kitai	-9.19301
direktyvos	-9.1976
skatint	-9.19841
kelet	-9.20658
ministr	-9.20661
rodo	-9.20666
co	-9.20678
vėl	-9.20749
ger	-9.21341
vakar	-9.21347
augim	-9.21391
teise	-9.21433
europ	-9.21482
daryti	-9.21855
aišku	-9.21948
tar	-9.22005
pirm	-9.22078
skirt	-9.225
gerai	-9.22517
pramonė	-9.22562
kuriai	-9.22609
tarptautini	-9.22679
aiški	-9.22681
naujų	-9.23303
ėjim	-9.23361
svarbiausia	-9.2338
tikr	-9.23417
sien	-9.24222
▁¦1	-9.2443
gauti	-9.24431
kol	-9.2476
pastang	-9.2485
laikyti	-9.24923
visuomenės	-9.2542
fakt	-9.25686
vieš	-9.25976
rib	-9.26033
▁¦2009	-9.26049
▁".	-9.26123
ijos	-9.2627
iausi	-9.26332
kalb	-9.26347
privalo	-9.26445
sriti	-9.26602
inti	-9.26775
ėjo	-9.2681
dal	-9.27071
veiklos	-9.27201
bendro	-9.27337
valdžio	-9.27432
lygio	-9.27433
kuriam	-9.27455
er	-9.27894
dirbti	-9.28301
institucijų	-9.28318
gr	-9.2837
ama	-9.28448
bendrą	-9.28714
tinkl	-9.2884
vyr	-9.2889
iant	-9.28955
sąlyga	-9.28981
nė	-9.29068
priežiūro	-9.29087
taut	-9.29098
kar	-9.29129
požiūri	-9.29159
versl	-9.29434
užsieni	-9.29556
veikl	-9.29688
diskusija	-9.29966
standart	-9.3
ku	-9.30484
jūros	-9.30819
ur	-9.31324
dialog	-9.31728
protokol	-9.31728
tinkamai	-9.31737
par	-9.31738
tvirt	-9.31819
žin	-9.31932
piet	-9.32115
solidarum	-9.32463
it	-9.3251
sak	-9.328
narys	-9.33373
laiv	-9.33394
rasti	-9.33743
toks	-9.33769
ragin	-9.33784
nacionalini	-9.33829
ak	-9.33931
griežt	-9.34389
mažiau	-9.34477
kovos	-9.34529
ryt	-9.34787
geriau	-9.35114
pinig	-9.35315
tekst	-9.35443
poveiki	-9.3546
imą	-9.35491
taikym	-9.35627
▁¦2	-9.35781
žingsni	-9.35862
vyksta	-9.36323
tri	-9.36431
skirta	-9.36464
strategij	-9.36619
įtraukti	-9.36782
sudaryt	-9.36837
problemų	-9.36911
didel	-9.3701
turės	-9.37184
šiai	-9.37187
aspekt	-9.37423
iais	-9.37571
tapt	-9.37641
reikalavim	-9.37767
viz	-9.37985
bu	-9.38025
ml	-9.3826
strategijos	-9.38294
kompromis	-9.38549
konkreči	-9.38672
skaidrum	-9.38718
interes	-9.39036
šias	-9.39124
siekia	-9.39226
koki	-9.39278
kon	-9.39301
ime	-9.3934
paket	-9.39343
internet	-9.39349
leidžia	-9.39569
direktyv	-9.39719
vert	-9.39842
dauguma	-9.40495
teisingum	-9.40641
valstybe	-9.4087
poveik	-9.40991
priežasti	-9.41002
reikalinga	-9.41354
galim	-9.41403
ntis	-9.41414
galimybe	-9.41427
pirmininkaujanči	-9.41736
nauja	-9.41771
nary	-9.41808
investicij	-9.41824
inį	-9.4216
ber	-9.42186
damas	-9.42241
rezoliucijos	-9.4246
čio	-9.42782
didesn	-9.43077
itin	-9.43169
tra	-9.43198
piliečiai	-9.43204
lyg	-9.43294
suderint	-9.43385
šaly	-9.43523
ataskait	-9.43574
ln	-9.43757
lygi	-9.44097
pateikt	-9.44194
pači	-9.44348
tvarko	-9.4435
stabilum	-9.44447
tokios	-9.44491
teikti	-9.44915
veiksming	-9.45019
abejo	-9.45114
kalbėti	-9.45272
socialinė	-9.45342
vystymo	-9.4557
lu	-9.45588
nčios	-9.45959
jūr	-9.45989
ekonomini	-9.46286
technologij	-9.46442
avimo	-9.46634
bendra	-9.46645
priklauso	-9.46656
naujas	-9.46707
ep	-9.46734
nuomon	-9.46774
atlikti	-9.46797
atskir	-9.46967
didžiausi	-9.47077
priežas	-9.47495
pasinaudot	-9.47542
rizik	-9.47571
atkreipti	-9.47648
būsim	-9.47952
jas	-9.4813
užimtum	-9.48433
koleg	-9.48541
ada	-9.48565
žal	-9.487
sudaro	-9.48762
padidint	-9.48858
sąjung	-9.48909
augumo	-9.48964
teisė	-9.49218
ėmi	-9.49275
pažeidim	-9.49443
esmė	-9.49475
kontrolė	-9.4959
kyla	-9.49607
saug	-9.49622
atstov	-9.49684
ieji	-9.49816
dėmesi	-9.49933
ėja	-9.49973
dabartin	-9.50036
mok	-9.50081
pritart	-9.50331
taikom	-9.50505
daly	-9.50575
kt	-9.50591
kime	-9.50706
klaus	-9.50765
sutart	-9.50889
pakeist	-9.5099
sanglaud	-9.51065
naują	-9.51065
pritaria	-9.51124
gero	-9.51139
tikslu	-9.51395
grup	-9.51565
straipsni	-9.51589
pozicij	-9.51784
ketina	-9.51838
reikaling	-9.5202
reform	-9.52071
įsi	-9.52261
ver	-9.52266
pus	-9.52369
nuolat	-9.52613
komisij	-9.52725
smurt	-9.52859
savait	-9.53045
papildom	-9.53149
priemon	-9.5331
siekti	-9.53611
inę	-9.53628
form	-9.53641
dav	-9.53717
tvar	-9.53758
▁¦2008	-9.5379
taikoma	-9.53922
politin	-9.53928
tarptautin	-9.54075
oji	-9.54119
sektori	-9.54266
turiu	-9.54379
daugel	-9.54431
ekonomin	-9.54468
didesni	-9.5457
tarptautinės	-9.5458
atsižvelgt	-9.54605
įmoni	-9.54686
atrodo	-9.54933
duomen	-9.55349
procedūr	-9.55397
val	-9.55705
remianti	-9.55861
teisin	-9.56009
iniai	-9.5619
iniciatyv	-9.56333
apsauga	-9.56481
kaitos	-9.56556
mės	-9.56566
on	-9.56651
siu	-9.56698
pakankama	-9.56848
galimybė	-9.5701
daro	-9.57082
tada	-9.57292
išspręst	-9.57358
remti	-9.57388
būd	-9.57397
laisvė	-9.57463
prezident	-9.57489
atvej	-9.57566
jav	-9.57651
džio	-9.57697
skirting	-9.57771
apsi	-9.57852
tikim	-9.57888
vidur	-9.57947
ekonominė	-9.58097
vienod	-9.58154
kokia	-9.58164
direktyva	-9.58317
vartojim	-9.58441
kiti	-9.58655
santyki	-9.58657
veikla	-9.58736
inis	-9.59059
saugos	-9.59066
▁¦10	-9.59149
ome	-9.59311
naudinga	-9.5938
susiduria	-9.59403
turėjo	-9.59438
apsaugot	-9.59901
teigiam	-9.60053
nam	-9.60292
klaid	-9.60312
afriko	-9.60374
išorė	-9.6039
metod	-9.60403
skurd	-9.60467
leidim	-9.60569
žini	-9.60695
duj	-9.60699
šal	-9.60812
ten	-9.6092
veiksminga	-9.6095
galėtum	-9.60965
balsuot	-9.60978
esam	-9.61008
dr	-9.61044
matyti	-9.61094
reguliavim	-9.61354
pokyči	-9.61354
skiria	-9.61437
▁),	-9.61632
lig	-9.61893
nuomonė	-9.61904
veikia	-9.62039
žr	-9.6223
svarbiausi	-9.62311
pasiūlymu	-9.6249
žinot	-9.62777
strategija	-9.63157
paprast	-9.63276
ėti	-9.6328
iniciatyva	-9.63334
▁¦2010	-9.63344
finansin	-9.63352
greičiau	-9.63379
trūkum	-9.63432
priimt	-9.63444
daugyb	-9.63569
atitinkam	-9.63573
priėm	-9.64075
laukia	-9.64118
neturėt	-9.64429
miest	-9.64513
ryši	-9.64544
žino	-9.64631
kokybė	-9.64723
pareiga	-9.64845
pateikta	-9.64891
tampa	-9.64936
tikslai	-9.64976
apsaug	-9.65145
dalyvaut	-9.65375
sąžining	-9.65375
rūm	-9.6552
airijo	-9.65561
link	-9.65605
kūrim	-9.65773
pagrįst	-9.65876
et	-9.65954
eb	-9.65973
tenka	-9.66012
pasiekta	-9.66027
poreiki	-9.66039
programos	-9.66129
sudėting	-9.6626
ilg	-9.66309
žmon	-9.66324
50	-9.66325
panaikint	-9.66413
pagrindin	-9.66417
demokrat	-9.66461
go	-9.66522
asis	-9.66677
žinom	-9.66679
prioritet	-9.66706
gyvena	-9.66768
sprendimu	-9.66777
auk	-9.66864
laika	-9.66905
teisini	-9.66951
lė	-9.66955
minti	-9.66974
anksčia	-9.67034
ntys	-9.67046
sektoria	-9.67126
sutink	-9.67162
dėkoju	-9.67362
frakcija	-9.67511
anti	-9.67605
siekdam	-9.67683
atliek	-9.67762
bo	-9.67915
pagerint	-9.67916
teigiama	-9.67919
kiekviena	-9.68192
švietim	-9.68501
ru	-9.68509
nčių	-9.6856
norint	-9.68623
pavyzdžiu	-9.68733
rūpi	-9.68871
parlamentu	-9.68911
šaltini	-9.69108
nesu	-9.69153
kalba	-9.69163
gera	-9.69185
bent	-9.69203
naujo	-9.69269
prisi	-9.69387
vaist	-9.69521
dvi	-9.69542
kurti	-9.69604
▁!	-9.69727
skirtum	-9.69767
atsaking	-9.69855
patirti	-9.69885
var	-9.69893
vyko	-9.70006
naudos	-9.70031
problemo	-9.70159
ūkinink	-9.7018
padarini	-9.70443
būdu	-9.70459
šalimi	-9.70497
skaiči	-9.705
dė	-9.70734
inink	-9.70806
nd	-9.70997
ėte	-9.70998
tok	-9.71055
ekonomika	-9.71163
atsakomyb	-9.71249
sunkum	-9.71316
avo	-9.71459
susirūpinim	-9.71726
valstij	-9.71726
finansinė	-9.7173
inius	-9.71769
pastar	-9.71907
informacija	-9.72062
mirti	-9.72358
ino	-9.72367
nusi	-9.72411
valstyb	-9.72585
priemonėm	-9.72605
teritorij	-9.72825
išvengt	-9.72825
padės	-9.72832
iška	-9.73054
šiol	-9.73064
aptart	-9.73216
mėnesi	-9.73261
žemi	-9.73541
kriterij	-9.73545
gu	-9.73599
rinka	-9.73652
vy	-9.73668
centr	-9.73842
palaik	-9.73876
tokiu	-9.73879
atitinka	-9.73891
pasiek	-9.73968
č	-9.7398
vykdyti	-9.74447
tiesiog	-9.74625
nę	-9.74655
prašym	-9.74985
vanden	-9.75036
gamintoj	-9.7506
mechanizm	-9.7506
įmonės	-9.75109
programa	-9.75238
užtikrin	-9.75426
parama	-9.75536
klausimo	-9.75623
sek	-9.75735
kovot	-9.75903
imu	-9.75956
pareiškim	-9.76256
auja	-9.76375
pajėg	-9.76409
nepa	-9.76484
juo	-9.76799
aukščiausio	-9.76981
naudojam	-9.77034
daugiausia	-9.77407
demokratijos	-9.77583
suprast	-9.77661
ly	-9.7772
vyks	-9.7781
nuostat	-9.78088
ke	-9.78249
šeim	-9.78317
pritar	-9.78389
kredit	-9.78508
automobili	-9.78508
įgaliojim	-9.78604
visuotin	-9.78606
rimt	-9.78659
priėmim	-9.78844
sprendžia	-9.78867
vertu	-9.78961
vertinu	-9.79159
acij	-9.79261
kil	-9.79331
skyr	-9.79435
kok	-9.79669
medžiag	-9.79685
konflikt	-9.79685
▁¦000	-9.79692
trečia	-9.79791
mišk	-9.79889
uosiu	-9.80293
dej	-9.80347
ton	-9.80391
ateiti	-9.80441
visuomen	-9.80441
būtin	-9.80468
kitą	-9.80474
palankia	-9.80579
požiūr	-9.80695
pavyk	-9.80778
skaičiu	-9.80831
infrastruktūr	-9.80875
nį	-9.8093
lio	-9.80943
vengrijo	-9.80963
eiti	-9.81374
kovo	-9.81511
gamybo	-9.81538
pagrįsta	-9.81538
plat	-9.81726
ter	-9.81739
judėjim	-9.8208
geresn	-9.82216
konkurencingum	-9.82241
bendros	-9.82738
bū	-9.83257
pro	-9.83275
integracij	-9.833
posėdži	-9.83311
dviej	-9.83328
sąlygos	-9.83335
kam	-9.83337
organizacij	-9.83352
sustiprint	-9.83505
pasiūlyt	-9.83752
bals	-9.83945
remia	-9.84217
akivaizdu	-9.84232
esnės	-9.84254
taik	-9.84302
usių	-9.84309
nebūt	-9.84347
mažum	-9.84597
sriči	-9.84667
derybos	-9.84718
kaita	-9.84906
atsakomybė	-9.85079
lank	-9.85087
kiekvien	-9.85267
pozicijos	-9.85281
tariant	-9.85453
sias	-9.85463
rusijo	-9.85797
pasveikin	-9.8586
partnerystė	-9.85926
įmonėm	-9.86079
apima	-9.86118
mažinim	-9.86176
tokio	-9.86315
pajam	-9.86317
parodyt	-9.86332
aišk	-9.86682
suteikia	-9.86801
tapo	-9.86817
zon	-9.86863
panaudot	-9.86876
baudžiam	-9.8705
prieglobsčio	-9.8705
šiaurė	-9.87051
usios	-9.87104
vyriausybės	-9.87109
prancūzijo	-9.87116
turkijo	-9.87155
taisyklės	-9.87241
tikrą	-9.87454
padar	-9.87482
kalbame	-9.87743
nčio	-9.87914
tinkama	-9.87935
van	-9.87985
numatyta	-9.88073
aukšt	-9.8812
teisinga	-9.88214
naud	-9.88267
audito	-9.88332
neabejotina	-9.88332
ginkl	-9.88332
▁¦14	-9.88357
uost	-9.88476
yn	-9.88601
priimta	-9.88831
atsakyt	-9.88855
jungtini	-9.88878
pranešėj	-9.88935
taiko	-9.89063
priemonė	-9.89199
veiksmai	-9.89217
visai	-9.8924
patvirtinti	-9.89279
reikalauja	-9.89342
ženkl	-9.89395
atsakym	-9.89565
dešimt	-9.89624
gyvyb	-9.89645
pačios	-9.89647
kova	-9.90233
viso	-9.9034
didelė	-9.90378
naudojimo	-9.90872
neseni	-9.91058
br	-9.91061
angli	-9.91104
laikotarpiu	-9.91116
praeit	-9.91227
kokyb	-9.9128
atsak	-9.91509
plėtra	-9.91542
institucijom	-9.91548
nl	-9.91568
reikalavimus	-9.91586
nio	-9.91717
nacionalin	-9.91717
il	-9.91753
tiekim	-9.91787
00	-9.91896
niu	-9.92023
leis	-9.92117
tema	-9.92126
▁¦4	-9.92252
neigiam	-9.9228
pasitikėjim	-9.9228
kultūro	-9.92341
pareng	-9.92408
ha	-9.92517
aktyv	-9.92532
duomeni	-9.92604
rekomendacij	-9.92629
nių	-9.92636
uojant	-9.92749
tvirtai	-9.92796
mažai	-9.92875
galiu	-9.92958
pareig	-9.92976
mat	-9.93031
dirba	-9.93117
jt	-9.93227
lauk	-9.93347
nar	-9.93446
jokio	-9.93583
pacient	-9.93631
eksport	-9.93632
kel	-9.93632
režim	-9.93636
kalbėjo	-9.9365
lengva	-9.93769
reng	-9.93809
žuvininkystė	-9.93896
grėsm	-9.94023
galės	-9.94252
institucija	-9.94365
teising	-9.94444
didžiul	-9.945
siekdama	-9.94505
rimta	-9.94566
mokest	-9.95016
ano	-9.95029
partijo	-9.95073
hu	-9.95288
įmanoma	-9.95299
efektyvum	-9.95381
kin	-9.95816
eli	-9.95839
kontrol	-9.95863
ge	-9.96051
struktūr	-9.96075
aplink	-9.96153
esant	-9.96216
nepriklausom	-9.9633
pusiausvyr	-9.9639
nieko	-9.96391
jaunim	-9.96406
pabaigo	-9.96413
svarstym	-9.96416
laikotarpi	-9.96465
draudim	-9.96716
mastu	-9.96739
dabartini	-9.96783
įtraukta	-9.96879
nelyg	-9.96921
teisingai	-9.96932
jant	-9.97019
negalima	-9.97081
bendr	-9.97217
nai	-9.97414
puikia	-9.97472
praėjusi	-9.97498
idėj	-9.9752
bendrosio	-9.97539
der	-9.97581
sal	-9.97703
diskriminacij	-9.97708
globalizacij	-9.97798
atvejai	-9.97808
nebe	-9.97862
pasak	-9.97907
įsitikinę	-9.97948
ymo	-9.98084
jom	-9.98184
taisykle	-9.98476
nenori	-9.98496
nurod	-9.98569
prast	-9.98588
pozicija	-9.98646
pranešimu	-9.98708
žodži	-9.98854
posėd	-9.99224
teisėkūr	-9.99233
peln	-9.99233
užkirst	-9.9926
tarš	-9.99285
paremti	-9.99383
pavoj	-9.99442
prisidėt	-9.99496
tikras	-9.9951
siek	-9.99663
leiski	-9.99772
minėjo	-9.99781
imigracij	-9.99783
būda	-10.0031
15	-10.0033
prekyba	-10.0035
vertin	-10.0041
vėliau	-10.0042
tap	-10.0049
graikijo	-10.0055
laikin	-10.0062
rytoj	-10.0068
▁¦19	-10.0069
pien	-10.007
šeši	-10.0072
socialist	-10.0075
minėt	-10.008
inimo	-10.0081
teisėm	-10.0082
atlikt	-10.0083
labiausia	-10.0085
turinči	-10.0087
▁).	-10.0092
ankstesn	-10.0101
paskelb	-10.0123
kultūr	-10.0125
atvir	-10.014
naudojant	-10.0157
ameriko	-10.0159
struktūrini	-10.0181
damos	-10.0202
kiekvieno	-10.0212
▁¦2011	-10.0215
byl	-10.0216
amos	-10.0244
vykdom	-10.0253
turint	-10.0257
acijos	-10.0275
skiriama	-10.0281
ekonomik	-10.0307
panaši	-10.031
organizacijos	-10.0318
pastab	-10.0326
trumpa	-10.033
išvad	-10.0331
vykt	-10.0354
moksl	-10.0361
gyvūn	-10.0364
pripažinti	-10.0377
sunki	-10.0381
ras	-10.0398
užsi	-10.0404
galėsi	-10.0424
nerim	-10.044
tokie	-10.0454
plėtr	-10.0455
efektyv	-10.0463
štai	-10.048
išsi	-10.0482
principu	-10.0488
padeda	-10.0495
pasiūl	-10.0505
iniam	-10.0512
darbotvarkė	-10.0524
keturi	-10.0531
naujos	-10.0532
leist	-10.0532
didelį	-10.0549
bendrov	-10.0554
gruo	-10.0568
geriausia	-10.0607
procedūra	-10.0609
geresni	-10.0615
negu	-10.0616
stiprint	-10.0632
vokietijo	-10.0634
atsakinga	-10.0638
ači	-10.064
pt	-10.0666
barro	-10.0671
taryb	-10.0677
patiria	-10.0689
lt	-10.0721
stipri	-10.0731
tem	-10.0743
iausia	-10.0774
uoju	-10.0775
pakeitimu	-10.0781
pagalba	-10.0791
etap	-10.0792
svarst	-10.0799
tės	-10.0806
siūloma	-10.0809
sąraš	-10.0826
inovacij	-10.0826
rūši	-10.0826
atstovauja	-10.0827
vil	-10.0831
jungtinės	-10.0833
našt	-10.084
grupės	-10.084
parod	-10.0841
praneš	-10.0841
taikomos	-10.086
esanči	-10.0861
teikiama	-10.0866
pagrindinė	-10.0911
bendras	-10.0925
lieka	-10.096
nieka	-10.0961
gerbiam	-10.0967
atsižvelgdama	-10.0968
dalyvavim	-10.0984
pirmininkaujant	-10.0984
atsinaujinanči	-10.0985
reali	-10.0987
baig	-10.0988
ate	-10.0996
tikiu	-10.0998
mv	-10.103
patvirtinim	-10.1038
kli	-10.1069
skatina	-10.1077
tęsti	-10.1081
greit	-10.1087
ner	-10.1089
sutarty	-10.1092
▁¦12	-10.1114
susijusios	-10.1121
krikščioni	-10.1127
nustatyta	-10.1128
ypating	-10.1134
ran	-10.1136
prevencij	-10.1146
keleivi	-10.1146
mal	-10.1147
amžia	-10.1148
užduoti	-10.1153
paminėti	-10.1154
viening	-10.117
ausio	-10.1173
aug	-10.1187
narė	-10.119
eina	-10.1201
vertinti	-10.1221
išmok	-10.1224
galutini	-10.1235
agentūr	-10.1266
gauna	-10.1268
nr	-10.1279
italijo	-10.1285
padidin	-10.1289
integruot	-10.131
koordinavim	-10.131
apskrit	-10.131
pareigūn	-10.131
pobūdži	-10.131
aplinkosaug	-10.1312
liep	-10.1323
palaiko	-10.1335
pirmas	-10.134
virš	-10.1342
did	-10.1347
suma	-10.1349
rank	-10.1352
tuos	-10.1354
prekyb	-10.1359
laiku	-10.1374
įtak	-10.1382
pabrėž	-10.1382
vykd	-10.1405
sėkmingai	-10.1413
▁¦11	-10.1414
situacij	-10.1423
suteikta	-10.1426
įtrauk	-10.1431
kieki	-10.1437
derin	-10.1441
zonos	-10.1453
sunku	-10.1455
sius	-10.1457
besi	-10.1461
kaimyn	-10.1465
omeny	-10.1476
geležinkeli	-10.1476
konkret	-10.1476
pensij	-10.1476
punkt	-10.1476
referendum	-10.1476
spaudim	-10.1476
bendradarbiaut	-10.1478
tini	-10.1483
tikra	-10.1494
ribot	-10.1513
partneri	-10.1535
bendrai	-10.155
perspektyv	-10.1564
tęs	-10.1571
skol	-10.1589
ančių	-10.1606
įvertint	-10.1614
kito	-10.1634
socialine	-10.1636
padaryta	-10.1637
sveikin	-10.1639
analiz	-10.1642
aptar	-10.1643
vaidm	-10.1643
penki	-10.1646
atitikt	-10.1648
praš	-10.1652
galėjo	-10.1656
drąs	-10.1656
išreikšt	-10.1658
škai	-10.1661
prieinam	-10.1662
valstybė	-10.1663
aplinkybėm	-10.1663
pripažin	-10.1664
mane	-10.1664
kinijo	-10.1688
sprendimai	-10.17
sakant	-10.1708
mini	-10.1714
interesus	-10.1727
pagrindu	-10.173
demokratini	-10.1738
tvark	-10.1742
pramon	-10.1758
sulauk	-10.1765
bar	-10.177
greita	-10.1787
įsitikin	-10.18
eri	-10.1809
gerint	-10.1814
esama	-10.1815
birželio	-10.1818
pabėgėli	-10.1818
šengen	-10.1818
organizuo	-10.1818
policij	-10.1818
autori	-10.1818
gebėjim	-10.1819
tolesni	-10.1821
reikalaut	-10.1822
bandym	-10.1823
operacij	-10.1823
siūl	-10.1828
politinės	-10.1833
oficial	-10.1836
naikin	-10.1846
ce	-10.1849
užtikrinant	-10.1866
jungtin	-10.1888
bendruomen	-10.1895
blog	-10.1909
laikom	-10.1916
speciali	-10.1934
pastanga	-10.1944
būtinyb	-10.1946
rom	-10.1966
pastaruo	-10.1972
didži	-10.1978
toli	-10.1984
atsarg	-10.1994
reaguot	-10.1994
europieči	-10.1994
kosov	-10.1994
gamini	-10.1997
įgyvendinant	-10.1997
▁¦13	-10.1997
gra	-10.2
rezoliucija	-10.2
stebi	-10.201
pasiekt	-10.2026
niekad	-10.203
principai	-10.2041
juod	-10.2041
tie	-10.2051
šv	-10.2062
vykusi	-10.2062
skubi	-10.2073
land	-10.2096
savi	-10.2102
žvejybo	-10.2104
milijon	-10.2111
kalt	-10.2139
aktu	-10.2143
mokėt	-10.2161
romų	-10.217
ginč	-10.2171
tūkstanči	-10.2172
atidžia	-10.2172
plojimai	-10.2172
kapital	-10.2172
įstaig	-10.2172
tarpusav	-10.2172
mokymo	-10.2173
vasar	-10.2173
termin	-10.2175
kilmės	-10.2176
panaikinim	-10.2177
išlaikyti	-10.2182
nacionalinės	-10.2183
patikim	-10.2185
lyči	-10.219
rug	-10.2193
dienos	-10.2198
ingai	-10.2208
izraeli	-10.2213
didėja	-10.2249
numatyt	-10.2251
primin	-10.2259
elektro	-10.2262
pagarb	-10.2289
humanitarin	-10.2293
pavojing	-10.2313
vykdym	-10.2327
stipr	-10.2346
tuomet	-10.2351
plėtoti	-10.2354
sankcij	-10.2354
žod	-10.2362
žuv	-10.2365
garantij	-10.2368
ančia	-10.2409
ky	-10.241
balsavo	-10.2413
reikšming	-10.2415
vieta	-10.2427
gair	-10.244
karin	-10.2444
teikim	-10.245
nurodyt	-10.2486
čiai	-10.2511
kalbam	-10.2525
silpn	-10.2539
delegacij	-10.2539
administracin	-10.2539
įtvirtint	-10.2539
paaiškint	-10.254
pareikšt	-10.2546
ginti	-10.2558
pabrėžiama	-10.2563
laikomas	-10.2571
kūr	-10.2589
nusikaltim	-10.26
▁.)	-10.2608
and	-10.261
bendrų	-10.2611
nga	-10.2615
tarptautiniu	-10.2617
nacionaliniu	-10.2636
duot	-10.2651
atvyk	-10.2651
▁¦25	-10.2655
pavyzdy	-10.2672
forma	-10.2678
pavyzdži	-10.2687
nauding	-10.2691
iššūki	-10.2693
he	-10.2694
rezultatai	-10.2699
antr	-10.27
pradži	-10.2702
keičia	-10.2703
kreip	-10.2726
é	-10.2728
gynyb	-10.2728
daugeliu	-10.2729
kvot	-10.2729
artim	-10.2735
jėg	-10.2736
ėm	-10.2738
nepriimtina	-10.2744
sustabdyt	-10.2748
mokėjim	-10.2759
atlieka	-10.2762
tris	-10.2768
naudojimą	-10.2774
siūlom	-10.2789
srit	-10.2793
gerą	-10.2802
dalimi	-10.2808
atsisakyt	-10.282
patvirtino	-10.2823
prot	-10.2828
atliekam	-10.2832
didžiausia	-10.284
pradžio	-10.286
pasaulini	-10.2875
manymu	-10.288
vykdoma	-10.2885
tariam	-10.2894
atkreip	-10.2897
paskutin	-10.2899
ll	-10.2904
suvok	-10.2915
preki	-10.2919
rė	-10.2921
tebė	-10.2921
nauju	-10.2922
pradeda	-10.2922
nauji	-10.2927
škum	-10.2931
palikt	-10.2934
ac	-10.2934
buvusi	-10.2944
baigdama	-10.2946
rengiant	-10.2957
visuomene	-10.2959
stebėti	-10.2964
darbu	-10.2975
lygiu	-10.2979
kalbos	-10.2987
ale	-10.2993
den	-10.2996
sėkmė	-10.3002
įmon	-10.3003
kan	-10.3004
baigti	-10.3009
dirb	-10.3013
kultūrin	-10.302
sukurta	-10.302
suprant	-10.3039
modeli	-10.305
ėmės	-10.3051
patenkint	-10.3068
balsavima	-10.3071
nuostata	-10.3079
pasiūlymai	-10.3081
pavoju	-10.3085
laimė	-10.31
iešk	-10.3103
uojama	-10.3108
malonu	-10.3116
misij	-10.3117
nusprend	-10.3117
sutarim	-10.3118
priklausomyb	-10.3131
vykdant	-10.3138
galė	-10.3144
darbuotojai	-10.3148
skubiai	-10.315
dž	-10.316
tgi	-10.3164
pil	-10.3171
nukreipt	-10.3178
didint	-10.3186
pamiršt	-10.3208
nutraukt	-10.3217
konkurencijo	-10.3225
band	-10.3231
patvirtint	-10.3233
pažanga	-10.3271
nčią	-10.3272
kokios	-10.328
geriausi	-10.3299
sutinka	-10.3307
atstovai	-10.3312
vald	-10.3312
statyb	-10.3316
religij	-10.3316
klas	-10.3316
stojim	-10.3317
pašalint	-10.3317
žym	-10.3319
elektronin	-10.3321
rumunijo	-10.3323
sąnaud	-10.3327
lankstum	-10.334
teisinės	-10.3351
fa	-10.3357
gana	-10.3358
ker	-10.3359
supranta	-10.3361
įrod	-10.3376
sudėtinga	-10.3394
nelaim	-10.3395
straipsn	-10.34
kopenhago	-10.3418
regionini	-10.3426
ilgalaik	-10.3429
main	-10.3431
teikiam	-10.3432
sėkm	-10.3434
umu	-10.3451
frakcij	-10.3456
stabil	-10.3458
skatinim	-10.3463
jung	-10.347
tol	-10.3477
erdvė	-10.3479
demokratija	-10.3485
aljans	-10.352
smulk	-10.352
kandidat	-10.352
sutarči	-10.3521
teršal	-10.3521
organ	-10.3522
apribojim	-10.3531
taikant	-10.3531
ilgalaiki	-10.3531
surengt	-10.3541
remiam	-10.3542
dėk	-10.3548
tiesiogi	-10.3565
partija	-10.3572
tikėti	-10.3576
įvykdym	-10.3576
pareiškimai	-10.3586
veiksni	-10.3602
demokratin	-10.3614
apimt	-10.3615
krize	-10.3618
vieninteli	-10.3622
nustat	-10.3625
matome	-10.364
gav	-10.364
suteik	-10.3648
pranešėju	-10.3676
lab	-10.3685
kov	-10.3689
pažeidžiam	-10.3695
kliū	-10.3697
kolego	-10.3708
darbotvark	-10.3723
kroatij	-10.3729
konstitucij	-10.3729
rodikl	-10.3729
potencial	-10.3729
apsvarstyt	-10.373
balt	-10.3732
puik	-10.3735
duomenys	-10.3737
pastat	-10.374
regioninės	-10.3754
prioritetu	-10.377
konvencijos	-10.3777
atlik	-10.3783
trečių	-10.3799
prieštarauja	-10.3808
vietoj	-10.3815
leido	-10.3816
vertė	-10.3819
atskirti	-10.3822
trij	-10.3823
konferencij	-10.3828
nčiu	-10.383
gaut	-10.383
status	-10.3834
viduri	-10.3844
plači	-10.3853
technini	-10.3865
žem	-10.387
keisti	-10.3892
nuostatos	-10.3893
aktyvia	-10.3894
paprašyt	-10.3902
čius	-10.3902
peržiūr	-10.3909
moteri	-10.3916
kitus	-10.3921
aktai	-10.3921
vad	-10.3941
paprasčiausia	-10.3941
respubliko	-10.3941
savanorišk	-10.3941
istorin	-10.3941
elges	-10.3942
praktin	-10.3942
nant	-10.3943
turizm	-10.3947
informuoti	-10.395
kasdien	-10.3956
pajėgum	-10.3963
esmini	-10.3972
nedels	-10.3985
paklaus	-10.399
rat	-10.3995
nuosekli	-10.3997
žengt	-10.4001
pavyzd	-10.4003
agentūros	-10.4017
didžiuli	-10.402
neturėtum	-10.4024
mon	-10.4028
veikim	-10.4033
rusija	-10.4036
įvyki	-10.4038
norėt	-10.4059
abi	-10.406
atliko	-10.4098
žodžiu	-10.4122
susitarimai	-10.4135
sėkming	-10.4147
kryp	-10.4156
institucin	-10.4159
balkan	-10.4159
chartij	-10.4159
konstruktyv	-10.4159
kvalifikacij	-10.4159
ispanijo	-10.4159
á	-10.4159
antys	-10.4164
kalbėtoj	-10.4164
priek	-10.4169
socialinę	-10.4175
pakeitimai	-10.4179
vesti	-10.418
tv	-10.4182
vidu	-10.4185
pasekm	-10.42
užbaigt	-10.4202
lemia	-10.4206
puiki	-10.422
kovojant	-10.4244
gina	-10.425
reforma	-10.4251
ding	-10.4259
veiksmingum	-10.4259
vaikai	-10.4264
tur	-10.4301
apgailestauj	-10.4304
stiprina	-10.4317
mažint	-10.4318
pamat	-10.4319
teikiant	-10.4325
kolega	-10.4326
sako	-10.4331
daugia	-10.4335
vadina	-10.4335
reg	-10.4344
likusi	-10.4358
baltarusijo	-10.4381
portugalijo	-10.4381
akivaizdžiai	-10.4381
turėsi	-10.4407
ppe	-10.4407
paskutini	-10.4407
sport	-10.4408
karo	-10.441
bž	-10.4414
užtikrinim	-10.4424
ketinim	-10.4426
avusi	-10.4427
gen	-10.443
trump	-10.4432
buv	-10.4432
vartotojai	-10.4433
dvišali	-10.4433
sutartimi	-10.4439
kal	-10.4473
rengiam	-10.4479
dėti	-10.448
ūp	-10.4492
paskatin	-10.4502
verčia	-10.4504
pasakė	-10.4507
procedūros	-10.4521
terorizm	-10.454
partij	-10.4542
grįžt	-10.4545
iškelt	-10.4564
aplinka	-10.4564
mėnes	-10.4568
vyn	-10.4587
vidutini	-10.4589
pagrindiniai	-10.4594
tinka	-10.4597
ash	-10.4602
alternatyv	-10.4608
sandori	-10.4608
energetin	-10.4608
terorist	-10.4608
žiniasklaido	-10.4608
lin	-10.4608
glaudžia	-10.4609
liaudi	-10.461
abiej	-10.4611
paaiškinim	-10.4614
tęsia	-10.4615
nepavyk	-10.462
priima	-10.4631
reikalaujama	-10.4634
kliūti	-10.4645
prival	-10.4647
produktai	-10.4656
pasaulinė	-10.4667
lygybė	-10.467
patvirtinta	-10.4677
palaikyt	-10.4677
gim	-10.4678
menk	-10.468
idėja	-10.4687
gri	-10.469
standartai	-10.4696
por	-10.4714
ystės	-10.4722
kalbu	-10.4732
iesi	-10.4732
lėt	-10.4755
tėv	-10.4768
import	-10.478
visišk	-10.4789
bendrąj	-10.4794
strategin	-10.4797
saugi	-10.4806
pirmą	-10.4816
pačiu	-10.4817
sukelt	-10.4821
visapusišk	-10.4836
praša	-10.4837
netruk	-10.484
išpuoli	-10.4841
kampanij	-10.4841
pakistan	-10.4841
pasirengę	-10.4841
uždraust	-10.4841
▁¦2013	-10.4841
perkėlim	-10.4841
nafto	-10.4841
turkija	-10.4841
supaprastint	-10.4841
kinija	-10.4841
prisideda	-10.4842
skyrim	-10.4842
visuomenė	-10.4842
mokėtoj	-10.4848
stengti	-10.4852
pasirinkim	-10.4853
lenkijo	-10.4862
nustatom	-10.4862
išmetam	-10.4863
baz	-10.4874
mokyti	-10.4882
įgyvendinam	-10.4883
poreik	-10.4886
gyvent	-10.4891
kartai	-10.4898
patvirtina	-10.4918
aspektu	-10.4921
sutelkt	-10.4922
praktik	-10.4926
site	-10.4934
gyven	-10.4939
veiksmingesn	-10.494
pirmąj	-10.4957
laisvi	-10.496
suteiks	-10.4973
įgyvendin	-10.4979
profesini	-10.4981
skiriam	-10.4986
pranešėjo	-10.4989
nurodyta	-10.4994
priežiūr	-10.5001
gre	-10.5003
parodė	-10.5018
bendrovė	-10.5021
padidėj	-10.5033
ragina	-10.5039
aplinkyb	-10.5057
naujoj	-10.5067
briusel	-10.5079
ekologin	-10.5079
precedent	-10.5079
ateinanči	-10.5079
lapkri	-10.5079
religin	-10.508
turting	-10.5081
sukėl	-10.5091
didina	-10.5117
suprantama	-10.512
susitart	-10.5123
atsižvelg	-10.5132
įvykdyt	-10.5134
vertę	-10.5135
karalystė	-10.5143
mokykl	-10.5153
tarnybo	-10.5159
dirbanči	-10.5163
susidar	-10.5164
žvejyb	-10.5171
papraš	-10.518
nuoširdžia	-10.5182
nuolatini	-10.5191
vyriausybe	-10.5194
vienintel	-10.5203
bendruomenė	-10.5215
sukuria	-10.5236
sieki	-10.524
bulgarijo	-10.5244
europin	-10.5252
pateikiam	-10.5254
išsaugot	-10.5263
skaidr	-10.5272
išsami	-10.5277
išaug	-10.5281
abejonė	-10.5321
ombudsmen	-10.5323
sukčiavim	-10.5323
geguž	-10.5323
minimal	-10.5324
perdavim	-10.5324
palygint	-10.5324
dalyvi	-10.5326
komunikat	-10.5329
▁¦18	-10.5329
duoti	-10.5332
užmoj	-10.5333
priimant	-10.5338
lygin	-10.5351
sparčia	-10.5358
duoda	-10.5383
linij	-10.5383
numat	-10.5383
sukūrim	-10.5385
reišk	-10.54
trūk	-10.5409
kelti	-10.5425
griežtai	-10.5425
vertinam	-10.5431
dalyka	-10.5435
išim	-10.544
pirmininkavim	-10.5466
paskelbt	-10.549
svarstom	-10.5503
naudoja	-10.5508
kreipti	-10.5509
santykiai	-10.5511
pripažįsta	-10.5524
turė	-10.5526
daroma	-10.553
saugoti	-10.5533
kokiu	-10.5543
pasisak	-10.5543
bausm	-10.5549
angl	-10.5552
skirtos	-10.5553
galioja	-10.5553
likti	-10.5562
vaizd	-10.5572
priversti	-10.5573
reiting	-10.5573
dvigub	-10.5573
kenčia	-10.5573
egipt	-10.5573
vertybi	-10.5579
nustatant	-10.5581
sakyti	-10.5583
paskol	-10.559
prieig	-10.5594
prasme	-10.5607
prisitaikym	-10.5615
palanki	-10.5617
neįmanoma	-10.5632
muit	-10.5634
atnaujint	-10.5644
įvykiai	-10.5644
išsam	-10.5651
ekonomine	-10.5655
valdyt	-10.5661
norėtų	-10.5667
pradin	-10.5668
priešinga	-10.568
pritaikyt	-10.5681
galvoj	-10.5704
siūlo	-10.571
svarbios	-10.5748
didinim	-10.5752
socialin	-10.5757
ukraino	-10.5765
sunk	-10.577
numatyti	-10.578
pavaduotoja	-10.5787
registr	-10.5795
try	-10.5798
abejon	-10.5805
išmetamų	-10.5805
agentūra	-10.5806
konsultacij	-10.5829
▁¦2012	-10.5829
atlyginim	-10.5829
tvarkyti	-10.5831
biur	-10.5836
aukštos	-10.5836
kryptimi	-10.5841
fer	-10.5847
nepaprastai	-10.5854
aspektai	-10.5856
galiojanči	-10.587
leidžiama	-10.5872
finansuot	-10.5879
mb	-10.5881
praėjus	-10.5896
kuriant	-10.59
raginama	-10.5901
kritik	-10.5906
teikia	-10.5913
pažad	-10.5925
panaš	-10.5926
ūk	-10.5932
nagrinė	-10.5933
truk	-10.5936
konkurencija	-10.5936
"	-10.594
žinia	-10.5944
žodžiai	-10.5948
ankst	-10.5952
sveikatai	-10.5973
nepakanka	-10.5975
prasidėj	-10.5985
nic	-10.5995
turt	-10.5997
nuspręst	-10.6005
kažk	-10.6016
migracij	-10.6053
mokam	-10.6078
tvarka	-10.6082
dalyvauja	-10.6084
glaud	-10.6092
afganistan	-10.6092
kadencij	-10.6092
prancūzija	-10.6093
bendradarbiauja	-10.6093
trūksta	-10.6094
mėgin	-10.6094
artimiausi	-10.6094
dirbo	-10.6094
nagrinėjam	-10.6095
dvej	-10.6097
konkurencij	-10.6105
derėt	-10.6107
dešimtmeči	-10.6122
pusės	-10.6122
uždavini	-10.6144
socialinį	-10.6144
erdv	-10.6147
proga	-10.6162
terorizmu	-10.6172
grupi	-10.6186
gamt	-10.6191
skatinama	-10.6196
minėta	-10.6199
pateikiama	-10.6211
sakoma	-10.622
svarstyt	-10.6224
dalykai	-10.623
nepakankama	-10.6237
apibrėžti	-10.6268
moterim	-10.6275
eism	-10.6279
susitik	-10.6291
vienu	-10.6293
konkrečiai	-10.6298
ataskaita	-10.6298
įsipareigojimu	-10.6307
panaudojim	-10.631
pristat	-10.6318
šaliai	-10.6319
pasiraš	-10.6321
laikotarp	-10.6325
sudarym	-10.6327
istorij	-10.6327
baigta	-10.6354
argument	-10.6363
išplėst	-10.6363
sugebėjo	-10.6363
išgirst	-10.6363
pradėjo	-10.6363
demokratij	-10.6368
persvarstyt	-10.637
vyriausybė	-10.6383
pilietin	-10.6385
dabartinės	-10.6389
pasaky	-10.6391
atkurt	-10.6399
atsirad	-10.64
pinigai	-10.6415
balan	-10.6424
imai	-10.643
skurdu	-10.6437
branduolini	-10.6448
pakt	-10.6451
švedijo	-10.6454
imigrant	-10.6455
apibrėžt	-10.6458
vin	-10.6462
galutin	-10.6487
pramone	-10.6488
sudėt	-10.649
žingsn	-10.6493
nutrauk	-10.6534
veikianči	-10.6536
sesijo	-10.6541
siųst	-10.6548
inami	-10.6549
sprendžiam	-10.6549
gan	-10.6556
tarnyb	-10.6558
laisvai	-10.6583
atsisak	-10.6588
gamyba	-10.6602
prašom	-10.6606
įvairovė	-10.6608
džiu	-10.6622
krypti	-10.6633
priežiūra	-10.6635
katastrof	-10.664
knyg	-10.664
strasbūr	-10.664
susidūr	-10.664
pažymėti	-10.664
nuosavybė	-10.6641
nelegali	-10.6641
aviacijo	-10.6641
patobulint	-10.6641
sraut	-10.6642
tikriausia	-10.6643
atkūrim	-10.6652
išnagrinėt	-10.6655
suderinim	-10.6656
▁¦40	-10.6667
antai	-10.6672
šeimo	-10.6689
paskatint	-10.6692
krit	-10.6695
veda	-10.6713
vertybėm	-10.6724
gail	-10.6724
dur	-10.6745
poreikiu	-10.6747
ilgai	-10.6751
draug	-10.6768
naudojamas	-10.677
tvarum	-10.6784
suteikiama	-10.679
reiškin	-10.6804
konvencij	-10.6814
saugumu	-10.6851
pabrėžia	-10.6852
tobulin	-10.6854
pripažinim	-10.6872
privat	-10.6875
valstybnar	-10.6893
lygmen	-10.6898
stengia	-10.6904
investuot	-10.6922
▁¦199	-10.6924
minėja	-10.6925
spekuli	-10.6926
diegt	-10.6926
grąžint	-10.6926
liberalizavim	-10.6926
vystymui	-10.6926
student	-10.6926
pasirengusi	-10.6926
supaprastinim	-10.6926
gerovė	-10.6926
renka	-10.6927
numatoma	-10.6927
sąvok	-10.6927
tikru	-10.6935
nama	-10.6936
grindžiama	-10.6938
azijo	-10.694
kaimynystė	-10.6945
uždaryt	-10.6955
patirt	-10.696
peržiūrėt	-10.6972
gavo	-10.6979
post	-10.6985
kolegom	-10.6989
sužinot	-10.7009
tikros	-10.702
didžioj	-10.7025
verta	-10.706
atmet	-10.7061
paklaust	-10.7075
galvot	-10.7088
blok	-10.7098
kategorij	-10.7099
perduot	-10.7154
nuolatin	-10.7163
tolesn	-10.7174
krizė	-10.7183
stebėjim	-10.7184
radi	-10.7192
umėt	-10.7194
strategini	-10.7199
konkurencing	-10.7208
ingum	-10.7213
perkelt	-10.7216
neman	-10.722
ambicing	-10.722
geografin	-10.722
peticij	-10.722
teritorin	-10.722
spaudo	-10.722
prekė	-10.722
krovini	-10.7221
judum	-10.7221
girdėj	-10.7221
įrodym	-10.7222
kontekst	-10.7224
valand	-10.7224
apribot	-10.7224
minut	-10.7225
santykiu	-10.7226
branduolinės	-10.7228
įvairios	-10.7229
patikrinim	-10.7229
▁¦2005	-10.723
bendru	-10.7238
procent	-10.7239
išrinkt	-10.725
diskutuoti	-10.7269
didele	-10.7271
patikimum	-10.7271
išeiti	-10.7275
rezultatu	-10.7281
akivaizd	-10.7293
įtako	-10.7301
maistu	-10.7336
patenka	-10.7342
pagarba	-10.7349
jėga	-10.735
gimt	-10.7356
neteisėta	-10.7362
patyr	-10.7364
palaikym	-10.7379
liko	-10.7388
neteisėt	-10.7395
atėj	-10.7401
kompetencija	-10.7402
dina	-10.7402
grėsmė	-10.7437
verting	-10.7445
mast	-10.7445
prievart	-10.7493
pritarim	-10.7514
generalin	-10.7523
konstitucin	-10.7523
vairuotoj	-10.7523
įgūdži	-10.7523
atostog	-10.7523
reakcij	-10.7523
asociacij	-10.7523
stebėsen	-10.7523
pridėtin	-10.7523
pagamint	-10.7523
vadovaujant	-10.7523
trečiosiom	-10.7524
antroj	-10.7525
paragint	-10.7528
visapusiška	-10.753
išankstin	-10.7531
aptariam	-10.7533
▁¦16	-10.7534
rinkėj	-10.7536
demokratinės	-10.7542
stiprinim	-10.7545
aukšto	-10.7581
pirkim	-10.7584
išskyr	-10.759
bausmė	-10.759
raginim	-10.7594
jėgos	-10.7597
pastaba	-10.7601
paminė	-10.7603
naryst	-10.761
tarptautinė	-10.7614
▁¦100	-10.7619
vienodai	-10.7629
dera	-10.7665
nelygyb	-10.7686
įsteigt	-10.7695
kokie	-10.7698
imtų	-10.7746
iššūkiu	-10.7754
ėjusi	-10.7762
demokratišk	-10.7786
esmin	-10.7791
skaičiau	-10.7823
plenarin	-10.7826
dėsty	-10.7836
makedonij	-10.7836
reklam	-10.7836
intensyv	-10.7836
tendencij	-10.7836
egzistuoja	-10.7836
ekspert	-10.7836
frontex	-10.7836
pasitelk	-10.7836
subsidiarum	-10.7836
žaliav	-10.7836
skund	-10.7836
lyderi	-10.7836
ankstyv	-10.7836
valdžia	-10.7836
planuot	-10.7837
nusipeln	-10.7837
prog	-10.7841
steng	-10.7846
atsitik	-10.7853
pasaulin	-10.7854
tarpvalstybini	-10.7855
saugojim	-10.7856
išskirtin	-10.7857
efektyvia	-10.7859
kelianči	-10.7861
baigto	-10.7864
mažiausia	-10.7865
įvairov	-10.7873
susiet	-10.7883
tvarkym	-10.7883
lengviau	-10.7887
einanti	-10.7887
pasirašyt	-10.7898
padariniai	-10.7899
teig	-10.7899
brang	-10.7899
tiesiogin	-10.7908
ištekliu	-10.7933
mėnesiu	-10.7934
reikšt	-10.7937
technin	-10.795
bul	-10.7958
ribos	-10.7963
tro	-10.7971
vykstanči	-10.7972
libijo	-10.7972
sėkminga	-10.7977
platesn	-10.798
susitar	-10.7981
rengt	-10.7992
pasirod	-10.8003
element	-10.8012
keliant	-10.8013
pareišk	-10.8014
avimą	-10.8014
didesnė	-10.8029
elgti	-10.8031
sunkiai	-10.8036
rašt	-10.8041
tun	-10.8062
svarbiu	-10.8063
baigia	-10.8079
treči	-10.8081
suteikim	-10.8087
papild	-10.8088
lg	-10.81
netinkama	-10.8103
komercini	-10.811
asmeny	-10.8114
inter	-10.8135
žodini	-10.8144
tarnyba	-10.8146
naujovi	-10.8152
efekt	-10.8158
administravim	-10.8158
gruzijo	-10.8158
lūkesči	-10.8158
subsidij	-10.8158
vystymą	-10.8158
pasikeit	-10.8158
smark	-10.8158
įspūd	-10.8158
▁...	-10.8158
paveld	-10.8159
pasirinkti	-10.8159
raštišk	-10.8159
japonijo	-10.8159
apibūdin	-10.8159
patekt	-10.8159
kontroliuot	-10.8161
baud	-10.8161
žemyn	-10.8162
diskutuojam	-10.8162
etnin	-10.8162
naujosios	-10.8164
prisiimti	-10.8164
šak	-10.8166
abiem	-10.8172
kūn	-10.8173
čekijo	-10.8173
naujausi	-10.8174
visuome	-10.8174
persvarstym	-10.8176
serbijo	-10.8184
dviem	-10.8184
nustatym	-10.8191
savai	-10.8198
del	-10.8211
grįž	-10.8249
situacija	-10.8262
kong	-10.8264
kriterijai	-10.8274
ištekliai	-10.8282
sumažėj	-10.8338
sudary	-10.8345
▁¦21	-10.8365
padaryt	-10.8371
buvim	-10.8373
branduolin	-10.8378
kylanči	-10.8378
vertinama	-10.8392
tikrov	-10.8392
turėdam	-10.8404
migracija	-10.8412
vizij	-10.843
patenkinta	-10.8435
gyventojai	-10.8435
ryš	-10.8441
svarstoma	-10.8442
reikalavimai	-10.8451
partneryst	-10.8459
keliam	-10.847
puiku	-10.847
tiesiogini	-10.8472
teigia	-10.8485
primygtin	-10.8492
q	-10.8492
subjekt	-10.8492
asignavim	-10.8492
besivystančios	-10.8492
deklaracij	-10.8492
išsivysčiusi	-10.8492
pranašum	-10.8492
skaitmenin	-10.8492
specifin	-10.8492
narkotik	-10.8492
siunčia	-10.8492
žlug	-10.8492
rumunija	-10.8492
vertybe	-10.8492
komand	-10.8493
įrang	-10.8493
informuo	-10.8494
iššūkiai	-10.8495
civili	-10.8496
įgaliotin	-10.8496
viešojo	-10.8498
paskirstym	-10.8502
stoti	-10.8506
protinga	-10.8506
pirmojo	-10.8525
politiniu	-10.8535
reglamentavim	-10.8558
paty	-10.8561
užmokesči	-10.8562
paprastai	-10.8574
ratifikavim	-10.8577
bv	-10.8603
geb	-10.861
tyv	-10.8629
iškil	-10.8648
palik	-10.8652
rengia	-10.8688
nuveikt	-10.8692
atitinkamai	-10.8701
darbinink	-10.8712
rado	-10.8747
nelaimė	-10.8751
gili	-10.8787
pilietinė	-10.8812
pakenk	-10.8819
grindžiam	-10.8822
skirstym	-10.8827
žvej	-10.8827
pagrindine	-10.8829
tvirtina	-10.883
bendradarbia	-10.8833
laikymo	-10.8833
abipusi	-10.8836
šiltnami	-10.8836
kodeks	-10.8836
penkeri	-10.8836
portugalija	-10.8836
besivystančiom	-10.8836
kortel	-10.8836
korupcij	-10.8836
rekomenduo	-10.8836
septyni	-10.8836
signal	-10.8836
imtasi	-10.8837
praktiška	-10.8837
sugebės	-10.8837
prisijungt	-10.8837
taupyt	-10.8837
vežim	-10.8837
elgia	-10.8839
gars	-10.8847
trej	-10.885
mažesni	-10.8851
vel	-10.8853
alde	-10.8856
indėli	-10.8875
mažėja	-10.8881
graikija	-10.8887
bandom	-10.8887
likim	-10.8899
verslinink	-10.8907
vokietij	-10.8916
tikrinim	-10.8926
organizacija	-10.893
tyrimai	-10.8931
pasakyta	-10.8946
vykdyt	-10.8952
humanitarinė	-10.8953
ininkai	-10.8954
metin	-10.896
finansuojam	-10.8983
centrini	-10.8986
ukraina	-10.899
balsuosi	-10.8996
įvair	-10.9006
gyvenanči	-10.9013
avimu	-10.9016
kitom	-10.9034
gue	-10.904
kilt	-10.9062
kelion	-10.907
kipr	-10.9113
žiūri	-10.9128
diskutuo	-10.913
naikinim	-10.9131
pasekmė	-10.9131
nauda	-10.914
prioritetai	-10.9152
garb	-10.9167
ketin	-10.9172
rodyt	-10.9176
įvest	-10.9183
ketvirta	-10.9193
operatori	-10.9194
prognoz	-10.9194
ratifikuot	-10.9194
technologin	-10.9194
tradicij	-10.9194
tradicin	-10.9194
žurnalist	-10.9194
asamblėj	-10.9194
kolektyvin	-10.9194
simboli	-10.9194
vadovauti	-10.9194
susisiekim	-10.9194
vyksianči	-10.9194
dėkinga	-10.9194
įtrauktos	-10.9195
prisidėjo	-10.9198
užtikrinama	-10.9199
reikalavo	-10.9199
netek	-10.9204
priimtina	-10.9204
tunis	-10.9207
asmenim	-10.9216
manyti	-10.9217
sudan	-10.9218
politiniai	-10.9222
naudojimu	-10.9246
komisare	-10.9246
italij	-10.9248
jungtinėm	-10.925
teigt	-10.9261
sumažinim	-10.9269
sakė	-10.9277
atvirai	-10.928
trukd	-10.9311
išvada	-10.9312
judėt	-10.932
nežino	-10.9357
struktūros	-10.9359
tikslia	-10.9359
orum	-10.9365
ienos	-10.937
sesij	-10.9402
pakankam	-10.9407
bendrij	-10.9419
pasiekim	-10.9423
biologin	-10.9426
praktika	-10.9429
avimas	-10.9432
motinyst	-10.9433
nusikaltimu	-10.9442
mokyklos	-10.9449
regionin	-10.9455
kovoja	-10.9456
įgyvendinta	-10.9483
pereit	-10.9486
ruoš	-10.955
kubo	-10.9555
skaityt	-10.9558
funkcij	-10.9564
potvyni	-10.9564
subalansuot	-10.9564
dalyvavo	-10.9564
pirmenyb	-10.9564
remdamasi	-10.9564
rūpest	-10.9564
tūkstant	-10.9564
universitet	-10.9564
įvedim	-10.9564
seksualin	-10.9564
formul	-10.9564
nuostoli	-10.9564
kalbėdam	-10.9564
informavim	-10.9566
pridur	-10.9566
daugumo	-10.9569
serga	-10.9573
fizin	-10.9574
kultūra	-10.9583
įgyvendinama	-10.9588
nuorod	-10.959
ryžtingai	-10.9594
trukmė	-10.9599
britanijo	-10.9605
valdom	-10.9607
spal	-10.9612
plačiai	-10.9627
padarė	-10.9627
ženklinim	-10.9632
vykstant	-10.9638
stre	-10.9644
pristatyt	-10.9651
iniciatyvo	-10.9654
supratim	-10.9658
poli	-10.9667
kompetencijo	-10.9674
būst	-10.9681
her	-10.9684
technologija	-10.9686
eib	-10.9708
skelbia	-10.9739
paveik	-10.9757
islam	-10.9759
konferencijo	-10.9766
taisyklėm	-10.978
nepamiršt	-10.9795
zona	-10.9808
ngl	-10.9848
tyn	-10.9856
reikšm	-10.986
ekonominiu	-10.9863
matom	-10.9875
komisar	-10.9893
oficialia	-10.9909
gyv	-10.9911
pasiūlyta	-10.9929
brazilij	-10.9949
lietuv	-10.9949
reguliuot	-10.9949
deficit	-10.9949
kompetenting	-10.9949
milijard	-10.9949
milžinišk	-10.9949
nyderland	-10.9949
pavadinim	-10.9949
taupym	-10.9949
civilinės	-10.9949
žaisl	-10.9949
paverst	-10.9949
tarif	-10.9949
patikrint	-10.9949
forum	-10.9951
lenk	-10.9952
▁¦0,	-10.9953
pasieni	-10.9954
įgyt	-10.9955
▁¦2004	-10.9956
▁¦24	-10.9956
lem	-10.9961
▁¦26	-10.9963
gazo	-10.9964
gavėj	-10.9965
▁¦2000	-10.9967
įprasta	-10.997
sukelianči	-10.9982
išsakyt	-10.9997
partneriai	-11.0007
teikėj	-11.0009
parduot	-11.0024
jaučia	-11.0025
pirk	-11.0032
veiksmingiau	-11.0038
specialist	-11.005
patvirtin	-11.0064
aukščiausi	-11.0073
leid	-11.0079
valiut	-11.0091
vadinama	-11.0092
pasku	-11.012
kokybišk	-11.0126
pradžia	-11.013
žvelgt	-11.0134
spręs	-11.014
arab	-11.014
gerinim	-11.0142
kasmet	-11.0159
bloga	-11.019
atsižvelgdam	-11.0202
valiuto	-11.0204
švedij	-11.0213
palengvint	-11.0219
traukia	-11.0224
galv	-11.023
dėjo	-11.0232
diplomatin	-11.0259
sąskaita	-11.026
koordinuot	-11.0284
kreipia	-11.0309
susilaik	-11.0324
pageidau	-11.0345
dioksid	-11.0349
objekt	-11.0349
moldov	-11.0349
skrydži	-11.0349
apmokestinim	-11.0349
statistik	-11.0349
valdysen	-11.0349
london	-11.0349
paspartint	-11.0349
išmetim	-11.0349
dešimtmet	-11.0349
vengrija	-11.0349
bėg	-11.0349
padėči	-11.0349
pardavim	-11.0349
mikro	-11.0349
ištaisyt	-11.0349
pašar	-11.035
pageidaujam	-11.0352
investuotoj	-11.0355
ignoruo	-11.0355
vidutinės	-11.0355
atidėt	-11.0358
iškėl	-11.0364
pobūd	-11.0364
politine	-11.0366
sprag	-11.0367
sąveik	-11.0367
svarbesni	-11.0368
sudedam	-11.0369
dažniausi	-11.0373
ženg	-11.0374
buvę	-11.0382
garantuot	-11.0391
sutiko	-11.0399
raginam	-11.0401
nusikalstamum	-11.0414
papildyt	-11.0433
sąskait	-11.0446
tobulinim	-11.0457
žv	-11.0524
vilti	-11.0543
pašt	-11.0561
smerk	-11.0566
veikėj	-11.0567
prašyti	-11.0612
įsigalioj	-11.0613
)	-11.0616
migrant	-11.0624
įgyvendint	-11.0632
papildoma	-11.0633
savaim	-11.0635
nys	-11.065
turk	-11.0671
asmenin	-11.0714
tikėj	-11.0719
▁¦60	-11.0747
tarpvalstybin	-11.0754
vietov	-11.0759
x	-11.0765
gelbė	-11.0765
tragedij	-11.0765
grąžinim	-11.0765
neišvengiama	-11.0765
reguliuoja	-11.0765
savinink	-11.0765
belgijo	-11.0765
stebėtoj	-11.0765
žvalg	-11.0765
ruož	-11.0765
puoselė	-11.0766
ekologišk	-11.0766
pereinam	-11.0766
lenkija	-11.0766
avarij	-11.0767
airija	-11.0768
apgalvot	-11.0768
ekosistem	-11.0773
aiškinim	-11.0787
jūroje	-11.081
perėjim	-11.0814
padarys	-11.0818
istorijo	-11.082
atlikta	-11.0829
gresia	-11.084
radikal	-11.084
lygyb	-11.088
savarankiška	-11.0891
milijonai	-11.091
asmenišk	-11.0923
aukom	-11.0925
planuojam	-11.0926
dvasi	-11.0955
elementa	-11.0958
gul	-11.0971
įdomu	-11.0984
išlikt	-11.1014
gamyb	-11.1018
pirmininku	-11.1041
prireik	-11.1083
rekomendacija	-11.1085
būdama	-11.1089
sprend	-11.109
išlik	-11.1106
len	-11.1113
vartojam	-11.1127
dalyvaujant	-11.1134
pažeid	-11.1135
rūma	-11.1138
ryžting	-11.1164
kirst	-11.1199
ispanija	-11.12
apibrėžim	-11.12
atsidūr	-11.12
atspindi	-11.12
demografin	-11.12
intelektin	-11.12
koncepcij	-11.12
▁¦2007-201	-11.12
balsuodam	-11.12
pagirti	-11.12
vadovaujam	-11.12
serbija	-11.12
kūryb	-11.1203
motyv	-11.1204
įsipareigojo	-11.1205
arešt	-11.1208
pasisek	-11.1211
pastebim	-11.1216
kenkia	-11.1223
debat	-11.1224
naudojamo	-11.1234
auginim	-11.1241
įsigalio	-11.125
prasm	-11.125
pažeidžia	-11.1257
išlieka	-11.1259
konvencija	-11.1271
naudojimas	-11.1272
derama	-11.1289
atskira	-11.1293
pirmoj	-11.131
nemaža	-11.1331
▁¦80	-11.1346
balsuoj	-11.1349
motin	-11.136
raid	-11.1385
padidė	-11.1402
jautr	-11.1408
perspektyvo	-11.1416
bendrovėm	-11.143
bulgarija	-11.1437
įsteig	-11.1438
veikiant	-11.1441
nagrinėt	-11.1442
žiūrėt	-11.1449
nepamirš	-11.1458
reikšmė	-11.1483
reik	-11.1489
įmanom	-11.1492
laikydam	-11.15
išsamia	-11.1506
saugom	-11.1521
skatinant	-11.1523
plėtoj	-11.1533
profesinė	-11.1555
daugiašal	-11.1571
kalėjim	-11.1576
susipažint	-11.1583
darn	-11.1591
reikš	-11.1595
dvidešimt	-11.1606
vengr	-11.162
slovakijo	-11.1655
baronien	-11.1655
priklausanči	-11.1655
è	-11.1655
alkoholi	-11.1655
pesticid	-11.1655
produkcij	-11.1655
referent	-11.1655
mokymą	-11.1655
prisijungim	-11.1655
objektyv	-11.1655
remdami	-11.1655
mažosiom	-11.1655
atneš	-11.1655
įnaš	-11.1656
prižiūrėt	-11.1657
list	-11.1657
vaidin	-11.1657
indijo	-11.1657
ginčyti	-11.1658
tapatyb	-11.1659
atsipraš	-11.1659
tekstil	-11.1661
jaunų	-11.1661
vietovės	-11.1664
izacijos	-11.1664
▁¦23	-11.1665
slapt	-11.1665
priims	-11.1669
birmo	-11.1669
kalini	-11.167
▁¦22	-11.167
protest	-11.1682
pateisina	-11.1685
konkrečiu	-11.1692
nukentėjusi	-11.1693
nuoseklum	-11.1694
vidutinėm	-11.1696
krikščion	-11.1707
remiu	-11.1713
planavim	-11.1715
registruot	-11.1716
siejama	-11.1719
gerbiamie	-11.1739
pagerė	-11.1758
pavojinga	-11.1774
laukt	-11.1822
sutikt	-11.1823
krauj	-11.1836
rami	-11.1864
įtikin	-11.1888
keliama	-11.189
reformo	-11.1894
kaln	-11.1948
vertybė	-11.1989
daugum	-11.2016
misijo	-11.2025
uždavin	-11.2038
veiksn	-11.2039
viešosio	-11.2041
varg	-11.2058
bang	-11.2058
derinim	-11.2082
pateikia	-11.2093
vystymas	-11.2113
liks	-11.2123
mobili	-11.2131
atskaitomyb	-11.2131
biurokratij	-11.2131
lėktuv	-11.2131
profesional	-11.2131
statistini	-11.2131
acqui	-11.2131
aprūpinim	-11.2131
jugoslavij	-11.2131
natūrali	-11.2131
prielaid	-11.2131
žaliųjų	-11.2131
naujoves	-11.2131
fiskalin	-11.2131
schem	-11.2131
pasmerkt	-11.2132
pasirengim	-11.2133
trečiosios	-11.2133
gėd	-11.2133
prisidė	-11.2134
pradės	-11.2135
nelaiming	-11.2135
▁¦198	-11.2135
priklausy	-11.2136
paraišk	-11.2136
sujungt	-11.2136
dydži	-11.2137
save	-11.214
pasisakym	-11.2143
pažeidžiamiausi	-11.2146
tašk	-11.2152
išimtin	-11.2154
laipsniška	-11.217
metr	-11.2183
vaisi	-11.2186
žmogišk	-11.219
partnerė	-11.219
tenkina	-11.2192
atgaivin	-11.2199
matė	-11.2223
blogiau	-11.2259
bandyt	-11.2273
įsigaliojim	-11.2277
ilgiau	-11.2313
didėjanči	-11.2316
švar	-11.2332
užima	-11.2365
susijus	-11.2366
apgint	-11.2396
lyn	-11.2398
kontroliuojam	-11.2428
sutelk	-11.2455
kanad	-11.2456
imsi	-11.2471
miršta	-11.2478
įgyvendindam	-11.2484
kilim	-11.2515
metinė	-11.2523
kelionė	-11.2531
garant	-11.2541
suprat	-11.2558
laikanti	-11.2562
serb	-11.2597
teigin	-11.2598
paaiškina	-11.2604
dvišal	-11.2613
pilieti	-11.2625
komentar	-11.2631
neatidėliotin	-11.2631
obligacij	-11.2631
pasinaudodam	-11.2631
vengia	-11.2631
bosnijo	-11.2631
ekonomišk	-11.2631
personal	-11.2631
sacharo	-11.2631
stovykl	-11.2631
sušvelnin	-11.2631
televizij	-11.2631
transatlantin	-11.2631
aštuoni	-11.2631
prieštaring	-11.2631
politiška	-11.2631
centraliz	-11.2631
apsunkin	-11.2631
grandin	-11.2631
atitikim	-11.2632
merc	-11.2632
ideal	-11.2632
kalbėjusi	-11.2632
ištirt	-11.2632
tikėtina	-11.2634
žaling	-11.2643
nusprendžia	-11.2647
pirmiau	-11.2647
nepriklausoma	-11.2648
elektrinė	-11.266
ieškot	-11.2665
padėjo	-11.2668
ypatinga	-11.267
gyvuli	-11.267
dedam	-11.268
kilusi	-11.269
atnaujinim	-11.2712
pavaduotoj	-11.2715
privatum	-11.2723
dalyvaujanči	-11.2724
pripažįstama	-11.2732
viešų	-11.2745
pasinaudoj	-11.2747
įvykiu	-11.2772
teisėj	-11.2786
tikrovė	-11.2794
dirbant	-11.2813
baigiant	-11.2826
balsuojam	-11.2865
smerkia	-11.2875
laikysi	-11.2892
įdom	-11.2905
pabrėžė	-11.2945
prioritetini	-11.2959
pažiūr	-11.2967
sieja	-11.3005
pakartotin	-11.3023
nusikalstam	-11.3071
paskat	-11.3078
atsiranda	-11.3096
jausm	-11.3119
mažina	-11.3132
žiūrė	-11.3134
įsipareigo	-11.3151
vidutin	-11.3153
administracij	-11.3157
dujotieki	-11.3157
intervencij	-11.3157
kompensacij	-11.3157
piktnaudžiavim	-11.3157
protekcionizm	-11.3157
absurdišk	-11.3157
apčiuopiam	-11.3157
draudžiama	-11.3157
drebėjim	-11.3157
informacin	-11.3157
institut	-11.3157
mobilum	-11.3157
persekiojim	-11.3157
suinteresuotos	-11.3157
sveikintina	-11.3157
susidoro	-11.3157
reaguoja	-11.3157
išgird	-11.3157
atkakl	-11.3158
čekija	-11.3158
vėž	-11.3158
paplit	-11.3158
džiaugiam	-11.3158
nepaisy	-11.316
liban	-11.316
naujovė	-11.316
ramst	-11.3162
konkuruo	-11.3163
šimtai	-11.3163
švies	-11.3167
mažinant	-11.3168
dešin	-11.3171
sakydam	-11.3171
vertinant	-11.3178
kanal	-11.3184
susidomėjim	-11.319
atkreipia	-11.3199
varom	-11.3203
skaičiavim	-11.321
kompetencij	-11.3215
atsakyma	-11.322
pastebėj	-11.3223
arkti	-11.3224
mažinam	-11.323
susipažin	-11.3241
įtikint	-11.3251
trukdyt	-11.3259
atitinkanči	-11.3275
lankst	-11.3284
palengvin	-11.3331
apgailestau	-11.3344
model	-11.3345
biologinė	-11.3358
ilgalaikė	-11.3369
stamb	-11.3384
sociali	-11.3468
lanksči	-11.3488
nuosekl	-11.3521
pateiksi	-11.3538
rėmim	-11.3544
kalbėt	-11.3549
sėd	-11.3558
ratifikav	-11.357
draud	-11.3684
derybom	-11.3695
ribojim	-11.3711
biurokratin	-11.3713
dimensij	-11.3713
kvalifikuot	-11.3713
orientuot	-11.3713
represij	-11.3713
septint	-11.3713
diegim	-11.3713
hercegovin	-11.3713
investuoja	-11.3713
išsiaiškinti	-11.3713
padengt	-11.3713
pažeist	-11.3713
piktnaudžiau	-11.3713
skurdžiausi	-11.3713
ó	-11.3713
moralin	-11.3713
patraukl	-11.3713
nekantri	-11.3713
įsipareigojusi	-11.3713
premij	-11.3713
vadinamąj	-11.3713
aktuali	-11.3713
nuostab	-11.3713
moderni	-11.3714
išraišk	-11.3716
antrąj	-11.3716
taikydam	-11.3716
prisiėm	-11.3716
kaltinim	-11.3719
išdavim	-11.3723
linkiu	-11.374
pasisakyt	-11.3753
atsitikim	-11.3753
special	-11.3758
mokslinink	-11.3775
pusėj	-11.3799
nepritariam	-11.3807
cikl	-11.3811
savyb	-11.3835
;	-11.3878
patenkin	-11.3886
būtinybė	-11.3905
sąjunginink	-11.3917
galiot	-11.3926
amerik	-11.3933
vystyti	-11.3943
prasidė	-11.3948
apimanči	-11.3969
libij	-11.4049
profesin	-11.4076
dyd	-11.4084
hol	-11.4085
centrinė	-11.4099
karalyst	-11.4141
pastebėt	-11.4167
teigė	-11.4192
atrod	-11.42
pakeit	-11.4208
kritikuoja	-11.4213
galiojim	-11.4252
artėja	-11.4259
kėl	-11.4262
prasmė	-11.4286
atima	-11.4297
įraš	-11.4298
alban	-11.43
popieri	-11.4301
konstatuojam	-11.4301
nusikaltėli	-11.4301
palūkan	-11.4301
rašytinia	-11.4301
atšilim	-11.4301
kaukaz	-11.4301
komunist	-11.4301
siaubing	-11.4301
stokholm	-11.4301
ström	-11.4301
užuojaut	-11.4301
zimbabv	-11.4301
žudym	-11.4301
klastojim	-11.4301
mėlyn	-11.4301
savę	-11.4301
vyriausioj	-11.4301
pasirūpint	-11.4301
preke	-11.4301
martin	-11.4301
praranda	-11.4301
girdim	-11.4301
rašytoj	-11.4302
darbdavi	-11.4302
atsakydama	-11.4302
primena	-11.4302
gaisr	-11.4302
dugn	-11.4303
ketvirtadien	-11.4303
haiči	-11.4307
dvejop	-11.431
vandenyn	-11.4313
didžiąj	-11.4316
naujovišk	-11.4319
suvokt	-11.4322
norėdam	-11.4333
užtikrinanči	-11.4337
paisom	-11.4342
atsisakym	-11.4342
apskait	-11.4351
bankinink	-11.4352
leidėj	-11.4353
surinkt	-11.4369
importuot	-11.441
aiškinam	-11.4456
atleist	-11.4479
pertrauk	-11.4493
partner	-11.4524
įsitrauk	-11.4533
sumažė	-11.454
sustabd	-11.4587
spart	-11.4604
tvirtesn	-11.462
lytie	-11.483
skatindam	-11.4886
prancūz	-11.4892
žymia	-11.491
pažįsta	-11.4924
gydym	-11.4926
monopolij	-11.4926
organizavim	-11.4926
horizontal	-11.4926
licencij	-11.4926
prieglobst	-11.4926
schulz	-11.4926
susitelk	-11.4926
triukšm	-11.4926
žaidim	-11.4926
pertekli	-11.4926
realyb	-11.4926
eilut	-11.4926
parduodam	-11.4926
tarpinstitucini	-11.4926
xx	-11.4926
pataisym	-11.4926
pažymi	-11.4927
chemin	-11.4927
pabaiga	-11.4927
pastov	-11.4927
keleri	-11.4928
piršt	-11.4929
nepriklausomybė	-11.4929
įsivaizduo	-11.493
austrijo	-11.4931
variant	-11.4932
įtraukiam	-11.4939
pasiryžim	-11.4982
priešina	-11.4987
moksliniu	-11.5
nevyriausybin	-11.5007
jungia	-11.5008
galėdama	-11.5013
diplomat	-11.507
pakartoti	-11.5088
bendravim	-11.5108
gamtini	-11.5204
siekianči	-11.5233
pratęst	-11.5251
atstovavim	-11.5305
institucij	-11.533
atsirast	-11.5333
žengia	-11.5362
savarankišk	-11.5393
eilė	-11.5396
didžiuoj	-11.5403
kartoju	-11.5423
įtraukim	-11.5499
vadovavim	-11.5509
iškesn	-11.5513
konkurencin	-11.5531
stipresn	-11.5559
pastaroj	-11.5567
suinteresuotų	-11.5593
australij	-11.5593
dirvožemi	-11.5593
makroekonomin	-11.5593
paskirstyt	-11.5593
telefon	-11.5593
apyvart	-11.5593
atspindėt	-11.5593
demonstracij	-11.5593
demping	-11.5593
investavim	-11.5593
nepilnameči	-11.5593
prasideda	-11.5593
rezerv	-11.5593
slovėnijo	-11.5593
telekomunikacij	-11.5593
trunka	-11.5593
ö	-11.5593
atsispind	-11.5593
studij	-11.5593
farmaci	-11.5593
škotij	-11.5593
europietišk	-11.5593
paryži	-11.5593
viršutin	-11.5593
korėja	-11.5593
naudotoj	-11.5593
testavim	-11.5593
nepalankiausi	-11.5593
dalyvaus	-11.5593
mityb	-11.5593
kvieči	-11.5593
būkl	-11.5593
korėjo	-11.5593
apdair	-11.5593
pjū	-11.5593
prisiima	-11.5594
teisėtum	-11.5594
burg	-11.5594
išaiškint	-11.5595
vandenili	-11.5596
nurodoma	-11.5596
marok	-11.5597
tarpvyriausybin	-11.5598
pažymėj	-11.5602
eilini	-11.5605
tyl	-11.5611
nacionaliz	-11.5613
atsitiktin	-11.563
suderinamum	-11.5634
geneti	-11.5647
ruošia	-11.5655
vertim	-11.5662
nežina	-11.5665
įkalin	-11.5672
olika	-11.5738
plėtojim	-11.5776
mirči	-11.5842
virt	-11.5877
:	-11.5884
grasin	-11.5886
iššūk	-11.5894
teikdam	-11.5923
diskusijom	-11.5945
nuoširdži	-11.5997
rusij	-11.6051
steigim	-11.6083
lengv	-11.6115
vietini	-11.6138
nuosav	-11.6164
matyt	-11.6195
nukentėj	-11.6246
žeidim	-11.6297
barselono	-11.6307
juodkalnijo	-11.6307
daržov	-11.6307
kariuomen	-11.6307
prevencin	-11.6307
restruktūrizavim	-11.6307
statykl	-11.6307
vokieči	-11.6307
ü	-11.6307
besivystančių	-11.6307
biodegal	-11.6307
diktatori	-11.6307
kompensuo	-11.6307
novatorišk	-11.6307
palydov	-11.6307
privilegij	-11.6307
respublika	-11.6307
suverenum	-11.6307
/2010	-11.6307
eksploatavim	-11.6307
infliacij	-11.6307
išplėtim	-11.6307
išsilavinim	-11.6307
prieštaraut	-11.6307
stabilizavim	-11.6307
toleruoti	-11.6307
í	-11.6307
orientacij	-11.6307
plačiajuos	-11.6307
kankinim	-11.6307
vežėj	-11.6307
gynėj	-11.6307
reglamentuojanči	-11.6307
priimdam	-11.6307
banan	-11.6307
neramum	-11.6307
viršūn	-11.6307
gelbėjim	-11.6307
dunoj	-11.6307
maloni	-11.6307
logiška	-11.6308
abipusiškum	-11.6308
egf	-11.6308
tikėki	-11.6308
nagrinėjim	-11.6308
pasirinko	-11.6308
vadinamoj	-11.6309
įvaikinim	-11.6309
ramsči	-11.6311
grob	-11.6312
žav	-11.6313
kalbėsi	-11.6314
geopolitin	-11.6316
žiauri	-11.6318
viešąj	-11.6328
plenariniam	-11.6329
nepalankio	-11.6367
lytin	-11.6385
gebėt	-11.6391
keliaut	-11.6407
komercin	-11.6419
vartoja	-11.6433
pasiekė	-11.6463
skatinanči	-11.6548
sulaikym	-11.6607
prarast	-11.6621
auganči	-11.6675
skelbti	-11.6679
ūkininkavim	-11.6683
nutraukim	-11.6684
dingst	-11.6746
žinodam	-11.6761
rašoma	-11.6791
nedelsdam	-11.6916
rengim	-11.6919
investicijom	-11.699
nesuderinam	-11.7029
graikij	-11.7033
ček	-11.7072
racional	-11.7075
liberalizuot	-11.7076
palestinieči	-11.7076
redakcij	-11.7076
pražūting	-11.7076
vakcin	-11.7076
apibrėžia	-11.7076
apytikri	-11.7076
atmosfer	-11.7076
atšaukt	-11.7076
inicijuot	-11.7076
integravim	-11.7076
iškraipym	-11.7076
koncentracij	-11.7076
konkurent	-11.7076
liūdna	-11.7076
privačios	-11.7076
proporcingum	-11.7076
sekretoriat	-11.7076
slovakija	-11.7076
slovėnija	-11.7076
suinteresuota	-11.7076
suverenitet	-11.7076
vystomoj	-11.7076
diskriminuo	-11.7076
pavėluot	-11.7076
privačia	-11.7076
žiniasklaida	-11.7076
dvidegin	-11.7076
mokytoj	-11.7076
santuok	-11.7076
valdžią	-11.7076
įspėjim	-11.7076
prieštaravim	-11.7076
išdėstyti	-11.7076
gatvė	-11.7076
atlant	-11.7076
pagreitint	-11.7076
sudarant	-11.7076
gynim	-11.7077
prilygs	-11.7077
lobist	-11.7077
susidurt	-11.7077
tragišk	-11.7077
vienbalsia	-11.7077
skausm	-11.7077
palankesn	-11.7077
aktualu	-11.7077
suomij	-11.7077
pasirašiusi	-11.7078
manuel	-11.7078
išlaisvint	-11.7079
pamatysi	-11.7081
kaltinam	-11.7083
pakak	-11.7083
drausm	-11.7083
čad	-11.7085
rajon	-11.709
būdinga	-11.709
brok	-11.709
skaud	-11.7091
nusteb	-11.7093
siūlym	-11.7096
patekim	-11.7099
žvejot	-11.71
klausym	-11.7103
aktyvist	-11.7106
valdanči	-11.7107
kūrėj	-11.7113
klaidinga	-11.7129
skolinim	-11.7137
nešališk	-11.7143
2001	-11.7148
nerimauj	-11.7202
pakartoj	-11.7294
atvirum	-11.7297
kategori	-11.7407
pagerin	-11.7408
šaltin	-11.7431
kontroliuoja	-11.7435
leidžianči	-11.7519
atnaujin	-11.7538
rytinė	-11.7583
nčiais	-11.7646
pakeis	-11.77
panaudoj	-11.7732
ukrain	-11.775
rumun	-11.7881
mąstym	-11.7885
minči	-11.79
atskleid	-11.7909
apsirūpinim	-11.7909
besivystančia	-11.7909
ekstremist	-11.7909
konservatori	-11.7909
reaktori	-11.7909
tranzit	-11.7909
akimirk	-11.7909
augintoj	-11.7909
bažnyči	-11.7909
diagnoz	-11.7909
diktatūr	-11.7909
direktori	-11.7909
federali	-11.7909
futbol	-11.7909
gamykl	-11.7909
imperialistin	-11.7909
neapykant	-11.7909
pilietyb	-11.7909
privačioj	-11.7909
spektr	-11.7909
užteršt	-11.7909
įpareigojim	-11.7909
žaidyn	-11.7909
amerikieči	-11.7909
latvijo	-11.7909
olimpin	-11.7909
propagand	-11.7909
stygi	-11.7909
įsikišt	-11.7909
pasiruošę	-11.7909
suinteresuoti	-11.7909
sunkvežimi	-11.7909
indija	-11.7909
vystant	-11.7909
pasibaigus	-11.7909
georg	-11.791
prisimena	-11.791
gvinėj	-11.791
stavr	-11.791
palaipsni	-11.791
panaikinus	-11.791
kalbėjau	-11.791
vėliav	-11.791
įpareigot	-11.791
perdirbim	-11.791
atsidavim	-11.791
statut	-11.791
alzh	-11.791
susilpnint	-11.791
atokiausi	-11.7911
daikt	-11.7911
siuntim	-11.7911
kontakt	-11.7911
šiandienini	-11.7911
atveria	-11.7912
mandat	-11.7913
svyravim	-11.7915
akmen	-11.7921
pakrantė	-11.7922
pateisint	-11.7927
įgij	-11.7934
sužinoj	-11.7961
atskait	-11.799
elektrini	-11.7992
parlamentinė	-11.8081
sumanym	-11.8091
platinim	-11.8094
išlaikyt	-11.8126
tiekėj	-11.8229
sisteminga	-11.8432
užmiršt	-11.8502
nesilaiky	-11.8593
gaivinim	-11.8687
laipsn	-11.8743
apriboj	-11.8774
grįst	-11.8783
šešėlin	-11.8814
nužudyt	-11.8819
belgija	-11.8819
darfūr	-11.8819
deleguot	-11.8819
gydytoj	-11.8819
gyvulininkystė	-11.8819
incident	-11.8819
jurisdikcij	-11.8819
kompensavim	-11.8819
koridori	-11.8819
medicino	-11.8819
neutrali	-11.8819
niujork	-11.8819
nuogąstavim	-11.8819
persekiojam	-11.8819
reagavim	-11.8819
revoliucij	-11.8819
įpareigojanči	-11.8819
ženevo	-11.8819
barnier	-11.8819
doleri	-11.8819
goldston	-11.8819
individual	-11.8819
kapitalizm	-11.8819
nusiteikę	-11.8819
užmegzt	-11.8819
nuolaid	-11.8819
rasizm	-11.8819
sąmoninga	-11.8819
įsipareigoję	-11.8819
išryškin	-11.8819
cukra	-11.8819
atstum	-11.8819
pasikliau	-11.8819
praradim	-11.8819
nuodugnia	-11.8819
žalojim	-11.8819
patikinti	-11.8819
tajani	-11.8819
automati	-11.8819
trumpalaiki	-11.8819
paaiškėj	-11.8819
skandal	-11.882
sugriežtint	-11.882
šešėliniam	-11.8823
raket	-11.8824
prekiaut	-11.8824
neįtikėtin	-11.8827
gėdinga	-11.8834
girdėt	-11.8835
pakran	-11.8842
primest	-11.8845
rėmėj	-11.891
statyti	-11.892
naujosiom	-11.8998
sekund	-11.9043
vietinė	-11.9052
formavim	-11.9101
muitinė	-11.9135
išsamesn	-11.9167
pasielg	-11.9167
stabdym	-11.9234
spręsdam	-11.9285
draugišk	-11.9359
?	-11.9396
pastatyt	-11.9456
blogesn	-11.9467
užsiimt	-11.9507
izrael	-11.9581
trečioj	-11.9621
britanij	-11.9705
rašyta	-11.9785
tenkint	-11.9806
atsinaujin	-11.9812
autonomij	-11.9819
diskutavo	-11.9819
koalicij	-11.9819
konvergencij	-11.9819
kruopščia	-11.9819
venesuelo	-11.9819
visokeriop	-11.9819
ambasad	-11.9819
chemikal	-11.9819
deklaruojam	-11.9819
ekstremali	-11.9819
kompiuter	-11.9819
liuksemburg	-11.9819
madagaskar	-11.9819
musulmon	-11.9819
stabilizuot	-11.9819
ä	-11.9819
apgaul	-11.9819
baltarusija	-11.9819
cunami	-11.9819
federacij	-11.9819
mauritanij	-11.9819
modifikuot	-11.9819
propaguoja	-11.9819
rūpesči	-11.9819
ă	-12.093
(	-12.1758
&	-12.3608
ń	-12.5275
ć	-12.7275
ß	-12.7275
!	-12.9352
°	-12.9775
ú	-12.9775
ţ	-12.9775
ê	-13.3108
ł	-13.3108
à	-13.3108
ķ	-13.3108
ň	-13.3108
ç	-13.8108
ñ	-13.8108
ż	-13.8108
·	-13.8108
ý	-13.8108
ő	-14.81
ï	-14.8101
ø	-14.8102
[	-14.8103
ş	-14.8104
+	-14.8105
'	-14.8106
%	-14.8107
_	-14.8108
]	-14.8108
ò	-14.8108
ī	-14.8108
ľ	-14.8108
ś	-14.8108
̨	-14.8108
έ	-14.8108
π	-14.8108
ρ	-14.8108
υ	-14.8108
”	-14.8108
•	-14.8108
7	-14.8108
ř	-14.8108
