<pad>	0
</s>	0
<unk>	0
▁¦	-0
de	-1
▁s	-2
en	-3
ll	-4
an	-5
ar	-6
ch	-7
▁h	-8
er	-9
och	-10
om	-11
tt	-12
in	-13
ör	-14
▁f	-15
▁𐋇	-16
är	-17
▁de	-18
ig	-19
▁och	-20
▁t	-21
▁m	-22
▁d	-23
▁v	-24
on	-25
▁,	-26
ill	-27
st	-28
ade	-29
▁a	-30
ka	-31
ag	-32
▁b	-33
or	-34
ck	-35
▁i	-36
et	-37
än	-38
ra	-39
ed	-40
na	-41
el	-42
▁för	-43
un	-44
▁g	-45
der	-46
▁till	-47
▁k	-48
▁l	-49
▁.	-50
▁han	-51
för	-52
▁e	-53
kall	-54
da	-55
ån	-56
jag	-57
▁som	-58
ing	-59
va	-60
på	-61
ol	-62
som	-63
▁u	-64
cke	-65
sa	-66
den	-67
▁H	-68
▁n	-69
pp	-70
▁att	-71
sk	-72
rä	-73
▁så	-74
vi	-75
ta	-76
ud	-77
ter	-78
till	-79
▁»	-80
onom	-81
ver	-82
han	-83
▁är	-84
▁O	-85
▁sk	-86
es	-87
▁en	-88
▁st	-89
▁den	-90
äl	-91
▁D	-92
▁skall	-93
us	-94
os	-95
▁det	-96
li	-97
▁jag	-98
så	-99
äg	-100
kt	-101
▁I	-102
var	-103
▁J	-104
▁Och	-105
▁på	-106
ri	-107
att	-108
▁av	-109
av	-110
itt	-111
▁icke	-112
and	-113
▁var	-114
ot	-115
▁S	-116
ung	-117
ER	-118
RE	-119
ERRE	-120
▁med	-121
▁vi	-122
lla	-123
▁HERRE	-124
ina	-125
det	-126
år	-127
▁HERREN	-128
rån	-129
ju	-130
åt	-131
▁har	-132
▁M	-133
re	-134
it	-135
▁ö	-136
åg	-137
ro	-138
ren	-139
mm	-140
▁dem	-141
▁honom	-142
▁du	-143
ja	-144
ad	-145
omm	-146
le	-147
els	-148
▁ut	-149
lig	-150
as	-151
fter	-152
jor	-153
▁G	-154
at	-155
al	-156
▁upp	-157
rö	-158
dig	-159
are	-160
▁;	-161
onung	-162
ru	-163
▁o	-164
▁där	-165
tta	-166
erren	-167
olk	-168
▁mig	-169
ning	-170
▁om	-171
▁p	-172
▁in	-173
änn	-174
▁sig	-175
▁dig	-176
em	-177
▁:	-178
▁A	-179
llt	-180
ut	-181
is	-182
▁sade	-183
skall	-184
het	-185
▁eder	-186
med	-187
▁Gud	-188
.»	-189
▁över	-190
▁hade	-191
ff	-192
ller	-193
lä	-194
ull	-195
icke	-196
herren	-197
du	-198
▁hans	-199
arn	-200
öra	-201
ram	-202
arna	-203
från	-204
▁𐊣	-205
am	-206
ång	-207
▁komm	-208
ola	-209
ens	-210
där	-211
ne	-212
▁då	-213
har	-214
vid	-215
eg	-216
ava	-217
dem	-218
▁sin	-219
ans	-220
id	-221
▁konung	-222
ön	-223
▁alla	-224
ras	-225
▁Men	-226
yn	-227
og	-228
honom	-229
erna	-230
då	-231
men	-232
ss	-233
▁gi	-234
od	-235
ort	-236
ande	-237
jäl	-238
oss	-239
und	-240
▁folk	-241
▁bli	-242
▁man	-243
äm	-244
▁åt	-245
▁E	-246
öd	-247
upp	-248
jän	-249
▁ett	-250
▁från	-251
eder	-252
sra	-253
▁såsom	-254
sig	-255
▁din	-256
ab	-257
▁min	-258
▁nu	-259
ord	-260
▁Isra	-261
vit	-262
▁när	-263
te	-264
äger	-265
▁efter	-266
äng	-267
ett	-268
ste	-269
▁någ	-270
efter	-271
land	-272
gud	-273
enom	-274
inn	-275
sade	-276
▁T	-277
edan	-278
under	-279
la	-280
▁allt	-281
ur	-282
mig	-283
lev	-284
▁Då	-285
gi	-286
ög	-287
▁hel	-288
▁skola	-289
ann	-290
▁vad	-291
över	-292
andra	-293
▁ty	-294
rätt	-295
ken	-296
▁N	-297
▁men	-298
se	-299
ulle	-300
yg	-301
▁dag	-302
il	-303
▁hava	-304
ock	-305
ul	-306
▁barn	-307
▁son	-308
ba	-309
▁r	-310
▁å	-311
▁ock	-312
▁vid	-313
komm	-314
ader	-315
isk	-316
oro	-317
▁må	-318
ingen	-319
alla	-320
ft	-321
sta	-322
▁fram	-323
▁li	-324
ätt	-325
▁be	-326
▁.»	-327
off	-328
ty	-329
▁mot	-330
▁B	-331
iga	-332
hade	-333
yck	-334
▁sina	-335
▁hus	-336
▁hu	-337
▁deras	-338
hans	-339
jär	-340
olen	-341
när	-342
del	-343
des	-344
▁detta	-345
be	-346
man	-347
bli	-348
ända	-349
aga	-350
öl	-351
▁vill	-352
ött	-353
▁-	-354
min	-355
else	-356
▁HERRENS	-357
ak	-358
ga	-359
ott	-360
folk	-361
mn	-362
▁tal	-363
ska	-364
▁oss	-365
▁tjän	-366
sin	-367
▁vil	-368
vär	-369
lag	-370
ast	-371
kte	-372
vå	-373
▁'	-374
konung	-375
▁gjor	-376
ände	-377
▁gå	-378
ti	-379
må	-380
▁Israels	-381
▁Ty	-382
sam	-383
tet	-384
cka	-385
ose	-386
▁eller	-387
vad	-388
mot	-389
hel	-390
▁sitt	-391
son	-392
varade	-393
fär	-394
gå	-395
▁få	-396
▁K	-397
nu	-398
jorden	-399
▁under	-400
▁vara	-401
öner	-402
all	-403
eru	-404
äll	-405
▁se	-406
offer	-407
ring	-408
▁säger	-409
räst	-410
imm	-411
uda	-412
nen	-413
äder	-414
▁	-415
¦	-416
a	-417
e	-418
n	-419
r	-420
t	-421
s	-422
d	-423
l	-424
o	-425
i	-426
m	-427
h	-428
g	-429
k	-430
v	-431
ä	-432
u	-433
f	-434
å	-435
c	-436
,	-437
ö	-438
b	-439
p	-440
j	-441
.	-442
𐋇	-443
y	-444
»	-445
E	-446
;	-447
R	-448
:	-449
H	-450
S	-451
D	-452
N	-453
O	-454
J	-455
I	-456
M	-457
G	-458
A	-459
?	-460
-	-461
𐊣	-462
𐊼	-463
'	-464
T	-465
V	-466
B	-467
F	-468
K	-469
é	-470
!	-471
x	-472
L	-473
P	-474
U	-475
Ä	-476
Å	-477
(	-478
Ö	-479
)	-480
C	-481
Y	-482
2	-483
0	-484
4	-485
6	-486
1	-487
8	-488
9	-489
ó	-490
3	-491
5	-492
7	-493
í	-494
]	-495
á	-496
