<pad>	0
</s>	0
<unk>	0
.	-3.33576
▁	-3.45159
ا	-3.55739
ي	-3.72435
▁ال	-3.72813
ه	-3.86581
ت	-3.99139
ك	-4.1057
ى	-4.11682
ن	-4.16135
ة	-4.25116
▁و	-4.25214
م	-4.26546
▁في	-4.3901
ر	-4.39677
▁ي	-4.44824
▁ا	-4.45454
وا	-4.47033
▁من	-4.47834
ع	-4.55634
ون	-4.5602
ب	-4.63358
س	-4.64996
ل	-4.74007
د	-4.7572
▁ت	-4.76217
ح	-4.80494
ّ	-4.90628
▁ف	-4.92744
ف	-4.9491
ق	-5.00582
ين	-5.03412
هم	-5.08119
▁م	-5.11428
▁الرب	-5.13626
▁ان	-5.14811
▁ب	-5.15466
ش	-5.16833
ها	-5.214
نا	-5.22906
خ	-5.25412
و	-5.2655
▁وا	-5.30445
▁عل	-5.33983
▁ل	-5.35058
▁كل	-5.38477
ان	-5.39638
▁لا	-5.41411
ط	-5.42327
▁وال	-5.44613
ث	-5.4559
▁الذي	-5.48575
ز	-5.53127
كم	-5.5442
ض	-5.5557
ص	-5.55847
▁الم	-5.61548
ج	-5.6301
غ	-5.63629
اء	-5.68556
ار	-5.77896
ور	-5.85868
ما	-5.88257
▁قد	-5.90964
▁ع	-5.92787
▁ن	-5.93006
▁وي	-5.93215
ني	-5.98387
▁لي	-5.99742
▁لان	-6.01564
▁اسرائيل	-6.02497
ير	-6.0345
▁لل	-6.04718
را	-6.05308
ال	-6.07085
ذ	-6.09539
▁ك	-6.103
▁مع	-6.13136
أ	-6.15224
اب	-6.16628
▁الله	-6.16815
ئ	-6.16924
▁ولا	-6.18757
▁لم	-6.20786
▁بال	-6.23372
▁ش	-6.23456
▁ج	-6.23642
▁عن	-6.24203
▁هذا	-6.28889
▁فا	-6.30322
▁خ	-6.30928
با	-6.32632
يا	-6.33068
▁وت	-6.3335
▁فقال	-6.34349
▁الارض	-6.35031
▁له	-6.35209
▁التي	-6.36796
▁بن	-6.37266
ات	-6.3757
▁كان	-6.39276
▁هو	-6.40207
▁بيت	-6.4099
اد	-6.41401
ام	-6.41475
رب	-6.41923
ته	-6.42258
▁.	-6.42408
ول	-6.43797
▁س	-6.43956
▁يا	-6.44984
بي	-6.47274
ية	-6.47467
يل	-6.5051
▁ابن	-6.52205
ست	-6.52206
▁ما	-6.53153
وب	-6.53243
▁ايضا	-6.5473
▁وقال	-6.56932
▁ملك	-6.57371
▁وم	-6.57806
لا	-6.60495
كل	-6.60813
رج	-6.62058
▁وب	-6.62184
▁جميع	-6.62272
▁الملك	-6.63341
▁الا	-6.65488
يم	-6.67209
ذا	-6.68261
▁بل	-6.68304
▁قال	-6.68676
يد	-6.6907
▁وكان	-6.69127
▁ثم	-6.69467
عد	-6.72528
▁واحد	-6.73916
▁او	-6.74441
▁الس	-6.75047
▁لانه	-6.75238
▁آ	-6.759
خرج	-6.7592
ود	-6.77152
▁عند	-6.77446
تم	-6.7749
▁وع	-6.77542
دي	-6.77594
▁امام	-6.78427
▁انا	-6.79775
بر	-6.80404
بع	-6.80907
▁أ	-6.82205
مة	-6.82254
وه	-6.82763
▁بني	-6.82897
▁به	-6.83883
قل	-6.84687
▁ول	-6.86213
عل	-6.86302
▁وكل	-6.86581
حم	-6.86656
ذهب	-6.8733
جل	-6.88231
ري	-6.88483
قد	-6.887
أت	-6.89058
عة	-6.89239
قي	-6.9003
لم	-6.90625
فر	-6.92194
▁اليوم	-6.94332
▁ارض	-6.9536
تي	-6.95973
▁هكذا	-6.96213
لام	-6.96958
▁لهم	-6.98035
تك	-6.98036
عمل	-6.986
▁داود	-6.99246
وس	-7.00262
خر	-7.00404
▁الشعب	-7.00527
دم	-7.00627
▁ومن	-7.00744
دخل	-7.00957
قول	-7.0107
▁كما	-7.03125
▁يسوع	-7.03139
يت	-7.03409
▁الع	-7.03744
مر	-7.05097
صر	-7.05136
▁ام	-7.05332
وت	-7.05464
▁هذه	-7.05492
بت	-7.06726
▁قائلا	-7.06835
حا	-7.06866
وم	-7.07395
جر	-7.079
ظ	-7.0794
▁يد	-7.08391
حل	-7.08495
▁الف	-7.08666
▁عليه	-7.09309
جا	-7.09332
حر	-7.09344
▁الح	-7.09459
▁رب	-7.09935
▁بعد	-7.10129
▁حت	-7.1016
رف	-7.11104
آ	-7.12451
▁ذلك	-7.12864
اف	-7.13475
اس	-7.13624
سا	-7.13823
▁فت	-7.14142
▁الج	-7.14279
▁يكون	-7.14339
رك	-7.15168
حب	-7.15512
▁انت	-7.15621
▁وفي	-7.16191
ؤ	-7.16274
▁فان	-7.1629
وج	-7.16443
▁اسم	-7.16553
▁يهوذا	-7.17019
صا	-7.1765
▁واما	-7.17682
قر	-7.17928
وح	-7.17942
▁الب	-7.18066
▁يقول	-7.19145
▁ولكن	-7.19157
ضع	-7.19252
صعد	-7.19526
▁د	-7.20056
فت	-7.20317
▁هي	-7.20547
▁رجل	-7.20691
▁موسى	-7.21211
▁اورشليم	-7.21329
▁ليس	-7.21847
▁ولم	-7.2249
شر	-7.2267
▁هناك	-7.22673
▁ط	-7.23301
▁وان	-7.23959
نظر	-7.24063
▁بنو	-7.24146
جعل	-7.24276
وق	-7.24739
جد	-7.2501
رة	-7.25295
صل	-7.25896
▁لك	-7.26634
▁وس	-7.27115
وف	-7.27267
▁ابي	-7.27991
وع	-7.2847
دا	-7.28489
▁اذ	-7.2868
ملك	-7.28897
هر	-7.29052
▁حسب	-7.29723
▁سب	-7.29727
رد	-7.2979
▁اخ	-7.30463
▁بين	-7.30879
طي	-7.31153
قا	-7.31409
رت	-7.32661
▁انه	-7.3318
سمع	-7.3356
▁ز	-7.33995
يق	-7.34159
▁اع	-7.34206
مت	-7.34698
فعل	-7.35142
ضرب	-7.35246
▁اله	-7.35543
▁لكي	-7.35857
دع	-7.36104
▁ايام	-7.36321
قتل	-7.36602
▁وق	-7.36654
▁شعب	-7.37167
▁الق	-7.373
قام	-7.37634
صي	-7.38179
▁لكم	-7.38721
وي	-7.40697
مل	-7.40706
▁مصر	-7.4098
▁الشر	-7.41574
قت	-7.41582
حد	-7.43755
قلب	-7.43891
▁وح	-7.44475
صنع	-7.44806
طر	-7.45837
موت	-7.45972
سكن	-7.46735
▁اش	-7.46949
آب	-7.4724
زل	-7.47485
لو	-7.4752
▁فم	-7.48693
رسل	-7.49058
تهم	-7.49158
سي	-7.49523
يين	-7.4972
بني	-7.50212
ئيل	-7.50516
▁يوم	-7.50537
▁با	-7.50607
عط	-7.50961
▁اجل	-7.51036
نة	-7.52423
▁عمل	-7.52511
▁اليه	-7.52551
قب	-7.52595
طلب	-7.53204
▁احد	-7.5359
▁المدينة	-7.54217
▁سمع	-7.54512
اع	-7.55146
▁اذا	-7.55394
له	-7.55679
▁وجه	-7.56793
تها	-7.57041
خل	-7.5828
كثر	-7.58698
خبر	-7.58959
صو	-7.59029
هوذا	-7.60336
▁المسيح	-7.60469
▁الش	-7.60526
▁وعل	-7.60634
رض	-7.60992
هما	-7.61847
▁للرب	-7.623
▁وسط	-7.62679
▁ار	-7.63198
▁نفس	-7.63365
▁مس	-7.64232
▁مر	-7.64888
تكلم	-7.65214
▁لت	-7.66057
▁كلام	-7.66102
جمع	-7.66255
جي	-7.66511
شب	-7.66608
رس	-7.6713
▁مثل	-7.67835
هد	-7.68018
رق	-7.6808
▁تر	-7.68149
▁مئة	-7.68437
▁ولما	-7.69969
▁عشر	-7.70027
▁اعط	-7.70747
▁فلا	-7.70849
صد	-7.71069
▁هل	-7.72061
صف	-7.72067
▁السماء	-7.72522
▁اس	-7.7259
تقدم	-7.7312
حكم	-7.73334
▁عيني	-7.73538
▁جاء	-7.7366
عز	-7.73821
▁كثير	-7.74658
▁مت	-7.7486
▁عظيم	-7.74964
وش	-7.75077
▁عليك	-7.75132
▁والم	-7.75487
▁وك	-7.75559
أكل	-7.75888
قف	-7.76129
▁كال	-7.76388
عام	-7.76525
▁قو	-7.77469
▁وش	-7.77605
▁الهك	-7.77788
▁شر	-7.79024
▁اما	-7.79342
▁سيد	-7.79381
جم	-7.79939
حفظ	-7.80309
▁رأ	-7.80371
▁امر	-7.80571
ظل	-7.80799
عظ	-7.80992
ذبح	-7.81003
▁الامم	-7.81034
▁معه	-7.81144
▁الانسان	-7.81253
▁الآن	-7.82167
▁حي	-7.82258
بل	-7.82343
▁بر	-7.82432
▁كنت	-7.82619
▁وهو	-7.83259
قض	-7.83626
ائم	-7.83813
▁فلما	-7.84096
قطع	-7.8446
▁سنة	-7.8481
▁لاجل	-7.85215
▁بها	-7.85294
▁تكون	-7.85419
فرح	-7.85561
▁انسان	-7.85565
صب	-7.8629
▁انتم	-7.86385
▁ارسل	-7.86738
▁ايه	-7.87673
جن	-7.8776
▁عبد	-7.88201
رام	-7.88397
▁ثلاث	-7.88548
بة	-7.8875
▁شاول	-7.88772
▁تحت	-7.89505
▁واذا	-7.89983
▁الكاهن	-7.90051
رفع	-7.90294
▁سل	-7.90324
ذب	-7.90347
▁راس	-7.90424
ذكر	-7.90477
▁قدام	-7.90533
▁البيت	-7.91126
▁است	-7.92711
▁سي	-7.92869
▁قر	-7.9289
مسك	-7.93199
▁حين	-7.93595
سم	-7.93893
▁قبل	-7.94177
▁سا	-7.9423
▁يخ	-7.94422
▁ولد	-7.94487
خبز	-7.95097
▁طريق	-7.95182
أخذ	-7.95466
▁اخو	-7.95471
قيم	-7.95982
▁لذلك	-7.96014
▁قائلين	-7.96847
▁الابد	-7.97337
بال	-7.97505
▁اني	-7.97584
▁يت	-7.97846
▁صوت	-7.97909
▁جدا	-7.98102
▁عبيد	-7.98584
سقط	-7.99166
▁يعقوب	-7.997
▁الرجل	-7.99872
دين	-8.00532
عبر	-8.00943
زم	-8.0096
حسن	-8.02247
▁نحو	-8.024
▁السيد	-8.02421
عبد	-8.02548
▁فعل	-8.02815
▁اليك	-8.03592
حمل	-8.0376
▁هؤلاء	-8.04563
▁ير	-8.05217
قط	-8.05385
▁فلم	-8.05475
وص	-8.05682
▁شيء	-8.06757
نجس	-8.07001
الآن	-8.07287
▁البحر	-8.07811
شف	-8.07815
ذل	-8.08931
فل	-8.09308
▁تكلم	-8.10225
بط	-8.1032
▁صار	-8.104
▁لانهم	-8.11009
▁وراء	-8.11318
سأل	-8.12155
▁غير	-8.12436
قوم	-8.12514
▁مل	-8.12789
▁عليهم	-8.13129
▁وانت	-8.13438
▁صنع	-8.13458
▁رئيس	-8.13561
كتب	-8.13591
▁الكهنة	-8.13656
▁سر	-8.1484
▁الناس	-8.14882
وها	-8.15224
▁عد	-8.15366
▁لماذا	-8.15366
▁ذهب	-8.15923
ائه	-8.16823
▁بابل	-8.16944
▁نفسه	-8.17003
ذر	-8.17064
اخذ	-8.17691
دعو	-8.17779
دفع	-8.1806
▁الجنود	-8.18086
▁وقد	-8.18217
▁فاجاب	-8.1844
▁خمس	-8.18536
▁امرأة	-8.1878
▁حق	-8.19281
▁دم	-8.19829
ء	-8.20339
▁اخي	-8.20747
▁الايام	-8.21701
طلق	-8.21785
وث	-8.21808
▁ابو	-8.21968
▁بكل	-8.22143
▁أل	-8.22606
▁رجال	-8.22749
ائك	-8.22923
▁بعض	-8.23207
▁الاول	-8.23235
▁ويكون	-8.23272
▁جبل	-8.23471
▁يكن	-8.2395
▁يدي	-8.24286
▁كثيرة	-8.24302
▁لنا	-8.2446
▁بيد	-8.24732
▁سليمان	-8.24915
▁كانوا	-8.24956
▁آخر	-8.25015
▁الفلسطيني	-8.25287
▁وجميع	-8.25288
▁روح	-8.25402
▁اليهود	-8.25547
هلك	-8.26307
▁فلي	-8.26517
▁جعل	-8.2658
ائل	-8.266
▁باب	-8.27011
وز	-8.27012
شرب	-8.2719
▁لها	-8.28017
▁فوق	-8.28306
▁السموات	-8.28326
▁تلك	-8.28818
▁نحن	-8.29271
▁يسمع	-8.29356
▁غضب	-8.29457
▁اربع	-8.296
▁مكان	-8.29714
حسب	-8.29827
▁لكن	-8.3016
قص	-8.30525
أمر	-8.31359
ذبيحة	-8.31854
▁فكان	-8.32103
▁مدن	-8.32186
▁واعط	-8.33115
ايا	-8.33185
▁رؤساء	-8.33869
▁ماذا	-8.34023
ائي	-8.34334
▁الحق	-8.34542
ريح	-8.34664
غني	-8.35058
▁عشرة	-8.35393
▁حينئذ	-8.35513
▁واخذ	-8.35515
ائر	-8.35659
▁يهو	-8.35686
يء	-8.35782
▁باسم	-8.36974
▁مجد	-8.37543
▁الروح	-8.37705
عال	-8.38168
ئلا	-8.38331
▁فرعون	-8.38886
▁خارج	-8.39377
ناموس	-8.39812
قسم	-8.40378
▁مدينة	-8.40628
▁وبنو	-8.40956
سحق	-8.41358
▁الكلام	-8.42132
▁البرية	-8.42408
▁اخذ	-8.42555
ملاك	-8.42942
▁وليس	-8.43931
صرخ	-8.44059
▁هرون	-8.44751
ظهر	-8.4506
▁السنة	-8.45587
▁هانذا	-8.46443
▁يوسف	-8.47409
▁حيث	-8.47729
▁ابراهيم	-8.4925
▁حول	-8.49459
▁المذبح	-8.50054
▁الطريق	-8.50212
ركب	-8.50533
▁ذراع	-8.52147
ائد	-8.52946
فتح	-8.52996
▁سبط	-8.53911
▁وخمس	-8.54123
جتمع	-8.54148
حارب	-8.54212
بغض	-8.54288
سجد	-8.54373
▁اثم	-8.5448
هذه	-8.54517
▁والذي	-8.54884
▁الشعوب	-8.55125
▁يشوع	-8.55653
مالك	-8.56167
زرع	-8.56259
خلاص	-8.5666
▁غر	-8.56819
ائح	-8.5725
تعب	-8.57652
▁عهد	-8.57779
نحاس	-8.57872
سلك	-8.58387
▁الشهر	-8.5851
▁ثياب	-8.58717
▁قلبه	-8.59214
▁مكتوب	-8.59235
▁القدس	-8.59392
مجد	-8.59657
▁شيئا	-8.60291
نعم	-8.61021
▁العالم	-8.6144
ؤمن	-8.61474
▁الحقل	-8.61479
▁كيف	-8.61603
▁هنا	-8.62829
إ	-8.62977
▁يعرف	-8.63591
▁ايدي	-8.64552
ضطجع	-8.65182
▁وجاء	-8.6533
▁آبائه	-8.65746
▁الاردن	-8.66887
▁جهة	-8.67225
▁العظيم	-8.68021
▁فضة	-8.68823
▁الواحد	-8.69271
▁الثاني	-8.69762
▁الرجال	-8.69794
▁رأيت	-8.70239
▁المرأة	-8.70327
▁خيمة	-8.70383
▁قلت	-8.70937
▁رحم	-8.71199
▁الجميع	-8.71509
▁جسد	-8.72314
نزع	-8.72366
▁النبي	-8.7253
▁موآب	-8.7271
▁نصيب	-8.72735
▁مقدس	-8.7398
▁الجبل	-8.74182
▁يعطي	-8.75328
▁اعمال	-8.7559
نقذ	-8.75681
▁حص	-8.75696
▁افرايم	-8.75749
بقية	-8.76221
▁رؤوس	-8.76995
▁ملوك	-8.77051
▁سكان	-8.77095
▁يعلم	-8.77214
▁طرق	-8.78764
حجارة	-8.78907
▁صهيون	-8.8018
▁تعلم	-8.80353
لبس	-8.80685
▁لداود	-8.80832
▁اياه	-8.80903
▁الليل	-8.81718
حكام	-8.83054
▁الاجتماع	-8.83469
▁كذلك	-8.84828
▁الشمس	-8.84873
▁بطرس	-8.85535
▁المياه	-8.85631
▁بولس	-8.86249
لآخر	-8.86301
▁صاحب	-8.87582
▁قليل	-8.87619
دفن	-8.88576
ائب	-8.88789
▁غل	-8.89601
▁خطية	-8.89705
▁الاخوة	-8.91112
▁عشائر	-8.9184
▁فجاء	-8.91906
▁نعمة	-8.92659
▁ووضع	-8.93342
▁بيوت	-8.94198
▁السيف	-8.94294
▁الثالث	-8.9479
▁بنيامين	-8.94802
▁اخطأ	-8.94824
▁أليس	-8.94912
▁الاشرار	-8.95545
▁ونزل	-8.95802
معرفة	-8.9588
-	-11.8263
ً	-11.9692
)	-12.5859
I	-12.5859
:	-12.9192
1	-13.4192
2	-13.4192
[	-13.4192
]	-13.4192
h	-13.4192
o	-13.4192
(	-14.419
ـ	-14.4191
J	-14.4192
*	-14.4192
5	-14.4192
6	-14.4192
T	-14.4192
i	-14.4192
m	-14.4192
n	-14.4192
t	-14.4192
y	-14.4192
ٍ	-14.4192
