<pad>	0
</s>	0
<unk>	0
▁¦	-0
▁𐋇	-1
th	-2
in	-3
the	-4
re	-5
on	-6
an	-7
at	-8
en	-9
▁.	-10
er	-11
or	-12
▁,	-13
is	-14
ed	-15
al	-16
as	-17
es	-18
to	-19
of	-20
ar	-21
ing	-22
it	-23
ou	-24
ion	-25
and	-26
ent	-27
ac	-28
ic	-29
st	-30
il	-31
be	-32
ro	-33
ve	-34
id	-35
co	-36
le	-37
se	-38
ch	-39
for	-40
ad	-41
tr	-42
ct	-43
ation	-44
me	-45
ir	-46
are	-47
lo	-48
▁𐊣	-49
ho	-50
cor	-51
ay	-52
he	-53
ver	-54
no	-55
ly	-56
de	-57
we	-58
un	-59
so	-60
us	-61
fe	-62
ha	-63
con	-64
vac	-65
coron	-66
ter	-67
mp	-68
ill	-69
ur	-70
ment	-71
sp	-72
cin	-73
vaccin	-74
corona	-75
has	-76
di	-77
ate	-78
ce	-79
that	-80
su	-81
▁'	-82
ag	-83
ld	-84
do	-85
ab	-86
ut	-87
wi	-88
pe	-89
um	-90
have	-91
ati	-92
with	-93
pro	-94
ig	-95
oun	-96
ap	-97
est	-98
ak	-99
go	-100
sa	-101
0¦	-102
ers	-103
wh	-104
ne	-105
▁¦1	-106
was	-107
op	-108
dis	-109
vid	-110
this	-111
vir	-112
rom	-113
will	-114
ents	-115
mo	-116
from	-117
am	-118
▁¦2	-119
not	-120
fect	-121
pati	-122
po	-123
im	-124
te	-125
sh	-126
ain	-127
out	-128
by	-129
et	-130
ther	-131
ex	-132
ant	-133
ul	-134
res	-135
min	-136
ort	-137
ies	-138
patients	-139
umb	-140
ity	-141
been	-142
per	-143
wor	-144
vaccine	-145
act	-146
if	-147
gen	-148
▁"	-149
af	-150
med	-151
alth	-152
iv	-153
virus	-154
day	-155
vern	-156
our	-157
cent	-158
govern	-159
all	-160
9¦	-161
du	-162
government	-163
ive	-164
ess	-165
ial	-166
dr	-167
cl	-168
minis	-169
said	-170
there	-171
covid	-172
ople	-173
people	-174
health	-175
qu	-176
har	-177
ould	-178
ions	-179
ol	-180
art	-181
any	-182
also	-183
state	-184
▁(	-185
pr	-186
wn	-187
ding	-188
one	-189
ase	-190
infect	-191
ical	-192
ital	-193
igh	-194
ated	-195
▁)	-196
em	-197
but	-198
ef	-199
str	-200
cre	-201
ict	-202
com	-203
ren	-204
pl	-205
can	-206
tra	-207
numb	-208
test	-209
ma	-210
cont	-211
ck	-212
av	-213
other	-214
were	-215
iz	-216
▁?	-217
coun	-218
od	-219
ts	-220
19¦	-221
ca	-222
number	-223
hosp	-224
sy	-225
li	-226
hospital	-227
ary	-228
indi	-229
red	-230
sit	-231
after	-232
work	-233
-19¦	-234
who	-235
der	-236
minister	-237
ash	-238
ll	-239
ud	-240
pre	-241
ox	-242
ous	-243
imp	-244
had	-245
countr	-246
gh	-247
age	-248
low	-249
ast	-250
ke	-251
should	-252
ime	-253
ath	-254
ear	-255
comp	-256
down	-257
ack	-258
tak	-259
ge	-260
port	-261
mar	-262
ough	-263
▁¦20	-264
5¦	-265
end	-266
you	-267
ound	-268
use	-269
ail	-270
ib	-271
oxy	-272
oxygen	-273
some	-274
comm	-275
lock	-276
ms	-277
ser	-278
able	-279
hand	-280
sed	-281
ans	-282
lic	-283
mahar	-284
fic	-285
2¦	-286
ine	-287
new	-288
ator	-289
ashtra	-290
cond	-291
maharashtra	-292
cr	-293
india	-294
▁:	-295
more	-296
these	-297
ip	-298
incre	-299
ra	-300
than	-301
pres	-302
dise	-303
about	-304
very	-305
many	-306
▁¦3	-307
ctor	-308
distr	-309
lockdown	-310
vaccination	-311
wo	-312
say	-313
ance	-314
read	-315
00¦	-316
ide	-317
4¦	-318
ask	-319
fo	-320
up	-321
ist	-322
fir	-323
may	-324
they	-325
time	-326
ai	-327
ild	-328
ates	-329
ard	-330
ased	-331
reat	-332
their	-333
year	-334
ile	-335
spe	-336
part	-337
ia	-338
disease	-339
ases	-340
ach	-341
cur	-342
clo	-343
form	-344
infection	-345
gr	-346
ub	-347
reg	-348
under	-349
ight	-350
district	-351
vaccines	-352
what	-353
ced	-354
get	-355
ars	-356
how	-357
vel	-358
man	-359
now	-360
report	-361
sion	-362
being	-363
ong	-364
sch	-365
ev	-366
days	-367
cording	-368
ations	-369
high	-370
une	-371
according	-372
resp	-373
ace	-374
country	-375
ich	-376
1¦	-377
bo	-378
ious	-379
br	-380
ep	-381
mpto	-382
ens	-383
ction	-384
ann	-385
mon	-386
rent	-387
ass	-388
which	-389
need	-390
pp	-391
care	-392
vent	-393
ris	-394
cial	-395
8¦	-396
incl	-397
child	-398
while	-399
first	-400
treat	-401
whe	-402
▁¦202	-403
mis	-404
last	-405
ure	-406
ave	-407
ence	-408
cted	-409
aw	-410
iven	-411
bre	-412
ted	-413
two	-414
used	-415
second	-416
ss	-417
lop	-418
effect	-419
ang	-420
over	-421
again	-422
sur	-423
uring	-424
offic	-425
chi	-426
fore	-427
found	-428
world	-429
such	-430
spread	-431
sympto	-432
when	-433
ign	-434
its	-435
pub	-436
velop	-437
ool	-438
like	-439
due	-440
vi	-441
ug	-442
only	-443
develop	-444
sars	-445
strict	-446
march	-447
ministr	-448
7¦	-449
cy	-450
cases	-451
ty	-452
stud	-453
school	-454
pers	-455
ci	-456
ade	-457
uation	-458
chin	-459
symptoms	-460
rel	-461
says	-462
▁%	-463
come	-464
mumb	-465
start	-466
mumbai	-467
ition	-468
log	-469
children	-470
chief	-471
given	-472
ities	-473
death	-474
during	-475
▁-	-476
gan	-477
▁¦5	-478
medical	-479
person	-480
dif	-481
6¦	-482
▁¦4	-483
cess	-484
howe	-485
however	-486
doctor	-487
col	-488
ish	-489
avail	-490
treatment	-491
coronavirus	-492
cro	-493
inclu	-494
atory	-495
produ	-496
inter	-497
apr	-498
▁¦2020¦	-499
april	-500
states	-501
dec	-502
esh	-503
home	-504
tal	-505
situation	-506
mun	-507
stem	-508
hy	-509
mb	-510
fl	-511
every	-512
wave	-513
public	-514
sto	-515
center	-516
3¦	-517
ice	-518
ose	-519
system	-520
ree	-521
even	-522
uary	-523
infected	-524
je	-525
contro	-526
countries	-527
ek	-528
your	-529
bed	-530
ting	-531
bet	-532
posit	-533
available	-534
han	-535
itiz	-536
against	-537
fin	-538
uk	-539
serv	-540
most	-541
om	-542
drug	-543
peri	-544
risk	-545
break	-546
ied	-547
,0	-548
io	-549
ating	-550
ational	-551
mand	-552
fr	-553
cal	-554
mask	-555
those	-556
inform	-557
restrict	-558
hav	-559
announ	-560
cle	-561
take	-562
his	-563
ute	-564
add	-565
eng	-566
provid	-567
week	-568
thr	-569
inst	-570
ident	-571
ited	-572
organ	-573
icip	-574
pune	-575
pur	-576
import	-577
hospitals	-578
sul	-579
current	-580
ivir	-581
through	-582
ses	-583
ures	-584
gu	-585
rs	-586
del	-587
wash	-588
appro	-589
centr	-590
vaccinated	-591
main	-592
taken	-593
respon	-594
hum	-595
lar	-596
▁."	-597
them	-598
arr	-599
colle	-600
where	-601
ual	-602
aren	-603
ning	-604
sing	-605
acker	-606
restrictions	-607
ody	-608
made	-609
requ	-610
information	-611
cause	-612
few	-613
issu	-614
ackeray	-615
thackeray	-616
prote	-617
reported	-618
ok	-619
ved	-620
,000¦	-621
par	-622
kar	-623
emic	-624
cer	-625
les	-626
▁¦1¦	-627
air	-628
lin	-629
central	-630
ire	-631
ult	-632
way	-633
▁¦6	-634
ater	-635
clin	-636
fact	-637
ible	-638
well	-639
var	-640
sure	-641
uc	-642
outbreak	-643
akh	-644
ility	-645
beds	-646
dire	-647
mu	-648
ural	-649
▁;	-650
china	-651
contact	-652
mission	-653
prevent	-654
workers	-655
vis	-656
administr	-657
hi	-658
arch	-659
fol	-660
mber	-661
trans	-662
des	-663
pt	-664
eral	-665
side	-666
ata	-667
att	-668
polic	-669
control	-670
ces	-671
follow	-672
search	-673
national	-674
na	-675
would	-676
doctors	-677
short	-678
patient	-679
ko	-680
set	-681
ific	-682
lakh	-683
sup	-684
then	-685
ative	-686
ob	-687
ps	-688
mak	-689
▁¦7	-690
ices	-691
including	-692
sho	-693
fac	-694
meet	-695
level	-696
important	-697
hel	-698
call	-699
ful	-700
areas	-701
announced	-702
oc	-703
exam	-704
ials	-705
month	-706
testing	-707
la	-708
-2¦	-709
asing	-710
icipal	-711
municipal	-712
raj	-713
remed	-714
did	-715
city	-716
au	-717
redu	-718
men	-719
present	-720
mit	-721
allow	-722
started	-723
ten	-724
ves	-725
educ	-726
travel	-727
citiz	-728
resul	-729
research	-730
increased	-731
died	-732
tests	-733
affect	-734
administration	-735
jan	-736
surve	-737
effective	-738
▁).	-739
emer	-740
diffe	-741
▁¦9	-742
lead	-743
poss	-744
hour	-745
supp	-746
instit	-747
less	-748
same	-749
closed	-750
ue	-751
years	-752
demand	-753
don	-754
ctions	-755
int	-756
body	-757
large	-758
ential	-759
▁¦8	-760
respir	-761
far	-762
amil	-763
going	-764
citizens	-765
organiz	-766
positive	-767
cus	-768
students	-769
udd	-770
data	-771
mill	-772
based	-773
decis	-774
supply	-775
ason	-776
hands	-777
increasing	-778
ble	-779
case	-780
does	-781
pand	-782
rap	-783
ween	-784
before	-785
quest	-786
between	-787
increase	-788
sin	-789
meeting	-790
lim	-791
rate	-792
flu	-793
iver	-794
nag	-795
rul	-796
camp	-797
quar	-798
ying	-799
ments	-800
gro	-801
dies	-802
tech	-803
modi	-804
priv	-805
three	-806
depart	-807
dro	-808
cing	-809
logy	-810
▁¦2¦	-811
around	-812
contin	-813
thing	-814
▁¦10¦	-815
washing	-816
bc	-817
ior	-818
deaths	-819
uddhav	-820
ust	-821
▁),	-822
ared	-823
soci	-824
social	-825
comple	-826
meas	-827
education	-828
app	-829
dra	-830
sol	-831
into	-832
samp	-833
could	-834
ages	-835
crit	-836
dist	-837
crore	-838
respiratory	-839
ank	-840
lit	-841
ized	-842
delhi	-843
thous	-844
thousand	-845
ick	-846
ics	-847
ird	-848
lab	-849
iate	-850
safe	-851
vere	-852
ness	-853
eld	-854
ress	-855
ended	-856
speak	-857
bio	-858
val	-859
help	-860
ering	-861
famil	-862
severe	-863
gest	-864
schools	-865
san	-866
mark	-867
since	-868
period	-869
emergen	-870
private	-871
line	-872
pass	-873
human	-874
inv	-875
dose	-876
rece	-877
bbc	-878
dep	-879
antib	-880
exper	-881
decision	-882
el	-883
local	-884
my	-885
cap	-886
ian	-887
sen	-888
aign	-889
prime	-890
addition	-891
campaign	-892
doses	-893
using	-894
quarant	-895
without	-896
open	-897
january	-898
bal	-899
sub	-900
spec	-901
mat	-902
ventil	-903
million	-904
currently	-905
different	-906
cell	-907
ists	-908
reco	-909
rules	-910
recomm	-911
ik	-912
hal	-913
grou	-914
long	-915
tain	-916
commun	-917
working	-918
war	-919
hours	-920
mal	-921
today	-922
por	-923
cour	-924
plac	-925
ew	-926
tested	-927
ind	-928
ric	-929
speaking	-930
fun	-931
kno	-932
why	-933
make	-934
phas	-935
medic	-936
police	-937
possible	-938
department	-939
emp	-940
oid	-941
allowed	-942
institute	-943
wal	-944
▁¦5¦	-945
percent	-946
ven	-947
appe	-948
lish	-949
stru	-950
united	-951
rapid	-952
she	-953
tur	-954
view	-955
imple	-956
univer	-957
company	-958
clinical	-959
ger	-960
back	-961
came	-962
cons	-963
action	-964
called	-965
general	-966
both	-967
pected	-968
whether	-969
blo	-970
post	-971
ular	-972
because	-973
emergency	-974
pop	-975
face	-976
ators	-977
known	-978
ele	-979
four	-980
▁¦3¦	-981
ulation	-982
aff	-983
ors	-984
febr	-985
sever	-986
mitted	-987
february	-988
ject	-989
reason	-990
grow	-991
lack	-992
mers	-993
reach	-994
regis	-995
impo	-996
ministry	-997
therefore	-998
aj	-999
led	-1000
area	-1001
ality	-1002
study	-1003
union	-1004
discus	-1005
experts	-1006
measures	-1007
let	-1008
show	-1009
blood	-1010
ically	-1011
xt	-1012
sal	-1013
rest	-1014
temp	-1015
organization	-1016
sci	-1017
mediate	-1018
affected	-1019
shortage	-1020
ix	-1021
aim	-1022
ext	-1023
sus	-1024
ield	-1025
among	-1026
ired	-1027
vill	-1028
pandemic	-1029
developed	-1030
ned	-1031
tar	-1032
phase	-1033
rural	-1034
sel	-1035
total	-1036
acro	-1037
▁¦4¦	-1038
chang	-1039
masks	-1040
happ	-1041
lear	-1042
avoid	-1043
market	-1044
glo	-1045
still	-1046
third	-1047
ination	-1048
jo	-1049
ission	-1050
centers	-1051
liv	-1052
held	-1053
rele	-1054
across	-1055
contain	-1056
illance	-1057
commission	-1058
production	-1059
surveillance	-1060
inc	-1061
tim	-1062
isol	-1063
king	-1064
seen	-1065
thor	-1066
ward	-1067
sport	-1068
places	-1069
here	-1070
indu	-1071
stat	-1072
place	-1073
corpor	-1074
another	-1075
transmission	-1076
ite	-1077
ange	-1078
heart	-1079
order	-1080
▁¦15¦	-1081
cov	-1082
sis	-1083
epid	-1084
force	-1085
stand	-1086
taking	-1087
him	-1088
mall	-1089
wide	-1090
itions	-1091
eu	-1092
econ	-1093
much	-1094
experi	-1095
months	-1096
bu	-1097
ene	-1098
fur	-1099
hou	-1100
loy	-1101
done	-1102
keep	-1103
asked	-1104
pract	-1105
coming	-1106
question	-1107
mean	-1108
outh	-1109
condu	-1110
▁¦20¦	-1111
econom	-1112
cris	-1113
sent	-1114
train	-1115
proble	-1116
rajesh	-1117
process	-1118
samples	-1119
fer	-1120
kovid	-1121
provide	-1122
services	-1123
essential	-1124
sim	-1125
ung	-1126
five	-1127
family	-1128
include	-1129
fire	-1130
soap	-1131
serum	-1132
implement	-1133
enz	-1134
old	-1135
crow	-1136
stay	-1137
tran	-1138
ants	-1139
itor	-1140
fever	-1141
house	-1142
▁¦50¦	-1143
formed	-1144
further	-1145
next	-1146
response	-1147
population	-1148
hc	-1149
sat	-1150
ived	-1151
know	-1152
▁¦7¦	-1153
▁¦30¦	-1154
diffic	-1155
nagpur	-1156
corporation	-1157
pm	-1158
bat	-1159
ise	-1160
head	-1161
till	-1162
lying	-1163
water	-1164
confir	-1165
higher	-1166
ese	-1167
imal	-1168
oper	-1169
sign	-1170
likely	-1171
ax	-1172
ga	-1173
ally	-1174
ilar	-1175
group	-1176
▁¦19¦	-1177
related	-1178
serious	-1179
mor	-1180
sity	-1181
▁¦10	-1182
vacin	-1183
▁¦24¦	-1184
associ	-1185
atives	-1186
imposed	-1187
similar	-1188
approved	-1189
polit	-1190
concer	-1191
global	-1192
issued	-1193
conditions	-1194
vs	-1195
tope	-1196
times	-1197
tract	-1198
chinese	-1199
passeng	-1200
support	-1201
gy	-1202
amp	-1203
mut	-1204
pat	-1205
aring	-1206
early	-1207
ability	-1208
several	-1209
complete	-1210
president	-1211
sw	-1212
run	-1213
half	-1214
manu	-1215
sequ	-1216
fight	-1217
labor	-1218
remain	-1219
manufact	-1220
immediate	-1221
development	-1222
big	-1223
son	-1224
good	-1225
init	-1226
class	-1227
crowd	-1228
ified	-1229
small	-1230
women	-1231
crisis	-1232
indian	-1233
become	-1234
university	-1235
jay	-1236
non	-1237
tou	-1238
vari	-1239
direct	-1240
strain	-1241
trials	-1242
although	-1243
tion	-1244
told	-1245
ready	-1246
tered	-1247
coronary	-1248
quarantine	-1249
her	-1250
yet	-1251
prad	-1252
marath	-1253
proper	-1254
various	-1255
infections	-1256
che	-1257
want	-1258
lines	-1259
paren	-1260
staff	-1261
animal	-1262
maj	-1263
land	-1264
▁¦6¦	-1265
secre	-1266
six	-1267
ibut	-1268
inje	-1269
lung	-1270
facil	-1271
night	-1272
rapidly	-1273
admitted	-1274
distance	-1275
gn	-1276
hu	-1277
beg	-1278
ory	-1279
suf	-1280
ders	-1281
each	-1282
least	-1283
touch	-1284
ution	-1285
compan	-1286
industr	-1287
protect	-1288
transport	-1289
rt	-1290
see	-1291
sug	-1292
free	-1293
ised	-1294
continue	-1295
everyone	-1296
leg	-1297
esivir	-1298
scient	-1299
condition	-1300
ot	-1301
hol	-1302
bhar	-1303
media	-1304
sures	-1305
author	-1306
necess	-1307
epidemic	-1308
ins	-1309
nor	-1310
rav	-1311
wad	-1312
cept	-1313
ided	-1314
just	-1315
self	-1316
youn	-1317
iting	-1318
major	-1319
▁¦14¦	-1320
within	-1321
confirmed	-1322
stu	-1323
ends	-1324
fort	-1325
task	-1326
claim	-1327
consid	-1328
safety	-1329
getting	-1330
ls	-1331
wu	-1332
den	-1333
pan	-1334
pcr	-1335
gram	-1336
host	-1337
plic	-1338
wuhan	-1339
office	-1340
reduce	-1341
closures	-1342
dev	-1343
imm	-1344
activ	-1345
board	-1346
community	-1347
nal	-1348
biotech	-1349
parents	-1350
remedesivir	-1351
wr	-1352
chall	-1353
cough	-1354
shops	-1355
weeks	-1356
result	-1357
gi	-1358
bus	-1359
guide	-1360
ought	-1361
plann	-1362
▁!	-1363
neg	-1364
dece	-1365
pain	-1366
▁¦12	-1367
active	-1368
caused	-1369
employ	-1370
immune	-1371
ibility	-1372
pradesh	-1373
passengers	-1374
til	-1375
aily	-1376
cold	-1377
june	-1378
clear	-1379
daily	-1380
instru	-1381
lished	-1382
service	-1383
expected	-1384
evid	-1385
look	-1386
naren	-1387
others	-1388
covacin	-1389
special	-1390
suggest	-1391
village	-1392
narendra	-1393
acity	-1394
chest	-1395
close	-1396
▁¦11¦	-1397
invest	-1398
relatives	-1399
dc	-1400
jp	-1401
ph	-1402
ben	-1403
ome	-1404
own	-1405
put	-1406
ton	-1407
twe	-1408
agno	-1409
▁¦8¦	-1410
estim	-1411
odies	-1412
rence	-1413
retur	-1414
suppl	-1415
diagno	-1416
director	-1417
evidence	-1418
companies	-1419
antibodies	-1420
icu	-1421
ues	-1422
abad	-1423
cost	-1424
decl	-1425
euro	-1426
food	-1427
give	-1428
kill	-1429
path	-1430
issue	-1431
ually	-1432
decided	-1433
effects	-1434
results	-1435
capacity	-1436
diseases	-1437
▁’	-1438
bjp	-1439
rus	-1440
remo	-1441
ured	-1442
▁¦201	-1443
ravati	-1444
highest	-1445
required	-1446
following	-1447
ram	-1448
jour	-1449
ensive	-1450
viruses	-1451
underlying	-1452
fig	-1453
paw	-1454
expo	-1455
influ	-1456
tweet	-1457
viral	-1458
amravati	-1459
received	-1460
ventilators	-1461
adv	-1462
phy	-1463
pne	-1464
mort	-1465
lives	-1466
pneum	-1467
south	-1468
breath	-1469
cannot	-1470
cities	-1471
common	-1472
humans	-1473
conducted	-1474
ety	-1475
nat	-1476
pal	-1477
news	-1478
clean	-1479
december	-1480
distribut	-1481
ink	-1482
aled	-1483
plan	-1484
check	-1485
europe	-1486
letter	-1487
online	-1488
pecial	-1489
secret	-1490
statist	-1491
provided	-1492
meanwhile	-1493
necessary	-1494
pot	-1495
mult	-1496
acute	-1497
decre	-1498
▁¦12¦	-1499
▁¦18¦	-1500
bharat	-1501
expres	-1502
includ	-1503
growing	-1504
individ	-1505
marathi	-1506
persons	-1507
project	-1508
sun	-1509
ford	-1510
ined	-1511
ines	-1512
gress	-1513
iness	-1514
pawar	-1515
respons	-1516
individual	-1517
nav	-1518
ardi	-1519
ling	-1520
uses	-1521
italy	-1522
needs	-1523
officer	-1524
outside	-1525
ri	-1526
ont	-1527
wer	-1528
anti	-1529
carr	-1530
orig	-1531
comes	-1532
▁¦100¦	-1533
program	-1534
especial	-1535
districts	-1536
spreading	-1537
especially	-1538
guidelines	-1539
mer	-1540
dete	-1541
room	-1542
prior	-1543
taluk	-1544
sanitiz	-1545
ds	-1546
ban	-1547
▁,"	-1548
tail	-1549
took	-1550
stock	-1551
declin	-1552
monitor	-1553
problems	-1554
officials	-1555
registered	-1556
immediately	-1557
loc	-1558
away	-1559
immun	-1560
young	-1561
recent	-1562
sector	-1563
survey	-1564
conside	-1565
potential	-1566
considered	-1567
facilities	-1568
ims	-1569
find	-1570
onia	-1571
court	-1572
0,000¦	-1573
arding	-1574
position	-1575
isolation	-1576
mortality	-1577
international	-1578
rna	-1579
sha	-1580
syn	-1581
date	-1582
iday	-1583
izer	-1584
mild	-1585
estab	-1586
front	-1587
gener	-1588
until	-1589
encing	-1590
genome	-1591
needed	-1592
journal	-1593
typ	-1594
alco	-1595
meth	-1596
acter	-1597
benef	-1598
drugs	-1599
vered	-1600
commit	-1601
happen	-1602
review	-1603
bh	-1604
▁“	-1605
tru	-1606
uty	-1607
alcohol	-1608
negative	-1609
difficult	-1610
bor	-1611
ism	-1612
yes	-1613
char	-1614
feel	-1615
seem	-1616
soon	-1617
▁¦1.	-1618
advis	-1619
later	-1620
enough	-1621
having	-1622
investig	-1623
pneumonia	-1624
gp	-1625
pf	-1626
ara	-1627
bro	-1628
mes	-1629
off	-1630
ving	-1631
moder	-1632
pfizer	-1633
illness	-1634
logical	-1635
released	-1636
secretary	-1637
statistics	-1638
equ	-1639
lot	-1640
nur	-1641
ped	-1642
vas	-1643
cies	-1644
hote	-1645
icro	-1646
tern	-1647
chain	-1648
teach	-1649
applic	-1650
change	-1651
senior	-1652
initial	-1653
critical	-1654
regarding	-1655
▁”	-1656
sep	-1657
too	-1658
▁%)	-1659
drop	-1660
enza	-1661
harm	-1662
pped	-1663
ship	-1664
genet	-1665
ights	-1666
utions	-1667
leaders	-1668
business	-1669
influenza	-1670
political	-1671
recommended	-1672
ber	-1673
lor	-1674
pay	-1675
▁¦0	-1676
step	-1677
type	-1678
viro	-1679
iving	-1680
idence	-1681
concern	-1682
asy	-1683
aur	-1684
kin	-1685
suc	-1686
aged	-1687
cells	-1688
great	-1689
regul	-1690
septe	-1691
think	-1692
taluka	-1693
▁¦2021¦	-1694
informed	-1695
declining	-1696
questions	-1697
september	-1698
healthcare	-1699
nes	-1700
net	-1701
phys	-1702
prim	-1703
stop	-1704
went	-1705
▁¦9¦	-1706
occur	-1707
uttar	-1708
impact	-1709
levels	-1710
origin	-1711
employe	-1712
infectious	-1713
wa	-1714
▁/	-1715
abo	-1716
aid	-1717
cdc	-1718
ily	-1719
fill	-1720
ters	-1721
ances	-1722
matic	-1723
means	-1724
recor	-1725
observ	-1726
learning	-1727
medicine	-1728
-2	-1729
ry	-1730
ded	-1731
dia	-1732
erat	-1733
prev	-1734
team	-1735
right	-1736
leader	-1737
oxford	-1738
implemented	-1739
sc	-1740
aly	-1741
bab	-1742
mid	-1743
wed	-1744
▁'.	-1745
ency	-1746
life	-1747
once	-1748
prep	-1749
tank	-1750
finan	-1751
patho	-1752
regard	-1753
economic	-1754
coronaviruses	-1755
ah	-1756
ft	-1757
dou	-1758
occ	-1759
tee	-1760
tre	-1761
deli	-1762
desp	-1763
grap	-1764
slow	-1765
astra	-1766
earli	-1767
examp	-1768
invol	-1769
often	-1770
reser	-1771
trial	-1772
despite	-1773
signific	-1774
financial	-1775
experience	-1776
examination	-1777
individuals	-1778
commissioner	-1779
als	-1780
fici	-1781
prof	-1782
chand	-1783
deter	-1784
partic	-1785
preval	-1786
ishield	-1787
offices	-1788
planning	-1789
dry	-1790
exp	-1791
brit	-1792
full	-1793
iran	-1794
sick	-1795
▁¦19	-1796
above	-1797
began	-1798
begin	-1799
chlor	-1800
dings	-1801
drome	-1802
might	-1803
▁¦16¦	-1804
▁¦2019¦	-1805
demanded	-1806
maintain	-1807
syndrome	-1808
temperat	-1809
published	-1810
da	-1811
kum	-1812
hold	-1813
ides	-1814
reli	-1815
stor	-1816
already	-1817
numbers	-1818
practices	-1819
laboratory	-1820
significant	-1821
win	-1822
ians	-1823
toll	-1824
alleg	-1825
shown	-1826
waste	-1827
▁¦31¦	-1828
▁¦40¦	-1829
critic	-1830
single	-1831
trying	-1832
college	-1833
genetic	-1834
industry	-1835
specific	-1836
completely	-1837
prevention	-1838
instructions	-1839
buil	-1840
fear	-1841
trac	-1842
vict	-1843
zene	-1844
equip	-1845
nagar	-1846
rates	-1847
relig	-1848
curfew	-1849
zeneca	-1850
immunity	-1851
previous	-1852
produced	-1853
worldwide	-1854
inte	-1855
itis	-1856
near	-1857
role	-1858
tric	-1859
ately	-1860
diarr	-1861
ently	-1862
lling	-1863
micro	-1864
separ	-1865
manage	-1866
things	-1867
certain	-1868
changes	-1869
reached	-1870
reduced	-1871
reports	-1872
success	-1873
ana	-1874
cir	-1875
fad	-1876
ore	-1877
awal	-1878
bats	-1879
conf	-1880
gone	-1881
must	-1882
road	-1883
thro	-1884
unch	-1885
const	-1886
navis	-1887
deputy	-1888
nology	-1889
policy	-1890
strate	-1891
though	-1892
example	-1893
protein	-1894
reasons	-1895
fadnavis	-1896
official	-1897
underway	-1898
developing	-1899
eo	-1900
▁".	-1901
comb	-1902
name	-1903
past	-1904
rail	-1905
exams	-1906
proto	-1907
limited	-1908
require	-1909
society	-1910
statement	-1911
suspected	-1912
vaccinate	-1913
ii	-1914
rc	-1915
50¦	-1916
bid	-1917
cts	-1918
ged	-1919
nam	-1920
ajit	-1921
hygi	-1922
agric	-1923
enter	-1924
press	-1925
ending	-1926
figures	-1927
agricult	-1928
protocol	-1929
collector	-1930
discussed	-1931
permission	-1932
containment	-1933
governments	-1934
amb	-1935
hea	-1936
ond	-1937
pap	-1938
tle	-1939
left	-1940
real	-1941
toge	-1942
along	-1943
anger	-1944
aster	-1945
video	-1946
▁¦200	-1947
causes	-1948
variant	-1949
victims	-1950
wearing	-1951
together	-1952
committee	-1953
employees	-1954
mandatory	-1955
bas	-1956
chr	-1957
ges	-1958
rsc	-1959
rcgp	-1960
utes	-1961
kumar	-1962
pregn	-1963
▁¦60¦	-1964
ensure	-1965
earlier	-1966
primary	-1967
produce	-1968
stopped	-1969
antibody	-1970
exposure	-1971
breathing	-1972
incidence	-1973
opposition	-1974
scientists	-1975
association	-1976
considering	-1977
cut	-1978
ppe	-1979
amin	-1980
card	-1981
orde	-1982
novel	-1983
friday	-1984
season	-1985
species	-1986
contract	-1987
directly	-1988
families	-1989
expressed	-1990
covishield	-1991
management	-1992
.5¦	-1993
ago	-1994
got	-1995
phe	-1996
xim	-1997
bank	-1998
cand	-1999
kumb	-2000
russ	-2001
effor	-2002
light	-2003
thane	-2004
candid	-2005
diabet	-2006
ention	-2007
entire	-2008
sunday	-2009
discuss	-2010
efforts	-2011
studies	-2012
talking	-2013
authorities	-2014
bl	-2015
vo	-2016
bur	-2017
fil	-2018
fut	-2019
mela	-2020
fully	-2021
kumbh	-2022
lower	-2023
▁¦25¦	-2024
▁¦28¦	-2025
▁¦45¦	-2026
access	-2027
issues	-2028
mental	-2029
created	-2030
congress	-2031
equipment	-2032
additional	-2033
injections	-2034
hic	-2035
ize	-2036
pri	-2037
aver	-2038
enge	-2039
nose	-2040
play	-2041
shiv	-2042
conne	-2043
onset	-2044
appear	-2045
depend	-2046
events	-2047
former	-2048
method	-2049
prepar	-2050
announce	-2051
followed	-2052
challenge	-2053
associated	-2054
tw	-2055
acy	-2056
aik	-2057
hit	-2058
hun	-2059
ium	-2060
job	-2061
met	-2062
mob	-2063
circ	-2064
fail	-2065
move	-2066
▁¦11	-2067
awala	-2068
confe	-2069
ening	-2070
mater	-2071
occas	-2072
parts	-2073
postp	-2074
types	-2075
verse	-2076
bacter	-2077
consul	-2078
design	-2079
normal	-2080
continu	-2081
iveness	-2082
ordered	-2083
pressure	-2084
effectiveness	-2085
bi	-2086
dy	-2087
ane	-2088
rup	-2089
sud	-2090
cale	-2091
kits	-2092
late	-2093
tour	-2094
afric	-2095
cting	-2096
exact	-2097
seven	-2098
track	-2099
▁¦23¦	-2100
▁¦70¦	-2101
future	-2102
member	-2103
ources	-2104
hygiene	-2105
systems	-2106
compared	-2107
diarrhea	-2108
election	-2109
standard	-2110
medicines	-2111
undergoing	-2112
ventilator	-2113
manufacture	-2114
-1	-2115
mr	-2116
bha	-2117
hib	-2118
ner	-2119
oqu	-2120
pas	-2121
try	-2122
apur	-2123
hind	-2124
hist	-2125
kore	-2126
live	-2127
load	-2128
sonu	-2129
ulty	-2130
analy	-2131
inary	-2132
patil	-2133
satur	-2134
▁¦17¦	-2135
became	-2136
danger	-2137
launch	-2138
matter	-2139
oquine	-2140
raised	-2141
occasion	-2142
chloroquine	-2143
temperature	-2144
,2	-2145
hot	-2146
iat	-2147
bill	-2148
liqu	-2149
nash	-2150
rise	-2151
site	-2152
ways	-2153
writ	-2154
exist	-2155
leave	-2156
limit	-2157
scale	-2158
▁¦21¦	-2159
ession	-2160
groups	-2161
menstr	-2162
nashik	-2163
nurses	-2164
antivir	-2165
asympto	-2166
remedic	-2167
controls	-2168
extended	-2169
particular	-2170
researchers	-2171
asymptomatic	-2172
ja	-2173
ya	-2174
yo	-2175
ale	-2176
dom	-2177
web	-2178
wear	-2179
amoun	-2180
bring	-2181
count	-2182
recept	-2183
saying	-2184
animals	-2185
perform	-2186
diabetes	-2187
european	-2188
particip	-2189
pathogen	-2190
injection	-2191
mutations	-2192
recovered	-2193
religious	-2194
identified	-2195
sequencing	-2196
availability	-2197
ez	-2198
nu	-2199
cab	-2200
ona	-2201
sne	-2202
list	-2203
unit	-2204
alone	-2205
cylin	-2206
impro	-2207
party	-2208
posed	-2209
except	-2210
claimed	-2211
foreign	-2212
largest	-2213
morning	-2214
problem	-2215
tweeted	-2216
declared	-2217
attention	-2218
diagnosed	-2219
ministers	-2220
thousands	-2221
prevalence	-2222
quarantined	-2223
,4	-2224
acc	-2225
ify	-2226
shi	-2227
wel	-2228
adar	-2229
kept	-2230
stre	-2231
ctive	-2232
indic	-2233
pharm	-2234
point	-2235
secur	-2236
store	-2237
super	-2238
usion	-2239
▁¦90¦	-2240
killed	-2241
little	-2242
orders	-2243
factors	-2244
markets	-2245
network	-2246
antiviral	-2247
establish	-2248
remedivir	-2249
recommends	-2250
technology	-2251
,1	-2252
bra	-2253
jar	-2254
law	-2255
ghar	-2256
grad	-2257
ster	-2258
sched	-2259
vehic	-2260
▁¦22¦	-2261
assist	-2262
tracing	-2263
included	-2264
personal	-2265
prepared	-2266
recently	-2267
security	-2268
virology	-2269
ead	-2270
ier	-2271
gave	-2272
ners	-2273
ones	-2274
term	-2275
added	-2276
apart	-2277
contr	-2278
vasai	-2279
proced	-2280
average	-2281
economy	-2282
history	-2283
regular	-2284
appealed	-2285
approach	-2286
cru	-2287
dig	-2288
gre	-2289
ked	-2290
adul	-2291
beng	-2292
clar	-2293
fund	-2294
greg	-2295
ming	-2296
skin	-2297
swab	-2298
west	-2299
cabin	-2300
cover	-2301
seems	-2302
▁¦80¦	-2303
advice	-2304
assess	-2305
awaren	-2306
bengal	-2307
contag	-2308
create	-2309
living	-2310
making	-2311
cancell	-2312
treated	-2313
controll	-2314
mutation	-2315
awareness	-2316
beginning	-2317
suggested	-2318
difficulty	-2319
application	-2320
distribution	-2321
vaccinations	-2322
,3	-2323
,5	-2324
ru	-2325
gym	-2326
kol	-2327
ref	-2328
bird	-2329
havi	-2330
ives	-2331
susp	-2332
paper	-2333
power	-2334
sneez	-2335
steps	-2336
takes	-2337
metric	-2338
stages	-2339
target	-2340
threat	-2341
throat	-2342
changed	-2343
ization	-2344
natural	-2345
challeng	-2346
colleges	-2347
observed	-2348
training	-2349
estimated	-2350
intensive	-2351
possibility	-2352
responsibility	-2353
ani	-2354
cil	-2355
dam	-2356
ech	-2357
erc	-2358
ets	-2359
key	-2360
rah	-2361
zil	-2362
excl	-2363
hary	-2364
hypo	-2365
lost	-2366
suff	-2367
terr	-2368
▁¦18	-2369
cance	-2370
field	-2371
lungs	-2372
stage	-2373
table	-2374
adults	-2375
amount	-2376
ancing	-2377
brazil	-2378
mobile	-2379
recogn	-2380
sample	-2381
status	-2382
▁¦200¦	-2383
flights	-2384
itation	-2385
palghar	-2386
written	-2387
consider	-2388
recommend	-2389
scientific	-2390
remedicivir	-2391
hn	-2392
car	-2393
ica	-2394
ike	-2395
jal	-2396
mla	-2397
nik	-2398
psy	-2399
aris	-2400
chan	-2401
hard	-2402
save	-2403
sche	-2404
shar	-2405
vard	-2406
▁¦14	-2407
austr	-2408
frequ	-2409
mouth	-2410
plain	-2411
purch	-2412
virar	-2413
wards	-2414
▁¦13¦	-2415
detail	-2416
stress	-2417
advised	-2418
britain	-2419
crowded	-2420
recover	-2421
practice	-2422
saturday	-2423
hospitalized	-2424
az	-2425
tt	-2426
aug	-2427
cho	-2428
fat	-2429
hus	-2430
rub	-2431
adap	-2432
agar	-2433
iple	-2434
jumb	-2435
mach	-2436
onic	-2437
scre	-2438
thus	-2439
trad	-2440
vars	-2441
adequ	-2442
aging	-2443
ambul	-2444
compl	-2445
disco	-2446
exerc	-2447
faces	-2448
jumbo	-2449
rtpcr	-2450
singh	-2451
veget	-2452
▁¦26¦	-2453
anyone	-2454
france	-2455
ground	-2456
logist	-2457
modern	-2458
therap	-2459
varsha	-2460
vision	-2461
ficient	-2462
germany	-2463
delivery	-2464
findings	-2465
includes	-2466
priority	-2467
proteins	-2468
protective	-2469
mus	-2470
adhy	-2471
book	-2472
cyto	-2473
door	-2474
dred	-2475
john	-2476
octo	-2477
plat	-2478
tell	-2479
▁¦16	-2480
aries	-2481
cured	-2482
envir	-2483
graph	-2484
happy	-2485
ivity	-2486
joshi	-2487
korea	-2488
relax	-2489
techn	-2490
▁¦27¦	-2491
answer	-2492
arrest	-2493
behind	-2494
passed	-2495
scheme	-2496
atories	-2497
environ	-2498
exactly	-2499
hundred	-2500
minutes	-2501
october	-2502
strateg	-2503
complain	-2504
launched	-2505
location	-2506
recovery	-2507
supplied	-2508
decreased	-2509
initially	-2510
monitoring	-2511
laboratories	-2512
dle	-2513
iot	-2514
lat	-2515
lif	-2516
muk	-2517
ord	-2518
urs	-2519
huge	-2520
iers	-2521
sput	-2522
vacy	-2523
antig	-2524
black	-2525
eight	-2526
ences	-2527
harsh	-2528
preca	-2529
rahul	-2530
urban	-2531
africa	-2532
almost	-2533
facing	-2534
guardi	-2535
middle	-2536
option	-2537
region	-2538
russia	-2539
sities	-2540
stocks	-2541
cabinet	-2542
privacy	-2543
request	-2544
adequate	-2545
touching	-2546
completed	-2547
elections	-2548
distancing	-2549
protection	-2550
universities	-2551
,6	-2552
ti	-2553
ake	-2554
ero	-2555
pho	-2556
pun	-2557
smo	-2558
vol	-2559
bann	-2560
beli	-2561
nove	-2562
pict	-2563
send	-2564
sero	-2565
aceut	-2566
canad	-2567
gujar	-2568
never	-2569
posal	-2570
terms	-2571
thurs	-2572
whole	-2573
attack	-2574
factor	-2575
monday	-2576
satara	-2577
showed	-2578
sudden	-2579
closure	-2580
digital	-2581
running	-2582
setting	-2583
communic	-2584
detected	-2585
determin	-2586
interact	-2587
november	-2588
teachers	-2589
thursday	-2590
aceutical	-2591
criticized	-2592
fa	-2593
ks	-2594
lt	-2595
die	-2596
fri	-2597
ons	-2598
ple	-2599
row	-2600
via	-2601
vin	-2602
▁..	-2603
dead	-2604
ened	-2605
gaik	-2606
ings	-2607
mess	-2608
mone	-2609
▁¦15	-2610
delay	-2611
doing	-2612
homes	-2613
hotel	-2614
ising	-2615
izing	-2616
plans	-2617
bodies	-2618
examin	-2619
gather	-2620
mother	-2621
nation	-2622
nesday	-2623
priate	-2624
sanjay	-2625
account	-2626
explain	-2627
gaikwad	-2628
gujarat	-2629
instead	-2630
organis	-2631
solapur	-2632
approval	-2633
backdrop	-2634
guardian	-2635
projects	-2636
separate	-2637
sanitizer	-2638
suffering	-2639
wednesday	-2640
contagious	-2641
sanitizers	-2642
appropriate	-2643
manufacturing	-2644
transportation	-2645
,8	-2646
pi	-2647
bar	-2648
eve	-2649
gar	-2650
pet	-2651
que	-2652
urg	-2653
vit	-2654
doub	-2655
east	-2656
inqu	-2657
pack	-2658
paid	-2659
poin	-2660
viol	-2661
phone	-2662
trump	-2663
woman	-2664
decide	-2665
growth	-2666
idents	-2667
tempor	-2668
picture	-2669
railway	-2670
release	-2671
storage	-2672
constant	-2673
multiple	-2674
officers	-2675
pregnant	-2676
register	-2677
returned	-2678
severity	-2679
solution	-2680
concerned	-2681
disinfect	-2682
lications	-2683
difference	-2684
responsible	-2685
pharmaceutical	-2686
0-	-2687
ju	-2688
kh	-2689
▁–	-2690
kan	-2691
kit	-2692
nel	-2693
acid	-2694
ande	-2695
band	-2696
cali	-2697
flam	-2698
forn	-2699
mind	-2700
poon	-2701
▁¦2.	-2702
hydro	-2703
initi	-2704
older	-2705
photo	-2706
visit	-2707
better	-2708
notice	-2709
brought	-2710
mention	-2711
tankers	-2712
vardhan	-2713
californ	-2714
changing	-2715
physical	-2716
presence	-2717
journalist	-2718
understand	-2719
agricultural	-2720
announcement	-2721
zo	-2722
ira	-2723
nas	-2724
tax	-2725
upd	-2726
▁%.	-2727
acqu	-2728
amer	-2729
desh	-2730
elec	-2731
enzy	-2732
fall	-2733
guid	-2734
ival	-2735
lets	-2736
loss	-2737
memb	-2738
ring	-2739
walk	-2740
weak	-2741
descr	-2742
effic	-2743
elder	-2744
focus	-2745
hyder	-2746
hypox	-2747
▁¦29¦	-2748
aurang	-2749
export	-2750
grocer	-2751
longer	-2752
obtain	-2753
pediat	-2754
strong	-2755
tonnes	-2756
council	-2757
members	-2758
approxim	-2759
interest	-2760
involved	-2761
isolated	-2762
admission	-2763
hyderabad	-2764
performed	-2765
aurangabad	-2766
conference	-2767
procedures	-2768
ku	-2769
eas	-2770
haz	-2771
lam	-2772
mil	-2773
spo	-2774
fast	-2775
hong	-2776
poly	-2777
rush	-2778
tery	-2779
deven	-2780
entry	-2781
flamm	-2782
money	-2783
purpo	-2784
share	-2785
course	-2786
antigen	-2787
carried	-2788
overall	-2789
postpon	-2790
respond	-2791
someone	-2792
studied	-2793
bacteria	-2794
devendra	-2795
guidance	-2796
properly	-2797
treating	-2798
outbreaks	-2799
pediatric	-2800
resources	-2801
contracted	-2802
departments	-2803
43¦	-2804
buy	-2805
hra	-2806
pil	-2807
pul	-2808
rem	-2809
wat	-2810
chem	-2811
ever	-2812
feet	-2813
fest	-2814
peak	-2815
semb	-2816
shut	-2817
tues	-2818
uded	-2819
cardi	-2820
defin	-2821
doesn	-2822
endra	-2823
ither	-2824
ource	-2825
promo	-2826
speed	-2827
encies	-2828
formul	-2829
adverse	-2830
austral	-2831
capital	-2832
planned	-2833
restaur	-2834
subject	-2835
therapy	-2836
tuesday	-2837
usually	-2838
activity	-2839
existing	-2840
meetings	-2841
millions	-2842
spective	-2843
dangerous	-2844
poonawala	-2845
combination	-2846
discussions	-2847
organizations	-2848
,9	-2849
os	-2850
ugg	-2851
auto	-2852
code	-2853
gaon	-2854
mass	-2855
rodu	-2856
toil	-2857
wali	-2858
zone	-2859
▁...	-2860
▁¦13	-2861
bhond	-2862
cular	-2863
event	-2864
inspe	-2865
iring	-2866
serve	-2867
spike	-2868
vijay	-2869
andeep	-2870
banned	-2871
conver	-2872
diwali	-2873
double	-2874
eating	-2875
giving	-2876
rising	-2877
▁¦500¦	-2878
bhondwe	-2879
classes	-2880
closing	-2881
exposed	-2882
¦	-2883
▁	-2884
e	-2885
t	-2886
a	-2887
i	-2888
o	-2889
n	-2890
s	-2891
r	-2892
h	-2893
d	-2894
c	-2895
l	-2896
𐋇	-2897
u	-2898
m	-2899
p	-2900
f	-2901
g	-2902
v	-2903
y	-2904
w	-2905
b	-2906
.	-2907
,	-2908
k	-2909
0	-2910
-	-2911
𐊣	-2912
𐊼	-2913
1	-2914
2	-2915
x	-2916
'	-2917
j	-2918
9	-2919
"	-2920
z	-2921
5	-2922
q	-2923
4	-2924
3	-2925
)	-2926
(	-2927
?	-2928
8	-2929
6	-2930
7	-2931
:	-2932
%	-2933
;	-2934
/	-2935
!	-2936
’	-2937
”	-2938
“	-2939
–	-2940
[	-2941
]	-2942
&	-2943
$	-2944
#	-2945
—	-2946
‘	-2947
•	-2948
≥	-2949
+	-2950
°	-2951
*	-2952
ा	-2953
_	-2954
×	-2955
武	-2956
肺	-2957
~	-2958
á	-2959
í	-2960
α	-2961
β	-2962
स	-2963
े	-2964
्	-2965
=	-2966
ò	-2967
ü	-2968
č	-2969
ş	-2970
γ	-2971
ं	-2972
क	-2973
ब	-2974
र	-2975
汉	-2976
漢	-2977
炎	-2978
£	-2979
å	-2980
é	-2981
ó	-2982
ई	-2983
ओ	-2984
च	-2985
त	-2986
द	-2987
प	-2988
ल	-2989
ळ	-2990
व	-2991
श	-2992
ो	-2993
′	-2994
火	-2995
眼	-2996
