<pad>	0
</s>	0
<unk>	0
▁s	-0
▁p	-1
▁j	-2
▁v	-3
▁n	-4
▁a	-5
st	-6
▁t	-7
▁k	-8
ch	-9
li	-10
▁m	-11
▁z	-12
ho	-13
▁je	-14
▁b	-15
ov	-16
▁d	-17
od	-18
ou	-19
te	-20
en	-21
ra	-22
ro	-23
ak	-24
em	-25
▁o	-26
in	-27
▁ne	-28
▁se	-29
▁po	-30
ře	-31
▁na	-32
al	-33
ti	-34
▁A	-35
le	-36
▁sv	-37
še	-38
ní	-39
il	-40
ud	-41
▁by	-42
la	-43
ce	-44
ři	-45
▁u	-46
rá	-47
ří	-48
to	-49
že	-50
▁J	-51
os	-52
▁H	-53
▁kte	-54
ého	-55
▁js	-56
▁I	-57
▁do	-58
▁to	-59
sk	-60
pod	-61
▁Hos	-62
podin	-63
▁Hospodin	-64
by	-65
▁B	-66
mu	-67
▁i	-68
ně	-69
▁P	-70
ni	-71
ne	-72
▁za	-73
no	-74
dy	-75
ko	-76
▁vy	-77
ých	-78
ví	-79
▁pro	-80
bo	-81
▁od	-82
▁bud	-83
▁jest	-84
lo	-85
▁při	-86
▁jeho	-87
na	-88
jí	-89
lu	-90
▁N	-91
▁S	-92
ám	-93
▁h	-94
ru	-95
▁kter	-96
▁č	-97
▁st	-98
ím	-99
el	-100
▁pak	-101
yn	-102
▁T	-103
▁vše	-104
ji	-105
dě	-106
▁tv	-107
▁aby	-108
ým	-109
bě	-110
ka	-111
va	-112
ci	-113
▁pře	-114
ení	-115
▁ře	-116
▁že	-117
▁tak	-118
lov	-119
ží	-120
sta	-121
▁K	-122
ed	-123
im	-124
▁syn	-125
▁bude	-126
▁řek	-127
▁jsem	-128
▁M	-129
▁krá	-130
do	-131
▁jak	-132
ky	-133
vi	-134
at	-135
je	-136
▁Ne	-137
▁zem	-138
▁ž	-139
▁ho	-140
ku	-141
ova	-142
sti	-143
▁Je	-144
▁své	-145
an	-146
tí	-147
▁ně	-148
ze	-149
▁Iz	-150
de	-151
oh	-152
da	-153
▁ve	-154
cí	-155
▁li	-156
▁tě	-157
dyž	-158
roz	-159
▁mě	-160
am	-161
vo	-162
lé	-163
▁vě	-164
ové	-165
▁D	-166
▁řekl	-167
▁Izra	-168
áš	-169
ovi	-170
▁lid	-171
▁byl	-172
ýž	-173
▁před	-174
vě	-175
▁V	-176
tě	-177
▁jako	-178
ší	-179
áz	-180
▁všec	-181
▁E	-182
ši	-183
▁ch	-184
▁pra	-185
▁když	-186
jich	-187
▁jejich	-188
ar	-189
▁Z	-190
ly	-191
▁ná	-192
říž	-193
▁Izrael	-194
ez	-195
▁ob	-196
▁O	-197
▁jed	-198
ili	-199
▁roz	-200
ůj	-201
▁te	-202
▁mu	-203
né	-204
ům	-205
čin	-206
▁nebo	-207
▁kterýž	-208
éž	-209
▁ji	-210
▁kteříž	-211
lí	-212
▁sp	-213
ste	-214
rd	-215
vá	-216
▁ko	-217
▁nep	-218
ta	-219
ná	-220
▁neb	-221
▁c	-222
▁pod	-223
▁jsou	-224
mě	-225
ej	-226
lá	-227
lou	-228
▁mne	-229
▁Nebo	-230
oj	-231
ské	-232
▁svého	-233
ství	-234
▁Pro	-235
ad	-236
rod	-237
ved	-238
as	-239
▁toho	-240
nu	-241
ož	-242
▁ale	-243
▁pos	-244
kr	-245
▁ani	-246
me	-247
šel	-248
děl	-249
▁ru	-250
▁Jo	-251
če	-252
▁ten	-253
lik	-254
▁obě	-255
▁Boh	-256
stu	-257
▁slu	-258
▁jim	-259
nou	-260
▁zá	-261
ný	-262
▁vz	-263
či	-264
ůh	-265
▁jsi	-266
žíš	-267
▁Bůh	-268
▁proti	-269
▁ni	-270
▁kteréž	-271
es	-272
▁země	-273
vil	-274
ma	-275
▁já	-276
mi	-277
▁Te	-278
▁učin	-279
▁mo	-280
▁vám	-281
▁jemu	-282
žd	-283
▁ř	-284
ově	-285
▁zemi	-286
▁ty	-287
▁ú	-288
▁mlu	-289
alo	-290
tož	-291
▁až	-292
▁pr	-293
▁také	-294
▁r	-295
ád	-296
▁C	-297
ob	-298
▁pří	-299
et	-300
▁dí	-301
▁kdo	-302
tá	-303
▁tobě	-304
▁mí	-305
▁budou	-306
ník	-307
▁vá	-308
ště	-309
di	-310
sí	-311
▁ti	-312
cha	-313
▁Da	-314
▁nad	-315
▁Po	-316
▁praví	-317
▁ot	-318
▁ví	-319
▁jej	-320
uje	-321
ští	-322
▁Izraelsk	-323
▁Tedy	-324
án	-325
be	-326
▁byli	-327
▁bra	-328
▁ka	-329
▁tvé	-330
ži	-331
▁mi	-332
▁dě	-333
▁so	-334
po	-335
vy	-336
▁Ale	-337
žeb	-338
▁Bo	-339
ání	-340
▁va	-341
▁král	-342
oval	-343
▁Davi	-344
kou	-345
pu	-346
▁vš	-347
▁mé	-348
▁svou	-349
▁čin	-350
mé	-351
▁slov	-352
▁domu	-353
mo	-354
▁ži	-355
▁služeb	-356
▁le	-357
▁vi	-358
▁každ	-359
av	-360
▁což	-361
▁dne	-362
▁poko	-363
ými	-364
▁ce	-365
▁svých	-366
▁hla	-367
ali	-368
oud	-369
▁nem	-370
vu	-371
ův	-372
eni	-373
▁má	-374
ny	-375
▁L	-376
▁mno	-377
káz	-378
▁vás	-379
▁mil	-380
▁sm	-381
▁G	-382
br	-383
▁jmé	-384
▁obět	-385
▁tvá	-386
iáš	-387
ného	-388
▁David	-389
stí	-390
▁všech	-391
ele	-392
▁du	-393
ět	-394
šli	-395
lově	-396
▁sobě	-397
sto	-398
ráž	-399
tr	-400
dí	-401
zal	-402
cho	-403
stou	-404
▁jí	-405
▁srd	-406
▁bylo	-407
▁R	-408
▁kně	-409
▁Protož	-410
ezi	-411
▁skr	-412
▁Jud	-413
se	-414
val	-415
▁zp	-416
▁tu	-417
▁králov	-418
▁člově	-419
▁velik	-420
ck	-421
▁lidu	-422
▁Boha	-423
ry	-424
dali	-425
lal	-426
▁mezi	-427
ovo	-428
ri	-429
zd	-430
▁Boží	-431
▁F	-432
▁oh	-433
ude	-434
▁jste	-435
▁synů	-436
ty	-437
áte	-438
▁Ab	-439
yna	-440
▁Moj	-441
vedl	-442
yp	-443
ruh	-444
▁těch	-445
zalé	-446
▁Jeru	-447
▁os	-448
▁můj	-449
▁všecky	-450
▁Jeruzalé	-451
sté	-452
ckni	-453
šickni	-454
men	-455
ovati	-456
ve	-457
▁dal	-458
ct	-459
▁vo	-460
▁svat	-461
řed	-462
▁Ž	-463
▁Já	-464
▁Hospodinu	-465
za	-466
čí	-467
▁té	-468
vé	-469
▁bý	-470
▁národ	-471
ských	-472
bu	-473
ouž	-474
lož	-475
▁žen	-476
stě	-477
▁Kte	-478
▁synové	-479
dá	-480
▁tedy	-481
▁den	-482
tom	-483
▁Tak	-484
▁nej	-485
▁brat	-486
▁spra	-487
pově	-488
▁Eg	-489
▁on	-490
▁ra	-491
jící	-492
hl	-493
▁dá	-494
▁bez	-495
▁dva	-496
▁nich	-497
▁ním	-498
ského	-499
stup	-500
▁jeden	-501
vr	-502
nost	-503
▁mně	-504
▁Mojžíš	-505
▁Egyp	-506
▁syna	-507
▁nás	-508
stoup	-509
koli	-510
▁poh	-511
▁její	-512
▁všickni	-513
▁kteráž	-514
▁sed	-515
du	-516
▁muž	-517
▁žád	-518
iti	-519
nosti	-520
bou	-521
lení	-522
ovali	-523
▁jsme	-524
ba	-525
▁nim	-526
mí	-527
▁řka	-528
▁Sa	-529
▁vod	-530
lil	-531
▁l	-532
▁mluvil	-533
tu	-534
má	-535
▁skrze	-536
▁jin	-537
▁byla	-538
▁všecko	-539
ných	-540
▁něm	-541
▁Hospodina	-542
sa	-543
▁jedno	-544
jisté	-545
▁vys	-546
ráti	-547
▁tr	-548
▁aniž	-549
zu	-550
▁svým	-551
jte	-552
▁U	-553
▁zajisté	-554
▁Ježíš	-555
ká	-556
▁nap	-557
▁krále	-558
▁něho	-559
on	-560
▁nám	-561
▁(	-562
▁kní	-563
▁kra	-564
▁ta	-565
▁hří	-566
nám	-567
▁tvůj	-568
▁Aj	-569
▁To	-570
▁srdce	-571
kázal	-572
▁učinil	-573
ský	-574
▁čas	-575
▁proro	-576
▁než	-577
pra	-578
▁sh	-579
▁vů	-580
át	-581
▁služební	-582
▁není	-583
▁sedm	-584
▁věci	-585
▁jich	-586
yní	-587
▁Syn	-588
▁tebe	-589
jíce	-590
▁co	-591
▁Od	-592
▁nav	-593
▁budu	-594
▁svému	-595
ena	-596
▁stra	-597
hu	-598
ila	-599
▁um	-600
ctví	-601
▁kdož	-602
áb	-603
chá	-604
ků	-605
▁pa	-606
▁tam	-607
řel	-608
▁sly	-609
▁tisí	-610
enství	-611
▁jakž	-612
▁nebude	-613
▁sto	-614
▁přij	-615
▁města	-616
▁ke	-617
▁svě	-618
ců	-619
bí	-620
nov	-621
▁aj	-622
▁druh	-623
▁usta	-624
ha	-625
▁kterouž	-626
▁prost	-627
▁jen	-628
▁živo	-629
▁jméno	-630
▁me	-631
▁ní	-632
bylo	-633
▁ať	-634
▁králi	-635
▁dobr	-636
▁více	-637
▁soud	-638
▁ro	-639
▁dce	-640
chu	-641
er	-642
id	-643
▁stá	-644
▁š	-645
▁tři	-646
tek	-647
odí	-648
zí	-649
▁byd	-650
▁každý	-651
▁Na	-652
▁Zdali	-653
▁bratří	-654
bil	-655
▁tom	-656
▁prostřed	-657
▁již	-658
▁Když	-659
▁budeš	-660
▁však	-661
neb	-662
▁op	-663
eno	-664
lad	-665
liže	-666
▁zla	-667
▁ku	-668
▁Egypt	-669
lav	-670
vedli	-671
▁kr	-672
▁hle	-673
▁mod	-674
▁sí	-675
▁tomu	-676
▁př	-677
▁hlas	-678
ek	-679
▁Kter	-680
mou	-681
vad	-682
stří	-683
▁Bohu	-684
▁neu	-685
▁shro	-686
ému	-687
stá	-688
▁poz	-689
▁pokolení	-690
dou	-691
▁nes	-692
▁sta	-693
▁lo	-694
vše	-695
▁naše	-696
▁Kri	-697
▁dědi	-698
▁slou	-699
tel	-700
ev	-701
▁Pá	-702
dal	-703
▁bo	-704
▁Kdo	-705
▁němu	-706
▁pl	-707
▁nyní	-708
▁sil	-709
▁řkou	-710
▁Hospodinov	-711
▁Š	-712
eme	-713
▁jenž	-714
sá	-715
ata	-716
▁Vy	-717
▁my	-718
▁poč	-719
▁vaše	-720
▁budete	-721
vý	-722
▁ma	-723
odil	-724
▁čty	-725
cháze	-726
stin	-727
▁abych	-728
pověděl	-729
nal	-730
cház	-731
▁us	-732
▁vý	-733
▁hřích	-734
▁ud	-735
vili	-736
▁nech	-737
ém	-738
▁zástup	-739
▁dům	-740
▁nebe	-741
▁služebník	-742
dění	-743
▁shromá	-744
▁aneb	-745
▁stalo	-746
dce	-747
uď	-748
▁še	-749
▁rou	-750
▁posta	-751
▁přišel	-752
ltá	-753
▁oči	-754
▁Sau	-755
▁proto	-756
ima	-757
nil	-758
▁podlé	-759
▁an	-760
▁zah	-761
▁mého	-762
lech	-763
▁tebou	-764
▁býti	-765
▁otce	-766
▁protož	-767
▁všem	-768
▁nepra	-769
vali	-770
▁oz	-771
▁nez	-772
▁voj	-773
▁muži	-774
ken	-775
▁Ma	-776
▁kníž	-777
▁ruku	-778
▁Potom	-779
vati	-780
▁uč	-781
▁oltá	-782
▁Ř	-783
▁svůj	-784
▁mnou	-785
▁Hospodinova	-786
bi	-787
▁všelik	-788
▁měl	-789
▁nimi	-790
stal	-791
edl	-792
▁pou	-793
▁všecken	-794
▁Ba	-795
▁záp	-796
▁ještě	-797
▁řekli	-798
▁slovo	-799
liž	-800
▁pot	-801
▁království	-802
rt	-803
jší	-804
lez	-805
ron	-806
▁Jak	-807
ená	-808
▁ze	-809
▁Ch	-810
▁svém	-811
▁syny	-812
▁Hospodine	-813
ování	-814
▁dn	-815
▁jakož	-816
žel	-817
děli	-818
pí	-819
▁ote	-820
▁místo	-821
pe	-822
bož	-823
▁boh	-824
▁čele	-825
▁vel	-826
áše	-827
vost	-828
cích	-829
▁slova	-830
▁pov	-831
▁ruce	-832
ových	-833
▁oni	-834
▁pá	-835
▁vyh	-836
pě	-837
▁zase	-838
▁něk	-839
▁pravím	-840
▁ode	-841
kol	-842
▁Jáko	-843
led	-844
▁Za	-845
▁oby	-846
▁dob	-847
▁Izraelský	-848
▁zů	-849
▁ó	-850
▁vaši	-851
▁poslal	-852
▁kněz	-853
zy	-854
▁Le	-855
dceti	-856
skému	-857
▁abyste	-858
▁Ka	-859
zo	-860
ené	-861
▁kam	-862
ová	-863
▁podob	-864
▁tvého	-865
▁no	-866
▁spo	-867
kem	-868
▁Při	-869
ním	-870
▁abys	-871
▁mnoh	-872
kud	-873
níci	-874
▁člověka	-875
▁moud	-876
▁ved	-877
▁ostří	-878
▁tvých	-879
▁vyp	-880
▁star	-881
▁věky	-882
čně	-883
▁Am	-884
▁zl	-885
▁pros	-886
▁Eli	-887
▁nic	-888
▁slá	-889
▁všecka	-890
ejte	-891
▁spravedli	-892
um	-893
šk	-894
něm	-895
▁něj	-896
ený	-897
▁pom	-898
eli	-899
éhož	-900
▁oběti	-901
▁Kterýž	-902
hou	-903
▁	-904
o	-905
e	-906
a	-907
i	-908
n	-909
t	-910
s	-911
l	-912
v	-913
d	-914
m	-915
k	-916
u	-917
,	-918
p	-919
r	-920
h	-921
j	-922
í	-923
b	-924
c	-925
y	-926
á	-927
z	-928
ž	-929
ě	-930
ř	-931
é	-932
š	-933
.	-934
ý	-935
č	-936
ů	-937
A	-938
:	-939
J	-940
H	-941
I	-942
B	-943
P	-944
ť	-945
;	-946
N	-947
S	-948
T	-949
K	-950
M	-951
?	-952
D	-953
V	-954
E	-955
Z	-956
f	-957
O	-958
g	-959
ň	-960
ú	-961
ď	-962
C	-963
-	-964
L	-965
G	-966
R	-967
F	-968
Ž	-969
U	-970
(	-971
)	-972
Š	-973
ó	-974
Ř	-975
Č	-976
Ó	-977
!	-978
[	-979
]	-980
1	-981
x	-982
3	-983
2	-984
4	-985
5	-986
Ú	-987
8	-988
0	-989
9	-990
6	-991
7	-992
Ď	-993
#	-994
Í	-995
Ý	-996
