<pad>	0
</s>	0
<unk>	0
¦	-1.40489
▁¦	-1.42711
के	-4.51538
न	-4.65515
र	-4.79619
क	-4.79653
है	-4.89286
▁़	-4.99566
ल	-5.00294
में	-5.00998
▁।	-5.05264
त	-5.06474
स	-5.08059
ा	-5.087
▁,	-5.11707
की	-5.12803
और	-5.1468
का	-5.15847
से	-5.17813
म	-5.20124
ी	-5.22034
को	-5.24836
ं	-5.25898
े	-5.276
ज	-5.30166
ने	-5.38579
ब	-5.45046
प	-5.46676
अ	-5.4956
ों	-5.49941
ता	-5.5512
ह	-5.56115
द	-5.59543
य	-5.62617
कि	-5.63548
आ	-5.68705
▁	-5.70202
▁(	-5.73141
ग	-5.73326
या	-5.73987
व	-5.74073
▁)	-5.75564
र्	-5.76874
ड	-5.78647
ख	-5.79051
ट	-5.79115
ना	-5.81324
पर	-5.82557
कर	-5.87649
ि	-5.88238
ू	-5.88307
फ	-5.88719
ो	-5.90647
श	-5.97899
प्र	-6.01717
-	-6.06583
्	-6.06625
वि	-6.08199
ला	-6.11285
इस	-6.11411
हैं	-6.12331
वा	-6.13986
च	-6.14799
एक	-6.15451
लिए	-6.15888
▁.	-6.16213
उस	-6.16425
ित	-6.21939
हो	-6.23053
ु	-6.23338
सं	-6.25822
भी	-6.26489
मा	-6.26951
रा	-6.27051
भ	-6.2714
ए	-6.27629
ही	-6.28134
उन	-6.28468
सा	-6.28869
जो	-6.31337
तो	-6.31492
ध	-6.3603
जा	-6.3736
नहीं	-6.42629
ते	-6.43325
ई	-6.43958
इ	-6.47945
ै	-6.49732
ण	-6.49946
नि	-6.56776
री	-6.57907
स्	-6.58831
यह	-6.59219
पा	-6.6114
्य	-6.63712
िक	-6.64318
वह	-6.67255
किया	-6.68658
1	-6.69947
वे	-6.71346
दे	-6.7628
तुम	-6.76609
ौ	-6.80284
ले	-6.81422
ती	-6.81941
क्ष	-6.81982
ये	-6.82224
करने	-6.82604
हम	-6.82828
सी	-6.86127
उ	-6.86474
दा	-6.86731
ति	-6.87487
नी	-6.93297
हा	-6.95684
मु	-6.95755
रे	-6.95958
a	-6.96393
था	-6.97301
न्	-7.00332
घ	-7.01203
थ	-7.01768
à	-7.0207
मान	-7.03998
𐋇	-7.04164
गा	-7.04883
ष	-7.0525
अपने	-7.06608
बा	-7.0789
2	-7.08884
जिस	-7.10711
e	-7.10987
रो	-7.11048
0	-7.11198
त्र	-7.11644
ल्	-7.12069
सि	-7.12576
स्त	-7.12631
ियों	-7.14062
शा	-7.14217
ें	-7.1477
s	-7.15456
देश	-7.15621
रि	-7.15727
t	-7.15888
दी	-7.19288
रूप	-7.22641
ॉ	-7.24821
तथा	-7.24946
ः	-7.25176
ओं	-7.25559
ली	-7.27057
गया	-7.27515
.	-7.2787
आप	-7.27953
इन	-7.28707
i	-7.2925
कुछ	-7.29467
दि	-7.31186
श्	-7.32513
छ	-7.32891
किसी	-7.33543
सु	-7.33654
ृ	-7.34283
ंग	-7.35022
मे	-7.35494
जब	-7.35532
्व	-7.35592
्या	-7.35756
क्	-7.36024
जी	-7.36198
o	-7.36606
्हें	-7.36608
ठ	-7.36978
लि	-7.37043
साथ	-7.37285
कार	-7.41703
भा	-7.47019
तक	-7.47541
हि	-7.47737
ुदा	-7.48218
4	-7.49363
खा	-7.49742
चा	-7.49752
उप	-7.49964
लोग	-7.5025
गी	-7.5104
अनु	-7.51439
थे	-7.52021
/	-7.52901
द्वारा	-7.52901
भारत	-7.53495
जन	-7.53641
मि	-7.53765
ढ	-7.54053
कार्य	-7.54119
करते	-7.54421
बना	-7.54468
दो	-7.54624
शि	-7.5527
्म	-7.57551
लोगों	-7.57829
ंड	-7.58302
फिर	-7.58558
ाँ	-7.61677
मिल	-7.61972
l	-7.63116
रण	-7.63455
ग्	-7.6346
जाता	-7.63829
3	-7.64162
हमार	-7.64306
प्रति	-7.64438
करें	-7.64489
परि	-7.64763
कहा	-7.65007
हर	-7.65384
कु	-7.65859
c	-7.65931
मैं	-7.6594
मी	-7.66156
गु	-7.66582
▁"	-7.67424
झ	-7.68417
दिया	-7.68476
रख	-7.68556
क्या	-7.68772
रहे	-7.69492
्र	-7.69872
▁?	-7.7013
r	-7.70193
n	-7.70612
गे	-7.71822
बे	-7.71891
तर	-7.71938
थी	-7.72211
व्य	-7.72846
पु	-7.73008
करना	-7.73613
ँ	-7.74636
स्व	-7.75019
▁्	-7.75191
धा	-7.75818
द्ध	-7.76772
अपनी	-7.76858
ल्लाह	-7.77455
ीय	-7.78437
पी	-7.79037
m	-7.79067
कह	-7.79356
टा	-7.80075
देख	-7.80239
सब	-7.80355
हुए	-7.81126
रु	-7.81323
रह	-7.8141
चि	-7.81632
बि	-7.82184
ऐ	-7.83959
्स	-7.84264
न्द	-7.84657
जिन	-7.8506
वाले	-7.85341
सम	-7.86612
क्त	-7.87072
बात	-7.87455
अधिक	-7.87648
त्त	-7.88569
चु	-7.89342
बाद	-7.89354
d	-7.89795
▁;	-7.89817
क्षेत्र	-7.90707
चार	-7.90784
्ट	-7.91058
समय	-7.91619
कृत	-7.92707
सकता	-7.9284
भाग	-7.93045
ओ	-7.93054
करता	-7.93588
जि	-7.93713
टी	-7.93835
6	-7.94195
ंद	-7.94293
योग	-7.97805
h	-7.97809
8	-7.9781
बड	-7.97929
होता	-7.98111
रहा	-7.98755
दिन	-7.99519
डि	-7.99979
पास	-8.00487
ऊ	-8.00546
▁'	-8.00617
बहुत	-8.00799
रू	-8.00841
पे	-8.01192
निर्	-8.01756
ाई	-8.03407
अंत	-8.03535
यो	-8.04805
लो	-8.05009
p	-8.05676
चे	-8.058
9	-8.06492
जान	-8.06663
वी	-8.06809
राज्य	-8.07303
मो	-8.07593
शन	-8.08069
बु	-8.08265
प्राप्त	-8.08414
गत	-8.08443
काम	-8.09377
कम	-8.09393
िल	-8.10342
टे	-8.11163
बी	-8.11202
तु	-8.12267
तरह	-8.13229
वर्ष	-8.1374
उन्होंन	-8.14025
हुआ	-8.14613
बार	-8.14894
होने	-8.15471
राज	-8.17133
u	-8.1755
सरकार	-8.17566
गए	-8.17922
तुम्हारे	-8.1794
दु	-8.18028
▁¦19	-8.1909
▁:	-8.19125
स्ट	-8.19277
▁¦_¦	-8.19925
बर	-8.20347
चल	-8.20973
एं	-8.21019
राष्ट्रपति	-8.21825
यदि	-8.22083
पूर्व	-8.22766
व्यक्ति	-8.22798
करो	-8.23134
अन्य	-8.23403
द्र	-8.23428
ष्ट	-8.23687
उनकी	-8.24785
दार	-8.25553
पहले	-8.25587
ब्	-8.2574
होगा	-8.25998
वाला	-8.26228
शु	-8.2662
नाम	-8.26625
एँ	-8.26631
मत	-8.26636
आय	-8.26671
ऐसे	-8.28674
ओर	-8.29484
हां	-8.29503
जाए	-8.2977
स्थान	-8.29881
गई	-8.30337
▁%	-8.30453
धन	-8.30897
अभि	-8.31343
वार	-8.31637
समझ	-8.31734
अव	-8.31943
ेंगे	-8.32047
पड	-8.32297
प्रकार	-8.32728
प्रा	-8.32816
सभी	-8.33049
सू	-8.3305
वाद	-8.33186
संबंध	-8.33538
सकते	-8.34127
ट्र	-8.3541
ज्ञान	-8.35538
अगर	-8.36278
युक्त	-8.36324
बढ	-8.36843
च्छ	-8.37315
पूर्ण	-8.37318
𐊣	-8.37319
𐊼	-8.37319
यों	-8.37414
कारण	-8.37482
जाने	-8.37588
वै	-8.38298
पि	-8.39335
चाहिए	-8.39529
ईमान	-8.40544
्यू	-8.40587
योजना	-8.40689
क्र	-8.41437
होती	-8.4166
क्रम	-8.42174
फल	-8.42935
एव	-8.43097
ष्	-8.43485
क्रिया	-8.43847
सम्	-8.43869
ऐसा	-8.43937
g	-8.44101
क्यों	-8.44589
रसूल	-8.45285
िंग	-8.45463
लिया	-8.45506
भारतीय	-8.46183
राम	-8.46543
पुर	-8.46748
दिखा	-8.46974
अधिकार	-8.47483
महा	-8.47496
मुझे	-8.48893
भाव	-8.4897
लिख	-8.50148
ाइल	-8.50842
पै	-8.50999
चाहत	-8.51025
बदल	-8.52012
प्रदान	-8.52231
गो	-8.53341
आई	-8.53684
लगा	-8.53993
b	-8.54355
हित	-8.5446
दोनो	-8.54544
राष्ट्रीय	-8.54806
लेख	-8.54819
जाती	-8.55401
क्षण	-8.56078
आधार	-8.56995
विशेष	-8.58321
म्ब	-8.58685
अपना	-8.59253
लोक	-8.5958
जीवन	-8.59693
विकास	-8.59723
उपयोग	-8.6024
ालय	-8.60246
शो	-8.60422
बंध	-8.60539
ऑ	-8.60594
तुम्हार	-8.60916
होते	-8.60993
सहाय	-8.61066
जैसे	-8.61078
पत्र	-8.62467
चीज	-8.62483
श्री	-8.63456
हुई	-8.63872
उद्	-8.63892
‍	-8.6482
▁!	-8.64828
▁¥	-8.65789
ज्ञ	-8.66723
ऋ	-8.66757
k	-8.67247
f	-8.67739
सर्व	-8.67974
ांत	-8.68515
धारा	-8.69238
▁-	-8.69545
प्रयोग	-8.69734
बारे	-8.70652
बीच	-8.71171
०	-8.71257
in	-8.71443
अर्थ	-8.71519
भेज	-8.71948
मेरे	-8.72694
न्याय	-8.73235
स्था	-8.7346
पैदा	-8.73463
हूँ	-8.73853
तंत्र	-8.73865
स्थिति	-8.73965
,	-8.74588
ेकिन	-8.75296
w	-8.75435
डाल	-8.76162
विचार	-8.76529
दूसरे	-8.78046
अधिनियम	-8.78148
ार्थ	-8.78897
वर्त	-8.79008
▁।"	-8.79033
y	-8.79241
वाली	-8.81408
स्थाप	-8.82002
छोड	-8.82053
नीति	-8.82059
जाएगा	-8.82201
बाहर	-8.82539
ियां	-8.82983
१	-8.83774
आवश्यक	-8.84355
स्थ	-8.84795
थवा	-8.84809
ियाँ	-8.85028
दूर	-8.86106
वालों	-8.86164
शक्ति	-8.87257
#	-8.87314
सूचना	-8.87315
केवल	-8.87531
ब्र	-8.88042
प्रभाव	-8.89519
न्तु	-8.90575
नियम	-8.90867
ीकरण	-8.91311
संस्था	-8.91417
उत्	-8.93502
ष्ठ	-8.93613
धारण	-8.93673
%	-8.93833
औ	-8.93964
बैठ	-8.94152
मेरी	-8.94236
v	-8.94794
सूची	-8.94796
भाषा	-8.961
विषय	-8.96121
200	-8.96146
यंत्र	-8.96767
उपलब्ध	-8.97417
खुल	-8.97587
मार्ग	-8.98108
विश्व	-8.98555
बच्च	-8.98756
मामल	-8.98898
er	-8.99052
सकती	-9.00843
ग्रह	-9.01179
उच्च	-9.01485
पहल	-9.0187
हूं	-9.02237
शिक्षा	-9.02478
‘	-9.02879
स्थित	-9.03676
सदस्य	-9.04294
दूसर	-9.04426
परवरदिगार	-9.05007
सामन	-9.05148
अलग	-9.05176
भूमि	-9.05731
प्रकाश	-9.05828
म्प	-9.06273
00¦	-9.06539
▁¦201	-9.07916
उत्तर	-9.08035
निर्माण	-9.08658
स्पष्ट	-9.08658
अच्छा	-9.08663
बैंक	-9.09404
केंद्र	-9.0942
वर्ग	-9.09841
तैयार	-9.10156
किताब	-9.1102
pr	-9.11041
उत्पाद	-9.11677
उठा	-9.11684
अत्य	-9.11731
name	-9.12445
सामान्य	-9.12447
▁”	-9.12451
पूरी	-9.12461
तौर	-9.12733
पहुँच	-9.13221
संख्या	-9.1354
अधीन	-9.14002
मूल्य	-9.14005
होंगे	-9.14022
शब्द	-9.14797
अवसर	-9.14802
विभिन्न	-9.15583
’	-9.15583
मुख्य	-9.17193
पूरा	-9.17211
अधि	-9.17248
>	-9.18002
निश्चय	-9.18002
मदद	-9.18076
▁...	-9.18823
आत्म	-9.18844
वस्तु	-9.19655
निकल	-9.20047
द्द	-9.2036
शुरू	-9.21417
सत्य	-9.23527
दौरा	-9.25641
शासन	-9.2569
परिवर्तन	-9.26519
भवन	-9.26605
हेतु	-9.27429
दुनिया	-9.28313
ऐस	-9.28985
प्ल	-9.29085
मंत्री	-9.29221
पहुंच	-9.30138
मध्य	-9.30191
ात्मक	-9.30367
अनुसार	-9.31076
विश्वास	-9.31381
दृष्टि	-9.31999
माध्यम	-9.31999
गयी	-9.3207
धर्म	-9.32168
&	-9.32942
ion	-9.32942
निश्चित	-9.33895
ण्ड	-9.33925
समर्थ	-9.34857
रचना	-9.34955
महत्वपूर्ण	-9.36807
प्रौद्योगिकी	-9.37797
सुरक्षा	-9.37797
२	-9.37798
ठीक	-9.37831
चाहे	-9.38748
प्रमाण	-9.38806
स्वयं	-9.38807
परिणाम	-9.39808
उद्देश्य	-9.39808
"	-9.40898
)	-9.41543
मौजूद	-9.41859
व्यवस्था	-9.41861
निर्धारित	-9.42901
केन्द्र	-9.42907
पूछ	-9.4291
प्रतिशत	-9.4291
समूह	-9.42913
स्वीकार	-9.43051
अन्त	-9.44242
राष्ट्र	-9.46048
▁¤3⁄4	-9.46092
x	-9.47179
“	-9.49389
'	-9.50197
	-9.67733
९	-9.70454
:	-9.71527
३	-9.776
°	-9.79093
५	-9.79093
	-9.82146
–	-9.83709
।	-9.8498
़	-9.88233
	-9.90215
	-9.93634
६	-9.95388
z	-9.97174
८	-9.98992
j	-10.0273
४	-10.1066
@	-10.1704
+	-10.2154
ॅ	-10.2386
{	-10.2624
७	-10.2624
q	-10.2624
\	-10.2868
}	-10.2868
]	-10.4471
[	-10.5069
®	-10.5704
;	-10.6005
॰	-10.6739
ङ	-10.7109
μ	-10.8745
$	-11.0176
ञ	-11.1258
—	-11.1846
?	-11.244
_	-11.3241
(	-11.3821
	-11.3852
=	-11.4621
¬	-11.4621
	-11.5455
	-11.6364
ऍ	-11.6364
ॆ	-11.8475
	-11.9725
ॊ	-11.9725
ळ	-12.1154
!	-12.2789
|	-12.282
	-12.282
	-12.282
·	-12.282
é	-12.282
*	-12.482
	-12.482
£	-12.482
©	-12.482
॥	-12.482
¥	-12.7289
	-12.732
§	-12.732
ऎ	-12.732
”	-13.0622
¢	-13.0654
	-13.5654
	-13.5654
̃	-13.5654
	-13.5654
`	-14.5637
~	-14.5638
	-14.5639
¶	-14.564
¡	-14.5641
	-14.5642
	-14.5643
«	-14.5644
	-14.5645
̄	-14.5646
̈	-14.5647
̧	-14.5648
¿	-14.5649
<	-14.565
⁄	-14.5651
7	-14.5652
5	-14.5653
	-14.5654
	-14.5654
	-14.5654
	-14.5654
î	-14.5654
ò	-14.5654
þ	-14.5654
ą	-14.5654
ĺ	-14.5654
॓	-14.5654
‐	-14.5654
₹	-14.5654
ॄ	-14.5654
¤	-14.5654
×	-14.5654
ş	-14.5654
