<pad>	0
</s>	0
<unk>	0
in	-0
an	-1
en	-2
▁s	-3
▁k	-4
ta	-5
▁j	-6
ll	-7
än	-8
is	-9
▁h	-10
▁m	-11
▁o	-12
▁t	-13
▁p	-14
▁ja	-15
va	-16
et	-17
ka	-18
tä	-19
un	-20
si	-21
ei	-22
sa	-23
el	-24
ut	-25
▁n	-26
▁J	-27
▁hän	-28
lle	-29
er	-30
as	-31
oi	-32
▁v	-33
ra	-34
▁ol	-35
▁l	-36
al	-37
on	-38
es	-39
ik	-40
▁ka	-41
▁min	-42
iin	-43
aa	-44
vat	-45
it	-46
▁va	-47
▁H	-48
▁jo	-49
uu	-50
▁on	-51
uo	-52
ät	-53
ti	-54
at	-55
▁si	-56
sä	-57
▁sin	-58
uk	-59
▁S	-60
ul	-61
ää	-62
ki	-63
▁san	-64
llä	-65
ko	-66
mm	-67
▁Ja	-68
▁Her	-69
▁te	-70
▁M	-71
us	-72
il	-73
utta	-74
aan	-75
um	-76
yt	-77
uh	-78
eid	-79
lla	-80
▁oli	-81
▁a	-82
te	-83
▁et	-84
▁ko	-85
▁ta	-86
se	-87
▁kun	-88
▁"	-89
ksi	-90
ist	-91
▁minä	-92
▁Herra	-93
ja	-94
▁niin	-95
▁se	-96
▁mi	-97
ansa	-98
vät	-99
▁kaik	-100
▁he	-101
▁hänen	-102
▁ei	-103
umal	-104
eidän	-105
isi	-106
▁y	-107
ista	-108
▁r	-109
ne	-110
▁vi	-111
uin	-112
hd	-113
ke	-114
äm	-115
oo	-116
im	-117
kä	-118
▁K	-119
▁tul	-120
sta	-121
▁pa	-122
▁joka	-123
ur	-124
sen	-125
kaa	-126
▁Jumal	-127
ot	-128
een	-129
▁N	-130
ten	-131
ään	-132
▁sen	-133
▁sy	-134
mme	-135
▁po	-136
iv	-137
em	-138
▁sanoi	-139
▁A	-140
äh	-141
▁että	-142
tu	-143
▁an	-144
to	-145
▁minun	-146
▁sinun	-147
asta	-148
▁kä	-149
elle	-150
ih	-151
▁as	-152
id	-153
kö	-154
kaan	-155
ran	-156
▁E	-157
taa	-158
▁kunin	-159
▁Si	-160
▁kaikki	-161
kin	-162
ty	-163
eli	-164
oit	-165
▁pal	-166
äl	-167
▁ole	-168
▁hei	-169
pp	-170
▁kan	-171
▁la	-172
▁e	-173
oin	-174
ua	-175
ri	-176
▁I	-177
▁Mutta	-178
eh	-179
▁nä	-180
tan	-181
ma	-182
ee	-183
tka	-184
▁en	-185
▁pä	-186
▁ra	-187
itä	-188
uol	-189
▁sa	-190
▁jotka	-191
ssa	-192
eet	-193
▁vasta	-194
▁sinä	-195
▁ki	-196
elin	-197
▁sillä	-198
des	-199
iset	-200
mi	-201
".	-202
▁heidän	-203
inen	-204
▁kuu	-205
▁läh	-206
▁val	-207
▁Herran	-208
eni	-209
inä	-210
istä	-211
ulle	-212
▁puh	-213
ämä	-214
koon	-215
yö	-216
▁pää	-217
assa	-218
▁tä	-219
▁Is	-220
▁ovat	-221
ui	-222
up	-223
▁ne	-224
ani	-225
kuin	-226
▁päiv	-227
▁Niin	-228
▁poi	-229
isen	-230
ar	-231
▁kuin	-232
kää	-233
so	-234
ys	-235
▁Isra	-236
la	-237
elä	-238
▁saa	-239
▁mutta	-240
jan	-241
vä	-242
ky	-243
os	-244
ila	-245
ille	-246
yh	-247
."	-248
hden	-249
▁Jumala	-250
▁mitä	-251
▁ni	-252
elj	-253
▁maa	-254
▁tuli	-255
▁T	-256
▁to	-257
den	-258
itse	-259
▁ti	-260
▁is	-261
▁olen	-262
▁vuo	-263
ensä	-264
änsä	-265
uksen	-266
▁tei	-267
▁niinkuin	-268
▁yl	-269
nyt	-270
taan	-271
▁van	-272
ia	-273
▁ma	-274
▁hänelle	-275
ellä	-276
▁mu	-277
lm	-278
ksen	-279
▁syn	-280
▁P	-281
▁ha	-282
maan	-283
issa	-284
▁palv	-285
rj	-286
▁olet	-287
▁B	-288
▁Sillä	-289
▁al	-290
isten	-291
▁sano	-292
iksi	-293
▁D	-294
▁olivat	-295
eidät	-296
▁kansa	-297
mmen	-298
▁suu	-299
▁jon	-300
▁il	-301
▁tai	-302
▁teidän	-303
tanut	-304
tta	-305
▁hänet	-306
▁ku	-307
▁vastaan	-308
han	-309
esi	-310
▁so	-311
kse	-312
▁kuning	-313
ha	-314
pä	-315
änä	-316
usta	-317
pa	-318
upun	-319
▁tuo	-320
▁Jumalan	-321
yy	-322
ees	-323
llut	-324
▁häntä	-325
lloin	-326
ön	-327
▁hä	-328
ks	-329
ensa	-330
▁kat	-331
▁Israelin	-332
▁käs	-333
▁hy	-334
▁ih	-335
▁no	-336
▁men	-337
ett	-338
essa	-339
▁kaupun	-340
ska	-341
rin	-342
▁heille	-343
▁jonka	-344
▁kul	-345
▁sitä	-346
ken	-347
uud	-348
aav	-349
eit	-350
▁luo	-351
▁teh	-352
itten	-353
jat	-354
estä	-355
▁Hän	-356
▁kuul	-357
▁kuningas	-358
vi	-359
▁jäl	-360
▁nim	-361
ea	-362
▁Jer	-363
ella	-364
äs	-365
ed	-366
▁poika	-367
▁Joo	-368
unn	-369
issä	-370
▁pel	-371
tin	-372
▁maan	-373
▁`	-374
yös	-375
▁ar	-376
▁mieh	-377
aavid	-378
▁palveli	-379
▁sanoo	-380
kka	-381
▁Daavid	-382
▁kans	-383
▁voi	-384
▁eivät	-385
▁ihm	-386
▁kanssa	-387
van	-388
▁eikä	-389
▁edes	-390
▁ann	-391
▁per	-392
▁ot	-393
▁äl	-394
jen	-395
esta	-396
▁tämä	-397
▁vih	-398
eksi	-399
▁Moo	-400
▁jos	-401
▁me	-402
etta	-403
▁minulle	-404
nä	-405
uun	-406
▁itse	-407
▁koko	-408
▁ty	-409
▁pois	-410
▁heidät	-411
▁var	-412
▁meidän	-413
uon	-414
▁lei	-415
▁minua	-416
▁Sa	-417
▁Jees	-418
sal	-419
atta	-420
▁V	-421
ettu	-422
iden	-423
▁ky	-424
kan	-425
▁päivänä	-426
yttä	-427
ämän	-428
▁vanh	-429
ud	-430
▁Kun	-431
essä	-432
▁vaan	-433
▁pyh	-434
oa	-435
eb	-436
▁puol	-437
kymmen	-438
äni	-439
köön	-440
ab	-441
▁kuol	-442
sivat	-443
toi	-444
unut	-445
▁us	-446
▁Juud	-447
hin	-448
uks	-449
man	-450
uut	-451
isa	-452
esti	-453
▁kor	-454
ina	-455
▁-	-456
▁suk	-457
ala	-458
▁Jo	-459
neet	-460
mmä	-461
▁kas	-462
▁pol	-463
▁muu	-464
eltä	-465
▁velj	-466
ikä	-467
▁Minä	-468
▁G	-469
ura	-470
mo	-471
▁myös	-472
ro	-473
yp	-474
▁kolm	-475
▁teille	-476
▁kuninkaan	-477
?"	-478
▁sinua	-479
oita	-480
ita	-481
äär	-482
ir	-483
isia	-484
etti	-485
▁oik	-486
min	-487
▁kes	-488
usal	-489
▁syd	-490
▁ver	-491
▁syö	-492
▁ri	-493
▁kaksi	-494
ell	-495
▁meni	-496
usalem	-497
▁heitä	-498
▁Jerusalem	-499
▁uh	-500
ku	-501
vit	-502
▁sinulle	-503
▁li	-504
▁Silloin	-505
jo	-506
ian	-507
▁vaim	-508
▁er	-509
että	-510
mpp	-511
isin	-512
vo	-513
▁O	-514
▁edessä	-515
mat	-516
nut	-517
änyt	-518
isesti	-519
▁koh	-520
▁minut	-521
ivät	-522
▁kät	-523
▁katso	-524
▁taiva	-525
▁jumal	-526
män	-527
atso	-528
▁vä	-529
▁toi	-530
gyp	-531
▁suur	-532
na	-533
▁mei	-534
▁R	-535
▁ker	-536
tähden	-537
▁tämän	-538
▁hen	-539
Äl	-540
rist	-541
▁ett	-542
▁tykö	-543
iä	-544
tiin	-545
▁tule	-546
▁siitä	-547
▁tuh	-548
ulla	-549
▁L	-550
▁tempp	-551
▁kirj	-552
▁sydäm	-553
▁el	-554
onsa	-555
▁tulee	-556
▁näin	-557
kun	-558
eitse	-559
▁mukaan	-560
pi	-561
ast	-562
▁teki	-563
▁nyt	-564
elila	-565
▁ilm	-566
▁silm	-567
▁pan	-568
▁valta	-569
ele	-570
▁tiet	-571
stä	-572
▁teke	-573
urska	-574
▁vielä	-575
una	-576
▁kaupung	-577
▁asti	-578
▁vastasi	-579
ika	-580
ihen	-581
▁f	-582
uv	-583
tui	-584
▁mies	-585
tivat	-586
▁kunn	-587
pe	-588
▁her	-589
▁seitse	-590
raelila	-591
▁kaiken	-592
▁seura	-593
▁israelila	-594
kymmentä	-595
▁Sen	-596
▁mikä	-597
kia	-598
onin	-599
änne	-600
äin	-601
▁Egyp	-602
▁lähti	-603
▁tähden	-604
▁maahan	-605
▁pah	-606
uksi	-607
▁Juudan	-608
uka	-609
▁yh	-610
li	-611
▁sekä	-612
yn	-613
ikka	-614
▁sanoen	-615
tö	-616
kään	-617
ukse	-618
▁usko	-619
nen	-620
▁oike	-621
▁na	-622
▁käsi	-623
▁lo	-624
▁juo	-625
▁ettei	-626
▁siihen	-627
▁kar	-628
▁jälk	-629
▁nelj	-630
lleen	-631
▁antoi	-632
kea	-633
▁lap	-634
oon	-635
▁sinut	-636
▁op	-637
▁tah	-638
mpä	-639
mieh	-640
▁jälkelä	-641
▁le	-642
▁hyv	-643
mään	-644
st	-645
llis	-646
lta	-647
esty	-648
▁tehnyt	-649
uden	-650
▁niiden	-651
kseen	-652
▁sanoivat	-653
▁jä	-654
▁tur	-655
ppi	-656
▁ul	-657
ette	-658
uts	-659
▁seitsemän	-660
▁kuninkaa	-661
vaa	-662
▁mer	-663
tte	-664
▁esi	-665
re	-666
▁olkoon	-667
da	-668
▁sota	-669
▁käsky	-670
▁Krist	-671
▁ollut	-672
▁sanon	-673
▁kir	-674
▁sitten	-675
▁tal	-676
▁Jaa	-677
tää	-678
rof	-679
▁käy	-680
▁tar	-681
▁kuts	-682
▁palj	-683
▁siellä	-684
ysy	-685
▁kautta	-686
▁sur	-687
▁Jeesus	-688
▁olette	-689
▁Ka	-690
▁Äl	-691
▁vir	-692
▁eteen	-693
itta	-694
uuta	-695
pää	-696
▁tu	-697
▁kään	-698
▁vanhurska	-699
▁enää	-700
▁Ab	-701
▁ho	-702
▁Herraa	-703
▁He	-704
▁kuk	-705
uudes	-706
tom	-707
▁it	-708
anne	-709
▁prof	-710
▁ist	-711
▁raken	-712
▁sis	-713
▁jota	-714
▁Sitten	-715
alta	-716
▁Jos	-717
▁jal	-718
▁ympä	-719
▁poik	-720
▁koska	-721
▁niitä	-722
▁synti	-723
▁tot	-724
▁teitä	-725
emm	-726
ikk	-727
▁nämä	-728
uvat	-729
▁kuo	-730
▁ruk	-731
▁kansan	-732
▁Katso	-733
jä	-734
asti	-735
iinä	-736
enne	-737
maa	-738
▁täh	-739
kunn	-740
▁pojan	-741
usi	-742
▁viin	-743
▁siis	-744
ettiin	-745
tyi	-746
▁Moos	-747
▁palvelija	-748
▁elä	-749
▁polt	-750
oista	-751
▁Herralle	-752
▁pit	-753
▁jouk	-754
▁tied	-755
▁olisi	-756
▁mitään	-757
aab	-758
ol	-759
ossa	-760
uivat	-761
▁tapa	-762
▁kirjoit	-763
ana	-764
uul	-765
▁antaa	-766
etty	-767
osta	-768
oinen	-769
▁siinä	-770
▁Israel	-771
isiä	-772
iste	-773
▁tullut	-774
▁oleva	-775
▁ä	-776
tel	-777
▁mie	-778
▁vai	-779
▁por	-780
▁Daavidin	-781
lj	-782
▁ette	-783
hdä	-784
▁nuo	-785
▁miel	-786
▁ik	-787
oja	-788
keli	-789
▁kiv	-790
▁ään	-791
▁Saul	-792
uus	-793
▁las	-794
▁tun	-795
▁hävit	-796
▁maassa	-797
▁hal	-798
isille	-799
jaa	-800
▁El	-801
elta	-802
kob	-803
▁näki	-804
▁antanut	-805
emaan	-806
hde	-807
▁oma	-808
ilä	-809
inun	-810
▁hall	-811
▁nous	-812
▁voit	-813
▁Jaakob	-814
inn	-815
▁annan	-816
mp	-817
▁Seb	-818
▁pitä	-819
▁yli	-820
▁pappi	-821
▁vuor	-822
do	-823
lleet	-824
teen	-825
▁kolme	-826
▁älä	-827
▁Mooses	-828
itte	-829
▁joi	-830
▁Sentähden	-831
öy	-832
aat	-833
keen	-834
tänyt	-835
▁tulivat	-836
äsi	-837
▁pyhä	-838
▁sukuk	-839
▁suuri	-840
▁altta	-841
ssä	-842
yty	-843
▁Moose	-844
iten	-845
▁lih	-846
koot	-847
▁opet	-848
▁palvelij	-849
lap	-850
▁jout	-851
kkaa	-852
Minä	-853
▁lähetti	-854
▁otti	-855
dan	-856
▁tod	-857
▁pil	-858
▁ruu	-859
▁aina	-860
▁liit	-861
▁ennen	-862
`.	-863
▁Sinä	-864
ksensa	-865
mis	-866
▁olemme	-867
kon	-868
uuden	-869
taneet	-870
or	-871
▁sana	-872
sansa	-873
▁ian	-874
▁ianka	-875
ien	-876
▁pääll	-877
▁profeet	-878
▁Se	-879
▁ruo	-880
ime	-881
▁vain	-882
puol	-883
elm	-884
▁pala	-885
▁silloin	-886
▁aa	-887
eita	-888
urin	-889
▁mur	-890
ltä	-891
▁huo	-892
eev	-893
sin	-894
tti	-895
▁yksi	-896
▁tapah	-897
ästä	-898
▁raka	-899
▁Aar	-900
▁vaimo	-901
▁kuinka	-902
▁Näin	-903
uta	-904
kiin	-905
mmär	-906
▁siel	-907
ittä	-908
ust	-909
toista	-910
▁tyttä	-911
▁Egyptin	-912
uhtin	-913
uksessa	-914
ivat	-915
▁ain	-916
alla	-917
▁jul	-918
▁puhui	-919
▁ai	-920
atte	-921
▁sinne	-922
▁kaikkien	-923
ni	-924
▁kymmen	-925
▁miehet	-926
▁paljon	-927
lli	-928
▁Sal	-929
▁pap	-930
▁anta	-931
▁seis	-932
oll	-933
▁Jumalaa	-934
▁ve	-935
▁huon	-936
kaisin	-937
▁ymmär	-938
ah	-939
ib	-940
ihin	-941
▁uhra	-942
▁iankaikk	-943
▁suo	-944
▁rauh	-945
▁rukoi	-946
sia	-947
▁mon	-948
▁ran	-949
uhr	-950
uni	-951
▁muuta	-952
▁ed	-953
▁pys	-954
▁rik	-955
▁osa	-956
etään	-957
▁eräm	-958
▁perin	-959
▁sä	-960
otta	-961
▁täyt	-962
▁pojat	-963
▁toisen	-964
▁kats	-965
▁ilmoit	-966
ös	-967
öt	-968
itsi	-969
hta	-970
kseni	-971
▁hyvä	-972
▁älkää	-973
illä	-974
tena	-975
▁meille	-976
ara	-977
▁kos	-978
jaan	-979
unsa	-980
▁viis	-981
llensa	-982
▁sää	-983
tansa	-984
ilaisten	-985
dä	-986
▁neljä	-987
▁toinen	-988
▁takaisin	-989
isiin	-990
▁jumalat	-991
oivat	-992
▁kukaan	-993
▁keske	-994
▁As	-995
▁toim	-996
▁lä	-997
ilaiset	-998
eta	-999
▁kum	-1000
uneet	-1001
eevilä	-1002
▁miestä	-1003
▁kau	-1004
▁kauh	-1005
▁tulevat	-1006
▁tekee	-1007
▁ruhtin	-1008
sani	-1009
ussa	-1010
▁Seba	-1011
koit	-1012
▁tee	-1013
▁kysy	-1014
▁Salo	-1015
▁temppel	-1016
lä	-1017
udes	-1018
▁päällä	-1019
▁palvel	-1020
val	-1021
▁pid	-1022
▁teen	-1023
▁pakan	-1024
▁ov	-1025
mon	-1026
ria	-1027
ättä	-1028
▁ilmesty	-1029
var	-1030
ässä	-1031
▁väl	-1032
iliste	-1033
▁lähte	-1034
▁päivä	-1035
▁teidät	-1036
kki	-1037
▁maasta	-1038
▁perintö	-1039
▁hed	-1040
▁kesk	-1041
▁ulos	-1042
▁eivätkä	-1043
uim	-1044
alle	-1045
▁kyy	-1046
▁vall	-1047
▁päälle	-1048
kaat	-1049
▁leevilä	-1050
erra	-1051
▁poltto	-1052
▁Ha	-1053
ilisteala	-1054
▁lu	-1055
kselle	-1056
uutala	-1057
▁Jeesuksen	-1058
▁kal	-1059
▁vei	-1060
iseen	-1061
!"	-1062
iseksi	-1063
▁otta	-1064
▁Baab	-1065
▁kanssaan	-1066
ton	-1067
▁Hen	-1068
▁alas	-1069
▁saan	-1070
▁Jumalasi	-1071
vän	-1072
▁näh	-1073
▁työ	-1074
▁opetus	-1075
▁filisteala	-1076
ve	-1077
ain	-1078
kee	-1079
ulta	-1080
▁huu	-1081
uutta	-1082
▁meitä	-1083
▁os	-1084
jalle	-1085
▁minkä	-1086
set	-1087
▁muut	-1088
▁isänsä	-1089
Katso	-1090
▁juutala	-1091
▁paik	-1092
▁nousi	-1093
▁aset	-1094
▁lan	-1095
▁tahd	-1096
▁kuolem	-1097
istan	-1098
▁joku	-1099
▁puhunut	-1100
hdeks	-1101
uttaa	-1102
olle	-1103
tivät	-1104
▁Kaik	-1105
▁miehen	-1106
tua	-1107
▁Aab	-1108
toa	-1109
▁aik	-1110
▁vas	-1111
▁yhd	-1112
▁fara	-1113
▁teko	-1114
iselle	-1115
olla	-1116
▁joita	-1117
▁temppelin	-1118
ela	-1119
▁par	-1120
▁ensi	-1121
▁etsi	-1122
▁kasv	-1123
▁Sebaot	-1124
▁jälkeen	-1125
ölj	-1126
▁äit	-1127
▁saat	-1128
fra	-1129
pat	-1130
evat	-1131
ineen	-1132
llinen	-1133
ikö	-1134
raha	-1135
▁sul	-1136
▁pelj	-1137
▁tulle	-1138
▁saasta	-1139
▁älköön	-1140
▁taivaan	-1141
ota	-1142
sef	-1143
teli	-1144
▁tietä	-1145
▁vaikka	-1146
▁sentähden	-1147
▁Ba	-1148
emme	-1149
▁puhd	-1150
▁vier	-1151
uva	-1152
▁aut	-1153
▁har	-1154
oihin	-1155
▁Tämä	-1156
▁ajat	-1157
▁nuor	-1158
▁kaupungin	-1159
moin	-1160
▁häpe	-1161
pea	-1162
rsi	-1163
▁lah	-1164
llesi	-1165
masta	-1166
▁tunn	-1167
▁sukukunn	-1168
när	-1169
mista	-1170
▁Moosekselle	-1171
▁israelilaiset	-1172
umaan	-1173
▁perh	-1174
▁Joosef	-1175
net	-1176
▁mat	-1177
▁määr	-1178
▁päin	-1179
▁tehdä	-1180
▁kaikkia	-1181
kko	-1182
mu	-1183
▁isi	-1184
▁vuotta	-1185
illa	-1186
▁ken	-1187
▁väke	-1188
▁oikea	-1189
▁synnyt	-1190
▁Aabraha	-1191
kööt	-1192
▁kur	-1193
▁Älä	-1194
empi	-1195
▁ahd	-1196
▁kasvo	-1197
mia	-1198
▁Ei	-1199
kunta	-1200
malla	-1201
▁Beet	-1202
▁maata	-1203
▁pahaa	-1204
tär	-1205
▁lain	-1206
▁jossa	-1207
▁profeetta	-1208
▁Ah	-1209
▁py	-1210
▁un	-1211
massa	-1212
▁vann	-1213
▁väär	-1214
▁kymmenen	-1215
kul	-1216
▁riem	-1217
▁tuhatta	-1218
▁Kristuksen	-1219
tävä	-1220
▁ylös	-1221
▁sanan	-1222
▁kyynär	-1223
▁tähän	-1224
▁verta	-1225
de	-1226
▁pi	-1227
kala	-1228
▁uhr	-1229
▁ölj	-1230
ksesi	-1231
▁kiin	-1232
isivat	-1233
▁käänty	-1234
▁kuninkaaksi	-1235
uit	-1236
ilta	-1237
tenä	-1238
▁ota	-1239
▁kuka	-1240
▁poikansa	-1241
▁jää	-1242
▁sille	-1243
uudessa	-1244
kel	-1245
ous	-1246
▁isä	-1247
▁tänä	-1248
▁tätä	-1249
▁viha	-1250
▁opetuslap	-1251
vuo	-1252
lleni	-1253
▁luon	-1254
▁tapp	-1255
▁kuoli	-1256
▁maail	-1257
nsä	-1258
astaan	-1259
▁menivät	-1260
tuu	-1261
isti	-1262
▁asuk	-1263
▁yö	-1264
anin	-1265
▁kumar	-1266
▁niistä	-1267
▁suv	-1268
tänsä	-1269
▁noud	-1270
▁kanso	-1271
▁viisa	-1272
▁iankaikkisesti	-1273
▁Joka	-1274
▁jolla	-1275
▁tytär	-1276
▁kuiten	-1277
▁lähtivät	-1278
imm	-1279
tani	-1280
dessä	-1281
▁hopea	-1282
▁rakasta	-1283
iva	-1284
ukset	-1285
▁Joos	-1286
▁kansaa	-1287
▁Aa	-1288
▁linn	-1289
▁tuon	-1290
▁Jerusalemin	-1291
▁U	-1292
keut	-1293
▁kuninkaalle	-1294
▁syntyi	-1295
▁tehneet	-1296
eitä	-1297
▁armo	-1298
▁pani	-1299
▁Hänen	-1300
▁tyttär	-1301
vin	-1302
▁luk	-1303
▁tyh	-1304
istel	-1305
sanne	-1306
▁henki	-1307
▁kulki	-1308
▁sanot	-1309
▁ras	-1310
▁ympäri	-1311
▁hi	-1312
säni	-1313
▁kyl	-1314
▁jälj	-1315
▁käsken	-1316
ivan	-1317
Herra	-1318
ettava	-1319
▁synty	-1320
▁tuomi	-1321
▁päivää	-1322
▁saakka	-1323
din	-1324
paa	-1325
▁Ben	-1326
▁Saa	-1327
llensä	-1328
▁kätensä	-1329
etä	-1330
▁varten	-1331
tar	-1332
oksi	-1333
▁itsen	-1334
▁Kaikki	-1335
▁käsiin	-1336
kk	-1337
oh	-1338
▁oh	-1339
▁peit	-1340
▁hedelm	-1341
▁kunnes	-1342
▁ensimmä	-1343
▁sanonut	-1344
ilea	-1345
itsa	-1346
▁kaat	-1347
ub	-1348
▁pyy	-1349
▁heng	-1350
▁väki	-1351
▁Aaron	-1352
▁missä	-1353
▁ympär	-1354
▁pelasta	-1355
kymmenen	-1356
▁Nämä	-1357
▁aino	-1358
▁mene	-1359
miehet	-1360
▁jät	-1361
▁vah	-1362
istaa	-1363
▁käskyn	-1364
▁sai	-1365
▁teur	-1366
▁kokoon	-1367
dot	-1368
▁pur	-1369
▁väh	-1370
oille	-1371
▁yhtä	-1372
▁vuoden	-1373
▁hänellä	-1374
mä	-1375
kat	-1376
reja	-1377
▁ter	-1378
▁anna	-1379
▁kohd	-1380
▁pitää	-1381
▁Salomo	-1382
▁pelast	-1383
▁Israeli	-1384
Mitä	-1385
ystä	-1386
▁neuv	-1387
▁vael	-1388
▁meidät	-1389
▁rukoil	-1390
▁jokainen	-1391
▁kaikille	-1392
ano	-1393
miin	-1394
päiv	-1395
utti	-1396
oitta	-1397
istuim	-1398
▁muukala	-1399
▁re	-1400
isty	-1401
▁aika	-1402
▁kiit	-1403
▁vaatte	-1404
▁keskellä	-1405
jansa	-1406
äneet	-1407
▁heistä	-1408
▁kauhist	-1409
Men	-1410
▁lö	-1411
▁Jor	-1412
▁emme	-1413
▁paran	-1414
▁kaikesta	-1415
▁syntiä	-1416
ga	-1417
nnä	-1418
ram	-1419
▁Ma	-1420
uita	-1421
▁Ass	-1422
▁Paa	-1423
▁päät	-1424
▁kuuka	-1425
▁käski	-1426
▁samoin	-1427
▁Ol	-1428
▁han	-1429
▁lyö	-1430
▁asettu	-1431
▁pelkää	-1432
▁viholl	-1433
▁Jerusalemiin	-1434
esa	-1435
pal	-1436
jamin	-1437
▁kulta	-1438
▁rakka	-1439
jouk	-1440
▁sor	-1441
▁ylen	-1442
▁kukin	-1443
▁onnet	-1444
ob	-1445
ise	-1446
men	-1447
▁taas	-1448
▁tuom	-1449
▁ynnä	-1450
ip	-1451
uur	-1452
uhrin	-1453
isista	-1454
▁av	-1455
▁joh	-1456
rille	-1457
▁heit	-1458
ksenne	-1459
▁jumalatto	-1460
▁jälkeläisiä	-1461
koi	-1462
imin	-1463
mies	-1464
▁lup	-1465
uksia	-1466
▁sanat	-1467
uhriksi	-1468
uksensa	-1469
ven	-1470
▁ap	-1471
etut	-1472
jasi	-1473
tunut	-1474
ettänyt	-1475
▁päästä	-1476
▁onnettom	-1477
▁Te	-1478
isataa	-1479
▁kalli	-1480
▁häneen	-1481
öyh	-1482
▁sel	-1483
aaksi	-1484
▁puhu	-1485
▁pään	-1486
isitte	-1487
▁ihmis	-1488
▁tiedä	-1489
▁israelilaisten	-1490
`,	-1491
kar	-1492
▁asi	-1493
misen	-1494
▁vuod	-1495
essään	-1496
▁Joosua	-1497
▁enkeli	-1498
▁kunnia	-1499
▁hänestä	-1500
uinka	-1501
▁viisi	-1502
osa	-1503
▁ala	-1504
▁het	-1505
▁enkä	-1506
▁häneltä	-1507
isit	-1508
▁hyö	-1509
▁mol	-1510
▁vil	-1511
ij	-1512
▁Mi	-1513
▁Pi	-1514
tele	-1515
▁elää	-1516
teeksi	-1517
▁kunni	-1518
▁Älkää	-1519
▁hallit	-1520
▁liiton	-1521
▁sieltä	-1522
▁kansalle	-1523
▁käskenyt	-1524
▁Jerusalemissa	-1525
▁pime	-1526
▁nähdä	-1527
▁Baabelin	-1528
▁Jaakobin	-1529
▁näl	-1530
▁sil	-1531
udessa	-1532
▁ruoka	-1533
sti	-1534
uja	-1535
viä	-1536
▁En	-1537
▁Sii	-1538
▁pysy	-1539
▁tunte	-1540
ava	-1541
osi	-1542
▁An	-1543
▁Efra	-1544
▁Iisa	-1545
▁hyvää	-1546
▁kauan	-1547
▁lähet	-1548
▁ottaa	-1549
▁paika	-1550
▁olleet	-1551
▁taistel	-1552
",	-1553
sar	-1554
▁lis	-1555
itsee	-1556
ppuun	-1557
▁nimi	-1558
▁aurin	-1559
▁tulen	-1560
▁voima	-1561
▁suuren	-1562
ba	-1563
erin	-1564
imen	-1565
jensa	-1566
sivät	-1567
▁hyvin	-1568
▁kuuli	-1569
▁tulla	-1570
▁Jordan	-1571
ron	-1572
▁olla	-1573
▁pain	-1574
▁tässä	-1575
atan	-1576
▁löy	-1577
▁kiel	-1578
▁lamp	-1579
▁kyynärää	-1580
▁ainoastaan	-1581
abin	-1582
uhri	-1583
▁vapa	-1584
▁iloit	-1585
▁kirkka	-1586
▁tekivät	-1587
▁kaksikymmentä	-1588
yd	-1589
keni	-1590
tava	-1591
▁juh	-1592
▁kim	-1593
▁kärsi	-1594
▁kansani	-1595
▁Poi	-1596
▁vie	-1597
▁Joon	-1598
▁lupa	-1599
▁suku	-1600
▁sääd	-1601
▁eräma	-1602
▁päivän	-1603
▁seurakunn	-1604
oni	-1605
yks	-1606
llaan	-1607
mille	-1608
▁perhe	-1609
▁kohtaan	-1610
▁poh	-1611
anaan	-1612
tuivat	-1613
▁josta	-1614
▁aikaan	-1615
▁kaikista	-1616
▁or	-1617
oilla	-1618
▁liik	-1619
▁ojen	-1620
▁leipää	-1621
▁tulleet	-1622
▁veljensä	-1623
▁aam	-1624
▁äär	-1625
matta	-1626
▁sisä	-1627
▁valh	-1628
essaan	-1629
▁heimo	-1630
kei	-1631
▁Pyh	-1632
▁siv	-1633
emmän	-1634
kkaan	-1635
▁vettä	-1636
ukseksi	-1637
▁teistä	-1638
▁kahdeks	-1639
▁kanssansa	-1640
▁g	-1641
asin	-1642
▁enn	-1643
▁murh	-1644
▁kiinni	-1645
▁ymmärr	-1646
▁ennenkuin	-1647
▁kaupunkiin	-1648
ker	-1649
▁amm	-1650
▁hyl	-1651
kansa	-1652
ssaan	-1653
▁Pieta	-1654
▁kohti	-1655
▁kuusi	-1656
▁tietää	-1657
▁ihminen	-1658
tat	-1659
▁Raa	-1660
▁pes	-1661
▁sal	-1662
oitti	-1663
▁niille	-1664
▁Jumalamme	-1665
▁Mitä	-1666
ettuna	-1667
isesta	-1668
▁varti	-1669
▁valtaistuim	-1670
emmat	-1671
innut	-1672
yttää	-1673
▁kulj	-1674
▁yhden	-1675
▁asetti	-1676
▁kahden	-1677
▁met	-1678
▁nuh	-1679
oiksi	-1680
▁haud	-1681
▁synn	-1682
▁turva	-1683
▁vanha	-1684
▁kansat	-1685
▁tuleva	-1686
▁minusta	-1687
.`	-1688
iky	-1689
koa	-1690
ksin	-1691
sataa	-1692
▁vesi	-1693
▁Jerem	-1694
▁tänne	-1695
▁seuraa	-1696
Jos	-1697
kit	-1698
▁Isä	-1699
▁vaa	-1700
ollis	-1701
yksen	-1702
▁ryös	-1703
▁tava	-1704
▁surma	-1705
▁teillä	-1706
▁ympäril	-1707
▁anteeksi	-1708
jon	-1709
▁Ki	-1710
aksi	-1711
mari	-1712
ppin	-1713
▁huk	-1714
▁saanut	-1715
▁sijaan	-1716
▁ottivat	-1717
▁alttarin	-1718
▁kanssasi	-1719
jia	-1720
▁my	-1721
kelin	-1722
▁nime	-1723
▁kohta	-1724
▁meren	-1725
▁saavat	-1726
ef	-1727
ksa	-1728
anas	-1729
teet	-1730
vien	-1731
ämään	-1732
▁jään	-1733
▁vahv	-1734
ben	-1735
▁laa	-1736
▁auti	-1737
tetaan	-1738
▁pysyy	-1739
▁yhdessä	-1740
▁Va	-1741
ynnä	-1742
▁alu	-1743
▁sat	-1744
▁köyh	-1745
▁Sinun	-1746
▁kansojen	-1747
sänsä	-1748
isiksi	-1749
llenne	-1750
uuteen	-1751
▁Egypt	-1752
▁kaikkea	-1753
▁ilmestys	-1754
yyt	-1755
▁Neb	-1756
eille	-1757
▁laup	-1758
▁öljy	-1759
▁pelas	-1760
▁sapat	-1761
▁siuna	-1762
▁ihmisten	-1763
▁kaupunkia	-1764
kas	-1765
▁kalta	-1766
▁silmi	-1767
▁syödä	-1768
▁sukukun	-1769
▁silmissä	-1770
▁kahdeksan	-1771
▁kuitenkin	-1772
▁kuningasta	-1773
▁palvelijat	-1774
▁Sim	-1775
▁näky	-1776
▁yhte	-1777
ksemme	-1778
ukseen	-1779
▁johon	-1780
▁kiiva	-1781
▁lapsi	-1782
▁valit	-1783
▁vaimon	-1784
▁kaksitoista	-1785
keä	-1786
saf	-1787
tia	-1788
ojen	-1789
▁lop	-1790
uhatta	-1791
▁papit	-1792
▁äitin	-1793
▁ilmestysma	-1794
▁Y	-1795
gon	-1796
vana	-1797
▁port	-1798
▁suun	-1799
eeseen	-1800
▁pyhit	-1801
▁joiden	-1802
▁täynnä	-1803
rn	-1804
▁Vi	-1805
▁lun	-1806
▁ved	-1807
▁herra	-1808
▁Jordanin	-1809
▁puolesta	-1810
▁lähettänyt	-1811
▁palvelijasi	-1812
eer	-1813
san	-1814
arin	-1815
eesi	-1816
itar	-1817
rani	-1818
yksi	-1819
▁poj	-1820
▁asum	-1821
▁siun	-1822
▁esiko	-1823
▁leiri	-1824
ikymmen	-1825
▁kutsui	-1826
mmi	-1827
sut	-1828
▁vet	-1829
▁Samu	-1830
▁alla	-1831
▁jona	-1832
▁itsensä	-1833
▁puolella	-1834
hän	-1835
jain	-1836
tilä	-1837
annut	-1838
jaksi	-1839
▁sata	-1840
▁Manas	-1841
▁nimen	-1842
▁lähten	-1843
▁jälleen	-1844
▁kaikkin	-1845
▁kuullut	-1846
▁sanansa	-1847
aansa	-1848
asten	-1849
tävät	-1850
▁näke	-1851
▁saal	-1852
ukseni	-1853
▁ketään	-1854
▁sanoin	-1855
▁enemmän	-1856
▁erämaassa	-1857
▁luoksensa	-1858
▁ympärilei	-1859
▁perintöosa	-1860
▁jälkeläiset	-1861
mpa	-1862
▁nis	-1863
▁orj	-1864
oissa	-1865
▁varj	-1866
▁aikaa	-1867
▁kysyi	-1868
▁Saulin	-1869
▁nähnyt	-1870
otisesti	-1871
▁Aaronin	-1872
▁karkoit	-1873
▁todista	-1874
▁asukkaat	-1875
▁haj	-1876
▁nos	-1877
keelle	-1878
▁kuule	-1879
▁valtakunn	-1880
▁aj	-1881
Sinä	-1882
ätte	-1883
▁His	-1884
▁epä	-1885
▁muk	-1886
▁oin	-1887
▁tut	-1888
viksi	-1889
▁Minun	-1890
▁joilla	-1891
▁kesken	-1892
haa	-1893
rilla	-1894
tuvat	-1895
▁johd	-1896
▁Gilea	-1897
▁äläkä	-1898
▁todist	-1899
▁tykönsä	-1900
▁kaupunki	-1901
▁liikkeelle	-1902
▁temppeliin	-1903
kso	-1904
▁sö	-1905
▁korke	-1906
▁miehiä	-1907
▁Mooseksen	-1908
iltä	-1909
▁lait	-1910
▁pohjo	-1911
▁uskon	-1912
▁pu	-1913
▁ava	-1914
▁tek	-1915
▁Heng	-1916
▁oman	-1917
kaamme	-1918
▁kuulleet	-1919
▁Jumalalle	-1920
▁Jumalanne	-1921
eja	-1922
mas	-1923
rit	-1924
destä	-1925
eensä	-1926
▁kolman	-1927
▁toimit	-1928
▁vanhimm	-1929
▁hallitus	-1930
▁temppeli	-1931
▁viinitar	-1932
▁hylj	-1933
▁laid	-1934
▁rikko	-1935
▁sella	-1936
▁elämän	-1937
▁lapset	-1938
▁Daavidille	-1939
▁viisikymmen	-1940
jani	-1941
▁här	-1942
▁tien	-1943
▁kotiin	-1944
▁myöskin	-1945
▁päällik	-1946
bin	-1947
eis	-1948
Näin	-1949
▁itä	-1950
▁ked	-1951
▁pet	-1952
▁olin	-1953
▁suit	-1954
▁voin	-1955
▁puhut	-1956
▁niihin	-1957
▁olevan	-1958
▁haur	-1959
▁sovit	-1960
▁kuninka	-1961
▁minulla	-1962
▁päivinä	-1963
▁sotajouk	-1964
▁leeviläiset	-1965
ing	-1966
atin	-1967
illeen	-1968
▁Miksi	-1969
▁mennä	-1970
▁faraon	-1971
▁pyhäkö	-1972
▁sinulla	-1973
▁Benjamin	-1974
▁Jumalani	-1975
▁toimitta	-1976
▁sydämensä	-1977
Ei	-1978
too	-1979
vet	-1980
▁Johan	-1981
▁sydän	-1982
?`	-1983
om	-1984
ytä	-1985
▁Ser	-1986
kasta	-1987
uista	-1988
▁Kuka	-1989
▁huud	-1990
▁puut	-1991
▁huusi	-1992
▁poiki	-1993
▁kuulla	-1994
▁kimppuun	-1995
upol	-1996
viin	-1997
sensa	-1998
▁arma	-1999
▁pääs	-2000
▁seiso	-2001
gyptilä	-2002
▁heillä	-2003
▁korkea	-2004
ettakoon	-2005
▁Kristus	-2006
▁julista	-2007
▁sieluni	-2008
don	-2009
oska	-2010
uste	-2011
eilla	-2012
yyttä	-2013
▁ammon	-2014
▁laupe	-2015
▁minulta	-2016
▁egyptilä	-2017
sten	-2018
▁Kuul	-2019
▁huol	-2020
llansa	-2021
▁monta	-2022
uutensa	-2023
▁laidun	-2024
▁herrani	-2025
▁molemmat	-2026
▁viisikymmentä	-2027
▁arm	-2028
▁lep	-2029
emään	-2030
▁tart	-2031
▁yksin	-2032
▁neljän	-2033
▁etteivät	-2034
▁leiriyty	-2035
▁vihollis	-2036
mor	-2037
nes	-2038
ver	-2039
Älä	-2040
▁eh	-2041
▁Haa	-2042
kalla	-2043
tanne	-2044
tuaan	-2045
▁Eikö	-2046
▁kanta	-2047
▁sisar	-2048
▁tästä	-2049
▁edestä	-2050
▁sanovat	-2051
▁sukupol	-2052
asi	-2053
pih	-2054
rat	-2055
usa	-2056
▁pyhäk	-2057
ilainen	-2058
▁lähettä	-2059
▁kirjoitettu	-2060
▁neljäkymmentä	-2061
aad	-2062
aja	-2063
hot	-2064
▁Na	-2065
päin	-2066
▁vyö	-2067
isenä	-2068
▁kaiv	-2069
▁laus	-2070
▁muka	-2071
▁paha	-2072
▁raava	-2073
▁runsa	-2074
▁ihmiset	-2075
▁kanssani	-2076
llen	-2077
uusi	-2078
▁mal	-2079
▁syt	-2080
matto	-2081
äällä	-2082
▁etkä	-2083
täneet	-2084
▁Jooja	-2085
▁mistä	-2086
▁palat	-2087
▁takaa	-2088
▁velji	-2089
ilaisia	-2090
▁ahdist	-2091
▁näkivät	-2092
▁puoleen	-2093
▁pakanain	-2094
pit	-2095
vot	-2096
▁On	-2097
onut	-2098
uuri	-2099
▁Voi	-2100
▁keh	-2101
▁ulko	-2102
▁vaat	-2103
▁ystä	-2104
▁kultaa	-2105
▁Israelia	-2106
▁taivaasta	-2107
Mene	-2108
imme	-2109
llik	-2110
täni	-2111
uilla	-2112
▁Herr	-2113
▁kaun	-2114
▁saast	-2115
uksesta	-2116
▁Kuinka	-2117
▁tulisi	-2118
▁ruumiin	-2119
▁vastasivat	-2120
▁filistealaisten	-2121
ppa	-2122
vää	-2123
ilah	-2124
tola	-2125
varti	-2126
uudesta	-2127
▁ihmisen	-2128
▁sinusta	-2129
▁älkääkä	-2130
▁hallitsi	-2131
▁joukossa	-2132
ata	-2133
vel	-2134
▁Ar	-2135
▁Ih	-2136
▁Ne	-2137
veli	-2138
ällä	-2139
lapsi	-2140
oittaa	-2141
▁Jooab	-2142
istanut	-2143
▁toista	-2144
▁Assurin	-2145
▁tietämään	-2146
sit	-2147
siir	-2148
▁pyl	-2149
▁rii	-2150
isena	-2151
▁evan	-2152
▁herät	-2153
▁kyllä	-2154
▁pelkä	-2155
▁ruumi	-2156
▁Samari	-2157
▁veljet	-2158
▁karitsa	-2159
▁tyttäri	-2160
kesi	-2161
▁rin	-2162
ramin	-2163
▁polv	-2164
käämme	-2165
▁haure	-2166
▁pääsi	-2167
▁totta	-2168
▁esipih	-2169
▁kirjan	-2170
▁olkoot	-2171
▁paimen	-2172
le	-2173
äksi	-2174
ästy	-2175
▁Maa	-2176
▁lopp	-2177
▁luop	-2178
▁vaik	-2179
ettävä	-2180
kelium	-2181
llista	-2182
netaan	-2183
▁varust	-2184
▁viiden	-2185
mät	-2186
mien	-2187
▁Noo	-2188
▁rat	-2189
Miksi	-2190
aseen	-2191
äänty	-2192
▁lohd	-2193
▁turh	-2194
▁esiin	-2195
▁kestä	-2196
▁uhraa	-2197
▁Pietari	-2198
▁katselm	-2199
▁evankelium	-2200
▁kuningasten	-2201
ho	-2202
▁om	-2203
emen	-2204
kasi	-2205
obea	-2206
▁liha	-2207
▁näet	-2208
▁tahi	-2209
▁jälke	-2210
▁pakko	-2211
▁ranga	-2212
▁kasvoi	-2213
▁ylimmä	-2214
▁päivään	-2215
▁Herralta	-2216
▁kaikessa	-2217
▁paikkaan	-2218
via	-2219
▁Je	-2220
▁leir	-2221
▁Absal	-2222
▁kolmen	-2223
▁kolmekymmentä	-2224
▁israelilaisille	-2225
▁F	-2226
toon	-2227
ingas	-2228
▁Baal	-2229
▁hävä	-2230
▁ruko	-2231
▁siir	-2232
▁vang	-2233
▁vaun	-2234
▁menee	-2235
▁mihin	-2236
▁muita	-2237
▁nosta	-2238
▁veivät	-2239
▁vuodat	-2240
▁ottanut	-2241
iko	-2242
von	-2243
▁kr	-2244
▁puk	-2245
eensa	-2246
ettel	-2247
isistä	-2248
uksesi	-2249
▁Poika	-2250
▁eläim	-2251
▁isäni	-2252
▁vaell	-2253
▁vihaa	-2254
▁aikana	-2255
▁meillä	-2256
▁jotakin	-2257
▁poikani	-2258
▁tulette	-2259
ile	-2260
jana	-2261
▁aja	-2262
tensä	-2263
▁papp	-2264
toivat	-2265
▁puhuu	-2266
▁miekan	-2267
▁vaelta	-2268
▁Jerobea	-2269
▁äitinsä	-2270
immä	-2271
▁kil	-2272
▁sar	-2273
aahan	-2274
kensä	-2275
▁rikka	-2276
▁saada	-2277
▁ylist	-2278
▁Jeremia	-2279
▁Israelissa	-2280
vir	-2281
▁Me	-2282
tesi	-2283
utaan	-2284
▁Eesa	-2285
▁laul	-2286
uhreja	-2287
▁Juuda	-2288
▁pahan	-2289
▁tälle	-2290
▁kukkul	-2291
puolella	-2292
siirtola	-2293
▁Mooabin	-2294
▁isiensä	-2295
▁nimensä	-2296
▁päämieh	-2297
▁laidunma	-2298
▁pakkosiirtola	-2299
En	-2300
ren	-2301
alti	-2302
ouse	-2303
toja	-2304
vali	-2305
ytti	-2306
▁roh	-2307
▁rup	-2308
ukkul	-2309
▁oven	-2310
▁soti	-2311
isensa	-2312
lliset	-2313
▁saman	-2314
▁veren	-2315
istansa	-2316
▁lapsia	-2317
▁nousee	-2318
▁Paavali	-2319
▁hopeata	-2320
▁sisälle	-2321
Tul	-2322
`."	-2323
lei	-2324
puu	-2325
uina	-2326
▁jär	-2327
mättä	-2328
▁kävi	-2329
▁sala	-2330
▁ettekä	-2331
▁teuras	-2332
▁nimeltä	-2333
▁tekevät	-2334
▁Gileadin	-2335
▁Niinkuin	-2336
▁puolelle	-2337
▁Egyptistä	-2338
▁keskuudessa	-2339
emp	-2340
ätä	-2341
▁La	-2342
▁sit	-2343
eliin	-2344
jumal	-2345
isimme	-2346
▁Koska	-2347
▁sanoa	-2348
▁valke	-2349
▁leijon	-2350
▁pakeni	-2351
▁poikia	-2352
▁saatte	-2353
▁toivat	-2354
▁nähneet	-2355
▁maailman	-2356
▁hallitusvuo	-2357
aar	-2358
tal	-2359
osto	-2360
▁Hoo	-2361
▁kah	-2362
arise	-2363
▁eräs	-2364
▁kiro	-2365
isivät	-2366
▁isäsi	-2367
▁tunne	-2368
▁rakenn	-2369
▁auringon	-2370
▁kaikkina	-2371
▁päämiehet	-2372
▁Us	-2373
▁Aha	-2374
▁käd	-2375
ännyt	-2376
▁Myös	-2377
▁astui	-2378
▁kulut	-2379
▁käänn	-2380
▁Samuel	-2381
▁opetta	-2382
▁poikaa	-2383
▁asuivat	-2384
▁kaupungit	-2385
▁temppelissä	-2386
▁laidunmaineen	-2387
eri	-2388
jät	-2389
urs	-2390
yys	-2391
▁jy	-2392
▁vo	-2393
onta	-2394
▁Naa	-2395
▁nöy	-2396
▁puu	-2397
▁isän	-2398
▁teet	-2399
istaan	-2400
llänsä	-2401
▁Siion	-2402
▁hyvän	-2403
▁farise	-2404
▁siemen	-2405
▁kuulivat	-2406
▁totisesti	-2407
ull	-2408
Tämä	-2409
▁tap	-2410
▁kuun	-2411
▁lamm	-2412
utensa	-2413
▁armon	-2414
▁ikinä	-2415
▁muist	-2416
▁uskot	-2417
▁joukko	-2418
▁kerran	-2419
▁laakso	-2420
▁palasi	-2421
▁viiniä	-2422
▁Efraimin	-2423
▁vaimonsa	-2424
▁kuninkaat	-2425
ehti	-2426
▁Gib	-2427
▁Min	-2428
▁kel	-2429
kalta	-2430
tänne	-2431
▁juur	-2432
▁laki	-2433
▁valm	-2434
eitten	-2435
▁Henki	-2436
▁aivan	-2437
▁lampa	-2438
▁panen	-2439
▁pakoon	-2440
▁hänessä	-2441
▁lähimmä	-2442
▁vuorist	-2443
▁kulkivat	-2444
▁synnytti	-2445
▁tekemään	-2446
▁itsellesi	-2447
oog	-2448
tum	-2449
▁tö	-2450
atto	-2451
iska	-2452
mman	-2453
▁Sik	-2454
▁aar	-2455
▁eks	-2456
vansa	-2457
▁asuu	-2458
▁laum	-2459
▁leve	-2460
▁näitä	-2461
▁turmi	-2462
▁hyväksi	-2463
▁jumalan	-2464
▁jumalia	-2465
▁käsivar	-2466
▁rukoili	-2467
▁sinulta	-2468
▁Aabraham	-2469
pyh	-2470
ottu	-2471
▁Lib	-2472
ukoon	-2473
vaksi	-2474
▁alle	-2475
▁veis	-2476
▁ainoa	-2477
▁arkin	-2478
▁kenen	-2479
▁vaski	-2480
▁vihan	-2481
▁viime	-2482
▁asuvat	-2483
▁kertaa	-2484
▁kuolle	-2485
▁noudat	-2486
▁suuret	-2487
▁tahdon	-2488
▁huoneen	-2489
▁kuollut	-2490
▁oikeuden	-2491
▁tapahtui	-2492
▁kuoliaaksi	-2493
▁vaatteensa	-2494
▁juutalaiset	-2495
▁sukukunnasta	-2496
imo	-2497
oot	-2498
▁Pa	-2499
sian	-2500
ukad	-2501
▁pas	-2502
▁elin	-2503
▁hyök	-2504
▁pyst	-2505
▁tois	-2506
▁luota	-2507
▁Kanaan	-2508
▁edellä	-2509
▁oikein	-2510
llisesti	-2511
▁lähellä	-2512
▁uhrilah	-2513
▁oikeutta	-2514
▁pelastaa	-2515
▁valtakun	-2516
▁vanhimmat	-2517
▁valtakunta	-2518
▁sanansaatta	-2519
▁palvelijansa	-2520
Me	-2521
▁[	-2522
aik	-2523
anh	-2524
kil	-2525
utu	-2526
▁yön	-2527
imele	-2528
takaa	-2529
▁kahd	-2530
▁kann	-2531
▁pane	-2532
▁rist	-2533
▁saap	-2534
▁synt	-2535
▁levit	-2536
▁papin	-2537
▁virsi	-2538
▁yöllä	-2539
▁kätesi	-2540
▁peljät	-2541
▁tiedän	-2542
▁toiset	-2543
▁yhdeks	-2544
▁Nebukad	-2545
▁häpeään	-2546
▁lähetän	-2547
▁kuoleman	-2548
▁kaikkiaan	-2549
▁ympärillä	-2550
tyy	-2551
▁Ko	-2552
▁Ta	-2553
▁Men	-2554
▁les	-2555
▁huul	-2556
▁kuiv	-2557
▁kulla	-2558
▁pella	-2559
▁miekka	-2560
▁vastaa	-2561
▁yhteys	-2562
▁Joosefin	-2563
▁annetaan	-2564
▁Jumalansa	-2565
▁tapahtunut	-2566
mit	-2567
ois	-2568
ikko	-2569
otte	-2570
▁Soo	-2571
▁län	-2572
▁pöy	-2573
uille	-2574
▁käsk	-2575
▁lähd	-2576
laiset	-2577
vannut	-2578
▁istui	-2579
▁tykön	-2580
tuhatta	-2581
▁Hiskia	-2582
▁Joosaf	-2583
▁seisoi	-2584
▁täällä	-2585
▁väkevä	-2586
▁Ihmisen	-2587
▁asettui	-2588
▁kansasi	-2589
▁nuoruka	-2590
▁välillä	-2591
▁Kuningas	-2592
isee	-2593
miel	-2594
rjaa	-2595
ältä	-2596
▁Edo	-2597
▁Tul	-2598
▁syv	-2599
▁yhä	-2600
yyden	-2601
ittain	-2602
llisen	-2603
▁elämä	-2604
▁kerub	-2605
▁lihan	-2606
▁rauha	-2607
▁tahdo	-2608
▁vähän	-2609
ikukkul	-2610
▁pakana	-2611
▁profee	-2612
▁jolloin	-2613
▁ruhtinas	-2614
▁Aabrahamin	-2615
▁kaupungissa	-2616
▁filistealaiset	-2617
kuu	-2618
udu	-2619
Niin	-2620
llan	-2621
utan	-2622
▁pun	-2623
▁vel	-2624
astaa	-2625
etaan	-2626
usten	-2627
▁amor	-2628
▁arvo	-2629
▁kerr	-2630
▁kurit	-2631
▁sisään	-2632
▁lähesty	-2633
▁erämaahan	-2634
▁Kristuksessa	-2635
An	-2636
mer	-2637
yyn	-2638
▁ir	-2639
kani	-2640
ppal	-2641
▁Kar	-2642
▁ilo	-2643
▁tel	-2644
▁vap	-2645
▁äid	-2646
oppin	-2647
▁asua	-2648
tuneet	-2649
▁puhun	-2650
▁tuhat	-2651
▁tuhon	-2652
▁kutsut	-2653
▁käskyj	-2654
▁muista	-2655
▁päivät	-2656
▁tahton	-2657
▁tahtoo	-2658
▁laskeut	-2659
▁miesten	-2660
▁paikassa	-2661
▁sijaansa	-2662
▁kanssanne	-2663
▁kuukauden	-2664
▁itsellensä	-2665
me	-2666
hda	-2667
▁Ni	-2668
▁Ra	-2669
▁at	-2670
ikin	-2671
mmin	-2672
tien	-2673
▁hel	-2674
▁kad	-2675
▁tus	-2676
tonsa	-2677
tynyt	-2678
▁nöyr	-2679
▁tuul	-2680
elleen	-2681
kaupun	-2682
udesta	-2683
▁ikään	-2684
▁korot	-2685
▁näkee	-2686
▁riemu	-2687
▁tekoja	-2688
▁ylistä	-2689
▁poikasi	-2690
▁pyhäkkö	-2691
▁rakenta	-2692
▁rakastaa	-2693
▁yhdeksän	-2694
▁päällikkö	-2695
▁uhrikukkul	-2696
era	-2697
mal	-2698
mar	-2699
seen	-2700
▁Eli	-2701
▁Heb	-2702
▁set	-2703
eiksi	-2704
mansa	-2705
▁Eikä	-2706
▁Gibe	-2707
▁terv	-2708
ksensä	-2709
▁juoda	-2710
▁vapaa	-2711
▁vedet	-2712
▁heiltä	-2713
▁heitti	-2714
alaisten	-2715
▁kädessä	-2716
▁Herrassa	-2717
▁Manassen	-2718
▁viinitarh	-2719
ad	-2720
eih	-2721
llin	-2722
▁Elia	-2723
▁säil	-2724
▁vien	-2725
▁hedel	-2726
▁huuta	-2727
▁lihaa	-2728
▁monet	-2729
▁ranka	-2730
▁sadan	-2731
▁vihas	-2732
▁portti	-2733
▁Salomon	-2734
▁sydämeni	-2735
▁Israelille	-2736
▁kaupungista	-2737
tyä	-2738
puna	-2739
▁myö	-2740
▁hope	-2741
▁itki	-2742
▁täyd	-2743
etteli	-2744
▁ettet	-2745
▁farao	-2746
▁hajot	-2747
▁juuri	-2748
▁kulke	-2749
▁pasun	-2750
▁puhta	-2751
▁salli	-2752
▁säädö	-2753
▁vaiva	-2754
▁öljyä	-2755
▁aposto	-2756
▁poltta	-2757
▁saivat	-2758
▁sanoja	-2759
▁surmat	-2760
▁antoivat	-2761
▁kaupunge	-2762
▁sukupolv	-2763
▁saastainen	-2764
Ol	-2765
uvo	-2766
kian	-2767
▁jäi	-2768
äinen	-2769
▁piir	-2770
▁riko	-2771
▁etten	-2772
▁luona	-2773
▁miksi	-2774
▁pahat	-2775
▁sanaa	-2776
▁Heidän	-2777
▁näiden	-2778
▁omaksi	-2779
▁paikka	-2780
▁tuomit	-2781
▁Joonatan	-2782
▁lähtenyt	-2783
▁ruhtinaat	-2784
▁ilmestysmajan	-2785
▁vanhurskauden	-2786
ek	-2787
utte	-2788
voit	-2789
▁Jis	-2790
▁nou	-2791
▁tor	-2792
eiden	-2793
nessa	-2794
▁harj	-2795
▁kaks	-2796
▁maah	-2797
▁taid	-2798
▁ilman	-2799
▁paken	-2800
▁pylvä	-2801
▁rakas	-2802
▁suits	-2803
▁varha	-2804
▁haudat	-2805
▁joutuu	-2806
▁mennyt	-2807
▁rupesi	-2808
▁kumarta	-2809
▁menesty	-2810
▁Egyptiin	-2811
▁Kanaanin	-2812
▁menemään	-2813
▁seurakunnan	-2814
▁juutalaisten	-2815
▁kirjoitettuna	-2816
ili	-2817
raa	-2818
uri	-2819
Kuka	-2820
joja	-2821
tuja	-2822
yden	-2823
▁Reh	-2824
mästä	-2825
▁Dani	-2826
▁aram	-2827
▁raja	-2828
▁tote	-2829
▁void	-2830
▁väij	-2831
etuksi	-2832
▁Tämän	-2833
▁pääse	-2834
▁tuhan	-2835
▁käteni	-2836
▁portin	-2837
▁seassa	-2838
▁iloitse	-2839
▁käsistä	-2840
▁kuluttua	-2841
▁vuorelle	-2842
▁Totisesti	-2843
▁asettuivat	-2844
▁kaksisataa	-2845
▁kuitenkaan	-2846
of	-2847
son	-2848
umi	-2849
teki	-2850
alile	-2851
jassa	-2852
uinen	-2853
äärin	-2854
▁jauh	-2855
▁pidä	-2856
▁autta	-2857
▁nouse	-2858
▁asukka	-2859
▁pannut	-2860
▁saatan	-2861
▁silmät	-2862
▁päämies	-2863
▁rakensi	-2864
▁kaikissa	-2865
▁muutamat	-2866
▁suurella	-2867
▁itselleen	-2868
▁opetuslapsi	-2869
syt	-2870
tun	-2871
insa	-2872
utesi	-2873
▁viet	-2874
▁viik	-2875
▁Elisa	-2876
▁jalka	-2877
▁juoma	-2878
▁paljo	-2879
▁työtä	-2880
▁lapsen	-2881
▁leirin	-2882
▁niillä	-2883
▁rikkom	-2884
▁suuria	-2885
▁panivat	-2886
▁vuotena	-2887
▁Jumalaan	-2888
▁edessäsi	-2889
▁nousivat	-2890
▁silmänsä	-2891
▁palvelijani	-2892
▁leiriytyivät	-2893
Jo	-2894
Se	-2895
po	-2896
kiä	-2897
mel	-2898
eeni	-2899
yttö	-2900
▁tom	-2901
▁ylh	-2902
▁Elea	-2903
▁Sela	-2904
▁alka	-2905
▁saar	-2906
▁tuot	-2907
▁metsä	-2908
▁neuvo	-2909
▁tahto	-2910
▁tehty	-2911
▁toivo	-2912
▁veden	-2913
▁hylkää	-2914
▁kieltä	-2915
▁nainen	-2916
▁sotaan	-2917
▁surmaa	-2918
▁ylitse	-2919
▁etsivät	-2920
▁hävittä	-2921
▁pilkkaa	-2922
▁pojalle	-2923
▁saaneet	-2924
▁kaikelle	-2925
▁ikäänkuin	-2926
On	-2927
▁i	-2928
iit	-2929
isp	-2930
eihin	-2931
▁Veis	-2932
▁asui	-2933
▁huut	-2934
▁keih	-2935
▁sair	-2936
▁vast	-2937
▁kirja	-2938
▁määrä	-2939
▁omaan	-2940
▁puhua	-2941
▁ranna	-2942
▁saira	-2943
istänsä	-2944
▁kuulee	-2945
▁perust	-2946
▁taloon	-2947
▁vuoren	-2948
▁Älköön	-2949
▁syntynyt	-2950
▁perintöos	-2951
▁Benjaminin	-2952
▁hallitusvuotena	-2953
rs	-2954
miä	-2955
uhu	-2956
▁ur	-2957
etan	-2958
keja	-2959
llei	-2960
uisi	-2961
▁its	-2962
▁kier	-2963
▁pien	-2964
▁saav	-2965
▁vaip	-2966
▁ylty	-2967
▁juhla	-2968
▁menen	-2969
▁toisi	-2970
▁tulet	-2971
uttanut	-2972
▁Hengen	-2973
▁heimon	-2974
▁tehkää	-2975
▁tieltä	-2976
▁täytyy	-2977
▁vaivaa	-2978
▁päällys	-2979
▁sydämes	-2980
▁tulessa	-2981
▁miehelle	-2982
▁älköönkä	-2983
▁jälkeensä	-2984
▁profeetat	-2985
Ih	-2986
Hän	-2987
dän	-2988
jän	-2989
kal	-2990
yyd	-2991
koja	-2992
▁iku	-2993
halti	-2994
kille	-2995
patsa	-2996
▁ajan	-2997
▁käär	-2998
▁vase	-2999
▁aasin	-3000
▁häpeä	-3001
▁kalde	-3002
▁selit	-3003
▁sielu	-3004
▁valko	-3005
▁vitsa	-3006
▁Paaval	-3007
▁hengen	-3008
▁lähtee	-3009
▁yhteen	-3010
▁ennusta	-3011
▁sanotte	-3012
▁huusivat	-3013
▁jokaisen	-3014
▁jäljelle	-3015
▁kolmantena	-3016
ag	-3017
nö	-3018
kkin	-3019
mmat	-3020
▁Sid	-3021
▁eli	-3022
▁him	-3023
▁muo	-3024
▁syy	-3025
inten	-3026
mpäri	-3027
▁Ahas	-3028
▁hava	-3029
▁kaur	-3030
▁olle	-3031
▁pita	-3032
kaaksi	-3033
▁Vielä	-3034
▁lakia	-3035
▁laske	-3036
▁puuta	-3037
▁rauni	-3038
▁väkev	-3039
ätoista	-3040
▁Efraim	-3041
▁kanaan	-3042
▁minuun	-3043
▁parann	-3044
▁asumaan	-3045
▁täydell	-3046
▁noudatta	-3047
▁asumuksen	-3048
▁Jerusalemista	-3049
lan	-3050
vos	-3051
▁Et	-3052
▁Pil	-3053
▁myy	-3054
▁nuk	-3055
eessa	-3056
keliä	-3057
ykset	-3058
▁nuol	-3059
▁odot	-3060
▁pitk	-3061
▁rikk	-3062
▁Eivät	-3063
▁edell	-3064
▁maksa	-3065
▁orjan	-3066
▁tuoks	-3067
keuteen	-3068
▁kuussa	-3069
▁sotava	-3070
▁söivät	-3071
lliseksi	-3072
▁annettu	-3073
▁enkelin	-3074
▁hedelmä	-3075
▁minäkin	-3076
▁puhdist	-3077
▁tehtävä	-3078
▁epäjumal	-3079
▁kotiinsa	-3080
▁luokseni	-3081
▁valmista	-3082
▁yltympäri	-3083
▁katselmuksessa	-3084
äti	-3085
isla	-3086
jesi	-3087
tuva	-3088
▁Han	-3089
▁Koo	-3090
▁Kor	-3091
▁Sem	-3092
▁löi	-3093
▁näe	-3094
▁oto	-3095
Minun	-3096
maksi	-3097
ronin	-3098
ukana	-3099
▁omaa	-3100
issaan	-3101
▁Liban	-3102
▁Miika	-3103
▁asuin	-3104
▁katoa	-3105
▁kiusa	-3106
▁korva	-3107
▁kovin	-3108
▁pyhät	-3109
▁vuote	-3110
oilleen	-3111
▁hankki	-3112
▁kuolee	-3113
▁paitsi	-3114
isuuteen	-3115
▁olemaan	-3116
▁tulkoon	-3117
▁veljesi	-3118
▁edessäni	-3119
▁rauhassa	-3120
▁toiselle	-3121
▁vihamieh	-3122
▁keskuudes	-3123
▁seurakunta	-3124
▁taisteluun	-3125
ein	-3126
asto	-3127
irin	-3128
▁Sin	-3129
▁lin	-3130
kuvat	-3131
uhria	-3132
valta	-3133
▁neit	-3134
▁noin	-3135
▁pell	-3136
▁tarv	-3137
Kuinka	-3138
elille	-3139
ettuja	-3140
isella	-3141
▁lähde	-3142
▁matka	-3143
▁annoin	-3144
▁lasten	-3145
▁sinuun	-3146
puolelle	-3147
▁Siionin	-3148
▁milloin	-3149
▁joutuvat	-3150
Min	-3151
jal	-3152
ket	-3153
pin	-3154
sän	-3155
ula	-3156
ulu	-3157
attu	-3158
utaa	-3159
▁kui	-3160
▁kys	-3161
▁mit	-3162
oitan	-3163
tille	-3164
uiksi	-3165
äänsä	-3166
▁Baas	-3167
▁lang	-3168
estään	-3169
▁kosta	-3170
▁lampp	-3171
▁synag	-3172
▁Siihen	-3173
▁alkaen	-3174
▁johdat	-3175
ettäköön	-3176
▁Abimele	-3177
▁kaukana	-3178
▁vanhurskas	-3179
▁kirjanoppin	-3180
▁b	-3181
Kun	-3182
uan	-3183
eser	-3184
▁Mer	-3185
▁koi	-3186
▁ryh	-3187
telee	-3188
veksi	-3189
▁hevo	-3190
▁kiir	-3191
▁maks	-3192
▁rats	-3193
▁tuho	-3194
▁ääni	-3195
▁Sikem	-3196
▁käydä	-3197
▁laski	-3198
▁uhrat	-3199
▁ylipa	-3200
▁äänen	-3201
▁Galile	-3202
▁murhee	-3203
▁puoles	-3204
▁pääsiä	-3205
▁saatta	-3206
▁vaivan	-3207
▁ettette	-3208
▁koskaan	-3209
▁kädestä	-3210
▁parempi	-3211
▁miekalla	-3212
▁ottamaan	-3213
▁valinnut	-3214
▁vääryyttä	-3215
▁alttarilla	-3216
▁perhekunta	-3217
ena	-3218
enn	-3219
nit	-3220
ter	-3221
ajan	-3222
alin	-3223
eman	-3224
kein	-3225
ppur	-3226
Nouse	-3227
eillä	-3228
mistä	-3229
uteni	-3230
Älkää	-3231
▁jätä	-3232
▁löyt	-3233
▁tehd	-3234
▁vied	-3235
▁äiti	-3236
lainen	-3237
▁ensin	-3238
▁happa	-3239
▁jalko	-3240
▁olkaa	-3241
▁kiittä	-3242
▁syövät	-3243
▁täyttä	-3244
oittanut	-3245
▁miekkaan	-3246
▁puolelta	-3247
▁synagoog	-3248
";	-3249
▁in	-3250
ehem	-3251
esin	-3252
uvan	-3253
▁ylä	-3254
aalle	-3255
minen	-3256
▁erot	-3257
▁olko	-3258
▁ylpe	-3259
keihin	-3260
▁Bilea	-3261
yttänyt	-3262
▁niissä	-3263
▁nimeni	-3264
▁riivaa	-3265
▁antakaa	-3266
▁eteensä	-3267
▁veljeni	-3268
▁Herramme	-3269
▁luvannut	-3270
▁mukanaan	-3271
▁asettanut	-3272
▁kanssamme	-3273
op	-3274
lin	-3275
ret	-3276
rip	-3277
oina	-3278
utui	-3279
▁Hes	-3280
▁Mes	-3281
▁Mor	-3282
▁ent	-3283
erran	-3284
ikään	-3285
▁luol	-3286
Menkää	-3287
elevat	-3288
udella	-3289
▁kammi	-3290
▁mitta	-3291
▁nimeä	-3292
▁omais	-3293
▁ääntä	-3294
▁käynyt	-3295
▁puhdas	-3296
▁tappaa	-3297
▁eläimet	-3298
▁nuhteet	-3299
▁peljästy	-3300
▁päivästä	-3301
▁suuresti	-3302
▁tapahtuu	-3303
▁Aaronille	-3304
▁sovituksen	-3305
imp	-3306
▁So	-3307
doka	-3308
etin	-3309
uraa	-3310
▁ano	-3311
▁haa	-3312
▁heh	-3313
▁tie	-3314
Ihmis	-3315
päivä	-3316
isessa	-3317
▁jolle	-3318
▁nälkä	-3319
▁pitkä	-3320
▁pääst	-3321
▁talon	-3322
kaupung	-3323
laisten	-3324
▁nimesi	-3325
▁päänsä	-3326
▁rauhan	-3327
▁Herraan	-3328
▁Mordoka	-3329
▁silmäsi	-3330
▁sydämen	-3331
▁tavalla	-3332
▁peljättä	-3333
▁tunnuste	-3334
▁yksikään	-3335
▁ymmärtävä	-3336
▁lähettivät	-3337
▁jälkeläisten	-3338
▁seitsemäntenä	-3339
▁ympärileikkaa	-3340
por	-3341
kkia	-3342
otin	-3343
ytyi	-3344
▁Abn	-3345
▁rut	-3346
▁ven	-3347
kerta	-3348
▁Jeeh	-3349
▁Sano	-3350
▁Vanh	-3351
▁heti	-3352
▁juon	-3353
▁pauh	-3354
▁samm	-3355
▁seur	-3356
▁teot	-3357
▁asett	-3358
▁hylkä	-3359
▁rauta	-3360
▁tehtä	-3361
alaiset	-3362
ukselle	-3363
▁heittä	-3364
▁kohtaa	-3365
▁metsän	-3366
▁teette	-3367
▁vaelsi	-3368
▁vasemm	-3369
▁voinut	-3370
▁Johanne	-3371
▁aamulla	-3372
▁lisäksi	-3373
▁surmasi	-3374
▁tahansa	-3375
▁vanhurs	-3376
▁varhain	-3377
▁vihansa	-3378
Totisesti	-3379
▁jäljellä	-3380
▁olisivat	-3381
▁ottaneet	-3382
▁sapattin	-3383
▁päällensä	-3384
▁palvelemaan	-3385
iel	-3386
kku	-3387
ona	-3388
▁Da	-3389
▁Ku	-3390
ikon	-3391
kari	-3392
kirj	-3393
▁Ken	-3394
▁Per	-3395
▁avi	-3396
isesi	-3397
tujen	-3398
ukoot	-3399
uteen	-3400
▁Anna	-3401
▁eikö	-3402
▁jalo	-3403
▁kuva	-3404
▁omat	-3405
▁onko	-3406
▁osan	-3407
▁vika	-3408
▁hevos	-3409
▁nosti	-3410
▁tiesi	-3411
itsevat	-3412
▁jonkun	-3413
▁laitum	-3414
▁meistä	-3415
▁tyköni	-3416
▁ihmisiä	-3417
▁näkevät	-3418
▁vaeltaa	-3419
▁autioksi	-3420
▁oikealle	-3421
▁ottakoon	-3422
▁puhuivat	-3423
▁voimalla	-3424
▁Jumalalta	-3425
▁annettiin	-3426
▁Jeesuksessa	-3427
▁ensimmäisenä	-3428
▁polttouhriksi	-3429
io	-3430
yä	-3431
▁Es	-3432
▁Po	-3433
uuli	-3434
▁käv	-3435
▁sav	-3436
isina	-3437
johta	-3438
▁Daan	-3439
▁Laab	-3440
▁ilma	-3441
▁kova	-3442
▁kuus	-3443
▁läpi	-3444
▁osta	-3445
▁työn	-3446
uutesi	-3447
▁Damas	-3448
▁huoma	-3449
▁itään	-3450
▁pidät	-3451
▁tekin	-3452
alainen	-3453
▁huomen	-3454
▁leivän	-3455
▁sekaan	-3456
▁uhreja	-3457
▁armonsa	-3458
▁silmäni	-3459
▁Johannes	-3460
▁halveksi	-3461
▁henkensä	-3462
Ihmislapsi	-3463
▁kuusisataa	-3464
hun	-3465
kot	-3466
ttä	-3467
nous	-3468
uvun	-3469
▁kyn	-3470
▁leh	-3471
jasta	-3472
konsa	-3473
tavat	-3474
ville	-3475
▁horj	-3476
▁koet	-3477
▁piti	-3478
▁rien	-3479
▁altti	-3480
▁henke	-3481
▁katse	-3482
▁makaa	-3483
▁menet	-3484
▁pital	-3485
▁unhot	-3486
▁vahin	-3487
▁vanno	-3488
ilaisen	-3489
▁huomaa	-3490
▁isämme	-3491
▁naisen	-3492
▁näistä	-3493
▁sanani	-3494
▁hävitän	-3495
▁kääntyi	-3496
▁riemuit	-3497
▁tekonsa	-3498
▁äänellä	-3499
▁sydämesi	-3500
▁vastusta	-3501
▁valtakunnan	-3502
▁Nebukadnessa	-3503
uko	-3504
▁ah	-3505
etun	-3506
kkiä	-3507
orin	-3508
▁Est	-3509
▁Pal	-3510
▁rah	-3511
▁Vaan	-3512
▁hämm	-3513
▁puke	-3514
▁suut	-3515
▁toiv	-3516
istasi	-3517
▁hauta	-3518
▁kahta	-3519
▁siltä	-3520
▁virka	-3521
▁Samoin	-3522
▁kantaa	-3523
▁kohden	-3524
▁mullik	-3525
▁neuvon	-3526
▁tuolla	-3527
▁väärin	-3528
▁jauhoja	-3529
▁pitävät	-3530
▁taivaat	-3531
▁mukaansa	-3532
▁sanotaan	-3533
▁vuorella	-3534
▁kunniaksi	-3535
▁Jaakobille	-3536
▁haudattiin	-3537
▁kuolleista	-3538
▁syntiuhriksi	-3539
Te	-3540
Voi	-3541
las	-3542
▁Eu	-3543
anta	-3544
main	-3545
teni	-3546
ukka	-3547
▁auk	-3548
▁ben	-3549
▁hir	-3550
▁put	-3551
▁unh	-3552
Sinun	-3553
atkaa	-3554
eeksi	-3555
oitse	-3556
▁Onko	-3557
▁Siin	-3558
▁alue	-3559
▁main	-3560
▁nähd	-3561
▁olit	-3562
▁sulo	-3563
▁tyhj	-3564
▁uhri	-3565
▁venh	-3566
ettilä	-3567
koivat	-3568
lleita	-3569
▁Eufra	-3570
▁Pilat	-3571
▁Rehab	-3572
▁avasi	-3573
▁ennus	-3574
▁kerska	-3575
▁tuonel	-3576
oittivat	-3577
▁Myöskin	-3578
▁aurinko	-3579
▁käskyjä	-3580
▁minussa	-3581
▁seitsem	-3582
▁sinussa	-3583
▁tykönne	-3584
▁benjamin	-3585
▁heettilä	-3586
▁kaikilla	-3587
▁kaikkiin	-3588
▁kullalla	-3589
▁miehensä	-3590
▁Kaikkival	-3591
▁huoneeseen	-3592
▁kuolemalla	-3593
▁seuraavana	-3594
▁palvelijoita	-3595
:1	-3596
ase	-3597
jäl	-3598
vih	-3599
yvä	-3600
Sano	-3601
aani	-3602
aton	-3603
etyt	-3604
kisi	-3605
raan	-3606
toni	-3607
vehd	-3608
▁Mat	-3609
▁hoi	-3610
▁lie	-3611
▁taa	-3612
▁löyd	-3613
▁tyyn	-3614
▁virh	-3615
ttakaa	-3616
▁Saado	-3617
▁leipä	-3618
▁puoli	-3619
▁tuoma	-3620
▁vuosi	-3621
miseksi	-3622
palveli	-3623
televat	-3624
▁edusta	-3625
▁henkeä	-3626
▁kappal	-3627
▁kolmas	-3628
▁kulkee	-3629
▁mikään	-3630
▁olimme	-3631
uunjohta	-3632
▁Kuulkaa	-3633
▁ratsumi	-3634
▁saattaa	-3635
▁samalla	-3636
▁kansansa	-3637
▁puhumaan	-3638
▁suurempi	-3639
▁tahtonut	-3640
▁polttouhri	-3641
▁käskynhalti	-3642
uunjohtajalle	-3643
▁jumalattomat	-3644
▁opetuslapsensa	-3645
enä	-3646
▁Nä	-3647
etko	-3648
▁Nyt	-3649
▁Tyy	-3650
▁asu	-3651
▁hil	-3652
▁kär	-3653
▁tuk	-3654
janne	-3655
ukses	-3656
▁anti	-3657
▁auta	-3658
▁etel	-3659
issään	-3660
joista	-3661
uttava	-3662
valtaa	-3663
▁Iisak	-3664
▁Siitä	-3665
▁jätti	-3666
▁riita	-3667
▁Absalo	-3668
▁Kuiten	-3669
▁katker	-3670
▁kunink	-3671
▁linnut	-3672
▁muiden	-3673
▁vaarin	-3674
▁kenelle	-3675
▁kuolema	-3676
▁leiriin	-3677
▁noussut	-3678
▁orjanta	-3679
▁äänensä	-3680
▁luokseen	-3681
▁yhtäkään	-3682
▁kuolemaan	-3683
▁seisoivat	-3684
▁viisautta	-3685
▁Jerusalemia	-3686
▁kaupunkeihin	-3687
▁kuusikymmentä	-3688
kky	-3689
lon	-3690
▁Am	-3691
Mikä	-3692
elee	-3693
naul	-3694
seet	-3695
joita	-3696
lehem	-3697
llään	-3698
oilta	-3699
päätä	-3700
telem	-3701
▁Asar	-3702
▁Hero	-3703
▁Pyhä	-3704
▁avaa	-3705
▁hull	-3706
▁kivi	-3707
▁komp	-3708
▁kurj	-3709
kkaani	-3710
llasta	-3711
▁Kuule	-3712
▁ateri	-3713
▁kieli	-3714
▁kiven	-3715
▁lesty	-3716
▁nälän	-3717
iinnaul	-3718
jälkeen	-3719
▁Hebron	-3720
▁Muista	-3721
▁Siellä	-3722
▁heihin	-3723
▁jäänyt	-3724
▁lohdut	-3725
▁oikean	-3726
▁palkka	-3727
▁suunsa	-3728
▁tiedät	-3729
▁uhrasi	-3730
▁Absalom	-3731
▁kuulkaa	-3732
▁seurasi	-3733
▁tehtiin	-3734
▁tulella	-3735
▁tuokoon	-3736
▁valmist	-3737
▁hedelmää	-3738
▁karitsaa	-3739
▁luoksesi	-3740
▁lähettää	-3741
▁rakentaa	-3742
▁tyttäriä	-3743
▁Jerobeamin	-3744
▁kolmesataa	-3745
▁sukukuntaa	-3746
▁polttouhrin	-3747
▁israelilaisia	-3748
▁onnettomuuden	-3749
▁keskuudessanne	-3750
!`	-3751
eg	-3752
laa	-3753
nan	-3754
rah	-3755
Kuul	-3756
iaan	-3757
koin	-3758
kset	-3759
osin	-3760
utua	-3761
▁Gid	-3762
▁mus	-3763
itsen	-3764
jalla	-3765
kenut	-3766
oavat	-3767
sänne	-3768
tomat	-3769
uhrit	-3770
▁heil	-3771
▁kato	-3772
▁luku	-3773
▁luul	-3774
▁vaih	-3775
llisia	-3776
tamaan	-3777
▁Saara	-3778
▁jäsen	-3779
▁kasva	-3780
▁ravit	-3781
telivat	-3782
▁lausui	-3783
▁mereen	-3784
▁neuvoa	-3785
▁poikki	-3786
▁sekoit	-3787
▁synnin	-3788
▁syntin	-3789
itsemaan	-3790
▁Rehabea	-3791
▁ahdista	-3792
▁kunnian	-3793
▁pappien	-3794
▁suitsuk	-3795
▁toiseen	-3796
▁virheet	-3797
▁Joosafat	-3798
▁hedelmät	-3799
▁itseänsä	-3800
▁kerrotta	-3801
▁kuolleet	-3802
▁kysyivät	-3803
▁kyynärän	-3804
▁oikealla	-3805
▁totuuden	-3806
▁tyttären	-3807
▁lähteneet	-3808
▁pyhäkössä	-3809
▁sukukunta	-3810
▁taivaassa	-3811
▁neljäsataa	-3812
▁vankeuteen	-3813
▁amorilaisten	-3814
eka	-3815
kke	-3816
Onko	-3817
Puhu	-3818
kona	-3819
siin	-3820
udet	-3821
ujen	-3822
ukan	-3823
utuu	-3824
▁Ruu	-3825
▁Sel	-3826
▁Ter	-3827
▁pik	-3828
oksen	-3829
äältä	-3830
▁Etel	-3831
▁Leev	-3832
▁astu	-3833
▁jous	-3834
▁järj	-3835
▁lahj	-3836
▁pian	-3837
▁sama	-3838
▁teit	-3839
▁vasi	-3840
▁veri	-3841
anille	-3842
ellesi	-3843
tyivät	-3844
änneet	-3845
▁tutki	-3846
▁vaatt	-3847
▁Aramin	-3848
▁emmekä	-3849
▁hurska	-3850
▁lampun	-3851
▁lepoon	-3852
▁lunast	-3853
▁lähteä	-3854
▁muurin	-3855
▁palaja	-3856
▁suusta	-3857
▁vannot	-3858
▁alttari	-3859
▁lahjoja	-3860
▁puhdista	-3861
▁rannalla	-3862
▁tarvitse	-3863
▁pakenivat	-3864
▁temppeliä	-3865
▁ihmislapsi	-3866
▁itsellenne	-3867
▁palvelijoi	-3868
▁Aabrahamille	-3869
▁vanhurskautta	-3870
ii	-3871
▁u	-3872
▁Yl	-3873
Anna	-3874
elia	-3875
jata	-3876
kana	-3877
olta	-3878
▁Bar	-3879
▁häv	-3880
▁sär	-3881
Jumal	-3882
ellut	-3883
▁Sime	-3884
▁arpa	-3885
▁koti	-3886
essäni	-3887
ikseen	-3888
laisia	-3889
mittaa	-3890
stansa	-3891
takoon	-3892
▁Mooab	-3893
▁annat	-3894
▁hoita	-3895
▁kadot	-3896
▁kädes	-3897
▁lanke	-3898
▁pelto	-3899
▁pilvi	-3900
▁velje	-3901
uksella	-3902
▁Eufrat	-3903
▁Haaman	-3904
▁Ruuben	-3905
▁joista	-3906
▁kuulia	-3907
▁kuulin	-3908
▁oikeus	-3909
▁rauhaa	-3910
▁sotavä	-3911
▁tiellä	-3912
▁valmis	-3913
▁viinin	-3914
▁Iisakin	-3915
▁oinasta	-3916
▁siunasi	-3917
▁talossa	-3918
▁tarkoin	-3919
▁Moosesta	-3920
▁hedelmän	-3921
▁joukosta	-3922
▁kutsunut	-3923
▁lampaita	-3924
▁	-3925
a	-3926
i	-3927
n	-3928
e	-3929
t	-3930
s	-3931
l	-3932
ä	-3933
k	-3934
u	-3935
o	-3936
m	-3937
h	-3938
v	-3939
r	-3940
j	-3941
,	-3942
p	-3943
y	-3944
.	-3945
d	-3946
J	-3947
H	-3948
"	-3949
ö	-3950
S	-3951
:	-3952
M	-3953
;	-3954
K	-3955
b	-3956
g	-3957
N	-3958
A	-3959
E	-3960
I	-3961
?	-3962
f	-3963
T	-3964
`	-3965
-	-3966
P	-3967
B	-3968
D	-3969
V	-3970
!	-3971
O	-3972
G	-3973
R	-3974
L	-3975
Ä	-3976
U	-3977
Y	-3978
F	-3979
1	-3980
[	-3981
]	-3982
3	-3983
2	-3984
4	-3985
9	-3986
0	-3987
5	-3988
(	-3989
)	-3990
8	-3991
6	-3992
7	-3993
Ö	-3994
Z	-3995
/	-3996
