<pad>	0
</s>	0
<unk>	0
▁p	-0
ti	-1
ai	-2
ri	-3
os	-4
▁k	-5
▁s	-6
in	-7
au	-8
as	-9
▁t	-10
ar	-11
ir	-12
al	-13
▁n	-14
is	-15
im	-16
an	-17
en	-18
▁d	-19
am	-20
us	-21
▁v	-22
▁ir	-23
ei	-24
at	-25
▁b	-26
ad	-27
om	-28
ij	-29
es	-30
▁m	-31
ro	-32
ių	-33
on	-34
ės	-35
ek	-36
▁g	-37
tin	-38
oj	-39
er	-40
uri	-41
li	-42
ra	-43
▁š	-44
▁su	-45
▁į	-46
▁j	-47
▁kad	-48
eik	-49
▁pa	-50
tų	-51
▁E	-52
tik	-53
▁pri	-54
či	-55
iš	-56
▁r	-57
yb	-58
▁ne	-59
aus	-60
▁a	-61
em	-62
▁l	-63
um	-64
st	-65
uo	-66
▁pas	-67
▁T	-68
av	-69
uro	-70
ėl	-71
et	-72
▁iš	-73
▁at	-74
▁P	-75
rin	-76
▁tai	-77
▁kuri	-78
urop	-79
ki	-80
ijos	-81
▁Europ	-82
or	-83
aug	-84
arb	-85
ta	-86
▁K	-87
ant	-88
to	-89
▁ši	-90
ur	-91
▁Europos	-92
▁bū	-93
ži	-94
imo	-95
ėj	-96
el	-97
end	-98
▁y	-99
ais	-100
▁ap	-101
id	-102
▁ž	-103
▁vis	-104
eis	-105
omis	-106
yv	-107
▁gal	-108
▁pat	-109
už	-110
▁dėl	-111
gi	-112
▁pr	-113
▁pro	-114
▁tik	-115
▁už	-116
▁po	-117
▁kai	-118
ie	-119
ink	-120
ab	-121
min	-122
▁to	-123
oje	-124
ym	-125
ien	-126
▁yra	-127
yti	-128
▁S	-129
cij	-130
ėm	-131
eš	-132
▁-	-133
usi	-134
tu	-135
ak	-136
ok	-137
un	-138
aik	-139
iek	-140
▁val	-141
čiau	-142
uos	-143
si	-144
tas	-145
imą	-146
io	-147
▁re	-148
▁in	-149
▁teis	-150
ia	-151
pr	-152
imas	-153
tr	-154
▁sk	-155
yk	-156
▁sv	-157
▁A	-158
▁B	-159
▁pir	-160
ui	-161
ama	-162
▁turi	-163
laus	-164
aud	-165
▁par	-166
ci	-167
▁f	-168
▁pad	-169
▁M	-170
gal	-171
ūs	-172
lam	-173
▁Komis	-174
styb	-175
auj	-176
▁reik	-177
ing	-178
te	-179
ame	-180
tis	-181
vo	-182
lamen	-183
rim	-184
ąj	-185
▁(	-186
ung	-187
od	-188
▁valstyb	-189
ys	-190
čių	-191
cijos	-192
minink	-193
il	-194
toj	-195
ams	-196
▁daug	-197
▁J	-198
ik	-199
inti	-200
▁šal	-201
iu	-202
▁V	-203
▁sav	-204
až	-205
▁veik	-206
▁kaip	-207
▁klaus	-208
▁nes	-209
je	-210
kai	-211
▁taip	-212
tar	-213
▁svarb	-214
▁bend	-215
ari	-216
▁lab	-217
▁poli	-218
iai	-219
and	-220
▁per	-221
tą	-222
ėtų	-223
aneš	-224
▁N	-225
ime	-226
ija	-227
ąjung	-228
og	-229
ūsų	-230
ūr	-231
▁Par	-232
sti	-233
▁o	-234
▁D	-235
▁darb	-236
uvo	-237
▁Parlamen	-238
▁tur	-239
▁Tai	-240
▁praneš	-241
▁ES	-242
▁Sąjung	-243
tos	-244
▁did	-245
ov	-246
ans	-247
ėti	-248
▁kon	-249
▁2	-250
▁būti	-251
amas	-252
▁pirminink	-253
esn	-254
▁nar	-255
yje	-256
▁G	-257
▁būtų	-258
▁sus	-259
ol	-260
▁Š	-261
▁ats	-262
dži	-263
tat	-264
▁nor	-265
▁pasi	-266
yg	-267
▁man	-268
▁pag	-269
iau	-270
jų	-271
uom	-272
me	-273
▁savo	-274
▁nep	-275
umo	-276
mon	-277
eli	-278
eg	-279
▁ek	-280
▁vien	-281
▁labai	-282
ami	-283
▁apie	-284
inių	-285
ios	-286
oms	-287
▁buvo	-288
tai	-289
▁ki	-290
eng	-291
rink	-292
ej	-293
▁dar	-294
▁dal	-295
anči	-296
▁bendr	-297
sl	-298
▁siek	-299
uk	-300
▁susi	-301
ūl	-302
▁tar	-303
ems	-304
emon	-305
šk	-306
ties	-307
ačiau	-308
▁R	-309
ul	-310
▁pak	-311
▁galim	-312
tim	-313
auk	-314
▁laik	-315
▁ar	-316
ybos	-317
▁prie	-318
ius	-319
eig	-320
▁met	-321
onom	-322
▁mūsų	-323
iz	-324
ėčiau	-325
▁priemon	-326
▁tr	-327
ist	-328
▁įv	-329
ank	-330
▁pl	-331
alb	-332
tink	-333
▁politik	-334
▁20	-335
▁nuo	-336
▁Komisijos	-337
inės	-338
ekt	-339
▁L	-340
ed	-341
tikrin	-342
amos	-343
▁Tar	-344
pa	-345
aid	-346
▁nari	-347
▁spr	-348
ėms	-349
iaus	-350
▁ekonom	-351
avimo	-352
tum	-353
▁ver	-354
▁pirmininke	-355
ome	-356
uoti	-357
▁rink	-358
oti	-359
men	-360
▁I	-361
raš	-362
one	-363
oma	-364
inans	-365
▁veiks	-366
ori	-367
ili	-368
vir	-369
▁nauj	-370
▁bet	-371
▁mok	-372
▁proc	-373
▁užtikrin	-374
als	-375
imų	-376
cial	-377
▁kom	-378
▁bus	-379
▁aps	-380
▁finans	-381
ap	-382
▁gr	-383
▁mes	-384
orm	-385
isk	-386
▁kar	-387
jos	-388
▁naud	-389
žv	-390
acij	-391
yst	-392
ent	-393
▁net	-394
▁sri	-395
▁tarp	-396
ang	-397
▁pasiūl	-398
▁es	-399
ums	-400
rind	-401
▁1	-402
▁reikal	-403
▁gyv	-404
ymo	-405
▁pav	-406
ėjo	-407
odėl	-408
eri	-409
bl	-410
▁str	-411
▁są	-412
▁sprend	-413
▁žmon	-414
abar	-415
ter	-416
▁"	-417
ch	-418
var	-419
ėk	-420
▁skir	-421
▁tikr	-422
riz	-423
▁nus	-424
▁var	-425
▁sud	-426
▁kurios	-427
uoj	-428
▁pateik	-429
▁vyk	-430
▁kalb	-431
▁jų	-432
gyv	-433
▁gali	-434
▁pagrind	-435
▁jau	-436
▁reikia	-437
lik	-438
imus	-439
▁so	-440
gr	-441
▁pagal	-442
▁kurie	-443
▁norėčiau	-444
▁valstybės	-445
tarim	-446
imu	-447
▁Sąjungos	-448
▁taik	-449
ektyv	-450
▁sieki	-451
▁dir	-452
blem	-453
oki	-454
form	-455
▁prieš	-456
uomen	-457
▁darbo	-458
istem	-459
tus	-460
tyje	-461
eči	-462
tori	-463
▁ger	-464
▁galimyb	-465
stitu	-466
iškai	-467
erg	-468
uose	-469
enk	-470
▁pirm	-471
kur	-472
▁Komisija	-473
ini	-474
gyvend	-475
tume	-476
▁problem	-477
▁sistem	-478
▁ak	-479
▁susij	-480
▁pal	-481
▁sut	-482
ting	-483
▁turėtų	-484
ag	-485
▁Parlamento	-486
▁saug	-487
▁tiksl	-488
▁disk	-489
▁as	-490
tina	-491
val	-492
▁jos	-493
▁Todėl	-494
▁įgyvend	-495
▁e	-496
▁pili	-497
▁kur	-498
▁turime	-499
▁ypa	-500
▁toki	-501
it	-502
▁apsaug	-503
▁me	-504
ški	-505
rak	-506
ūros	-507
▁bals	-508
ėmis	-509
umą	-510
▁maž	-511
kr	-512
▁paž	-513
veik	-514
tinės	-515
eto	-516
▁įsi	-517
ies	-518
išk	-519
▁rez	-520
do	-521
▁Ši	-522
▁en	-523
▁atv	-524
▁Man	-525
▁keli	-526
▁dabar	-527
▁gyven	-528
▁narių	-529
ose	-530
žvel	-531
▁social	-532
▁susitarim	-533
▁institu	-534
▁ti	-535
▁šį	-536
▁pasiūlym	-537
▁energ	-538
▁im	-539
lyg	-540
▁pon	-541
▁valstybių	-542
▁atsi	-543
▁ji	-544
▁šiuo	-545
▁atsak	-546
tį	-547
▁regi	-548
▁Tačiau	-549
ūk	-550
atin	-551
▁ekonomik	-552
▁Pir	-553
yn	-554
tojų	-555
imai	-556
▁ypač	-557
▁nei	-558
▁teisės	-559
ėra	-560
por	-561
▁200	-562
▁ai	-563
▁i	-564
▁pasau	-565
▁nustat	-566
dž	-567
oli	-568
aip	-569
▁užtikrinti	-570
▁metu	-571
tinių	-572
▁suteik	-573
amą	-574
▁neb	-575
▁tačiau	-576
▁Pone	-577
▁Taryb	-578
▁žin	-579
dami	-580
▁sek	-581
dėl	-582
ming	-583
▁tink	-584
▁pab	-585
ųjų	-586
cija	-587
▁išs	-588
▁daugiau	-589
▁veiksm	-590
▁narės	-591
inę	-592
▁prek	-593
iet	-594
▁reg	-595
ėje	-596
ateg	-597
▁priim	-598
inio	-599
▁pasiek	-600
▁min	-601
pras	-602
ybės	-603
acijos	-604
▁mums	-605
▁prad	-606
erb	-607
iją	-608
ančių	-609
du	-610
▁tam	-611
▁bei	-612
▁pasak	-613
rik	-614
aš	-615
rė	-616
par	-617
▁pask	-618
erin	-619
tari	-620
adarb	-621
link	-622
▁kuris	-623
▁region	-624
ud	-625
.,	-626
▁šios	-627
ykl	-628
tau	-629
▁negal	-630
▁Vis	-631
▁bendradarb	-632
▁politikos	-633
▁te	-634
▁nėra	-635
▁kriz	-636
riaus	-637
trauk	-638
virtin	-639
mog	-640
ob	-641
emok	-642
▁aš	-643
▁kl	-644
inimo	-645
▁be	-646
imui	-647
▁siekiant	-648
▁lyg	-649
inink	-650
ojo	-651
iudž	-652
▁diskus	-653
aisv	-654
▁todėl	-655
▁strateg	-656
▁aplink	-657
ėmes	-658
aig	-659
ęs	-660
▁vy	-661
ėtume	-662
amų	-663
▁pan	-664
▁sąlyg	-665
▁kiek	-666
ėn	-667
▁gam	-668
sn	-669
▁sutar	-670
▁ati	-671
▁inform	-672
žiū	-673
arba	-674
▁mano	-675
▁teisių	-676
tab	-677
▁dėmes	-678
liau	-679
▁žmog	-680
amai	-681
cijų	-682
avimą	-683
▁Taip	-684
ijoje	-685
avimas	-686
ciją	-687
▁ties	-688
▁kas	-689
▁sum	-690
▁atvej	-691
▁nuom	-692
▁biudž	-693
▁kel	-694
andien	-695
▁visi	-696
▁sektori	-697
▁Nor	-698
▁demok	-699
▁žem	-700
▁nuos	-701
▁laisv	-702
▁Gerb	-703
▁vid	-704
▁tiek	-705
▁padar	-706
▁atsižvel	-707
uv	-708
▁progr	-709
▁šalių	-710
▁svarbu	-711
▁srityje	-712
anti	-713
▁bendradarbi	-714
▁manau	-715
▁C	-716
uosi	-717
cion	-718
auti	-719
antis	-720
▁visų	-721
▁Be	-722
▁ko	-723
▁iki	-724
▁jie	-725
▁ab	-726
aniz	-727
eid	-728
▁ly	-729
ečių	-730
▁šio	-731
▁tais	-732
▁sp	-733
▁viet	-734
vark	-735
▁arba	-736
eitim	-737
▁sveik	-738
▁ekonomikos	-739
▁teik	-740
▁frak	-741
ėme	-742
▁dv	-743
▁Parlamentas	-744
iausia	-745
▁plė	-746
▁komit	-747
▁mo	-748
▁didel	-749
▁or	-750
▁Pirminink	-751
▁si	-752
ėg	-753
▁prival	-754
ymą	-755
asi	-756
mės	-757
▁kol	-758
▁tarptau	-759
yta	-760
yrim	-761
▁jis	-762
▁der	-763
rov	-764
mo	-765
▁naudoj	-766
▁kurių	-767
▁sudar	-768
▁li	-769
▁padė	-770
▁veikl	-771
ęsti	-772
▁auk	-773
▁rem	-774
▁na	-775
▁žmogaus	-776
▁galima	-777
rib	-778
▁šių	-779
inis	-780
▁mėn	-781
damas	-782
▁metų	-783
ub	-784
ukt	-785
ausi	-786
žiūri	-787
ež	-788
rėž	-789
▁klausimas	-790
vien	-791
▁vykd	-792
tek	-793
oliu	-794
▁išl	-795
ūki	-796
▁st	-797
osios	-798
▁Tarybos	-799
▁raš	-800
▁vie	-801
▁priemonių	-802
▁suk	-803
▁direktyv	-804
▁ką	-805
cional	-806
▁dalyv	-807
▁skatin	-808
inį	-809
▁kurį	-810
▁taisykl	-811
▁požiūri	-812
eip	-813
umas	-814
▁jei	-815
giant	-816
yse	-817
▁žmonių	-818
ato	-819
▁įmon	-820
čia	-821
▁didži	-822
▁vad	-823
cip	-824
▁demokra	-825
▁visiškai	-826
atyv	-827
▁laiko	-828
avo	-829
▁pranešimą	-830
▁Mes	-831
▁proj	-832
▁inter	-833
▁veiksmų	-834
ymas	-835
osi	-836
tip	-837
inga	-838
▁prin	-839
▁princip	-840
dama	-841
▁šią	-842
up	-843
▁ry	-844
▁Sąjunga	-845
ada	-846
▁susijusi	-847
▁įgyvendin	-848
▁patvirtin	-849
sp	-850
▁sun	-851
▁įvai	-852
▁Manau	-853
▁pasakyti	-854
tn	-855
▁vertin	-856
ijai	-857
inius	-858
tijos	-859
▁pasaul	-860
lio	-861
pareig	-862
▁šis	-863
▁vyriaus	-864
▁trans	-865
▁įst	-866
▁proces	-867
▁visuomen	-868
▁galėtų	-869
▁jo	-870
▁pasir	-871
00	-872
rag	-873
▁el	-874
▁ned	-875
rijos	-876
▁Ž	-877
kir	-878
ystės	-879
tro	-880
▁pakeitim	-881
paž	-882
▁pris	-883
onos	-884
▁rezoliu	-885
▁energijos	-886
ves	-887
▁toliau	-888
ep	-889
ybę	-890
eigu	-891
▁org	-892
porto	-893
▁atei	-894
▁vald	-895
▁raštu	-896
iausiai	-897
▁pap	-898
▁šiandien	-899
čiai	-900
▁pagalb	-901
▁plan	-902
▁kr	-903
aist	-904
▁prod	-905
▁politin	-906
▁aiški	-907
▁kov	-908
▁pilieči	-909
ijų	-910
▁apsaugos	-911
eisti	-912
▁nacional	-913
ytų	-914
sta	-915
▁asmen	-916
uli	-917
engti	-918
▁dirb	-919
▁aug	-920
▁tyrim	-921
▁Pon	-922
▁varto	-923
▁tap	-924
▁nors	-925
▁žemės	-926
▁kok	-927
▁sumaž	-928
laug	-929
teb	-930
olog	-931
▁Pr	-932
vz	-933
▁sukur	-934
ib	-935
yl	-936
▁padėti	-937
▁konkur	-938
▁sveikat	-939
ici	-940
avau	-941
▁atlik	-942
▁koki	-943
▁pranešėj	-944
▁fon	-945
aliz	-946
▁Pri	-947
chn	-948
ūp	-949
▁įtrauk	-950
utin	-951
žin	-952
▁vaid	-953
eb	-954
▁Aš	-955
arin	-956
onės	-957
usių	-958
▁reglamen	-959
▁prekybos	-960
tais	-961
▁įvyk	-962
▁užd	-963
eidži	-964
zi	-965
▁rei	-966
▁sak	-967
▁paslaug	-968
▁didesn	-969
▁Norėčiau	-970
▁tok	-971
▁veiksming	-972
kiai	-973
giu	-974
ultat	-975
▁ūki	-976
aišk	-977
▁nu	-978
▁klausimą	-979
▁rinkos	-980
▁Taryba	-981
▁kartu	-982
pareigoj	-983
ėš	-984
ig	-985
▁būtina	-986
▁techn	-987
▁jog	-988
▁dalyk	-989
▁rezultat	-990
tiprin	-991
ja	-992
vai	-993
▁nori	-994
kait	-995
omas	-996
man	-997
▁atveju	-998
acija	-999
▁organiz	-1000
ina	-1001
▁pam	-1002
ančios	-1003
▁projek	-1004
▁il	-1005
▁Europoje	-1006
▁Dėl	-1007
ines	-1008
čio	-1009
▁darbuo	-1010
▁ponai	-1011
iais	-1012
▁dr	-1013
▁jūsų	-1014
▁inves	-1015
▁moksl	-1016
▁padėk	-1017
ver	-1018
isab	-1019
▁poveik	-1020
▁nusi	-1021
▁kuriuos	-1022
▁tuo	-1023
▁klim	-1024
▁produk	-1025
iuosi	-1026
▁pram	-1027
▁klausimu	-1028
▁konkuren	-1029
▁atst	-1030
▁geri	-1031
elio	-1032
ens	-1033
ėjimo	-1034
▁pritari	-1035
▁num	-1036
▁Lisab	-1037
▁kurią	-1038
yz	-1039
▁ištek	-1040
▁kartą	-1041
ingas	-1042
etas	-1043
etą	-1044
▁pati	-1045
žas	-1046
▁Kaip	-1047
▁aukš	-1048
kiri	-1049
▁201	-1050
▁inici	-1051
▁lėš	-1052
▁skai	-1053
▁vardu	-1054
klaus	-1055
▁svarbus	-1056
▁susid	-1057
▁iniciatyv	-1058
▁nel	-1059
ug	-1060
▁dėmesį	-1061
▁praš	-1062
▁dėlto	-1063
▁plėtr	-1064
▁Lisabonos	-1065
▁grei	-1066
▁pvz	-1067
▁Bend	-1068
tojams	-1069
▁priežas	-1070
▁vaik	-1071
▁F	-1072
▁susitik	-1073
▁vyst	-1074
▁partn	-1075
▁pasiekti	-1076
▁klimato	-1077
▁tarptautin	-1078
▁maist	-1079
▁du	-1080
▁išv	-1081
▁mokes	-1082
▁konkr	-1083
▁Ar	-1084
▁pabrėž	-1085
▁pirma	-1086
▁Ponia	-1087
tent	-1088
▁duomen	-1089
▁padid	-1090
▁biudžeto	-1091
▁ūkio	-1092
rod	-1093
▁kitų	-1094
▁šalim	-1095
▁no	-1096
▁padėkoti	-1097
eigi	-1098
▁koleg	-1099
▁piliečių	-1100
▁įsipareigoj	-1101
▁An	-1102
ven	-1103
imt	-1104
etin	-1105
▁frakcijos	-1106
▁Turi	-1107
▁Pirmininke	-1108
▁Ki	-1109
ingai	-1110
▁siūl	-1111
bū	-1112
▁pripaž	-1113
čius	-1114
▁galimybę	-1115
▁H	-1116
▁būtin	-1117
tikos	-1118
▁imtis	-1119
▁asp	-1120
žiūr	-1121
▁numat	-1122
DE	-1123
▁kain	-1124
▁priemones	-1125
▁proced	-1126
▁tikrųjų	-1127
omos	-1128
▁di	-1129
▁sm	-1130
esi	-1131
žvil	-1132
iniai	-1133
▁atžvil	-1134
20	-1135
▁Šiuo	-1136
▁past	-1137
ima	-1138
▁ponios	-1139
▁atstov	-1140
▁kontro	-1141
aipsn	-1142
tarp	-1143
▁lygmen	-1144
tuoj	-1145
tui	-1146
▁labiau	-1147
inimą	-1148
▁Gal	-1149
▁pavyz	-1150
▁grup	-1151
▁palaik	-1152
auja	-1153
▁pastang	-1154
▁politiką	-1155
▁sant	-1156
▁ml	-1157
▁rag	-1158
▁vadov	-1159
▁paj	-1160
imais	-1161
omi	-1162
lių	-1163
▁aišk	-1164
▁įvairi	-1165
▁au	-1166
▁ant	-1167
▁saugumo	-1168
rodo	-1169
laud	-1170
fik	-1171
▁tvark	-1172
▁lygi	-1173
tel	-1174
▁svar	-1175
▁įgyvendinti	-1176
▁At	-1177
liek	-1178
škia	-1179
▁moter	-1180
▁atžvilgiu	-1181
kal	-1182
džio	-1183
▁kri	-1184
▁pra	-1185
angi	-1186
▁įs	-1187
▁3	-1188
▁pateikti	-1189
ain	-1190
▁finansų	-1191
ult	-1192
▁pranešime	-1193
lės	-1194
▁U	-1195
▁rib	-1196
▁niek	-1197
▁vieš	-1198
ažn	-1199
iam	-1200
▁jeigu	-1201
▁atitink	-1202
ino	-1203
▁būd	-1204
mok	-1205
šal	-1206
▁darbą	-1207
▁transporto	-1208
aži	-1209
aciją	-1210
iniu	-1211
▁kiekvien	-1212
tojai	-1213
▁sveikatos	-1214
ild	-1215
elb	-1216
▁pozi	-1217
▁aiškiai	-1218
▁svarst	-1219
umen	-1220
sime	-1221
▁nepri	-1222
▁por	-1223
▁čia	-1224
▁ank	-1225
▁Jung	-1226
▁pavoj	-1227
▁teigi	-1228
▁Bals	-1229
▁abej	-1230
▁dok	-1231
šti	-1232
▁padaryti	-1233
▁mat	-1234
▁žod	-1235
▁neturi	-1236
▁vidaus	-1237
tok	-1238
▁šioje	-1239
▁šv	-1240
▁pažang	-1241
▁krizės	-1242
▁pareig	-1243
▁Iš	-1244
▁priklaus	-1245
▁aplinkos	-1246
ioj	-1247
▁vaidmen	-1248
▁laikotarp	-1249
▁parod	-1250
▁vert	-1251
ez	-1252
▁tek	-1253
▁atsižvelg	-1254
▁Rus	-1255
▁galime	-1256
▁gri	-1257
▁valdži	-1258
▁nuostat	-1259
▁priemonės	-1260
erinti	-1261
▁vienas	-1262
▁sukurti	-1263
▁sunk	-1264
isak	-1265
kreip	-1266
▁Tur	-1267
▁steb	-1268
▁ef	-1269
▁Gr	-1270
eišk	-1271
andar	-1272
▁skiri	-1273
▁deryb	-1274
▁politika	-1275
▁priimti	-1276
audoti	-1277
vaiz	-1278
▁Europa	-1279
▁pui	-1280
ytas	-1281
inimas	-1282
rij	-1283
▁siekiama	-1284
gai	-1285
įst	-1286
▁konf	-1287
▁išlaid	-1288
▁negali	-1289
▁maisto	-1290
▁visiems	-1291
ūrim	-1292
▁nustatyti	-1293
kl	-1294
tinai	-1295
▁sistemos	-1296
▁netur	-1297
▁standar	-1298
▁turėtume	-1299
ut	-1300
▁kil	-1301
▁gerb	-1302
▁komp	-1303
dar	-1304
▁jūs	-1305
▁ner	-1306
▁pasaulio	-1307
▁jums	-1308
ijas	-1309
▁tiesio	-1310
▁ge	-1311
▁O	-1312
cijas	-1313
▁dažn	-1314
▁lai	-1315
▁Sąjungoje	-1316
lob	-1317
▁viena	-1318
ėja	-1319
▁požiūriu	-1320
egal	-1321
▁maži	-1322
▁mas	-1323
▁užs	-1324
▁interes	-1325
škai	-1326
▁nuol	-1327
▁komiteto	-1328
▁šiame	-1329
ertin	-1330
din	-1331
▁pabrėžti	-1332
žiaug	-1333
yr	-1334
▁fond	-1335
▁pini	-1336
met	-1337
▁Af	-1338
ienio	-1339
▁Su	-1340
▁technolog	-1341
▁c	-1342
tarti	-1343
▁klausimus	-1344
ali	-1345
▁dien	-1346
▁op	-1347
▁rim	-1348
▁tikrai	-1349
gų	-1350
▁skaid	-1351
▁reiškia	-1352
rime	-1353
ūn	-1354
▁priori	-1355
▁atkreip	-1356
▁reform	-1357
▁inte	-1358
▁pači	-1359
ėsime	-1360
tyv	-1361
▁Pirm	-1362
▁straipsn	-1363
▁papild	-1364
žiūros	-1365
▁reikalav	-1366
▁nen	-1367
▁institucijos	-1368
▁turin	-1369
▁Dabar	-1370
▁neį	-1371
▁svarbi	-1372
ūrų	-1373
▁sudė	-1374
▁poreik	-1375
▁jį	-1376
kaitant	-1377
▁sėk	-1378
▁stab	-1379
▁įstat	-1380
UR	-1381
▁Bū	-1382
▁metus	-1383
▁kuriuo	-1384
▁nuro	-1385
▁kurias	-1386
▁šalyse	-1387
omų	-1388
acijų	-1389
▁atsakom	-1390
▁prisid	-1391
▁atliek	-1392
▁ūk	-1393
engv	-1394
▁vyriausyb	-1395
ingsn	-1396
▁valstybėse	-1397
▁energe	-1398
▁kurioje	-1399
ris	-1400
unk	-1401
ąją	-1402
▁br	-1403
▁savai	-1404
▁Pas	-1405
▁pagr	-1406
▁Tarybai	-1407
▁žingsn	-1408
ati	-1409
▁nuomon	-1410
▁kurio	-1411
▁šiuos	-1412
ingumo	-1413
▁padėtį	-1414
▁teises	-1415
auki	-1416
▁Taigi	-1417
racijos	-1418
dyti	-1419
▁atsižvelgiant	-1420
riklaus	-1421
".	-1422
▁šalies	-1423
▁5	-1424
▁juos	-1425
▁tvir	-1426
▁įskaitant	-1427
▁rek	-1428
▁dokumen	-1429
▁visuomenės	-1430
rikos	-1431
▁institucijų	-1432
akar	-1433
▁nariai	-1434
▁nuomone	-1435
ėjimą	-1436
ėte	-1437
▁griež	-1438
su	-1439
▁h	-1440
▁reguli	-1441
▁remi	-1442
▁patik	-1443
ras	-1444
▁žmonės	-1445
▁šalis	-1446
▁Parlamente	-1447
uol	-1448
▁pasin	-1449
▁plėtros	-1450
▁Turime	-1451
▁Bal	-1452
yba	-1453
ingi	-1454
taik	-1455
▁efektyv	-1456
▁pareišk	-1457
▁jud	-1458
▁visos	-1459
▁valstybėms	-1460
oji	-1461
varst	-1462
▁šalys	-1463
▁diskusijos	-1464
▁bank	-1465
kivaiz	-1466
▁sistemą	-1467
▁kal	-1468
▁priėm	-1469
op	-1470
gent	-1471
▁investi	-1472
▁EUR	-1473
▁nek	-1474
▁aspek	-1475
▁kult	-1476
ymu	-1477
▁spręsti	-1478
▁pasiūlymą	-1479
▁mėnes	-1480
▁pers	-1481
▁jiems	-1482
▁nusikal	-1483
agrin	-1484
▁žv	-1485
▁ateityje	-1486
umų	-1487
▁kovo	-1488
▁žinoma	-1489
ūrin	-1490
▁panaik	-1491
uje	-1492
▁Val	-1493
▁pos	-1494
▁leis	-1495
▁pras	-1496
▁ragin	-1497
▁versl	-1498
▁nuk	-1499
▁įvertin	-1500
▁skur	-1501
▁pasaulyje	-1502
▁lygmeniu	-1503
▁ją	-1504
▁pranešimo	-1505
ytis	-1506
▁strukt	-1507
tvark	-1508
ėd	-1509
▁suteikti	-1510
yd	-1511
ano	-1512
tra	-1513
anc	-1514
▁papras	-1515
▁teisę	-1516
yp	-1517
▁priežiūros	-1518
▁svarbiaus	-1519
▁nebuvo	-1520
▁sub	-1521
džiai	-1522
▁stiprin	-1523
▁moterų	-1524
▁nepriklaus	-1525
▁apib	-1526
istr	-1527
▁daugel	-1528
▁dalis	-1529
▁lygio	-1530
▁būtent	-1531
▁pirmininkauj	-1532
▁metais	-1533
▁kitos	-1534
ūm	-1535
▁skatinti	-1536
▁srit	-1537
▁Jei	-1538
▁al	-1539
ytos	-1540
▁Šis	-1541
▁partner	-1542
▁pirmiausia	-1543
▁atas	-1544
iej	-1545
iden	-1546
▁prak	-1547
▁pastar	-1548
▁4	-1549
aisant	-1550
pl	-1551
▁Kin	-1552
▁valdžios	-1553
▁energetikos	-1554
▁Bendrijos	-1555
▁geresn	-1556
▁vaidmenį	-1557
▁jaun	-1558
amo	-1559
▁tikslas	-1560
ėjusi	-1561
▁taisyklių	-1562
▁pranešimas	-1563
liai	-1564
▁atskir	-1565
alog	-1566
▁sąlygas	-1567
▁veiklos	-1568
▁dabartin	-1569
tak	-1570
▁kuriame	-1571
▁joki	-1572
lo	-1573
▁išr	-1574
▁pareng	-1575
yki	-1576
▁agent	-1577
Europ	-1578
▁form	-1579
▁skirti	-1580
▁aut	-1581
▁vėl	-1582
čiaus	-1583
audoj	-1584
▁gar	-1585
audži	-1586
▁ad	-1587
antys	-1588
timi	-1589
ančius	-1590
",	-1591
▁trūk	-1592
mas	-1593
▁susitarimo	-1594
▁noriu	-1595
▁prisi	-1596
ūrą	-1597
▁Mano	-1598
▁esu	-1599
▁am	-1600
engi	-1601
oju	-1602
▁kuo	-1603
▁tol	-1604
▁baig	-1605
▁problema	-1606
▁skaidr	-1607
▁buv	-1608
▁pritariu	-1609
ate	-1610
str	-1611
▁narys	-1612
▁problemų	-1613
▁lik	-1614
▁šie	-1615
asis	-1616
▁gerai	-1617
▁sumažinti	-1618
▁narėse	-1619
▁vietos	-1620
▁nary	-1621
sižvel	-1622
prend	-1623
ūra	-1624
ąjį	-1625
tiškai	-1626
▁vieną	-1627
tokol	-1628
ėjome	-1629
▁pagalbos	-1630
▁narėms	-1631
▁daugum	-1632
▁tau	-1633
ic	-1634
▁paslaugų	-1635
ūz	-1636
▁išteklių	-1637
▁teiki	-1638
▁piliečiams	-1639
ymų	-1640
timo	-1641
eja	-1642
tij	-1643
ingos	-1644
▁šalims	-1645
▁išsi	-1646
▁mln	-1647
ėjau	-1648
▁soli	-1649
▁ryš	-1650
▁paramos	-1651
az	-1652
▁privalo	-1653
▁produktų	-1654
abai	-1655
manoma	-1656
eln	-1657
▁teri	-1658
▁darbuotojų	-1659
▁Žin	-1660
▁oro	-1661
▁mil	-1662
▁vartotojų	-1663
▁kit	-1664
taip	-1665
▁skub	-1666
▁bendrą	-1667
▁dialog	-1668
▁konkurenc	-1669
▁perd	-1670
▁tiesų	-1671
tinio	-1672
anglaud	-1673
ump	-1674
▁konkreči	-1675
▁norime	-1676
pręsti	-1677
▁paramą	-1678
inam	-1679
uoja	-1680
▁direktyvos	-1681
irūp	-1682
▁kons	-1683
▁kuriais	-1684
▁lėšų	-1685
▁išn	-1686
▁aktyv	-1687
▁spe	-1688
▁is	-1689
mę	-1690
▁2009	-1691
ine	-1692
▁mod	-1693
▁tero	-1694
▁įgal	-1695
▁stat	-1696
▁aktų	-1697
▁neat	-1698
▁geriau	-1699
▁perk	-1700
ko	-1701
▁Kalb	-1702
▁kuriose	-1703
irš	-1704
▁Turk	-1705
▁sudėting	-1706
ėjimas	-1707
cijai	-1708
▁protokol	-1709
▁kelia	-1710
uosius	-1711
▁sien	-1712
▁mokesčių	-1713
ac	-1714
▁visus	-1715
▁priv	-1716
▁daryti	-1717
AV	-1718
▁solidar	-1719
yla	-1720
▁atlikti	-1721
▁turėti	-1722
log	-1723
▁srityse	-1724
▁tiesiog	-1725
▁tarn	-1726
▁band	-1727
▁Ai	-1728
▁pok	-1729
▁pradėti	-1730
▁bendrov	-1731
▁visas	-1732
▁neg	-1733
▁pus	-1734
▁įsitik	-1735
▁mažiau	-1736
▁Balsavau	-1737
▁klausimų	-1738
▁parlamen	-1739
ancūz	-1740
▁gauti	-1741
▁dažnai	-1742
▁poveikį	-1743
▁sprendimą	-1744
▁sistema	-1745
▁pramonės	-1746
lius	-1747
▁esmės	-1748
▁pakank	-1749
▁skirting	-1750
▁z	-1751
▁Teis	-1752
▁nurod	-1753
▁pažeid	-1754
atų	-1755
▁nepak	-1756
▁bendro	-1757
ėsi	-1758
inant	-1759
▁patir	-1760
ordin	-1761
iems	-1762
uotų	-1763
▁duomenų	-1764
prant	-1765
▁pagrindinių	-1766
usios	-1767
▁padarin	-1768
tišk	-1769
▁ras	-1770
▁padėtis	-1771
▁gyventojų	-1772
▁švie	-1773
▁naujų	-1774
rizik	-1775
▁Ir	-1776
▁Vien	-1777
omend	-1778
▁vand	-1779
ymosi	-1780
ingą	-1781
▁valdymo	-1782
▁reikalų	-1783
▁žmonėms	-1784
▁19	-1785
▁ter	-1786
▁pamin	-1787
▁tyrimų	-1788
▁užsienio	-1789
▁koordin	-1790
▁džiaug	-1791
▁JAV	-1792
▁esame	-1793
▁žodži	-1794
▁problemas	-1795
▁tari	-1796
▁deš	-1797
▁leid	-1798
gn	-1799
▁pramon	-1800
▁išk	-1801
▁sprendimo	-1802
▁balsavau	-1803
▁informacijos	-1804
▁strategijos	-1805
aun	-1806
▁susitarimą	-1807
▁Komisijai	-1808
umui	-1809
kite	-1810
▁rizik	-1811
rimin	-1812
▁reikėtų	-1813
tarin	-1814
▁reikš	-1815
▁dėk	-1816
▁akivaiz	-1817
onių	-1818
▁še	-1819
▁ket	-1820
▁įtak	-1821
▁siekti	-1822
▁gamin	-1823
▁žvej	-1824
▁jūros	-1825
▁kodėl	-1826
▁tinkamai	-1827
▁ataskai	-1828
▁euro	-1829
▁Vid	-1830
▁įmonių	-1831
▁viz	-1832
▁taikyti	-1833
istra	-1834
▁įtraukti	-1835
ete	-1836
▁šias	-1837
▁admin	-1838
▁europ	-1839
eno	-1840
sid	-1841
mą	-1842
▁rekomend	-1843
▁kuria	-1844
▁turės	-1845
uod	-1846
▁rinką	-1847
arbo	-1848
▁tikiuosi	-1849
promis	-1850
▁tikslų	-1851
▁sutarties	-1852
▁klausimais	-1853
▁fak	-1854
▁žini	-1855
▁įd	-1856
▁bi	-1857
▁suderin	-1858
▁treči	-1859
▁išš	-1860
▁ci	-1861
▁savait	-1862
kri	-1863
▁žal	-1864
▁šia	-1865
ias	-1866
ėta	-1867
▁žuv	-1868
▁paaišk	-1869
▁et	-1870
▁neteis	-1871
▁Parlamentui	-1872
▁privalome	-1873
ančias	-1874
▁nebū	-1875
umu	-1876
esnis	-1877
esti	-1878
▁vienod	-1879
▁Tik	-1880
▁atkreipti	-1881
▁socialinės	-1882
enka	-1883
▁tekst	-1884
▁Tr	-1885
▁sanglaud	-1886
▁sprendži	-1887
▁Kar	-1888
eikia	-1889
▁regiono	-1890
ėjus	-1891
▁atvir	-1892
sčiau	-1893
▁vartoj	-1894
▁Prancūz	-1895
tal	-1896
▁id	-1897
eziden	-1898
▁Kai	-1899
▁toks	-1900
▁tem	-1901
▁paskelb	-1902
▁ūkinink	-1903
▁išd	-1904
▁priorit	-1905
laik	-1906
anduol	-1907
▁mech	-1908
▁de	-1909
▁stabil	-1910
est	-1911
▁Nep	-1912
tuose	-1913
▁sprendimas	-1914
iki	-1915
▁visą	-1916
▁vietų	-1917
▁sustiprin	-1918
▁kompromis	-1919
eniai	-1920
▁prof	-1921
▁būs	-1922
▁2008	-1923
▁poky	-1924
▁mechaniz	-1925
▁Pa	-1926
ančią	-1927
autų	-1928
▁intern	-1929
▁ketin	-1930
▁metod	-1931
eda	-1932
▁2020	-1933
okių	-1934
▁atsisak	-1935
▁Galiausiai	-1936
▁jėg	-1937
),	-1938
abej	-1939
▁pajėg	-1940
rėži	-1941
siu	-1942
▁dėmesio	-1943
▁šiam	-1944
ėse	-1945
▁rodo	-1946
tinę	-1947
▁nepa	-1948
▁galėtume	-1949
▁vaikų	-1950
▁leidži	-1951
trukt	-1952
pri	-1953
▁kuriomis	-1954
▁šalyje	-1955
okie	-1956
▁nebus	-1957
▁visk	-1958
▁šiol	-1959
▁darbotvark	-1960
tinis	-1961
▁pinigų	-1962
▁integ	-1963
▁sektoriaus	-1964
FR	-1965
▁Vad	-1966
▁ženk	-1967
▁pasinaudoti	-1968
cijoje	-1969
▁pasirink	-1970
▁Mūsų	-1971
▁susirūp	-1972
▁mir	-1973
▁6	-1974
▁problemos	-1975
▁dalies	-1976
▁besi	-1977
▁susijusių	-1978
▁gai	-1979
ėjų	-1980
▁vyksta	-1981
iniais	-1982
▁kaim	-1983
▁mus	-1984
amus	-1985
▁visada	-1986
▁inf	-1987
▁8	-1988
▁vyr	-1989
▁sug	-1990
uota	-1991
erd	-1992
▁ilgal	-1993
eten	-1994
▁dvi	-1995
▁kryp	-1996
▁pasitik	-1997
▁tokių	-1998
▁lank	-1999
▁branduol	-2000
▁pabaig	-2001
▁išlaik	-2002
iant	-2003
vyst	-2004
atori	-2005
▁susiję	-2006
▁pavad	-2007
▁įt	-2008
▁sprendimus	-2009
▁administra	-2010
▁nepas	-2011
▁itin	-2012
▁programos	-2013
▁plat	-2014
▁Mums	-2015
▁tokia	-2016
▁milij	-2017
ird	-2018
žių	-2019
omob	-2020
oso	-2021
iame	-2022
▁special	-2023
▁Labai	-2024
▁Kad	-2025
▁Kon	-2026
iejų	-2027
usijos	-2028
ito	-2029
iniams	-2030
▁vertyb	-2031
▁veikti	-2032
imės	-2033
eikti	-2034
iams	-2035
PL	-2036
▁kovos	-2037
uoju	-2038
▁susitarimas	-2039
▁Daug	-2040
▁galimybes	-2041
▁piliečiai	-2042
▁dirbti	-2043
▁saugos	-2044
esnės	-2045
▁Bar	-2046
▁elg	-2047
▁grės	-2048
ūd	-2049
▁Per	-2050
▁laiv	-2051
▁demokratijos	-2052
▁nelai	-2053
▁rezoliucijos	-2054
▁Graik	-2055
▁tikslus	-2056
ber	-2057
▁susiduri	-2058
anijos	-2059
ėtis	-2060
▁žingsnis	-2061
▁pastangas	-2062
toti	-2063
▁sėkming	-2064
istų	-2065
būt	-2066
▁Šiandien	-2067
inta	-2068
▁Tiki	-2069
▁šeš	-2070
ybą	-2071
lų	-2072
tinti	-2073
ES	-2074
▁kli	-2075
▁teritori	-2076
lig	-2077
▁glob	-2078
▁krite	-2079
ins	-2080
▁naują	-2081
uot	-2082
ininkystės	-2083
▁diskrimin	-2084
tija	-2085
▁Ap	-2086
intas	-2087
▁kiti	-2088
▁ministr	-2089
▁negalime	-2090
▁kaimyn	-2091
▁anksčiau	-2092
▁rež	-2093
▁kaitos	-2094
▁keletą	-2095
▁tada	-2096
▁laikytis	-2097
▁parem	-2098
yko	-2099
▁Tarp	-2100
▁pradži	-2101
▁jas	-2102
▁lengv	-2103
▁automob	-2104
▁trump	-2105
kti	-2106
▁EP	-2107
▁žino	-2108
▁kovoti	-2109
alų	-2110
▁Nors	-2111
▁Vadov	-2112
▁apsaugoti	-2113
▁ta	-2114
▁pagrįst	-2115
orės	-2116
▁finansinių	-2117
▁krizę	-2118
▁mote	-2119
▁spaud	-2120
▁konflik	-2121
džiui	-2122
ią	-2123
varb	-2124
eikšti	-2125
▁Atsižvel	-2126
▁veiklą	-2127
▁Jeigu	-2128
mu	-2129
ūš	-2130
fer	-2131
ausias	-2132
▁mies	-2133
▁tvarkos	-2134
ani	-2135
▁kelią	-2136
▁In	-2137
▁kadangi	-2138
▁10	-2139
▁kompeten	-2140
▁fondo	-2141
▁7	-2142
žem	-2143
▁smur	-2144
▁vyriausybės	-2145
▁finansavimo	-2146
▁Antra	-2147
▁žinome	-2148
▁padėties	-2149
▁neiš	-2150
muo	-2151
▁2010	-2152
iama	-2153
eiv	-2154
▁aprib	-2155
▁dauguma	-2156
▁problemą	-2157
▁nesu	-2158
▁pastab	-2159
▁patenk	-2160
▁išspręsti	-2161
▁bendros	-2162
▁sprendimų	-2163
aj	-2164
▁vė	-2165
000	-2166
▁kontrolės	-2167
▁laikas	-2168
▁pre	-2169
giai	-2170
▁didžiul	-2171
ymus	-2172
▁susijęs	-2173
▁galimybės	-2174
▁Sutar	-2175
▁galimybių	-2176
▁pasireng	-2177
▁Sąjungai	-2178
▁Praneš	-2179
▁klausimai	-2180
▁mokslinių	-2181
avimu	-2182
sias	-2183
▁derybų	-2184
yra	-2185
▁gyvenimo	-2186
esp	-2187
▁apim	-2188
▁sudaro	-2189
▁2007	-2190
▁Rusijos	-2191
esnio	-2192
▁Ne	-2193
uojama	-2194
▁nuolat	-2195
omą	-2196
▁pagalbą	-2197
ieji	-2198
▁pavyzd	-2199
▁klausimo	-2200
▁taisykles	-2201
papras	-2202
▁padidinti	-2203
▁kor	-2204
▁kyla	-2205
rint	-2206
▁prieštar	-2207
▁kūrim	-2208
rės	-2209
▁dujų	-2210
▁ankst	-2211
ektus	-2212
▁panaš	-2213
▁pasiūlymas	-2214
cijoms	-2215
▁greičiau	-2216
▁priežasčių	-2217
▁strategiją	-2218
▁Valsti	-2219
▁vertus	-2220
vari	-2221
▁vykdyti	-2222
▁nepakank	-2223
▁partneri	-2224
▁neabej	-2225
tojus	-2226
▁gamybos	-2227
▁pasiraš	-2228
▁nagrin	-2229
▁Vadovų	-2230
▁ra	-2231
uomet	-2232
▁klaid	-2233
▁išsaug	-2234
fi	-2235
▁pasveik	-2236
▁įgyvendinimo	-2237
▁bendruomen	-2238
nauj	-2239
▁medži	-2240
▁ch	-2241
▁pone	-2242
▁rinkoje	-2243
ingų	-2244
▁beveik	-2245
IT	-2246
uojant	-2247
▁dalį	-2248
anų	-2249
▁tokios	-2250
šči	-2251
yriaus	-2252
▁Afrikos	-2253
entr	-2254
▁Ame	-2255
▁pažeidži	-2256
▁aplinkyb	-2257
apus	-2258
▁pabrėži	-2259
▁rezoliuciją	-2260
▁ilg	-2261
▁suprant	-2262
▁parengti	-2263
tinku	-2264
▁Jis	-2265
▁santyki	-2266
▁sąjung	-2267
▁įmanoma	-2268
▁kalbėti	-2269
▁om	-2270
▁skirtum	-2271
▁besivyst	-2272
▁pakeisti	-2273
▁naudo	-2274
▁atsižvelgti	-2275
▁rūp	-2276
▁neturėtų	-2277
▁Bri	-2278
▁apibrėž	-2279
▁vystymosi	-2280
▁Europą	-2281
uz	-2282
imtumo	-2283
▁Vokie	-2284
▁sanglaudos	-2285
▁supras	-2286
▁Žinoma	-2287
▁abi	-2288
▁tvar	-2289
▁naujas	-2290
▁papraš	-2291
eiti	-2292
▁teikti	-2293
esnių	-2294
▁išvad	-2295
▁esmin	-2296
▁sektoriuje	-2297
200	-2298
ana	-2299
▁išp	-2300
▁paskir	-2301
intel	-2302
▁pobū	-2303
▁Komisiją	-2304
ron	-2305
▁puik	-2306
▁rasti	-2307
kiau	-2308
▁jokių	-2309
igracijos	-2310
▁oper	-2311
▁nebūtų	-2312
stat	-2313
▁įvykd	-2314
▁bendra	-2315
▁nem	-2316
▁regione	-2317
▁reag	-2318
▁profes	-2319
▁sur	-2320
▁invest	-2321
).	-2322
▁truk	-2323
▁apsaugą	-2324
unik	-2325
▁atsir	-2326
▁turiu	-2327
▁Ital	-2328
umun	-2329
▁erd	-2330
▁frakcija	-2331
inei	-2332
ilių	-2333
▁informaciją	-2334
igr	-2335
▁remiantis	-2336
ard	-2337
▁elekt	-2338
amp	-2339
▁regionų	-2340
▁persp	-2341
▁pritar	-2342
▁valstybes	-2343
dė	-2344
▁laisvės	-2345
rd	-2346
ančio	-2347
▁000	-2348
▁dalyvauti	-2349
▁paklaus	-2350
▁erdv	-2351
▁poveikio	-2352
▁link	-2353
▁Būtent	-2354
gail	-2355
torin	-2356
▁pagerinti	-2357
▁išmet	-2358
▁nutrauk	-2359
▁Tikiuosi	-2360
▁palan	-2361
▁rūš	-2362
▁išorės	-2363
ietų	-2364
▁gin	-2365
uotos	-2366
▁teroriz	-2367
▁direktyva	-2368
▁tą	-2369
▁Veng	-2370
▁ženkl	-2371
ūkst	-2372
▁sen	-2373
▁ypating	-2374
▁Šv	-2375
išką	-2376
▁Esu	-2377
varstyti	-2378
▁Prieš	-2379
▁galioj	-2380
▁medžiag	-2381
vok	-2382
▁rod	-2383
estin	-2384
▁rezultatų	-2385
▁paskatin	-2386
▁pasiūlymus	-2387
▁supapras	-2388
▁ekonominės	-2389
▁įvairių	-2390
▁situ	-2391
▁dalykas	-2392
▁preziden	-2393
▁būdu	-2394
▁augimo	-2395
▁kliū	-2396
▁kuriems	-2397
▁an	-2398
▁Ji	-2399
▁greitai	-2400
▁šalimis	-2401
ekl	-2402
▁įgalioj	-2403
joje	-2404
rastrukt	-2405
▁įmonėms	-2406
▁teisė	-2407
▁pakankamai	-2408
▁protokolą	-2409
nel	-2410
tifik	-2411
▁atrodo	-2412
▁sudaryti	-2413
▁pasiūlymo	-2414
▁įg	-2415
tinį	-2416
▁kelių	-2417
▁neigi	-2418
▁remti	-2419
▁Dar	-2420
▁jam	-2421
imos	-2422
atas	-2423
▁diskusijas	-2424
ficial	-2425
▁tapti	-2426
▁mlrd	-2427
▁galutin	-2428
▁sąlygomis	-2429
▁sl	-2430
▁Europai	-2431
ifik	-2432
▁pasveikinti	-2433
▁Kitas	-2434
▁diskusijų	-2435
▁infrastrukt	-2436
▁įrod	-2437
re	-2438
▁tų	-2439
▁visa	-2440
imams	-2441
▁kitą	-2442
imi	-2443
▁paskutin	-2444
antį	-2445
klaid	-2446
inėmis	-2447
apit	-2448
▁procesą	-2449
▁9	-2450
ausia	-2451
▁kita	-2452
raf	-2453
▁baus	-2454
acijas	-2455
▁bent	-2456
▁virš	-2457
ind	-2458
žemio	-2459
▁Toki	-2460
▁neabejo	-2461
▁priklauso	-2462
▁Rūm	-2463
▁nepaisant	-2464
▁galbūt	-2465
▁informacija	-2466
eikal	-2467
uotas	-2468
▁pritarti	-2469
ejų	-2470
▁ang	-2471
antiems	-2472
tariu	-2473
▁priver	-2474
rindži	-2475
avimui	-2476
▁visapus	-2477
▁sąžin	-2478
esnį	-2479
▁apsauga	-2480
▁žinias	-2481
čiausi	-2482
krain	-2483
▁nusikaltim	-2484
elti	-2485
alo	-2486
▁jai	-2487
▁sritis	-2488
▁tarptautinės	-2489
▁Rumun	-2490
▁civ	-2491
▁hum	-2492
▁milijon	-2493
▁tas	-2494
inėms	-2495
▁abejo	-2496
intų	-2497
▁tapo	-2498
▁visoje	-2499
▁nuomonės	-2500
amasi	-2501
▁sąlygos	-2502
▁Lenk	-2503
▁dešimt	-2504
iešk	-2505
▁Deja	-2506
isi	-2507
▁išlaidų	-2508
džių	-2509
▁Pal	-2510
ydami	-2511
įž	-2512
▁Ukrain	-2513
ga	-2514
pro	-2515
iškų	-2516
reip	-2517
▁gink	-2518
▁verslo	-2519
▁nuomonę	-2520
baig	-2521
espub	-2522
▁asmenų	-2523
alis	-2524
imis	-2525
▁pusi	-2526
ev	-2527
▁Kalbant	-2528
▁džiaugiuosi	-2529
mes	-2530
▁karin	-2531
vencijos	-2532
▁Vakar	-2533
anitarin	-2534
alių	-2535
▁europie	-2536
▁kokybės	-2537
▁leisti	-2538
▁balsavimo	-2539
▁tiks	-2540
▁politinių	-2541
▁derybos	-2542
▁amži	-2543
▁pasik	-2544
elis	-2545
ein	-2546
▁eur	-2547
▁kurti	-2548
▁perspektyv	-2549
▁kriterij	-2550
▁patvirtinti	-2551
▁kitas	-2552
iui	-2553
tinas	-2554
▁naš	-2555
▁Isp	-2556
▁visuo	-2557
▁gyn	-2558
▁lauki	-2559
▁Tarptau	-2560
▁kapit	-2561
ysime	-2562
umus	-2563
▁švietimo	-2564
▁jame	-2565
▁PP	-2566
▁Jie	-2567
▁grindži	-2568
RO	-2569
▁nepriim	-2570
ausių	-2571
▁labiausiai	-2572
▁kaimo	-2573
▁naudoti	-2574
▁rinkimų	-2575
▁įmonės	-2576
▁strategija	-2577
inėje	-2578
▁skirtas	-2579
▁keleiv	-2580
▁Jungtinių	-2581
▁šiais	-2582
▁jus	-2583
▁Už	-2584
▁nerim	-2585
valstyb	-2586
▁aktus	-2587
▁poziciją	-2588
▁sutartis	-2589
▁Pagal	-2590
▁skaičius	-2591
▁pats	-2592
tojo	-2593
nelyg	-2594
▁nieko	-2595
inu	-2596
▁ilgalaik	-2597
iamas	-2598
▁etap	-2599
▁prieg	-2600
▁įr	-2601
▁programą	-2602
▁komitetas	-2603
▁vienintel	-2604
iliz	-2605
avome	-2606
land	-2607
lov	-2608
▁atnauj	-2609
▁naudos	-2610
▁padės	-2611
▁sutik	-2612
▁užimtumo	-2613
eren	-2614
▁nepriklausom	-2615
▁del	-2616
ojimai	-2617
▁liber	-2618
▁laiką	-2619
▁svarbūs	-2620
imti	-2621
mų	-2622
▁iešk	-2623
▁viso	-2624
▁svarbų	-2625
▁Bet	-2626
▁nare	-2627
▁globaliz	-2628
▁investicijų	-2629
▁centr	-2630
▁gyvyb	-2631
▁relig	-2632
▁Al	-2633
tys	-2634
▁balsuoti	-2635
giau	-2636
▁vidutin	-2637
▁neseniai	-2638
▁joms	-2639
ausv	-2640
iskusijos	-2641
espublik	-2642
▁draud	-2643
▁konferen	-2644
▁kalbant	-2645
▁veikla	-2646
▁svarbiausia	-2647
▁Šios	-2648
▁primin	-2649
▁stiprinti	-2650
▁neabejotinai	-2651
▁kaita	-2652
rijų	-2653
▁dviejų	-2654
▁tariant	-2655
▁vertinu	-2656
▁Did	-2657
▁galiausiai	-2658
▁išg	-2659
▁pareigas	-2660
▁įvertinti	-2661
▁Svarb	-2662
▁sustab	-2663
▁naujos	-2664
daug	-2665
▁pripažinti	-2666
bul	-2667
▁santyk	-2668
▁proceso	-2669
riai	-2670
▁14	-2671
▁reglamento	-2672
▁atvejais	-2673
elių	-2674
iškas	-2675
▁gyvūn	-2676
ančioms	-2677
▁Amerikos	-2678
ėjai	-2679
▁naujov	-2680
irb	-2681
▁kitaip	-2682
tines	-2683
▁teig	-2684
▁tokio	-2685
▁gero	-2686
Europos	-2687
rikšči	-2688
▁reguliavimo	-2689
▁zon	-2690
ėdami	-2691
▁užkir	-2692
▁mastu	-2693
▁pažangą	-2694
▁sutartį	-2695
▁direktyvą	-2696
▁aukščiausi	-2697
▁konkurencing	-2698
▁technologijų	-2699
zra	-2700
iška	-2701
▁reikalauj	-2702
uoš	-2703
▁pusiausv	-2704
rių	-2705
▁eks	-2706
▁kreip	-2707
▁partijos	-2708
▁aišku	-2709
▁kalbama	-2710
▁pasiūlymų	-2711
tugal	-2712
▁laikotarpiu	-2713
ikos	-2714
▁pašal	-2715
inama	-2716
▁punk	-2717
▁pens	-2718
ausiai	-2719
▁humanitarin	-2720
▁paminėti	-2721
▁saugumą	-2722
▁sti	-2723
▁JT	-2724
▁eksp	-2725
▁veiksmus	-2726
▁pasisak	-2727
▁prieglob	-2728
▁sąraš	-2729
▁išvengti	-2730
PT	-2731
▁demokr	-2732
▁sąlygų	-2733
▁taikymo	-2734
▁politikai	-2735
▁kovoj	-2736
▁naudotis	-2737
▁politinės	-2738
▁Izra	-2739
▁išmok	-2740
▁taigi	-2741
inter	-2742
▁nares	-2743
sak	-2744
▁daro	-2745
▁partnerystės	-2746
ograf	-2747
▁atitik	-2748
▁pasek	-2749
▁daugiausia	-2750
▁skol	-2751
rijoje	-2752
▁garanti	-2753
▁būdas	-2754
▁istori	-2755
▁subsid	-2756
▁glaud	-2757
ytą	-2758
▁Sąjungą	-2759
▁siekia	-2760
▁blog	-2761
▁tinkl	-2762
▁kontroli	-2763
tam	-2764
▁struktūrin	-2765
alon	-2766
enki	-2767
▁prioritet	-2768
▁turėjo	-2769
▁socialinių	-2770
▁derybas	-2771
žr	-2772
▁galės	-2773
▁pažym	-2774
▁pernelyg	-2775
tern	-2776
ymui	-2777
inauj	-2778
▁Por	-2779
rovės	-2780
tinka	-2781
▁vakar	-2782
▁pirmininko	-2783
▁žmones	-2784
▁šiai	-2785
▁įsigal	-2786
damos	-2787
▁negu	-2788
▁kokia	-2789
▁nuolatin	-2790
ne	-2791
▁naujo	-2792
iauti	-2793
▁integr	-2794
▁vanden	-2795
▁veiksn	-2796
▁priemonėmis	-2797
▁uždav	-2798
interes	-2799
esni	-2800
▁vartojimo	-2801
eliu	-2802
▁vartotojams	-2803
ijung	-2804
▁Slov	-2805
▁Jungtinės	-2806
▁žiniasklaid	-2807
kritai	-2808
elež	-2809
▁automobilių	-2810
▁žvejybos	-2811
tika	-2812
▁bio	-2813
▁daugelis	-2814
▁jūrų	-2815
▁rytoj	-2816
▁skirta	-2817
▁įgyvendinant	-2818
▁nariams	-2819
oriu	-2820
▁inov	-2821
▁tikras	-2822
ąžin	-2823
▁visai	-2824
▁dėkoju	-2825
tyn	-2826
▁kito	-2827
▁požiūr	-2828
▁teisėk	-2829
▁pagrindinis	-2830
▁12	-2831
▁kolegos	-2832
▁pavyzdžiui	-2833
tinius	-2834
▁Net	-2835
▁juo	-2836
▁matyti	-2837
▁užsi	-2838
▁kainų	-2839
▁rinka	-2840
▁sugeb	-2841
▁dėmesys	-2842
▁netgi	-2843
▁Respublik	-2844
▁parama	-2845
▁požiūrį	-2846
▁organizacijos	-2847
ybė	-2848
esnę	-2849
▁pot	-2850
mių	-2851
emen	-2852
iniam	-2853
▁pažangos	-2854
▁svarbą	-2855
pn	-2856
uodžio	-2857
▁Rusija	-2858
ėst	-2859
tiją	-2860
▁Nepaisant	-2861
▁suprasti	-2862
▁suinteres	-2863
▁bal	-2864
▁prar	-2865
uržemio	-2866
▁ateities	-2867
▁biuro	-2868
▁vietov	-2869
▁tikrų	-2870
▁taisyklės	-2871
▁iniciatyva	-2872
▁nacionalinių	-2873
inaujin	-2874
▁Airijos	-2875
▁artim	-2876
▁Portugal	-2877
▁panaikinti	-2878
▁refer	-2879
▁Siek	-2880
▁15	-2881
tetų	-2882
▁Rytų	-2883
▁aukščiausiojo	-2884
▁neati	-2885
▁užduo	-2886
▁pačios	-2887
sčio	-2888
▁tampa	-2889
▁Šiau	-2890
▁didinti	-2891
▁pla	-2892
▁Kinijos	-2893
engiant	-2894
▁kelias	-2895
ydamas	-2896
▁požiūrio	-2897
▁galiu	-2898
erc	-2899
▁Viduržemio	-2900
ąja	-2901
▁ekolog	-2902
▁savaitę	-2903
▁vadovauj	-2904
▁reikalavimus	-2905
ane	-2906
▁sutel	-2907
▁požiūris	-2908
▁pakar	-2909
▁negalima	-2910
▁pristat	-2911
tojas	-2912
ymai	-2913
tiniai	-2914
▁susijusius	-2915
▁Kadangi	-2916
▁susijusios	-2917
▁vai	-2918
▁teisingumo	-2919
▁paremti	-2920
▁uos	-2921
mė	-2922
enos	-2923
▁apgail	-2924
tumėte	-2925
▁lyd	-2926
▁pobūdžio	-2927
Europa	-2928
▁gelež	-2929
▁iššūki	-2930
lav	-2931
ausią	-2932
iršti	-2933
▁penk	-2934
▁kalbame	-2935
▁vaidmuo	-2936
▁pard	-2937
▁nedel	-2938
▁finansinės	-2939
▁sektorių	-2940
▁patek	-2941
▁Baltar	-2942
▁sta	-2943
ininkų	-2944
▁paslaugas	-2945
ėtas	-2946
▁norint	-2947
▁įveikti	-2948
▁gaun	-2949
▁panaudoj	-2950
ado	-2951
▁bai	-2952
▁peln	-2953
▁kred	-2954
▁Šiaurės	-2955
inęs	-2956
▁procesas	-2957
▁pagrindas	-2958
▁praei	-2959
aukti	-2960
ienį	-2961
▁grupės	-2962
▁pranešėjas	-2963
elg	-2964
▁ten	-2965
antų	-2966
▁tobul	-2967
▁Lib	-2968
▁dalykų	-2969
ern	-2970
auju	-2971
▁veiksmingai	-2972
▁tenka	-2973
▁darbas	-2974
▁keturi	-2975
ieg	-2976
▁pasteb	-2977
▁gruodžio	-2978
▁posė	-2979
▁vais	-2980
▁atsinaujin	-2981
▁palyg	-2982
▁priežasties	-2983
▁pien	-2984
▁patikrin	-2985
▁demokratų	-2986
▁Pirma	-2987
▁saus	-2988
▁oficial	-2989
rija	-2990
▁tūkst	-2991
eikš	-2992
▁sienų	-2993
▁lig	-2994
▁žuvininkystės	-2995
▁padarinių	-2996
▁prisijung	-2997
▁kalba	-2998
▁viską	-2999
▁mirties	-3000
▁Pag	-3001
▁nusprend	-3002
▁fondų	-3003
▁baudži	-3004
▁teisėkūros	-3005
▁deleg	-3006
▁bendrosios	-3007
▁didelį	-3008
▁ryž	-3009
▁atsakomybę	-3010
ūras	-3011
▁sričių	-3012
▁solidarumo	-3013
▁neap	-3014
▁tris	-3015
▁minėjo	-3016
čiausiai	-3017
iacijos	-3018
▁geležink	-3019
▁susiduria	-3020
▁pastangų	-3021
▁atk	-3022
▁pabėg	-3023
▁nukent	-3024
und	-3025
▁nepapras	-3026
gyven	-3027
▁įtvirtin	-3028
▁interesus	-3029
▁išsam	-3030
▁Ties	-3031
▁vyks	-3032
▁išlaikyti	-3033
▁reng	-3034
▁Pritariu	-3035
▁priežastis	-3036
etina	-3037
▁Šved	-3038
▁pačių	-3039
▁naudojimo	-3040
▁sustiprinti	-3041
▁pop	-3042
ims	-3043
▁stip	-3044
▁programa	-3045
▁Re	-3046
▁lem	-3047
▁ratifik	-3048
▁iniciatyvos	-3049
oc	-3050
▁taikoma	-3051
amb	-3052
▁palengv	-3053
▁sukeli	-3054
▁išdėst	-3055
▁Pirmininko	-3056
▁išteklius	-3057
ton	-3058
▁sektorius	-3059
▁Pirmiausia	-3060
▁sank	-3061
▁naudinga	-3062
▁prieglobsčio	-3063
▁27	-3064
▁sunki	-3065
eiči	-3066
▁bendradarbiauti	-3067
vis	-3068
truk	-3069
▁Ek	-3070
▁patiri	-3071
▁real	-3072
▁Vakarų	-3073
▁apima	-3074
▁kontrol	-3075
▁nukreip	-3076
▁administrac	-3077
oks	-3078
▁įsp	-3079
ingo	-3080
▁palik	-3081
▁As	-3082
▁tel	-3083
▁priek	-3084
▁pavojus	-3085
lies	-3086
▁laisvę	-3087
▁užm	-3088
▁sakant	-3089
▁komitete	-3090
roj	-3091
▁tvari	-3092
▁veiksmai	-3093
uktyv	-3094
▁išim	-3095
ulg	-3096
valifik	-3097
audo	-3098
▁aplinkai	-3099
▁standartus	-3100
▁Negal	-3101
kra	-3102
▁konkurencijos	-3103
▁Pak	-3104
▁mokykl	-3105
▁prisitaik	-3106
▁niekada	-3107
▁atsar	-3108
▁Turkijos	-3109
▁jokios	-3110
▁manome	-3111
▁visose	-3112
▁pagrindu	-3113
raus	-3114
▁tema	-3115
▁suteikia	-3116
▁nepat	-3117
▁gana	-3118
ančiai	-3119
▁veikia	-3120
▁pakeitimų	-3121
Pl	-3122
ąs	-3123
▁med	-3124
irž	-3125
ternatyv	-3126
ykiai	-3127
▁tokį	-3128
▁posėd	-3129
▁įsteig	-3130
▁planą	-3131
▁lankst	-3132
▁aptarti	-3133
▁program	-3134
▁priimtas	-3135
▁deja	-3136
▁susirūpinimą	-3137
aup	-3138
▁vil	-3139
alio	-3140
▁netink	-3141
▁kultūros	-3142
▁ob	-3143
▁biudžetą	-3144
▁reikalinga	-3145
usav	-3146
▁Atsižvelgiant	-3147
ją	-3148
▁impor	-3149
yno	-3150
aisiais	-3151
▁tikrą	-3152
▁Jos	-3153
▁santykių	-3154
▁pavaduo	-3155
▁sistemų	-3156
▁prisidėti	-3157
erk	-3158
▁šiek	-3159
timą	-3160
▁Barr	-3161
tov	-3162
yriausyb	-3163
▁standartų	-3164
▁2006	-3165
▁MV	-3166
ėjimų	-3167
▁pusiausvyr	-3168
▁draug	-3169
ybai	-3170
▁tos	-3171
inamas	-3172
▁palankiai	-3173
▁Po	-3174
tingai	-3175
▁Pietų	-3176
▁išlaidas	-3177
▁Šeng	-3178
▁tvirtai	-3179
▁amžiaus	-3180
▁Treči	-3181
▁santykius	-3182
▁siekdami	-3183
inys	-3184
▁spar	-3185
cien	-3186
▁skaidrumo	-3187
▁didelių	-3188
▁Nes	-3189
Plojimai	-3190
▁socialinę	-3191
▁priminti	-3192
▁Visi	-3193
▁tiesiogiai	-3194
▁sąs	-3195
▁Šie	-3196
cijomis	-3197
žiūrėti	-3198
▁pateiktas	-3199
▁susitikime	-3200
▁rengi	-3201
▁tikslą	-3202
▁vėliau	-3203
▁Barroso	-3204
▁interesų	-3205
▁susitarimų	-3206
tingi	-3207
so	-3208
▁kilmės	-3209
201	-3210
▁parag	-3211
ulgari	-3212
▁tarpusav	-3213
▁panaudoti	-3214
EB	-3215
▁vizų	-3216
egz	-3217
▁Jūs	-3218
▁institucijoms	-3219
kio	-3220
▁galėsime	-3221
▁pacien	-3222
▁30	-3223
/200	-3224
▁atvejų	-3225
▁visame	-3226
▁didesnį	-3227
▁didelis	-3228
▁ginč	-3229
▁romų	-3230
▁atlyg	-3231
▁konsul	-3232
ėlių	-3233
▁pasid	-3234
▁reikalavimų	-3235
▁įsipareigojimų	-3236
▁kada	-3237
ėdamas	-3238
▁Pagrind	-3239
▁integra	-3240
ečiųjų	-3241
▁atsakyti	-3242
▁Šiame	-3243
▁bendras	-3244
▁tiekimo	-3245
▁trad	-3246
▁rad	-3247
▁tinkamas	-3248
NL	-3249
po	-3250
▁kitose	-3251
erius	-3252
ert	-3253
▁antr	-3254
▁Reikia	-3255
imb	-3256
▁kitais	-3257
iami	-3258
▁naf	-3259
▁byl	-3260
▁parodyti	-3261
▁biurokra	-3262
▁anglies	-3263
▁Šengeno	-3264
▁daugelio	-3265
▁transpor	-3266
tingų	-3267
▁alternatyv	-3268
▁srities	-3269
igra	-3270
▁vykst	-3271
▁atsakomybės	-3272
▁padėtų	-3273
▁komunik	-3274
▁tie	-3275
▁kurioms	-3276
▁trečiųjų	-3277
▁globalizacijos	-3278
▁apmok	-3279
▁Bulgari	-3280
▁projektą	-3281
▁teisingai	-3282
▁masto	-3283
▁tokie	-3284
▁kuriai	-3285
▁pagalba	-3286
▁pritaik	-3287
▁atitinka	-3288
▁2011	-3289
▁tuos	-3290
▁skubiai	-3291
▁nuoš	-3292
adienį	-3293
▁nepal	-3294
▁pagrį	-3295
▁atliekų	-3296
eti	-3297
▁Kro	-3298
▁pagarb	-3299
▁kitus	-3300
▁grįž	-3301
▁atsid	-3302
▁nerimą	-3303
▁pastaruosius	-3304
lai	-3305
▁ketina	-3306
▁steng	-3307
▁suteikta	-3308
ąsias	-3309
▁taikos	-3310
▁užbaig	-3311
▁teisinės	-3312
▁sul	-3313
ydama	-3314
usį	-3315
la	-3316
▁pirmininkas	-3317
▁analiz	-3318
▁puikiai	-3319
▁pavyzdys	-3320
▁supaprastin	-3321
▁moterys	-3322
▁integracijos	-3323
▁sunku	-3324
žiau	-3325
entrin	-3326
rims	-3327
▁malon	-3328
▁žmonėmis	-3329
▁pakeitimus	-3330
aro	-3331
elį	-3332
▁nemaž	-3333
▁Pasau	-3334
▁liberaliz	-3335
eral	-3336
andid	-3337
enh	-3338
▁11	-3339
▁Prancūzijos	-3340
▁lygį	-3341
▁teisėms	-3342
▁geb	-3343
▁rimtai	-3344
▁tinkamą	-3345
▁omen	-3346
▁reikalingas	-3347
▁birž	-3348
▁garant	-3349
▁apriboj	-3350
▁įtakos	-3351
▁pavyko	-3352
▁termin	-3353
▁apsvarstyti	-3354
▁ekonomiką	-3355
etui	-3356
▁galv	-3357
▁tiems	-3358
▁procedūros	-3359
▁mis	-3360
▁elges	-3361
▁mažai	-3362
▁tokiu	-3363
siant	-3364
▁taikomos	-3365
▁projekto	-3366
▁sprendžiant	-3367
ėjos	-3368
▁šil	-3369
▁tikslai	-3370
▁valiu	-3371
▁statis	-3372
▁sutinku	-3373
▁Gruz	-3374
▁rizikos	-3375
▁apskritai	-3376
▁nelegal	-3377
▁Kop	-3378
▁žinote	-3379
pas	-3380
▁nepam	-3381
▁gird	-3382
▁svarbios	-3383
▁skirtų	-3384
▁numatyta	-3385
▁pieno	-3386
▁atl	-3387
▁dialogą	-3388
▁įsipareigojimus	-3389
▁dieną	-3390
▁kvalifik	-3391
▁pasiūlyti	-3392
▁rezultatus	-3393
▁priva	-3394
▁vienos	-3395
▁visoms	-3396
enhag	-3397
▁veiki	-3398
▁kandid	-3399
anda	-3400
▁Visų	-3401
▁autori	-3402
▁koks	-3403
▁diskusijose	-3404
▁agentūros	-3405
▁tarš	-3406
▁nuosav	-3407
▁atvyk	-3408
amųjų	-3409
▁įtaką	-3410
▁referend	-3411
▁laikom	-3412
▁Kopenhag	-3413
▁Valstyb	-3414
▁padaryta	-3415
▁pozicijos	-3416
uotą	-3417
▁kuriuose	-3418
▁puiki	-3419
▁stipr	-3420
▁tikslo	-3421
▁turėsime	-3422
▁palaikyti	-3423
roje	-3424
ėjas	-3425
▁balsavimą	-3426
▁straipsnio	-3427
jai	-3428
▁įpras	-3429
imuose	-3430
▁taikomas	-3431
ektr	-3432
obul	-3433
▁aplinkosaug	-3434
etu	-3435
▁av	-3436
▁principo	-3437
▁didėj	-3438
▁CO	-3439
urin	-3440
▁Parlamentą	-3441
▁darbuotojams	-3442
▁kompens	-3443
▁zonos	-3444
giama	-3445
inimu	-3446
▁gyvenimą	-3447
zmo	-3448
▁Es	-3449
▁rinkų	-3450
▁didelę	-3451
▁vandens	-3452
eji	-3453
gan	-3454
▁tęsti	-3455
trauki	-3456
▁vietas	-3457
▁suderinti	-3458
▁tė	-3459
uni	-3460
anaš	-3461
osioms	-3462
▁geras	-3463
▁nuostatas	-3464
▁užim	-3465
▁prasid	-3466
mus	-3467
▁Noriu	-3468
kil	-3469
▁išnagrin	-3470
▁paprašyti	-3471
▁užtikrinant	-3472
▁em	-3473
▁lėšas	-3474
▁Jungtin	-3475
▁tyrimus	-3476
▁atid	-3477
▁perkėl	-3478
▁Ind	-3479
▁teisinga	-3480
▁omenyje	-3481
▁aplinkybėmis	-3482
omus	-3483
▁tikra	-3484
▁tokią	-3485
▁visais	-3486
▁Kita	-3487
stituc	-3488
▁įsitikinęs	-3489
ytus	-3490
▁užkirsti	-3491
▁ekonomikai	-3492
alai	-3493
▁pastat	-3494
▁moteris	-3495
▁ses	-3496
▁Az	-3497
▁nario	-3498
▁Pra	-3499
▁iššūk	-3500
▁sėkmingai	-3501
▁kaž	-3502
anori	-3503
▁įstaig	-3504
▁tarptautinių	-3505
▁patobul	-3506
▁Vokietijos	-3507
▁kuriam	-3508
▁Aud	-3509
▁patys	-3510
▁Mar	-3511
▁skirtos	-3512
▁priemonė	-3513
tuoja	-3514
▁viešųjų	-3515
▁būtinas	-3516
eklar	-3517
▁nusikalst	-3518
▁atsitik	-3519
žio	-3520
usio	-3521
edant	-3522
▁kalbėjo	-3523
▁laiku	-3524
▁pareikšti	-3525
erv	-3526
▁vidu	-3527
ininkai	-3528
▁Ekonom	-3529
▁atidžiai	-3530
inamos	-3531
ument	-3532
▁mažinti	-3533
čiū	-3534
čios	-3535
▁sukūrim	-3536
▁Ponios	-3537
alus	-3538
▁egz	-3539
▁dviš	-3540
▁teršal	-3541
ry	-3542
ybe	-3543
▁Karal	-3544
▁disku	-3545
▁apsi	-3546
▁pagrindą	-3547
savo	-3548
▁aptari	-3549
▁taps	-3550
▁skurd	-3551
▁gerokai	-3552
ąž	-3553
▁atsp	-3554
▁teb	-3555
▁konkrečių	-3556
▁elemen	-3557
▁prisim	-3558
▁lin	-3559
▁prekių	-3560
iško	-3561
▁Brius	-3562
▁taikant	-3563
tras	-3564
▁25	-3565
▁Nr	-3566
▁amb	-3567
▁prekyba	-3568
▁Dėk	-3569
▁Nauj	-3570
▁priėmimo	-3571
▁finansavimą	-3572
umis	-3573
▁pamat	-3574
▁principų	-3575
▁projektas	-3576
▁minim	-3577
EL	-3578
▁skaičių	-3579
▁gerin	-3580
▁šiose	-3581
▁kartais	-3582
▁nauja	-3583
▁manymu	-3584
▁ribų	-3585
▁išsaugoti	-3586
▁išlik	-3587
▁didelės	-3588
▁svarbiausių	-3589
pač	-3590
▁gen	-3591
▁augimą	-3592
▁priekį	-3593
tiniu	-3594
▁mane	-3595
▁įstatymų	-3596
naud	-3597
vyn	-3598
anas	-3599
▁skait	-3600
▁Nuo	-3601
▁rengiant	-3602
▁Darbo	-3603
▁kamp	-3604
▁sil	-3605
aliai	-3606
▁dideli	-3607
▁pavojų	-3608
irektyv	-3609
▁raginu	-3610
▁pripažįst	-3611
▁Pranešime	-3612
▁skurdo	-3613
▁programas	-3614
▁pranešimui	-3615
..	-3616
▁199	-3617
▁kainos	-3618
▁Taryboje	-3619
▁nedelsiant	-3620
▁Tuo	-3621
tams	-3622
site	-3623
▁patvirtino	-3624
▁gim	-3625
▁plėtrą	-3626
▁tikimės	-3627
▁procedūrą	-3628
igrantų	-3629
▁patais	-3630
▁paklausti	-3631
▁nepav	-3632
atą	-3633
▁funk	-3634
lug	-3635
▁kultūrin	-3636
▁lygiu	-3637
▁birželio	-3638
▁pirk	-3639
▁Didži	-3640
▁reikės	-3641
▁terorizmu	-3642
▁Serb	-3643
▁uždar	-3644
▁aspektus	-3645
erių	-3646
▁kvo	-3647
▁kokių	-3648
ąst	-3649
▁straipsnis	-3650
▁taptų	-3651
▁nuostatų	-3652
▁indėl	-3653
▁lyčių	-3654
▁pareiškimai	-3655
▁ėm	-3656
uojami	-3657
▁mėnesius	-3658
asiūl	-3659
▁char	-3660
▁vyriausybių	-3661
čiu	-3662
mos	-3663
▁konstr	-3664
▁13	-3665
▁poreikius	-3666
▁Prival	-3667
▁priemonę	-3668
▁silpn	-3669
▁daugelį	-3670
▁nepaprastai	-3671
▁mob	-3672
▁stabilumo	-3673
▁Ch	-3674
stas	-3675
▁dem	-3676
ganist	-3677
omo	-3678
▁susitarimus	-3679
inami	-3680
▁ketvir	-3681
▁išreikšti	-3682
iamos	-3683
▁socialinio	-3684
tomis	-3685
▁sal	-3686
▁puikų	-3687
▁Dėkoju	-3688
▁nuošir	-3689
▁reikalauja	-3690
▁lėšos	-3691
▁biudžetas	-3692
▁esama	-3693
▁interneto	-3694
▁šalį	-3695
▁nuostatos	-3696
▁rezultatas	-3697
▁gyd	-3698
▁vež	-3699
▁valstybėje	-3700
prę	-3701
intos	-3702
▁imigracijos	-3703
▁tvirtin	-3704
unis	-3705
▁gyvūnų	-3706
▁rodik	-3707
▁teigiama	-3708
▁Graikijos	-3709
▁nustatyta	-3710
▁svarbiausias	-3711
▁aplinką	-3712
▁pradžių	-3713
▁abejonių	-3714
▁tarpvalstyb	-3715
▁nev	-3716
▁prid	-3717
▁sup	-3718
▁abip	-3719
▁neuž	-3720
▁reaguoti	-3721
▁praėjusi	-3722
▁nežin	-3723
▁principą	-3724
rikščionių	-3725
▁pritaria	-3726
▁pinig	-3727
oja	-3728
▁Balk	-3729
▁kartų	-3730
▁sritį	-3731
▁stu	-3732
▁Audito	-3733
▁pasiektas	-3734
eks	-3735
▁projektų	-3736
▁sand	-3737
▁taup	-3738
▁esant	-3739
▁kokios	-3740
▁naftos	-3741
▁institucijas	-3742
anta	-3743
▁susitikimo	-3744
▁laivų	-3745
▁valstybėmis	-3746
▁nuosek	-3747
▁pokyčių	-3748
enarin	-3749
▁reišk	-3750
▁įgalio	-3751
ojimo	-3752
▁joje	-3753
▁principas	-3754
▁susijusias	-3755
▁Tautų	-3756
▁status	-3757
▁žiniasklaidos	-3758
žiai	-3759
▁vas	-3760
▁Afganist	-3761
▁pakeitimą	-3762
kurti	-3763
▁Džiaug	-3764
▁lygis	-3765
AT	-3766
▁18	-3767
▁laim	-3768
▁mokė	-3769
▁ekonomika	-3770
▁įgyvendinimą	-3771
▁konven	-3772
▁Vengrijos	-3773
anija	-3774
▁pasiūlymai	-3775
▁partneryst	-3776
▁lap	-3777
▁sužin	-3778
▁plataus	-3779
▁svarbių	-3780
▁rūm	-3781
▁ateitį	-3782
▁naujus	-3783
▁paskirst	-3784
▁Pat	-3785
uojamas	-3786
▁išb	-3787
▁Vienas	-3788
▁lygybės	-3789
aujant	-3790
▁išrink	-3791
rų	-3792
tame	-3793
esnes	-3794
▁rug	-3795
▁sunkumų	-3796
▁regionuose	-3797
▁laikin	-3798
▁neteisė	-3799
▁rezoliucijoje	-3800
jek	-3801
▁išsak	-3802
▁aspektų	-3803
▁ori	-3804
▁pilie	-3805
▁įsitikin	-3806
oz	-3807
▁ja	-3808
▁grupių	-3809
eil	-3810
vimo	-3811
ugeb	-3812
mokes	-3813
▁atsis	-3814
▁šeimos	-3815
▁kalbos	-3816
▁Direktyv	-3817
prieš	-3818
▁karo	-3819
encial	-3820
na	-3821
stų	-3822
▁aptar	-3823
esnius	-3824
▁aktyviai	-3825
anki	-3826
▁bes	-3827
▁dirba	-3828
▁mokymo	-3829
▁konstruktyv	-3830
urti	-3831
▁pažad	-3832
▁medžiagų	-3833
pag	-3834
▁kriterijus	-3835
▁Italijos	-3836
▁laikomasi	-3837
▁persvarst	-3838
nyg	-3839
eliui	-3840
▁Svarbu	-3841
▁kritik	-3842
rovę	-3843
▁pareigūn	-3844
amu	-3845
uojamos	-3846
▁keleivių	-3847
▁Kinija	-3848
▁pagerin	-3849
▁PPE	-3850
▁pagaliau	-3851
yks	-3852
▁gerinti	-3853
▁akivaizdu	-3854
ęsi	-3855
▁paaiškinti	-3856
▁50	-3857
▁sausio	-3858
▁potencial	-3859
▁gav	-3860
▁smul	-3861
▁elektron	-3862
▁diskutuoj	-3863
▁bendrai	-3864
▁pagrindinės	-3865
▁mažumų	-3866
▁sprendimai	-3867
▁pasm	-3868
go	-3869
▁eurų	-3870
▁prieig	-3871
toms	-3872
▁mui	-3873
▁viskas	-3874
▁Štai	-3875
uodami	-3876
▁2020"	-3877
▁plėtoj	-3878
▁tokius	-3879
▁pranešėjui	-3880
▁knyg	-3881
▁siekdama	-3882
▁pagrindin	-3883
etų	-3884
▁gyvena	-3885
▁tuomet	-3886
▁principus	-3887
raz	-3888
▁civil	-3889
▁kelis	-3890
▁mėnesių	-3891
▁teikiama	-3892
▁pradžioje	-3893
teis	-3894
▁plenarin	-3895
▁vertinimo	-3896
▁atein	-3897
▁bendrų	-3898
▁nuveik	-3899
ono	-3900
audies	-3901
▁visuomenei	-3902
▁Rem	-3903
.)	-3904
▁Juod	-3905
▁elektr	-3906
▁savanori	-3907
kričio	-3908
▁plėtoti	-3909
▁stebėti	-3910
tumą	-3911
inimui	-3912
▁vienu	-3913
▁sau	-3914
ėjams	-3915
▁netruk	-3916
▁procese	-3917
▁antra	-3918
▁jokio	-3919
▁teršalų	-3920
▁	-3921
i	-3922
a	-3923
s	-3924
t	-3925
r	-3926
o	-3927
e	-3928
n	-3929
u	-3930
k	-3931
m	-3932
p	-3933
l	-3934
d	-3935
v	-3936
j	-3937
g	-3938
,	-3939
b	-3940
ų	-3941
y	-3942
ė	-3943
.	-3944
š	-3945
ą	-3946
ž	-3947
į	-3948
ū	-3949
c	-3950
č	-3951
E	-3952
T	-3953
P	-3954
z	-3955
S	-3956
f	-3957
K	-3958
ę	-3959
0	-3960
-	-3961
A	-3962
B	-3963
M	-3964
V	-3965
2	-3966
(	-3967
)	-3968
D	-3969
N	-3970
J	-3971
R	-3972
"	-3973
G	-3974
1	-3975
h	-3976
L	-3977
Š	-3978
I	-3979
:	-3980
C	-3981
?	-3982
9	-3983
O	-3984
5	-3985
F	-3986
3	-3987
U	-3988
8	-3989
;	-3990
7	-3991
4	-3992
Ž	-3993
6	-3994
H	-3995
/	-3996
