<pad>	0
</s>	0
<unk>	0
▁p	-0
ti	-1
ai	-2
ri	-3
os	-4
▁k	-5
▁s	-6
in	-7
au	-8
as	-9
ar	-10
▁t	-11
ir	-12
al	-13
▁n	-14
is	-15
im	-16
an	-17
en	-18
▁d	-19
am	-20
us	-21
▁v	-22
▁ir	-23
at	-24
ei	-25
ad	-26
▁b	-27
om	-28
ij	-29
▁m	-30
es	-31
ro	-32
ių	-33
on	-34
ės	-35
ek	-36
tin	-37
▁g	-38
er	-39
oj	-40
uri	-41
li	-42
▁š	-43
ra	-44
▁su	-45
▁kad	-46
▁j	-47
▁į	-48
eik	-49
▁pa	-50
▁E	-51
tų	-52
▁r	-53
tik	-54
či	-55
iš	-56
yb	-57
▁pri	-58
aus	-59
▁ne	-60
▁a	-61
st	-62
em	-63
▁l	-64
um	-65
uo	-66
ėl	-67
uro	-68
av	-69
▁T	-70
▁pas	-71
et	-72
▁at	-73
rin	-74
▁iš	-75
▁P	-76
▁kuri	-77
▁tai	-78
urop	-79
ijos	-80
ki	-81
▁Europ	-82
or	-83
ta	-84
arb	-85
aug	-86
to	-87
ant	-88
▁K	-89
ur	-90
▁ši	-91
▁Europos	-92
ži	-93
▁bū	-94
ėj	-95
end	-96
ais	-97
el	-98
▁y	-99
imo	-100
▁ž	-101
id	-102
▁ap	-103
▁vis	-104
eis	-105
omis	-106
▁dėl	-107
yv	-108
▁u	-109
ali	-110
▁pat	-111
gi	-112
▁pr	-113
▁tik	-114
▁po	-115
▁už	-116
▁kai	-117
ien	-118
ink	-119
ym	-120
▁pro	-121
ab	-122
eš	-123
min	-124
▁yra	-125
▁to	-126
oje	-127
▁S	-128
yti	-129
ėm	-130
▁-	-131
cij	-132
usi	-133
ok	-134
uos	-135
ak	-136
un	-137
aik	-138
ie	-139
imą	-140
si	-141
ent	-142
▁re	-143
čiau	-144
iek	-145
▁val	-146
▁in	-147
imas	-148
▁teis	-149
io	-150
▁gal	-151
ui	-152
▁B	-153
pr	-154
▁sk	-155
yk	-156
ama	-157
ia	-158
tr	-159
▁pir	-160
▁par	-161
▁kl	-162
▁A	-163
▁sv	-164
▁M	-165
▁f	-166
aud	-167
▁pad	-168
tu	-169
▁turi	-170
ci	-171
ūs	-172
auj	-173
ame	-174
▁pag	-175
▁reik	-176
lam	-177
styb	-178
ing	-179
▁Komis	-180
ąj	-181
tas	-182
ung	-183
od	-184
vo	-185
cijos	-186
tis	-187
▁valstyb	-188
rim	-189
minink	-190
čių	-191
▁(	-192
ys	-193
te	-194
▁daug	-195
il	-196
▁kaip	-197
▁V	-198
▁klaus	-199
▁J	-200
ams	-201
kai	-202
je	-203
inti	-204
až	-205
▁sav	-206
▁bend	-207
▁veik	-208
ari	-209
ik	-210
▁lab	-211
▁taip	-212
toj	-213
▁per	-214
ime	-215
▁poli	-216
tar	-217
and	-218
ėtų	-219
ūr	-220
▁svarb	-221
aneš	-222
▁darb	-223
ąjung	-224
og	-225
▁nes	-226
▁šal	-227
tos	-228
ūsų	-229
ov	-230
▁tur	-231
eg	-232
▁N	-233
▁o	-234
▁Par	-235
iu	-236
sti	-237
uvo	-238
▁G	-239
▁pirminink	-240
▁Parlam	-241
▁kon	-242
iai	-243
▁D	-244
▁praneš	-245
▁Sąjung	-246
▁2	-247
alb	-248
tą	-249
ija	-250
▁ES	-251
▁būtų	-252
amas	-253
▁did	-254
▁būti	-255
yje	-256
▁Š	-257
▁sus	-258
ans	-259
▁ats	-260
ėti	-261
▁Tai	-262
▁nar	-263
ol	-264
▁pasi	-265
dži	-266
▁man	-267
tat	-268
▁nor	-269
eli	-270
esn	-271
jų	-272
uom	-273
oms	-274
▁susi	-275
▁labai	-276
ami	-277
▁ki	-278
mon	-279
▁savo	-280
yg	-281
▁ek	-282
me	-283
▁vien	-284
rink	-285
eng	-286
inių	-287
anči	-288
▁tar	-289
▁nep	-290
umo	-291
▁bendr	-292
ūl	-293
iau	-294
▁buvo	-295
▁siek	-296
sl	-297
ej	-298
uk	-299
▁apie	-300
ul	-301
▁dar	-302
ybos	-303
ems	-304
auk	-305
eig	-306
▁pak	-307
emon	-308
▁galim	-309
▁prie	-310
▁ar	-311
▁mūsų	-312
onom	-313
tim	-314
ėčiau	-315
ekt	-316
tink	-317
▁laik	-318
▁pl	-319
ačiau	-320
▁L	-321
inės	-322
▁met	-323
šk	-324
ank	-325
▁dal	-326
▁nuo	-327
▁įv	-328
▁nari	-329
▁20	-330
▁Komisijos	-331
▁R	-332
ties	-333
ios	-334
▁priemon	-335
ist	-336
▁tr	-337
▁politik	-338
▁rink	-339
ius	-340
▁ver	-341
ed	-342
ėms	-343
▁ekonom	-344
▁pirmininke	-345
▁spr	-346
oti	-347
▁Tar	-348
amos	-349
tai	-350
ori	-351
tum	-352
▁bet	-353
pa	-354
tikrin	-355
aid	-356
raš	-357
▁gali	-358
avimo	-359
ento	-360
inans	-361
uoti	-362
▁nauj	-363
▁kom	-364
one	-365
▁reikal	-366
▁tarp	-367
ili	-368
▁pasiūl	-369
ome	-370
žv	-371
vir	-372
isk	-373
ymo	-374
als	-375
▁veiks	-376
▁klausim	-377
men	-378
▁finans	-379
oma	-380
▁net	-381
acij	-382
yst	-383
ums	-384
orm	-385
odėl	-386
▁mok	-387
ter	-388
▁mes	-389
▁užtikrin	-390
▁bus	-391
▁įg	-392
jos	-393
▁gyv	-394
▁naud	-395
▁I	-396
▁gr	-397
▁proc	-398
▁sri	-399
ap	-400
▁pav	-401
▁1	-402
▁kar	-403
rind	-404
ang	-405
var	-406
▁jų	-407
▁aps	-408
▁sprend	-409
ag	-410
ėk	-411
ėjo	-412
▁str	-413
▁es	-414
▁žmon	-415
uose	-416
▁sud	-417
uoj	-418
▁jau	-419
▁kurios	-420
bl	-421
iaus	-422
▁nus	-423
▁kalb	-424
▁vyk	-425
abar	-426
eri	-427
▁są	-428
▁darbo	-429
▁kurie	-430
▁vi	-431
▁pateik	-432
lik	-433
▁valstybės	-434
▁tikr	-435
▁"	-436
▁var	-437
▁reikia	-438
▁Sąjungos	-439
tarim	-440
▁norėčiau	-441
▁pagrind	-442
▁kri	-443
▁Parlament	-444
▁ger	-445
▁sieki	-446
▁dir	-447
ektyv	-448
imų	-449
cial	-450
iškai	-451
▁skir	-452
▁taik	-453
▁turėtų	-454
ch	-455
tina	-456
eči	-457
▁e	-458
▁susij	-459
kl	-460
kur	-461
form	-462
tume	-463
oki	-464
blem	-465
▁prieš	-466
▁tiksl	-467
▁pirm	-468
oli	-469
stitu	-470
▁Parlamento	-471
▁disk	-472
erg	-473
tori	-474
uomen	-475
istem	-476
▁Todėl	-477
▁galimyb	-478
do	-479
▁paž	-480
▁problem	-481
tyje	-482
ūros	-483
▁turime	-484
tus	-485
▁saug	-486
yvend	-487
▁pili	-488
▁Man	-489
ini	-490
rak	-491
▁sistem	-492
▁Komisija	-493
gr	-494
kr	-495
eto	-496
ting	-497
▁kur	-498
▁maž	-499
it	-500
▁Ši	-501
▁rez	-502
▁sut	-503
▁pasiūlym	-504
tinės	-505
išk	-506
▁as	-507
▁ak	-508
▁keli	-509
▁jos	-510
▁neg	-511
ški	-512
žvel	-513
▁atv	-514
▁įgyvend	-515
▁i	-516
▁narių	-517
▁bals	-518
ėmis	-519
▁toki	-520
▁susitarim	-521
▁ypa	-522
▁dabar	-523
▁apsaug	-524
dž	-525
▁me	-526
imus	-527
veik	-528
▁atsi	-529
▁im	-530
energ	-531
iz	-532
enk	-533
▁teisės	-534
▁įsi	-535
▁Pir	-536
▁valstybių	-537
▁šį	-538
▁energ	-539
lyg	-540
ėje	-541
ocial	-542
▁pal	-543
▁priv	-544
ūk	-545
ėra	-546
▁ai	-547
▁prek	-548
▁ji	-549
▁neb	-550
▁institu	-551
▁ti	-552
▁atsak	-553
▁priim	-554
▁nustat	-555
tį	-556
yn	-557
tinių	-558
▁Tačiau	-559
▁regi	-560
umą	-561
▁pab	-562
▁metu	-563
inę	-564
ming	-565
▁žin	-566
▁mums	-567
▁šiuo	-568
▁pasau	-569
▁Pone	-570
dėl	-571
▁narės	-572
▁sek	-573
▁ypač	-574
rė	-575
aip	-576
atin	-577
▁tink	-578
▁200	-579
▁daugiau	-580
dami	-581
inio	-582
▁social	-583
ateg	-584
▁šios	-585
erb	-586
▁pon	-587
tau	-588
cija	-589
adarb	-590
du	-591
▁sp	-592
ikos	-593
link	-594
▁suteik	-595
▁reg	-596
erin	-597
▁užtikrinti	-598
ob	-599
amą	-600
acijos	-601
▁bendradarb	-602
▁min	-603
▁išs	-604
ykl	-605
▁tačiau	-606
.,	-607
▁Vis	-608
▁dem	-609
▁kuris	-610
▁pan	-611
ančių	-612
▁nėra	-613
tari	-614
ud	-615
trauk	-616
▁pasak	-617
▁pasiek	-618
imai	-619
▁Taryb	-620
imu	-621
aisv	-622
▁prad	-623
avimas	-624
aš	-625
iudž	-626
▁diskus	-627
▁tam	-628
▁veiksm	-629
▁siekiant	-630
▁nei	-631
▁region	-632
iją	-633
ėtume	-634
▁politikos	-635
kir	-636
inimo	-637
amų	-638
uotoj	-639
ose	-640
▁kriz	-641
ybės	-642
▁bei	-643
pras	-644
▁todėl	-645
aig	-646
virtin	-647
▁aplink	-648
▁nuom	-649
mog	-650
amai	-651
▁aš	-652
ojo	-653
ėmes	-654
▁strateg	-655
andien	-656
ciją	-657
▁sutar	-658
inink	-659
▁mano	-660
ęs	-661
riaus	-662
ėn	-663
▁laisv	-664
por	-665
ijoje	-666
▁padar	-667
▁be	-668
▁dėmes	-669
▁kiek	-670
▁svarbu	-671
par	-672
avimą	-673
▁poži	-674
▁te	-675
▁lyg	-676
▁demok	-677
▁šalių	-678
▁inform	-679
sn	-680
▁mo	-681
▁kas	-682
▁Taip	-683
cion	-684
▁vid	-685
▁bendradarbi	-686
▁visi	-687
▁biudž	-688
▁der	-689
liau	-690
▁atvej	-691
▁Be	-692
▁sum	-693
▁teisių	-694
tab	-695
▁ati	-696
▁gam	-697
▁sektori	-698
vark	-699
▁Gerb	-700
▁žmog	-701
▁li	-702
▁vy	-703
uosi	-704
▁manau	-705
▁atsižvel	-706
ėme	-707
cijų	-708
ečių	-709
▁C	-710
▁ab	-711
anti	-712
eid	-713
▁Nor	-714
▁šių	-715
▁komit	-716
ūri	-717
ųjų	-718
▁jis	-719
eitim	-720
▁frak	-721
uv	-722
▁dv	-723
▁plė	-724
arba	-725
▁visų	-726
▁sąlyg	-727
▁tarptau	-728
▁kol	-729
▁ly	-730
imui	-731
oliu	-732
▁ties	-733
▁viet	-734
▁kel	-735
iausia	-736
rov	-737
auti	-738
▁iki	-739
▁nuos	-740
▁didel	-741
inį	-742
▁na	-743
▁rem	-744
▁Pirminink	-745
rėž	-746
vien	-747
▁šio	-748
antis	-749
▁teik	-750
▁ekonomikos	-751
mės	-752
▁gyven	-753
rib	-754
▁si	-755
klaus	-756
▁veikl	-757
▁Parlamentas	-758
eip	-759
▁žem	-760
▁tais	-761
ep	-762
▁visiškai	-763
▁klausimas	-764
yrim	-765
▁direktyv	-766
aniz	-767
▁srityje	-768
▁tiek	-769
▁ko	-770
▁sudar	-771
yta	-772
dama	-773
▁mėn	-774
▁vad	-775
▁inter	-776
▁or	-777
giant	-778
▁galima	-779
ato	-780
▁naudoj	-781
ęsti	-782
▁auk	-783
▁padė	-784
▁progr	-785
ėg	-786
ūki	-787
▁raš	-788
▁sveik	-789
▁Tarybos	-790
tro	-791
ymą	-792
yse	-793
čia	-794
▁Mes	-795
▁kurį	-796
▁šiandien	-797
avo	-798
ausi	-799
▁metų	-800
▁žmogaus	-801
ež	-802
asi	-803
▁jie	-804
▁kurių	-805
rag	-806
▁prival	-807
osi	-808
ukt	-809
▁pask	-810
▁požiūri	-811
tek	-812
umas	-813
damas	-814
▁rezoliu	-815
▁kov	-816
▁vykd	-817
▁didži	-818
▁pasaul	-819
▁taisykl	-820
inga	-821
osios	-822
▁arba	-823
▁demokra	-824
▁šią	-825
cional	-826
▁kr	-827
inis	-828
▁suk	-829
▁šis	-830
▁pagal	-831
mo	-832
▁ką	-833
20	-834
▁dalyv	-835
cip	-836
▁st	-837
onos	-838
▁kok	-839
▁užd	-840
▁proj	-841
▁įmon	-842
▁vertin	-843
▁Manau	-844
▁skatin	-845
▁žmonių	-846
▁jo	-847
▁laiko	-848
▁pranešimą	-849
ausiai	-850
tip	-851
ncip	-852
▁pagalb	-853
▁princip	-854
▁el	-855
▁pap	-856
▁susijusi	-857
ub	-858
teb	-859
ymas	-860
zi	-861
▁pakeitim	-862
tn	-863
engti	-864
aist	-865
ijai	-866
▁nepri	-867
▁pasir	-868
▁priemonių	-869
gal	-870
inius	-871
▁plan	-872
kiai	-873
▁įst	-874
rijos	-875
▁patvirtin	-876
ici	-877
▁jei	-878
▁sun	-879
▁Sąjunga	-880
ystės	-881
▁įvai	-882
pareig	-883
▁raštu	-884
eigu	-885
▁prod	-886
▁Ž	-887
ada	-888
čio	-889
▁vald	-890
▁visuomen	-891
sp	-892
paž	-893
▁veiksmų	-894
uli	-895
ybę	-896
▁aiški	-897
▁nacional	-898
▁org	-899
tijos	-900
▁sukur	-901
sta	-902
▁atst	-903
▁tyrim	-904
▁ry	-905
▁pilieči	-906
ib	-907
▁fon	-908
▁prekybos	-909
▁įgyvendin	-910
atyv	-911
▁jog	-912
up	-913
▁atlik	-914
▁politin	-915
eisti	-916
▁pasakyti	-917
▁sumaž	-918
▁toliau	-919
aliz	-920
eidži	-921
▁dirb	-922
sid	-923
tij	-924
laug	-925
▁išl	-926
▁asmen	-927
ėš	-928
arin	-929
▁rinkos	-930
▁Pr	-931
onės	-932
▁būtina	-933
▁padėti	-934
ies	-935
▁klausimą	-936
eb	-937
▁proces	-938
vz	-939
giu	-940
usių	-941
▁šalim	-942
▁klim	-943
▁kuriuos	-944
žin	-945
tais	-946
▁tap	-947
▁konkur	-948
▁Norėčiau	-949
▁darbuotoj	-950
▁veiksming	-951
▁nu	-952
▁Pon	-953
▁energijos	-954
ves	-955
▁rei	-956
▁sak	-957
ijų	-958
elio	-959
▁ned	-960
▁galėtų	-961
ūp	-962
▁trans	-963
▁žemės	-964
rik	-965
▁Pri	-966
▁nori	-967
▁vyriaus	-968
yl	-969
isab	-970
kait	-971
▁padėk	-972
▁paslaug	-973
ens	-974
porto	-975
▁geri	-976
▁įvyk	-977
ina	-978
aišk	-979
▁įtrauk	-980
ytų	-981
▁201	-982
▁skai	-983
▁Lisab	-984
▁pranešėj	-985
olog	-986
▁lėš	-987
ančios	-988
▁kartą	-989
▁vaid	-990
▁varto	-991
▁susitik	-992
čiai	-993
▁atei	-994
▁nors	-995
lament	-996
▁produk	-997
▁klimato	-998
chn	-999
ult	-1000
ig	-1001
rij	-1002
vai	-1003
▁ūki	-1004
alies	-1005
▁Lisabonos	-1006
tiprin	-1007
▁kurią	-1008
pareigoj	-1009
▁organiz	-1010
▁apsaugos	-1011
▁klausimu	-1012
▁no	-1013
avau	-1014
omas	-1015
umat	-1016
▁aug	-1017
▁koki	-1018
▁pati	-1019
▁atstov	-1020
▁negali	-1021
▁pabrėž	-1022
lio	-1023
▁il	-1024
ultat	-1025
▁aukš	-1026
▁du	-1027
iuosi	-1028
▁rezultat	-1029
▁vartotoj	-1030
▁tok	-1031
▁moter	-1032
▁frakcijos	-1033
yz	-1034
▁ml	-1035
▁koleg	-1036
▁vardu	-1037
▁padėkoti	-1038
▁tarptautin	-1039
imt	-1040
ven	-1041
utin	-1042
▁jūsų	-1043
▁dėlto	-1044
▁kartu	-1045
▁padid	-1046
▁poveik	-1047
bū	-1048
žas	-1049
▁An	-1050
▁At	-1051
▁Aš	-1052
▁atveju	-1053
▁didesn	-1054
▁dėmesį	-1055
ima	-1056
tikos	-1057
▁Bend	-1058
▁sveikat	-1059
▁konkuren	-1060
ines	-1061
ingas	-1062
▁vyst	-1063
▁inves	-1064
▁ištek	-1065
▁techn	-1066
▁Ki	-1067
iais	-1068
acija	-1069
▁vaik	-1070
▁Šiuo	-1071
▁plėtr	-1072
▁kontro	-1073
rod	-1074
▁dalyk	-1075
žvil	-1076
▁pam	-1077
iniai	-1078
▁Kaip	-1079
▁atžvil	-1080
▁pritari	-1081
▁di	-1082
kiri	-1083
entoj	-1084
▁Europoje	-1085
▁padaryti	-1086
▁Pirmininke	-1087
▁išv	-1088
▁priežas	-1089
etą	-1090
etas	-1091
▁moksl	-1092
▁ponai	-1093
▁susid	-1094
▁gyventoj	-1095
▁politiką	-1096
fik	-1097
▁pozi	-1098
▁pram	-1099
▁ūkio	-1100
▁imtis	-1101
▁pranešime	-1102
▁inici	-1103
etin	-1104
liek	-1105
rodo	-1106
▁nel	-1107
▁Ponia	-1108
▁partn	-1109
▁kiekvien	-1110
▁priemones	-1111
▁mokes	-1112
▁numat	-1113
▁dr	-1114
▁žod	-1115
▁maist	-1116
▁iniciatyv	-1117
▁deryb	-1118
▁projek	-1119
▁svarbus	-1120
▁piliečių	-1121
▁atžvilgiu	-1122
▁sm	-1123
angi	-1124
▁Dėl	-1125
▁ant	-1126
▁pvz	-1127
▁aišk	-1128
▁pirma	-1129
▁biudžeto	-1130
ut	-1131
▁F	-1132
lob	-1133
man	-1134
▁rag	-1135
▁Turi	-1136
▁pateikti	-1137
lių	-1138
▁sant	-1139
▁konkr	-1140
eigi	-1141
▁tuo	-1142
▁vadov	-1143
lės	-1144
▁paj	-1145
▁kitų	-1146
▁praš	-1147
▁tvark	-1148
▁palaik	-1149
▁įsipareigoj	-1150
▁grei	-1151
▁nusi	-1152
▁darbą	-1153
▁įgyvendinti	-1154
▁H	-1155
mok	-1156
auja	-1157
▁čia	-1158
tarti	-1159
▁grup	-1160
▁pavyz	-1161
▁pažang	-1162
aciją	-1163
inimą	-1164
00	-1165
ažn	-1166
ild	-1167
tok	-1168
čius	-1169
▁mat	-1170
▁steb	-1171
▁vert	-1172
▁visiems	-1173
▁turėtume	-1174
DE	-1175
riz	-1176
aipsn	-1177
audži	-1178
kreip	-1179
▁siūl	-1180
▁duomen	-1181
▁aplinkos	-1182
▁Ar	-1183
omos	-1184
▁svar	-1185
▁Taryba	-1186
▁vienas	-1187
▁politika	-1188
iam	-1189
okum	-1190
▁rib	-1191
ingai	-1192
▁būtin	-1193
▁labiau	-1194
▁pareig	-1195
▁vidaus	-1196
ain	-1197
tel	-1198
▁pripaž	-1199
rį	-1200
▁vieš	-1201
▁dokum	-1202
▁negal	-1203
▁Europa	-1204
▁priimti	-1205
aži	-1206
iniu	-1207
tent	-1208
▁ner	-1209
▁kult	-1210
▁lygi	-1211
esi	-1212
▁įs	-1213
▁jūs	-1214
ėjimo	-1215
ėja	-1216
šti	-1217
▁neturi	-1218
▁svarst	-1219
▁įvairi	-1220
▁aiškiai	-1221
▁atitink	-1222
▁teigi	-1223
▁ponios	-1224
elb	-1225
tarp	-1226
▁asp	-1227
▁Jung	-1228
▁proced	-1229
▁O	-1230
▁U	-1231
▁gri	-1232
UR	-1233
▁ank	-1234
▁pra	-1235
erinti	-1236
▁saugumo	-1237
ino	-1238
omi	-1239
škia	-1240
▁Bals	-1241
▁niek	-1242
▁jeigu	-1243
▁galime	-1244
▁nuomon	-1245
▁prieži	-1246
▁tikrųjų	-1247
▁klausimus	-1248
▁ef	-1249
džio	-1250
▁past	-1251
▁galimybę	-1252
▁3	-1253
ąją	-1254
ūrin	-1255
▁nuol	-1256
▁netur	-1257
▁viena	-1258
▁lygmen	-1259
▁pasiekti	-1260
▁au	-1261
inaud	-1262
▁šioje	-1263
▁atliek	-1264
▁finansų	-1265
▁sukurti	-1266
▁institucijos	-1267
ūrim	-1268
▁energe	-1269
▁priori	-1270
▁tikrai	-1271
▁siekiama	-1272
vaiz	-1273
inimas	-1274
▁skiri	-1275
▁šiame	-1276
▁atskir	-1277
▁pastang	-1278
▁priklaus	-1279
ug	-1280
kal	-1281
▁Gr	-1282
ijas	-1283
sime	-1284
▁pui	-1285
▁sėk	-1286
▁dažn	-1287
▁fond	-1288
▁pras	-1289
▁sunk	-1290
▁interes	-1291
ūn	-1292
ūrų	-1293
ertin	-1294
▁pavoj	-1295
▁panaik	-1296
▁pabrėžti	-1297
▁nustatyti	-1298
aliai	-1299
žiaug	-1300
fer	-1301
ietų	-1302
isak	-1303
▁lai	-1304
▁por	-1305
▁pre	-1306
▁maisto	-1307
ras	-1308
▁kil	-1309
▁tek	-1310
▁abej	-1311
▁pači	-1312
▁vaidmen	-1313
▁sistemos	-1314
▁transporto	-1315
ūrą	-1316
▁Tur	-1317
▁šiuos	-1318
▁atkreip	-1319
alų	-1320
dar	-1321
rime	-1322
▁dien	-1323
▁gerb	-1324
▁sudė	-1325
▁turin	-1326
▁papild	-1327
▁komiteto	-1328
▁laikotarp	-1329
ytas	-1330
škai	-1331
▁EUR	-1332
▁nen	-1333
▁jums	-1334
▁moterų	-1335
▁Sąjungoje	-1336
▁sveikatos	-1337
yr	-1338
met	-1339
eišk	-1340
▁būd	-1341
ingsn	-1342
usijos	-1343
▁skaid	-1344
▁požiūriu	-1345
▁reikalav	-1346
▁ge	-1347
auki	-1348
▁Pirm	-1349
▁kain	-1350
▁komp	-1351
kaitant	-1352
▁reform	-1353
▁žingsn	-1354
▁nuostat	-1355
▁pirmininkauj	-1356
▁atsižvelgiant	-1357
oji	-1358
val	-1359
▁maži	-1360
▁pers	-1361
▁rek	-1362
acijų	-1363
andar	-1364
▁skur	-1365
▁energetikos	-1366
ėte	-1367
▁kit	-1368
ienio	-1369
▁krizės	-1370
▁kuriuo	-1371
▁nariai	-1372
▁pasaulyje	-1373
▁įskaitant	-1374
▁z	-1375
▁Val	-1376
tinai	-1377
ėjimą	-1378
aisant	-1379
▁valdži	-1380
▁šalies	-1381
▁žinoma	-1382
▁plėtros	-1383
▁standar	-1384
tyv	-1385
uje	-1386
timi	-1387
ėsime	-1388
▁srit	-1389
▁pagrį	-1390
▁savai	-1391
▁reguli	-1392
▁atsižvelg	-1393
▁reglament	-1394
▁valstybėms	-1395
▁valstybėse	-1396
ko	-1397
▁5	-1398
din	-1399
▁Iš	-1400
▁Su	-1401
▁šv	-1402
kivaiz	-1403
▁parod	-1404
▁tiesio	-1405
▁Tarybai	-1406
▁pasinaud	-1407
▁priemonės	-1408
▁op	-1409
▁mas	-1410
▁nuro	-1411
▁priėm	-1412
▁efektyv	-1413
▁technolog	-1414
tvark	-1415
▁tvir	-1416
▁griež	-1417
▁šalys	-1418
▁nebuvo	-1419
▁atsakom	-1420
su	-1421
▁c	-1422
gai	-1423
omų	-1424
yba	-1425
istr	-1426
▁mln	-1427
▁pos	-1428
▁šalims	-1429
▁pasiūlymą	-1430
▁vyriausyb	-1431
lo	-1432
oja	-1433
▁jį	-1434
▁Pas	-1435
cijas	-1436
▁kurio	-1437
▁ragin	-1438
▁visos	-1439
▁daugel	-1440
▁prisid	-1441
▁straipsn	-1442
gn	-1443
ate	-1444
▁jud	-1445
▁juos	-1446
▁remi	-1447
sižvel	-1448
▁šalyse	-1449
▁Parlamente	-1450
▁h	-1451
▁reiškia	-1452
▁žv	-1453
džiai	-1454
▁Gali	-1455
▁poreik	-1456
▁strukt	-1457
▁produktų	-1458
tra	-1459
▁ūk	-1460
dyti	-1461
▁nek	-1462
▁bank	-1463
▁pini	-1464
▁metais	-1465
▁nuomone	-1466
op	-1467
yp	-1468
ano	-1469
laud	-1470
▁Šis	-1471
ėjusi	-1472
▁apib	-1473
▁kitos	-1474
▁žmonės	-1475
▁pareišk	-1476
▁užs	-1477
ingumo	-1478
▁kurioje	-1479
▁srityse	-1480
▁paslaugų	-1481
▁diskusijos	-1482
umų	-1483
alog	-1484
▁lik	-1485
▁oro	-1486
▁tol	-1487
▁sien	-1488
▁padėtį	-1489
anc	-1490
ris	-1491
unk	-1492
uol	-1493
▁Bū	-1494
gent	-1495
ytos	-1496
▁mėnes	-1497
▁vieną	-1498
▁įstat	-1499
▁skaidr	-1500
▁kuriose	-1501
▁pasaulio	-1502
▁direktyvos	-1503
gų	-1504
ūm	-1505
▁4	-1506
▁br	-1507
▁neį	-1508
▁Mano	-1509
▁patik	-1510
▁versl	-1511
▁daugum	-1512
▁kuriame	-1513
str	-1514
▁ją	-1515
entų	-1516
taik	-1517
▁rim	-1518
▁Teis	-1519
▁inte	-1520
▁Dabar	-1521
racijos	-1522
▁papras	-1523
pl	-1524
ymu	-1525
ėjau	-1526
Europ	-1527
▁euro	-1528
▁stab	-1529
▁noriu	-1530
▁išlaid	-1531
▁svarbi	-1532
▁vietos	-1533
▁veiklos	-1534
▁metus	-1535
▁partner	-1536
▁dokument	-1537
▁pagalbos	-1538
▁pranešimas	-1539
už	-1540
ati	-1541
yki	-1542
ytis	-1543
agrin	-1544
antys	-1545
varst	-1546
▁form	-1547
▁Turime	-1548
▁pareng	-1549
▁išteklių	-1550
▁svarbiaus	-1551
▁taisyklių	-1552
▁visuomenės	-1553
",	-1554
".	-1555
▁Af	-1556
▁atas	-1557
▁lėšų	-1558
▁agent	-1559
▁jiems	-1560
▁teisę	-1561
▁šalis	-1562
▁dialog	-1563
▁kuriais	-1564
▁reikalų	-1565
▁spręsti	-1566
▁skatinti	-1567
▁Bendrijos	-1568
▁pranešimo	-1569
ėd	-1570
amo	-1571
šal	-1572
▁am	-1573
engi	-1574
rikos	-1575
tokol	-1576
ymosi	-1577
▁2009	-1578
▁Taigi	-1579
▁bendrov	-1580
ūz	-1581
abai	-1582
ingi	-1583
▁išr	-1584
▁spe	-1585
tinio	-1586
▁trūk	-1587
▁lygio	-1588
▁tiesų	-1589
▁pakank	-1590
▁skirti	-1591
▁suteikti	-1592
ver	-1593
ūra	-1594
▁al	-1595
asis	-1596
▁leis	-1597
olidar	-1598
▁narys	-1599
▁kurias	-1600
▁narėms	-1601
▁norime	-1602
▁pastar	-1603
▁įvertin	-1604
aj	-1605
ete	-1606
voti	-1607
ingos	-1608
ėjimas	-1609
▁jūros	-1610
▁narėse	-1611
▁tikslas	-1612
▁gyventojų	-1613
▁sumažinti	-1614
ac	-1615
▁Pag	-1616
▁prak	-1617
ančius	-1618
▁patir	-1619
▁investi	-1620
▁stiprin	-1621
▁ateityje	-1622
▁mokesčių	-1623
▁problema	-1624
▁piliečiams	-1625
▁institucijų	-1626
inta	-1627
liai	-1628
ėtoj	-1629
▁ras	-1630
usios	-1631
▁baig	-1632
▁teises	-1633
▁sistemą	-1634
▁vaidmenį	-1635
iama	-1636
irūp	-1637
▁Bal	-1638
▁kal	-1639
▁kuo	-1640
ešimt	-1641
omend	-1642
▁visas	-1643
▁žodži	-1644
▁bendrą	-1645
▁panaud	-1646
▁lygmeniu	-1647
▁pritariu	-1648
log	-1649
tinę	-1650
▁Jei	-1651
ancūz	-1652
▁Turk	-1653
▁gerai	-1654
▁prisi	-1655
▁priežiūros	-1656
▁susitarimas	-1657
ji	-1658
ump	-1659
engv	-1660
▁mir	-1661
▁Vien	-1662
▁aktų	-1663
▁jaun	-1664
▁šias	-1665
promis	-1666
pręsti	-1667
▁visus	-1668
▁būtent	-1669
▁geresn	-1670
▁vartotojų	-1671
▁susitarimo	-1672
ic	-1673
ąjį	-1674
▁19	-1675
▁ad	-1676
▁fak	-1677
▁išk	-1678
▁nuk	-1679
▁vėl	-1680
▁geriau	-1681
▁pažeid	-1682
▁įsitik	-1683
▁protokol	-1684
▁rekomend	-1685
re	-1686
▁id	-1687
▁is	-1688
akar	-1689
enka	-1690
▁Nep	-1691
▁šie	-1692
▁nary	-1693
▁neat	-1694
tiškai	-1695
▁kelia	-1696
▁akivaiz	-1697
▁padėtis	-1698
▁pagrindinių	-1699
▁rezoliucijos	-1700
yd	-1701
eja	-1702
mas	-1703
onių	-1704
▁Kai	-1705
▁ter	-1706
▁stat	-1707
▁mažiau	-1708
▁reikėtų	-1709
▁žmonėms	-1710
▁susijusių	-1711
ine	-1712
kti	-1713
inam	-1714
▁išš	-1715
▁mod	-1716
▁pus	-1717
▁sub	-1718
▁joki	-1719
▁skub	-1720
▁dalis	-1721
▁esame	-1722
▁kovos	-1723
▁suderin	-1724
▁tiesiog	-1725
▁kompromis	-1726
▁darbuotojų	-1727
eln	-1728
iant	-1729
naud	-1730
taip	-1731
uotų	-1732
▁esu	-1733
tarin	-1734
▁rodo	-1735
▁žvej	-1736
uosius	-1737
▁nusikal	-1738
▁sudėting	-1739
▁tinkamai	-1740
▁pirmiausia	-1741
mę	-1742
▁Kar	-1743
▁aut	-1744
▁gar	-1745
prend	-1746
▁perd	-1747
▁rinką	-1748
▁tokia	-1749
▁turės	-1750
▁kadangi	-1751
▁padarin	-1752
▁paramos	-1753
▁konkreči	-1754
▁problemų	-1755
▁strategijos	-1756
atų	-1757
oju	-1758
umu	-1759
uoja	-1760
alioj	-1761
inant	-1762
▁išsi	-1763
▁nurod	-1764
lamento	-1765
▁dažnai	-1766
▁intern	-1767
▁paramą	-1768
▁priorit	-1769
▁klausimų	-1770
▁tikiuosi	-1771
▁problemos	-1772
▁nepriklaus	-1773
▁sprendimus	-1774
FR	-1775
az	-1776
tak	-1777
uod	-1778
ėse	-1779
kite	-1780
▁buv	-1781
▁mil	-1782
▁prof	-1783
▁tikslų	-1784
▁Prancūz	-1785
▁konkurenc	-1786
▁sprendimo	-1787
▁Galiausiai	-1788
umui	-1789
▁Vid	-1790
▁viz	-1791
▁šia	-1792
▁2020	-1793
▁tari	-1794
▁gauti	-1795
▁krite	-1796
▁turėti	-1797
▁vartoj	-1798
▁poveikį	-1799
▁solidar	-1800
▁Balsavau	-1801
▁kuriomis	-1802
▁Komisijai	-1803
▁darbotvark	-1804
lig	-1805
yla	-1806
laus	-1807
rėži	-1808
▁Tik	-1809
▁ket	-1810
ėjome	-1811
▁Kalb	-1812
▁leid	-1813
▁gamin	-1814
▁treči	-1815
▁paaišk	-1816
▁savait	-1817
▁sistema	-1818
▁galimybes	-1819
▁kontrolės	-1820
ES	-1821
ani	-1822
eno	-1823
ito	-1824
ėta	-1825
▁EP	-1826
autų	-1827
iejų	-1828
ingą	-1829
istų	-1830
timo	-1831
▁Kon	-1832
cijai	-1833
▁visą	-1834
▁kodėl	-1835
▁tyrimų	-1836
▁sąlygas	-1837
▁valdymo	-1838
▁valdžios	-1839
▁privalome	-1840
▁klausimais	-1841
iki	-1842
ird	-1843
uot	-1844
tesn	-1845
eikti	-1846
ordin	-1847
prant	-1848
▁vand	-1849
▁aspek	-1850
▁esmės	-1851
▁privalo	-1852
aun	-1853
būt	-1854
ymų	-1855
lius	-1856
okių	-1857
▁band	-1858
▁pris	-1859
▁teri	-1860
▁europ	-1861
▁bendro	-1862
▁daryti	-1863
▁ataskai	-1864
▁ekonomik	-1865
▁pramonės	-1866
▁problemas	-1867
▁sustiprin	-1868
omą	-1869
ėsi	-1870
žiūr	-1871
▁dvi	-1872
▁sen	-1873
▁tem	-1874
▁tarn	-1875
▁atlikti	-1876
▁koordin	-1877
žiaugiuosi	-1878
▁sprendimą	-1879
vok	-1880
▁bi	-1881
džių	-1882
tišk	-1883
▁riz	-1884
▁ryš	-1885
▁sug	-1886
▁vyr	-1887
▁ilgal	-1888
▁pavad	-1889
anglaud	-1890
▁sąjung	-1891
▁vienod	-1892
▁įtraukti	-1893
mą	-1894
imi	-1895
▁Ai	-1896
▁įt	-1897
▁še	-1898
uota	-1899
▁šeš	-1900
tinis	-1901
▁Veng	-1902
▁kons	-1903
▁perk	-1904
ančias	-1905
▁Graik	-1906
▁aktyv	-1907
▁kelią	-1908
▁krizę	-1909
iausiai	-1910
▁neteis	-1911
▁dėmesio	-1912
▁Atsižvel	-1913
▁pasiūlymas	-1914
▁pasinaudoti	-1915
),	-1916
ėjų	-1917
tija	-1918
▁būs	-1919
▁pok	-1920
ausia	-1921
▁cent	-1922
▁reikš	-1923
▁aukšči	-1924
▁naujas	-1925
▁pramon	-1926
▁vyksta	-1927
▁parengti	-1928
▁pasirink	-1929
▁atkreipti	-1930
▁Į	-1931
irš	-1932
yko	-1933
▁de	-1934
arbo	-1935
▁išg	-1936
▁žuv	-1937
eikia	-1938
iamas	-1939
▁Tarp	-1940
▁glob	-1941
▁kiti	-1942
▁tero	-1943
▁kuria	-1944
▁sudaro	-1945
▁įmonių	-1946
▁paskelb	-1947
▁susirūp	-1948
▁sėkming	-1949
▁balsavau	-1950
▁susitarimą	-1951
▁informacijos	-1952
kri	-1953
orės	-1954
tuoj	-1955
ėjus	-1956
▁Bar	-1957
▁gai	-1958
ančią	-1959
rimin	-1960
▁grės	-1961
▁toks	-1962
anijos	-1963
▁pajėg	-1964
▁leidži	-1965
▁vertyb	-1966
▁visada	-1967
▁pradėti	-1968
▁6	-1969
siu	-1970
enkl	-1971
eten	-1972
okie	-1973
▁Tiki	-1974
▁laiv	-1975
cijoms	-1976
▁Jeigu	-1977
▁tekst	-1978
▁dirbti	-1979
▁sutink	-1980
▁tikslus	-1981
▁padėties	-1982
▁pasireng	-1983
erd	-1984
oso	-1985
▁mus	-1986
▁Žin	-1987
iniais	-1988
minist	-1989
uojant	-1990
▁klaid	-1991
▁naujų	-1992
▁nebus	-1993
▁trump	-1994
▁pagalbą	-1995
▁pagrįst	-1996
▁galėtume	-1997
▁gyvenimo	-1998
▁sprendži	-1999
▁padidinti	-2000
▁finansinių	-2001
▁pakankamai	-2002
▁sprendimas	-2003
ber	-2004
muo	-2005
▁Ir	-2006
iams	-2007
▁Vad	-2008
▁abi	-2009
▁jas	-2010
▁kli	-2011
▁zon	-2012
▁lank	-2013
▁nebū	-2014
▁reag	-2015
▁smur	-2016
cijoje	-2017
▁Labai	-2018
▁ketin	-2019
▁vietų	-2020
▁derybų	-2021
▁pradži	-2022
▁šalyje	-2023
▁ministr	-2024
▁projekt	-2025
▁užsienio	-2026
eda	-2027
ote	-2028
▁Ne	-2029
iems	-2030
uria	-2031
▁Kin	-2032
eglob	-2033
▁Mūsų	-2034
▁dalį	-2035
▁parem	-2036
▁vaikų	-2037
▁ženkl	-2038
▁patenk	-2039
▁siekti	-2040
▁stabil	-2041
▁atsisak	-2042
▁skirtum	-2043
▁piliečiai	-2044
▁vystymosi	-2045
alio	-2046
toti	-2047
▁dėk	-2048
▁žal	-2049
▁2008	-2050
▁itin	-2051
▁Vadov	-2052
▁ankst	-2053
▁nelai	-2054
▁nepak	-2055
▁palan	-2056
▁pastab	-2057
▁dauguma	-2058
▁regiono	-2059
▁pasiūlymų	-2060
▁sutarties	-2061
ron	-2062
tal	-2063
zid	-2064
šči	-2065
▁Tr	-2066
▁et	-2067
▁ra	-2068
▁tą	-2069
▁jėg	-2070
▁kryp	-2071
▁poky	-2072
anduol	-2073
▁Antra	-2074
▁fondo	-2075
▁metod	-2076
▁naują	-2077
▁bendra	-2078
▁kaitos	-2079
▁laikas	-2080
▁susijęs	-2081
▁taikyti	-2082
▁tvarkos	-2083
▁šalimis	-2084
▁administ	-2085
▁žingsnis	-2086
ininkystės	-2087
▁sektoriaus	-2088
▁rezoliuciją	-2089
AV	-2090
est	-2091
ias	-2092
ybą	-2093
▁ci	-2094
▁ta	-2095
abej	-2096
iame	-2097
▁Per	-2098
atori	-2099
ausio	-2100
▁Daug	-2101
▁pamin	-2102
▁išorės	-2103
▁vertus	-2104
▁prieglob	-2105
▁išspręsti	-2106
▁pasiūlymo	-2107
▁sektoriuje	-2108
▁Parlamentui	-2109
ejų	-2110
pro	-2111
žem	-2112
▁om	-2113
▁įd	-2114
▁išp	-2115
▁kor	-2116
alios	-2117
entas	-2118
esnis	-2119
sčiau	-2120
▁besi	-2121
▁kaim	-2122
▁mies	-2123
▁pali	-2124
▁įtak	-2125
▁žini	-2126
▁elekt	-2127
▁rasti	-2128
▁tinkl	-2129
▁keletą	-2130
▁konven	-2131
▁profes	-2132
▁veiklą	-2133
▁veikti	-2134
▁didžiul	-2135
▁duomenų	-2136
▁pabrėži	-2137
▁Sąjungai	-2138
▁diskrimin	-2139
PL	-2140
▁vė	-2141
▁Esu	-2142
▁elg	-2143
▁tas	-2144
▁dujų	-2145
▁plat	-2146
▁aprib	-2147
▁panaš	-2148
▁spaud	-2149
▁galbūt	-2150
▁nuolat	-2151
▁laisvės	-2152
▁rinkoje	-2153
anglaudos	-2154
▁laikytis	-2155
▁prioritet	-2156
▁priežasčių	-2157
000	-2158
iet	-2159
irb	-2160
▁10	-2161
egal	-2162
rint	-2163
▁atn	-2164
avimu	-2165
uotos	-2166
▁konf	-2167
▁šiam	-2168
▁išvad	-2169
▁nepas	-2170
▁Vadovų	-2171
▁papraš	-2172
▁ūkinink	-2173
▁gamintoj	-2174
▁sprendimų	-2175
▁diskusijas	-2176
pri	-2177
žių	-2178
apus	-2179
esti	-2180
vyst	-2181
ėtis	-2182
▁JAV	-2183
▁ang	-2184
▁inf	-2185
ausių	-2186
intas	-2187
▁Mums	-2188
▁jame	-2189
▁mote	-2190
▁prid	-2191
▁situ	-2192
▁atvir	-2193
▁išmet	-2194
▁Valsti	-2195
▁apibrėž	-2196
▁klausimo	-2197
▁kompeten	-2198
▁neturėtų	-2199
▁pritarti	-2200
▁skirting	-2201
▁finansavimo	-2202
▁Ap	-2203
obil	-2204
▁Bri	-2205
▁išd	-2206
▁tau	-2207
uotas	-2208
▁mech	-2209
▁nesu	-2210
▁tada	-2211
▁įman	-2212
eikšti	-2213
yriaus	-2214
▁jokių	-2215
▁lauki	-2216
▁milij	-2217
▁Praneš	-2218
▁naujov	-2219
▁pavyzd	-2220
▁nutrauk	-2221
▁aplinkyb	-2222
▁dabartin	-2223
▁pakeisti	-2224
▁pažeidži	-2225
▁poveikio	-2226
▁klausimai	-2227
▁programos	-2228
▁ekonominės	-2229
▁av	-2230
baig	-2231
iškų	-2232
uoju	-2233
▁Toki	-2234
▁kliū	-2235
iniams	-2236
▁integ	-2237
▁relig	-2238
▁remti	-2239
▁speci	-2240
▁dešimt	-2241
▁pabaig	-2242
▁susiję	-2243
anitarin	-2244
▁kokybės	-2245
▁branduol	-2246
▁greičiau	-2247
▁kriterij	-2248
▁mechaniz	-2249
▁mokslinių	-2250
▁nepaisant	-2251
▁administra	-2252
▁8	-2253
ins	-2254
yra	-2255
umun	-2256
▁Ame	-2257
▁Kad	-2258
esnės	-2259
tariu	-2260
▁2010	-2261
▁oper	-2262
▁pard	-2263
▁pobū	-2264
▁įrod	-2265
▁šiol	-2266
▁Vokie	-2267
▁įvykd	-2268
▁Europą	-2269
▁kovoti	-2270
▁matyti	-2271
▁kalbėti	-2272
▁pasitik	-2273
▁vertinu	-2274
▁strategiją	-2275
ūd	-2276
aliu	-2277
sčio	-2278
▁Bet	-2279
džiui	-2280
ojimo	-2281
torij	-2282
trukt	-2283
▁kita	-2284
▁truk	-2285
▁švie	-2286
▁persp	-2287
▁invest	-2288
▁saugos	-2289
▁apsauga	-2290
▁Tikiuosi	-2291
▁persvarst	-2292
▁strategija	-2293
▁svarbiausia	-2294
IT	-2295
rd	-2296
uz	-2297
nel	-2298
giai	-2299
ingų	-2300
ytoj	-2301
ūkst	-2302
▁000	-2303
▁Jis	-2304
▁Lib	-2305
▁hum	-2306
mokes	-2307
tinti	-2308
▁Nors	-2309
▁kitą	-2310
▁Sutar	-2311
▁autom	-2312
▁kaimyn	-2313
▁Tarptau	-2314
▁apsaugą	-2315
▁nariams	-2316
▁pasiraš	-2317
▁politinių	-2318
▁rezultatų	-2319
▁bendruomen	-2320
▁tarptautinės	-2321
ind	-2322
varb	-2323
ymus	-2324
▁Dar	-2325
▁rod	-2326
ančio	-2327
eikal	-2328
imais	-2329
▁neiš	-2330
▁visk	-2331
▁viso	-2332
acijas	-2333
imtumo	-2334
▁lengv	-2335
▁teisė	-2336
▁atrodo	-2337
▁teikti	-2338
▁sąlygos	-2339
▁anksčiau	-2340
▁partneri	-2341
▁pastangas	-2342
amus	-2343
eiti	-2344
erdv	-2345
abejo	-2346
eniai	-2347
tinas	-2348
ykius	-2349
▁Ital	-2350
▁kyla	-2351
▁mlrd	-2352
▁tvar	-2353
uojama	-2354
▁Rumun	-2355
▁padės	-2356
▁refer	-2357
▁išlaik	-2358
▁nagrin	-2359
▁naudos	-2360
▁paskir	-2361
▁pinigų	-2362
▁supras	-2363
▁bendros	-2364
▁kuriems	-2365
igracijos	-2366
▁nuomonės	-2367
▁pažangos	-2368
▁poziciją	-2369
▁protokolą	-2370
▁atsižvelgti	-2371
anų	-2372
inu	-2373
lov	-2374
tys	-2375
▁In	-2376
▁Šv	-2377
alių	-2378
ieji	-2379
▁Rūm	-2380
▁jam	-2381
aujin	-2382
ausią	-2383
esnio	-2384
inėje	-2385
tifik	-2386
▁būdu	-2387
▁erdv	-2388
▁kreip	-2389
▁kūrim	-2390
▁nerim	-2391
▁tokių	-2392
antiems	-2393
▁aspekt	-2394
▁žinome	-2395
▁žmones	-2396
▁Europai	-2397
▁derybos	-2398
▁vykdyti	-2399
▁negalime	-2400
▁apsaugoti	-2401
▁dalyvauti	-2402
▁galimybių	-2403
▁pagerinti	-2404
▁reikalauj	-2405
▁remiantis	-2406
▁taisykles	-2407
▁informacija	-2408
▁informaciją	-2409
▁demokratijos	-2410
▁prieglobsčio	-2411
ga	-2412
▁7	-2413
inč	-2414
isi	-2415
rių	-2416
▁kv	-2417
imės	-2418
inkl	-2419
tinį	-2420
▁gyn	-2421
feren	-2422
ojant	-2423
torin	-2424
tugal	-2425
▁tiks	-2426
▁atsir	-2427
▁esmin	-2428
▁kelių	-2429
▁beveik	-2430
▁įmonės	-2431
▁galutin	-2432
▁gamybos	-2433
▁ilgalaik	-2434
▁valstybes	-2435
▁perspektyv	-2436
▁sanglaudos	-2437
▁humanitarin	-2438
ekl	-2439
inei	-2440
iška	-2441
laik	-2442
▁Isp	-2443
▁del	-2444
▁jus	-2445
▁pot	-2446
▁rūp	-2447
intel	-2448
krain	-2449
▁apim	-2450
rindži	-2451
▁Kitas	-2452
▁kaita	-2453
▁medži	-2454
▁tapti	-2455
ortugal	-2456
▁asmenų	-2457
▁dalies	-2458
▁pritar	-2459
▁santyk	-2460
▁derybas	-2461
▁nuomonę	-2462
▁pasveik	-2463
▁pažangą	-2464
▁regionų	-2465
▁suprant	-2466
▁taikymo	-2467
▁balsuoti	-2468
▁Šiandien	-2469
▁balsavimo	-2470
▁diskusijų	-2471
▁finansinės	-2472
▁patvirtinti	-2473
▁įgyvendinimo	-2474
raf	-2475
ąsi	-2476
giau	-2477
▁nem	-2478
▁sur	-2479
amasi	-2480
uomet	-2481
▁link	-2482
ausias	-2483
▁aišku	-2484
▁kaimo	-2485
▁pasik	-2486
ančioms	-2487
valstyb	-2488
▁demokr	-2489
▁besivyst	-2490
▁direktyva	-2491
▁socialinės	-2492
▁susijusius	-2493
mu	-2494
žr	-2495
200	-2496
mių	-2497
▁an	-2498
▁ch	-2499
alon	-2500
▁užm	-2501
tines	-2502
▁blog	-2503
▁Šios	-2504
papras	-2505
▁liber	-2506
▁taigi	-2507
▁šiais	-2508
▁prezid	-2509
▁grindži	-2510
▁frakcija	-2511
▁Nepaisant	-2512
▁galimybės	-2513
▁veiksmingai	-2514
▁partnerystės	-2515
▁reikalavimus	-2516
).	-2517
mų	-2518
įž	-2519
esp	-2520
cien	-2521
enki	-2522
gail	-2523
imis	-2524
stat	-2525
tiją	-2526
ymui	-2527
yven	-2528
▁Rus	-2529
nelyg	-2530
▁laiką	-2531
▁mastu	-2532
▁naudo	-2533
▁nieko	-2534
▁turiu	-2535
▁užkir	-2536
▁leisti	-2537
▁nebūtų	-2538
▁pacien	-2539
▁tokios	-2540
▁aptarti	-2541
▁konflik	-2542
▁medžiag	-2543
▁paklaus	-2544
▁įgalioj	-2545
▁Komisiją	-2546
▁Portugal	-2547
▁komitete	-2548
▁konferen	-2549
▁direktyvą	-2550
▁struktūrin	-2551
▁priemonėmis	-2552
▁nacionalinių	-2553
ev	-2554
ni	-2555
eiv	-2556
ūrį	-2557
atas	-2558
fici	-2559
išką	-2560
rijų	-2561
▁ilg	-2562
▁uos	-2563
▁vai	-2564
žemio	-2565
▁Deja	-2566
▁bent	-2567
▁kred	-2568
▁nare	-2569
▁pone	-2570
▁visuo	-2571
Europos	-2572
▁parlam	-2573
▁visoms	-2574
yriausyb	-2575
▁dalykas	-2576
▁naudoti	-2577
▁požiūrį	-2578
▁sutartį	-2579
▁visapus	-2580
▁daugelio	-2581
▁daugelis	-2582
▁kultūros	-2583
▁partijos	-2584
▁užimtumo	-2585
▁įsitikinę	-2586
▁reglamento	-2587
▁pasveikinti	-2588
▁reguliavimo	-2589
ado	-2590
elež	-2591
imos	-2592
ėtas	-2593
aliau	-2594
esnių	-2595
inama	-2596
klaid	-2597
rovės	-2598
▁2007	-2599
▁amži	-2600
▁baus	-2601
▁nukr	-2602
▁pien	-2603
▁pusi	-2604
▁užsi	-2605
rijoje	-2606
▁neigi	-2607
▁pasek	-2608
▁Ukrain	-2609
▁atitik	-2610
▁iššūki	-2611
▁sustab	-2612
▁verslo	-2613
▁tariant	-2614
▁įmonėms	-2615
▁įvairių	-2616
▁sutartis	-2617
▁komitetas	-2618
▁daugiausia	-2619
▁galiausiai	-2620
ard	-2621
sak	-2622
tov	-2623
▁JT	-2624
ausv	-2625
idži	-2626
riai	-2627
umus	-2628
▁bio	-2629
▁eur	-2630
▁kam	-2631
▁rež	-2632
▁ten	-2633
inter	-2634
ykiai	-2635
▁Lenk	-2636
▁kito	-2637
▁puik	-2638
▁tarš	-2639
▁teig	-2640
▁įsig	-2641
tinius	-2642
▁kainų	-2643
▁nares	-2644
▁pažym	-2645
▁sugeb	-2646
▁Rusijos	-2647
▁atliekų	-2648
▁neabejo	-2649
▁paremti	-2650
▁svarbūs	-2651
iskusijos	-2652
▁Pritariu	-2653
▁paskatin	-2654
▁problemą	-2655
▁demokratų	-2656
▁vienintel	-2657
▁pripažinti	-2658
▁investicijų	-2659
eti	-2660
igr	-2661
iui	-2662
rės	-2663
tyn	-2664
▁įr	-2665
▁sti	-2666
ograf	-2667
▁joms	-2668
▁pens	-2669
alifik	-2670
▁apima	-2671
▁sąžin	-2672
▁užduo	-2673
▁Būtent	-2674
▁augimo	-2675
▁išsaug	-2676
▁kuriai	-2677
▁netink	-2678
▁parama	-2679
▁priver	-2680
▁sritis	-2681
▁veikla	-2682
▁Žinoma	-2683
▁Kalbant	-2684
▁kontrol	-2685
▁nepriim	-2686
▁pasisak	-2687
▁regione	-2688
▁savaitę	-2689
▁Amerikos	-2690
▁atvejais	-2691
▁globaliz	-2692
▁pareigas	-2693
▁pernelyg	-2694
▁sudaryti	-2695
▁žvejybos	-2696
▁Jungtinių	-2697
▁panaikinti	-2698
NL	-2699
ein	-2700
▁atk	-2701
▁eks	-2702
▁jai	-2703
▁juo	-2704
▁naš	-2705
▁pla	-2706
inėms	-2707
iršti	-2708
tuose	-2709
▁2011	-2710
▁Slov	-2711
▁pats	-2712
▁tapo	-2713
▁vais	-2714
obilių	-2715
tiniai	-2716
▁Pirma	-2717
▁rengi	-2718
▁sunki	-2719
▁sąraš	-2720
▁uždav	-2721
interes	-2722
▁norint	-2723
▁pačios	-2724
▁prasid	-2725
rastrukt	-2726
▁Afrikos	-2727
▁milijon	-2728
▁taikoma	-2729
▁nepakank	-2730
▁nuolatin	-2731
▁programą	-2732
▁sektorių	-2733
▁skaičius	-2734
▁supapras	-2735
▁suinteres	-2736
▁taisyklės	-2737
▁nusikaltim	-2738
▁socialinių	-2739
201	-2740
ytą	-2741
įst	-2742
▁Už	-2743
alis	-2744
daug	-2745
tras	-2746
ymai	-2747
▁civ	-2748
iškas	-2749
inėmis	-2750
ojimai	-2751
tingai	-2752
▁Prieš	-2753
▁komun	-2754
▁tenka	-2755
▁uždar	-2756
ausiojo	-2757
eležink	-2758
▁dalykų	-2759
▁kitaip	-2760
▁preven	-2761
▁turėjo	-2762
▁užbaig	-2763
▁didelis	-2764
▁kolegos	-2765
▁mirties	-2766
▁ratifik	-2767
▁skirtas	-2768
▁teroriz	-2769
▁vaidmuo	-2770
▁vidutin	-2771
▁įveikti	-2772
▁interesų	-2773
▁išvengti	-2774
▁negalima	-2775
▁veiksmus	-2776
▁sąlygomis	-2777
▁infrastrukt	-2778
▁organizacijos	-2779
mė	-2780
ulg	-2781
▁PP	-2782
▁Po	-2783
auju	-2784
elių	-2785
▁Net	-2786
▁ses	-2787
espub	-2788
ydama	-2789
ysime	-2790
▁gero	-2791
▁posė	-2792
▁virš	-2793
avimui	-2794
▁aktus	-2795
▁artim	-2796
▁tampa	-2797
▁Šiame	-2798
▁pasteb	-2799
▁siekia	-2800
▁skaiči	-2801
▁tikras	-2802
▁veiksn	-2803
▁rinkimų	-2804
▁prieštar	-2805
▁priorite	-2806
▁pusiausv	-2807
▁pavaduotoj	-2808
▁pirmininko	-2809
▁solidarumo	-2810
▁laikotarpiu	-2811
▁reikalingas	-2812
RO	-2813
amb	-2814
ana	-2815
eks	-2816
mes	-2817
▁12	-2818
▁Al	-2819
antų	-2820
arij	-2821
eliu	-2822
imti	-2823
raus	-2824
▁Jie	-2825
▁jūrų	-2826
Europa	-2827
kritai	-2828
ėkūros	-2829
▁biuro	-2830
▁ginkl	-2831
▁išmok	-2832
▁kitas	-2833
▁rinka	-2834
▁rizik	-2835
uržemio	-2836
▁baudži	-2837
▁kitais	-2838
▁lankst	-2839
▁žinias	-2840
▁Valstyb	-2841
▁europie	-2842
▁kalbėjo	-2843
▁puikiai	-2844
▁tvirtai	-2845
▁projektą	-2846
▁įtvirtin	-2847
▁palankiai	-2848
▁iniciatyva	-2849
▁pranešėjas	-2850
▁susirūpinimą	-2851
ūš	-2852
alo	-2853
egz	-2854
ieg	-2855
tam	-2856
▁14	-2857
▁Ji	-2858
apit	-2859
elis	-2860
land	-2861
ąžin	-2862
▁nev	-2863
▁ren	-2864
augos	-2865
iniam	-2866
▁Serb	-2867
▁Visi	-2868
▁galv	-2869
▁inov	-2870
▁nepa	-2871
▁visa	-2872
▁šiai	-2873
▁abejo	-2874
▁angli	-2875
▁aptar	-2876
▁atsin	-2877
▁deleg	-2878
▁gyvūn	-2879
▁vakar	-2880
▁Respub	-2881
▁apgail	-2882
▁atvejų	-2883
▁dviejų	-2884
▁išnaud	-2885
▁keturi	-2886
▁kitose	-2887
▁veikia	-2888
▁išlaidų	-2889
▁kalbant	-2890
▁biudžetą	-2891
▁galėsime	-2892
▁neseniai	-2893
▁nusprend	-2894
▁pastangų	-2895
▁požiūrio	-2896
▁siekdami	-2897
▁priklauso	-2898
▁Pirmininko	-2899
▁Viduržemio	-2900
▁bendrosios	-2901
pn	-2902
▁9	-2903
ąja	-2904
antį	-2905
iami	-2906
ienį	-2907
intų	-2908
ėjai	-2909
▁Pal	-2910
▁išn	-2911
▁lig	-2912
andid	-2913
anori	-2914
▁Siek	-2915
▁daro	-2916
▁elem	-2917
▁skol	-2918
▁Šiau	-2919
▁atvyk	-2920
▁kalba	-2921
▁karin	-2922
▁naujo	-2923
▁neati	-2924
▁pašal	-2925
▁rytoj	-2926
▁skait	-2927
▁keleiv	-2928
▁kilmės	-2929
▁sakant	-2930
▁termin	-2931
▁atsitik	-2932
▁gerinti	-2933
▁Turkijos	-2934
▁geležink	-2935
▁kultūrin	-2936
▁požiūris	-2937
▁santykių	-2938
▁Vengrijos	-2939
▁padarinių	-2940
▁skaidrumo	-2941
▁priežastis	-2942
▁automobilių	-2943
▁reikalavimų	-2944
▁konkurencing	-2945
▁Atsižvelgiant	-2946
▁bendradarbiau	-2947
erc	-2948
pag	-2949
und	-2950
▁Re	-2951
▁ke	-2952
▁sl	-2953
iliz	-2954
ybai	-2955
▁Aud	-2956
▁Jūs	-2957
▁sąs	-2958
▁tel	-2959
avome	-2960
damos	-2961
▁Bulg	-2962
▁Ties	-2963
▁negu	-2964
▁stip	-2965
▁tokį	-2966
▁tuos	-2967
▁šiek	-2968
tumėte	-2969
▁Pietų	-2970
▁gyvyb	-2971
▁kokyb	-2972
▁visai	-2973
▁darbas	-2974
▁kandid	-2975
▁naujos	-2976
▁svarbą	-2977
▁visose	-2978
▁Sąjungą	-2979
▁garanti	-2980
▁kalbama	-2981
▁procesą	-2982
▁projekto	-2983
▁referend	-2984
▁vadovauj	-2985
▁Respublik	-2986
▁interesus	-2987
▁stiprinti	-2988
▁susiduria	-2989
▁vartojimo	-2990
▁pasiūlymus	-2991
▁džiaugiuosi	-2992
▁27	-2993
eiči	-2994
enos	-2995
▁rūš	-2996
▁stu	-2997
ijung	-2998
ydami	-2999
▁eksp	-3000
▁gird	-3001
▁nuoš	-3002
ančiai	-3003
stituc	-3004
tinėje	-3005
▁fondų	-3006
▁sienų	-3007
▁sutik	-3008
▁tikrų	-3009
▁tokio	-3010
▁tūkst	-3011
▁ekolog	-3012
▁grupės	-3013
▁integr	-3014
▁mokykl	-3015
▁nuosav	-3016
▁dėmesys	-3017
▁sistemų	-3018
▁skaičių	-3019
▁tikslai	-3020
▁ypating	-3021
▁atitinka	-3022
▁elektron	-3023
▁procesas	-3024
▁interneto	-3025
▁įvertinti	-3026
▁atsinaujin	-3027
▁įsitikinęs	-3028
▁Prancūzijos	-3029
▁atsakomybės	-3030
▁sustiprinti	-3031
▁neabejotinai	-3032
▁nepriklausom	-3033
▁aukščiausiojo	-3034
▁institucijoms	-3035
▁žuvininkystės	-3036
VĮ	-3037
ne	-3038
eji	-3039
ert	-3040
irž	-3041
pač	-3042
▁11	-3043
esni	-3044
tika	-3045
urin	-3046
vari	-3047
▁Kro	-3048
▁bai	-3049
▁lyd	-3050
▁sta	-3051
inamas	-3052
racija	-3053
▁Svarb	-3054
▁atsid	-3055
▁geras	-3056
▁kokia	-3057
▁nario	-3058
▁nedel	-3059
▁palyg	-3060
▁parag	-3061
▁priek	-3062
iacijos	-3063
▁diskut	-3064
▁konsul	-3065
▁manome	-3066
▁pavyko	-3067
▁visoje	-3068
▁vėliau	-3069
čiausiai	-3070
▁greitai	-3071
▁kurioms	-3072
▁Šiaurės	-3073
▁atsakyti	-3074
▁kvalifik	-3075
▁pagrindą	-3076
▁patikrin	-3077
▁pobūdžio	-3078
▁suprasti	-3079
▁Jungtinės	-3080
▁išteklius	-3081
▁naudojimo	-3082
▁sėkmingai	-3083
▁Pirmiausia	-3084
▁labiausiai	-3085
▁reikalinga	-3086
▁sprendimai	-3087
▁straipsnio	-3088
▁teisingumo	-3089
▁teisėkūros	-3090
▁tarpvalstyb	-3091
▁vyriausybės	-3092
▁įsipareigojimų	-3093
la	-3094
etu	-3095
tui	-3096
čiū	-3097
▁25	-3098
▁tų	-3099
ikai	-3100
kiau	-3101
roso	-3102
truk	-3103
usav	-3104
▁paš	-3105
▁ryž	-3106
▁tie	-3107
minti	-3108
uktyv	-3109
▁išim	-3110
▁neap	-3111
▁omen	-3112
▁vyks	-3113
ausios	-3114
ečiųjų	-3115
uojami	-3116
▁draud	-3117
▁kurti	-3118
▁malon	-3119
▁mažai	-3120
▁pabėg	-3121
▁pieno	-3122
▁reišk	-3123
▁sutel	-3124
▁tikrą	-3125
▁zonos	-3126
irželio	-3127
▁dalimi	-3128
▁didelį	-3129
▁kuriam	-3130
▁nerimą	-3131
▁subsid	-3132
▁sąlygų	-3133
▁anglies	-3134
▁moteris	-3135
▁vandens	-3136
▁įmanoma	-3137
▁naudotis	-3138
▁parlamen	-3139
▁paskutin	-3140
▁praėjusi	-3141
▁principų	-3142
▁taikomos	-3143
▁kriterijus	-3144
▁standartus	-3145
▁sprendžiant	-3146
PT	-3147
ią	-3148
elg	-3149
enh	-3150
ešk	-3151
zra	-3152
▁CO	-3153
dien	-3154
ėlių	-3155
▁Nes	-3156
▁Pak	-3157
▁naf	-3158
▁Šie	-3159
ėdami	-3160
▁Kita	-3161
▁punk	-3162
▁Šved	-3163
engeno	-3164
▁Vakar	-3165
▁dieną	-3166
▁planą	-3167
▁praei	-3168
▁stipr	-3169
▁tokie	-3170
▁Audito	-3171
▁laisvę	-3172
▁manymu	-3173
▁pagarb	-3174
▁patiri	-3175
▁sukeli	-3176
▁tikslo	-3177
▁įstaig	-3178
▁Barroso	-3179
▁Pagrind	-3180
▁kalbame	-3181
▁moterys	-3182
▁nukreip	-3183
▁pristat	-3184
▁program	-3185
▁naudinga	-3186
▁paminėti	-3187
▁parodyti	-3188
▁reaguoti	-3189
▁tarpusav	-3190
▁švietimo	-3191
▁Graikijos	-3192
▁susitarimų	-3193
oc	-3194
po	-3195
aro	-3196
ėst	-3197
▁As	-3198
alus	-3199
ektr	-3200
rija	-3201
vimo	-3202
ytus	-3203
▁Kop	-3204
▁MVĮ	-3205
▁Mar	-3206
▁Pro	-3207
▁apg	-3208
▁lem	-3209
▁rad	-3210
▁sal	-3211
aukti	-3212
edant	-3213
enhag	-3214
giama	-3215
tingų	-3216
▁2006	-3217
▁dviš	-3218
▁etap	-3219
▁penk	-3220
▁romų	-3221
▁spor	-3222
▁stud	-3223
▁vizų	-3224
adienį	-3225
encial	-3226
▁galės	-3227
▁nepag	-3228
▁pačių	-3229
▁priva	-3230
▁sukel	-3231
▁sunku	-3232
ščionių	-3233
žiūrėti	-3234
▁sausio	-3235
▁skirta	-3236
▁skirtų	-3237
▁svarbų	-3238
▁tikrin	-3239
▁dialogą	-3240
▁didelių	-3241
▁niekada	-3242
▁omenyje	-3243
▁siūloma	-3244
▁tiekimo	-3245
▁numatyta	-3246
▁pareigūn	-3247
▁teisinga	-3248
▁atstovauj	-3249
▁liberaliz	-3250
▁pakeitimų	-3251
▁pasiektas	-3252
▁pozicijos	-3253
▁santykius	-3254
▁pusiausvyr	-3255
▁regionuose	-3256
▁susijusios	-3257
▁pagrindinis	-3258
▁žiniasklaid	-3259
▁darbuotojams	-3260
▁pastaruosius	-3261
oz	-3262
iln	-3263
uoš	-3264
yks	-3265
eikš	-3266
esnę	-3267
etui	-3268
ingo	-3269
iško	-3270
jans	-3271
čios	-3272
▁Jos	-3273
▁amb	-3274
▁gav	-3275
▁geb	-3276
▁rug	-3277
amųjų	-3278
▁Izra	-3279
▁abip	-3280
▁atsp	-3281
▁spar	-3282
▁tris	-3283
▁2020"	-3284
▁Negal	-3285
▁būdas	-3286
▁išlik	-3287
▁kapit	-3288
▁lyčių	-3289
▁skurd	-3290
▁sritį	-3291
▁tvari	-3292
▁valiu	-3293
▁viską	-3294
uojamos	-3295
▁Baltar	-3296
▁Vienas	-3297
▁kelias	-3298
▁vanden	-3299
▁žinote	-3300
▁Kadangi	-3301
▁saugumą	-3302
▁Kopenhag	-3303
▁birželio	-3304
▁kontroli	-3305
▁pavyzdys	-3306
▁priemonė	-3307
▁principo	-3308
▁savanori	-3309
▁suteikta	-3310
▁trečiųjų	-3311
▁užkirsti	-3312
▁prisitaik	-3313
▁atsakomybę	-3314
▁Džiaugiuosi	-3315
▁vartotojams	-3316
▁bendradarbiauti	-3317
rų	-3318
ern	-3319
mos	-3320
pas	-3321
▁15	-3322
▁gl	-3323
inys	-3324
obul	-3325
roje	-3326
ūras	-3327
▁aud	-3328
▁bal	-3329
▁byl	-3330
▁tos	-3331
tingi	-3332
tinka	-3333
▁Juod	-3334
▁Kroa	-3335
▁deja	-3336
▁funk	-3337
▁gaun	-3338
▁ginč	-3339
▁gruo	-3340
▁koks	-3341
▁liep	-3342
▁prar	-3343
▁ribų	-3344
▁trad	-3345
▁atlyg	-3346
▁atsar	-3347
▁nepam	-3348
▁nepav	-3349
▁pakar	-3350
▁posėd	-3351
▁puiki	-3352
▁rinkų	-3353
▁tęsti	-3354
aisiais	-3355
ininkai	-3356
▁ketina	-3357
▁laikom	-3358
▁minėjo	-3359
▁nuošir	-3360
▁pastat	-3361
▁taikos	-3362
▁special	-3363
▁tyrimus	-3364
▁Šengeno	-3365
▁gruodžio	-3366
▁gyvenimą	-3367
▁padaryta	-3368
▁atsakomyb	-3369
▁parlament	-3370
▁pateiktas	-3371
▁prisidėti	-3372
▁prisijung	-3373
▁socialinę	-3374
▁ekonomikai	-3375
▁pavyzdžiui	-3376
▁susitikimo	-3377
▁užtikrinant	-3378
▁nacionalinės	-3379
▁konkurencijos	-3380
Pl	-3381
go	-3382
cid	-3383
elį	-3384
lok	-3385
ąst	-3386
▁13	-3387
▁30	-3388
▁ži	-3389
/200	-3390
esnį	-3391
omus	-3392
tern	-3393
urti	-3394
▁gim	-3395
▁rūm	-3396
▁sul	-3397
▁vil	-3398
imams	-3399
tijai	-3400
▁Buvo	-3401
▁Rytų	-3402
▁tema	-3403
ydamas	-3404
▁Darbo	-3405
▁iššūk	-3406
▁kokių	-3407
▁lėšas	-3408
▁nepat	-3409
▁netgi	-3410
▁patek	-3411
▁atnauj	-3412
▁konstr	-3413
▁patais	-3414
▁sričių	-3415
▁įsteig	-3416
▁Airijos	-3417
▁amžiaus	-3418
▁aplinką	-3419
▁didesnį	-3420
▁patobul	-3421
▁proceso	-3422
▁stebėti	-3423
▁sutinku	-3424
▁teisėms	-3425
▁vadinam	-3426
▁išlaidas	-3427
▁paskirst	-3428
▁priminti	-3429
▁apskritai	-3430
▁balsavimą	-3431
▁bendrovių	-3432
▁pagrindas	-3433
▁pakeitimą	-3434
▁sektorius	-3435
▁teisingai	-3436
▁teritorij	-3437
▁informuoti	-3438
▁susitikime	-3439
▁administrac	-3440
▁priežasties	-3441
▁integracijos	-3442
▁įgyvendinant	-3443
ry	-3444
rą	-3445
ane	-3446
aup	-3447
eil	-3448
iej	-3449
mus	-3450
oks	-3451
ton	-3452
anaš	-3453
oriu	-3454
umis	-3455
ėjos	-3456
▁Gal	-3457
▁gen	-3458
▁mis	-3459
▁teb	-3460
ančia	-3461
iamos	-3462
▁Baig	-3463
▁grįž	-3464
▁karo	-3465
▁terš	-3466
▁žali	-3467
arijos	-3468
ininkų	-3469
▁laivų	-3470
▁nežin	-3471
▁pasid	-3472
▁sužin	-3473
ančiais	-3474
▁Reikia	-3475
▁aljans	-3476
▁autori	-3477
▁daugyb	-3478
▁džiaug	-3479
▁išdėst	-3480
▁kokybę	-3481
▁priekį	-3482
▁sąskai	-3483
Plojimai	-3484
▁bendras	-3485
▁kitomis	-3486
▁mažinti	-3487
▁pavojus	-3488
▁priimtas	-3489
▁priėmimo	-3490
▁rengiant	-3491
▁veiksmai	-3492
▁žmonėmis	-3493
▁imigracijos	-3494
▁akivaizdžiai	-3495
▁svarbiausias	-3496
▁technologijų	-3497
▁aplinkosaugos	-3498
▁technologijas	-3499
le	-3500
kio	-3501
ota	-3502
usį	-3503
zmo	-3504
▁Az	-3505
▁ob	-3506
eido	-3507
eral	-3508
site	-3509
tams	-3510
uotą	-3511
ėjas	-3512
ėtos	-3513
▁Pvz	-3514
▁kvo	-3515
erius	-3516
mingi	-3517
▁2013	-3518
▁laim	-3519
▁mane	-3520
▁peln	-3521
▁taps	-3522
enarin	-3523
istano	-3524
onijos	-3525
trauki	-3526
uodami	-3527
▁Didži	-3528
▁iškel	-3529
▁lėšos	-3530
▁patys	-3531
▁steng	-3532
▁tiems	-3533
▁veiki	-3534
▁įpras	-3535
▁šioms	-3536
▁šiose	-3537
▁žinių	-3538
▁analiz	-3539
▁didelę	-3540
▁galioj	-3541
▁kalbos	-3542
▁raginu	-3543
▁taršos	-3544
▁daugelį	-3545
▁komunik	-3546
▁rizikos	-3547
▁užmokes	-3548
▁ateities	-3549
▁mažinimo	-3550
▁nepapras	-3551
▁siekdama	-3552
▁taikomas	-3553
▁teigiama	-3554
▁teikiama	-3555
▁teisinės	-3556
▁tinkamas	-3557
▁Atsižvelg	-3558
▁ekonomiką	-3559
▁išlaikyti	-3560
▁konkrečių	-3561
▁paprašyti	-3562
▁potencial	-3563
▁projektas	-3564
▁sektoriui	-3565
▁standartų	-3566
▁diskusijose	-3567
▁pagrindinės	-3568
bul	-3569
kil	-3570
kra	-3571
lan	-3572
otų	-3573
▁Ek	-3574
▁Es	-3575
▁em	-3576
▁Dėk	-3577
▁PPE	-3578
▁bes	-3579
▁egz	-3580
▁kaž	-3581
▁ori	-3582
▁sil	-3583
▁šil	-3584
eklar	-3585
inimu	-3586
ąsias	-3587
ūrimo	-3588
▁gera	-3589
▁sand	-3590
▁sank	-3591
▁vidu	-3592
ekonom	-3593
osioms	-3594
ėdamas	-3595
▁Biudž	-3596
▁civil	-3597
▁dirba	-3598
▁minim	-3599
▁suvok	-3600
torijos	-3601
▁jokios	-3602
▁vienos	-3603
▁visame	-3604
▁būtinas	-3605
▁kitiems	-3606
▁prekyba	-3607
▁skubiai	-3608
▁Taryboje	-3609
▁atidžiai	-3610
▁atstovai	-3611
▁biurokra	-3612
▁kuriuose	-3613
▁programa	-3614
▁raginama	-3615
▁Pranešime	-3616
▁agentūros	-3617
▁paslaugas	-3618
▁politinės	-3619
▁stabilumo	-3620
▁didžiausią	-3621
▁paaiškinti	-3622
▁pranešėjui	-3623
▁procedūros	-3624
▁rezultatus	-3625
▁konstruktyv	-3626
▁susitarimus	-3627
▁svarbiausių	-3628
▁aplinkybėmis	-3629
▁darbotvarkės	-3630
▁tarptautinių	-3631
▁globalizacijos	-3632
HU	-3633
fi	-3634
are	-3635
cep	-3636
ims	-3637
lav	-3638
vis	-3639
yno	-3640
ęsi	-3641
▁50	-3642
alai	-3643
anda	-3644
cent	-3645
iamą	-3646
savo	-3647
sėjo	-3648
▁Tuo	-3649
▁įsp	-3650
inami	-3651
tiniu	-3652
tomis	-3653
▁Nauj	-3654
▁Brius	-3655
▁galiu	-3656
▁gerin	-3657
▁indėl	-3658
▁laiku	-3659
▁lygiu	-3660
▁miškų	-3661
▁rodik	-3662
▁tikra	-3663
▁tokią	-3664
▁vertę	-3665
encijos	-3666
▁išsami	-3667
▁ketvir	-3668
▁nukent	-3669
▁perkėl	-3670
▁sienos	-3671
▁apriboj	-3672
▁bendrai	-3673
▁dialogo	-3674
▁didinti	-3675
▁glaudži	-3676
▁kompens	-3677
▁laisvių	-3678
▁mokėtoj	-3679
▁pagalba	-3680
▁plėtoti	-3681
▁srities	-3682
▁tinkamą	-3683
▁abejonių	-3684
▁aplinkai	-3685
▁duomenis	-3686
▁nuomonei	-3687
▁pagrindu	-3688
▁bendrovės	-3689
▁biudžetas	-3690
▁ekonomika	-3691
▁nustatyta	-3692
▁politikai	-3693
▁Diskusijos	-3694
▁pakeitimus	-3695
▁finansavimą	-3696
▁pirmininkas	-3697
▁supaprastin	-3698
..	-3699
EB	-3700
EL	-3701
mi	-3702
zd	-3703
imb	-3704
omo	-3705
stų	-3706
tol	-3707
uds	-3708
vyn	-3709
▁Nr	-3710
▁sr	-3711
alią	-3712
teis	-3713
tojo	-3714
▁Jap	-3715
▁Sch	-3716
▁rėm	-3717
▁Žem	-3718
estin	-3719
utuoj	-3720
▁Visų	-3721
▁apsi	-3722
▁atid	-3723
▁kovo	-3724
▁reng	-3725
▁šalį	-3726
inamos	-3727
▁Treči	-3728
▁Turiu	-3729
▁impor	-3730
▁kitus	-3731
▁kredi	-3732
▁lygis	-3733
▁masto	-3734
▁penki	-3735
▁susis	-3736
▁vykst	-3737
ategori	-3738
▁Dėkoju	-3739
▁abiejų	-3740
▁malonu	-3741
▁nuosek	-3742
▁statis	-3743
▁tikslą	-3744
▁vietov	-3745
▁įtakos	-3746
▁žinoti	-3747
▁žodžio	-3748
▁dalykai	-3749
▁taikant	-3750
▁teising	-3751
▁tikimės	-3752
▁trumpai	-3753
▁uždraus	-3754
▁viešųjų	-3755
▁vykdant	-3756
▁abejonės	-3757
▁apsvarst	-3758
▁galimybe	-3759
▁reformas	-3760
▁saugumas	-3761
▁suteikia	-3762
▁tikslais	-3763
▁įvykdymo	-3764
▁diskusija	-3765
▁naudingas	-3766
▁nuostatas	-3767
▁Vokietijos	-3768
▁kiekvienos	-3769
▁patenkinti	-3770
▁rezultatas	-3771
▁darbotvarkę	-3772
▁iniciatyvos	-3773
ced	-3774
jek	-3775
▁No	-3776
alia	-3777
ario	-3778
buds	-3779
gnoz	-3780
lams	-3781
stas	-3782
tame	-3783
toms	-3784
tose	-3785
▁Jau	-3786
▁Pat	-3787
▁atl	-3788
▁išb	-3789
▁mui	-3790
▁nuv	-3791
▁sup	-3792
elyje	-3793
odami	-3794
siant	-3795
▁Brit	-3796
▁dipl	-3797
▁iešk	-3798
▁krik	-3799
▁spek	-3800
▁vyko	-3801
▁vyrų	-3802
audies	-3803
ektros	-3804
imuose	-3805
tingas	-3806
▁Ispan	-3807
▁Karal	-3808
▁Kodėl	-3809
▁Pasau	-3810
▁atein	-3811
▁esant	-3812
▁pilie	-3813
▁tobul	-3814
▁tokiu	-3815
budsmen	-3816
igrantų	-3817
osiomis	-3818
▁Kinija	-3819
▁Rusija	-3820
▁baigti	-3821
▁biolog	-3822
▁garant	-3823
▁kokios	-3824
▁liepos	-3825
▁mažumų	-3826
▁pajamų	-3827
▁plėtrą	-3828
▁sąnaud	-3829
▁tuomet	-3830
▁kasdien	-3831
▁pensijų	-3832
▁plataus	-3833
▁registr	-3834
▁vietoje	-3835
▁Biudžeto	-3836
▁išnagrin	-3837
▁kategori	-3838
▁mėnesius	-3839
▁norėtume	-3840
▁pasiekta	-3841
▁plenarin	-3842
▁skiriasi	-3843
▁Sutarties	-3844
▁diskutuoj	-3845
▁ekonominę	-3846
▁pareikšti	-3847
▁pradžioje	-3848
▁pranešimu	-3849
▁pranešėja	-3850
▁sutartimi	-3851
▁pakeitimas	-3852
▁prioritetus	-3853
▁reikalaujama	-3854
ef	-3855
oh	-3856
etų	-3857
čiu	-3858
▁18	-3859
▁40	-3860
▁tė	-3861
anki	-3862
emok	-3863
rims	-3864
usio	-3865
ysiu	-3866
▁Aus	-3867
▁Kas	-3868
▁Kor	-3869
▁Rem	-3870
▁atš	-3871
▁ein	-3872
▁kūr	-3873
▁lap	-3874
▁mak	-3875
▁med	-3876
▁pik	-3877
entai	-3878
inusi	-3879
▁Balk	-3880
▁Gruz	-3881
▁dvej	-3882
▁gair	-3883
▁kova	-3884
▁lygį	-3885
▁įtik	-3886
▁Štai	-3887
▁žino	-3888
ojimas	-3889
uosime	-3890
uotojų	-3891
▁elges	-3892
▁esama	-3893
▁nauja	-3894
▁pačiu	-3895
▁pinig	-3896
▁silpn	-3897
▁skelb	-3898
▁sukči	-3899
▁taptų	-3900
▁vaist	-3901
tinėmis	-3902
▁ateitį	-3903
▁augimą	-3904
▁dideli	-3905
▁kritik	-3906
▁prekių	-3907
▁prisim	-3908
▁reikės	-3909
▁skurdu	-3910
riausiai	-3911
ternatyv	-3912
▁didelės	-3913
▁prekybą	-3914
▁sandori	-3915
▁sukurta	-3916
▁sunkumų	-3917
▁susipaž	-3918
▁suteiks	-3919
▁	-3920
i	-3921
a	-3922
s	-3923
t	-3924
r	-3925
o	-3926
e	-3927
n	-3928
u	-3929
k	-3930
m	-3931
p	-3932
l	-3933
d	-3934
j	-3935
v	-3936
g	-3937
,	-3938
b	-3939
ų	-3940
y	-3941
ė	-3942
.	-3943
š	-3944
ą	-3945
ž	-3946
į	-3947
ū	-3948
c	-3949
č	-3950
E	-3951
P	-3952
T	-3953
z	-3954
S	-3955
f	-3956
K	-3957
ę	-3958
-	-3959
0	-3960
A	-3961
B	-3962
M	-3963
2	-3964
V	-3965
(	-3966
)	-3967
D	-3968
N	-3969
J	-3970
R	-3971
G	-3972
"	-3973
1	-3974
L	-3975
h	-3976
Š	-3977
I	-3978
:	-3979
C	-3980
9	-3981
?	-3982
O	-3983
5	-3984
U	-3985
F	-3986
3	-3987
4	-3988
;	-3989
7	-3990
8	-3991
Ž	-3992
6	-3993
H	-3994
/	-3995
Į	-3996
