<pad>	0
</s>	0
<unk>	0
¦	-1.61136
▁¦	-1.62456
ᓐ	-3.45319
ᒡ	-3.73677
ᒃ	-3.85783
▁᙮	-3.97498
▁,	-4.07692
ᓂ	-4.17112
ᑳ	-4.29892
ᒋ	-4.45686
ᑕᔥ	-4.48186
ᐙ	-4.59218
ᕽ	-4.59638
ᐃ	-4.77088
ᒦ	-4.78914
ᑭ	-4.79308
ᐁ	-4.87611
ᑮ	-4.88901
ᑕ	-4.9579
ᓇ	-5.05152
ᑫ	-5.05751
ᐅ	-5.07747
ᑲᔦ	-5.07792
ᐱ	-5.09689
ᒫ	-5.11753
ᐗ	-5.16591
ᒥ	-5.20956
ᐊ	-5.25415
ᔥ	-5.27392
ᐞ	-5.29209
ᑎ	-5.34181
ᑯ	-5.35397
ᑲ	-5.3967
ᓯ	-5.41279
ᓴ	-5.42389
ᐸ	-5.46351
ᐎ	-5.57989
ᓈ	-5.60588
ᑭᔐᒪᓂᑑ	-5.61066
ᔑ	-5.64338
ᓃ	-5.67932
ᐁᑮ	-5.68376
ᑖ	-5.684
ᔅ	-5.72045
▁:	-5.73243
ᒪ	-5.77477
ᐃᐃ	-5.79214
ᐋ	-5.81508
ᑳᑮ	-5.82552
ᔮ	-5.83309
ᒻ	-5.85449
ᐌ	-5.85837
ᓀ	-5.86337
ᓰ	-5.87479
ᑳᐐ	-5.88426
ᔭ	-5.89667
ᐐᓐ	-5.89942
ᐅᑮ	-5.97202
ᐐ	-5.99035
ᔦ	-6.03209
ᑑ	-6.0466
ᐎᓐ	-6.05069
ᐃᓂ	-6.05344
ᐋᓃ	-6.08233
ᒋᓴ	-6.0908
ᐃᔑ	-6.09475
ᐃᐃᒫ	-6.09919
ᐲ	-6.15419
ᑰ	-6.16358
ᑭᒋ	-6.19437
ᐊᔮ	-6.21812
ᐊᐎᔭ	-6.22074
ᐊᐲ	-6.24575
ᑌ	-6.26654
ᓱ	-6.27774
ᓅ	-6.28554
ᑳᐃᔑ	-6.29151
ᑲᑭᓇ	-6.32336
ᑴ	-6.33337
ᐊᐊ	-6.37181
ᐁᔑ	-6.42715
ᐃᑯ	-6.42995
ᐅᐅ	-6.43619
ᓭ	-6.44899
ᐹ	-6.45378
ᒀ	-6.47073
ᐃᑭ	-6.48975
ᒣ	-6.56393
ᐅᒋ	-6.61524
▁	-6.64662
ᑾ	-6.67491
▁?	-6.70775
ᑐ	-6.71285
ᓄ	-6.71556
ᐎᓂ	-6.73392
ᐯ	-6.73593
ᐃᓇ	-6.74801
ᑫᑰ	-6.75289
ᒌ	-6.77208
ᒥᓂ	-6.78598
ᒧ	-6.81864
ᑭᑲ	-6.84223
ᒥᓐ	-6.84883
ᑌᐺ	-6.85565
ᓵ	-6.86102
ᐃᔑᒋᑫ	-6.88316
ᐃᐌ	-6.89737
ᔕ	-6.92306
▁!	-6.93762
ᐯᔑ	-6.95578
ᑲᓇ	-6.97027
ᔥᐱ	-6.97466
ᐃᑭᑐ	-6.97888
ᐅᑮᐃᓈ	-6.98968
ᐴ	-7.01057
ᒨ	-7.01889
ᑭᑎ	-7.02211
ᑕᔑ	-7.04791
ᐄ	-7.05435
ᕒ	-7.05536
ᐁᑕ	-7.05798
ᑮᓇᐙ	-7.06344
ᐅᑎ	-7.07266
ᓈᐙ	-7.08351
x	-7.08592
𐋇	-7.08759
ᓂᓂ	-7.09847
ᑦ	-7.11808
ᓲ	-7.13019
ᐊᑮ	-7.13758
ᑣ	-7.14069
ᐁᐐ	-7.15466
ᐐᒋ	-7.1567
ᐌᓂ	-7.16304
ᐱᒫᑎᓯ	-7.17183
ᑕᒫ	-7.18175
ᓂᑮ	-7.2004
ᓈᓐ	-7.20152
ᑮᐃᑭᑐ	-7.22358
ᐅᑲ	-7.23228
ᐱᔥᑰ	-7.23477
ᒥᓄ	-7.25797
ᓵᑭ	-7.27393
ᓬ	-7.3057
ᑖᑯᓯ	-7.31219
ᓂᑯ	-7.32289
ᐋᔕ	-7.33009
ᒋᑫ	-7.3347
ᐌᑎ	-7.34737
ᒑ	-7.35561
ᑭᐸ	-7.36659
ᑳᑮᐃᔑ	-7.38817
ᑭᑭ	-7.39333
ᑑᑕ	-7.39341
ᑳᑎᐯᒋᑫ	-7.39805
ᐃᐃᐌ	-7.40282
ᒦᓇᐙ	-7.40808
ᒪᑲ	-7.42016
ᐃᔖ	-7.42305
ᑲᑴ	-7.42309
ᓂᓯ	-7.45731
ᔒ	-7.46388
ᓈᓂ	-7.47402
ᐊᓇᒥᐁ	-7.47857
ᐃᓂᓂ	-7.48722
ᒋᑳᑌ	-7.49784
ᑾᔭ	-7.50237
ᐃᒫ	-7.54189
ᐃᓈ	-7.54954
ᐅᒌ	-7.5502
ᑭᑮ	-7.55093
ᔥᑲ	-7.55141
ᐎᓇ	-7.55991
ᑳᐅᒋ	-7.56576
ᒧᐙ	-7.57048
ᓈᑯ	-7.57157
ᓯᐙ	-7.57952
ᐙᐸ	-7.58633
ᓂᐳ	-7.58715
ᓂᑲ	-7.59927
ᑕᒧ	-7.60054
ᒥᑯ	-7.60346
ᑮᐃᔑ	-7.61491
ᐊᐌ	-7.61793
ᐅᔕ	-7.6338
ᑳᔑ	-7.63381
ᑭᑫᑕ	-7.63864
ᓇᑰ	-7.64336
ᐃᔥᒀ	-7.64755
ᒪᐎ	-7.65096
ᔖ	-7.65236
ᑫᑯ	-7.65286
ᐱᑯ	-7.65335
ᐯᔑᑾ	-7.65566
ᑭᓯ	-7.65999
ᑮᔑ	-7.66765
ᓅᑕ	-7.67698
ᑲᒥ	-7.67825
ᐊᔮᓂ	-7.68164
ᔐ	-7.69526
ᒫᐗ	-7.70827
ᑕᒪᐙ	-7.719
ᒪᒋ	-7.72316
ᑯᑕ	-7.72363
ᐃᓂᓂᐗ	-7.7503
ᓈᑾ	-7.75369
ᔑᑾ	-7.75516
ᐅᔑ	-7.75964
ᐊᐌᓀ	-7.76188
ᑕᒧᐙ	-7.76576
ᑮᐊᓂ	-7.77741
ᐅᑖ	-7.7787
ᐊᓂ	-7.78143
ᐅᑕ	-7.78957
ᐙᐸᒫ	-7.79186
ᑭᑌ	-7.79229
ᐋᐱᒋ	-7.79553
ᔓ	-7.79822
ᐅᐌ	-7.80204
ᐙᐸᑕ	-7.81086
ᒎ	-7.8133
ᐐᑫ	-7.81609
ᑖᑾ	-7.81917
ᐎᓂᐙ	-7.82247
ᐅᑌᐺᑕᒨ	-7.82595
ᑮᐅᒋ	-7.8307
ᑕᐌ	-7.83189
ᓂᓂᒻ	-7.83263
ᐃᓀᑕ	-7.83426
ᐋᓇ	-7.83541
ᒥᓯᐌ	-7.85569
ᐆᑌᓈ	-7.85787
ᐋᓂ	-7.86607
ᒫᒌ	-7.87182
ᓉ	-7.87522
ᐁᑳ	-7.88705
ᒎᐗ	-7.89325
ᐌᒋ	-7.90148
ᐅᐅᐌ	-7.90285
ᐎᓂᓂ	-7.90596
ᓂᔕᐙ	-7.9064
ᑭᑭᓄᐊᒫᑫ	-7.91851
ᐃᔑᓭ	-7.92394
ᐱᒥ	-7.92736
ᑲᔥᑭᑑ	-7.94053
ᐅᑮᐃᑰ	-7.94452
ᑕᑲ	-7.94454
ᑮᐌ	-7.94587
ᑌᓂ	-7.94761
ᒣᒀ	-7.95452
ᓂᑖ	-7.95938
ᑕᑯᔑ	-7.95976
ᐎᑲᒥᑯ	-7.96428
ᒫᒑ	-7.96846
ᑭᑫᑖ	-7.97263
ᐊᑕ	-7.97565
ᐌᓂᐗ	-7.98297
ᑲᓂᐎ	-7.99088
ᐤ	-7.99268
ᑎᐯᓂᒥ	-7.99273
ᑌᐺᑕ	-7.99751
ᓯᒀ	-8.00015
ᐐᑕᒪᐎ	-8.00454
ᐌᑯᓀ	-8.00525
ᓯᓅ	-8.00984
ᐃᓀᑖᑯᓯ	-8.01779
ᐊᓄᑮ	-8.02171
ᑏ	-8.03479
ᒋᐅᒋ	-8.03611
ᐊᐊᐌ	-8.03742
ᐅᓄ	-8.04041
ᑖᑯ	-8.04158
ᐅᓇᔓᐌᐎ	-8.04778
ᑰᔦ	-8.04955
ᑳᑮᐅᒋ	-8.05184
ᐅᑯ	-8.05939
ᑭᑑ	-8.06052
ᒨᔕ	-8.06373
ᔭᐄ	-8.07099
ᑫᐅᒋ	-8.07204
ᑫᔑ	-8.10929
ᐙᐸᒥ	-8.10929
ᓈᑯᓯ	-8.11174
ᑫᔮᐱ	-8.11576
ᐆ	-8.12001
ᐁᑮᐃᔑ	-8.1283
ᓇᐗ	-8.13422
ᑲᓅᓈ	-8.1348
ᑕᑯ	-8.13739
ᑭᑖ	-8.13887
ᐅᑭᑭᓄᐊᒪᐙᑲᓇ	-8.13897
ᑲᒀᑕᑭ	-8.15342
ᑭᒋᐅᑭᒫ	-8.15475
ᒞ	-8.15824
ᐅᑯᓯᓴ	-8.15829
ᓃᐱᐗ	-8.15865
ᑆᓬ	-8.16744
ᔔᓂᔮ	-8.16806
ᑌᐱ	-8.17295
ᓯᓂᓂ	-8.18019
ᑳᐃᓈ	-8.18773
ᐱᒫᑎᓯᐎ	-8.18928
ᐯᒫᑎᓯᓂ	-8.20302
ᐃᓇᔥᑫ	-8.20827
ᐗᐊ	-8.20872
ᓯᐌ	-8.22812
ᐊᐗᔑᒣ	-8.23404
ᐐᓇᐙ	-8.23991
ᐱᓵ	-8.25265
ᓰᐗ	-8.25704
ᑎᓄᐎ	-8.264
ᑎᓄ	-8.26612
ᐲᑎᑫ	-8.27184
ᐸᐹ	-8.27319
ᐲᑕᕒ	-8.27713
ᓂᑎᓱ	-8.27739
ᔥᑳᑯ	-8.28441
ᐁᒐᓬ	-8.28816
ᑯᓯ	-8.29195
ᔔ	-8.29347
ᑉ	-8.29351
ᓂᔑᐗᓈ	-8.2991
ᓂᑳᑌ	-8.30492
ᐐᒌᐙ	-8.3056
ᓯᓄ	-8.30635
ᕒᐊ	-8.30806
ᒪᔮ	-8.31306
ᑕᒪᐎ	-8.31844
ᔖᑰ	-8.32587
ᑭᒋᑮᔑᑯ	-8.32753
ᓬᐊ	-8.33677
ᑭᑭᓄᐊᒪᐙ	-8.3391
ᐹᑏᓄ	-8.33911
ᐙᑳᐃᑲ	-8.33936
ᓈᑾᓂᓂ	-8.34109
ᐐᒌᐎ	-8.34128
ᑲᓂᓂ	-8.34167
ᐯᒫᑎᓯᐙ	-8.34495
ᐅᑌᑌ	-8.3451
ᐗᓂᓂ	-8.34712
ᒐ	-8.35654
ᓍ	-8.35673
ᑮᐃᑭᑐᐗ	-8.36889
ᒪᒋᑑᑕᒧᐎ	-8.36926
ᑲᓅᓂ	-8.38214
ᐸᑭᑎᓂ	-8.38612
ᐐᔭᐎ	-8.39356
ᐅᑯᓯᓯ	-8.4117
ᐊᓇᒥᐋ	-8.42426
ᔨ	-8.43063
ᑮᔑᑲ	-8.43452
ᐁᐊᓂ	-8.4361
ᐐᒌᐎᑯ	-8.43692
0	-8.43704
ᔂ	-8.43704
ᓇᑴᑕ	-8.44277
ᐸᑭᑎᓈ	-8.44378
ᐅᑮᐃᔑ	-8.44571
ᐱᒫᒋᐃ	-8.45147
ᒦᓂᑰ	-8.45242
ᐐᓯᓂ	-8.4654
ᒉᕒᐆᓴᓬᐊ	-8.46972
ᓂᑖᐎᑭ	-8.47667
ᒪᔥᑲᐎᓰ	-8.48461
ᑮᓇᐎ	-8.48476
ᒪᑲᓂᓂ	-8.49597
ᑫᑰᓂᓂ	-8.49628
ᐁᑮᐃᓈ	-8.50196
ᒪᓯᓇᐃᑲ	-8.50351
ᐅᑕᒑᑾ	-8.50351
ᐸᑴᔑᑲ	-8.50355
ᑮᔑᑲᓂᓂ	-8.51278
ᐱᒫᑎᓰ	-8.51735
ᒥᓉᑕ	-8.51892
ᑭᒋᐊᓇᒥᐁᐎᑭᒫ	-8.52434
ᑭᑫᓂᒫ	-8.5244
ᑆ	-8.53222
ᒋᑫᐎ	-8.53796
ᓈᓯᑲ	-8.53898
ᐅᓂᔑᔑ	-8.55282
ᐃᓂᐌᓂᐗ	-8.57935
ᐆᑌᓇ	-8.58217
ᑯᐸᓀ	-8.58317
ᓃᔣ	-8.58331
ᒥᓍᒋᒧᐎ	-8.5971
ᑕᐙᐙ	-8.59894
ᐅᔥᑭ	-8.60667
ᒪᒋᑑᑕ	-8.61391
ᐅᑭᒫ	-8.62107
ᐅᑖᐱᓇ	-8.62785
ᑭᑫᓂᒥ	-8.62806
ᐯᐸᑳ	-8.62813
ᐲᔖ	-8.65717
ᐃᔑᐲᐃᑳᑌ	-8.69204
ᐹᓂᒫ	-8.70124
ᑎᐹᑯᓂ	-8.71726
ᑎᐯᑖᑯᓯ	-8.72582
ᑎᐯᑕ	-8.72781
ᒪᒋᐊᒑᑾ	-8.74311
ᑮᐌᐱᒫᑎᓯ	-8.75445
ᐃᑎᓱ	-8.75914
ᑫᒋᓈ	-8.76325
ᐃᔑᓈᑯᓯ	-8.77675
ᒫᐗᒋᐃᑎ	-8.77867
ᐃᓀᑖᑾ	-8.77873
ᐸᑭᑎᓇ	-8.77894
ᑗ	-8.78776
ᐋᐸᒋᑑ	-8.78776
ᑌᐺᑕᒧᐎ	-8.79235
ᑳᐸᐎ	-8.82056
ᐃᓈᑯᓂᑫᐎ	-8.82497
ᑳᒎᐎᐎᓯ	-8.82497
ᐳ	-8.83712
ᐐᑎᑫ	-8.83917
ᐁᐸᕒᐊᐋ	-8.85382
ᔩ	-8.85382
ᑲᓇᐌᑕ	-8.86104
2	-8.86362
ᔫ	-8.86362
ᑲᑴᒋᒫ	-8.86393
ᓰᑲᐊᑖ	-8.87353
ᐅᒋᒋᓭ	-8.87457
ᐯᕒᐊᓰ	-8.88353
ᐃᔑᓂᑳᓱ	-8.88375
ᑲᑴᒋᒥ	-8.88567
ᓀᓂᒥ	-8.89464
ᐃᔅᕒᐃᔭᓬ	-8.91414
ᐅᑎᑭᑐᐎ	-8.91417
ᓂᑌᑌ	-8.92497
ᑮᑭᑐ	-8.9346
ᓃᐸᐎ	-8.93729
ᒨᔥᑭᓀ	-8.94572
ᓂᓯᑐᑕ	-8.9476
ᑌᐯᒋᑫ	-8.95649
ᐐᑕᒫᑫ	-8.95757
ᑸ	-8.96731
ᒥᓍᐸ	-8.97838
ᑶ	-9.00068
ᐅᑕᒑᑯᓂ	-9.00068
ᒉ	-9.01204
ᑎᐱᓇᐌ	-9.02355
ᐊᑕᐌᑕ	-9.02641
ᐅᑎᐯᒋᑫᐎ	-9.03517
ᐅᑖᐱᓈ	-9.03572
ᐱᒧᓭ	-9.05893
ᔑᒫᑲᓂᔕ	-9.10792
ᒥᓴᐌᑕ	-9.12083
ᐊᓯᓃ	-9.12129
ᐊᓄᑮᐋᑲ	-9.12179
ᐃᔑᐌᐸ	-9.12355
ᐃᔑᐌᐱᓯ	-9.13352
ᑳᓬᐊᓬᐄ	-9.15955
3	-9.18639
ᓶ	-9.28648
1	-9.33264
ᔪ	-9.46729
4	-9.48547
7	-9.60211
ᒬ	-9.62294
ᔣ	-9.64079
ᐺ	-9.88166
ᒸ	-9.91412
ᓋ	-10.1694
ᔛ	-10.3266
ᒶ	-10.4155
5	-10.5132
ᒍ	-10.6214
–	-10.6214
8	-10.7427
ᔀ	-10.8808
ᔾ	-10.8808
6	-11.2319
9	-11.468
(	-12.5609
)	-12.5609
.	-14.06
ᔡ	-14.0601
ᐾ	-14.0602
;	-14.0603
ᔗ	-14.0604
!	-14.0605
?	-14.0606
:	-14.0607
,	-14.0608
z	-14.0609
"	-14.0609
/	-14.0609
[	-14.0609
]	-14.0609
a	-14.0609
u	-14.0609
~	-14.0609
ᐧ	-14.0609
ᐼ	-14.0609
ᒒ	-14.0609
ᑡ	-14.0609
᙮	-14.0609
