<pad>	0
</s>	0
<unk>	0
¦	-1.35308
▁¦	-1.79145
▁	-3.04238
𐋇	-3.44422
▁,	-3.54548
a	-3.66203
i	-4.32673
s	-4.37727
v	-4.41417
▁.	-4.51828
u	-4.61979
m	-4.67113
k	-4.70604
o	-4.73471
z	-4.80641
ch	-5.07094
ne	-5.08102
na	-5.13955
se	-5.20175
po	-5.22136
e	-5.33461
d	-5.37246
ž	-5.40737
l	-5.41525
li	-5.43464
b	-5.47069
t	-5.48113
á	-5.55466
h	-5.55723
ho	-5.57971
to	-5.59043
y	-5.61719
ní	-5.65261
í	-5.65468
do	-5.74038
š	-5.76054
te	-5.8165
▁:	-5.82179
že	-5.84518
za	-5.8806
ti	-5.88214
r	-5.96119
od	-5.99059
vy	-5.99818
j	-6.01198
p	-6.01304
le	-6.05478
ě	-6.06212
je	-6.06558
ů	-6.11366
ni	-6.19478
hospodin	-6.21294
ť	-6.22197
ce	-6.25211
jeho	-6.26026
při	-6.26696
jest	-6.26761
mu	-6.28062
by	-6.32138
ně	-6.32266
n	-6.39327
pak	-6.41808
la	-6.43556
ou	-6.44932
lo	-6.45295
mi	-6.47741
al	-6.48909
aby	-6.49141
é	-6.51279
jí	-6.52578
nebo	-6.54311
č	-6.55816
ji	-6.56607
il	-6.56775
ře	-6.57581
ve	-6.57793
ná	-6.59093
bude	-6.61329
me	-6.61384
pro	-6.61726
em	-6.61743
syn	-6.62449
ra	-6.62506
no	-6.64409
byl	-6.66143
ro	-6.66899
vá	-6.68794
řekl	-6.69143
jsem	-6.69192
bo	-6.70696
st	-6.71037
ob	-6.71239
tě	-6.73201
ma	-6.7556
tak	-6.76566
ze	-6.77292
rá	-6.77431
né	-6.80337
pa	-6.81991
dí	-6.83913
ové	-6.86258
roz	-6.86751
ale	-6.87745
še	-6.88049
ný	-6.88305
před	-6.88824
sta	-6.89331
když	-6.91432
ta	-6.92294
ku	-6.93216
on	-6.94965
jako	-6.95962
en	-6.96692
an	-6.97367
ří	-6.98859
lé	-6.99707
da	-7.00938
dá	-7.03711
ví	-7.03967
c	-7.04013
tí	-7.0454
če	-7.05811
kterýž	-7.05883
ý	-7.06235
ci	-7.1011
své	-7.10584
ého	-7.11466
ovi	-7.11794
tr	-7.12302
jejich	-7.12451
el	-7.12512
lid	-7.13127
kteříž	-7.15292
f	-7.1629
ty	-7.18072
ské	-7.18928
cí	-7.19383
ší	-7.19881
di	-7.2026
nu	-7.21964
vých	-7.23246
má	-7.2391
dal	-7.25066
ru	-7.25738
tedy	-7.26512
du	-7.26863
lí	-7.28139
dě	-7.28235
jsou	-7.28346
ar	-7.29301
ten	-7.30688
mě	-7.30809
já	-7.31194
tu	-7.32615
ský	-7.34462
té	-7.35089
de	-7.35852
král	-7.36852
svého	-7.38403
ům	-7.3895
děl	-7.40384
ky	-7.40684
g	-7.41571
toho	-7.42208
nou	-7.42253
pře	-7.42741
kr	-7.43738
mne	-7.44691
vše	-7.46315
ých	-7.46385
nad	-7.46413
pl	-7.46664
proti	-7.46739
pří	-7.47581
sti	-7.48668
vou	-7.48676
ost	-7.49106
pod	-7.49713
pe	-7.5017
iáš	-7.51069
muž	-7.51449
tvé	-7.51855
ř	-7.51933
jsi	-7.53262
kteréž	-7.53306
měst	-7.54334
ny	-7.54404
jim	-7.54465
či	-7.55551
bůh	-7.56627
země	-7.57122
lu	-7.5754
vám	-7.58108
obět	-7.59712
prav	-7.59854
také	-7.60652
ú	-7.60729
budou	-7.60729
protož	-7.60906
jemu	-7.60977
ň	-7.61514
až	-7.63047
zemi	-7.63462
vol	-7.65688
hl	-7.65811
věc	-7.66329
ním	-7.66603
val	-7.67767
což	-7.68706
praví	-7.68799
dl	-7.69926
mé	-7.70114
zá	-7.70246
dne	-7.70272
tobě	-7.70665
ej	-7.70826
něm	-7.70947
iti	-7.71058
ři	-7.72007
oval	-7.72355
stá	-7.73163
byli	-7.73338
synů	-7.73626
ám	-7.73804
ry	-7.74442
ova	-7.74666
sto	-7.74851
jej	-7.75438
ým	-7.75458
slov	-7.76477
tá	-7.77299
hospodinov	-7.7816
aj	-7.78754
obě	-7.78976
jedn	-7.79133
-	-7.79696
izrael	-7.80418
bý	-7.81434
ště	-7.81491
uje	-7.82093
nost	-7.82146
ští	-7.82176
bylo	-7.82212
br	-7.84644
vý	-7.84832
pí	-7.8509
pán	-7.87412
den	-7.88801
boha	-7.89281
ruk	-7.90037
kdo	-7.91171
jmén	-7.91202
boží	-7.91867
hle	-7.9226
ží	-7.93126
dr	-7.93254
sil	-7.93767
vedl	-7.94187
svým	-7.94383
nám	-7.94887
koli	-7.95087
všech	-7.95838
čí	-7.98123
mluvil	-7.98452
izraelský	-7.98636
vás	-7.98963
měl	-7.99228
vod	-7.99437
šel	-7.99847
moc	-7.99934
ův	-8.01167
hr	-8.01302
všeck	-8.01774
mluv	-8.01827
co	-8.03037
ovati	-8.04419
ježíš	-8.04448
jud	-8.04605
mezi	-8.04814
tý	-8.04857
ď	-8.04983
míst	-8.06244
jste	-8.08742
re	-8.08939
řk	-8.10002
bez	-8.10352
služebník	-8.1068
všecky	-8.11669
pil	-8.11802
jde	-8.12056
pr	-8.13097
národ	-8.13186
učinil	-8.13262
mně	-8.13557
oči	-8.14332
noh	-8.14356
můj	-8.14397
člověk	-8.14502
těch	-8.15273
jeruzalém	-8.15481
kon	-8.15916
všickni	-8.15973
tře	-8.1701
prv	-8.18798
david	-8.18887
jeden	-8.18935
pust	-8.19009
živ	-8.19077
činí	-8.19711
bil	-8.20003
ují	-8.20214
aniž	-8.20444
ství	-8.20666
cest	-8.21055
kteráž	-8.21562
svém	-8.22958
nich	-8.24611
krále	-8.2466
egypt	-8.25153
slyš	-8.25845
její	-8.2637
kdož	-8.26525
soud	-8.26886
všecko	-8.26948
ovali	-8.27113
jsme	-8.27637
skrz	-8.28788
čas	-8.29961
srdce	-8.30282
potom	-8.30369
sedm	-8.30555
jak	-8.30858
otc	-8.30886
slou	-8.31027
jisté	-8.31303
pět	-8.31806
budeš	-8.32889
věd	-8.33851
nebe	-8.35389
duch	-8.35875
budu	-8.36026
str	-8.37853
sam	-8.38332
(	-8.38767
)	-8.38923
však	-8.39394
tři	-8.39582
dva	-8.39937
stup	-8.40208
jakž	-8.40824
více	-8.41202
tvůj	-8.41242
nic	-8.44215
amen	-8.44756
pokoj	-8.45202
káz	-8.45352
ó	-8.46172
stalo	-8.4671
tebe	-8.47208
každý	-8.47349
tvář	-8.48241
krist	-8.48796
svět	-8.49758
kterouž	-8.50614
řeč	-8.50645
tisíc	-8.51496
nyní	-8.51531
otce	-8.51612
prorok	-8.5259
čist	-8.53342
viděl	-8.53683
odpověděl	-8.5399
ejte	-8.55177
bratří	-8.55445
prostřed	-8.55628
hlas	-8.56253
hřích	-8.57493
život	-8.57564
posl	-8.58494
mojžíš	-8.58592
dcer	-8.59
loži	-8.59295
ská	-8.59645
vaše	-8.60121
ování	-8.61463
pokolení	-8.6306
zákon	-8.63148
přišel	-8.6343
jestliže	-8.63669
desát	-8.64061
zlat	-8.64397
každé	-8.64456
jenž	-8.66088
izraelské	-8.67693
kněz	-8.68921
modl	-8.69035
činil	-8.69094
řkouc	-8.69912
poslal	-8.70528
postav	-8.71508
slyšel	-8.71517
vin	-8.71828
ber	-8.71853
mohl	-8.72214
všelik	-8.73032
zůsta	-8.74535
hlav	-8.74658
mor	-8.75032
věř	-8.7526
stran	-8.76173
vaši	-8.76606
poušt	-8.76962
buď	-8.77288
žádné	-8.77507
knížat	-8.78888
saul	-8.79066
oltář	-8.79354
králov	-8.80015
tebou	-8.80091
vůj	-8.82051
hněv	-8.83361
království	-8.8342
vzal	-8.83789
druhé	-8.85105
joz	-8.86501
bratr	-8.87107
ající	-8.87229
čeled	-8.88529
spravedliv	-8.89129
veliké	-8.89387
smrt	-8.89678
vezm	-8.91727
dobré	-8.91788
kněží	-8.92262
jákob	-8.9333
nepravost	-8.95217
které	-8.96141
měsíc	-8.96595
sláv	-8.9773
klad	-8.97882
věky	-8.99124
spravedlnost	-9.00538
jdou	-9.00717
vojsk	-9.01696
brán	-9.01873
veliký	-9.01989
přikázal	-9.03459
davidov	-9.0398
stříbr	-9.07079
zdvih	-9.08005
čtyř	-9.08366
hlad	-9.0842
který	-9.08495
milost	-9.08685
vůkol	-9.09253
otec	-9.09569
poněvadž	-9.10199
smlouv	-9.10517
dědictví	-9.11475
kdež	-9.12803
nepřátel	-9.13748
pročež	-9.14082
mojžíšov	-9.1411
mysl	-9.14132
zástupů	-9.14738
babylon	-9.14743
věděl	-9.15472
šalomoun	-9.15738
umřel	-9.16413
filistin	-9.17427
mrtv	-9.17745
chází	-9.188
levít	-9.18886
podobn	-9.19104
žádný	-9.19493
:	-10.1772
[	-10.3398
1	-10.532
x	-10.6741
3	-10.9542
.	-11.0343
2	-11.0384
4	-11.1798
5	-11.5062
8	-11.6991
0	-11.7426
9	-11.8356
6	-11.8856
7	-12.0526
𐊼	-13.35
𐊣	-13.35
]	-13.933
!	-13.9331
?	-13.9332
;	-13.9333
#	-13.9334
,	-13.9334
