<pad>	0
</s>	0
<unk>	0
¦	-1.3917
▁¦	-1.39171
ܐ	-2.54881
ܘ	-3.61141
ܕ	-3.8341
ܠ	-4.47815
ܘܢ	-4.60645
ܢ	-4.63783
ܒ	-4.66168
ܝ	-4.67264
ܗܘ	-4.75544
ܗ	-4.75817
ܝܢ	-4.86105
ܬ	-4.90947
ܡܢ	-4.90967
ܠܐ	-4.92342
ܠܗ	-5.06518
ܕܝܢ	-5.25385
ܡ	-5.62111
ܥܠ	-5.6896
ܘܗܝ	-5.69085
ܟܘܢ	-5.69307
ܐܢܐ	-5.72725
ܦ	-5.80442
ܐܡܪ	-5.87036
ܟ	-5.89409
ܬܐ	-5.92323
ܗܘܢ	-5.94387
ܫܘܥ	-5.96374
ܓܝܪ	-5.97858
ܤ	-6.15273
ܚܕ	-6.19485
ܟܠ	-6.19762
ܐܝܟ	-6.21155
ܠܝ	-6.21534
ܗܢ	-6.28836
ܟܕ	-6.29469
ܐܝܬ	-6.29537
ܛ	-6.29694
ܥܒܕ	-6.30236
ܘܐܡܪ	-6.31161
ܠܡ	-6.31507
ܕܢ	-6.36136
ܡܛܠ	-6.36922
ܢܬܘܢ	-6.38446
ܗܘܘ	-6.38654
ܓ	-6.3896
ܘܠܐ	-6.39286
ܕܠܐ	-6.40197
ܠܟ	-6.43068
ܐܦ	-6.43677
ܥ	-6.45877
ܪ	-6.45985
ܘܬܐ	-6.4645
ܘܤ	-6.4717
ܢܘܢ	-6.4763
ܗܝ	-6.48517
ܒܗ	-6.48697
ܐܢܬ	-6.49821
ܠܝܢ	-6.52636
ܥܡ	-6.55544
ܩ	-6.55913
ܝܠܝܢ	-6.57592
ܨ	-6.59896
ܫ	-6.60636
ܕܐܠܗ	-6.60812
ܡܐ	-6.60901
ܢܐ	-6.6379
ܚ	-6.64661
ܡܬ	-6.64794
ܡܕܡ	-6.6563
ܙ	-6.74135
ܘܒ	-6.74553
ܠܘܬ	-6.75127
ܡܫܝܚ	-6.79469
ܟܠܗ	-6.83917
ܐܢܫ	-6.84826
ܚܝ	-6.89582
ܕܡ	-6.92003
ܒܪ	-6.94098
ܫܠܡ	-6.95747
ܘܡ	-6.96593
ܕܝ	-6.98007
ܘܟܕ	-6.98901
ܘܪ	-7.00441
ܘܠ	-7.01614
ܐܠܗ	-7.0393
ܒܝܬ	-7.09773
ܫܐ	-7.13315
ܢܝ	-7.15748
ܪܘܚ	-7.17772
ܕܐܝܬ	-7.17986
ܙܒܢ	-7.1812
ܡܪܢ	-7.21006
ܠܢ	-7.21291
ܐܢ	-7.2244
ܝܕܥ	-7.23745
ܤܓܝܐ	-7.24803
ܟܝܠ	-7.26973
ܐܡܪܝܢ	-7.27071
ܒܢܝ	-7.27225
ܗܕ	-7.27881
ܒܪܗ	-7.2915
ܩܕܡ	-7.30373
ܫܬ	-7.31323
ܗܘܝܬ	-7.31386
ܢܫܐ	-7.31437
ܒܝ	-7.31582
ܡܝܬ	-7.33711
ܐܝܟܢ	-7.34517
ܡܪܝ	-7.34926
ܗܟܢ	-7.35834
ܘܡܢ	-7.36026
ܥܕ	-7.36083
ܡܠܬ	-7.37455
ܬܬ	-7.38596
ܓܒܪ	-7.39258
ܘܐܬ	-7.39506
ܕܒ	-7.40904
ܕܥ	-7.40935
ܐܙܠ	-7.42355
ܩܪܒ	-7.46665
ܢܗܘ	-7.46888
ܘܬ	-7.47086
ܗܘܬ	-7.48128
ܕܬ	-7.49129
ܕܡܢ	-7.49283
ܚܢܢ	-7.49437
ܥܢ	-7.49663
ܬܗ	-7.50115
ܚܙܐ	-7.50665
ܬܘܢ	-7.52655
ܐܪܥ	-7.54499
ܢܬ	-7.54965
ܐܚܪܢ	-7.55668
ܬܘܒ	-7.567
ܬܠܡܝܕ	-7.59422
ܐܬܐ	-7.61962
ܡܪ	-7.6281
ܥܡܗ	-7.62894
ܫܕܪ	-7.63434
ܘܐܢ	-7.63813
ܫܡܥ	-7.65168
ܩܪ	-7.67708
ܕܐܬ	-7.67874
ܫܘ	-7.67884
ܟܝ	-7.69274
ܟܢܫ	-7.69854
ܝܬܐ	-7.70184
ܟܬܒ	-7.70485
ܒܬܪ	-7.71111
ܢܦܫܗ	-7.71595
ܡܢܗ	-7.71767
ܝܗܝ	-7.72096
ܡܠܟ	-7.73077
ܬܡܢ	-7.73501
ܝܕܥܝܢ	-7.74049
ܢܤܒ	-7.74164
ܢܒܝ	-7.75229
ܝܠ	-7.76042
ܩܝܡ	-7.77056
ܫܡܥܘܢ	-7.77499
ܟܪ	-7.77535
ܝܬܝܪ	-7.77986
ܠܝܬ	-7.78476
ܤܝ	-7.80083
ܒܥ	-7.80099
ܕܡܐ	-7.80103
ܦܓܪ	-7.80299
ܡܠܐܟ	-7.80682
ܫܡܝ	-7.80762
ܢܡܘܤ	-7.81308
ܦܪ	-7.82645
ܪܚܡ	-7.8275
ܢܫ	-7.82894
ܝܘܡ	-7.83654
ܪܒ	-7.84421
ܡܠܠ	-7.85239
ܠܥܠܡ	-7.85327
ܒܟܠ	-7.85566
ܠܐܠܗ	-7.85699
ܚܐ	-7.86497
ܝܗܒ	-7.86982
ܪܬ	-7.87131
ܗܝܡܢܘܬ	-7.87595
ܐܡܝܢ	-7.88293
ܡܟ	-7.88419
ܚܘ	-7.8872
ܪܐ	-7.88834
ܛܒ	-7.89113
ܫܝ	-7.89796
ܪܒܐ	-7.89821
ܨܒܐ	-7.90332
ܢܦܩ	-7.90422
ܡܕܝܢܬ	-7.90662
ܚܪ	-7.90694
ܐܚܝ	-7.91018
ܘܗ	-7.9147
ܩܕܝܫ	-7.92437
ܩܪܐ	-7.9268
ܡܫܟܚ	-7.93646
ܤܒܪ	-7.94027
ܦܘܠ	-7.94449
ܢܦܫ	-7.9473
ܚܠܦ	-7.94879
ܪܓ	-7.95392
ܕܪ	-7.97054
ܪܫ	-7.97663
ܝܟ	-7.97799
ܥܒܪ	-7.98403
ܤܛ	-7.98766
ܤܝܡ	-7.9884
ܝܗܘܕܝ	-7.98892
ܛܪ	-7.99643
ܩܘ	-8.00349
ܢܦܠ	-8.00639
ܟܐܦ	-8.0128
ܫܐܠ	-8.01456
ܡܫܬ	-8.01547
ܡܗܝܡܢ	-8.01591
ܥܝܢ	-8.01649
ܩܕܡܝ	-8.01931
ܚܫ	-8.02221
ܛܝܒܘܬ	-8.02867
ܘܫ	-8.03054
ܐܢܬܬ	-8.03539
ܕܐܦ	-8.03993
ܩܐ	-8.04152
ܩܒܠ	-8.04533
ܕܒܪ	-8.04699
ܕܐܡܪ	-8.05912
ܡܡܠܠ	-8.06001
ܘܟܠ	-8.06333
ܡܚ	-8.06512
ܠܒܪ	-8.07198
ܡܝ	-8.07328
ܡܠܐ	-8.08598
ܒܥܐ	-8.08844
ܬܠܬ	-8.08982
ܘܚܢܢ	-8.09093
ܒܫ	-8.09224
ܠܘܬܗ	-8.09896
ܐܬܪ	-8.09971
ܐܝܕ	-8.11169
ܘܬܗ	-8.11786
ܫܒܩ	-8.12487
ܬܪܝܢ	-8.1265
ܘܩ	-8.13878
ܐܫܟܚ	-8.1415
ܒܠܚܘܕ	-8.14931
ܒܢ	-8.15085
ܫܪܝ	-8.16214
ܘܥܠ	-8.16789
ܪܟ	-8.17066
ܘܐܝܬ	-8.17146
ܬܪܥ	-8.17631
ܚܙܘ	-8.18098
ܪܒܝ	-8.18258
ܩܡ	-8.18722
ܗܘܝ	-8.1912
ܚܘܒ	-8.19448
ܕܚܠ	-8.19612
ܒܡ	-8.19657
ܝܗ	-8.20282
ܤܡ	-8.20323
ܕܥܒܕ	-8.21335
ܥܠܡ	-8.21882
ܚܬ	-8.2228
ܟܗܢ	-8.22469
ܩܛܠ	-8.22949
ܘܚ	-8.23095
ܓܠܝ	-8.23216
ܒܫܡܝ	-8.23614
ܒܥܝܢ	-8.24126
ܛܥ	-8.24352
ܡܫ	-8.24373
ܕܚܝ	-8.25341
ܐܒܐ	-8.254
ܐܝܬܝܗ	-8.261
ܬܝ	-8.26149
ܒܟܘܢ	-8.26793
ܕܟܠ	-8.26982
ܕܐܢ	-8.27004
ܝܤ	-8.27365
ܕܫܐ	-8.2754
ܩܝ	-8.27666
ܠܚܡ	-8.28082
ܫܒܥ	-8.28137
ܩܠܐ	-8.28251
ܕܐܢܫ	-8.28339
ܫܪܪ	-8.29332
ܒܪܘܚ	-8.29359
ܥܡܡ	-8.29754
ܥܠܝ	-8.30613
ܟܤ	-8.30625
ܥܠܝܗ	-8.30825
ܫܦܝܪ	-8.31067
ܨܒܝܢ	-8.31507
ܦܩܕ	-8.31715
ܦܪܝܫ	-8.33088
ܫܥܬ	-8.33132
ܪܘ	-8.33872
ܝܩ	-8.33979
ܕܩܘ	-8.34075
ܡܠܟܘܬ	-8.34826
ܥܡܐ	-8.35003
ܬܗܘ	-8.36897
ܩܘܡ	-8.37452
ܩܢ	-8.37713
ܝܡܐ	-8.37872
ܠܡܐ	-8.37944
ܚܝܠ	-8.38094
ܤܗܕ	-8.38232
ܫܪܝܪ	-8.38393
ܬܟ	-8.38421
ܚܛܗ	-8.39631
ܝܬܘܢ	-8.40437
ܠܒܝܬ	-8.40479
ܕܠ	-8.40619
ܒܪܝ	-8.40778
ܚܙܝܬ	-8.40876
ܤܓܝ	-8.41937
ܘܐܦ	-8.42082
ܫܩܠ	-8.42108
ܪܥܝܢ	-8.43244
ܤܠܩ	-8.43445
ܫܡܥܘ	-8.43855
ܐܠܦ	-8.45062
ܕܡܫܝܚ	-8.45537
ܫܠܝܚ	-8.46212
ܕܢܗܘ	-8.46222
ܤܦܪ	-8.4673
ܢܛܪ	-8.46785
ܬܫܒܘܚܬ	-8.47021
ܥܕܬ	-8.47352
ܒܤܪ	-8.47378
ܦܠܚ	-8.47996
ܕܗܘ	-8.48163
ܪܡ	-8.48197
ܦܘܩܕܢ	-8.482
ܝܗܘܕ	-8.4829
ܙܠ	-8.48316
ܘܐܙܠ	-8.48344
ܚܛܝܬ	-8.48621
ܒܗܝܡܢܘܬ	-8.48646
ܫܒ	-8.49054
ܫܬܐ	-8.4936
ܢܚܬ	-8.49766
ܛܠܝ	-8.49844
ܒܝܫ	-8.49922
ܡܤ	-8.49991
ܢܝܢ	-8.50496
ܡܘܬ	-8.50634
ܐܪܒܥ	-8.51101
ܟܡܐ	-8.51469
ܫܘܒܚ	-8.51487
ܐܤܝܪ	-8.51584
ܒܝܕ	-8.51698
ܕܡܪܝ	-8.52017
ܪܝܢ	-8.52247
ܫܪܐ	-8.53097
ܩܘܒ	-8.53297
ܐܒܝ	-8.53811
ܫܡܥܬ	-8.54415
ܡܥ	-8.54634
ܩܫܝܫ	-8.54903
ܐܓܪ	-8.54987
ܕܠܡܐ	-8.55079
ܚܤ	-8.56154
ܒܪܢܫ	-8.56244
ܕܡܝ	-8.5667
ܒܟ	-8.57288
ܗܘܝܢ	-8.57542
ܘܢܦܩ	-8.57618
ܙܪܥ	-8.57622
ܕܢܬ	-8.5776
ܦܤ	-8.58128
ܥܘܠ	-8.58345
ܡܘܫ	-8.58526
ܥܤܪ	-8.58583
ܢܚ	-8.58874
ܗܦܟ	-8.59067
ܫܡܫ	-8.59195
ܪܓܠ	-8.59216
ܚܙܝܢ	-8.59218
ܝܘܡܬ	-8.59568
ܛܘܪ	-8.59638
ܒܩ	-8.60187
ܤܪ	-8.60513
ܚܝܬ	-8.61275
ܠܚܕ	-8.61652
ܦܐܪ	-8.61685
ܠܡܢ	-8.61705
ܩܥ	-8.61987
ܫܘܠܛܢ	-8.62166
ܬܪܬ	-8.63152
ܕܡܬ	-8.63331
ܦܬܚ	-8.63793
ܕܒܚ	-8.64029
ܒܝܘܡ	-8.64665
ܪܡܐ	-8.64746
ܚܙܝ	-8.65763
ܕܚܠܬ	-8.66059
ܠܝܘܡ	-8.66627
ܥܒܕܝܢ	-8.66942
ܕܘܟ	-8.66994
ܐܝܤܪ	-8.67534
ܐܬܝܬ	-8.67822
ܕܐܬܐ	-8.68247
ܝܡܝܢ	-8.68293
ܦܝܠ	-8.68406
ܗܝܡܢ	-8.68832
ܥܠܝܟ	-8.69046
ܒܝܫܬ	-8.69711
ܟܢܘܫܬ	-8.70035
ܬܚ	-8.70103
ܪܡܝ	-8.70383
ܡܠܦ	-8.70888
ܕܒܗ	-8.71043
ܥܝ	-8.71284
ܚܛ	-8.7146
ܢܦܫܟ	-8.71505
ܕܡܘܬ	-8.71565
ܫܩ	-8.72516
ܬܪܝ	-8.72674
ܐܚܘܗܝ	-8.72779
ܦܠܓ	-8.72831
ܡܠܝ	-8.73026
ܡܫܟܚܝܢ	-8.74526
ܒܝܫܐ	-8.74869
ܪܝܐ	-8.74922
ܕܥܠܡ	-8.7515
ܒܟܠܗ	-8.75315
ܝܬܒ	-8.75343
ܡܬܝ	-8.7553
ܙܕܩ	-8.75829
ܚܪܬ	-8.75926
ܡܦܩ	-8.76017
ܓܪ	-8.76226
ܩܝܡܝܢ	-8.76497
ܚܒܝܒ	-8.77091
ܩܠܝܠ	-8.7711
ܕܝܠܝ	-8.77209
ܫܡ	-8.77442
ܫܪܒܬ	-8.77478
ܕܥܡ	-8.77723
ܝܥ	-8.78751
ܢܘܗܪ	-8.78782
ܘܤܦ	-8.78834
ܛܒܬ	-8.78896
ܠܒܢܝ	-8.79698
ܒܬܪܗ	-8.80065
ܕܡܬܩܪ	-8.80872
ܕܒܢܝ	-8.81059
ܘܡܬ	-8.81113
ܕܢܚ	-8.81534
ܙܥܘܪ	-8.81538
ܝܘܠܦܢ	-8.81539
ܠܐܘܪ	-8.8162
ܘܝܗܒ	-8.81732
ܛܝܒ	-8.81861
ܘܐܬܐ	-8.81898
ܬܟܘܢ	-8.8205
ܢܘܪ	-8.82517
ܕܓܠ	-8.83087
ܕܟܬܝܒ	-8.83323
ܡܩܒܠ	-8.83735
ܘܩܕܡ	-8.83835
ܝܕܥܬ	-8.84476
ܥܡܝ	-8.84684
ܕܝܠܗ	-8.84685
ܤܗܕܘܬ	-8.84685
ܒܪܟ	-8.84717
ܗܝܟܠ	-8.85057
ܟܪܝܗ	-8.85118
ܩܪܝܬ	-8.85868
ܚܪܝܢ	-8.86151
ܫܒܬ	-8.87681
ܬܪܥܤܪ	-8.87879
ܕܪܘܚ	-8.88383
ܚܡܫ	-8.88645
ܕܐܝܬܝܗ	-8.89452
ܫܠܝܛ	-8.8961
ܚܨ	-8.89861
ܕܚܕ	-8.89869
ܟܐܢܘܬ	-8.90086
ܚܘܪ	-8.90613
ܕܥܬܝܕ	-8.91621
ܚܘܝ	-8.92369
ܥܬܝܕ	-8.92443
ܐܘܪܚ	-8.92531
ܐܡܗ	-8.92592
ܘܝܕ	-8.92605
ܕܫܡܝ	-8.92765
ܒܥܘ	-8.92822
ܐܘܠܨܢ	-8.92843
ܗܝܡܢܘ	-8.93071
ܡܪܝܡ	-8.93157
ܠܫܢ	-8.93915
ܡܤܒܪ	-8.94545
ܓܠܝܠ	-8.94666
ܠܟܠܗ	-8.94903
ܫܡܗ	-8.9516
ܚܒܠ	-8.95605
ܕܝܠܟ	-8.95704
ܡܚܒ	-8.95917
ܤܥܪ	-8.96356
ܡܛܝ	-8.96436
ܐܒܘܗܝ	-8.96925
ܪܒܬ	-8.97062
ܢܝܚ	-8.97713
ܗܪ	-8.97895
ܐܡܪܬ	-8.98449
ܕܝܗܘܕܝ	-8.98579
ܒܒܝܬ	-8.98643
ܠܓܒܪ	-8.98653
ܡܟܝܠ	-8.99439
ܐܚܪܝ	-8.99592
ܢܬܠ	-8.99792
ܩܪܝܒ	-9.00058
ܘܩܡ	-9.00677
ܨܒܝܢܗ	-9.00984
ܠܬܠܡܝܕ	-9.01064
ܟܘܬ	-9.01231
ܟܬܝܒ	-9.01482
ܕܫܡܗ	-9.02258
ܠܚܝ	-9.02287
ܬܝܗܒ	-9.02385
ܥܩ	-9.02668
ܙܟ	-9.0281
ܝܗܒܬ	-9.03172
ܕܐܪܥ	-9.03736
ܐܠܘ	-9.04014
ܒܛܠ	-9.04627
ܡܨ	-9.04634
ܫܡܥܝܢ	-9.04967
ܒܫܠܡ	-9.05017
ܙܕܝܩ	-9.0532
ܚܫܘܟ	-9.05616
ܠܘܩܒܠ	-9.05683
ܬܫܡܫܬ	-9.05723
ܕܠܝܬ	-9.05749
ܡܗܝܡܢܝܢ	-9.05904
ܗܪܘܕ	-9.05928
ܡܠܟܘܬܗ	-9.06183
ܦܪܫ	-9.06257
ܓܒܝ	-9.06502
ܩܤܪ	-9.06638
ܪܝܫ	-9.07348
ܠܡܕܝܢܬ	-9.07375
ܚܕܬܐ	-9.07766
ܠܠܝ	-9.0814
ܤܝܒܪ	-9.08163
ܚܛܝ	-9.08248
ܕܝܬܒ	-9.08634
ܒܐܝܕܗ	-9.09051
ܟܘܪܤܝ	-9.09546
ܤܓܕ	-9.10026
ܐܝܕܝ	-9.10762
ܡܨܠ	-9.1089
ܤܒܪܬ	-9.11084
ܚܟܡܬ	-9.11611
ܦܘܡ	-9.11958
ܒܐܦ	-9.12643
ܫܢܝܢ	-9.12894
ܐܦܩ	-9.13252
ܒܝܢܬ	-9.1407
ܡܪܗ	-9.1428
ܐܬܚܙܝ	-9.14619
ܐܝܕܗ	-9.14651
ܩܕܝ	-9.15092
ܥܝܪ	-9.152
ܤܓܝܐܬ	-9.15636
ܡܟܪܙ	-9.15812
ܛܢܦ	-9.15846
ܡܡܠܠܝܢ	-9.16085
ܪܝܡ	-9.16568
ܕܬܗܘ	-9.16784
ܡܘܗܒܬ	-9.17973
ܫܒܘܩ	-9.18095
ܡܠܦܢ	-9.19582
ܠܐܢܫ	-9.19714
ܗܪܟ	-9.19739
ܪܩ	-9.2021
ܒܢܡܘܤ	-9.20324
ܕܗܒ	-9.20339
ܡܤܗܕ	-9.21604
ܤܡܝ	-9.21749
ܒܐܝܕܝ	-9.22222
ܒܥܠܕܒܒ	-9.22465
ܡܫܡܫܢ	-9.22576
ܥܓܠ	-9.23294
ܒܐܘܪ	-9.23326
ܫܒܚ	-9.23557
ܒܒܤܪ	-9.23758
ܪܗܛ	-9.24046
ܒܫܡܗ	-9.24129
ܐܘܠܕ	-9.24969
ܡܚܕ	-9.25319
ܚܡܪ	-9.25822
ܒܝܡ	-9.26672
ܒܗܝܟܠ	-9.26813
ܫܥܝ	-9.26959
ܒܐܘܪܚ	-9.27163
ܚܕܘܬ	-9.2746
ܠܦܘܠ	-9.27749
ܠܒܘܬ	-9.27814
ܫܪܟ	-9.27995
ܓܢܒ	-9.28509
ܪܫܗ	-9.28748
ܚܩ	-9.29304
ܡܤܟܢ	-9.29335
ܦܝܠܝܦ	-9.29615
ܫܠܝ	-9.29897
ܟܦܢ	-9.3082
ܤܩ	-9.3092
ܫܢܝ	-9.31414
v	-9.3211
𐋇	-9.3211
ܪܥܝ	-9.32158
ܡܟܤ	-9.32197
ܡܩܘ	-9.32287
ܦܪܩ	-9.33594
ܐܚܝܢ	-9.34649
ܥܬܝܪ	-9.34682
ܚܟܝܡ	-9.34733
ܥܡܪ	-9.34935
ܙܝܥ	-9.35029
ܥܪܩ	-9.35213
ܢܗܪ	-9.35472
ܫܐܠܝܢ	-9.35534
ܟܤܦ	-9.35611
ܡܫܒܚ	-9.3665
ܪܘܓܙ	-9.37308
ܡܘܠܟܢ	-9.37333
ܟܦܪ	-9.37376
ܟܘܡܪ	-9.37378
ܩܒܪ	-9.37419
ܤܪܝܩ	-9.37564
ܐܒܘܟ	-9.37797
ܕܐܚ	-9.38714
ܦܘܩ	-9.39716
ܪܘܪܒ	-9.40002
ܕܢܫܬ	-9.40158
ܡܤܟ	-9.40196
ܩܪܨ	-9.40773
ܕܢܐܬ	-9.42004
ܩܒܘܪ	-9.42803
ܢܫܟܚ	-9.42804
ܠܦܝܢ	-9.43113
ܒܓܠ	-9.43181
ܙܕܝܩܘܬ	-9.43184
ܩܘܪܝ	-9.43748
ܡܟܝܟ	-9.43875
ܐܝܩܪ	-9.44633
ܦܪܨܘܦ	-9.45643
ܤܦܝܢܬ	-9.45645
ܛܝܪ	-9.45794
ܚܐܪ	-9.45994
ܡܗܠܟܝܢ	-9.46327
ܙܢܝ	-9.4685
ܐܒܗܬ	-9.47344
ܦܘܡܗ	-9.48135
ܚܤܝܪ	-9.48608
ܫܘܬܦ	-9.48615
ܪܕܦ	-9.49043
ܡܥܡܕ	-9.49889
ܢܦܩܬ	-9.51008
ܥܕܪ	-9.51268
ܦܪܥ	-9.51541
ܠܥܤ	-9.51579
ܓܙܘܪܬ	-9.51614
ܙܩܝܦ	-9.51616
ܦܨܚ	-9.51668
ܢܓܕ	-9.52788
ܨܝܕ	-9.5288
ܢܨܪ	-9.53523
ܟܫܠ	-9.53636
ܫܦܪ	-9.54511
ܘܐܪܡܝ	-9.55253
ܡܫܚ	-9.56802
ܩܨ	-9.57855
ܡܥܡܘܕܝܬ	-9.57965
ܓܙܪ	-9.57994
ܩܘܪܒܢ	-9.58006
ܢܚܙܘܢ	-9.5831
ܥܝܢܝܗ	-9.60253
ܐܬܩܪܝ	-9.60536
ܡܗܠܟ	-9.61166
ܕܝܬܩ	-9.61367
ܐܝܡܡ	-9.61381
ܒܘܪܟ	-9.61829
ܨܦܪ	-9.62286
ܡܬܚܙ	-9.63268
ܦܤܩ	-9.63353
ܥܗܕ	-9.6431
ܡܤܝܒܪܢܘܬ	-9.64748
ܓܡܝܪ	-9.64755
ܡܨܥܬ	-9.64758
ܫܩܘܠ	-9.65119
ܤܡܝܟ	-9.6539
ܟܪܤ	-9.66862
ܡܨܪܝ	-9.67382
ܐܬܡܠܝ	-9.67696
ܫܬܒܩ	-9.68293
ܙܕܗܪܘ	-9.68319
ܟܘܟܒ	-9.68338
ܥܪܤ	-9.68396
ܨܒܘܬ	-9.68596
ܡܫܪܝ	-9.68981
ܥܒܝܕ	-9.69037
ܬܘܠܬ	-9.6946
ܬܟܢܫܘ	-9.70618
ܤܢܝܐ	-9.70708
ܦܬܓܡ	-9.72023
ܦܩܚ	-9.72033
ܬܚܙܘܢ	-9.72154
ܐܪܙ	-9.72262
ܡܤܝܒ	-9.72292
ܐܪܡܠܬ	-9.72405
ܒܠܒܗ	-9.72578
ܐܟܘܠ	-9.7329
ܪܓܝܓܬ	-9.75869
ܝܩܝܪ	-9.75947
ܡܐܟܘܠܬ	-9.75966
ܝܕܝܥ	-9.76655
ܡܬܛܦܝܤ	-9.79868
ܩܢܛܪܘܢ	-9.79877
ܤܢܝܩ	-9.79902
ܐܟܪܙ	-9.79939
ܐܬܝܠܕ	-9.80014
ܡܘܕܐ	-9.8004
ܡܫܬܡܥ	-9.80083
ܨܥܪ	-9.80132
ܬܥܒܕܘܢ	-9.80414
ܐܬܪܚܡ	-9.81741
ܥܪܒ	-9.81754
ܐܫܬܥ	-9.82075
ܪܫܝܬ	-9.82295
ܚܘܡ	-9.83111
▁	-12.2916
1	-12.5746
)	-13.5746
4	-13.5746
5	-13.5746
9	-13.5746
:	-13.5746
