<pad>	0
</s>	0
<unk>	0
▁¦	-0
▁𐋇	-1
ti	-2
▁,	-3
ai	-4
in	-5
os	-6
ri	-7
pa	-8
au	-9
▁.	-10
si	-11
ir	-12
al	-13
ar	-14
an	-15
en	-16
as	-17
ei	-18
am	-19
im	-20
to	-21
su	-22
ro	-23
es	-24
ko	-25
tu	-26
ki	-27
ka	-28
ra	-29
st	-30
ku	-31
li	-32
vi	-33
mo	-34
ne	-35
ės	-36
či	-37
tai	-38
tin	-39
er	-40
at	-41
dė	-42
kad	-43
ij	-44
us	-45
pri	-46
mi	-47
tų	-48
yb	-49
ši	-50
me	-51
po	-52
tik	-53
ta	-54
ek	-55
kai	-56
iš	-57
pr	-58
uo	-59
gal	-60
eu	-61
je	-62
euro	-63
kuri	-64
ių	-65
eik	-66
dėl	-67
dar	-68
sa	-69
bū	-70
cij	-71
di	-72
re	-73
gi	-74
min	-75
europ	-76
vo	-77
ms	-78
no	-79
▁𐊣	-80
ant	-81
rin	-82
te	-83
ju	-84
europos	-85
ma	-86
ži	-87
jo	-88
par	-89
end	-90
ap	-91
kl	-92
tar	-93
ausi	-94
rė	-95
imo	-96
tei	-97
ab	-98
var	-99
jos	-100
ke	-101
pro	-102
aug	-103
už	-104
do	-105
val	-106
prie	-107
yra	-108
pat	-109
ais	-110
jų	-111
yv	-112
pir	-113
vy	-114
tas	-115
ly	-116
▁-	-117
yti	-118
de	-119
mon	-120
bu	-121
pasi	-122
ie	-123
komi	-124
ini	-125
są	-126
ja	-127
nu	-128
mu	-129
čiau	-130
turi	-131
mą	-132
aus	-133
susi	-134
dži	-135
ama	-136
mas	-137
man	-138
lai	-139
be	-140
nau	-141
bi	-142
ci	-143
teis	-144
sti	-145
sų	-146
is	-147
imą	-148
on	-149
ame	-150
taip	-151
men	-152
veik	-153
šal	-154
mis	-155
na	-156
rei	-157
tr	-158
lam	-159
tą	-160
pas	-161
svar	-162
styb	-163
valstyb	-164
inti	-165
ing	-166
kaip	-167
ng	-168
tos	-169
komisi	-170
av	-171
▁(	-172
imas	-173
pirmin	-174
bend	-175
cijos	-176
lamen	-177
jung	-178
du	-179
eš	-180
pirminin	-181
kos	-182
čių	-183
▁)	-184
tis	-185
ve	-186
pran	-187
per	-188
mų	-189
vien	-190
le	-191
lab	-192
ky	-193
gali	-194
ty	-195
kia	-196
lo	-197
ni	-198
ams	-199
klausi	-200
mes	-201
vai	-202
gr	-203
darb	-204
poli	-205
vis	-206
nuo	-207
parlamen	-208
or	-209
kur	-210
gyv	-211
ver	-212
galim	-213
kon	-214
pra	-215
praneš	-216
turė	-217
sąjung	-218
uos	-219
pi	-220
oje	-221
būtų	-222
ūsų	-223
kal	-224
▁¦2	-225
reik	-226
žin	-227
buvo	-228
va	-229
▁"	-230
ger	-231
mok	-232
būti	-233
labai	-234
nes	-235
nar	-236
kar	-237
ys	-238
ui	-239
tari	-240
savo	-241
ūr	-242
saug	-243
dal	-244
pl	-245
sk	-246
sie	-247
ijos	-248
daug	-249
bal	-250
bus	-251
pirmininke	-252
ami	-253
ge	-254
tus	-255
lin	-256
norė	-257
ėj	-258
amas	-259
anči	-260
mūsų	-261
eng	-262
spr	-263
apie	-264
kas	-265
todėl	-266
lyg	-267
eko	-268
že	-269
oj	-270
pag	-271
ką	-272
din	-273
ybos	-274
▁¦20	-275
atsi	-276
ste	-277
toj	-278
priemon	-279
padė	-280
tačiau	-281
eig	-282
tarp	-283
ekono	-284
komisijos	-285
nari	-286
vyk	-287
inan	-288
ties	-289
mos	-290
norėčiau	-291
bet	-292
tais	-293
ose	-294
vir	-295
tikrin	-296
dy	-297
kin	-298
da	-299
ėms	-300
ter	-301
skir	-302
jau	-303
kyti	-304
so	-305
amos	-306
mus	-307
kalb	-308
auk	-309
veiks	-310
reikal	-311
keli	-312
stat	-313
tini	-314
pasiū	-315
lie	-316
finan	-317
umo	-318
0¦	-319
usi	-320
ak	-321
aiš	-322
augi	-323
for	-324
cial	-325
ją	-326
paž	-327
turime	-328
pasiūly	-329
pak	-330
mano	-331
inių	-332
omis	-333
užtikrin	-334
vie	-335
▁¦1	-336
esn	-337
sav	-338
darbo	-339
dir	-340
der	-341
kri	-342
sku	-343
proc	-344
sprend	-345
tori	-346
turėtų	-347
reikia	-348
šiuo	-349
sri	-350
prieš	-351
iz	-352
lei	-353
žmon	-354
mė	-355
mės	-356
kurie	-357
ang	-358
naudo	-359
tiks	-360
sieki	-361
ji	-362
skai	-363
pagrin	-364
manau	-365
dien	-366
valstybės	-367
oms	-368
suo	-369
nai	-370
politik	-371
sąjungos	-372
dab	-373
ch	-374
gin	-375
dabar	-376
tikr	-377
aš	-378
ry	-379
tau	-380
maž	-381
cija	-382
ekt	-383
ank	-384
pagal	-385
ba	-386
duo	-387
žve	-388
visi	-389
sių	-390
bendr	-391
pe	-392
tume	-393
toki	-394
parlamento	-395
imų	-396
kom	-397
mai	-398
škai	-399
ble	-400
ent	-401
tam	-402
tuo	-403
vei	-404
daugi	-405
inės	-406
proble	-407
tina	-408
stitu	-409
gyven	-410
▁:	-411
ypa	-412
galimyb	-413
komisija	-414
str	-415
žino	-416
regi	-417
tyje	-418
gyvend	-419
pilie	-420
įsi	-421
disku	-422
lių	-423
ciją	-424
tink	-425
pateik	-426
įgyvend	-427
ime	-428
siste	-429
rez	-430
raš	-431
auj	-432
lgi	-433
priim	-434
sta	-435
lio	-436
ener	-437
ūros	-438
ga	-439
šį	-440
atsa	-441
pone	-442
galė	-443
jie	-444
bendra	-445
kų	-446
ud	-447
kurios	-448
teik	-449
susitari	-450
zi	-451
tinės	-452
pasau	-453
ekonomi	-454
mums	-455
pras	-456
tie	-457
social	-458
ūri	-459
narių	-460
institu	-461
ati	-462
sto	-463
stra	-464
ektyv	-465
apsaug	-466
por	-467
ypač	-468
gai	-469
uk	-470
lik	-471
teisės	-472
kiai	-473
valstybių	-474
cijų	-475
teg	-476
pab	-477
ėmis	-478
imus	-479
padar	-480
amą	-481
šios	-482
gu	-483
sek	-484
atsižve	-485
pareig	-486
diskusi	-487
avimo	-488
kio	-489
ėra	-490
dide	-491
tojų	-492
tek	-493
dami	-494
vertin	-495
sty	-496
▁¦200	-497
tį	-498
narės	-499
tiksl	-500
ėje	-501
▁?	-502
metu	-503
poni	-504
sutar	-505
šio	-506
el	-507
tinių	-508
daugiau	-509
nor	-510
svarbi	-511
osi	-512
laiko	-513
šių	-514
taryb	-515
liu	-516
mais	-517
šis	-518
dr	-519
tvar	-520
pakei	-521
ėjo	-522
pasa	-523
balsav	-524
gerb	-525
nustat	-526
did	-527
imu	-528
ausia	-529
jis	-530
čia	-531
darbi	-532
jusi	-533
užtikrinti	-534
ija	-535
nei	-536
dama	-537
nėra	-538
bendradarbi	-539
siekiant	-540
▁.,	-541
ėti	-542
klaus	-543
liau	-544
pasiek	-545
kriz	-546
ybės	-547
ausiai	-548
ori	-549
past	-550
kuris	-551
jai	-552
prek	-553
uosi	-554
lė	-555
rū	-556
inio	-557
mog	-558
gan	-559
atve	-560
fi	-561
nori	-562
lais	-563
prin	-564
politikos	-565
ima	-566
aplin	-567
svarbu	-568
virtin	-569
bei	-570
tarptau	-571
biud	-572
sime	-573
biudže	-574
imai	-575
ęs	-576
demok	-577
demokra	-578
gų	-579
galima	-580
jei	-581
mui	-582
visų	-583
ūs	-584
mat	-585
la	-586
se	-587
čiai	-588
trauk	-589
šian	-590
visuo	-591
inter	-592
lt	-593
šiandien	-594
ųjų	-595
amai	-596
žmog	-597
bai	-598
plė	-599
rink	-600
prisi	-601
naudoj	-602
joje	-603
infor	-604
rak	-605
ten	-606
mini	-607
auti	-608
poži	-609
komite	-610
iki	-611
kių	-612
šalių	-613
teisių	-614
katin	-615
gam	-616
pritari	-617
sąlyg	-618
nuos	-619
dų	-620
tur	-621
dyti	-622
įgyvendin	-623
arba	-624
cion	-625
kiek	-626
rijos	-627
frak	-628
ekonomikos	-629
lg	-630
ali	-631
imui	-632
ančių	-633
didži	-634
sektori	-635
dos	-636
uoti	-637
¦	-638
▁	-639
i	-640
a	-641
s	-642
t	-643
r	-644
o	-645
e	-646
n	-647
u	-648
k	-649
m	-650
p	-651
l	-652
d	-653
v	-654
j	-655
𐋇	-656
g	-657
,	-658
b	-659
ų	-660
y	-661
ė	-662
š	-663
.	-664
ą	-665
ž	-666
į	-667
ū	-668
c	-669
č	-670
f	-671
z	-672
𐊣	-673
𐊼	-674
ę	-675
0	-676
-	-677
2	-678
(	-679
)	-680
h	-681
1	-682
"	-683
:	-684
5	-685
9	-686
?	-687
3	-688
7	-689
4	-690
8	-691
;	-692
6	-693
/	-694
w	-695
!	-696
x	-697
q	-698
é	-699
%	-700
á	-701
'	-702
ö	-703
è	-704
í	-705
ó	-706
ü	-707
+	-708
ş	-709
ä	-710
ă	-711
&	-712
[	-713
]	-714
ń	-715
ß	-716
ć	-717
°	-718
ø	-719
ú	-720
ţ	-721
à	-722
ê	-723
ï	-724
ķ	-725
ł	-726
ň	-727
ő	-728
·	-729
ç	-730
ñ	-731
ý	-732
ż	-733
_	-734
ò	-735
ī	-736
ľ	-737
ř	-738
ś	-739
̨	-740
έ	-741
π	-742
ρ	-743
υ	-744
”	-745
•	-746
