<pad>	0
</s>	0
<unk>	0
▁क	-0
▁स	-1
▁ह	-2
▁प	-3
▁म	-4
्र	-5
ार	-6
▁है	-7
ें	-8
▁ज	-9
▁अ	-10
▁के	-11
▁व	-12
या	-13
▁न	-14
▁ब	-15
▁उ	-16
▁त	-17
ों	-18
▁द	-19
▁ल	-20
▁औ	-21
ने	-22
▁और	-23
▁में	-24
र्	-25
▁र	-26
ता	-27
्य	-28
▁की	-29
▁कर	-30
ान	-31
▁कि	-32
▁प्र	-33
▁आ	-34
▁को	-35
िक	-36
▁से	-37
्त	-38
▁भ	-39
▁का	-40
ना	-41
▁इ	-42
▁ग	-43
ित	-44
▁(	-45
▁पर	-46
▁य	-47
ाल	-48
▁हो	-49
▁ए	-50
्व	-51
▁च	-52
ही	-53
न्	-54
▁लि	-55
▁श	-56
ते	-57
▁वि	-58
▁सं	-59
▁जा	-60
▁हैं	-61
▁इस	-62
▁उस	-63
के	-64
ला	-65
▁ख	-66
ोग	-67
था	-68
्ष	-69
ति	-70
ड़	-71
▁एक	-72
स्	-73
ुम	-74
िय	-75
▁लिए	-76
हा	-77
▁सम	-78
हीं	-79
्या	-80
ती	-81
▁फ	-82
्ट	-83
▁अप	-84
▁उन	-85
▁जो	-86
▁तो	-87
▁सा	-88
▁नहीं	-89
वा	-90
▁दे	-91
▁तुम	-92
▁नि	-93
▁हम	-94
रा	-95
से	-96
दा	-97
िया	-98
▁भी	-99
▁ने	-100
त्र	-101
का	-102
ल्	-103
सी	-104
▁रा	-105
▁जि	-106
▁या	-107
▁बा	-108
री	-109
कार	-110
गा	-111
नी	-112
क्ष	-113
▁किया	-114
ज़	-115
▁अन	-116
ास	-117
▁यह	-118
▁ही	-119
ले	-120
सा	-121
ष्ट	-122
की	-123
ेश	-124
ारा	-125
कर	-126
मा	-127
▁करने	-128
▁थ	-129
ंग	-130
▁अध	-131
▁मु	-132
त्	-133
▁लोग	-134
▁वह	-135
िर	-136
▁स्	-137
▁हु	-138
क्त	-139
▁कु	-140
कि	-141
▁दि	-142
▁कार	-143
▁रह	-144
ाम	-145
▁ड	-146
▁उप	-147
ारे	-148
ाह	-149
न्ह	-150
▁सक	-151
द्	-152
▁अपने	-153
ियों	-154
ारी	-155
▁वे	-156
मान	-157
▁था	-158
▁ले	-159
▁ऐ	-160
▁1	-161
िल	-162
स्त	-163
▁ध	-164
रे	-165
वि	-166
ूप	-167
्च	-168
गे	-169
▁पू	-170
▁सु	-171
्री	-172
▁भार	-173
भा	-174
▁जिस	-175
ंत	-176
▁आप	-177
में	-178
▁गया	-179
▁पह	-180
▁उन्ह	-181
ैं	-182
ओं	-183
ंध	-184
▁तथा	-185
▁वाल	-186
दि	-187
्ह	-188
▁कुछ	-189
ली	-190
▁छ	-191
▁किसी	-192
▁ख़	-193
▁द्व	-194
ीन	-195
▁तुम्ह	-196
ूल	-197
▁दो	-198
▁अनु	-199
▁स्व	-200
▁साथ	-201
ाप	-202
ुदा	-203
▁मे	-204
▁जब	-205
को	-206
देश	-207
▁घ	-208
म्	-209
▁रूप	-210
खा	-211
ोज	-212
▁चाह	-213
▁अधिक	-214
▁कोई	-215
▁निर्	-216
ंद	-217
ंड	-218
ाय	-219
ुर	-220
द्ध	-221
▁उनके	-222
▁विश	-223
गी	-224
▁ला	-225
ार्	-226
▁थे	-227
▁ट	-228
▁तक	-229
भी	-230
▁द्वारा	-231
न्द	-232
ढ़	-233
▁करें	-234
▁करते	-235
▁पा	-236
▁व्य	-237
▁राज	-238
▁प्रति	-239
गर	-240
▁लोगों	-241
▁भा	-242
ाना	-243
र्व	-244
▁बना	-245
▁दिया	-246
नों	-247
▁क्ष	-248
▁परि	-249
▁2	-250
क़	-251
▁वर्	-252
योग	-253
त्त	-254
▁जाए	-255
▁बह	-256
लाह	-257
ंत्र	-258
ुत	-259
▁कह	-260
▁भारत	-261
धार	-262
▁मा	-263
▁फिर	-264
जी	-265
ये	-266
ाद	-267
िए	-268
▁राष्ट	-269
▁तर	-270
▁अल्	-271
▁सि	-272
▁कार्य	-273
क्	-274
▁ये	-275
रण	-276
▁मैं	-277
्ञ	-278
ुन	-279
▁अव	-280
▁कहा	-281
क्र	-282
▁स्थ	-283
▁जाता	-284
बंध	-285
्छ	-286
▁रहे	-287
▁उसके	-288
क्ति	-289
▁क्या	-290
फ़	-291
▁"	-292
▁रख	-293
▁इन	-294
▁सब	-295
▁ई	-296
ूर	-297
ष्	-298
▁करना	-299
▁अल्लाह	-300
▁ज़	-301
ड़ा	-302
नि	-303
▁ख़ुदा	-304
▁अपनी	-305
▁थी	-306
द्य	-307
▁सर	-308
ंच	-309
ानी	-310
ब्	-311
जा	-312
न्न	-313
▁फ़	-314
▁मह	-315
च्छ	-316
त्य	-317
र्ण	-318
▁जी	-319
स्थ	-320
▁बात	-321
▁हुए	-322
मी	-323
्यों	-324
दी	-325
पर	-326
▁सू	-327
▁विक	-328
▁उन्हें	-329
▁करता	-330
▁सी	-331
्रे	-332
▁होता	-333
िन	-334
वाल	-335
श्च	-336
▁क़	-337
ेत्र	-338
▁ओ	-339
ोंने	-340
▁रहा	-341
ड़े	-342
▁सकता	-343
कृ	-344
िका	-345
▁उसे	-346
ाइ	-347
ाप्त	-348
चार	-349
▁हि	-350
▁दी	-351
▁बी	-352
र्थ	-353
▁जान	-354
बर	-355
च्च	-356
▁गु	-357
मे	-358
वर्	-359
ूस	-360
▁क्षेत्र	-361
▁मान	-362
▁देख	-363
टा	-364
▁बहुत	-365
▁समय	-366
▁राष्ट्र	-367
ड़ी	-368
ज्ञ	-369
▁मि	-370
दान	-371
पू	-372
हर	-373
▁पु	-374
▁जै	-375
र्म	-376
▁बाद	-377
भि	-378
ोल	-379
▁पै	-380
शन	-381
वन	-382
▁आय	-383
ियम	-384
कों	-385
टी	-386
पति	-387
वे	-388
▁तरह	-389
▁सह	-390
▁बे	-391
▁वाले	-392
▁उन्होंने	-393
▁हुआ	-394
▁काम	-395
▁पास	-396
वी	-397
▁देश	-398
▁पहले	-399
▁अंत	-400
ोक	-401
प्र	-402
▁हमने	-403
ेष	-404
चना	-405
▁उत्	-406
स्था	-407
्रीय	-408
▁ना	-409
▁होगा	-410
▁जिन	-411
ुल	-412
▁उनकी	-413
क्षा	-414
▁यदि	-415
▁तुम्हारे	-416
ौर	-417
▁गई	-418
झे	-419
▁बि	-420
▁गए	-421
ख़	-422
▁प्राप्त	-423
्रा	-424
धान	-425
▁सरकार	-426
▁अन्य	-427
▁संबंध	-428
▁दिन	-429
▁होने	-430
▁ओर	-431
▁हू	-432
न्त	-433
▁वर्ष	-434
▁पी	-435
▁सम्	-436
धि	-437
यों	-438
▁सभी	-439
▁कम	-440
एँ	-441
▁छो	-442
▁विश्व	-443
हां	-444
▁चु	-445
▁19	-446
▁ऐसे	-447
▁करो	-448
िक्ष	-449
00	-450
▁हमारे	-451
गत	-452
लि	-453
▁राष्ट्रपति	-454
स्ता	-455
करण	-456
वं	-457
▁नाम	-458
▁प्रा	-459
दार	-460
▁झ	-461
▁निक	-462
श्य	-463
▁प्रकार	-464
▁बद	-465
ंक	-466
▁सकते	-467
एं	-468
टे	-469
▁साम	-470
▁ता	-471
भाव	-472
▁चाहिए	-473
सर	-474
िश	-475
ीय	-476
तीय	-477
▁s	-478
▁मिल	-479
▁इसके	-480
ग्र	-481
▁बु	-482
▁ऊ	-483
तर	-484
▁बढ़	-485
स्ट	-486
वर	-487
्स	-488
▁किए	-489
िप	-490
▁उसकी	-491
चा	-492
▁हर	-493
त्व	-494
▁जाने	-495
▁होती	-496
बा	-497
हाँ	-498
ंप	-499
जन	-500
▁अच्छ	-501
शा	-502
ोजना	-503
तिक	-504
ूम	-505
दर्	-506
▁ची	-507
▁नी	-508
▁'	-509
▁दूस	-510
▁रस	-511
माण	-512
▁ईमान	-513
रो	-514
▁ठ	-515
शी	-516
▁अगर	-517
▁करे	-518
पूर्ण	-519
यी	-520
बी	-521
मत	-522
िति	-523
▁ऐसा	-524
▁एवं	-525
▁हों	-526
गार	-527
ास्त	-528
▁राज्य	-529
द्योग	-530
▁समझ	-531
▁पहु	-532
▁कारण	-533
▁विकास	-534
सार	-535
पाद	-536
▁अब	-537
▁व्यक्ति	-538
▁लग	-539
▁भारतीय	-540
ची	-541
ात	-542
▁कृ	-543
्यू	-544
▁मो	-545
ेंगे	-546
ध्य	-547
▁मुझे	-548
वल	-549
त्म	-550
▁रसूल	-551
▁हुई	-552
ाली	-553
▁(_	-554
▁हा	-555
ुक्त	-556
ाइल	-557
द्र	-558
▁स्त	-559
वार	-560
टर	-561
ेज	-562
▁जन	-563
किन	-564
▁पूर्व	-565
धा	-566
यन	-567
▁व्या	-568
01	-569
ष्ठ	-570
ेल	-571
▁लगा	-572
ज़ा	-573
मु	-574
▁मूल	-575
तन	-576
▁दु	-577
▁क्यों	-578
▁उसने	-579
पी	-580
▁लेकिन	-581
▁दिखा	-582
▁लिया	-583
▁बन	-584
क्रम	-585
▁वा	-586
तः	-587
▁दोनों	-588
▁जाती	-589
on	-590
िम	-591
▁प्रश	-592
▁तुम्हें	-593
लों	-594
▁मौ	-595
▁सद	-596
▁क्र	-597
दे	-598
ोर	-599
▁वै	-600
लय	-601
▁अस	-602
▁अपना	-603
ाला	-604
▁उपयोग	-605
▁ऐसी	-606
वाद	-607
लग	-608
▁खा	-609
्ड	-610
▁आव	-611
▁जीवन	-612
▁विशेष	-613
▁चल	-614
▁होते	-615
▁3	-616
▁अभि	-617
हाय	-618
चे	-619
▁à	-620
▁ग्र	-621
▁प्रदान	-622
िंग	-623
धिक	-624
तों	-625
▁बारे	-626
▁रही	-627
▁बीच	-628
▁ढ	-629
▁बै	-630
व्य	-631
▁रु	-632
▁वाला	-633
▁मुख	-634
▁मन	-635
कारी	-636
▁बार	-637
फल	-638
▁भाग	-639
▁यु	-640
▁उत्त	-641
।"	-642
▁समा	-643
चित	-644
काश	-645
▁खु	-646
▁श्री	-647
▁शिक्ष	-648
me	-649
▁निय	-650
▁जैसे	-651
ेक	-652
▁सहाय	-653
▁वास्त	-654
▁स्था	-655
▁उसका	-656
ंभ	-657
▁ऑ	-658
तना	-659
▁आधार	-660
ठा	-661
ख्या	-662
डी	-663
िस	-664
वेश	-665
▁आज	-666
▁सेवा	-667
ti	-668
षण	-669
िला	-670
▁कै	-671
▁न्या	-672
कता	-673
▁जाएगा	-674
▁देने	-675
्ल	-676
हित	-677
षा	-678
▁केवल	-679
▁चीज़	-680
..	-681
धन	-682
▁उनका	-683
▁दृ	-684
▁गा	-685
▁माल	-686
ल्प	-687
▁हमें	-688
▁प्रयोग	-689
▁मेरे	-690
ून	-691
▁रब	-692
ग़	-693
ार्थ	-694
▁आवश्य	-695
▁सो	-696
▁जिसमें	-697
ूद	-698
ज्ञान	-699
क्षण	-700
▁हूँ	-701
▁दर	-702
▁बो	-703
▁वही	-704
▁विचार	-705
▁सर्व	-706
रिक	-707
▁निश्च	-708
▁मार्	-709
▁स्थान	-710
ियां	-711
णी	-712
▁ताकि	-713
र्य	-714
▁स्प	-715
▁पैदा	-716
ित्र	-717
▁मै	-718
पित	-719
ुट	-720
▁वाली	-721
▁प्रत्य	-722
्न	-723
न्तु	-724
▁n	-725
▁सबसे	-726
▁इसे	-727
in	-728
▁बड़ा	-729
▁उसी	-730
िता	-731
रों	-732
▁जाना	-733
ंस	-734
त्ता	-735
▁निर्धार	-736
िनियम	-737
यास	-738
▁माम	-739
▁हमारी	-740
तु	-741
▁अथ	-742
▁विष	-743
▁पार	-744
लब्	-745
▁अधिनियम	-746
र्क	-747
र्ष	-748
▁रो	-749
▁धारा	-750
हार	-751
▁देता	-752
▁तब	-753
▁जाते	-754
▁अधिकार	-755
▁शु	-756
▁इसमें	-757
▁दा	-758
ेर	-759
▁राष्ट्रीय	-760
▁आर	-761
लिए	-762
ूत	-763
▁कंप	-764
भाग	-765
▁आस	-766
▁डि	-767
▁उपलब्	-768
▁योजना	-769
▁उत्पाद	-770
ियाँ	-771
ब्द	-772
पा	-773
▁जिसे	-774
▁व्यव	-775
ुनिया	-776
▁बस	-777
▁लिख	-778
▁अथवा	-779
द्योगिक	-780
an	-781
▁हे	-782
बे	-783
▁संदेश	-784
▁पश्च	-785
▁फ़ाइल	-786
▁सामान	-787
कृत	-788
ूह	-789
ताओं	-790
▁परवर	-791
वरण	-792
▁बल्	-793
▁शाम	-794
▁उससे	-795
्यान	-796
ंज	-797
दिगार	-798
मिक	-799
▁शुर	-800
▁सूचना	-801
▁क्योंकि	-802
▁दर्	-803
वान	-804
▁उनसे	-805
सं	-806
▁परवरदिगार	-807
भव	-808
क्रिया	-809
▁मार्ग	-810
▁ज्ञ	-811
▁पुर	-812
काल	-813
▁महत्व	-814
िट	-815
▁तै	-816
▁स्ट	-817
त्या	-818
tion	-819
श्व	-820
▁सकती	-821
▁लो	-822
▁बैं	-823
त्रा	-824
▁दौर	-825
धी	-826
▁संप	-827
▁मंत्र	-828
▁डाल	-829
▁शिक्षा	-830
डर	-831
▁करती	-832
▁अर्	-833
▁पहुँ	-834
▁व्याप	-835
यार	-836
▁उपलब्ध	-837
ुक	-838
▁मू	-839
ट्ट	-840
▁वृ	-841
कृति	-842
▁दूसरे	-843
▁मद	-844
▁स्थिति	-845
▁डा	-846
भिन्न	-847
ुष	-848
▁लोक	-849
▁योग	-850
▁इसलिए	-851
▁कें	-852
ंति	-853
▁जर	-854
ंजी	-855
▁संग	-856
▁बच्च	-857
▁पुन	-858
▁जिन्ह	-859
▁सहायता	-860
ोट	-861
युक्त	-862
▁छोड़	-863
नेवाल	-864
▁प्रभाव	-865
er	-866
▁उच्च	-867
▁होना	-868
ेद	-869
ंश	-870
तान	-871
▁बड़ी	-872
▁हाथ	-873
▁महा	-874
ष्टि	-875
▁जु	-876
▁वित	-877
▁उद्	-878
▁उनमें	-879
न्द्र	-880
▁अर्थ	-881
ेट	-882
▁हूं	-883
▁होगी	-884
इन	-885
क्ट	-886
ताब	-887
एस	-888
▁कभी	-889
स्तु	-890
ोप	-891
▁मेरी	-892
वाह	-893
...	-894
यं	-895
▁शामिल	-896
▁कई	-897
▁अधीन	-898
▁सके	-899
▁प्रण	-900
▁विभिन्न	-901
▁स्वा	-902
▁आया	-903
ूट	-904
र्ट	-905
्यालय	-906
▁अति	-907
ame	-908
ोह	-909
▁बल्कि	-910
ंट	-911
▁बता	-912
▁अंतर	-913
स्थान	-914
▁इससे	-915
▁दौरान	-916
▁हाल	-917
▁लिये	-918
हत	-919
▁कहते	-920
▁करके	-921
▁5	-922
▁सदस	-923
▁4	-924
तम	-925
▁किस	-926
त्मक	-927
▁आगे	-928
▁सुर	-929
▁यहाँ	-930
▁अनुस	-931
▁ब्र	-932
रूप	-933
ण्ड	-934
मुख	-935
ेम	-936
र्इ	-937
▁अनुसार	-938
▁पता	-939
कट	-940
▁दूर	-941
▁भाषा	-942
्ला	-943
▁बैठ	-944
▁कर्म	-945
▁अवसर	-946
▁जहां	-947
सल	-948
▁इसी	-949
▁भूम	-950
▁अंग	-951
▁विषय	-952
द्धि	-953
▁अभ	-954
ेह	-955
▁होंगे	-956
▁सूची	-957
▁शी	-958
▁तरफ	-959
▁ग़	-960
ासन	-961
ोजन	-962
ैन	-963
स्व	-964
▁उनको	-965
▁मुख्य	-966
▁t	-967
▁यही	-968
▁पड़	-969
▁(1	-970
▁पि	-971
दन	-972
फी	-973
▁अग	-974
शि	-975
▁याद	-976
ग्रह	-977
्म	-978
▁आई	-979
▁परिवर्	-980
▁लाभ	-981
▁सामने	-982
▁इसका	-983
pr	-984
यर	-985
जे	-986
▁शै	-987
▁जिसके	-988
मीन	-989
▁स्वी	-990
▁१	-991
▁सामान्य	-992
▁उठा	-993
▁प्रक्रिया	-994
▁पूरा	-995
ित्व	-996
और	-997
▁अनुम	-998
▁स्पष्ट	-999
▁करेगा	-1000
▁पूर्ण	-1001
▁देते	-1002
लो	-1003
कर्	-1004
▁चि	-1005
सम	-1006
▁शा	-1007
▁201	-1008
▁उसमें	-1009
▁200	-1010
▁‘	-1011
▁संबंधित	-1012
▁तैयार	-1013
▁ऋ	-1014
▁संख्या	-1015
ियो	-1016
▁पद	-1017
▁उत्तर	-1018
प्त	-1019
त्ति	-1020
▁चुन	-1021
▁संस्	-1022
▁घर	-1023
▁बाहर	-1024
▁जाएँ	-1025
▁बदल	-1026
es	-1027
▁अलग	-1028
▁जल	-1029
▁वास्तव	-1030
ंतु	-1031
▁निर्माण	-1032
जार	-1033
▁लगे	-1034
▁चाहते	-1035
▁बढ़ा	-1036
ज्य	-1037
▁प्रत्येक	-1038
सि	-1039
टना	-1040
हरा	-1041
▁भेज	-1042
लेख	-1043
तंत्र	-1044
्श	-1045
▁कान	-1046
▁आपको	-1047
▁पृ	-1048
▁कौ	-1049
ूँ	-1050
▁प्रौ	-1051
िये	-1052
ंचा	-1053
▁पत्र	-1054
ीक	-1055
▁त्र	-1056
▁नई	-1057
वास	-1058
हास	-1059
▁सुन	-1060
गम	-1061
▁रंग	-1062
्यादा	-1063
▁आद	-1064
▁पढ़	-1065
▁भर	-1066
▁अध्य	-1067
▁बनाने	-1068
▁तीन	-1069
▁अने	-1070
▁शब्द	-1071
पि	-1072
संद	-1073
र्या	-1074
▁बड़े	-1075
▁संर	-1076
▁अच्छा	-1077
ालन	-1078
▁पुस्त	-1079
▁जारी	-1080
आई	-1081
▁मौज	-1082
▁गुण	-1083
दर्श	-1084
ध्यम	-1085
छे	-1086
ोल्	-1087
▁कार्यक्रम	-1088
▁प्रार	-1089
▁नियम	-1090
▁किताब	-1091
ैर	-1092
▁पूरी	-1093
▁शुरू	-1094
▁शि	-1095
इट	-1096
▁प्रकाश	-1097
▁स्वयं	-1098
▁अत्य	-1099
▁तुम्हारी	-1100
▁आदि	-1101
▁शक्ति	-1102
बार	-1103
▁आपके	-1104
▁नीति	-1105
मंत्र	-1106
▁फै	-1107
▁प्रयास	-1108
al	-1109
▁प्रौद्योगिक	-1110
▁रखा	-1111
हम	-1112
▁रे	-1113
▁संस्था	-1114
ालय	-1115
दाय	-1116
▁पानी	-1117
▁चार	-1118
▁कॉ	-1119
ंब	-1120
टक	-1121
धे	-1122
▁ऊपर	-1123
ज़ाब	-1124
▁निश्चय	-1125
▁गये	-1126
ियोजना	-1127
टन	-1128
▁निर्धारित	-1129
पत्र	-1130
▁वस्तु	-1131
विद	-1132
▁मदद	-1133
शत	-1134
▁खुदा	-1135
म्प	-1136
▁ते	-1137
▁सौ	-1138
▁कल	-1139
▁ज्ञान	-1140
भार	-1141
▁परिण	-1142
हन	-1143
▁अनेक	-1144
▁परियोजना	-1145
▁मी	-1146
▁ली	-1147
▁तू	-1148
▁a	-1149
रती	-1150
स्थित	-1151
▁हेतु	-1152
▁मार	-1153
▁चाहता	-1154
ूं	-1155
▁सिवा	-1156
क्षित	-1157
▁जग	-1158
अप	-1159
▁गिर	-1160
▁दुनिया	-1161
ूरी	-1162
▁प्रधान	-1163
ेशक	-1164
्रो	-1165
▁वी	-1166
▁करा	-1167
▁धर्म	-1168
▁d	-1169
▁न्याया	-1170
▁गति	-1171
▁रुप	-1172
▁चला	-1173
▁बनाया	-1174
▁गयी	-1175
▁संघ	-1176
बन्	-1177
▁गो	-1178
▁महत्वपूर्ण	-1179
ृत	-1180
बाद	-1181
▁बैंक	-1182
▁उद्योग	-1183
▁स्तर	-1184
शील	-1185
▁करनेवाल	-1186
▁बन्द	-1187
▁आए	-1188
रु	-1189
र्ड	-1190
षि	-1191
▁वित्त	-1192
▁तुम्हारा	-1193
▁“	-1194
▁&	-1195
▁बेह	-1196
▁अन्त	-1197
▁जोड़	-1198
▁श्रे	-1199
▁स्क	-1200
पन	-1201
▁डर	-1202
▁प्रो	-1203
▁जिसने	-1204
▁डे	-1205
▁संस्थान	-1206
▁ध्यान	-1207
▁परिणाम	-1208
▁ज़र	-1209
▁भवन	-1210
▁करेंगे	-1211
▁मत	-1212
▁प्रमाण	-1213
▁विदेश	-1214
नीय	-1215
▁यहां	-1216
▁#	-1217
la	-1218
मित	-1219
▁देना	-1220
र्थिक	-1221
it	-1222
▁मैंने	-1223
▁बेशक	-1224
▁ठीक	-1225
▁बिना	-1226
▁देखा	-1227
▁समूह	-1228
तिहास	-1229
दिष्ट	-1230
लन	-1231
▁प्रबंध	-1232
▁नीचे	-1233
▁व्यक्त	-1234
▁प्रतिशत	-1235
निर्	-1236
ोन	-1237
ल्क	-1238
ज़ी	-1239
▁पो	-1240
▁अंतर्	-1241
▁जमा	-1242
▁क्षेत्रों	-1243
▁आवश्यकता	-1244
▁समाज	-1245
▁प्रमुख	-1246
⁄4	-1247
▁शरी	-1248
▁प्रौद्योगिकी	-1249
द्व	-1250
ोल्डर	-1251
ंख	-1252
▁सफल	-1253
▁लेख	-1254
▁बर	-1255
or	-1256
▁ज्यादा	-1257
श्	-1258
▁जिसका	-1259
ामी	-1260
▁लेकर	-1261
▁झु	-1262
▁प्रय	-1263
▁हिस्	-1264
वादी	-1265
▁पीछे	-1266
जिक	-1267
गू	-1268
▁माध्यम	-1269
▁किन्तु	-1270
विधा	-1271
▁पाठ	-1272
स्या	-1273
इस	-1274
▁जबकि	-1275
▁ज़मीन	-1276
▁मगर	-1277
क्स	-1278
भग	-1279
▁सीमा	-1280
▁सार	-1281
▁विश्वास	-1282
ख्त	-1283
▁समर्थ	-1284
म्बर	-1285
▁6	-1286
▁धरती	-1287
धारा	-1288
▁समान	-1289
▁लौ	-1290
स्प	-1291
▁दिए	-1292
▁मज	-1293
ल्म	-1294
▁कंपनी	-1295
दारी	-1296
वृ	-1297
▁ती	-1298
▁विस्त	-1299
▁अतः	-1300
▁होकर	-1301
▁खंड	-1302
▁केंद्र	-1303
▁अमे	-1304
▁आर्थिक	-1305
शो	-1306
ल्ली	-1307
▁पिछ	-1308
र्ति	-1309
▁कठ	-1310
▁विंड	-1311
▁कृषि	-1312
ंह	-1313
▁मूल्य	-1314
्यता	-1315
▁बरा	-1316
स्क	-1317
▁अम	-1318
▁उद्देश	-1319
▁अज़ाब	-1320
▁इसकी	-1321
▁आदेश	-1322
▁भे	-1323
▁चाहे	-1324
ic	-1325
ियन	-1326
▁खोल	-1327
▁कला	-1328
▁लड़	-1329
▁सुधार	-1330
उस	-1331
▁इनकार	-1332
▁वाय	-1333
गें	-1334
▁रखते	-1335
▁रोग	-1336
201	-1337
▁जनता	-1338
मता	-1339
▁तुमसे	-1340
▁जानकारी	-1341
▁भाव	-1342
▁निम्	-1343
▁श्र	-1344
▁विद्य	-1345
▁उल्	-1346
▁लगभग	-1347
विध	-1348
▁पर्या	-1349
▁बदला	-1350
▁आने	-1351
▁स्वीकार	-1352
▁जैसा	-1353
▁छा	-1354
ानों	-1355
▁अभी	-1356
▁अवधि	-1357
▁सारे	-1358
▁हिन्द	-1359
णा	-1360
▁काफी	-1361
ठन	-1362
बद्ध	-1363
▁चौ	-1364
▁रोक	-1365
44	-1366
्ले	-1367
▁समस्या	-1368
ेशन	-1369
▁निश	-1370
▁लागू	-1371
▁नियंत्र	-1372
र्फ	-1373
▁निकाल	-1374
▁मेरा	-1375
ॉल	-1376
▁साल	-1377
▁जानता	-1378
▁जगह	-1379
▁सहयोग	-1380
▁मिला	-1381
▁गण	-1382
र्च	-1383
▁वहां	-1384
ee	-1385
▁मंद	-1386
माजिक	-1387
▁पक्ष	-1388
▁तरी	-1389
▁गुना	-1390
▁सुविधा	-1391
▁अच्छे	-1392
▁k	-1393
▁विश्वविद	-1394
▁मानव	-1395
▁मध्य	-1396
▁वक्त	-1397
ूब	-1398
▁विभाग	-1399
▁क़ौ	-1400
▁ऋण	-1401
▁धन	-1402
उन	-1403
▁खोज	-1404
▁परिवर्तन	-1405
आर	-1406
▁विज्ञान	-1407
▁लक्ष	-1408
▁मामले	-1409
▁अच्छी	-1410
▁कोश	-1411
तें	-1412
▁क्रिया	-1413
▁फ़ोल्डर	-1414
▁सामाजिक	-1415
पुर	-1416
▁यू	-1417
चान	-1418
▁निकल	-1419
▁दें	-1420
▁जाएगी	-1421
▁प्रणाली	-1422
▁व्यापार	-1423
▁स्थापित	-1424
हरी	-1425
▁समाप्त	-1426
▁आम	-1427
▁अतिरिक	-1428
ृत्य	-1429
▁कुल	-1430
▁पं	-1431
डियो	-1432
▁इं	-1433
▁चयन	-1434
▁सभा	-1435
▁निम्न	-1436
▁आवश्यक	-1437
र्द	-1438
▁दक्ष	-1439
पाल	-1440
▁पहुंच	-1441
ht	-1442
▁दिल	-1443
▁फर	-1444
स्तुत	-1445
मंत्री	-1446
▁भु	-1447
▁कवि	-1448
¤3	-1449
¤3⁄4	-1450
▁घो	-1451
▁7	-1452
▁C	-1453
▁आध	-1454
▁आग	-1455
द्द	-1456
▁सिद्ध	-1457
▁वर्ग	-1458
▁यक़	-1459
▁जीव	-1460
मार	-1461
▁कहीं	-1462
▁जाओ	-1463
▁वेब	-1464
दर्शन	-1465
▁पूछ	-1466
तनी	-1467
ज़र	-1468
ंव	-1469
▁सुरक्षा	-1470
▁टे	-1471
▁उसको	-1472
▁जानते	-1473
▁बराबर	-1474
जि	-1475
▁”	-1476
न्म	-1477
चन	-1478
लत	-1479
राम	-1480
▁विवरण	-1481
तियों	-1482
दम	-1483
▁प्रती	-1484
चि	-1485
स्तान	-1486
▁कोर्इ	-1487
ान्त	-1488
हरण	-1489
जों	-1490
डा	-1491
ंदर	-1492
▁मर	-1493
▁जिससे	-1494
▁चे	-1495
▁18	-1496
▁स्थित	-1497
कु	-1498
▁रहने	-1499
र्स	-1500
▁टी	-1501
पना	-1502
िश्त	-1503
ंधान	-1504
एम	-1505
▁:	-1506
▁निर्ण	-1507
44;	-1508
▁#44;	-1509
धित	-1510
▁डी	-1511
▁अतिरिक्त	-1512
▁पे	-1513
बल	-1514
▁उदा	-1515
▁महिला	-1516
फा	-1517
▁रहते	-1518
▁देशों	-1519
▁क़ौम	-1520
बू	-1521
प्	-1522
▁अल	-1523
▁विन	-1524
▁नया	-1525
op	-1526
▁8	-1527
ीकरण	-1528
▁आकार	-1529
जर	-1530
▁नए	-1531
भर	-1532
▁चुका	-1533
▁सन्	-1534
▁चुके	-1535
▁सच्च	-1536
▁अंतर्गत	-1537
▁तुमने	-1538
मि	-1539
ेंट	-1540
▁कहने	-1541
कृतिक	-1542
▁लेने	-1543
▁कर्	-1544
▁संवि	-1545
डे	-1546
पन्न	-1547
▁पड़े	-1548
▁राम	-1549
वाई	-1550
▁सही	-1551
▁हिंद	-1552
▁उत्पादन	-1553
¥	-1554
▁संस	-1555
ष्ट्रीय	-1556
▁लाए	-1557
▁रखने	-1558
ेशा	-1559
▁जाये	-1560
▁अनुसंधान	-1561
ab	-1562
▁मंदिर	-1563
▁आकाश	-1564
▁ज़ि	-1565
वेदन	-1566
▁एन	-1567
▁तु	-1568
क्ता	-1569
▁यातना	-1570
▁0	-1571
▁अप्र	-1572
▁खेल	-1573
▁त्रुट	-1574
▁इन्	-1575
तार	-1576
ट्टी	-1577
▁नही	-1578
सित	-1579
िष्ट	-1580
बो	-1581
ग्री	-1582
रोध	-1583
तमान	-1584
▁उठ	-1585
पूर्व	-1586
▁बुरा	-1587
ंधी	-1588
▁%	-1589
▁उद्देश्य	-1590
ष्ण	-1591
en	-1592
▁महान	-1593
▁राशि	-1594
▁यात्रा	-1595
▁व्यवस्था	-1596
▁।	-1597
▁सां	-1598
▁माँ	-1599
क्षम	-1600
▁क्षमता	-1601
▁वालों	-1602
▁निवेश	-1603
▁S	-1604
▁बहु	-1605
▁भू	-1606
▁प्रदेश	-1607
▁पत्	-1608
▁पृष्ठ	-1609
▁निस्	-1610
हित्य	-1611
▁विधि	-1612
▁बचा	-1613
▁बाल	-1614
ठला	-1615
ज्	-1616
स्थ्य	-1617
▁परी	-1618
▁उपधारा	-1619
▁जिन्हें	-1620
▁-	-1621
▁एस	-1622
कर्ता	-1623
▁सदस्य	-1624
▁निष्	-1625
▁परन्तु	-1626
▁संपर्क	-1627
▁अधिकारी	-1628
▁''	-1629
▁प्रारंभ	-1630
ot	-1631
▁रि	-1632
▁मनुष	-1633
▁समु	-1634
ूरत	-1635
▁राह	-1636
▁मूसा	-1637
▁वर्षों	-1638
▁वर्तमान	-1639
क्म	-1640
ोस	-1641
▁बनाए	-1642
ोर्ट	-1643
त्मा	-1644
▁विशिष्ट	-1645
षित	-1646
▁युद्ध	-1647
श्र	-1648
▁इतिहास	-1649
▁सिर्फ	-1650
▁वाप	-1651
▁परिवार	-1652
ख़िर	-1653
▁स्वतंत्र	-1654
▁थीं	-1655
▁सत्य	-1656
▁आरंभ	-1657
यान	-1658
▁निर्देश	-1659
▁अर	-1660
▁कौन	-1661
दर	-1662
▁प्रस्तुत	-1663
धारण	-1664
▁वर्ण	-1665
▁दूसरी	-1666
▁तुमको	-1667
▁त्रुटि	-1668
▁न्याय	-1669
¤	-1670
¤°	-1671
▁_	-1672
▁न्यायालय	-1673
▁सका	-1674
gm	-1675
▁<	-1676
▁झुठला	-1677
▁वहाँ	-1678
▁साहित्य	-1679
ांत	-1680
थम	-1681
▁२	-1682
मिल	-1683
▁पेश	-1684
गल	-1685
▁हमारा	-1686
▁दृष्टि	-1687
जो	-1688
भू	-1689
गु	-1690
▁प्रशिक्ष	-1691
▁स्वास्थ्य	-1692
▁दिल्ली	-1693
रिका	-1694
▁चा	-1695
सलमान	-1696
▁हुक्म	-1697
जित	-1698
▁आन	-1699
▁kgm	-1700
▁शहर	-1701
▁शरीर	-1702
तक	-1703
le	-1704
जरा	-1705
▁शे	-1706
▁अपे	-1707
▁प्रधानमंत्री	-1708
ानीय	-1709
▁देगा	-1710
ar	-1711
▁थो	-1712
▁10	-1713
▁लाख	-1714
▁देखते	-1715
▁रात	-1716
▁वास्ते	-1717
▁दक्षि	-1718
▁बच्चों	-1719
▁जिनके	-1720
▁बेहतर	-1721
▁शिक	-1722
▁विश्वविद्यालय	-1723
▁चित्र	-1724
कम	-1725
▁तौर	-1726
ोजित	-1727
▁श्रेणी	-1728
▁आसमान	-1729
खित	-1730
नाथ	-1731
झा	-1732
▁निर	-1733
▁कैसे	-1734
लू	-1735
▁अंग्रे	-1736
ran	-1737
ंतिम	-1738
रि	-1739
at	-1740
निश्च	-1741
▁घटना	-1742
बत	-1743
▁अमेरिका	-1744
▁(2	-1745
Name	-1746
क्षर	-1747
्रिय	-1748
▁सम्बन्	-1749
▁एक्स	-1750
तने	-1751
▁संसा	-1752
वाब	-1753
▁भि	-1754
ैस	-1755
▁शीर्ष	-1756
▁हमेशा	-1757
▁निर्णय	-1758
ुओं	-1759
▁विकसित	-1760
▁जिन्होंने	-1761
▁स्थानीय	-1762
लाई	-1763
▁सेट	-1764
-1	-1765
▁तहत	-1766
तो	-1767
संदेह	-1768
▁भूमि	-1769
▁उदाहरण	-1770
▁name	-1771
▁नौ	-1772
),	-1773
▁काल	-1774
ड़ों	-1775
▁प्रस्ता	-1776
▁रू	-1777
▁प्रस	-1778
ज्ञा	-1779
▁बंद	-1780
▁मिले	-1781
शिया	-1782
▁हाला	-1783
▁सर्	-1784
▁दया	-1785
▁हक़	-1786
रीब	-1787
▁अला	-1788
▁निर्धारण	-1789
▁विदेशी	-1790
शल	-1791
▁अनि	-1792
▁भेजा	-1793
▁बंग	-1794
मन	-1795
गति	-1796
▁प्रेम	-1797
ज़िल	-1798
▁दस्ता	-1799
▁अंतिम	-1800
▁बल	-1801
ष्य	-1802
▁मौजूद	-1803
▁A	-1804
▁चिक	-1805
▁अनुभव	-1806
्याल	-1807
र्जा	-1808
साय	-1809
▁उन्	-1810
ंगा	-1811
▁पक	-1812
▁परंतु	-1813
▁छोटे	-1814
▁प्रस्ताव	-1815
▁रचना	-1816
▁सार्व	-1817
▁निश्चित	-1818
वासी	-1819
▁प्रवेश	-1820
▁संच	-1821
000	-1822
▁लगता	-1823
▁भूमिका	-1824
च्छा	-1825
▁मांग	-1826
▁दिशा	-1827
▁प्राधिक	-1828
दू	-1829
फिर	-1830
▁जहाँ	-1831
राही	-1832
▁किये	-1833
▁गांधी	-1834
▁तत्व	-1835
▁इस्ला	-1836
सू	-1837
▁लं	-1838
ोगे	-1839
¥	-1840
▁बोल	-1841
▁रिप	-1842
▁अफ	-1843
ील	-1844
▁पहचान	-1845
▁रहता	-1846
▁निस्संदेह	-1847
▁भाई	-1848
▁सक्रिय	-1849
▁अनुमति	-1850
▁वाद	-1851
्रेस	-1852
यां	-1853
▁पाया	-1854
▁संयुक्त	-1855
▁इंड	-1856
▁छवि	-1857
▁जन्म	-1858
दारों	-1859
▁दुर्	-1860
▁जिसकी	-1861
ैंड	-1862
ेंस	-1863
▁नव	-1864
यात	-1865
ोक्ता	-1866
▁इस्त	-1867
▁आधारित	-1868
▁घा	-1869
▁माना	-1870
▁जह	-1871
▁विस्तार	-1872
हे	-1873
▁9	-1874
▁c	-1875
▁वार	-1876
▁नागर	-1877
▁राजनी	-1878
▁पहुँच	-1879
▁दस्तावे	-1880
▁जल्	-1881
▁कृप	-1882
▁नियंत्रण	-1883
▁लक्ष्य	-1884
▁विकल्प	-1885
▁संबंधी	-1886
▁निर्दिष्ट	-1887
लिखित	-1888
▁यक़ीन	-1889
िकों	-1890
स्म	-1891
एल	-1892
▁वित्तीय	-1893
▁संक	-1894
दय	-1895
▁संभव	-1896
ार्ड	-1897
▁हिस्सा	-1898
option	-1899
▁बाजार	-1900
▁मित्र	-1901
▁स्थापना	-1902
▁गर्	-1903
वरी	-1904
▁मंत्रालय	-1905
▁कमी	-1906
ुनिक	-1907
▁जांच	-1908
मू	-1909
जह	-1910
▁15	-1911
वस्था	-1912
्राम	-1913
वीं	-1914
ृत्यु	-1915
▁अग्र	-1916
▁सहायक	-1917
▁मनुष्य	-1918
▁तकनी	-1919
ंतर	-1920
्टी	-1921
▁सोच	-1922
▁पहुँचा	-1923
न्ट	-1924
▁I	-1925
▁पुकार	-1926
▁बच	-1927
▁डाक	-1928
▁संविधान	-1929
चल	-1930
is	-1931
▁गुम	-1932
साइट	-1933
▁प्रथम	-1934
▁सिंह	-1935
▁प्रगति	-1936
▁झू	-1937
सान	-1938
▁वृद्धि	-1939
ंगे	-1940
म्मे	-1941
▁फल	-1942
▁लेते	-1943
▁तंत्र	-1944
▁अधि	-1945
▁प्रबंधन	-1946
▁नाज़िल	-1947
गि	-1948
.201	-1949
▁20	-1950
▁समिति	-1951
ंसा	-1952
▁दिनों	-1953
घा	-1954
▁पहली	-1955
▁केन्द्र	-1956
▁अलावा	-1957
गतान	-1958
▁उपकरण	-1959
निश्चित	-1960
▁पिछले	-1961
▁ट्र	-1962
rans	-1963
यामत	-1964
▁मृत्यु	-1965
र्श	-1966
▁मॉ	-1967
ानि	-1968
▁शो	-1969
स्थिति	-1970
यु	-1971
▁सहित	-1972
▁लें	-1973
▁जाय	-1974
▁रखता	-1975
र्जी	-1976
▁कृपया	-1977
▁उत्पन्न	-1978
▁गुनाह	-1979
▁सेना	-1980
▁समर्थन	-1981
पट	-1982
▁भीतर	-1983
▁खाता	-1984
ँच	-1985
▁न्यू	-1986
▁विंडो	-1987
▁पुस्तक	-1988
न्यास	-1989
▁मही	-1990
▁पूंजी	-1991
पण	-1992
द्रा	-1993
▁अध्ययन	-1994
▁पुनः	-1995
▁हटा	-1996
▁प्रश्न	-1997
▁मंत्री	-1998
शाली	-1999
▁एम	-2000
▁देव	-2001
▁खे	-2002
ransla	-2003
ज़े	-2004
▁12	-2005
▁सुनिश्चित	-2006
▁मिटा	-2007
optional	-2008
▁निशान	-2009
▁संभाव	-2010
▁चिकित	-2011
▁सर्वर	-2012
▁प्रशिक्षण	-2013
िको	-2014
▁आत्म	-2015
▁199	-2016
▁भुगतान	-2017
▁योग्य	-2018
्रोत	-2019
ौती	-2020
▁फ़र	-2021
▁ति	-2022
स्ती	-2023
▁राजा	-2024
▁तुल	-2025
▁क्षमा	-2026
००	-2027
ापन	-2028
▁अनुप	-2029
शु	-2030
▁pr	-2031
▁ऊर्जा	-2032
▁वास्तविक	-2033
बान	-2034
▁मात्रा	-2035
▁दक्षिण	-2036
▁सफलता	-2037
्ष्	-2038
▁@	-2039
▁चाल	-2040
▁समुदा	-2041
▁धार	-2042
▁भावना	-2043
तुम	-2044
▁लिखा	-2045
▁संग्रह	-2046
▁पौ	-2047
जनिक	-2048
▁ख़ु	-2049
▁आदमी	-2050
स्कार	-2051
▁हैः	-2052
▁भिन्न	-2053
▁कांग	-2054
गाह	-2055
▁उपबंध	-2056
पु	-2057
▁सत्ता	-2058
▁सरकारी	-2059
▁आधुनिक	-2060
क्या	-2061
▁आख़िर	-2062
▁transla	-2063
?"	-2064
ेमाल	-2065
▁मुसलमान	-2066
▁हित	-2067
ुआ	-2068
▁जाएँगे	-2069
▁बिल	-2070
म्ब	-2071
वाले	-2072
▁उनपर	-2073
▁इस्तेमाल	-2074
▁पुरा	-2075
ण्श	-2076
▁11	-2077
ऊण्श	-2078
्छ्ष्	-2079
ऊण्श्छ्ष्	-2080
त्सा	-2081
▁फाइल	-2082
▁दाय	-2083
▁वेबसाइट	-2084
▁(1)	-2085
▁वापस	-2086
▁राज्यों	-2087
▁बच्चे	-2088
▁सिर	-2089
▁मुक़	-2090
▁रिपोर्ट	-2091
ियान	-2092
ैल	-2093
ँह	-2094
गो	-2095
▁चुनें	-2096
▁खुल	-2097
▁जैसी	-2098
ly	-2099
▁प्रे	-2100
पे	-2101
स्ति	-2102
▁युवा	-2103
वस	-2104
विष्य	-2105
re	-2106
▁खो	-2107
om	-2108
▁सम्मान	-2109
▁खाते	-2110
▁खुद	-2111
▁प्रदर्श	-2112
▁सार्वजनिक	-2113
▁कट	-2114
▁क्ल	-2115
▁कप	-2116
▁सुना	-2117
▁उम्	-2118
▁वन	-2119
द्रीय	-2120
▁वो	-2121
▁मामलों	-2122
खी	-2123
▁आक	-2124
भूत	-2125
▁पूरे	-2126
▁हस्ता	-2127
▁पुरुष	-2128
▁उद्य	-2129
▁दृश्य	-2130
▁कमा	-2131
▁रहो	-2132
▁प्रकृति	-2133
ंथ	-2134
▁अह	-2135
▁साफ	-2136
▁मश	-2137
▁अत्यन्त	-2138
▁भविष्य	-2139
▁जे	-2140
▁उल्लेख	-2141
राह	-2142
निक	-2143
ामीण	-2144
▁यूर	-2145
▁निकट	-2146
▁मालूम	-2147
▁कम्प	-2148
▁चले	-2149
▁संपाद	-2150
▁खरी	-2151
▁जहन्न	-2152
▁बातें	-2153
▁संगठन	-2154
▁शासन	-2155
▁शुभ	-2156
▁संशो	-2157
▁आत	-2158
▁कोशिश	-2159
्यूटर	-2160
ख्स	-2161
▁यक़ीनन	-2162
ायद	-2163
ii	-2164
ग़म्बर	-2165
▁जरूरत	-2166
▁बातों	-2167
ारों	-2168
▁गुर	-2169
▁दिखाएँ	-2170
नाव	-2171
र्चा	-2172
त्त्व	-2173
▁खिला	-2174
▁लाल	-2175
▁सत	-2176
ity	-2177
तृ	-2178
फ्	-2179
▁डॉ	-2180
▁सदस्यों	-2181
ंडल	-2182
▁वैज्ञान	-2183
बूत	-2184
श्वर	-2185
▁संके	-2186
▁पस	-2187
ob	-2188
चर	-2189
ारोह	-2190
▁अन्	-2191
▁शख्स	-2192
▁करोड़	-2193
िब	-2194
▁ग्रामीण	-2195
▁ढा	-2196
वाही	-2197
.0	-2198
▁संसद	-2199
▁विनिर्	-2200
▁जिनमें	-2201
▁ऑफ	-2202
▁सक्षम	-2203
▁नदी	-2204
लाइन	-2205
एक	-2206
मय	-2207
▁छिप	-2208
चारी	-2209
▁कानून	-2210
▁सामग्री	-2211
▁अपेक्षा	-2212
▁उचित	-2213
एफ	-2214
म्भ	-2215
▁लॉ	-2216
▁पर्य	-2217
▁समझा	-2218
▁देखने	-2219
ल्ल	-2220
▁गी	-2221
▁पहा	-2222
▁नेट	-2223
ड़क	-2224
▁बने	-2225
▁प्रशासन	-2226
▁तारी	-2227
▁̧	-2228
वर्ष	-2229
दर्भ	-2230
▁कहो	-2231
//	-2232
▁अपरा	-2233
▁संरचना	-2234
▁ईसा	-2235
र्ग	-2236
▁समारोह	-2237
▁रिक	-2238
▁इतना	-2239
गीत	-2240
▁जित	-2241
▁जवाब	-2242
▁केंद्रीय	-2243
काम	-2244
▁प्रकट	-2245
▁बाज़	-2246
▁दिखाई	-2247
▁पश्चात	-2248
▁M	-2249
▁P	-2250
▁'%	-2251
¤¿	-2252
▁व्यापक	-2253
▁अध्यक्ष	-2254
he	-2255
▁स्कूल	-2256
▁देती	-2257
▁पुरस्कार	-2258
▁री	-2259
▁संदर्भ	-2260
▁प्रतिनि	-2261
▁काफ़	-2262
▁रक्षा	-2263
मह	-2264
प्रे	-2265
▁बाप	-2266
▁हास	-2267
▁मुँह	-2268
टल	-2269
वालों	-2270
▁तौ	-2271
थमिक	-2272
▁टै	-2273
च्छेद	-2274
ीप	-2275
▁दशा	-2276
▁रोज	-2277
▁बयान	-2278
▁गांव	-2279
▁प्रोत्सा	-2280
▁निर्यात	-2281
ृह	-2282
://	-2283
-#	-2284
▁बुला	-2285
▁खाद	-2286
▁इनमें	-2287
टों	-2288
श्त	-2289
▁आँ	-2290
पूर्वक	-2291
▁पड़ा	-2292
▁गैर	-2293
▁वजह	-2294
ोग्राम	-2295
▁सहेज	-2296
बह	-2297
▁कांग्रेस	-2298
सत	-2299
▁योगदान	-2300
▁औद्योगिक	-2301
वधान	-2302
बि	-2303
▁बदले	-2304
▁अधिका	-2305
ंगी	-2306
▁मुद्रा	-2307
ैक	-2308
▁do	-2309
▁दौ	-2310
▁शायद	-2311
▁मुझ	-2312
▁प्राय	-2313
▁लौट	-2314
▁पथ	-2315
▁translation	-2316
▁सर्वो	-2317
tp	-2318
ंकन	-2319
ख़ुदा	-2320
¤	-2321
चीन	-2322
▁डिस्क	-2323
▁ठहरा	-2324
▁निजी	-2325
▁आवेदन	-2326
कान	-2327
▁प्राथमिक	-2328
▁स्वतंत्रता	-2329
▁किंतु	-2330
▁पालन	-2331
▁चाहिये	-2332
▁आयु	-2333
ल्पना	-2334
▁शर्	-2335
वर्ती	-2336
eed	-2337
▁रखना	-2338
▁केन्द	-2339
▁रहेंगे	-2340
ैतिक	-2341
▁not	-2342
▁̈	-2343
एन	-2344
▁रखो	-2345
▁आतंक	-2346
▁आयतों	-2347
▁प्रतिक	-2348
▁लेखा	-2349
▁ध्व	-2350
▁यूरोप	-2351
▁उल	-2352
▁रखे	-2353
रुद्ध	-2354
राज	-2355
्वी	-2356
▁एशिया	-2357
▁चयनित	-2358
http	-2359
▁अर्था	-2360
▁रेल	-2361
▁संस्कृति	-2362
▁भग	-2363
दृ	-2364
रल	-2365
▁संगीत	-2366
▁आयात	-2367
र्न	-2368
घु	-2369
▁इस्लाम	-2370
▁प्रभा	-2371
वत	-2372
▁need	-2373
▁किन	-2374
क्रमण	-2375
▁लागत	-2376
▁अवश्य	-2377
▁व्यक्तियों	-2378
▁T	-2379
▁सृ	-2380
▁बोर्ड	-2381
▁तय	-2382
ूदा	-2383
▁उद्यम	-2384
▁रकम	-2385
▁आशा	-2386
पक	-2387
ृति	-2388
खंड	-2389
▁इब	-2390
वर्क	-2391
▁राय	-2392
लिस	-2393
न्व	-2394
ड़ाई	-2395
▁निदेश	-2396
▁आयोजित	-2397
लब	-2398
▁कार्यालय	-2399
▁बज	-2400
▁आवा	-2401
▁विधान	-2402
सिक	-2403
▁शता	-2404
▁दश	-2405
ोलन	-2406
▁ढंग	-2407
▁तत्	-2408
▁पांच	-2409
▁प्रभावित	-2410
फर	-2411
▁सकें	-2412
लाम	-2413
▁डाला	-2414
मेल	-2415
मो	-2416
नेवाला	-2417
िकी	-2418
▁दल	-2419
▁पर्याप्त	-2420
▁बंगाल	-2421
▁प्रकाशित	-2422
▁भौ	-2423
्सा	-2424
सन	-2425
▁अध्या	-2426
▁निधि	-2427
▁http	-2428
▁दूसरा	-2429
▁अवस्था	-2430
st	-2431
▁मुक्त	-2432
▁स्रोत	-2433
▁समुदाय	-2434
इयों	-2435
▁व्यवहार	-2436
▁असम	-2437
▁निर्धारिती	-2438
▁शांति	-2439
परी	-2440
सु	-2441
▁does	-2442
मक	-2443
ably	-2444
थि	-2445
▁झूठ	-2446
▁prob	-2447
nt	-2448
▁196	-2449
▁ब्या	-2450
▁probably	-2451
▁पाल	-2452
नेवाले	-2453
▁देंगे	-2454
▁राजनीतिक	-2455
▁नर	-2456
▁विभा	-2457
िल्म	-2458
▁हल	-2459
ड्ड	-2460
▁सलाह	-2461
▁हासिल	-2462
ुता	-2463
माज़	-2464
द्यपि	-2465
▁चुकी	-2466
फ्त	-2467
▁बनी	-2468
▁पर्यावरण	-2469
▁मुखर्जी	-2470
ग्	-2471
क्का	-2472
▁प्रभ	-2473
कला	-2474
राष्ट्रीय	-2475
नो	-2476
▁चर	-2477
▁दिवस	-2478
ol	-2479
▁रक्त	-2480
ou	-2481
▁निम्नलिखित	-2482
रीय	-2483
▁गि	-2484
▁अनुप्र	-2485
▁सुरक्षित	-2486
स्पर	-2487
▁असफल	-2488
राज्य	-2489
कत	-2490
City	-2491
▁संय	-2492
▁तीस	-2493
षद	-2494
नेट	-2495
▁केन्द्रीय	-2496
▁लाने	-2497
):	-2498
▁भारी	-2499
फ्ट	-2500
▁दृष्ट	-2501
▁चर्चा	-2502
▁संरक्षण	-2503
▁पदार्थ	-2504
ालिम	-2505
▁सेवाओं	-2506
कल	-2507
मीद	-2508
ियर	-2509
क्षक	-2510
▁धी	-2511
डिया	-2512
▁समझौ	-2513
घ्र	-2514
धाई	-2515
▁यद्यपि	-2516
▁आपकी	-2517
पो	-2518
्टर	-2519
▁तेल	-2520
▁सीधे	-2521
स्त्र	-2522
▁क्रम	-2523
▁बैठक	-2524
▁प्रमाणपत्र	-2525
ंद्र	-2526
▁कहना	-2527
कारा	-2528
वत्ता	-2529
ैव	-2530
्यो	-2531
▁इका	-2532
▁अनुक	-2533
िक्	-2534
▁शब्दों	-2535
▁विशाल	-2536
▁बाग़	-2537
▁आत्मा	-2538
▁डेटा	-2539
दूस	-2540
▁साह	-2541
▁आता	-2542
▁दिख	-2543
se	-2544
▁फरमा	-2545
▁दू	-2546
▁बधाई	-2547
-2	-2548
भाल	-2549
▁आयोग	-2550
▁नगर	-2551
भीर	-2552
हाद	-2553
बाह	-2554
▁पेट	-2555
▁सिद्धांत	-2556
ंबर	-2557
▁तरीके	-2558
▁यथा	-2559
हीन	-2560
▁भागी	-2561
व्यवस्था	-2562
▁कदम	-2563
▁उत	-2564
▁पंजी	-2565
त्तर	-2566
कीय	-2567
▁विरुद्ध	-2568
▁ख़बर	-2569
▁क़ुर	-2570
▁बढ	-2571
▁संसाधन	-2572
▁उपस्थित	-2573
of	-2574
ंदा	-2575
क्टर	-2576
क्शन	-2577
णि	-2578
▁p	-2579
▁दस	-2580
▁छोटी	-2581
यल	-2582
▁पल	-2583
दो	-2584
▁D	-2585
▁सच	-2586
▁पैग़म्बर	-2587
▁गिरोह	-2588
धनों	-2589
▁अनिवार	-2590
भूति	-2591
यक	-2592
षणा	-2593
▁बैठे	-2594
▁एह	-2595
▁पृथ	-2596
▁ज़ालिम	-2597
ज्ञात	-2598
▁अत्या	-2599
▁गुणवत्ता	-2600
▁छोड़कर	-2601
▁प्रदर्शन	-2602
▁मशीन	-2603
किंग	-2604
लिम	-2605
▁पसंद	-2606
ार्मिक	-2607
▁रखी	-2608
▁जिला	-2609
▁प्राकृतिक	-2610
▁भंड	-2611
▁स्म	-2612
▁विविध	-2613
▁१९	-2614
▁छात्र	-2615
▁नेटवर्क	-2616
▁{	-2617
न्दर	-2618
प्ता	-2619
▁प्रभावी	-2620
उट	-2621
चक	-2622
▁जाति	-2623
▁प्राचीन	-2624
▁25	-2625
वाला	-2626
यह	-2627
▁सख्त	-2628
▁सम्बन्ध	-2629
ल्लाह	-2630
▁बताया	-2631
वेयर	-2632
.1	-2633
न्स	-2634
▁अंक	-2635
▁आते	-2636
▁अता	-2637
▁लघु	-2638
▁पकड़	-2639
▁नमाज़	-2640
ब्दी	-2641
▁उपाय	-2642
▁पर्व	-2643
her	-2644
▁अधिकांश	-2645
ल्ड	-2646
▁प्रसन्न	-2647
▁भोजन	-2648
▁इच्छा	-2649
▁मेहर	-2650
▁पश्चिम	-2651
▁तुलना	-2652
त्री	-2653
▁आंद	-2654
▁इला	-2655
▁विद्यार्थ	-2656
रज़	-2657
▁हट	-2658
मेलन	-2659
▁समृ	-2660
चारियों	-2661
▁बौ	-2662
▁अगले	-2663
धिकार	-2664
nic	-2665
▁ज़रूर	-2666
▁महारा	-2667
फे	-2668
▁अनिवार्य	-2669
▁शिकाय	-2670
▁गतिविध	-2671
▁धार्मिक	-2672
¤2	-2673
▁b	-2674
▁वर्णन	-2675
▁16	-2676
▁गर्इ	-2677
▁रखें	-2678
थर	-2679
ंकि	-2680
कारों	-2681
▁(19	-2682
वह	-2683
▁195	-2684
▁वैज्ञानिक	-2685
▁वायु	-2686
जूद	-2687
न्दा	-2688
▁मना	-2689
▁बनाना	-2690
▁समाधान	-2691
▁परीक्षा	-2692
▁कंप्यूटर	-2693
्ब	-2694
▁प्रोग्राम	-2695
▁ऊँ	-2696
▁हस्ताक्षर	-2697
▁F	-2698
▁लेना	-2699
▁बन्दों	-2700
▁शक	-2701
ह्न	-2702
▁हृ	-2703
▁पश्चा	-2704
एगा	-2705
दायत	-2706
▁अधिकारियों	-2707
▁लगी	-2708
▁ग्रह	-2709
▁वीडियो	-2710
▁[	-2711
il	-2712
▁ब्याज	-2713
▁विज	-2714
रित	-2715
▁अक	-2716
याँ	-2717
ल्स	-2718
▁आपका	-2719
▁जोड़ें	-2720
स्य	-2721
▁मिली	-2722
▁मुह	-2723
▁मोह	-2724
खे	-2725
्रीन	-2726
▁खड़े	-2727
ेप	-2728
▁संभावना	-2729
▁सम्मेलन	-2730
▁कूट	-2731
▁मिलता	-2732
▁अक्	-2733
▁ईश्वर	-2734
▁शीघ्र	-2735
▁संस्थानों	-2736
यें	-2737
▁कुंजी	-2738
▁तुमपर	-2739
▁उन्हीं	-2740
नाम	-2741
राहीम	-2742
▁जल्दी	-2743
▁आख़िरत	-2744
▁पाने	-2745
▁दबा	-2746
▁वाक़	-2747
साथ	-2748
▁संपत्ति	-2749
रू	-2750
▁पद्ध	-2751
झी	-2752
ंपरा	-2753
ज़ार	-2754
्वा	-2755
ल्कुल	-2756
▁सात	-2757
▁शैली	-2758
▁दर्शा	-2759
रान	-2760
▁उम्मीद	-2761
▁मजबूत	-2762
▁198	-2763
▁तुममें	-2764
स्लिम	-2765
न्नत	-2766
▁आती	-2767
▁उपभ	-2768
▁करनी	-2769
औन	-2770
▁चीज	-2771
ाई	-2772
▁B	-2773
संग	-2774
▁प्रणब	-2775
ोजनों	-2776
▁बर्	-2777
▁तारीख	-2778
▁वैश्व	-2779
▁G	-2780
ार्क	-2781
िकोण	-2782
▁हिन्दी	-2783
▁कविता	-2784
▁पुनर्	-2785
वों	-2786
ेगा	-2787
स्टम	-2788
▁संसार	-2789
▁समझते	-2790
▁ब्रिट	-2791
¤1	-2792
▁छु	-2793
स्टर	-2794
▁श्रेणीः	-2795
▁चिकित्सा	-2796
ॉप	-2797
▁खरीद	-2798
▁हालत	-2799
▁कने	-2800
िश्ते	-2801
▁जरूरी	-2802
▁कार्यों	-2803
▁रहती	-2804
et	-2805
▁एज	-2806
▁गं	-2807
,000	-2808
▁पहल	-2809
स्वरूप	-2810
▁स्त्र	-2811
▁खर्च	-2812
▁सम्मिल	-2813
ँकि	-2814
▁डरा	-2815
▁इन्ह	-2816
▁दिलों	-2817
मेंट	-2818
▁अंश	-2819
▁हिदायत	-2820
धियों	-2821
▁विद	-2822
▁मानते	-2823
▁पुलिस	-2824
▁रहना	-2825
▁सित	-2826
--	-2827
ठित	-2828
▁सीमित	-2829
्वेष	-2830
बु	-2831
ठी	-2832
्प	-2833
जली	-2834
▁पिता	-2835
कालीन	-2836
▁तथ	-2837
विक	-2838
▁अनुप्रयोग	-2839
▁निर्भर	-2840
▁सैन	-2841
▁निर्मित	-2842
▁ब्रिटिश	-2843
▁हजार	-2844
ालित	-2845
▁सारी	-2846
▁जहन्नुम	-2847
▁भंडार	-2848
▁फेर	-2849
▁विफल	-2850
शय	-2851
▁युग	-2852
सिद्ध	-2853
▁वार्ष	-2854
▁साधारण	-2855
▁करनेवालों	-2856
ब्र	-2857
▁परंपरा	-2858
▁बिल्कुल	-2859
▁रास्त	-2860
▁इबराहीम	-2861
▁पहुंचा	-2862
▁दुख	-2863
▁नो	-2864
▁प्रवि	-2865
देव	-2866
▁अपील	-2867
▁आपने	-2868
▁भगवान	-2869
▁छोटा	-2870
htm	-2871
दर्शी	-2872
▁गलत	-2873
▁शाखा	-2874
▁शताब्दी	-2875
▁बख	-2876
▁अर्थव्यवस्था	-2877
▁m	-2878
▁संकेत	-2879
डल	-2880
राब	-2881
▁ताल	-2882
मीर	-2883
▁परिच	-2884
▁संशोधन	-2885
तया	-2886
▁भ्र	-2887
▁194	-2888
▁सांस्	-2889
▁13	-2890
▁आदर्श	-2891
▁w	-2892
▁नसी	-2893
▁किसानों	-2894
अपने	-2895
्राष्ट्रीय	-2896
▁शेष	-2897
▁अभिलेख	-2898
म्म	-2899
▁R	-2900
्यालयों	-2901
▁सच्चे	-2902
▁विरोध	-2903
▁विचारों	-2904
▁तरफ़	-2905
▁शैतान	-2906
▁प्रतिष्ठ	-2907
▁हवा	-2908
वृत्ति	-2909
▁प्रदर्शित	-2910
▁व्यक्तिगत	-2911
▁खुलती	-2912
▁मौजूदा	-2913
▁अंदर	-2914
▁अत्यंत	-2915
▁एव	-2916
कात	-2917
भूम	-2918
▁समुद्र	-2919
▁निर्वा	-2920
▁आंदोलन	-2921
▁प्रयोजनों	-2922
ंगल	-2923
म्र	-2924
ध्या	-2925
▁महीने	-2926
▁197	-2927
▁अप्रैल	-2928
▁संघर्ष	-2929
धर	-2930
▁विंडों	-2931
▁इंटर	-2932
▁फी	-2933
▁शक़	-2934
▁सम्मिलित	-2935
▁निगम	-2936
▁14	-2937
दूसरे	-2938
▁अंग्रेजी	-2939
वै	-2940
▁नेता	-2941
सब	-2942
▁सत्या	-2943
ब्ल	-2944
▁विद्व	-2945
▁f	-2946
▁कठिन	-2947
▁कीमत	-2948
▁मुस्लिम	-2949
लग्न	-2950
▁L	-2951
कुल	-2952
ताल	-2953
▁काट	-2954
▁स्थायी	-2955
िना	-2956
▁नागरिक	-2957
▁सदैव	-2958
▁बढ़ाने	-2959
▁विवाह	-2960
▁घट	-2961
▁चरण	-2962
तरा	-2963
ल्ला	-2964
▁1.	-2965
्रेड	-2966
ेक्ट	-2967
▁बुद्धि	-2968
▁चढ़	-2969
हरे	-2970
▁इंडिया	-2971
▁लगाया	-2972
▁प्	-2973
परि	-2974
▁फैला	-2975
▁महत्त्व	-2976
िमी	-2977
ष्ट्र	-2978
ियत	-2979
जनक	-2980
▁जोर	-2981
▁रहेगा	-2982
▁आकाशों	-2983
▁नोट	-2984
▁तेजी	-2985
▁जिम्मे	-2986
न्त्र	-2987
▁झग	-2988
गिज़	-2989
▁शुल्क	-2990
ार्म	-2991
्यान्व	-2992
▁मार्च	-2993
▁मिट्टी	-2994
aà	-2995
▁घोषणा	-2996
▁पहला	-2997
ment	-2998
di	-2999
▁N	-3000
▁जाँच	-3001
▁खास	-3002
▁अनुच्छेद	-3003
▁एल	-3004
▁संत	-3005
मैं	-3006
▁भली	-3007
▁मिस	-3008
▁जिसको	-3009
साद	-3010
▁नये	-3011
▁हालाँकि	-3012
▁कार्यान्व	-3013
▁(2)	-3014
दाता	-3015
▁आंक	-3016
▁निशानियाँ	-3017
▁प्रत्यक्ष	-3018
▁दृष्टिकोण	-3019
▁लेखक	-3020
▁कहेंगे	-3021
ra	-3022
▁व्यय	-3023
ाब	-3024
▁U	-3025
▁सज़ा	-3026
▁परिषद	-3027
▁फिल	-3028
▁दायित्व	-3029
भूमि	-3030
▁चुनाव	-3031
▁सॉ	-3032
▁अस्त	-3033
▁परिवर्त	-3034
▁बढ़ावा	-3035
भाषा	-3036
इड	-3037
▁बाव	-3038
▁चलते	-3039
▁सरल	-3040
नु	-3041
▁17	-3042
▁संस्कृत	-3043
बाहरी	-3044
यण	-3045
▁बीमा	-3046
▁मालिक	-3047
साब	-3048
▁अफ्री	-3049
▁गवाह	-3050
ंबई	-3051
्वाह	-3052
▁पंजा	-3053
्यूशन	-3054
▁पाक	-3055
▁गंभीर	-3056
▁पड़ता	-3057
▁ग्राह	-3058
फार	-3059
▁फे	-3060
ोने	-3061
▁देखें	-3062
▁असा	-3063
रिया	-3064
फ़ार	-3065
▁ड्र	-3066
▁सांस्कृतिक	-3067
जीव	-3068
कृष्ट	-3069
▁इनके	-3070
▁कानू	-3071
▁रुपये	-3072
शाला	-3073
▁तर्क	-3074
▁रहें	-3075
▁उपयुक्त	-3076
▁लेता	-3077
सभा	-3078
▁अधिस	-3079
▁बौद्ध	-3080
▁वैश्विक	-3081
▁आपस	-3082
अल्लाह	-3083
ितीय	-3084
▁नसीहत	-3085
▁तकनीकी	-3086
▁30	-3087
▁भूल	-3088
ंचे	-3089
▁वस्तुओं	-3090
प्ताह	-3091
क्षेत्र	-3092
दूर	-3093
▁पाए	-3094
दना	-3095
▁पश्चात्	-3096
▁बनाकर	-3097
मारी	-3098
▁दोष	-3099
▁लोड	-3100
▁कार्र	-3101
▁H	-3102
▁गाय	-3103
▁सत्र	-3104
▁रोजगार	-3105
▁सश	-3106
वृत्त	-3107
▁घरों	-3108
▁पात्र	-3109
▁मिलने	-3110
▁अंतरराष्ट्रीय	-3111
▁खुश	-3112
ढ़ी	-3113
▁प्राण	-3114
▁प्रतीक	-3115
ख़्श	-3116
▁मस	-3117
▁खूब	-3118
▁महिलाओं	-3119
▁क्षेत्रीय	-3120
▁देखो	-3121
▁बनाई	-3122
नियों	-3123
▁जिनका	-3124
▁प्रयासों	-3125
भारत	-3126
सूस	-3127
▁हृदय	-3128
ादी	-3129
एँगे	-3130
क्ष्म	-3131
▁प्रसार	-3132
▁बुरी	-3133
▁नियुक्त	-3134
▁साझी	-3135
▁पत्थर	-3136
▁जादू	-3137
मर	-3138
▁विनिर्दिष्ट	-3139
▁टुक	-3140
▁नाटक	-3141
▁प्रभार	-3142
▁मज़	-3143
▁E	-3144
ुमार	-3145
▁खाद्य	-3146
▁शास्त	-3147
▁व्याख्या	-3148
खर	-3149
िकाओं	-3150
▁भय	-3151
▁अनुवाद	-3152
▁अधिकतर	-3153
▁कठोर	-3154
▁दिखाया	-3155
▁भरो	-3156
▁स्वरूप	-3157
ूंगा	-3158
कामना	-3159
▁संदे	-3160
▁अधिसू	-3161
प्रिय	-3162
▁दिये	-3163
ूँगा	-3164
▁उत्तम	-3165
▁पद्धति	-3166
▁शास	-3167
▁बिजली	-3168
▁विस्तृत	-3169
▁अधिकतम	-3170
▁प्लग	-3171
▁समाचार	-3172
▁एच	-3173
धानी	-3174
▁अनुसू	-3175
चित्र	-3176
▁सिस्टम	-3177
बूल	-3178
▁खोलें	-3179
▁व्याव	-3180
▁संस्करण	-3181
▁ज़ु	-3182
▁इजरा	-3183
▁कहानी	-3184
▁गुजरा	-3185
▁स्वामी	-3186
▁नियत	-3187
नर	-3188
''	-3189
▁सरक	-3190
▁इतनी	-3191
▁वाक़ि	-3192
▁समक्ष	-3193
▁बख्श	-3194
कद	-3195
▁अंध	-3196
▁दीर्	-3197
▁बावजूद	-3198
▁शक्त	-3199
व्र	-3200
▁शिव	-3201
▁मार्गदर्शन	-3202
▁ग्राम	-3203
▁पार्टी	-3204
▁प्रयुक्त	-3205
▁अरब	-3206
▁शेयर	-3207
▁प्रेर	-3208
▁शुभकामना	-3209
▁इंज	-3210
वें	-3211
▁सीख	-3212
▁वाता	-3213
▁क़यामत	-3214
▁आतंकवाद	-3215
्रिया	-3216
▁माह	-3217
▁कटौती	-3218
▁हालांकि	-3219
बूद	-3220
िक्री	-3221
▁बुनिया	-3222
मल	-3223
▁(3	-3224
द्धा	-3225
▁मूल्या	-3226
▁पश्चिमी	-3227
▁करनेवाला	-3228
▁त्व	-3229
ंटे	-3230
लिंग	-3231
▁विनि	-3232
▁फैस	-3233
▁अनुकूल	-3234
▁निरंतर	-3235
▁पाय	-3236
▁चिह्न	-3237
ुत्व	-3238
▁परस्पर	-3239
▁फाय	-3240
तृत्व	-3241
वहन	-3242
▁मोड	-3243
▁छिपा	-3244
▁विमान	-3245
ॉन	-3246
भाष	-3247
▁सज	-3248
)।	-3249
न्ना	-3250
▁मेल	-3251
▁स्पष्टीकरण	-3252
र्र	-3253
▁मास	-3254
त्न	-3255
▁दर्शन	-3256
▁रोज़ी	-3257
▁सामना	-3258
▁सम्प	-3259
▁खाली	-3260
▁सबको	-3261
▁डाटा	-3262
दों	-3263
सों	-3264
▁विध	-3265
▁परिस्थित	-3266
▁अवै	-3267
▁एफ	-3268
▁दीवार	-3269
खिल	-3270
▁प्रच	-3271
▁वार्षिक	-3272
▁संचार	-3273
▁the	-3274
▁वायदा	-3275
अपनी	-3276
▁गहरा	-3277
▁मिशन	-3278
▁हार	-3279
यत	-3280
▁गतिविधियों	-3281
▁कल्या	-3282
▁मिलकर	-3283
▁रेखा	-3284
▁प्रसिद्ध	-3285
▁विल	-3286
▁वातावरण	-3287
▁पूर्ववर्ष	-3288
▁सकेगा	-3289
▁हाथों	-3290
बादत	-3291
▁आसान	-3292
्ति	-3293
▁यंत्र	-3294
▁मुसलमानों	-3295
▁संलग्न	-3296
▁ऑन	-3297
▁सचि	-3298
▁अके	-3299
जिए	-3300
▁जानवर	-3301
20	-3302
वासियों	-3303
▁खड़ा	-3304
पास	-3305
▁राजन	-3306
▁अना	-3307
ोल्यूशन	-3308
▁तला	-3309
▁बॉ	-3310
▁चलता	-3311
▁द्वार	-3312
▁कार्ड	-3313
▁नियमों	-3314
स्वी	-3315
▁समर्	-3316
ट्र	-3317
नेवालों	-3318
▁e	-3319
▁हिन्दू	-3320
▁लिखने	-3321
ोकन	-3322
िज	-3323
▁नियमित	-3324
जु	-3325
दिक	-3326
▁टाइ	-3327
▁इत्या	-3328
▁अपराध	-3329
ून्य	-3330
▁करनेवाले	-3331
▁कर्मचारियों	-3332
▁नामक	-3333
▁क्लिक	-3334
ेंशन	-3335
▁आरो	-3336
यम	-3337
▁करी	-3338
किस्तान	-3339
▁संपूर्ण	-3340
▁सूक्ष्म	-3341
भु	-3342
▁मंज	-3343
▁खी	-3344
▁महसूस	-3345
पुट	-3346
▁अवि	-3347
▁स्वागत	-3348
▁फ़ैस	-3349
¤¤	-3350
ंकर	-3351
किल	-3352
▁वेतन	-3353
▁अभिव्य	-3354
वाली	-3355
ँव	-3356
▁भला	-3357
▁मतलब	-3358
▁हानि	-3359
▁ग्रहण	-3360
▁मल	-3361
लोड	-3362
▁अनुमान	-3363
▁स्त्री	-3364
ंखला	-3365
▁परीक्षण	-3366
टिल	-3367
▁सुझा	-3368
▁रौ	-3369
▁अंड	-3370
▁शिकायत	-3371
ंका	-3372
▁आंत	-3373
▁बंध	-3374
▁तमा	-3375
▁माँग	-3376
▁सारा	-3377
▁हाँ	-3378
▁दीन	-3379
▁विश्ले	-3380
▁पैर	-3381
ंचाई	-3382
▁चैन	-3383
▁सदन	-3384
▁उपचार	-3385
▁अफ्रीका	-3386
बरी	-3387
▁कथ	-3388
▁वर	-3389
▁अस्प	-3390
▁हरगिज़	-3391
▁दावा	-3392
▁झुठलाया	-3393
▁अद्य	-3394
▁पंच	-3395
▁g	-3396
▁कार्रवाई	-3397
▁अवैध	-3398
▁सर्वा	-3399
▁x	-3400
▁–	-3401
▁24	-3402
▁प्रेष	-3403
▁देकर	-3404
▁बनाएँ	-3405
▁हिसाब	-3406
ाक	-3407
▁स्वच्छ	-3408
हि	-3409
पों	-3410
▁बाहरी	-3411
▁पंक्ति	-3412
▁बजा	-3413
▁माता	-3414
ताव	-3415
▁अद	-3416
▁साम्रा	-3417
▁अक्सर	-3418
▁इन्हें	-3419
▁टन	-3420
▁आये	-3421
टेड	-3422
▁मूर्ति	-3423
▁शुभकामनाएं	-3424
el	-3425
▁in	-3426
▁भरोसा	-3427
र्त	-3428
▁इबादत	-3429
▁जाएं	-3430
ष्क	-3431
▁वाह	-3432
▁भौतिक	-3433
▁सूर्य	-3434
▁सहेजें	-3435
ँति	-3436
▁प्राप्ति	-3437
▁प्रावधान	-3438
▁परा	-3439
▁तौबा	-3440
▁कल्याण	-3441
▁मात्र	-3442
▁जीवित	-3443
▁कारबार	-3444
▁चम	-3445
▁उपय	-3446
▁पीठ	-3447
▁जिनकी	-3448
▁O	-3449
▁दंड	-3450
▁समस्याओं	-3451
▁पेज	-3452
▁पाठ्य	-3453
▁प्रसन्नता	-3454
▁h	-3455
▁खाने	-3456
रेट	-3457
▁जनवरी	-3458
▁अंतर्राष्ट्रीय	-3459
तिहासिक	-3460
▁आयुक्त	-3461
▁कल्पना	-3462
▁खाना	-3463
▁शख़्श	-3464
▁संकल्प	-3465
▁आकर्ष	-3466
▁सुंदर	-3467
▁पत्त	-3468
▁उद	-3469
ंघ	-3470
▁ब्रा	-3471
▁बढ़कर	-3472
▁फॉ	-3473
▁अनुमो	-3474
▁खेती	-3475
▁भेजे	-3476
▁फा	-3477
▁हिस्से	-3478
▁व्यवसाय	-3479
▁मिलती	-3480
नांक	-3481
दिन	-3482
▁50	-3483
▁क्रा	-3484
▁कितने	-3485
पान	-3486
शब्द	-3487
▁मौसम	-3488
वट	-3489
▁कथा	-3490
▁उत्स	-3491
धीन	-3492
लाल	-3493
▁मानसिक	-3494
▁ढूं	-3495
▁खुशी	-3496
▁माबूद	-3497
▁भलाई	-3498
▁लगाने	-3499
▁पुराने	-3500
▁प्रजा	-3501
▁वितरण	-3502
▁परियोजनाओं	-3503
▁बू	-3504
बारा	-3505
▁संबो	-3506
▁कार्यक्रमों	-3507
्वे	-3508
▁ज़रुर	-3509
▁आयोजन	-3510
▁क्षति	-3511
ियार	-3512
दु	-3513
▁शुरुआ	-3514
▁छुट	-3515
▁प्रार्थ	-3516
क्ट्र	-3517
▁तिथि	-3518
ायक	-3519
▁दूध	-3520
ce	-3521
▁नेतृत्व	-3522
▁दस्तावेज	-3523
▁धो	-3524
ृंखला	-3525
पै	-3526
रार	-3527
चीत	-3528
▁चलो	-3529
▁जून	-3530
▁बदलें	-3531
▁जायेगा	-3532
▁गणराज्य	-3533
▁पंचा	-3534
▁जानी	-3535
क्षेप	-3536
ूर्ति	-3537
▁चै	-3538
▁मनो	-3539
▁एवोल्यूशन	-3540
▁"%	-3541
pres	-3542
▁दोस्त	-3543
▁कदा	-3544
▁विवाद	-3545
▁धीरे	-3546
▁ब्रह	-3547
▁आइ	-3548
▁द्र	-3549
▁उसपर	-3550
▁न्यून	-3551
▁सप्ताह	-3552
जू	-3553
▁बोझ	-3554
लम	-3555
अलग	-3556
वान्वेष	-3557
▁अल्प	-3558
श्म	-3559
▁ज़ुल्म	-3560
वित्र	-3561
▁शत्र	-3562
▁मुद्द	-3563
▁हस्त	-3564
▁कितनी	-3565
▁हिंदू	-3566
▁कुफ्	-3567
ाले	-3568
क्षी	-3569
णु	-3570
▁इत्यादि	-3571
ूबर	-3572
ut	-3573
▁उड़	-3574
▁दयाल	-3575
▁प्ले	-3576
वर्तन	-3577
▁निरा	-3578
▁यूनि	-3579
त्मिक	-3580
लील	-3581
वक	-3582
▁शून्य	-3583
▁अभियान	-3584
दुनिया	-3585
▁अनुसरण	-3586
▁उपन्यास	-3587
्यार	-3588
▁क़सम	-3589
▁कराने	-3590
▁ख़र्च	-3591
▁कोड	-3592
▁काफ़िर	-3593
▁निभा	-3594
छा	-3595
िक़	-3596
▁निर्देशिका	-3597
ियल	-3598
▁तट	-3599
▁जुड़े	-3600
▁मूल्यांकन	-3601
▁100	-3602
▁उत्कृष्ट	-3603
फ्र	-3604
▁खुले	-3605
▁तकली	-3606
▁मध	-3607
मंडल	-3608
▁मुला	-3609
▁३	-3610
▁आउट	-3611
ंता	-3612
▁आँख	-3613
▁प्रार्थना	-3614
शक्ति	-3615
▁पत्नी	-3616
▁लम्	-3617
▁पर्यटन	-3618
पादन	-3619
णिज्य	-3620
▁अंतरण	-3621
▁बजे	-3622
▁बनाते	-3623
▁सुख	-3624
▁पराम	-3625
▁होनी	-3626
▁प्रयोजन	-3627
▁संस्थाओं	-3628
न्दगी	-3629
▁शुद्ध	-3630
▁पट्टी	-3631
id	-3632
▁संगण	-3633
मीटर	-3634
गण	-3635
▁आनंद	-3636
▁बातचीत	-3637
▁कमांड	-3638
▁अस्तित्व	-3639
म्मद	-3640
्याग	-3641
िकाना	-3642
▁विशेषता	-3643
▁कर्मचारी	-3644
▁फूल	-3645
▁गुरु	-3646
▁डरते	-3647
क़यामत	-3648
▁आस्ति	-3649
▁ऐतिहासिक	-3650
▁हद	-3651
▁मिटाएँ	-3652
▁बेटे	-3653
▁नवान्वेष	-3654
श्मीर	-3655
▁तेरे	-3656
घाटन	-3657
▁अत्यधिक	-3658
▁प्रेरित	-3659
▁इजरायल	-3660
▁विद्यार्थियों	-3661
धीश	-3662
ुप	-3663
▁पंचांग	-3664
रक	-3665
▁फ़ॉ	-3666
▁विद्युत	-3667
ंटी	-3668
ूक	-3669
▁गंगा	-3670
मानी	-3671
▁लक्षण	-3672
▁निशानी	-3673
▁मान्यता	-3674
▁साब	-3675
▁आध्या	-3676
ent	-3677
ओगे	-3678
क्सी	-3679
▁मामला	-3680
▁इकाई	-3681
▁उदार	-3682
्ठा	-3683
▁गुप्त	-3684
▁बुराई	-3685
▁गैस	-3686
फ़र	-3687
▁तुर	-3688
▁प्रारूप	-3689
वीय	-3690
▁मानक	-3691
▁शुक्र	-3692
ोम	-3693
मान्य	-3694
▁शीर्षक	-3695
▁स्क्रीन	-3696
▁मुक़ाब	-3697
▁संबंधों	-3698
परिक	-3699
▁विवे	-3700
▁तेज	-3701
▁बिक्री	-3702
वां	-3703
▁इकट	-3704
▁आयतें	-3705
ुस	-3706
▁देखभाल	-3707
▁साधन	-3708
राई	-3709
▁कक्ष	-3710
▁सौंप	-3711
िश्तों	-3712
्ता	-3713
▁दुआ	-3714
▁चारों	-3715
▁बैंकों	-3716
्वर	-3717
▁बाह	-3718
▁लाया	-3719
▁फसल	-3720
▁काव्य	-3721
▁सुबह	-3722
▁दिला	-3723
▁वादा	-3724
लोग	-3725
▁स्तंभ	-3726
▁बुनियादी	-3727
▁प्रतिक्रिया	-3728
▁खिलाफ	-3729
▁वाणिज्य	-3730
▁ईमानदारों	-3731
▁किसान	-3732
▁इरा	-3733
▁प्रोट	-3734
र्ज	-3735
▁पाकिस्तान	-3736
िनी	-3737
▁मछ	-3738
▁प्रभुत्व	-3739
▁ख़ास	-3740
▁लोकप्रिय	-3741
▁नष्ट	-3742
ुमा	-3743
▁टिप	-3744
▁फिल्म	-3745
▁स्थिर	-3746
▁निदेशक	-3747
▁विरा	-3748
▁गृह	-3749
▁छूट	-3750
▁मंच	-3751
omment	-3752
करी	-3753
▁कहता	-3754
▁मानो	-3755
▁विशेषज्ञ	-3756
▁हराम	-3757
ॉकि	-3758
िक्स	-3759
▁फ्ल	-3760
▁करार	-3761
▁ठिकाना	-3762
जोर	-3763
▁प्रचार	-3764
▁आठ	-3765
मार्	-3766
▁गरीब	-3767
लेज	-3768
▁चेह	-3769
▁कुशल	-3770
▁स्थल	-3771
संख्या	-3772
मात्र	-3773
▁दिनांक	-3774
▁लोकतंत्र	-3775
▁लॉग	-3776
▁समी	-3777
▁किरा	-3778
▁ग़रज़	-3779
▁पुत्र	-3780
▁2.	-3781
▁कौशल	-3782
▁भाषण	-3783
▁स्थानों	-3784
▁परहे	-3785
▁फ़ैसला	-3786
ed	-3787
आन	-3788
▁विषयों	-3789
▁गोप	-3790
▁घरे	-3791
क्षिक	-3792
▁समस्त	-3793
ानु	-3794
▁माइ	-3795
▁ख्याल	-3796
खिम	-3797
▁अक्ष	-3798
uk	-3799
▁सवाल	-3800
▁रास्ता	-3801
▁लगातार	-3802
▁सामर्थ	-3803
▁परहेज़	-3804
▁193	-3805
▁पहाड़	-3806
▁आध्यात्मिक	-3807
▁आख	-3808
▁इतने	-3809
▁बरसा	-3810
▁अर्थात्	-3811
▁उपयोक्ता	-3812
क्रिय	-3813
▁बनने	-3814
▁सीधा	-3815
▁सेवाएं	-3816
▁अमेरिक	-3817
ec	-3818
▁कृत	-3819
तुम्ह	-3820
▁न्यूनतम	-3821
ैसे	-3822
▁लु	-3823
कालिक	-3824
क्यों	-3825
▁नाट	-3826
▁पढ़ने	-3827
▁सभ	-3828
▁लेन	-3829
▁अद्यतन	-3830
▁ग्रंथ	-3831
▁21	-3832
▁अदा	-3833
▁रद्द	-3834
▁मिश्र	-3835
▁अभिप्रे	-3836
▁प्रोत्साहन	-3837
जात	-3838
भेद	-3839
वर्ड	-3840
4)	-3841
▁संगठ	-3842
▁असमर्थ	-3843
-#-#	-3844
▁एका	-3845
▁२००	-3846
▁परामर्श	-3847
र्वा	-3848
▁सुल	-3849
▁उम्र	-3850
▁इंजीन	-3851
▁थोड़ा	-3852
▁दूरी	-3853
▁पवित्र	-3854
▁पूजा	-3855
▁आग्रह	-3856
▁स्त्रियों	-3857
▁नहर	-3858
विल	-3859
▁साइ	-3860
▁प्रायः	-3861
माने	-3862
▁गुमराही	-3863
▁नजर	-3864
▁विरो	-3865
▁विजय	-3866
▁जहा	-3867
शास्त	-3868
▁मेहरबान	-3869
▁संसाधनों	-3870
▁पारित	-3871
रणा	-3872
▁कठिना	-3873
व्या	-3874
▁एकत्र	-3875
▁गवाही	-3876
▁विनियम	-3877
▁मंड	-3878
▁आंतरिक	-3879
कड़ी	-3880
डि	-3881
▁मज़ा	-3882
ालत	-3883
▁नेहर	-3884
स्तियों	-3885
▁अमरी	-3886
यू	-3887
चलित	-3888
▁नागरिकों	-3889
▁तभी	-3890
▁मिन	-3891
▁अन्तर्	-3892
▁बेच	-3893
▁अज	-3894
▁उतार	-3895
▁घरेलू	-3896
▁प्रदू	-3897
ूसु	-3898
▁विज्ञ	-3899
▁महत्त्वपूर्ण	-3900
ालिब	-3901
▁इले	-3902
▁हथ	-3903
▁शाह	-3904
▁भागों	-3905
▁तीव्र	-3906
▁ध्वनि	-3907
▁वृक्ष	-3908
▁तरीका	-3909
कें	-3910
▁मीडिया	-3911
▁इंग	-3912
▁मुंबई	-3913
▁समन्व	-3914
▁गीत	-3915
▁विधे	-3916
▁देखकर	-3917
▁आज़	-3918
शे	-3919
▁बीज	-3920
▁बाँ	-3921
▁डाउन	-3922
▁शुरुआत	-3923
कीम	-3924
▁माप	-3925
▁निपट	-3926
▁रुपए	-3927
लाद	-3928
▁देवी	-3929
▁जाएंगे	-3930
▁गल	-3931
िक्र	-3932
▁आदम	-3933
▁जोखिम	-3934
▁हालॉकि	-3935
णों	-3936
क़ी	-3937
▁सर्वे	-3938
▁भागीदारी	-3939
देन	-3940
लाभ	-3941
▁युक्त	-3942
▁आपूर्ति	-3943
िकल	-3944
▁मोमि	-3945
▁उद्घाटन	-3946
▁अभिप्रेत	-3947
▁दयावान	-3948
भाँति	-3949
▁पूछा	-3950
▁संवर्	-3951
▁ऑनलाइन	-3952
▁रास्ते	-3953
▁परिस्थितियों	-3954
▁जल्द	-3955
नल	-3956
▁ख़ुद	-3957
तल	-3958
▁भारती	-3959
:%	-3960
▁कोल	-3961
▁संचालन	-3962
ज़त	-3963
▁ढूंढ	-3964
▁नृत्य	-3965
▁भाषाओं	-3966
!"	-3967
▁u	-3968
▁तमाम	-3969
▁सर्वोच्च	-3970
▁अका	-3971
▁आसानी	-3972
▁सहकारी	-3973
दीय	-3974
▁तुझे	-3975
▁बदलाव	-3976
▁गुजरात	-3977
बन्ध	-3978
▁ज्ञापन	-3979
▁दृढ़	-3980
▁बाबत	-3981
विज्ञान	-3982
▁दूसरों	-3983
शनल	-3984
सायन	-3985
▁लंबा	-3986
▁सिवाय	-3987
▁साम्राज्य	-3988
▁...	-3989
▁नज़र	-3990
▁लड़के	-3991
▁करीब	-3992
▁राज्यपाल	-3993
इश	-3994
डु	-3995
▁गठन	-3996
▁पुस्तिका	-3997
ac	-3998
▁स्वतः	-3999
▁ख़ूब	-4000
▁सामर्थ्य	-4001
▁26	-4002
▁मई	-4003
▁दयालुता	-4004
▁शिश	-4005
▁बोले	-4006
▁अगस्त	-4007
▁स्मृति	-4008
html	-4009
्रांस	-4010
▁पॉ	-4011
▁कानूनी	-4012
▁प्रि	-4013
ड़ने	-4014
वियों	-4015
▁लोगो	-4016
▁काफिर	-4017
▁उपयोगी	-4018
ail	-4019
भाग्य	-4020
▁दीर्घ	-4021
▁प्रका	-4022
महिम	-4023
▁लड़ाई	-4024
▁सदा	-4025
▁देखता	-4026
▁मीटर	-4027
▁न्यायाधीश	-4028
▁कॉन्	-4029
▁घोषित	-4030
▁अधिकारों	-4031
▁निर्वाचन	-4032
▁तमिल	-4033
िस्ट	-4034
क्षीय	-4035
▁फैसला	-4036
म्स	-4037
▁रजि	-4038
▁लाइ	-4039
▁दस्तावेज़	-4040
▁पढ़ा	-4041
▁किनारे	-4042
▁मैदान	-4043
▁तथ्य	-4044
शाह	-4045
ॉक	-4046
द्री	-4047
कर्ताओं	-4048
▁संबोधित	-4049
▁जरूर	-4050
ौल	-4051
▁मां	-4052
▁द्वीप	-4053
▁औष	-4054
▁वाद्य	-4055
नन	-4056
50	-4057
iv	-4058
न्दी	-4059
▁काग	-4060
▁पशु	-4061
▁आश्च	-4062
▁चेतना	-4063
▁प्राथमिकता	-4064
ीनी	-4065
▁कलक	-4066
▁जितना	-4067
▁चलने	-4068
▁रीति	-4069
▁ग़ालिब	-4070
▁नक़	-4071
▁फोन	-4072
▁अज्ञात	-4073
▁वैध	-4074
धित्व	-4075
▁छह	-4076
वंश	-4077
शेष	-4078
▁ज़ाह	-4079
▁विन्यास	-4080
▁सूर	-4081
▁मुना	-4082
फारिश	-4083
भाषित	-4084
▁नु	-4085
संगत	-4086
▁समृद्ध	-4087
▁उत्पादों	-4088
▁लिखी	-4089
▁करेगी	-4090
▁हिंदी	-4091
घात	-4092
िव	-4093
फ़ा	-4094
▁गुज़र	-4095
दत्त	-4096
▁कर्त	-4097
मिन	-4098
▁संवाद	-4099
ंदी	-4100
ऊँ	-4101
▁महामहिम	-4102
दित	-4103
▁जटिल	-4104
▁आक्रमण	-4105
गोल	-4106
यदि	-4107
परीत	-4108
▁ख्वाह	-4109
▁एकल	-4110
षक	-4111
▁अन्दर	-4112
▁उठाने	-4113
ैर्य	-4114
▁यून	-4115
▁बीमारी	-4116
-201	-4117
▁उपबंधों	-4118
▁तस	-4119
▁अनुरूप	-4120
▁विश्लेषण	-4121
▁क़ि	-4122
▁बजाय	-4123
▁निरी	-4124
▁संकट	-4125
▁जाओगे	-4126
▁ताप	-4127
▁होंगी	-4128
बाइल	-4129
▁औरतों	-4130
▁नेहरू	-4131
▁लाइन	-4132
▁नैतिक	-4133
▁अनुरोध	-4134
▁परिणामस्वरूप	-4135
▁31	-4136
▁सरदार	-4137
र्रर	-4138
▁खुला	-4139
▁कृष्ण	-4140
▁विपरीत	-4141
▁सिफारिश	-4142
▁तार	-4143
▁मौत	-4144
▁उतर	-4145
▁जंग	-4146
▁बीमार	-4147
▁बुद्ध	-4148
▁अध्याय	-4149
▁झा	-4150
▁क़ा	-4151
लोगों	-4152
▁साबित	-4153
कारात्मक	-4154
वली	-4155
▁हिम	-4156
कालय	-4157
वाना	-4158
▁आनन्द	-4159
▁प्रतिनिधित्व	-4160
आप	-4161
▁लेंगे	-4162
▁आश्चर्य	-4163
▁वचन	-4164
▁मैने	-4165
▁बन्दगी	-4166
▁मुक़ाबले	-4167
रस	-4168
मेन	-4169
▁त्याग	-4170
▁यक़ीनी	-4171
▁विद्यमान	-4172
▁चीन	-4173
ंजन	-4174
▁पोर्ट	-4175
▁वर्षा	-4176
▁सॉफ्ट	-4177
▁चक्र	-4178
धक	-4179
▁क़ु	-4180
▁एकता	-4181
▁समझौता	-4182
▁प्रकाशन	-4183
▁सरकारों	-4184
▁सर्वाधिक	-4185
muk	-4186
▁दवा	-4187
▁चीज़ों	-4188
▁कूटशब्द	-4189
्राफ	-4190
▁पलट	-4191
▁नूह	-4192
▁दरवा	-4193
▁आरम्भ	-4194
▁पृथ्वी	-4195
▁प्रतीत	-4196
▁एंड	-4197
▁पंजाब	-4198
▁प्रशंसा	-4199
फ़्र	-4200
▁जनसंख्या	-4201
शासन	-4202
▁लौटा	-4203
▁कितना	-4204
▁प्रतिभा	-4205
▁फ़िर	-4206
▁जिनको	-4207
त्तम	-4208
▁शारी	-4209
यो	-4210
लेट	-4211
दरत	-4212
▁नेक	-4213
बीर	-4214
pran	-4215
ing	-4216
▁दर्ज	-4217
▁भेद	-4218
▁अक्षम	-4219
▁सर्वेक्षण	-4220
▁हल्	-4221
jee	-4222
▁सिखा	-4223
▁आवाज़	-4224
▁प्रिय	-4225
abmuk	-4226
▁जमीन	-4227
▁जाकर	-4228
herjee	-4229
pranabmuk	-4230
pranabmukherjee	-4231
▁समाप्ति	-4232
▁करवा	-4233
▁खुली	-4234
▁कोवि	-4235
▁वहीं	-4236
▁डाले	-4237
▁पहुँचे	-4238
गढ़	-4239
▁परम	-4240
▁उपक्रम	-4241
▁पूर्वा	-4242
▁ज़िम्मे	-4243
prh	-4244
वायु	-4245
▁उठाए	-4246
▁ब्ल	-4247
▁अस्थ	-4248
▁आज्ञा	-4249
▁28	-4250
▁आओ	-4251
▁वैसे	-4252
▁धैर्य	-4253
जिस	-4254
▁दशक	-4255
▁अस्था	-4256
▁हैंः	-4257
▁राजनैतिक	-4258
▁इन्कार	-4259
▁पूर्वी	-4260
▁संगठनों	-4261
▁उधार	-4262
▁पसन्द	-4263
▁मुझसे	-4264
▁प्राधिकारी	-4265
▁नबी	-4266
▁पाई	-4267
▁आवास	-4268
▁सच्चा	-4269
▁सशक्त	-4270
▁l	-4271
पथ	-4272
▁दाह	-4273
▁(%	-4274
▁टा	-4275
▁पंजीकरण	-4276
▁22	-4277
ंठ	-4278
लीय	-4279
▁जय	-4280
▁प्रेरणा	-4281
अर	-4282
ज़ल	-4283
▁अर्थात	-4284
▁उद्योगों	-4285
▁काफ़ी	-4286
ूदी	-4287
▁उत्सा	-4288
▁निकाय	-4289
▁शिकार	-4290
▁23	-4291
▁ऑफ़	-4292
▁पाते	-4293
▁साफ़	-4294
▁प्रतीक्षा	-4295
▁कार्यान्वयन	-4296
ri	-4297
कभी	-4298
▁अत	-4299
▁उपभोक्ता	-4300
वित	-4301
प्रति	-4302
▁शहरी	-4303
▁शारीरिक	-4304
ष्टा	-4305
▁अहम	-4306
▁लिखित	-4307
▁जागर	-4308
प्ति	-4309
त्कार	-4310
▁अधिसूचना	-4311
▁पड़ी	-4312
▁सृजन	-4313
▁औसत	-4314
▁किलो	-4315
▁चुने	-4316
▁प्ल	-4317
▁मुश्	-4318
▁निगर	-4319
▁निहित	-4320
▁मुद्र	-4321
ंडी	-4322
धों	-4323
▁बाग	-4324
▁धु	-4325
▁मुद्दों	-4326
अत	-4327
अमत	-4328
▁सिक्	-4329
▁किस्म	-4330
▁इलेक्ट्र	-4331
▁27	-4332
▁टीम	-4333
इल	-4334
▁गौर	-4335
▁सजा	-4336
▁उठाया	-4337
▁तल	-4338
▁औलाद	-4339
▁सन्तान	-4340
▁नमू	-4341
▁पाठ्यक्रम	-4342
ंगिक	-4343
▁डाय	-4344
▁उच्चतम	-4345
▁सुविधाओं	-4346
▁टेली	-4347
▁सुभाष	-4348
▁तूने	-4349
▁यूसु	-4350
▁अमेरिकी	-4351
▁शैक्षिक	-4352
रात	-4353
सायिक	-4354
▁परेश	-4355
▁जिनसे	-4356
श्रम	-4357
ुस्तान	-4358
▁चुनौती	-4359
थे	-4360
्लो	-4361
▁Name	-4362
जब	-4363
▁साथी	-4364
▁सहज	-4365
पालिका	-4366
▁घटा	-4367
स्तिष्क	-4368
▁आंख	-4369
▁मस्	-4370
▁डाउनलोड	-4371
संस्	-4372
▁तकनीक	-4373
थी	-4374
▁of	-4375
▁हत्या	-4376
▁परिवहन	-4377
▁आबाद	-4378
▁मिनट	-4379
चारिक	-4380
▁प्रोत्साहित	-4381
ड़ते	-4382
▁सड़क	-4383
समय	-4384
▁घंटे	-4385
कीन	-4386
▁आश	-4387
▁जनजा	-4388
▁श्रम	-4389
▁श्रृंखला	-4390
▁फें	-4391
▁गणना	-4392
दास	-4393
▁नयी	-4394
▁सेटिंग	-4395
▁आकर	-4396
▁देर	-4397
▁सराह	-4398
▁पेंशन	-4399
▁ईमानदार	-4400
▁हमसे	-4401
▁आना	-4402
▁पति	-4403
▁अगला	-4404
क्ष्य	-4405
▁कहाँ	-4406
▁कार्यवाही	-4407
ेंज	-4408
▁छात्रों	-4409
क़्त	-4410
▁छाप	-4411
्यवाद	-4412
▁स्ना	-4413
▁जैव	-4414
▁सें	-4415
शीलता	-4416
▁पूज्य	-4417
▁बिहार	-4418
▁अन्यथा	-4419
▁निगरानी	-4420
5)	-4421
▁कब	-4422
कुछ	-4423
▁क़ुरान	-4424
दंड	-4425
तीत	-4426
▁समीक्षा	-4427
▁रेलवे	-4428
▁ज़िन्दगी	-4429
क़रीब	-4430
▁परिवर्तित	-4431
▁बहुते	-4432
केट	-4433
▁घड़ी	-4434
▁बदलने	-4435
ंदन	-4436
ंदु	-4437
र्ती	-4438
▁समर्पित	-4439
ैनिक	-4440
▁आलो	-4441
गारों	-4442
▁फिरऔन	-4443
▁कनेक्शन	-4444
▁संयंत्र	-4445
▁केरल	-4446
▁रहमत	-4447
▁जिले	-4448
▁कलकत्ता	-4449
टेन	-4450
ुक्ति	-4451
न्द्रनाथ	-4452
▁इंटरनेट	-4453
▁विरोधी	-4454
▁सै	-4455
▁विधेयक	-4456
टो	-4457
िड	-4458
▁मिलेगा	-4459
ंपरिक	-4460
▁लगते	-4461
▁ज़ाहिर	-4462
ेरत	-4463
▁कहान	-4464
▁नवीन	-4465
▁स्मार	-4466
न्ड	-4467
▁तस्वी	-4468
▁महाराष्ट्र	-4469
ME	-4470
▁धारण	-4471
▁इसको	-4472
▁शिखर	-4473
▁उत्तरा	-4474
ase	-4475
चानक	-4476
▁अकबर	-4477
▁चालू	-4478
▁लाते	-4479
▁सचिव	-4480
▁नुक	-4481
▁नक़ल	-4482
▁लिंक	-4483
▁एड	-4484
▁चो	-4485
▁सुदृ	-4486
▁अनुपात	-4487
▁आसपास	-4488
▁समग्र	-4489
▁सचे	-4490
▁होम	-4491
▁रौशन	-4492
वधि	-4493
▁जेल	-4494
▁तथापि	-4495
▁मुक़र्रर	-4496
मार्ग	-4497
्यूट	-4498
▁तिर	-4499
▁देय	-4500
▁जरिए	-4501
▁प्रारंभिक	-4502
▁आर्	-4503
▁क़ाय	-4504
▁सूत्र	-4505
ंटर	-4506
मियान	-4507
▁पृष्ठभूमि	-4508
▁भेजें	-4509
▁मिसाल	-4510
▁उपा	-4511
▁शहरों	-4512
जल	-4513
▁गुफा	-4514
▁अचानक	-4515
▁सॉफ्टवेयर	-4516
।-	-4517
नाह	-4518
▁शरीक	-4519
▁श्रेष्ठ	-4520
:-	-4521
मेट	-4522
▁बग	-4523
▁”-	-4524
▁बटन	-4525
▁इनका	-4526
▁हवाई	-4527
▁टैग	-4528
वण	-4529
▁मूल्यों	-4530
ढ़ा	-4531
ाये	-4532
▁सुझाव	-4533
▁जलवायु	-4534
▁हार्	-4535
▁जुलाई	-4536
▁(3)	-4537
▁महात्मा	-4538
▁कदापि	-4539
ष्ठा	-4540
ड़ियों	-4541
▁निष्क्रिय	-4542
▁गोल	-4543
लैंड	-4544
▁गें	-4545
▁अभिय	-4546
▁विभाजन	-4547
▁कीट	-4548
▁खींच	-4549
▁W	-4550
▁प्रयत्न	-4551
चालित	-4552
प्राप्त	-4553
iii	-4554
ोबार	-4555
▁मोबाइल	-4556
पार	-4557
मतौर	-4558
▁मुश	-4559
▁शोध	-4560
▁अभिव्यक्ति	-4561
▁शौ	-4562
▁लंबे	-4563
▁रोकने	-4564
▁दरमियान	-4565
मोह	-4566
ोजी	-4567
▁प्राधिकरण	-4568
▁इसने	-4569
▁परमाण	-4570
भ्र	-4571
▁क्	-4572
▁मं	-4573
ंत्रिक	-4574
vi	-4575
रत	-4576
▁Y	-4577
गामी	-4578
▁नाथ	-4579
▁सजदा	-4580
शुदा	-4581
▁द्वितीय	-4582
ेय	-4583
विधि	-4584
▁ग्राहक	-4585
▁नेताओं	-4586
▁विश्वविद्यालयों	-4587
ियामत	-4588
▁घाटे	-4589
ॉट	-4590
▁करोगे	-4591
▁चिंता	-4592
ur	-4593
कां	-4594
नाश	-4595
▁विशेषकर	-4596
ायी	-4597
▁निच	-4598
▁इकट्ठा	-4599
▁पारंपरिक	-4600
▁मर्द	-4601
▁मांस	-4602
▁योजनाओं	-4603
▁सिल	-4604
शास्त्र	-4605
▁रसूलों	-4606
एच	-4607
म्मत	-4608
▁पेड़	-4609
▁चलाने	-4610
▁ज्ञात	-4611
▁फ़ॉन्ट	-4612
▁अनुदान	-4613
▁युक्ति	-4614
▁समर्थित	-4615
क्रिप	-4616
▁प्रतिनिधि	-4617
▁शान	-4618
▁क्षमाशील	-4619
▁चुनौ	-4620
▁पुरानी	-4621
▁मुलाकात	-4622
▁मुश्किल	-4623
िकेट	-4624
ूर्ण	-4625
▁नुकसान	-4626
▁आकर्षित	-4627
▁ज़्यादा	-4628
▁सफ	-4629
▁साझा	-4630
न्या	-4631
▁उक्त	-4632
....	-4633
द्वीप	-4634
▁मौल	-4635
▁कामना	-4636
▁राजनीति	-4637
ow	-4638
▁कंपनियों	-4639
▁आराम	-4640
क्रो	-4641
▁आमतौर	-4642
▁अनक़रीब	-4643
लिया	-4644
प्रदाय	-4645
▁दाखिल	-4646
▁घटनाओं	-4647
▁जोड़ने	-4648
ंतरण	-4649
ठे	-4650
▁खान	-4651
hi	-4652
▁जर्म	-4653
▁कम्पनी	-4654
▁बिलकुल	-4655
▁नियंत्रित	-4656
बानी	-4657
▁देखे	-4658
▁संदेह	-4659
▁वाक़िफ	-4660
▁नस्	-4661
▁अपमान	-4662
▁प्रविष्ट	-4663
▁भंडारण	-4664
▁लै	-4665
▁जड़	-4666
▁लकड़ी	-4667
▁दिखाता	-4668
क़ा	-4669
▁औप	-4670
▁नंबर	-4671
▁सुदृढ़	-4672
▁कराया	-4673
▁चन्द्र	-4674
▁अवज्ञा	-4675
मण	-4676
▁80	-4677
▁इनकी	-4678
▁आमंत्र	-4679
साफ़	-4680
▁192	-4681
तावनी	-4682
▁समित	-4683
मै	-4684
▁ईमेल	-4685
▁समावेश	-4686
भाविक	-4687
▁कमजोर	-4688
▁फरवरी	-4689
▁सब्र	-4690
▁प्रशासनिक	-4691
मती	-4692
▁नाग	-4693
▁बख्शने	-4694
▁तत्वदर्शी	-4695
▁आफ	-4696
कर्ष	-4697
▁उत्तरी	-4698
ज्ज	-4699
िटी	-4700
दायी	-4701
आख़िर	-4702
▁मुद्	-4703
▁नेअमत	-4704
▁संविदा	-4705
▁कुफ्फ़ार	-4706
▁मस्तिष्क	-4707
▁पट्ट	-4708
▁मध्यम	-4709
ार्थी	-4710
ोटो	-4711
ुरान	-4712
ूंकि	-4713
▁दुखद	-4714
▁मुकद	-4715
▁काला	-4716
▁संसदीय	-4717
▁ज़िन्दा	-4718
).	-4719
▁उपस्थिति	-4720
▁राजस्थान	-4721
▁सौर	-4722
▁आवाज	-4723
▁नहरें	-4724
▁शक्तियों	-4725
खो	-4726
न्दु	-4727
ग्रस्त	-4728
▁संतुल	-4729
▁चेतावनी	-4730
▁चुना	-4731
नीन	-4732
▁बढ़ती	-4733
▁2000	-4734
>>	-4735
▁कुफ़्र	-4736
ॉल्ट	-4737
ेंसी	-4738
▁सागर	-4739
-0	-4740
▁संपादक	-4741
▁विनिमय	-4742
▁मारे	-4743
▁थोड़े	-4744
▁शत्रु	-4745
▁सलाम	-4746
▁समझने	-4747
▁1961	-4748
▁ढांचे	-4749
▁व्यावसायिक	-4750
fo	-4751
▁रण	-4752
▁ब्राह	-4753
▁कोशिका	-4754
ॉँ	-4755
▁खड़ी	-4756
▁अपेक्षित	-4757
▁आकृति	-4758
▁द्विप	-4759
▁सभ्यता	-4760
▁मुसी	-4761
नेवालो	-4762
▁देखना	-4763
बीह	-4764
अज़ाब	-4765
▁बस्ती	-4766
सोस	-4767
▁बहुम	-4768
▁साझे	-4769
▁फ़रमा	-4770
▁प्रभुत्वशाली	-4771
▁५	-4772
▁टिक	-4773
▁शुरु	-4774
ाइन	-4775
em	-4776
▁चूंकि	-4777
0}	-4778
स्फ	-4779
सारिक	-4780
▁सबके	-4781
▁खोलने	-4782
माल	-4783
ंचित	-4784
▁चली	-4785
पेक्ष	-4786
▁भेंट	-4787
थान	-4788
भावना	-4789
▁दादा	-4790
▁जानने	-4791
स्थापित	-4792
▁मृ	-4793
▁नेकी	-4794
घर	-4795
▁हटकर	-4796
▁कड़ी	-4797
▁नद	-4798
▁रिया	-4799
▁ईमानवालों	-4800
▁परमाणु	-4801
▁मस्जि	-4802
पह	-4803
▁दोहरा	-4804
▁स्वाम	-4805
▁अन्ततः	-4806
▁सांसारिक	-4807
वेद	-4808
▁लिखे	-4809
▁गिरफ्त	-4810
▁विरासत	-4811
ातु	-4812
▁कही	-4813
▁मिट	-4814
▁महल	-4815
▁चीनी	-4816
▁रहेगी	-4817
▁आह	-4818
▁निवास	-4819
▁संबद्ध	-4820
▁प्रतिबद्ध	-4821
▁रवी	-4822
▁दोबारा	-4823
▁४	-4824
▁अन्तर	-4825
▁अभाव	-4826
▁परिसर	-4827
तरित	-4828
▁गांवों	-4829
▁राजधानी	-4830
▁तोड़	-4831
▁युवाओं	-4832
ख्ते	-4833
घटना	-4834
▁वंश	-4835
▁गुमराह	-4836
▁मिलेगी	-4837
नीति	-4838
▁सतह	-4839
▁प्रान्त	-4840
स्पर्	-4841
▁स्वर	-4842
▁सुनने	-4843
फ़ि	-4844
▁पारि	-4845
▁बाह्य	-4846
▁मिलते	-4847
▁सिविल	-4848
▁चरित्र	-4849
▁सम्पूर्ण	-4850
▁सम्बन्धी	-4851
▁पैग़म्बरों	-4852
▁संग्र	-4853
तरी	-4854
नाटक	-4855
▁/	-4856
▁रोगी	-4857
▁परिचय	-4858
▁लंबी	-4859
▁बारगाह	-4860
जिट	-4861
साइ	-4862
▁40	-4863
▁अश	-4864
िप्त	-4865
▁न्यास	-4866
og	-4867
मति	-4868
▁तेरी	-4869
्याद	-4870
▁अभिक	-4871
▁हिंसा	-4872
▁एकमात्र	-4873
▁उल्ल	-4874
▁चेहरे	-4875
▁तस्वीर	-4876
व्यव	-4877
ॉर्ड	-4878
▁वीर	-4879
▁तयशुदा	-4880
▁प्रबंधक	-4881
रचना	-4882
▁इंच	-4883
▁निः	-4884
▁कैसा	-4885
धर्म	-4886
▁दाख़	-4887
▁नियुक्ति	-4888
▁अं	-4889
▁ठहर	-4890
▁नारा	-4891
▁विनष्ट	-4892
चरण	-4893
▁लेखन	-4894
जाम	-4895
बेस	-4896
▁याच	-4897
▁प्री	-4898
▁संगम	-4899
▁सकेंगे	-4900
▁अस्थायी	-4901
dia	-4902
ाइड	-4903
▁अदालत	-4904
▁अवतरित	-4905
▁मिलियन	-4906
▁()	-4907
▁तलाश	-4908
▁अनुग्रह	-4909
▁थोड़ी	-4910
पत	-4911
▁कच	-4912
▁जला	-4913
▁पुष्टि	-4914
बरा	-4915
िकमत	-4916
▁बाकी	-4917
▁कुरान	-4918
▁भेजने	-4919
▁बिगा	-4920
▁हँ	-4921
▁खण्ड	-4922
▁विविधता	-4923
▁इल्म	-4924
▁लाइस	-4925
▁खि	-4926
▁सन्द	-4927
▁अस्वी	-4928
▁रिक्त	-4929
▁डरो	-4930
▁फैल	-4931
रूद्ध	-4932
▁मानवीय	-4933
ेन	-4934
त्स	-4935
▁समझौते	-4936
्यु	-4937
▁वर्गों	-4938
▁क़ियामत	-4939
▁फ़ाइलें	-4940
काब	-4941
▁गेंद	-4942
▁पुस्तकालय	-4943
▁आयी	-4944
मिटेड	-4945
▁आहार	-4946
पंथ	-4947
बाज	-4948
▁मेन	-4949
▁उन्न	-4950
ंडा	-4951
्मण	-4952
पक्ष	-4953
info	-4954
ंध्र	-4955
▁कॉल	-4956
▁पालने	-4957
▁दर्श	-4958
▁दाख़िल	-4959
▁गिन	-4960
▁इमार	-4961
▁तुरंत	-4962
▁शर्तों	-4963
▁ऑडियो	-4964
र्की	-4965
▁ड्राइ	-4966
▁प्रतियोग	-4967
▁सुविधाएं	-4968
यिक	-4969
▁चुप	-4970
▁प्रथा	-4971
▁मूर्	-4972
▁बनाता	-4973
▁जाल	-4974
▁भले	-4975
टका	-4976
त्ल	-4977
▁ब्राउ	-4978
▁दिखाने	-4979
ीकृत	-4980
lease	-4981
▁मुर्	-4982
▁सफेद	-4983
्पणी	-4984
▁टैब	-4985
▁निकाला	-4986
▁विभाजित	-4987
▁जिम्मेदारी	-4988
कृष्ण	-4989
▁सराहना	-4990
▁लिमिटेड	-4991
▁अनुसूचित	-4992
▁सर्वोत्तम	-4993
30	-4994
ोष	-4995
चार्य	-4996
▁दोनो	-4997
्यास	-4998
▁क़ायम	-4999
▁स्कीम	-5000
▁समुद्री	-5001
निंग	-5002
सीसी	-5003
▁निरीक्षण	-5004
▁डिजा	-5005
▁हिकमत	-5006
▁गुनाहों	-5007
फ़ी	-5008
▁बनाये	-5009
▁क़िस्म	-5010
¤1⁄4	-5011
▁वरि	-5012
▁अवधार	-5013
▁कार्	-5014
ॉलर	-5015
▁ऑंख	-5016
▁तारा	-5017
▁शिक्षक	-5018
▁संपादित	-5019
साम	-5020
्रेट	-5021
निष्ठ	-5022
▁डिफ़	-5023
▁बच्चा	-5024
▁स्वीकृति	-5025
▁नवान्वेषण	-5026
जैसे	-5027
संबर	-5028
▁मॉडल	-5029
▁जुड़ा	-5030
▁संध्या	-5031
क्य	-5032
पणन	-5033
▁पत	-5034
▁पार्	-5035
▁फिली	-5036
नात्मक	-5037
▁सितंबर	-5038
▁क्ला	-5039
▁पाँच	-5040
ंछ	-5041
गन	-5042
ैत	-5043
गमन	-5044
▁3.	-5045
▁स्वस्थ	-5046
▁भरा	-5047
▁ख़ुश	-5048
▁कश्मीर	-5049
वलोकन	-5050
्यूब	-5051
▁अनुमोदन	-5052
▁प्ला	-5053
▁उपखंड	-5054
▁वस्त्र	-5055
▁ठोस	-5056
वर्त	-5057
▁खराब	-5058
▁ताकत	-5059
▁हार्दिक	-5060
▁दबाव	-5061
▁संपादन	-5062
▁बुरे	-5063
नेवाली	-5064
▁क़ुरआन	-5065
▁आवश्यकताओं	-5066
▁वार्	-5067
▁जम्	-5068
श्वास	-5069
▁लाइसेंस	-5070
न्ध	-5071
▁मोदी	-5072
AN	-5073
▁समृद्धि	-5074
▁प्रतिष्ठित	-5075
12	-5076
▁खत्म	-5077
▁हड्ड	-5078
▁दैनिक	-5079
▁प्रदूषण	-5080
▁अपरि	-5081
▁भावी	-5082
▁विहित	-5083
▁नीतियों	-5084
वश	-5085
मगर	-5086
▁अभिलाभ	-5087
▁संग्रहालय	-5088
अल	-5089
हो	-5090
सेट	-5091
िने	-5092
ख्यात	-5093
▁राहत	-5094
मुसलमान	-5095
▁प्लगइन	-5096
▁पर्	-5097
▁चौड़ाई	-5098
▁प्रतिभूति	-5099
ज़िर	-5100
▁सुनते	-5101
▁हक	-5102
▁प्रवाह	-5103
▁प्रचलित	-5104
▁गौ	-5105
▁अली	-5106
▁समूहों	-5107
▁द्विपक्षीय	-5108
▁ऊपरी	-5109
ग्ध	-5110
▁यो	-5111
▁चिप	-5112
वादियों	-5113
▁अफ़	-5114
▁मृत	-5115
▁नाते	-5116
▁स्वचालित	-5117
ैरह	-5118
स्ट्र	-5119
▁सोचा	-5120
▁सुनता	-5121
हिता	-5122
▁जोड़ा	-5123
60	-5124
▁पैके	-5125
▁विक्र	-5126
▁भरे	-5127
▁2016	-5128
▁परिभाषित	-5129
▁बिंदु	-5130
▁उन्होने	-5131
याय	-5132
क़त	-5133
हाल	-5134
▁आदान	-5135
स्कट	-5136
▁उतना	-5137
दीक	-5138
▁अग्रणी	-5139
▁कू	-5140
▁द्वि	-5141
▁मछली	-5142
मंड	-5143
▁सावधान	-5144
ist	-5145
▁मौजि	-5146
▁सरकशी	-5147
▁जहन्नम	-5148
▁स्वाभाविक	-5149
-19	-5150
ome	-5151
ायर	-5152
▁बारी	-5153
उंड	-5154
▁कब्	-5155
▁विपणन	-5156
धारी	-5157
ार्ज	-5158
▁दान	-5159
▁उन्नत	-5160
▁टूट	-5161
▁बोली	-5162
▁संक्रमण	-5163
स्को	-5164
▁उगा	-5165
▁हरि	-5166
▁डो	-5167
)...	-5168
▁भारतीयों	-5169
ूहिक	-5170
▁परे	-5171
▁चिह्नित	-5172
▁श्रद्धा	-5173
▁रेश	-5174
▁फ़िल	-5175
▁बहुतेरे	-5176
ag	-5177
▁छि	-5178
▁गर्म	-5179
▁रोज़	-5180
▁साइट	-5181
▁चैनल	-5182
▁समझे	-5183
▁बाधा	-5184
▁नेपाल	-5185
▁दिसंबर	-5186
ट्	-5187
▁लेती	-5188
▁कपड़े	-5189
▁ज़ालिमों	-5190
▁मक	-5191
सागर	-5192
▁रिज	-5193
▁जन्नत	-5194
▁लानेवालो	-5195
क्क	-5196
फोन	-5197
हाई	-5198
▁चतु	-5199
▁हुक	-5200
▁आजादी	-5201
दल	-5202
रीबी	-5203
स्तर	-5204
▁वकी	-5205
फो	-5206
लक	-5207
▁अँ	-5208
रेखा	-5209
▁ज़रा	-5210
▁मुंह	-5211
Comment	-5212
▁उत्साह	-5213
▁मंदिरों	-5214
▁डिफ़ॉल्ट	-5215
▁अर्ध	-5216
▁भेजी	-5217
▁उतारा	-5218
▁यूनिट	-5219
▁टिप्पणी	-5220
-2018	-5221
कार्य	-5222
▁कृतज्ञ	-5223
▁सप	-5224
▁असर	-5225
▁कैं	-5226
▁लाओ	-5227
▁गिरा	-5228
▁ट्रे	-5229
▁अवसरों	-5230
▁साहित्यिक	-5231
▁2013	-5232
▁छाया	-5233
▁ऊंचाई	-5234
▁वर्गी	-5235
▁मुसीबत	-5236
▁कर्नाटक	-5237
▁छुपा	-5238
▁देखी	-5239
▁प्रविष्टि	-5240
पात	-5241
बाल	-5242
▁टॉ	-5243
▁सन	-5244
▁कर्तव्य	-5245
▁गू	-5246
▁स्ट्र	-5247
-8	-5248
जान	-5249
ेंद्र	-5250
▁कुमार	-5251
▁बन्दे	-5252
▁अस्पताल	-5253
राईल	-5254
▁मानना	-5255
▁समझता	-5256
▁y	-5257
▁६	-5258
माना	-5259
▁दुर	-5260
▁चाहा	-5261
▁लगाए	-5262
्यादती	-5263
▁पर्वत	-5264
us	-5265
▁दह	-5266
▁फ्र	-5267
उप	-5268
तिश	-5269
पिता	-5270
▁खाओ	-5271
क्रिप्ट	-5272
दरा	-5273
▁घटक	-5274
▁क़दम	-5275
▁फ़िल्म	-5276
मेरे	-5277
▁दुः	-5278
▁क्रो	-5279
▁सीधी	-5280
▁संवर्धन	-5281
▁महीनों	-5282
▁सामूहिक	-5283
▁व्	-5284
▁ट्रै	-5285
▁विद्र	-5286
▁हितों	-5287
▁डेस्कट	-5288
▁सदी	-5289
शिष्ट	-5290
▁जिहाद	-5291
▁भक्ति	-5292
ड़ित	-5293
क्षिप्त	-5294
▁स्वर्ण	-5295
▁35	-5296
ष्णु	-5297
▁धन्यवाद	-5298
▁दुर्घटना	-5299
▁V	-5300
▁गार	-5301
▁चाहें	-5302
▁प्रतिस्पर्	-5303
य्य	-5304
▁बोस	-5305
▁मकान	-5306
ंची	-5307
तौर	-5308
▁रूस	-5309
▁अरबी	-5310
तियां	-5311
▁सचेत	-5312
▁बादशाह	-5313
ंटा	-5314
▁क़त्ल	-5315
्मा	-5316
▁उद्ध	-5317
▁गहरी	-5318
▁सत्यापन	-5319
मूल	-5320
दूरी	-5321
▁जवा	-5322
▁यूरोपीय	-5323
▁अन्तर्गत	-5324
▁दिव्य	-5325
▁भरी	-5326
▁पुष्	-5327
प्रदान	-5328
▁to	-5329
▁वरिष्ठ	-5330
कोश	-5331
सीन	-5332
ार्ट	-5333
▁फर्म	-5334
▁अग्रिम	-5335
▁डिजिट	-5336
▁समानता	-5337
रेख	-5338
्यूल	-5339
▁कारणों	-5340
▁सीमाओं	-5341
uot	-5342
ॉनिक	-5343
ेश्वर	-5344
▁आएगा	-5345
▁आरोप	-5346
दर्शिता	-5347
▁पक्षों	-5348
▁जानवरों	-5349
▁देवता	-5350
▁पैमाने	-5351
ंघन	-5352
राव	-5353
मर्श	-5354
▁लूत	-5355
▁पीढ़ी	-5356
▁पासवर्ड	-5357
हमारे	-5358
▁सदस्यता	-5359
▁फु	-5360
शाही	-5361
▁बैक	-5362
▁मक्	-5363
▁दौड़	-5364
▁सीडी	-5365
▁त्वचा	-5366
▁बाध्य	-5367
▁करु	-5368
▁ऊँचा	-5369
▁ब्रि	-5370
▁अक्षर	-5371
▁पत्रिका	-5372
▁संरक्षक	-5373
िकता	-5374
▁एक्	-5375
▁उल्लेखनीय	-5376
▁सहमत	-5377
क्तूबर	-5378
▁चाहेंगे	-5379
संप	-5380
ण्य	-5381
▁मुकाब	-5382
▁शिक्षण	-5383
▁यूसुफ	-5384
▁तत्काल	-5385
▁साथियों	-5386
▁अनुज्ञात	-5387
िमा	-5388
▁60	-5389
▁नौकरी	-5390
▁डेस्कटॉप	-5391
▁चीजों	-5392
▁अपनाया	-5393
▁चिकित्स	-5394
न्थ	-5395
▁रवि	-5396
▁जम्मू	-5397
▁प्रतिबंध	-5398
▁दर्दना	-5399
▁विनिर्माण	-5400
▁ग़ौर	-5401
▁दर्द	-5402
▁हमको	-5403
▁जितनी	-5404
▁मिलाकर	-5405
ुरी	-5406
▁इसराईल	-5407
▁मोमिनीन	-5408
▁i	-5409
ेरे	-5410
▁पहलू	-5411
▁उभ	-5412
▁उड़ा	-5413
▁कच्च	-5414
धिकारी	-5415
▁पूर्वो	-5416
▁विद्या	-5417
▁अंतरिक्ष	-5418
▁बांग	-5419
संच	-5420
▁घु	-5421
▁चेक	-5422
▁टू	-5423
ित्त	-5424
▁डिजाइन	-5425
▁प्रारम्भ	-5426
▁आंध्र	-5427
क्योंकि	-5428
▁>>	-5429
▁कोय	-5430
फू	-5431
▁तुम्हे	-5432
▁रेडियो	-5433
▁क्रिकेट	-5434
▁विरूद्ध	-5435
▁32	-5436
\\	-5437
कू	-5438
▁कष्ट	-5439
▁खिस	-5440
▁मजदूर	-5441
▁याचिका	-5442
▁असाधारण	-5443
▁तकलीफ़	-5444
▁पूर्ति	-5445
▁यथास्थिति	-5446
डो	-5447
जाल	-5448
िरो	-5449
▁पूर्वावलोकन	-5450
▁चोट	-5451
▁नाप	-5452
▁डॉलर	-5453
▁बिगाड़	-5454
▁शोक	-5455
▁अहले	-5456
▁चंद्र	-5457
▁फ़िरऔन	-5458
अनु	-5459
▁29	-5460
श्री	-5461
▁नेशनल	-5462
AT	-5463
काता	-5464
▁बुल	-5465
म्परा	-5466
ंगों	-5467
▁हिमा	-5468
.2	-5469
▁अर्जित	-5470
▁यूँ	-5471
▁हला	-5472
▁दावे	-5473
▁तीसरे	-5474
▁सम्भव	-5475
▁उपयोगकर्ता	-5476
▁तंग	-5477
▁दर्दनाक	-5478
▁निष्कर्ष	-5479
▁पुस्तकों	-5480
and	-5481
▁वस	-5482
▁तत्वों	-5483
▁प्रतियोगिता	-5484
as	-5485
▁यौ	-5486
▁पौधों	-5487
▁कठिनाई	-5488
14	-5489
▁यथ	-5490
▁चाय	-5491
▁प्रेस	-5492
▁फ़रिश्ते	-5493
ंख्य	-5494
india	-5495
▁2006	-5496
▁अंतः	-5497
▁ब्य	-5498
लिप	-5499
▁गहन	-5500
▁बजट	-5501
▁घाटी	-5502
▁समाय	-5503
ैया	-5504
त्ते	-5505
▁बचाव	-5506
▁बांध	-5507
▁इंडियन	-5508
▁निशानियों	-5509
▁पाइ	-5510
▁पैरा	-5511
▁संहिता	-5512
▁पंजीकृत	-5513
ion	-5514
नान	-5515
▁रिस	-5516
▁हरे	-5517
▁काली	-5518
ब्ब	-5519
्रोल	-5520
▁दास	-5521
▁राजस्व	-5522
▁अक्तूबर	-5523
▁क्रांति	-5524
SL	-5525
द्दी	-5526
ानिक	-5527
▁साँ	-5528
▁बारह	-5529
▁दुश्म	-5530
▁प्रेषित	-5531
ुसार	-5532
▁पाद	-5533
पूर	-5534
किसी	-5535
▁उपकरणों	-5536
▁फि	-5537
▁ख़ौ	-5538
▁गरीबी	-5539
ation	-5540
ात्मक	-5541
रुप	-5542
▁छोड़ा	-5543
मुसलमानों	-5544
ad	-5545
सेस	-5546
▁मूलभूत	-5547
▁कॉन्फ़ि	-5548
▁त्रुटिः	-5549
▁कहे	-5550
▁कहला	-5551
▁कनेक्ट	-5552
कल्प	-5553
पश्च	-5554
▁खतरा	-5555
▁बाबू	-5556
▁सांस	-5557
▁केंद्रित	-5558
▁उपर	-5559
ड़िया	-5560
▁गठित	-5561
▁बल्ले	-5562
▁काउ	-5563
▁नज़	-5564
जनन	-5565
ंडित	-5566
सनीय	-5567
▁परस	-5568
▁धातु	-5569
▁कहेगा	-5570
▁पैकेज	-5571
▁वार्ता	-5572
.5	-5573
▁शक्तिशाली	-5574
▁आब	-5575
निवेश	-5576
▁ईसाई	-5577
▁अधिकरण	-5578
▁मैत्री	-5579
दायक	-5580
▁जायें	-5581
▁चू	-5582
ंकित	-5583
etail	-5584
प्रभु	-5585
▁बैठा	-5586
▁लाना	-5587
▁फायदा	-5588
oc	-5589
ढ़े	-5590
▁अग्	-5591
▁शेय	-5592
▁सरकश	-5593
▁बैंकिंग	-5594
्नों	-5595
.)	-5596
ate	-5597
िली	-5598
यंती	-5599
▁आलोचना	-5600
▁व्यक्तित्व	-5601
ज़ोर	-5602
अच्छा	-5603
▁प्रस्तु	-5604
काय	-5605
▁क्व	-5606
▁सहमति	-5607
▁उद्यान	-5608
शांत	-5609
ुत्	-5610
▁औरत	-5611
स्ट्री	-5612
बेह	-5613
▁</	-5614
▁समन्वय	-5615
▁काफ़िरों	-5616
▁वाणिज्यिक	-5617
16	-5618
OR	-5619
टि	-5620
ादिर	-5621
▁2017	-5622
▁अब्द	-5623
▁देगें	-5624
▁जम	-5625
वंबर	-5626
▁नार	-5627
▁मरा	-5628
▁अकाद	-5629
▁जवाहर	-5630
▁काफिरों	-5631
▁सद्	-5632
▁ढांचा	-5633
▁फ़िल्टर	-5634
शः	-5635
▁लगती	-5636
▁संवेदन	-5637
▁परिवारों	-5638
▁1,	-5639
▁भटक	-5640
तू	-5641
▁2007	-5642
▁माने	-5643
▁संदाय	-5644
AP	-5645
▁ग्री	-5646
▁कामों	-5647
▁प्रणाल	-5648
▁कोविन्द	-5649
▁बौद्धिक	-5650
वानी	-5651
▁उर्व	-5652
▁निर्मा	-5653
▁मुक्ति	-5654
▁v	-5655
▁शान्त	-5656
▁मनुष्यों	-5657
▁सल	-5658
▁धारणा	-5659
▁फार्म	-5660
▁टो	-5661
▁पाब	-5662
press	-5663
▁रूपांत	-5664
▁जिम्मेदार	-5665
▁नेत्र	-5666
▁तैय	-5667
▁मादा	-5668
▁जोड़े	-5669
िरी	-5670
▁शरण	-5671
स्पति	-5672
▁पड़ती	-5673
▁प्रोज	-5674
▁मोमिन	-5675
▁सैनिक	-5676
▁विद्यालय	-5677
धानिक	-5678
▁कागज	-5679
▁उल्लंघन	-5680
▁चुनौतियों	-5681
सो	-5682
▁सकाः	-5683
▁शिशु	-5684
▁जायेगी	-5685
▁मॉड	-5686
▁रहस्य	-5687
▁पड़ेगा	-5688
▁ब्रह्म	-5689
▁मुगल	-5690
▁निवासी	-5691
▁औपचारिक	-5692
▁गवर्	-5693
▁बनकर	-5694
▁श्रमिक	-5695
ंजलि	-5696
जीवन	-5697
▁रोका	-5698
▁विद्वान	-5699
ैम	-5700
▁बेटा	-5701
▁साहस	-5702
स्ट्रे	-5703
▁प्रभाग	-5704
▁सुसंगत	-5705
▁फ़रिश्तों	-5706
ुरा	-5707
▁कक्षा	-5708
▁चीज़े	-5709
▁परम्परा	-5710
▁1961-2018	-5711
▁संक्षिप्त	-5712
▁सेल	-5713
▁फेंक	-5714
▁लिंग	-5715
ध्यक्ष	-5716
▁कारोबार	-5717
19	-5718
ियाई	-5719
▁ध्वज	-5720
▁चाहती	-5721
▁प्रसंस्	-5722
सीय	-5723
िश्र	-5724
▁अकेले	-5725
▁नवंबर	-5726
▁लगाना	-5727
▁चिंत	-5728
▁टुकड़े	-5729
▁तमिलना	-5730
▁प्रवृत्ति	-5731
▁r	-5732
▁2014	-5733
▁वकील	-5734
▁प्रत्या	-5735
▁पहन	-5736
▁वंचित	-5737
▁दक्षिणी	-5738
क्षणिक	-5739
▁पैरवी	-5740
▁निष्पादन	-5741
▁इक	-5742
▁अम्	-5743
▁जयंती	-5744
▁निकले	-5745
▁बढ़ने	-5746
▁कॉन्फ़िगर	-5747
वारी	-5748
▁जिसपर	-5749
पेट	-5750
▁सब्	-5751
▁अंतराल	-5752
▁बाग़ों	-5753
▁बस्तियों	-5754
काने	-5755
▁बेल	-5756
पूर्ति	-5757
▁क़ुबूल	-5758
▁संभावित	-5759
नाक	-5760
▁बढा	-5761
▁स्वामित्व	-5762
▁गै	-5763
ident	-5764
कर्षण	-5765
▁2005	-5766
▁साव	-5767
स्तानी	-5768
▁चीजें	-5769
▁प्यार	-5770
गों	-5771
▁गर	-5772
▁परसतिश	-5773
▁इस्लामी	-5774
पल	-5775
वती	-5776
्वान	-5777
▁हिमालय	-5778
त्ती	-5779
▁कॉलेज	-5780
▁यहूदी	-5781
▁पदार्थों	-5782
▁छू	-5783
▁अगली	-5784
▁पिछली	-5785
▁विद्यार्थी	-5786
ूली	-5787
▁आल	-5788
▁खतर	-5789
▁अभिन	-5790
▁हाथी	-5791
स्थल	-5792
▁आबादी	-5793
▁समुचित	-5794
▁उपलब्धि	-5795
▁ज़ोर	-5796
▁लेगा	-5797
सूर	-5798
ब्रे	-5799
▁नोड	-5800
▁साध	-5801
▁तंत्रिका	-5802
▁‘‘	-5803
ofindia	-5804
▁पहुंचे	-5805
▁इजा	-5806
▁ताला	-5807
▁फोटो	-5808
▁संचालित	-5809
▁प्रवृत्त	-5810
▁गहराई	-5811
▁मस्जिद	-5812
president	-5813
डकर	-5814
▁for	-5815
ख्तेयार	-5816
▁उभर	-5817
▁देशी	-5818
धीरे	-5819
र्ज़	-5820
▁पीने	-5821
release	-5822
▁प्रोटोक	-5823
▁सम्पर्क	-5824
▁खिल	-5825
▁पैसे	-5826
▁रिजर्व	-5827
ङ्	-5828
ग्रहण	-5829
▁जुड़ी	-5830
▁शिक्षकों	-5831
presidentofindia	-5832
ंभव	-5833
▁छुटकारा	-5834
▁पेशे	-5835
▁स्टेशन	-5836
▁रिकार्ड	-5837
▁गिरफ्तार	-5838
ch	-5839
ुम्ब	-5840
▁समाह	-5841
▁पच	-5842
▁अमल	-5843
▁घूम	-5844
▁सरपर	-5845
detail	-5846
क्ताओं	-5847
दराबाद	-5848
▁स्वीकृत	-5849
दिरा	-5850
▁आनु	-5851
▁कराना	-5852
▁सामान्यतः	-5853
▁सफलतापूर्वक	-5854
▁पोषण	-5855
▁मनोर	-5856
▁सवार	-5857
▁रवीन्द्रनाथ	-5858
न्य	-5859
▁मिथ	-5860
▁चन्द	-5861
▁आसमानों	-5862
▁ब्रिटेन	-5863
▁आमंत्रित	-5864
▁हॉ	-5865
▁जीवा	-5866
▁उद्देश्यों	-5867
मों	-5868
कीर्ण	-5869
ग़रज़	-5870
▁इनसे	-5871
▁कोलकाता	-5872
▁UR	-5873
डिंग	-5874
▁रुचि	-5875
▁रहमान	-5876
दस्त	-5877
▁गर्व	-5878
▁गोया	-5879
▁प्रसंग	-5880
",	-5881
लभ	-5882
ंसिल	-5883
▁टर्म	-5884
▁कथन	-5885
▁इसपर	-5886
▁पूछो	-5887
कांक्षा	-5888
▁विष्णु	-5889
▁योग्यता	-5890
ex	-5891
▁जनरल	-5892
▁अर्ज़	-5893
ww	-5894
क्सा	-5895
िन्त	-5896
प्न	-5897
▁गौरव	-5898
▁ग्राफ	-5899
▁प्रकाशना	-5900
ंशिक	-5901
▁रानी	-5902
▁आज़मा	-5903
▁कर्ता	-5904
▁प्रास	-5905
▁सहन	-5906
▁दिलच	-5907
▁संस्थापित	-5908
ूष	-5909
www	-5910
▁छत	-5911
▁आपसे	-5912
क़ुरान	-5913
▁स्मरण	-5914
▁प्राधिकार	-5915
▁नै	-5916
▁जीन	-5917
▁स्थाना	-5918
्मी	-5919
▁“%	-5920
ड़ना	-5921
▁त्रि	-5922
खन	-5923
शंकर	-5924
▁अन्तिम	-5925
▁डिजिटल	-5926
▁मशीनरी	-5927
▁निकलने	-5928
▁सिद्धांतों	-5929
am	-5930
शनी	-5931
ार्इ	-5932
▁क्षण	-5933
▁वैसा	-5934
▁माध्य	-5935
▁आरंभिक	-5936
▁पहुंचने	-5937
▁उत्तरदायी	-5938
IN	-5939
▁गर्भ	-5940
▁नान	-5941
▁इलाज	-5942
▁घुमा	-5943
▁किलोमीटर	-5944
▁दिमा	-5945
▁जानकर	-5946
राष्ट्र	-5947
▁बांग्ला	-5948
बै	-5949
▁इलेक्ट्रॉनिक	-5950
11	-5951
AR	-5952
▁पड	-5953
▁आचरण	-5954
पादित	-5955
▁ज़कात	-5956
▁ट्रैक	-5957
▁रसायन	-5958
▁पंख	-5959
▁पार्क	-5960
▁बचत	-5961
▁पहाड़ी	-5962
▁स्वभाव	-5963
▁संशोधित	-5964
▁प्रयोगशाला	-5965
/-	-5966
▁पोत	-5967
▁मानी	-5968
▁पंडित	-5969
शित	-5970
▁चट्ट	-5971
▁डराने	-5972
▁अनुपालन	-5973
▁जातियों	-5974
▁वाक़िफ़	-5975
तोष	-5976
▁इम	-5977
बूती	-5978
▁कमरे	-5979
ao	-5980
▁(4)	-5981
▁बाहम	-5982
▁अनुसूची	-5983
अब	-5984
तरे	-5985
▁नक	-5986
ज़ाम	-5987
▁पांड	-5988
▁वारिस	-5989
▁मित्रों	-5990
▁अलब	-5991
▁ईमानवाले	-5992
नें	-5993
▁परो	-5994
▁मासिक	-5995
गारी	-5996
▁आउटपुट	-5997
▁तह	-5998
▁खनि	-5999
▁तापमान	-6000
▁एयर	-6001
खु	-6002
▁दरिया	-6003
▁मददगार	-6004
ंजा	-6005
पट्टी	-6006
▁पौधे	-6007
▁संवे	-6008
▁सम्रा	-6009
▁पुरुषों	-6010
▁हैदराबाद	-6011
लै	-6012
याद	-6013
दृश्य	-6014
▁बढ़ते	-6015
▁भर्ती	-6016
डन	-6017
खाव	-6018
▁झुक	-6019
▁जहाज	-6020
▁निवार	-6021
▁वर्णित	-6022
▁अत्याचार	-6023
▁फ्लै	-6024
▁बुलाया	-6025
▁पिला	-6026
▁मातृ	-6027
▁इंजीनिय	-6028
▁जीत	-6029
ख़बरी	-6030
▁आश्व	-6031
▁अत्याचारी	-6032
ज़ि	-6033
समें	-6034
▁देगी	-6035
▁परिक	-6036
▁पोजी	-6037
▁बचाने	-6038
▁मानवता	-6039
ख़ेरत	-6040
▁लड़की	-6041
▁इसीलिए	-6042
▁एकीकृत	-6043
▁सरपरस्त	-6044
▁अख	-6045
▁सोने	-6046
▁न्यायिक	-6047
ब्लिक	-6048
्लैंड	-6049
▁गहरे	-6050
▁संतु	-6051
▁रूपों	-6052
▁लोकता	-6053
▁तमिलनाडु	-6054
प्ट	-6055
▁१८	-6056
▁काश	-6057
▁वास	-6058
▁मंडल	-6059
▁इनपुट	-6060
▁पंचाय	-6061
▁वापसी	-6062
▁सकेगी	-6063
है	-6064
बूझ	-6065
पानी	-6066
▁बहा	-6067
▁फज़ल	-6068
बूर	-6069
▁नती	-6070
▁श्व	-6071
न्हीं	-6072
▁विनाश	-6073
▁समाहित	-6074
चिक	-6075
क्की	-6076
▁शिल्प	-6077
▁फ्रांस	-6078
▁महाराजा	-6079
लित	-6080
ोनें	-6081
▁उपे	-6082
▁चमक	-6083
बोर्ड	-6084
▁तुर्की	-6085
▁दूरस्थ	-6086
▁सिंचाई	-6087
▁हिंदुस्तान	-6088
हु	-6089
याल	-6090
राशि	-6091
्रोतों	-6092
▁क़रीब	-6093
▁कार्ब	-6094
▁लिखें	-6095
टाई	-6096
रीन	-6097
ोजक	-6098
▁काले	-6099
▁उच्चतर	-6100
▁सम्मानित	-6101
ub	-6102
ौरन	-6103
▁तैयारी	-6104
▁परिवेश	-6105
-#-#-#-#	-6106
ानत	-6107
ंतिक	-6108
▁2015	-6109
▁बहाद	-6110
▁मुख़	-6111
▁जापान	-6112
▁प्रोजेक्ट	-6113
अच्छ	-6114
▁आमाल	-6115
▁ज़रिए	-6116
▁#-#-#-#-#	-6117
सूची	-6118
▁आबंट	-6119
▁जायेंगे	-6120
ंबित	-6121
▁दाम	-6122
▁समितियों	-6123
बाजी	-6124
व्यवहार	-6125
▁शैक्षणिक	-6126
ia	-6127
▁फिट	-6128
▁फीस	-6129
▁अकार	-6130
▁अनाज	-6131
▁व्युत्	-6132
▁re	-6133
▁पट	-6134
▁१५	-6135
पंथी	-6136
▁सकी	-6137
▁सिंध	-6138
संरचना	-6139
▁पोस्ट	-6140
▁इन्सान	-6141
▁बहस	-6142
▁फ्रे	-6143
▁अकेला	-6144
▁जादूगर	-6145
▁परिभाषा	-6146
▁साक्ष्य	-6147
▁अग्नि	-6148
▁सावधानी	-6149
संघ	-6150
श्रे	-6151
पोषण	-6152
▁नवा	-6153
निर्भर	-6154
▁मौलिक	-6155
▁संदेय	-6156
▁सम्बंध	-6157
गरी	-6158
शोथ	-6159
▁झि	-6160
▁धम	-6161
▁अवय	-6162
▁उन्म	-6163
▁डालें	-6164
▁मानता	-6165
▁नवम्बर	-6166
विचार	-6167
▁रखकर	-6168
▁कोष	-6169
▁अमरीकी	-6170
▁महाभारत	-6171
▁बीस	-6172
▁इच्छ	-6173
कलापों	-6174
▁कुफ्र	-6175
▁तरीकों	-6176
▁वैज्ञानिकों	-6177
सेना	-6178
▁com	-6179
▁खून	-6180
▁अभिदाता	-6181
सलों	-6182
▁सहारा	-6183
▁पोजीशन	-6184
▁व्यस्त	-6185
जिन	-6186
▁जू	-6187
▁उपास	-6188
▁नस्ल	-6189
▁वरीय	-6190
▁लंबाई	-6191
▁शानदार	-6192
स्ट्रेलिया	-6193
▁चाँ	-6194
▁गाँव	-6195
▁दीक्षा	-6196
▁निकालने	-6197
▁परत	-6198
.2014	-6199
ng	-6200
फाई	-6201
ंतरित	-6202
च्छिक	-6203
▁झुका	-6204
▁कीजिए	-6205
▁संतोष	-6206
▁हस्तक्षेप	-6207
▁सैन्य	-6208
ण्	-6209
▁दरबार	-6210
▁हटाएँ	-6211
▁विद्रोह	-6212
निस	-6213
लास	-6214
▁सतत	-6215
▁पदों	-6216
▁चिन्ह	-6217
▁पुकारा	-6218
▁इंजीनियर	-6219
▁श्वे	-6220
दाताओं	-6221
तुम्हारे	-6222
▁अट	-6223
▁गुजर	-6224
▁ढूंढें	-6225
र्दू	-6226
▁उठे	-6227
▁कायम	-6228
▁दलील	-6229
▁प्रसंस्करण	-6230
ंधन	-6231
ेंडर	-6232
▁पान	-6233
विमर्श	-6234
▁पथभ्र	-6235
▁बोलते	-6236
▁प्रक्रियाओं	-6237
देशों	-6238
▁लाएँ	-6239
ज़ख़	-6240
▁पाप	-6241
▁फार	-6242
▁रामा	-6243
▁मुद्दे	-6244
क्कर	-6245
देशक	-6246
लयों	-6247
▁शर्त	-6248
▁औरतें	-6249
▁विक्रय	-6250
▁अवधारणा	-6251
▁गाँ	-6252
वस्तु	-6253
हारिक	-6254
▁उतनी	-6255
▁कॉपी	-6256
▁तकलीफ	-6257
▁एल्	-6258
▁प्रतिफल	-6259
▁प्रतिकूल	-6260
▁सकारात्मक	-6261
▁दाहिने	-6262
प्रद	-6263
▁तिल	-6264
▁2012	-6265
▁व्यवस्थित	-6266
▁बंदर	-6267
▁संतुलन	-6268
▁वनस्पति	-6269
▁वसू	-6270
▁एजेंस	-6271
▁कमज़ोर	-6272
▁निष्ठा	-6273
्यक	-6274
▁खात	-6275
▁2001	-6276
▁अंकित	-6277
▁190	-6278
द्दीन	-6279
▁टर्मिन	-6280
▁प्रसाद	-6281
▁उल्लिखित	-6282
▁समुदायों	-6283
्द	-6284
ंदगी	-6285
चन्द	-6286
पत्ति	-6287
▁कोशिकाओं	-6288
▁प्रतिदिन	-6289
▁जाह	-6290
▁सरी	-6291
▁सच्ची	-6292
▁क्रियान्व	-6293
▁कारक	-6294
▁दर्जे	-6295
रखाव	-6296
▁आकलन	-6297
तापूर्वक	-6298
खों	-6299
पीएस	-6300
▁भंग	-6301
▁डालते	-6302
▁वस्तुत	-6303
▁दुर्भाग्य	-6304
▁विश्वसनीय	-6305
▁स्वप्न	-6306
केल	-6307
▁दर्शाता	-6308
ट्स	-6309
▁पाता	-6310
▁याची	-6311
▁परिचित	-6312
▁प्रको	-6313
▁प्रांत	-6314
सम्बर	-6315
षद्	-6316
ैंक	-6317
उसके	-6318
देशी	-6319
▁हलाल	-6320
्रेडिट	-6321
कलाप	-6322
क्राम	-6323
▁2019	-6324
▁अभिगम	-6325
▁आँखों	-6326
▁ग्राहकों	-6327
ग्न	-6328
▁नामः	-6329
▁क्रमा	-6330
▁मंजूरी	-6331
ay	-6332
ंसी	-6333
वीडी	-6334
▁अफग	-6335
▁यानी	-6336
▁झों	-6337
▁आखिर	-6338
▁मिश्रण	-6339
तन्य	-6340
स्टी	-6341
▁आँक	-6342
▁रखती	-6343
▁विभेद	-6344
▁निकाले	-6345
▁बडी	-6346
▁शोर	-6347
▁2008	-6348
▁कामया	-6349
▁स्तरों	-6350
▁अलबत्ता	-6351
▁गांधीजी	-6352
▁जमी	-6353
▁हमला	-6354
▁मक्का	-6355
टेल	-6356
बारी	-6357
▁हमे	-6358
▁विनय	-6359
▁पीड़ित	-6360
▁यथार्थ	-6361
13	-6362
वाहित	-6363
▁गुणा	-6364
ov	-6365
▁नाइ	-6366
▁राजक	-6367
▁लानत	-6368
▁स्टेट	-6369
▁आह्वान	-6370
▁हाज़िर	-6371
▁प्रश्नों	-6372
गोलिक	-6373
▁कर्ण	-6374
कन	-6375
मुच	-6376
▁पाकी	-6377
▁सीखने	-6378
-3	-6379
धारित	-6380
▁औजार	-6381
▁संभाल	-6382
बों	-6383
▁खतरे	-6384
▁क्रमशः	-6385
▁विभागों	-6386
ld	-6387
फेसर	-6388
▁जुड़	-6389
▁गुणों	-6390
▁कलाकार	-6391
▁व्यापारी	-6392
▁सम्पत्ति	-6393
ण्ट	-6394
▁पढ	-6395
▁बेट	-6396
▁मान्य	-6397
सिंह	-6398
▁पोल	-6399
▁बोला	-6400
▁श्रीमती	-6401
िद	-6402
ूकता	-6403
▁बिता	-6404
पाई	-6405
▁कहां	-6406
▁क़ाबू	-6407
▁जितने	-6408
▁आदमियों	-6409
▁गतिविधि	-6410
चु	-6411
▁गुरू	-6412
▁मधुम	-6413
पैग़म्बर	-6414
भौ	-6415
▁भूत	-6416
▁रोगों	-6417
▁लगाते	-6418
▁घनिष्ठ	-6419
▁डिग्री	-6420
▁संभवतः	-6421
▁रिकॉर्ड	-6422
▁अमरीका	-6423
▁विवरणी	-6424
tr	-6425
णिक	-6426
दादा	-6427
मुझे	-6428
▁अहं	-6429
▁असली	-6430
▁राहे	-6431
▁अनुमोदित	-6432
▁पुस्तकें	-6433
▁प्रासंगिक	-6434
डीई	-6435
▁स्वि	-6436
▁एजेंसी	-6437
▁अक्ट	-6438
▁सूचित	-6439
▁जर्मनी	-6440
कर्म	-6441
र्वेद	-6442
▁कैसी	-6443
स्परिक	-6444
▁लेखकों	-6445
▁क्रेडिट	-6446
▁प्रभार्य	-6447
▁न्यायालयों	-6448
षे	-6449
ind	-6450
▁गंत	-6451
▁डूब	-6452
▁नरे	-6453
▁हार्ड	-6454
▁गुज़	-6455
▁तीर्थ	-6456
▁सिद्धान्त	-6457
छो	-6458
▁फौ	-6459
▁माय	-6460
▁उग्र	-6461
▁जंगल	-6462
▁चलाया	-6463
▁प्रजनन	-6464
▁संपन्न	-6465
ार्थियों	-6466
▁पुकारते	-6467
उनकी	-6468
लांग	-6469
▁औषध	-6470
▁सिं	-6471
▁सम्बन्धित	-6472
र्जन	-6473
▁चावल	-6474
▁क़ादिर	-6475
▁चैतन्य	-6476
▁115	-6477
▁लार	-6478
▁कट्ट	-6479
▁टेक्	-6480
▁साहब	-6481
▁मिस्र	-6482
▁मुताब	-6483
▁उपायों	-6484
▁किन्हीं	-6485
▁घुट	-6486
▁तात्	-6487
▁पक्षी	-6488
▁करम	-6489
▁नवी	-6490
लियों	-6491
▁निधन	-6492
▁संपदा	-6493
▁ग्रस्त	-6494
▁प्रशांत	-6495
▁भौगोलिक	-6496
▁विद्वानों	-6497
ल्य	-6498
▁धा	-6499
ल्लम	-6500
वेशन	-6501
AME	-6502
ब्रेरी	-6503
▁अंग्रेज	-6504
▁जवाहरलाल	-6505
th	-6506
तब	-6507
पोर्ट	-6508
▁अमान	-6509
▁ईरान	-6510
▁एकदम	-6511
▁कृति	-6512
▁शांत	-6513
मौ	-6514
ाफ	-6515
▁नास	-6516
▁शराब	-6517
▁तसबीह	-6518
▁राजभाषा	-6519
नहीं	-6520
विष्ट	-6521
▁सर्वि	-6522
ायें	-6523
कियों	-6524
▁ज़बर	-6525
▁प्रशास	-6526
कना	-6527
वाँ	-6528
ीदा	-6529
▁खज	-6530
▁आश्र	-6531
um	-6532
विन	-6533
▁or	-6534
▁कस	-6535
काया	-6536
न्तर	-6537
भक्त	-6538
यक्त	-6539
▁रिज़	-6540
▁उतारी	-6541
▁अर्पित	-6542
▁आरक्षित	-6543
▁लोकतांत्रिक	-6544
▁तम	-6545
▁दार्	-6546
▁भरें	-6547
▁उर्दू	-6548
▁लिखते	-6549
▁वरीयता	-6550
▁हजारों	-6551
▁टाल	-6552
▁डिब	-6553
▁कृपा	-6554
▁आंशिक	-6555
▁प्रोफेसर	-6556
▁प्रस्तावित	-6557
▁रॉ	-6558
▁सचमुच	-6559
▁भगवान्	-6560
▁प्रतिमा	-6561
काएँ	-6562
जीवी	-6563
▁दुःख	-6564
▁वर्मा	-6565
▁वसूली	-6566
▁तत्त्व	-6567
केंड	-6568
▁ज्यो	-6569
दायित्व	-6570
ोक्ताओं	-6571
▁मज़बूत	-6572
व्यों	-6573
▁दुकान	-6574
▁लिखना	-6575
▁अक्टूबर	-6576
▁संलग्नक	-6577
▁फलस्वरूप	-6578
आरए	-6579
▁बरस	-6580
▁डाली	-6581
▁प्राप	-6582
▁संगणना	-6583
▁मक़	-6584
▁गर्मी	-6585
▁पथभ्रष्ट	-6586
▁कम्प्यूटर	-6587
▁जॉ	-6588
हारी	-6589
▁टाइप	-6590
▁उठाना	-6591
▁शेयरों	-6592
▁पूज	-6593
ष्कार	-6594
▁अभ्यास	-6595
बिल	-6596
लेखन	-6597
▁con	-6598
▁अद्व	-6599
▁जाया	-6600
▁नदियों	-6601
एमई	-6602
▁ज्व	-6603
▁दीजिए	-6604
▁अपराधी	-6605
▁सेक्टर	-6606
▁अधिकारिता	-6607
▁ष	-6608
▁आपसी	-6609
▁करेंः	-6610
▁दशकों	-6611
▁किले	-6612
▁जागरूकता	-6613
ेड	-6614
ेस	-6615
नेह	-6616
▁अहि	-6617
▁खबर	-6618
▁मेह	-6619
▁प्लस	-6620
▁मोटर	-6621
▁सेंट	-6622
▁आंकड़ा	-6623
▁पुराना	-6624
▁इकाइयों	-6625
▁पारस्परिक	-6626
उसकी	-6627
लिपि	-6628
▁अमर	-6629
▁उपज	-6630
▁जैन	-6631
▁झूठे	-6632
▁आधारभूत	-6633
▁वास्तविकता	-6634
शोधन	-6635
▁अर्ज	-6636
▁शासक	-6637
▁विवेक	-6638
▁दुश्मन	-6639
▁तृ	-6640
▁पड़ो	-6641
▁अर्जन	-6642
▁रामायण	-6643
▁2002	-6644
▁अतीत	-6645
▁निगाह	-6646
▁फायदे	-6647
▁लड़का	-6648
▁हिमाचल	-6649
▁वेद	-6650
▁चलती	-6651
ter	-6652
ener	-6653
चेंज	-6654
▁होगे	-6655
▁भांति	-6656
▁वैदिक	-6657
▁वैकल्प	-6658
ानिस्तान	-6659
▁देशवासियों	-6660
वत्	-6661
समा	-6662
सास	-6663
▁लिपि	-6664
▁बेटों	-6665
पद	-6666
हक़	-6667
इयां	-6668
▁पनाह	-6669
▁भक्त	-6670
▁दिसम्बर	-6671
▁पूर्ववर्ती	-6672
्रीम	-6673
▁आपदा	-6674
▁फोल्डर	-6675
▁उत्पादक	-6676
-200	-6677
▁घेर	-6678
▁बनना	-6679
▁दूँगा	-6680
▁सहयोगी	-6681
▁दिखायें	-6682
▁अखिल	-6683
▁विजे	-6684
▁तीनों	-6685
▁सम्राट	-6686
▁पसंदीदा	-6687
▁व्यावहारिक	-6688
बाई	-6689
▁गईं	-6690
ख्वाह	-6691
ालयों	-6692
▁ग्रे	-6693
▁होगें	-6694
▁संगठित	-6695
▁वैकल्पिक	-6696
▁प्रोटोकॉल	-6697
▁90	-6698
▁अरु	-6699
▁आशय	-6700
▁हलाक	-6701
▁उत्तेज	-6702
▁अलं	-6703
▁रहम	-6704
▁लिप	-6705
▁कहें	-6706
▁आतंकवादी	-6707
▁विज्ञप्ति	-6708
10	-6709
गुण	-6710
▁अधिसूचित	-6711
▁उपलब्धता	-6712
▁प्रतिष्ठा	-6713
▁प्रयोक्ता	-6714
▁तद	-6715
▁नज	-6716
साइटी	-6717
ब्ल्यू	-6718
▁डालने	-6719
पेश	-6720
भूषण	-6721
लामी	-6722
▁आएँ	-6723
्रेता	-6724
▁फसलों	-6725
▁योजनाएं	-6726
▁उन्होनें	-6727
गीय	-6728
साई	-6729
▁आधा	-6730
▁साधनों	-6731
▁अजी	-6732
▁समू	-6733
▁पृथक	-6734
▁सिरे	-6735
eat	-6736
भाषण	-6737
▁झील	-6738
वही	-6739
▁इंत	-6740
▁ख़ा	-6741
ड़ीसा	-6742
▁चढ़ा	-6743
▁हटाने	-6744
▁गारंटी	-6745
▁अंग्रेजों	-6746
ेंड	-6747
्टा	-6748
जनों	-6749
▁सकल	-6750
▁आएगी	-6751
▁गद्य	-6752
▁अंततः	-6753
▁प्लेट	-6754
▁अपनाने	-6755
▁कार्यरत	-6756
▁सत्यापित	-6757
/2	-6758
od	-6759
बाही	-6760
▁सड़	-6761
▁पैसा	-6762
▁बनता	-6763
▁चुकता	-6764
ुमान	-6765
▁गढ़	-6766
नीतिक	-6767
▁वन्य	-6768
▁एहसान	-6769
▁चीज़ें	-6770
▁प्रतिबि	-6771
०००	-6772
▁असल	-6773
बरदार	-6774
▁प्रॉ	-6775
▁समूद	-6776
▁गंतव्य	-6777
▁दक्षता	-6778
▁देखोगे	-6779
▁शास्त्र	-6780
▁जीवों	-6781
▁मारा	-6782
▁यहीं	-6783
▁माइक्रो	-6784
▁2020	-6785
▁भरने	-6786
▁बताता	-6787
▁भरपूर	-6788
▁सोसाइटी	-6789
▁प्रमाणित	-6790
▁प्रावधानों	-6791
▁सूच	-6792
▁पहलुओं	-6793
▁साक्षी	-6794
RAN	-6795
ंक्शन	-6796
▁कार्यालयों	-6797
▁75	-6798
▁तेरा	-6799
▁संधि	-6800
▁तीसरा	-6801
▁हथियार	-6802
▁व्यष्टि	-6803
▁मुल्क	-6804
▁क्रांतिक	-6805
आत	-6806
ंबे	-6807
▁सिक	-6808
▁हकदार	-6809
▁फरमाया	-6810
▁मण	-6811
▁बडे	-6812
▁सम्पन्न	-6813
▁प्रभावशाली	-6814
▁4.	-6815
हरों	-6816
दनी	-6817
उनके	-6818
▁इरादा	-6819
▁तथ्यों	-6820
▁सुन्दर	-6821
▁परिवर्तनों	-6822
▁झूठा	-6823
बहुत	-6824
▁तुझ	-6825
▁क़समें	-6826
▁दोज़ख़	-6827
▁सन्देह	-6828
▁डिप	-6829
▁ईंधन	-6830
▁कट्टर	-6831
▁आस्तियों	-6832
ap	-6833
र्ता	-6834
▁1999	-6835
▁वाहन	-6836
▁शंकर	-6837
▁लाभों	-6838
▁राष्ट्रों	-6839
चाह	-6840
ारण	-6841
▁ढूँ	-6842
त्रिम	-6843
तन्त्र	-6844
▁पंक्त	-6845
os	-6846
जत	-6847
▁किस्	-6848
▁जानना	-6849
▁मतभेद	-6850
▁बहादुर	-6851
थित	-6852
लाइ	-6853
▁हां	-6854
वास्त	-6855
▁राज़ी	-6856
▁दार्शन	-6857
▁बिन्दु	-6858
▁पाकीज़ा	-6859
▁प्रतिदान	-6860
आउट	-6861
▁पेय	-6862
▁कचरा	-6863
▁दस्तावेजों	-6864
एव	-6865
िरण	-6866
▁कीटों	-6867
▁स्रोतों	-6868
राय	-6869
ोरि	-6870
▁दिमाग	-6871
▁अधिकृत	-6872
,–	-6873
80	-6874
▁कारा	-6875
▁आकांक्षा	-6876
▁लंदन	-6877
▁बताते	-6878
▁स्तरीय	-6879
ँग	-6880
▁मोड़	-6881
▁रहित	-6882
▁लेबल	-6883
▁ठहराया	-6884
▁टर्मिनल	-6885
▁लक्ष्यों	-6886
▁बेर	-6887
▁उभार	-6888
▁मेहन	-6889
▁पेट्रोल	-6890
age	-6891
his	-6892
दूत	-6893
र्फ़	-6894
▁भूख	-6895
▁पचास	-6896
▁गिनती	-6897
▁श्वेत	-6898
¥	-6899
▁उन्हे	-6900
▁भाग्य	-6901
विश्वास	-6902
▁ब्राह्मण	-6903
ुद्ध	-6904
▁बचने	-6905
▁रोकते	-6906
▁अंशदान	-6907
▁मुहम्मद	-6908
▁शीर्षिका	-6909
▁साझेदारी	-6910
संख	-6911
▁36	-6912
▁वाम	-6913
▁आईडी	-6914
▁आयकर	-6915
▁कमाई	-6916
▁गणित	-6917
▁कृतज्ञता	-6918
▁भव	-6919
पसंद	-6920
▁घास	-6921
जहन्न	-6922
सूत्र	-6923
▁ख़ौफ	-6924
वृद्धि	-6925
▁नकारात्मक	-6926
▁व्यापारिक	-6927
▁प्रतिबद्धता	-6928
परा	-6929
▁बट	-6930
▁टीका	-6931
▁भुला	-6932
▁बालों	-6933
hat	-6934
▁दम	-6935
eather	-6936
▁लाखों	-6937
▁डीवीडी	-6938
▁खिलाड़ी	-6939
▁विचारधारा	-6940
¤	-6941
▁नकद	-6942
▁बहन	-6943
▁समापन	-6944
▁परोक्ष	-6945
▁विडियो	-6946
▁सलाहकार	-6947
▁स्वाधीन	-6948
▁अध्यक्षता	-6949
▁कार्यान्वित	-6950
▁भाइयों	-6951
▁कानूनों	-6952
▁ख्वाहिश	-6953
▁फ़ाइलों	-6954
ंसक	-6955
टिक	-6956
▁{0}	-6957
▁उलट	-6958
▁घात	-6959
▁अपनाई	-6960
▁पुरूष	-6961
▁प्रबल	-6962
▁उत्तरदायित्व	-6963
40	-6964
मरा	-6965
पुरुष	-6966
निर्माण	-6967
क्ल	-6968
ियॉ	-6969
▁खर	-6970
▁पश	-6971
▁गीता	-6972
▁नर्म	-6973
▁पीछा	-6974
▁भाष्	-6975
▁राज़	-6976
ाधिकार	-6977
▁ज्योति	-6978
▁मंत्रि	-6979
▁सारांश	-6980
▁रचनात्मक	-6981
इंड	-6982
कने	-6983
▁होटल	-6984
▁केंद्रों	-6985
8)	-6986
▁मेघ	-6987
संचार	-6988
कंप	-6989
क़े	-6990
लीन	-6991
▁फुट	-6992
▁वसी	-6993
▁पाना	-6994
59	-6995
li	-6996
भोग	-6997
▁पडे	-6998
ानिर्	-6999
▁टिकट	-7000
▁वांछ	-7001
▁चेन्न	-7002
▁नमूना	-7003
▁अनुक्रम	-7004
▁वस्तुएं	-7005
▁बलि	-7006
▁चोरी	-7007
▁सीता	-7008
▁अस्थि	-7009
▁पिछला	-7010
▁समझना	-7011
पर्य	-7012
▁अपार	-7013
▁ट्यूब	-7014
▁किराये	-7015
ॉग	-7016
बीन	-7017
▁ईंट	-7018
▁घाट	-7019
▁कोर्ट	-7020
▁संक्रिया	-7021
-9	-7022
ेंच	-7023
ापरी	-7024
▁करूँ	-7025
▁श्रो	-7026
▁सूरज	-7027
जीविका	-7028
▁पड़ते	-7029
▁पड़ने	-7030
▁आख़ेरत	-7031
▁उड़ीसा	-7032
▁प्रवासी	-7033
▁सौभाग्य	-7034
लोक	-7035
▁टि	-7036
▁बाक़ी	-7037
▁महानि	-7038
▁आकर्षण	-7039
▁मानकों	-7040
▁प्रसारण	-7041
▁पन	-7042
▁आदर	-7043
▁जाग	-7044
▁बचे	-7045
▁१९९	-7046
▁इंग्लैंड	-7047
▁७	-7048
▁जता	-7049
▁नाह	-7050
▁मरियम	-7051
▁वय	-7052
आईटी	-7053
ब्बा	-7054
▁बहि	-7055
▁लोकसभा	-7056
▁अभिभाषण	-7057
▁शिक्षित	-7058
▁स्वच्छता	-7059
▁स्थितियों	-7060
किस	-7061
▁दिश	-7062
▁जिलों	-7063
▁मजबूर	-7064
▁प्रतिवादी	-7065
▁यहूद	-7066
▁वृत्ति	-7067
▁लाइब्रेरी	-7068
▁फो	-7069
तायात	-7070
▁ब्रे	-7071
▁तबाही	-7072
▁निकाह	-7073
▁पढ़ते	-7074
▁कुशलता	-7075
ew	-7076
▁HT	-7077
▁मौका	-7078
▁कृत्रिम	-7079
▁भावनाओं	-7080
▁सुधारों	-7081
2)	-7082
डू	-7083
भाई	-7084
ेरा	-7085
ल्ले	-7086
▁बिन	-7087
▁मचा	-7088
▁बर्फ	-7089
कारिता	-7090
पीसी	-7091
▁जुल	-7092
▁मला	-7093
▁भड़क	-7094
▁मनपसंद	-7095
▁देनेवाला	-7096
ef	-7097
▁इष्ट	-7098
▁अगरचे	-7099
▁क़रार	-7100
▁लगाकर	-7101
▁देवताओं	-7102
▁सोल	-7103
▁खनिज	-7104
▁आस्था	-7105
▁ऑफ़लाइन	-7106
▁भागीदार	-7107
ul	-7108
▁तस्	-7109
शुल्क	-7110
▁सौंद	-7111
▁अकादमी	-7112
25	-7113
षी	-7114
▁ढल	-7115
▁आवरण	-7116
▁आवेद	-7117
▁चाहो	-7118
▁मेमो	-7119
▁शल्य	-7120
▁परेशान	-7121
तिल	-7122
ुलिप	-7123
▁अटल	-7124
▁एहद	-7125
▁तदन	-7126
▁पुल	-7127
▁डरता	-7128
▁बेहिश्त	-7129
▁सैनिकों	-7130
▁प्राधिकृत	-7131
ML	-7132
हद	-7133
तेह	-7134
मुना	-7135
्राव	-7136
▁189	-7137
▁ढेर	-7138
स्फोट	-7139
▁अंडे	-7140
▁भव्य	-7141
▁निचले	-7142
▁मिलना	-7143
▁दुर्लभ	-7144
▁Comment	-7145
▁यातायात	-7146
ूनी	-7147
हवीं	-7148
▁पेर	-7149
▁हाइ	-7150
संबंध	-7151
▁आईटी	-7152
▁छुट्टी	-7153
▁सच्चाई	-7154
▁स्मारक	-7155
▁जरूरतों	-7156
▁अपेक्षाकृत	-7157
मस	-7158
ज़न	-7159
ैली	-7160
▁१०	-7161
▁खाल	-7162
▁कैंसर	-7163
▁नारायण	-7164
▁पहुँची	-7165
भास	-7166
म्पा	-7167
▁समेक	-7168
▁एजेंसियों	-7169
▁कुट	-7170
▁स्तन	-7171
▁पार्ट	-7172
▁संचित	-7173
▁दीक्षांत	-7174
सद	-7175
काना	-7176
व्यापी	-7177
▁लम्बी	-7178
▁इजाज़त	-7179
▁देखेंगे	-7180
▁परिश्रम	-7181
चाप	-7182
िकीय	-7183
▁टेलीफोन	-7184
▁स्कूलों	-7185
पय	-7186
्यूम	-7187
▁आवि	-7188
▁मतदान	-7189
▁नज़दीक	-7190
▁पंजाबी	-7191
▁मानदंड	-7192
ध्व	-7193
द्रास	-7194
▁क्रय	-7195
▁पाये	-7196
▁पूछे	-7197
▁फ्रेम	-7198
▁बहुमत	-7199
▁विफलः	-7200
▁प्लगिन	-7201
▁असामान्य	-7202
किम	-7203
अपना	-7204
ामिन	-7205
ॉक्स	-7206
▁दूँ	-7207
▁रेड	-7208
▁हैस	-7209
▁हाउस	-7210
▁इंदिरा	-7211
▁उद्यमों	-7212
▁करनेवाली	-7213
bo	-7214
प्ल	-7215
▁रन	-7216
.2015	-7217
▁शाखाओं	-7218
▁मोहम्मद	-7219
▁हिस्सों	-7220
▁आत्मनिर्भर	-7221
6)	-7222
ईं	-7223
णे	-7224
समझ	-7225
▁हज	-7226
▁सना	-7227
▁तनाव	-7228
▁पुनरा	-7229
▁ड्राइव	-7230
▁प्रवर्तन	-7231
▁प्रणालियों	-7232
ृंग	-7233
▁फट	-7234
▁एमएस	-7235
▁हँसी	-7236
▁पेशेवर	-7237
▁मुकदमा	-7238
▁पूर्णतः	-7239
ताअत	-7240
▁असी	-7241
हमारी	-7242
▁उत्सव	-7243
▁कार्बन	-7244
▁मरम्मत	-7245
▁विदेशों	-7246
बस	-7247
▁o	-7248
ारक	-7249
खुदा	-7250
▁गर्भा	-7251
▁सारणी	-7252
▁प्राणी	-7253
▁समर्पण	-7254
▁पूर्णता	-7255
िफ	-7256
पीआई	-7257
▁नाक	-7258
शिक्ष	-7259
स्तीन	-7260
▁नामा	-7261
▁हुये	-7262
▁पीड़ा	-7263
▁बताने	-7264
श्रेष्ठ	-7265
▁निवारण	-7266
▁चाहूंगा	-7267
▁संकल्पना	-7268
un	-7269
▁कंध	-7270
▁दिखाए	-7271
▁पाओगे	-7272
▁ज़िक्र	-7273
▁वितरित	-7274
▁साझीदार	-7275
अन	-7276
▁नाय	-7277
▁रिट	-7278
▁वाइ	-7279
▁हरा	-7280
सूचना	-7281
▁बरकत	-7282
▁वैष्ण	-7283
▁इन्हीं	-7284
▁परंपरागत	-7285
निया	-7286
▁खेत	-7287
▁ऊँचाई	-7288
weather	-7289
▁उत्कृष्टता	-7290
▁घन	-7291
▁संतुष्ट	-7292
डीएफ	-7293
▁कुम	-7294
▁बनाओ	-7295
▁इमारत	-7296
▁बम	-7297
वाणी	-7298
▁कड़	-7299
▁चलना	-7300
▁पैनल	-7301
▁आंकड़े	-7302
▁गवर्नर	-7303
▁हड़	-7304
▁घटित	-7305
▁कुबूल	-7306
▁केडीई	-7307
▁तीसरी	-7308
▁आजीविका	-7309
▁चिकित्सक	-7310
र्मी	-7311
▁जगत	-7312
▁बिग	-7313
पोरेट	-7314
▁मंडप	-7315
▁खातों	-7316
▁मानने	-7317
▁धनराशि	-7318
▁शर्तें	-7319
ers	-7320
त्रि	-7321
▁धोखे	-7322
सायनिक	-7323
▁व्याख्यान	-7324
१९	-7325
ort	-7326
णता	-7327
मंच	-7328
ग्रा	-7329
टकों	-7330
▁गले	-7331
▁सहे	-7332
▁2003	-7333
▁क्लिप	-7334
▁पूछते	-7335
▁ट्रांस	-7336
▁अनिवासी	-7337
ूमत	-7338
▁45	-7339
▁वैसी	-7340
▁संगत	-7341
▁संदेशों	-7342
▁अवसंरचना	-7343
▁डु	-7344
ोल्ड	-7345
▁बादल	-7346
▁पत्रों	-7347
▁साक्षा	-7348
▁प्रचालन	-7349
▁मुख्यतः	-7350
कै	-7351
जरत	-7352
सम्	-7353
▁गलती	-7354
▁पाठक	-7355
▁समाम	-7356
▁अनुचित	-7357
▁मद्रास	-7358
▁कार्यकारी	-7359
र्भ	-7360
▁0.	-7361
▁ज़बान	-7362
ानुभूति	-7363
▁मुशरिक	-7364
जक	-7365
’’	-7366
ंकी	-7367
▁नक्	-7368
▁कराई	-7369
▁नौका	-7370
▁मोहन	-7371
▁निक्ष	-7372
▁अस्वीकार	-7373
उसका	-7374
खाना	-7375
हाबाद	-7376
चन्द्र	-7377
▁कराता	-7378
▁८	-7379
खार	-7380
▁नम	-7381
▁ओवर	-7382
▁2011	-7383
▁उत्पादकता	-7384
▁धान	-7385
▁अतएव	-7386
कोर	-7387
क़ात	-7388
▁उदय	-7389
बार्ड	-7390
ig	-7391
ंगें	-7392
ण्डल	-7393
विंद	-7394
▁ओपन	-7395
▁सृजित	-7396
त्रियों	-7397
▁कवियों	-7398
▁संयोजन	-7399
हान	-7400
▁प्रदत्त	-7401
▁आयुर्वेद	-7402
▁व्युत्पन्न	-7403
ताप	-7404
ऊँगा	-7405
पक्व	-7406
▁अवल	-7407
▁घुस	-7408
▁धूम	-7409
र्कों	-7410
▁अड्ड	-7411
▁इस्प	-7412
▁वृत्त	-7413
ँट	-7414
ंर	-7415
थन	-7416
फ़त	-7417
विदा	-7418
योग्य	-7419
▁बगैर	-7420
▁वाणी	-7421
▁श्रेण	-7422
कक्ष	-7423
ताकि	-7424
▁जरुर	-7425
▁गाड़ी	-7426
▁दिखाना	-7427
▁इंजीनियरी	-7428
2.	-7429
mp	-7430
ग्स	-7431
सेल	-7432
ेयर	-7433
▁ताज	-7434
▁कालेज	-7435
▁उपेक्षा	-7436
्रु	-7437
▁ढाँ	-7438
▁पशुओं	-7439
▁होस्ट	-7440
▁पहुँचने	-7441
▁मित्रता	-7442
▁समकालीन	-7443
▁विकासशील	-7444
▁उपलब्धियों	-7445
▁OF	-7446
जाने	-7447
▁नाश	-7448
▁मंगल	-7449
▁आँखें	-7450
▁अज्ञान	-7451
▁रिश्ते	-7452
▁फूँ	-7453
▁नकदी	-7454
▁कर्मों	-7455
▁ज़रूरत	-7456
ुरु	-7457
ड़कर	-7458
▁ऊतक	-7459
▁मत्	-7460
▁क्यू	-7461
▁खोजें	-7462
▁माननीय	-7463
70	-7464
ric	-7465
ंचल	-7466
रेत	-7467
▁फाइ	-7468
▁चौथा	-7469
▁बढ़ो	-7470
▁निरूप	-7471
▁इस्पात	-7472
▁रखरखाव	-7473
▁सौंदर्य	-7474
िकरण	-7475
▁लीग	-7476
▁बाढ़	-7477
▁खतरनाक	-7478
ठीक	-7479
्चर	-7480
्पण	-7481
▁वें	-7482
▁सीन	-7483
▁कंपन	-7484
▁जुटा	-7485
▁हमपर	-7486
▁निपटान	-7487
▁समामेल	-7488
▁परिपक्व	-7489
ER	-7490
शास	-7491
▁माध	-7492
▁TRAN	-7493
▁नौकर	-7494
▁मणिप	-7495
▁स्वै	-7496
्टवेयर	-7497
भूतियों	-7498
▁अन्याय	-7499
▁मुकाबले	-7500
▁प्रॉक्सी	-7501
ूल्य	-7502
▁मग़	-7503
▁वजन	-7504
▁गयीं	-7505
▁घाटा	-7506
▁मुहा	-7507
▁औज़ार	-7508
▁कृत्य	-7509
▁निमित	-7510
▁लम्बे	-7511
▁संजाल	-7512
▁सेंटर	-7513
▁इन्द्र	-7514
▁जिन्ना	-7515
वो	-7516
ईमान	-7517
▁कोण	-7518
▁बडा	-7519
.2016	-7520
न्नों	-7521
▁हैसियत	-7522
▁पहाड़ों	-7523
▁सितम्बर	-7524
ड्	-7525
ORS	-7526
गृह	-7527
ताज	-7528
वेल	-7529
हीत	-7530
खाने	-7531
स्सी	-7532
▁परवाह	-7533
▁रचनाओं	-7534
▁महासागर	-7535
राष्ट्रपति	-7536
▁परिस्थिति	-7537
▁(0	-7538
▁फूट	-7539
▁शादी	-7540
फ़ारिश	-7541
▁टैगोर	-7542
▁डोमेन	-7543
▁सुनकर	-7544
▁सुनाई	-7545
▁पब्लिक	-7546
SLAT	-7547
यक्तिक	-7548
SLATORS	-7549
▁मध्यस्थ	-7550
▁वस्तुतः	-7551
▁सामान्यतया	-7552
▁TRANSLATORS	-7553
wor	-7554
पीठ	-7555
लाप	-7556
क्षे	-7557
▁188	-7558
▁इबर	-7559
▁नरम	-7560
▁नूर	-7561
▁शब्	-7562
श्चित	-7563
▁दलों	-7564
▁रूपये	-7565
▁शक्तियां	-7566
▁स्ट्रिंग	-7567
▁अंग्रेज़ी	-7568
गान	-7569
तिपय	-7570
श्ती	-7571
▁गोरा	-7572
▁सुनी	-7573
ानुसार	-7574
▁दार्शनिक	-7575
बाप	-7576
▁5.	-7577
▁अच	-7578
▁देह	-7579
▁सोचते	-7580
▁इलाकों	-7581
▁व्यर्थ	-7582
▁विज्ञापन	-7583
▁रखनेवालों	-7584
ड़ो	-7585
प्रण	-7586
▁दांत	-7587
▁अनन्त	-7588
▁कोयला	-7589
▁प्रातः	-7590
▁एक्सचेंज	-7591
▁प्रशिक्षित	-7592
ke	-7593
आईसी	-7594
▁पते	-7595
▁इताअत	-7596
▁बढ़ता	-7597
▁त्वरित	-7598
▁प्रिंटर	-7599
घन	-7600
रन	-7601
▁चट	-7602
▁नल	-7603
प्रथम	-7604
▁रूपरेखा	-7605
▁प्रतिलिपि	-7606
▁संवेदनशील	-7607
▁प्रतिस्पर्धा	-7608
तिज	-7609
ष्म	-7610
▁बंबई	-7611
▁लगने	-7612
▁दिशानिर्	-7613
15	-7614
मोहन	-7615
▁फौरन	-7616
▁मन्द	-7617
▁माउस	-7618
त्यक्ष	-7619
▁संगणक	-7620
▁कव	-7621
लिये	-7622
त्मकता	-7623
▁पढ़ाई	-7624
▁हरिया	-7625
▁नवाचार	-7626
▁सिर्फ़	-7627
▁33	-7628
▁टक	-7629
गोया	-7630
▁आदत	-7631
▁ऊंची	-7632
▁सकने	-7633
▁कुदरत	-7634
▁विधिक	-7635
नत	-7636
रह	-7637
दाह	-7638
▁वेश	-7639
ज्ज़त	-7640
▁2004	-7641
▁संदत्त	-7642
▁कविताओं	-7643
▁रिज़र्व	-7644
▁विनियमन	-7645
▁अफगानिस्तान	-7646
नेस	-7647
ूलन	-7648
प्रा	-7649
▁दीं	-7650
▁मील	-7651
▁कथित	-7652
▁हिला	-7653
▁उत्पा	-7654
▁कार्मिक	-7655
▁प्रोटीन	-7656
▁राजमार्ग	-7657
कहीं	-7658
▁बिट	-7659
▁बेकार	-7660
▁संकलन	-7661
▁संवेदना	-7662
भुत	-7663
▁ह्र	-7664
स्टिक	-7665
▁बालक	-7666
दृष्टि	-7667
▁अंतरित	-7668
▁दीवारों	-7669
▁गूगल	-7670
▁नुक़	-7671
स्तीनी	-7672
▁मेहनत	-7673
▁शासित	-7674
▁आकर्षक	-7675
▁एशियाई	-7676
▁ड़	-7677
▁चखा	-7678
▁मंग	-7679
▁बांट	-7680
क्षरता	-7681
▁छोड़े	-7682
TP	-7683
अगर	-7684
ौलत	-7685
▁अय	-7686
▁फू	-7687
▁नमक	-7688
प्रदायिक	-7689
▁नाबार्ड	-7690
▁परिकल्पना	-7691
तत्व	-7692
म्मा	-7693
ग़ैरह	-7694
▁किला	-7695
▁दौरा	-7696
▁अपवाद	-7697
▁२०	-7698
▁गेह	-7699
▁अवकाश	-7700
▁फूलों	-7701
▁खुल्लम	-7702
▁दिखाते	-7703
▁सर्वथा	-7704
स्कर	-7705
▁छोड	-7706
▁बेस	-7707
▁रूह	-7708
न्हें	-7709
▁सौंपा	-7710
▁कहानियों	-7711
▁पहुंचाने	-7712
ायल	-7713
कुफ्	-7714
▁मुआ	-7715
▁नजात	-7716
▁सवाब	-7717
▁ग्रीन	-7718
▁क़्यों	-7719
▁मौजिज़े	-7720
▁सम्बद्ध	-7721
ess	-7722
पटा	-7723
र्थी	-7724
▁Con	-7725
लेमान	-7726
▁आजाद	-7727
▁अखबार	-7728
▁गर्दन	-7729
ष्टाचार	-7730
▁मेमोरी	-7731
▁शान्ति	-7732
▁शुरूआत	-7733
डों	-7734
▁जंगली	-7735
▁नाट्य	-7736
▁मराठी	-7737
गंध	-7738
▁70	-7739
▁बश	-7740
भांश	-7741
▁आवृ	-7742
▁प्या	-7743
▁सफाई	-7744
▁रोज़े	-7745
▁सृष्टि	-7746
▁ज्यादातर	-7747
▁रासायनिक	-7748
▁धूप	-7749
▁संब	-7750
▁प्रभु	-7751
▁सहभाग	-7752
▁वर्गीकरण	-7753
ूरो	-7754
क्के	-7755
ालों	-7756
▁मेज	-7757
▁कबीर	-7758
▁यूआर	-7759
▁क्रोध	-7760
▁ठहराते	-7761
▁रंगमंच	-7762
ट्टा	-7763
िश्ता	-7764
▁किमी	-7765
▁मरने	-7766
▁वादी	-7767
▁आमदनी	-7768
▁हज़ार	-7769
▁बांग्लादेश	-7770
फु	-7771
रीद	-7772
▁it	-7773
▁बोध	-7774
दर्शक	-7775
▁डालो	-7776
▁वरन्	-7777
▁हममें	-7778
▁इंजीनियरिंग	-7779
▁एन्	-7780
▁करू	-7781
▁हरी	-7782
▁मोती	-7783
▁कतिपय	-7784
▁किनारा	-7785
▁बढ़ाना	-7786
▁सर्वश्रेष्ठ	-7787
▁;	-7788
बेल	-7789
गांठ	-7790
▁अपर	-7791
▁विट	-7792
▁अजीब	-7793
▁ऊंचे	-7794
▁निबंध	-7795
▁पकड़े	-7796
▁ब्रह्मा	-7797
▁स्त्रियाँ	-7798
▁पठ	-7799
olor	-7800
अच्छे	-7801
▁रहीं	-7802
▁मानों	-7803
▁निमित्त	-7804
▁पार्श्व	-7805
खिक	-7806
वीर	-7807
▁आधे	-7808
▁मसल	-7809
▁शपथ	-7810
▁शेर	-7811
▁राधा	-7812
▁सबका	-7813
lab	-7814
तकों	-7815
▁मैच	-7816
▁निपटने	-7817
मैन	-7818
िट्	-7819
र्दों	-7820
▁स्पर्श	-7821
▁सहानुभूति	-7822
हमने	-7823
▁कंट	-7824
▁देन	-7825
▁	-7826
ा	-7827
क	-7828
र	-7829
े	-7830
्	-7831
न	-7832
ि	-7833
स	-7834
त	-7835
ह	-7836
ं	-7837
ी	-7838
म	-7839
ो	-7840
य	-7841
प	-7842
ल	-7843
व	-7844
द	-7845
ज	-7846
ु	-7847
ग	-7848
ब	-7849
ै	-7850
अ	-7851
श	-7852
ए	-7853
उ	-7854
च	-7855
़	-7856
भ	-7857
ू	-7858
।	-7859
ट	-7860
औ	-7861
,	-7862
ध	-7863
थ	-7864
ख	-7865
ष	-7866
आ	-7867
ड	-7868
इ	-7869
ण	-7870
फ	-7871
(	-7872
)	-7873
.	-7874
ई	-7875
-	-7876
छ	-7877
ँ	-7878
1	-7879
ृ	-7880
ौ	-7881
0	-7882
ओ	-7883
ठ	-7884
e	-7885
2	-7886
ऐ	-7887
a	-7888
घ	-7889
झ	-7890
i	-7891
à	-7892
t	-7893
ढ	-7894
n	-7895
"	-7896
o	-7897
ः	-7898
ॉ	-7899
s	-7900
¤	-7901
4	-7902
r	-7903
9	-7904
3	-7905
/	-7906
5	-7907
'	-7908
ञ	-7909
l	-7910
?	-7911
m	-7912
;	-7913
%	-7914
8	-7915
:	-7916
6	-7917
ऊ	-7918
p	-7919
7	-7920
d	-7921
h	-7922
c	-7923
_	-7924
‍	-7925
u	-7926
!	-7927
b	-7928
g	-7929
¥	-7930
ऋ	-7931
ऑ	-7932
C	-7933
y	-7934
S	-7935
A	-7936
०	-7937
१	-7938
N	-7939
k	-7940
I	-7941
f	-7942
w	-7943
T	-7944
M	-7945
#	-7946
‘	-7947
”	-7948
R	-7949
P	-7950
E	-7951
’	-7952
v	-7953
D	-7954
L	-7955
२	-7956
>	-7957
O	-7958
&	-7959
“	-7960
⁄	-7961
x	-7962
९	-7963
F	-7964
	-7965
B	-7966
–	-7967
°	-7968
<	-7969
U	-7970
	-7971
	-7972
५	-7973
G	-7974
३	-7975
८	-7976
H	-7977
@	-7978
	-7979
६	-7980
४	-7981
{	-7982
}	-7983
७	-7984
̧	-7985
j	-7986
]	-7987
¿	-7988
̈	-7989
\	-7990
ॅ	-7991
[	-7992
V	-7993
ङ	-7994
W	-7995
Y	-7996
