<pad>	0
</s>	0
<unk>	0
▁क	-0
▁स	-1
▁ह	-2
▁प	-3
▁म	-4
्र	-5
ार	-6
▁है	-7
▁ज	-8
ें	-9
▁के	-10
▁अ	-11
▁व	-12
या	-13
▁न	-14
▁ब	-15
ों	-16
▁त	-17
▁उ	-18
▁द	-19
▁ल	-20
ने	-21
▁में	-22
▁औ	-23
▁र	-24
ता	-25
▁और	-26
र्	-27
▁की	-28
्य	-29
▁कर	-30
▁कि	-31
ान	-32
▁आ	-33
▁प्र	-34
▁को	-35
▁से	-36
िक	-37
▁भ	-38
्त	-39
▁का	-40
ना	-41
▁ग	-42
▁इ	-43
ित	-44
▁(	-45
▁पर	-46
▁हो	-47
ाल	-48
▁य	-49
▁ए	-50
▁च	-51
्व	-52
न्	-53
ही	-54
▁श	-55
िए	-56
▁वि	-57
ते	-58
▁जा	-59
▁सं	-60
▁हैं	-61
▁इस	-62
िय	-63
▁एक	-64
▁उस	-65
था	-66
ला	-67
ोग	-68
के	-69
्ष	-70
▁ख	-71
ड़	-72
्ट	-73
ति	-74
हा	-75
▁लिए	-76
ुम	-77
्या	-78
▁सम	-79
ती	-80
▁अप	-81
▁जो	-82
▁फ	-83
हीं	-84
▁सा	-85
स्	-86
िया	-87
▁तो	-88
वा	-89
▁दे	-90
▁उन	-91
▁भी	-92
▁नहीं	-93
▁हम	-94
रा	-95
▁नि	-96
से	-97
दा	-98
▁तुम	-99
त्र	-100
ल्	-101
का	-102
सी	-103
▁ने	-104
▁रा	-105
▁जि	-106
री	-107
▁या	-108
कार	-109
▁बा	-110
ास	-111
▁किया	-112
नी	-113
क्ष	-114
गा	-115
▁अन	-116
▁यह	-117
ष्ट	-118
ले	-119
▁ही	-120
मा	-121
कर	-122
ंग	-123
▁करने	-124
ज़	-125
ेश	-126
▁अध	-127
सा	-128
ारा	-129
▁वह	-130
त्	-131
▁लोग	-132
▁मु	-133
▁थ	-134
▁स्	-135
▁हु	-136
क्त	-137
की	-138
िल	-139
िर	-140
▁कु	-141
▁कार	-142
▁ड	-143
ियों	-144
िन	-145
न्ह	-146
ाम	-147
ाह	-148
▁उप	-149
▁सक	-150
ारे	-151
द्	-152
▁रह	-153
ारी	-154
▁अपने	-155
▁वे	-156
▁था	-157
▁ले	-158
▁1	-159
रे	-160
▁ऐ	-161
मान	-162
भा	-163
्री	-164
्च	-165
ूप	-166
▁भार	-167
स्त	-168
ुर	-169
गे	-170
वि	-171
कि	-172
▁पू	-173
ओं	-174
▁उन्ह	-175
▁ध	-176
▁तथा	-177
में	-178
▁गया	-179
ली	-180
ंत	-181
▁जिस	-182
▁आप	-183
▁पह	-184
ैं	-185
▁दो	-186
▁स्व	-187
▁कुछ	-188
दि	-189
्ह	-190
ंध	-191
▁वाल	-192
▁छ	-193
▁मे	-194
खा	-195
▁किसी	-196
म्	-197
▁द्व	-198
ाप	-199
ूल	-200
▁अधिक	-201
▁तुम्ह	-202
▁साथ	-203
▁जब	-204
▁ला	-205
देश	-206
▁घ	-207
▁चाह	-208
▁रूप	-209
▁ख़	-210
ंद	-211
ोज	-212
▁सु	-213
▁2	-214
▁विश	-215
भी	-216
▁कोई	-217
ीन	-218
द्ध	-219
को	-220
▁निर्	-221
ढ़	-222
▁ट	-223
ाय	-224
▁तक	-225
▁करें	-226
ुदा	-227
▁अनु	-228
▁भा	-229
▁द्वारा	-230
ार्	-231
गी	-232
▁करते	-233
▁परि	-234
▁भारत	-235
ंड	-236
ुत	-237
▁पा	-238
▁लोगों	-239
▁क्ष	-240
न्द	-241
ाना	-242
▁वर्	-243
▁उनके	-244
▁प्रति	-245
▁बना	-246
▁व्य	-247
र्व	-248
ंत्र	-249
▁दि	-250
▁थे	-251
गर	-252
▁जाता	-253
▁राज	-254
योग	-255
▁फिर	-256
▁कह	-257
▁राष्ट	-258
जी	-259
▁जाए	-260
▁कार्य	-261
▁कहा	-262
क्	-263
लाह	-264
▁इन	-265
▁बह	-266
दी	-267
▁तर	-268
नों	-269
▁मा	-270
ृत	-271
▁दिया	-272
्छ	-273
▁पु	-274
▁अव	-275
▁स्थ	-276
▁करना	-277
क़	-278
द्य	-279
▁सर	-280
ब्	-281
▁अल्	-282
धार	-283
क्र	-284
▁क्या	-285
▁रख	-286
रण	-287
▁ई	-288
▁मैं	-289
पा	-290
फ़	-291
▁उसके	-292
▁सि	-293
ष्	-294
चार	-295
▁ज़	-296
▁सब	-297
च्छ	-298
ूर	-299
▁हुए	-300
क्ति	-301
▁अपनी	-302
्यों	-303
बंध	-304
▁ये	-305
▁अल्लाह	-306
बर	-307
र्ण	-308
▁रहे	-309
ये	-310
▁थी	-311
ंच	-312
श्च	-313
▁जी	-314
न्न	-315
▁मह	-316
▁उन्हें	-317
ड़ा	-318
जा	-319
ेत्र	-320
नि	-321
▁"	-322
▁फ़	-323
▁सी	-324
ाप्त	-325
▁उसे	-326
्ञ	-327
▁सकता	-328
▁रहा	-329
मी	-330
ोंने	-331
▁करता	-332
पर	-333
ड़े	-334
स्थ	-335
▁होता	-336
▁चु	-337
▁बात	-338
▁ख़ुदा	-339
▁सू	-340
वाल	-341
ड़ी	-342
▁जान	-343
ूस	-344
त्त	-345
▁गु	-346
▁क्षेत्र	-347
▁पै	-348
▁समय	-349
▁क़	-350
▁विक	-351
प्र	-352
िका	-353
▁राष्ट्र	-354
हर	-355
▁मान	-356
▁ओ	-357
बा	-358
च्च	-359
ोक	-360
दान	-361
पति	-362
र्थ	-363
कों	-364
▁बी	-365
▁जै	-366
▁देख	-367
वन	-368
वर्	-369
पू	-370
टा	-371
ानी	-372
ियम	-373
▁दी	-374
▁हि	-375
ोल	-376
▁बहुत	-377
ेल	-378
▁आय	-379
▁बाद	-380
भि	-381
▁प्राप्त	-382
स्था	-383
▁उन्होंने	-384
▁तरह	-385
वी	-386
शन	-387
र्म	-388
क्षा	-389
त्य	-390
▁मि	-391
▁सह	-392
▁झ	-393
▁काम	-394
▁दिन	-395
▁हुआ	-396
्रा	-397
▁पास	-398
ेष	-399
▁वाले	-400
▁निक	-401
▁होने	-402
िप	-403
▁राष्ट्रपति	-404
00	-405
ौर	-406
ंक	-407
टी	-408
▁देश	-409
्रीय	-410
▁मिल	-411
▁विश्व	-412
वे	-413
ज्ञ	-414
▁कम	-415
▁गए	-416
01	-417
▁करो	-418
▁अन्य	-419
ुल	-420
▁अंत	-421
▁उत्	-422
▁सरकार	-423
▁हमारे	-424
ाइ	-425
िस	-426
्स	-427
्रे	-428
▁पी	-429
▁सम्	-430
न्त	-431
▁दु	-432
▁हमने	-433
▁छो	-434
▁सभी	-435
ूँ	-436
▁नाम	-437
ख़	-438
▁जिन	-439
गत	-440
िम	-441
भाव	-442
▁यदि	-443
▁वर्ष	-444
▁ता	-445
स्ता	-446
करण	-447
▁19	-448
▁गई	-449
▁बि	-450
▁बु	-451
▁वा	-452
▁प्रकार	-453
चना	-454
▁तुम्हारे	-455
ग्र	-456
▁ओर	-457
तों	-458
▁समझ	-459
▁पहले	-460
एँ	-461
तीय	-462
▁साम	-463
▁सकते	-464
▁होगा	-465
वं	-466
ोध	-467
ीय	-468
▁ऐसे	-469
▁उनकी	-470
▁कारण	-471
श्य	-472
▁नी	-473
िक्ष	-474
धान	-475
तर	-476
हां	-477
▁दूस	-478
▁अच्छ	-479
▁संबंध	-480
एं	-481
▁रस	-482
दन	-483
▁ऊ	-484
▁चाहिए	-485
दार	-486
▁ना	-487
यी	-488
िश	-489
हाँ	-490
ुक्त	-491
▁होती	-492
▁बे	-493
▁अगर	-494
▁करे	-495
धि	-496
वर	-497
माण	-498
र्श	-499
▁जाने	-500
▁प्रा	-501
झे	-502
्यू	-503
पूर्ण	-504
ेर	-505
▁बद	-506
▁किए	-507
..	-508
िंग	-509
▁लग	-510
▁इसके	-511
त्म	-512
▁(_	-513
▁ऐसा	-514
सर	-515
▁हा	-516
ंप	-517
ची	-518
ध्य	-519
▁हर	-520
जन	-521
ास्त	-522
ोजना	-523
▁बढ़	-524
द्र	-525
▁जन	-526
▁ची	-527
▁ईमान	-528
चा	-529
▁पहु	-530
▁रसूल	-531
तन	-532
लय	-533
▁अस	-534
गार	-535
▁मो	-536
▁भारतीय	-537
टर	-538
ूम	-539
त्व	-540
▁हों	-541
▁ठ	-542
▁एवं	-543
▁खा	-544
दे	-545
▁'	-546
▁क्र	-547
वल	-548
हाय	-549
द्योग	-550
्ल	-551
▁दिखा	-552
▁राज्य	-553
िति	-554
टे	-555
ूं	-556
चे	-557
▁अब	-558
▁क्यों	-559
▁पूर्व	-560
▁विकास	-561
बी	-562
▁3	-563
व्य	-564
▁स्त	-565
▁उपयोग	-566
▁s	-567
काश	-568
ष्ठ	-569
▁उसकी	-570
▁व्या	-571
▁व्यक्ति	-572
मत	-573
मु	-574
ेज	-575
▁à	-576
िये	-577
▁लि	-578
▁प्रश	-579
▁भाग	-580
तः	-581
▁जाती	-582
▁मुझे	-583
धिक	-584
▁बन	-585
▁बार	-586
▁लगा	-587
▁हुई	-588
▁दोनों	-589
▁प्रदान	-590
वार	-591
ाली	-592
▁सेवा	-593
ाला	-594
▁चल	-595
पी	-596
सार	-597
▁कृ	-598
▁आधार	-599
▁जीवन	-600
▁तुम्हें	-601
on	-602
▁अभि	-603
▁जैसे	-604
▁वै	-605
▁सहाय	-606
▁श्री	-607
धा	-608
किन	-609
▁मौ	-610
▁ग्र	-611
शा	-612
शी	-613
कृत	-614
ित्र	-615
▁मुख	-616
फल	-617
▁बीच	-618
▁होते	-619
▁निय	-620
▁अपना	-621
यन	-622
▁खु	-623
▁उसने	-624
ेंगे	-625
▁रही	-626
▁लेकिन	-627
▁आव	-628
▁रब	-629
▁रु	-630
ोर्	-631
ताओं	-632
तु	-633
ेक	-634
ाइल	-635
ार्थ	-636
▁लिया	-637
ंस	-638
ोर	-639
▁देने	-640
▁विशेष	-641
ल्प	-642
हित	-643
िला	-644
क्रम	-645
▁शिक्ष	-646
▁यु	-647
▁बारे	-648
▁स्था	-649
ग़	-650
वाद	-651
▁मन	-652
▁सद	-653
▁अधिन	-654
▁विचार	-655
ज़ा	-656
▁बै	-657
ोप	-658
▁गा	-659
▁शु	-660
▁मूल	-661
▁न्या	-662
▁पैदा	-663
▁वाला	-664
ंभ	-665
▁ढ	-666
कारी	-667
तना	-668
▁निश्च	-669
्ड	-670
▁अल	-671
▁स्थान	-672
।"	-673
▁ऐसी	-674
▁लोक	-675
▁वास्त	-676
कृ	-677
▁ऑ	-678
लिए	-679
▁अधिनियम	-680
ti	-681
ठा	-682
षा	-683
▁आर	-684
▁समा	-685
▁मै	-686
षण	-687
▁आज	-688
निया	-689
▁माल	-690
▁स्प	-691
▁केवल	-692
▁हमारी	-693
युक्त	-694
▁मेरे	-695
▁प्रयोग	-696
्न	-697
तिक	-698
स्ट	-699
▁अथ	-700
ख्या	-701
▁आवश्य	-702
कता	-703
दों	-704
▁दृ	-705
▁उसी	-706
ून	-707
रों	-708
त्ता	-709
▁उत्त	-710
▁जाएगा	-711
me	-712
डी	-713
त्या	-714
लों	-715
वरण	-716
▁इसे	-717
▁करती	-718
▁ताकि	-719
▁सर्व	-720
वेश	-721
▁पि	-722
▁उपल	-723
बे	-724
ुट	-725
जू	-726
ोह	-727
चित	-728
▁हे	-729
क्षण	-730
न्तु	-731
▁अथवा	-732
▁पश्च	-733
▁इसमें	-734
▁अधिकार	-735
▁दर	-736
▁हूँ	-737
ज्ञान	-738
▁जाना	-739
बू	-740
हार	-741
▁कै	-742
▁उसका	-743
▁उपलब्	-744
▁योजना	-745
▁जिसमें	-746
▁डि	-747
▁पार	-748
in	-749
मे	-750
▁सो	-751
ियां	-752
▁विष	-753
▁क्योंकि	-754
▁तब	-755
ियाँ	-756
▁इसलिए	-757
▁सहायता	-758
▁n	-759
ुरु	-760
▁जिसे	-761
▁आस	-762
▁मेरी	-763
▁सबसे	-764
ेम	-765
यास	-766
▁प्रत्य	-767
▁मद	-768
निक	-769
▁डा	-770
मान्य	-771
▁चीज़	-772
▁जाते	-773
▁सकती	-774
▁उपलब्ध	-775
ताब	-776
▁बस	-777
▁पता	-778
▁उनका	-779
▁हमें	-780
▁जिन्ह	-781
▁संदेश	-782
इन	-783
गम	-784
णी	-785
र्ष	-786
श्व	-787
tion	-788
▁माम	-789
▁अर्थ	-790
▁देता	-791
▁बच्च	-792
▁उद्	-793
▁बल्	-794
▁वही	-795
▁उनसे	-796
▁उससे	-797
▁व्यव	-798
▁राष्ट्रीय	-799
ra	-800
ूह	-801
▁अम	-802
▁वाली	-803
▁महत्व	-804
यर	-805
▁5	-806
द्योगिक	-807
ल्ड	-808
ालय	-809
▁लो	-810
त्रा	-811
▁बैं	-812
▁महा	-813
क्रिया	-814
ुरू	-815
द्या	-816
▁सुर	-817
▁होना	-818
सं	-819
ात	-820
भाग	-821
र्क	-822
▁201	-823
▁स्ट	-824
▁बड़ी	-825
ेट	-826
ेह	-827
▁जर	-828
दर्श	-829
▁शाम	-830
तंत्र	-831
ैर	-832
▁4	-833
▁कंप	-834
▁बैठ	-835
▁विषय	-836
▁उत्पा	-837
▁स्थाप	-838
ट्ट	-839
न्ध	-840
र्य	-841
स्व	-842
▁दा	-843
▁पुन	-844
▁हाथ	-845
▁स्वी	-846
...	-847
▁अग	-848
▁200	-849
▁उच्च	-850
▁कर्म	-851
▁धारा	-852
▁सूची	-853
▁सामने	-854
▁शिक्षा	-855
रिक	-856
▁जु	-857
▁दौर	-858
नेवाल	-859
▁छोड़	-860
▁पहुँ	-861
▁मार्	-862
▁यहाँ	-863
▁दूसरे	-864
वाह	-865
▁तै	-866
वरदि	-867
▁डाल	-868
▁संप	-869
▁सदस	-870
▁इसका	-871
▁कहते	-872
▁प्रण	-873
▁स्वा	-874
▁परिवर्	-875
कट	-876
भव	-877
ोट	-878
मिक	-879
▁मू	-880
पत्र	-881
▁होंगे	-882
▁परवरदि	-883
तम	-884
ुक	-885
टना	-886
यार	-887
ष्टि	-888
▁बल्कि	-889
फी	-890
ंति	-891
▁आई	-892
▁भर	-893
▁अति	-894
▁कें	-895
भिन्न	-896
▁मंत्र	-897
▁परवरदिगार	-898
▁जल	-899
▁लगे	-900
▁लिख	-901
▁व्याप	-902
▁सूचना	-903
er	-904
ंश	-905
201	-906
क्ट	-907
▁वृ	-908
▁आदि	-909
▁याद	-910
▁योग	-911
स्थान	-912
▁शामिल	-913
▁सामान्य	-914
ंज	-915
▁शी	-916
कृति	-917
▁आया	-918
▁लिये	-919
िट	-920
▁किस	-921
▁गुण	-922
▁विर	-923
▁इससे	-924
▁करके	-925
▁पूरी	-926
▁बाहर	-927
▁उनमें	-928
▁करेगा	-929
▁मुख्य	-930
▁प्रभाव	-931
श्	-932
संद	-933
▁पं	-934
▁बो	-935
द्धि	-936
▁कभी	-937
▁बदल	-938
▁मदद	-939
▁सके	-940
▁सभा	-941
▁अच्छा	-942
▁शक्ति	-943
▁स्पष्ट	-944
मुख	-945
▁विभिन्न	-946
ंट	-947
भू	-948
यं	-949
▁t	-950
जार	-951
्रो	-952
▁कल	-953
ित्त	-954
▁कान	-955
▁बता	-956
▁लाभ	-957
▁बड़ा	-958
▁हेतु	-959
▁किताब	-960
▁फ़ाइल	-961
हत	-962
ष्य	-963
▁कई	-964
स्तु	-965
▁रंग	-966
▁हूं	-967
▁अंतर	-968
▁पूरा	-969
▁प्रौ	-970
▁प्रकाश	-971
▁स्थिति	-972
हन	-973
ियो	-974
▁इसी	-975
▁तैयार	-976
▁निर्माण	-977
एस	-978
शत	-979
सम	-980
मीन	-981
ासन	-982
▁आम	-983
▁ग़	-984
▁करा	-985
▁शब्	-986
▁अनुस	-987
▁अवसर	-988
▁होगी	-989
▁उसमें	-990
▁चाहते	-991
▁निर्धार	-992
जे	-993
▁‘	-994
ame	-995
▁अभ	-996
▁चि	-997
िष्ट	-998
▁उठा	-999
▁यही	-1000
▁हाल	-1001
▁भाषा	-1002
▁चाहता	-1003
▁जिसके	-1004
▁दौरान	-1005
▁मार्ग	-1006
आई	-1007
लि	-1008
▁रो	-1009
्यान	-1010
▁चुन	-1011
▁ज्ञ	-1012
▁रुप	-1013
▁जहां	-1014
es	-1015
ीक	-1016
▁१	-1017
वान	-1018
हरा	-1019
ालन	-1020
त्मक	-1021
▁अंग	-1022
▁अर्	-1023
▁पड़	-1024
▁भवन	-1025
▁उनको	-1026
▁शुरू	-1027
ूट	-1028
ज्य	-1029
बार	-1030
ोजन	-1031
ग्रह	-1032
▁बढ़ा	-1033
▁निश्चय	-1034
सि	-1035
तान	-1036
म्बर	-1037
▁ज़र	-1038
▁दिल	-1039
▁भेज	-1040
्यादा	-1041
▁देखा	-1042
▁तुम्हारा	-1043
▁प्रक्रिया	-1044
⁄4	-1045
▁ऋ	-1046
ंतु	-1047
ल्क	-1048
ामी	-1049
▁(1	-1050
▁कौ	-1051
▁पृ	-1052
▁रे	-1053
ध्यम	-1054
▁अने	-1055
▁गयी	-1056
▁चार	-1057
▁अधीन	-1058
▁पुस्त	-1059
▁व्यक्त	-1060
la	-1061
कर्	-1062
जिक	-1063
िता	-1064
बन्ध	-1065
र्या	-1066
ित्व	-1067
ोर्ट	-1068
▁तरफ	-1069
▁जाएँ	-1070
▁बड़े	-1071
▁पहुंच	-1072
▁न्याया	-1073
▁प्रबंध	-1074
▁करनेवाल	-1075
▁प्रतिशत	-1076
▁प्रत्येक	-1077
लो	-1078
ण्ड	-1079
रती	-1080
▁आए	-1081
▁नई	-1082
▁गये	-1083
▁चला	-1084
क्षित	-1085
▁सीमा	-1086
▁क्षेत्रों	-1087
▁प्रौद्योगिक	-1088
दम	-1089
रूप	-1090
हास	-1091
▁भूम	-1092
▁संग	-1093
▁स्क	-1094
न्द्र	-1095
स्तुत	-1096
▁नियम	-1097
▁महत्वपूर्ण	-1098
इट	-1099
टन	-1100
▁d	-1101
काल	-1102
द्व	-1103
▁शा	-1104
▁मार	-1105
▁आपको	-1106
▁बनाया	-1107
ंह	-1108
षि	-1109
हम	-1110
▁पद	-1111
▁भे	-1112
▁मर	-1113
▁लौ	-1114
ोल्ड	-1115
▁आगे	-1116
▁गिर	-1117
▁ब्र	-1118
▁रखा	-1119
▁निकल	-1120
▁परिण	-1121
द्यालय	-1122
▁संस्थान	-1123
▁स्वीकार	-1124
▁कार्यक्रम	-1125
जूद	-1126
यों	-1127
▁कठ	-1128
▁ते	-1129
▁अभी	-1130
▁त्र	-1131
▁दूर	-1132
▁अनुम	-1133
▁आदेश	-1134
▁देना	-1135
▁उत्तर	-1136
▁संख्या	-1137
pr	-1138
छे	-1139
पन	-1140
ोन	-1141
दर्	-1142
▁घर	-1143
▁वी	-1144
▁गति	-1145
▁जमा	-1146
▁पढ़	-1147
▁जारी	-1148
▁बन्द	-1149
▁जिसने	-1150
ॉल	-1151
▁झु	-1152
▁अलग	-1153
▁संर	-1154
▁खुदा	-1155
▁जनता	-1156
▁समूह	-1157
▁अनुसार	-1158
▁परिणाम	-1159
▁प्रमुख	-1160
▁वास्तव	-1161
▁संस्था	-1162
▁संबंधित	-1163
इस	-1164
और	-1165
धन	-1166
▁a	-1167
गें	-1168
लेख	-1169
▁मी	-1170
▁दें	-1171
▁सफल	-1172
▁अनेक	-1173
▁नीचे	-1174
▁मैंने	-1175
▁वित्त	-1176
▁प्रमाण	-1177
¤3	-1178
शि	-1179
क्स	-1180
नीय	-1181
▁डे	-1182
▁शै	-1183
¤3⁄4	-1184
▁अतः	-1185
▁नया	-1186
स्थित	-1187
▁अन्त	-1188
▁कृषि	-1189
▁पानी	-1190
▁प्रो	-1191
▁पूर्ण	-1192
▁स्वयं	-1193
▁करेंगे	-1194
▁नियंत्र	-1195
▁विश्वास	-1196
▁सुरक्षा	-1197
ic	-1198
ैन	-1199
ैस	-1200
मेल	-1201
म्प	-1202
वास	-1203
▁पिछ	-1204
▁वाय	-1205
▁काफी	-1206
▁प्रार	-1207
▁वस्तु	-1208
विद्यालय	-1209
▁स्वतंत्र	-1210
दू	-1211
्ले	-1212
▁मत	-1213
▁धरती	-1214
▁मानव	-1215
▁बनाने	-1216
▁उद्देश	-1217
▁प्रस्तुत	-1218
▁प्रौद्योगिकी	-1219
al	-1220
अप	-1221
उन	-1222
टक	-1223
धी	-1224
दाय	-1225
▁जग	-1226
▁भू	-1227
▁लेख	-1228
▁संघ	-1229
माजिक	-1230
▁अध्य	-1231
▁संस्	-1232
▁ज्ञान	-1233
▁विवरण	-1234
▁ज्यादा	-1235
▁C	-1236
ल्ल	-1237
▁चौ	-1238
▁ती	-1239
▁यू	-1240
.201	-1241
दारी	-1242
▁ठीक	-1243
तियों	-1244
तिहास	-1245
▁अत्य	-1246
▁आपके	-1247
▁बैंक	-1248
▁केंद्र	-1249
▁दुनिया	-1250
▁माध्यम	-1251
it	-1252
ाई	-1253
▁8	-1254
मता	-1255
ियन	-1256
▁सौ	-1257
विधा	-1258
्यता	-1259
▁तीन	-1260
▁समान	-1261
▁सिवा	-1262
▁हिस्	-1263
▁सामाजिक	-1264
▁परिवर्तन	-1265
▁विश्वविद्यालय	-1266
पि	-1267
ज़र	-1268
जों	-1269
प्त	-1270
स्या	-1271
▁कर्	-1272
▁शरी	-1273
ोल्डर	-1274
▁जबकि	-1275
▁मध्य	-1276
▁जिसका	-1277
▁विस्त	-1278
▁आवश्यक	-1279
▁प्रयास	-1280
्श	-1281
▁-	-1282
ख्त	-1283
ष्ण	-1284
▁गो	-1285
▁मज	-1286
वादी	-1287
▁निश	-1288
▁सुन	-1289
▁जैसा	-1290
▁लेकर	-1291
▁निकाल	-1292
▁प्रती	-1293
▁प्रेम	-1294
▁क्रिया	-1295
▁जिन्हें	-1296
भग	-1297
ेद	-1298
ोष	-1299
▁“	-1300
र्फ	-1301
डियो	-1302
▁खोज	-1303
▁गर्	-1304
▁जाओ	-1305
▁तरी	-1306
▁दर्	-1307
▁पुर	-1308
▁रोक	-1309
र्थिक	-1310
▁जोड़	-1311
▁पक्ष	-1312
▁विंड	-1313
▁होकर	-1314
▁मामले	-1315
▁विद्य	-1316
▁उद्योग	-1317
▁समस्या	-1318
or	-1319
ंख	-1320
कु	-1321
चि	-1322
धे	-1323
बल	-1324
्म	-1325
ran	-1326
ज़ी	-1327
▁आग	-1328
▁ऋण	-1329
▁पे	-1330
ल्ली	-1331
ृत्य	-1332
▁बरा	-1333
▁गुना	-1334
▁निस्	-1335
▁नीति	-1336
▁पीछे	-1337
▁रहते	-1338
▁वर्ग	-1339
▁स्तर	-1340
▁जानते	-1341
▁हिन्द	-1342
ष्ट्रीय	-1343
▁किन्तु	-1344
▁तुम्हारी	-1345
▁न्यायालय	-1346
दर	-1347
भर	-1348
सल	-1349
ूब	-1350
ंधी	-1351
ठला	-1352
तनी	-1353
्ला	-1354
▁टे	-1355
▁ली	-1356
▁शि	-1357
▁लाए	-1358
दिष्ट	-1359
▁दक्ष	-1360
▁सारे	-1361
▁अच्छे	-1362
▁दूसरी	-1363
▁ध्यान	-1364
▁सुविधा	-1365
ed	-1366
उस	-1367
डा	-1368
▁7	-1369
क्म	-1370
र्च	-1371
ज़ाब	-1372
त्मा	-1373
निर्	-1374
पन्न	-1375
वासी	-1376
वेदन	-1377
▁खंड	-1378
▁सार	-1379
▁आकार	-1380
▁आकाश	-1381
▁देते	-1382
▁धर्म	-1383
▁परिय	-1384
▁संवि	-1385
▁समर्थ	-1386
▁प्रधान	-1387
▁विशिष्ट	-1388
▁<	-1389
ंजी	-1390
मार	-1391
हरी	-1392
ेशन	-1393
▁डर	-1394
▁ऊपर	-1395
▁काल	-1396
▁चयन	-1397
▁पाठ	-1398
▁रिप	-1399
▁संस	-1400
क्ष्य	-1401
मंत्र	-1402
▁पत्र	-1403
▁मेरा	-1404
▁इनकार	-1405
▁ज़मीन	-1406
▁पर्या	-1407
▁अधिकारी	-1408
▁जानकारी	-1409
▁फ़ोल्डर	-1410
.0	-1411
ot	-1412
▁&	-1413
▁6	-1414
तें	-1415
यान	-1416
ेशा	-1417
▁एस	-1418
▁चे	-1419
▁शे	-1420
ग्री	-1421
तमान	-1422
र्गत	-1423
ानों	-1424
▁आने	-1425
▁खोल	-1426
▁नही	-1427
▁पूछ	-1428
▁बंग	-1429
▁बेह	-1430
▁मगर	-1431
▁अवधि	-1432
▁निम्	-1433
▁महान	-1434
▁यहां	-1435
▁लगभग	-1436
▁लेने	-1437
▁वहां	-1438
▁बराबर	-1439
▁आवश्यकता	-1440
op	-1441
¥	-1442
गू	-1443
ोस	-1444
भार	-1445
वों	-1446
स्क	-1447
्रम	-1448
▁गण	-1449
▁फर	-1450
▁बेश	-1451
कृतिक	-1452
▁चाहे	-1453
▁जिससे	-1454
▁झुठला	-1455
▁पृष्ठ	-1456
▁हुक्म	-1457
▁क्षमता	-1458
▁परियोजना	-1459
ab	-1460
कल	-1461
लग	-1462
शील	-1463
▁नए	-1464
▁कला	-1465
▁रोग	-1466
▁लड़	-1467
▁विन	-1468
▁सही	-1469
▁रखते	-1470
▁संगठ	-1471
▁गांधी	-1472
▁निम्न	-1473
▁सहयोग	-1474
▁अतिरिक	-1475
▁प्रदेश	-1476
▁वर्तमान	-1477
ht	-1478
ंब	-1479
जर	-1480
▁:	-1481
ंदर	-1482
विध	-1483
शोध	-1484
स्प	-1485
▁आध	-1486
▁बच	-1487
ट्टी	-1488
ोर्ड	-1489
▁अपे	-1490
▁कौन	-1491
▁जवा	-1492
▁सां	-1493
▁साल	-1494
हित्य	-1495
▁इसकी	-1496
▁चुके	-1497
▁जरूर	-1498
▁बिना	-1499
▁हाला	-1500
▁तुमसे	-1501
▁युद्ध	-1502
▁वालों	-1503
▁आर्थिक	-1504
▁उद्देश्य	-1505
▁निर्धारित	-1506
जो	-1507
▁”	-1508
पुर	-1509
मित	-1510
र्स	-1511
▁फै	-1512
▁बर	-1513
क्ता	-1514
▁जगह	-1515
▁मंद	-1516
▁मनु	-1517
▁पड़े	-1518
▁शब्द	-1519
▁परन्तु	-1520
▁वास्ते	-1521
▁प्रणाली	-1522
-1	-1523
चन	-1524
डे	-1525
लू	-1526
▁0	-1527
तार	-1528
न्म	-1529
पित	-1530
ूरी	-1531
्रै	-1532
▁कॉ	-1533
▁थो	-1534
▁रू	-1535
क्षर	-1536
च्छा	-1537
िश्त	-1538
▁कुल	-1539
▁कोश	-1540
▁वेब	-1541
संदेह	-1542
▁अमेर	-1543
▁एक्स	-1544
▁जाये	-1545
▁रखने	-1546
▁वर्ण	-1547
▁सिंह	-1548
▁दक्षि	-1549
▁मित्र	-1550
▁शीर्ष	-1551
▁समाप्त	-1552
▁व्यापार	-1553
▁अतिरिक्त	-1554
▁स्वतंत्रता	-1555
en	-1556
यो	-1557
लत	-1558
म्म	-1559
▁18	-1560
▁अर	-1561
▁घा	-1562
▁धन	-1563
बद्ध	-1564
ुद्ध	-1565
ृत्त	-1566
्रिय	-1567
▁शिक	-1568
पूर्व	-1569
▁बुरा	-1570
▁बेशक	-1571
▁लागू	-1572
▁महिला	-1573
▁सिर्फ	-1574
▁निर्देश	-1575
एम	-1576
गु	-1577
पाल	-1578
▁चा	-1579
ुरुष	-1580
ोजित	-1581
▁इन्	-1582
▁भाव	-1583
▁समु	-1584
भावना	-1585
स्तान	-1586
▁आत्म	-1587
▁उसको	-1588
▁कहने	-1589
▁श्रे	-1590
▁अच्छी	-1591
▁चित्र	-1592
▁देशों	-1593
▁निर्ण	-1594
▁निवेश	-1595
▁विदेश	-1596
▁प्राधिक	-1597
▁साहित्य	-1598
¤	-1599
चल	-1600
तक	-1601
प्	-1602
मह	-1603
▁#	-1604
ंगा	-1605
ंगे	-1606
ुओं	-1607
▁गी	-1608
▁तू	-1609
धारण	-1610
र्ति	-1611
▁अला	-1612
▁तौर	-1613
▁अग्र	-1614
▁चुका	-1615
▁रहने	-1616
▁समाज	-1617
▁कंपनी	-1618
▁जानता	-1619
▁बंगाल	-1620
▁बच्चे	-1621
▁बाजार	-1622
▁सदस्य	-1623
▁दिल्ली	-1624
▁प्रबंधन	-1625
▁रिपोर्ट	-1626
▁नियंत्रण	-1627
ील	-1628
▁S	-1629
▁२	-1630
ंबर	-1631
तुम	-1632
▁चिक	-1633
▁दिए	-1634
▁लाख	-1635
▁कहीं	-1636
▁देगा	-1637
▁मिले	-1638
मंत्री	-1639
▁अज़ाब	-1640
▁यातना	-1641
▁अनुसंध	-1642
▁परिवार	-1643
▁स्थापित	-1644
▁मंत्रालय	-1645
▁निस्संदेह	-1646
मन	-1647
▁I	-1648
▁P	-1649
ंतर	-1650
जरा	-1651
यें	-1652
▁लॉ	-1653
कारा	-1654
ान्त	-1655
िस्ट	-1656
ीकरण	-1657
▁कवि	-1658
▁जीव	-1659
▁पेश	-1660
▁माँ	-1661
▁वाप	-1662
▁शहर	-1663
स्थ्य	-1664
▁भेजा	-1665
▁तुमने	-1666
▁हमेशा	-1667
▁पुस्तक	-1668
▁विकल्प	-1669
▁अंतर्गत	-1670
▁प्रारंभ	-1671
▁व्यवस्था	-1672
),	-1673
¤°	-1674
आर	-1675
ुग	-1676
▁।	-1677
पाद	-1678
हरण	-1679
▁10	-1680
▁आद	-1681
▁छा	-1682
▁बल	-1683
▁लं	-1684
र्जी	-1685
▁ज़ि	-1686
▁परी	-1687
▁श्र	-1688
▁साफ	-1689
न्यास	-1690
▁घटना	-1691
▁पहली	-1692
▁वहाँ	-1693
▁सच्च	-1694
▁सत्य	-1695
▁त्रुट	-1696
▁न्याय	-1697
▁हमारा	-1698
▁हस्ता	-1699
▁आधारित	-1700
▁प्रस्ता	-1701
▁संयुक्त	-1702
▁सम्बन्ध	-1703
▁अनुसंधान	-1704
ँच	-1705
जि	-1706
ज्	-1707
मि	-1708
चान	-1709
बाद	-1710
▁भि	-1711
र्जा	-1712
ामीण	-1713
▁उदा	-1714
▁पत्	-1715
▁रात	-1716
▁संच	-1717
▁सर्	-1718
▁साह	-1719
▁जांच	-1720
▁वक्त	-1721
▁जाएगी	-1722
▁देखते	-1723
▁मूल्य	-1724
▁विभाग	-1725
▁दृष्टि	-1726
▁निर्णय	-1727
▁उत्पादन	-1728
▁निश्चित	-1729
▁प्रशिक्ष	-1730
दय	-1731
दु	-1732
सू	-1733
▁9	-1734
000	-1735
टों	-1736
यात	-1737
▁एन	-1738
▁खे	-1739
▁झू	-1740
▁फल	-1741
rans	-1742
ख़िर	-1743
द्धा	-1744
स्ती	-1745
▁कृप	-1746
▁पुल	-1747
▁यक़	-1748
▁राम	-1749
▁राह	-1750
वस्था	-1751
▁name	-1752
▁न्यू	-1753
▁फाइल	-1754
▁बदला	-1755
▁बनाए	-1756
▁मूसा	-1757
▁रखता	-1758
▁रचना	-1759
▁लेते	-1760
▁शरीर	-1761
ग़म्बर	-1762
▁निशान	-1763
▁परंतु	-1764
▁पिछले	-1765
▁बातों	-1766
▁दक्षिण	-1767
▁यात्रा	-1768
▁लक्ष्य	-1769
▁सक्रिय	-1770
▁ग्रामीण	-1771
▁स्थापना	-1772
44	-1773
ँह	-1774
घा	-1775
थम	-1776
फा	-1777
ौम	-1778
▁_	-1779
▁k	-1780
म्ब	-1781
र्इ	-1782
वाई	-1783
ारण	-1784
ैंड	-1785
▁जे	-1786
धारा	-1787
राने	-1788
▁क्ल	-1789
▁जल्	-1790
▁डाक	-1791
▁बहु	-1792
▁निष्	-1793
▁संके	-1794
▁सहित	-1795
▁स्रो	-1796
▁चिकित	-1797
▁पुरुष	-1798
▁संपर्क	-1799
▁स्वास्थ्य	-1800
झा	-1801
यक	-1802
▁M	-1803
फिर	-1804
मिल	-1805
ोषण	-1806
▁अफ	-1807
▁उठ	-1808
▁डॉ	-1809
▁मॉ	-1810
क्या	-1811
हन्न	-1812
▁आयु	-1813
▁खेल	-1814
▁वार	-1815
दर्शन	-1816
दारों	-1817
▁छोटे	-1818
▁तत्व	-1819
▁पाया	-1820
▁राशि	-1821
▁हिंद	-1822
ransla	-1823
tional	-1824
▁अनुभव	-1825
▁कृपया	-1826
▁मंदिर	-1827
▁सुधार	-1828
▁त्रुटि	-1829
▁बच्चों	-1830
▁मनुष्य	-1831
▁स्थानी	-1832
▁हिस्सा	-1833
▁उत्पन्न	-1834
▁प्रधानमंत्री	-1835
?"	-1836
नाथ	-1837
न्ट	-1838
ल्म	-1839
▁11	-1840
▁इं	-1841
▁नव	-1842
कल्प	-1843
▁निर	-1844
▁जन्म	-1845
▁जहाँ	-1846
▁माना	-1847
▁लगता	-1848
▁सुना	-1849
▁अलावा	-1850
▁पहुँच	-1851
▁बेहतर	-1852
▁मृत्य	-1853
▁मौजूद	-1854
▁स्थित	-1855
▁पश्चिम	-1856
▁प्रदर्श	-1857
▁वित्तीय	-1858
▁स्थानीय	-1859
▁जिन्होंने	-1860
an	-1861
el	-1862
om	-1863
एफ	-1864
यु	-1865
िब	-1866
००	-1867
लाल	-1868
ेंट	-1869
▁रि	-1870
....	-1871
▁अधि	-1872
▁अनि	-1873
▁तहत	-1874
▁तीस	-1875
▁बचा	-1876
▁बाल	-1877
▁सेट	-1878
▁हित	-1879
▁आरंभ	-1880
▁इस्त	-1881
▁दिशा	-1882
▁बैठक	-1883
▁मिला	-1884
▁संसा	-1885
▁समझा	-1886
▁आसमान	-1887
▁जरूरत	-1888
▁देखने	-1889
ज्ञानिक	-1890
▁अंग्रे	-1891
▁पहुँचा	-1892
▁वृद्धि	-1893
▁विज्ञान	-1894
▁प्रस्ताव	-1895
gm	-1896
is	-1897
¤¿	-1898
कम	-1899
गि	-1900
पु	-1901
रि	-1902
वस	-1903
▁%	-1904
ity	-1905
गति	-1906
पात	-1907
र्द	-1908
श्त	-1909
्टी	-1910
▁(2	-1911
▁25	-1912
▁आन	-1913
▁खो	-1914
▁डी	-1915
▁नौ	-1916
नांक	-1917
लाइन	-1918
ियान	-1919
▁kgm	-1920
▁उन्	-1921
▁उल्	-1922
▁खुल	-1923
▁बने	-1924
▁भाई	-1925
वृत्त	-1926
▁क़ौम	-1927
▁निकट	-1928
▁पुनः	-1929
▁समिति	-1930
▁इतिहास	-1931
▁उत्पाद	-1932
▁प्रवेश	-1933
▁मृत्यु	-1934
▁वर्षों	-1935
▁सम्मान	-1936
optional	-1937
▁transla	-1938
▁अपेक्षा	-1939
▁निर्दिष्ट	-1940
ly	-1941
ंथ	-1942
जय	-1943
▁c	-1944
दूस	-1945
वीं	-1946
▁20	-1947
▁टै	-1948
Name	-1949
शाली	-1950
▁इंड	-1951
▁गुम	-1952
▁गैर	-1953
▁यूर	-1954
▁लें	-1955
▁सन्	-1956
▁हटा	-1957
▁भूमि	-1958
▁मुँह	-1959
▁लागत	-1960
▁लिखा	-1961
▁विधि	-1962
▁आवेदन	-1963
▁करोड़	-1964
▁ज़रूर	-1965
▁रुपये	-1966
▁सर्वर	-1967
▁सहायक	-1968
▁अवस्था	-1969
▁दिनांक	-1970
▁सम्मेल	-1971
▁अमेरिका	-1972
▁संविधान	-1973
▁प्रमाणपत्र	-1974
गल	-1975
वत	-1976
ीप	-1977
44;	-1978
तने	-1979
राम	-1980
सान	-1981
ियर	-1982
▁''	-1983
▁छि	-1984
▁तौ	-1985
▁भय	-1986
ार्ड	-1987
▁बोल	-1988
▁लौट	-1989
▁सोच	-1990
कर्ता	-1991
निश्च	-1992
▁#44;	-1993
▁अंति	-1994
▁कम्प	-1995
▁जवाब	-1996
▁जिला	-1997
▁निजी	-1998
▁प्रय	-1999
▁राजा	-2000
▁शासन	-2001
▁कानून	-2002
▁गुनाह	-2003
▁चुनें	-2004
▁दिखाई	-2005
▁बोर्ड	-2006
▁संशोध	-2007
▁प्रगति	-2008
▁प्रश्न	-2009
▁भूमिका	-2010
▁मात्रा	-2011
▁मुखर्जी	-2012
▁विस्तार	-2013
▁वैज्ञानिक	-2014
¤	-2015
टल	-2016
फ्	-2017
रो	-2018
ोड	-2019
▁@	-2020
ंसा	-2021
द्द	-2022
राह	-2023
▁अह	-2024
▁कप	-2025
▁टी	-2026
इयों	-2027
क्षम	-2028
त्सा	-2029
भूति	-2030
शिया	-2031
ुनिक	-2032
▁199	-2033
▁आशा	-2034
▁छवि	-2035
▁थीं	-2036
▁देव	-2037
▁नेट	-2038
▁बंद	-2039
▁बिल	-2040
▁मना	-2041
▁रहो	-2042
▁शाय	-2043
▁इतना	-2044
▁दुर्	-2045
▁प्रस	-2046
▁भीतर	-2047
▁मांग	-2048
▁वापस	-2049
▁संगी	-2050
▁संसद	-2051
▁अंतिम	-2052
▁अधिका	-2053
▁उपकरण	-2054
▁दिनों	-2055
▁पहचान	-2056
▁पुलिस	-2057
▁मालूम	-2058
▁विंडो	-2059
▁इस्तेम	-2060
▁उदाहरण	-2061
▁सरकारी	-2062
▁निर्यात	-2063
▁प्रतिनि	-2064
▁संभावना	-2065
▁सदस्यों	-2066
▁सामग्री	-2067
▁प्रशिक्षण	-2068
इल	-2069
गो	-2070
घु	-2071
मक	-2072
शल	-2073
काम	-2074
ख्स	-2075
लाई	-2076
ल्स	-2077
श्र	-2078
सित	-2079
्सा	-2080
▁pr	-2081
▁गठ	-2082
▁ति	-2083
▁तु	-2084
गरिक	-2085
साइट	-2086
ूँगा	-2087
्राम	-2088
्रेस	-2089
▁खरी	-2090
▁सका	-2091
ख़ुदा	-2092
▁कैसे	-2093
▁दर्श	-2094
▁रखना	-2095
स्थिति	-2096
▁अत्या	-2097
▁ऊर्जा	-2098
▁राजनी	-2099
▁शुल्क	-2100
▁दिखाएँ	-2101
▁केन्द्र	-2102
▁राज्यों	-2103
▁व्यवहार	-2104
▁सम्मेलन	-2105
▁इस्तेमाल	-2106
▁हस्ताक्षर	-2107
▁व्यक्तियों	-2108
):	-2109
ob	-2110
एन	-2111
खी	-2112
धर	-2113
कला	-2114
कान	-2115
खित	-2116
तंक	-2117
फ्त	-2118
भूत	-2119
यां	-2120
रीब	-2121
वरी	-2122
ौती	-2123
▁12	-2124
▁पक	-2125
▁पथ	-2126
क़्त	-2127
चारी	-2128
ड़ाई	-2129
ताब्	-2130
वाले	-2131
▁(1)	-2132
▁195	-2133
▁आवा	-2134
▁कमी	-2135
▁चले	-2136
▁दया	-2137
▁दाय	-2138
▁फ़र	-2139
▁भवि	-2140
▁भुग	-2141
▁रखे	-2142
▁विप	-2143
दूसरे	-2144
्यूटर	-2145
▁असफल	-2146
▁चुना	-2147
▁जाति	-2148
▁प्रभ	-2149
▁लेखा	-2150
▁शख्स	-2151
▁शायद	-2152
▁समझौ	-2153
पूर्वक	-2154
▁अध्या	-2155
▁इनमें	-2156
▁जहन्न	-2157
▁तंत्र	-2158
▁यक़ीन	-2159
▁विरोध	-2160
▁शताब्	-2161
▁सार्व	-2162
▁स्कूल	-2163
▁नागरिक	-2164
▁भविष्य	-2165
▁भुगतान	-2166
▁समर्थन	-2167
▁समाधान	-2168
▁विचारों	-2169
//	-2170
at	-2171
¥	-2172
एक	-2173
ृह	-2174
्ब	-2175
▁A	-2176
गाह	-2177
जित	-2178
बूत	-2179
भाष	-2180
सिक	-2181
ापन	-2182
िकी	-2183
ेंस	-2184
▁कट	-2185
▁दल	-2186
▁पस	-2187
▁पो	-2188
▁पौ	-2189
▁बौ	-2190
▁री	-2191
क्का	-2192
क्षक	-2193
भावी	-2194
वेयर	-2195
श्वर	-2196
ालिम	-2197
▁पहा	-2198
न्त्र	-2199
▁आपने	-2200
▁खाते	-2201
▁गुणव	-2202
▁तकनी	-2203
▁पसंद	-2204
▁प्रे	-2205
▁समार	-2206
▁अवश्य	-2207
▁आयतों	-2208
▁केन्द	-2209
▁चयनित	-2210
▁प्रकट	-2211
▁प्रणब	-2212
▁प्रथम	-2213
▁भावना	-2214
▁भिन्न	-2215
▁संगठन	-2216
▁संगीत	-2217
▁अनुमति	-2218
▁आधुनिक	-2219
▁आयोजित	-2220
▁जाएँगे	-2221
▁संग्रह	-2222
▁निशानियाँ	-2223
ar	-2224
चर	-2225
मू	-2226
यल	-2227
सत	-2228
ैक	-2229
▁R	-2230
▁̧	-2231
eed	-2232
न्व	-2233
बान	-2234
म्भ	-2235
याँ	-2236
र्त	-2237
ृति	-2238
ोगे	-2239
▁'%	-2240
▁do	-2241
▁आँ	-2242
▁ऊँ	-2243
▁बज	-2244
त्ति	-2245
वर्क	-2246
वाही	-2247
▁not	-2248
▁कमा	-2249
▁दिख	-2250
▁पाक	-2251
▁रेल	-2252
▁लाल	-2253
▁शुभ	-2254
क्रमण	-2255
ल्पना	-2256
▁आतंक	-2257
▁आदमी	-2258
▁खिला	-2259
▁पूरे	-2260
▁जिनके	-2261
▁जिसकी	-2262
▁यूरोप	-2263
▁पदार्थ	-2264
▁संबंधी	-2265
▁समारोह	-2266
▁वेबसाइट	-2267
▁गुणवत्ता	-2268
▁चिकित्सा	-2269
▁प्रभावित	-2270
▁केन्द्रीय	-2271
▁प्राकृतिक	-2272
उट	-2273
ठी	-2274
ाब	-2275
ुप	-2276
▁+	-2277
▁D	-2278
▁T	-2279
▁̈	-2280
://	-2281
ंगी	-2282
ंचा	-2283
तित	-2284
न्स	-2285
स्म	-2286
िको	-2287
िना	-2288
्टर	-2289
▁दू	-2290
▁धी	-2291
▁वो	-2292
obab	-2293
ज़िल	-2294
म्मे	-2295
ुदाय	-2296
ैसला	-2297
▁अना	-2298
▁गलत	-2299
▁फिल	-2300
▁फेर	-2301
▁संत	-2302
न्हें	-2303
राज्य	-2304
सलमान	-2305
▁need	-2306
▁उचित	-2307
▁कांग	-2308
▁किये	-2309
▁गुरु	-2310
▁चलता	-2311
▁चुकी	-2312
▁युवा	-2313
▁रहता	-2314
▁वायु	-2315
▁तुमको	-2316
▁बातें	-2317
▁मिलता	-2318
▁मुक्त	-2319
▁विद्व	-2320
▁स्रोत	-2321
▁अध्ययन	-2322
▁उपधारा	-2323
▁ज़ालिम	-2324
▁योगदान	-2325
▁श्रेणी	-2326
▁सुनिश्च	-2327
▁निर्धारण	-2328
▁पर्यावरण	-2329
▁प्रोत्सा	-2330
▁वास्तविक	-2331
्राष्ट्रीय	-2332
▁translation	-2333
aà	-2334
फे	-2335
बह	-2336
मय	-2337
कुल	-2338
ड्ड	-2339
साय	-2340
▁26	-2341
▁झग	-2342
▁सत	-2343
City	-2344
अपने	-2345
क्शन	-2346
ज़ार	-2347
ज्ञा	-2348
द्रा	-2349
वाला	-2350
ियार	-2351
▁कहो	-2352
▁ख़ु	-2353
▁गां	-2354
▁तेल	-2355
▁नदी	-2356
▁बनी	-2357
▁मास	-2358
▁रखो	-2359
▁शेष	-2360
▁सात	-2361
▁सीख	-2362
▁हक़	-2363
▁हाँ	-2364
कारों	-2365
प्रिय	-2366
▁does	-2367
▁नंबर	-2368
▁बयान	-2369
▁बुला	-2370
▁मिली	-2371
▁रक्त	-2372
▁सेना	-2373
obably	-2374
▁कोर्इ	-2375
▁क्षमा	-2376
▁डिस्क	-2377
▁मिलने	-2378
▁संकेत	-2379
▁उल्लेख	-2380
▁मंत्री	-2381
▁यक़ीनन	-2382
▁विकसित	-2383
▁विनिर्	-2384
▁अधिकांश	-2385
▁नेटवर्क	-2386
▁संरक्षण	-2387
▁probably	-2388
▁करनेवाला	-2389
▁पैग़म्बर	-2390
▁प्रकाशित	-2391
▁सुनिश्चित	-2392
il	-2393
इड	-2394
कद	-2395
दृ	-2396
सन	-2397
ेप	-2398
ंकन	-2399
किल	-2400
ताल	-2401
राज	-2402
र्ट	-2403
स्ल	-2404
ानि	-2405
▁15	-2406
▁ऑफ	-2407
▁बढ	-2408
▁भौ	-2409
▁सच	-2410
जनिक	-2411
यामत	-2412
र्चा	-2413
वर्ष	-2414
्रीन	-2415
▁आपस	-2416
▁कने	-2417
▁जाय	-2418
▁रिक	-2419
त्त्व	-2420
श्विक	-2421
▁अगले	-2422
▁अनुर	-2423
▁उनपर	-2424
▁काफ़	-2425
▁खाता	-2426
▁जैसी	-2427
▁तारी	-2428
▁देती	-2429
▁बदले	-2430
▁विजय	-2431
▁सख्त	-2432
नेवाले	-2433
ोग्राम	-2434
▁किंतु	-2435
▁दस्ता	-2436
▁दूसरा	-2437
▁दृष्ट	-2438
▁मजबूत	-2439
▁संपाद	-2440
▁सफलता	-2441
▁सर्वो	-2442
▁अधिकतर	-2443
▁चाहिये	-2444
▁पश्चात	-2445
▁विदेशी	-2446
▁व्यापक	-2447
व्यवस्था	-2448
▁अध्यक्ष	-2449
▁प्रभावी	-2450
▁शताब्दी	-2451
राष्ट्रीय	-2452
▁सार्वजनिक	-2453
di	-2454
st	-2455
tp	-2456
शु	-2457
ज़े	-2458
ड़क	-2459
तरा	-2460
लिक	-2461
▁ht	-2462
▁उल	-2463
▁चर	-2464
▁दश	-2465
▁बख	-2466
ंपरा	-2467
जूदा	-2468
थमिक	-2469
दर्भ	-2470
वजूद	-2471
स्वी	-2472
ार्म	-2473
▁खुद	-2474
▁चैन	-2475
▁जित	-2476
▁दुख	-2477
▁प्ल	-2478
▁मही	-2479
▁माह	-2480
▁सिक	-2481
▁सिर	-2482
कालीन	-2483
त्रों	-2484
द्रीय	-2485
ार्थी	-2486
▁http	-2487
▁अनुप	-2488
▁अपील	-2489
▁ख़बर	-2490
▁जाँच	-2491
▁ट्रै	-2492
▁डाला	-2493
▁बाग़	-2494
▁मुद्	-2495
योक्ता	-2496
स्वरूप	-2497
▁ग्राह	-2498
▁तुमपर	-2499
▁पुरस्	-2500
▁संसार	-2501
▁मौजूदा	-2502
▁वीडियो	-2503
▁शब्दों	-2504
▁संदर्भ	-2505
▁निर्मित	-2506
▁विरुद्ध	-2507
▁कांग्रेस	-2508
▁प्राथमिक	-2509
et	-2510
थि	-2511
नु	-2512
बत	-2513
शय	-2514
सु	-2515
हि	-2516
ँकि	-2517
ंकि	-2518
ंडल	-2519
घ्र	-2520
पास	-2521
फ्ट	-2522
भाल	-2523
र्ग	-2524
र्ड	-2525
स्य	-2526
ोलन	-2527
्वी	-2528
▁वज	-2529
▁वर	-2530
राही	-2531
ल्ला	-2532
स्पर	-2533
ायों	-2534
ुत्व	-2535
▁अता	-2536
▁ईसा	-2537
▁कदम	-2538
▁खास	-2539
▁चीज	-2540
▁तत्	-2541
▁दशा	-2542
▁युग	-2543
▁विध	-2544
▁सित	-2545
▁हैः	-2546
लिखित	-2547
वर्ती	-2548
▁इतनी	-2549
▁उद्य	-2550
▁क़ुर	-2551
▁ठहरा	-2552
▁पद्ध	-2553
▁बाज़	-2554
▁भागी	-2555
▁लाने	-2556
▁विभा	-2557
▁संभव	-2558
नेवाला	-2559
▁आख़िर	-2560
▁ईश्वर	-2561
▁कोशिश	-2562
▁खाद्य	-2563
▁चर्चा	-2564
▁मालिक	-2565
▁शुक्र	-2566
▁अनुप्र	-2567
▁छोड़कर	-2568
▁तुममें	-2569
▁परंपरा	-2570
▁बन्दों	-2571
▁बावजूद	-2572
▁बैंकों	-2573
▁मुद्रा	-2574
▁हिन्दी	-2575
▁प्रकृति	-2576
nt	-2577
vi	-2578
णा	-2579
णि	-2580
तो	-2581
नर	-2582
पे	-2583
बु	-2584
रल	-2585
्प	-2586
जीव	-2587
देव	-2588
म्र	-2589
हरे	-2590
ेषण	-2591
▁1.	-2592
▁एम	-2593
▁ढा	-2594
▁हृ	-2595
ड़ों	-2596
न्दा	-2597
फ़ार	-2598
लग्न	-2599
ासिल	-2600
▁आते	-2601
▁कलक	-2602
▁झूठ	-2603
▁ध्व	-2604
▁पीठ	-2605
▁पेट	-2606
▁बाप	-2607
▁भली	-2608
▁मेल	-2609
▁रकम	-2610
▁रखी	-2611
▁लघु	-2612
▁वजह	-2613
▁सरक	-2614
द्यपि	-2615
वालों	-2616
▁क्रम	-2617
▁दिवस	-2618
▁पर्व	-2619
▁मिटा	-2620
▁आत्मा	-2621
▁तरीके	-2622
▁वार्ष	-2623
▁विवाह	-2624
▁शिकाय	-2625
चारियों	-2626
▁आकाशों	-2627
▁संकल्प	-2628
▁समुद्र	-2629
ार्थियों	-2630
▁मुसलमान	-2631
▁वैश्विक	-2632
▁औद्योगिक	-2633
▁प्रयुक्त	-2634
▁व्यक्तिगत	-2635
.1	-2636
ग्	-2637
थर	-2638
षद	-2639
▁B	-2640
▁E	-2641
▁p	-2642
▁̄	-2643
nic	-2644
ंगल	-2645
ढ़ी	-2646
बूल	-2647
बोध	-2648
लाम	-2649
ुता	-2650
्रॉ	-2651
▁17	-2652
▁कथ	-2653
▁गं	-2654
▁मश	-2655
▁वन	-2656
▁सृ	-2657
कर्ष	-2658
न्ना	-2659
मारी	-2660
मीटर	-2661
्याण	-2662
▁196	-2663
▁असम	-2664
▁आती	-2665
▁गैस	-2666
▁चाल	-2667
▁ढंग	-2668
▁नये	-2669
▁नसी	-2670
▁भंड	-2671
▁मोह	-2672
▁राय	-2673
▁लम्	-2674
▁संय	-2675
▁समृ	-2676
▁स्म	-2677
च्छेद	-2678
धिकार	-2679
वार्य	-2680
्यालय	-2681
▁अपरा	-2682
▁आयोग	-2683
▁इजरा	-2684
▁कहना	-2685
▁खर्च	-2686
▁घरों	-2687
▁छोटा	-2688
▁छोटी	-2689
▁डेटा	-2690
▁पाने	-2691
▁पिता	-2692
▁मेहर	-2693
▁विधे	-2694
▁वेतन	-2695
▁सकें	-2696
▁इच्छा	-2697
▁उपबंध	-2698
▁कुंजी	-2699
▁देंगे	-2700
▁देखें	-2701
▁निदेश	-2702
▁मानते	-2703
▁मिलकर	-2704
▁रक्षा	-2705
▁वर्णन	-2706
▁विमान	-2707
▁शांति	-2708
▁संक्ष	-2709
▁सक्षम	-2710
▁स्त्र	-2711
क्षेत्र	-2712
तिहासिक	-2713
▁अभिलेख	-2714
▁इन्हें	-2715
▁बुद्धि	-2716
▁सेवाओं	-2717
▁अत्यन्त	-2718
▁कलकत्ता	-2719
▁झुठलाया	-2720
▁दस्तावे	-2721
▁परीक्षा	-2722
▁हालाँकि	-2723
▁अनिवार्य	-2724
▁केंद्रीय	-2725
▁पर्याप्त	-2726
▁सुरक्षित	-2727
▁करनेवालों	-2728
▁अंतर्राष्ट्रीय	-2729
20	-2730
ऊण	-2731
झी	-2732
पक	-2733
लब	-2734
▁{	-2735
her	-2736
htm	-2737
गढ़	-2738
धाई	-2739
मिन	-2740
रान	-2741
रीय	-2742
र्न	-2743
वहन	-2744
हीन	-2745
िमी	-2746
ोरी	-2747
्ष्	-2748
▁इब	-2749
▁गि	-2750
▁टन	-2751
▁भग	-2752
,000	-2753
ंद्र	-2754
ऊण्श	-2755
किंग	-2756
गिज़	-2757
वधान	-2758
ाहिर	-2759
िकोण	-2760
▁आंद	-2761
▁इका	-2762
▁किन	-2763
▁छुट	-2764
▁तुल	-2765
▁दोष	-2766
▁नगर	-2767
▁पहल	-2768
▁पाल	-2769
▁पैर	-2770
▁रोज	-2771
▁सरल	-2772
्छ्ष्	-2773
▁अनुक	-2774
▁उसपर	-2775
▁कठिन	-2776
▁नियत	-2777
▁पंजी	-2778
▁फरमा	-2779
▁भोजन	-2780
▁रहें	-2781
▁रेखा	-2782
▁सलाह	-2783
▁सारा	-2784
▁हमसे	-2785
▁अफ्री	-2786
▁कराने	-2787
▁नसीहत	-2788
▁पूंजी	-2789
▁बनाएँ	-2790
▁मार्च	-2791
▁वायदा	-2792
▁विधान	-2793
▁शीघ्र	-2794
▁सत्ता	-2795
▁हासिल	-2796
▁अभिव्य	-2797
▁जाएंगे	-2798
▁नाज़िल	-2799
▁पहुंचा	-2800
▁प्रतिक	-2801
▁प्रतीक	-2802
▁मिट्टी	-2803
▁यद्यपि	-2804
▁समाचार	-2805
▁आतंकवाद	-2806
▁उपन्यास	-2807
▁उपयुक्त	-2808
▁नियुक्त	-2809
▁महात्मा	-2810
▁विस्तृत	-2811
ऊण्श्छ्ष्	-2812
▁पुरस्कार	-2813
▁लोकप्रिय	-2814
▁अनुप्रयोग	-2815
)।	-2816
le	-2817
¤2	-2818
कत	-2819
दो	-2820
बि	-2821
सव	-2822
ूद	-2823
ॉप	-2824
ंदा	-2825
खंड	-2826
खिल	-2827
जिए	-2828
तया	-2829
पुट	-2830
रार	-2831
सभा	-2832
्वर	-2833
▁13	-2834
▁14	-2835
▁16	-2836
▁30	-2837
▁ऑन	-2838
▁नर	-2839
▁शक	-2840
▁हद	-2841
▁१९	-2842
डिया	-2843
ध्या	-2844
न्दर	-2845
न्या	-2846
भाषा	-2847
रिया	-2848
ैतिक	-2849
▁अक्	-2850
▁आता	-2851
▁ऊंच	-2852
▁खूब	-2853
▁बर्	-2854
▁भूल	-2855
▁मंच	-2856
ल्लाह	-2857
▁कठोर	-2858
▁कानू	-2859
▁खेती	-2860
▁चुने	-2861
▁छिपा	-2862
▁पर्य	-2863
▁पांच	-2864
▁प्ले	-2865
▁बधाई	-2866
▁ब्रा	-2867
▁सबको	-2868
▁हालत	-2869
▁उपचार	-2870
▁काव्य	-2871
▁खुलती	-2872
▁गिरोह	-2873
▁पुकार	-2874
▁बढ़कर	-2875
▁बताया	-2876
▁बौद्ध	-2877
▁मैदान	-2878
▁विशाल	-2879
विधियों	-2880
▁उन्हीं	-2881
▁कल्याण	-2882
▁ज़ाहिर	-2883
▁जोड़ें	-2884
▁निर्भर	-2885
▁रहेंगे	-2886
▁संशोधन	-2887
▁समुदाय	-2888
▁जहन्नुम	-2889
▁प्रसन्न	-2890
▁विशेषता	-2891
▁कंप्यूटर	-2892
▁कार्यालय	-2893
▁प्रभुत्व	-2894
▁क्षेत्रीय	-2895
▁संस्थानों	-2896
▁निर्धारिती	-2897
▁प्राधिकारी	-2898
▁कार्यक्रमों	-2899
यह	-2900
ाक	-2901
ुन	-2902
ुस	-2903
▁३	-2904
ंता	-2905
अलग	-2906
ओगे	-2907
नतम	-2908
ब्र	-2909
भीर	-2910
भूम	-2911
मीर	-2912
लीफ	-2913
वोल	-2914
ेगा	-2915
ोने	-2916
▁अक	-2917
▁एल	-2918
▁एह	-2919
▁तथ	-2920
▁फि	-2921
▁बॉ	-2922
▁हथ	-2923
पादन	-2924
प्ता	-2925
ुमार	-2926
ूंगा	-2927
ेक्ट	-2928
▁अंक	-2929
▁इला	-2930
▁गाँ	-2931
▁गाय	-2932
▁जून	-2933
▁मुझ	-2934
जिस्ट	-2935
ज्ञात	-2936
िकाओं	-2937
िश्ते	-2938
्यूशन	-2939
▁आपका	-2940
▁खरीद	-2941
▁घोषण	-2942
▁निगम	-2943
▁पंजा	-2944
▁पड़ा	-2945
▁पार्	-2946
▁पालन	-2947
▁मुक़	-2948
▁रखें	-2949
▁वाता	-2950
▁संदे	-2951
▁सारी	-2952
▁इत्या	-2953
▁इस्ला	-2954
▁जरूरी	-2955
▁दृश्य	-2956
▁पुनर्	-2957
▁यंत्र	-2958
▁योग्य	-2959
▁लगाने	-2960
▁वाद्य	-2961
▁शास्त	-2962
▁संचार	-2963
▁इजरायल	-2964
▁पुराने	-2965
▁विंडों	-2966
▁संरचना	-2967
▁संसाधन	-2968
▁उपस्थित	-2969
▁पश्चिमी	-2970
▁स्क्रीन	-2971
▁अंग्रेजी	-2972
▁ऐतिहासिक	-2973
▁राजनीतिक	-2974
▁लोकतंत्र	-2975
▁संस्कृति	-2976
▁प्रोग्राम	-2977
▁अधिकारियों	-2978
▁अर्थव्यवस्था	-2979
-0	-2980
re	-2981
¤¤	-2982
फर	-2983
वै	-2984
▁O	-2985
▁U	-2986
▁w	-2987
एगा	-2988
करी	-2989
चीन	-2990
पों	-2991
फिक	-2992
बाई	-2993
बाह	-2994
मैं	-2995
ह्न	-2996
ात्	-2997
ानु	-2998
▁50	-2999
▁आठ	-3000
▁एफ	-3001
▁चू	-3002
▁सश	-3003
pres	-3004
कड़ी	-3005
क्टर	-3006
दायत	-3007
बाइल	-3008
भूमि	-3009
ॉन्ट	-3010
▁(19	-3011
▁आँख	-3012
▁आउट	-3013
▁उपा	-3014
▁कदा	-3015
▁खुश	-3016
▁गीत	-3017
▁चढ़	-3018
▁नमा	-3019
▁ब्ल	-3020
▁मिस	-3021
▁मुह	-3022
▁शोध	-3023
▁हवा	-3024
कृष्ट	-3025
क्रिय	-3026
तुम्ह	-3027
ल्कुल	-3028
▁आयात	-3029
▁इंटर	-3030
▁इनके	-3031
▁क़सम	-3032
▁तरफ़	-3033
▁दृढ़	-3034
▁धार्	-3035
▁नाटक	-3036
▁नेहर	-3037
▁बैठे	-3038
▁भारी	-3039
▁लेखक	-3040
▁व्यय	-3041
▁शेयर	-3042
▁शैली	-3043
▁सबके	-3044
▁सिक्	-3045
▁हजार	-3046
▁उत्तम	-3047
▁जल्दी	-3048
▁जिसको	-3049
▁दर्शा	-3050
▁महारा	-3051
▁सत्या	-3052
▁सांस्	-3053
▁हाथों	-3054
▁अत्यंत	-3055
▁आंदोलन	-3056
▁ऑनलाइन	-3057
▁कल्पना	-3058
▁क़यामत	-3059
▁जायेगा	-3060
▁नियमों	-3061
▁परस्पर	-3062
▁प्रशास	-3063
▁मामलों	-3064
▁विधेयक	-3065
▁किसानों	-3066
▁धार्मिक	-3067
▁संपत्ति	-3068
▁कर्मचारी	-3069
▁प्रतिनिध	-3070
▁प्रतिष्ठ	-3071
▁दृष्टिकोण	-3072
▁प्रदर्शित	-3073
▁गतिविधियों	-3074
▁अंतरराष्ट्रीय	-3075
as	-3076
¤1	-3077
औन	-3078
खर	-3079
नो	-3080
यण	-3081
ॉन	-3082
▁b	-3083
ंबई	-3084
ज़त	-3085
ताव	-3086
दित	-3087
फ़र	-3088
राब	-3089
लोड	-3090
विल	-3091
वीय	-3092
साथ	-3093
सों	-3094
हाद	-3095
ोजी	-3096
्ठा	-3097
▁(%	-3098
▁चम	-3099
▁पल	-3100
▁रौ	-3101
▁शो	-3102
▁हट	-3103
ment	-3104
ंखला	-3105
क्सी	-3106
बारा	-3107
मेंट	-3108
म्मद	-3109
स्टम	-3110
िप्त	-3111
ैनिक	-3112
▁100	-3113
▁194	-3114
▁अरब	-3115
▁आंक	-3116
▁इले	-3117
▁कथा	-3118
▁काग	-3119
▁कृत	-3120
▁चरण	-3121
▁जोर	-3122
▁टुक	-3123
▁तेज	-3124
▁दीन	-3125
▁पृथ	-3126
▁फाय	-3127
▁बाग	-3128
▁मस्	-3129
▁शर्	-3130
▁साइ	-3131
कामना	-3132
वर्तन	-3133
ष्ट्र	-3134
▁आपकी	-3135
▁करनी	-3136
▁काले	-3137
▁कुफ्	-3138
▁खुला	-3139
▁जल्द	-3140
▁जादू	-3141
▁परिच	-3142
▁मिशन	-3143
▁मौसम	-3144
▁रहती	-3145
▁रहना	-3146
▁रीति	-3147
▁लेना	-3148
▁विफल	-3149
▁विरा	-3150
▁सीधे	-3151
▁स्थल	-3152
दुनिया	-3153
द्धांत	-3154
▁अर्था	-3155
▁आदर्श	-3156
▁आरम्भ	-3157
▁एशिया	-3158
▁औरतों	-3159
▁काफिर	-3160
▁गंभीर	-3161
▁घोषणा	-3162
▁ज़रुर	-3163
▁जिनका	-3164
▁जीवित	-3165
▁तस्वी	-3166
▁द्वार	-3167
▁नमाज़	-3168
▁नेहरू	-3169
▁प्राय	-3170
▁प्रेर	-3171
▁महामह	-3172
▁सच्चे	-3173
▁समन्व	-3174
▁सिद्ध	-3175
कर्ताओं	-3176
▁अध्याय	-3177
▁तकनीकी	-3178
▁बढ़ावा	-3179
▁शीर्षक	-3180
▁स्थायी	-3181
▁स्वच्छ	-3182
▁स्वागत	-3183
▁स्वामी	-3184
▁हिदायत	-3185
▁अफ्रीका	-3186
▁कार्यों	-3187
▁नीतियों	-3188
▁न्यूनतम	-3189
▁बिल्कुल	-3190
▁महिलाओं	-3191
▁वस्तुओं	-3192
▁वातावरण	-3193
▁वार्षिक	-3194
▁विद्युत	-3195
▁हालांकि	-3196
▁अनुच्छेद	-3197
▁मार्गदर्शन	-3198
4)	-3199
ac	-3200
ee	-3201
ii	-3202
ou	-3203
एल	-3204
घन	-3205
डर	-3206
डि	-3207
तल	-3208
नन	-3209
पट	-3210
पै	-3211
ीब	-3212
ौल	-3213
▁F	-3214
जिट	-3215
ट्र	-3216
तौर	-3217
नेट	-3218
परि	-3219
फार	-3220
रेट	-3221
ष्क	-3222
ियत	-3223
▁अं	-3224
▁अश	-3225
▁एज	-3226
▁मस	-3227
▁लु	-3228
▁सज	-3229
▁सफ	-3230
▁सॉ	-3231
▁हल	-3232
-201	-3233
ंगिक	-3234
क्षी	-3235
धनों	-3236
सनीय	-3237
स्ते	-3238
▁(2)	-3239
▁197	-3240
▁अवि	-3241
▁एका	-3242
▁कूट	-3243
▁गृह	-3244
▁चेह	-3245
▁डाय	-3246
▁ताल	-3247
▁पति	-3248
▁पाए	-3249
▁बिक	-3250
▁मिन	-3251
▁यथा	-3252
▁वाह	-3253
▁सदन	-3254
▁सुख	-3255
चारिक	-3256
न्दगी	-3257
प्ताह	-3258
बाहरी	-3259
श्मीर	-3260
स्त्र	-3261
ृंखला	-3262
▁अप्र	-3263
▁अस्त	-3264
▁एवोल	-3265
▁करार	-3266
▁खुशी	-3267
▁गठित	-3268
▁ग्रह	-3269
▁चलते	-3270
▁धारण	-3271
▁निधि	-3272
▁पूछा	-3273
▁फिली	-3274
▁बख्श	-3275
▁भाषण	-3276
▁मज़ा	-3277
▁मानक	-3278
▁लेता	-3279
▁साझी	-3280
▁सीता	-3281
▁सुबह	-3282
▁स्वर	-3283
▁हृदय	-3284
्यान्व	-3285
▁अंतरण	-3286
▁अनुमो	-3287
▁उठाने	-3288
▁उद्घा	-3289
▁कठिना	-3290
▁ख़र्च	-3291
▁खिलाफ	-3292
▁जनवरी	-3293
▁दिलों	-3294
▁पत्थर	-3295
▁पारित	-3296
▁प्रदू	-3297
▁प्रसि	-3298
▁बनाते	-3299
▁बाहरी	-3300
▁विविध	-3301
▁व्याव	-3302
▁समझते	-3303
▁सर्वा	-3304
▁सामना	-3305
▁हत्या	-3306
नेवालों	-3307
▁अनुकूल	-3308
▁इलेक्ट	-3309
▁कहेंगे	-3310
▁जिम्मे	-3311
▁पद्धति	-3312
▁प्रचार	-3313
▁फ़ैसला	-3314
▁मोबाइल	-3315
▁विश्ले	-3316
▁शिकायत	-3317
▁संघर्ष	-3318
▁साधारण	-3319
▁हरगिज़	-3320
▁इत्यादि	-3321
▁दायित्व	-3322
▁प्रशासन	-3323
▁महत्त्व	-3324
▁महामहिम	-3325
▁संबंधों	-3326
▁संस्करण	-3327
▁सरकारों	-3328
▁अधिकारों	-3329
▁प्रयासों	-3330
▁एवोल्यूशन	-3331
▁कार्यान्व	-3332
▁निष्क्रिय	-3333
he	-3334
ol	-3335
अर	-3336
खे	-3337
गण	-3338
टि	-3339
पथ	-3340
पल	-3341
यत	-3342
वह	-3343
सब	-3344
हे	-3345
ैव	-3346
▁Z	-3347
ंडा	-3348
जनक	-3349
तृत	-3350
दास	-3351
दिन	-3352
दीय	-3353
नाम	-3354
बित	-3355
रज़	-3356
लें	-3357
वें	-3358
ुत्	-3359
्वा	-3360
▁आश	-3361
▁एच	-3362
▁जय	-3363
▁झा	-3364
▁फे	-3365
▁बू	-3366
▁मध	-3367
चलित	-3368
द्री	-3369
म्मी	-3370
र्वा	-3371
ालिब	-3372
ितीय	-3373
्यास	-3374
्राइ	-3375
्वाह	-3376
▁असा	-3377
▁इकट	-3378
▁उपभ	-3379
▁चली	-3380
▁ढूं	-3381
▁फोन	-3382
▁बजा	-3383
▁बिज	-3384
▁बोझ	-3385
▁लॉग	-3386
▁विल	-3387
▁सुल	-3388
तृत्व	-3389
दर्शी	-3390
दियों	-3391
भाषित	-3392
वान्व	-3393
ामर्श	-3394
्रांस	-3395
▁अद्य	-3396
▁अधिस	-3397
▁उन्न	-3398
▁उपाय	-3399
▁करीब	-3400
▁खाली	-3401
▁गवाह	-3402
▁गहरा	-3403
▁झगड़	-3404
▁डाउन	-3405
▁तमिल	-3406
▁तेरे	-3407
▁दिला	-3408
▁दीर्	-3409
▁धीरे	-3410
▁पेड़	-3411
▁प्रच	-3412
▁फ़िल	-3413
▁बनाई	-3414
▁ब्या	-3415
▁मानो	-3416
▁मीटर	-3417
▁मुकद	-3418
▁लोगो	-3419
▁सत्र	-3420
▁सहेज	-3421
▁साफ़	-3422
संख्या	-3423
▁अनुसू	-3424
▁अपराध	-3425
▁उद्यम	-3426
▁एकत्र	-3427
▁कटौती	-3428
▁खोलें	-3429
▁गुज़र	-3430
▁जानवर	-3431
▁जुड़े	-3432
▁तारीख	-3433
▁थोड़ा	-3434
▁देखता	-3435
▁परिषद	-3436
▁पात्र	-3437
▁बनाकर	-3438
▁बनाना	-3439
▁वर्षा	-3440
▁विवाद	-3441
▁सर्वे	-3442
▁सीमित	-3443
▁सुंदर	-3444
▁स्तंभ	-3445
▁हिंदू	-3446
क्तियों	-3447
विज्ञान	-3448
▁अधिकतम	-3449
▁इस्लाम	-3450
▁काफ़िर	-3451
▁जिनमें	-3452
▁नवान्व	-3453
▁निरंतर	-3454
▁बुनिया	-3455
▁रजिस्ट	-3456
▁लगातार	-3457
▁संलग्न	-3458
▁संविदा	-3459
▁सप्ताह	-3460
▁स्त्री	-3461
▁स्वरूप	-3462
कारात्मक	-3463
▁ईमानदार	-3464
▁कनेक्शन	-3465
▁गणराज्य	-3466
▁परामर्श	-3467
▁संपूर्ण	-3468
▁स्थानों	-3469
▁परिस्थित	-3470
▁भागीदारी	-3471
▁शुभकामना	-3472
▁सिद्धांत	-3473
▁निम्नलिखित	-3474
▁प्रोत्साहन	-3475
▁सांस्कृतिक	-3476
▁कर्मचारियों	-3477
▁विनिर्दिष्ट	-3478
▁परिणामस्वरूप	-3479
2,	-3480
3)	-3481
:-	-3482
of	-3483
आत	-3484
कू	-3485
डल	-3486
पह	-3487
यम	-3488
लम	-3489
शे	-3490
शो	-3491
िज	-3492
▁H	-3493
▁m	-3494
-19	-3495
ail	-3496
ent	-3497
ँति	-3498
कलन	-3499
कीय	-3500
कुछ	-3501
गमन	-3502
गैर	-3503
परी	-3504
पान	-3505
साह	-3506
स्फ	-3507
ालत	-3508
िनी	-3509
ियल	-3510
ोकन	-3511
▁27	-3512
▁अज	-3513
▁आइ	-3514
▁घट	-3515
▁चै	-3516
▁तय	-3517
▁दौ	-3518
▁पत	-3519
▁फी	-3520
▁मई	-3521
त्तर	-3522
धानी	-3523
मतौर	-3524
माने	-3525
वायु	-3526
ष्टा	-3527
ालित	-3528
िप्प	-3529
ेषित	-3530
ोषित	-3531
्रेड	-3532
▁198	-3533
▁अंश	-3534
▁अब्	-3535
▁क़ा	-3536
▁काट	-3537
▁गोल	-3538
▁गौर	-3539
▁ठिक	-3540
▁तभी	-3541
▁तुर	-3542
▁दबा	-3543
▁देर	-3544
▁द्र	-3545
▁परा	-3546
▁भ्र	-3547
▁लगी	-3548
▁लोड	-3549
▁शख़	-3550
▁सूर	-3551
▁होम	-3552
वित्र	-3553
श्किल	-3554
स्लिम	-3555
▁अगला	-3556
▁इनका	-3557
▁उम्र	-3558
▁खाना	-3559
▁खुली	-3560
▁खुले	-3561
▁जमीन	-3562
▁डाटा	-3563
▁ढूंढ	-3564
▁तर्क	-3565
▁तेजी	-3566
▁देवी	-3567
▁नामक	-3568
▁पकड़	-3569
▁परेश	-3570
▁पहला	-3571
▁फैला	-3572
▁बजाय	-3573
▁बुरी	-3574
▁मतलब	-3575
▁यूनि	-3576
▁लगते	-3577
▁लिखी	-3578
▁वाक़	-3579
▁संगम	-3580
अल्लाह	-3581
ड़ियों	-3582
िश्तों	-3583
▁अगस्त	-3584
▁अधिसू	-3585
▁आनन्द	-3586
▁कविता	-3587
▁कृष्ण	-3588
▁ग्रंथ	-3589
▁जिनको	-3590
▁तरीका	-3591
▁तुलना	-3592
▁निहित	-3593
▁पंजाब	-3594
▁पट्टी	-3595
▁प्रवि	-3596
▁बदलने	-3597
▁भगवान	-3598
▁मात्र	-3599
▁मोमिन	-3600
▁रहेगा	-3601
▁लगाया	-3602
▁लिखित	-3603
▁लेंगे	-3604
▁शिकार	-3605
▁समक्ष	-3606
▁सरकशी	-3607
▁इंडिया	-3608
▁ग्राहक	-3609
▁नियमित	-3610
▁पंक्ति	-3611
▁फ़ॉन्ट	-3612
▁बढ़ाने	-3613
▁बन्दगी	-3614
▁मिलियन	-3615
▁विनियम	-3616
▁सिस्टम	-3617
▁हथियार	-3618
........	-3619
▁अत्यधिक	-3620
▁उद्घाटन	-3621
▁नेतृत्व	-3622
▁मुद्दों	-3623
▁मुश्किल	-3624
▁मूल्यों	-3625
▁श्रेणीः	-3626
▁संपादित	-3627
▁उत्कृष्ट	-3628
▁प्राप्ति	-3629
▁विश्लेषण	-3630
▁समस्याओं	-3631
▁परिवर्तित	-3632
▁प्रत्यक्ष	-3633
▁प्रारंभिक	-3634
▁संक्षिप्त	-3635
▁सर्वेक्षण	-3636
▁साहित्यिक	-3637
▁निर्देशिका	-3638
th	-3639
आन	-3640
णु	-3641
मल	-3642
वृ	-3643
ूत	-3644
चीत	-3645
जात	-3646
टिल	-3647
त्न	-3648
दरत	-3649
माल	-3650
म्स	-3651
लीन	-3652
िफ़	-3653
्वे	-3654
▁21	-3655
▁औष	-3656
▁दस	-3657
▁फा	-3658
▁मल	-3659
अपनी	-3660
आईटी	-3661
एँगे	-3662
तरित	-3663
दाता	-3664
प्रे	-3665
मर्श	-3666
मानी	-3667
शाला	-3668
शासन	-3669
संस्	-3670
साफ़	-3671
ोबार	-3672
्रैल	-3673
▁अका	-3674
▁अदा	-3675
▁आंख	-3676
▁इंज	-3677
▁उड़	-3678
▁क़ु	-3679
▁कोड	-3680
▁कोल	-3681
▁घटा	-3682
▁टैब	-3683
▁तार	-3684
▁नहर	-3685
▁पाइ	-3686
▁फ्ल	-3687
▁वित	-3688
▁शक़	-3689
▁समी	-3690
▁हार	-3691
▁२००	-3692
आख़िर	-3693
क्ष्म	-3694
णिज्य	-3695
त्मिक	-3696
नियों	-3697
मात्र	-3698
राहीम	-3699
ोजीशन	-3700
्रिया	-3701
▁अंदर	-3702
▁अभिय	-3703
▁अल्प	-3704
▁अस्थ	-3705
▁आसान	-3706
▁कर्त	-3707
▁कुशल	-3708
▁खड़ा	-3709
▁खड़े	-3710
▁गंगा	-3711
▁गांव	-3712
▁जर्म	-3713
▁तिथि	-3714
▁दयाल	-3715
▁दर्द	-3716
▁दिये	-3717
▁दूरी	-3718
▁नज़र	-3719
▁निभा	-3720
▁पैरा	-3721
▁बहुम	-3722
▁रद्द	-3723
▁शुरु	-3724
▁स्ना	-3725
omment	-3726
वृत्ति	-3727
्रॉनिक	-3728
▁आमतौर	-3729
▁आयोजन	-3730
▁आसपास	-3731
▁आसानी	-3732
▁क्लिक	-3733
▁चुनाव	-3734
▁जवाहर	-3735
▁दर्शन	-3736
▁दोस्त	-3737
▁दोहरा	-3738
▁नृत्य	-3739
▁पोर्ट	-3740
▁बदलें	-3741
▁ब्याज	-3742
▁लकड़ी	-3743
▁लक्षण	-3744
▁शहरों	-3745
▁संग्र	-3746
▁साबित	-3747
▁सामान	-3748
▁स्थिर	-3749
▁अद्यतन	-3750
▁अनुसरण	-3751
▁अप्रैल	-3752
▁अवतरित	-3753
▁इकट्ठा	-3754
▁उपयोगी	-3755
▁कारबार	-3756
▁गिरफ्त	-3757
▁ठिकाना	-3758
▁तस्वीर	-3759
▁देखभाल	-3760
▁पूर्वा	-3761
▁पोजीशन	-3762
▁बातचीत	-3763
▁बिक्री	-3764
▁भाषाओं	-3765
▁मानसिक	-3766
▁सम्मिल	-3767
▁हिन्दू	-3768
▁इबराहीम	-3769
▁डाउनलोड	-3770
▁प्राचीन	-3771
▁फ़िल्टर	-3772
▁योग्यता	-3773
▁वाणिज्य	-3774
▁संस्कृत	-3775
▁प्रसिद्ध	-3776
▁व्याख्या	-3777
▁संस्थाओं	-3778
▁ईमानदारों	-3779
▁पृष्ठभूमि	-3780
▁प्रतीक्षा	-3781
▁प्रतिनिधित्व	-3782
-#	-3783
--	-3784
50	-3785
:%	-3786
>>	-3787
ur	-3788
us	-3789
आप	-3790
जल	-3791
जै	-3792
दल	-3793
भु	-3794
वक	-3795
वण	-3796
ुआ	-3797
▁G	-3798
▁N	-3799
▁५	-3800
ंका	-3801
ंटे	-3802
ंदु	-3803
कात	-3804
केट	-3805
गोल	-3806
जिस	-3807
णों	-3808
दिक	-3809
दूर	-3810
बंद	-3811
बूझ	-3812
माम	-3813
र्ज	-3814
विक	-3815
संग	-3816
ायी	-3817
िपि	-3818
ेंद	-3819
ोटो	-3820
ोपण	-3821
्यु	-3822
▁28	-3823
▁उत	-3824
▁तट	-3825
▁धा	-3826
▁धै	-3827
▁धो	-3828
▁मछ	-3829
▁रन	-3830
▁शौ	-3831
त्तम	-3832
नीति	-3833
बादी	-3834
म्मत	-3835
र्ती	-3836
स्ति	-3837
िक्स	-3838
ियोग	-3839
ून्य	-3840
ेंशन	-3841
्यूब	-3842
▁192	-3843
▁अके	-3844
▁अवै	-3845
▁आंत	-3846
▁आज़	-3847
▁आयी	-3848
▁आये	-3849
▁इंस	-3850
▁इस्	-3851
▁उतर	-3852
▁औला	-3853
▁कॉल	-3854
▁गोप	-3855
▁छिप	-3856
▁जहा	-3857
▁तला	-3858
▁दाह	-3859
▁नेक	-3860
▁परे	-3861
▁पेज	-3862
▁भला	-3863
▁मज़	-3864
▁माप	-3865
▁लाइ	-3866
▁विभ	-3867
ंचांग	-3868
क्षिक	-3869
भाँति	-3870
भावित	-3871
▁इतने	-3872
▁उतार	-3873
▁किरा	-3874
▁जाएं	-3875
▁तोड़	-3876
▁तौबा	-3877
▁नेता	-3878
▁प्रत	-3879
▁प्लग	-3880
▁बनने	-3881
▁बुरे	-3882
▁मिनट	-3883
▁लंबे	-3884
▁लाया	-3885
▁लिंक	-3886
▁वादा	-3887
▁शाखा	-3888
▁सजदा	-3889
▁साझा	-3890
▁हानि	-3891
▁अक्सर	-3892
▁आध्या	-3893
▁उठाया	-3894
▁कहानी	-3895
▁कार्र	-3896
▁कितनी	-3897
▁गुजरा	-3898
▁चिंता	-3899
▁चेहरे	-3900
▁टिप्प	-3901
▁डिजिट	-3902
▁तीसरे	-3903
▁देखकर	-3904
▁धैर्य	-3905
▁निवास	-3906
▁पत्नी	-3907
▁पीढ़ी	-3908
▁प्राण	-3909
▁बच्चा	-3910
▁बहुते	-3911
▁बिजली	-3912
▁ब्रिट	-3913
▁भौतिक	-3914
▁मस्जि	-3915
▁मामला	-3916
▁मिसाल	-3917
▁रिक्त	-3918
▁लड़ाई	-3919
▁शून्य	-3920
▁संदेह	-3921
▁समग्र	-3922
▁सिविल	-3923
▁स्क्र	-3924
▁स्मार	-3925
स्तियों	-3926
▁अनुरोध	-3927
▁अभियान	-3928
▁आख़िरत	-3929
▁आयुक्त	-3930
▁ग़ालिब	-3931
▁जलवायु	-3932
▁दीक्षा	-3933
▁दूसरों	-3934
▁निशानी	-3935
▁पवित्र	-3936
▁पूर्वी	-3937
▁प्रसार	-3938
▁मिलेगी	-3939
▁रास्ता	-3940
▁विभाजन	-3941
▁विषयों	-3942
▁संचालन	-3943
▁संसदीय	-3944
▁सहकारी	-3945
▁हिस्से	-3946
▁दिखायें	-3947
▁पश्चात्	-3948
▁प्रशंसा	-3949
▁प्रेरित	-3950
▁मेहरबान	-3951
▁संक्रमण	-3952
▁अत्याचार	-3953
▁उपयोक्ता	-3954
▁उपस्थिति	-3955
▁केंद्रित	-3956
▁विद्यमान	-3957
▁सम्मिलित	-3958
▁सर्वाधिक	-3959
▁सुविधाओं	-3960
▁नियंत्रित	-3961
▁विश्वसनीय	-3962
▁स्त्रियों	-3963
▁आध्यात्मिक	-3964
▁शुभकामनाएं	-3965
▁इलेक्ट्रॉनिक	-3966
▁महत्त्वपूर्ण	-3967
30	-3968
ce	-3969
mu	-3970
थी	-3971
लक	-3972
िफ	-3973
ॉम	-3974
▁L	-3975
▁६	-3976
▁–	-3977
ंदन	-3978
कभी	-3979
चें	-3980
फ्र	-3981
ब्ल	-3982
मोह	-3983
यदि	-3984
रेख	-3985
लोग	-3986
वली	-3987
सूस	-3988
ाले	-3989
ुमा	-3990
ुरी	-3991
ूदी	-3992
ोसा	-3993
्यक	-3994
▁24	-3995
▁29	-3996
▁31	-3997
▁40	-3998
▁to	-3999
▁आओ	-4000
▁एड	-4001
▁घे	-4002
▁तल	-4003
▁तस	-4004
▁नु	-4005
▁सभ	-4006
▁हँ	-4007
▁”-	-4008
ंख्य	-4009
ंचित	-4010
ंतरण	-4011
गाड़	-4012
त्री	-4013
न्दी	-4014
भारत	-4015
मार्	-4016
वंबर	-4017
वाना	-4018
वाली	-4019
ष्णु	-4020
ूंकि	-4021
ूद्ध	-4022
्याग	-4023
▁...	-4024
▁अंध	-4025
▁अवर	-4026
▁आदम	-4027
▁एक्	-4028
▁कही	-4029
▁चलो	-4030
▁टाइ	-4031
▁ट्र	-4032
▁ठोस	-4033
▁डेल	-4034
▁दशक	-4035
▁दूध	-4036
▁नजर	-4037
▁नवा	-4038
▁नाग	-4039
▁नाय	-4040
▁निः	-4041
▁नोट	-4042
▁बाँ	-4043
▁मनो	-4044
▁मां	-4045
▁रिज	-4046
▁शास	-4047
▁शिश	-4048
▁सचि	-4049
▁सिल	-4050
क्षेप	-4051
गारों	-4052
म्मीद	-4053
वर्धन	-4054
▁2000	-4055
▁2007	-4056
▁अभाव	-4057
▁अवैध	-4058
▁अस्प	-4059
▁आवाज	-4060
▁आश्व	-4061
▁उधार	-4062
▁औलाद	-4063
▁कहान	-4064
▁किलो	-4065
▁कोवि	-4066
▁कौशल	-4067
▁क्रा	-4068
▁खतरा	-4069
▁ख़ास	-4070
▁ख्या	-4071
▁गणना	-4072
▁गिरा	-4073
▁डाले	-4074
▁नवीन	-4075
▁निरा	-4076
▁पदों	-4077
▁परिक	-4078
▁पहलू	-4079
▁पारि	-4080
▁प्रि	-4081
▁बोली	-4082
▁बोले	-4083
▁भावी	-4084
▁मशीन	-4085
▁मांस	-4086
▁मुना	-4087
▁रौशन	-4088
▁लौटा	-4089
▁वहीं	-4090
▁विवे	-4091
▁शरीक	-4092
▁शारी	-4093
▁सदैव	-4094
▁सिखा	-4095
स्थायी	-4096
▁आयतें	-4097
▁आवाज़	-4098
▁इंजीन	-4099
▁उद्या	-4100
▁कदापि	-4101
▁कमांड	-4102
▁कार्ड	-4103
▁कितना	-4104
▁कितने	-4105
▁खोलने	-4106
▁गवाही	-4107
▁ग्रहण	-4108
▁ग्राम	-4109
▁चारों	-4110
▁चिह्न	-4111
▁जिनकी	-4112
▁ट्रैक	-4113
▁दीर्घ	-4114
▁दीवार	-4115
▁ध्वनि	-4116
▁नवंबर	-4117
▁पड़ता	-4118
▁पाठ्य	-4119
▁प्रजा	-4120
▁बीमार	-4121
▁ब्राह	-4122
▁भांति	-4123
▁मिलती	-4124
▁मिश्र	-4125
▁मुद्र	-4126
▁रेलवे	-4127
▁लड़के	-4128
▁विहित	-4129
▁संवाद	-4130
▁सिवाय	-4131
▁स्वतः	-4132
▁अनुपात	-4133
▁अनुमान	-4134
▁इन्कार	-4135
▁उच्चतम	-4136
▁कश्मीर	-4137
▁कानूनी	-4138
▁किनारे	-4139
▁कोशिका	-4140
▁निर्वा	-4141
▁निवासी	-4142
▁पंचांग	-4143
▁पक्षों	-4144
▁बीमारी	-4145
▁मानवता	-4146
▁मानवीय	-4147
▁मूल्या	-4148
▁रोजगार	-4149
▁विरासत	-4150
▁समझौता	-4151
▁समझौते	-4152
▁समन्वय	-4153
▁समृद्ध	-4154
▁दयालुता	-4155
▁परिपत्र	-4156
▁प्रचलित	-4157
▁प्रयोजन	-4158
▁प्रारूप	-4159
▁ब्रिटिश	-4160
▁मुस्लिम	-4161
▁विरूद्ध	-4162
▁व्यवसाय	-4163
▁शारीरिक	-4164
▁समुद्री	-4165
▁कार्रवाई	-4166
▁जनसंख्या	-4167
▁परिभाषित	-4168
▁प्रदर्शन	-4169
▁संसाधनों	-4170
▁सर्वोच्च	-4171
▁पैग़म्बरों	-4172
▁प्राथमिकता	-4173
''	-4174
.)	-4175
fo	-4176
id	-4177
te	-4178
घर	-4179
णन	-4180
मर	-4181
मो	-4182
यू	-4183
वट	-4184
ैम	-4185
▁/	-4186
200	-4187
jee	-4188
muk	-4189
prh	-4190
ंडी	-4191
ंभव	-4192
क़त	-4193
क़ल	-4194
जील	-4195
धीश	-4196
बरी	-4197
बाल	-4198
र्प	-4199
लती	-4200
शाह	-4201
साब	-4202
ह्य	-4203
िटे	-4204
ूबर	-4205
ूसु	-4206
▁23	-4207
▁80	-4208
▁अद	-4209
▁आख	-4210
▁आफ	-4211
▁औप	-4212
▁गौ	-4213
▁पट	-4214
▁मं	-4215
▁मृ	-4216
▁यौ	-4217
▁१५	-4218
▁‘‘	-4219
html	-4220
pran	-4221
ंध्र	-4222
ज़ोर	-4223
दायी	-4224
न्दु	-4225
पश्च	-4226
माणु	-4227
म्मू	-4228
िकेट	-4229
ीकृत	-4230
▁अहम	-4231
▁आजा	-4232
▁इरा	-4233
▁एंड	-4234
▁एकल	-4235
▁एल्	-4236
▁कहे	-4237
▁कीट	-4238
▁ग्ल	-4239
▁चीन	-4240
▁जंग	-4241
▁टैग	-4242
▁डरा	-4243
▁दुः	-4244
▁धार	-4245
▁पाई	-4246
▁पाद	-4247
▁बीज	-4248
▁बेच	-4249
▁बोस	-4250
▁भले	-4251
▁मोड	-4252
▁शरण	-4253
▁शिव	-4254
▁सब्	-4255
▁सेल	-4256
▁हिक	-4257
abmuk	-4258
कृष्ण	-4259
तावनी	-4260
भाविक	-4261
वियों	-4262
▁2012	-4263
▁आनंद	-4264
▁आवास	-4265
▁इकाई	-4266
▁ईमेल	-4267
▁उदार	-4268
▁उल्ल	-4269
▁क़दम	-4270
▁कीमत	-4271
▁खाने	-4272
▁गहरी	-4273
▁गेंद	-4274
▁ग्रे	-4275
▁घाटे	-4276
▁चैनल	-4277
▁जटिल	-4278
▁जिले	-4279
▁निरी	-4280
▁पत्त	-4281
▁पाकि	-4282
▁बाकी	-4283
▁बीमा	-4284
▁मकान	-4285
▁मुंह	-4286
▁मुला	-4287
▁विनय	-4288
▁शत्र	-4289
▁शिखर	-4290
▁सफेद	-4291
▁सराह	-4292
▁सवाल	-4293
▁साहस	-4294
▁सुझा	-4295
▁सोचा	-4296
▁हस्त	-4297
▁हैंः	-4298
herjee	-4299
प्रदाय	-4300
ार्थना	-4301
▁अस्वी	-4302
▁आकर्ष	-4303
▁आज़मा	-4304
▁आज्ञा	-4305
▁कामना	-4306
▁कार्ब	-4307
▁क्रोध	-4308
▁क्षति	-4309
▁गाँधी	-4310
▁गुप्त	-4311
▁चलाने	-4312
▁चाहती	-4313
▁चीजों	-4314
▁चूंकि	-4315
▁जम्मू	-4316
▁तुरंत	-4317
▁द्वीप	-4318
▁पढ़ने	-4319
▁पूज्य	-4320
▁बस्ती	-4321
▁भंडार	-4322
▁भागों	-4323
▁भेजने	-4324
▁मध्यम	-4325
▁महसूस	-4326
▁मुंबई	-4327
▁मौलिक	-4328
▁शुद्ध	-4329
▁हिसाब	-4330
वादियों	-4331
▁अनुवाद	-4332
▁अपनाया	-4333
▁इंडियन	-4334
▁उद्यान	-4335
▁कम्पनी	-4336
▁गुजरात	-4337
▁चुनौती	-4338
▁दिखाया	-4339
▁दोबारा	-4340
▁निकलने	-4341
▁पर्यटन	-4342
▁पार्टी	-4343
▁पूर्ति	-4344
▁बिगाड़	-4345
▁बिलकुल	-4346
▁मीडिया	-4347
▁मुकदमा	-4348
▁मूर्ति	-4349
▁रिजर्व	-4350
▁वर्गों	-4351
▁विडियो	-4352
▁सहेजें	-4353
▁साम्रा	-4354
▁सावधान	-4355
पैग़म्बर	-4356
▁एकमात्र	-4357
▁काफिरों	-4358
▁चेतावनी	-4359
▁ज़्यादा	-4360
▁पंजीकरण	-4361
▁मित्रता	-4362
▁संगठनों	-4363
▁संयंत्र	-4364
▁समीक्षा	-4365
pranabmuk	-4366
▁अधिसूचना	-4367
▁अस्तित्व	-4368
▁उद्योगों	-4369
▁कुफ्फ़ार	-4370
▁जवाहरलाल	-4371
▁ज़ालिमों	-4372
▁ज़िन्दगी	-4373
▁पुस्तिका	-4374
▁राजस्थान	-4375
▁पुस्तकालय	-4376
▁प्रसन्नता	-4377
▁प्रार्थना	-4378
▁स्वाभाविक	-4379
▁उद्देश्यों	-4380
▁प्रतिक्रिया	-4381
▁परिस्थितियों	-4382
▁प्रभुत्वशाली	-4383
pranabmukherjee	-4384
/-	-4385
ME	-4386
hi	-4387
os	-4388
ँग	-4389
ंव	-4390
अत	-4391
ईल	-4392
गन	-4393
जब	-4394
जु	-4395
टो	-4396
ट्	-4397
डु	-4398
दक	-4399
नल	-4400
षे	-4401
िच	-4402
ुड	-4403
ैल	-4404
ौफ	-4405
▁K	-4406
▁e	-4407
▁f	-4408
▁l	-4409
.09	-4410
ase	-4411
ंकर	-4412
ंटर	-4413
काब	-4414
खिम	-4415
ग्न	-4416
ज़ि	-4417
तीत	-4418
देन	-4419
धीन	-4420
धों	-4421
न्थ	-4422
बूद	-4423
मंच	-4424
मों	-4425
रित	-4426
रीत	-4427
र्र	-4428
लील	-4429
विश	-4430
शोथ	-4431
षित	-4432
समय	-4433
साम	-4434
ाइड	-4435
ेरत	-4436
ॉकि	-4437
ोंक	-4438
०००	-4439
▁आल	-4440
▁उभ	-4441
▁छह	-4442
▁जू	-4443
▁धु	-4444
▁पॉ	-4445
▁रण	-4446
▁वस	-4447
indi	-4448
info	-4449
ंग्ल	-4450
उनकी	-4451
उसके	-4452
क़ुर	-4453
ग़ैर	-4454
घटना	-4455
धारी	-4456
मंडल	-4457
म्मा	-4458
रेलू	-4459
वर्ड	-4460
विधि	-4461
श्रम	-4462
स्को	-4463
ॉल्ट	-4464
्यूल	-4465
▁आकर	-4466
▁आना	-4467
▁उभर	-4468
▁औसत	-4469
▁कब्	-4470
▁काउ	-4471
▁गईं	-4472
▁गढ़	-4473
▁चाय	-4474
▁चिप	-4475
▁छूट	-4476
▁टूट	-4477
▁दान	-4478
▁दुआ	-4479
▁नमू	-4480
▁नाथ	-4481
▁नान	-4482
▁नेअ	-4483
▁परम	-4484
▁भरे	-4485
▁यून	-4486
▁वंश	-4487
▁वकी	-4488
▁वैध	-4489
▁सजा	-4490
▁सदा	-4491
▁सद्	-4492
क़रीब	-4493
कीर्ण	-4494
ख्यात	-4495
चार्य	-4496
त्कार	-4497
द्रोह	-4498
द्वीप	-4499
फारिश	-4500
शास्त	-4501
सारिक	-4502
ियामत	-4503
▁अक्ष	-4504
▁आदान	-4505
▁आपसी	-4506
▁आरोप	-4507
▁आश्च	-4508
▁इमार	-4509
▁एकता	-4510
▁कक्ष	-4511
▁कहता	-4512
▁कहां	-4513
▁कॉपी	-4514
▁जनजा	-4515
▁जानी	-4516
▁जाया	-4517
▁डरते	-4518
▁ताला	-4519
▁तेरी	-4520
▁दरवा	-4521
▁देखो	-4522
▁देशी	-4523
▁दोनो	-4524
▁नक़ल	-4525
▁नष्ट	-4526
▁प्री	-4527
▁बारह	-4528
▁बाहम	-4529
▁बेटे	-4530
▁भेजे	-4531
▁माँग	-4532
▁मारे	-4533
▁मेहन	-4534
▁मैने	-4535
▁रोगी	-4536
▁लगती	-4537
▁लाइन	-4538
▁सज़ा	-4539
▁सब्र	-4540
▁साधन	-4541
ंत्रित	-4542
पालिका	-4543
प्रदान	-4544
्टवेयर	-4545
▁अपमान	-4546
▁अभिगम	-4547
▁आंध्र	-4548
▁आग्रह	-4549
▁कराया	-4550
▁करोगे	-4551
▁कामों	-4552
▁घोषित	-4553
▁चीज़े	-4554
▁चेतना	-4555
▁जितना	-4556
▁ट्यूब	-4557
▁डराने	-4558
▁त्याग	-4559
▁थोड़ी	-4560
▁थोड़े	-4561
▁दाखिल	-4562
▁नेपाल	-4563
▁पसन्द	-4564
▁पहाड़	-4565
▁प्रोट	-4566
▁फिरऔन	-4567
▁बदलाव	-4568
▁बनाये	-4569
▁ब्राउ	-4570
▁भरोसा	-4571
▁महीने	-4572
▁मुकाब	-4573
▁रोकने	-4574
▁वर्गी	-4575
▁विपणन	-4576
▁शख़्श	-4577
▁संबोध	-4578
▁सकेगा	-4579
▁समस्त	-4580
▁हिकमत	-4581
.09.201	-4582
▁आंतरिक	-4583
▁उत्साह	-4584
▁उम्मीद	-4585
▁क़ुरआन	-4586
▁क़ुरान	-4587
▁गांवों	-4588
▁गुमराह	-4589
▁चरित्र	-4590
▁डिजिटल	-4591
▁तत्वों	-4592
▁दिखाने	-4593
▁परमाणु	-4594
▁परिवहन	-4595
▁प्रभाग	-4596
▁प्रभार	-4597
▁प्रेरण	-4598
▁मस्जिद	-4599
▁मुक़ाब	-4600
▁विपरीत	-4601
▁शिक्षण	-4602
▁संध्या	-4603
▁सराहना	-4604
▁स्मृति	-4605
▁हालॉकि	-4606
न्द्रनाथ	-4607
▁आश्चर्य	-4608
▁परीक्षण	-4609
▁पुरुषों	-4610
▁प्रत्या	-4611
▁प्रबंधक	-4612
▁मान्यता	-4613
▁राजनीति	-4614
▁विन्यास	-4615
▁श्रद्धा	-4616
▁सिफारिश	-4617
▁करनेवाले	-4618
▁पुस्तकों	-4619
▁प्रतियोग	-4620
▁श्रृंखला	-4621
▁सम्बन्धी	-4622
▁सांसारिक	-4623
▁नवान्वेषण	-4624
▁न्यायाधीश	-4625
▁प्रतिनिधि	-4626
▁प्रतिबद्ध	-4627
▁सर्वोत्तम	-4628
▁अभिव्यक्ति	-4629
▁विद्यार्थियों	-4630
▁विश्वविद्यालयों	-4631
!"	-4632
.5	-4633
15	-4634
75	-4635
इश	-4636
खु	-4637
छा	-4638
ॉक	-4639
▁४	-4640
ele	-4641
uot	-4642
ंचे	-4643
काव	-4644
गर्	-4645
ग्ध	-4646
जोर	-4647
दती	-4648
धित	-4649
नाक	-4650
नाश	-4651
नाह	-4652
नीन	-4653
न्य	-4654
पार	-4655
भ्र	-4656
मति	-4657
मती	-4658
य्य	-4659
वंश	-4660
वां	-4661
ह्व	-4662
िने	-4663
▁2,	-4664
▁44	-4665
▁75	-4666
▁>>	-4667
▁in	-4668
▁उद	-4669
▁घो	-4670
▁छु	-4671
▁टॉ	-4672
▁दह	-4673
▁फॉ	-4674
▁लै	-4675
ंगों	-4676
ईमान	-4677
कटॉप	-4678
कतों	-4679
किसी	-4680
क्सा	-4681
जनों	-4682
जाइन	-4683
ड़कर	-4684
दृढ़	-4685
परिक	-4686
भाषण	-4687
माना	-4688
राइट	-4689
रेखा	-4690
वारण	-4691
वारी	-4692
ष्ठा	-4693
संबर	-4694
हेज़	-4695
ूहिक	-4696
ैण्ड	-4697
ॉर्ड	-4698
्यार	-4699
▁193	-4700
▁आपू	-4701
▁इंच	-4702
▁ऑफ़	-4703
▁औषध	-4704
▁क़ि	-4705
▁खान	-4706
▁खून	-4707
▁गंत	-4708
▁जला	-4709
▁ज़ु	-4710
▁जेल	-4711
▁दंड	-4712
▁दरम	-4713
▁दाम	-4714
▁निच	-4715
▁नूह	-4716
▁पंच	-4717
▁पहन	-4718
▁फ़ि	-4719
▁फूल	-4720
▁बचे	-4721
▁बजट	-4722
▁बजे	-4723
▁बोध	-4724
▁भेद	-4725
▁मर्	-4726
▁मला	-4727
▁मले	-4728
▁माइ	-4729
▁मिथ	-4730
▁मेन	-4731
▁रवी	-4732
▁लेन	-4733
▁शाह	-4734
▁सें	-4735
▁हरि	-4736
▁हां	-4737
etail	-4738
india	-4739
इसेंस	-4740
कार्य	-4741
क्यों	-4742
प्रभु	-4743
लोगों	-4744
सायिक	-4745
▁2010	-4746
▁2013	-4747
▁2017	-4748
▁आहार	-4749
▁इसको	-4750
▁उपभो	-4751
▁ऊँचा	-4752
▁ऊपरी	-4753
▁कष्ट	-4754
▁कहला	-4755
▁कागज	-4756
▁काला	-4757
▁खत्म	-4758
▁ग्री	-4759
▁जागर	-4760
▁डेस्	-4761
▁तथ्य	-4762
▁तमाम	-4763
▁तूने	-4764
▁दुःख	-4765
▁पड़ी	-4766
▁पढ़ा	-4767
▁पुरा	-4768
▁बंदर	-4769
▁बांस	-4770
▁बिता	-4771
▁भलाई	-4772
▁भाष्	-4773
▁भ्रम	-4774
▁मुर्	-4775
▁मोदी	-4776
▁राजन	-4777
▁वकील	-4778
▁शर्त	-4779
▁शहरी	-4780
▁श्रो	-4781
▁संकट	-4782
▁सचिव	-4783
▁समित	-4784
▁सम्प	-4785
▁सागर	-4786
▁सृजन	-4787
▁सौंप	-4788
▁हटकर	-4789
▁हराम	-4790
▁हलाल	-4791
दाताओं	-4792
निर्भर	-4793
नेवाली	-4794
विमर्श	-4795
ासंगिक	-4796
▁अक्षर	-4797
▁अन्तर	-4798
▁आबादी	-4799
▁आस्था	-4800
▁करेगी	-4801
▁कर्ता	-4802
▁किस्म	-4803
▁ख्याल	-4804
▁ग़रज़	-4805
▁घरेलू	-4806
▁चंद्र	-4807
▁जानकर	-4808
▁जिनसे	-4809
▁जुड़ा	-4810
▁जुलाई	-4811
▁जोखिम	-4812
▁तथापि	-4813
▁देवता	-4814
▁परिसर	-4815
▁पौधों	-4816
▁बचाने	-4817
▁बिंदु	-4818
▁बुराई	-4819
▁भक्ति	-4820
▁मासिक	-4821
▁रोज़ी	-4822
▁वृक्ष	-4823
▁समझता	-4824
▁सशक्त	-4825
▁होगें	-4826
शास्त्र	-4827
स्तिष्क	-4828
ानुभूति	-4829
▁अज्ञात	-4830
▁असमर्थ	-4831
▁आक्रमण	-4832
▁इन्सान	-4833
▁घटनाओं	-4834
▁जर्मनी	-4835
▁पड़ेगा	-4836
▁परहेज़	-4837
▁पहाड़ी	-4838
▁पुष्टि	-4839
▁पृथ्वी	-4840
▁प्रतीत	-4841
▁बख्शने	-4842
▁मददगार	-4843
▁महीनों	-4844
▁मिटाएँ	-4845
▁मुक्ति	-4846
▁रंगमंच	-4847
▁रसूलों	-4848
▁व्युत्	-4849
▁संबद्ध	-4850
▁सभ्यता	-4851
▁समानता	-4852
▁सुदृढ़	-4853
▁सेवाएं	-4854
▁अनक़रीब	-4855
▁अभिभाषण	-4856
▁अर्थात्	-4857
▁अस्पताल	-4858
▁इंटरनेट	-4859
▁कर्तव्य	-4860
▁छात्रों	-4861
▁ज़िन्दा	-4862
▁ज़िम्मे	-4863
▁दरमियान	-4864
▁दर्शाता	-4865
▁प्रतिभा	-4866
▁ब्राह्म	-4867
▁मित्रों	-4868
▁लाइसेंस	-4869
▁विद्वान	-4870
▁शैक्षिक	-4871
▁संभावित	-4872
▁सदस्यता	-4873
▁सितम्बर	-4874
▁अपेक्षित	-4875
▁कंपनियों	-4876
▁गिरफ्तार	-4877
▁डेस्कटॉप	-4878
▁दुर्घटना	-4879
▁नागरिकों	-4880
▁पदार्थों	-4881
▁बुनियादी	-4882
▁शक्तियों	-4883
▁सम्पूर्ण	-4884
▁सम्मानित	-4885
▁स्वीकृति	-4886
▁तत्वदर्शी	-4887
▁प्रयोक्ता	-4888
▁प्रशासनिक	-4889
▁प्राधिकार	-4890
▁प्रासंगिक	-4891
▁मुसलमानों	-4892
▁मूल्यांकन	-4893
▁सकारात्मक	-4894
▁आत्मनिर्भर	-4895
▁जिम्मेदारी	-4896
▁परियोजनाओं	-4897
▁व्यावसायिक	-4898
▁स्पष्टीकरण	-4899
▁प्रोत्साहित	-4900
).	-4901
,–	-4902
.3	-4903
0}	-4904
16	-4905
AN	-4906
ca	-4907
ia	-4908
iv	-4909
mp	-4910
ow	-4911
ww	-4912
चक	-4913
रु	-4914
सद	-4915
हो	-4916
ोश	-4917
’’	-4918
▁W	-4919
▁x	-4920
iii	-4921
ric	-4922
www	-4923
ंघन	-4924
आरए	-4925
कना	-4926
कने	-4927
कां	-4928
कें	-4929
क्य	-4930
जान	-4931
टका	-4932
ताप	-4933
दंड	-4934
पंथ	-4935
पना	-4936
बरद	-4937
बीह	-4938
बूर	-4939
बेह	-4940
बैक	-4941
बों	-4942
ब्द	-4943
रेत	-4944
सीय	-4945
सोस	-4946
हान	-4947
िगे	-4948
ीदा	-4949
ुरा	-4950
ैया	-4951
ोत्	-4952
्टे	-4953
्यो	-4954
▁()	-4955
▁22	-4956
▁35	-4957
▁</	-4958
▁आक	-4959
▁आब	-4960
▁चख	-4961
▁छू	-4962
▁डु	-4963
▁तं	-4964
▁नक	-4965
▁पश	-4966
▁फौ	-4967
)...	-4968
rele	-4969
ंजलि	-4970
ंतिक	-4971
काता	-4972
काशन	-4973
चेंज	-4974
च्छे	-4975
तकों	-4976
धर्म	-4977
नहीं	-4978
पहले	-4979
पीएस	-4980
मुझे	-4981
यंती	-4982
यरों	-4983
वर्ग	-4984
वानी	-4985
वाने	-4986
व्यव	-4987
शब्द	-4988
शोधन	-4989
सागर	-4990
ालों	-4991
िप्ट	-4992
▁अन्	-4993
▁अली	-4994
▁अवश	-4995
▁इजा	-4996
▁उदय	-4997
▁कोष	-4998
▁खिल	-4999
▁गठन	-5000
▁चोट	-5001
▁दवा	-5002
▁देय	-5003
▁नास	-5004
▁पलट	-5005
▁पशु	-5006
▁फें	-5007
▁बटन	-5008
▁मंड	-5009
▁मिट	-5010
▁मृत	-5011
▁रिस	-5012
▁लॉक	-5013
▁वचन	-5014
▁वरि	-5015
▁शोर	-5016
▁सदी	-5017
▁सहज	-5018
▁सैन	-5019
▁सौर	-5020
▁हरे	-5021
▁हल्	-5022
-2018	-5023
entof	-5024
press	-5025
ंतरित	-5026
अच्छा	-5027
अज़ाब	-5028
क़्ति	-5029
ग्रहण	-5030
चित्र	-5031
ज्ज़त	-5032
ड़िया	-5033
तुष्ट	-5034
दर्शक	-5035
निवेश	-5036
न्याय	-5037
प्रति	-5038
बोर्ड	-5039
भाग्य	-5040
मिनीन	-5041
र्थ्य	-5042
लीफोन	-5043
वलोकन	-5044
विचार	-5045
श्वास	-5046
ोजनों	-5047
▁2005	-5048
▁Name	-5049
▁अखिल	-5050
▁इसने	-5051
▁उठाए	-5052
▁उड़ा	-5053
▁उत्स	-5054
▁कमाई	-5055
▁कैसा	-5056
▁ख़ुद	-5057
▁ख़ूब	-5058
▁गर्इ	-5059
▁गौरव	-5060
▁ग्रा	-5061
▁घड़ी	-5062
▁जंगल	-5063
▁जनरल	-5064
▁जुड़	-5065
▁ट्रे	-5066
▁तेरा	-5067
▁दर्ज	-5068
▁दावे	-5069
▁दुखद	-5070
▁द्रव	-5071
▁धातु	-5072
▁निपट	-5073
▁पाँच	-5074
▁पाइप	-5075
▁पाते	-5076
▁पाना	-5077
▁मछली	-5078
▁माता	-5079
▁माने	-5080
▁मूर्	-5081
▁मौका	-5082
▁यूसु	-5083
▁रोका	-5084
▁लिखे	-5085
▁समझे	-5086
▁सहमत	-5087
▁हँसी	-5088
▁हमला	-5089
▁हार्	-5090
detail	-5091
presid	-5092
कल्पिक	-5093
क़ुरान	-5094
तन्त्र	-5095
नेवालो	-5096
फ़ॉल्ट	-5097
स्तानी	-5098
स्तीनी	-5099
्यादती	-5100
▁अपवाद	-5101
▁इनपुट	-5102
▁काफ़ी	-5103
▁कुमार	-5104
▁गीतों	-5105
▁जागरू	-5106
▁डालें	-5107
▁तकलीफ	-5108
▁दीजिए	-5109
▁दैनिक	-5110
▁नौकरी	-5111
▁न्यास	-5112
▁पर्वत	-5113
▁पुत्र	-5114
▁फ़रमा	-5115
▁फार्म	-5116
▁फैसला	-5117
▁बिहार	-5118
▁बुद्ध	-5119
▁माध्य	-5120
▁माबूद	-5121
▁मेहनत	-5122
▁लौटने	-5123
▁वंचित	-5124
▁वितरण	-5125
▁विनाश	-5126
▁संतुल	-5127
▁सरदार	-5128
▁सहमति	-5129
▁सुनकर	-5130
▁सुभाष	-5131
▁सूत्र	-5132
▁हिंसा	-5133
▁हितों	-5134
Comment	-5135
release	-5136
राष्ट्र	-5137
संस्करण	-5138
▁अग्रणी	-5139
▁अन्तिम	-5140
▁अभ्यास	-5141
▁उत्तरा	-5142
▁कनेक्ट	-5143
▁गंतव्य	-5144
▁छुट्टी	-5145
▁डिजाइन	-5146
▁दाहिने	-5147
▁दिसंबर	-5148
▁निदेशक	-5149
▁नेताओं	-5150
▁पहुंचे	-5151
▁पुराना	-5152
▁पैमाने	-5153
▁प्रतिर	-5154
▁प्रवाह	-5155
▁प्रायः	-5156
▁प्रेमच	-5157
▁बारगाह	-5158
▁बैठकों	-5159
▁भंडारण	-5160
▁मिश्रण	-5161
▁रास्ते	-5162
▁विनष्ट	-5163
▁विवरणी	-5164
▁शेयरों	-5165
▁संपादक	-5166
▁साक्षी	-5167
▁स्पर्श	-5168
▁स्वदेश	-5169
▁स्वस्थ	-5170
▁अनुपालन	-5171
▁अनुमोदन	-5172
▁आदमियों	-5173
▁क्रिकेट	-5174
▁गुनाहों	-5175
▁टेलीफोन	-5176
▁द्वितीय	-5177
▁निकायों	-5178
▁परिभाषा	-5179
▁प्रकाशन	-5180
▁प्रयत्न	-5181
▁बहुतेरे	-5182
▁मोमिनों	-5183
▁योजनाओं	-5184
▁राजधानी	-5185
▁संतुष्ट	-5186
▁संरक्षक	-5187
▁समाप्ति	-5188
▁समृद्धि	-5189
▁सामूहिक	-5190
▁सूक्ष्म	-5191
▁आमंत्रित	-5192
▁उत्पादों	-5193
▁कॉपीराइट	-5194
▁निर्वाचन	-5195
▁राज्यपाल	-5196
▁विशेषज्ञ	-5197
▁सुविधाएं	-5198
entofindia	-5199
▁उत्तरदायी	-5200
▁कम्प्यूटर	-5201
▁कार्यवाही	-5202
▁परिकल्पना	-5203
▁पाकिस्तान	-5204
▁पूर्ववर्ष	-5205
▁प्राधिकरण	-5206
▁फ़रिश्तों	-5207
▁रजिस्ट्री	-5208
▁शक्तिशाली	-5209
▁सहानुभूति	-5210
▁सामान्यतः	-5211
▁साम्राज्य	-5212
▁आवश्यकताओं	-5213
▁पूर्वावलोकन	-5214
▁प्रतियोगिता	-5215
▁वैज्ञानिकों	-5216
presidentofindia	-5217
.6	-5218
1,	-5219
10	-5220
19	-5221
5)	-5222
ri	-5223
sh	-5224
we	-5225
अब	-5226
उप	-5227
छो	-5228
ण्	-5229
थल	-5230
नत	-5231
बै	-5232
बो	-5233
लन	-5234
लर	-5235
शः	-5236
हल	-5237
हु	-5238
ेड	-5239
ॉँ	-5240
ोब	-5241
ोम	-5242
▁V	-5243
▁g	-5244
▁h	-5245
▁y	-5246
his	-5247
ing	-5248
ंजर	-5249
ंधन	-5250
अनु	-5251
उंड	-5252
क़ी	-5253
किस	-5254
कीन	-5255
कीर	-5256
घात	-5257
चरण	-5258
चलन	-5259
जाल	-5260
टाई	-5261
ठीक	-5262
ड़न	-5263
ढ़े	-5264
ण्य	-5265
दीक	-5266
नेह	-5267
पाई	-5268
फ़े	-5269
बिल	-5270
बेस	-5271
मगर	-5272
लीय	-5273
लेट	-5274
वधि	-5275
श्म	-5276
संख	-5277
साद	-5278
सीन	-5279
सेस	-5280
हाल	-5281
ानत	-5282
िकट	-5283
िकल	-5284
िक़	-5285
िरण	-5286
ीनी	-5287
ेंच	-5288
ोनि	-5289
्ता	-5290
्ते	-5291
्नि	-5292
▁"%	-5293
▁अत	-5294
▁इक	-5295
▁इम	-5296
▁ऑप	-5297
▁कच	-5298
▁खी	-5299
▁घु	-5300
▁जम	-5301
▁पढ	-5302
▁मक	-5303
¤1⁄4	-5304
ंसिल	-5305
काने	-5306
गामी	-5307
जीवन	-5308
ड़ना	-5309
ड़ित	-5310
डीएफ	-5311
तनों	-5312
दत्त	-5313
नाटक	-5314
प्पल	-5315
फ़्र	-5316
बड़ी	-5317
बादत	-5318
मतों	-5319
रीबी	-5320
र्पण	-5321
षदों	-5322
सीता	-5323
सूची	-5324
स्कर	-5325
ार्ज	-5326
ाहित	-5327
िक्र	-5328
ियाई	-5329
िश्र	-5330
ुमान	-5331
ूर्ण	-5332
▁(4)	-5333
▁the	-5334
▁अपश	-5335
▁आलो	-5336
▁उपर	-5337
▁एहद	-5338
▁केश	-5339
▁खाओ	-5340
▁खिस	-5341
▁गुर	-5342
▁घनि	-5343
▁घुस	-5344
▁जड़	-5345
▁टीम	-5346
▁डूब	-5347
▁तरल	-5348
▁ताप	-5349
▁नबी	-5350
▁नाप	-5351
▁नोड	-5352
▁पाप	-5353
▁पूर	-5354
▁पेय	-5355
▁फैल	-5356
▁फ्र	-5357
▁बडे	-5358
▁भरी	-5359
▁मीम	-5360
▁रेड	-5361
▁लाम	-5362
▁वास	-5363
▁विघ	-5364
▁शेख	-5365
▁शोक	-5366
▁हान	-5367
▁हुक	-5368
.2015	-5369
ंग्ला	-5370
कर्षण	-5371
कालिक	-5372
क्षीय	-5373
गोलिक	-5374
दृश्य	-5375
धारित	-5376
नीतिक	-5377
पुर्द	-5378
बन्धन	-5379
लियों	-5380
वक्ता	-5381
शीलता	-5382
ष्यों	-5383
▁2006	-5384
▁2008	-5385
▁2009	-5386
▁अकबर	-5387
▁अक्त	-5388
▁अगली	-5389
▁अभिन	-5390
▁अमरी	-5391
▁आएगा	-5392
▁आकलन	-5393
▁आजीव	-5394
▁आपात	-5395
▁आह्व	-5396
▁इसरा	-5397
▁उक्त	-5398
▁उतना	-5399
▁ऊंचे	-5400
▁कथित	-5401
▁कर्ण	-5402
▁कहाँ	-5403
▁कहें	-5404
▁किमी	-5405
▁कुर्	-5406
▁कृति	-5407
▁कॉन्	-5408
▁क्यू	-5409
▁खराब	-5410
▁गरीब	-5411
▁ग़ौर	-5412
▁घाटी	-5413
▁घेरे	-5414
▁चक्र	-5415
▁छुपा	-5416
▁ठहरे	-5417
▁देकर	-5418
▁नर्स	-5419
▁नारा	-5420
▁नीला	-5421
▁पट्ट	-5422
▁पाता	-5423
▁फोटो	-5424
▁बतौर	-5425
▁बनता	-5426
▁बनना	-5427
▁बरसा	-5428
▁बांध	-5429
▁बाबत	-5430
▁बायो	-5431
▁बारी	-5432
▁बेटा	-5433
▁मंडल	-5434
▁मुगल	-5435
▁यानी	-5436
▁रिया	-5437
▁रुपए	-5438
▁रूपा	-5439
▁लंबा	-5440
▁लंबी	-5441
▁लगने	-5442
▁लाते	-5443
▁लानत	-5444
▁लिंग	-5445
▁लेखन	-5446
▁लेगा	-5447
▁वार्	-5448
▁विनि	-5449
▁शादी	-5450
▁श्रम	-5451
▁सड़क	-5452
▁साइट	-5453
▁साहब	-5454
▁सीधी	-5455
▁हड्ड	-5456
▁हवाई	-5457
▁होगे	-5458
▁होनी	-5459
.2012,	-5460
क्षणिक	-5461
▁अक्षम	-5462
▁अग्नि	-5463
▁अन्दर	-5464
▁असंभव	-5465
▁आकृति	-5466
▁ऑडियो	-5467
▁औरतें	-5468
▁कुरान	-5469
▁क्रमा	-5470
▁गर्मी	-5471
▁चीजें	-5472
▁ज़बरद	-5473
▁ज़रिए	-5474
▁जाओगे	-5475
▁जायें	-5476
▁जोड़े	-5477
▁ड्राइ	-5478
▁ढांचे	-5479
▁देखना	-5480
▁नेत्र	-5481
▁नैतिक	-5482
▁पड़ने	-5483
▁परवाह	-5484
▁परिचय	-5485
▁पेंशन	-5486
▁बढ़ती	-5487
▁भर्ती	-5488
▁भेजें	-5489
▁मक्का	-5490
▁मानता	-5491
▁मिलते	-5492
▁युक्त	-5493
▁यूनिट	-5494
▁रोकते	-5495
▁रोगों	-5496
▁लिखने	-5497
▁विज्ञ	-5498
▁सीखने	-5499
▁सुझाव	-5500
▁सूर्य	-5501
▁सैन्य	-5502
▁स्टार	-5503
कांक्षा	-5504
र्युक्त	-5505
स्थापित	-5506
▁अनुचित	-5507
▁अनुदान	-5508
▁अनुरूप	-5509
▁अन्ततः	-5510
▁अवधारण	-5511
▁इस्पात	-5512
▁कठिनाई	-5513
▁कमज़ोर	-5514
▁करूँगा	-5515
▁कुफ़्र	-5516
▁चित्रण	-5517
▁चीज़ों	-5518
▁छोड़ें	-5519
▁जहन्नम	-5520
▁डिग्री	-5521
▁तथ्यों	-5522
▁नवम्बर	-5523
▁परेशान	-5524
▁पहुँचे	-5525
▁पुकारा	-5526
▁पुरानी	-5527
▁प्रतिल	-5528
▁प्रांत	-5529
▁फरमाबर	-5530
▁फ्रांस	-5531
▁मिलेगा	-5532
▁यक़ीनी	-5533
▁वरिष्ठ	-5534
▁विष्णु	-5535
▁शिक्षक	-5536
▁शुरुआत	-5537
▁समझाने	-5538
▁सीमाओं	-5539
▁अनुग्रह	-5540
▁अपशिष्ट	-5541
▁आकर्षित	-5542
▁आजीविका	-5543
▁आपूर्ति	-5544
▁आरक्षित	-5545
▁आसमानों	-5546
▁उन्होने	-5547
▁उल्लंघन	-5548
▁औपचारिक	-5549
▁कर्नाटक	-5550
▁कविताओं	-5551
▁कारोबार	-5552
▁खिलाड़ी	-5553
▁गतिविधि	-5554
▁गुमराही	-5555
▁चिकित्स	-5556
▁जानवरों	-5557
▁टिप्पणी	-5558
▁पासवर्ड	-5559
▁प्रदूषण	-5560
▁प्रेरणा	-5561
▁प्रोटोक	-5562
▁भौगोलिक	-5563
▁मोमिनीन	-5564
▁विद्रोह	-5565
▁विनियमन	-5566
▁श्रेष्ठ	-5567
▁संदेशों	-5568
▁संवर्धन	-5569
▁सत्यापन	-5570
▁सम्पर्क	-5571
▁साथियों	-5572
▁स्रोतों	-5573
▁हार्दिक	-5574
▁अन्तर्गत	-5575
▁झुठलाओगे	-5576
▁डिफ़ॉल्ट	-5577
▁दीक्षांत	-5578
▁निष्कर्ष	-5579
▁पैरामीटर	-5580
▁प्रतिबंध	-5581
▁प्रवर्तन	-5582
▁ब्राह्मण	-5583
▁राजनैतिक	-5584
▁लानेवालो	-5585
▁वर्गीकरण	-5586
▁वैकल्पिक	-5587
▁व्यापारी	-5588
▁दस्तावेज़	-5589
▁व्यवस्थित	-5590
▁संग्रहालय	-5591
▁उपलब्धियों	-5592
▁प्रसंस्करण	-5593
▁फिलीस्तीनी	-5594
▁विद्यार्थी	-5595
▁कार्यान्वयन	-5596
▁रवीन्द्रनाथ	-5597
▁सफलतापूर्वक	-5598
▁प्राप्तकर्ता	-5599
.4	-5600
12	-5601
ET	-5602
SL	-5603
ch	-5604
ंठ	-5605
ंर	-5606
अल	-5607
कस	-5608
डन	-5609
तू	-5610
तृ	-5611
पो	-5612
मै	-5613
लॉ	-5614
वश	-5615
सो	-5616
ाफ	-5617
ीस	-5618
ेन	-5619
ैत	-5620
▁,	-5621
01.	-5622
hat	-5623
ंटा	-5624
ंटी	-5625
ंसी	-5626
आउट	-5627
कथा	-5628
कोप	-5629
गरी	-5630
गित	-5631
ग्स	-5632
ज़ल	-5633
टरी	-5634
टित	-5635
डकर	-5636
ढ़ा	-5637
तरे	-5638
तिश	-5639
थित	-5640
दरा	-5641
बाब	-5642
बीर	-5643
भोग	-5644
मंड	-5645
मुच	-5646
लाभ	-5647
वही	-5648
वीर	-5649
व्र	-5650
शनल	-5651
सूर	-5652
सेट	-5653
हक़	-5654
ांत	-5655
ाये	-5656
िमा	-5657
ेंड	-5658
ेटी	-5659
ोरा	-5660
ोहे	-5661
्टा	-5662
्यौ	-5663
▁(&	-5664
▁1,	-5665
▁42	-5666
▁अख	-5667
▁अट	-5668
▁खज	-5669
▁गू	-5670
▁चट	-5671
▁टा	-5672
▁तम	-5673
▁पच	-5674
▁बम	-5675
▁भु	-5676
▁सउ	-5677
▁सन	-5678
▁सल	-5679
▁हक	-5680
_01.	-5681
ंकार	-5682
ंकित	-5683
ंचाई	-5684
ंटों	-5685
एससी	-5686
क्कर	-5687
ख्ते	-5688
चिका	-5689
ज़िर	-5690
जैसे	-5691
तरों	-5692
दाओं	-5693
दादा	-5694
दिरा	-5695
बंदी	-5696
ब्बे	-5697
मेरे	-5698
रारत	-5699
रेशन	-5700
र्चे	-5701
र्ज़	-5702
र्रर	-5703
लांग	-5704
लैंड	-5705
शाही	-5706
श्रय	-5707
ष्णव	-5708
संगत	-5709
समें	-5710
सियत	-5711
स्तर	-5712
स्से	-5713
हिता	-5714
ार्क	-5715
िटेन	-5716
ूल्य	-5717
ेंसी	-5718
्रीम	-5719
्रोल	-5720
▁(3)	-5721
▁189	-5722
▁अमल	-5723
▁अलब	-5724
▁आइए	-5725
▁आएँ	-5726
▁उपे	-5727
▁कड़	-5728
▁कथन	-5729
▁खबर	-5730
▁गेह	-5731
▁चमक	-5732
▁चरम	-5733
▁छाप	-5734
▁जन्	-5735
▁जाल	-5736
▁जैव	-5737
▁डिप	-5738
▁ड्र	-5739
▁ढेर	-5740
▁तना	-5741
▁तिर	-5742
▁दूँ	-5743
▁देन	-5744
▁नयी	-5745
▁पडे	-5746
▁परत	-5747
▁पुत	-5748
▁फौज	-5749
▁बचत	-5750
▁बहा	-5751
▁भूत	-5752
▁महल	-5753
▁मुश	-5754
▁मौत	-5755
▁यूँ	-5756
▁वहन	-5757
▁वेद	-5758
▁सकल	-5759
▁सज्	-5760
▁सटी	-5761
▁सड़	-5762
▁साध	-5763
ंपरिक	-5764
क्तता	-5765
ख्वाह	-5766
गुज़र	-5767
दोनों	-5768
परस्त	-5769
ब्लिक	-5770
र्पित	-5771
वस्तु	-5772
स्पति	-5773
स्पर्	-5774
ात्मक	-5775
ेश्वर	-5776
▁(199	-5777
▁1957	-5778
▁1961	-5779
▁2004	-5780
▁2014	-5781
▁अनाज	-5782
▁अपरि	-5783
▁अरबी	-5784
▁अर्ज	-5785
▁असंग	-5786
▁अहले	-5787
▁आईटी	-5788
▁आखिर	-5789
▁आगमन	-5790
▁आबंट	-5791
▁ईरान	-5792
▁कचरा	-5793
▁कच्च	-5794
▁कराए	-5795
▁क़ाय	-5796
▁खड़ी	-5797
▁खतरे	-5798
▁ख़ौफ	-5799
▁गर्भ	-5800
▁गर्म	-5801
▁गीता	-5802
▁गुज़	-5803
▁ग्लो	-5804
▁घंटे	-5805
▁घुमा	-5806
▁चलने	-5807
▁चाहो	-5808
▁चीनी	-5809
▁चुनौ	-5810
▁छत्त	-5811
▁जन्न	-5812
▁जहाज	-5813
▁ट्री	-5814
▁तलाश	-5815
▁तुर्	-5816
▁दलों	-5817
▁दावा	-5818
▁दिलच	-5819
▁दोषी	-5820
▁धन्य	-5821
▁नौकर	-5822
▁पिला	-5823
▁पैके	-5824
▁पैसा	-5825
▁फ़ाय	-5826
▁फ्री	-5827
▁फ्रे	-5828
▁बाधा	-5829
▁बाबू	-5830
▁मारा	-5831
▁मुहर	-5832
▁मुहा	-5833
▁याची	-5834
▁रहकर	-5835
▁राजी	-5836
▁लगाए	-5837
▁लाना	-5838
▁वादी	-5839
▁वैसा	-5840
▁शिशु	-5841
▁सबका	-5842
▁समेक	-5843
▁साझे	-5844
▁साथी	-5845
▁स्की	-5846
▁हाथी	-5847
कलापों	-5848
ग्रस्त	-5849
दुल्ला	-5850
धिकारी	-5851
फ़ारिश	-5852
मंत्रण	-5853
ियरिंग	-5854
ुस्तान	-5855
ोजेक्ट	-5856
▁अदालत	-5857
▁आँखों	-5858
▁इबादत	-5859
▁इमारत	-5860
▁एजेंस	-5861
▁कमजोर	-5862
▁क़ाबू	-5863
▁किसान	-5864
▁कोर्ट	-5865
▁ख़त्म	-5866
▁ख्वाह	-5867
▁गरीबी	-5868
▁गुणों	-5869
▁छोड़ा	-5870
▁जयंती	-5871
▁जुड़ी	-5872
▁डालते	-5873
▁तीव्र	-5874
▁तीसरी	-5875
▁दरबार	-5876
▁दिव्य	-5877
▁दूँगा	-5878
▁देगें	-5879
▁निकाह	-5880
▁पशुओं	-5881
▁पिछली	-5882
▁पैरवी	-5883
▁प्रथा	-5884
▁फरवरी	-5885
▁फिल्म	-5886
▁बढ़ने	-5887
▁बाध्य	-5888
▁बाह्य	-5889
▁मजदूर	-5890
▁मजबूर	-5891
▁माहौल	-5892
▁लड़की	-5893
▁वार्म	-5894
▁विभेद	-5895
▁शरारत	-5896
▁संपदा	-5897
▁संभाल	-5898
▁सचमुच	-5899
▁सच्चा	-5900
▁सभाओं	-5901
▁सीआरए	-5902
▁सुनता	-5903
▁सुनने	-5904
▁सॉफ्ट	-5905
▁हज़ार	-5906
▁हार्ड	-5907
क्ष्यों	-5908
वासियों	-5909
व्यवहार	-5910
▁अग्रिम	-5911
▁अर्पित	-5912
▁आंकड़ा	-5913
▁आह्वान	-5914
▁उत्तरी	-5915
▁क़िस्म	-5916
▁क़ुबूल	-5917
▁कार्बन	-5918
▁कुशलता	-5919
▁क्रमशः	-5920
▁घनिष्ठ	-5921
▁चौड़ाई	-5922
▁ज़ुल्म	-5923
▁जादूगर	-5924
▁जानबूझ	-5925
▁ताकतों	-5926
▁तुम्हे	-5927
▁निवारण	-5928
▁प्रौढ़	-5929
▁प्लगइन	-5930
▁बढ़ाकर	-5931
▁भाइयों	-5932
▁युक्ति	-5933
▁राजस्व	-5934
▁राजाओं	-5935
▁रिश्ते	-5936
▁वर्णित	-5937
▁वार्ता	-5938
▁विद्या	-5939
▁विरोधी	-5940
▁संपादन	-5941
▁संवेदन	-5942
▁सभापति	-5943
▁समाहित	-5944
▁सेटिंग	-5945
▁स्मारक	-5946
▁हजारों	-5947
▁हैसियत	-5948
तुम्हारे	-5949
▁अमेरिकी	-5950
▁अलबत्ता	-5951
▁अस्थायी	-5952
▁क़ियामत	-5953
▁कानूनों	-5954
▁कोलकाता	-5955
▁छुटकारा	-5956
▁दरगुज़र	-5957
▁पसंदीदा	-5958
▁प्रेषित	-5959
▁मंदिरों	-5960
▁महाराजा	-5961
▁मुकाबले	-5962
▁मोहम्मद	-5963
▁यूरोपीय	-5964
▁रूपरेखा	-5965
▁वाक़िफ़	-5966
▁विभाजित	-5967
▁विविधता	-5968
▁विशेषकर	-5969
▁शिक्षित	-5970
▁संचालित	-5971
▁संशोधित	-5972
▁समकालीन	-5973
▁सुपुर्द	-5974
▁अनुमोदित	-5975
▁असामान्य	-5976
▁एक्सचेंज	-5977
▁क्षमाशील	-5978
▁तंत्रिका	-5979
▁पारंपरिक	-5980
▁प्रकाशना	-5981
▁प्रदर्शक	-5982
▁प्रावधान	-5983
▁फलस्वरूप	-5984
▁मस्तिष्क	-5985
▁मुक़ाबले	-5986
▁वार्मिंग	-5987
▁सामर्थ्य	-5988
राष्ट्रपति	-5989
▁1961-2018	-5990
▁अत्याचारी	-5991
▁अधिकारिता	-5992
▁अपीलार्थी	-5993
▁केन्द्रों	-5994
▁जाननेवाला	-5995
▁पाठ्यक्रम	-5996
▁प्रदर्शनी	-5997
▁प्रयोजनों	-5998
▁विद्वानों	-5999
▁विनिर्माण	-6000
▁विशेषताएं	-6001
▁साफ्टवेयर	-6002
▁स्क्रिप्ट	-6003
▁प्रतिष्ठित	-6004
▁प्रतिस्पर्	-6005
▁प्रयोगशाला	-6006
▁व्यक्तित्व	-6007
▁सामान्यतया	-6008
,%	-6009
-2	-6010
-4	-6011
-9	-6012
13	-6013
60	-6014
IN	-6015
ON	-6016
RO	-6017
ct	-6018
ef	-6019
li	-6020
ru	-6021
ub	-6022
ँव	-6023
ंछ	-6024
आस	-6025
कई	-6026
चय	-6027
जत	-6028
ठे	-6029
ड्	-6030
पत	-6031
फॉ	-6032
रन	-6033
षक	-6034
िद	-6035
ृश	-6036
ोद	-6037
्द	-6038
▁v	-6039
▁०	-6040
▁८	-6041
.06	-6042
AME	-6043
rat	-6044
ंती	-6045
ंधे	-6046
ंसद	-6047
इंड	-6048
उंट	-6049
क़े	-6050
चाप	-6051
चेत	-6052
जरत	-6053
जाम	-6054
ट्स	-6055
ठित	-6056
तरी	-6057
निस	-6058
पूर	-6059
पेट	-6060
प्स	-6061
फ़ि	-6062
बरा	-6063
बात	-6064
भिक	-6065
मरा	-6066
यरी	-6067
राक	-6068
रात	-6069
रोज	-6070
लेज	-6071
लोक	-6072
विन	-6073
वेद	-6074
षेध	-6075
ष्प	-6076
संप	-6077
साइ	-6078
सील	-6079
हाई	-6080
ांक	-6081
ालू	-6082
िटी	-6083
िणी	-6084
िरी	-6085
ीयर	-6086
ूनी	-6087
ूमत	-6088
ेषक	-6089
ोलर	-6090
▁(0	-6091
▁1/	-6092
▁2.	-6093
▁3.	-6094
▁UR	-6095
▁or	-6096
▁उछ	-6097
▁ओड	-6098
▁नद	-6099
▁नम	-6100
▁पड	-6101
▁फट	-6102
▁व्	-6103
▁सै	-6104
-#-#	-6105
ंडित	-6106
ंदगी	-6107
आईसी	-6108
एनआर	-6109
क्की	-6110
क्के	-6111
गर्भ	-6112
गैरह	-6113
ग्रा	-6114
जीवी	-6115
टकों	-6116
तन्य	-6117
दायक	-6118
दूरी	-6119
न्ता	-6120
पंथी	-6121
परता	-6122
प्रद	-6123
प्रा	-6124
बन्द	-6125
ब्लू	-6126
मानत	-6127
माला	-6128
य्या	-6129
र्नल	-6130
लीफ़	-6131
वाणी	-6132
वेशन	-6133
व्या	-6134
शुदा	-6135
सीमा	-6136
सीसी	-6137
स्टर	-6138
हाउस	-6139
ारसी	-6140
िगेट	-6141
िन्त	-6142
िरता	-6143
ुतोष	-6144
ुरूष	-6145
ुसार	-6146
ैक्ट	-6147
ैसले	-6148
्नों	-6149
्वाल	-6150
▁com	-6151
▁असर	-6152
▁आँक	-6153
▁आख़	-6154
▁आमद	-6155
▁इंत	-6156
▁उठे	-6157
▁उधर	-6158
▁एयर	-6159
▁कैश	-6160
▁कोण	-6161
▁खनन	-6162
▁ख़ा	-6163
▁घाट	-6164
▁घाव	-6165
▁चित	-6166
▁चुप	-6167
▁चेक	-6168
▁छंद	-6169
▁जुल	-6170
▁जॉन	-6171
▁टोक	-6172
▁डिब	-6173
▁तबा	-6174
▁धूम	-6175
▁नकद	-6176
▁नरे	-6177
▁नवी	-6178
▁नाक	-6179
▁नार	-6180
▁नाश	-6181
▁नुक	-6182
▁नोक	-6183
▁पर्	-6184
▁पूँ	-6185
▁पॉप	-6186
▁पोत	-6187
▁बढा	-6188
▁बुल	-6189
▁बेस	-6190
▁भरा	-6191
▁मंज	-6192
▁मक़	-6193
▁मेम	-6194
▁मैन	-6195
▁मॉड	-6196
▁लाई	-6197
▁लोप	-6198
▁वाद	-6199
▁वाम	-6200
▁सकी	-6201
▁हड़	-6202
▁हरा	-6203
▁हाई	-6204
▁हिम	-6205
▁१९९	-6206
कीज़ा	-6207
क्तिक	-6208
क्राम	-6209
चालित	-6210
द्रास	-6211
न्हीं	-6212
परेशन	-6213
बंधित	-6214
मार्ग	-6215
म्परा	-6216
यंत्र	-6217
र्कता	-6218
वाहित	-6219
व्यों	-6220
शुल्क	-6221
स्ट्र	-6222
हमारे	-6223
हारिक	-6224
ुक्ति	-6225
ेंद्र	-6226
ोत्सव	-6227
▁1950	-6228
▁1997	-6229
▁2011	-6230
▁2016	-6231
▁अनदे	-6232
▁अपार	-6233
▁अष्ट	-6234
▁आईडी	-6235
▁आजाद	-6236
▁इच्छ	-6237
▁इम्त	-6238
▁इल्म	-6239
▁ईसाई	-6240
▁उतनी	-6241
▁उद्ध	-6242
▁उन्म	-6243
▁ऊंचा	-6244
▁एकदम	-6245
▁कट्ट	-6246
▁कड़ी	-6247
▁क़िब	-6248
▁कार्	-6249
▁किर्	-6250
▁किस्	-6251
▁कैसी	-6252
▁खण्ड	-6253
▁ख़ुश	-6254
▁खोला	-6255
▁गुजर	-6256
▁गुरू	-6257
▁गोली	-6258
▁चट्ट	-6259
▁चलती	-6260
▁चालू	-6261
▁चावल	-6262
▁चाहा	-6263
▁जरिए	-6264
▁ज़रा	-6265
▁जाकर	-6266
▁डाली	-6267
▁ड्यू	-6268
▁ताकत	-6269
▁तात्	-6270
▁तारा	-6271
▁त्वर	-6272
▁दिमा	-6273
▁देगी	-6274
▁द्वि	-6275
▁नकदी	-6276
▁नामः	-6277
▁नेकी	-6278
▁पड़ो	-6279
▁परदा	-6280
▁पांड	-6281
▁पीने	-6282
▁पूजा	-6283
▁प्ला	-6284
▁फलों	-6285
▁फ़िर	-6286
▁बढ़े	-6287
▁बनकर	-6288
▁बनते	-6289
▁बादल	-6290
▁बोला	-6291
▁ब्रै	-6292
▁भड़क	-6293
▁भरने	-6294
▁भेंट	-6295
▁मदों	-6296
▁मधुम	-6297
▁मरने	-6298
▁मर्द	-6299
▁मादा	-6300
▁मीम॰	-6301
▁मॉडल	-6302
▁मोटे	-6303
▁रखकर	-6304
▁रखती	-6305
▁रहित	-6306
▁राज़	-6307
▁राधा	-6308
▁राहत	-6309
▁रिज़	-6310
▁रेगि	-6311
▁लेती	-6312
▁वरन्	-6313
▁वरीय	-6314
▁संगत	-6315
▁समझो	-6316
▁समाय	-6317
▁सलाम	-6318
▁सिंध	-6319
▁सीडी	-6320
▁सुले	-6321
▁स्वप	-6322
▁हरित	-6323
▁होटल	-6324
ंत्रिक	-6325
आर्थिक	-6326
क़यामत	-6327
क्षकों	-6328
क्साइड	-6329
ध्यक्ष	-6330
नात्मक	-6331
प्रकाश	-6332
प्रदेश	-6333
भ्रष्ट	-6334
वृद्धि	-6335
संख्यक	-6336
ाधिकार	-6337
▁अकादे	-6338
▁आबंटन	-6339
▁इंसान	-6340
▁उत्सव	-6341
▁उन्नत	-6342
▁उपाधि	-6343
▁एप्पल	-6344
▁कपड़े	-6345
▁कमेटी	-6346
▁करेंः	-6347
▁कहावत	-6348
▁कीजिए	-6349
▁कीटना	-6350
▁खातों	-6351
▁खोजें	-6352
▁चक्कर	-6353
▁चलाया	-6354
▁चाहें	-6355
▁चेन्न	-6356
▁छात्र	-6357
▁जापान	-6358
▁जितनी	-6359
▁जिहाद	-6360
▁जीवों	-6361
▁तकनीक	-6362
▁तीसरा	-6363
▁तौरेत	-6364
▁दर्जे	-6365
▁दशकों	-6366
▁द्विप	-6367
▁धारणा	-6368
▁नमूने	-6369
▁नहरें	-6370
▁निगाह	-6371
▁नेशनल	-6372
▁पंडित	-6373
▁पड़ती	-6374
▁पड़ते	-6375
▁पीड़ा	-6376
▁पैकेज	-6377
▁फायदे	-6378
▁बग़ैर	-6379
▁बताता	-6380
▁बनाता	-6381
▁बोलते	-6382
▁भागने	-6383
▁महान्	-6384
▁मानों	-6385
▁यहूदी	-6386
▁यूसुफ	-6387
▁रवाना	-6388
▁लगाकर	-6389
▁लड़ने	-6390
▁लिखें	-6391
▁वापसी	-6392
▁विघटन	-6393
▁विधाय	-6394
▁विलोप	-6395
▁वृत्त	-6396
▁शत्रु	-6397
▁शान्त	-6398
▁शिष्य	-6399
▁शैतान	-6400
▁संकलन	-6401
▁संप्र	-6402
▁समापन	-6403
▁सारणी	-6404
▁सुनते	-6405
▁सुनाई	-6406
▁सैनिक	-6407
▁स्विच	-6408
▁होंगी	-6409
ंतिकारी	-6410
दायित्व	-6411
न्होंने	-6412
▁अतिमान	-6413
▁अधिकरण	-6414
▁अधिकृत	-6415
▁अन्यथा	-6416
▁अन्याय	-6417
▁अर्थात	-6418
▁अवज्ञा	-6419
▁अवसरों	-6420
▁आकर्षण	-6421
▁आशुतोष	-6422
▁इजाज़त	-6423
▁इज्ज़त	-6424
▁एकीकृत	-6425
▁क़समें	-6426
▁ग्रन्थ	-6427
▁ग्लोबल	-6428
▁चैतन्य	-6429
▁जोड़ने	-6430
▁ज्ञापन	-6431
▁टुकड़ा	-6432
▁टुकड़े	-6433
▁तत्काल	-6434
▁तत्त्व	-6435
▁तुर्की	-6436
▁दृढ़ता	-6437
▁नदियों	-6438
▁नवाचार	-6439
▁निकाले	-6440
▁निष्ठा	-6441
▁फ़िल्म	-6442
▁बढ़ाया	-6443
▁बादशाह	-6444
▁माइक्र	-6445
▁मुहैया	-6446
▁वस्तुत	-6447
▁विद्वत	-6448
▁वैष्णव	-6449
▁शर्तें	-6450
▁शर्तों	-6451
▁संहिता	-6452
▁सकेंगे	-6453
▁सच्चाई	-6454
▁सड़कों	-6455
▁सन्तान	-6456
▁समन्दर	-6457
▁सिंचाई	-6458
▁सेक्टर	-6459
▁स्टेशन	-6460
▁स्थगित	-6461
▁अक्तूबर	-6462
▁अनुभूति	-6463
▁अनुसूची	-6464
▁आश्वासन	-6465
▁उपकरणों	-6466
▁उपेक्षा	-6467
▁कूटशब्द	-6468
▁कोविन्द	-6469
▁गांधीजी	-6470
▁चाहूंगा	-6471
▁चाहेंगे	-6472
▁डेलिगेट	-6473
▁दक्षिणी	-6474
▁नर्सिंग	-6475
▁निकालने	-6476
▁परिश्रम	-6477
▁पाकीज़ा	-6478
▁पूर्णतः	-6479
▁प्रवासी	-6480
▁प्रस्तु	-6481
▁प्रान्त	-6482
▁फ़ाइलें	-6483
▁फ़ाइलों	-6484
▁बौद्धिक	-6485
▁ब्रिटेन	-6486
▁महामारी	-6487
▁मुलाकात	-6488
▁रिकार्ड	-6489
▁विकलांग	-6490
▁विभागों	-6491
▁विवेकान	-6492
▁शास्त्र	-6493
▁संकेतों	-6494
▁संबोधित	-6495
▁सतर्कता	-6496
▁समर्पित	-6497
▁सम्पन्न	-6498
▁सरपरस्त	-6499
▁सशस्त्र	-6500
▁उपभोक्ता	-6501
▁काफ़िरों	-6502
▁किलोमीटर	-6503
▁केंद्रों	-6504
▁ग्राहकों	-6505
▁चित्रकला	-6506
▁निमंत्रण	-6507
▁पक्षियों	-6508
▁परिवारों	-6509
▁प्रतिदान	-6510
▁प्रबन्धन	-6511
▁प्रश्नों	-6512
▁बस्तियों	-6513
▁मनुष्यों	-6514
▁मुक़र्रर	-6515
▁सिफ़ारिश	-6516
▁अंग्रेजों	-6517
▁अब्दुल्ला	-6518
▁अभिव्यक्त	-6519
▁ईमानवालों	-6520
▁उपर्युक्त	-6521
▁उल्लेखनीय	-6522
▁कठिनाइयों	-6523
▁कार्यकारी	-6524
▁निशानियों	-6525
▁प्रतिभूति	-6526
▁प्रतिवर्ष	-6527
▁प्रतिवादी	-6528
▁प्रविष्टि	-6529
▁प्रोजेक्ट	-6530
▁शास्त्रीय	-6531
▁संस्थापित	-6532
▁सम्बन्धित	-6533
▁सॉफ्टवेयर	-6534
▁हार्डवेयर	-6535
▁महाराष्ट्र	-6536
▁व्यावहारिक	-6537
▁व्युत्पन्न	-6538
▁इंजीनियरिंग	-6539
▁क्रांतिकारी	-6540
▁रजिस्ट्रीकृत	-6541
................	-6542
);	-6543
14	-6544
17	-6545
25	-6546
AR	-6547
AT	-6548
IC	-6549
ML	-6550
\\	-6551
ay	-6552
eg	-6553
ex	-6554
ey	-6555
ff	-6556
ge	-6557
mb	-6558
ng	-6559
nu	-6560
oo	-6561
un	-6562
ंघ	-6563
अन	-6564
कै	-6565
चु	-6566
तव	-6567
पय	-6568
पृ	-6569
फि	-6570
बन	-6571
रह	-6572
लभ	-6573
शै	-6574
सह	-6575
▁ष	-6576
.03	-6577
.04	-6578
.11	-6579
err	-6580
ice	-6581
ion	-6582
ist	-6583
ore	-6584
ँचा	-6585
ँचे	-6586
ंघा	-6587
ंपा	-6588
कंप	-6589
काय	-6590
किम	-6591
क्क	-6592
ख़ी	-6593
ज्ज	-6594
ठार	-6595
डेट	-6596
डों	-6597
णिक	-6598
तीं	-6599
थान	-6600
दाद	-6601
दाम	-6602
दिश	-6603
दुल	-6604
द्घ	-6605
ध्व	-6606
नाई	-6607
नेस	-6608
न्च	-6609
न्ड	-6610
परा	-6611
पाइ	-6612
पाट	-6613
पेश	-6614
फ़त	-6615
फ़ा	-6616
बली	-6617
बाज	-6618
बीच	-6619
भास	-6620
मेर	-6621
मैन	-6622
राव	-6623
रेब	-6624
लाइ	-6625
वाब	-6626
विस	-6627
शकर	-6628
शित	-6629
सन्	-6630
सम्	-6631
साई	-6632
िनल	-6633
िशा	-6634
ुखी	-6635
ूलन	-6636
ूली	-6637
ेयर	-6638
ोलो	-6639
्मा	-6640
▁33	-6641
▁48	-6642
▁85	-6643
▁re	-6644
▁इल	-6645
▁कू	-6646
▁खि	-6647
▁घन	-6648
▁छः	-6649
▁जॉ	-6650
▁झि	-6651
▁टो	-6652
▁डै	-6653
▁डो	-6654
▁दम	-6655
▁नल	-6656
▁पन	-6657
▁फु	-6658
▁बग	-6659
▁यथ	-6660
▁हॉ	-6661
▁हौ	-6662
▁२०	-6663
ella	-6664
onst	-6665
ंकृत	-6666
इयां	-6667
उसका	-6668
कलाप	-6669
खण्ड	-6670
खाने	-6671
चाने	-6672
ज़ख़	-6673
ज़ाम	-6674
टिंग	-6675
डिंग	-6676
डीपी	-6677
ड्डे	-6678
ताअत	-6679
तिपय	-6680
त्ते	-6681
दिता	-6682
द्दत	-6683
द्दा	-6684
धीरे	-6685
नाडु	-6686
न्तर	-6687
पानी	-6688
पूरा	-6689
प्रो	-6690
फ़िर	-6691
फिक़	-6692
बंधन	-6693
बंधी	-6694
ब्रे	-6695
मायण	-6696
माही	-6697
याबी	-6698
रचना	-6699
राबी	-6700
रिवा	-6701
रेटर	-6702
र्दू	-6703
र्मा	-6704
लाइड	-6705
लेखा	-6706
ल्लम	-6707
वसीय	-6708
वानि	-6709
व्यय	-6710
शनिक	-6711
शिंग	-6712
सायन	-6713
सीबत	-6714
सीयत	-6715
हारी	-6716
हाली	-6717
ारों	-6718
िकरण	-6719
ियरी	-6720
ीनों	-6721
ुम्ब	-6722
्राव	-6723
्रेट	-6724
▁115	-6725
▁अंड	-6726
▁अटक	-6727
▁अम्	-6728
▁असल	-6729
▁आमा	-6730
▁ईंट	-6731
▁उपज	-6732
▁एजे	-6733
▁ऑंख	-6734
▁कंट	-6735
▁कमल	-6736
▁करु	-6737
▁केस	-6738
▁कैं	-6739
▁कोर	-6740
▁क्य	-6741
▁खनि	-6742
▁ख्व	-6743
▁गहन	-6744
▁घटक	-6745
▁घेर	-6746
▁चिर	-6747
▁छोर	-6748
▁जगत	-6749
▁जीत	-6750
▁झील	-6751
▁ठहर	-6752
▁त्व	-6753
▁दली	-6754
▁दास	-6755
▁दिस	-6756
▁धूप	-6757
▁नज़	-6758
▁निम	-6759
▁पटल	-6760
▁पते	-6761
▁परस	-6762
▁पॉल	-6763
▁प्य	-6764
▁बसा	-6765
▁बहन	-6766
▁बेन	-6767
▁भंग	-6768
▁मरा	-6769
▁मसी	-6770
▁मेघ	-6771
▁मेट	-6772
▁मेह	-6773
▁रसी	-6774
▁रहम	-6775
▁लाओ	-6776
▁लिप	-6777
▁लूत	-6778
▁विय	-6779
▁वीर	-6780
▁सघन	-6781
▁सतत	-6782
▁सत्	-6783
▁समू	-6784
▁सरो	-6785
▁सहे	-6786
▁हमे	-6787
▁हला	-6788
▁हिल	-6789
ंदर्य	-6790
कार्ड	-6791
गरानी	-6792
च्छिक	-6793
जहन्न	-6794
ज्ञाप	-6795
तायात	-6796
थियों	-6797
दाश्त	-6798
दिग्ध	-6799
द्वार	-6800
धानिक	-6801
न्देह	-6802
पत्ति	-6803
पुरुष	-6804
पोर्ट	-6805
प्रथम	-6806
मुक्त	-6807
लीकरण	-6808
ल्कों	-6809
शिल्प	-6810
स्तीन	-6811
स्फोट	-6812
हमारी	-6813
िश्ता	-6814
ीसगढ़	-6815
ॉक्सी	-6816
▁1956	-6817
▁1999	-6818
▁2002	-6819
▁2019	-6820
▁2020	-6821
▁अंतः	-6822
▁अकार	-6823
▁अर्ध	-6824
▁आघात	-6825
▁आपसे	-6826
▁आमाल	-6827
▁आराम	-6828
▁इनको	-6829
▁इनसे	-6830
▁इलाज	-6831
▁इसपर	-6832
▁ईंधन	-6833
▁उभार	-6834
▁ऊँची	-6835
▁ऊंची	-6836
▁एमएस	-6837
▁एल्ग	-6838
▁कर्ज	-6839
▁किला	-6840
▁किले	-6841
▁केरल	-6842
▁क्रो	-6843
▁खजूर	-6844
▁खींच	-6845
▁गद्य	-6846
▁गुफा	-6847
▁गोया	-6848
▁गोला	-6849
▁चर्च	-6850
▁चलकर	-6851
▁जरुर	-6852
▁ज़ोर	-6853
▁झोंक	-6854
▁ड्रा	-6855
▁दायर	-6856
▁देखी	-6857
▁धारक	-6858
▁ध्वज	-6859
▁नस्ल	-6860
▁निधन	-6861
▁नेमत	-6862
▁पादप	-6863
▁फेरा	-6864
▁फैली	-6865
▁फ्लै	-6866
▁बंबई	-6867
▁बचपन	-6868
▁बाएँ	-6869
▁बाढ़	-6870
▁बीते	-6871
▁बेहद	-6872
▁भीड़	-6873
▁भेजी	-6874
▁मातृ	-6875
▁मीरा	-6876
▁मुख़	-6877
▁मोहन	-6878
▁म्यू	-6879
▁रचित	-6880
▁रानी	-6881
▁रूचि	-6882
▁लगाई	-6883
▁लशकर	-6884
▁लाएँ	-6885
▁लोहे	-6886
▁वैसे	-6887
▁शोषण	-6888
▁संकु	-6889
▁संगण	-6890
▁संचय	-6891
▁सउदी	-6892
▁सफ़र	-6893
▁समझी	-6894
▁सरकश	-6895
▁सहभा	-6896
▁सिरे	-6897
▁सीखा	-6898
▁स्वे	-6899
▁हरेक	-6900
▁हाइड	-6901
क्ताओं	-6902
तिक्रम	-6903
त्मकता	-6904
दराबाद	-6905
दृष्टि	-6906
धारकों	-6907
पत्रों	-6908
पश्चिम	-6909
पूर्ति	-6910
ब्रेरी	-6911
ुदायिक	-6912
▁अंततः	-6913
▁अकेले	-6914
▁अनधिक	-6915
▁अफसोस	-6916
▁अर्जन	-6917
▁अवकाश	-6918
▁आँखें	-6919
▁आमदनी	-6920
▁इंग्ल	-6921
▁इताअत	-6922
▁उठाना	-6923
▁उत्पी	-6924
▁उपदेश	-6925
▁उपभोग	-6926
▁ऊंचाई	-6927
▁ऊतकों	-6928
▁कट्टर	-6929
▁कतिपय	-6930
▁कपड़ा	-6931
▁कहेगा	-6932
▁क़रीब	-6933
▁क़ायम	-6934
▁कारगर	-6935
▁कालेज	-6936
▁कीटों	-6937
▁कुदरत	-6938
▁कुफ्र	-6939
▁कुबूल	-6940
▁खुदाई	-6941
▁खेतों	-6942
▁गर्भा	-6943
▁गहराई	-6944
▁ग्रीन	-6945
▁ज़कात	-6946
▁जानने	-6947
▁जितने	-6948
▁जैविक	-6949
▁जोड़ी	-6950
▁झगड़ा	-6951
▁झाड़ी	-6952
▁ढांचा	-6953
▁तसबीह	-6954
▁तीर्थ	-6955
▁दरिया	-6956
▁दुकान	-6957
▁निकले	-6958
▁निकास	-6959
▁निभाई	-6960
▁निरूप	-6961
▁नेअमत	-6962
▁पकड़ा	-6963
▁पढ़ें	-6964
▁परिपथ	-6965
▁पाओगे	-6966
▁पार्क	-6967
▁पुण्य	-6968
▁पुरूष	-6969
▁पूछने	-6970
▁पूछें	-6971
▁प्रिय	-6972
▁प्रेस	-6973
▁फ्रेम	-6974
▁बनायी	-6975
▁बहनों	-6976
▁ब्लॉक	-6977
▁भरपूर	-6978
▁भेजना	-6979
▁मानना	-6980
▁मारने	-6981
▁रखेगा	-6982
▁रहेगी	-6983
▁राजपू	-6984
▁राज़ी	-6985
▁रूपये	-6986
▁लंबाई	-6987
▁लम्बे	-6988
▁लाभों	-6989
▁लिखना	-6990
▁वगैरह	-6991
▁वसीयत	-6992
▁वारिस	-6993
▁विकृत	-6994
▁शिष्ट	-6995
▁संघीय	-6996
▁संदाय	-6997
▁सकताः	-6998
▁सच्ची	-6999
▁सम्भव	-7000
▁सूचित	-7001
▁स्मरण	-7002
▁हटाने	-7003
▁हरिया	-7004
▁हिंदी	-7005
▁होस्ट	-7006
क्तियां	-7007
दर्शिता	-7008
प्राप्त	-7009
फ़रमानी	-7010
विश्वास	-7011
ष्टाचार	-7012
ार्शनिक	-7013
िश्रमिक	-7014
▁अंतराल	-7015
▁अनुस्म	-7016
▁अन्तर्	-7017
▁अप्रिय	-7018
▁अर्जित	-7019
▁असंख्य	-7020
▁आईआईटी	-7021
▁आउटपुट	-7022
▁आख़ेरत	-7023
▁आचार्य	-7024
▁आलोचना	-7025
▁इच्छुक	-7026
▁इनसाफ़	-7027
▁इसराईल	-7028
▁उद्यमी	-7029
▁उपायों	-7030
▁एकाग्र	-7031
▁कदाचित	-7032
▁कीटनाश	-7033
▁कृतज्ञ	-7034
▁चीज़ें	-7035
▁ज़रूरत	-7036
▁जायेगी	-7037
▁जिन्ना	-7038
▁जोड़ना	-7039
▁ट्रांस	-7040
▁ढूंढने	-7041
▁तकलीफ़	-7042
▁तात्या	-7043
▁त्वरित	-7044
▁दयावान	-7045
▁दरवाजे	-7046
▁दिखाना	-7047
▁दिलाने	-7048
▁नज़दीक	-7049
▁नदियाँ	-7050
▁नारायण	-7051
▁निवेदन	-7052
▁नीतिगत	-7053
▁नुकसान	-7054
▁पीड़ित	-7055
▁पुनर्व	-7056
▁पूर्वो	-7057
▁प्रणाल	-7058
▁प्रलेख	-7059
▁बिन्दु	-7060
▁बैठकें	-7061
▁मद्रास	-7062
▁मरम्मत	-7063
▁मिटाना	-7064
▁मिलाकर	-7065
▁मुद्दे	-7066
▁याचिका	-7067
▁युवाओं	-7068
▁रामायण	-7069
▁रेडियो	-7070
▁लाएँगे	-7071
▁लेखकों	-7072
▁लैंगिक	-7073
▁लोकसभा	-7074
▁वरीयता	-7075
▁विकिरण	-7076
▁विनम्र	-7077
▁विनिमय	-7078
▁शाखाओं	-7079
▁शुरूआत	-7080
▁शृंखला	-7081
▁समावेश	-7082
▁सांख्य	-7083
▁सितंबर	-7084
▁सृष्टि	-7085
▁सेवानि	-7086
▁स्तरीय	-7087
▁स्तरों	-7088
▁स्वप्न	-7089
▁स्वर्ण	-7090
▁हाज़िर	-7091
▁हुकूमत	-7092
ellation	-7093
ंग्लादेश	-7094
प्रदायिक	-7095
▁अकादेमी	-7096
▁अनिवासी	-7097
▁अनुभवों	-7098
▁आधारभूत	-7099
▁इकाइयों	-7100
▁किताबें	-7101
▁कुफ्फार	-7102
▁कृत्यों	-7103
▁जायेंगे	-7104
▁त्रुटिः	-7105
▁देखेंगे	-7106
▁निकालते	-7107
▁निगरानी	-7108
▁नीतियां	-7109
▁पंजीकृत	-7110
▁परिषदों	-7111
▁पात्रों	-7112
▁पेट्रोल	-7113
▁प्रचालन	-7114
▁प्रतिफल	-7115
▁प्रतिबि	-7116
▁प्रशांत	-7117
▁बुनियाद	-7118
▁बैंकिंग	-7119
▁यातायात	-7120
▁रिज़र्व	-7121
▁वनस्पति	-7122
▁वस्तुतः	-7123
▁वायुयान	-7124
▁विदेशों	-7125
▁विस्फोट	-7126
▁संकीर्ण	-7127
▁संक्षेप	-7128
▁संग्रहण	-7129
▁संग्राम	-7130
▁सम्बद्ध	-7131
▁साक्ष्य	-7132
▁सुलेमान	-7133
▁सौंदर्य	-7134
▁स्वदेशी	-7135
▁स्वीकृत	-7136
▁अतिथियों	-7137
▁अधिग्रहण	-7138
▁अधिवक्ता	-7139
▁अनुसूचित	-7140
▁आकांक्षा	-7141
▁आस्तियों	-7142
▁उपलब्धता	-7143
▁कहानियाँ	-7144
▁जानबूझकर	-7145
▁तत्कालीन	-7146
▁दस्तावेज	-7147
▁नरेन्द्र	-7148
▁निःशुल्क	-7149
▁पथभ्रष्ट	-7150
▁परंपरागत	-7151
▁प्रतिकूल	-7152
▁प्रदेशों	-7153
▁प्रविष्ट	-7154
▁प्रेमचंद	-7155
▁प्रॉक्सी	-7156
▁ब्राउज़र	-7157
▁विकासशील	-7158
▁शिक्षकों	-7159
▁शैक्षणिक	-7160
▁सत्यापित	-7161
▁सद्भावना	-7162
▁समितियों	-7163
▁स्वचालित	-7164
▁हैदराबाद	-7165
▁translate	-7166
▁अध्यक्षता	-7167
▁क्षेत्रफल	-7168
▁छत्तीसगढ़	-7169
▁नकारात्मक	-7170
▁निर्देशों	-7171
▁पद्धतियों	-7172
▁पारिस्थित	-7173
▁प्रतिलिपि	-7174
▁प्रोटोकॉल	-7175
▁लाइब्रेरी	-7176
▁वाणिज्यिक	-7177
▁विवेकानंद	-7178
▁संवेदनशील	-7179
▁सामुदायिक	-7180
▁सिद्धान्त	-7181
▁सुपुर्दगी	-7182
▁हस्तक्षेप	-7183
▁अपेक्षाकृत	-7184
▁उत्कृष्टता	-7185
▁उपयोगकर्ता	-7186
▁कार्यालयों	-7187
▁दस्तावेजों	-7188
▁परिवर्तनों	-7189
▁पर्यावरणीय	-7190
▁भ्रष्टाचार	-7191
onstellation	-7192
▁कार्यपालिका	-7193
▁विशेषाधिकार	-7194
▁श्रद्धांजलि	-7195
▁उत्तरदायित्व	-7196
-8	-7197
.%	-7198
.9	-7199
18	-7200
22	-7201
39	-7202
56	-7203
68	-7204
70	-7205
80	-7206
AP	-7207
OM	-7208
af	-7209
ew	-7210
ig	-7211
nd	-7212
pe	-7213
ps	-7214
ut	-7215
¤	-7216
इफ	-7217
ईए	-7218
एच	-7219
कख	-7220
डू	-7221
णे	-7222
थे	-7223
दह	-7224
नज	-7225
पद	-7226
फु	-7227
फू	-7228
रद	-7229
रव	-7230
रस	-7231
रू	-7232
हद	-7233
है	-7234
िव	-7235
ोई	-7236
।-	-7237
१०	-7238
▁o	-7239
▁r	-7240
-11	-7241
.05	-7242
500	-7243
ers	-7244
erv	-7245
hel	-7246
ome	-7247
ont	-7248
ंदी	-7249
ंसक	-7250
आईओ	-7251
इसी	-7252
इस्	-7253
उजी	-7254
एमई	-7255
कोष	-7256
खिक	-7257
गरण	-7258
गिक	-7259
जपे	-7260
जुल	-7261
टने	-7262
टीय	-7263
डीए	-7264
ड्स	-7265
तको	-7266
तला	-7267
ताछ	-7268
तीस	-7269
त्ल	-7270
दीव	-7271
नया	-7272
पत्	-7273
फलक	-7274
फ़ी	-7275
भंग	-7276
भवी	-7277
भीत	-7278
भुत	-7279
महल	-7280
महा	-7281
माद	-7282
यता	-7283
याद	-7284
लित	-7285
लिन	-7286
लीस	-7287
ल्य	-7288
ल्ह	-7289
वात	-7290
वित	-7291
शनी	-7292
शास	-7293
शिप	-7294
शोर	-7295
ष्म	-7296
संघ	-7297
सरत	-7298
ाइन	-7299
ायन	-7300
ियस	-7301
ियॉ	-7302
ुलर	-7303
ुवा	-7304
ूबी	-7305
ोरम	-7306
ोरि	-7307
ोलॉ	-7308
ौरन	-7309
्ये	-7310
्रय	-7311
्रि	-7312
्रु	-7313
▁07	-7314
▁34	-7315
▁45	-7316
▁5.	-7317
▁60	-7318
▁64	-7319
▁90	-7320
▁CD	-7321
▁HT	-7322
▁II	-7323
▁it	-7324
▁अय	-7325
▁एर	-7326
▁ओं	-7327
▁ओल	-7328
▁घण	-7329
▁घि	-7330
▁टि	-7331
▁ठे	-7332
▁ढ़	-7333
▁थै	-7334
▁नज	-7335
▁मण	-7336
▁रम	-7337
▁लख	-7338
▁लड	-7339
▁वॉ	-7340
▁हू	-7341
▁१०	-7342
ener	-7343
olor	-7344
ंबित	-7345
आपको	-7346
उसकी	-7347
ऊंगा	-7348
कर्म	-7349
कहीं	-7350
क़ात	-7351
काएँ	-7352
काया	-7353
ख़लू	-7354
खुदा	-7355
गोया	-7356
चानक	-7357
चाना	-7358
ज़ों	-7359
णुओं	-7360
ण्डल	-7361
त्रि	-7362
द्दी	-7363
न्दे	-7364
पक्ष	-7365
पर्य	-7366
प्ति	-7367
प्ले	-7368
फाइल	-7369
फेसर	-7370
बड़े	-7371
बानी	-7372
बारी	-7373
बिया	-7374
बूती	-7375
ब्बा	-7376
भांश	-7377
यानि	-7378
यालम	-7379
रहित	-7380
रापन	-7381
राशि	-7382
रोहर	-7383
र्णय	-7384
र्मी	-7385
र्वक	-7386
र्वर	-7387
लिंग	-7388
वाया	-7389
विंद	-7390
शियन	-7391
श्मन	-7392
षंगी	-7393
सिंग	-7394
सिंह	-7395
सिडी	-7396
सेना	-7397
सेरो	-7398
स्का	-7399
हमने	-7400
हवीं	-7401
हायत	-7402
ायें	-7403
ारिज	-7404
ार्ट	-7405
िकार	-7406
िकुड	-7407
िदेश	-7408
िपुर	-7409
ियाद	-7410
ुरुप	-7411
ूँकि	-7412
ेरों	-7413
्ट्र	-7414
्तनत	-7415
्राट	-7416
्रेक	-7417
▁(10	-7418
▁190	-7419
▁{0}	-7420
▁अमन	-7421
▁अमर	-7422
▁अलं	-7423
▁अवय	-7424
▁अवल	-7425
▁आदर	-7426
▁आरा	-7427
▁आवि	-7428
▁उज़	-7429
▁ऊतक	-7430
▁एना	-7431
▁एम्	-7432
▁कमर	-7433
▁कम्	-7434
▁करम	-7435
▁काब	-7436
▁कोय	-7437
▁गिन	-7438
▁गुट	-7439
▁घाय	-7440
▁घुट	-7441
▁चश्	-7442
▁चाँ	-7443
▁चुक	-7444
▁चूक	-7445
▁जमी	-7446
▁जमे	-7447
▁जोड	-7448
▁झुक	-7449
▁झेल	-7450
▁ठाक	-7451
▁डरो	-7452
▁ढूँ	-7453
▁ढोल	-7454
▁तंग	-7455
▁तिल	-7456
▁दंत	-7457
▁दिश	-7458
▁दुर	-7459
▁दृश	-7460
▁धान	-7461
▁नकल	-7462
▁नक्	-7463
▁निध	-7464
▁निप	-7465
▁पोल	-7466
▁फुट	-7467
▁फूँ	-7468
▁फूट	-7469
▁फोक	-7470
▁बंध	-7471
▁बख़	-7472
▁बडा	-7473
▁बनो	-7474
▁बलि	-7475
▁बहस	-7476
▁बहि	-7477
▁बां	-7478
▁बिच	-7479
▁बिन	-7480
▁बीस	-7481
▁भूख	-7482
▁मत्	-7483
▁मरी	-7484
▁माय	-7485
▁मीन	-7486
▁मुअ	-7487
▁मेज	-7488
▁मैच	-7489
▁मॉँ	-7490
▁रंज	-7491
▁रघु	-7492
▁रिट	-7493
▁रुक	-7494
▁रूस	-7495
▁रेट	-7496
▁लार	-7497
▁लाह	-7498
▁वशी	-7499
▁वान	-7500
▁विज	-7501
▁वैय	-7502
▁शान	-7503
▁सको	-7504
▁सती	-7505
▁सरी	-7506
▁सल्	-7507
▁सहन	-7508
▁हकी	-7509
▁हेल	-7510
▁ह्य	-7511
.2014	-7512
ather	-7513
ction	-7514
error	-7515
उजीजी	-7516
क़रार	-7517
कुमार	-7518
क्टरी	-7519
ख्तों	-7520
चंद्र	-7521
चरिता	-7522
जपेयी	-7523
तिकला	-7524
तूतों	-7525
दाबाद	-7526
द्दीन	-7527
धिकरण	-7528
ध्याय	-7529
नीयता	-7530
पट्टी	-7531
पत्नी	-7532
पात्र	-7533
फ़िक़	-7534
फ़िगर	-7535
भक्ति	-7536
महिला	-7537
वास्त	-7538
विशेष	-7539
शक्ति	-7540
सूचना	-7541
होंने	-7542
ारिका	-7543
िपुरा	-7544
ेंट्स	-7545
ेशनों	-7546
्यारह	-7547
▁2003	-7548
▁2015	-7549
▁2018	-7550
▁अज़ी	-7551
▁अद्व	-7552
▁अन्व	-7553
▁अभ्य	-7554
▁अमान	-7555
▁अविल	-7556
▁आयकर	-7557
▁इनकी	-7558
▁इष्ट	-7559
▁इसमे	-7560
▁ईस्ट	-7561
▁उपयु	-7562
▁ऊँचे	-7563
▁एकड़	-7564
▁एण्ड	-7565
▁कमरे	-7566
▁कलाम	-7567
▁कश्त	-7568
▁क़ाब	-7569
▁कुशा	-7570
▁कृपा	-7571
▁क्लब	-7572
▁क्षे	-7573
▁गलती	-7574
▁गवर्	-7575
▁गहरे	-7576
▁गाँव	-7577
▁गिना	-7578
▁गुणा	-7579
▁गोरा	-7580
▁घुड़	-7581
▁चंडी	-7582
▁चन्द	-7583
▁चमत्	-7584
▁चार्	-7585
▁चेता	-7586
▁चौथा	-7587
▁छपाई	-7588
▁छिपी	-7589
▁छिपे	-7590
▁जुर्	-7591
▁ज्वर	-7592
▁झाड़	-7593
▁झूठा	-7594
▁झूठे	-7595
▁टर्म	-7596
▁डालर	-7597
▁तिरु	-7598
▁दबाव	-7599
▁दौड़	-7600
▁धोखा	-7601
▁ध्रु	-7602
▁नामा	-7603
▁पचास	-7604
▁पावर	-7605
▁पुरी	-7606
▁पूछे	-7607
▁पूछो	-7608
▁पेशी	-7609
▁पेशे	-7610
▁फर्क	-7611
▁फर्ज	-7612
▁फ़ोन	-7613
▁फैले	-7614
▁बचने	-7615
▁बचाव	-7616
▁बढ़ी	-7617
▁बर्फ	-7618
▁बाएं	-7619
▁बालक	-7620
▁बेख़	-7621
▁बेटी	-7622
▁बेपर	-7623
▁बैठा	-7624
▁ब्रह	-7625
▁भरें	-7626
▁भागे	-7627
▁मन्द	-7628
▁मरना	-7629
▁मरयम	-7630
▁मेटा	-7631
▁मेनू	-7632
▁मोटर	-7633
▁मोटी	-7634
▁यज्ञ	-7635
▁यहीं	-7636
▁यहूद	-7637
▁योनि	-7638
▁राज्	-7639
▁लंदन	-7640
▁लकीर	-7641
▁लाठी	-7642
▁लिपि	-7643
▁लेबल	-7644
▁लोका	-7645
▁वक्र	-7646
▁वर्क	-7647
▁विधा	-7648
▁विला	-7649
▁विषा	-7650
▁शांत	-7651
▁शासक	-7652
▁शाही	-7653
▁शोभा	-7654
▁शौहर	-7655
▁सकाः	-7656
▁सचेत	-7657
▁सटीक	-7658
▁सदृश	-7659
▁सबकी	-7660
▁सीधा	-7661
▁सुगम	-7662
▁सुल्	-7663
▁सूजन	-7664
▁सेंट	-7665
▁सोने	-7666
▁स्तन	-7667
▁स्या	-7668
▁हमको	-7669
▁हमपर	-7670
▁हुईं	-7671
▁होली	-7672
eneric	-7673
कात्मक	-7674
क्रामक	-7675
क्सीजन	-7676
गुज़ार	-7677
पीडीएफ	-7678
भारतीय	-7679
यात्रा	-7680
रेटिंग	-7681
स्फीयर	-7682
स्वामी	-7683
्योंकि	-7684
्रेडिट	-7685
▁अंगों	-7686
▁अंतर्	-7687
▁अगरचे	-7688
▁अगलों	-7689
▁अचानक	-7690
▁अधिनि	-7691
▁अनन्त	-7692
▁अनन्य	-7693
▁अनुया	-7694
▁अर्ज़	-7695
▁अलिफ़	-7696
▁अवरोध	-7697
▁असत्य	-7698
▁आजादी	-7699
▁इन्ते	-7700
▁ऊँचाई	-7701
▁एख्ते	-7702
▁एहसान	-7703
▁ओडिशा	-7704
▁औषधीय	-7705
▁कंपोज	-7706
▁कक्षा	-7707
▁कब्जे	-7708
▁क़त्ल	-7709
▁क़द्र	-7710
▁क़ब्ल	-7711
▁क़रार	-7712
▁कुष्ठ	-7713
▁कॉलेज	-7714
▁कोविड	-7715
▁क्लिप	-7716
▁ख़ुशी	-7717
▁ख्वाब	-7718
▁गर्दन	-7719
▁गुलाम	-7720
▁गेहूं	-7721
▁घण्टे	-7722
▁चिड़ी	-7723
▁चिन्ह	-7724
▁छिद्र	-7725
▁छोड़े	-7726
▁छोड़ो	-7727
▁जंगली	-7728
▁जन्मा	-7729
▁जयपुर	-7730
▁जरिये	-7731
▁जर्नल	-7732
▁ज़बान	-7733
▁जानें	-7734
▁जिसपर	-7735
▁जेम्स	-7736
▁जोड़ा	-7737
▁टेनिस	-7738
▁ट्रेड	-7739
▁ठहराए	-7740
▁डालना	-7741
▁डेयरी	-7742
▁तबाही	-7743
▁ताक़त	-7744
▁तालाब	-7745
▁दिमाग	-7746
▁धरोहर	-7747
▁नाभिक	-7748
▁निकाय	-7749
▁निर्द	-7750
▁पक्का	-7751
▁पट्टे	-7752
▁पढ़ते	-7753
▁परमिट	-7754
▁पश्चा	-7755
▁पालने	-7756
▁पुनरा	-7757
▁पूँजी	-7758
▁पोस्ट	-7759
▁प्लेट	-7760
▁बढ़ाई	-7761
▁बताना	-7762
▁बताये	-7763
▁बदलना	-7764
▁बनाएं	-7765
▁बन्दर	-7766
▁बागान	-7767
▁बुलाए	-7768
▁बुलाओ	-7769
▁बोलना	-7770
▁ब्रेक	-7771
▁भत्ता	-7772
▁भयभीत	-7773
▁भेजता	-7774
▁भ्रमण	-7775
▁मख़लू	-7776
▁मनाया	-7777
▁मर्या	-7778
▁माँगो	-7779
▁मान्य	-7780
▁मुझसे	-7781
▁मुल्क	-7782
▁युग्म	-7783
▁यौगिक	-7784
▁रद्दी	-7785
▁रहमान	-7786
▁रहस्य	-7787
▁रुपया	-7788
▁रूपों	-7789
▁रोकना	-7790
▁लम्बा	-7791
▁लम्बी	-7792
▁लिकुड	-7793
▁लॉन्च	-7794
▁लौटना	-7795
▁वर्मा	-7796
▁विकेट	-7797
▁विधिक	-7798
▁वीर्य	-7799
▁वृक्क	-7800
▁वृद्ध	-7801
▁व्यास	-7802
▁शुष्क	-7803
▁संचरण	-7804
▁संचित	-7805
▁संदेय	-7806
▁सदनों	-7807
▁समझकर	-7808
▁सांवि	-7809
▁साहसी	-7810
▁सीनों	-7811
▁सौंपा	-7812
▁स्टाक	-7813
▁स्ट्र	-7814
▁स्वाम	-7815
▁हटाएँ	-7816
▁हममें	-7817
▁हवाले	-7818
▁हालात	-7819
▁हिमाल	-7820
▁हुर्इ	-7821
आक्साइड	-7822
क्योंकि	-7823
तकोत्तर	-7824
त्तियों	-7825
▁	-7826
ा	-7827
क	-7828
र	-7829
े	-7830
्	-7831
न	-7832
ि	-7833
स	-7834
त	-7835
ह	-7836
ं	-7837
ी	-7838
म	-7839
ो	-7840
य	-7841
प	-7842
ल	-7843
व	-7844
द	-7845
ज	-7846
ु	-7847
ग	-7848
ब	-7849
ै	-7850
अ	-7851
श	-7852
ए	-7853
च	-7854
उ	-7855
भ	-7856
ू	-7857
़	-7858
।	-7859
ट	-7860
,	-7861
थ	-7862
औ	-7863
ध	-7864
ख	-7865
ष	-7866
आ	-7867
ड	-7868
इ	-7869
ण	-7870
फ	-7871
(	-7872
)	-7873
.	-7874
ई	-7875
-	-7876
छ	-7877
ँ	-7878
1	-7879
ौ	-7880
0	-7881
ृ	-7882
ओ	-7883
ठ	-7884
2	-7885
घ	-7886
झ	-7887
e	-7888
ऐ	-7889
à	-7890
a	-7891
i	-7892
ढ	-7893
t	-7894
n	-7895
¤	-7896
ॉ	-7897
o	-7898
ः	-7899
"	-7900
s	-7901
9	-7902
4	-7903
r	-7904
3	-7905
/	-7906
5	-7907
?	-7908
l	-7909
'	-7910
ञ	-7911
m	-7912
%	-7913
;	-7914
6	-7915
8	-7916
7	-7917
:	-7918
p	-7919
ऊ	-7920
d	-7921
c	-7922
_	-7923
h	-7924
b	-7925
C	-7926
u	-7927
¥	-7928
‍	-7929
ऑ	-7930
०	-7931
!	-7932
y	-7933
ऋ	-7934
A	-7935
S	-7936
I	-7937
१	-7938
g	-7939
N	-7940
T	-7941
P	-7942
‘	-7943
f	-7944
R	-7945
E	-7946
k	-7947
w	-7948
M	-7949
>	-7950
’	-7951
”	-7952
O	-7953
D	-7954
⁄	-7955
v	-7956
L	-7957
२	-7958
#	-7959
&	-7960
“	-7961
<	-7962
	-7963
B	-7964
U	-7965
५	-7966
३	-7967
	-7968
°	-7969
९	-7970
F	-7971
x	-7972
	-7973
६	-7974
	-7975
¿	-7976
–	-7977
H	-7978
G	-7979
@	-7980
{	-7981
ॅ	-7982
८	-7983
}	-7984
V	-7985
̧	-7986
+	-7987
̈	-7988
Z	-7989
४	-7990
\	-7991
j	-7992
̄	-7993
॰	-7994
K	-7995
W	-7996
