<pad>	0
</s>	0
<unk>	0
▁the	-3.3502
.	-3.38341
,	-3.42688
▁and	-3.80554
▁to	-3.82554
▁of	-3.83346
s	-4.21483
▁	-4.27892
▁in	-4.2899
▁a	-4.32479
ing	-4.43368
-	-4.65058
ed	-4.80392
▁for	-4.81918
▁you	-4.82504
▁with	-4.93186
▁your	-4.96478
▁covid	-5.02172
▁is	-5.05276
▁or	-5.06339
▁The	-5.1204
-19	-5.16227
▁that	-5.20226
▁on	-5.22505
▁are	-5.23499
▁be	-5.25908
▁have	-5.29015
▁cases	-5.32874
▁as	-5.36458
▁from	-5.38518
▁were	-5.50901
▁not	-5.52685
▁(	-5.55737
ly	-5.58413
y	-5.64423
d	-5.68041
▁will	-5.76281
▁by	-5.78239
▁people	-5.80134
▁A	-5.81396
e	-5.84285
▁at	-5.85894
f	-5.8911
▁can	-5.89815
▁virus	-5.91298
▁I	-5.93154
)	-5.96267
▁if	-5.97593
'	-5.9763
▁was	-5.98053
▁has	-5.99011
▁who	-5.9937
▁it	-6.00657
▁been	-6.04475
▁health	-6.05094
▁deaths	-6.05802
▁reported	-6.07596
cov	-6.09259
▁may	-6.09342
▁an	-6.14436
:	-6.1723
▁symptoms	-6.19062
▁You	-6.23415
▁other	-6.24431
▁sars	-6.27531
ir	-6.30047
▁test	-6.35268
▁more	-6.35327
▁contact	-6.36823
▁this	-6.40909
al	-6.41179
▁should	-6.41873
▁march	-6.4347
▁number	-6.469
t	-6.48237
▁coronavirus	-6.48448
▁disease	-6.4846
▁also	-6.4994
▁do	-6.53455
▁vaccine	-6.54997
notified	-6.56761
▁It	-6.57613
▁On	-6.57764
▁s	-6.57936
▁than	-6.59557
▁countries	-6.60758
▁about	-6.60783
▁further	-6.61645
▁2020	-6.61711
had	-6.62416
▁This	-6.65255
▁they	-6.66924
▁"	-6.67173
▁all	-6.67593
▁outbreak	-6.6799
▁In	-6.69389
▁which	-6.6949
▁total	-6.69533
▁when	-6.69534
▁face	-6.69758
▁one	-6.71238
▁no	-6.73904
n	-6.76969
▁pandemic	-6.77531
▁after	-6.78665
▁risk	-6.78719
▁patients	-6.79757
▁spread	-6.80075
▁home	-6.80351
▁get	-6.8336
▁use	-6.83469
▁time	-6.83793
uch	-6.8444
▁public	-6.84459
▁first	-6.84468
▁confirmed	-6.84551
r	-6.84736
▁infection	-6.8818
▁data	-6.8902
▁2	-6.89029
-2	-6.89398
▁de	-6.90064
▁china	-6.90219
▁need	-6.9277
▁over	-6.9298
▁hands	-6.93179
▁some	-6.94413
▁bring	-6.94489
▁5	-6.94642
▁including	-6.95759
▁app	-6.96808
▁them	-6.96872
in	-6.97088
▁new	-6.98222
▁w	-6.98588
▁but	-6.98812
▁case	-7.02014
▁february	-7.02767
▁child	-7.03413
▁stay	-7.04261
▁others	-7.04616
▁days	-7.04657
due	-7.047
▁high	-7.04885
"	-7.0718
▁these	-7.07439
▁unit	-7.08254
▁C	-7.08681
▁government	-7.089
▁two	-7.08954
▁under	-7.09544
▁1	-7.09545
▁care	-7.10516
▁help	-7.11107
▁/	-7.11841
▁any	-7.12206
;	-7.1251
▁travel	-7.12721
▁close	-7.13304
▁those	-7.13317
▁4	-7.13706
▁january	-7.1409
▁us	-7.14623
▁person	-7.14737
▁positive	-7.14835
▁S	-7.16036
▁gp	-7.17908
▁previously	-7.17923
▁3	-7.18065
▁most	-7.18094
▁available	-7.18678
▁school	-7.1885
▁respirator	-7.18938
▁day	-7.20551
▁B	-7.22294
st	-7.22502
▁medical	-7.22669
▁infected	-7.22818
▁tested	-7.24596
▁work	-7.24857
ould	-7.25112
▁up	-7.25391
▁cover	-7.26706
▁there	-7.27496
▁protect	-7.27657
▁transmission	-7.27684
▁between	-7.28546
▁dur	-7.28812
▁possible	-7.29457
▁advice	-7.30359
▁-	-7.3076
▁–	-7.3207
▁april	-7.32097
a	-7.32353
▁million	-7.33881
▁children	-7.33887
▁wear	-7.33939
▁its	-7.33957
▁m	-7.34114
▁illness	-7.34752
out	-7.35093
▁P	-7.35413
▁states	-7.36508
▁Do	-7.36604
▁could	-7.37636
m	-7.37721
▁restrictions	-7.38715
▁severe	-7.39633
▁un	-7.39768
▁country	-7.40493
se	-7.4069
▁only	-7.4089
▁world	-7.42454
▁ireland	-7.42457
▁re	-7.42538
▁u	-7.4257
▁10	-7.42761
▁out	-7.42941
▁announced	-7.43464
-19.	-7.4351
ry	-7.43959
▁social	-7.44106
▁into	-7.45073
▁through	-7.45525
▁14	-7.45539
▁result	-7.47134
many	-7.47524
▁well	-7.47596
▁while	-7.47598
▁measures	-7.47719
▁response	-7.48119
▁hospital	-7.48126
▁human	-7.48372
ce	-7.48424
▁we	-7.48726
on	-7.49582
ic	-7.49865
▁death	-7.50376
▁go	-7.51418
▁9	-7.5145
▁how	-7.51851
▁take	-7.52841
▁away	-7.53016
▁before	-7.54064
▁treatment	-7.54806
1	-7.55022
▁testing	-7.55731
▁vaccines	-7.55771
▁20	-7.56345
▁system	-7.57219
▁information	-7.57463
▁someone	-7.57473
▁make	-7.57516
er	-7.57619
▁cause	-7.58081
▁food	-7.58288
▁mask	-7.58319
▁same	-7.58628
▁being	-7.59043
▁T	-7.59441
▁6	-7.5969
▁call	-7.5987
▁where	-7.59873
▁host	-7.60785
▁community	-7.60989
▁used	-7.63082
▁As	-7.63344
▁against	-7.63438
▁emergency	-7.64694
▁schools	-7.65738
▁wuhan	-7.6596
▁There	-7.66255
▁19	-7.66506
▁include	-7.66563
),	-7.66863
es	-7.66879
).	-7.67135
ion	-7.68039
▁7	-7.68047
▁large	-7.68455
▁services	-7.68482
▁early	-7.68485
te	-7.68595
▁so	-7.69405
▁national	-7.696
▁hcov	-7.69608
▁When	-7.69746
▁students	-7.6999
▁relat	-7.70145
▁fever	-7.70636
c	-7.70758
▁nose	-7.72578
▁conditions	-7.72723
▁italy	-7.73839
▁8	-7.73902
▁humans	-7.74279
able	-7.74291
▁june	-7.75132
▁found	-7.75144
▁non	-7.75165
▁We	-7.75932
▁share	-7.7602
▁what	-7.76503
▁issued	-7.76577
▁mers	-7.76739
▁areas	-7.77432
▁restrict	-7.7786
▁least	-7.77913
▁infections	-7.78677
▁M	-7.78954
▁age	-7.79056
▁service	-7.79322
▁important	-7.7934
▁i	-7.79347
▁known	-7.79478
▁give	-7.79823
▁show	-7.80628
▁long	-7.80792
the	-7.80793
▁keep	-7.80795
▁surveillance	-7.80822
▁south	-7.80844
▁clinical	-7.80907
▁hse	-7.81245
▁hand	-7.81779
l	-7.82189
▁chest	-7.82277
▁self	-7.82313
ive	-7.82417
▁movements	-7.82471
▁attend	-7.83765
▁healthcare	-7.83805
▁chinese	-7.83936
ers	-7.84462
based	-7.84493
▁support	-7.84718
?	-7.85267
▁phone	-7.85452
▁around	-7.85505
▁open	-7.86038
▁until	-7.86819
▁down	-7.86826
▁much	-7.86954
▁t	-7.87013
▁place	-7.87178
▁workers	-7.87309
▁15	-7.87532
▁years	-7.87677
▁11	-7.87975
▁able	-7.88457
▁affected	-7.8883
▁2019	-7.88891
▁education	-7.89788
▁remain	-7.89958
▁level	-7.90231
▁closures	-7.90374
▁visit	-7.90804
▁bats	-7.91025
▁’	-7.91568
▁every	-7.91603
▁common	-7.91604
▁population	-7.91643
▁centre	-7.91724
▁viruses	-7.91959
▁masks	-7.92028
▁avoid	-7.92295
▁following	-7.92561
▁per	-7.92569
▁control	-7.92821
▁For	-7.93266
▁closed	-7.94068
▁immun	-7.94857
▁However	-7.94883
▁doctor	-7.9505
▁pain	-7.95103
▁receive	-7.96201
▁effective	-7.9658
ight	-7.96961
▁Rea	-7.97274
▁dublin	-7.98294
▁study	-7.98294
▁international	-7.98296
▁usual	-7.98401
▁hours	-7.98701
▁prevent	-7.98872
ute	-7.99513
▁13	-7.999
▁state	-7.99937
▁december	-8.00062
▁our	-8.00185
viral	-8.00505
▁results	-8.00777
▁because	-8.01883
▁mouth	-8.01894
▁among	-8.02041
▁appointment	-8.02108
not	-8.02145
▁even	-8.02149
▁tracking	-8.02192
ve	-8.02316
▁recommended	-8.02369
▁12	-8.02451
▁24	-8.03045
▁weeks	-8.0322
▁flu	-8.03641
ting	-8.03648
▁major	-8.03652
▁current	-8.0371
▁quarantine	-8.03855
▁often	-8.03933
▁live	-8.04074
▁cough	-8.04632
▁example	-8.05504
▁epidemic	-8.05519
▁both	-8.05522
▁like	-8.05754
▁meter	-8.05981
▁al	-8.06647
▁blood	-8.07395
▁body	-8.07515
▁last	-8.07547
▁another	-8.07577
▁23	-8.08102
▁contain	-8.08371
▁ac	-8.08596
▁safe	-8.08944
▁Some	-8.09149
▁must	-8.09332
▁negative	-8.09357
very	-8.09358
ity	-8.09404
▁week	-8.09492
h	-8.09656
▁follow	-8.09685
▁group	-8.09801
ies	-8.1012
▁three	-8.11275
▁especially	-8.11345
▁made	-8.11389
▁higher	-8.11422
▁protein	-8.11851
▁D	-8.12221
p	-8.1247
▁reduce	-8.12945
▁local	-8.13297
▁family	-8.13318
▁c	-8.13483
▁events	-8.1372
less	-8.13841
▁alert	-8.14462
▁different	-8.14815
▁Covid	-8.15334
▁similar	-8.17398
▁european	-8.17411
am	-8.1757
▁come	-8.17929
▁touch	-8.18135
▁feel	-8.18276
ous	-8.18624
▁16	-8.1865
▁see	-8.19177
▁short	-8.19524
▁But	-8.19529
▁since	-8.19529
▁rna	-8.1955
▁safety	-8.19557
▁yourself	-8.19565
▁tests	-8.20155
0	-8.21201
▁increase	-8.21329
▁research	-8.217
▁staff	-8.217
▁phase	-8.21719
ness	-8.21975
▁low	-8.22014
▁department	-8.22237
▁bat	-8.22519
▁clean	-8.22697
▁2020.	-8.23145
to	-8.23341
▁diseases	-8.23414
▁p	-8.23717
▁water	-8.23921
▁having	-8.23923
▁worldwide	-8.23933
▁return	-8.2394
▁each	-8.23998
▁fines	-8.24226
▁provide	-8.2424
i	-8.24265
▁end	-8.24623
▁center	-8.24726
2	-8.24909
▁global	-8.2581
re	-8.25842
▁covs	-8.25845
▁pneumonia	-8.26195
▁18	-8.26349
▁caus	-8.26518
▁hcovs	-8.26545
▁required	-8.26657
▁detected	-8.26747
ther	-8.26953
▁rate	-8.27119
▁report	-8.27332
g	-8.27344
o	-8.27427
▁four	-8.27741
▁30	-8.27914
▁infectious	-8.28489
▁enter	-8.28533
▁outside	-8.28542
▁near	-8.28559
▁order	-8.28585
▁identified	-8.28596
▁tracker	-8.28615
▁city	-8.28642
▁does	-8.28715
ng	-8.28774
▁likely	-8.29041
▁individuals	-8.29107
▁cold	-8.29413
▁washing	-8.29644
ll	-8.29952
▁less	-8.30049
▁F	-8.30534
8	-8.30724
ian	-8.30728
▁transport	-8.30878
▁laboratory	-8.30902
▁however	-8.30932
▁said	-8.30935
▁lower	-8.30957
▁county	-8.31079
▁received	-8.31454
▁team	-8.31575
▁ill	-8.3163
cross	-8.31885
▁healthy	-8.31896
▁trials	-8.31901
vel	-8.32002
-19,	-8.32119
9	-8.33313
▁equipment	-8.33341
▁Stay	-8.33341
▁still	-8.3336
▁suspect	-8.33429
▁mild	-8.33488
um	-8.33647
▁then	-8.33765
▁house	-8.33821
▁specific	-8.33858
▁personal	-8.33881
▁developed	-8.34003
▁second	-8.3428
▁drug	-8.34339
▁samples	-8.34447
▁way	-8.34468
▁signs	-8.34665
▁n	-8.35046
▁know	-8.35724
▁period	-8.35838
▁suggest	-8.35841
▁wait	-8.35845
▁sick	-8.35852
▁To	-8.35911
▁online	-8.35955
tic	-8.36265
▁increased	-8.3627
▁sure	-8.36337
▁28	-8.36758
▁wash	-8.36788
all	-8.36869
▁times	-8.37516
▁sever	-8.38177
▁How	-8.38392
▁baby	-8.38405
▁influenza	-8.38406
▁Wash	-8.38407
▁syndrome	-8.38409
▁back	-8.38425
▁daily	-8.38426
▁associated	-8.38461
▁eu	-8.38461
▁list	-8.38484
▁vaccinated	-8.38569
▁di	-8.3858
▁26	-8.3879
▁22	-8.39218
▁year	-8.40034
▁normal	-8.4065
▁five	-8.41067
▁properly	-8.41143
▁later	-8.41149
ment	-8.412
▁learning	-8.41252
▁don	-8.4149
▁late	-8.41504
▁development	-8.41602
ory	-8.42093
▁lockdown	-8.42653
4	-8.42895
▁limit	-8.42905
▁impact	-8.42929
▁start	-8.42951
▁continue	-8.43389
▁places	-8.43598
ation	-8.43692
▁cyberattack	-8.43739
▁Open	-8.43739
▁evidence	-8.4374
▁distancing	-8.43761
▁uk	-8.43826
▁stated	-8.44393
▁needs	-8.44928
▁sign	-8.44932
▁organization	-8.44979
▁official	-8.45134
00	-8.45198
covid	-8.45217
▁recommend	-8.4568
▁allow	-8.46058
▁korea	-8.46355
▁sneezing	-8.46517
▁women	-8.46518
▁separation	-8.46523
▁access	-8.46538
▁prevention	-8.46588
▁few	-8.46668
3	-8.46689
▁astrazeneca	-8.46712
▁'	-8.47094
▁breath	-8.4732
▁17	-8.47742
▁part	-8.47808
▁effects	-8.47816
▁animal	-8.47904
▁own	-8.47948
ial	-8.48306
7	-8.48369
▁groups	-8.48697
▁called	-8.48718
▁direct	-8.49074
▁variant	-8.49388
▁potential	-8.494
▁extend	-8.49477
▁present	-8.49617
▁And	-8.49718
▁done	-8.49756
▁months	-8.49922
▁inter	-8.50159
▁economi	-8.50579
▁doses	-8.5068
▁right	-8.50799
▁Man	-8.50801
though	-8.5087
▁date	-8.50879
▁car	-8.51236
▁affect	-8.51511
▁put	-8.51925
▁immediate	-8.51963
eople	-8.52236
▁small	-8.52315
▁already	-8.52315
▁particular	-8.52317
▁antibodies	-8.52324
▁history	-8.5233
▁distance	-8.52343
▁now	-8.52382
▁add	-8.52423
▁develop	-8.53055
▁type	-8.53344
▁become	-8.53866
0%	-8.54187
▁mobil	-8.54476
▁too	-8.54875
▁levels	-8.55109
▁anti	-8.55317
▁his	-8.55327
▁natural	-8.55345
▁temperature	-8.55346
▁significant	-8.55354
▁authorities	-8.55409
▁primary	-8.55523
▁estimated	-8.55542
▁50	-8.55663
▁21	-8.55765
▁area	-8.55814
▁corona	-8.56075
▁ask	-8.56106
▁name	-8.5668
▁vaccination	-8.56867
▁genome	-8.57011
essential	-8.57066
eep	-8.575
as	-8.57919
▁intermedia	-8.57992
▁2021	-8.58076
▁centres	-8.58181
▁far	-8.58487
▁general	-8.58523
▁initial	-8.58526
▁whe	-8.58536
▁pregnant	-8.58585
▁r	-8.58593
▁protection	-8.58636
▁critical	-8.58675
▁details	-8.58688
▁Re	-8.58851
▁practices	-8.59647
▁exposure	-8.5966
▁effect	-8.60155
ine	-8.60202
▁meet	-8.60449
▁rates	-8.60539
▁E	-8.60553
▁collect	-8.6099
▁arrange	-8.61025
▁addition	-8.6131
▁media	-8.61636
ontact	-8.61669
▁shopping	-8.61697
▁serious	-8.61699
▁alone	-8.61711
▁hygiene	-8.61711
▁minister	-8.6189
▁immediately	-8.62115
▁means	-8.62119
▁spreading	-8.62514
▁aged	-8.62785
▁breathing	-8.63088
▁according	-8.63158
▁sample	-8.63544
▁find	-8.63547
ccording	-8.63585
▁O	-8.63612
▁best	-8.63929
▁An	-8.6403
▁dose	-8.64095
▁detect	-8.64222
,000	-8.64374
▁cov	-8.64675
▁essential	-8.64771
▁H	-8.64774
▁Follow	-8.65029
▁household	-8.65031
▁onset	-8.65039
th	-8.65049
▁free	-8.65245
▁cancelled	-8.65266
▁secondary	-8.6527
tensive	-8.6527
▁b	-8.65483
▁coronaviruses	-8.6552
or	-8.65673
▁provided	-8.65857
▁systems	-8.65957
▁G	-8.66272
▁Mo	-8.66466
mental	-8.66531
▁animals	-8.66805
▁cell	-8.67018
risk	-8.67079
▁27	-8.67292
48	-8.67671
▁worse	-8.67804
▁numbers	-8.67917
▁ha	-8.68033
▁pregnancy	-8.68478
▁executive	-8.68478
▁adapt	-8.68483
▁president	-8.68512
▁rsc	-8.68558
▁adults	-8.68638
▁leave	-8.68794
▁factors	-8.68985
▁eyes	-8.69141
▁li	-8.69223
▁25	-8.69319
▁hosts	-8.69322
▁limited	-8.69529
▁causes	-8.69791
▁Th	-8.69958
▁main	-8.69992
▁side	-8.70574
▁trial	-8.7061
▁advis	-8.70613
term	-8.70654
▁special	-8.71299
▁31	-8.71509
."	-8.71722
▁again	-8.72001
▁crisis	-8.72049
▁necessary	-8.72049
▁monday	-8.72053
▁gardaí	-8.72053
▁tell	-8.72066
▁director	-8.72072
▁longer	-8.72178
▁published	-8.72184
rcgp	-8.72189
▁send	-8.72192
▁co	-8.72196
▁stop	-8.72311
▁Other	-8.7234
▁depend	-8.72355
▁screening	-8.72558
▁Don	-8.72612
▁surfaces	-8.7318
".	-8.73348
▁pass	-8.73836
isolation	-8.74315
▁proteins	-8.74797
an	-8.75156
▁controls	-8.75393
▁No	-8.75423
▁persons	-8.75612
inister	-8.75694
▁form	-8.75713
▁require	-8.75717
▁europe	-8.75731
▁hubei	-8.75753
▁delay	-8.75753
▁mortality	-8.75755
▁breach	-8.75763
▁north	-8.75768
▁left	-8.75785
▁analysis	-8.7579
▁Wear	-8.75797
▁iran	-8.75812
▁post	-8.75832
ol	-8.75883
▁zoono	-8.75925
▁third	-8.76052
▁asked	-8.76841
▁plan	-8.7692
▁cells	-8.77393
▁29	-8.77822
▁great	-8.78051
▁concern	-8.78117
▁he	-8.78161
▁coughing	-8.7822
▁ma	-8.78695
▁nurs	-8.78828
b	-8.79051
us	-8.79463
▁Al	-8.79473
▁200	-8.7948
▁reservoir	-8.79599
▁pressure	-8.796
▁paper	-8.796
▁soap	-8.796
▁activity	-8.79601
▁What	-8.79606
ttle	-8.79606
▁That	-8.79616
▁taking	-8.79618
▁everyone	-8.79619
▁mich	-8.7962
▁began	-8.79635
▁asymptomatic	-8.7964
▁severity	-8.79645
▁seven	-8.79648
▁drive	-8.79677
▁tract	-8.79686
▁life	-8.79686
▁citizens	-8.79762
▁dry	-8.79762
▁figures	-8.79825
▁guidelines	-8.79985
▁try	-8.79998
▁cdc	-8.80033
▁ho	-8.80094
▁started	-8.80776
▁died	-8.8094
▁term	-8.8104
▁experience	-8.81121
▁greate	-8.81187
▁hospitals	-8.81211
▁india	-8.81609
▁hotel	-8.81915
ar	-8.82018
▁cluster	-8.8206
pm	-8.82071
▁source	-8.82084
▁practice	-8.82125
▁patient	-8.82213
▁origin	-8.82217
ally	-8.82235
5	-8.82243
relat	-8.82453
▁east	-8.82499
▁treat	-8.82743
via	-8.82797
▁Use	-8.8318
▁america	-8.83432
▁enough	-8.83599
▁increasing	-8.83602
▁billion	-8.83602
▁feet	-8.83602
▁university	-8.83606
▁studies	-8.83608
▁mandatory	-8.83611
▁multiple	-8.83643
▁cities	-8.83648
▁older	-8.8366
▁physical	-8.8372
▁Health	-8.83728
▁declar	-8.83731
▁approximate	-8.8374
▁technology	-8.83748
▁six	-8.83788
▁considered	-8.83931
at	-8.84092
ological	-8.84409
▁sent	-8.84413
cal	-8.84566
▁contacts	-8.84579
229	-8.84983
like	-8.86006
▁change	-8.86021
▁attack	-8.86082
6	-8.86082
▁officer	-8.86184
coronavirus	-8.86256
▁check	-8.86737
▁process	-8.86818
▁R	-8.86998
▁just	-8.87016
▁com	-8.87458
covs	-8.87627
▁africa	-8.87643
▁diagnosis	-8.87766
▁protest	-8.87766
▁toilet	-8.87766
▁single	-8.87767
▁future	-8.87767
▁throat	-8.878
▁middle	-8.878
▁heart	-8.87812
▁offer	-8.87991
▁rapidly	-8.88051
▁range	-8.88056
▁taken	-8.88317
▁isolated	-8.88475
.30	-8.8872
ever	-8.88876
▁species	-8.88905
▁pre	-8.88917
ical	-8.89552
tion	-8.89581
ide	-8.8964
▁d	-8.90006
▁office	-8.90225
tory	-8.90493
▁region	-8.90607
▁st	-8.90668
sars	-8.90793
▁monitor	-8.90925
▁eat	-8.91279
le	-8.91679
hildren	-8.92083
▁brazil	-8.92088
▁virology	-8.92115
▁Sars	-8.92118
▁unknown	-8.92124
▁ensure	-8.92129
▁assessment	-8.92147
▁walk	-8.9215
▁france	-8.9215
▁Coronavirus	-8.9215
▁fatality	-8.92156
▁childcare	-8.92173
▁mass	-8.92173
▁camels	-8.92217
▁soon	-8.92314
▁set	-8.92324
▁reopening	-8.92863
▁allowed	-8.93409
and	-8.93718
▁changes	-8.93723
▁working	-8.94055
▁certain	-8.94659
▁drugs	-8.94804
▁good	-8.95091
▁ple	-8.95131
▁exercise	-8.95139
▁crowd	-8.95173
hse	-8.95492
▁season	-8.95876
▁liv	-8.96397
▁slow	-8.9643
▁elderly	-8.96659
▁supply	-8.96659
▁droplets	-8.9666
▁think	-8.9666
▁mid	-8.96665
▁efficacy	-8.96668
▁Get	-8.96672
▁beta	-8.96684
▁text	-8.96686
▁containment	-8.96716
▁assess	-8.96719
▁foreign	-8.96747
▁swab	-8.96761
▁antiviral	-8.96765
▁want	-8.96782
▁lead	-8.9679
pfizer	-8.96795
▁relative	-8.968
▁minutes	-8.96836
▁highest	-8.96916
▁difficulty	-8.96954
▁Co	-8.96994
▁genetic	-8.97026
ary	-8.9708
▁removed	-8.97117
ie	-8.97219
▁wide	-8.97299
▁reduced	-8.97676
▁sequence	-8.97683
▁residents	-8.97966
ized	-8.97983
▁included	-8.98043
▁news	-8.98134
▁market	-8.98326
▁going	-8.98465
▁record	-8.99237
▁arr	-8.99273
ocial	-8.99717
▁certificate	-8.99738
▁phe	-8.99764
▁room	-8.99879
▁lung	-8.99898
▁outdoor	-8.99899
▁surface	-8.99934
▁symptom	-8.99946
fter	-9.00225
▁par	-9.0057
▁dis	-9.00633
▁k	-9.01056
▁clinic	-9.01156
ested	-9.01382
▁saturday	-9.01421
▁supplies	-9.01421
▁diarrhea	-9.01421
▁nationwide	-9.01422
▁commission	-9.01423
▁japan	-9.01461
▁express	-9.01471
▁reach	-9.01631
▁things	-9.0167
▁occurred	-9.01673
▁governments	-9.01839
▁parents	-9.01967
▁medicines	-9.02053
▁efforts	-9.02242
▁includes	-9.02324
▁begin	-9.02344
efore	-9.02405
ld	-9.02743
▁f	-9.03059
▁ordered	-9.03121
est	-9.03569
going	-9.04347
▁pro	-9.04719
▁ch	-9.04867
▁workplace	-9.04899
▁recover	-9.052
▁homes	-9.05238
ability	-9.05287
▁demand	-9.05354
▁l	-9.05702
▁Mak	-9.05879
▁leav	-9.06081
43	-9.06271
ty	-9.06311
ef	-9.06379
▁serve	-9.06419
▁diabetes	-9.06421
▁families	-9.06421
▁friday	-9.06421
▁stephen	-9.06421
▁straight	-9.06421
▁vulnerable	-9.06421
▁birth	-9.06421
▁crown	-9.06421
▁regard	-9.06421
▁passenger	-9.06425
▁better	-9.06445
▁amount	-9.06462
▁november	-9.06462
▁trump	-9.06466
▁half	-9.06535
▁findings	-9.06536
▁entry	-9.06561
▁approved	-9.06642
▁restaurants	-9.06773
ted	-9.06947
▁generally	-9.07043
▁notice	-9.07153
▁members	-9.07165
▁air	-9.07168
▁me	-9.0722
▁regions	-9.08188
▁mak	-9.08334
▁my	-9.08405
▁chi	-9.08431
ia	-9.08921
ital	-9.08966
▁occur	-9.09335
▁centers	-9.09896
▁tissue	-9.09912
▁receptor	-9.10081
ose	-9.10083
▁fall	-9.10088
species	-9.10255
high	-9.1027
most	-9.10361
▁talk	-9.10432
▁worker	-9.10532
▁resident	-9.10692
▁o	-9.10937
▁ital	-9.11166
▁recent	-9.11314
▁full	-9.11326
▁remove	-9.11377
▁Clean	-9.11684
▁entire	-9.11684
▁kingdom	-9.11684
▁eea	-9.11684
▁closing	-9.11685
▁feature	-9.11685
▁vector	-9.11685
▁foot	-9.11687
▁retail	-9.11689
▁review	-9.11693
▁universities	-9.11694
▁chance	-9.117
▁mutation	-9.11712
▁activities	-9.11798
▁Sever	-9.11814
▁anyone	-9.11881
▁training	-9.11917
▁law	-9.11964
▁released	-9.12021
▁weight	-9.12067
▁He	-9.12306
▁outbreaks	-9.1238
▁e	-9.12477
elly	-9.12563
▁recovered	-9.12568
▁ye	-9.12601
▁her	-9.12609
▁estimates	-9.12807
oose	-9.13096
▁quarantined	-9.13136
▁function	-9.13173
▁isolation	-9.13787
▁nas	-9.13795
▁plans	-9.13835
han	-9.14028
▁handl	-9.14225
▁vari	-9.14234
0,000	-9.14597
▁60	-9.14616
▁cleaning	-9.14668
▁ten	-9.15417
▁100	-9.15569
▁course	-9.15731
came	-9.15811
who	-9.1584
stay	-9.15844
public	-9.16085
▁closure	-9.16209
▁address	-9.16353
ful	-9.16582
▁difficult	-9.16849
▁rapid	-9.16859
▁real	-9.16924
acetam	-9.1724
▁facilities	-9.1724
▁internet	-9.1724
▁receiving	-9.1724
▁failure	-9.1724
▁biontech	-9.1724
▁above	-9.1724
▁ventilation	-9.17241
▁With	-9.17243
▁themselves	-9.17243
nique	-9.17243
▁else	-9.17244
▁institute	-9.17262
▁germany	-9.17271
▁quickly	-9.17295
▁fight	-9.17296
▁johnson	-9.17301
artin	-9.17315
▁easy	-9.17356
▁australia	-9.17366
▁regulations	-9.17371
▁produce	-9.1742
▁exist	-9.17452
▁teachers	-9.17459
▁recently	-9.17648
▁pathogenic	-9.17684
▁involved	-9.17829
▁additional	-9.17969
▁indicated	-9.1806
▁gatherings	-9.18158
▁recorded	-9.18223
oc	-9.18256
▁move	-9.18283
▁donn	-9.18454
▁aim	-9.18795
▁Du	-9.1883
▁shar	-9.19342
▁suc	-9.19555
▁v	-9.2
▁becomes	-9.20127
of	-9.20147
▁drink	-9.20159
ance	-9.20166
▁happen	-9.20232
63	-9.21118
▁code	-9.21172
table	-9.21266
▁At	-9.21369
▁indoor	-9.21606
▁individual	-9.21635
▁condition	-9.21642
▁track	-9.2174
▁link	-9.22296
▁Tak	-9.2231
▁clear	-9.22343
▁visits	-9.22681
▁release	-9.22775
▁aid	-9.22778
ase	-9.23034
▁Late	-9.23044
▁prior	-9.23085
▁extra	-9.23115
▁Avoid	-9.23122
▁alcohol	-9.23122
▁improve	-9.23122
▁gloves	-9.23122
▁together	-9.23122
▁expert	-9.23123
▁difference	-9.23124
▁widespread	-9.23126
▁moderna	-9.23127
▁breast	-9.23128
▁privacy	-9.23129
▁understand	-9.23132
▁More	-9.23171
▁cancer	-9.23174
▁spain	-9.23176
▁worried	-9.2318
▁appropriate	-9.232
▁reaction	-9.23259
▁transmitted	-9.23263
up	-9.23321
central	-9.23335
▁either	-9.23426
▁established	-9.23499
▁suspended	-9.23599
▁decide	-9.23642
▁fund	-9.23657
▁active	-9.23725
ent	-9.2384
na	-9.23853
▁globally	-9.24143
▁flights	-9.24285
▁describ	-9.24382
▁medications	-9.24472
▁pangolins	-9.24472
5%	-9.24734
▁refer	-9.24819
▁she	-9.24824
▁eating	-9.24856
▁concerns	-9.25506
▁advise	-9.25569
▁inform	-9.26267
▁officials	-9.26455
▁W	-9.26579
▁declare	-9.26617
▁Go	-9.26683
95	-9.26711
ter	-9.26776
▁infect	-9.26819
▁reports	-9.27125
ate	-9.27331
ch	-9.27332
inflammat	-9.27522
▁situation	-9.2779
▁chain	-9.27793
▁covers	-9.27881
▁stage	-9.27953
▁cloth	-9.2806
▁maintain	-9.28514
▁line	-9.28551
▁isolate	-9.28584
▁man	-9.28589
▁sub	-9.28931
▁dig	-9.29338
▁contract	-9.29365
▁Not	-9.29365
▁From	-9.29372
▁approach	-9.29372
▁september	-9.29372
▁thousand	-9.29372
▁basis	-9.29373
▁instead	-9.29376
▁federal	-9.29377
▁shut	-9.29377
▁thus	-9.29383
▁temporary	-9.29389
▁priva	-9.29398
▁disruption	-9.29406
▁Thus	-9.29411
▁observed	-9.29419
▁focus	-9.29425
▁mitigation	-9.29427
▁peak	-9.29431
▁acid	-9.29435
▁cent	-9.29446
spite	-9.29476
▁look	-9.29525
▁chron	-9.29577
▁play	-9.29581
▁introduced	-9.29616
▁Fin	-9.29749
▁fully	-9.29811
▁visitors	-9.29941
▁Eat	-9.30275
nty	-9.30288
ny	-9.30308
▁L	-9.30357
▁pcr	-9.30366
▁rt	-9.30393
▁collected	-9.31014
▁codes	-9.3102
▁came	-9.31137
▁40	-9.31318
led	-9.31385
▁young	-9.31438
▁treatments	-9.31532
▁needed	-9.31628
▁developing	-9.32007
▁rest	-9.32068
k	-9.32162
▁though	-9.32413
il	-9.32499
x	-9.32585
et	-9.33019
▁cho	-9.33227
▁reporting	-9.33229
ference	-9.33484
▁arriv	-9.34033
old	-9.34072
care	-9.34161
▁lack	-9.34199
▁schedule	-9.34357
en	-9.34401
▁message	-9.34405
▁location	-9.34512
▁pangolin	-9.34525
▁medication	-9.34525
hku	-9.34564
▁leg	-9.34664
▁disinfect	-9.3507
▁ser	-9.35111
▁event	-9.35137
▁appear	-9.35158
nl	-9.35457
ake	-9.35573
▁4,8	-9.35686
▁previous	-9.3572
▁ra	-9.3586
▁smoke	-9.3591
id	-9.36027
v	-9.36027
cumulati	-9.36038
▁environment	-9.36039
▁institutions	-9.36039
▁capacity	-9.36039
▁smell	-9.36039
▁Protect	-9.36039
▁guide	-9.36041
▁muscle	-9.36042
▁upper	-9.36042
▁dehydration	-9.36049
▁turn	-9.3605
xim	-9.36055
▁rise	-9.36076
▁policy	-9.36077
▁businesses	-9.36085
▁claimed	-9.36094
▁procedures	-9.361
▁collection	-9.36135
▁immunity	-9.36172
▁homology	-9.36177
▁therapy	-9.36177
▁delivery	-9.36195
▁spike	-9.36198
▁trace	-9.36242
▁july	-9.36267
▁imposed	-9.36284
▁travellers	-9.36305
▁tru	-9.36348
▁implemented	-9.36584
erous	-9.36586
▁methods	-9.36739
▁educational	-9.36768
role	-9.36794
▁learner	-9.37286
▁directly	-9.37401
▁stages	-9.37692
▁indoors	-9.37797
▁happens	-9.37819
▁monitoring	-9.37967
▁Us	-9.38196
▁markets	-9.38259
ok	-9.3875
▁N	-9.38848
▁De	-9.38901
▁70	-9.38933
▁followed	-9.38983
day	-9.39471
▁Be	-9.39645
▁Ch	-9.40162
▁kill	-9.40539
time	-9.40962
▁reopen	-9.41088
▁combination	-9.41266
▁estimate	-9.41307
isolate	-9.41346
▁subject	-9.41419
▁programme	-9.4166
▁spend	-9.4167
rish	-9.4168
▁african	-9.41707
▁ways	-9.41712
sense	-9.41727
ern	-9.4182
▁union	-9.4196
land	-9.41961
ways	-9.42114
-19)	-9.42122
▁perform	-9.42344
▁minist	-9.42871
▁sa	-9.43052
knowledge	-9.43144
▁fast	-9.43169
ish	-9.43175
▁accept	-9.43182
▁pharmacist	-9.43182
▁respond	-9.43182
▁york	-9.43182
▁request	-9.43182
▁Talk	-9.43182
▁application	-9.43183
▁basic	-9.43184
▁Where	-9.43184
▁discovered	-9.43184
▁random	-9.43186
▁successful	-9.43187
▁reliable	-9.4319
▁subsequent	-9.43209
▁letter	-9.43217
▁version	-9.43218
▁alpha	-9.43245
▁coding	-9.43252
▁head	-9.43253
▁effectiveness	-9.43302
▁gradually	-9.43311
▁questions	-9.43355
▁nucleo	-9.4336
▁typical	-9.43433
▁seek	-9.43434
▁statement	-9.43457
▁american	-9.43484
▁regularly	-9.43515
▁shops	-9.43531
▁ids	-9.43593
▁degrees	-9.43696
▁nations	-9.43709
▁shown	-9.43792
▁Bas	-9.44141
▁outcomes	-9.44155
▁Dat	-9.4416
ning	-9.44199
▁continued	-9.44323
▁steps	-9.44443
▁weekly	-9.44664
▁programmes	-9.44729
▁old	-9.4475
nan	-9.44956
▁complete	-9.45159
sure	-9.47025
diagnosed	-9.47096
▁g	-9.47924
ring	-9.48132
▁design	-9.48236
▁month	-9.49072
▁reason	-9.49191
▁employer	-9.49195
▁disinfectant	-9.49243
▁building	-9.49255
▁requir	-9.4927
▁sneeze	-9.49292
▁province	-9.49318
▁flight	-9.49376
▁eye	-9.49384
▁college	-9.49385
year	-9.49458
▁student	-9.49459
including	-9.49476
▁U	-9.49553
-2.	-9.49592
outh	-9.5003
▁warn	-9.50046
▁doctors	-9.50049
99	-9.50055
w	-9.50165
▁damage	-9.50457
▁discuss	-9.50533
▁business	-9.5082
ardaí	-9.50865
▁california	-9.50871
tructural	-9.50874
▁agencies	-9.50874
▁authority	-9.50874
▁explain	-9.50874
▁routine	-9.50874
▁scientific	-9.50874
▁cruise	-9.50874
▁domestic	-9.50874
▁complications	-9.50875
▁okay	-9.50875
▁hundred	-9.50875
▁strong	-9.50877
▁facility	-9.50877
▁recombination	-9.50878
▁administration	-9.50881
▁contrast	-9.50884
▁preparedness	-9.50885
▁road	-9.50891
▁classes	-9.50896
▁enable	-9.50902
▁sitting	-9.50911
▁strategies	-9.50922
▁wednesday	-9.50939
▁hazard	-9.50941
▁anything	-9.50943
▁Symptoms	-9.50944
▁next	-9.50946
13	-9.50954
▁hospitalized	-9.50974
▁Face	-9.50995
▁arrival	-9.51068
▁light	-9.51107
▁along	-9.51161
▁signals	-9.51183
▁Vaccines	-9.51184
▁resources	-9.51184
▁saying	-9.51223
▁wall	-9.51348
▁bind	-9.51403
▁apart	-9.51523
one	-9.51524
▁created	-9.51568
▁sites	-9.51568
▁planned	-9.51633
cy	-9.51679
▁issues	-9.51696
▁fluids	-9.51812
▁con	-9.5188
lia	-9.51995
exposed	-9.52551
▁locations	-9.52676
▁indicat	-9.53184
▁racis	-9.53248
▁deal	-9.53386
▁outdoors	-9.5343
▁lungs	-9.53431
▁exercises	-9.53559
▁ja	-9.53675
▁force	-9.53688
▁origins	-9.53957
▁Any	-9.54517
ac	-9.54972
▁closely	-9.55131
▁cross	-9.5577
▁apply	-9.5608
▁provides	-9.56442
be	-9.56782
sis	-9.56797
▁ne	-9.5686
▁sh	-9.57512
acquir	-9.57566
50	-9.57631
36	-9.57656
▁strain	-9.57675
lockdown	-9.57789
human	-9.57801
round	-9.57864
▁cost	-9.57909
▁scale	-9.5793
▁critic	-9.58128
▁screen	-9.58195
▁confirm	-9.58382
▁inciden	-9.58701
66	-9.58777
ey	-9.58797
▁envelope	-9.58818
▁Un	-9.58862
▁determine	-9.58892
▁except	-9.5892
▁Vir	-9.59015
▁russia	-9.59059
ius	-9.5906
▁progress	-9.59116
▁Restrict	-9.59123
▁prim	-9.59164
▁bin	-9.59196
▁demonstrate	-9.59207
▁launch	-9.59207
▁agency	-9.59207
▁communities	-9.59207
▁Since	-9.59208
▁oxygen	-9.59208
▁prompt	-9.59208
▁identify	-9.59208
▁obtain	-9.59208
▁Travel	-9.59208
▁video	-9.59208
▁worry	-9.59208
▁Everyone	-9.5921
▁accurate	-9.5921
▁kong	-9.59213
▁antibody	-9.59215
worth	-9.59217
▁Short	-9.59218
▁Who	-9.59222
▁advance	-9.59233
▁variet	-9.59236
▁iranian	-9.59263
▁why	-9.59267
▁smoking	-9.59268
▁electron	-9.59268
▁Patients	-9.59282
▁serology	-9.59289
▁symptomatic	-9.5929
▁committee	-9.59291
▁multi	-9.59346
▁ahead	-9.59348
▁hard	-9.59377
▁bann	-9.59401
▁pubs	-9.59412
▁frequently	-9.59433
▁inside	-9.59468
by	-9.59513
▁items	-9.59545
▁conducted	-9.59609
▁compared	-9.59611
▁hit	-9.59624
▁night	-9.59642
▁here	-9.59648
▁criticis	-9.59666
▁statistics	-9.5968
▁settings	-9.59752
▁antigen	-9.59756
▁stock	-9.59791
▁aware	-9.59829
▁recovery	-9.59835
▁jobs	-9.5995
▁products	-9.59954
▁user	-9.59993
▁performed	-9.60194
▁tend	-9.60294
▁sundays	-9.60356
▁linked	-9.60415
▁strains	-9.60764
▁icu	-9.60973
ell	-9.60984
▁asian	-9.61043
▁construct	-9.6149
▁calls	-9.6162
aking	-9.61652
▁impacted	-9.61897
▁br	-9.62309
▁separate	-9.62525
▁store	-9.62923
▁men	-9.63236
▁ca	-9.63794
▁original	-9.6422
▁lockdowns	-9.64224
▁4,9	-9.64437
▁j	-9.64637
mption	-9.6465
▁read	-9.64739
ra	-9.64977
▁orders	-9.64992
18	-9.6515
use	-9.65158
ros	-9.65532
▁probabl	-9.65565
▁los	-9.65713
▁tr	-9.65735
is	-9.65809
it	-9.66009
▁cancellation	-9.66346
▁update	-9.66349
▁target	-9.66533
▁ro	-9.66589
▁mrna	-9.66614
▁investigation	-9.66618
▁park	-9.66685
▁quarantines	-9.66711
▁lives	-9.66757
▁shortage	-9.66785
▁effort	-9.66793
▁step	-9.66854
pcr	-9.66864
▁count	-9.66943
▁gathering	-9.66967
▁100,000	-9.67019
ur	-9.6709
▁restriction	-9.67125
▁provider	-9.67257
▁Wh	-9.67579
man	-9.67727
▁38	-9.67814
▁proper	-9.67923
94	-9.6793
▁cultur	-9.6796
▁decrease	-9.67992
cubation	-9.68138
▁throw	-9.68146
▁create	-9.68264
▁percent	-9.6827
utdoor	-9.68286
▁attempt	-9.68298
▁bronchitis	-9.68298
▁membrane	-9.68298
▁Exercise	-9.68298
▁Work	-9.68298
▁bluetooth	-9.68298
▁distress	-9.68298
▁imaging	-9.68298
▁industry	-9.68298
▁nutrients	-9.68298
▁possibilit	-9.68298
▁facilitat	-9.68298
▁strengthen	-9.68299
▁holo	-9.68299
▁ibuprofen	-9.68299
▁contagious	-9.68299
▁pollen	-9.683
▁polymerase	-9.683
▁preliminary	-9.683
▁admission	-9.683
▁cytokine	-9.683
▁therapeutic	-9.683
▁twice	-9.683
▁companies	-9.68301
▁image	-9.68301
▁ratio	-9.68301
▁cork	-9.68302
▁break	-9.68304
▁drop	-9.68307
▁Stand	-9.68313
▁relief	-9.68318
▁management	-9.68319
▁disability	-9.68322
▁past	-9.68347
▁cel	-9.68349
▁pharmacy	-9.68351
▁mother	-9.68353
▁postponed	-9.68372
▁annual	-9.68373
▁instructions	-9.68378
▁assistance	-9.6838
▁parties	-9.68406
▁Test	-9.68411
▁kind	-9.68467
▁key	-9.68484
▁carry	-9.68489
▁sometimes	-9.68497
▁nurse	-9.68507
▁excluded	-9.6852
▁thought	-9.6853
▁let	-9.68575
▁missing	-9.68597
end	-9.686
▁vary	-9.68624
▁Spe	-9.68664
▁mammals	-9.6867
ural	-9.68692
▁sporting	-9.68722
im	-9.68729
▁prevalen	-9.68766
▁completely	-9.68796
▁trends	-9.68819
▁interest	-9.68842
19	-9.69067
▁toward	-9.69105
▁candidates	-9.69115
▁manager	-9.69144
▁problems	-9.69264
▁meals	-9.69413
▁kits	-9.69563
vas	-9.69835
▁la	-9.69841
▁ct	-9.69853
▁shortages	-9.69868
▁dispos	-9.69888
84	-9.70141
▁wet	-9.70249
▁treated	-9.70277
▁transmit	-9.70279
latin	-9.70319
▁involve	-9.70452
▁users	-9.70592
nt	-9.71018
▁workplaces	-9.71219
▁today	-9.71409
▁clusters	-9.71981
eal	-9.72162
▁consider	-9.72232
ors	-9.72318
ating	-9.73369
▁organizations	-9.73678
▁Ou	-9.73804
▁le	-9.74146
▁mainl	-9.74645
ied	-9.74728
▁serie	-9.74771
▁expect	-9.7516
phone	-9.75206
ton	-9.7531
ood	-9.75559
▁follows	-9.7602
▁port	-9.76089
▁ship	-9.76194
▁Nu	-9.76227
▁funeral	-9.76331
▁factor	-9.76392
▁mov	-9.76522
▁encourage	-9.76568
▁duration	-9.76608
▁prescription	-9.76619
▁choice	-9.7663
▁network	-9.76666
▁border	-9.76672
▁material	-9.76697
▁(6	-9.76722
▁Cough	-9.76733
▁standard	-9.76829
▁movement	-9.7686
general	-9.76878
ism	-9.76898
▁Pla	-9.77003
▁sea	-9.77015
▁provid	-9.77042
food	-9.77171
ilita	-9.77287
ily	-9.77304
▁whole	-9.77379
de	-9.77381
▁hour	-9.77389
▁suspend	-9.77561
▁presen	-9.77631
▁member	-9.77639
▁fin	-9.77719
▁exten	-9.77972
ility	-9.78002
ize	-9.78005
▁careful	-9.78061
▁regular	-9.78062
▁possibl	-9.78089
▁fre	-9.7809
▁vi	-9.78213
▁h	-9.78216
aoiseach	-9.78255
▁danger	-9.78271
▁Antibiotics	-9.78298
▁colleagues	-9.78298
▁compound	-9.78298
▁economy	-9.78298
▁epidemiological	-9.78298
▁front	-9.78298
▁netherlands	-9.78298
▁religious	-9.78298
▁sampling	-9.78298
▁attribut	-9.78298
▁comparison	-9.78298
▁stress	-9.78298
▁aerosol	-9.78298
▁participati	-9.78298
▁financi	-9.78298
▁england	-9.78298
▁tele	-9.78298
▁attractions	-9.78299
▁task	-9.78299
▁Privacy	-9.78299
▁amino	-9.783
▁headache	-9.783
drome	-9.783
▁worst	-9.783
average	-9.78301
▁implications	-9.78301
▁alarm	-9.78301
▁catch	-9.78302
▁replication	-9.78302
▁complex	-9.78302
▁xenophobia	-9.78302
▁tracing	-9.78303
▁permitted	-9.78304
▁secretary	-9.78306
▁hospitalization	-9.78308
▁unesco	-9.78308
▁growth	-9.78313
▁reduction	-9.78314
▁Additional	-9.78315
▁instance	-9.78318
▁distribution	-9.7832
▁tcm	-9.78323
▁overweight	-9.78326
▁production	-9.78339
▁something	-9.78344
▁police	-9.7835
▁route	-9.7836
▁chair	-9.78374
▁bag	-9.78383
▁rbd	-9.78386
▁circumstances	-9.7839
▁intend	-9.78392
▁charge	-9.784
▁transportation	-9.78401
▁glasses	-9.78405
▁num	-9.78409
▁secure	-9.78417
▁Give	-9.78422
▁believed	-9.78441
35	-9.78505
▁below	-9.78506
▁administered	-9.78522
▁enforce	-9.78523
▁moderate	-9.78536
▁solidarity	-9.78536
▁approval	-9.78546
▁agree	-9.78552
▁arabia	-9.78636
▁shows	-9.78649
audi	-9.78664
▁overall	-9.78701
▁recommendations	-9.78726
▁updated	-9.78736
▁orf	-9.78754
▁interventions	-9.78876
▁promis	-9.78888
▁korean	-9.78903
74	-9.78918
▁doors	-9.79033
▁liver	-9.79059
wise	-9.79348
dary	-9.7938
▁sectors	-9.79459
▁fit	-9.79483
▁changed	-9.79678
▁protocols	-9.79702
▁party	-9.79779
▁balance	-9.79842
▁St	-9.79964
ative	-9.7998
▁counts	-9.80031
▁providers	-9.80091
ip	-9.80221
atal	-9.80435
▁loss	-9.80501
▁hku	-9.80594
▁manage	-9.80628
▁resu	-9.80668
▁coordinat	-9.80949
▁indicate	-9.80998
▁Even	-9.81021
▁youth	-9.81043
ck	-9.81145
▁So	-9.81213
▁rat	-9.81328
▁inflamma	-9.81462
ale	-9.81914
▁contacted	-9.82098
iv	-9.82196
▁table	-9.82374
▁sources	-9.82396
▁emerg	-9.82719
▁Hav	-9.82987
▁am	-9.83112
▁pan	-9.83125
▁lot	-9.83207
▁once	-9.83922
ice	-9.83975
▁Pu	-9.84218
ned	-9.843
47	-9.84343
%	-9.84356
▁base	-9.84392
me	-9.84647
6%	-9.84759
▁seconds	-9.84986
▁swi	-9.85924
▁recognize	-9.86139
1%	-9.86367
-2-	-9.86534
nn	-9.86578
ities	-9.86677
age	-9.87025
▁mean	-9.87271
▁urg	-9.87296
▁measure	-9.87507
uring	-9.87549
▁partner	-9.8755
we	-9.87688
▁oc	-9.87717
▁appointments	-9.87726
▁produc	-9.87743
▁interaction	-9.87749
▁School	-9.87777
▁decision	-9.87777
▁connection	-9.878
▁protocol	-9.87865
▁sunday	-9.87878
▁model	-9.87885
▁outcome	-9.8789
▁kit	-9.87894
quarantine	-9.87998
▁medicine	-9.88022
chinese	-9.88026
2%	-9.8804
more	-9.88081
mong	-9.88086
▁upload	-9.88481
▁plane	-9.88504
▁implement	-9.88521
▁ju	-9.88689
mers	-9.88759
▁cancell	-9.88777
▁compa	-9.88788
▁Ne	-9.88801
▁cure	-9.88812
▁seat	-9.88833
wards	-9.88923
km	-9.89031
▁anonymous	-9.89101
60	-9.89131
▁fine	-9.8919
▁threat	-9.89192
size	-9.89261
cular	-9.89263
▁cam	-9.89366
▁identi	-9.89388
▁Human	-9.89409
▁Practice	-9.89409
▁association	-9.89409
▁council	-9.89409
▁energy	-9.89409
▁street	-9.89409
▁canadian	-9.89409
▁patrick	-9.89409
▁pattern	-9.89409
▁taste	-9.89409
▁website	-9.89409
▁respectively	-9.8941
▁vomiting	-9.8941
▁extension	-9.8941
▁Check	-9.89411
▁worn	-9.89413
▁policies	-9.89415
▁status	-9.89416
▁Over	-9.8942
▁professional	-9.89422
▁unemployment	-9.89422
▁Iran	-9.89429
▁therefore	-9.89435
▁delta	-9.89441
▁confirmation	-9.89441
▁consistent	-9.89453
▁taoiseach	-9.89457
▁percentage	-9.89462
▁2012	-9.89462
▁difficulties	-9.89475
▁society	-9.89476
▁joint	-9.89482
▁adaptation	-9.89488
▁notification	-9.89493
▁coverage	-9.89493
▁va	-9.89496
▁breastfeeding	-9.89496
▁faster	-9.895
▁venues	-9.89507
▁behind	-9.89507
▁strategy	-9.89507
▁stretch	-9.89507
▁extreme	-9.89508
▁territories	-9.89511
▁sex	-9.89514
▁traditional	-9.89517
▁appeal	-9.89537
▁nutrition	-9.89542
aryng	-9.89558
▁agent	-9.89564
▁comment	-9.89569
▁particles	-9.89611
▁quality	-9.89654
▁du	-9.89678
▁sore	-9.89682
▁organs	-9.8969
▁platforms	-9.89691
▁employees	-9.89691
▁political	-9.89851
▁brand	-9.89859
▁infants	-9.89878
ccupational	-9.89891
▁bans	-9.89907
▁evolution	-9.90005
▁mission	-9.90042
▁operations	-9.90058
ants	-9.90063
▁emergenc	-9.90087
▁sports	-9.90149
▁vir	-9.90164
▁referr	-9.90191
▁civets	-9.90244
▁urine	-9.90251
ometimes	-9.90269
▁gas	-9.90429
▁options	-9.9043
▁gov	-9.90434
▁slowly	-9.9044
▁Current	-9.90585
▁actions	-9.90809
ka	-9.90826
▁ppe	-9.90912
▁2021.	-9.90927
for	-9.9095
▁Plan	-9.9103
▁aside	-9.91095
▁gar	-9.91131
▁standards	-9.91178
▁Continue	-9.912
▁warning	-9.91286
▁encourag	-9.91381
▁mon	-9.91481
▁stores	-9.91497
ather	-9.91513
▁west	-9.91592
▁Par	-9.91714
▁provinces	-9.9174
ook	-9.91768
▁toll	-9.918
▁po	-9.91947
▁talking	-9.92188
qu	-9.92305
sk	-9.9234
▁Sel	-9.92377
▁generate	-9.92415
▁die	-9.92707
▁covering	-9.92803
88	-9.92909
▁occurs	-9.92932
▁arrive	-9.92966
probably	-9.93116
ated	-9.93464
▁en	-9.93728
line	-9.93977
▁evacuat	-9.93993
ling	-9.94395
2)	-9.94419
▁feeling	-9.94732
ca	-9.94757
2,000	-9.9529
▁genomes	-9.95431
▁fac	-9.95564
▁rights	-9.95774
ions	-9.96014
▁parts	-9.96289
57	-9.96355
▁adver	-9.96448
part	-9.96454
med	-9.96509
▁experienc	-9.96906
▁act	-9.96989
▁em	-9.97129
ix	-9.97198
▁colds	-9.97353
reading	-9.97494
43,	-9.97538
▁involv	-9.97667
school	-9.97709
65	-9.97715
nch	-9.97786
91	-9.98365
sh	-9.98572
▁handle	-9.98652
rink	-9.98838
▁33	-9.98874
▁run	-9.98947
▁gene	-9.99064
78	-9.99158
▁et	-9.9931
cdc	-9.99617
▁65	-9.99706
co	-9.9971
▁surpass	-9.99827
q	-9.99851
▁Ma	-9.99903
ssion	-9.99924
27	-9.99938
▁decline	-9.99963
ior	-10.0001
ppe	-10.0008
▁scheme	-10.0015
fig	-10.0016
▁ground	-10.0016
▁window	-10.0023
▁85	-10.0028
▁towel	-10.0028
▁holiday	-10.0031
▁hub	-10.0035
▁fluid	-10.0045
gov	-10.0048
▁action	-10.0053
wide	-10.0058
▁book	-10.0059
▁prepar	-10.0064
▁quarantin	-10.0074
▁buy	-10.0094
▁meal	-10.01
▁establish	-10.0105
isolated	-10.0119
▁minim	-10.0123
oph	-10.0124
▁35	-10.013
▁V	-10.0135
ker	-10.0143
.5	-10.0145
62	-10.0169
▁predict	-10.0175
▁genom	-10.0182
▁disrupt	-10.0184
▁prison	-10.0186
testin	-10.0189
▁grow	-10.019
▁parent	-10.0191
pkins	-10.0191
▁accompan	-10.0191
▁suffer	-10.0191
▁sufficient	-10.0191
▁Similar	-10.0191
▁amplify	-10.0191
▁disappear	-10.0191
▁examinations	-10.0191
▁google	-10.0191
▁municipal	-10.0191
▁reflect	-10.0191
▁register	-10.0191
▁temporarily	-10.0191
▁thursday	-10.0191
▁zealand	-10.0191
▁Sign	-10.0191
▁examine	-10.0191
▁limerick	-10.0191
▁radiograph	-10.0191
▁sanitizer	-10.0191
▁morning	-10.0191
credit	-10.0191
▁sexual	-10.0191
▁bowel	-10.0191
▁registration	-10.0191
▁christian	-10.0191
▁Besides	-10.0191
▁libraries	-10.0191
▁account	-10.0191
▁garda	-10.0191
▁Meet	-10.0191
▁Like	-10.0191
▁trade	-10.0191
▁delete	-10.0191
▁reverse	-10.0192
▁contaminat	-10.0192
isolating	-10.0192
▁nature	-10.0192
▁consultation	-10.0192
▁Track	-10.0192
▁search	-10.0192
▁Therefore	-10.0192
▁Direct	-10.0192
▁fda	-10.0192
▁transcription	-10.0192
▁cardio	-10.0193
▁milk	-10.0193
▁brit	-10.0193
▁Long	-10.0193
▁gap	-10.0194
▁Respiratory	-10.0194
▁geographical	-10.0194
▁strict	-10.0195
▁wave	-10.0196
ael	-10.0196
▁hope	-10.0196
▁dirty	-10.0199
▁warm	-10.0199
▁2003	-10.0201
▁campus	-10.0202
▁october	-10.0202
▁First	-10.0202
▁lethal	-10.0202
▁security	-10.0203
▁opportunit	-10.021
▁proposed	-10.0211
▁Virus	-10.0213
eering	-10.0214
▁Case	-10.0217
▁former	-10.0217
▁sell	-10.0218
▁held	-10.0219
▁112	-10.0222
▁preventive	-10.0223
▁solutions	-10.0223
▁concerts	-10.0223
▁iii	-10.0223
▁Mers	-10.0232
▁Cover	-10.0237
▁sold	-10.0239
53	-10.024
▁carefully	-10.0242
▁defences	-10.0244
▁stopped	-10.0245
ransmissible	-10.0246
▁1,0	-10.0246
being	-10.0249
▁phones	-10.0251
▁decreased	-10.0252
▁steroids	-10.0262
media	-10.0266
▁sad	-10.0276
ecdc	-10.0279
▁hua	-10.0284
▁bottles	-10.0286
▁bio	-10.0291
▁select	-10.0303
ts	-10.0304
▁Per	-10.0308
▁Li	-10.0324
▁spaces	-10.0329
3)	-10.0335
▁hubs	-10.035
▁runn	-10.0357
05	-10.0367
▁arm	-10.0374
▁hip	-10.0407
▁broad	-10.0408
▁mitigate	-10.0427
▁weake	-10.0435
▁2020)	-10.045
▁worsen	-10.0451
▁reserve	-10.0455
▁colleges	-10.0458
ne	-10.0459
▁ok	-10.0464
lt	-10.0464
▁safely	-10.0468
▁conv	-10.0482
▁Whi	-10.0485
ov	-10.0487
▁unions	-10.0498
▁80	-10.0525
▁meeting	-10.0543
38	-10.0548
▁violen	-10.0571
ments	-10.0588
gs	-10.0612
ping	-10.0685
▁tra	-10.0785
au	-10.0805
▁refus	-10.0841
ised	-10.0852
.4%	-10.088
▁war	-10.0888
ace	-10.0896
75	-10.0921
25	-10.0951
10	-10.096
▁da	-10.1011
15	-10.1011
70	-10.1026
ack	-10.1027
29	-10.1043
▁eas	-10.1051
▁newly	-10.1053
23	-10.1075
les	-10.1117
▁manag	-10.1158
14	-10.1174
ina	-10.1189
▁learn	-10.1227
12	-10.1242
4)	-10.1242
case	-10.125
37	-10.1252
com	-10.1269
9%	-10.129
onary	-10.1297
ble	-10.1368
▁39	-10.1373
▁resume	-10.1385
iste	-10.1395
generat	-10.1401
▁method	-10.1409
▁fa	-10.1411
31	-10.1412
▁court	-10.1424
bridge	-10.1431
3%	-10.1446
▁Visit	-10.1451
rt	-10.1451
▁ventilator	-10.1457
▁rais	-10.1457
chie	-10.1459
▁suit	-10.1459
▁issue	-10.1459
▁pathogen	-10.1461
▁space	-10.1466
▁problem	-10.1466
resident	-10.1467
▁sector	-10.1471
▁guideline	-10.1471
infection	-10.1478
specific	-10.1479
▁exceed	-10.1485
called	-10.1486
level	-10.1489
▁index	-10.1491
over	-10.1494
▁power	-10.151
nger	-10.151
▁(5	-10.151
▁point	-10.1512
face	-10.1515
da	-10.1521
87	-10.1533
een	-10.1538
hours	-10.1565
▁scan	-10.1566
ash	-10.1568
isation	-10.159
▁Cov	-10.1592
▁earlie	-10.1608
▁church	-10.1614
▁consist	-10.1614
▁suppress	-10.1615
▁prepare	-10.1616
▁clot	-10.1618
nctions	-10.1619
ouble	-10.1619
▁assist	-10.1619
▁legislati	-10.1619
▁Research	-10.1619
▁Shopping	-10.1619
▁anxiety	-10.1619
▁august	-10.1619
▁detention	-10.1619
▁disorder	-10.1619
▁elevated	-10.1619
▁enzyme	-10.1619
▁fruit	-10.1619
▁galway	-10.1619
▁guidance	-10.1619
▁importance	-10.1619
▁laboratories	-10.1619
▁operating	-10.1619
▁philippines	-10.1619
▁pilot	-10.1619
▁politicians	-10.1619
▁prognosis	-10.1619
▁remote	-10.1619
▁spillover	-10.1619
▁summer	-10.1619
▁supplier	-10.1619
▁taiwan	-10.1619
▁adopt	-10.1619
▁attention	-10.1619
▁enhance	-10.1619
▁sleeve	-10.1619
▁trigger	-10.1619
▁identification	-10.162
▁nigeria	-10.162
▁dozen	-10.162
▁teaching	-10.162
▁comprehensive	-10.162
▁prioritiz	-10.162
▁canada	-10.162
▁diagnostic	-10.162
▁manifestations	-10.162
▁reveal	-10.162
▁disadvantage	-10.162
▁Comm	-10.162
▁reproduction	-10.162
▁Second	-10.162
▁wool	-10.162
▁fingers	-10.162
▁National	-10.162
▁wild	-10.162
▁gastro	-10.162
▁oxford	-10.162
▁disabilities	-10.162
▁prais	-10.162
▁turkey	-10.162
▁fatalities	-10.162
▁Under	-10.162
▁theories	-10.162
▁Community	-10.162
▁governor	-10.162
▁cellul	-10.1621
▁guest	-10.1621
▁skin	-10.1621
▁paid	-10.1621
▁extensive	-10.1622
▁storm	-10.1622
▁phylogenetic	-10.1622
▁Person	-10.1622
▁Now	-10.1623
▁calculated	-10.1623
▁Never	-10.1623
▁singapore	-10.1623
▁metric	-10.1624
▁fitness	-10.1624
▁constant	-10.1624
▁pathway	-10.1624
▁underway	-10.1625
mo	-10.1625
▁moon	-10.1625
▁valve	-10.1626
▁gi	-10.1627
▁plasm	-10.1627
▁implementation	-10.1628
▁Fever	-10.1629
▁nucle	-10.163
▁itself	-10.163
▁conte	-10.163
▁travelling	-10.1632
▁asthma	-10.1632
▁partial	-10.1632
▁discovery	-10.1633
▁devices	-10.1633
▁pilgrims	-10.1633
▁theatres	-10.1633
▁success	-10.1635
▁pay	-10.1636
▁shit	-10.1637
▁meat	-10.1637
▁gain	-10.1639
▁mark	-10.1642
▁web	-10.1644
▁roll	-10.1644
▁package	-10.1645
▁dra	-10.1645
ief	-10.1645
▁dead	-10.1648
▁Well	-10.165
▁declaration	-10.1652
theless	-10.1653
▁document	-10.1655
▁apple	-10.1655
▁rising	-10.1656
▁friends	-10.1657
▁components	-10.1657
cun	-10.1661
▁eg	-10.1664
escent	-10.1664
▁stand	-10.1668
▁anonymously	-10.1672
▁save	-10.1676
▁30%	-10.1676
▁useful	-10.1677
▁view	-10.1678
▁methodolog	-10.1679
45	-10.168
▁prices	-10.1681
▁2,3	-10.1682
engin	-10.1682
▁independent	-10.1687
▁vote	-10.1689
lease	-10.1692
▁quit	-10.17
▁oil	-10.1703
▁beds	-10.1703
▁determined	-10.171
▁spr	-10.171
▁airborne	-10.1711
▁illnesses	-10.1714
▁carer	-10.1728
▁specimens	-10.1731
▁strand	-10.1749
▁(2	-10.1751
21	-10.1755
▁fol	-10.1763
▁37	-10.1766
96	-10.1769
active	-10.1769
▁town	-10.1771
16	-10.1772
▁occurr	-10.1774
ations	-10.1787
▁meaning	-10.1803
io	-10.1805
ten	-10.1816
▁4,3	-10.1822
▁off	-10.1824
▁maintained	-10.1827
▁normally	-10.1854
spira	-10.1858
ssiona	-10.1858
▁shed	-10.1873
▁asia	-10.1875
▁wholes	-10.188
▁updates	-10.1881
▁seasonal	-10.1887
▁clothing	-10.193
▁sneezes	-10.193
▁press	-10.1931
▁sense	-10.1947
▁Sh	-10.1962
▁fat	-10.1963
▁Lea	-10.1969
▁drinking	-10.1969
▁36	-10.1969
▁formal	-10.1971
69	-10.1974
▁adhere	-10.1986
ge	-10.1992
▁wipe	-10.2001
▁situations	-10.2007
evi	-10.2007
30	-10.2018
▁deliver	-10.2057
expected	-10.2087
▁Non	-10.2102
20	-10.2112
▁crowds	-10.2127
1,	-10.2129
ates	-10.2133
▁rooms	-10.2135
▁goods	-10.216
▁bo	-10.2165
▁alternative	-10.2172
▁ar	-10.2195
nother	-10.2195
▁surg	-10.2201
▁forms	-10.2303
ris	-10.2307
▁se	-10.2347
▁responses	-10.2365
▁diagnose	-10.2386
-2)	-10.239
08	-10.2397
▁Car	-10.2413
▁emerge	-10.2427
tage	-10.2446
▁na	-10.2448
▁visited	-10.2466
▁43	-10.2468
92	-10.2476
mediate	-10.251
50%	-10.2517
wiv	-10.259
▁sur	-10.2595
▁mo	-10.26
put	-10.2605
fen	-10.2614
▁evacuate	-10.2618
▁dona	-10.2664
bi	-10.2674
ably	-10.2678
▁traveling	-10.2698
100	-10.2707
▁creat	-10.2707
▁cap	-10.2735
other	-10.2752
linical	-10.2785
ft	-10.2798
▁300	-10.2807
68	-10.2815
▁comfort	-10.2827
ad	-10.2829
▁giv	-10.2846
tan	-10.2853
▁55	-10.2856
300	-10.291
▁(3	-10.2958
▁spreads	-10.2965
ze	-10.2969
▁coughs	-10.3009
▁practi	-10.301
▁ex	-10.3017
check	-10.3031
cm	-10.3037
67	-10.3043
▁4,6	-10.3054
▁gu	-10.3058
▁ear	-10.3059
▁4,5	-10.3071
▁fact	-10.3082
▁festival	-10.311
2,6	-10.3121
▁bank	-10.3124
▁frame	-10.3126
▁fear	-10.3128
▁option	-10.3132
▁candidate	-10.3132
▁job	-10.3133
member	-10.3133
strand	-10.3136
▁rule	-10.3136
if	-10.3141
closure	-10.3142
pathogenic	-10.3142
third	-10.3144
work	-10.3145
home	-10.3146
when	-10.3146
person	-10.3146
scale	-10.3148
confirmed	-10.3149
▁product	-10.3152
dvice	-10.3153
virus	-10.3156
▁visitor	-10.3156
ida	-10.3158
▁pains	-10.3161
▁answer	-10.3163
ology	-10.3167
▁cook	-10.3179
▁site	-10.3182
▁rang	-10.32
ought	-10.3212
▁conduct	-10.3218
▁map	-10.3238
▁psych	-10.324
▁mil	-10.3243
▁urgent	-10.325
▁homolog	-10.325
avir	-10.3262
ators	-10.3273
▁regula	-10.3273
ceived	-10.3276
▁diverge	-10.3278
▁primar	-10.3278
▁project	-10.3279
▁norma	-10.3279
ublic	-10.328
▁univers	-10.3283
▁availab	-10.3285
▁super	-10.3286
▁plastic	-10.3286
▁correspond	-10.3286
▁retrospective	-10.3286
▁Global	-10.3286
▁Screening	-10.3286
▁abroad	-10.3286
▁austria	-10.3286
▁bronchiolitis	-10.3286
▁cigarette	-10.3286
▁criteria	-10.3286
▁elbow	-10.3286
▁famine	-10.3286
▁favour	-10.3286
▁harbour	-10.3286
▁kildare	-10.3286
▁lombardy	-10.3286
▁london	-10.3286
▁manufacturing	-10.3286
▁museums	-10.3286
▁nucleocapsid	-10.3286
▁pyramid	-10.3286
▁susceptible	-10.3286
▁Dublin	-10.3286
▁Ireland	-10.3286
▁crime	-10.3286
▁cyber	-10.3286
▁offences	-10.3286
▁tourist	-10.3286
▁North	-10.3286
▁britain	-10.3286
▁dropped	-10.3286
▁cabin	-10.3286
▁discharge	-10.3286
▁labour	-10.3286
▁yellow	-10.3286
▁burden	-10.3286
den	-10.3286
▁exams	-10.3286
▁floor	-10.3286
▁midwife	-10.3286
▁assembl	-10.3286
▁bacteria	-10.3286
defined	-10.3287
▁Third	-10.3287
▁enteritis	-10.3287
▁fell	-10.3287
▁league	-10.3287
vant	-10.3287
▁israel	-10.3287
▁bodies	-10.3287
▁demographic	-10.3287
▁program	-10.3287
▁californians	-10.3287
▁ancestor	-10.3287
▁pharmacies	-10.3287
▁shock	-10.3287
▁worship	-10.3287
▁rome	-10.3287
▁ibu	-10.3287
▁analys	-10.3288
▁donegal	-10.3288
▁modelling	-10.3288
▁company	-10.3288
▁dicl	-10.3288
▁High	-10.3288
▁tired	-10.3288
▁identity	-10.3288
▁personnel	-10.3288
bound	-10.3289
▁manufacturer	-10.3289
▁evolutionary	-10.3289
▁moment	-10.3289
▁Four	-10.3289
▁appearance	-10.3289
▁justice	-10.3289
▁easi	-10.3289
▁sen	-10.329
▁provision	-10.329
http	-10.329
▁twent	-10.329
▁undertaken	-10.329
▁recognise	-10.329
▁anticipated	-10.329
▁adequately	-10.329
▁protected	-10.329
▁Infection	-10.3291
chloro	-10.3292
▁lunch	-10.3292
▁metre	-10.3294
▁influence	-10.3294
▁sero	-10.3294
▁Old	-10.3294
matical	-10.3296
▁Emergenc	-10.3296
▁progression	-10.3296
▁heavy	-10.3297
niac	-10.3297
▁earlier	-10.33
▁2002	-10.33
▁gone	-10.33
▁bad	-10.33
▁criticism	-10.3302
▁passport	-10.3302
▁dyspnea	-10.3302
▁epidemiology	-10.3302
▁nba	-10.3302
▁commerc	-10.3302
▁woman	-10.3302
▁wedding	-10.3302
▁computer	-10.3302
▁Ear	-10.3302
eutic	-10.3302
hylogenetic	-10.3303
▁scientists	-10.3303
▁objects	-10.3303
▁circulating	-10.3303
▁stimulate	-10.3304
▁concluded	-10.3304
▁Ho	-10.3304
▁requirements	-10.3305
▁limitations	-10.3305
went	-10.3306
▁varies	-10.3306
el	-10.3307
▁mus	-10.331
▁rele	-10.3313
▁cut	-10.3316
▁russian	-10.3318
▁diet	-10.3318
▁jan	-10.3319
▁Later	-10.3321
transmissibility	-10.3322
▁volume	-10.3329
▁dr	-10.333
▁position	-10.3331
▁establishments	-10.3332
▁airways	-10.3335
▁grade	-10.3335
▁Le	-10.3337
▁counter	-10.3339
▁canceled	-10.3342
▁tools	-10.3343
▁Dry	-10.3344
▁nhs	-10.3345
▁exception	-10.3347
ud	-10.3351
▁stream	-10.3357
▁pools	-10.336
▁lay	-10.3365
ofen	-10.337
▁challenges	-10.3372
▁gel	-10.3379
ri	-10.3384
▁length	-10.3385
▁performances	-10.339
▁Cor	-10.339
▁sleeping	-10.3393
▁incident	-10.3393
▁islands	-10.3395
39	-10.3396
▁abc	-10.3397
▁therap	-10.3403
▁precautions	-10.3411
▁cooking	-10.3417
▁mc	-10.3424
ib	-10.3425
zed	-10.3426
ves	-10.3437
ree	-10.3445
threatening	-10.3448
▁frames	-10.3449
▁rules	-10.3449
▁fears	-10.3449
▁Remov	-10.3453
ept	-10.3464
▁buying	-10.3465
▁col	-10.3477
▁pathogens	-10.3479
44	-10.3508
▁holidays	-10.3509
▁carers	-10.3513
▁appeared	-10.3519
la	-10.3525
ex	-10.3529
▁whi	-10.3532
▁filter	-10.3558
.8%)	-10.3563
▁materials	-10.3569
▁4,7	-10.3587
▁challeng	-10.3605
▁Hcov	-10.3615
▁costs	-10.3627
▁raise	-10.3628
▁59	-10.3631
leo	-10.3633
sia	-10.367
ked	-10.3674
▁seem	-10.3674
▁undergo	-10.3681
▁mel	-10.3685
24	-10.3686
79	-10.3695
▁(7	-10.3705
gredient	-10.3707
▁unlike	-10.3711
.3%	-10.3721
▁replicate	-10.3726
▁lines	-10.3751
▁chains	-10.3751
▁pul	-10.3769
▁3,9	-10.377
makers	-10.3783
▁remarkabl	-10.3825
our	-10.3834
heri	-10.3837
▁breathe	-10.3837
▁receptors	-10.3844
vast	-10.3853
▁cons	-10.3866
▁nationally	-10.387
▁vers	-10.3877
germs	-10.3913
▁45	-10.3915
phe	-10.3959
▁fe	-10.3976
09	-10.3978
▁absen	-10.3995
un	-10.4009
▁cleaned	-10.402
▁lei	-10.4072
82	-10.4072
stone	-10.4077
▁rely	-10.4079
▁alerted	-10.4086
▁apps	-10.409
▁abs	-10.4101
wine	-10.4103
▁secret	-10.4115
vi	-10.4116
ency	-10.4116
▁spo	-10.4123
▁relieve	-10.4148
▁sal	-10.4183
▁survive	-10.4186
che	-10.42
ncov	-10.423
▁1,3	-10.4231
▁bus	-10.4232
▁ran	-10.4232
▁class	-10.4241
▁considerabl	-10.4243
▁vaccinations	-10.4255
▁pen	-10.4299
isposable	-10.4312
▁dates	-10.4322
▁69	-10.4355
▁donate	-10.4356
u	-10.4376
li	-10.4467
nda	-10.4474
▁Se	-10.4476
▁1,000	-10.4478
▁separat	-10.4485
om	-10.45
▁42	-10.4519
ified	-10.453
emed	-10.4568
▁pe	-10.4572
77	-10.4602
52	-10.4609
▁ob	-10.4631
cu	-10.4637
ite	-10.4648
▁combin	-10.466
nia	-10.4666
ct	-10.4679
▁timely	-10.4713
61	-10.4768
▁90	-10.4777
▁Medica	-10.4782
ost	-10.4809
▁(9	-10.4821
▁describe	-10.484
▁encode	-10.4869
▁weak	-10.4885
ence	-10.4888
▁respirators	-10.49
rious	-10.4916
figure	-10.4924
▁57	-10.4935
▁explore	-10.4942
▁Of	-10.495
▁aut	-10.4973
▁hu	-10.4987
▁imp	-10.4988
income	-10.4989
vision	-10.5014
▁34	-10.5016
ru	-10.5038
▁serv	-10.5039
ach	-10.5041
▁distribut	-10.5053
ware	-10.5062
▁stopp	-10.5065
body	-10.5066
.2%	-10.5068
ill	-10.5071
▁por	-10.508
▁airport	-10.5092
▁polyprotein	-10.5092
▁consulate	-10.5092
wo	-10.5093
ged	-10.511
▁administrator	-10.511
▁organisation	-10.5112
▁amp	-10.5116
place	-10.5117
▁alpaca	-10.5119
▁purchase	-10.5119
▁ticket	-10.5119
▁communication	-10.512
dependent	-10.5121
▁game	-10.5124
▁airline	-10.5126
▁specimen	-10.5128
▁civet	-10.5131
▁degree	-10.5134
▁restaurant	-10.5136
▁dia	-10.5138
strazeneca	-10.5139
prevalen	-10.514
▁nation	-10.5141
▁1)	-10.5141
▁detail	-10.5141
planned	-10.5141
reporting	-10.5142
urine	-10.5144
secondary	-10.5144
infected	-10.5145
vac	-10.5145
march	-10.5147
from	-10.5147
▁bottle	-10.515
▁Wa	-10.5158
▁sleep	-10.516
ctual	-10.516
ntigen	-10.5165
rew	-10.5173
contact	-10.5179
som	-10.5187
▁publish	-10.5205
▁sustain	-10.521
▁ci	-10.5212
▁lo	-10.5221
▁populations	-10.5233
▁Resu	-10.5234
▁achieve	-10.5238
▁gradual	-10.5248
▁frequent	-10.5249
di	-10.5251
▁prove	-10.5254
▁chang	-10.5257
▁introduce	-10.526
▁Prepare	-10.5262
▁Fac	-10.5263
▁sharp	-10.5274
▁formula	-10.5275
ops	-10.5278
hani	-10.5279
▁compare	-10.5279
▁rou	-10.528
▁sp	-10.528
▁tempora	-10.528
▁mort	-10.528
isinformation	-10.5283
do	-10.5285
▁represent	-10.5286
▁Corona	-10.5286
▁Napro	-10.5286
▁Particularly	-10.5286
▁Reduc	-10.5286
▁Transmission	-10.5286
▁accelerat	-10.5286
▁accommodation	-10.5286
▁adhanom	-10.5286
▁antibiotics	-10.5286
▁climate	-10.5286
▁context	-10.5286
▁counsel	-10.5286
▁dynamic	-10.5286
▁efficient	-10.5286
▁hypertension	-10.5286
▁insurance	-10.5286
▁machine	-10.5286
▁measles	-10.5286
▁mellitus	-10.5286
▁mount	-10.5286
▁opacit	-10.5286
▁operators	-10.5286
▁playgrounds	-10.5286
▁protease	-10.5286
▁replicase	-10.5286
▁repurposed	-10.5286
▁technologies	-10.5286
▁tuesday	-10.5286
▁voluntary	-10.5286
▁provincial	-10.5286
▁snacks	-10.5286
▁unnecessar	-10.5286
▁Further	-10.5286
▁basketball	-10.5286
▁gamma	-10.5286
peptid	-10.5286
▁trimester	-10.5286
▁virulen	-10.5286
▁winter	-10.5286
▁board	-10.5286
▁allerg	-10.5286
▁concentrat	-10.5286
▁engage	-10.5286
mmunocompromised	-10.5286
▁apparent	-10.5286
▁mechanism	-10.5286
▁neurologic	-10.5286
nsaids	-10.5286
▁imported	-10.5286
▁concept	-10.5286
▁complement	-10.5286
▁spray	-10.5286
▁babies	-10.5286
▁paul	-10.5286
▁green	-10.5286
▁princess	-10.5286
▁diarrhoea	-10.5286
▁discrimination	-10.5286
▁interval	-10.5286
▁offaly	-10.5286
▁broke	-10.5287
▁Shops	-10.5287
▁plate	-10.5287
▁false	-10.5287
▁combat	-10.5287
▁representative	-10.5287
▁hepa	-10.5287
▁conclusion	-10.5287
▁mechani	-10.5287
▁upset	-10.5287
▁Visitors	-10.5287
▁announcement	-10.5287
▁uncertainty	-10.5287
▁minor	-10.5287
▁mouse	-10.5287
▁fresh	-10.5287
▁overlap	-10.5287
▁enroll	-10.5287
▁academic	-10.5288
▁big	-10.5288
▁install	-10.5288
▁eventual	-10.5288
▁euro	-10.5288
▁stillbirth	-10.5288
▁Which	-10.5288
▁remdesivir	-10.5288
ww	-10.5288
▁respect	-10.5288
▁fecal	-10.5289
mond	-10.5289
▁amid	-10.5289
▁curve	-10.5289
▁Phase	-10.5289
▁Up	-10.5289
▁capital	-10.5289
▁stain	-10.5289
▁stick	-10.529
▁residence	-10.529
▁Europe	-10.529
▁sensitive	-10.529
▁charter	-10.5291
▁heel	-10.5291
onym	-10.5291
rofen	-10.5291
▁located	-10.5291
▁reception	-10.5291
▁suspension	-10.5291
shoe	-10.5292
▁compromised	-10.5292
▁fish	-10.5292
▁dangerous	-10.5292
▁uncomfortable	-10.5292
▁gaa	-10.5293
▁anywhere	-10.5293
▁3,1	-10.5294
▁remember	-10.5294
▁churches	-10.5296
▁appendi	-10.5296
▁hospitalised	-10.5296
▁progressive	-10.5297
▁Let	-10.5297
▁cardi	-10.5298
▁payment	-10.5299
▁brazilian	-10.5299
▁stuffy	-10.5299
▁1,2	-10.5299
hinese	-10.53
▁2018	-10.53
▁recoveries	-10.5301
reate	-10.5301
▁2004	-10.5302
▁variable	-10.5302
▁switch	-10.5303
▁excess	-10.5303
▁calories	-10.5306
▁infrastructure	-10.5306
▁piece	-10.5306
▁substantial	-10.5306
▁petition	-10.5306
▁lessons	-10.5306
▁clothes	-10.5306
▁fragments	-10.5307
▁customers	-10.5307
▁halls	-10.5307
▁neck	-10.5307
▁cups	-10.5307
sive	-10.5307
▁sputum	-10.5308
▁Change	-10.5309
▁fifth	-10.531
▁shake	-10.531
▁log	-10.531
▁2008	-10.531
▁3,5	-10.531
▁proof	-10.5311
▁8.30	-10.5311
▁precaution	-10.5312
▁fatal	-10.5312
▁Online	-10.5315
▁color	-10.5318
▁suppression	-10.5322
▁prevalent	-10.5325
▁4,4	-10.5325
▁originated	-10.5325
▁lineages	-10.5326
▁hearing	-10.5328
▁bce	-10.533
▁ii	-10.5332
▁shipment	-10.5334
sual	-10.5335
▁relaxed	-10.5336
▁johns	-10.5336
molecular	-10.5337
▁hel	-10.5338
▁barriers	-10.5342
▁benefits	-10.5342
▁malls	-10.5343
▁hum	-10.5343
▁word	-10.5343
▁Cold	-10.5343
▁extract	-10.5344
▁hold	-10.535
ards	-10.5351
▁virion	-10.5351
▁ecolog	-10.5351
▁rece	-10.5354
▁surgi	-10.5355
▁hospitality	-10.5356
▁hurt	-10.5357
▁ili	-10.5359
▁ready	-10.5367
▁10%	-10.5368
nal	-10.5369
fairs	-10.537
▁bulbs	-10.5378
▁curfews	-10.5378
titis	-10.5378
▁discussion	-10.5381
54	-10.5382
▁97	-10.5388
▁Va	-10.5389
▁kn	-10.5392
iji	-10.5405
terti	-10.5406
▁doesn	-10.5408
art	-10.541
▁row	-10.5413
▁gly	-10.5417
▁gran	-10.5418
▁pp	-10.5419
▁card	-10.5424
▁flat	-10.5426
56	-10.5437
bility	-10.5439
▁airlines	-10.5452
hips	-10.5457
▁controlled	-10.5467
osis	-10.547
▁chloro	-10.548
▁answers	-10.5489
▁banks	-10.5489
sc	-10.5489
▁prepared	-10.5493
mm	-10.5497
▁peer	-10.55
▁ifr	-10.5508
▁won	-10.551
▁ventilators	-10.5526
pain	-10.553
-19).	-10.553
▁chem	-10.5549
▁reopened	-10.5561
▁towels	-10.5563
▁server	-10.558
7,1	-10.558
inary	-10.5588
▁models	-10.5601
▁Schools	-10.5601
▁decisions	-10.5601
▁connections	-10.5601
rell	-10.5632
▁addressed	-10.5637
▁networks	-10.5639
▁borders	-10.5639
▁carri	-10.564
▁coverings	-10.5642
▁fet	-10.5646
directly	-10.5646
▁var	-10.5653
▁fl	-10.5655
▁cit	-10.5688
▁land	-10.5692
▁nurses	-10.5702
gu	-10.5708
20,000	-10.5711
▁52	-10.572
rine	-10.5724
ports	-10.5726
▁reasons	-10.5753
▁disinfectants	-10.5754
▁processed	-10.5761
election	-10.5776
▁x	-10.5798
,600	-10.5806
▁zha	-10.582
▁messages	-10.5829
▁publication	-10.5838
▁Anti	-10.584
▁shin	-10.586
▁none	-10.5864
▁connect	-10.5882
▁fly	-10.5882
social	-10.5897
22	-10.5903
easing	-10.592
▁persisten	-10.5931
▁courses	-10.5945
▁prescribe	-10.5958
▁2,4	-10.5962
▁controll	-10.5966
thing	-10.5976
▁fen	-10.5976
▁watch	-10.5976
▁easter	-10.6011
ver	-10.6071
ark	-10.6087
▁(1	-10.6112
ci	-10.6124
▁41	-10.6125
comfortable	-10.6139
▁designat	-10.615
▁ni	-10.6177
26	-10.618
hoo	-10.6208
▁gav	-10.6209
eline	-10.6209
55	-10.6211
▁sequenc	-10.6218
▁ti	-10.6226
▁4,90	-10.6243
▁51	-10.6252
8%)	-10.6264
▁ver	-10.6277
▁pm	-10.6317
rol	-10.6331
▁44	-10.6335
▁8,	-10.6336
▁Hol	-10.6391
▁bu	-10.6507
ber	-10.6532
tly	-10.6545
organ	-10.6546
ecause	-10.6578
ven	-10.66
bov	-10.6616
▁00	-10.6618
▁ifn	-10.6633
▁ke	-10.6639
▁Mea	-10.6651
▁mar	-10.6656
go	-10.6664
duced	-10.6683
▁Sit	-10.6695
▁contribut	-10.6714
▁pu	-10.6804
atic	-10.6831
58	-10.6888
eries	-10.6896
graduat	-10.6924
▁appli	-10.6928
▁2,2	-10.6937
▁met	-10.6976
▁remark	-10.6996
lves	-10.7043
urb	-10.7083
▁designate	-10.712
peat	-10.7138
ik	-10.7149
▁attach	-10.7151
▁0	-10.7211
ner	-10.724
▁equ	-10.7284
way	-10.7305
▁inhibit	-10.7349
under	-10.7353
▁gri	-10.7354
▁spen	-10.7357
00,000	-10.7363
week	-10.7373
tro	-10.7378
clusion	-10.7416
▁La	-10.7421
▁Compar	-10.7422
17	-10.7427
▁works	-10.7431
ters	-10.7439
j	-10.7469
rin	-10.747
▁4,1	-10.7483
even	-10.7484
hour	-10.749
uppression	-10.7499
row	-10.7501
▁Ex	-10.7505
▁sport	-10.7507
mical	-10.7513
ig	-10.7519
dian	-10.7521
▁cor	-10.7522
opening	-10.7534
bc	-10.7571
ail	-10.7572
isc	-10.7573
tial	-10.758
▁1,	-10.7582
pharmac	-10.76
load	-10.7604
▁continent	-10.7611
▁garden	-10.7612
▁edition	-10.7612
▁characteristic	-10.7612
▁lymphocyte	-10.7616
▁shift	-10.7618
ji	-10.7625
▁performance	-10.7631
irborne	-10.7631
▁writ	-10.7631
▁intervention	-10.7632
▁statistic	-10.7633
length	-10.7634
mission	-10.7636
2019-	-10.7637
where	-10.7637
egal	-10.7639
known	-10.7639
▁trend	-10.7641
collect	-10.7644
vaccinated	-10.7645
law	-10.7645
wuhan	-10.7646
with	-10.7647
gregation	-10.7647
▁cancel	-10.765
china	-10.765
made	-10.7651
lead	-10.7654
▁setting	-10.7658
this	-10.7659
ition	-10.766
wear	-10.7662
steroids	-10.7664
▁reduc	-10.7665
recautionary	-10.7665
cent	-10.7667
usual	-10.7668
33	-10.7677
▁Diagnos	-10.7682
lock	-10.7684
▁hydr	-10.7684
▁train	-10.7689
4%	-10.7692
▁lift	-10.7698
▁mis	-10.77
▁operation	-10.77
some	-10.77
con	-10.77
▁issu	-10.7703
▁communi	-10.7706
cation	-10.7719
mit	-10.7732
ssen	-10.7739
oma	-10.7744
▁virtual	-10.7744
low	-10.7747
▁believe	-10.7748
wid	-10.7749
▁vaccinate	-10.7749
rgent	-10.7749
egu	-10.775
▁tw	-10.775
ext	-10.7754
san	-10.7756
ier	-10.7761
nish	-10.7762
evolution	-10.7768
▁compar	-10.7769
trategies	-10.7772
oxy	-10.7774
olar	-10.7774
date	-10.7775
▁door	-10.7775
▁industri	-10.7779
andatory	-10.7781
▁fift	-10.7781
ago	-10.7781
▁interact	-10.7782
▁unexpected	-10.7782
ically	-10.7782
▁Treat	-10.7784
▁Smok	-10.7784
▁interfere	-10.7784
▁micro	-10.7785
▁radio	-10.7786
▁Alcohol	-10.7786
▁interferon	-10.7786
▁wiki	-10.7786
▁Figure	-10.7786
▁Hotels	-10.7786
▁Ibuprofen	-10.7786
▁Libraries	-10.7786
▁Limerick	-10.7786
▁Pregnan	-10.7786
▁Sneezing	-10.7786
▁Vaccination	-10.7786
▁altogether	-10.7786
▁background	-10.7786
▁bangladesh	-10.7786
▁behaviour	-10.7786
▁calendar	-10.7786
▁campaign	-10.7786
▁capture	-10.7786
▁champions	-10.7786
▁cinemas	-10.7786
▁club	-10.7786
▁collaboration	-10.7786
▁constitute	-10.7786
▁denmark	-10.7786
▁depression	-10.7786
▁diocese	-10.7786
▁ebola	-10.7786
▁egypt	-10.7786
▁elastic	-10.7786
▁emphasize	-10.7786
▁endanger	-10.7786
▁epidemiologists	-10.7786
▁exoribonuclease	-10.7786
▁expenditure	-10.7786
▁fatigue	-10.7786
▁galleries	-10.7786
▁goggles	-10.7786
▁guangzhou	-10.7786
▁hotspot	-10.7786
▁ignore	-10.7786
▁inhabit	-10.7786
▁journal	-10.7786
▁loneliness	-10.7786
▁madrid	-10.7786
▁messaging	-10.7786
▁moistur	-10.7786
▁molecules	-10.7786
▁montenegro	-10.7786
▁newspaper	-10.7786
▁operate	-10.7786
▁opinion	-10.7786
▁overwhelmed	-10.7786
▁peripheral	-10.7786
▁repatriated	-10.7786
▁ritonavir	-10.7786
▁robust	-10.7786
▁rodents	-10.7786
▁shenzhen	-10.7786
▁structure	-10.7786
▁struggl	-10.7786
▁studied	-10.7786
▁suspicion	-10.7786
▁switzerland	-10.7786
▁thailand	-10.7786
▁thorough	-10.7786
▁tipperary	-10.7786
▁trillion	-10.7786
▁volunteer	-10.7786
▁wicklow	-10.7786
▁deletion	-10.7786
▁liquid	-10.7786
▁permanent	-10.7786
▁speech	-10.7786
▁stagger	-10.7786
▁Cut	-10.7786
▁claims	-10.7786
▁defense	-10.7786
▁emissions	-10.7786
▁intelligence	-10.7786
▁Support	-10.7786
▁tomography	-10.7786
▁article	-10.7786
▁modified	-10.7786
▁placenta	-10.7786
▁horse	-10.7786
▁yesterday	-10.7786
▁decree	-10.7786
▁virologist	-10.7786
▁journalists	-10.7786
▁migra	-10.7786
▁qom	-10.7786
▁gastroenteritis	-10.7786
unprecedented	-10.7786
▁exact	-10.7786
▁norway	-10.7786
▁bolsonaro	-10.7786
▁beyond	-10.7787
▁Dehydration	-10.7787
▁detergent	-10.7787
▁gyms	-10.7787
▁subgen	-10.7787
▁expand	-10.7787
▁entities	-10.7787
▁revise	-10.7787
▁nsp	-10.7787
▁driving	-10.7787
▁Flu	-10.7787
▁television	-10.7787
kenny	-10.7787
▁football	-10.7787
▁islam	-10.7787
▁admit	-10.7787
▁radiolog	-10.7787
▁fog	-10.7787
▁niche	-10.7787
▁pakistan	-10.7788
▁brief	-10.7788
▁flexibility	-10.7788
▁Local	-10.7788
▁destination	-10.7788
▁worksite	-10.7788
▁wife	-10.7788
▁doubl	-10.7788
▁witness	-10.7788
▁georg	-10.7788
▁session	-10.7788
▁scam	-10.7788
▁hiv	-10.7788
▁Monaghan	-10.7788
▁1890	-10.7789
▁sentence	-10.7789
uary	-10.7789
▁permit	-10.7789
▁chart	-10.7789
▁periodically	-10.7789
▁contraception	-10.7789
▁surgery	-10.7789
▁unclear	-10.7789
▁email	-10.7789
▁harmless	-10.7789
▁synthe	-10.779
▁evaluation	-10.779
▁poor	-10.779
▁Level	-10.779
▁Here	-10.779
scope	-10.779
ffic	-10.779
▁buttocks	-10.7791
▁accu	-10.7791
▁descent	-10.7791
▁inhibition	-10.7791
▁Russ	-10.7791
nternational	-10.7792
▁tu	-10.7792
▁surve	-10.7792
▁matches	-10.7792
▁initiated	-10.7793
▁Rais	-10.7793
▁indefinitely	-10.7793
▁Generally	-10.7793
▁suddenly	-10.7793
▁responsibility	-10.7793
▁stroke	-10.7793
▁stomach	-10.7793
▁cash	-10.7794
lopin	-10.7794
▁emergencies	-10.7794
▁automat	-10.7795
▁Unit	-10.7795
▁stability	-10.7795
▁drastic	-10.7795
▁easier	-10.7795
▁loose	-10.7796
▁exit	-10.7796
▁betacoronavirus	-10.7796
ador	-10.7797
▁counties	-10.7797
▁Last	-10.7797
▁contamination	-10.7797
▁evacuation	-10.7797
▁serum	-10.7797
▁etc	-10.7797
structive	-10.7797
▁Mil	-10.7798
▁bright	-10.7799
▁petrol	-10.7799
▁2015	-10.7799
▁dismissal	-10.7799
▁science	-10.7801
▁alleged	-10.7801
▁guil	-10.7801
▁mix	-10.7802
▁toxicity	-10.7802
▁harm	-10.7802
▁pathogenicity	-10.7803
pedia	-10.7803
▁injury	-10.7803
cfr	-10.7804
▁rarely	-10.7805
easures	-10.7806
▁cycle	-10.7807
▁experimental	-10.7808
▁helpline	-10.7808
▁handwashing	-10.7809
▁mice	-10.7809
ngen	-10.7809
▁disinfection	-10.781
▁plu	-10.781
▁fourth	-10.7811
▁sept	-10.7812
▁pacific	-10.7812
▁proximity	-10.7812
▁insecurity	-10.7812
▁valu	-10.7812
▁sche	-10.7812
▁district	-10.7812
▁edges	-10.7813
▁habits	-10.7813
▁prayers	-10.7813
▁spokes	-10.7813
▁hairdressers	-10.7813
▁matern	-10.7813
pre	-10.7814
▁tablets	-10.7814
▁afterwards	-10.7814
▁consideration	-10.7814
▁Every	-10.7815
▁bru	-10.7815
▁cata	-10.7816
cortico	-10.7816
▁stations	-10.7816
▁correctly	-10.7817
▁Move	-10.7817
▁Lo	-10.7817
▁midwi	-10.7819
▁tree	-10.7822
▁sales	-10.7823
▁Cause	-10.7823
▁barr	-10.7823
▁deep	-10.7824
ocl	-10.7824
▁1,7	-10.7824
▁say	-10.7826
▁activat	-10.7826
▁pup	-10.7828
jiang	-10.7828
▁fil	-10.7828
▁virtually	-10.7829
▁Shar	-10.7829
▁affini	-10.783
▁Near	-10.783
▁belong	-10.783
▁referral	-10.7832
▁eight	-10.7833
etric	-10.7833
▁passage	-10.7833
▁3,4	-10.7834
▁chol	-10.7838
▁busy	-10.7839
86	-10.784
▁aches	-10.7841
▁15%	-10.7844
▁290	-10.7844
▁island	-10.7845
syn	-10.7845
▁prohibited	-10.7852
citation	-10.7853
▁urgently	-10.7853
80	-10.7856
▁bac	-10.7856
▁lrti	-10.7856
▁diplomatic	-10.7858
▁psycho	-10.7859
▁conferences	-10.786
▁healthily	-10.7861
▁spar	-10.7863
▁nce	-10.7863
mation	-10.7863
ees	-10.7866
host	-10.7867
▁originate	-10.7868
▁intra	-10.7873
▁lifted	-10.7878
▁memor	-10.788
▁adjust	-10.7881
▁fire	-10.7881
cmr	-10.7882
▁bit	-10.7887
▁culture	-10.7888
▁page	-10.7889
▁scann	-10.7891
pims	-10.7891
▁40%	-10.7895
▁glass	-10.7896
▁49	-10.7899
▁intell	-10.7899
▁variation	-10.7901
▁morbidit	-10.7902
efficiency	-10.7904
▁vehicles	-10.7908
▁supermarkets	-10.7908
▁techniques	-10.7908
▁bar	-10.7912
▁cats	-10.7917
▁tro	-10.7923
▁il	-10.7924
▁arts	-10.7925
▁2,5	-10.793
▁salt	-10.7934
▁damaged	-10.7936
▁Close	-10.7936
mb	-10.7936
▁enveloped	-10.7939
▁delivered	-10.7943
▁sit	-10.7943
▁thing	-10.7944
▁bars	-10.7948
▁visibl	-10.7948
0.1%	-10.795
bout	-10.7957
▁actual	-10.7968
▁4,000	-10.7968
▁pets	-10.7969
▁eased	-10.797
▁neutraliz	-10.7971
od	-10.7971
▁continual	-10.7972
▁san	-10.7978
▁47	-10.7979
oth	-10.7992
lick	-10.7997
▁alpacas	-10.8005
▁tickets	-10.8005
▁purchases	-10.8005
▁communications	-10.8005
▁games	-10.8006
aster	-10.8028
▁indexe	-10.8028
either	-10.8035
▁exceeding	-10.8041
▁minimiz	-10.8056
▁obes	-10.8065
▁seal	-10.8073
▁booking	-10.808
▁hen	-10.8084
▁stat	-10.8087
▁suits	-10.8094
▁(0.	-10.8103
▁powers	-10.8103
▁Visits	-10.8104
▁3.8	-10.8114
iting	-10.8114
▁Will	-10.8115
pul	-10.812
▁ago	-10.8123
▁points	-10.8127
paris	-10.8127
07.	-10.8127
rogen	-10.8136
▁facts	-10.8147
▁meetings	-10.8155
▁windows	-10.8155
▁disinfected	-10.8173
▁cha	-10.8181
tor	-10.8186
▁rating	-10.8187
1)	-10.8193
▁seats	-10.8199
▁interactions	-10.8204
ids	-10.8204
▁feelings	-10.8205
▁4)	-10.8217
▁cleared	-10.8225
onal	-10.824
▁prescriptions	-10.8255
▁inva	-10.8271
▁planes	-10.8274
▁ships	-10.828
07	-10.8293
▁investigations	-10.8304
▁gol	-10.8317
▁parks	-10.8332
▁ages	-10.8336
▁pet	-10.8339
aba	-10.8362
▁capabilit	-10.8376
64	-10.8396
▁employers	-10.8408
▁plann	-10.8415
▁cd	-10.8426
▁pa	-10.8437
▁4,92	-10.8442
3.0	-10.8444
putin	-10.845
▁happening	-10.8455
▁africans	-10.8459
▁2,1	-10.8468
eat	-10.8473
pped	-10.8495
lessness	-10.8498
ul	-10.8499
▁schedules	-10.851
2-	-10.8516
▁ga	-10.8517
▁dog	-10.8518
▁mandat	-10.8536
gel	-10.8537
▁infects	-10.8598
▁Rep	-10.8602
▁path	-10.861
▁recording	-10.8619
ads	-10.8619
▁drinks	-10.8624
ame	-10.8662
▁falls	-10.8717
▁circulate	-10.8737
riage	-10.8744
indication	-10.8758
73	-10.8772
▁Live	-10.8783
ha	-10.8784
2,5	-10.8787
ene	-10.8816
▁certificates	-10.8826
rts	-10.8833
▁1201	-10.8836
pt	-10.8858
▁transit	-10.8858
▁179	-10.8885
har	-10.8913
supportive	-10.8913
▁applie	-10.8942
yl	-10.8945
▁allocat	-10.8952
cause	-10.8953
▁attacks	-10.8988
▁officers	-10.8991
lad	-10.8997
7%	-10.9006
▁hotels	-10.9043
rs	-10.9048
▁dif	-10.9053
pheic	-10.9054
▁contribute	-10.9081
▁verifi	-10.9165
▁Na	-10.917
▁77	-10.9188
▁Antibod	-10.9209
▁79	-10.9232
▁reli	-10.9234
divid	-10.9271
▁sides	-10.9283
▁classifi	-10.9299
conomic	-10.9337
▁Shi	-10.9339
copy	-10.9342
▁pat	-10.9355
5,	-10.9406
vided	-10.942
▁cop	-10.9489
▁avoided	-10.9499
34	-10.9513
ma	-10.953
108	-10.9563
▁simpl	-10.9569
her	-10.9597
ls	-10.9598
rad	-10.9607
▁Ens	-10.9616
king	-10.9635
otions	-10.9661
ral	-10.9691
03	-10.97
11	-10.971
▁250	-10.9713
▁Pro	-10.9719
gical	-10.9719
▁cleaner	-10.9726
▁evaluat	-10.9744
3.5	-10.9754
cor	-10.9768
stock	-10.9775
sible	-10.979
nitial	-10.9793
63.	-10.9801
acted	-10.9813
▁impos	-10.983
▁nl	-10.9852
▁nam	-10.9854
▁complet	-10.9941
▁spi	-10.9951
ils	-10.9964
▁60,	-10.9977
ari	-11
z	-11.0001
▁400	-11.0022
hus	-11.0038
▁5,000	-11.0047
reign	-11.0059
olence	-11.0075
▁cat	-11.0075
▁bias	-11.0088
are	-11.0093
batcov	-11.0096
▁functional	-11.0096
nel	-11.011
ick	-11.0117
▁prefer	-11.0119
▁translat	-11.0129
▁Liv	-11.0135
main	-11.0148
▁deli	-11.0148
▁32	-11.017
▁patholog	-11.018
41	-11.0181
ise	-11.0184
▁departments	-11.0203
▁zhan	-11.0234
▁mandate	-11.0234
▁inhal	-11.0238
81	-11.0239
▁10,000	-11.0241
▁transmitt	-11.0252
▁impe	-11.0257
pending	-11.0266
▁Both	-11.0267
ells	-11.0278
▁cond	-11.0295
▁challenge	-11.0318
▁Ha	-11.0342
ave	-11.0343
▁ban	-11.0422
▁detain	-11.0443
▁Fe	-11.0448
▁si	-11.0461
turb	-11.0485
west	-11.0486
▁senti	-11.0491
qui	-11.0507
gins	-11.0525
reach	-11.0527
▁ph	-11.0554
ink	-11.0572
za	-11.0582
866	-11.0587
igg	-11.0624
app	-11.0627
dominan	-11.064
ote	-11.0659
hrough	-11.0677
uba	-11.0695
point	-11.0697
pecifically	-11.0698
ema	-11.0703
▁46	-11.0705
▁pol	-11.0717
direct	-11.0749
▁har	-11.0751
▁genera	-11.0754
▁pandemics	-11.0755
bon	-11.0759
4.5%	-11.0773
long	-11.0788
open	-11.0789
▁72	-11.0799
eters	-11.08
town	-11.08
icu	-11.081
so	-11.0826
flam	-11.0827
form	-11.0829
tric	-11.0829
venue	-11.0856
transfer	-11.0859
ball	-11.0865
ature	-11.0869
▁intens	-11.0871
omic	-11.0881
self	-11.0885
▁Stor	-11.0886
▁immunosuppress	-11.0891
▁systemati	-11.0897
olate	-11.0901
arding	-11.0902
ban	-11.0919
▁diploma	-11.0924
ken	-11.0926
▁dashboard	-11.0927
▁field	-11.0927
▁scenario	-11.0927
▁shield	-11.0927
▁purpose	-11.0927
pack	-11.0927
chang	-11.0929
▁2-	-11.093
▁preschool	-11.0932
▁lat	-11.0933
friend	-11.0935
regulation	-11.0935
▁remind	-11.0939
▁defend	-11.0939
▁advi	-11.0943
▁definition	-11.0945
▁Medication	-11.0948
glass	-11.0951
▁trip	-11.0952
▁technique	-11.0953
▁vehicle	-11.0953
transcript	-11.0953
▁supermarket	-11.0953
▁polari	-11.0954
ump	-11.0955
hsa	-11.0957
▁curfew	-11.0957
▁bulb	-11.0958
morbidit	-11.0961
▁56	-11.0962
sign	-11.0963
view	-11.0964
▁price	-11.0964
▁defence	-11.0964
▁carrier	-11.0965
▁pool	-11.0965
▁infant	-11.0965
controlled	-11.0966
▁mammal	-11.0966
▁Pub	-11.0967
▁Vaccine	-11.0968
▁shop	-11.0968
stream	-11.0968
▁traveller	-11.0969
▁resource	-11.0969
▁wage	-11.0969
cgp	-11.0969
power	-11.097
plan	-11.0971
▁adult	-11.0971
wn	-11.0972
▁teacher	-11.0972
political	-11.0972
washed	-11.0973
covered	-11.0976
approved	-11.0977
dhere	-11.0978
pregnant	-11.0978
protein	-11.0979
especially	-11.0979
▁cafe	-11.0979
while	-11.098
pandemic	-11.098
january	-11.098
vaccine	-11.098
weight	-11.098
exist	-11.0982
technology	-11.0982
nio	-11.0982
suspect	-11.0982
primary	-11.0983
pproximate	-11.0984
february	-11.0987
▁ko	-11.0988
highest	-11.0988
county	-11.0988
▁remov	-11.099
▁exclud	-11.0991
have	-11.0992
▁item	-11.0997
through	-11.0997
testing	-11.0998
▁recommendation	-11.1003
ims	-11.1005
▁highlight	-11.1021
▁interrupt	-11.1025
owing	-11.1025
zoo	-11.1029
▁prohibit	-11.1029
▁Vo	-11.103
▁relax	-11.1034
▁bur	-11.1037
▁administer	-11.1037
wet	-11.104
free	-11.1047
▁agr	-11.1061
cond	-11.1063
▁Pre	-11.1066
urban	-11.1066
ffective	-11.1066
▁farm	-11.1067
▁ultimate	-11.1071
achment	-11.1073
▁minute	-11.1075
▁continuous	-11.1077
elve	-11.1079
▁conclude	-11.108
ception	-11.1081
▁quick	-11.1082
▁worrie	-11.1082
▁heat	-11.1084
▁exhibit	-11.1088
28	-11.1091
▁replace	-11.1092
eath	-11.1097
▁organis	-11.11
asti	-11.1101
▁acti	-11.1101
▁dismiss	-11.1101
▁inject	-11.1101
▁epi	-11.1102
▁govern	-11.1102
wnload	-11.1103
leve	-11.1103
▁zoo	-11.1104
ubsequent	-11.1105
▁Infect	-11.1109
ector	-11.1109
▁spa	-11.1109
hysical	-11.1112
▁yog	-11.1112
niversities	-11.1113
otential	-11.1114
▁tex	-11.1115
ndividuals	-11.1115
▁observa	-11.1116
▁hous	-11.1116
erret	-11.1117
▁accident	-11.1117
lexibility	-11.1118
ifferent	-11.1118
mbass	-11.1118
▁differ	-11.1118
▁Safe	-11.1118
aboratory	-11.1118
plex	-11.1118
ruption	-11.1118
▁responsib	-11.1119
▁hung	-11.1119
▁clarif	-11.1119
eadache	-11.1119
▁abnormal	-11.1119
▁coronavir	-11.1119
▁pollut	-11.1119
undred	-11.1119
joy	-11.1119
ecutive	-11.1119
▁uncertain	-11.1119
▁confiden	-11.1119
▁ancest	-11.1119
▁disseminat	-11.1119
evolve	-11.1119
hemorrhoids	-11.1119
hormonal	-11.1119
▁Brazil	-11.1119
▁Breathing	-11.1119
▁Canada	-11.1119
▁Cinemas	-11.1119
▁Countries	-11.1119
▁Diabetes	-11.1119
▁Diarrhea	-11.1119
▁Epidemic	-11.1119
▁Hospital	-11.1119
▁Museums	-11.1119
▁Outbreak	-11.1119
▁Pneumonia	-11.1119
▁Regular	-11.1119
▁Restaurants	-11.1119
▁Return	-11.1119
▁Stretch	-11.1119
▁Swab	-11.1119
▁Taiwan	-11.1119
▁Tipperary	-11.1119
▁aboard	-11.1119
▁absorb	-11.1119
▁angiotensin	-11.1119
▁barbers	-11.1119
▁beneficial	-11.1119
▁bubble	-11.1119
▁built	-11.1119
▁capsules	-11.1119
▁cardboard	-11.1119
▁ceasefire	-11.1119
▁ceremony	-11.1119
▁christmas	-11.1119
▁coincid	-11.1119
▁connectivity	-11.1119
▁conversation	-11.1119
▁coworkers	-11.1119
▁defective	-11.1119
▁dehydrated	-11.1119
▁discourag	-11.1119
▁dollars	-11.1119
▁doorknob	-11.1119
▁etiquette	-11.1119
▁evolving	-11.1119
▁forecast	-11.1119
▁glycoprotein	-11.1119
▁incubator	-11.1119
▁infectivity	-11.1119
▁initiative	-11.1119
▁insufficient	-11.1119
▁jesus	-11.1119
▁journey	-11.1119
▁judaism	-11.1119
▁kidney	-11.1119
▁kilobases	-11.1119
▁kuwait	-11.1119
▁leaflet	-11.1119
▁lucia	-11.1119
▁malaysia	-11.1119
▁nausea	-11.1119
▁onboard	-11.1119
▁optimistic	-11.1119
▁perfect	-11.1119
▁picture	-11.1119
▁portugal	-11.1119
▁recombine	-11.1119
▁resolution	-11.1119
▁rhinoviruses	-11.1119
▁sanitiser	-11.1119
▁transaction	-11.1119
▁trenton	-11.1119
▁ultra	-11.1119
▁undetected	-11.1119
▁vessel	-11.1119
▁vivo	-11.1119
▁warrant	-11.1119
▁zimmerman	-11.1119
otherapy	-11.1119
▁Thailand	-11.1119
▁broncho	-11.1119
▁cornell	-11.1119
▁gaeltacht	-11.1119
▁reject	-11.1119
▁section	-11.1119
phylact	-11.1119
▁Measles	-11.1119
▁Politic	-11.1119
▁Source	-11.1119
▁antarctica	-11.1119
▁bathroom	-11.1119
▁birds	-11.1119
▁compulsive	-11.1119
▁grieving	-11.1119
▁metaboli	-11.1119
▁renewed	-11.1119
icult	-11.112
▁Rapid	-11.112
▁abandon	-11.112
▁asymmetric	-11.112
▁attitude	-11.112
▁categor	-11.112
▁laois	-11.112
▁photograph	-11.112
taneous	-11.112
▁Priorit	-11.112
▁abbott	-11.112
▁integrat	-11.112
▁rumours	-11.112
▁shoppers	-11.112
▁cheese	-11.112
▁feedback	-11.112
▁itinerar	-11.112
▁promote	-11.112
▁evict	-11.112
▁grass	-11.112
▁mourn	-11.112
▁queue	-11.112
▁rotation	-11.112
▁software	-11.112
▁melbourne	-11.112
▁recommence	-11.112
▁medics	-11.112
▁zhou	-11.112
▁riot	-11.112
lbania	-11.112
resumably	-11.112
zambi	-11.112
▁tears	-11.112
▁Infectious	-11.112
▁Concer	-11.112
▁Provid	-11.112
▁Airline	-11.112
▁kiss	-11.112
▁steel	-11.112
▁jazz	-11.112
▁shutdown	-11.112
▁vegetables	-11.112
▁confidential	-11.112
▁confine	-11.112
▁radical	-11.112
▁eradicat	-11.112
▁inactivate	-11.112
▁imperative	-11.112
▁punish	-11.112
▁facebook	-11.112
▁properties	-11.112
▁4.7%	-11.112
▁enjoy	-11.112
▁Carlow	-11.112
▁seoul	-11.112
▁clarified	-11.112
▁abuse	-11.112
▁abdom	-11.112
▁medina	-11.112
▁display	-11.112
▁directives	-11.112
▁gift	-11.112
▁Cdc	-11.1121
morph	-11.1121
▁Mrna	-11.1121
▁Formal	-11.1121
▁governance	-11.1121
▁blame	-11.1121
▁sweat	-11.1121
▁hostels	-11.1121
▁superior	-11.1121
▁expertise	-11.1121
andom	-11.1121
▁Safety	-11.1121
▁submit	-11.1121
▁Touris	-11.1121
▁authorization	-11.1121
▁physician	-11.1121
▁elsewhere	-11.1121
▁hungary	-11.1121
▁printing	-11.1121
ictions	-11.1121
▁kids	-11.1121
▁compris	-11.1122
▁embass	-11.1122
▁observation	-11.1122
▁groceries	-11.1122
▁Also	-11.1122
▁premi	-11.1122
▁decades	-11.1122
▁Donegal	-11.1122
▁tiny	-11.1122
▁topic	-11.1122
▁wildlife	-11.1122
upro	-11.1122
▁readiness	-11.1123
▁lava	-11.1123
forehead	-11.1123
▁qualif	-11.1123
rong	-11.1123
▁Treatment	-11.1123
roid	-11.1123
▁heighten	-11.1123
▁saturation	-11.1123
▁confusion	-11.1123
▁longford	-11.1123
▁commitment	-11.1123
▁Water	-11.1123
íoc	-11.1123
▁consequence	-11.1123
▁Stop	-11.1124
▁coronavac	-11.1124
▁smallpox	-11.1124
▁visa	-11.1124
▁roman	-11.1124
▁crucial	-11.1124
radic	-11.1124
▁click	-11.1124
07.2	-11.1124
▁generation	-11.1124
▁dispers	-11.1125
▁observance	-11.1125
beit	-11.1125
▁fail	-11.1125
▁sweden	-11.1125
cryo	-11.1125
▁4,0	-11.1126
print	-11.1126
▁dosage	-11.1126
▁crew	-11.1126
▁inflammation	-11.1126
▁atlant	-11.1126
▁Iobuprofen	-11.1127
▁stem	-11.1127
▁freephone	-11.1127
▁strike	-11.1127
▁ukraine	-11.1127
▁aldi	-11.1128
▁6,1	-11.1128
▁yoga	-11.1128
▁amnes	-11.1128
▁Defin	-11.1128
▁chlor	-11.1128
▁caution	-11.1128
▁ascertain	-11.1128
mmediate	-11.1129
▁controversy	-11.1129
▁Asymptomatic	-11.1129
ocyto	-11.1129
profen	-11.1129
▁characterized	-11.1129
▁slightly	-11.1129
▁hence	-11.113
izer	-11.113
▁speak	-11.113
▁transferr	-11.113
▁Rna	-11.113
zar	-11.113
▁substitution	-11.1131
▁3,2	-11.1131
▁Disposable	-11.1132
▁His	-11.1132
▁Buy	-11.1132
▁divergen	-11.1132
▁consent	-11.1133
-7.2	-11.1133
▁sentiment	-11.1133
amples	-11.1133
▁prisoners	-11.1134
▁rail	-11.1134
▁salon	-11.1134
▁collapse	-11.1134
▁loan	-11.1135
▁neg	-11.1135
▁latex	-11.1135
▁join	-11.1135
▁export	-11.1136
▁allowance	-11.1136
▁hospitalisation	-11.1137
▁dna	-11.1137
▁obst	-11.1137
▁injection	-11.1138
▁supplement	-11.1138
▁endorse	-11.1138
bidde	-11.1139
▁acknowledge	-11.114
▁blocked	-11.114
▁authorised	-11.1141
▁encountered	-11.1141
▁exacerbated	-11.1141
▁ventilated	-11.1141
▁estate	-11.1141
▁employed	-11.1141
▁pace	-11.1141
▁269,	-11.1142
▁priority	-11.1143
▁download	-11.1143
▁1918	-11.1143
▁1,4	-11.1143
▁speed	-11.1144
▁sew	-11.1144
▁Mill	-11.1144
▁reasonable	-11.1144
mhv	-11.1144
▁qua	-11.1145
ata	-11.1145
▁eliminated	-11.1146
▁investigated	-11.1146
etails	-11.1146
▁harder	-11.1147
▁mood	-11.1148
▁love	-11.1148
▁exhibition	-11.1151
▁timing	-11.1151
▁solar	-11.1152
▁filling	-11.1152
▁lu	-11.1152
▁oppos	-11.1153
guards	-11.1154
icus	-11.1154
▁457	-11.1155
▁fixed	-11.1155
▁inconclusive	-11.1156
rite	-11.1156
▁ineffective	-11.1157
▁rhino	-11.1157
▁distinguish	-11.1157
▁subsid	-11.1157
▁derive	-11.1157
▁fertility	-11.1157
▁castle	-11.1157
▁undiagnosed	-11.1157
▁Dru	-11.1158
▁preparation	-11.1159
▁chickens	-11.1159
▁celebrations	-11.1159
▁ferrets	-11.1159
aught	-11.1159
▁bil	-11.116
▁projections	-11.116
▁sound	-11.116
▁1.7	-11.1161
▁Restrictions	-11.1161
▁optimal	-11.1162
▁243,	-11.1162
▁mec	-11.1163
▁pause	-11.1164
▁tightly	-11.1164
▁continuously	-11.1164
▁0.2	-11.1165
▁mink	-11.1166
▁proce	-11.1166
▁ease	-11.1169
▁simple	-11.1171
lta	-11.1171
▁2,8	-11.1173
▁infectiousness	-11.1173
arian	-11.1174
▁insight	-11.1175
▁epicent	-11.1175
▁6.30	-11.1175
investigating	-11.1175
▁param	-11.1175
▁Cv	-11.1177
▁processes	-11.1178
▁gathered	-11.1178
▁correct	-11.1179
▁wish	-11.1179
▁unexpectedly	-11.1182
cine	-11.1182
▁bend	-11.1183
▁match	-11.1184
ester	-11.1184
▁stadi	-11.1185
▁licence	-11.1188
▁cleave	-11.1189
▁scare	-11.1191
▁planet	-11.1192
▁95	-11.1193
dimer	-11.1193
compliance	-11.1195
▁leaders	-11.1199
▁sharply	-11.1199
▁6,5	-11.1201
▁01	-11.1206
▁cocooning	-11.1206
▁Bat	-11.1207
▁syn	-11.1207
9,33	-11.1208
▁242,	-11.1209
▁sin	-11.121
▁minimis	-11.1212
▁tight	-11.1213
▁Hse	-11.1213
ike	-11.1213
esults	-11.1213
▁interrupted	-11.1215
▁aspect	-11.1217
igm	-11.1217
▁Ord	-11.1217
▁bibl	-11.1222
▁convert	-11.1223
▁electi	-11.1224
▁elections	-11.1225
▁Age	-11.1226
▁newborns	-11.1227
▁gowns	-11.1227
▁Masks	-11.1227
▁lab	-11.1227
▁caf	-11.1228
▁hunger	-11.1229
ull	-11.1229
▁smokers	-11.1229
▁(27	-11.123
wing	-11.1232
▁born	-11.1233
veni	-11.1233
▁miss	-11.1236
shannon	-11.1239
▁xi	-11.1244
▁signal	-11.1245
▁choir	-11.1249
▁utili	-11.125
▁becom	-11.1251
▁247,	-11.1261
1.8	-11.1263
▁copd	-11.1267
▁listen	-11.1268
lop	-11.1271
▁bi	-11.1279
▁5.7	-11.128
▁tropic	-11.1283
▁transcript	-11.1284
▁hsa	-11.1289
dental	-11.1291
iving	-11.1291
▁factory	-11.1292
▁sustained	-11.1292
▁measured	-11.1292
▁cur	-11.1294
▁Parti	-11.1294
▁farms	-11.1296
▁definitions	-11.1297
▁Medications	-11.1297
▁trips	-11.1297
night	-11.1298
▁hot	-11.1299
figures	-11.13
stown	-11.1302
▁cafes	-11.1303
▁temple	-11.1303
ontainment	-11.1304
practical	-11.1304
▁carriers	-11.1304
ethic	-11.1307
fold	-11.1315
▁ema	-11.1316
▁organise	-11.1316
▁Fet	-11.1324
▁mh	-11.1332
▁dri	-11.1333
aí	-11.1335
▁tours	-11.1336
homa	-11.1343
▁hypox	-11.1343
▁nor	-11.1349
▁bal	-11.1349
▁dow	-11.1361
▁mayo	-11.1362
,800	-11.1365
▁technic	-11.1368
▁characteristics	-11.1369
▁gardens	-11.1369
▁continents	-11.1369
▁editions	-11.1369
▁86	-11.137
▁lymphocytes	-11.137
▁load	-11.1373
4.8	-11.1374
▁cura	-11.1377
mes	-11.139
umb	-11.1391
▁4%	-11.1399
der	-11.1413
ages	-11.1416
▁coded	-11.142
ky	-11.1422
twine	-11.1425
▁bent	-11.1425
1.61	-11.1432
▁administrators	-11.1441
▁organisations	-11.1441
▁cards	-11.1447
inva	-11.1449
rn	-11.1453
iers	-11.1455
▁insert	-11.1468
▁supports	-11.147
▁travelers	-11.1483
▁2,6	-11.1486
▁obs	-11.1487
▁input	-11.1491
six	-11.1504
▁stor	-11.1508
▁practis	-11.1537
▁Bl	-11.154
▁running	-11.154
▁distribute	-11.1542
▁mos	-11.1543
▁ji	-11.1546
▁festivals	-11.1553
▁73	-11.1554
▁squeez	-11.1568
-19"	-11.1577
etiology	-11.1588
after	-11.1588
,534	-11.1592
lls	-11.1601
▁dea	-11.1604
▁shoulder	-11.161
▁licens	-11.161
phones	-11.1617
▁producer	-11.1622
ade	-11.1627
▁1.4	-11.1635
▁rena	-11.1635
▁251,	-11.1646
tainment	-11.1646
ino	-11.1652
▁sl	-11.1655
▁grounds	-11.1661
▁schemes	-11.1661
has	-11.1669
ns	-11.1674
▁seiz	-11.1676
▁Inter	-11.1688
tery	-11.169
▁3,7	-11.1694
▁acts	-11.1697
hone	-11.1703
brid	-11.1704
▁readi	-11.171
oul	-11.1725
▁lose	-11.1727
▁pal	-11.1729
0)	-11.1732
nitis	-11.1732
▁254,	-11.1736
▁100,000)	-11.1742
lance	-11.177
gi	-11.1771
▁partners	-11.1774
typical	-11.1796
▁placement	-11.18
▁choices	-11.1811
pir	-11.1818
ently	-11.1833
▁shoulders	-11.1834
▁min	-11.1839
aint	-11.1845
▁lan	-11.185
90	-11.1858
▁goal	-11.1859
.5%	-11.1861
▁pl	-11.187
▁186	-11.1874
▁mrnas	-11.1887
▁pho	-11.1887
▁targets	-11.1887
lies	-11.1893
adow	-11.1903
allow	-11.191
▁encod	-11.1916
ced	-11.1918
▁bra	-11.1926
tists	-11.1935
stric	-11.1939
4,000	-11.1943
ab	-11.1953
▁66	-11.1964
enop	-11.1967
ncl	-11.1972
aving	-11.198
ising	-11.1982
▁Prim	-11.2001
▁ferr	-11.2001
▁grie	-11.2012
▁231,	-11.2013
▁buildings	-11.2041
men	-11.2042
arade	-11.2044
86%	-11.205
▁(8	-11.2053
▁designs	-11.2053
mmunity	-11.2059
oche	-11.206
aining	-11.2061
▁3,3	-11.2075
98	-11.2096
▁Por	-11.2099
▁Ea	-11.2115
▁subjects	-11.2119
▁rac	-11.2134
ford	-11.2152
clinical	-11.2156
▁229	-11.2165
ets	-11.2185
cott	-11.2191
▁legs	-11.2194
each	-11.2195
ndem	-11.2241
itting	-11.226
▁Pa	-11.2272
▁isolates	-11.2281
67,	-11.2293
1.5	-11.2293
ro	-11.2293
ens	-11.2311
▁rain	-11.2334
▁combine	-11.2339
ening	-11.2375
▁My	-11.239
cle	-11.2397
▁acquir	-11.2408
▁recogniz	-11.2426
▁yes	-11.2464
▁6.	-11.2477
vid	-11.249
9,32	-11.2498
1,6	-11.2498
ps	-11.2512
▁tissues	-11.252
ony	-11.253
live	-11.2543
rap	-11.2554
▁mobilize	-11.256
9).	-11.2564
▁Ac	-11.2565
ovel	-11.2576
▁aids	-11.2596
.2)	-11.2604
▁formed	-11.261
indu	-11.2627
▁4,78	-11.2648
▁th	-11.2662
▁ever	-11.2693
▁mutat	-11.2702
killer	-11.2713
▁sequences	-11.2738
em	-11.2742
▁declares	-11.2745
42	-11.2756
0.5%	-11.2782
▁ana	-11.2783
▁overt	-11.2798
▁Che	-11.28
dow	-11.2803
xia	-11.2812
75%	-11.2817
ans	-11.2838
▁offices	-11.286
ention	-11.2865
yal	-11.2875
hens	-11.2877
▁checks	-11.2917
vert	-11.2919
6,8	-11.2928
hand	-11.2932
▁washed	-11.2934
▁nm	-11.2938
93	-11.2945
▁foods	-11.2946
ward	-11.2966
▁convenien	-11.298
nyone	-11.2988
▁3,6	-11.3001
pens	-11.3035
▁10-	-11.3047
▁socially	-11.3053
▁Ca	-11.3057
met	-11.3078
gan	-11.3089
usage	-11.3105
▁rub	-11.312
nom	-11.3129
▁lie	-11.3157
9%)	-11.3196
▁68	-11.3232
rh	-11.3232
ure	-11.3234
▁16.	-11.324
98%	-11.3262
ater	-11.3271
▁induc	-11.3286
url	-11.3288
tra	-11.3289
▁contained	-11.3305
▁shel	-11.3341
▁qu	-11.3361
ile	-11.3363
yle	-11.3396
▁sanit	-11.3417
nged	-11.3425
lan	-11.3438
▁surviv	-11.344
iff	-11.3452
▁essentials	-11.3458
7,6	-11.3473
don	-11.348
▁Part	-11.3493
tal	-11.35
▁ka	-11.3511
▁Medi	-11.3536
▁reliev	-11.3537
nche	-11.3554
▁speculat	-11.3563
scra	-11.3578
▁Los	-11.362
▁Con	-11.3623
gra	-11.3655
▁96	-11.3657
▁ri	-11.3657
▁reus	-11.366
ph	-11.3668
son	-11.3669
40	-11.3685
liance	-11.3696
▁235,	-11.3702
aid	-11.3715
▁Tel	-11.3732
5,3	-11.3773
▁assume	-11.3775
bab	-11.378
stand	-11.3794
xi	-11.3832
▁18-	-11.3854
ality	-11.3856
83	-11.3896
▁disp	-11.393
▁(13	-11.3946
ery	-11.3949
rude	-11.396
%)	-11.3971
tering	-11.4002
ossible	-11.4047
.7%)	-11.4049
▁wip	-11.4072
63,	-11.4093
ious	-11.4099
▁tri	-11.4105
amus	-11.4147
arrh	-11.4151
▁germ	-11.4157
que	-11.4203
forget	-11.4204
▁4,71	-11.4309
types	-11.432
ant	-11.4331
▁den	-11.4401
▁Develop	-11.4443
8,7	-11.4443
ficial	-11.448
▁teams	-11.451
ortion	-11.4527
hi	-11.4531
bri	-11.4533
agh	-11.4537
▁402	-11.4542
ke	-11.4559
br	-11.4579
▁rec	-11.4589
ni	-11.46
inse	-11.4601
▁coordinate	-11.4629
nsure	-11.4631
po	-11.4645
hanks	-11.4658
▁vo	-11.4668
os	-11.468
etic	-11.4705
fore	-11.4719
▁Immun	-11.4733
▁Fat	-11.4772
▁2019-	-11.4814
pp	-11.4817
▁evening	-11.482
licit	-11.4845
lo	-11.4884
fi	-11.4904
res	-11.4922
ado	-11.4937
va	-11.4938
ement	-11.4951
lin	-11.4952
▁sw	-11.4963
qa	-11.4963
▁prec	-11.4984
▁generat	-11.5013
▁mcen	-11.5024
espiratory	-11.5096
su	-11.5102
rp	-11.5107
▁homeless	-11.5107
cr	-11.5114
tant	-11.5139
▁Swe	-11.5242
feeding	-11.5251
▁persist	-11.5278
ania	-11.5279
entation	-11.529
013	-11.5327
ifr	-11.5331
hu	-11.5335
▁swed	-11.5342
nis	-11.5351
lowing	-11.5356
ast	-11.54
▁induce	-11.5421
ust	-11.5431
▁Gen	-11.5459
eu	-11.5465
▁el	-11.5467
▁meta	-11.5478
0,7	-11.5483
act	-11.5484
í	-11.5487
▁carrie	-11.5504
204	-11.5512
abilities	-11.5512
▁continu	-11.5548
4,3	-11.5553
59	-11.5604
wer	-11.5605
▁supporting	-11.5615
ape	-11.5616
bu	-11.5617
▁fer	-11.563
ai	-11.5644
1,8	-11.5648
cate	-11.565
▁8,0	-11.5659
▁lasts	-11.566
▁Offic	-11.5678
icken	-11.5693
nam	-11.5702
▁sna	-11.5711
ulling	-11.5713
nnel	-11.5716
▁mad	-11.573
71	-11.5745
▁121	-11.5753
type	-11.5758
▁61	-11.5781
.9%	-11.5781
▁ant	-11.5788
liter	-11.5789
46	-11.5794
▁4,58	-11.5795
▁Abnormal	-11.5797
clusive	-11.5797
erti	-11.581
firmed	-11.5819
▁En	-11.5822
spect	-11.5824
▁520	-11.5825
▁templ	-11.5826
east	-11.5828
▁occasion	-11.5828
▁215	-11.5838
nka	-11.5841
▁resum	-11.5843
arti	-11.5848
▁3,0	-11.5856
06	-11.5858
pr	-11.586
▁ab	-11.5874
▁Can	-11.5874
▁gr	-11.5874
▁2,0	-11.5884
5,000	-11.5885
▁chro	-11.5892
urs	-11.5893
▁summar	-11.5898
position	-11.5912
7,4	-11.5913
rv	-11.5914
189	-11.5914
▁arab	-11.5916
▁gather	-11.5916
health	-11.5919
dam	-11.5924
▁olympic	-11.5929
▁firework	-11.593
▁dysfunction	-11.593
dministrati	-11.5934
lla	-11.5935
defender	-11.5936
preserv	-11.5937
nc	-11.5939
ili	-11.5939
corpor	-11.5941
osha	-11.5942
born	-11.5943
tocks	-11.5945
eliveries	-11.5951
ope	-11.5952
convert	-11.5955
correct	-11.5955
copd	-11.5955
hunger	-11.5955
minute	-11.5957
402	-11.5957
▁gown	-11.5958
▁newborn	-11.5959
▁john	-11.5959
▁benefit	-11.5959
▁barrier	-11.5959
▁ensu	-11.5962
operation	-11.5963
Close	-11.5963
▁component	-11.5964
▁conference	-11.5964
lrti	-11.5964
adjust	-11.5966
▁concert	-11.5966
▁solution	-11.5966
▁platform	-11.5966
▁employee	-11.5966
▁jump	-11.5967
tract	-11.5968
how	-11.5969
hurt	-11.5969
volume	-11.5969
▁question	-11.5969
▁Multi	-11.597
counter	-11.5971
document	-11.5971
common	-11.5973
iii	-11.5973
▁pub	-11.5974
protected	-11.5974
approval	-11.5975
moderate	-11.5975
solidarity	-11.5975
▁Mask	-11.5975
▁Dic	-11.5976
multi	-11.5976
screen	-11.5976
▁establishment	-11.5976
play	-11.5976
▁determin	-11.5976
month	-11.5976
recognize	-11.5977
clear	-11.5978
reaction	-11.5978
course	-11.5978
australia	-11.5978
nucleo	-11.5978
support	-11.5978
patient	-11.5979
base	-11.5979
you	-11.5979
diplomatic	-11.598
associated	-11.598
identified	-11.598
contain	-11.598
population	-11.5981
house	-11.5981
A	-11.5981
affected	-11.5981
found	-11.5981
masks	-11.5981
number	-11.5981
taken	-11.5981
half	-11.5981
which	-11.5981
reported	-11.5982
▁cocoon	-11.5982
▁62	-11.5984
▁scar	-11.5984
swab	-11.5984
cough	-11.5984
april	-11.5984
travel	-11.5985
ctivities	-11.5985
uk	-11.5985
uthorities	-11.5986
▁physic	-11.5986
first	-11.5987
positive	-11.5987
vailable	-11.5988
bat	-11.5988
back	-11.5988
fizer	-11.599
nswer	-11.599
rrange	-11.5991
designate	-11.5991
ague	-11.5992
family	-11.5993
negative	-11.5995
fema	-11.5998
▁build	-11.5998
bind	-11.5999
measures	-11.5999
▁accord	-11.6001
away	-11.6002
chron	-11.6004
▁mouths	-11.6004
wall	-11.6004
▁rib	-11.6007
look	-11.6012
▁assault	-11.6016
▁discontinu	-11.6016
▁prioritis	-11.6018
that	-11.6019
179	-11.6022
▁conc	-11.6024
lic	-11.6025
▁Vi	-11.6026
▁airway	-11.6028
▁120	-11.6032
▁114	-11.6034
bodi	-11.6034
closed	-11.6034
consci	-11.6035
spreading	-11.6037
▁camel	-11.6039
pply	-11.6041
change	-11.6043
▁procla	-11.6044
▁secur	-11.6045
rmal	-11.6045
▁Off	-11.6045
rsc	-11.6045
spike	-11.6046
wm	-11.6048
▁propos	-11.6051
▁Rub	-11.6051
▁mut	-11.6051
surveillance	-11.6052
lapse	-11.6055
▁alter	-11.6055
▁acqui	-11.6056
life	-11.6056
drp	-11.6059
too	-11.606
▁Y	-11.6062
handl	-11.6062
ati	-11.6063
grade	-11.6063
hold	-11.6065
fforts	-11.6067
▁Organi	-11.6068
▁polic	-11.6069
▁proba	-11.6071
itches	-11.6072
entry	-11.6073
lip	-11.6073
8,9	-11.6075
▁empt	-11.6076
▁eliminate	-11.6076
▁investigate	-11.6076
imer	-11.6077
igi	-11.6077
▁smoker	-11.6077
fusion	-11.6078
▁Clo	-11.6078
▁injur	-11.608
ssess	-11.6081
raction	-11.6081
▁stuff	-11.6081
▁anatom	-11.6081
▁heav	-11.6083
▁societ	-11.6083
▁microscop	-11.6084
▁introduc	-11.6085
▁german	-11.6087
ayer	-11.6089
priv	-11.6089
supplementa	-11.6089
▁appropriat	-11.6089
▁hygien	-11.609
▁positiv	-11.609
cogniti	-11.609
▁influen	-11.6093
tual	-11.6096
rdwar	-11.6096
ying	-11.6097
▁2.4	-11.6097
▁dirt	-11.6097
hcovs	-11.6099
reys	-11.6099
lona	-11.6099
▁kin	-11.61
▁substitut	-11.6102
▁recogni	-11.6102
▁geographic	-11.6102
hort	-11.6104
tomach	-11.6104
uspension	-11.6104
ingapore	-11.6105
easonal	-11.6105
tudents	-11.6106
tudies	-11.6106
▁Small	-11.6109
commended	-11.6109
▁Epidemiologi	-11.6109
suite	-11.611
ttp	-11.6111
ization	-11.6111
yan	-11.6111
▁contra	-11.6112
rump	-11.6112
aff	-11.6112
▁Business	-11.6113
ositive	-11.6113
mdesivir	-11.6113
▁consequen	-11.6113
ethods	-11.6113
▁contracepti	-11.6113
▁accumulat	-11.6114
▁strategi	-11.6114
▁descript	-11.6114
▁confus	-11.6115
egative	-11.6115
▁capita	-11.6115
igh	-11.6115
nfluenza	-11.6115
ncreasing	-11.6115
nstead	-11.6115
onaghan	-11.6116
▁quantit	-11.6116
▁rare	-11.6116
▁grocer	-11.6116
haracteristic	-11.6116
onnect	-11.6116
hurches	-11.6116
rescriptions	-11.6116
akistan	-11.6116
roject	-11.6116
▁futu	-11.6117
▁authoriz	-11.6117
uctions	-11.6117
tential	-11.6117
▁consen	-11.6117
azard	-11.6118
ncourage	-11.6118
thro	-11.6118
▁recombina	-11.6118
ifficulty	-11.6118
ptimal	-11.6118
▁popula	-11.6118
gnostic	-11.6118
ndoor	-11.6118
vidence	-11.6118
▁zi	-11.6119
▁Priva	-11.6119
▁manifest	-11.6119
vax	-11.6119
▁temperat	-11.6119
▁1.1	-11.6119
▁certifi	-11.6119
graph	-11.6119
▁cerebr	-11.6119
ligence	-11.6119
▁ambula	-11.6119
comirnaty	-11.6119
covzx	-11.6119
reschedul	-11.6119
uriz	-11.6119
▁Transport	-11.6119
▁exhaust	-11.6119
▁hierarch	-11.6119
▁louis	-11.6119
▁princip	-11.6119
auritius	-11.6119
coagul	-11.6119
erroneous	-11.6119
fghanistan	-11.6119
hebreyesus	-11.6119
hexidine	-11.6119
hlegm	-11.6119
ithub	-11.6119
proifein	-11.6119
pstick	-11.6119
ransparency	-11.6119
sopropanol	-11.6119
thocoronavirinae	-11.6119
uangdong	-11.6119
ymphopenia	-11.6119
▁107,9	-11.6119
▁Aerosol	-11.6119
▁Australia	-11.6119
▁Bangladesh	-11.6119
▁Belgium	-11.6119
▁Bluetooth	-11.6119
▁Build	-11.6119
▁Cavan	-11.6119
▁Cigarette	-11.6119
▁Cleanliness	-11.6119
▁College	-11.6119
▁Ebola	-11.6119
▁Funeral	-11.6119
▁Gaillimh	-11.6119
▁Hubei	-11.6119
▁Identify	-11.6119
▁Infectivity	-11.6119
▁Lockdown	-11.6119
▁Pandemic	-11.6119
▁Pangolin	-11.6119
▁Pharmac	-11.6119
▁Polio	-11.6119
▁Together	-11.6119
▁Wicklow	-11.6119
▁advoca	-11.6119
▁aerobic	-11.6119
▁aggressive	-11.6119
▁amazon	-11.6119
▁analyzed	-11.6119
▁auckland	-11.6119
▁await	-11.6119
▁belgium	-11.6119
▁breakfast	-11.6119
▁calculator	-11.6119
▁cavan	-11.6119
▁cereals	-11.6119
▁childbirth	-11.6119
▁clarity	-11.6119
▁climb	-11.6119
▁colombia	-11.6119
▁columbia	-11.6119
▁complain	-11.6119
▁conferencing	-11.6119
▁conflict	-11.6119
▁congestion	-11.6119
▁conjunctivitis	-11.6119
▁constitution	-11.6119
▁contemplat	-11.6119
▁coreceptor	-11.6119
▁cytoplasm	-11.6119
▁damaging	-11.6119
▁declining	-11.6119
▁denominator	-11.6119
▁departure	-11.6119
▁destabili	-11.6119
▁discomfort	-11.6119
▁discont	-11.6119
▁disneyland	-11.6119
▁dubai	-11.6119
▁error	-11.6119
▁ethiopia	-11.6119
▁eustatius	-11.6119
▁expense	-11.6119
▁explanation	-11.6119
▁exponential	-11.6119
▁fontana	-11.6119
▁francisco	-11.6119
▁gangelt	-11.6119
▁genotypes	-11.6119
▁gluco	-11.6119
▁gratitude	-11.6119
▁guardian	-11.6119
▁hyper	-11.6119
▁imagine	-11.6119
▁incredibl	-11.6119
▁ithaca	-11.6119
▁jeopardi	-11.6119
▁kolkata	-11.6119
▁labcorp	-11.6119
▁logistic	-11.6119
▁luxembourg	-11.6119
▁macbeth	-11.6119
▁macedonia	-11.6119
▁macrophage	-11.6119
▁malawi	-11.6119
▁meerjady	-11.6119
▁miscarriage	-11.6119
▁modify	-11.6119
▁moldova	-11.6119
▁motif	-11.6119
▁osteonecrosis	-11.6119
▁outweigh	-11.6119
▁palestine	-11.6119
▁parallel	-11.6119
▁peninsula	-11.6119
▁peroxide	-11.6119
▁perspective	-11.6119
▁piercing	-11.6119
▁pneumocytes	-11.6119
▁politico	-11.6119
▁portfolio	-11.6119
▁portlaoise	-11.6119
▁powder	-11.6119
▁pregnancies	-11.6119
▁prematurely	-11.6119
▁prudent	-11.6119
▁qatar	-11.6119
▁reagent	-11.6119
▁recruit	-11.6119
▁resembl	-11.6119
▁sacrifice	-11.6119
▁serbia	-11.6119
▁subunit	-11.6119
▁susceptibility	-11.6119
▁thromb	-11.6119
▁tournament	-11.6119
▁transparent	-11.6119
▁turkmenistan	-11.6119
▁unacceptable	-11.6119
▁venezuela	-11.6119
▁vesicles	-11.6119
▁victim	-11.6119
▁village	-11.6119
▁vitamin	-11.6119
▁vulnerability	-11.6119
▁wenliang	-11.6119
▁yield	-11.6119
ntify	-11.6119
▁Galway	-11.6119
▁sugar	-11.6119
fortunate	-11.6119
pocket	-11.6119
religions	-11.6119
rizon	-11.6119
▁5,143	-11.6119
▁Detect	-11.6119
▁Laois	-11.6119
▁airplane	-11.6119
▁clarification	-11.6119
▁colonies	-11.6119
▁dancing	-11.6119
▁epitheli	-11.6119
▁escalate	-11.6119
▁favor	-11.6119
▁gambl	-11.6119
▁kennedy	-11.6119
▁macau	-11.6119
▁parallelizab	-11.6119
▁plausibl	-11.6119
▁sudan	-11.6119
▁surpris	-11.6119
▁zero	-11.6119
.1.1.7	-11.612
▁Castlerea	-11.612
▁Deadly	-11.612
▁bowl	-11.612
▁delhi	-11.612
▁expensive	-11.612
▁horri	-11.612
▁kicked	-11.612
▁neighbo	-11.612
▁socio	-11.612
▁split	-11.612
▁substantive	-11.612
▁impair	-11.612
▁strat	-11.612
▁videoconferenc	-11.612
▁Toilet	-11.612
▁valid	-11.612
▁Mayo	-11.612
▁diversity	-11.612
▁modification	-11.612
▁relationship	-11.612
▁swollen	-11.612
▁residu	-11.612
▁retain	-11.612
▁sweet	-11.612
▁bleach	-11.612
▁smart	-11.612
attenuat	-11.612
constrain	-11.612
▁brows	-11.612
▁malaria	-11.612
▁psychiatri	-11.612
▁refund	-11.612
▁Dress	-11.612
▁Offaly	-11.612
▁copper	-11.612
▁tumor	-11.612
▁plaque	-11.612
▁Iob	-11.612
▁belief	-11.612
▁contingenc	-11.612
▁tobago	-11.612
tamine	-11.612
▁faith	-11.612
▁Specimen	-11.612
▁ribbon	-11.612
▁satisfact	-11.612
▁anchor	-11.612
▁plasticitis	-11.612
▁endemic	-11.612
▁girl	-11.612
▁curtail	-11.612
▁Examin	-11.612
▁honest	-11.612
▁0.3	-11.612
▁inaction	-11.612
▁ghana	-11.612
▁ribosome	-11.612
guay	-11.612
▁channel	-11.612
▁Amid	-11.612
▁element	-11.612
▁chemist	-11.612
npis	-11.612
▁withdraw	-11.612
▁Waterford	-11.612
▁gestation	-11.612
ordan	-11.612
segment	-11.612
▁58	-11.612
▁exchange	-11.612
▁loop	-11.612
▁Westmeath	-11.612
8,251	-11.612
▁compensat	-11.612
▁feces	-11.612
▁iceland	-11.612
▁expedit	-11.612
▁30-65	-11.612
▁Step	-11.612
▁pretend	-11.612
▁corps	-11.612
solved	-11.612
37.6%)	-11.612
▁premises	-11.612
▁tourism	-11.612
▁partisan	-11.612
nphet	-11.612
hydrogen	-11.612
▁convention	-11.612
xford	-11.612
▁221,64	-11.612
▁Contagious	-11.612
▁rico	-11.612
▁Upload	-11.612
▁excuse	-11.612
▁behavior	-11.612
▁bonaire	-11.612
▁rigor	-11.612
▁assay	-11.612
aregiver	-11.612
▁imprisonment	-11.612
jud	-11.6121
▁dizziness	-11.6121
▁pollutants	-11.6121
▁barrel	-11.6121
▁cakes	-11.6121
bilize	-11.6121
simulation	-11.6121
uard	-11.6121
deserving	-11.6121
▁fauci	-11.6121
▁humidity	-11.6121
▁spatial	-11.6121
▁polio	-11.6121
▁necessities	-11.6121
▁Droplet	-11.6121
▁lough	-11.6121
▁distin	-11.6121
▁panama	-11.6121
▁boli	-11.6121
uant	-11.6121
▁comparative	-11.6121
▁8665	-11.6121
▁deadlie	-11.6121
bmi	-11.6121
abiding	-11.6121
rmu	-11.6121
▁Compute	-11.6121
▁Religio	-11.6121
▁tnf	-11.6121
iva	-11.6121
▁Time	-11.6121
▁push	-11.6121
▁argu	-11.6121
▁utc	-11.6121
▁female	-11.6121
▁intubation	-11.6121
mbled	-11.6122
▁stamp	-11.6122
▁underestimation	-11.6122
▁Delet	-11.6122
▁flag	-11.6122
▁thermo	-11.6122
amp	-11.6122
▁Expl	-11.6122
9,43	-11.6122
▁analog	-11.6122
▁objective	-11.6122
corv	-11.6122
▁Law	-11.6122
▁faeces	-11.6122
▁Option	-11.6122
▁1,037	-11.6122
▁Commerc	-11.6122
iedcr	-11.6122
8.3	-11.6122
▁simon	-11.6122
revers	-11.6122
,541	-11.6122
usett	-11.6122
▁strap	-11.6122
▁226,	-11.6122
▁visual	-11.6122
tigma	-11.6122
lobul	-11.6122
▁traders	-11.6122
▁mongolia	-11.6122
emia	-11.6122
▁harmful	-11.6123
▁covax	-11.6123
▁Flight	-11.6123
▁instant	-11.6123
▁crying	-11.6123
▁ceo	-11.6123
▁accidentally	-11.6123
ulty	-11.6123
gev	-11.6123
▁Ros	-11.6123
onomy	-11.6123
▁quantities	-11.6123
▁richard	-11.6123
▁dara	-11.6124
gni	-11.6124
▁diverse	-11.6124
9,5	-11.6124
▁damp	-11.6124
curring	-11.6124
▁correlat	-11.6124
▁matter	-11.6124
▁Hig	-11.6124
▁undercounting	-11.6124
fort	-11.6124
▁platelet	-11.6124
nces	-11.6124
▁amplifi	-11.6124
scape	-11.6124
▁220,	-11.6124
abbit	-11.6124
▁decrypt	-11.6124
▁crispr	-11.6124
▁descriptive	-11.6125
▁organizer	-11.6125
oscopy	-11.6125
▁1.44%	-11.6125
▁accumulation	-11.6125
entist	-11.6125
▁federa	-11.6125
▁7,8	-11.6126
ental	-11.6126
▁223,	-11.6126
▁finish	-11.6126
▁Clar	-11.6126
▁Hydro	-11.6126
▁gael	-11.6126
▁Businesses	-11.6126
▁catheter	-11.6126
▁shaking	-11.6127
▁15,8	-11.6127
▁Clu	-11.6127
▁lips	-11.6127
▁Enter	-11.6127
isease	-11.6127
▁contractors	-11.6128
▁uncommon	-11.6128
▁iata	-11.6128
▁zim	-11.6128
▁disinformation	-11.6128
▁stu	-11.6128
▁Eu	-11.6128
▁mala	-11.6128
▁curation	-11.6129
otal	-11.6129
▁centur	-11.6129
▁dense	-11.6129
▁obligation	-11.6129
▁Epidemiologist	-11.613
▁fibr	-11.613
eligi	-11.613
▁Coles	-11.613
▁Ventilator	-11.613
▁aggregator	-11.613
▁225,	-11.613
▁athl	-11.613
▁entr	-11.6131
chards	-11.6131
▁2,97	-11.6131
▁purs	-11.6131
▁bengal	-11.6131
▁peni	-11.6131
▁idea	-11.6131
▁emergent	-11.6132
▁seattle	-11.6132
imple	-11.6132
nformation	-11.6132
▁resign	-11.6133
▁offend	-11.6133
trate	-11.6133
ambi	-11.6133
xen	-11.6133
▁Whole	-11.6133
▁decentraliz	-11.6133
3,532	-11.6134
fringe	-11.6134
▁1.0	-11.6134
▁246,	-11.6134
▁Simul	-11.6134
▁industries	-11.6135
▁bill	-11.6135
lio	-11.6136
▁Updat	-11.6136
8%	-11.6136
▁sympathy	-11.6136
essive	-11.6136
▁mul	-11.6136
▁sadness	-11.6137
▁1,5	-11.6137
▁marginali	-11.6137
grave	-11.6137
trict	-11.6137
▁2017	-11.6137
▁loudly	-11.6137
▁bilaterally	-11.6137
▁internal	-11.6137
▁remit	-11.6137
rem	-11.6138
▁brain	-11.6138
▁incur	-11.6138
39,7	-11.6138
▁inconvenient	-11.6138
iscu	-11.6138
teria	-11.6139
rote	-11.6139
▁scotti	-11.6139
sserts	-11.6139
814	-11.6139
▁overnight	-11.614
▁Special	-11.614
▁cath	-11.6141
▁Prote	-11.6141
▁investment	-11.6141
orld	-11.6142
▁Alter	-11.6142
▁nh	-11.6143
ecide	-11.6143
▁hetero	-11.6144
▁253,	-11.6144
▁lun	-11.6144
nesco	-11.6145
▁44%	-11.6145
▁Speci	-11.6145
▁weekend	-11.6146
culos	-11.6146
▁invo	-11.6146
stuck	-11.6146
▁2.2	-11.6147
tunis	-11.6147
▁mcc	-11.6147
2,692	-11.6148
▁Herein	-11.6148
▁comp	-11.6148
▁rice	-11.6148
▁White	-11.6148
▁compute	-11.6148
▁exc	-11.6149
▁red	-11.615
▁tension	-11.615
▁exemp	-11.615
▁473	-11.6151
▁1960	-11.6151
▁14,7	-11.6151
ishment	-11.6151
▁impose	-11.6152
according	-11.6152
▁atti	-11.6152
gue	-11.6152
▁fide	-11.6152
▁Letter	-11.6153
▁divergent	-11.6155
▁4,600	-11.6157
ort	-11.6157
▁78,	-11.6157
▁anatomical	-11.6158
shape	-11.6158
▁microscope	-11.6159
▁meath	-11.6159
▁245,	-11.6159
elect	-11.616
isplaced	-11.616
▁cow	-11.616
▁pheno	-11.616
▁newsom	-11.6161
disproportionate	-11.6161
▁underestimated	-11.6162
▁bigge	-11.6162
tail	-11.6162
yms	-11.6164
▁empty	-11.6165
▁quar	-11.6166
32	-11.6166
coon	-11.6167
▁bay	-11.6168
▁voc	-11.6168
▁bott	-11.6168
ument	-11.6171
▁shelf	-11.6172
▁eff	-11.6172
▁senator	-11.6172
▁1950	-11.6172
▁anxi	-11.6172
-25%)	-11.6173
▁sort	-11.6173
▁imper	-11.6173
city	-11.6173
▁dev	-11.6176
usions	-11.6176
▁Walking	-11.6176
ealthy	-11.6178
ideo	-11.6178
▁abnormalities	-11.6179
▁2.0	-11.6179
▁xin	-11.618
▁Except	-11.618
norm	-11.6181
rob	-11.6182
▁ambulance	-11.6184
▁geo	-11.6184
▁spot	-11.6184
rdy	-11.6184
lish	-11.6184
ggage	-11.6184
240,19	-11.6185
▁recycl	-11.6185
nded	-11.6185
▁sun	-11.6186
▁nuts	-11.6187
▁bonus	-11.6187
▁politics	-11.6187
▁symbol	-11.6187
▁invalid	-11.6187
▁profile	-11.6187
▁inspected	-11.6187
▁couple	-11.6187
employment	-11.6188
▁Rube	-11.6189
▁2,94	-11.6189
▁-44	-11.619
▁angle	-11.619
▁clinicians	-11.619
▁joseph	-11.619
▁pigs	-11.619
▁skills	-11.619
▁2013	-11.619
▁Sneezes	-11.619
▁Surfaces	-11.619
▁zones	-11.619
▁cheaters	-11.619
▁height	-11.619
minis	-11.6191
▁proportions	-11.6191
▁Gps	-11.6193
▁invest	-11.6193
▁fip	-11.6199
▁ultimately	-11.62
ordin	-11.6202
▁Sur	-11.6202
light	-11.6204
▁mona	-11.6204
▁weaker	-11.6204
▁intense	-11.6205
▁jun	-11.6206
▁mall	-11.6207
eeling	-11.6208
4,27	-11.6208
rials	-11.6209
▁Pay	-11.621
▁communicate	-11.6213
▁suicide	-11.6214
▁propagate	-11.6217
▁nip	-11.6217
▁374	-11.6219
▁3,8	-11.6219
proc	-11.622
lowly	-11.622
▁angu	-11.6221
▁relations	-11.6221
▁Bel	-11.6221
▁outlet	-11.6222
▁240,	-11.6222
▁thrown	-11.6223
▁prioritised	-11.6224
▁assaulted	-11.6224
▁discontinued	-11.6224
▁altered	-11.6224
▁intentional	-11.6229
rdrp	-11.6229
sha	-11.623
sides	-11.623
▁Leak	-11.623
▁Incubation	-11.623
▁charit	-11.6232
▁replaced	-11.6237
ody	-11.6237
nder	-11.6238
olic	-11.6239
nor	-11.624
▁dock	-11.6242
▁fun	-11.6243
1,000	-11.6244
▁surge	-11.6246
▁activi	-11.6247
▁Or	-11.6248
▁hear	-11.6249
▁qing	-11.625
▁invit	-11.625
▁pack	-11.6251
▁ira	-11.6251
▁adenovirus	-11.6252
▁prediction	-11.6253
traction	-11.6254
▁blow	-11.6255
ultiple	-11.6255
▁bally	-11.6256
pid	-11.6258
▁adm	-11.6259
▁achieved	-11.6261
▁proved	-11.6261
▁124	-11.6262
▁forward	-11.6265
▁bud	-11.6265
▁economies	-11.6266
und	-11.6268
▁friend	-11.6269
▁penali	-11.6269
▁identifie	-11.6274
▁25%	-11.6275
▁jumping	-11.6275
▁140	-11.6277
▁mol	-11.6278
▁244,	-11.628
▁trust	-11.6281
▁Gre	-11.6281
▁regulation	-11.6282
▁Economi	-11.6284
▁squ	-11.6284
191	-11.6285
▁tax	-11.6285
tration	-11.6286
ibo	-11.629
▁chronological	-11.6291
▁highlighted	-11.6292
lence	-11.6294
▁267,	-11.6294
ugh	-11.6295
▁judge	-11.6295
▁portion	-11.6297
▁notif	-11.6299
▁rotte	-11.6301
▁incorpor	-11.6302
▁lesser	-11.6302
▁ribo	-11.6303
▁scared	-11.6304
▁210	-11.6304
seas	-11.6305
▁osha	-11.6306
▁preserv	-11.6306
▁fema	-11.6307
▁packs	-11.6312
▁dysfunctions	-11.6314
▁fireworks	-11.6314
▁olympics	-11.6314
▁shipp	-11.6314
erto	-11.6316
▁bul	-11.6316
burg	-11.6319
▁pot	-11.6321
epsis	-11.6326
,576	-11.6326
gues	-11.6326
▁Cost	-11.6326
rase	-11.6327
▁independently	-11.6328
▁termin	-11.6329
▁economist	-11.6331
nate	-11.6334
▁Tu	-11.6335
cie	-11.6338
crp	-11.6343
hydration	-11.6345
▁summarize	-11.6347
raz	-11.6347
fbc	-11.6348
▁peri	-11.6351
raw	-11.6351
por	-11.6353
3-4	-11.6354
copies	-11.6354
▁Tur	-11.6354
myel	-11.6358
▁sync	-11.6359
▁award	-11.6359
▁administrati	-11.636
ses	-11.6363
▁brea	-11.6381
-2020	-11.6382
▁castil	-11.6383
ola	-11.6384
▁Free	-11.6387
9,83	-11.6395
▁apartment	-11.6398
▁adviser	-11.64
▁singing	-11.6402
elp	-11.6405
ational	-11.6406
▁sc	-11.6409
▁Low	-11.6412
▁formation	-11.6416
▁2000	-11.6417
▁occasional	-11.642
▁reminder	-11.6422
gin	-11.6423
arma	-11.6423
▁inflam	-11.6425
ogene	-11.6428
▁alan	-11.6435
ering	-11.6442
▁congregat	-11.6442
▁purposes	-11.6442
▁dashboards	-11.6442
▁fields	-11.6442
▁scenarios	-11.6442
▁shields	-11.6442
▁diplomas	-11.6443
▁preschools	-11.6443
bought	-11.6445
▁polaris	-11.6446
ques	-11.6446
▁organ	-11.6447
umps	-11.6448
prima	-11.6448
617	-11.6458
▁bor	-11.6459
33)	-11.646
▁wages	-11.6462
ister	-11.6464
▁conce	-11.6466
▁2.4%	-11.6467
▁chin	-11.6467
85	-11.6467
▁54	-11.6476
▁63	-11.6479
▁election	-11.6479
38,90	-11.6481
▁writing	-11.6482
▁83	-11.6483
solation	-11.649
▁mode	-11.649
▁ideal	-11.6492
3,89	-11.6495
4%)	-11.6495
▁coal	-11.6506
mend	-11.6513
▁pharmac	-11.6514
troke	-11.6517
▁manu	-11.652
▁3.5	-11.6525
▁monthly	-11.6532
▁traveler	-11.6532
▁figure	-11.654
▁cord	-11.6543
▁Touch	-11.6548
▁Store	-11.6549
sition	-11.6564
▁shifts	-11.6574
aki	-11.6575
▁Enrol	-11.6577
▁215,	-11.6586
▁lock	-11.6592
▁incom	-11.6596
roper	-11.6597
theme	-11.6597
fat	-11.66
▁545	-11.6604
cuba	-11.661
iran	-11.6611
▁gove	-11.6613
xy	-11.6616
▁defender	-11.6617
2,16	-11.662
mic	-11.662
swa	-11.662
rising	-11.6623
▁Note	-11.6626
ssment	-11.6637
eg	-11.6639
▁male	-11.6639
▁Sli	-11.665
▁53	-11.6654
▁mary	-11.6655
jav	-11.6659
cated	-11.6672
side	-11.6674
▁71	-11.6697
71%)	-11.6699
▁consulates	-11.6708
▁polyproteins	-11.6708
ately	-11.6709
1,1	-11.6711
▁airports	-11.6714
1,9	-11.6717
1.35	-11.6718
▁uploaded	-11.6719
uta	-11.6725
fb	-11.6726
ologically	-11.6741
ties	-11.6745
▁Di	-11.6749
1.3	-11.6765
lent	-11.6779
ron	-11.6783
may	-11.6797
lted	-11.6798
▁wa	-11.6813
mr	-11.682
▁herb	-11.6825
▁laund	-11.6827
▁Ga	-11.6847
▁persi	-11.6847
ification	-11.685
7,55	-11.6853
▁ears	-11.6855
alve	-11.6872
▁hair	-11.6874
▁Spend	-11.6882
▁anger	-11.6887
rough	-11.6888
▁08	-11.6889
▁4,13	-11.6894
elles	-11.69
▁usa	-11.6904
formal	-11.6907
.2%)	-11.692
tag	-11.6925
2,30	-11.6942
▁bridge	-11.6953
▁2,39	-11.6958
▁lit	-11.696
▁wipes	-11.6964
▁250,	-11.6974
ainm	-11.698
▁courts	-11.6983
▁domin	-11.6993
parts	-11.6995
2.4%	-11.704
page	-11.7054
lack	-11.7068
vents	-11.708
▁Pres	-11.7099
▁fig	-11.7104
13)	-11.7118
▁declines	-11.7119
nchs	-11.713
mentation	-11.7132
▁digest	-11.7139
▁genes	-11.7141
▁Sport	-11.7142
▁Coughing	-11.7147
▁inhibitor	-11.7174
chen	-11.7178
▁surpasse	-11.7193
▁Ag	-11.7203
▁fi	-11.7207
ume	-11.7229
tically	-11.7236
tening	-11.7243
quality	-11.7244
try	-11.7249
▁generates	-11.7249
▁explor	-11.7253
tables	-11.7255
▁75	-11.7258
▁exclusi	-11.7261
▁handles	-11.7266
eum	-11.7267
▁Mas	-11.7268
▁distan	-11.7282
fuse	-11.7283
▁1,00	-11.7292
▁toxicit	-11.7317
ished	-11.7326
▁consulta	-11.737
sks	-11.737
-100	-11.7371
vity	-11.7388
▁exer	-11.7405
▁funerals	-11.7416
▁ba	-11.7422
▁leis	-11.7434
nza	-11.7437
referably	-11.7442
▁durations	-11.7459
▁ens	-11.7468
productivity	-11.747
5,2	-11.7472
sus	-11.7501
▁12014	-11.7525
south	-11.7528
lian	-11.753
lu	-11.7537
▁specialis	-11.7549
▁watery	-11.755
▁Rem	-11.7552
▁cancellations	-11.7568
▁demanded	-11.7573
og	-11.7576
-19:	-11.7594
▁fla	-11.7632
▁spending	-11.7654
lite	-11.7655
ini	-11.7668
▁perf	-11.7681
rganizations	-11.7705
tical	-11.7708
▁scales	-11.7715
lab	-11.7729
▁lea	-11.7731
bul	-11.774
▁feed	-11.7741
bt	-11.7751
▁arrang	-11.7756
▁inhale	-11.7769
▁Nas	-11.7782
940	-11.7808
▁differently	-11.7827
▁elucidat	-11.7842
89	-11.7851
its	-11.7858
4.5	-11.7909
hrain	-11.791
49	-11.7913
▁outlin	-11.7914
▁waste	-11.7941
aria	-11.797
▁translate	-11.7976
1,87	-11.7976
rick	-11.8011
ist	-11.8014
▁ve	-11.8021
▁consum	-11.8022
▁combinations	-11.8031
eign	-11.8043
▁4,87	-11.8051
lood	-11.8058
ryan	-11.8061
950	-11.8062
pos	-11.8078
bag	-11.811
-9	-11.8141
▁mai	-11.8154
6,5	-11.8163
7.8	-11.8176
▁cre	-11.8177
▁lacks	-11.8191
alse	-11.8212
pha	-11.8231
▁av	-11.824
▁Pri	-11.8249
dia	-11.8251
get	-11.8266
nner	-11.827
▁medi	-11.827
▁Chi	-11.8284
ec	-11.8306
,97	-11.8324
erry	-11.8385
04	-11.8428
.4)	-11.8446
ups	-11.8447
▁q	-11.8465
7,7	-11.8501
3,32	-11.8503
▁fevers	-11.8509
thy	-11.852
let	-11.8525
pe	-11.8542
▁marketing	-11.8542
int	-11.856
hy	-11.8565
4,4	-11.8649
▁2,25	-11.8655
ana	-11.8678
ether	-11.8681
itial	-11.8735
14.	-11.874
▁tens	-11.8771
solut	-11.8788
tai	-11.8801
ium	-11.8803
bo	-11.8813
nge	-11.8832
tern	-11.8841
▁evaluate	-11.8847
disposal	-11.8848
mber	-11.8854
980	-11.8876
▁cru	-11.8885
▁creatin	-11.8923
▁Inse	-11.8934
76	-11.8935
rred	-11.8949
▁pla	-11.8968
▁tour	-11.9
▁ice	-11.9015
ption	-11.9052
inat	-11.9083
▁bands	-11.9096
▁fed	-11.9111
cience	-11.9163
ough	-11.918
▁les	-11.919
▁eth	-11.9208
simplifi	-11.9208
ntriguing	-11.9233
nic	-11.9285
35,8	-11.9307
cas	-11.932
19.	-11.9326
▁27%	-11.9338
.6%	-11.9343
▁238,	-11.9344
▁batch	-11.939
▁Ar	-11.9393
alm	-11.9437
only	-11.9483
125	-11.9499
▁3,68	-11.9522
▁finding	-11.9545
▁(47	-11.9571
angha	-11.9578
0.00	-11.963
▁assum	-11.9651
vir	-11.9662
ks	-11.9682
advert	-11.9714
opsy	-11.972
▁2,70	-11.973
▁Ment	-11.9803
▁99.4	-11.9825
▁4,65	-11.9852
▁12013	-11.9868
▁248,	-11.993
▁sn	-11.993
▁Sal	-11.9945
tter	-11.9947
atches	-11.9952
▁228,	-11.9991
▁owner	-12.0017
▁-9	-12.0024
▁passe	-12.0041
op	-12.007
rain	-12.0076
8,3	-12.0092
heat	-12.0092
gh	-12.011
▁income	-12.0111
▁sno	-12.0139
ria	-12.0158
▁sanita	-12.0217
97	-12.0247
organis	-12.0251
▁4,63	-12.026
▁1,37	-12.0304
hai	-12.0313
ament	-12.0321
▁refuse	-12.0341
2,7	-12.0361
ubb	-12.037
quir	-12.0378
▁hun	-12.0382
elle	-12.04
8,4	-12.0401
▁Carr	-12.0417
▁2,7	-12.0435
lm	-12.0511
50,	-12.0588
partment	-12.0639
une	-12.0649
dium	-12.0665
▁30-	-12.0712
▁ta	-12.0729
triguing	-12.079
▁exp	-12.0806
urging	-12.0854
tensi	-12.0855
47.7%	-12.0904
pathy	-12.0916
27%)	-12.0952
take	-12.0972
xa	-12.0975
ension	-12.0977
▁dec	-12.098
2%)	-12.0995
ay	-12.1006
illi	-12.1021
▁hind	-12.1024
0,000,000	-12.1034
▁vent	-12.1043
▁deb	-12.1073
▁4,68	-12.1084
,000,000	-12.1103
arm	-12.1125
100%	-12.1132
▁prevented	-12.1162
▁cro	-12.1189
▁allocate	-12.1197
▁selecti	-12.12
▁exposures	-12.1247
▁211,	-12.1248
72	-12.1261
▁sar	-12.1261
5%)	-12.1261
▁216,	-12.1287
▁18,	-12.1311
rath	-12.1328
▁mutate	-12.1358
▁transi	-12.1399
0,5	-12.14
tens	-12.1402
▁193	-12.1469
▁secre	-12.1484
lternatively	-12.1485
possible	-12.1546
▁14.5	-12.1554
ese	-12.1569
▁1-	-12.1572
any	-12.1582
roll	-12.1592
▁sha	-12.1593
ira	-12.1617
▁flo	-12.164
ley	-12.1677
opened	-12.1698
▁circulat	-12.1718
▁Deliver	-12.1719
33,3	-12.1734
istan	-12.1741
nlr	-12.1787
▁wi	-12.1869
▁para	-12.1888
01	-12.1975
ray	-12.2037
69,7	-12.2037
ntiviral	-12.2065
rea	-12.2089
hang	-12.2091
▁prescrib	-12.2115
organise	-12.2158
▁activate	-12.216
struction	-12.2173
▁plac	-12.2175
▁Me	-12.2207
6,54	-12.2277
ita	-12.233
▁nasa	-12.2369
tive	-12.2394
,56	-12.2464
connected	-12.2467
▁2,46	-12.2468
ased	-12.2478
▁31.	-12.2499
▁12-	-12.2565
▁bah	-12.2584
▁mem	-12.2605
▁6.0	-12.2631
▁outline	-12.266
▁237,	-12.2666
▁elucidate	-12.267
tics	-12.2687
▁sta	-12.2688
▁replicat	-12.2769
ato	-12.2797
▁201	-12.2812
0.7%	-12.2829
lle	-12.2841
▁sol	-12.2889
ngredient	-12.29
▁Organiz	-12.2988
▁pavi	-12.299
▁academ	-12.3038
▁4,73	-12.3058
his	-12.3125
▁expose	-12.3156
achi	-12.3159
ypical	-12.3242
pportunistic	-12.3254
cl	-12.3255
▁adher	-12.3267
▁reserv	-12.3298
▁reproductiv	-12.331
uma	-12.3324
6,83	-12.3327
tu	-12.3347
ertainly	-12.3365
ore	-12.3394
anic	-12.3406
▁nationalis	-12.341
ybe	-12.3437
▁tool	-12.3445
rimary	-12.3447
▁consult	-12.3453
pressed	-12.3458
ovin	-12.3546
▁mitigat	-12.3554
ta	-12.3582
▁toxic	-12.3653
▁Spa	-12.367
itis	-12.3681
gen	-12.3689
likely	-12.3702
▁indirect	-12.3707
▁houses	-12.3735
▁fli	-12.3735
▁broade	-12.3741
cut	-12.3762
▁Nasa	-12.3768
adi	-12.377
400	-12.38
nning	-12.3809
ain	-12.3814
▁wh	-12.3821
gar	-12.383
▁252,	-12.3867
▁Continu	-12.3877
▁arti	-12.3878
▁4,83	-12.3891
ox	-12.39
erts	-12.3922
quee	-12.3933
▁227,	-12.3933
02	-12.3942
10-1	-12.3956
filtering	-12.3962
sistent	-12.3966
▁78	-12.3977
▁im	-12.4041
▁balanc	-12.4065
ue	-12.4076
):	-12.4085
lif	-12.4096
hereafter	-12.4168
developmental	-12.4171
red	-12.4192
band	-12.4204
▁Whe	-12.4269
▁star	-12.427
sity	-12.4289
pon	-12.4311
▁postpon	-12.432
27,6	-12.4333
1,68	-12.4343
5,9	-12.4354
▁license	-12.4355
▁reacti	-12.437
ums	-12.437
lated	-12.4373
6,60	-12.4389
infor	-12.439
▁comfortabl	-12.4401
ither	-12.4404
▁etiolog	-12.4415
▁15-	-12.4419
▁squeeze	-12.4426
unche	-12.4436
ison	-12.4441
force	-12.4488
▁800	-12.4495
urrently	-12.4527
▁acquire	-12.4531
▁204,	-12.4536
▁Lou	-12.4539
contaminate	-12.4552
▁Bu	-12.4647
ti	-12.4667
▁rep	-12.4669
ologist	-12.4673
lob	-12.4673
peak	-12.4684
▁241,	-12.4688
llow	-12.47
▁Press	-12.4702
hloro	-12.4738
nosis	-12.4761
▁decid	-12.4802
ming	-12.4805
▁fo	-12.4831
▁Ph	-12.4872
▁dispose	-12.4947
zz	-12.4974
ual	-12.4984
▁threaten	-12.5027
py	-12.5033
rge	-12.504
567	-12.5049
funded	-12.5093
▁71%	-12.5098
name	-12.5103
3,8	-12.5103
▁neutralize	-12.5108
▁Sick	-12.5113
roke	-12.5132
otic	-12.5144
▁minimize	-12.516
latten	-12.517
itation	-12.5174
▁jo	-12.5184
ple	-12.5187
kles	-12.523
▁hypo	-12.5234
▁inser	-12.5237
gene	-12.5244
▁commit	-12.525
counting	-12.5255
ak	-12.5273
lau	-12.5275
rolling	-12.528
▁3,30	-12.5282
▁Disinfect	-12.533
▁bl	-12.5344
▁320	-12.5348
▁promise	-12.5349
read	-12.5349
cretion	-12.5357
▁announc	-12.539
volution	-12.5394
lists	-12.5398
arch	-12.5422
▁transmissi	-12.5434
deally	-12.5437
verse	-12.5444
▁efficienc	-12.546
ecretion	-12.5462
▁occup	-12.5466
cha	-12.5478
wealth	-12.5479
▁2019-20	-12.5481
nai	-12.5483
distract	-12.5497
enni	-12.5514
▁Precaution	-12.5524
move	-12.5526
lect	-12.5534
wa	-12.555
▁anal	-12.5558
▁affi	-12.5559
athology	-12.5559
unfair	-12.5561
ange	-12.5572
▁citizen	-12.5583
▁identifi	-12.5584
▁clo	-12.5593
rne	-12.5604
illa	-12.5608
leans	-12.5608
early	-12.5614
checked	-12.5618
ntitis	-12.5622
▁intel	-12.5623
tacle	-12.5628
zo	-12.563
oration	-12.5637
▁tropi	-12.5637
hannon	-12.5638
tribution	-12.5642
gps	-12.5643
▁Symptom	-12.5644
lineage	-12.5651
▁fu	-12.5662
▁Su	-12.5664
▁observe	-12.5672
current	-12.5679
▁judg	-12.5684
gher	-12.5684
manded	-12.5685
hoc	-12.5705
import	-12.5706
ship	-12.571
▁auto	-12.5711
wash	-12.5716
pa	-12.5717
▁10.3	-12.5731
imal	-12.5735
service	-12.5743
group	-12.5746
pen	-12.5746
▁cast	-12.5749
ible	-12.5749
step	-12.5751
alesce	-12.5753
riman	-12.5755
ax	-12.5759
olecular	-12.576
count	-12.576
▁sai	-12.5773
▁enforc	-12.5774
ords	-12.5776
▁proportion	-12.5813
ransmissibility	-12.5821
6,0	-12.5823
introduc	-12.5824
troy	-12.5827
▁complian	-12.5828
center	-12.5831
▁eng	-12.5831
oo	-12.5831
▁employ	-12.5833
atched	-12.5833
head	-12.5834
security	-12.5834
ouches	-12.5836
▁cleav	-12.5839
▁licenc	-12.584
▁Breast	-12.5841
▁intention	-12.5847
my	-12.5851
310	-12.5859
▁cr	-12.5861
ervices	-12.5864
▁propaga	-12.5875
ches	-12.5876
▁che	-12.5877
pread	-12.5879
bar	-12.5879
3,93	-12.588
▁suicid	-12.5881
adequate	-12.5885
commu	-12.5885
ocyte	-12.5886
248	-12.5887
definite	-12.5889
nvestigating	-12.5892
▁decreas	-12.5895
▁Sep	-12.5896
ric	-12.5898
block	-12.5901
eri	-12.5903
tool	-12.5904
per	-12.5905
putum	-12.5906
gram	-12.5907
2019	-12.5908
▁1,38	-12.5909
omen	-12.5914
entral	-12.5921
▁manda	-12.5922
regular	-12.5922
▁mod	-12.5926
gain	-12.5926
urveillance	-12.5927
▁0.0	-12.5929
▁Caus	-12.593
280	-12.5931
pox	-12.5932
▁spe	-12.5933
▁90,0	-12.5937
▁Sneeze	-12.5941
▁zone	-12.5941
▁cheater	-12.5941
▁Fre	-12.5941
▁josep	-12.5942
▁Surface	-12.5943
▁Phylogen	-12.5945
denovirus	-12.5946
ything	-12.5946
▁172	-12.5947
bott	-12.5947
politics	-12.5949
invalid	-12.5949
profile	-12.5949
symbol	-12.595
nuts	-12.595
ski	-12.595
Small	-12.595
propos	-12.595
couple	-12.595
trust	-12.595
invest	-12.595
▁optim	-12.595
pike	-12.5951
cluding	-12.5951
rica	-12.5952
mill	-12.5952
erology	-12.5953
teroids	-12.5954
possibl	-12.5955
ecycled	-12.5955
▁refu	-12.5957
mini	-12.5957
pass	-12.5957
meter	-12.5957
mbulance	-12.5958
▁Viru	-12.5958
ortico	-12.596
gent	-12.596
4,58	-12.596
adenovirus	-12.596
▁celebration	-12.5961
ou	-12.5961
bonus	-12.5961
hit	-12.5963
▁chicken	-12.5963
compute	-12.5964
▁hairdresser	-12.5965
▁prayer	-12.5965
festivals	-12.5965
▁habit	-12.5965
pause	-12.5965
subsid	-12.5965
castle	-12.5965
distinguish	-12.5965
join	-12.5965
sound	-12.5966
rhino	-12.5966
▁spoke	-12.5966
nucle	-12.5966
▁object	-12.5967
▁Chang	-12.5968
epi	-12.5968
▁fragment	-12.5969
▁customer	-12.5969
challenge	-12.5969
manu	-12.5969
▁skill	-12.597
djust	-12.5971
I	-12.5971
kill	-12.5971
▁scientist	-12.5971
▁Exp	-12.5972
pacific	-12.5972
proximity	-12.5972
district	-12.5972
parks	-12.5972
reduc	-12.5973
valu	-12.5973
▁pri	-12.5973
▁pilgrim	-12.5973
construct	-12.5973
fects	-12.5974
▁pig	-12.5974
shift	-12.5975
▁4.2	-12.5975
coding	-12.5975
▁particle	-12.5976
▁ferret	-12.5976
infrastructure	-12.5976
substantial	-12.5976
proof	-12.5976
calories	-12.5976
▁device	-12.5976
piece	-12.5976
▁Walk	-12.5976
▁circumstance	-12.5977
issue	-12.5977
petition	-12.5977
diagnose	-12.5977
sustain	-12.5977
shakes	-12.5978
▁Patient	-12.5978
estimated	-12.5978
administrati	-12.5978
dyspnea	-12.5979
epidemiology	-12.5979
conduct	-12.5979
stimulate	-12.5979
▁approv	-12.5979
commerc	-12.5979
wedding	-12.5979
color	-12.5979
nba	-12.5979
unexpected	-12.5979
combination	-12.598
▁envelop	-12.598
national	-12.598
▁theatre	-12.598
discovery	-12.598
sharp	-12.5981
meaning	-12.5981
campus	-12.5982
First	-12.5982
october	-12.5982
predict	-12.5982
lethal	-12.5982
▁mi	-12.5982
strategy	-12.5983
model	-12.5983
nutrition	-12.5983
stretch	-12.5983
Se	-12.5983
medicine	-12.5983
territories	-12.5983
traditional	-12.5983
behind	-12.5983
particles	-12.5983
compa	-12.5984
agree	-12.5984
choice	-12.5984
committee	-12.5985
settings	-12.5985
college	-12.5985
student	-12.5985
wednesday	-12.5985
balance	-12.5985
charge	-12.5985
Man	-12.5986
implemented	-12.5986
mitigation	-12.5986
previous	-12.5986
focus	-12.5986
appropriate	-12.5986
rbd	-12.5986
additional	-12.5986
market	-12.5987
standard	-12.5987
johnson	-12.5987
cancer	-12.5987
Us	-12.5987
imposed	-12.5987
woman	-12.5987
november	-12.5987
amount	-12.5987
safe	-12.5987
removed	-12.5987
monitor	-12.5987
Coronavirus	-12.5987
walk	-12.5988
japan	-12.5988
C	-12.5988
middle	-12.5988
concern	-12.5988
citizens	-12.5988
express	-12.5988
▁explo	-12.5988
now	-12.5988
corona	-12.5988
adapt	-12.5988
genome	-12.5988
system	-12.5988
distance	-12.5989
distancing	-12.5989
return	-12.5989
Covid	-12.5989
mobil	-12.5989
epidemic	-12.5989
room	-12.5989
foreign	-12.5989
There	-12.5989
cludes	-12.5989
emergency	-12.5989
▁replac	-12.5989
immun	-12.599
government	-12.599
restrictions	-12.599
track	-12.599
until	-12.599
trial	-12.599
sthma	-12.599
On	-12.599
2000	-12.599
june	-12.599
H	-12.599
drinking	-12.599
brand	-12.599
ppointments	-12.599
dicated	-12.599
▁240	-12.599
ssistance	-12.5991
unions	-12.5991
safety	-12.5991
analysis	-12.5991
nonymous	-12.5991
pril	-12.5992
emerge	-12.5992
rais	-12.5992
limit	-12.5992
upload	-12.5993
control	-12.5993
further	-12.5994
▁experiment	-12.5994
impact	-12.5994
pets	-12.5994
throat	-12.5994
dults	-12.5994
shops	-12.5994
▁specif	-12.5994
▁encl	-12.5995
nnual	-12.5995
neck	-12.5995
ahead	-12.5996
▁packag	-12.5996
local	-12.5996
ypes	-12.5997
child	-12.5997
large	-12.5998
ccess	-12.5998
▁measur	-12.5998
mrna	-12.5998
sectors	-12.5999
official	-12.5999
545	-12.6
card	-12.6
geo	-12.6
daily	-12.6001
recommended	-12.6001
▁cycl	-12.6002
▁handwash	-12.6002
leave	-12.6002
▁breastfeed	-12.6004
hazard	-12.6006
▁electro	-12.6006
derive	-12.6007
rti	-12.6007
ssential	-12.6008
In	-12.6009
often	-12.6009
areas	-12.6009
left	-12.601
passport	-12.601
fertility	-12.601
ouching	-12.601
potential	-12.601
planes	-12.601
both	-12.6011
physical	-12.6011
▁estimat	-12.6012
because	-12.6012
new	-12.6014
multiple	-12.6014
fatality	-12.6014
▁underestimat	-12.6017
97,0	-12.6018
nhs	-12.6018
immediate	-12.602
fifth	-12.6021
activ	-12.6021
stop	-12.6021
glasses	-12.6022
▁ventilat	-12.6025
medical	-12.6026
▁projection	-12.6027
▁procedure	-12.6028
outside	-12.6028
frequently	-12.603
▁smok	-12.603
extreme	-12.6031
▁authoris	-12.6031
▁Emerg	-12.6031
▁exacerbat	-12.6031
received	-12.6033
▁Prepar	-12.6033
▁encounter	-12.6034
store	-12.6034
215	-12.6034
france	-12.6036
alpha	-12.6036
rus	-12.6036
ugg	-12.6039
▁verif	-12.604
▁sti	-12.6042
president	-12.6044
states	-12.6045
regularly	-12.6048
290	-12.6049
december	-12.6049
tact	-12.605
arrange	-12.605
▁evacu	-12.605
▁philip	-12.605
effective	-12.605
airborne	-12.6051
package	-12.6053
ku	-12.6053
trump	-12.6054
bio	-12.6054
roplet	-12.6055
suspend	-12.6056
piratory	-12.6056
1,38	-12.6057
▁prepa	-12.6057
stitut	-12.6057
does	-12.6058
acco	-12.6059
symptomatic	-12.6061
74,8	-12.6061
grad	-12.6062
ecember	-12.6063
▁fill	-12.6065
▁mater	-12.6068
▁litera	-12.607
advanc	-12.607
lk	-12.6071
▁nutritio	-12.6071
chlori	-12.6071
ggest	-12.6072
requently	-12.6073
iplomatic	-12.6073
63,0	-12.6075
ditionally	-12.6075
ertility	-12.6075
hip	-12.6076
▁sympath	-12.6077
▁procedur	-12.6077
▁margin	-12.6077
▁bilateral	-12.6077
willing	-12.6079
▁instructi	-12.6079
▁characterize	-12.6079
astrazeneca	-12.6079
▁sudden	-12.608
▁General	-12.608
▁clinician	-12.608
▁loud	-12.6081
▁controvers	-12.6081
▁initiate	-12.6081
▁compromise	-12.6082
pag	-12.6082
▁cautio	-12.6083
▁anticipate	-12.6083
▁lymphocyt	-12.6083
▁calculate	-12.6083
▁responsibilit	-12.6084
abc	-12.6085
▁Respirator	-12.6085
▁bloo	-12.6085
▁locate	-12.6086
▁reproduc	-12.6086
▁medicin	-12.6086
phy	-12.6086
▁colleg	-12.6086
▁efficac	-12.6086
▁strik	-12.6087
▁exercis	-12.6087
▁surfac	-12.6087
▁instru	-12.6087
xtreme	-12.6087
ilize	-12.6088
ebruary	-12.6088
▁significan	-12.6089
▁Europ	-12.6089
▁sensitiv	-12.6089
▁residenc	-12.6089
obuprofen	-12.609
cities	-12.6092
▁Ventilat	-12.6093
▁aggregat	-12.6093
▁ukrain	-12.6093
▁obligat	-12.6094
▁alleg	-12.6095
▁communica	-12.6095
yndrom	-12.6096
▁manufacture	-12.6097
▁Compa	-12.6097
tend	-12.6097
scribe	-12.6097
▁stimul	-12.6098
tances	-12.6098
press	-12.6098
mpt	-12.6099
echnology	-12.6099
nteresting	-12.6099
eutral	-12.61
▁cruci	-12.6103
ifth	-12.6104
aturation	-12.6104
▁Restriction	-12.6104
tillbirth	-12.6105
184	-12.6105
▁undertak	-12.6105
info	-12.6105
next	-12.6105
older	-12.6105
ubject	-12.6106
ssengers	-12.6106
ignificant	-12.6106
eparate	-12.6107
▁Comp	-12.6107
▁crisp	-12.6107
independent	-12.6107
ndoscop	-12.6107
▁frequen	-12.6108
crypt	-12.6109
▁tim	-12.6109
about	-12.6109
ildlife	-12.6109
cades	-12.611
▁organize	-12.611
ntroduc	-12.611
inimize	-12.611
▁physi	-12.611
quirement	-12.611
▁profession	-12.6111
ongolia	-12.6112
▁profess	-12.6112
idespread	-12.6113
▁xenophobi	-12.6113
▁criti	-12.6113
posit	-12.6113
▁borde	-12.6113
▁redu	-12.6114
mplement	-12.6114
owel	-12.6114
mplications	-12.6114
▁teache	-12.6114
▁cup	-12.6114
orship	-12.6114
ntubation	-12.6114
▁territori	-12.6114
▁nur	-12.6114
clare	-12.6115
specifi	-12.6115
▁particula	-12.6115
▁destin	-12.6115
▁syndrom	-12.6115
▁modern	-12.6115
▁muc	-12.6115
▁educat	-12.6115
ortality	-12.6115
▁celebr	-12.6115
mportant	-12.6116
ompromised	-12.6116
emperature	-12.6116
▁necessit	-12.6116
ajor	-12.6116
tivate	-12.6116
ridge	-12.6116
ilateral	-12.6116
ography	-12.6116
▁fauc	-12.6116
alifornia	-12.6117
▁foo	-12.6117
ytokine	-12.6117
athogen	-12.6117
rocessed	-12.6117
rotocol	-12.6117
izziness	-12.6117
rofessional	-12.6117
reventive	-12.6117
ysfunction	-12.6117
olymerase	-12.6117
reliminary	-12.6117
▁librar	-12.6117
▁imprison	-12.6117
▁actua	-12.6117
▁entit	-12.6117
▁demograph	-12.6117
iarrhoea	-12.6117
ehavior	-12.6117
onaire	-12.6117
iscrimination	-12.6117
▁christ	-12.6117
▁registr	-12.6117
▁prince	-12.6117
▁unemploy	-12.6117
olsonaro	-12.6117
enefits	-12.6118
oderna	-12.6118
stablishment	-12.6118
ollen	-12.6118
etween	-12.6118
▁Contagio	-12.6118
idents	-12.6118
dehyd	-12.6118
mployers	-12.6118
ccasional	-12.6118
stimates	-12.6118
bjective	-12.6118
ducation	-12.6118
lectron	-12.6118
advantage	-12.6118
etacoronavirus	-12.6118
▁strength	-12.6118
bru	-12.6118
egetables	-12.6118
roceries	-12.6119
xygen	-12.6119
astroenteritis	-12.6119
artisans	-12.6119
enues	-12.6119
viole	-12.6119
▁recomm	-12.6119
uidelines	-12.6119
srael	-12.6119
airdressers	-12.6119
ournalists	-12.6119
ygiene	-12.6119
▁fili	-12.6119
▁satisf	-12.6119
utation	-12.6119
ticul	-12.6119
respective	-12.6119
uarantine	-12.6119
▁flexib	-12.6119
ployed	-12.6119
capacit	-12.6119
▁comprehen	-12.6119
▁zho	-12.6119
bourne	-12.6119
▁contagio	-12.6119
rrhea	-12.6119
▁basket	-12.6119
symmetr	-12.6119
ousehold	-12.6119
egarde	-12.6119
vellers	-12.6119
Out	-12.6119
▁Castle	-12.6119
▁conjuncti	-12.6119
crimina	-12.6119
verwhelm	-12.6119
▁Hub	-12.6119
junctiv	-12.6119
nophobia	-12.6119
oplasm	-12.6119
tabli	-12.6119
▁immunocomp	-12.6119
compuls	-12.6119
biotech	-12.612
▁neuro	-12.612
cteris	-12.612
polypro	-12.612
uga	-12.612
▁hospi	-12.612
tilat	-12.612
ressively	-12.612
enovir	-12.612
odelling	-12.612
trition	-12.612
urkey	-12.612
appoint	-12.612
▁clai	-12.612
agm	-12.612
coronavirinae	-12.612
zhe	-12.612
festations	-12.612
efforts	-12.612
uestions	-12.612
boards	-12.612
rends	-12.612
▁expir	-12.612
geria	-12.612
introduced	-12.6121
xposure	-12.6121
loves	-12.6121
valent	-12.6121
▁symp	-12.6121
▁polyp	-12.6121
onsider	-12.6121
1.1.	-12.6121
anama	-12.6121
estmeath	-12.6121
ganda	-12.6121
mpact	-12.6121
demic	-12.6122
▁rich	-12.6122
tude	-12.6122
arctic	-12.6122
hologic	-12.6122
indows	-12.6122
▁Sero	-12.6122
uhan	-12.6122
▁Sub	-12.6122
▁solid	-12.6122
mulate	-12.6122
apan	-12.6123
eyond	-12.6123
▁potent	-12.6123
▁accura	-12.6123
uscle	-12.6123
▁frie	-12.6123
▁consula	-12.6123
pact	-12.6123
▁sinoph	-12.6123
rigo	-12.6123
▁seque	-12.6123
ehic	-12.6123
gathe	-12.6123
eady	-12.6124
icitin	-12.6124
ogram	-12.6124
▁adeno	-12.6124
ercentage	-12.6124
hild	-12.6125
▁complic	-12.6125
iontech	-12.6125
illag	-12.6125
esterday	-12.6125
mel	-12.6125
▁sacr	-12.6125
iologist	-12.6126
▁kil	-12.6126
10.9	-12.6126
▁blu	-12.6126
ublished	-12.6126
▁Communi	-12.6126
ungs	-12.6127
iseach	-12.6127
▁emba	-12.6127
▁eva	-12.6127
▁conti	-12.6127
▁opt	-12.6127
ulation	-12.6127
▁hig	-12.6127
eje	-12.6127
iscuss	-12.6127
▁russ	-12.6128
▁humid	-12.6128
icensing	-12.6128
▁macro	-12.6128
▁terr	-12.6128
ritic	-12.6129
▁implicat	-12.6129
meat	-12.6129
openia	-12.6129
▁surveil	-12.6129
citis	-12.613
etergent	-12.613
▁custo	-12.613
ribonucle	-12.613
acebook	-12.6131
ticians	-12.6131
▁aero	-12.6131
ndant	-12.6132
▁tea	-12.6132
▁Smoke	-12.6133
▁decentrali	-12.6133
▁268,	-12.6134
▁approve	-12.6134
▁transcri	-12.6134
hog	-12.6135
down	-12.6135
ilators	-12.6135
toms	-12.6135
▁Contin	-12.6135
notice	-12.6135
cient	-12.6136
undi	-12.6136
▁photo	-12.6136
▁bona	-12.6137
▁alternati	-12.6137
▁happ	-12.6137
lectin	-12.6138
▁suppo	-12.6138
neutral	-12.6138
▁Immuno	-12.6138
ibility	-12.6139
▁haz	-12.6139
angi	-12.614
ghi	-12.614
nzh	-12.614
▁emis	-12.6141
another	-12.6141
articula	-12.6141
proportionate	-12.6141
umab	-12.6142
ctor	-12.6142
beco	-12.6142
ctant	-12.6142
0,4	-12.6144
arriage	-12.6144
buy	-12.6144
▁1,8	-12.6144
576	-12.6145
also	-12.6145
tibility	-12.6145
ritical	-12.6145
eryth	-12.6145
bbi	-12.6146
▁4.7	-12.6147
rcha	-12.6147
▁effectiv	-12.6148
tcome	-12.6148
eetings	-12.6148
▁gen	-12.6148
spread	-12.6148
slee	-12.6149
▁hemo	-12.615
▁Diff	-12.615
laborat	-12.615
olati	-12.6151
mera	-12.6152
▁requirement	-12.6152
▁bang	-12.6153
▁wind	-12.6153
▁gang	-12.6153
ciation	-12.6154
bron	-12.6154
▁solu	-12.6155
▁rig	-12.6156
laxati	-12.6157
eek	-12.6158
▁insta	-12.6158
irway	-12.6158
ymptomatic	-12.6159
▁218,	-12.616
sibl	-12.6161
▁Isolat	-12.6163
hel	-12.6163
▁oxf	-12.6163
cens	-12.6164
uden	-12.6164
dney	-12.6165
▁slight	-12.6165
pang	-12.6165
uest	-12.6165
▁faec	-12.6166
amily	-12.6166
vious	-12.6167
ppo	-12.6167
▁defe	-12.617
healthy	-12.6171
male	-12.6171
▁station	-12.6171
▁milli	-12.6172
riving	-12.6172
cho	-12.6176
mulations	-12.6176
pillo	-12.6176
aper	-12.6177
etent	-12.6177
droplet	-12.6178
▁substan	-12.618
claimed	-12.618
rovers	-12.618
▁edge	-12.618
▁uncon	-12.618
▁undertake	-12.6181
▁trim	-12.6181
▁shu	-12.6182
endan	-12.6183
jian	-12.6183
40%	-12.6183
330	-12.6184
rip	-12.6184
nagh	-12.6185
▁Gp	-12.6186
washing	-12.6187
cog	-12.6188
rlin	-12.6189
▁philipp	-12.6189
▁cou	-12.619
30%	-12.6191
aintain	-12.6193
▁soft	-12.6193
okine	-12.6194
etary	-12.6195
selves	-12.6195
come	-12.6195
chest	-12.6196
▁multipl	-12.6197
ancy	-12.6198
uggl	-12.6198
alysis	-12.6199
ocooning	-12.6199
onnell	-12.6199
amage	-12.62
▁mortali	-12.6203
▁stoc	-12.6203
mer	-12.6205
orman	-12.6207
litis	-12.6208
237	-12.6208
cur	-12.621
▁Emp	-12.6213
heart	-12.6214
mouth	-12.6214
▁limitation	-12.6214
quit	-12.6216
▁emer	-12.6218
▁propose	-12.6218
238	-12.622
elli	-12.622
itations	-12.6221
lapsed	-12.6224
▁244	-12.6226
▁dema	-12.6226
sputum	-12.6227
conclusive	-12.6227
tionary	-12.6228
▁decent	-12.6228
tools	-12.6228
▁sino	-12.6229
▁monte	-12.623
serology	-12.623
bina	-12.623
oid	-12.6231
lineages	-12.6233
▁airli	-12.6233
▁242	-12.6233
▁269	-12.6234
▁hur	-12.6236
steps	-12.6237
▁Ob	-12.6237
itness	-12.6238
▁lineage	-12.6238
groups	-12.624
data	-12.6241
▁unco	-12.6241
cost	-12.6242
ophen	-12.6247
irement	-12.6247
pit	-12.6248
rking	-12.6248
▁Remo	-12.6249
▁brig	-12.6249
▁attract	-12.625
pra	-12.6252
▁abse	-12.6252
tidy	-12.6252
tantly	-12.6255
muscul	-12.6257
death	-12.6258
▁spat	-12.6258
precedent	-12.626
abies	-12.6263
easter	-12.6264
own	-12.6266
eighten	-12.6266
▁Sim	-12.6269
shit	-12.627
▁rod	-12.6271
▁Hair	-12.6272
was	-12.6273
▁lime	-12.6273
avirin	-12.6274
people	-12.6274
trolle	-12.6274
▁leader	-12.6278
▁188	-12.6279
▁900	-12.628
▁bot	-12.628
▁Tra	-12.628
ephone	-12.6282
▁meth	-12.6283
ured	-12.6287
veil	-12.6289
posed	-12.6289
▁block	-12.629
spected	-12.6292
ecd	-12.6294
loy	-12.6297
efully	-12.63
agem	-12.6301
source	-12.6302
1.6	-12.6303
▁End	-12.6305
mallpox	-12.6305
▁exclude	-12.6308
▁Ten	-12.6309
25%)	-12.6312
▁indefinite	-12.6315
log	-12.6317
btain	-12.6317
▁Add	-12.632
hard	-12.632
▁adequate	-12.6321
lets	-12.6321
vergent	-12.6322
ilte	-12.6324
val	-12.6329
▁smo	-12.6331
nager	-12.6333
▁221	-12.6334
ixin	-12.6335
fixed	-12.6335
fro	-12.6336
rosis	-12.634
rms	-12.634
wea	-12.6342
toxic	-12.6346
▁gam	-12.635
nerals	-12.635
▁grat	-12.6352
mat	-12.6353
grams	-12.6356
▁commu	-12.6356
ooker	-12.636
2,94	-12.6361
coronaviruses	-12.6361
▁diver	-12.6364
▁preced	-12.6364
▁communicat	-12.6364
still	-12.6365
▁compani	-12.6365
lery	-12.6369
ocytes	-12.637
▁hall	-12.6373
176	-12.6374
▁histo	-12.6375
ilk	-12.6377
▁sometime	-12.6378
phys	-12.638
tech	-12.6381
▁demo	-12.6382
▁tablet	-12.6383
21.	-12.6383
reparedness	-12.6385
▁backl	-12.6386
qua	-12.6386
▁fur	-12.6396
ldh	-12.6401
▁2.5	-12.6403
▁Wat	-12.6403
reastfeeding	-12.6403
113	-12.641
ert	-12.6414
win	-12.6414
tisation	-12.6417
▁233	-12.6419
▁afr	-12.6422
aks	-12.6431
rim	-12.6432
▁urin	-12.6436
▁sy	-12.6438
oughing	-12.6441
glob	-12.6442
’	-13.967
V	-13.9671
U	-13.9672
G	-13.9673
–	-13.9674
N	-13.9675
L	-13.9676
/	-13.9677
E	-13.9678
R	-13.9679
F	-13.968
B	-13.9681
M	-13.9682
P	-13.9683
D	-13.9684
Y	-13.9685
W	-13.9686
O	-13.9687
S	-13.9688
(	-13.9689
T	-13.969
