<pad>	0
</s>	0
<unk>	0
▁के	-3.749
▁है	-3.90822
।	-4.05242
,	-4.11607
▁	-4.16097
▁में	-4.16103
▁और	-4.19684
▁की	-4.29451
ी	-4.32864
े	-4.43815
▁से	-4.48928
▁को	-4.57067
ों	-4.59723
ा	-4.62587
▁का	-4.68167
▁(	-4.80109
)	-4.80486
न	-5.00604
.	-5.04821
-	-5.07419
▁कि	-5.11086
▁हैं	-5.12141
▁पर	-5.13966
क	-5.14192
▁एक	-5.20639
ने	-5.25279
▁लिए	-5.2755
▁इस	-5.31721
▁तो	-5.42557
▁जो	-5.43664
र	-5.45448
▁नहीं	-5.47259
▁भी	-5.5011
ं	-5.51184
▁हो	-5.53563
ित	-5.55879
ल	-5.57168
ता	-5.60871
▁न	-5.61789
म	-5.62246
ि	-5.6327
▁ने	-5.67082
▁कर	-5.67663
▁किया	-5.69455
▁यह	-5.70811
▁उस	-5.74027
स	-5.76669
▁ही	-5.82973
▁या	-5.83674
त	-5.85342
▁वह	-5.86346
▁करने	-5.93063
ना	-5.96632
▁हम	-6.01399
ो	-6.04418
▁अ	-6.04787
ट	-6.08126
▁तुम	-6.08836
ब	-6.10211
ज	-6.10971
▁अपने	-6.12639
▁था	-6.13323
▁आ	-6.15013
िक	-6.15436
द	-6.1591
प	-6.21662
▁वे	-6.24745
ह	-6.26657
▁गया	-6.29112
श	-6.29132
à	-6.29411
▁तथा	-6.29553
ु	-6.31108
य	-6.32779
व	-6.34767
्य	-6.35098
▁कुछ	-6.36006
▁किसी	-6.39837
ू	-6.40208
▁साथ	-6.43431
▁जब	-6.43838
्	-6.43956
से	-6.44608
ण	-6.4512
▁रूप	-6.45961
▁उनक	-6.4754
के	-6.4875
ियों	-6.48879
▁कोई	-6.50672
का	-6.51619
कर	-6.53393
▁स	-6.5506
▁द्वारा	-6.55081
▁भारत	-6.56325
▁क	-6.57099
▁करते	-6.57723
ई	-6.58448
ग	-6.58949
▁लोग	-6.58989
▁जा	-6.596
▁लोगों	-6.59747
ड	-6.60571
ते	-6.6067
ए	-6.61702
▁थे	-6.61928
▁जाता	-6.62842
▁उन	-6.62863
▁तक	-6.64388
ओं	-6.66184
▁व	-6.66727
▁कहा	-6.67744
रा	-6.67821
ें	-6.68502
▁फिर	-6.68665
/	-6.69009
▁करें	-6.701
▁दिया	-6.74004
▁करना	-6.76287
्र	-6.76509
▁क्या	-6.77231
▁इन	-6.77529
▁मैं	-6.78385
?	-6.79425
▁उसके	-6.81111
▁आप	-6.81208
▁हुए	-6.81638
▁ब	-6.81738
▁अपनी	-6.81987
ै	-6.82023
फ	-6.8205
या	-6.83227
ख	-6.8414
▁अल्लाह	-6.842
ः	-6.84684
▁ये	-6.84918
▁दो	-6.86677
▁उन्हें	-6.88727
▁जिस	-6.88932
¤	-6.89272
▁"	-6.90312
▁रहे	-6.91339
च	-6.91379
सी	-6.92428
▁सकता	-6.92635
▁रहा	-6.93273
▁कार्य	-6.93885
▁ह	-6.9437
▁म	-6.94435
▁अधिक	-6.94481
▁करता	-6.94878
▁ख़ुदा	-6.96273
ती	-6.96879
▁होता	-6.96967
▁थी	-6.98117
▁समय	-6.98148
ला	-6.98779
▁मेर	-7.00745
%	-7.01009
▁प्र	-7.02563
;	-7.02947
ीय	-7.07485
▁बहुत	-7.0782
2	-7.08531
में	-7.08575
कार	-7.10141
▁बात	-7.10509
ंग	-7.10883
ड़	-7.11229
▁उन्होंन	-7.12192
▁बाद	-7.12918
▁तरह	-7.12964
▁दे	-7.13204
की	-7.13743
▁प	-7.14668
▁प्रति	-7.14714
ज़	-7.15715
▁हुआ	-7.16386
वा	-7.16427
▁सं	-7.16662
▁वाले	-7.18472
▁उ	-7.19064
▁राष्ट्रपति	-7.19531
▁काम	-7.20174
री	-7.20348
▁वि	-7.20685
▁इ	-7.20733
▁पास	-7.21244
ाई	-7.22867
s	-7.22874
▁ले	-7.22941
▁प्राप्त	-7.2296
▁त	-7.23214
▁गए	-7.23339
▁अन्य	-7.23353
▁ग	-7.23896
▁होने	-7.24459
नी	-7.2489
▁हमारे	-7.25783
▁द	-7.26708
▁नाम	-7.26811
ध	-7.27805
▁कम	-7.28089
▁सभी	-7.28375
▁फ	-7.29381
▁यदि	-7.29745
▁वर्ष	-7.29838
▁दिन	-7.31027
▁प्रकार	-7.31094
▁गई	-7.31135
e	-7.31692
▁तुम्हारे	-7.31928
▁ओर	-7.32036
▁पहले	-7.32818
▁सकते	-7.33256
भ	-7.33482
ॉ	-7.33692
▁दी	-7.3374
▁होगा	-7.33898
▁श	-7.35068
स्त	-7.35236
▁ऐसे	-7.35956
▁कारण	-7.36184
▁भ	-7.36249
▁क्षेत्र	-7.37045
मा	-7.37381
▁हर	-7.37477
▁सब	-7.37622
ौ	-7.37833
▁उप	-7.38323
i	-7.38359
▁ल	-7.38516
इ	-7.38536
▁उनकी	-7.38615
▁चाहिए	-7.38932
्स	-7.39299
_	-7.393
थ	-7.39367
िया	-7.39599
▁सरकार	-7.4058
▁ज	-7.41072
ष	-7.41454
▁अगर	-7.41497
▁होती	-7.41536
0	-7.41579
दा	-7.416
▁सा	-7.43739
▁देश	-7.43754
▁करो	-7.44115
▁नि	-7.4525
▁किए	-7.45869
▁ऐसा	-7.46179
सा	-7.47273
▁उसक	-7.47533
▁पा	-7.48447
▁जाने	-7.48564
पर	-7.48672
:	-7.48909
▁एव	-7.49365
▁रसूल	-7.49714
▁भाग	-7.50059
अ	-7.50095
र्	-7.50313
▁भारतीय	-7.51029
ली	-7.51161
ान	-7.51329
कि	-7.51787
▁दूसर	-7.52919
वि	-7.52958
▁व्यक्ति	-7.53678
िल	-7.53953
▁अब	-7.54679
▁बार	-7.54738
प्र	-7.55744
फ़	-7.56008
को	-7.56135
एं	-7.57014
▁कह	-7.57391
▁विकास	-7.58191
▁तुम्हे	-7.58223
▁च	-7.58768
▁जाती	-7.59657
▁राज्य	-7.59809
▁मे	-7.60294
मान	-7.60499
्म	-7.60788
▁मुझे	-7.60875
▁पूर्व	-7.60908
▁जिन	-7.60987
▁ला	-7.61086
▁हुई	-7.6183
▁दोनों	-7.61922
▁प्रदान	-7.61972
▁ऐ	-7.62098
ष्ट	-7.6254
गी	-7.6266
▁जीवन	-7.63777
▁s	-7.64401
▁जैसे	-7.64602
5	-7.64611
▁ख	-7.64728
▁उपयोग	-7.6495
▁अनु	-7.65733
▁à	-7.65937
‍	-7.66169
▁र	-7.66312
1	-7.66894
▁रही	-7.67101
▁बीच	-7.67507
▁बन	-7.67662
▁बना	-7.68303
▁होते	-7.68642
ठ	-7.68665
▁मु	-7.68727
▁रब	-7.6874
▁लेकिन	-7.69417
▁ए	-7.69833
4	-7.70162
िंग	-7.70722
ँ	-7.71113
m	-7.71389
▁श्री	-7.72084
▁लिया	-7.7219
बा	-7.72293
▁मा	-7.724
स्	-7.7302
जा	-7.73635
दार	-7.73833
ंड	-7.73964
▁स्थान	-7.74218
्व	-7.74615
▁अपना	-7.74906
▁देख	-7.75267
▁बारे	-7.75641
त्र	-7.75706
▁आग	-7.75877
t	-7.75979
ऐ	-7.76086
ार	-7.76127
c	-7.76226
ओ	-7.76753
▁पैदा	-7.76976
▁वाला	-7.77247
एँ	-7.77741
हमारी	-7.78172
▁सम	-7.79925
a	-7.79996
▁देने	-7.80427
▁अधिनियम	-7.80577
▁छ	-7.80679
।"	-7.8094
▁1	-7.81108
▁'	-7.81142
▁बा	-7.81944
!	-7.82037
क़	-7.82205
जी	-7.82217
▁केवल	-7.82639
▁ईमान	-7.83116
▁आज	-7.83836
▁घ	-7.84381
ां	-7.84607
न्द	-7.84974
▁ऐस	-7.85541
ये	-7.85821
▁जाएगा	-7.85943
▁सु	-7.86116
▁तब	-7.86574
िका	-7.86761
ति	-7.87269
▁लगा	-7.87332
ले	-7.87418
त्	-7.87716
▁सी	-7.88222
▁करती	-7.88346
नि	-7.88601
▁आय	-7.88637
▁बस	-7.89198
रण	-7.89787
¥	-7.89849
▁अथवा	-7.89851
यों	-7.902
▁सेवा	-7.90277
3	-7.90397
▁प्रयोग	-7.90685
▁हूँ	-7.90702
िन	-7.9099
▁समझ	-7.91171
▁जिसक	-7.9129
ंद	-7.91482
▁योजना	-7.91556
▁जिसमें	-7.9172
▁जाए	-7.92001
वर	-7.92111
क्ष	-7.92212
▁जाना	-7.9263
ाल	-7.93138
▁क्योंकि	-7.93241
▁ताक	-7.93282
▁ना	-7.9391
▁2	-7.93972
▁उपलब्ध	-7.93983
▁सहायता	-7.93983
▁इसलिए	-7.93984
▁कु	-7.94931
ंत	-7.95215
▁राज	-7.95224
चित	-7.95263
रे	-7.95775
▁सबसे	-7.95979
▁आधार	-7.96171
▁चल	-7.96407
▁अभि	-7.9652
'	-7.96598
▁अव	-7.96608
▁जान	-7.96895
▁उसी	-7.96932
बी	-7.97213
7	-7.97609
गत	-7.97755
▁जाते	-7.97984
घ	-7.98091
▁सकती	-7.98296
▁चीज़	-7.98308
▁जिसे	-7.98371
▁वही	-7.98864
▁संदेश	-7.99224
8	-7.99589
6	-7.99659
रो	-7.99672
9	-7.99708
ात	-7.99969
p	-8.00223
▁पता	-8.00335
▁हमें	-8.00374
u	-8.0041
▁ई	-8.00492
▁भर	-8.00494
िस	-8.00657
आ	-8.007
l	-8.00911
▁देता	-8.00974
▁खा	-8.01114
पूर्ण	-8.01121
▁मान	-8.0131
▁राष्ट्रीय	-8.01534
स्ट	-8.01593
▁उनसे	-8.01628
पी	-8.01852
▁शक्ति	-8.01916
▁दिखा	-8.01929
▁वाली	-8.01942
न्त	-8.01989
▁पी	-8.02445
▁विशेष	-8.02516
ूर	-8.02717
ल्	-8.02775
छ	-8.02863
▁विचार	-8.02901
▁सार	-8.03063
ंट	-8.03297
▁डाल	-8.03385
▁मै	-8.0377
▁इसे	-8.04431
डी	-8.04738
...	-8.04745
▁बड़ी	-8.05711
▁रह	-8.0604
स्थ	-8.06111
हा	-8.06324
टी	-8.06867
▁विषय	-8.07518
▁संबंध	-8.07724
▁शिक्षा	-8.0774
▁घर	-8.07753
▁मिल	-8.07885
▁होना	-8.07971
दान	-8.08018
हर	-8.08554
पा	-8.087
▁सामने	-8.09708
▁सूची	-8.09751
▁धारा	-8.10141
तः	-8.10207
▁होंगे	-8.1055
तर	-8.10639
▁यहाँ	-8.10732
▁3	-8.11425
g	-8.11427
ियाँ	-8.11427
▁कहते	-8.117
▁वा	-8.11875
न्	-8.12155
▁गु	-8.12391
>	-8.12469
▁परवरदिगार	-8.12469
o	-8.12556
़	-8.12922
पन	-8.13121
उ	-8.13419
▁बल्कि	-8.13489
गे	-8.14175
▁लगे	-8.14547
▁आदि	-8.14551
्ट	-8.14705
ंध	-8.14862
ड़ी	-8.14924
जन	-8.15152
▁सूचना	-8.15674
गा	-8.15836
दी	-8.15882
यर	-8.1613
▁दिल	-8.16284
▁परि	-8.16514
▁लोक	-8.16538
▁शामिल	-8.16614
▁किताब	-8.1664
▁सामान्य	-8.16645
▁याद	-8.16695
▁लाभ	-8.16752
▁दर	-8.16771
▁जी	-8.17114
▁बाहर	-8.17435
वी	-8.17656
▁लिये	-8.17683
ढ़	-8.17724
▁ट	-8.17798
▁निकल	-8.17855
ग्र	-8.18195
C	-8.18249
ृत	-8.18572
▁लो	-8.18675
▁अधिकार	-8.18757
▁पूरी	-8.18763
▁जल	-8.18802
▁करेगा	-8.19014
▁उनमें	-8.1916
▁अच्छा	-8.1926
ख़	-8.19545
ास	-8.19644
▁पु	-8.19779
▁स्थिति	-8.198
▁तैयार	-8.1984
▁विभिन्न	-8.19846
▁कभी	-8.19979
▁दूर	-8.20353
▁अर्थ	-8.20638
▁करके	-8.20769
ऊ	-8.20938
क्स	-8.2096
क्	-8.21389
▁छोड़	-8.21904
▁फ़ाइल	-8.22056
▁हेतु	-8.22056
ोर	-8.2206
▁मुख्य	-8.22112
▁बड़ा	-8.22151
▁भेज	-8.22201
▁विश्व	-8.2246
पुर	-8.22466
▁अंतर	-8.22977
▁ढ	-8.23023
टर	-8.23113
▁हूं	-8.23176
▁पूरा	-8.23182
म्ब	-8.23259
▁स्व	-8.23369
00	-8.24276
▁बि	-8.24383
▁निर्माण	-8.24594
मी	-8.24698
हार	-8.24766
▁मर	-8.24982
▁उच्च	-8.25464
▁भवन	-8.25465
▁अवसर	-8.25482
▁चाहते	-8.25503
▁चार	-8.25682
र्ड	-8.25975
S	-8.26213
▁होगी	-8.26234
ूल	-8.26317
▁उसमें	-8.26515
▁ध	-8.26563
b	-8.26576
▁दौरान	-8.26638
गर	-8.26648
"	-8.26667
▁चाहता	-8.26739
▁आई	-8.2702
ल्ल	-8.27202
▁जहां	-8.278
सं	-8.27872
ियां	-8.28352
ही	-8.28591
▁मो	-8.28801
▁तुम्हार	-8.29057
▁सभा	-8.29082
▁जमा	-8.29443
▁अन	-8.29592
ृ	-8.29655
A	-8.29812
▁बे	-8.2993
▁बढ़ा	-8.30024
▁करे	-8.30272
▁निश्चय	-8.30301
▁हाथ	-8.30462
▁उनको	-8.30672
धा	-8.31315
ाव	-8.31334
▁प्रक्रिया	-8.31442
भी	-8.31501
▁ता	-8.3155
▁प्रत्ये	-8.31835
▁आम	-8.32209
वार	-8.32442
O	-8.32648
▁गयी	-8.32655
▁अधीन	-8.32656
▁मध्य	-8.32719
ाँ	-8.32726
▁अनेक	-8.32735
▁इतन	-8.32886
ेट	-8.33099
▁देखा	-8.33165
▁मन	-8.33416
▁उठा	-8.33475
▁क़	-8.33624
ंस	-8.33718
▁हा	-8.33809
▁प्रतिशत	-8.339
▁स्पष्ट	-8.33901
▁तरफ	-8.3392
▁बड़े	-8.33993
▁स्	-8.34185
▁पार	-8.34597
in	-8.34627
▁यू	-8.34669
▁बदल	-8.34707
▁अस	-8.35034
▁दा	-8.35046
▁सके	-8.35124
▁महा	-8.35214
इस	-8.35243
▁मदद	-8.35247
▁गये	-8.35292
▁सीमा	-8.35307
▁चला	-8.35355
ाह	-8.35382
▁रंग	-8.35448
▁सर	-8.35546
▁अप	-8.35556
ीकरण	-8.35703
टा	-8.35868
▁महत्वपूर्ण	-8.36459
▁झ	-8.366
झ	-8.37283
▁यही	-8.37323
▁नई	-8.37399
मे	-8.37698
ऋ	-8.37742
▁क्षेत्रों	-8.37916
▁बनाया	-8.38009
▁आपको	-8.38205
▁बोल	-8.38615
T	-8.38792
▁समूह	-8.39062
▁स्वीकार	-8.39062
▁स्तर	-8.39115
▁कार्यक्रम	-8.3912
▁परिवर्तन	-8.39497
लि	-8.39611
▁मार	-8.39698
▁ड	-8.39843
त्त	-8.39931
▁रखा	-8.4008
द्ध	-8.40325
▁शुरू	-8.40393
▁संख्या	-8.40403
▁आदेश	-8.4058
▁अभी	-8.40666
▁बैंक	-8.40724
▁कै	-8.40786
▁अंत	-8.41122
▁सुन	-8.41228
▁देना	-8.41358
▁4	-8.41621
ुल	-8.41735
र्क	-8.41769
▁पढ़	-8.41848
०	-8.42112
बल	-8.42195
▁जारी	-8.42247
रि	-8.42568
▁5	-8.42572
▁अलग	-8.42809
▁करेंगे	-8.42811
ंक	-8.42812
और	-8.42928
▁ओ	-8.42946
▁प्रस्तुत	-8.43115
▁माध्यम	-8.43115
▁अनुसार	-8.43147
▁प्रमुख	-8.43149
िश	-8.4317
▁प्रौद्योगिकी	-8.43427
▁जनता	-8.43464
▁सह	-8.43585
▁20	-8.43608
दे	-8.43645
▁संबंधित	-8.43671
ड़ा	-8.44057
▁विश्वास	-8.44267
▁रोक	-8.44355
मत	-8.44458
▁नीचे	-8.44509
▁आए	-8.44514
▁उत्तर	-8.44517
धरती	-8.44608
▁‘	-8.44648
▁खुदा	-8.45101
▁निकाल	-8.45118
मन	-8.45462
▁बढ़	-8.45767
¤3⁄4	-8.45913
▁कृषि	-8.45913
▁मौजूद	-8.45913
▁ऊपर	-8.45914
▁सुरक्षा	-8.45929
▁पानी	-8.46138
▁रू	-8.46229
▁अतः	-8.46258
d	-8.46295
▁वर्ग	-8.4639
न्तु	-8.4718
I	-8.47198
तम	-8.4724
’	-8.47297
▁काफी	-8.47406
ोल	-8.47407
वे	-8.47424
▁भाषा	-8.47499
▁समान	-8.47826
▁नया	-8.47861
▁दें	-8.47884
्द	-8.48102
▁रो	-8.48113
▁पूर्ण	-8.48408
▁केन्द्र	-8.4859
E	-8.48653
ण्ड	-8.48787
▁उद्देश्य	-8.4879
▁ज्ञान	-8.49413
ताओं	-8.49618
▁पद	-8.49925
▁अल	-8.49953
▁बनाने	-8.50016
▁ज्यादा	-8.50261
▁विवरण	-8.50296
▁बह	-8.5033
▁पहल	-8.50715
भा	-8.5114
र्ज	-8.5155
▁स्वयं	-8.51752
▁विश्वविद्यालय	-8.51754
▁प्रयास	-8.51756
▁ठीक	-8.51986
▁किस	-8.52104
▁दुनिया	-8.52248
▁रख	-8.52312
▁गो	-8.52433
▁आवश्यकता	-8.52534
▁फ़	-8.52652
▁खोज	-8.52681
ाया	-8.53059
व्य	-8.53115
▁इसी	-8.53221
▁सामाजिक	-8.53269
▁सिवा	-8.53348
▁तीन	-8.53413
एस	-8.53956
कों	-8.54082
▁मामले	-8.54189
▁आपक	-8.54401
▁जन	-8.54496
▁मूल	-8.54776
▁बता	-8.54893
▁आया	-8.54991
▁पश्चिम	-8.54994
▁19	-8.55087
▁हों	-8.551
देश	-8.55354
▁सि	-8.55537
च्छ	-8.55992
▁कर्म	-8.5607
मगर	-8.56139
स्क	-8.56204
▁मि	-8.56368
▁समस्या	-8.5637
▁निशान	-8.56372
▁ऋण	-8.56373
▁जिन्हें	-8.56468
▁सम्	-8.56479
आई	-8.56605
▁रु	-8.56623
वान	-8.56678
▁धर्म	-8.56888
▁जैसा	-8.56888
▁लेकर	-8.56949
▁पड़	-8.56955
▁चि	-8.57083
▁करा	-8.57278
▁लग	-8.57358
▁लाए	-8.57398
था	-8.57399
ड़े	-8.57807
कारी	-8.57845
र्स	-8.57864
ष्ठ	-8.57887
▁व्यापार	-8.5796
▁उद्योग	-8.57961
▁“	-8.57971
▁प्रेम	-8.57989
▁ध्या	-8.58101
▁पक्ष	-8.5822
▁सदस्य	-8.58542
▁लिख	-8.58545
▁सो	-8.5867
▁सोच	-8.58675
r	-8.58887
▁चाहे	-8.59189
L	-8.5957
▁फ़ोल्डर	-8.5957
▁पीछे	-8.59571
▁अच्छे	-8.59573
▁कानून	-8.59574
▁न्यायालय	-8.59578
▁विंडो	-8.59737
र्इ	-8.59767
वाह	-8.59798
▁जानते	-8.59839
▁माल	-8.59897
▁नीति	-8.59965
▁रहते	-8.60068
ेगा	-8.60212
▁खंड	-8.60236
▁बी	-8.60434
यां	-8.60772
▁एस	-8.60844
▁पत्र	-8.61064
्न	-8.61064
▁होकर	-8.61143
▁प्रभाव	-8.61214
▁पहुँच	-8.61307
ाना	-8.61366
▁तुम्हारी	-8.61396
▁ली	-8.6147
▁गुण	-8.61472
धिक	-8.62115
रत	-8.62186
▁व्य	-8.62199
ाब	-8.62551
▁a	-8.62594
▁काल	-8.62626
▁डि	-8.62677
▁वर्त	-8.62752
▁विशिष्ट	-8.62876
▁बराबर	-8.62876
▁ज़मीन	-8.62876
▁क्षमता	-8.62878
▁आकाश	-8.62879
P	-8.62978
▁शहर	-8.63004
▁वस्तु	-8.63028
मि	-8.6316
▁राष्ट्र	-8.63198
▁देते	-8.63511
▁कुल	-8.63592
▁आकार	-8.63884
▁अत्य	-8.64451
▁तौर	-8.64457
म्	-8.6455
▁भू	-8.64566
N	-8.64571
▁पिछल	-8.64572
▁अवधि	-8.6458
▁जानकारी	-8.64612
भाव	-8.64798
▁य	-8.64842
जो	-8.64984
युक्त	-8.65055
▁बल	-8.65145
▁शब्द	-8.65263
▁दु	-8.65508
▁कार	-8.65636
▁आने	-8.65826
n	-8.65964
कृत	-8.66012
▁मानव	-8.66221
ुर	-8.6626
▁लगभग	-8.66295
▁हुक्म	-8.66295
▁लेने	-8.66307
▁बच	-8.66552
▁&	-8.6656
चा	-8.66577
▁मार्ग	-8.66633
्ल	-8.66646
▁अधिकारी	-8.66717
▁नही	-8.66963
▁वहां	-8.67015
▁आवश्यक	-8.67138
▁डर	-8.67265
नाथ	-8.68034
	-8.6805
▁निम्न	-8.68051
▁टे	-8.68171
▁ट्र	-8.68189
▁रखते	-8.68215
▁आर्थ	-8.68232
▁सिंह	-8.68235
बे	-8.68532
▁जे	-8.68964
चि	-8.69302
▁चौ	-8.6944
▁गांधी	-8.69835
▁संसद	-8.69839
▁सहयोग	-8.69849
▁सिर्फ	-8.69854
▁प्रदेश	-8.6994
ध्य	-8.70233
▁छा	-8.70496
▁स्थाप	-8.70545
यन	-8.70678
▁रोग	-8.71099
▁एन	-8.71261
िए	-8.71558
▁मत	-8.71636
▁परिणाम	-8.71653
▁युद्ध	-8.71653
▁कौन	-8.71657
▁चुके	-8.71751
▁सही	-8.71833
िम	-8.72
गु	-8.72063
▁बिना	-8.72089
कल	-8.72144
▁रात	-8.72235
▁पहुंच	-8.72265
▁वालों	-8.72538
शन	-8.72863
y	-8.73088
ियम	-8.73092
▁बु	-8.73265
▁ज़	-8.73272
वादी	-8.73453
▁बंगाल	-8.73506
▁वास्ते	-8.73507
▁जगह	-8.73585
▁प्रणाली	-8.73641
R	-8.7379
▁साल	-8.73846
चे	-8.74033
▁जोड़	-8.741
▁परन्तु	-8.74283
▁योग	-8.7439
स्व	-8.74484
▁”	-8.74635
▁बैठक	-8.74965
▁एक्स	-8.75201
▁आयत	-8.75248
▁रखने	-8.75297
▁पो	-8.75362
▁तू	-8.75376
▁अतिरिक्त	-8.75392
▁दक्षिण	-8.75392
▁समाप्त	-8.75392
▁बेशक	-8.75394
▁उत्	-8.75416
▁विधि	-8.75419
र्व	-8.75488
▁कला	-8.75499
▁स्वतंत्रता	-8.75509
▁जाओ	-8.75684
▁न्याय	-8.75796
▁शा	-8.75857
ेड	-8.76048
▁C	-8.76286
गार	-8.76388
▁खोल	-8.76401
फा	-8.76406
▁राह	-8.76465
▁उत्पाद	-8.76644
त्व	-8.76716
▁संस्थान	-8.76835
▁गिर	-8.76907
▁:	-8.77191
w	-8.77267
▁क्यों	-8.77277
▁लागू	-8.77316
▁चुका	-8.77416
▁महिला	-8.77501
रिया	-8.77518
▁सत्य	-8.77548
▁आर	-8.77567
वाद	-8.7758
▁पेश	-8.77652
▁18	-8.77779
▁ब्र	-8.77966
▁क्र	-8.78039
▁समिति	-8.78082
▁पं	-8.7843
er	-8.7856
चार	-8.78621
मु	-8.78686
▁केंद्र	-8.7883
▁रि	-8.79085
सर	-8.79127
▁10	-8.792
▁पुस्तक	-8.79273
▁मनुष्य	-8.79276
▁साहित्य	-8.79276
▁लक्ष्य	-8.79276
▁अच्छी	-8.7928
▁दृष्टि	-8.79299
▁जन्म	-8.79348
▁विदेश	-8.79373
न्य	-8.7941
हमेशा	-8.79525
▁निवेश	-8.79674
▁श्	-8.79757
ुक	-8.79865
▁हाल	-8.79945
र्ट	-8.80139
▁कहने	-8.80749
▁6	-8.8094
हमारा	-8.80976
▁जिनक	-8.80977
ीन	-8.81082
▁थ	-8.81201
▁जरूरत	-8.81276
¤	-8.81276
▁दिल्ली	-8.81276
▁बच्चे	-8.81277
▁रिपोर्ट	-8.81279
▁बाजार	-8.8129
▁उसको	-8.81332
न्न	-8.81342
▁नियंत्रण	-8.81342
▁कंपनी	-8.81454
▁पाठ	-8.81455
▁प्रबंधन	-8.8149
ियन	-8.81506
▁अज़ाब	-8.81683
दर	-8.81833
▁भय	-8.81877
▁सू	-8.81916
▁पै	-8.82078
▁रहने	-8.82089
डा	-8.82141
▁क्रिया	-8.82167
▁जानता	-8.82172
टो	-8.82272
वास	-8.82321
ेस	-8.82519
िला	-8.82921
जे	-8.82939
▁राम	-8.83168
▁प्रा	-8.83226
▁अनुसंधान	-8.83317
▁निस्संदेह	-8.83317
▁निर्णय	-8.83317
▁मंत्रालय	-8.8332
▁यातना	-8.83334
▁कहीं	-8.83337
▁देशों	-8.83341
▁अनुभव	-8.83341
▁परिवार	-8.8337
▁दिए	-8.834
▁संगठन	-8.83408
▁खेल	-8.83413
बू	-8.83539
ज़ा	-8.83565
▁देगा	-8.83577
▁मह	-8.83616
▁लाख	-8.83699
पत्र	-8.84374
▁जिन्ह	-8.84381
ूँ	-8.84412
▁बनाए	-8.84501
ग़	-8.84756
01	-8.84824
र्थ	-8.84888
▁महान	-8.8516
▁लौट	-8.85367
▁विकल्प	-8.854
▁व्यवस्था	-8.854
▁अंतर्गत	-8.854
▁प्रारंभ	-8.85412
▁लंब	-8.85443
▁विभाग	-8.85454
▁संघ	-8.8559
▁इं	-8.85635
श्त	-8.85642
गें	-8.85857
D	-8.85926
▁7	-8.85937
▁धन	-8.85947
▁प्रकाश	-8.86043
बर	-8.8612
▁मूल्य	-8.86201
▁8	-8.8638
▁चित्र	-8.86778
▁ख़	-8.86819
▁फल	-8.87018
▁प्रो	-8.87205
▁भेजा	-8.87287
ात्मक	-8.8729
हम	-8.87301
▁P	-8.87397
▁त्रुटि	-8.87527
▁पहचान	-8.87528
▁सम्बन्ध	-8.87528
¤°	-8.87533
▁संयुक्त	-8.87627
▁वक्त	-8.87659
▁I	-8.87742
▁रा	-8.87875
▁वहाँ	-8.88039
▁सौ	-8.88185
▁मिला	-8.88194
टे	-8.88196
▁रुप	-8.88421
्श	-8.88498
▁आधारित	-8.88629
▁बन्द	-8.88659
क्त	-8.88955
▁दल	-8.88995
क्रम	-8.89367
एम	-8.89407
▁निश्चित	-8.89702
▁प्रश्न	-8.89702
▁संपर्क	-8.89702
▁शरीर	-8.89703
▁परंतु	-8.89707
▁जांच	-8.89707
▁गा	-8.89712
िय	-8.89729
▁फाइल	-8.89739
▁जाएगी	-8.89838
▁देखते	-8.90143
▁उत्पादन	-8.90475
▁0	-8.90843
ष्	-8.90856
▁१	-8.91088
▁सद	-8.91103
▁पि	-8.91685
वत	-8.91718
▁परियोजना	-8.91794
x	-8.91924
▁name	-8.91924
▁ग्रामीण	-8.91924
▁यक़ीन	-8.91924
▁सक्रिय	-8.91924
▁प्रस्ताव	-8.91924
▁ज़रूर	-8.91924
▁बेहतर	-8.91924
▁मूसा	-8.91924
▁दिशा	-8.91925
▁वापस	-8.91932
▁यात्रा	-8.91934
▁सुधार	-8.92077
ची	-8.92086
▁राशि	-8.92242
▁स्थापना	-8.92254
▁रचना	-8.92418
▁रखता	-8.92482
तौर	-8.92621
▁लेते	-8.927
▁S	-8.92715
▁डाक	-8.928
भूत	-8.92902
उन	-8.93045
▁पूछ	-8.93184
यत	-8.93502
▁स्वा	-8.93783
ेशन	-8.9394
▁स्प	-8.9409
राम	-8.941
f	-8.94166
▁चीज	-8.94187
▁स्वास्थ्य	-8.94196
▁स्रोत	-8.94197
▁पुरान	-8.94317
ग्रह	-8.94399
▁पुरुष	-8.94437
▁मुक्त	-8.94475
▁कितन	-8.9458
चर	-8.94664
ार्थ	-8.947
▁सहित	-8.94856
शील	-8.9489
▁गीत	-8.94905
वर्त	-8.94948
ोप	-8.94972
्वा	-8.95056
धारा	-8.95107
ेंगे	-8.95617
▁संस्था	-8.95894
हत	-8.95905
▁समाज	-8.95956
▁9	-8.95982
▁तेज	-8.96084
ज्ञ	-8.964
▁कृपया	-8.96522
▁प्रधानमंत्री	-8.96522
▁छोटे	-8.96522
▁हिस्सा	-8.96522
▁बच्चों	-8.96523
▁मंदिर	-8.96525
▁उत्पन्न	-8.96532
करण	-8.96724
▁निर्	-8.96793
▁वृद्धि	-8.96809
लो	-8.96888
▁डा	-8.97069
▁पाया	-8.97144
▁वै	-8.97243
▁बंद	-8.97551
▁पड़े	-8.97679
▁हु	-8.97795
▁M	-8.98027
▁करनेवाल	-8.98044
▁तेर	-8.98114
▁आस	-8.98182
▁सफल	-8.98202
६	-8.98903
▁मृत्यु	-8.98903
▁शुल्क	-8.98903
▁जहाँ	-8.98904
▁अलावा	-8.98906
▁रे	-8.98908
▁समुद्र	-8.98911
ion	-8.98918
▁वित्तीय	-8.98966
?"	-8.99137
▁फेर	-8.99153
▁स्थानीय	-8.99216
▁डॉ	-8.99292
▁छवि	-8.99336
ly	-8.99442
▁हित	-8.99592
▁लगता	-8.99701
▁समझा	-8.99729
ूत	-8.99849
▁k	-8.99935
पूर्वक	-9.00016
वीं	-9.00148
▁आयु	-9.0018
▁अंग	-9.00267
ोन	-9.00286
or	-9.00641
▁बहु	-9.00652
ायी	-9.00659
ूद	-9.00776
11	-9.01026
▁वास्तव	-9.01124
निर्दिष्ट	-9.01264
▁झूठ	-9.01342
▁आरंभ	-9.01342
▁क़ौम	-9.01342
▁आवेदन	-9.01343
▁संकेत	-9.01345
▁अंग्रेज	-9.01345
▁न्यू	-9.01347
▁पुनर्	-9.01354
▁लेख	-9.01356
ंगी	-9.01423
▁तहत	-9.01427
▁निर्यात	-9.01482
▁आसमान	-9.01617
बाद	-9.01648
▁गति	-9.01652
▁ऑ	-9.0181
ैन	-9.01827
▁_	-9.01939
▁माना	-9.02095
▁करोड़	-9.02107
M	-9.02247
१	-9.02249
▁विज्ञान	-9.0225
रूप	-9.02375
▁हटा	-9.02412
क्या	-9.025
▁प्रण	-9.02514
▁देखने	-9.02559
▁आत्म	-9.02578
तु	-9.02625
▁बर	-9.02648
re	-9.02819
▁डी	-9.03276
▁बचा	-9.03544
▁पृष्ठ	-9.0384
optional	-9.03842
–	-9.03842
¤¿	-9.03842
▁प्रवेश	-9.03842
▁पुनः	-9.03843
▁वो	-9.03855
▁निकट	-9.03864
▁इतिहास	-9.03892
▁गलत	-9.039
▁translat	-9.03904
▁जाएँ	-9.03914
▁सम्मान	-9.03925
▁भूमि	-9.03991
▁अपेक्षा	-9.04134
▁सीख	-9.04218
▁सर्वर	-9.04257
▁गैर	-9.04275
▁भाई	-9.04325
बार	-9.0436
▁जाएँगे	-9.04403
▁आपस	-9.04497
रम	-9.04613
नीय	-9.04651
उस	-9.04701
दूसर	-9.04827
▁पे	-9.05059
ंगा	-9.05455
▁पाक	-9.05469
▁नियम	-9.05532
▁बेट	-9.05618
▁बाल	-9.05817
▁जीव	-9.05886
▁रहो	-9.05956
▁मित्र	-9.06101
लाल	-9.0615
शा	-9.06235
▁पहुँचा	-9.06253
on	-9.06383
५	-9.06392
Name	-9.06406
ity	-9.06406
▁संविधान	-9.06406
▁सम्मेलन	-9.06406
▁मुँह	-9.06406
▁अवस्था	-9.06407
चल	-9.06408
▁दिनांक	-9.06409
▁प्रमाणपत्र	-9.06419
▁सहायक	-9.06419
▁संपाद	-9.06452
▁रुपये	-9.06456
धर	-9.06552
▁लागत	-9.06563
दाय	-9.06752
▁अमेरिका	-9.06759
जीव	-9.06861
▁अग्र	-9.06987
▁मांग	-9.07101
”	-9.07447
▁स्थित	-9.07564
▁अंक	-9.07581
ेल	-9.08147
▁25	-9.08154
यो	-9.08209
▁सर्व	-9.08354
न्ध	-9.08389
▁जाति	-9.084
▁जाय	-9.08543
कृति	-9.08689
▁#44;	-9.09038
▁वैज्ञानिक	-9.09038
▁संसाधन	-9.09038
▁मुखर्जी	-9.09038
▁जवाब	-9.09039
▁प्रगति	-9.09039
▁खुश	-9.09042
▁प्रकट	-9.09048
▁बोर्ड	-9.09053
▁विस्तार	-9.09074
▁घाट	-9.09092
स्प	-9.09156
▁गुनाह	-9.09158
▁भूमिका	-9.09202
▁जिला	-9.09203
▁जाये	-9.09221
▁निजी	-9.09269
▁चुनें	-9.09375
▁मात्रा	-9.09508
▁साफ	-9.09609
▁''	-9.09746
▁शासन	-9.09854
ल्ड	-9.09923
▁भीतर	-9.10219
▁कल	-9.10221
▁h	-9.10339
पूर	-9.1041
यु	-9.10443
▁लिखा	-9.10501
v	-9.10688
तन	-9.10951
▁उपस्थित	-9.10964
वेद	-9.11087
▁अधि	-9.11133
▁गण	-9.11166
▁हे	-9.11337
▁लें	-9.11611
▁तु	-9.11647
▁टी	-9.11652
ख्त	-9.11723
¤	-9.1174
▁सामग्री	-9.1174
▁हस्ताक्षर	-9.1174
▁पुलिस	-9.11741
▁मालूम	-9.11741
▁संगीत	-9.11742
▁इस्तेम	-9.11743
▁(1)	-9.11769
▁अंतिम	-9.11777
▁199	-9.11801
▁प्रशिक्षण	-9.11805
▁उपकरण	-9.11816
▁संभावना	-9.11839
en	-9.11915
▁विन	-9.11919
एक	-9.11966
▁आशा	-9.12005
▁भाव	-9.1208
बु	-9.12246
▁राजा	-9.12277
ar	-9.12352
▁इनका	-9.12627
न्द्र	-9.12677
ख़ुदा	-9.1294
राष्ट्रीय	-9.12974
▁मद	-9.1306
वासी	-9.13066
▁सुना	-9.13174
▁निर	-9.13417
▁शि	-9.13441
▁सदस्यों	-9.13497
▁जु	-9.13696
▁चा	-9.13701
▁सका	-9.13736
त्ता	-9.13869
जह	-9.14183
म्म	-9.1424
गल	-9.14302
ॅ	-9.14518
८	-9.14518
▁ऊर्जा	-9.14518
▁स्कूल	-9.14519
ूँगा	-9.14563
स्थायी	-9.14609
▁दिखाएँ	-9.1465
▁गठ	-9.1484
▁व्यक्तियों	-9.14867
▁व्यवहार	-9.14905
▁रखना	-9.15022
▁थीं	-9.1528
▁कैसे	-9.15461
ाइट	-9.16133
▁बै	-9.16392
▁तर	-9.16478
▁11	-9.16483
शी	-9.16514
▁व्यक्त	-9.16543
▁%	-9.16688
हिर	-9.16798
▁कठिन	-9.1686
▁बने	-9.169
र्द	-9.16953
योग	-9.17001
▁घटना	-9.17244
ल्क	-9.17274
गो	-9.17364
bab	-9.17375
U	-9.17375
▁चिकित्सा	-9.17375
▁भविष्य	-9.17375
▁भुगतान	-9.17375
▁समाधान	-9.17375
▁नागरिक	-9.17375
▁शायद	-9.17376
▁प्रथम	-9.17377
▁विजय	-9.17379
▁भार	-9.1738
हन	-9.17394
▁असफल	-9.17396
▁विरोध	-9.17432
याँ	-9.17509
▁12	-9.17714
▁एल	-9.17748
▁आयोज	-9.178
▁समर्थन	-9.17861
▁पैर	-9.17918
▁बुरा	-9.18053
▁तंत्र	-9.18056
▁शख	-9.18072
▁दिनों	-9.18192
▁सन्	-9.18369
▁हवा	-9.18456
्ला	-9.18479
राज	-9.18571
मय	-9.18901
पि	-9.18918
पास	-9.19387
पात	-9.1943
▁राज्यों	-9.19461
▁सरकारी	-9.19489
▁अगल	-9.19581
▁d	-9.19722
▁उदाहरण	-9.19766
ीकृत	-9.19932
▁सुविधा	-9.2013
▁मौ	-9.20194
H	-9.20316
▁आधुनिक	-9.20316
▁शताब्द	-9.20316
▁अवश्य	-9.20318
▁आदमी	-9.2032
¥	-9.20323
▁खरीद	-9.20342
▁पसंद	-9.20343
▁अनुमति	-9.20345
▁प्राकृत	-9.2039
भाग	-9.20397
▁गवाह	-9.20461
▁आसान	-9.20473
▁बुला	-9.20525
ग्राम	-9.20551
▁निर्देश	-9.20565
▁पुकार	-9.20576
▁चयनित	-9.20605
▁भिन्न	-9.20628
▁विचारों	-9.20652
काल	-9.20716
▁भावना	-9.20741
▁खाते	-9.20789
▁डे	-9.21095
▁मना	-9.21189
▁बैठ	-9.21196
▁जैस	-9.21217
▁लाल	-9.21443
▁चे	-9.2177
कर्ता	-9.21787
▁ठ	-9.21916
):	-9.21962
पाल	-9.22001
▁खुद	-9.2205
▁ग़	-9.22439
▁अन्त	-9.22562
▁दिख	-9.22616
ांत	-9.22633
एफ	-9.22726
▁बर्	-9.22817
्रि	-9.22959
ियो	-9.23082
पु	-9.233
▁प्रमाण	-9.23333
▁गुणवत्ता	-9.23347
▁वेबसाइट	-9.23347
▁समारोह	-9.23347
▁not	-9.23347
▁यूरोप	-9.23347
▁शेयर	-9.23349
▁pro	-9.23352
▁बयान	-9.23368
▁पूरे	-9.23372
▁पदार्थ	-9.23375
▁गुरु	-9.23395
▁संग्रह	-9.23444
लैंड	-9.23586
▁चु	-9.2375
▁लड़	-9.23772
ज़ी	-9.23876
इन	-9.23932
▁प्रभावित	-9.24081
▁उठ	-9.24455
▁लेखा	-9.24608
र्त	-9.24653
लिखित	-9.24851
म्प	-9.2486
सन	-9.24956
नो	-9.25001
सु	-9.25198
तुम	-9.25406
मेल	-9.25455
ेश	-9.25818
▁जुड़	-9.25825
▁रस	-9.25907
्कार	-9.25981
▁मेल	-9.26027
वह	-9.26048
▁आपने	-9.2644
▁चाल	-9.26445
://	-9.2647
G	-9.26472
▁doe	-9.26472
▁need	-9.26472
▁नेटवर्क	-9.26472
▁पर्यावरण	-9.26472
▁मजबूत	-9.26472
▁अध्ययन	-9.26472
▁सुनिश्च	-9.26472
▁मुद्द	-9.26472
▁ज़ालिम	-9.2648
▁निर्धारण	-9.2648
▁विकस	-9.26499
▁प्रशासन	-9.26526
tt	-9.26532
▁चुकी	-9.26565
▁ऑफ	-9.26585
▁साझ	-9.26623
▁मिलने	-9.26692
▁वास्तविक	-9.26753
▁२	-9.26977
तल	-9.27012
क्षक	-9.27057
▁मुह	-9.27094
▁पैग़म्बर	-9.27166
▁कमी	-9.27187
▁युवा	-9.27229
▁प्रदर्श	-9.27231
वैध	-9.27298
▁गोल	-9.27306
प्त	-9.27523
▁अति	-9.27535
▁बातें	-9.27623
▁संबंधी	-9.27698
▁मिलता	-9.27712
▁तुमको	-9.27786
▁चलता	-9.27875
प्ल	-9.27941
अपने	-9.28129
▁रहता	-9.28161
यें	-9.28229
ॉन	-9.28499
▁निर्धारित	-9.28525
वरण	-9.28678
▁स्ट	-9.28767
h	-9.28866
▁D	-9.28883
आर	-9.28988
▁किये	-9.29155
▁R	-9.29199
19	-9.29248
▁जिसकी	-9.29419
▁चले	-9.29633
}	-9.29698
४	-9.29698
▁उल्लेख	-9.29698
▁कांग्रेस	-9.29698
▁अधिकांश	-9.29698
▁व्यापक	-9.29699
▁झगड़	-9.29701
▁शेष	-9.29703
▁युग	-9.29705
▁डिस्क	-9.29736
क्षेप	-9.29739
▁पत	-9.29773
▁शर्त	-9.29776
▁अरब	-9.29819
▁संरक्षण	-9.2982
▁तत्व	-9.29833
▁रास्त	-9.29834
▁बद	-9.29911
▁तेल	-9.29922
▁नंबर	-9.29966
ज़ार	-9.29998
▁क्रम	-9.30051
च्च	-9.30054
▁हाँ	-9.30091
▁दिवस	-9.30096
▁रखो	-9.3022
▁प्रकाशित	-9.30314
▁T	-9.30366
▁मंत्री	-9.30435
aà	-9.3054
एगा	-9.30607
बद्ध	-9.30709
▁A	-9.30739
▁सफलता	-9.30808
र्ग	-9.3081
▁हक़	-9.30842
▁नदी	-9.31007
▁कहो	-9.31059
▁करनेवाला	-9.3142
▁सरल	-9.31423
▁रखे	-9.31457
▁जि	-9.3147
▁बाज़	-9.31497
वालों	-9.31537
र्न	-9.31725
ज्ज	-9.31923
▁क्ल	-9.32016
ब्ब	-9.32038
टिंग	-9.3204
ट्ट	-9.32077
ालय	-9.32177
▁सात	-9.32215
▁शीर्ष	-9.32261
▁निवास	-9.32407
▁व्या	-9.32623
▁लड़क	-9.32766
▁पश्चात	-9.32857
▁आतंकवाद	-9.33031
▁सार्वजनिक	-9.33031
V	-9.33031
▁अध्यक्ष	-9.33031
▁अत्याचार	-9.33031
▁चाहिये	-9.33031
▁बुद्धि	-9.33031
▁चर्चा	-9.33031
▁गांव	-9.33033
▁पहाड़	-9.33034
क़यामत	-9.33034
▁शुक्र	-9.33037
▁किंतु	-9.33039
▁जाँच	-9.33085
▁वित्त	-9.3314
▁नियुक्त	-9.33151
▁क़सम	-9.33185
▁सख्त	-9.33216
क्षा	-9.33309
▁प्रतीक	-9.3335
मार	-9.33413
▁ख़बर	-9.33578
क्ति	-9.33705
▁चू	-9.33762
▁सिर	-9.33917
▁देती	-9.33945
▁बाप	-9.33966
वल	-9.33992
तो	-9.34055
श्च	-9.34132
le	-9.34173
▁अगले	-9.34418
▁खाता	-9.34467
▁मिली	-9.34482
पित	-9.34545
▁बीमार	-9.346
▁बदले	-9.34677
▁ज़ा	-9.34823
क्षण	-9.35027
▁प्रत्य	-9.35271
लर	-9.35516
▁बदला	-9.35658
रक्षा	-9.35666
▁महत्व	-9.35715
गढ़	-9.3582
▁प्रभावी	-9.35823
▁अना	-9.35985
▁मल	-9.36166
▁पट	-9.36456
▁ईश्वर	-9.36479
▁वीडियो	-9.36479
▁संदर्भ	-9.36479
▁समुदाय	-9.36479
▁खाद्य	-9.36481
▁निर्मित	-9.36482
▁विरुद्ध	-9.365
▁संशोधन	-9.36508
▁पकड़	-9.36525
▁संसार	-9.36541
▁स्थल	-9.3655
▁बाग़	-9.36571
▁खास	-9.36588
▁प्रकृति	-9.36603
▁रक्त	-9.36605
▁विवाह	-9.36647
दास	-9.36719
▁विस्त	-9.37017
an	-9.37169
पो	-9.37238
▁आयात	-9.37322
ूप	-9.37379
nic	-9.37458
▁आख़िर	-9.37477
▁26	-9.37517
स्तान	-9.37599
▁बनी	-9.37806
▁लेखक	-9.38029
▁तुमपर	-9.3803
▁वर्	-9.38393
३	-9.38439
B	-9.38443
पति	-9.3845
ांतर	-9.38537
▁शब्दों	-9.38595
पन्न	-9.38798
मेंट	-9.38871
ून	-9.38975
्ति	-9.39103
▁दूसरा	-9.39299
▁मस	-9.39331
▁तार	-9.39447
हु	-9.39687
▁तौ	-9.39772
▁पालन	-9.39882
ॉल	-9.3993
देव	-9.3993
▁देखें	-9.40018
▁बावजूद	-9.40051
▁हिन्दी	-9.40051
▁परंपरा	-9.40051
▁लघु	-9.40051
▁ठहरा	-9.40053
▁कोशिश	-9.40056
▁मार्गदर्श	-9.40066
▁अभिलेख	-9.40082
▁वायद	-9.40092
▁नव	-9.40092
▁खर्च	-9.401
▁दशा	-9.40169
▁निधि	-9.40218
▁कदम	-9.40219
▁पीठ	-9.40245
▁सत्ता	-9.40261
दम	-9.4031
▁वृ	-9.40438
▁नाज़	-9.40466
▁मोट	-9.40474
▁डाला	-9.40494
▁छोड़कर	-9.40543
▁मालिक	-9.40551
▁मुद्रा	-9.40584
विध	-9.40599
▁दृश्य	-9.40646
▁वर्णन	-9.40667
▁अर्ज	-9.40853
्ध	-9.40904
▁जितन	-9.40918
▁संभव	-9.40921
▁बस्त	-9.41008
▁कविता	-9.41066
▁फि	-9.4109
▁तरीके	-9.41289
▁नगर	-9.4132
न्दर	-9.41337
al	-9.41772
▁बन्दों	-9.4179
▁पथ	-9.41795
फल	-9.418
▁आत्मा	-9.41905
वर्ष	-9.4194
▁स्टा	-9.42065
k	-9.42124
ज्ञान	-9.42133
२	-9.42153
्ष्	-9.42196
▁अनुस	-9.42205
▁माँ	-9.42228
▁लाने	-9.42296
▁काव्य	-9.42373
▁हालत	-9.42561
ाधिकार	-9.42598
▁चाह	-9.42674
▁बैंकों	-9.42865
▁15	-9.43008
▁उद्	-9.43122
र्च	-9.43165
▁1.	-9.43372
मुख	-9.4345
तिहास	-9.4368
\	-9.43754
▁औद्योगिक	-9.43754
▁मुसलमान	-9.43754
▁वैश्विक	-9.43754
▁पुरस्कार	-9.43754
▁वार्षिक	-9.43754
▁शिकायत	-9.43754
▁छोटा	-9.43755
▁पद्धति	-9.43755
▁सक्षम	-9.43757
▁परीक्षा	-9.43763
▁रकम	-9.43768
मिट्टी	-9.43772
▁वायु	-9.438
tion	-9.4383
▁उतार	-9.4388
▁प्रयुक्त	-9.43956
▁वेतन	-9.44078
▁रहेंगे	-9.44199
▁भली	-9.44246
▁गर्भ	-9.44401
न्ट	-9.44438
▁30	-9.44461
▁मं	-9.44619
▁राय	-9.45145
▁विशेषता	-9.45202
बोध	-9.45367
फिर	-9.45545
गाह	-9.45584
ेंट	-9.45654
▁खो	-9.4572
▁दू	-9.45726
▁देव	-9.45798
लिम	-9.45875
is	-9.46002
क्षेत्र	-9.46023
लिंग	-9.46146
कला	-9.46304
16	-9.46308
▁ईसा	-9.46441
▁निका	-9.4649
क्रिया	-9.46627
लोक	-9.46686
▁पाने	-9.47123
▁रखी	-9.47175
▁बिल	-9.47299
▁इच्छा	-9.47508
स्थिति	-9.47577
▁आते	-9.47597
▁अनिवार्य	-9.476
▁कंप्यूटर	-9.476
▁ग्राहक	-9.476
▁विधेयक	-9.476
▁शीघ्र	-9.476
▁समृद्ध	-9.476
▁हालाँकि	-9.476
▁अंतर्राष्ट्रीय	-9.476
▁कलकत्ता	-9.476
▁ऊँच	-9.47601
▁छोटी	-9.47601
▁इन्हें	-9.47601
▁उपबंध	-9.47601
▁परिषद	-9.47601
▁कुंजी	-9.47601
▁गैस	-9.47604
▁उद्यम	-9.47611
▁नाटक	-9.47612
▁संपत्ति	-9.47628
▁सुरक्षित	-9.47629
▁एम	-9.4763
▁डेटा	-9.47638
▁मोह	-9.47647
▁शांति	-9.47661
▁झुठलाया	-9.4769
▁केंद्रीय	-9.47777
न्स	-9.47817
▁देंगे	-9.47821
▁पर्याप्त	-9.47824
▁आयोग	-9.47897
▁पात्र	-9.47936
▁सेट	-9.47939
▁नियत	-9.47986
रोध	-9.48021
▁विमान	-9.48109
▁गुज़र	-9.48147
▁हद	-9.48159
▁मिलकर	-9.48215
▁मानते	-9.48236
▁सेवाओं	-9.48248
भेद	-9.48291
▁पिता	-9.48349
th	-9.48383
नेवाले	-9.48606
▁संकल्प	-9.48676
▁सदन	-9.48842
गण	-9.48845
▁मानक	-9.49044
▁रखें	-9.49234
हीन	-9.49351
▁B	-9.49363
▁हानि	-9.49366
▁ज़ि	-9.49398
▁बध	-9.49418
▁कहना	-9.49428
वृत्त	-9.49553
▁कॉल	-9.49727
F	-9.49983
आईटी	-9.50217
▁पहुंचा	-9.50253
ल्स	-9.5031
▁आती	-9.50408
▁उपाय	-9.50613
▁प्रदर्शन	-9.50719
▁दाव	-9.5077
▁समर्थ	-9.51002
्हे	-9.51025
यू	-9.5104
▁196	-9.51066
▁चयन	-9.51335
लेख	-9.51385
▁हिंद	-9.51434
▁अता	-9.51466
K	-9.516
▁अनुप्रयोग	-9.516
▁आंदोलन	-9.516
▁इजरायल	-9.516
▁उपन्यास	-9.516
▁कल्याण	-9.516
▁पत्थर	-9.516
▁यद्यपि	-9.516
W	-9.516
▁पूंजी	-9.516
▁महात्मा	-9.516
htm	-9.51601
▁अपराध	-9.51601
▁समाचार	-9.51601
▁विधान	-9.51604
▁भोजन	-9.51605
▁सलाह	-9.51606
▁सरकश	-9.51615
▁लोकप्रिय	-9.51623
▁जाएंगे	-9.51626
गिज़	-9.51632
▁मार्च	-9.51652
▁यथा	-9.51687
शाली	-9.5172
▁उपचार	-9.51734
▁उपयुक्त	-9.51751
▁17	-9.51797
▁दर्ज	-9.5182
▁14	-9.51859
त्मक	-9.51866
▁बनाएँ	-9.51962
▁E	-9.51986
▁तारीख	-9.52015
▁वर्ण	-9.52042
्छ	-9.52082
▁{	-9.52098
▁मामल	-9.52243
▁दोष	-9.52475
भव	-9.52569
▁गाय	-9.52613
▁नसी	-9.52825
▁भूल	-9.52846
▁अध	-9.53141
यम	-9.53463
लू	-9.53481
▁मिले	-9.53506
▁पॉ	-9.53632
सिल	-9.53716
उन्हीं	-9.53762
ख्य	-9.5401
▁गहर	-9.54016
▁बुर	-9.54202
▁फैल	-9.54351
▁क्ष	-9.54436
▁सकें	-9.54469
▁मुझ	-9.54548
▁टन	-9.54566
▁रेखा	-9.54967
▁खुलत	-9.55121
▁p	-9.5525
▁कॉ	-9.55363
दर्श	-9.5547
ड्ड	-9.55749
▁ज़रुर	-9.55767
▁बौद्ध	-9.55767
▁कठोर	-9.55767
▁निर्भर	-9.55768
▁गिरोह	-9.55768
▁विशाल	-9.55768
क़ुरान	-9.55769
▁प्रयोजन	-9.55769
संगत	-9.55769
▁खूब	-9.5577
▁मौसम	-9.5577
▁पांच	-9.55771
ायिक	-9.55774
▁योग्य	-9.55795
▁साहस	-9.55814
▁प्ले	-9.55872
▁मंच	-9.55887
▁अन्तर्	-9.55896
▁कार्यालय	-9.559
▁मैदान	-9.55915
हान	-9.55993
▁जहन्नुम	-9.5601
▁जोड़ें	-9.56078
▁बताया	-9.56079
ed	-9.56107
▁बढ़कर	-9.56222
▁सबको	-9.56256
यह	-9.5646
स्त्र	-9.56484
▁प्राधिकारी	-9.56485
▁छिपा	-9.56491
▁खेती	-9.56503
▁क्षेत्रीय	-9.56564
▁सच	-9.56634
▁गुना	-9.56721
▁संस्कृति	-9.56919
▁शक	-9.56956
▁चुन	-9.56987
¤2	-9.57004
▁हल	-9.57154
ायक	-9.57196
▁जून	-9.57208
िस्ट	-9.57262
▁चुने	-9.57314
जात	-9.57387
▁वाता	-9.57507
▁निर्धारिती	-9.57555
ाइल	-9.57567
50	-9.57835
▁कवि	-9.57956
▁100	-9.58015
▁संस्थानों	-9.58076
िब	-9.581
▁मुख	-9.58125
अलग	-9.58533
नाम	-9.58679
अर	-9.58855
कल्पना	-9.58879
75	-9.58917
साथ	-9.59086
ब्ल	-9.59095
ेक्ट	-9.59116
▁16	-9.59118
नतम	-9.59421
pres	-9.60113
▁अर्थव्यवस्था	-9.60115
▁गंभीर	-9.60115
▁गुमराह	-9.60115
▁जरूरी	-9.60115
▁विद्युत	-9.60115
▁रद्द	-9.60115
▁यंत्र	-9.60116
▁शुभ	-9.60116
▁चुनौत	-9.60119
▁निगम	-9.60119
▁इस्लाम	-9.6012
▁स्क्रीन	-9.60122
▁विद्यार्थ	-9.60124
▁लोकतंत्र	-9.60134
शुद्ध	-9.60135
▁प्रोग्राम	-9.60137
▁दशक	-9.6014
▁संरचना	-9.60149
▁पंक्ति	-9.60159
▁बैठे	-9.60203
ुस	-9.6022
▁हट	-9.6022
▁कहेंगे	-9.60221
▁पेड़	-9.60273
▁वाद्य	-9.6028
▁संचार	-9.60302
▁चुनाव	-9.60315
बाइल	-9.60358
▁हृदय	-9.60369
▁सेना	-9.60383
▁50	-9.60423
▁राजनीतिक	-9.60449
vi	-9.60515
ाइड	-9.60527
▁कथा	-9.60567
▁चीन	-9.6061
▁ख़ा	-9.60675
▁अधिकारियों	-9.60758
▁तल	-9.60856
रेख	-9.6106
▁सत्र	-9.61085
▁शीर्षक	-9.61133
ारिक	-9.61201
▁जग	-9.6121
ांति	-9.61308
शास	-9.617
▁३	-9.6212
▁घड़	-9.62153
पाद	-9.62334
▁दुर्	-9.62404
▁सीता	-9.62455
ट्स	-9.62792
भारत	-9.63155
विज्ञान	-9.63164
माज़	-9.6317
मैं	-9.63186
▁ताल	-9.63223
वाई	-9.63272
लाइन	-9.63582
▁ईमानदार	-9.63895
ाइन	-9.64286
▁सारा	-9.64515
▁पड़ा	-9.6456
▁अध्याय	-9.6466
▁आकर्ष	-9.6466
▁दृढ़	-9.6466
▁धार्मिक	-9.6466
▁हिदायत	-9.6466
▁ऑनलाइन	-9.6466
▁दृष्टिकोण	-9.64661
▁शैली	-9.64661
▁घोषणा	-9.64662
▁तथ्य	-9.64662
नैतिक	-9.64662
▁आँख	-9.64662
बिल्कुल	-9.64662
▁किसानों	-9.64663
▁पशु	-9.64664
▁पौध	-9.64665
▁परस्पर	-9.64667
▁हजार	-9.6467
▁शोध	-9.64673
▁गतिविधियों	-9.64682
▁अनुच्छेद	-9.64682
▁बोझ	-9.64685
▁उत्तम	-9.64716
▁क्षमा	-9.64727
▁जायेगा	-9.64749
▁विविध	-9.64759
▁194	-9.648
▁सहमत	-9.64825
▁हिस	-9.64838
जिस	-9.64847
▁मिटा	-9.64866
▁तरफ़	-9.64866
▁चढ़	-9.64892
▁फ्ल	-9.64892
फ्त	-9.649
▁प्रेर	-9.64907
▁स्था	-9.65098
तोष	-9.65122
▁व्यय	-9.65185
ाशय	-9.65207
▁सुख	-9.65321
▁जीवित	-9.65405
हरू	-9.65569
▁दौर	-9.65675
▁हस्त	-9.6572
▁दोस्त	-9.65737
ंबर	-9.65787
▁कर्मचारी	-9.65845
▁किनार	-9.65865
▁जल्दी	-9.65974
st	-9.66101
▁कदा	-9.66132
▁बॉ	-9.66208
▁आठ	-9.66221
▁बजाय	-9.66226
▁सबके	-9.66265
¤¤	-9.66306
▁सीम	-9.66341
▁13	-9.66369
कुमार	-9.66531
▁नियमों	-9.66554
पट	-9.66562
▁लु	-9.66628
▁बाग	-9.66836
ra	-9.66907
▁रोज़	-9.66964
▁लगाता	-9.67088
▁बो	-9.67253
ुआ	-9.67402
लोड	-9.67404
▁सांस	-9.67408
▁तट	-9.6755
▁एफ	-9.67619
▁प्रकाशन	-9.67708
▁आता	-9.67806
दुनिया	-9.67835
▁पाए	-9.67934
धर्म	-9.67974
▁अज	-9.68143
▁जल्द	-9.68163
मंडल	-9.68295
ाणु	-9.68481
▁वार्	-9.68487
भोग	-9.68577
▁सै	-9.6858
▁अन्	-9.68599
सार	-9.68601
▁हाथों	-9.68697
सभा	-9.68916
▁भा	-9.68934
▁द्वार	-9.69107
▁सूर	-9.69149
▁सुल	-9.69202
ियर	-9.69255
ंदा	-9.6926
▁नियंत्र	-9.69263
▁झुठला	-9.69312
ाइयों	-9.69348
▁आरम्भ	-9.69422
▁तस्वीर	-9.69422
▁फ़रिश्त	-9.69422
▁विद्वान	-9.69422
▁हालांकि	-9.69422
▁बख्श	-9.69423
Com	-9.69423
▁पंजाब	-9.69423
▁एशिया	-9.69423
▁सच्चे	-9.69425
▁अफ्रीका	-9.69426
▁सीधे	-9.69428
▁रीति	-9.69434
▁कोशिका	-9.69435
▁अपील	-9.69447
▁उभर	-9.69451
▁साधन	-9.69462
चंद्र	-9.69471
ख्वाह	-9.69475
▁मिशन	-9.69482
▁स्वागत	-9.695
▁स्वच्छ	-9.69508
▁विफल	-9.6953
▁नीतियों	-9.69542
ol	-9.69586
▁आदर्श	-9.69674
लिय	-9.69733
▁वस्तुओं	-9.69804
ंडा	-9.69813
ot	-9.69827
▁स्वामी	-9.70009
▁गृह	-9.701
▁औरतों	-9.70155
▁गौ	-9.70189
▁तकनीकी	-9.70195
¤1	-9.70214
her	-9.70244
▁खुला	-9.70424
तुल	-9.70587
ख़र्च	-9.70622
ॉक्स	-9.70641
▁रहना	-9.70814
हीम	-9.70977
▁चरण	-9.71112
वें	-9.71402
▁रहें	-9.71479
ासिल	-9.71556
▁सामन	-9.71603
बारा	-9.71919
क्षित	-9.7193
▁फर्	-9.72107
▁माँग	-9.72193
ुरु	-9.72331
न्तर	-9.72521
▁बड	-9.72571
▁लेना	-9.72709
ियल	-9.72773
बाहरी	-9.72808
▁मानो	-9.72819
जनक	-9.72851
कुल	-9.73289
िक्र	-9.7344
माल	-9.73534
▁तर्क	-9.7365
▁संत	-9.74002
▁वाद	-9.7402
▁पस	-9.74126
ment	-9.74422
▁अनुमोद	-9.74422
▁इत्यादि	-9.74422
▁उद्घाट	-9.74422
▁एवोल्यूशन	-9.74422
▁दायित्व	-9.74422
▁निष्क्रिय	-9.74422
▁फ़ैसला	-9.74422
▁महत्त्व	-9.74422
▁महामहिम	-9.74422
▁भाषण	-9.74422
▁संघर्ष	-9.74422
▁संस्करण	-9.74422
▁खिलाफ	-9.74423
▁मुकदम	-9.74423
▁हत्या	-9.74423
▁अनुकूल	-9.74424
▁टुकड़	-9.74424
▁जनवरी	-9.74424
▁ट्रैक	-9.74432
▁सुबह	-9.74434
▁जमीन	-9.74458
प्ताह	-9.74464
पट्ट	-9.74489
▁चेहर	-9.745
▁(2)	-9.74521
▁नौकर	-9.74593
वाला	-9.74641
▁प्रचार	-9.74665
▁पश्चात्	-9.74686
▁मज़ा	-9.74693
▁192	-9.74708
▁घेर	-9.74733
▁निभा	-9.74766
▁घटा	-9.7477
▁मूर्ति	-9.748
▁प्रोत्साहन	-9.7483
▁खुल	-9.74831
▁प्राण	-9.7485
▁शिकार	-9.74862
▁जू	-9.74884
▁उतर	-9.74888
पथ	-9.74929
▁नील	-9.75011
▁दबा	-9.75189
▁शक़	-9.75202
▁चलते	-9.75278
▁कीमत	-9.75278
▁साधारण	-9.7528
▁पेट	-9.75306
वाले	-9.75315
▁समझते	-9.75315
▁उतन	-9.75342
▁कट	-9.75344
▁मुं	-9.7545
▁पति	-9.75524
▁बनाते	-9.75566
प्रिय	-9.75592
रुप	-9.75689
▁धारण	-9.76017
▁पारित	-9.76069
धारण	-9.76089
वृत्ति	-9.76213
▁क्रो	-9.76228
▁197	-9.7623
▁त्रि	-9.7649
▁F	-9.76492
▁तुर	-9.76671
▁पूछा	-9.76718
▁शास्त्र	-9.7684
हाल	-9.77145
▁दीन	-9.77304
▁विह	-9.77584
▁वेब	-9.77855
▁जय	-9.77886
▁फु	-9.78004
़त	-9.78011
▁जम	-9.78205
▁जुड़े	-9.78235
▁कर्मचार	-9.78381
▁नौ	-9.78409
▁परिवर्त	-9.78551
मात्र	-9.78598
▁करार	-9.78789
शासन	-9.78882
▁पड	-9.79052
▁लेता	-9.79317
▁आयोजन	-9.79359
13	-9.79372
▁अद्यतन	-9.79685
▁परामर्श	-9.79685
▁परिणामस्वरूप	-9.79685
▁बुनियाद	-9.79685
▁संलग्न	-9.79685
▁सांस्कृतिक	-9.79685
▁कटौती	-9.79685
▁भागीदारी	-9.79685
▁स्तंभ	-9.79685
▁काफ़िर	-9.79686
▁ढूंढ	-9.79686
▁थोड़ा	-9.79686
कुफ्फ़ार	-9.79686
▁कनेक्शन	-9.79686
▁संविदा	-9.79686
▁निरंतर	-9.79686
▁लॉग	-9.79687
▁सुंदर	-9.79687
▁ख़ुश	-9.7969
▁प्रतीक्षा	-9.79693
▁सिद्धांत	-9.79695
▁गणराज्य	-9.79695
▁जंगल	-9.79702
▁प्रधान	-9.79703
▁गरीब	-9.79703
▁दुख	-9.79703
दिन	-9.79707
▁स्त्री	-9.79715
▁डाउन	-9.79718
▁अंश	-9.79718
▁ग्	-9.79723
▁स्वरूप	-9.79755
▁इन्सा	-9.79774
▁विनिर्दिष्ट	-9.79855
▁पीढ़	-9.79864
▁फोन	-9.79865
▁करीब	-9.79878
▁प्रचल	-9.79885
▁विवाद	-9.79903
▁हिंदू	-9.7991
वेयर	-9.79916
कारात्मक	-9.79962
▁ग्री	-9.79982
▁खाली	-9.8006
▁खोलें	-9.80061
▁संपूर्ण	-9.80167
▁स्वर	-9.80208
▁इबर	-9.80256
▁धीरे	-9.80263
▁साफ़	-9.80337
▁ग्रे	-9.80421
िटी	-9.80453
▁मनो	-9.80467
रक्षित	-9.80523
▁एच	-9.80559
hi	-9.80698
▁Z	-9.80705
▁बनाकर	-9.80974
▁मीटर	-9.81069
▁दया	-9.81162
▁बनाई	-9.81529
▁माह	-9.81852
र्ज़	-9.81869
▁उड़ा	-9.82043
रबार	-9.82131
▁बनाना	-9.82153
▁उद	-9.82187
▁धु	-9.82916
▁बाहरी	-9.82925
▁कागज	-9.83105
▁साब	-9.83479
▁दस	-9.83632
आख़िर	-9.83637
बंद	-9.8365
अल्लाह	-9.83663
कुछ	-9.83671
सूची	-9.83695
▁मोमिन	-9.83758
▁एकत्र	-9.84195
क्यू	-9.84301
▁उड़	-9.84324
खंड	-9.8456
ियत	-9.84614
पालन	-9.84737
▁प्रतिनिधि	-9.85225
▁द्वि	-9.8523
▁घोष	-9.8524
॰	-9.85241
▁उत्कृष्ट	-9.85241
▁ग्रंथ	-9.85241
▁नेतृत्व	-9.85241
▁फ़िल्टर	-9.85241
▁फ़ॉन्ट	-9.85241
▁मुश्किल	-9.85241
▁संक्षिप्त	-9.85241
▁हथियार	-9.85241
▁चेतावन	-9.85241
िष्णु	-9.85241
▁दीर्घ	-9.85241
▁सर्वेक्षण	-9.85241
▁भगवान	-9.85241
ग़ालिब	-9.85241
▁इंडिया	-9.85242
▁सिस्टम	-9.85242
▁टैब	-9.85242
▁मतलब	-9.85244
▁नृत्य	-9.85244
▁अगस्त	-9.85245
▁अभियान	-9.85247
▁उम्र	-9.85248
▁तुलना	-9.85249
▁निहित	-9.8525
▁विश्लेषण	-9.85252
▁आनन्द	-9.85252
▁दर्शन	-9.85257
▁संगम	-9.85257
▁सौंप	-9.85261
▁पट्टी	-9.85267
je	-9.85274
▁सड़क	-9.85275
▁शख़्	-9.85288
▁दोहरा	-9.853
▁प्रत्यक्ष	-9.85302
▁डाटा	-9.8531
of	-9.85315
▁निर्देशिका	-9.85321
▁श्रेणीः	-9.85325
▁झुक	-9.85358
▁198	-9.85369
▁गंगा	-9.85428
▁खड़े	-9.85446
▁लोगो	-9.85488
▁अवतर	-9.85494
▁लेंगे	-9.85495
▁पर्वत	-9.85508
▁दर्द	-9.85511
▁समक्ष	-9.85537
▁पार्ट	-9.85576
▁तय	-9.85617
▁देर	-9.85701
दिर	-9.85725
▁जिनको	-9.85783
▁पाल	-9.85872
▁मुस्	-9.85902
▁रहेगा	-9.85943
▁वीर	-9.86099
▁लगाया	-9.86131
▁नियमित	-9.86132
▁तरीका	-9.86152
▁संरक्ष	-9.86164
▁पोर्ट	-9.86178
▁तकलीफ	-9.86268
▁मात्र	-9.86348
-19	-9.86376
▁लगते	-9.86419
▁कृष्ण	-9.86605
▁कैस	-9.86676
▁खुली	-9.86759
▁अधिसूच	-9.86787
▁खाना	-9.8717
▁किलो	-9.87211
▁फैला	-9.87215
▁बुरी	-9.87379
साद	-9.8747
▁सिल	-9.87629
▁देवी	-9.87801
▁लोड	-9.87947
पान	-9.87978
▁मई	-9.88044
▁मूल्यों	-9.88084
▁कक्ष	-9.88119
▁तीसर	-9.88457
स्त्रियों	-9.88521
▁खुले	-9.88996
▁पत्त	-9.89178
▁पहला	-9.89202
,000	-9.89233
▁शाह	-9.89324
▁रेल	-9.89464
ऑ	-9.89528
तुम्हार	-9.89538
अपनी	-9.89552
▁एड	-9.89598
▁लिखित	-9.89697
▁मंत्र	-9.89855
▁संस्कृत	-9.89947
भक्त	-9.89988
▁प्राप्ति	-9.90019
▁खतर	-9.90035
▁लिखी	-9.90181
सहकारी	-9.90238
पार	-9.9025
ोबार	-9.90426
▁माप	-9.90555
▁जीत	-9.90766
▁स्वतंत्र	-9.90775
▁लगी	-9.90946
ृष्टि	-9.91052
▁आवाज	-9.91105
व्यवसाय	-9.91123
▁अप्रैल	-9.91123
▁इकट्ठा	-9.91123
▁उपयोक्ता	-9.91123
▁औसत	-9.91123
▁तिथि	-9.91123
▁पोजीशन	-9.91123
▁प्रसिद्ध	-9.91123
▁वाणिज्य	-9.91123
▁समन्वय	-9.91123
▁सावधान	-9.91123
▁हिन्दू	-9.91123
▁औषध	-9.91123
▁ब्याज	-9.91123
▁रौशन	-9.91123
विमर्श	-9.91123
▁कर्तव्य	-9.91123
▁स्थिर	-9.91123
▁ठिकाना	-9.91124
▁व्याख्या	-9.91124
▁मेहरबान	-9.91124
▁बातचीत	-9.91124
▁देखभाल	-9.91124
▁शिखर	-9.91124
▁जवाहर	-9.91125
▁प्राचीन	-9.91125
▁बिक्री	-9.91125
▁लकड़ी	-9.91126
▁ढांच	-9.91127
▁पृष्ठभूमि	-9.91127
▁to	-9.91127
▁दिये	-9.91128
▁मानसिक	-9.91128
▁कुशल	-9.91128
▁अंदर	-9.91134
▁प्रतिनिधित्व	-9.91141
▁आंख	-9.91142
▁आंकड़	-9.91143
▁चिंता	-9.91146
▁नज़र	-9.9115
▁मिनट	-9.91153
ग़रज़	-9.91155
▁सच्चा	-9.91195
ana	-9.91196
▁इंटर	-9.91213
▁सत्याप	-9.91242
▁लक्षण	-9.91247
▁शरीक	-9.91302
▁दीक्षा	-9.91332
▁पैमान	-9.91347
▁खड़ा	-9.91353
प्रभु	-9.91355
▁संवाद	-9.9138
▁संस्थाओं	-9.91466
▁दीवार	-9.91473
दैव	-9.91475
▁क्लिक	-9.91528
▁विरू	-9.9158
▁सामान	-9.91598
स्ट्र	-9.91613
▁योग्यता	-9.91669
▁भाषाओं	-9.91682
▁चख	-9.91706
▁सिक्क	-9.91778
-20	-9.91919
काफिरों	-9.91929
▁प्रतिभा	-9.921
▁शिक्षक	-9.9226
▁अदा	-9.9227
▁ईमानदारों	-9.92501
आप	-9.92508
▁आओ	-9.9259
15	-9.92621
▁प्राथमिकता	-9.92651
▁बदलें	-9.92674
▁२००	-9.92766
▁सर्वाधिक	-9.92869
▁80	-9.92999
▁बीज	-9.93025
▁ख़ास	-9.93145
ti	-9.93304
▁ताकत	-9.93317
▁स्ट्र	-9.93323
कर्ताओं	-9.93351
▁लाइन	-9.93505
▁आवास	-9.93545
कालीन	-9.93601
▁उधार	-9.93608
घर	-9.93842
▁तीसरे	-9.93885
▁27	-9.94626
▁चर	-9.94642
▁वरन	-9.94773
us	-9.9478
ावट	-9.94853
धारक	-9.94948
▁शेख	-9.95247
राष्ट्र	-9.95699
निर्माण	-9.95789
मीटर	-9.95942
▁प्रबंध	-9.96074
राज्य	-9.96188
▁छिप	-9.96325
▁ठो	-9.96646
▁तरीक	-9.96808
वर्ग	-9.96816
pr	-9.96839
चरण	-9.97042
लिप	-9.97052
नीति	-9.97285
९	-9.97354
▁आध्यात्मिक	-9.97373
▁इलेक्ट्रॉनिक	-9.97373
▁औलाद	-9.97373
▁गिरफ्तार	-9.97373
▁जिम्मेदार	-9.97373
▁धैर्य	-9.97373
▁फिलीस्तीन	-9.97373
▁मस्जिद	-9.97373
▁विद्यमान	-9.97373
▁शुभकामनाएं	-9.97373
▁सम्मिलित	-9.97373
▁जलवायु	-9.97373
▁पवित्र	-9.97374
▁ब्रिटि	-9.97374
▁संक्रमण	-9.97374
▁ध्वनि	-9.97374
▁शून्य	-9.97374
ज्ञापन	-9.97374
▁बिजली	-9.97374
▁संदेह	-9.97374
▁दयालु	-9.97374
▁सिविल	-9.97375
▁हिस्से	-9.97375
▁भौतिक	-9.97375
▁यूनिट	-9.97375
▁मिसाल	-9.97375
▁बच्चा	-9.97376
▁लिंक	-9.97376
▁जैव	-9.97377
▁शाखा	-9.97377
▁सजदा	-9.97378
▁अक्सर	-9.9738
▁ग्रहण	-9.97381
▁१९	-9.97382
▁अक्षर	-9.97385
द्वितीय	-9.97395
▁गुजरात	-9.97402
▁सुझा	-9.97406
▁फरमा	-9.97429
▁गुप्त	-9.97436
▁दिखायें	-9.97444
▁अनुरोध	-9.97454
▁मिलेगी	-9.97459
▁सिद्ध	-9.9746
▁लौटा	-9.97478
60	-9.9751
▁लड़ाई	-9.97534
▁प्रसार	-9.97558
▁जहाज	-9.97623
▁कम्प	-9.97642
▁28	-9.97649
▁सुविधाओं	-9.9766
▁घंट	-9.9771
▁विश्वसनीय	-9.97746
▁प्रवाह	-9.97747
▁संचालन	-9.97755
▁क़ाब	-9.9776
▁विभाजन	-9.978
▁जाएं	-9.97838
▁अकेल	-9.97861
▁नकद	-9.97868
त्यंत	-9.97875
▁अनुमान	-9.97905
▁पत्नी	-9.97959
▁आउट	-9.9796
▁उठाया	-9.97998
▁पेज	-9.98003
▁बेच	-9.98029
▁नवीन	-9.98048
▁मां	-9.98167
▁अभाव	-9.98303
▁बहुतेर	-9.98436
▁किस्म	-9.9846
▁भला	-9.98606
sh	-9.98664
▁21	-9.98677
▁केंद्रित	-9.98689
▁देखकर	-9.98796
▁प्रती	-9.98868
जलि	-9.98897
▁लाया	-9.98926
▁खतरा	-9.98946
▁रिक्त	-9.98968
▁मामला	-9.98981
30	-9.98985
▁वादा	-9.99165
ोगे	-9.99218
प्प	-9.9927
राइट	-9.99477
रिट	-9.99493
▁मंडल	-9.99578
▁कहानी	-9.99648
▁पड़ता	-10.0002
▁रिज	-10.0007
▁40	-10.0013
रोपण	-10.0017
▁सवाल	-10.0034
मिंग	-10.0039
▁प्रशंसा	-10.006
▁आरोप	-10.0124
बैक	-10.0186
दाद	-10.0203
▁डो	-10.0225
परिक	-10.0236
क्का	-10.0241
कृष्ण	-10.0242
ावस्था	-10.0244
▁स्टे	-10.0245
(	-10.0246
यदि	-10.0249
तंत्र	-10.025
प्रद	-10.0268
▁ईमानवाल	-10.0276
प्रति	-10.0309
▁मुद्र	-10.031
▁असम	-10.032
▁बजा	-10.033
as	-10.0332
म्मा	-10.0348
▁भंडार	-10.0388
नेवाला	-10.0398
रेखा	-10.0399
क़ुरआन	-10.0404
▁उन्होने	-10.0404
▁ऊंचा	-10.0404
▁कश्मीर	-10.0404
▁कार्रवाई	-10.0404
▁कौशल	-10.0404
▁जनसंख्या	-10.0404
▁परिभाषित	-10.0404
▁विरासत	-10.0404
▁शारीरिक	-10.0404
▁श्रद्धा	-10.0404
▁इंजीनियर	-10.0404
▁पंचांग	-10.0404
▁सर्वोच्च	-10.0404
▁रोजगार	-10.0404
▁सफेद	-10.0404
▁पूर्ति	-10.0404
▁फैसल	-10.0404
▁त्याग	-10.0404
▁समझौते	-10.0404
▁उत्साह	-10.0404
▁फायद	-10.0404
▁उद्यान	-10.0404
▁समझौता	-10.0404
▁दाहिन	-10.0404
▁निदेशक	-10.0404
▁सचिव	-10.0405
▁प्रभार	-10.0405
▁महसू	-10.0405
▁कमांड	-10.0405
थोड़े	-10.0405
ग़ैर	-10.0405
▁नवंबर	-10.0405
▁विद्या	-10.0406
▁2007	-10.0406
▁मधु	-10.0406
▁छुट्ट	-10.0406
▁प्राधिक	-10.0406
▁गेंद	-10.0407
वर्ण	-10.0407
▁रेलवे	-10.0407
▁अल्प	-10.0407
▁2013	-10.0407
▁मकान	-10.0407
चूंकि	-10.0408
▁देवता	-10.0408
▁प्रारूप	-10.0408
▁सिखा	-10.0409
▁पसन्द	-10.041
uk	-10.041
▁तत्काल	-10.041
▁आवाज़	-10.041
▁द्रव	-10.0411
▁क्षति	-10.0411
▁परिपत्र	-10.0415
▁अनुपात	-10.0416
▁नजर	-10.0417
▁दूध	-10.0417
▁2000	-10.0418
▁उच्चतम	-10.0418
▁बाहम	-10.0419
▁सूत्र	-10.042
08	-10.0421
▁चेतन	-10.0424
bm	-10.0431
▁पुत्र	-10.0433
कर्म	-10.0433
▁29	-10.0434
▁मुंब	-10.0436
▁31	-10.0438
▁मानवीय	-10.044
▁चैनल	-10.0441
मोहम्मद	-10.0443
▁नोट	-10.0444
▁24	-10.0444
▁पहन	-10.0449
ीर्ण	-10.0451
▁डराने	-10.0452
▁बदलाव	-10.0455
▁स्मृति	-10.0455
▁चिह्न	-10.0467
युक़्त	-10.047
बिलकुल	-10.0472
▁मिलती	-10.0476
▁पहलू	-10.0483
▁बोस	-10.0483
▁उदार	-10.049
▁अनुवाद	-10.0503
▁लानेवालो	-10.0549
▁मानवता	-10.0557
▁वंश	-10.0561
▁पैस	-10.0573
▁अंध	-10.0576
▁दंड	-10.0588
▁राज़	-10.0594
▁चलो	-10.0619
34	-10.062
▁जड़	-10.0652
▁मशीन	-10.067
रेश	-10.0672
▁चुना	-10.0709
▁गहरा	-10.0765
रोसा	-10.0766
▁बीमा	-10.0822
▁टॉ	-10.0895
▁रच	-10.0902
०००	-10.0921
क्ल	-10.0929
पैग़म्बर	-10.0958
वंश	-10.0961
संभव	-10.0968
''	-10.0989
07	-10.0992
▁अमेरिक	-10.1018
▁चैन	-10.1095
▁बाज	-10.1107
▁श्रेणी	-10.1107
▁दस्तावेज	-10.1115
▁अस्तित्व	-10.1118
▁डिजिटल	-10.1118
▁उम्मीद	-10.1118
▁गाँधी	-10.1118
▁ज़िन्दगी	-10.1118
▁ट्यूब	-10.1118
▁परिस्थितियों	-10.1118
▁फिरऔन	-10.1118
▁मीडिया	-10.1118
▁संयंत्र	-10.1118
▁2014	-10.1118
▁पुस्तिका	-10.1118
▁बिगाड़	-10.1118
▁राजस्थान	-10.1118
▁2012	-10.1118
▁विडियो	-10.1118
▁इंडियन	-10.1118
▁जम्मू	-10.1118
▁पर्यटन	-10.1118
▁फार्म	-10.1118
▁बिंदु	-10.1118
▁प्रार्थना	-10.1118
▁ऊतक	-10.1118
▁टैग	-10.1118
▁समीक्षा	-10.1118
▁शत्रु	-10.1118
▁साझीदार	-10.1118
▁जटिल	-10.1118
▁मौलिक	-10.1119
▁सर्वोत्	-10.1119
▁टूट	-10.1119
▁प्रभुत्वशाली	-10.1119
▁आज़मा	-10.1119
▁छूट	-10.1119
▁‘‘	-10.1119
▁पाकिस्तान	-10.1119
prh	-10.1119
▁इकाई	-10.1119
▁आनंद	-10.112
विनियमन	-10.112
तन्त्र	-10.112
शोथ	-10.112
▁पंजीकरण	-10.112
▁क्रांति	-10.1121
▁पुस्तकालय	-10.1122
▁१५	-10.1122
▁क़दम	-10.1124
ख़ूब	-10.1126
▁संभाव	-10.1127
▁सहेजें	-10.1128
▁कम्पनी	-10.1128
ch	-10.113
▁जिले	-10.1131
▁आजाद	-10.1132
▁प्रतिक्रिया	-10.1134
▁चमक	-10.1134
▁पूज्य	-10.1135
▁शोक	-10.1138
▁चाहती	-10.1139
ईमान	-10.114
▁प्रसन्नता	-10.1145
▁सरदार	-10.1146
▁संध्य	-10.1152
▁मर्द	-10.116
कथित	-10.116
▁मेहर	-10.1162
▁ज़्यादा	-10.1165
▁विनय	-10.1171
लॉकि	-10.1172
▁एंड	-10.1174
▁डरते	-10.1183
▁भले	-10.1189
▁आग्रह	-10.119
▁प्रबंधक	-10.119
▁ख़त	-10.1198
हक़	-10.1209
▁बाकी	-10.121
▁दिखाया	-10.1215
मिट	-10.122
▁भौ	-10.1221
▁मित्रता	-10.1228
▁अपनाया	-10.1239
▁सतत	-10.1268
▁परमाण	-10.1295
समय	-10.1299
▁मूल्यांक	-10.1302
▁शिव	-10.1317
▁बनाये	-10.1349
रहित	-10.1363
फ़्र	-10.1369
▁बचत	-10.1376
▁दाख	-10.1396
हार्द	-10.1456
▁रहत	-10.1468
▁पाई	-10.1475
्हों	-10.1487
ांकन	-10.1527
▁खिल	-10.1561
ाह्य	-10.1593
नुमा	-10.1604
▁शिक्ष	-10.161
न्ड	-10.1645
▁अभिव्यक्ति	-10.1687
पूर्व	-10.1691
न्याय	-10.1719
भाषा	-10.1726
अज़ाब	-10.1729
निवेश	-10.1729
उनकी	-10.1762
de	-10.1769
दत्त	-10.1769
▁खेत	-10.177
उसके	-10.1782
प्रदान	-10.1782
मोह	-10.1809
▁संस्थाप	-10.1827
▁राजनीति	-10.1832
▁दोनो	-10.188
▁पूज	-10.188
ndia	-10.1887
lease	-10.1887
.09.201	-10.1888
अनक़रीब	-10.1888
▁अस्पताल	-10.1888
▁आश्चर्य	-10.1888
▁न्यायाधीश	-10.1888
▁प्रयोक्ता	-10.1888
▁मुक़ाबल	-10.1888
▁विपणन	-10.1888
▁श्रृंखला	-10.1888
▁सिफारिश	-10.1888
info	-10.1888
▁प्रयत्न	-10.1888
▁विपरीत	-10.1888
▁सभ्यता	-10.1888
▁विन्यास	-10.1888
जहन्नम	-10.1888
▁थोड़ी	-10.1888
▁कमज़ोर	-10.1888
▁सराहना	-10.1888
▁मुकाबल	-10.1888
▁परिवहन	-10.1888
▁माबूद	-10.1888
▁चरित्र	-10.1888
▁पुष्टि	-10.1888
▁मेहनत	-10.1888
▁आमंत्र	-10.1888
▁नेअमत	-10.1888
▁परेशान	-10.1888
▁आंध्र	-10.1888
▁इमारत	-10.1888
ट्ठ	-10.1888
▁अभिगम	-10.1888
▁मान्यता	-10.1888
ंतरिक	-10.1889
▁तमिल	-10.1889
▁वकील	-10.1889
▁नक़ल	-10.1889
▁बजट	-10.1889
▁साहब	-10.1889
▁परीक्षण	-10.1889
▁चोट	-10.189
▁नमून	-10.189
▁संचय	-10.189
ोत्तर	-10.189
ww	-10.1891
▁पलट	-10.1891
▁महीने	-10.1891
▁भाष्	-10.1891
▁उन्नत	-10.1892
▁कब्ज	-10.1894
▁कॉपी	-10.1895
▁नवान्वेषण	-10.1895
ेंद्र	-10.1895
▁झाड़	-10.1896
▁रेडियो	-10.1896
▁मददगार	-10.1898
ख्याल	-10.1899
▁घुस	-10.1899
शास्त्र	-10.19
▁संबोध	-10.1905
महीनों	-10.1906
▁बिहार	-10.1907
▁प्रतिबद्ध	-10.1907
▁मुर्द	-10.1908
▁सकेगा	-10.1908
ing	-10.1908
▁प्रभाग	-10.1913
▁ऑफ़	-10.1913
op	-10.1914
▁दुआ	-10.1916
▁सृजन	-10.1919
तमाम	-10.1919
▁अपमान	-10.1921
र्द्ध	-10.1926
ियामत	-10.1927
▁प्रांत	-10.1928
▁प्रतिभूति	-10.1931
▁फूल	-10.1939
ग्रस्त	-10.1942
▁चाय	-10.1945
▁सज़ा	-10.1949
म्मत	-10.1956
जिहा	-10.1981
▁करोगे	-10.1982
▁नेपाल	-10.1988
▁दर्शा	-10.1994
33	-10.1998
▁चिप	-10.2005
▁मांस	-10.2012
क़्त	-10.2019
गोलि	-10.2093
हाउस	-10.2096
18	-10.2185
53	-10.227
▁35	-10.232
कालिक	-10.2328
फाइ	-10.2349
पेक्ष	-10.2398
▁समर्प	-10.2445
tr	-10.245
रक्षण	-10.2501
▁प्राथमिक	-10.2506
▁प्रतिवाद	-10.2508
▁प्राप्तकर्ता	-10.2525
जुल	-10.2551
Z	-10.2559
लोगों	-10.2564
िस्तान	-10.2582
▁तकनीक	-10.2588
विचार	-10.2588
मार्ग	-10.259
▁कुर्	-10.2594
▁आज्ञा	-10.2598
▁प्राधिकार	-10.2604
▁प्रोत्साह	-10.2652
▁अपेक्ष	-10.266
39	-10.2705
▁गतिविधि	-10.2718
▁व्यावस	-10.2719
▁शैक्ष	-10.2719
▁जादू	-10.2719
dent	-10.2721
▁आत्मनिर्भर	-10.2721
▁उपभोक्ता	-10.2721
▁प्रतियोगिता	-10.2721
▁प्रासंगिक	-10.2721
▁सुदृढ़	-10.2721
▁अग्नि	-10.2721
▁अभिभाषण	-10.2721
▁अभ्यास	-10.2721
▁कम्प्यूटर	-10.2721
▁जर्मनी	-10.2721
▁डेस्कटॉप	-10.2721
▁दरमियान	-10.2721
▁दुर्घटना	-10.2721
▁पृथ्वी	-10.2721
▁ब्राह्मण	-10.2721
▁मजदूर	-10.2721
▁रंगमंच	-10.2721
▁लाइसेंस	-10.2721
▁विद्रोह	-10.2721
▁साम्राज्य	-10.2721
▁सितम्बर	-10.2721
निर्वाचन	-10.2721
▁आपूर्ति	-10.2721
▁सूक्ष्म	-10.2721
▁स्नातक	-10.2721
detail	-10.2721
मुक़र्र	-10.2721
▁2017	-10.2721
▁कार्बन	-10.2721
▁गंतव्य	-10.2721
▁पैरामीटर	-10.2721
▁2010	-10.2721
▁अज्ञात	-10.2721
▁तत्वदर्शी	-10.2721
▁आखिर	-10.2721
▁दुःख	-10.2721
▁ज़िन्दा	-10.2721
▁घरेलू	-10.2721
▁आक्रमण	-10.2721
▁स्वीकृति	-10.2721
▁पाइप	-10.2721
▁जोखिम	-10.2721
▁जुलाई	-10.2721
▁प्रेरणा	-10.2721
प्रेषित	-10.2721
▁the	-10.2721
▁अखिल	-10.2721
▁खत्म	-10.2721
▁बादशाह	-10.2721
▁अदालत	-10.2721
श्रमिक	-10.2721
▁अर्थात्	-10.2721
▁सशक्त	-10.2722
▁कमजोर	-10.2722
▁फिल्म	-10.2722
▁मासिक	-10.2722
मूहि	-10.2722
▁आबादी	-10.2722
▁डूब	-10.2722
▁कूट	-10.2723
▁असमर्थ	-10.2723
▁आस्था	-10.2723
▁स्थग	-10.2723
▁स्विच	-10.2724
▁संकट	-10.2724
▁नूह	-10.2724
▁दस्तावेज़	-10.2724
▁भड़क	-10.2727
iii	-10.2727
▁स्टेशन	-10.2727
▁मिटाएँ	-10.2729
▁कंपनियों	-10.273
▁सलाम	-10.2732
▁ज़ुल	-10.2734
ow	-10.2735
▁खून	-10.2735
▁लम्बा	-10.2736
▁काउं	-10.2737
▁स्पष्टीकरण	-10.2738
un	-10.2738
▁मक्का	-10.2739
क़रार	-10.2739
▁परिसर	-10.2739
▁भक्ति	-10.2739
▁भलाई	-10.2741
पीएस	-10.2742
▁संबद्ध	-10.2742
▁पड़ेगा	-10.2743
▁मोदी	-10.2745
क्शन	-10.2746
▁कहलात	-10.2749
धारी	-10.2751
!"	-10.2752
▁44	-10.2752
▁लटक	-10.2753
▁बांस	-10.2755
▁सूर्य	-10.2755
▁वरिष्	-10.2756
▁घटनाओं	-10.2761
▁करेगी	-10.2765
▁वृक्ष	-10.2766
▁झोंक	-10.2768
▁हराम	-10.2768
▁सूख	-10.2769
▁सागर	-10.277
▁परियोजनाओं	-10.2773
प्पल	-10.2773
▁दुखद	-10.2774
▁रवी	-10.2778
▁बुराई	-10.278
▁सेवाएं	-10.2781
▁तथापि	-10.2782
▁शोर	-10.2783
▁नहरे	-10.28
▁इंच	-10.2828
▁कर्ज	-10.2839
▁कार्यान्वय	-10.2879
हिमा	-10.2896
▁अकब	-10.2932
▁बढ़त	-10.2935
iv	-10.2981
सभापति	-10.3033
शस्त्र	-10.3043
ँच	-10.3135
न्हीं	-10.3144
▁जानेवाल	-10.3181
शिक्षण	-10.3209
▁क़ब्	-10.3401
▁नीं	-10.346
गर्भ	-10.347
विश्वास	-10.3471
अच्छा	-10.3472
मुझे	-10.3472
पहले	-10.3473
नहीं	-10.3477
गैर	-10.3479
वस्तु	-10.3491
▁ख़ुद	-10.3526
▁दर्शात	-10.3542
शोधन	-10.3622
▁बायो	-10.3629
▁जागरूक	-10.363
▁संवर्धन	-10.363
क़ुदरत	-10.363
▁उल्लंघन	-10.363
▁टेलीफोन	-10.363
▁परहेज़गार	-10.363
▁पूर्वावलोकन	-10.363
▁फ्रांस	-10.363
▁शुरुआत	-10.363
▁सहानुभूति	-10.363
▁सामर्थ्य	-10.363
▁डिजाइन	-10.363
▁दिसंबर	-10.363
▁हिमालय	-10.363
▁राजधानी	-10.363
▁क्रिकेट	-10.363
▁संतुष्ट	-10.363
▁सुभाष	-10.363
▁हिंसा	-10.363
▁दैनिक	-10.363
▁मछली	-10.363
▁स्मारक	-10.363
▁दीजिए	-10.363
▁फोटो	-10.363
▁इनपुट	-10.363
▁आदमियों	-10.363
▁प्रायः	-10.363
▁गौरव	-10.363
▁हँसी	-10.363
▁कनेक्ट	-10.363
▁शिशु	-10.363
▁धोख	-10.363
ेश्वर	-10.363
▁जरुर	-10.363
▁ब्लॉ	-10.363
▁धातु	-10.363
1956	-10.363
▁ठहरे	-10.363
▁एहद	-10.3631
▁कार्यवाही	-10.3631
▁उपाधि	-10.3631
▁न्यास	-10.3631
▁साक्षी	-10.3631
▁वितरण	-10.3631
▁अक्षम	-10.3631
▁जनरल	-10.3631
▁छुपा	-10.3631
▁विनाश	-10.3632
▁मृद	-10.3632
▁ईरान	-10.3633
▁वचन	-10.3633
▁सैन्य	-10.3633
▁परिभाषा	-10.3634
कोलकाता	-10.3634
▁फ़रमा	-10.3636
▁इकाइय	-10.3636
▁बटन	-10.3636
▁अन्तिम	-10.3636
▁पाँच	-10.3636
▁नस्ल	-10.3637
▁परिकल्पना	-10.3637
▁चैत	-10.3637
▁ऑपरे	-10.3638
▁उत्तरदाय	-10.364
▁निकायों	-10.364
▁उलट	-10.3642
▁अपवाद	-10.3642
शाला	-10.3643
▁विशेषज्ञ	-10.3644
▁राधा	-10.3644
’’	-10.3644
▁राज्यपाल	-10.3647
▁सुविधाएं	-10.3647
▁मुगल	-10.3647
▁काफ़ी	-10.3651
▁अमल	-10.3651
▁भंडारण	-10.3653
निष्ठ	-10.3653
▁जापान	-10.3657
▁खबर	-10.3658
▁स्वस्थ	-10.3658
▁उदय	-10.3663
▁निचल	-10.3665
खराब	-10.3666
रूस	-10.3666
▁भर्त	-10.3671
वाणी	-10.3672
तलाश	-10.3677
़ौर	-10.3764
ट्रांस	-10.3783
गोया	-10.3809
दृश्य	-10.3865
▁युक्ति	-10.3882
मोमिनीन	-10.3882
▁चौथ	-10.3948
र्पित	-10.3959
▁तात्	-10.399
अर्थात	-10.4005
500	-10.4157
▁रखनेवाल	-10.4203
▁पड़त	-10.4335
इंड	-10.4382
रचना	-10.4468
&	-10.4471
▁विकृत	-10.4479
ठीक	-10.4484
ख़बर	-10.4491
साधारण	-10.4492
पोर्ट	-10.4502
सज्ज	-10.4535
▁विभाज	-10.4561
▁उपयोगकर्ता	-10.4567
▁दरवाज	-10.4589
▁प्रसन्न	-10.4592
▁प्रदूष	-10.4613
▁गुजर	-10.4626
च्छेद	-10.4627
▁छुट	-10.4627
▁प्रभुत्व	-10.4629
▁रजिस्ट्रीक	-10.463
▁अपशिष्ट	-10.463
▁ऊंचे	-10.463
▁एक्सचेंज	-10.463
▁औपचारिक	-10.463
▁कर्नाटक	-10.463
▁ज़बरदस्त	-10.463
▁झुठलाओगे	-10.463
▁टिप्पणी	-10.463
▁डिफ़ॉल्ट	-10.463
▁ड्राइव	-10.463
▁दुश्मन	-10.463
▁प्रसंस्करण	-10.463
▁प्लगइन	-10.463
▁फरमाबरदार	-10.463
▁मजबूर	-10.463
▁मस्तिष्क	-10.463
▁मुलाकात	-10.463
▁वैकल्पिक	-10.463
▁व्यवस्थित	-10.463
▁श्रेष्ठ	-10.463
▁ऑडियो	-10.463
▁निष्कर्ष	-10.463
▁फरिश्त	-10.463
...............	-10.463
क़ुबूल	-10.463
▁शैतान	-10.463
▁2006	-10.463
▁क़िस्म	-10.463
▁2009	-10.463
▁नवम्बर	-10.463
▁सम्पर्क	-10.463
▁आजीविका	-10.463
▁खिलाड़ी	-10.463
▁ज़रिए	-10.463
प्रेषण	-10.463
▁शिष्य	-10.463
▁पेंशन	-10.463
▁रणनीति	-10.463
▁पासवर्ड	-10.463
आउटपुट	-10.463
▁परिचय	-10.463
▁प्रतिबंध	-10.463
▁डिग्री	-10.463
पार्श्व	-10.463
▁प्रवर्तन	-10.463
▁घुमा	-10.463
▁पिछड़	-10.463
▁विद्वत	-10.463
▁संभाल	-10.463
▁प्रिंट	-10.4631
▁आकलन	-10.4631
यन्त्र	-10.4631
उपर्युक्त	-10.4631
▁सन्तान	-10.4631
▁सीधी	-10.4631
पोषण	-10.4631
▁कुरान	-10.4631
▁पादप	-10.4632
▁आश्र	-10.4632
▁कथन	-10.4632
▁नियोज	-10.4632
▁अस्थि	-10.4633
▁आशु	-10.4633
▁अपीलार्थ	-10.4633
शिल्प	-10.4633
▁दलील	-10.4633
▁संग्रहालय	-10.4633
▁2008	-10.4633
▁कर्ण	-10.4634
▁ग्लो	-10.4634
▁2015	-10.4634
▁फ्री	-10.4635
लैण्ड	-10.4635
▁नोड	-10.4635
▁निराश	-10.4635
▁दर्शक	-10.4637
▁शासक	-10.4638
महाराजा	-10.4638
▁सहेज	-10.464
▁(4)	-10.4641
▁फेंक	-10.4642
ख़ैर	-10.4642
▁जयंत	-10.4643
बूझ	-10.4644
ाउंड	-10.4646
▁प्रदूषण	-10.4647
▁जाओगे	-10.4648
▁वर्गीकरण	-10.4648
▁शादी	-10.4649
▁इलाक	-10.4651
▁अनुरूप	-10.4651
▁बाबू	-10.4653
▁दरबार	-10.4658
▁मिलेगा	-10.4659
▁घिर	-10.4662
▁संपद	-10.4663
▁बरसा	-10.4667
▁घाव	-10.4669
▁दायर	-10.4676
शंकर	-10.4677
▁औरतें	-10.4681
▁अहल	-10.4684
▁अमर	-10.4699
1-201	-10.4704
▁त्वर	-10.4713
ाइज	-10.4714
गामी	-10.4753
ग्राफ	-10.4788
अनुसूचित	-10.4815
▁कठिनाइय	-10.4819
▁लगत	-10.4825
▁गुरू	-10.4842
▁मौक	-10.4903
वैसा	-10.5026
चित्रण	-10.504
▁पक्क	-10.542
गुज़र	-10.5581
गृह	-10.5581
व्यवहार	-10.5581
प्रकाश	-10.5582
पत्ति	-10.5583
द्वार	-10.5584
दोनों	-10.5584
जैसे	-10.5585
▁संचाल	-10.5672
राशि	-10.5718
▁प्रशिक्ष	-10.5725
j	-10.5734
▁छोड	-10.5739
ञ	-10.5741
▁असामान्य	-10.5741
▁शरणार्थ	-10.5741
बेहिश्त	-10.5741
▁अब्दुल्ला	-10.5741
▁आश्वासन	-10.5741
▁आह्वान	-10.5741
▁ग्रन्थ	-10.5741
▁परिचालन	-10.5741
▁परिश्रम	-10.5741
▁प्रावधान	-10.5741
▁फलस्वरूप	-10.5741
▁मॉडल	-10.5741
▁वाक़िफ़	-10.5741
▁व्युत्पन्न	-10.5741
▁संशोधित	-10.5741
▁सचमुच	-10.5741
▁साफ्टवेयर	-10.5741
▁1957	-10.5741
▁पाठ्यक्रम	-10.5741
▁फरवरी	-10.5741
▁सीआरए	-10.5741
▁स्क्रिप्ट	-10.5741
इजाज़त	-10.5741
ब्रिटेन	-10.5741
▁तीव्र	-10.5741
▁फ़िल्म	-10.5741
▁संहिता	-10.5741
▁2004	-10.5741
▁माहौल	-10.5741
▁प्रौढ़	-10.5741
▁शरारत	-10.5741
▁बिन्दु	-10.5741
▁(199	-10.5741
▁इबादत	-10.5741
▁रिश्ते	-10.5741
िमंत्रण	-10.5741
▁साक्ष्य	-10.5741
▁निवारण	-10.5741
▁दिव्य	-10.5741
▁नवाचार	-10.5741
▁पैकेज	-10.5741
▁कपड़े	-10.5741
▁डाक्टर	-10.5741
▁उत्सव	-10.5741
▁मूत्र	-10.5741
▁फौज	-10.5741
▁संकलन	-10.5741
▁वसूल	-10.5742
▁शुरूआत	-10.5742
▁इंसान	-10.5742
पीडीएफ	-10.5742
▁प्रसंग	-10.5742
▁स्कीम	-10.5742
▁दुकान	-10.5742
▁सटीक	-10.5742
▁रहस्य	-10.5743
▁कचरा	-10.5743
सत्य	-10.5743
पब्लिक	-10.5743
▁निष्ठा	-10.5744
▁फसल	-10.5744
▁सउद	-10.5744
▁क्षमाशील	-10.5745
▁जादूगर	-10.5745
▁जानबूझ	-10.5745
▁प्रयोगशाला	-10.5746
▁झील	-10.5746
▁सम्पाद	-10.5746
▁आदत	-10.5746
▁ढेर	-10.5747
▁कालेज	-10.5747
▁अधिकारिता	-10.5747
▁चावल	-10.5747
▁जाननेवाला	-10.5748
▁घोड़	-10.5748
▁वैष्	-10.5748
▁अहं	-10.5749
tel	-10.5749
▁प्रजातिय	-10.5749
▁समकालीन	-10.5749
▁अग्रिम	-10.575
▁चाहेंगे	-10.575
▁स्वदेशी	-10.575
मुक्त	-10.5753
▁तालाब	-10.5753
▁समेक	-10.5754
▁होटल	-10.5755
▁चमड़	-10.5756
▁वृक्क	-10.5757
▁अमरीक	-10.5758
▁सितार	-10.5758
▁प्रदाता	-10.5758
▁क़ाय	-10.5759
भोज	-10.5792
ुद्र	-10.5793
▁वाक्य	-10.5798
शुद	-10.5825
2018	-10.5826
वाज़े	-10.5829
▁सकेंगे	-10.5864
▁लिपि	-10.5891
▁समाजवाद	-10.6033
▁अभिव्यक्त	-10.6043
▁पूर्ववर्	-10.6061
▁कोविन्	-10.6133
▁रहनेवाल	-10.6303
िख्यात	-10.6447
ate	-10.657
सूचित	-10.6573
▁देनेवाल	-10.6619
▁कार्यान्व	-10.6754
रुद्ध	-10.6798
{	-10.683
दिवस	-10.6831
वृद्धि	-10.6832
पश्चिम	-10.6832
हमारे	-10.6835
▁यूसुफ	-10.6865
▁अधिवक्ता	-10.6991
▁निःशुल्क	-10.6991
▁व्यावहारिक	-10.6991
▁संवेदनशील	-10.6991
NAME	-10.6991
अफसोस	-10.6991
▁अक्तूबर	-10.6991
▁आबंटन	-10.6991
▁कूटशब्द	-10.6991
▁चिकित्सक	-10.6991
▁डेलिगेट	-10.6991
▁नुकसान	-10.6991
▁पृथक	-10.6991
▁प्रबन्धन	-10.6991
▁माइक्रो	-10.6991
▁मीम॰	-10.6991
▁रेगिस्तान	-10.6991
▁विघटन	-10.6991
▁सतर्कता	-10.6991
▁सिंचाई	-10.6991
▁सिफ़ारिश	-10.6991
▁सॉफ्टवेयर	-10.6991
▁हाज़िर	-10.6991
▁क्रियाकलाप	-10.6991
▁चाहूंगा	-10.6991
▁प्रोजेक्ट	-10.6991
▁समायोज	-10.6991
▁विवेकान	-10.6991
▁अनदेख	-10.6991
▁मंजूर	-10.6991
▁विकलांग	-10.6991
▁खींच	-10.6991
▁रिकार्ड	-10.6991
▁स्वप्न	-10.6991
▁कृपा	-10.6991
▁फोल्ड	-10.6991
▁अनुभूति	-10.6991
▁चक्कर	-10.6991
▁निपटान	-10.6991
▁सम्बंध	-10.6991
▁आघात	-10.6991
▁वरीयता	-10.6991
▁समावेश	-10.6991
▁स्वचाल	-10.6991
▁दिमाग	-10.6991
▁अवज्ञा	-10.6991
▁गाँव	-10.6991
▁क्रमांक	-10.6991
▁सुलेमान	-10.6991
▁आचार्य	-10.6991
▁मातृ	-10.6991
▁फिलीप	-10.6991
▁वायुयान	-10.6991
भ्रंश	-10.6991
एनआर	-10.6991
डब्लू	-10.6992
▁क़िबल	-10.6992
▁दौड़	-10.6992
▁जन्नत	-10.6992
▁पंडित	-10.6992
▁१९९	-10.6992
▁संयोज	-10.6992
▁सैनिक	-10.6992
▁विलोप	-10.6993
▁प्रशांत	-10.6993
षेध	-10.6993
▁अनुज्ञा	-10.6993
▁कमेटी	-10.6993
▁सचेत	-10.6994
▁म्यू	-10.6994
▁प्रतिलिपि	-10.6994
शैक्षणिक	-10.6994
असंख्य	-10.6994
▁यहूदी	-10.6994
सन्देह	-10.6996
▁अनिवास	-10.6998
▁निगरा	-10.6998
▁ग़लत	-10.7
▁बंब	-10.7008
▁इम्त	-10.7009
मंडप	-10.7012
स्फी	-10.7022
▁बीविय	-10.7039
ानुसार	-10.7047
्रुत	-10.7056
▁धीम	-10.7058
▁लैं	-10.7095
लोहे	-10.7158
5,000	-10.7422
▁कहानिया	-10.7887
द्घ	-10.7895
सूचना	-10.7914
▁विश्	-10.802
‘	-10.8259
स्वामी	-10.8259
धीरे	-10.826
पुरुष	-10.8261
सिंह	-10.8261
परिवर्तन	-10.8261
समझ	-10.8263
▁कंपन	-10.8271
भिन्न	-10.8344
▁संगठ	-10.8352
ारंभ	-10.8411
▁आकांक्षा	-10.842
lation	-10.842
नाफ़रमानी	-10.842
फ़िरऔन	-10.842
बांग्लादेश	-10.842
▁अकादेमी	-10.842
▁ऊंची	-10.842
▁छत्तीसगढ़	-10.842
▁पथभ्रष्ट	-10.842
▁पारिस्थितिक	-10.842
▁प्रचालन	-10.842
▁प्रतिस्पर्ध	-10.842
▁प्रोटोकॉल	-10.842
▁भ्रष्टाचार	-10.842
▁रामायण	-10.842
▁लाइब्रेरी	-10.842
▁वनस्पति	-10.842
▁विस्फोट	-10.842
▁शृंखला	-10.842
▁शोषण	-10.842
▁सद्भावना	-10.842
▁सुपुर्दगी	-10.842
▁सौंदर्य	-10.842
दिसम्बर	-10.842
▁अवशोष	-10.842
▁आलोचना	-10.842
▁चट्टान	-10.842
▁पुरूष	-10.842
▁पेट्रोल	-10.842
▁मेजबान	-10.842
04.201	-10.842
▁com	-10.842
▁कुफ्फार	-10.842
▁दिलचस्प	-10.842
▁ब्राउज़र	-10.842
▁मद्रास	-10.842
▁हड़ताल	-10.842
▁फ्रेम	-10.842
wea	-10.842
▁उत्तरदायित्व	-10.842
▁पूँजी	-10.842
▁पाओगे	-10.842
▁प्रेमचंद	-10.842
▁वगैरह	-10.842
जिस्ट्रे	-10.842
▁अतिथियों	-10.842
▁राजपूत	-10.842
▁वाष्प	-10.842
▁2020	-10.842
▁अतिमानस	-10.842
▁सिद्धान्त	-10.842
▁अस्वीकृत	-10.842
▁नरेन्द्र	-10.842
▁विकिरण	-10.842
▁कार्यकलाप	-10.842
▁संकीर्ण	-10.842
एहकाम	-10.842
र्पोरे	-10.842
▁ध्वज	-10.842
▁पर्यटक	-10.842
▁इनसाफ़	-10.842
▁खजूर	-10.842
▁तिरु	-10.842
▁संकुच	-10.842
▁ड्रग	-10.842
▁आमदनी	-10.842
▁क़रीब	-10.842
▁खनिज	-10.842
▁निवेदन	-10.842
▁गर्दन	-10.842
▁ऑंख	-10.842
▁विनम्र	-10.842
▁पुराण	-10.842
▁स्मरण	-10.842
▁कपड़ा	-10.842
▁ईंधन	-10.842
▁पुण्य	-10.842
टाइप	-10.842
▁स्क्र	-10.842
▁अवकाश	-10.842
▁बेहद	-10.842
▁उपाध्य	-10.842
▁पीड़ित	-10.842
▁सेवानिवृत्त	-10.842
बेहश्त	-10.842
ance	-10.8421
▁लशकर	-10.8421
▁बाँध	-10.8421
▁आस्तियों	-10.8421
▁नाभिक	-10.8421
▁लम्बे	-10.8421
▁वारिस	-10.8421
▁नदियाँ	-10.8421
▁गद्य	-10.8421
▁किशोर	-10.8421
▁मृतक	-10.8421
▁सघन	-10.8421
▁तीर्थ	-10.8422
दर्शिता	-10.8422
पुष्प	-10.8422
▁निर्धन	-10.8422
▁विषम	-10.8423
▁ज़बान	-10.8423
उर्दू	-10.8423
▁उल्ट	-10.8423
गोविंद	-10.8424
▁जिन्ना	-10.8424
▁शराब	-10.8425
▁मतदाता	-10.8425
▁रंज	-10.8429
▁योनि	-10.8433
▁हड्डिय	-10.8434
क़द्र	-10.8438
▁मसीह	-10.8438
परम्परा	-10.8438
आपरेशन	-10.8443
मन्त्र	-10.8445
सफाई	-10.8458
▁पहलुओ	-10.8474
▁कुफ्	-10.8477
श्रीमती	-10.8505
▁पंजीक	-10.8508
▁(10	-10.8509
वृति	-10.8577
▁सब्ज	-10.8616
व्यास	-10.866
▁धक्क	-10.8701
▁हलाक	-10.875
▁प्रशंस	-10.923
▁सदृश	-10.9373
़कात	-10.9429
ica	-10.9612
▁प्रौद्योगिक	-10.9756
योजना	-10.9793
चिह्न	-10.9924
आउट	-10.9924
पत्नी	-10.9924
निर्देश	-10.9927
आसमान	-10.9927
भूमि	-10.9927
निश्चय	-10.9928
महिला	-10.9928
	-11.0083
°	-11.7909
̄	-13.2761
̈	-13.2762
+	-13.2763
̧	-13.2764
@	-13.2765
¿	-13.2766
	-13.2767
	-13.2768
<	-13.2769
#	-13.277
⁄	-13.2771
ढ	-13.2772
औ	-13.2773
“	-13.2773
