<pad>	0
</s>	0
<unk>	0
▁के	-3.71925
▁है	-3.89851
।	-4.04138
,	-4.07573
▁और	-4.10953
▁में	-4.12965
▁की	-4.2804
▁से	-4.48197
▁	-4.52548
▁को	-4.57754
▁का	-4.65284
)	-4.75429
ों	-4.80939
▁(	-4.82132
ी	-4.85321
.	-4.98727
-	-5.03367
▁हैं	-5.08191
▁कि	-5.10263
▁पर	-5.11704
न	-5.12274
▁एक	-5.21296
क	-5.22957
▁लिए	-5.24196
ल	-5.34248
▁तो	-5.37109
ा	-5.38213
▁नहीं	-5.40096
▁जो	-5.41938
र	-5.48424
▁भी	-5.51299
▁हो	-5.51457
ता	-5.5279
े	-5.56226
▁ने	-5.59895
म	-5.6008
▁कर	-5.62268
▁किया	-5.68629
त	-5.70403
▁न	-5.70535
स	-5.71776
▁यह	-5.72573
▁ही	-5.7349
ने	-5.75976
▁इस	-5.76314
▁या	-5.82844
ना	-5.84064
▁वह	-5.87065
▁करने	-5.90963
▁अ	-6.00193
ं	-6.01076
प	-6.03986
▁अपने	-6.08843
ित	-6.0996
▁था	-6.10815
▁आ	-6.11993
ट	-6.12072
द	-6.14527
व	-6.16432
ह	-6.20228
▁वे	-6.20787
ो	-6.21336
▁तुम	-6.22534
ि	-6.2371
▁गया	-6.25877
▁तथा	-6.29324
▁कुछ	-6.30344
▁हम	-6.31536
à	-6.32276
ज	-6.32389
्	-6.32727
ब	-6.32814
▁किसी	-6.33934
य	-6.34339
ते	-6.37238
श	-6.38602
▁साथ	-6.38749
ला	-6.40569
▁रूप	-6.42932
रा	-6.43315
▁कोई	-6.44349
▁जा	-6.4686
▁उनके	-6.47651
▁थे	-6.49531
▁द्वारा	-6.50777
कर	-6.5177
ियों	-6.52628
▁लोग	-6.52775
्य	-6.53215
िक	-6.5385
या	-6.54905
▁जब	-6.54932
▁करते	-6.55556
▁लोगों	-6.57486
▁दिया	-6.58224
▁भारत	-6.61327
▁तक	-6.63197
▁स	-6.65266
ग	-6.66074
▁फिर	-6.66543
ें	-6.66699
▁प्र	-6.67812
▁कहा	-6.68745
▁ये	-6.6933
ण	-6.70814
/	-6.70835
▁करें	-6.71378
ु	-6.72136
ती	-6.72199
▁जाता	-6.72394
▁उसके	-6.74005
▁क्या	-6.74754
ै	-6.74959
▁"	-6.76092
▁अल्लाह	-6.77293
▁उस	-6.77406
▁करना	-6.77922
▁रहे	-6.79426
▁ख़ुदा	-6.79426
▁सं	-6.7955
▁अपनी	-6.79903
री	-6.80714
का	-6.80802
ओं	-6.82553
?	-6.82574
ः	-6.82814
▁प	-6.84006
▁म	-6.84333
▁आप	-6.84711
ए	-6.85158
▁हुए	-6.85544
▁व	-6.85844
वा	-6.86352
▁मैं	-6.88598
ज़	-6.88635
▁उन्हें	-6.88641
मा	-6.89384
ड़	-6.89444
▁करता	-6.90026
▁उन	-6.90232
▁दो	-6.90591
ू	-6.9078
ई	-6.91247
ड	-6.91605
▁होता	-6.92078
नी	-6.92461
▁रहा	-6.93724
▁वि	-6.9416
▁थी	-6.94239
▁सकता	-6.94746
सी	-6.95597
▁उसे	-6.95831
¤	-6.96504
▁क	-6.96723
;	-6.97904
▁बहुत	-7.00785
▁समय	-7.0144
▁कार्य	-7.02257
सा	-7.03223
च	-7.04081
▁प्रति	-7.0483
ख	-7.04953
▁अधिक	-7.0513
▁दे	-7.0695
▁ब	-7.07926
दा	-7.08072
▁बात	-7.10091
▁दी	-7.10125
▁बाद	-7.11082
ली	-7.11223
ीय	-7.11274
▁तरह	-7.11383
▁ज	-7.12137
▁वाले	-7.12145
▁उन्होंने	-7.13099
▁हुआ	-7.133
▁त	-7.13939
▁पा	-7.14228
▁पहले	-7.14772
▁इन	-7.15182
%	-7.17286
ले	-7.17457
▁नि	-7.17699
▁पास	-7.17816
▁हमने	-7.17849
▁ग	-7.18704
▁ले	-7.19135
▁होगा	-7.19653
फ	-7.19808
रे	-7.20572
▁उनकी	-7.2067
▁तुम्हारे	-7.20881
▁काम	-7.21025
▁यदि	-7.21067
के	-7.21428
▁श	-7.21758
▁गई	-7.21795
▁गए	-7.22247
▁दिन	-7.22329
थ	-7.23298
▁ओर	-7.23494
ॉ	-7.24515
की	-7.25136
कार	-7.25354
▁अन्य	-7.25492
▁सभी	-7.25753
वि	-7.26065
▁कम	-7.26199
▁नाम	-7.26798
▁ऐसे	-7.2688
▁हमारे	-7.27619
▁राष्ट्रपति	-7.27882
▁होने	-7.28465
ंग	-7.28895
▁सब	-7.29133
‍	-7.29602
▁सकते	-7.30487
▁प्राप्त	-7.30523
▁प्रकार	-7.30548
▁मु	-7.30719
▁चाहिए	-7.32107
▁19	-7.32621
▁बा	-7.32839
▁इ	-7.32878
e	-7.33086
▁उ	-7.33357
▁इसके	-7.34422
▁क्षेत्र	-7.35056
से	-7.35933
▁s	-7.36286
अ	-7.36633
▁उसकी	-7.37251
▁ल	-7.37512
▁देश	-7.37787
▁किए	-7.37985
▁द	-7.37998
▁ह	-7.3839
▁होती	-7.3878
फ़	-7.38907
▁सरकार	-7.39187
▁हर	-7.39548
▁जाने	-7.41349
▁भारतीय	-7.42117
▁अगर	-7.43198
:	-7.43298
▁करो	-7.43702
▁मे	-7.43752
स्	-7.43866
▁ऐसा	-7.44151
▁एवं	-7.44173
a	-7.44193
को	-7.44675
ष	-7.44943
▁विकास	-7.46076
▁कारण	-7.4625
यों	-7.46668
ध	-7.46673
▁अब	-7.46814
र्	-7.469
ौ	-7.47701
भ	-7.48158
▁ए	-7.4822
एं	-7.48791
o	-7.4913
▁मुझे	-7.49696
मान	-7.49727
▁रसूल	-7.49797
▁वर्ष	-7.50151
क्ष	-7.50288
▁हुई	-7.5045
▁(_	-7.50604
ाई	-7.50899
▁कह	-7.50958
िया	-7.51309
▁राज्य	-7.51883
▁भ	-7.52964
▁ख	-7.53736
जा	-7.53844
▁व्यक्ति	-7.54043
ंड	-7.54441
प्र	-7.55654
s	-7.5578
▁सी	-7.56206
▁उप	-7.56348
▁मा	-7.56734
स्त	-7.57182
▁जिस	-7.57251
▁उसने	-7.57297
▁च	-7.57623
▁लेकिन	-7.57655
▁बे	-7.57659
!	-7.58001
▁20	-7.5807
▁जाती	-7.58113
▁लिया	-7.58201
▁सा	-7.58693
▁सु	-7.59139
▁दोनों	-7.59142
▁2	-7.59391
▁बना	-7.59817
▁तुम्हें	-7.60189
▁अपना	-7.60454
आ	-7.6154
क़	-7.61585
▁1	-7.6167
t	-7.61928
पी	-7.62223
▁स्	-7.62362
▁जीवन	-7.62472
▁ला	-7.626
▁र	-7.62732
टी	-7.62889
गी	-7.63071
▁ऐसी	-7.63072
बा	-7.63109
▁ना	-7.63131
▁पूर्व	-7.63201
नि	-7.63657
जी	-7.63802
िंग	-7.64194
▁रही	-7.64237
▁भाग	-7.65384
▁होते	-7.65565
हा	-7.6579
ऐ	-7.66481
न्	-7.66556
▁प्रदान	-7.66605
▁अनु	-7.66813
ंट	-7.66959
▁बारे	-7.67154
▁बीच	-7.67667
▁ईमान	-7.68711
m	-7.68837
▁वाला	-7.69054
ति	-7.69233
▁à	-7.69872
▁उपयोग	-7.70443
y	-7.7084
i	-7.70912
्स	-7.7122
ओ	-7.71312
▁जैसे	-7.71546
▁बार	-7.72253
।"	-7.72402
▁उसका	-7.73543
▁फ	-7.74593
घ	-7.74671
त्	-7.75034
▁कु	-7.75071
वे	-7.75564
इ	-7.76275
गा	-7.77154
▁देख	-7.77229
न्द	-7.77555
िका	-7.77586
▁वा	-7.77737
त्र	-7.78247
स्ट	-7.78337
4	-7.78379
▁जाएगा	-7.78441
▁स्थान	-7.78547
▁वही	-7.78896
पा	-7.79269
डी	-7.79289
▁रब	-7.79495
▁चीज़	-7.79854
्या	-7.8024
▁केवल	-7.8026
▁श्री	-7.80295
▁उनका	-7.8034
ंद	-7.80816
▁प्रयोग	-7.80874
▁मेरे	-7.81273
▁हमें	-7.81416
ाय	-7.81735
▁जिसमें	-7.82689
▁जी	-7.8286
5	-7.83634
▁हूँ	-7.83843
एँ	-7.83987
▁छ	-7.85411
▁आज	-7.85633
पर	-7.85905
▁ताकि	-7.86304
▁सि	-7.86319
ठ	-7.86325
▁आय	-7.86421
6	-7.86475
'	-7.86489
टा	-7.86505
रण	-7.86613
▁पैदा	-7.86746
7	-7.86973
▁लगा	-7.8714
2	-7.87184
▁परि	-7.87214
▁ऐ	-7.87272
▁वाली	-7.87719
▁देने	-7.87822
▁पी	-7.87848
8	-7.88163
▁सबसे	-7.88256
1	-7.8855
▁मान	-7.88682
▁बड़ा	-7.88887
▁जाए	-7.89779
▁विशेष	-7.89826
ल्	-7.90083
▁बस	-7.90363
▁हमारी	-7.90555
▁घ	-7.90565
ँ	-7.90713
ाइ	-7.9093
मे	-7.9108
दी	-7.91379
▁बन	-7.91399
▁जाना	-7.91411
▁अधिनियम	-7.91412
▁उसी	-7.91498
▁धारा	-7.9166
▁अभि	-7.91725
उ	-7.91878
▁इसे	-7.91898
▁तब	-7.92029
▁जाते	-7.9294
▁देता	-7.93166
बी	-7.93202
▁इसमें	-7.93204
▁राष्ट्रीय	-7.93416
"	-7.94076
▁योजना	-7.9459
मी	-7.95243
▁समझ	-7.95645
...	-7.95781
▁उपलब्ध	-7.96666
▁अथवा	-7.96795
▁स्व	-7.96827
▁जिसे	-7.96833
कि	-7.97161
ंस	-7.97521
▁दा	-7.97694
3	-7.97922
▁संदेश	-7.98251
▁डाल	-7.98404
▁'	-7.98423
▁फ़ाइल	-7.98567
लि	-7.98643
▁जान	-7.99066
रो	-7.99335
▁सूचना	-7.99932
▁संबंध	-7.99945
वी	-7.99994
▁उससे	-8.00049
▁परवरदिगार	-8.00177
▁क्योंकि	-8.00268
d	-8.00381
▁उनसे	-8.00491
लो	-8.00534
▁शिक्षा	-8.009
▁विषय	-8.00967
दार	-8.01112
▁राज	-8.01717
क्	-8.01719
▁भर	-8.0172
b	-8.01749
▁विचार	-8.01825
ड़ी	-8.02109
▁स्थिति	-8.02225
▁गु	-8.02365
▁सकती	-8.03086
गत	-8.03353
ष्	-8.034
्र	-8.03402
▁चल	-8.0344
▁रह	-8.03452
ान	-8.03505
▁खा	-8.03806
▁दर	-8.03888
▁जिन	-8.0401
द्र	-8.04183
▁3	-8.04201
त्त	-8.04497
छ	-8.04703
ये	-8.05045
▁दूर	-8.05812
▁दूसरे	-8.05863
▁करती	-8.05921
▁बढ़	-8.06071
़	-8.06434
▁फ़	-8.065
ृ	-8.06541
▁इसलिए	-8.06833
c	-8.07546
▁सहायता	-8.07592
कों	-8.07625
u	-8.07636
कृत	-8.07692
▁बैंक	-8.07724
म्	-8.08087
रि	-8.08128
ार	-8.08278
p	-8.08606
▁अव	-8.0881
▁आधार	-8.0891
र्म	-8.08975
▁क़	-8.09102
▁बड़ी	-8.09185
ियां	-8.09209
▁ता	-8.09454
ख़	-8.1019
गर	-8.10375
▁उनमें	-8.10425
सं	-8.10472
9	-8.10696
▁हूं	-8.10713
▁उत्तर	-8.10795
▁ट	-8.10809
▁विभिन्न	-8.10967
▁कभी	-8.11077
एस	-8.11113
म्ब	-8.1131
▁होगी	-8.11375
▁मेरी	-8.11635
▁अधीन	-8.11657
▁शामिल	-8.11679
▁सेवा	-8.11886
▁कई	-8.12027
स्थ	-8.12069
▁सम	-8.1229
ढ़	-8.1237
▁विश्व	-8.1262
▁होना	-8.12696
▁मुख्य	-8.12849
ण्ड	-8.12914
▁बल्कि	-8.13181
▁दौरान	-8.13645
▁लिये	-8.13937
▁इससे	-8.1429
▁कहते	-8.14458
श्	-8.14746
▁लाभ	-8.1499
तर	-8.15148
▁करके	-8.15193
▁तैयार	-8.15222
▁आगे	-8.15232
▁यहाँ	-8.15381
▁गो	-8.15396
▁सू	-8.15911
्यू	-8.15917
g	-8.16065
▁अनुसार	-8.16192
▁अधिकार	-8.16453
▁ध	-8.16486
▁कै	-8.16491
जन	-8.16607
▁जहां	-8.16607
0	-8.1678
पन	-8.168
▁अवसर	-8.17319
वर	-8.176
▁होंगे	-8.17778
▁पता	-8.17787
▁छोड़	-8.17806
▁सूची	-8.18434
▁मै	-8.185
▁चि	-8.18511
र्क	-8.18589
ास	-8.18605
▁तरफ	-8.18739
▁उनको	-8.18857
िल	-8.19078
▁सुन	-8.19236
ड़ा	-8.19624
ंत	-8.19744
धार	-8.19957
’	-8.20113
भा	-8.20296
▁पु	-8.20656
▁सामने	-8.20684
ऋ	-8.20815
▁यही	-8.20846
और	-8.20884
ंज	-8.20935
खा	-8.20994
▁मिल	-8.21336
▁जिसके	-8.21579
▁सामान्य	-8.21862
▁इसका	-8.22154
हर	-8.22177
▁घर	-8.22181
▁अप	-8.22227
▁मार्ग	-8.22364
▁पूरा	-8.2238
▁बु	-8.22441
▁करे	-8.22541
▁प्रक्रिया	-8.22573
ेट	-8.2258
▁याद	-8.22979
▁अलग	-8.23044
20	-8.23309
▁अस	-8.2332
▁स्तर	-8.23575
▁अन	-8.2363
▁देते	-8.23652
▁ऊपर	-8.23659
▁करेगा	-8.23662
▁उच्च	-8.23779
▁उसमें	-8.23994
देश	-8.24281
▁दिखा	-8.24313
▁संख्या	-8.24377
▁पूर्ण	-8.2438
▁बाहर	-8.24456
वाद	-8.24485
▁संबंधित	-8.24489
▁मो	-8.24558
▁ई	-8.24575
▁लगे	-8.24659
वार	-8.25268
▁बि	-8.25771
▁निर्माण	-8.26
दे	-8.26048
ष्ट	-8.26073
▁चाहते	-8.26253
िस	-8.26284
▁बह	-8.26793
ही	-8.26862
▁प्रत्येक	-8.27024
▁किताब	-8.27333
▁आई	-8.27419
ंक	-8.27738
क्स	-8.27794
▁आपको	-8.27824
▁पड़	-8.27824
ज़ा	-8.27853
पुर	-8.27878
द्ध	-8.27955
▁इं	-8.28469
दान	-8.28486
▁आदि	-8.2852
▁रंग	-8.28622
▁ओ	-8.28788
तः	-8.29397
पूर्ण	-8.29751
▁4	-8.29941
▁हाथ	-8.30131
टर	-8.30155
▁जल	-8.30224
▁लिख	-8.30549
▁अच्छा	-8.30636
S	-8.30673
▁लो	-8.30674
ोर	-8.30754
▁नई	-8.30872
▁तीन	-8.30937
ीकरण	-8.31079
न्न	-8.31121
▁बड़े	-8.31156
▁बनाने	-8.31318
▁स्वयं	-8.31403
▁अनेक	-8.31413
▁रा	-8.31643
▁चार	-8.31766
शा	-8.31786
I	-8.3185
▁हों	-8.31954
▁जारी	-8.32286
▁पूरी	-8.32429
▁शुरू	-8.32612
्व	-8.32831
▁मूल्य	-8.32976
▁भाषा	-8.33032
▁तुम्हारी	-8.3316
टे	-8.33195
▁रो	-8.33314
ियाँ	-8.33397
▁झ	-8.33451
▁नीति	-8.33781
▁महा	-8.33918
▁आपके	-8.34338
▁सके	-8.34484
▁ज्ञान	-8.3449
▁तू	-8.34538
यर	-8.34541
▁‘	-8.3498
▁मूल	-8.35131
▁धर्म	-8.35182
▁शक्ति	-8.35212
▁रि	-8.35655
ाव	-8.35825
▁रखा	-8.35889
▁निश्चय	-8.36018
नों	-8.36304
▁य	-8.36569
ंच	-8.36591
▁पानी	-8.36911
▁गये	-8.37005
▁निकाल	-8.37338
ऊ	-8.37485
▁यू	-8.37486
▁निकल	-8.37503
▁इसी	-8.37603
ड़े	-8.37912
▁चला	-8.37953
▁मदद	-8.37959
कारी	-8.3805
वाह	-8.38253
▁अर्थ	-8.38308
00	-8.38811
▁जमा	-8.38826
▁हेतु	-8.38841
▁मानव	-8.39033
▁खुदा	-8.39036
▁माल	-8.39048
ची	-8.39199
▁हि	-8.39199
यी	-8.39233
आई	-8.39235
था	-8.39349
▁चाहता	-8.39386
रू	-8.39455
▁दुनिया	-8.39495
बर	-8.40045
▁मध्य	-8.40153
▁पै	-8.40159
बे	-8.40334
रु	-8.40433
०	-8.4047
▁गयी	-8.40508
▁भवन	-8.40571
व्य	-8.40652
यां	-8.4067
▁बनाया	-8.40738
n	-8.41024
▁महत्वपूर्ण	-8.41025
▁वर्ग	-8.41468
▁रोक	-8.41608
▁उद्योग	-8.41635
▁ली	-8.41716
▁प्रभाव	-8.42207
ब्	-8.42461
▁ज़	-8.42634
जे	-8.42725
▁तुम्हारा	-8.42974
हार	-8.43051
▁बी	-8.43075
चार	-8.43105
▁“	-8.43154
▁&	-8.43204
▁करेंगे	-8.43299
▁मि	-8.43455
▁ध्यान	-8.43565
▁बदल	-8.43612
▁राष्ट्र	-8.43632
सि	-8.43639
िन	-8.43784
▁माध्यम	-8.44312
▁समूह	-8.44352
चा	-8.44418
▁पत्र	-8.44444
▁यहां	-8.44479
▁प्रौद्योगिकी	-8.44692
▁जिसने	-8.44703
इस	-8.44964
▁हा	-8.45021
उस	-8.45134
▁बेशक	-8.45137
जि	-8.45184
A	-8.45443
▁नीचे	-8.45579
▁ठीक	-8.45608
▁रख	-8.45625
▁चाहे	-8.45786
O	-8.45918
र्ज	-8.45929
▁प्रतिशत	-8.46145
▁बिना	-8.46389
▁सो	-8.46614
ाल	-8.46639
▁देना	-8.46677
िता	-8.46799
▁समाज	-8.46824
▁बता	-8.46939
▁रू	-8.4694
▁5	-8.47047
▁देखा	-8.47165
▁मैंने	-8.47297
▁प्रमुख	-8.47354
र्ड	-8.47907
▁समान	-8.48077
▁परिवर्तन	-8.48127
¥	-8.4814
▁व्य	-8.48184
▁ज्यादा	-8.48504
in	-8.4865
▁ढ	-8.48712
▁a	-8.48896
▁स्पष्ट	-8.48954
सर	-8.4904
ात	-8.49142
▁सीमा	-8.4916
▁जिसका	-8.49274
▁आवश्यकता	-8.49394
▁पीछे	-8.49441
▁लेकर	-8.49544
▁क्षेत्रों	-8.49618
▁किन्तु	-8.49619
▁पद	-8.49648
▁ज़मीन	-8.49728
शी	-8.49742
मू	-8.49758
ूर	-8.49891
▁मगर	-8.5012
▁जबकि	-8.50294
▁रु	-8.50399
मो	-8.5062
▁लोक	-8.50694
▁डर	-8.50905
▁विश्वास	-8.50977
▁व्यापार	-8.51301
▁धरती	-8.5148
क्त	-8.51712
▁पि	-8.51808
▁केंद्र	-8.51834
▁सम्	-8.51992
चित	-8.52056
▁मन	-8.52146
गे	-8.52191
मु	-8.52266
हि	-8.52314
▁दिए	-8.52374
▁आग	-8.52489
▁कंपनी	-8.52584
तों	-8.52687
▁अंत	-8.5285
▁निर्	-8.52864
में	-8.52904
▁दु	-8.52924
भाव	-8.53047
▁खंड	-8.53049
सू	-8.53062
▁मार	-8.53066
पाल	-8.53275
▁आर्थिक	-8.53418
ेगा	-8.53479
▁कृषि	-8.53574
▁अतः	-8.53604
▁मर	-8.53676
▁सुधार	-8.53704
▁सह	-8.53864
▁उत्	-8.53997
त्व	-8.54224
f	-8.54258
मन	-8.54369
बल	-8.54413
रत	-8.54437
l	-8.54575
▁जि	-8.54634
▁अज़ाब	-8.54722
▁आए	-8.54906
▁मिला	-8.55043
▁मह	-8.55082
▁भू	-8.55255
वादी	-8.55441
नो	-8.5548
▁आदेश	-8.55576
▁ऋण	-8.55585
▁प्रा	-8.55627
ेशन	-8.55674
▁वस्तु	-8.55734
▁पहुँच	-8.55745
▁डि	-8.55888
्म	-8.5601
ग्	-8.56305
▁कुल	-8.56322
यो	-8.56325
ूल	-8.56369
k	-8.56383
▁इसकी	-8.56457
▁होकर	-8.5646
▁रखते	-8.56473
कल	-8.5661
▁भेज	-8.56701
▁इनकार	-8.56723
▁विधि	-8.5681
▁अवधि	-8.56843
▁जानकारी	-8.57027
फा	-8.57099
▁जनता	-8.57284
ीन	-8.57289
▁विभाग	-8.57443
▁कार्यक्रम	-8.57547
ुर	-8.57561
▁तुमसे	-8.57693
▁शहर	-8.5779
धा	-8.57884
▁लगभग	-8.57959
न्त	-8.58014
▁आया	-8.58041
T	-8.58083
ेंगे	-8.58109
h	-8.58122
▁सदस्य	-8.58185
▁पक्ष	-8.58303
▁स्वीकार	-8.58362
▁जन	-8.58366
▁रोग	-8.58445
▁वक्त	-8.58498
▁जैसा	-8.58506
▁क्यों	-8.58552
गु	-8.58759
▁अभी	-8.58774
▁खोज	-8.58926
▁फ़ोल्डर	-8.58944
▁सारे	-8.5897
र्ट	-8.59162
▁उद्देश्य	-8.59169
▁काफी	-8.5919
डे	-8.59385
▁१	-8.59408
▁रखने	-8.59414
▁लागू	-8.5947
आर	-8.59485
▁सर	-8.59503
▁राह	-8.59618
▁विज्ञान	-8.59786
शि	-8.59818
▁मामले	-8.59999
▁जगह	-8.60136
▁सहयोग	-8.60212
गो	-8.60256
हम	-8.60278
▁वहां	-8.60319
▁मेरा	-8.60366
▁अच्छे	-8.60445
राम	-8.60649
▁जानता	-8.6076
▁आने	-8.6101
>	-8.61172
▁आवश्यक	-8.61332
▁विश्वविद्यालय	-8.61341
▁शा	-8.6182
▁सिवा	-8.61852
▁अच्छी	-8.62222
डा	-8.62477
▁एन	-8.62497
E	-8.6284
▁बराबर	-8.62873
▁सामाजिक	-8.62951
कु	-8.62962
वास	-8.63261
▁प्रणाली	-8.63373
ख्	-8.63427
▁सभा	-8.63435
▁जाएगी	-8.63476
क्र	-8.6361
▁शब्द	-8.63704
▁ऑ	-8.63788
▁स्थापित	-8.63809
▁बोल	-8.64099
▁पो	-8.64114
द्	-8.64273
▁ड	-8.64447
▁प्रयास	-8.64552
▁रे	-8.64602
फ्	-8.64604
काल	-8.64605
ताओं	-8.64682
झ	-8.64729
ग़	-8.64731
er	-8.64756
▁गा	-8.64803
▁सोच	-8.64828
▁साल	-8.64903
▁ख़	-8.65284
▁खेल	-8.65334
¤3⁄4	-8.65447
▁प्रस्तुत	-8.65655
मि	-8.65667
▁रहने	-8.65757
भूत	-8.66213
धि	-8.66267
▁कर्म	-8.66302
▁कहीं	-8.66305
रों	-8.66324
णा	-8.66413
▁लड़	-8.66451
▁क्	-8.66612
▁पहुंच	-8.66652
▁परियोजना	-8.66691
▁सुरक्षा	-8.66751
ट्र	-8.66826
वान	-8.67013
▁दें	-8.67048
▁टे	-8.67261
an	-8.67273
▁क्षमता	-8.67274
▁न्यायालय	-8.67348
ल्ल	-8.67389
▁विवरण	-8.67403
▁जानते	-8.67422
▁क़ौम	-8.67451
हे	-8.67457
▁उसको	-8.67517
बद्ध	-8.67523
स्व	-8.67526
▁रात	-8.67605
▁परिणाम	-8.67647
▁कानून	-8.67816
▁सन्	-8.67898
▁”	-8.68025
र्स	-8.68064
M	-8.68094
▁सत्य	-8.68227
▁कोर्इ	-8.68278
▁राशि	-8.68518
▁जिससे	-8.68519
C	-8.68562
▁सिर्फ	-8.6863
शील	-8.68714
▁चुका	-8.68912
▁6	-8.68978
▁लग	-8.69029
नु	-8.69228
िर	-8.69353
▁उठा	-8.69494
▁आम	-8.69592
▁#44;	-8.69712
च्छ	-8.69744
▁अतिरिक्त	-8.69746
▁दिल	-8.69779
▁टी	-8.6978
▁संपर्क	-8.6988
गार	-8.69979
▁सौ	-8.69992
▁जोड़	-8.70028
▁देव	-8.70276
▁हाल	-8.70523
▁बहु	-8.70911
▁रहते	-8.70957
▁चुके	-8.70996
सु	-8.71104
र्थ	-8.71338
▁अंतर्गत	-8.71494
ष्ठ	-8.71581
भी	-8.71585
▁बल	-8.71628
स्क	-8.71767
▁राम	-8.71776
र्ग	-8.72014
▁आकार	-8.72172
▁लाए	-8.72231
कर्ता	-8.72279
▁लेने	-8.72293
▁18	-8.72299
▁अनुसंधान	-8.72403
▁जु	-8.72445
चे	-8.727
▁उत्पादन	-8.72789
▁कहने	-8.72791
ाधिकार	-8.72851
¥	-8.72901
▁बंद	-8.73103
▁पाठ	-8.73163
बि	-8.73231
▁मंदिर	-8.73264
▁आकाश	-8.73301
▁:	-8.73518
▁नए	-8.73537
w	-8.73576
▁सही	-8.73842
दर	-8.73847
▁यातना	-8.73943
▁देशों	-8.73963
P	-8.74063
ात्मक	-8.74064
▁त्रुटि	-8.7408
ीकृत	-8.74091
▁नया	-8.74094
ांत	-8.74199
तन	-8.7439
▁गुण	-8.74514
▁नही	-8.74676
षण	-8.74686
▁बै	-8.74862
▁मत	-8.74957
▁खोल	-8.74978
▁तुमने	-8.75035
▁यात्रा	-8.75085
▁व्यवस्था	-8.75284
बू	-8.75373
जो	-8.7544
▁बेहतर	-8.75557
करण	-8.75674
N	-8.75829
एम	-8.75873
▁समिति	-8.75954
हित	-8.75963
▁क्र	-8.75989
ूँ	-8.76059
▁एस	-8.76074
▁निवेश	-8.76125
▁करा	-8.76242
▁ग्र	-8.76286
▁बचा	-8.76508
on	-8.76519
▁जे	-8.76578
▁न्याय	-8.76597
▁बनाए	-8.76696
▁संगठन	-8.76731
R	-8.76779
▁प्रदेश	-8.76836
D	-8.7685
बंध	-8.7685
▁वालों	-8.76906
▁8	-8.7709
▁स्थित	-8.77114
बार	-8.77194
पत्र	-8.77212
ान्त	-8.77264
▁शि	-8.77285
दर्श	-8.77344
▁चौ	-8.77386
▁परन्तु	-8.77398
▁दृष्टि	-8.77416
▁उपधारा	-8.77487
▁जिन्हें	-8.77505
ुल	-8.77609
▁S	-8.77836
र्द	-8.77974
▁समा	-8.78345
▁चा	-8.78358
▁सर्व	-8.78393
▁''	-8.78433
योग	-8.78506
▁वर्तमान	-8.78612
▁मूसा	-8.78668
▁आरंभ	-8.7869
▁पड़े	-8.78767
▁विशिष्ट	-8.78849
▁निर्णय	-8.78851
▁मनुष्य	-8.78996
ाना	-8.7903
▁युद्ध	-8.79265
▁अधिकारी	-8.79309
▁बच	-8.7934
▁संस्था	-8.7939
▁इतिहास	-8.79455
धी	-8.7947
▁परिवार	-8.79784
▁संघ	-8.79883
▁दिशा	-8.80001
▁%	-8.80142
▁कौन	-8.80231
ौर	-8.80236
▁किस	-8.80336
▁पुस्तक	-8.8048
▁हुक्म	-8.80677
▁पे	-8.80809
▁शरीर	-8.80885
▁ग़	-8.80991
नाथ	-8.81047
ाँ	-8.81077
▁कला	-8.81162
▁साहित्य	-8.81237
▁तौर	-8.81259
▁दूसरी	-8.81275
▁चित्र	-8.81281
▁गिर	-8.81376
वेद	-8.81385
तु	-8.81439
¤	-8.81481
▁वर्षों	-8.81598
भाग	-8.81603
¤°	-8.81635
▁सका	-8.81657
▁पहचान	-8.81798
▁छवि	-8.81828
▁लक्ष्य	-8.81858
▁_	-8.81889
▁<	-8.81895
▁थीं	-8.81941
▁चाह	-8.82051
▁तुमको	-8.82052
▁अधि	-8.82084
उन	-8.82174
▁10	-8.82177
गम	-8.82234
▁पेश	-8.82284
▁वहाँ	-8.82284
गल	-8.82355
▁बाल	-8.82366
▁प्रेम	-8.82617
श्र	-8.82756
▁वास्तव	-8.82812
▁हमारा	-8.82854
दाय	-8.82938
▁स्वास्थ्य	-8.82976
▁दिल्ली	-8.83091
▁वै	-8.8364
▁डाक	-8.83643
▁kg	-8.83646
▁अंतर	-8.84066
▁क्रिया	-8.84104
▁अल	-8.84142
▁प्रधानमंत्री	-8.84184
▁पूछ	-8.84347
स्प	-8.84392
▁डी	-8.84458
गें	-8.84625
टि	-8.84639
मत	-8.84647
r	-8.84652
▁भा	-8.84659
▁पढ़	-8.84744
पति	-8.8476
▁देगा	-8.84816
▁उत्पाद	-8.84823
▁लाख	-8.85091
▁वास्ते	-8.85135
र्ण	-8.85206
▁C	-8.85251
▁देखते	-8.85301
▁बच्चों	-8.8531
▁दक्षिण	-8.85368
५	-8.85466
▁जिनके	-8.85484
▁निर्धारित	-8.85504
वीं	-8.85508
युक्त	-8.85539
v	-8.85747
चर	-8.86206
▁आसमान	-8.8622
▁योग्य	-8.86224
▁कैसे	-8.86286
▁कल	-8.86308
ृत	-8.86339
शन	-8.86405
▁प्रश्न	-8.8651
िय	-8.86608
▁अनुभव	-8.86671
▁परंतु	-8.8669
▁धन	-8.87031
▁अमेरिका	-8.87082
or	-8.87111
▁मंत्रालय	-8.87241
Name	-8.8732
रूप	-8.87329
▁भूमि	-8.87339
▁चे	-8.87512
▁सम्बन्ध	-8.87612
ंध	-8.87815
▁हमेशा	-8.87881
▁जन्म	-8.87895
▁विकसित	-8.8806
▁जिन्होंने	-8.8818
▁सिंह	-8.88231
▁स्थानीय	-8.88657
▁तहत	-8.88769
▁संस्थान	-8.88875
क्रम	-8.88897
▁उदाहरण	-8.89149
▁name	-8.89169
▁आर	-8.89344
रिया	-8.89381
▁बो	-8.89574
ुक	-8.89592
▁वापस	-8.89859
जू	-8.90044
x	-8.90085
▁अति	-8.90215
ढ	-8.90255
ैर	-8.90445
ar	-8.90515
▁7	-8.90614
▁हे	-8.90756
▁अंग	-8.9083
▁प्रकाश	-8.90878
▁निर्धारण	-8.9097
▁मौ	-8.9105
▁हक़	-8.91061
▁हटा	-8.91206
▁मांग	-8.91303
▁बदला	-8.91303
▁मौजूद	-8.91339
▁विदेशी	-8.915
▁समाप्त	-8.91548
▁महान	-8.91614
▁अंतिम	-8.91652
शे	-8.91673
▁नियम	-8.91801
▁भेजा	-8.91888
यन	-8.91931
▁हु	-8.92085
तो	-8.92263
▁बढ़ा	-8.9235
टो	-8.92425
▁जरूरत	-8.92573
▁छोटे	-8.9272
▁प्रस्ताव	-8.9272
▁रचना	-8.92861
ाइट	-8.92863
▁निश्चित	-8.92867
यक	-8.92987
लों	-8.92996
▁डे	-8.93007
ैन	-8.93013
▁प्रवेश	-8.93121
▁पालन	-8.93204
▁भूमिका	-8.93261
▁गांधी	-8.93331
▁जाएँ	-8.93381
▁मी	-8.93419
क्क	-8.93514
ार्थ	-8.93619
▁अर्	-8.9363
▁लगता	-8.93653
पु	-8.93753
ग्र	-8.93762
▁जीव	-8.93856
१	-8.94039
”	-8.94051
▁जहाँ	-8.94085
ज्ञ	-8.94282
▁प्रो	-8.94442
क्षण	-8.94507
¥	-8.94608
▁इस्लाम	-8.94608
▁अनुमति	-8.9466
▁सक्रिय	-8.94747
▁संयुक्त	-8.9516
▁निस्संदेह	-8.95188
▁नियंत्रण	-8.95231
▁समस्या	-8.95511
लू	-8.95554
▁केन्द्र	-8.95567
▁भाई	-8.9559
▁किये	-8.95769
्वा	-8.95785
पे	-8.95944
▁विस्तार	-8.95945
▁जिसकी	-8.95984
▁रहता	-8.95997
▁प्रमाण	-8.96169
▁पाया	-8.96261
▁विकल्प	-8.96326
एल	-8.96447
▁वो	-8.96479
▁भीतर	-8.96501
्टर	-8.96553
▁आधारित	-8.96573
▁जाएँगे	-8.96596
▁पहुँचा	-8.96704
▁बाजार	-8.96732
▁मित्र	-8.96805
▁कं	-8.97059
▁फल	-8.97183
▁निर्दिष्ट	-8.97189
▁पुनर्	-8.97356
▁वित्तीय	-8.97669
▁सहायक	-8.97675
▁संभव	-8.97675
▁जांच	-8.97759
▁जाओ	-8.97769
▁हिस्सा	-8.97962
तम	-8.9801
ियन	-8.98053
▁पार	-8.9806
णी	-8.98116
इन	-8.98143
▁तु	-8.98184
▁प्रथम	-8.98254
▁ति	-8.98338
नाज़िल	-8.98551
▁स्थापना	-8.98563
मंडल	-8.98685
▁माना	-8.98821
८	-8.98851
दि	-8.9887
▁गति	-8.99022
ेड	-8.99039
त्य	-8.99156
नीय	-8.99196
▁संबंधी	-8.99252
राज	-8.99304
▁एक्स	-8.99322
▁वृद्धि	-8.99814
▁संविधान	-9.00224
▁उठ	-9.00235
▁पुकार	-9.00292
▁ठ	-9.00302
ून	-9.00339
म्प	-9.00471
▁इन्	-9.00508
U	-9.007
मंत्र	-9.00702
▁विंडो	-9.00706
▁अध्ययन	-9.00729
▁प्रगति	-9.00931
स्ट्र	-9.01107
द्द	-9.01167
▁A	-9.0123
▁जाये	-9.01416
ज़ी	-9.01593
▁d	-9.01751
▁मृत्यु	-9.01848
▁विरोध	-9.01932
▁I	-9.02255
▁बैठ	-9.02263
▁प्रबंधन	-9.02272
re	-9.02329
▁लेते	-9.02367
ियम	-9.02424
▁चु	-9.0244
▁तंत्र	-9.02531
िट	-9.02657
▁अलावा	-9.02658
श्व	-9.02697
▁पिछले	-9.02747
▁कठिन	-9.0284
▁उपकरण	-9.02864
प्ल	-9.02906
नेवाला	-9.03013
▁पहली	-9.0319
▁लौट	-9.03405
िम	-9.03416
▁कमी	-9.03446
L	-9.0367
▁सहित	-9.03897
▁कृपया	-9.03962
▁उत्पन्न	-9.03963
▁थ	-9.04
▁गुनाह	-9.04072
▁कॉ	-9.04117
▁रखता	-9.04323
▁समर्थन	-9.04499
▁लें	-9.04578
ालय	-9.04578
▁पूंजी	-9.04837
प्त	-9.04945
▁दृश्य	-9.05026
▁भाव	-9.05186
▁खुद	-9.05303
ांक	-9.05421
▁पुनः	-9.05423
15	-9.05431
▁खाता	-9.05438
▁भुगतान	-9.05455
धान	-9.0554
▁मंत्री	-9.05543
▁सर्वर	-9.05596
▁राजा	-9.05597
एक	-9.05611
बु	-9.05688
वह	-9.05957
▁काल	-9.06157
▁सुनिश्चित	-9.06174
▁पृष्ठ	-9.06219
▁सफलता	-9.06228
निक	-9.06298
optional	-9.06318
▁झूठ	-9.06319
▁प्रशिक्षण	-9.0639
६	-9.06487
चक	-9.06497
वृत्ति	-9.06523
ज्ज	-9.06567
▁भिन्न	-9.06742
it	-9.06785
डि	-9.0681
वत	-9.06866
ाह	-9.06917
▁सत्ता	-9.06954
▁करोड़	-9.07117
पो	-9.07264
▁प्रारंभ	-9.07288
▁फाइल	-9.074
▁दिनों	-9.07579
▁ऊर्जा	-9.07651
िए	-9.07724
▁उन्	-9.07748
वालों	-9.07865
▁निधि	-9.07965
▁स्प	-9.08047
▁वास्तविक	-9.08107
▁रहो	-9.08117
▁@	-9.08256
al	-9.08306
▁मात्रा	-9.08347
▁स्रोत	-9.08364
12	-9.08398
▁समुदाय	-9.08459
▁भावना	-9.08653
▁आधुनिक	-9.08656
▁उपबंध	-9.08703
▁आदमी	-9.08727
▁बच्चे	-9.08731
▁घु	-9.08785
▁कार्यालय	-9.08802
▁रिपोर्ट	-9.08812
▁(1)	-9.08951
▁एम	-9.08953
▁लेखा	-9.09034
▁15	-9.09222
▁मुक्त	-9.09412
?"	-9.09445
▁पकड़	-9.09445
▁इस्तेमाल	-9.09448
जीव	-9.09505
▁सुविधा	-9.09511
ण्श्	-9.09697
४	-9.09747
▁बर	-9.0978
पूर्वक	-9.09811
छ्ष	-9.09816
▁उनपर	-9.09985
▁वेबसाइट	-9.10096
याँ	-9.10285
▁बर्	-9.10311
▁लिखा	-9.10528
▁चीज	-9.10588
ियो	-9.10748
▁चुनें	-9.10756
▁जैसी	-9.10821
▁रुप	-9.11039
▁ज़रूर	-9.11078
ल्ड	-9.11143
▁ऑफ	-9.11258
यें	-9.11508
▁खाते	-9.11512
▁सम्मान	-9.11558
▁निर्यात	-9.11788
▁सार्वजनिक	-9.11836
९	-9.12022
▁प्रकृति	-9.12043
▁स्कूल	-9.12169
च्च	-9.12187
्रा	-9.124
▁कार	-9.12411
▁मामलों	-9.12475
st	-9.12609
▁हित	-9.1264
▁पुरुष	-9.12654
▁पूरे	-9.1281
▁पू	-9.12831
▁शासन	-9.13096
▁सरकारी	-9.13148
▁लि	-9.13177
▁चुन	-9.13295
▁भविष्य	-9.13297
▁छा	-9.13298
▁घाट	-9.13332
ग्रह	-9.13339
▁सक्षम	-9.13403
भार	-9.1346
▁अत्यन्त	-9.13478
▁ब्र	-9.13593
▁निकट	-9.13913
▁मालूम	-9.13946
▁फि	-9.14064
▁बाप	-9.14075
▁नौ	-9.14114
▁राज्यों	-9.14363
▁महत्व	-9.1448
▁यक़ीनन	-9.14519
क्का	-9.14533
श्त	-9.14548
▁लाल	-9.14563
▁दल	-9.14577
▁कोशिश	-9.1468
वर्ती	-9.14705
▁समुद्र	-9.14806
ाइल	-9.14984
द्व	-9.15076
▁बुरा	-9.15116
▁आत्म	-9.15208
चल	-9.15221
▁बन्द	-9.15274
▁संसद	-9.15289
▁समझा	-9.15315
▁बातें	-9.15331
७	-9.15384
टिंग	-9.15459
िश	-9.15532
H	-9.15542
फिर	-9.15738
ंब	-9.16012
▁दिखाएँ	-9.16024
▁प्रकट	-9.16039
▁उतार	-9.16109
▁व्यापक	-9.16161
▁उद्यम	-9.16161
ौल	-9.16182
वन	-9.16418
▁शख्स	-9.16418
▁बुला	-9.16425
▁ग्रामीण	-9.16445
▁वैज्ञानिक	-9.16578
क़ा	-9.16589
▁पश्चात	-9.16661
एफ	-9.16674
▁कांग्रेस	-9.16738
▁फा	-9.16747
र्न	-9.16816
▁जिनमें	-9.16828
▁अपेक्षा	-9.16899
वर्त	-9.16943
रोध	-9.16956
le	-9.17097
वल	-9.17233
▁बाज़	-9.17252
▁12	-9.17306
▁देखने	-9.17449
▁सदस्यों	-9.17512
▁सामग्री	-9.17547
▁हल	-9.1756
पाद	-9.17605
▁उचित	-9.17668
▁आयात	-9.17679
▁अन्	-9.17704
▁चले	-9.17724
▁जवाब	-9.17733
▁कवि	-9.17772
यु	-9.17809
▁बद	-9.17848
▁जाति	-9.17903
ट्ट	-9.17929
▁अंक	-9.17973
▁बंगाल	-9.17976
पट	-9.18145
र्व	-9.18246
▁बैठक	-9.18262
▁नदी	-9.18334
▁घटना	-9.18466
शास्त्र	-9.18513
▁बयान	-9.18558
▁अध्यक्ष	-9.18579
▁संकेत	-9.1869
▁संरचना	-9.18762
▁साफ	-9.18842
न्ट	-9.18902
▁गैर	-9.18937
▁कहो	-9.18941
▁ईसा	-9.18949
▁समारोह	-9.18988
▁इतना	-9.19124
नेवाले	-9.19168
▁मं	-9.19258
बाद	-9.19276
▁p	-9.19288
चि	-9.19441
क्या	-9.19445
▁केंद्रीय	-9.19472
ंगी	-9.19569
▁आवेदन	-9.19613
▁रक्षा	-9.19748
]	-9.19748
▁सिर	-9.19758
¤¿	-9.19776
▁दिखाई	-9.19849
▁२	-9.19876
01	-9.1993
▁पुरस्कार	-9.19941
▁संदर्भ	-9.19941
▁'%	-9.19983
▁प्रदर्शन	-9.20139
▁मुँह	-9.20467
16	-9.20602
▁डिस्क	-9.20627
▁महिला	-9.20665
▁देती	-9.20988
एगा	-9.21005
▁दशा	-9.21023
▁नियुक्त	-9.2105
▁गांव	-9.21136
://	-9.21359
▁M	-9.21519
▁सार	-9.21561
यू	-9.216
▁जाय	-9.21661
▁संगीत	-9.21706
▁खरीद	-9.21897
▁बातों	-9.2193
▁रहेंगे	-9.21976
▁सुना	-9.22007
▁इनमें	-9.22054
▁गलत	-9.22068
▁वजह	-9.22093
द्य	-9.2214
▁मुद्रा	-9.22407
▁चाहिये	-9.22553
▁ठहरा	-9.22641
▁योगदान	-9.22645
▁औद्योगिक	-9.22654
▁बने	-9.22736
–	-9.22838
▁दिवस	-9.22853
▁अपराध	-9.22855
ख़ुदा	-9.22951
ॉल	-9.23157
त्मक	-9.23179
en	-9.23554
▁शायद	-9.23624
▁0	-9.2364
▁स्वतंत्रता	-9.23644
▁रखो	-9.2366
डो	-9.23672
अप	-9.23838
▁translation	-9.23881
¤	-9.24053
▁बदले	-9.24125
चन	-9.24298
▁किंतु	-9.24518
▁औ	-9.24519
मुख	-9.24581
▁P	-9.24659
▁पड़ा	-9.24661
▁निजी	-9.24727
▁लेख	-9.24763
▁व्या	-9.24893
धर	-9.24913
नाम	-9.24923
स्त्र	-9.24934
▁not	-9.24948
▁यूरोप	-9.24949
▁फेर	-9.24957
ोगे	-9.24995
क्ति	-9.25214
लेख	-9.25311
ाइड	-9.25361
▁रखना	-9.25478
▁सिद्ध	-9.2556
▁आशा	-9.26026
▁ऊ	-9.26031
10	-9.26108
▁एशिया	-9.26177
▁अरब	-9.26386
म्म	-9.26395
▁बोर्ड	-9.26413
भि	-9.26421
वाले	-9.26552
▁चयनित	-9.26609
13	-9.26654
्त	-9.26675
एन	-9.26722
▁रकम	-9.26751
▁पहाड़	-9.2677
▁निम्न	-9.26803
▁संग्रह	-9.27118
क्षेप	-9.2714
▁निर्देश	-9.27147
मय	-9.27156
मक	-9.27167
सार	-9.27184
दु	-9.27252
▁अवश्य	-9.27327
▁वृ	-9.27466
▁need	-9.27534
जर	-9.27573
टन	-9.27712
ज्	-9.2778
▁मद	-9.27857
▁लागत	-9.27892
▁खुल	-9.2793
▁पहल	-9.27972
▁राय	-9.28116
▁व्यक्तियों	-9.28274
▁तत्व	-9.28301
▁सेना	-9.28489
▁उद्	-9.28724
▁जुड़	-9.28761
▁सां	-9.28767
▁नाटक	-9.28873
▁9	-9.28876
निया	-9.29157
▁क्रम	-9.29168
्यु	-9.2919
▁वित्त	-9.29204
▁रक्त	-9.29374
▁आयोजित	-9.29424
ॅ	-9.29731
▁सफल	-9.29734
पूर	-9.29778
▁शेयर	-9.29855
▁हैः	-9.29878
▁विधान	-9.30213
▁ढंग	-9.30285
▁वायु	-9.30301
▁पांच	-9.30327
योजन	-9.30352
▁प्रभावित	-9.30516
▁मजबूत	-9.30525
▁साम	-9.30525
▁शांति	-9.30587
▁मू	-9.30615
▁कविता	-9.30644
▁दर्ज	-9.30653
र्ति	-9.30659
▁लेखक	-9.30716
वृत्त	-9.30722
२	-9.30794
▁पर्याप्त	-9.30894
▁नगर	-9.30935
▁देंगे	-9.31237
त्ता	-9.31369
▁अवस्था	-9.31432
▁प्रकाशित	-9.31483
▁http	-9.31542
▁भय	-9.31548
दो	-9.31595
प्रे	-9.31741
▁व्यवहार	-9.31776
▁एल	-9.31837
▁दूसरा	-9.31853
Cit	-9.31862
▁वन	-9.32162
▁डाला	-9.32249
▁खर्च	-9.32282
देव	-9.32405
▁संस्कृति	-9.32468
▁does	-9.32507
▁नेटवर्क	-9.32633
हीन	-9.32758
▁probabl	-9.32884
्रि	-9.33058
दू	-9.33067
▁सलाह	-9.33268
▁राजनीतिक	-9.33273
फर	-9.33346
▁निर्धारिती	-9.33483
▁आत्मा	-9.33484
▁-	-9.3349
▁छात्र	-9.33505
▁हासिल	-9.33546
ड्ड	-9.33595
▁चुकी	-9.33741
भारत	-9.33801
▁तार	-9.33812
▁पर्यावरण	-9.3383
▁मुखर्जी	-9.33894
es	-9.33924
11	-9.33933
▁रखे	-9.33977
्ज	-9.34019
▁फरमा	-9.34033
▁निर	-9.3408
▁सकें	-9.34136
▁बैठे	-9.34177
▁पैग़म्बर	-9.34215
आयतों	-9.3424
▁मोह	-9.34309
▁नर	-9.3434
▁हवा	-9.34408
▁प्राण	-9.34498
▁निम्नलिखित	-9.345
▁मशीन	-9.34567
▁सुरक्षित	-9.34627
फल	-9.34663
F	-9.34678
▁तेल	-9.34688
▁चर्चा	-9.3469
▁असफल	-9.34751
▁खो	-9.34924
र्च	-9.35164
▁केन्द्रीय	-9.35198
▁लाने	-9.35368
बन्ध	-9.35373
▁विविध	-9.35376
ियत	-9.35407
▁संरक्षण	-9.35461
▁पदार्थ	-9.35492
▁भारी	-9.35565
▁ख़बर	-9.35586
▁व्यक्त	-9.35678
▁युग	-9.35694
▁सेवाओं	-9.35918
▁प्रमाणपत्र	-9.3613
ंगा	-9.36139
▁इच्छा	-9.36186
▁यद्यपि	-9.36236
ांतर	-9.36264
▁चाल	-9.36298
▁सीधे	-9.36313
धन	-9.36345
▁शीर्ष	-9.36505
▁विशाल	-9.36566
▁लघु	-9.36595
सो	-9.3665
तुम	-9.36664
▁कट	-9.36745
ठा	-9.36795
▁तारीख	-9.36913
▁गीत	-9.36919
▁तर	-9.36942
लैंड	-9.36994
▁ईश्वर	-9.37019
▁बाग़	-9.37136
▁डेटा	-9.37179
▁आपकी	-9.37204
▁डॉ	-9.37292
▁साधन	-9.37434
धिक	-9.3745
द्वीप	-9.37514
▁प्रधान	-9.37531
nic	-9.3755
ंदा	-9.3772
▁गण	-9.37734
▁वर्णन	-9.37755
▁कदम	-9.37787
▁बधाई	-9.37841
▁सिद्धांत	-9.37958
▁तरीके	-9.38007
▁संसाधन	-9.38049
▁सम्मेलन	-9.38072
▁बनी	-9.38121
▁दस	-9.38138
आख़िरत	-9.3814
▁बीमार	-9.38217
▁कू	-9.38222
▁अपील	-9.38245
▁आतंकवाद	-9.3827
▁पैर	-9.38271
▁आयोग	-9.38403
▁कहना	-9.38473
▁आस्ति	-9.38575
▁m	-9.38578
▁चयन	-9.38599
▁शब्दों	-9.38632
र्ष	-9.38662
परि	-9.38798
▁विरुद्ध	-9.38802
▁उपस्थित	-9.38834
कू	-9.38838
▁बढ	-9.39075
झा	-9.39107
▁नव	-9.39125
▁छोटी	-9.39236
▁दबा	-9.39254
मेंट	-9.39325
▁परिषद	-9.39342
▁गिरोह	-9.39371
▁गुणवत्ता	-9.39403
▁अनिवार्य	-9.39504
स्ता	-9.39519
ब्ब	-9.39596
▁ज़ालिम	-9.39605
त्री	-9.39643
▁कंप्यूटर	-9.39672
ज्ञा	-9.3971
▁मिटा	-9.3972
पक	-9.39766
▁शैतान	-9.39773
▁भोजन	-9.39775
न्स	-9.39919
▁11	-9.40168
▁वर्	-9.40232
▁छोड़कर	-9.40252
▁प्राकृतिक	-9.40313
क्षा	-9.40343
▁रखें	-9.40346
ब्र	-9.40368
▁नमाज़	-9.40384
ऊँ	-9.40484
▁जिला	-9.4051
▁१९	-9.40574
▁पश्चिम	-9.4061
निर्	-9.40618
र्ध	-9.40668
▁संपत्ति	-9.40789
▁माँग	-9.40933
▁प्राचीन	-9.41094
▁कब	-9.41157
▁सख्त	-9.4117
▁D	-9.41312
▁दर्शा	-9.41414
▁अधिकांश	-9.41541
फे	-9.41578
▁बताया	-9.41606
▁प्रत्य	-9.4187
लिंग	-9.41983
यह	-9.42003
▁शर्त	-9.42006
):	-9.42261
▁परीक्षा	-9.42286
▁रखी	-9.42313
▁टा	-9.42334
▁तुलना	-9.42404
▁अगले	-9.42644
▁हस्ताक्षर	-9.42743
▁यथा	-9.42921
▁गरीब	-9.43006
▁धार्मिक	-9.43021
▁शिकायत	-9.43056
▁प्रभावी	-9.43139
गाह	-9.43174
बो	-9.43204
▁आपस	-9.4323
हो	-9.4336
जात	-9.43412
▁चीन	-9.43439
¤2	-9.43502
क्ल	-9.43543
▁गर्इ	-9.43608
▁अभिलेख	-9.43625
रिक	-9.43801
▁संशोधन	-9.43824
▁ब्याज	-9.43838
चिह्न	-9.43859
▁वीडियो	-9.43894
B	-9.43914
▁समाधान	-9.44057
▁विदेश	-9.44087
▁प्रोग्राम	-9.44139
फी	-9.44221
08	-9.44234
कृ	-9.44272
▁दस्तावेज	-9.44318
▁बुद्धि	-9.44419
▁(19	-9.44536
▁जोड़ें	-9.44798
▁शीघ्र	-9.44809
▁[	-9.44965
िये	-9.45002
षित	-9.45091
प्प	-9.45105
▁खड़े	-9.45114
▁घो	-9.45151
▁अधिकारियों	-9.45234
ल्ट	-9.45274
नेवाली	-9.45286
▁सात	-9.45344
▁समृद्ध	-9.45377
▁हानि	-9.45387
▁बन्दों	-9.45409
▁उपाय	-9.45461
▁आंदोलन	-9.45484
▁F	-9.45496
▁संभावना	-9.4552
▁चिकित्सा	-9.45521
▁हालत	-9.45613
साथ	-9.45881
▁आते	-9.45904
▁कुंजी	-9.45986
▁बनाना	-9.46018
▁उन्हीं	-9.46055
राव	-9.4618
02	-9.4618
वासी	-9.46232
▁पंक्ति	-9.46235
रस	-9.46289
ठी	-9.46382
३	-9.46572
▁आपका	-9.46594
▁मुह	-9.46604
▁जल्दी	-9.46613
▁उम्मीद	-9.4663
▁हजार	-9.46676
V	-9.46846
▁लगी	-9.46848
▁आयु	-9.46886
▁शैली	-9.4692
▁पहुंचा	-9.46922
▁अंश	-9.4694
▁उल्लेख	-9.46947
▁लेना	-9.46998
▁तुमपर	-9.47006
▁डरा	-9.47024
▁साइ	-9.47033
▁ताल	-9.47136
ल्स	-9.47139
▁मिलता	-9.47197
▁अग्र	-9.47207
▁मानक	-9.47224
िष्ट	-9.47237
पत्ति	-9.47292
▁हिदायत	-9.47317
▁संस्थानों	-9.47424
हरा	-9.47499
▁प्रतीक	-9.4753
▁प्रणब	-9.47575
▁समझते	-9.47603
▁हिन्दी	-9.47681
▁तुममें	-9.47698
▁शक	-9.47776
▁आता	-9.47831
▁बिल	-9.47977
▁मिली	-9.4801
खे	-9.48085
▁पाने	-9.48097
▁संसार	-9.48196
यम	-9.48205
▁कप	-9.4827
▁मेल	-9.48335
▁विल	-9.48349
▁नियत	-9.4837
एँगे	-9.48372
▁सै	-9.48407
19	-9.48417
न्ह	-9.48427
▁16	-9.4847
,000	-9.48574
▁संकल्प	-9.48667
▁श्रेणीः	-9.48689
▁B	-9.4872
▁क्षमा	-9.48761
▁जरूरी	-9.48816
▁पत्	-9.48839
▁सद	-9.48888
शु	-9.4889
िड	-9.48917
ल्ला	-9.4897
is	-9.49014
जनक	-9.49028
▁पद्धति	-9.49074
▁मालिक	-9.4921
▁निर्मित	-9.49336
▁पुलिस	-9.49384
▁युवा	-9.49464
▁रहती	-9.49493
▁पत्थर	-9.49518
▁सीख	-9.49571
▁सीमित	-9.49598
घात	-9.49621
▁खाद्य	-9.49725
▁माँ	-9.4975
▁क़सम	-9.49877
▁झुठला	-9.49932
▁सेट	-9.4999
▁निर्भर	-9.50001
▁अनुप्रयोग	-9.50076
▁पश्चात्	-9.50183
▁ब्रिटिश	-9.50262
17	-9.50292
▁मानते	-9.50299
▁संस्कृत	-9.50422
▁परंपरा	-9.50449
▁साधारण	-9.50449
▁छोटा	-9.50487
र्त	-9.50489
▁मना	-9.5059
07	-9.50611
क़्त	-9.50614
}	-9.50636
मेल	-9.50681
▁जहन्नुम	-9.50757
▁न्यू	-9.50828
▁विफल	-9.50832
▁विवाह	-9.50835
▁रहना	-9.50861
▁आती	-9.5091
▁कक्ष	-9.50916
▁बिल्कुल	-9.50937
▁फसल	-9.51071
▁इबराहीम	-9.51087
▁दिलों	-9.51137
▁अता	-9.51157
▁तर्क	-9.51193
▁कीमत	-9.51203
▁वी	-9.51222
▁वार्षिक	-9.51238
▁करनेवालों	-9.51277
▁मुख	-9.51324
▁पिता	-9.51433
▁25	-9.51459
▁भगवान	-9.51579
▁निवास	-9.51632
▁शाखा	-9.51686
▁सरल	-9.5169
▁जाँच	-9.5177
▁अर्थव्यवस्था	-9.51806
▁T	-9.51831
▁श्र	-9.51832
▁शताब्दी	-9.51882
तया	-9.51899
वंश	-9.51962
अपने	-9.51989
ग्रा	-9.52042
05	-9.52151
▁निगम	-9.52236
भव	-9.52275
▁करनी	-9.52311
▁आदर्श	-9.52339
▁अंदर	-9.52358
▁पथ	-9.52366
▁सारी	-9.52379
▁बीमा	-9.52489
▁डा	-9.52581
▁चू	-9.52657
at	-9.52707
▁शेष	-9.52724
▁c	-9.52903
▁क्ष	-9.52927
▁बरस	-9.52988
▁घोषणा	-9.53028
▁किसानों	-9.53038
▁सच्चे	-9.53067
▁1.	-9.53153
▁कहेंगे	-9.53286
ol	-9.5335
तक	-9.53473
ic	-9.53551
▁महीने	-9.53615
▁तरफ़	-9.5362
▁खुश	-9.53769
दूसरे	-9.53777
▁प्रदर्शित	-9.53799
▁व्यक्तिगत	-9.53848
▁फैला	-9.53853
▁अत्यंत	-9.53876
▁शुल्क	-9.53909
▁नागरिक	-9.53957
▁खुलती	-9.53992
▁स्वा	-9.54026
ङ	-9.5407
▁उद	-9.54134
▁योग	-9.54166
सब	-9.54353
▁देखो	-9.54441
▁संघर्ष	-9.54477
▁स्थल	-9.54529
▁सदन	-9.54624
▁G	-9.54675
▁यु	-9.54689
▁अप्रैल	-9.54732
▁मौजूदा	-9.54739
शाला	-9.54768
▁14	-9.54829
▁मूर्ति	-9.54868
▁मुस्लिम	-9.54967
▁सम्मिलित	-9.54967
50	-9.55018
ॉन	-9.55023
▁प्रयोजनों	-9.55045
▁30	-9.55131
▁विंडों	-9.55239
▁R	-9.55293
▁भूल	-9.5533
▁व्यय	-9.55361
प्रभु	-9.55494
▁प्रभार	-9.55521
60	-9.55612
▁हस्त	-9.55619
▁अंग्रेजी	-9.55667
▁चुनाव	-9.55676
तुल	-9.55679
▁स्थायी	-9.55776
▁शिव	-9.55819
▁सदैव	-9.5603
▁सामान	-9.56067
▁आपने	-9.56168
मैं	-9.56227
▁बढ़ाने	-9.56386
▁(2)	-9.56503
▁मनो	-9.56563
▁इंडिया	-9.56626
▁चरण	-9.56734
▁त्रि	-9.56876
▁देखें	-9.56908
▁नोट	-9.5692
▁हृदय	-9.57024
▁गर्भ	-9.57074
ेक्ट	-9.57082
▁विचारों	-9.57119
W	-9.57144
▁तथ्य	-9.57146
▁खास	-9.57439
▁श्रम	-9.57491
▁पड़ता	-9.57548
18	-9.57631
▁लगाया	-9.57694
▁मार्च	-9.57733
▁फी	-9.57736
▁मिट्टी	-9.57747
▁प्रविष्ट	-9.57787
आख़िर	-9.58035
▁तेजी	-9.58155
▁रहेगा	-9.58173
▁अनुच्छेद	-9.58253
▁प्रत्यक्ष	-9.58278
▁ज़ि	-9.58485
▁जिसको	-9.58507
▁हालाँकि	-9.58514
▁पहला	-9.58571
▁निशानियाँ	-9.58607
▁दृष्टिकोण	-9.58636
▁शु	-9.58725
बाहरी	-9.58796
▁तट	-9.58807
▁चढ़	-9.58885
विध	-9.58886
▁कार्यों	-9.58996
▁भली	-9.59012
▁दायित्व	-9.59166
▁धारण	-9.59198
हु	-9.59266
aà	-9.59389
▁गंभीर	-9.59411
▁सज़ा	-9.59498
गण	-9.59547
क्षेत्र	-9.59575
▁बढ़ावा	-9.59577
▁गवाह	-9.59672
▁पाक	-9.59905
▁लोड	-9.59959
फ़ा	-9.59962
ांश	-9.59974
▁नये	-9.60044
▁सत्र	-9.602
सभा	-9.60347
▁चलते	-9.60364
▁खूब	-9.60525
छा	-9.60563
▁दुर्	-9.60637
अल्लाह	-9.60657
फो	-9.60675
▁अवि	-9.60688
▁उपयुक्त	-9.60715
▁बौद्ध	-9.6073
चित्र	-9.6074
▁दर्शन	-9.60771
श्च	-9.60795
पूर्व	-9.60927
खु	-9.61082
▁प्रशासन	-9.6109
▁सांस्कृतिक	-9.61104
क़ुरान	-9.61106
▁रुपये	-9.61135
09	-9.61186
Y	-9.6127
▁नसीहत	-9.6127
न्ध	-9.61291
▁वर्ण	-9.61324
धे	-9.61507
▁खि	-9.61516
▁दोस्त	-9.61553
▁वैश्विक	-9.61563
ंगल	-9.61696
वें	-9.6191
▁इनके	-9.61923
▁रद्द	-9.61998
▁भु	-9.6201
▁सच	-9.6215
▁तकनीकी	-9.62163
हरगिज़	-9.62192
▁रोजगार	-9.62277
▁पुन	-9.62285
▁श्रेणी	-9.62294
▁वस्तुओं	-9.6251
र्इ	-9.62525
▁फु	-9.6262
▁चै	-9.62766
▁अंतरराष्ट्रीय	-9.62792
▁पेट	-9.62887
▁पात्र	-9.62916
डर	-9.62952
कालीन	-9.63116
▁दशक	-9.63199
▁झगड़	-9.63349
▁दोष	-9.63351
el	-9.6346
▁महिलाओं	-9.63503
▁बनाकर	-9.63606
▁टो	-9.63617
▁व्यवसाय	-9.63634
▁झुक	-9.63643
वाई	-9.63711
▁बख्श	-9.63723
क्रिया	-9.6374
▁शक़	-9.63754
▁अंध	-9.63772
2014	-9.63827
▁सिस्टम	-9.63861
▁गाय	-9.63864
▁मिलने	-9.63877
▁क्षेत्रीय	-9.63941
▁अंतर्	-9.6397
▁जिनका	-9.63981
▁जादू	-9.64062
▁विनिर्दिष्ट	-9.64105
▁द्वार	-9.64206
▁प्रसिद्ध	-9.64277
▁उतर	-9.64298
ूँगा	-9.64299
▁प्रसार	-9.64334
▁फ्ल	-9.64362
▁बनाई	-9.64461
▁बीज	-9.64529
▁बुरी	-9.6461
▁व्याख्या	-9.64621
▁उत्तम	-9.64624
▁अनुवाद	-9.64833
▁कठोर	-9.64923
▁अल्प	-9.64936
▁ब्ल	-9.6495
▁दिये	-9.64967
▁स्वरूप	-9.65171
▁विजय	-9.6518
▁विस्तृत	-9.65183
▁दिख	-9.65271
▁स्वामी	-9.65273
न्ड	-9.65328
▁अधिकतम	-9.65336
▁अधिकतर	-9.65341
▁सुख	-9.65387
▁मेहरबान	-9.65444
▁अनुकूल	-9.65445
▁the	-9.65497
▁बिजली	-9.65575
▁पशु	-9.65618
▁प्रयासों	-9.65638
▁दिखाया	-9.6564
ur	-9.65652
▁समाचार	-9.65714
23	-9.6572
il	-9.65775
''	-9.65783
▁टि	-9.65796
▁50	-9.65873
▁रस	-9.65889
▁असं	-9.65921
▁एच	-9.65932
▁स्था	-9.65937
li	-9.6609
ed	-9.66112
▁लेता	-9.66112
ूंगा	-9.66134
▁संस्करण	-9.66142
▁छिपा	-9.66166
▁17	-9.66189
▁मिशन	-9.66199
▁घरों	-9.66311
▁मॉ	-9.66356
▁खोलें	-9.6636
▁मार्गदर्शन	-9.66406
▁ग्राम	-9.66531
▁वाक़िफ	-9.66625
▁समक्ष	-9.6663
▁इतनी	-9.6663
▁गुना	-9.66656
▁शाह	-9.66672
▁आयोजन	-9.66674
▁बावजूद	-9.66713
▁पार्टी	-9.66759
▁मोड	-9.66813
ृष्ट	-9.66933
▁सूर्य	-9.66972
▁पंजाब	-9.66978
▁गुज़र	-9.67055
▁प्रयुक्त	-9.67215
मिन	-9.673
▁तेज	-9.67408
22	-9.67413
▁मिले	-9.67459
स्टर	-9.67499
▁पीठ	-9.67503
▁सच्चा	-9.67505
▁मौसम	-9.67518
मिल	-9.67598
▁13	-9.67605
▁कटौती	-9.67687
▁बेच	-9.6769
▁हालांकि	-9.67731
स्थापित	-9.67765
ii	-9.67768
▁कथा	-9.68061
▁अत्याचार	-9.68177
▁संचार	-9.6826
▁ग्राहक	-9.68267
▁कहानी	-9.68331
▁क़यामत	-9.6838
▁निरंतर	-9.68491
▁गुरु	-9.68494
▁आइ	-9.68577
▁परस्पर	-9.68589
▁फैल	-9.68684
▁{	-9.68708
दारी	-9.68739
वस्था	-9.68833
▁करनेवाला	-9.68974
▁जिम्मेदार	-9.6903
▁माह	-9.69036
▁कोशिका	-9.69316
▁रेखा	-9.69344
▁स्पष्टीकरण	-9.69428
तंत्र	-9.69572
▁उपचार	-9.69575
▁दीवार	-9.69586
अपनी	-9.69619
▁जाएं	-9.6962
▁डाटा	-9.69621
▁पश्चिमी	-9.69641
▁सबको	-9.69663
▁गुप्त	-9.69681
▁अनुमान	-9.69687
▁गुजरात	-9.69773
▁सामना	-9.69779
▁E	-9.6985
ुआ	-9.69877
▁निदेशक	-9.69894
▁पर्वत	-9.69901
▁विमान	-9.69923
▁खाली	-9.69981
▁विद्युत	-9.70027
▁दीर्घ	-9.70027
▁पसंद	-9.70253
▁रोज़ी	-9.70266
▁आसान	-9.70309
▁सूक्ष्म	-9.70346
▁विवाद	-9.70426
▁वायदा	-9.70484
▁गहरा	-9.70547
▁पट	-9.70553
वां	-9.70628
खंड	-9.7066
▁सरदार	-9.70691
▁संलग्न	-9.70712
▁सरकश	-9.70739
▁गतिविधियों	-9.70752
▁दौर	-9.70766
▁शिक्षक	-9.70899
▁वातावरण	-9.70941
▁निभा	-9.70976
▁प्रकाशन	-9.71056
▁पूर्ववर्ष	-9.71069
▁ज़रुर	-9.7122
▁सकेगा	-9.71252
▁ख़ा	-9.71267
03	-9.71339
▁रोज़	-9.71389
▁मिलकर	-9.71525
दिन	-9.71583
▁एफ	-9.7166
▁जानवर	-9.7168
▁पस	-9.71714
▁सचिव	-9.71726
▁खड़ा	-9.71793
▁ख़ुश	-9.71826
▁हिन्दू	-9.71865
पेक्ष	-9.71904
▁ग्रहण	-9.71961
▁बंध	-9.72019
as	-9.72037
▁फर्	-9.72044
▁अभियान	-9.72091
▁पौ	-9.72102
la	-9.72125
▁यंत्र	-9.72158
▁पुत्र	-9.7219
▁मुसलमानों	-9.7245
▁तिथि	-9.72583
▁सहमत	-9.72584
▁दि	-9.726
et	-9.72685
ेन्द्र	-9.72747
▁आस	-9.72822
िस्ट	-9.72844
▁वेतन	-9.72901
▁स्वागत	-9.72933
▁क्लिक	-9.72989
▁कर्मचारियों	-9.73031
ing	-9.73136
▁लिखने	-9.73146
▁नियमित	-9.73168
▁करनेवाले	-9.7334
▁महसूस	-9.7336
▁मतलब	-9.73362
ra	-9.73371
कुल	-9.73414
▁ड्र	-9.73429
us	-9.7355
▁स्त्री	-9.73596
▁संपूर्ण	-9.7369
▁नियमों	-9.73759
▁सुंदर	-9.73835
G	-9.73852
रुप	-9.7397
▁परीक्षण	-9.73984
▁चलता	-9.73999
▁बनाएँ	-9.74364
▁दावा	-9.74401
▁पलट	-9.74452
▁विशेषता	-9.74464
▁हाथों	-9.74478
▁अवैध	-9.74497
सूर	-9.74555
ro	-9.74593
▁फूल	-9.74594
▁उदार	-9.7464
▁कार्ड	-9.74654
▁आँख	-9.74689
▁बोझ	-9.74717
▁कल्याण	-9.74734
▁बग	-9.74796
▁अफ्रीका	-9.74877
िक्स	-9.7489
▁प्राप्ति	-9.74967
▁सड़क	-9.74974
¤¤	-9.75069
th	-9.75099
▁फिल्म	-9.75118
शक्ति	-9.75152
▁झुठलाया	-9.75253
▁कार्रवाई	-9.7526
▁हिसाब	-9.75261
▁भला	-9.75267
▁दिला	-9.75296
hi	-9.75368
▁धु	-9.75568
▁अंड	-9.75613
▁वाद	-9.7564
▁स्वच्छ	-9.75695
लंब	-9.75783
शाली	-9.75816
▁कारबार	-9.75832
▁अक्सर	-9.75891
▁भेजे	-9.75926
▁इन्हें	-9.75935
▁जून	-9.75938
▁हाँ	-9.76056
▁ख़र्च	-9.76058
न्ना	-9.76146
▁शुभकामनाएं	-9.76176
▁प्रावधान	-9.76224
▁पाकिस्तान	-9.7623
▁आवास	-9.76238
▁तय	-9.76239
ट्स	-9.76247
▁माता	-9.76262
▁सप्ताह	-9.76273
▁भरोसा	-9.76274
▁इबादत	-9.76322
▁मात्र	-9.76388
▁खाने	-9.76428
▁भौतिक	-9.76515
▁सहेजें	-9.76564
▁तौबा	-9.76613
▁सहेज	-9.76669
▁दंड	-9.76698
श्म	-9.7681
▁जीवित	-9.76842
▁आयुक्त	-9.76843
▁100	-9.76848
▁शुद्ध	-9.76985
▁प्रसन्नता	-9.77035
रक्षित	-9.77099
▁कल्पना	-9.77102
▁रहें	-9.77118
ग्रस्त	-9.77154
▁वेब	-9.77158
▁–	-9.77175
▁समस्याओं	-9.77201
▁खिला	-9.77226
▁जनवरी	-9.77248
▁जिनकी	-9.77282
▁अंतर्राष्ट्रीय	-9.773
▁शख़्श	-9.77443
प्ट	-9.77522
ाणु	-9.77538
▁क्षति	-9.77572
▁शुभ	-9.77621
▁हिस्से	-9.77639
▁सावधान	-9.77639
▁देकर	-9.77648
▁काव्य	-9.77713
▁पेज	-9.77726
क्ट	-9.77745
▁अद्यतन	-9.77836
▁x	-9.77887
▁निष्	-9.77928
▁घट	-9.7793
▁हद	-9.7797
04	-9.78094
▁कितने	-9.78113
▁उपभोक्ता	-9.78181
▁खेती	-9.78292
अलग	-9.78361
▁मिलती	-9.78526
▁बढ़कर	-9.78529
▁मानसिक	-9.78581
▁इजरायल	-9.78626
▁पाए	-9.78667
▁बजा	-9.78671
▁गणराज्य	-9.78682
▁माबूद	-9.78726
▁ढूंढ	-9.78726
▁आर्	-9.78792
▁चर	-9.78824
▁जैव	-9.78854
▁पुराने	-9.78877
▁खाना	-9.78928
▁भलाई	-9.78933
▁वितरण	-9.79028
▁शून्य	-9.79074
▁मान्यता	-9.79087
▁N	-9.79154
न्या	-9.79166
▁गैस	-9.79204
▁पहन	-9.79271
▁फे	-9.79316
▁बू	-9.7933
▁परियोजनाओं	-9.79361
▁शुरुआत	-9.79424
रेट	-9.7947
▁शुक्र	-9.79525
▁खुशी	-9.79588
▁दूध	-9.79685
▁तकनीक	-9.79699
▁नेतृत्व	-9.79724
un	-9.7983
▁हार	-9.80034
▁जायेगा	-9.80058
▁चलो	-9.80106
▁टन	-9.80185
स्तर	-9.80188
▁एवोल्यूशन	-9.80277
दुनिया	-9.80286
▁धीरे	-9.80315
ज्ञान	-9.80324
ियर	-9.80327
▁ख्याल	-9.80433
पार	-9.80458
▁हिंदू	-9.80479
▁गोल	-9.8056
▁बदलें	-9.80571
▁बाहरी	-9.80622
▁दू	-9.80653
▁लु	-9.80704
▁ज़ुल्म	-9.80732
▁लगाने	-9.80736
▁निर्देशिका	-9.80755
▁स्टे	-9.80781
ri	-9.80783
▁स्थिर	-9.80835
बोध	-9.81065
▁इत्यादि	-9.81087
भाँति	-9.81089
▁कितनी	-9.81092
विज्ञान	-9.81117
▁शत्रु	-9.81292
आउट	-9.81294
▁उसपर	-9.81315
▁प्ले	-9.81339
▁जुड़े	-9.81391
फ्ट	-9.81402
▁ध्वनि	-9.81444
▁सवाल	-9.81489
▁उपन्यास	-9.81649
▁मूल्यांकन	-9.81649
▁प्रयोजन	-9.81653
tion	-9.81686
▁गर्म	-9.81691
▁अनुसरण	-9.81701
▁फ्र	-9.81708
▁प्रतिनिधि	-9.81834
▁ईमानदार	-9.81966
▁कार्यक्रमों	-9.81967
पक्ष	-9.82003
▁काफ़िर	-9.82009
▁पढ़ा	-9.82147
▁रेल	-9.82243
iv	-9.82315
▁गंगा	-9.82348
▁उत्कृष्ट	-9.82367
▁कमांड	-9.82372
▁जाएंगे	-9.82376
▁आज्ञा	-9.82453
▁छु	-9.82478
▁प्रार्थना	-9.82574
▁शीर्षक	-9.82612
▁बजे	-9.82685
२००	-9.82759
▁कराने	-9.82814
▁पर्यटन	-9.82833
▁in	-9.82849
▁आनंद	-9.82949
▁पत्नी	-9.82979
ग्राफ	-9.83017
▁स्क्रीन	-9.83091
▁आपूर्ति	-9.83195
▁अप्र	-9.83204
क़यामत	-9.83219
▁उन्होने	-9.83247
▁छूट	-9.83251
▁बातचीत	-9.833
▁गृह	-9.83322
यंत्र	-9.83346
हाल	-9.83375
▁अंतरण	-9.83407
▁संस्थाओं	-9.83452
ch	-9.83463
▁चो	-9.83538
99	-9.83644
▁मुझ	-9.83647
▁प्रतिभा	-9.83669
▁ख़ास	-9.83674
धर्म	-9.83734
▁अस्तित्व	-9.83767
▁खुले	-9.8378
▁स्वतंत्र	-9.84029
चाल	-9.8405
▁कर्मचारी	-9.84082
▁डरते	-9.84113
▁३	-9.84166
▁कौ	-9.84285
▁ऐतिहासिक	-9.84344
▁पट्टी	-9.84453
▁मिटाएँ	-9.84458
▁24	-9.84469
▁तेरे	-9.84584
▁अत्यधिक	-9.84607
▁प्रेरित	-9.84607
▁बनाते	-9.84616
▁किस्म	-9.84675
▁बेटे	-9.84698
▁विद्यार्थियों	-9.84712
▁पंचांग	-9.8487
▁आये	-9.84894
▁अंग्रेज	-9.84987
जिस	-9.8502
▁वाणिज्य	-9.85029
हाँ	-9.85046
▁कौशल	-9.85189
▁ट्रे	-9.85251
▁वैध	-9.85269
▁करार	-9.8528
ेश्वर	-9.85289
▁मामला	-9.85406
▁मुसलमान	-9.85434
▁लक्षण	-9.85514
▁इकाई	-9.85564
▁परामर्श	-9.85612
▁खिलाफ	-9.85759
▁मानो	-9.85817
▁निशानी	-9.85835
▁बुराई	-9.8587
▁प्रारूप	-9.85934
▁बजाय	-9.86051
शिया	-9.8606
▁L	-9.86063
▁स्तंभ	-9.862
ुष	-9.86236
▁उड़ा	-9.8631
▁बिक्री	-9.86415
▁देखभाल	-9.86415
ंभ	-9.86436
▁किसान	-9.86523
▁लॉग	-9.86523
▁आयतें	-9.86527
मार्ग	-9.86576
▁प्रोत्साहन	-9.86629
▁सौंप	-9.86663
कुफ्फ़ार	-9.86682
▁लाइन	-9.86707
▁दुआ	-9.86956
ोत्	-9.87133
▁सुबह	-9.87171
पंथ	-9.87234
▁जै	-9.87369
▁बुनियादी	-9.87384
▁हराम	-9.87427
▁सृजन	-9.87438
▁जमीन	-9.87455
▁प्रतिक्रिया	-9.87495
▁बदलाव	-9.87529
▁नजर	-9.87603
▁नज़र	-9.87634
▁लोकप्रिय	-9.87709
▁मैदान	-9.8781
▁उपयोक्ता	-9.87818
▁प्रचार	-9.88022
ढ़ा	-9.88139
भू	-9.8817
▁विशेषज्ञ	-9.88252
▁ईमानदारों	-9.88362
▁ठिकाना	-9.88364
धू	-9.8838
▁लाया	-9.88413
▁वादा	-9.88451
Comment	-9.88528
प्रति	-9.88544
▁समस्त	-9.88554
क्शन	-9.88572
दूर	-9.88573
▁कृष्ण	-9.88583
▁वाद्य	-9.88699
▁लोकतंत्र	-9.88717
▁गिन	-9.8874
▁दिनांक	-9.88808
निर्माण	-9.88841
▁दौड़	-9.88866
▁भाषण	-9.88904
▁नील	-9.88946
▁ग्रंथ	-9.88968
▁माप	-9.88993
▁फ़ैसला	-9.89022
ग्न	-9.89065
▁प्राथमिकता	-9.89133
▁मंच	-9.89249
▁ग़रज़	-9.89319
▁अक्षम	-9.8942
पोषण	-9.89428
▁जंगल	-9.89517
▁नष्ट	-9.89523
▁लगातार	-9.89642
▁रास्ता	-9.89678
▁आग्रह	-9.89709
▁आध्यात्मिक	-9.89796
▁बिहार	-9.89806
▁सीधा	-9.89938
▁अर्थात्	-9.89964
▁इतने	-9.89977
योजित	-9.90109
▁आठ	-9.90123
▁ब्रह्म	-9.90129
30	-9.90158
हालॉकि	-9.90192
▁विद्वान	-9.90241
ॉँ	-9.90246
▁क्रांति	-9.90297
▁दुख	-9.9031
▁न्यूनतम	-9.90352
▁पूजा	-9.9047
▁सेवाएं	-9.90479
▁ठहर	-9.90507
▁सामर्थ्य	-9.90519
▁फो	-9.90565
▁पवित्र	-9.90632
ce	-9.90641
▁भटक	-9.90726
▁रौशन	-9.90743
▁असमर्थ	-9.91024
▁शिकार	-9.91046
▁पेड़	-9.91051
▁थोड़ा	-9.91052
▁पढ़ने	-9.91066
▁ज्ञापन	-9.9108
▁उम्र	-9.91139
▁स्मृति	-9.91192
▁विनियम	-9.91281
▁उभर	-9.91289
▁बनने	-9.91317
▁स्त्रियों	-9.91365
de	-9.91435
▁प्रायः	-9.91532
▁मौत	-9.91565
ho	-9.91575
ँट	-9.9163
ोत्तर	-9.91717
▁करीब	-9.91936
▁मज़ा	-9.91992
▁थो	-9.92004
▁इंजीनियर	-9.9204
▁जड़	-9.92068
▁गुमराही	-9.92211
▁ख़ूब	-9.92212
▁आदम	-9.92263
▁आंतरिक	-9.92267
▁शोध	-9.92412
▁औसत	-9.92442
▁शरीक	-9.92467
▁निर्वाचन	-9.92609
▁तीव्र	-9.92666
▁घरेलू	-9.92838
▁तभी	-9.92944
▁रास्ते	-9.92956
▁वृक्ष	-9.92994
▁पुस्तिका	-9.93066
▁वीर	-9.93103
▁उठाए	-9.93172
▁महत्त्वपूर्ण	-9.93192
▁गवाही	-9.93419
▁मां	-9.93423
▁साम्राज्य	-9.93468
▁संसाधनों	-9.93508
▁नृत्य	-9.93529
▁तरीका	-9.9353
▁मीडिया	-9.93584
▁मुंबई	-9.93641
▁त्याग	-9.93647
ent	-9.93657
▁प्रवाह	-9.93672
▁प्रबंध	-9.93692
▁युक्ति	-9.93703
▁विष	-9.93714
▁मधु	-9.93773
▁परहेज़गार	-9.93814
▁नागरिकों	-9.93875
▁पारित	-9.93977
▁लै	-9.94091
फू	-9.9414
रोह	-9.94166
▁जल्द	-9.94193
▁ख़ुद	-9.94211
▁जोखिम	-9.94278
▁संचालन	-9.94336
▁रुपए	-9.94349
▁दस्तावेज़	-9.94389
▁घेर	-9.9443
▁मैने	-9.94482
भोग	-9.94488
▁प्रतिभूति	-9.94528
▁विधेयक	-9.94684
▁कम्प	-9.94689
चंद्र	-9.94695
▁उद्घाटन	-9.94859
▁अभिप्रेत	-9.94918
:%	-9.94919
ैक्ट	-9.94932
▁रीति	-9.95002
▁आओ	-9.9503
▁दयावान	-9.95035
▁देखकर	-9.95055
▁ऑनलाइन	-9.95093
▁भागीदारी	-9.95107
▁परिस्थितियों	-9.95186
▁विश्लेषण	-9.95445
▁दवा	-9.95476
90	-9.9548
ट्ठ	-9.95558
▁टूट	-9.95579
▁सैनिक	-9.95586
▁अध्याय	-9.95602
▁दृढ़	-9.95621
▁घटा	-9.95628
▁तमाम	-9.95686
▁सर्वोच्च	-9.95739
▁तुझे	-9.95974
▁तत्काल	-9.95987
▁सहकारी	-9.96016
▁वचन	-9.96048
▁भाषाओं	-9.96059
!"	-9.96123
▁बाबत	-9.9616
▁दूसरों	-9.96211
▁खींच	-9.96213
▁लंबा	-9.96219
tr	-9.96256
▁विधा	-9.96264
▁गठन	-9.96334
14	-9.96341
▁आरोप	-9.96372
▁पूछा	-9.96393
शासन	-9.96597
▁सिवाय	-9.96629
▁लड़के	-9.96671
▁भि	-9.9673
▁अगस्त	-9.96748
▁राज्यपाल	-9.96797
▁आसानी	-9.96878
▁प्रतीत	-9.96973
लेट	-9.97028
▁दयालुता	-9.97042
▁स्वतः	-9.97106
▁चक्र	-9.97139
▁फोन	-9.97184
html	-9.97232
▁ट्रा	-9.97281
▁उन्नत	-9.97298
▁मीटर	-9.97307
▁मोमिन	-9.97461
िटी	-9.97603
▁न्यायाधीश	-9.97641
▁बोले	-9.97775
▁लड़ाई	-9.98087
▁घोषित	-9.98136
▁संवाद	-9.98143
▁किनारे	-9.98151
▁द्वि	-9.98279
▁फैसला	-9.98303
▁अध्य	-9.98314
ट्रो	-9.98418
▁प्राथमिक	-9.98423
िस्तान	-9.98618
ञ	-9.98656
▁संबोधित	-9.98727
▁लिंक	-9.98753
▁मजदूर	-9.98787
▁पोर्ट	-9.98873
स्थान	-9.98878
▁सिखा	-9.98993
▁चेतना	-9.99035
▁उठाने	-9.99119
▁पसन्द	-9.99151
▁औषध	-9.99217
ेंद्र	-9.99303
▁अनुरोध	-9.99321
▁लौटा	-9.99328
▁जितना	-9.99351
▁मई	-9.99398
त्म	-9.99439
▁ग़ालिब	-9.99518
▁जाओगे	-9.99539
▁अज्ञात	-9.99581
यदि	-9.99747
▁विन्यास	-9.99763
दादा	-9.99998
▁सर्वाधिक	-10.0005
▁हिंदी	-10.0007
▁आनन्द	-10.0008
am	-10.001
▁आवाज़	-10.0011
▁आश्चर्य	-10.0013
▁हत्या	-10.0026
▁उधार	-10.0037
▁अन्दर	-10.0037
▁करेगी	-10.0038
▁आक्रमण	-10.0044
▁महामहिम	-10.005
लोगों	-10.0062
▁जटिल	-10.0063
▁प्रयत्न	-10.0069
▁प्रतीक्षा	-10.0087
▁औलाद	-10.0087
▁संकट	-10.0092
▁अनुरूप	-10.0114
▁नेहरू	-10.0119
नियम	-10.0122
▁मुक़ाबले	-10.0125
▁छह	-10.013
▁नैतिक	-10.0131
▁परिणामस्वरूप	-10.0131
▁विपरीत	-10.0137
▁आरम्भ	-10.0149
▁कमजोर	-10.015
▁लेंगे	-10.0155
▁सिफारिश	-10.0162
▁कॉल	-10.0172
ाशय	-10.0176
वर्ष	-10.0176
▁साबित	-10.0181
▁नवीन	-10.0194
▁सुझाव	-10.0199
▁प्रतिनिधित्व	-10.0208
कल्प	-10.0215
▁बॉ	-10.0222
▁प्रिय	-10.0225
▁बन्दगी	-10.023
▁विद्यमान	-10.0231
▁समर्थ	-10.0234
▁सदा	-10.0235
▁खुला	-10.0236
▁प्रेरणा	-10.0243
▁होंगी	-10.0244
▁समझौता	-10.025
▁कूटशब्द	-10.0262
mukh	-10.0262
▁यक़ीनी	-10.0267
▁ज़ाहिर	-10.0269
▁पृथ्वी	-10.0269
▁प्रशंसा	-10.0275
▁नूह	-10.0276
▁उत्पादक	-10.0277
▁चिंता	-10.0285
▁जनसंख्या	-10.0288
vi	-10.0298
▁कितना	-10.031
▁जिनको	-10.031
▁ज़िम्मे	-10.0313
▁ट्रैक	-10.0323
▁सर्वेक्षण	-10.0351
▁एंड	-10.0355
▁मिनट	-10.036
prana	-10.037
erje	-10.037
▁नोड	-10.0372
▁उपक्रम	-10.038
45	-10.0381
56	-10.0397
▁अर्थात	-10.0401
▁कर्तव्य	-10.0402
▁समाप्ति	-10.0413
समय	-10.0414
prh	-10.0415
कर्ताओं	-10.0419
▁शिखर	-10.0421
▁घटक	-10.0434
▁धैर्य	-10.0453
▁बादशाह	-10.0454
▁जहाज	-10.0459
▁भंडार	-10.0467
▁वैसे	-10.0475
▁राजनैतिक	-10.0479
▁सन्तान	-10.0481
▁मुझसे	-10.05
▁इन्कार	-10.05
ऑ	-10.05
75	-10.0507
निर्देश	-10.0526
▁पंजीकरण	-10.0537
▁सहज	-10.054
▁उच्चतम	-10.0547
▁शासक	-10.0555
▁फॉर	-10.057
op	-10.0571
▁ब्रा	-10.0585
▁काफ़ी	-10.0587
▁अन्त	-10.059
▁कार्यान्वयन	-10.0596
▁निकाय	-10.0596
▁चमक	-10.0604
अज़ाब	-10.0614
कुफ़्र	-10.0624
▁शारीरिक	-10.0628
▁डाउनलोड	-10.0655
▁अधिसूचना	-10.0655
▁अदालत	-10.0668
दृ	-10.0704
▁अभिव्यक्ति	-10.0707
▁मुद्दों	-10.0707
▁सशक्त	-10.0712
▁सुभाष	-10.0714
▁निहित	-10.0716
▁न्यास	-10.0738
▁कनेक्शन	-10.0754
▁अक्षर	-10.0758
▁पाठ्यक्रम	-10.076
¤1	-10.0771
▁पेंशन	-10.0773
▁एड	-10.0775
▁डाय	-10.0788
▁अमेरिकी	-10.08
▁शैक्षिक	-10.08
▁यूसुफ	-10.0805
▁विवेक	-10.0809
70	-10.081
▁प्रबंधक	-10.081
▁उठाया	-10.0811
▁सुविधाओं	-10.0816
▁बाग	-10.0818
▁चुनौती	-10.082
▁गतिविधि	-10.0822
▁लिखित	-10.0823
▁जिनसे	-10.0837
88	-10.0845
▁चुने	-10.0845
▁उलट	-10.0847
▁ताकत	-10.0851
▁परिवहन	-10.086
प्राप्त	-10.0861
▁आंख	-10.0876
j	-10.088
ावली	-10.0881
लिप	-10.0884
▁of	-10.0887
▁घंटे	-10.0907
▁बटन	-10.0913
▁प्रोत्साहित	-10.0914
▁उल्	-10.0914
कुछ	-10.0923
▁जिले	-10.0928
▁ज्ञात	-10.0928
▁श्रृंखला	-10.0934
▁नक़ल	-10.0937
▁उत्साह	-10.0941
▁संगम	-10.0944
▁31	-10.0947
लाइन	-10.0949
▁28	-10.0949
▁गणना	-10.0964
▁दाखिल	-10.0981
▁अगला	-10.099
▁कार्यवाही	-10.0995
▁समीक्षा	-10.1002
राज्य	-10.1002
▁हॉ	-10.1008
▁पूज्य	-10.1015
▁निगरानी	-10.1022
▁फिरऔन	-10.1022
▁यूनिट	-10.1029
48	-10.1035
▁अकबर	-10.1043
▁रेलवे	-10.1049
▁रहमत	-10.105
▁मांस	-10.1056
▁अन्यथा	-10.1061
▁शोक	-10.1061
▁सलाम	-10.1063
▁ज़िन्दगी	-10.1063
▁परिवर्तित	-10.107
▁मुश्किल	-10.1084
▁समर्पित	-10.1084
▁तलाश	-10.1092
▁सूत्र	-10.1094
बूझ	-10.1097
▁केरल	-10.1101
▁मुक़र्रर	-10.1125
▁मुलाकात	-10.1125
▁आवाज	-10.1131
▁स्कीम	-10.1135
▁महाराष्ट्र	-10.1144
▁संयंत्र	-10.1146
▁कलकत्ता	-10.1152
▁इंटरनेट	-10.1159
▁सॉफ्टवेयर	-10.1159
▁संपादक	-10.1159
▁फेंक	-10.1174
▁साझीदार	-10.1178
▁मस्तिष्क	-10.1187
▁राजस्थान	-10.1197
▁मर्द	-10.1204
▁मिलेगा	-10.1206
▁अनुपात	-10.1215
▁पुस्तकालय	-10.1219
▁साहस	-10.1233
▁(3)	-10.1234
▁सभ्यता	-10.1242
▁चालू	-10.1249
▁समग्र	-10.1253
▁तथापि	-10.1264
▁अस्थि	-10.1269
▁लगते	-10.1273
▁छिप	-10.1273
▁तस्वीर	-10.1277
▁मिसाल	-10.1284
▁विभाजन	-10.1291
▁अन्तर्	-10.1299
▁पृष्ठभूमि	-10.1306
47	-10.1318
▁आसपास	-10.1319
▁लानेवालो	-10.1327
ँग	-10.1337
▁जरिए	-10.1347
▁टैग	-10.1355
▁सचेत	-10.1362
▁फार्म	-10.1371
▁नुकसान	-10.1375
▁गुफा	-10.1377
▁सतह	-10.1388
▁प्रारंभिक	-10.1389
▁संदेह	-10.139
▁अचानक	-10.1404
▁उक्त	-10.1412
गामी	-10.1418
▁निष्क्रिय	-10.1426
▁श्रेष्ठ	-10.1432
▁नंबर	-10.1434
र्पण	-10.1435
▁भेजें	-10.1441
▁प्ला	-10.1447
▁कश्मीर	-10.1453
▁जलवायु	-10.1453
▁जुलाई	-10.1468
▁हवाई	-10.1472
▁महात्मा	-10.1476
▁कदापि	-10.1482
▁कागज	-10.1488
▁लंबे	-10.1497
▁छाप	-10.1519
ावधि	-10.1519
▁मोबाइल	-10.1524
▁मंजूर	-10.1525
▁दरमियान	-10.1539
▁द्वितीय	-10.1546
▁पत्रिका	-10.1563
▁दोहरा	-10.1564
▁प्राधिकरण	-10.1582
▁मकान	-10.1587
▁फ़ॉन्ट	-10.1589
▁मॉडल	-10.1604
▁क्षमाशील	-10.1621
राष्ट्रीय	-10.1622
▁सजदा	-10.1626
संख्य	-10.1628
▁दुखद	-10.1633
देख	-10.1651
क़ियामत	-10.1655
▁जन्नत	-10.1655
▁प्रतिष्ठा	-10.1662
▁इकट्ठा	-10.1676
▁पारंपरिक	-10.1676
▁राजनीति	-10.171
▁समर्थित	-10.1717
▁प्यार	-10.1727
▁चोट	-10.1738
▁आकर्षित	-10.1741
▁पुरानी	-10.1742
▁अनुदान	-10.1744
▁ज़्यादा	-10.1749
▁साझा	-10.176
▁नेअमत	-10.1764
▁जापान	-10.1772
लिस	-10.1773
▁चैनल	-10.1787
▁कंपनियों	-10.1793
▁अनक़रीब	-10.1807
▁आमतौर	-10.1808
▁पुष्टि	-10.1808
▁अवज्ञा	-10.1814
▁सागर	-10.1818
▁नियंत्रित	-10.1837
▁बिलकुल	-10.1838
▁कम्पनी	-10.1843
अनु	-10.1843
▁घटनाओं	-10.1845
भ्र	-10.1848
शोध	-10.1859
▁परमाणु	-10.1859
एंगे	-10.1868
▁लकड़ी	-10.1874
iii	-10.1876
▁भंडारण	-10.1881
▁विद्यालय	-10.1882
▁नकद	-10.1885
▁अन्तर	-10.1886
▁नस्ल	-10.189
▁सुदृढ़	-10.1896
▁प्रेस	-10.1897
▁फ़रमा	-10.1905
▁मोड़	-10.191
▁ईमेल	-10.1924
▁नाग	-10.1943
▁समावेश	-10.1949
▁फरवरी	-10.1956
▁निपटा	-10.1957
▁संविदा	-10.1964
▁पट्ट	-10.1966
▁तत्वदर्शी	-10.1971
www	-10.1978
▁नवान्वेषण	-10.1978
▁प्रशासनिक	-10.1989
▁गेंद	-10.199
▁2000	-10.1995
▁अस्पताल	-10.2001
▁मृत	-10.2001
▁व्यावसायिक	-10.2023
▁कुमार	-10.2027
▁ज़िन्दा	-10.2031
▁बिंदु	-10.2031
▁विनिमय	-10.2046
▁सब्र	-10.2054
▁नहरें	-10.2054
▁संसदीय	-10.2055
▁बनाये	-10.2055
▁चेतावनी	-10.2069
स्को	-10.2072
▁रिक्त	-10.2072
▁उपस्थिति	-10.208
▁शक्तियों	-10.2099
▁विरासत	-10.2106
ate	-10.2107
▁निराश	-10.2113
▁खराब	-10.2123
25	-10.2124
▁प्रजाति	-10.213
▁फोटो	-10.2147
▁थोड़े	-10.2148
▁ढांचे	-10.2167
▁बाह्य	-10.2176
▁अपेक्षित	-10.2183
वस्तु	-10.2196
06	-10.2203
▁बस्ती	-10.2215
2019	-10.2215
▁प्रभुत्वशाली	-10.2221
▁शुरु	-10.2225
▁भेंट	-10.2237
▁खड़ी	-10.2239
राष्ट्र	-10.2242
▁मुसीबत	-10.2244
▁चूंकि	-10.2252
▁आकृति	-10.2274
ter	-10.2297
▁सकेंगे	-10.2305
▁इल्म	-10.2306
▁हटकर	-10.2314
32	-10.2317
▁परिसर	-10.2321
▁खेत	-10.2323
▁बारगाह	-10.2339
▁ईमानवालों	-10.2343
▁सांसारिक	-10.2368
▁रहस्य	-10.2377
▁अन्ततः	-10.2379
▁कलाकार	-10.2388
▁बुद्ध	-10.2395
info	-10.2406
▁गुमराह	-10.2406
▁पृथक	-10.2422
▁परिचय	-10.2422
(	-10.2433
▁शिशु	-10.2434
रियल	-10.2434
▁मस्जिद	-10.2438
▁टैब	-10.2438
▁समन्वय	-10.2446
▁दोबारा	-10.2446
▁चरित्र	-10.2469
▁राजधानी	-10.2469
▁सिविल	-10.2493
▁मिलेगी	-10.2494
▁युवाओं	-10.25
▁संग्रहालय	-10.252
▁विनष्ट	-10.2525
▁सम्पूर्ण	-10.2531
▁छुपा	-10.2531
▁क़िस्म	-10.2532
▁अनुग्रह	-10.2547
▁उपयोगकर्ता	-10.2549
▁लंबी	-10.2558
▁सफेद	-10.2572
92	-10.258
गृह	-10.2594
▁धातु	-10.2596
▁तेरी	-10.2603
39	-10.2604
▁हिंसा	-10.2606
▁एकमात्र	-10.2613
▁प्लगइन	-10.262
▁चेहरे	-10.262
▁तयशुदा	-10.2644
▁दाख़िल	-10.266
▁मिलियन	-10.2662
▁दैनिक	-10.2668
▁कुरान	-10.267
▁स्वस्थ	-10.2673
▁अस्थायी	-10.2692
होंने	-10.2699
▁अवतरित	-10.27
▁आखिर	-10.2708
▁थोड़ी	-10.2721
पोर्ट	-10.2753
▁समझौते	-10.2765
▁वस्त्र	-10.2786
ation	-10.2826
ul	-10.2855
क़ायम	-10.2856
क्रो	-10.2862
▁ऑडियो	-10.2862
▁इमारत	-10.2871
▁तुरंत	-10.2871
▁लिमिटेड	-10.2903
▁सुविधाएं	-10.2906
जैसे	-10.292
▁सिंध	-10.2921
▁विभाजित	-10.2936
▁सर्वोत्तम	-10.2944
▁अनुसूचित	-10.2944
▁सराहना	-10.2944
▁दिव्य	-10.2949
▁बच्चा	-10.2953
▁गिरफ्तार	-10.2969
▁निरीक्षण	-10.2969
▁हिकमत	-10.2978
▁मुर्द	-10.2987
¤1⁄4	-10.2994
▁अनुमोदन	-10.3002
▁संपादित	-10.3019
▁संध्या	-10.3019
▁ऑंख	-10.3019
आईटी	-10.3038
बेहिश्त	-10.3052
▁सितंबर	-10.3061
▁पाँच	-10.3061
▁स्टेशन	-10.3072
▁लाइसेंस	-10.3077
▁द्रव	-10.3081
▁संवर्धन	-10.3085
▁बिगाड़	-10.3086
▁हिमालय	-10.3111
▁परेशान	-10.3111
▁ठोस	-10.3111
▁उपखंड	-10.3129
▁हार्दिक	-10.3144
▁संपादन	-10.3145
▁सतत	-10.3158
▁खत्म	-10.3161
▁क़ुरआन	-10.3161
शोथ	-10.3174
\	-10.3194
▁प्रतिष्ठित	-10.3195
▁प्रदूषण	-10.3203
▁रेडियो	-10.3222
▁हँस	-10.3227
▁अभिलाभ	-10.3237
▁प्रचलित	-10.3246
▁चौड़ाई	-10.3254
▁द्विपक्षीय	-10.3288
▁ऊँचा	-10.3306
▁स्वचालित	-10.3314
मोहम्मद	-10.3314
▁गहन	-10.3331
▁फ्रांस	-10.334
▁क़दम	-10.3341
▁परिभाषित	-10.3348
▁अग्रणी	-10.3352
▁कॉलेज	-10.3359
▁फ़िल्म	-10.3366
36	-10.3372
▁उतना	-10.3385
च्छेद	-10.3406
▁डिजाइन	-10.3409
▁निशान	-10.3412
शासित	-10.3414
▁स्वाभाविक	-10.3417
▁मछली	-10.3417
▁जहन्नम	-10.3435
▁विपणन	-10.3435
▁कर्नाटक	-10.3443
▁निष्कर्ष	-10.3443
▁संक्रमण	-10.3443
▁जिहाद	-10.3443
▁कारोबार	-10.3443
▁कपड़े	-10.3458
▁मुंह	-10.3471
▁विद्या	-10.3505
▁बहुतेरे	-10.3514
▁भक्ति	-10.3529
▁संरक्षक	-10.353
▁गुजर	-10.3545
▁दिसंबर	-10.3548
▁मज़बूत	-10.3565
▁आजादी	-10.3575
▁वकील	-10.3585
▁डिफ़ॉल्ट	-10.3592
▁टिप्पणी	-10.3601
▁हथियार	-10.3609
▁पैकेज	-10.3628
▁ऊंचाई	-10.3634
▁धन्यवाद	-10.3654
ाधीन	-10.3676
▁भ्रम	-10.3735
विश्वास	-10.3735
मोमिनीन	-10.3748
▁महीनों	-10.3752
▁सामूहिक	-10.376
▁याचिका	-10.3788
▁क़त्ल	-10.3796
▁रुचि	-10.38
▁दुर्घटना	-10.3805
▁चाहेंगे	-10.3806
▁बजट	-10.3807
▁ईरान	-10.3811
▁स्वर्ण	-10.3812
जितनी	-10.3831
▁सत्यापन	-10.3841
▁त्वचा	-10.385
▁वरिष्ठ	-10.3859
हमारे	-10.3862
▁अन्तर्गत	-10.3864
▁ड्राइव	-10.3868
▁अग्रिम	-10.3908
▁हिंदुस्तान	-10.3914
uot	-10.3923
▁बाध्य	-10.3923
▁वार्ता	-10.3924
▁लूत	-10.3927
▁उद्यान	-10.3932
59	-10.3939
▁पैमाने	-10.3941
▁पीढ़ी	-10.395
▁पासवर्ड	-10.3959
▁डॉलर	-10.396
भूमि	-10.3967
▁लिपि	-10.3986
विमर्श	-10.3987
▁कनेक्ट	-10.3987
▁उल्लेखनीय	-10.399
▁क्रिकेट	-10.3996
▁शिक्षण	-10.4003
▁अनुज्ञात	-10.4042
क्योंकि	-10.4055
▁डेस्कटॉप	-10.406
▁जम्मू	-10.406
▁नौकरी	-10.4061
▁ग़ौर	-10.4077
▁इसराईल	-10.4088
▁नेशनल	-10.4099
▁माइक्रो	-10.4106
व्यवहार	-10.4111
▁आंध्र	-10.4116
▁अंतरिक्ष	-10.4125
▁प्रारम्भ	-10.4134
▁तुम्हे	-10.4156
▁रसायन	-10.4162
▁>>	-10.4171
▁विरूद्ध	-10.4181
\\	-10.42
▁असाधारण	-10.4209
सिंह	-10.4215
▁यथास्थिति	-10.4219
▁तकलीफ़	-10.4221
▁पूर्वावलोकन	-10.4227
▁फ़िरऔन	-10.4246
▁फ़िल्टर	-10.4246
▁अहले	-10.4248
▁प्रतियोगिता	-10.4274
▁तीसरे	-10.4284
▁अर्जित	-10.4285
▁सम्भव	-10.4298
▁दर्दनाक	-10.4303
▁ऊतक	-10.4318
▁इंडियन	-10.4322
▁पौधों	-10.4331
▁मातृ	-10.4331
▁डूब	-10.4342
▁गौरव	-10.4352
▁2006	-10.4357
मुसलमानों	-10.4357
ड्र	-10.4369
▁पंजीकृत	-10.4369
▁दुकान	-10.4371
स्थापन	-10.4377
▁भागीदार	-10.4377
▁प्रेषित	-10.4388
▁संहिता	-10.4389
▁घूम	-10.4391
▁फिलीस्तीन	-10.4398
बॉक्स	-10.44
▁अक्तूबर	-10.4407
▁प्रसंग	-10.4428
▁चतुर	-10.4442
▁दुश्मन	-10.4455
▁ख़ौफ	-10.4466
▁खतरा	-10.4466
▁साझेदार	-10.4484
▁संभाल	-10.4502
▁गठित	-10.4523
अच्छा	-10.4532
▁वाक्य	-10.4551
▁ध्वज	-10.4561
▁शक्तिशाली	-10.4566
▁अभिदाता	-10.4574
detail	-10.4581
▁फायदा	-10.46
▁आलोचना	-10.462
press	-10.462
▁कथन	-10.4635
▁संक्षिप्त	-10.4639
समझ	-10.4657
▁दलील	-10.4658
यहूद	-10.4675
▁उल्लंघन	-10.4678
▁काफिरों	-10.4701
▁ढांचा	-10.4717
▁सुसंगत	-10.4718
ग्रन्थ	-10.4748
▁हलाक	-10.4755
▁निष्पादन	-10.4757
▁गाँव	-10.4757
▁कोविन्द	-10.4758
▁स्नातक	-10.4797
▁परिस्थिति	-10.4804
▁विद्रोह	-10.4826
▁सम्पर्क	-10.4826
▁पर्यटक	-10.4837
▁दुःख	-10.4856
▁परम्परा	-10.4857
▁1961-201	-10.4876
▁चुनौतियों	-10.4876
▁डिजिटल	-10.4886
▁औपचारिक	-10.4916
▁कॉन्फ़िगर	-10.4916
▁अनुपालन	-10.4928
▁फ़रिश्तों	-10.4947
ect	-10.4948
▁संभावित	-10.4977
▁अकेले	-10.4987
▁टुकड़े	-10.4997
▁नवंबर	-10.4997
▁वंचित	-10.5018
०००	-10.5032
▁जयंती	-10.5058
▁बस्तियों	-10.5079
▁अहमद	-10.5081
▁क़ुबूल	-10.5089
▁निर्माता	-10.5094
▁स्वामित्व	-10.5099
▁पंख	-10.5101
▁चिकित्सक	-10.5109
▁रिकार्ड	-10.5109
▁कृपा	-10.5121
▁परसतिश	-10.513
▁अनाज	-10.515
▁साक्ष्य	-10.515
▁यहूदी	-10.5151
▁जनजाति	-10.5158
ग़रज़	-10.5167
▁टाइम	-10.5171
▁पिछली	-10.5181
▁विद्यार्थी	-10.5181
▁समुचित	-10.5202
▁आबादी	-10.5202
htm	-10.5231
▁विष्णु	-10.5243
▁‘‘	-10.5245
▁संचालित	-10.5264
▁कमज़ोर	-10.5264
presidentofindia	-10.5274
▁शिल्प	-10.5275
▁ब्राह्मण	-10.5285
▁for	-10.5285
release	-10.5295
▁रिजर्व	-10.5306
▁निष्ठा	-10.5308
▁जनरल	-10.5318
▁मुल्क	-10.5331
▁छुटकारा	-10.5337
▁सरपरस्त	-10.5368
ण्ट	-10.5375
▁मौलिक	-10.539
▁ब्रिटेन	-10.54
▁रवीन्द्रनाथ	-10.54
▁आमंत्रित	-10.5411
रोपण	-10.5413
▁इलाज	-10.5438
▁कोलकाता	-10.5442
▁पंडित	-10.5443
▁छोड	-10.5463
पट्टी	-10.5466
▁ज़बान	-10.5477
▁स्मारक	-10.5506
▁स्मरण	-10.5506
▁अन्तिम	-10.5583
▁वारिस	-10.5592
▁शेख	-10.5593
▁उत्तरदायी	-10.5603
▁किलोमीटर	-10.5613
▁इलेक्ट्रॉनिक	-10.5646
▁विनाश	-10.5649
ख़बरी	-10.5653
▁आचरण	-10.5657
▁ज़कात	-10.5668
▁आदत	-10.5672
▁प्रयोक्ता	-10.5678
शुल्क	-10.568
▁संशोधित	-10.5689
▁दिमाग	-10.569
▁पौधे	-10.5691
▁बिन्दु	-10.5711
▁स्वप्न	-10.5732
▁अग्नि	-10.5745
▁क़रीब	-10.5765
▁मासिक	-10.5777
▁आउटपुट	-10.5787
ाध्यक्ष	-10.5788
▁तापमान	-10.5798
▁इन्सान	-10.5798
▁झील	-10.5807
▁हैदराबाद	-10.5831
▁शंकर	-10.5848
▁प्रोजेक्ट	-10.5853
▁भर्ती	-10.5854
▁ब्राउज़	-10.5864
_	-10.5864
निशानियों	-10.587
▁बल्लेबाज	-10.5886
▁दिलचस्प	-10.5908
▁रणनीति	-10.5908
▁इसीलिए	-10.5931
▁गहरे	-10.5942
▁तमिलनाडु	-10.5953
▁पंचायत	-10.5964
▁इनपुट	-10.5964
▁फज़ल	-10.5976
▁महाराजा	-10.5998
▁शराब	-10.6001
▁पोजीशन	-10.6009
▁सिंचाई	-10.6009
▁तुर्की	-10.6009
▁कम्प्यूटर	-10.6042
▁खनिज	-10.6042
▁प्रसन्न	-10.6047
▁#-#-#-#-#	-10.6065
▁संतुष्ट	-10.6065
▁ज़रिए	-10.6065
▁हाज़िर	-10.6076
आख़ेरत	-10.6099
▁सकारात्मक	-10.6099
▁एहद	-10.6104
▁अभ्यास	-10.611
▁शैक्षणिक	-10.611
▁अब्दुल	-10.6111
▁बहादुर	-10.6121
यन्त्र	-10.6125
▁साझी	-10.6136
▁अकेला	-10.6145
▁विभेद	-10.6155
▁सैन्य	-10.6168
▁साहब	-10.617
स्थिति	-10.6172
स्क्रिप्ट	-10.6178
age	-10.6179
ात्मा	-10.618
▁संदेय	-10.619
▁com	-10.6201
▁नवम्बर	-10.6201
▁कुफ्र	-10.6201
▁अमरीकी	-10.6224
▁एहसान	-10.6235
क़ुदरत	-10.6235
▁तरीकों	-10.6235
तुम्हारे	-10.6243
▁सहारा	-10.626
▁be	-10.6266
▁शानदार	-10.627
▁संवेदनशील	-10.6293
▁संतोष	-10.6293
▁विक्रय	-10.6293
वर्धन	-10.6301
▁कीजिए	-10.6313
▁मुद्दे	-10.6328
▁प्रसाद	-10.6341
▁आकलन	-10.6363
▁प्रसंस्करण	-10.6374
#	-10.6385
▁अवधारणा	-10.6385
▁तकलीफ	-10.6406
मक्ख	-10.6406
▁संतुलन	-10.6432
▁उतनी	-10.6433
पैग़म्बर	-10.6442
▁रिकॉर्ड	-10.6444
▁व्यवस्थित	-10.6444
▁प्रतिकूल	-10.6444
▁वनस्पति	-10.6455
▁दाहिने	-10.6455
▁उल्लिखित	-10.6515
▁मिश्रण	-10.655
▁सच्ची	-10.655
▁पथभ्रष्ट	-10.6561
▁दुर्भाग्य	-10.6561
▁विश्वसनीय	-10.6573
▁चाँद	-10.6586
▁श्वेत	-10.6597
▁सम्राट	-10.6609
▁वरीयता	-10.6645
▁मिस्र	-10.6645
▁पीड़ित	-10.6693
▁खतरे	-10.6718
▁अलबत्ता	-10.6729
▁ढेर	-10.6733
▁कामयाब	-10.6741
▁आह्वान	-10.6765
तसबीह	-10.6765
सूचना	-10.6766
▁सुन्दर	-10.6803
बेहश्त	-10.6804
▁टिकट	-10.6804
नहीं	-10.681
▁औजार	-10.6826
▁क्रमशः	-10.6838
▁तीर्थ	-10.6839
मुझे	-10.684
▁कार्बन	-10.685
▁प्रशांत	-10.6874
▁श्रीमती	-10.6875
▁चैतन्य	-10.6886
▁उत्सव	-10.6887
▁बरकत	-10.6915
▁घनिष्ठ	-10.6923
▁डिग्री	-10.6923
▁प्रजनन	-10.6925
▁अमरीका	-10.6935
▁अनुमोदित	-10.6948
▁प्रासंगिक	-10.6948
▁मजबूर	-10.6948
▁एजेंसी	-10.696
▁व्यावहारिक	-10.6972
▁क्रेडिट	-10.6985
▁फायदे	-10.6997
भोज	-10.6998
▁पुराण	-10.701
लिखित	-10.7026
▁क़ादिर	-10.7034
▁टाइप	-10.7035
▁दक्षता	-10.7036
परीक्षा	-10.7039
▁किन्हीं	-10.7072
▁प्राधिकृत	-10.7072
▁मुताबिक	-10.7072
▁भौगोलिक	-10.7084
▁कार्यकलाप	-10.7084
▁संपदा	-10.7097
▁जवाहरलाल	-10.7109
▁राजकुमार	-10.7134
▁हिन्दुस्तान	-10.7134
▁रेशम	-10.7149
▁प्रोटोकॉल	-10.7159
▁चट्टान	-10.7159
▁प्रोफेसर	-10.7172
औ	-10.7651
‘	-10.7902
&	-11.077
{	-11.2782
[	-11.3692
“	-11.7299
°	-12.0163
@	-12.3059
⁄	-13.0066
	-16.4719
̈	-17.9707
¿	-17.9708
̧	-17.9709
	-17.971
	-17.9711
<	-17.9712
	-17.9712
