<pad>	0
</s>	0
<unk>	0
¦	-1.28591
▁¦	-1.45536
▁	-3.72697
a	-3.87313
𐋇	-4.20839
an	-4.51708
▁.	-4.58339
ar	-4.64246
▁,	-4.64651
agus	-4.88182
i	-4.95653
d	-5.01834
s	-5.08375
n	-5.08543
dh	-5.08547
na	-5.12204
í	-5.1221
e	-5.17288
r	-5.18176
le	-5.19412
t	-5.31022
go	-5.33163
is	-5.37489
do	-5.62326
-	-5.71321
ag	-5.71445
il	-5.74463
in	-5.76255
ú	-5.84866
bh	-5.87487
f	-5.93118
c	-5.98265
ch	-5.99229
ir	-6.00298
g	-6.00627
ithe	-6.00644
mh	-6.04184
igh	-6.09338
covid	-6.13092
tá	-6.13281
h	-6.13923
de	-6.14517
nó	-6.16432
ó	-6.19573
-19¦	-6.19633
m	-6.20957
p	-6.24279
b	-6.25701
▁’	-6.27515
mar	-6.29892
ach	-6.3143
o	-6.32032
seo	-6.36777
anna	-6.39503
é	-6.40476
ta	-6.42482
tú	-6.4635
sa	-6.50037
chun	-6.51475
aoine	-6.51623
eile	-6.53775
má	-6.56273
la	-6.5869
as	-6.61429
bhfuil	-6.62777
▁(	-6.6556
u	-6.67789
ann	-6.69485
l	-6.72097
cás	-6.73245
sé	-6.75431
íonn	-6.76791
ort	-6.77294
th	-6.78567
atá	-6.80289
aí	-6.80826
ná	-6.84528
adh	-6.86146
iad	-6.88154
eann	-6.9218
ní	-6.92237
sin	-6.95398
féid	-6.99452
faoi	-7.00058
cov	-7.00284
iú	-7.03616
al	-7.04017
,	-7.04828
.	-7.06415
▁)	-7.08974
víreas	-7.09054
tar	-7.10023
duine	-7.10486
aon	-7.11581
nach	-7.13003
á	-7.13496
íos	-7.13704
sláinte	-7.14611
te	-7.15147
leis	-7.16881
uair	-7.16986
úsáid	-7.1702
nío	-7.20019
air	-7.21266
sh	-7.21979
mó	-7.23537
1	-7.23735
tear	-7.2447
aibh	-7.26295
ba	-7.26663
hu	-7.29718
dhéana	-7.3121
lá	-7.31472
bhí	-7.3307
sars	-7.33749
ra	-7.34299
eadh	-7.37097
bás	-7.37177
vacsaín	-7.37647
ón	-7.38658
5	-7.39373
idh	-7.3982
éis	-7.40032
aithe	-7.41306
3	-7.41921
gach	-7.42196
4	-7.42346
7	-7.44189
im	-7.4479
eith	-7.44884
aghaidh	-7.44947
rud	-7.45208
chur	-7.45287
tha	-7.46144
idir	-7.47863
gh	-7.47985
tuairiscío	-7.49133
áil	-7.50391
féin	-7.51333
am	-7.52897
gur	-7.5308
fh	-7.55279
comharthaí	-7.55756
6	-7.56112
each	-7.56833
árta	-7.58654
fhéadfa	-7.58973
roinnt	-7.59555
duit	-7.59655
▁¦2020¦	-7.59655
líon	-7.60228
ina	-7.60815
mb	-7.60954
ic	-7.62086
8	-7.62177
2	-7.62466
thug	-7.64094
den	-7.65838
chóir	-7.65912
trí	-7.67154
0	-7.67322
déan	-7.67948
eas	-7.69975
tástáil	-7.7114
9	-7.71281
don	-7.72162
chomh	-7.72356
san	-7.73082
ard	-7.7351
dói	-7.73803
aíonn	-7.75794
acha	-7.76443
ion	-7.76612
ráig	-7.76647
irt	-7.78142
áin	-7.78797
nua	-7.78988
fre	-7.79121
án	-7.79419
se	-7.80298
roimh	-7.80935
isteach	-7.81681
mór	-7.81847
sonra	-7.83662
eanna	-7.83686
amach	-7.84085
gal	-7.84499
ne	-7.8483
os	-7.8612
anacht	-7.86561
co	-7.87138
leat	-7.8728
aigh	-7.88494
fu	-7.89948
isin	-7.90049
ul	-7.90376
tr	-7.90594
gan	-7.90618
v	-7.91563
chuir	-7.91776
ig	-7.91832
dí	-7.92172
-2¦	-7.93116
ce	-7.94085
y	-7.94105
mí	-7.94133
fáil	-7.94792
mháin	-7.95121
chás	-7.95351
tástála	-7.95355
ionfhabhtaithe	-7.96973
coronavirus	-7.97436
nn	-7.98669
aonta	-7.9867
ionfhabht	-7.9875
gheall	-7.9957
chuig	-8.00165
id	-8.00654
có	-8.00699
it	-8.00966
áirí	-8.01814
cé	-8.02785
tuga	-8.03006
tír	-8.03117
linn	-8.03303
aol	-8.04465
cha	-8.04597
teaghla	-8.05111
re	-8.05946
leor	-8.06106
lú	-8.06461
aip	-8.06696
eabhra	-8.07013
lé	-8.07089
1¦	-8.07394
lámha	-8.07447
sín	-8.07835
aois	-8.0864
réir	-8.09269
dá	-8.097
íortha	-8.10013
lean	-8.10401
náisiún	-8.10979
odh	-8.11311
0¦	-8.11926
ph	-8.11986
bhaile	-8.12195
chuid	-8.12208
fháil	-8.12293
ma	-8.12296
vír	-8.13372
tinn	-8.13619
ol	-8.14268
eola	-8.14439
scaipea	-8.14464
íocht	-8.15166
acu	-8.1629
gcás	-8.16325
clúda	-8.16328
▁"	-8.16386
mura	-8.16575
me	-8.16998
ospidé	-8.17211
w	-8.17499
sna	-8.17644
measc	-8.17857
dtí	-8.18382
fógra	-8.18506
ró	-8.18627
maidi	-8.19312
▁-	-8.19794
cho	-8.19808
bei	-8.19921
aghaidhe	-8.21687
eacha	-8.21886
4¦	-8.22069
neamh	-8.22684
oir	-8.22962
léir	-8.22968
“	-8.23858
chéad	-8.23999
ionad	-8.24207
eamh	-8.24757
laghd	-8.25214
comh	-8.25269
úil	-8.25443
othair	-8.25943
scoile	-8.26209
áit	-8.26425
cur	-8.28432
bhain	-8.28824
acht	-8.28848
inn	-8.28858
eanái	-8.28868
pháist	-8.2976
hiomláin	-8.30978
nd	-8.31548
riospráid	-8.31719
cúram	-8.31719
thabha	-8.32064
uas	-8.32136
fuair	-8.32196
fad	-8.32562
oibl	-8.33187
k	-8.33217
ath	-8.3356
um	-8.33923
eoir	-8.34005
íochta	-8.34826
st	-8.35592
gá	-8.36123
thar	-8.36172
liú	-8.36265
cuirea	-8.36513
bearta	-8.37107
hcov	-8.37122
bhfeidhm	-8.37125
cuir	-8.37134
faoin	-8.38445
maith	-8.38673
▁;	-8.38813
5¦	-8.38826
▁¦10	-8.38873
▁'	-8.39456
tu	-8.39624
chaithea	-8.39959
leo	-8.40113
mhéad	-8.40378
siú	-8.40454
athr	-8.41559
all	-8.41934
agat	-8.41939
seirbhís	-8.4271
blia	-8.428
stái	-8.42823
dt	-8.43128
éil	-8.43132
iomlán	-8.43336
cu	-8.43783
fó	-8.44492
anta	-8.44652
mbea	-8.44718
lo	-8.44833
síne	-8.45274
cr	-8.45844
leighis	-8.46114
2¦	-8.46699
wh	-8.47256
ord	-8.47375
aibreá	-8.47818
shampla	-8.48695
leith	-8.48872
mo	-8.48881
oc	-8.48937
▁¦2¦	-8.48977
cinn	-8.49093
on	-8.49245
leibhé	-8.49588
teagmhá	-8.50042
3¦	-8.50292
níl	-8.50456
dhochtúir	-8.50473
imh	-8.50966
ceart	-8.51184
the	-8.51526
riosca	-8.52284
srianta	-8.52445
ghala	-8.52483
lár	-8.52489
leana	-8.53228
▁).	-8.53564
glao	-8.54145
dhá	-8.54744
lua	-8.54854
dú	-8.55431
mbei	-8.55706
thástá	-8.56004
comhairle	-8.56178
▁¦14	-8.56189
li	-8.56374
be	-8.56437
othar	-8.56684
beal	-8.56902
éir	-8.56986
omhain	-8.57002
dearfach	-8.57139
rial	-8.57175
oibr	-8.57177
ge	-8.57776
lu	-8.58695
han	-8.58959
gc	-8.5909
chéi	-8.59214
éal	-8.59612
bia	-8.6095
ith	-8.61404
thuairisc	-8.61859
óstach	-8.6186
rialtas	-8.62042
tí	-8.62047
bhei	-8.62125
leath	-8.6225
▁¦20	-8.62399
lacha	-8.62419
aire	-8.62542
ceann	-8.62894
om	-8.63181
luath	-8.63286
ár	-8.63704
gníomh	-8.63902
seachtain	-8.64946
scoil	-8.65435
orthaí	-8.65672
sóisial	-8.65964
rón	-8.65987
▁¦19	-8.66116
dúna	-8.66321
íoch	-8.66345
fhógraío	-8.6641
tora	-8.66504
che	-8.66564
mhór	-8.66579
coróin	-8.67016
casacht	-8.67016
mhí	-8.67019
tarchur	-8.67326
bhféadfa	-8.68134
fear	-8.68282
déana	-8.68448
8¦	-8.68524
eo	-8.68892
ainn	-8.68904
beag	-8.68925
iom	-8.69018
srian	-8.69578
fhógair	-8.70241
chomhartha	-8.70286
for	-8.71013
ip	-8.71082
háir	-8.71651
rian	-8.71869
artha	-8.71988
líne	-8.72368
tháin	-8.72519
roinn	-8.72765
▁),	-8.729
cosú	-8.73393
amhail	-8.73578
mers	-8.73581
vacsaíní	-8.73648
aer	-8.73765
staidé	-8.74362
coraintín	-8.74711
minic	-8.74713
bhás	-8.7472
cuairt	-8.75852
ghnáth	-8.75861
tioncha	-8.75867
óirí	-8.75933
céim	-8.76
fhaigh	-8.76003
thart	-8.76252
céanna	-8.76261
mheas	-8.76362
milliú	-8.77024
wu	-8.77253
oibre	-8.77623
ála	-8.77821
chosaint	-8.782
ialtóg	-8.782
int	-8.78784
oscailt	-8.79378
ceal	-8.79635
iúl	-8.79936
teagmhála	-8.80275
rá	-8.80426
éagsúla	-8.80596
cheart	-8.80718
con	-8.80931
to	-8.81183
cl	-8.81272
osta	-8.81383
ur	-8.81639
paindéim	-8.82963
dochtúir	-8.83049
iarracht	-8.83081
smuig	-8.83219
cabhr	-8.83498
úirt	-8.83887
bu	-8.84232
obair	-8.84304
00¦	-8.84508
▁¦24	-8.84998
6¦	-8.85003
thor	-8.85549
9¦	-8.85646
dó	-8.85919
súil	-8.86247
airde	-8.86496
taisteal	-8.86848
príomh	-8.86891
▁¦11	-8.87029
ráta	-8.87086
ing	-8.87619
éine	-8.88046
léin	-8.8811
oideacha	-8.88166
mbás	-8.89059
theas	-8.89085
bain	-8.89088
oifig	-8.89251
taine	-8.89386
láthair	-8.89455
próitéin	-8.89461
,000¦	-8.8962
fhéid	-8.89901
cheann	-8.90129
cóireá	-8.90861
tosa	-8.90975
rinne	-8.91207
mhol	-8.91327
measa	-8.91403
teacht	-8.91696
tús	-8.91822
átha	-8.92057
choróinvír	-8.92146
cion	-8.92243
▁¦15	-8.92318
bun	-8.92319
▁¦12	-8.92575
buna	-8.92811
inne	-8.93469
óid	-8.93509
aonrú	-8.93526
eacht	-8.93652
víreasach	-8.93776
cht	-8.93813
dearbha	-8.9385
sp	-8.94011
eachta	-8.942
po	-8.9422
masc	-8.94634
fiabhra	-8.94905
laghad	-8.94905
taist	-8.94937
mac	-8.95051
gcuid	-8.95136
▁¦2019	-8.96313
teast	-8.96391
us	-8.96585
ainmh	-8.9673
sula	-8.97025
cleachta	-8.97058
nós	-8.97129
laist	-8.97588
iompar	-8.9764
oibrithe	-8.98114
éifeachtach	-8.98572
eanta	-8.98945
fs	-8.99258
cúis	-8.99351
eis	-8.99473
raí	-8.99717
ís	-8.99856
iodáil	-9.00226
éigeandála	-9.00705
glan	-9.00749
imní	-9.00784
bharr	-9.0079
áitiú	-9.01066
onn	-9.01739
cuid	-9.01994
frith	-9.02036
mid	-9.02311
mui	-9.02327
tabhair	-9.02395
deirea	-9.02739
déanta	-9.03635
eipidéim	-9.03658
sampla	-9.03669
géar	-9.03692
choinneá	-9.039
éad	-9.03932
mol	-9.03994
méad	-9.04632
▁¦23	-9.05029
liath	-9.05427
pe	-9.05548
bunúsach	-9.05874
eachtaí	-9.06098
meit	-9.06335
ama	-9.06586
x	-9.06771
▁¦13	-9.07281
z	-9.07784
láithreach	-9.08358
j	-9.08358
cosc	-9.08377
rialtais	-9.08575
stá	-9.0928
coinn	-9.09864
ainm	-9.09885
imdhíonacht	-9.09984
dáileog	-9.10026
heamh	-9.10163
bhf	-9.10828
uine	-9.10881
ocht	-9.10921
bhaint	-9.11136
díreach	-9.11612
bhun	-9.1171
su	-9.11872
áirith	-9.11936
thas	-9.12127
fiú	-9.1219
imeachta	-9.12311
druga	-9.13276
tóg	-9.13492
fuar	-9.14115
dteagmhá	-9.14539
freastal	-9.14972
córas	-9.14976
sholáth	-9.1498
pháirt	-9.14983
gcoinne	-9.15123
foláir	-9.15189
cúig	-9.15236
phe	-9.15385
athair	-9.16389
aill	-9.16465
▁¦18	-9.16836
chu	-9.1686
ionai	-9.17028
pian	-9.1705
baint	-9.17604
ól	-9.18119
tréimhs	-9.1845
tábhachtach	-9.1845
dhiaidh	-9.18451
eagraíocht	-9.18451
sí	-9.18675
chosc	-9.18908
caith	-9.19002
scar	-9.19484
agann	-9.19646
chéim	-9.19719
daonn	-9.19954
cúraim	-9.20236
chloig	-9.20236
chúis	-9.2027
faireacha	-9.20296
tapa	-9.20306
láimh	-9.20383
óga	-9.21153
eolaíoch	-9.2121
▁¦22	-9.21412
poba	-9.21441
hio	-9.21662
choinne	-9.21815
cor	-9.22043
phoba	-9.22055
spreag	-9.22055
chomhairle	-9.22056
fhorbair	-9.22058
reath	-9.2219
tharla	-9.2223
áite	-9.22841
haine	-9.23289
ois	-9.2331
ghluaiseacht	-9.23906
riocht	-9.23913
cliniciú	-9.23966
fhoir	-9.24069
dé	-9.24109
▁¦16	-9.24326
airíonn	-9.24977
sca	-9.25197
sain	-9.25339
sraotharta	-9.25793
básmhaireacht	-9.25793
daonra	-9.25851
taobh	-9.25864
aireacht	-9.25939
fra	-9.25971
faid	-9.2628
dara	-9.26553
únta	-9.27059
mhíoc	-9.27458
grúpa	-9.27716
éireann	-9.27877
méid	-9.28303
mhair	-9.28424
27	-9.29048
coiti	-9.2944
pearsanta	-9.29677
treala	-9.29677
fhág	-9.29678
breis	-9.29694
cóir	-9.30216
ria	-9.30748
cead	-9.30812
uait	-9.30899
▁¦200	-9.31073
timpeall	-9.31676
eachas	-9.32307
chos	-9.32439
nna	-9.32977
cona	-9.3328
éadrom	-9.33717
fíneá	-9.33718
gnáth	-9.33725
taighde	-9.33741
cosain	-9.33783
dhún	-9.33861
▁¦25	-9.33867
▁¦26	-9.33996
foir	-9.34961
ige	-9.35051
gartheagmhála	-9.35117
dtug	-9.35585
oisc	-9.35671
niúmói	-9.35801
shláinte	-9.35801
amhras	-9.35802
údará	-9.35804
thosa	-9.35911
teach	-9.36026
iarr	-9.3737
rogh	-9.37832
▁%)	-9.37928
oiriún	-9.37966
fola	-9.38103
ollscoil	-9.38175
inte	-9.382
domhand	-9.38478
rinnea	-9.38478
fhor	-9.38675
oll	-9.39021
éid	-9.39089
tuairisc	-9.39396
thú	-9.3956
aige	-9.39992
anála	-9.40046
diúltach	-9.40102
deacracht	-9.40104
míochain	-9.40104
aice	-9.40177
cad	-9.4024
eagla	-9.40363
cheana	-9.4059
riachtanach	-9.40673
deimhn	-9.40695
uimh	-9.40791
onair	-9.40979
hír	-9.41517
fo	-9.41574
bhrí	-9.41583
faisnéis	-9.42324
tacaíocht	-9.42325
speic	-9.42325
iaráin	-9.4236
eiceáil	-9.42361
cosant	-9.42389
meán	-9.4246
▁¦21	-9.42521
nochta	-9.42572
éifeacht	-9.43283
uisc	-9.43886
baile	-9.43985
ndearna	-9.44598
stop	-9.44601
sheachain	-9.44606
cdc	-9.4465
▁¦17	-9.44724
uala	-9.44766
garda	-9.44862
bhfaigh	-9.44911
bpaindéim	-9.44954
astra	-9.45291
fás	-9.4531
rtha	-9.45324
gartheagmhá	-9.4535
ze	-9.45427
óstá	-9.45655
fhad	-9.45689
nec	-9.46102
réamh	-9.46406
tógálach	-9.46923
freagra	-9.46937
lán	-9.47561
leagan	-9.47756
nár	-9.48091
rthóir	-9.48314
rianair	-9.48846
fion	-9.48847
áireamh	-9.48999
sábháilte	-9.49271
diagnóis	-9.49304
fíor	-9.49304
bheala	-9.49314
sábháilteacht	-9.49337
▁¦28	-9.49461
aitheanta	-9.49508
ollaig	-9.49785
deara	-9.50912
uath	-9.51532
róm	-9.51723
béite	-9.51743
cruinn	-9.51744
leanúnach	-9.51744
chinnti	-9.51745
fios	-9.51757
liosta	-9.51782
gcéad	-9.52038
oga	-9.52418
sheol	-9.52578
mic	-9.52715
úint	-9.5392
dhomhand	-9.54243
▁¦2021¦	-9.54243
afraic	-9.54247
éigin	-9.54254
labhair	-9.54349
eorpach	-9.54474
ráid	-9.54582
fen	-9.54771
nasc	-9.5508
mbail	-9.5556
oirea	-9.55575
clár	-9.55638
eithre	-9.56099
paindéime	-9.56585
chibear	-9.56807
siopadóireacht	-9.56807
suntasach	-9.56808
maisc	-9.56813
altra	-9.56864
álta	-9.56975
lann	-9.57064
forba	-9.57316
20	-9.57446
osú	-9.57771
cair	-9.57912
tic	-9.57999
faigh	-9.58136
tuill	-9.58163
theast	-9.58606
ve	-9.58915
sion	-9.59097
saor	-9.59426
shonra	-9.59432
dromchla	-9.59438
eacnamaíoch	-9.59438
cineál	-9.59443
ghlac	-9.59478
roghna	-9.59566
táirg	-9.59629
oidh	-9.59636
shár	-9.59643
áise	-9.59713
níochá	-9.59843
taire	-9.5985
throm	-9.6045
daoin	-9.61465
eart	-9.61535
theann	-9.61687
siopa	-9.62141
phaindéim	-9.62141
tuarascá	-9.62141
contae	-9.62143
nádúr	-9.62184
dócha	-9.62238
▁¦100	-9.62352
héann	-9.62755
fá	-9.63094
hlat	-9.63422
lín	-9.63567
vir	-9.63636
gcomh	-9.64394
éire	-9.64407
lámh	-9.64458
stiú	-9.64771
scamhóg	-9.6492
rianaithe	-9.65088
ábhar	-9.65108
brú	-9.653
bith	-9.6549
coinne	-9.65658
iméad	-9.66219
stair	-9.66394
theach	-9.66445
uiscint	-9.66505
sláintiú	-9.67776
eitilt	-9.67776
anailís	-9.67776
chineál	-9.67777
uirth	-9.67784
dheirea	-9.6779
athoscailt	-9.6784
43¦	-9.68147
48	-9.68211
chóna	-9.68243
37	-9.69063
plean	-9.69183
cinnte	-9.69779
tor	-9.69918
dáile	-9.70001
aims	-9.70175
anaithnid	-9.70717
comparáid	-9.70717
ghrúpa	-9.70717
dheimhn	-9.70717
monatóireacht	-9.70717
tromchúiseach	-9.70717
teoran	-9.70721
antasubstaint	-9.70722
íseal	-9.70722
▁¦29	-9.70882
pro	-9.70883
teocht	-9.70893
díol	-9.7093
slaghdá	-9.7098
othú	-9.71062
▁¦31	-9.71096
cúna	-9.72213
aoi	-9.72526
thógá	-9.72912
riachtana	-9.72916
eál	-9.72925
fhio	-9.73635
fhreagairt	-9.73748
idirmheánach	-9.73748
suíomh	-9.73748
cógais	-9.7375
chlúda	-9.73753
dlúth	-9.73754
soláthair	-9.73791
treoirlín	-9.73801
gcóna	-9.73803
ligean	-9.73805
braisl	-9.73978
molta	-9.74206
toba	-9.74224
oifigiú	-9.74239
tarchuir	-9.74329
seacht	-9.74484
hairío	-9.74747
ly	-9.75044
marga	-9.75085
domhan	-9.76238
trialach	-9.76445
lacht	-9.76641
acmhainn	-9.76873
giorra	-9.76873
chruth	-9.76873
.30	-9.76873
shocr	-9.76875
shóis	-9.76885
uachtarán	-9.76897
ithint	-9.76903
teorainn	-9.76914
iarrai	-9.77197
socr	-9.77197
glac	-9.77217
fianaise	-9.77277
páist	-9.77394
eagr	-9.77707
dáta	-9.77913
scaip	-9.77939
fóin	-9.78132
caill	-9.78138
caoi	-9.78195
abhair	-9.78387
rsc	-9.78422
comhair	-9.78452
ísle	-9.78465
earra	-9.78905
.5	-9.78998
áiste	-9.79012
ton	-9.79228
éirí	-9.7925
ialta	-9.79541
trom	-9.79725
príobháideach	-9.80098
éigeantach	-9.80098
theaghla	-9.80099
seachain	-9.80117
ghlana	-9.80126
india	-9.80139
neamhriachtanach	-9.80139
ghabh	-9.80153
tugt	-9.80228
osca	-9.80925
"	-9.81045
slán	-9.81067
mhaol	-9.81551
0,000	-9.82317
dlí	-9.82481
rainc	-9.83029
saotharla	-9.83268
géanóm	-9.83432
speisialta	-9.83432
bhailiú	-9.83432
eamhshiomptómach	-9.83432
páirt	-9.83433
rasaíl	-9.83444
ciall	-9.83447
229	-9.83489
víreolaíoch	-9.83496
gceist	-9.8358
95¦	-9.83777
inneach	-9.83905
ndéanfa	-9.83934
rialacha	-9.84109
aonad	-9.84202
tinnea	-9.84305
hiomlán	-9.84307
dhearbha	-9.85293
siúl	-9.85575
óca	-9.85914
foirm	-9.85961
íche	-9.86034
earfach	-9.86214
cill	-9.86522
díobh	-9.86802
caithea	-9.86858
theagmhá	-9.86878
teicneolaíocht	-9.8688
réims	-9.8688
forleathan	-9.86881
éifeachtúlacht	-9.86887
beo	-9.87021
phoibl	-9.87023
rialta	-9.871
gné	-9.87189
lachtaí	-9.87237
ntana	-9.87243
diai	-9.87277
chóireá	-9.87707
gine	-9.87816
sláinteacha	-9.88037
chumas	-9.88265
dhearbh	-9.88494
63	-9.89335
freagair	-9.89378
chtaí	-9.89563
feidhm	-9.9004
rith	-9.90347
fheidhm	-9.90446
institiúid	-9.90451
páipé	-9.90451
straitéis	-9.90451
uismitheoir	-9.90451
folláin	-9.90452
figiú	-9.90452
aclaíocht	-9.90452
laethú	-9.90454
croí	-9.90457
chorp	-9.90458
dianchúra	-9.90465
dhéanta	-9.90483
éasca	-9.90714
eorai	-9.9106
raid	-9.9151
réit	-9.91599
bpob	-9.91933
hionfhabht	-9.91942
70¦	-9.92255
thuai	-9.93187
céad	-9.93433
scaoil	-9.93907
scrúd	-9.94095
núiclé	-9.94155
q	-9.94155
tiocfa	-9.94155
chóras	-9.94155
buail	-9.9418
cógas	-9.94187
impl	-9.94203
meiriceá	-9.94243
imeacht	-9.94597
fillea	-9.94973
siar	-9.95065
ghníomhaíocht	-9.95095
pcr	-9.95095
45	-9.95184
díghalr	-9.95193
bhfoir	-9.96461
chúram	-9.96525
deac	-9.96547
35	-9.97007
déanfai	-9.97466
cuirfi	-9.97564
65	-9.97861
sheirbhís	-9.98001
mhilliú	-9.98005
thaobh	-9.98008
toirch	-9.98014
nuashonr	-9.98019
fachtóir	-9.98052
féach	-9.98068
báis	-9.98093
ineacht	-9.98133
bhlia	-9.98195
phlean	-9.98244
mich	-9.98432
caithfi	-10.002
bill	-10.0129
eisío	-10.0174
foghlaim	-10.02
taispeán	-10.02
thaisteal	-10.02
zónóiseach	-10.02
rochtain	-10.02
brath	-10.0201
tirim	-10.0202
meastachá	-10.0202
foins	-10.0204
féadfai	-10.0204
moill	-10.0212
meast	-10.0224
scorna	-10.0246
breith	-10.0284
mall	-10.0315
raitheann	-10.0332
36	-10.0363
aisce	-10.0379
bhia	-10.0432
féideartha	-10.0433
bunús	-10.0437
47	-10.0438
réigiún	-10.0531
gast	-10.0562
chill	-10.0592
díot	-10.0613
breoite	-10.0617
$	-10.0617
johns	-10.0617
pfizer	-10.0617
sealadach	-10.0617
taifead	-10.0617
ghartheagmhála	-10.0617
seicheamh	-10.0617
athbhreithni	-10.0617
gallúnach	-10.0617
chleachta	-10.0617
ghlas	-10.0619
scaipthe	-10.0621
gceanta	-10.0623
bialann	-10.0629
cathrach	-10.0638
aoire	-10.0646
39	-10.0651
méadaithe	-10.0654
soláthra	-10.0659
orm	-10.0665
fág	-10.0669
33	-10.0824
anál	-10.0842
fhógra	-10.0864
bhrú	-10.0952
thru	-10.1009
[	-10.1052
athlastach	-10.1052
braoinín	-10.1052
séasúr	-10.1052
láimhseáil	-10.1052
measún	-10.1052
soiléir	-10.1052
taiscuma	-10.1052
torrach	-10.1053
phríomh	-10.1054
leithlis	-10.1054
póirt	-10.1056
imscrúd	-10.1059
seomra	-10.1059
féadf	-10.1061
iompai	-10.1074
huaire	-10.1098
frithdhú	-10.112
órt	-10.1155
staid	-10.119
agairt	-10.1198
cún	-10.1305
cheal	-10.135
deimhnío	-10.1385
fhéadf	-10.1456
]	-10.1506
seapáin	-10.1506
teiripe	-10.1506
téacs	-10.1506
íomhá	-10.1506
swab	-10.1506
hku	-10.1506
bhrolla	-10.1506
spáinn	-10.1507
scotha	-10.1507
cúrs	-10.1509
teachtaireacht	-10.151
oiliú	-10.1515
foils	-10.1516
rúis	-10.1527
mblian	-10.1539
úlacht	-10.155
shuí	-10.1655
▁¦80	-10.1663
tabharfa	-10.1797
polai	-10.1833
éigeandá	-10.1968
coimeád	-10.1982
criticiú	-10.1982
&	-10.1982
pataigin	-10.1982
chúrsa	-10.1982
sciathá	-10.1982
coinníoll	-10.1982
astráil	-10.1982
séireolaíoch	-10.1982
imdhíon	-10.1984
chliniciú	-10.1993
críoch	-10.1993
bheag	-10.1997
feidhmeanna	-10.1999
bhainist	-10.2006
gheo	-10.201
tacú	-10.2012
shrian	-10.2017
99	-10.2027
scaga	-10.2117
bola	-10.2143
domhna	-10.217
úine	-10.2213
cúl	-10.2227
braithea	-10.2327
cathai	-10.2436
plód	-10.2482
spleách	-10.2482
california	-10.2482
fhreagra	-10.2482
▁¦4,9	-10.2482
trácht	-10.2482
sóchá	-10.2483
cheada	-10.2484
leigheas	-10.2484
sraith	-10.2484
seans	-10.2491
cuims	-10.2494
rialachá	-10.2495
eachtrach	-10.2506
saotharlann	-10.2507
▁¦38	-10.2517
ghearr	-10.2521
nolla	-10.2576
réigiú	-10.2587
ael	-10.2603
gearr	-10.2641
ndéant	-10.2682
ell	-10.2724
thro	-10.2818
aithnío	-10.2863
thaispeáin	-10.3009
biontech	-10.3009
fhaisnéis	-10.3009
oimisiún	-10.3009
phróitéin	-10.3009
scagthástá	-10.3009
téarma	-10.3009
ghéanó	-10.3009
téarna	-10.3009
earmáin	-10.3009
cónaitheoir	-10.3009
iomarca	-10.3009
mhoill	-10.3009
díhiodr	-10.301
bheatha	-10.3011
géarchéim	-10.3012
dhíol	-10.3012
ontráil	-10.3013
meánscoile	-10.3015
saorána	-10.3016
dtagann	-10.3017
cuairteoir	-10.302
rraing	-10.302
nuacht	-10.3036
ithne	-10.3042
aimsío	-10.3054
clainn	-10.3062
iarrfa	-10.31
gcaithf	-10.3146
ábhair	-10.3148
feabh	-10.3303
dháile	-10.3475
fhéi	-10.3521
ríomh	-10.3542
ceist	-10.3544
fheic	-10.3556
dhíon	-10.3561
uachtar	-10.3562
limisté	-10.3564
scriosa	-10.3564
difríocht	-10.3564
ainsealach	-10.3564
scrío	-10.3564
éabhlóid	-10.3564
chórais	-10.3564
▁¦4,8	-10.3564
aicéit	-10.3564
riarachá	-10.3564
núíosach	-10.3564
modern	-10.3564
chógais	-10.3565
slabhr	-10.3565
long	-10.3565
tábla	-10.3566
tóireacht	-10.3566
eipidéimeolaíoch	-10.3568
coite	-10.3569
aerála	-10.3572
shín	-10.3573
chuga	-10.3575
spíc	-10.358
rabha	-10.3657
nnel	-10.3673
chinnea	-10.3702
bailiú	-10.3863
ionsaí	-10.3961
olainn	-10.3986
phataigineach	-10.4152
ullmhacht	-10.4152
fhreasta	-10.4152
leochaileach	-10.4152
pangolin	-10.4152
bronchi	-10.4152
coicís	-10.4152
páirc	-10.4152
saoráid	-10.4152
tionsca	-10.4152
iarmhairt	-10.4153
aslonn	-10.4153
dochtúr	-10.4153
fhoils	-10.4153
meácha	-10.4153
tháirgea	-10.4153
chiall	-10.4154
olog	-10.4155
fhill	-10.4156
cloí	-10.4156
bhearta	-10.4157
smaoin	-10.416
gabha	-10.4161
dóchú	-10.4176
abhrach	-10.4183
gcuirf	-10.4188
bhreith	-10.4191
scaoilea	-10.4193
eisia	-10.42
hong	-10.4232
cáine	-10.4335
idirghabhá	-10.4464
airgead	-10.4777
iobúpr	-10.4777
struchtúr	-10.4777
aistriú	-10.4777
fadtéarmach	-10.4777
paisinéir	-10.4777
naíoná	-10.4778
áinliacht	-10.4778
leithead	-10.4778
scála	-10.4778
tráth	-10.4779
chuims	-10.4779
coláist	-10.4779
orainn	-10.478
cheist	-10.4781
aigéad	-10.4784
eisiúin	-10.4784
maireachtá	-10.4789
gcoda	-10.4796
fanfa	-10.4824
gcuirfea	-10.4828
naidhme	-10.4829
réamhchúra	-10.5023
oici	-10.5038
dearbhaío	-10.5285
atos	-10.5336
soláth	-10.5366
mheánoirth	-10.5444
prótaca	-10.5444
choraintín	-10.5444
ciarsú	-10.5444
civet	-10.5444
iontaofa	-10.5444
múinteoir	-10.5444
fhoins	-10.5444
randamach	-10.5444
chreid	-10.5444
creid	-10.5445
dhéanf	-10.5445
fheidhmeannach	-10.5445
glasá	-10.5446
orgá	-10.5446
ghiniú	-10.5447
fadhb	-10.5447
osclaío	-10.545
dhaonra	-10.5451
fíochá	-10.5473
salach	-10.5584
caithfe	-10.5586
cheanga	-10.5649
gcoi	-10.5698
réige	-10.5964
oileá	-10.6025
dteistiméireacht	-10.6158
enteri	-10.6158
géiniteach	-10.6158
sceideal	-10.6158
thábhacht	-10.6158
atreor	-10.6158
fhiabhra	-10.6158
fhostóir	-10.6158
ceanada	-10.6158
eiseama	-10.6158
bhuail	-10.6159
caighdeá	-10.6159
tógfai	-10.616
fhaireacha	-10.6161
luaite	-10.6172
úrscé	-10.6172
cothaith	-10.6172
cuimhn	-10.6223
▁¦1,0	-10.6316
thógálach	-10.6363
ainaithnío	-10.6369
amhlai	-10.6389
caite	-10.6395
iscint	-10.6497
ghabhálach	-10.6531
)	-10.6684
ianaise	-10.6826
eorpa	-10.6855
cuirfe	-10.6857
clinic	-10.6902
dtreo	-10.6915
difriú	-10.6928
antashubstaint	-10.6928
gréasá	-10.6928
pangóil	-10.6928
phríobháideach	-10.6928
thiocfa	-10.6928
uaslódá	-10.6928
leictreon	-10.6928
ocsaigin	-10.6928
ábalta	-10.6928
€	-10.6928
fliuch	-10.6928
guaise	-10.6928
ullmhú	-10.6928
réasún	-10.6928
alcól	-10.6928
eitleá	-10.6928
+	-10.967
;	-11.0536
≥	-11.0781
#	-11.7126
×	-11.9626
@	-12.296
α	-12.296
β	-12.296
武	-12.796
|	-12.796
£	-12.796
°	-12.796
ã	-12.796
ç	-12.796
γ	-12.796
—	-12.796
肺	-12.796
'	-13.7733
~	-13.7951
‘	-13.7952
?	-13.7953
–	-13.7954
”	-13.7955
/	-13.7956
%	-13.7957
:	-13.7958
(	-13.7959
=	-13.796
_	-13.796
­	-13.796
à	-13.796
å	-13.796
’	-13.796
′	-13.796
汉	-13.796
漢	-13.796
炎	-13.796
