<pad>	0
</s>	0
<unk>	0
¦	-1.36521
▁¦	-1.67786
▁	-3.2379
𐋇	-3.27226
▁,	-3.49368
u	-4.123
a	-4.43107
e	-4.47072
▁.	-4.50052
o	-4.59268
i	-4.69983
ni	-5.02067
na	-5.15079
yo	-5.18709
▁:	-5.21973
▁;	-5.25883
“	-5.30355
wa	-5.48568
kepha	-5.63056
ngokuba	-5.67793
ka	-5.7547
ku	-5.78499
nkulunkulu	-5.79117
nga	-5.81243
no	-5.87646
ba	-5.91891
▁.”	-5.91987
eni	-5.98042
ukuba	-5.9984
-	-6.00474
nke	-6.02929
ne	-6.04911
ukuthi	-6.15031
wathi	-6.17869
lo	-6.19295
nge	-6.27253
aba	-6.32087
khona	-6.36193
uku	-6.36277
ko	-6.38548
be	-6.38865
jes	-6.40375
ngi	-6.42349
ngo	-6.42792
ke	-6.43815
nkosi	-6.44211
uma	-6.4453
kuye	-6.46854
ya	-6.47354
le	-6.5097
li	-6.54181
si	-6.56647
weni	-6.56757
▁?	-6.58838
muntu	-6.5952
kwa	-6.67955
zo	-6.68889
krist	-6.70395
ndla	-6.70929
kubo	-6.72222
yi	-6.73105
𐊼	-6.77111
𐊣	-6.77111
la	-6.77331
we	-6.79953
kodwa	-6.8268
kini	-6.83085
lokho	-6.85042
ini	-6.85605
nxa	-6.88109
za	-6.8941
sa	-6.96725
ile	-6.97626
se	-6.97942
ngakho	-6.9855
lokhu	-6.98607
bo	-6.98684
wo	-7.02617
ye	-7.05743
‘	-7.06443
so	-7.08913
ngoku	-7.10964
noku	-7.11179
bathi	-7.11862
bonk	-7.13231
lowo	-7.15176
▁?”	-7.16228
ukuze	-7.16447
lu	-7.17842
noma	-7.18924
moy	-7.2148
kholwa	-7.2153
ngu	-7.23866
um	-7.24958
ama	-7.24977
lapho	-7.29456
kwe	-7.30131
kanye	-7.31785
isi	-7.34119
ma	-7.34261
mina	-7.35354
yena	-7.36898
baba	-7.37768
ze	-7.38709
naba	-7.40183
kube	-7.4049
nina	-7.41921
kwaba	-7.42033
leyo	-7.42105
kwathi	-7.4235
phakathi	-7.44102
futhi	-7.44562
bili	-7.44857
zi	-7.46112
de	-7.48398
yakhe	-7.49382
n	-7.49467
ngcwele	-7.51058
phezu	-7.51753
juda	-7.52067
uj	-7.52828
njalo	-7.52987
phambi	-7.53172
mtheth	-7.53288
esu	-7.53995
nani	-7.59336
eli	-7.6095
naye	-7.60975
izwi	-7.61561
kuthi	-7.62262
▁.’	-7.63861
yini	-7.64843
bakhe	-7.64971
ela	-7.65131
nye	-7.65147
kakhulu	-7.65526
ndodan	-7.66793
izi	-7.66936
kwakhe	-7.67353
kwen	-7.67396
gama	-7.70915
bheka	-7.71098
ngithi	-7.71309
sikhathi	-7.7328
pha	-7.73348
lwa	-7.73842
zalwane	-7.75505
m	-7.76395
esi	-7.76839
oku	-7.77634
usa	-7.79191
kuphila	-7.79423
kimi	-7.80721
ningi	-7.81719
nase	-7.82055
wena	-7.82658
nami	-7.82975
base	-7.83006
phansi	-7.83077
ngelosi	-7.83653
tha	-7.83908
rist	-7.84956
kuqala	-7.85545
suku	-7.86402
hlala	-7.88456
dwa	-7.88537
abanye	-7.88668
kwabo	-7.88882
ndlu	-7.89982
pho	-7.90443
munye	-7.90898
nabo	-7.93009
ezi	-7.93075
omunye	-7.93468
funa	-7.94126
sika	-7.95353
lika	-7.9559
ngalokho	-7.95741
kuka	-7.95794
kho	-7.95907
lutho	-7.96373
ru	-7.96868
abafundi	-7.97541
nama	-7.97847
jer	-7.97873
njengalokh	-7.97981
babe	-7.98019
shumi	-7.99147
kuphela	-7.99202
nalowo	-7.99222
abantu	-7.99495
ese	-8.00652
ezulw	-8.02566
lema	-8.03101
manje	-8.05215
waye	-8.055
eziyi	-8.06301
waba	-8.06422
kuze	-8.06828
labo	-8.0701
abe	-8.07422
ngiya	-8.07485
kuwe	-8.0813
bona	-8.08232
pawu	-8.08256
anga	-8.08374
abo	-8.09896
misebenzi	-8.10233
hamba	-8.10287
wayese	-8.10983
lakhe	-8.11405
wu	-8.11583
uya	-8.12059
musa	-8.12278
qinisile	-8.12556
khuluma	-8.13102
kanjalo	-8.13636
phandle	-8.13838
nguye	-8.14139
wayeseth	-8.14574
thu	-8.14768
pet	-8.15311
ngena	-8.15852
bantu	-8.1648
esifazane	-8.17881
phuma	-8.17901
yise	-8.18413
is	-8.18459
yami	-8.19773
njengokuba	-8.20434
ngaye	-8.20562
vangeli	-8.20938
iya	-8.21768
nezi	-8.22467
nom	-8.22751
in	-8.23333
zakhe	-8.23953
kade	-8.24107
masinya	-8.24343
indoda	-8.24632
zulu	-8.25216
johan	-8.25296
zwi	-8.25779
the	-8.26045
mazwi	-8.26134
thina	-8.26321
ng	-8.26422
w	-8.26438
nkazimul	-8.26689
ayi	-8.27911
kwam	-8.27961
laba	-8.29652
sikhombis	-8.29817
waphendula	-8.30832
kwase	-8.30879
ezwe	-8.30924
kuyo	-8.31226
ndle	-8.31911
khuleka	-8.32281
emv	-8.32389
far	-8.32468
vela	-8.32487
yethu	-8.32629
kuba	-8.33989
ethi	-8.34368
ndawo	-8.34588
sixuk	-8.34626
ngokuthi	-8.35226
lwe	-8.35646
nyama	-8.36302
thula	-8.36433
wakhe	-8.37669
yathi	-8.37819
isa	-8.37836
ezizwe	-8.39839
thi	-8.40297
uyaku	-8.40483
kukhona	-8.40706
sebe	-8.41232
fa	-8.41521
ngase	-8.41721
wam	-8.42069
kithi	-8.42858
khonza	-8.43052
zwe	-8.44325
wami	-8.4441
iwe	-8.45288
yakho	-8.4531
yen	-8.45332
▁,”	-8.45493
izwe	-8.45772
yebo	-8.45851
kudla	-8.46122
zimba	-8.46195
lesi	-8.46459
nje	-8.46647
enga	-8.47086
ninga	-8.47464
kanja	-8.47593
file	-8.48105
siya	-8.48129
nokuba	-8.48154
themba	-8.48276
uthi	-8.48721
ngiyaku	-8.48755
thokoza	-8.48969
umbus	-8.4929
em	-8.49312
kwazi	-8.49454
kwakho	-8.49862
sakhe	-8.49961
bhekani	-8.50179
nam	-8.50293
nhliziyo	-8.5034
oya	-8.50513
zen	-8.52026
da	-8.52127
manzi	-8.52785
gazi	-8.53177
endl	-8.53223
kulo	-8.53455
wethu	-8.54804
baya	-8.55312
ngubani	-8.55391
fanekis	-8.55629
mo	-8.55784
mvu	-8.55877
wazi	-8.55917
sto	-8.56784
kuthe	-8.56879
niya	-8.57396
lapha	-8.57665
hlezi	-8.58034
▁,’	-8.58092
lunga	-8.58664
athu	-8.59132
mbe	-8.59317
abayi	-8.59372
ababe	-8.59847
melwe	-8.59946
ngaba	-8.60231
wase	-8.60523
mkhulu	-8.6061
ray	-8.61161
phe	-8.62064
mi	-8.62103
beka	-8.6225
simo	-8.62274
khulu	-8.62359
fanele	-8.6259
khanda	-8.6276
ow	-8.62807
fundisa	-8.62878
kwakukhona	-8.6321
nene	-8.63314
kukho	-8.63774
ump	-8.63846
zabo	-8.63864
ngama	-8.64111
zinto	-8.64694
okukhulu	-8.64696
leli	-8.65024
ngalo	-8.65414
l	-8.65561
ani	-8.66368
lami	-8.67105
lase	-8.67186
okuhle	-8.67277
obe	-8.67601
bukhosi	-8.6819
abra	-8.68194
vuka	-8.68261
bam	-8.68508
bu	-8.68926
hama	-8.69594
enye	-8.698
galil	-8.70873
emhlab	-8.70959
ngani	-8.71597
waya	-8.71849
ethempeli	-8.71887
ngathi	-8.72077
bethi	-8.73041
phi	-8.73536
thanda	-8.73927
nathi	-8.74554
sizwe	-8.7575
elo	-8.75977
kungathi	-8.76333
ngokwe	-8.76482
othi	-8.76541
▁”	-8.7662
mashumi	-8.76724
abakhulu	-8.76792
bayaku	-8.76838
ele	-8.76888
indi	-8.77565
soku	-8.77918
limi	-8.78288
elwa	-8.78464
mpela	-8.7883
jak	-8.79583
nakho	-8.79734
uqo	-8.80295
imi	-8.80345
iso	-8.80778
wana	-8.81004
up	-8.81088
kwethu	-8.81841
zwa	-8.8196
ngaphambi	-8.82932
dla	-8.83056
s	-8.83131
loku	-8.83292
yabo	-8.83677
leso	-8.83997
wakho	-8.84015
shumayela	-8.84091
nawe	-8.84252
bhali	-8.84315
yala	-8.84593
memeza	-8.84812
mbi	-8.85373
sathan	-8.85651
kungabi	-8.8575
ezint	-8.85992
qinis	-8.86089
yaba	-8.86252
inkosi	-8.86437
abatha	-8.8647
phendula	-8.8656
kufika	-8.86925
mazi	-8.87417
bani	-8.87423
un	-8.88001
awu	-8.88364
mari	-8.88428
owa	-8.88598
elikhulu	-8.88796
njengo	-8.88885
nibe	-8.8911
msebenzi	-8.89111
fika	-8.8922
kulotshiwe	-8.89693
k	-8.89907
thile	-8.90044
izinsuk	-8.9026
esa	-8.9036
fakaza	-8.90793
akakho	-8.90814
bufakazi	-8.91089
nesi	-8.91205
mbus	-8.91735
cal	-8.92065
amadoda	-8.92313
lakho	-8.92358
atu	-8.92368
ngom	-8.92437
khanya	-8.92472
kahle	-8.92524
lilo	-8.92988
aka	-8.93118
lomo	-8.9319
cela	-8.93215
kuvela	-8.93379
zwile	-8.93438
niyaku	-8.93815
enu	-8.94223
kunge	-8.94278
abantwan	-8.9463
abaning	-8.95003
ngomus	-8.95319
wabo	-8.95513
linye	-8.95561
kanti	-8.95849
busisiwe	-8.96061
eya	-8.9631
biza	-8.9635
iza	-8.96447
thuma	-8.96463
omkhul	-8.96544
amehl	-8.97111
kuya	-8.97169
ayo	-8.97509
kusuk	-8.98156
bami	-8.98682
kwenza	-8.99152
▁!”	-8.99448
thembis	-8.99552
ki	-8.99656
kubant	-8.99873
nokho	-8.9991
muzi	-9.00263
us	-9.00295
ose	-9.00392
uzaku	-9.0072
sihlan	-9.01471
mhlaba	-9.01709
bazi	-9.01803
nazi	-9.01837
hlane	-9.02114
uyi	-9.02332
izon	-9.02619
babo	-9.02881
kazi	-9.03188
ngesi	-9.03407
ngizaku	-9.03474
esikhulu	-9.03859
nange	-9.04286
lele	-9.04313
hor	-9.04397
uthe	-9.04964
me	-9.04991
emzi	-9.05305
banga	-9.05402
ukufa	-9.0546
kwabaf	-9.05804
nithi	-9.0592
luka	-9.05944
nikela	-9.06079
oni	-9.06149
onga	-9.06243
iqinis	-9.064
yimi	-9.0704
zulw	-9.07283
dem	-9.07434
kukhuluma	-9.07523
yoku	-9.07973
mhla	-9.07987
ngezw	-9.08288
baprofethi	-9.08493
zinceku	-9.08583
ncenga	-9.08792
nika	-9.08793
qha	-9.08795
ungu	-9.08934
okuphaka	-9.09135
beza	-9.09277
othile	-9.09613
olu	-9.10012
buka	-9.10614
njenge	-9.10675
madoda	-9.10775
b	-9.11065
kubona	-9.11693
fu	-9.11723
am	-9.11985
buthakathak	-9.12027
ngabe	-9.12063
kuso	-9.12744
khipha	-9.12819
ngezi	-9.12859
akukho	-9.1286
eki	-9.12969
naku	-9.13011
sibe	-9.13061
kesari	-9.13196
thempeli	-9.13555
egam	-9.13758
bumnyam	-9.1401
bakho	-9.14075
koku	-9.14231
lungile	-9.14366
angi	-9.14557
kwafik	-9.14621
hla	-9.15126
yona	-9.15154
sami	-9.16052
yihlo	-9.16162
iminya	-9.16394
maye	-9.16894
asi	-9.17076
sha	-9.17195
makhosi	-9.17527
ezining	-9.1811
dlula	-9.18746
emi	-9.18781
esiphamban	-9.18972
thumela	-9.1942
jud	-9.19495
herod	-9.19663
gr	-9.19718
ab	-9.19843
abap	-9.19922
bar	-9.20213
kuzo	-9.20773
mpof	-9.20777
sizi	-9.20942
lwakh	-9.20943
kuzwa	-9.20951
phenduka	-9.21038
mhlo	-9.21334
woku	-9.21397
bulala	-9.21554
nangoku	-9.21594
wabona	-9.21924
weza	-9.21978
uthand	-9.22126
kwesaba	-9.22248
gula	-9.22337
kile	-9.22564
iswa	-9.22712
om	-9.22806
yawo	-9.2282
maka	-9.22974
ngibona	-9.23295
ubus	-9.23455
akhe	-9.2353
bantwan	-9.23938
lawo	-9.2428
izix	-9.24334
nda	-9.24446
ezimbi	-9.24461
umfow	-9.24585
izingu	-9.24638
abanga	-9.24865
kwaze	-9.25337
engi	-9.25389
fumana	-9.25469
kusho	-9.2552
owaye	-9.25559
shiya	-9.25686
kwab	-9.25742
eyi	-9.26061
nambi	-9.26157
gcina	-9.26186
ngawo	-9.26254
eza	-9.26397
lukhu	-9.26702
ngakwesok	-9.26728
yayo	-9.26775
mkhunj	-9.2685
mfundis	-9.2734
kugcina	-9.27732
kule	-9.27836
wakhuluma	-9.28026
abase	-9.28153
benza	-9.28187
ngayo	-9.28315
bala	-9.28492
butho	-9.28692
ngabo	-9.28733
kubafundi	-9.29121
goli	-9.29135
ngceb	-9.29146
uva	-9.29168
izinya	-9.29421
endaw	-9.29471
umzalwane	-9.29488
ubu	-9.29498
omuhl	-9.29548
kuyi	-9.29731
letha	-9.29797
sebenzi	-9.29863
sondela	-9.29887
aye	-9.30268
kuhle	-9.30361
pil	-9.30633
tho	-9.30796
zami	-9.31106
mhlabathi	-9.31172
etr	-9.31425
kulunkulu	-9.31574
ngekho	-9.31602
gcwele	-9.31918
amane	-9.32008
wen	-9.32189
mali	-9.3222
wabuye	-9.33128
khala	-9.3327
waqala	-9.33513
wayini	-9.33628
ngesa	-9.33663
sindis	-9.33855
ema	-9.3386
umuzi	-9.33908
ngize	-9.34025
baka	-9.34081
aku	-9.34187
zikhathi	-9.34209
▁?’	-9.3421
wazal	-9.34269
yayisi	-9.34304
eliya	-9.34305
yase	-9.34359
sindiswa	-9.34571
nemi	-9.34781
thela	-9.35052
thand	-9.35064
siyazi	-9.35359
zinsuk	-9.35698
hlupheka	-9.35811
nab	-9.35982
nguku	-9.3632
lithi	-9.36334
fi	-9.36558
yikho	-9.36816
okubi	-9.36883
hlobo	-9.36895
wamuka	-9.37174
inceku	-9.37402
uhla	-9.37545
umo	-9.37621
zizwe	-9.37635
sebenza	-9.37805
zika	-9.38113
y	-9.38115
lalela	-9.38341
lisa	-9.38494
wafika	-9.38524
phonsa	-9.3877
ngum	-9.39545
ngithumile	-9.39566
wenza	-9.3957
jose	-9.39619
nzi	-9.39671
phika	-9.39808
hlakanipha	-9.40155
zethu	-9.40431
athi	-9.40742
z	-9.40794
tshe	-9.40878
yibo	-9.40931
mzimb	-9.41445
wula	-9.41465
yama	-9.41472
abaprofethi	-9.41568
izithe	-9.41689
nyaka	-9.41747
khumbula	-9.42236
kuqale	-9.42312
kude	-9.42448
ngemi	-9.42523
yeza	-9.4265
okung	-9.42815
ene	-9.42842
sithi	-9.42842
zinkulungwa	-9.42947
lunye	-9.43099
tsha	-9.43189
phawu	-9.4319
ngene	-9.43495
nges	-9.43921
ize	-9.44262
tar	-9.44375
fana	-9.44479
bekezela	-9.44606
kuyakub	-9.44698
al	-9.44725
hlambalaza	-9.44792
ifa	-9.44832
enkulu	-9.45084
seku	-9.45113
azi	-9.45129
sesi	-9.45204
umprofethi	-9.45543
ndoda	-9.45705
fazi	-9.45732
zoku	-9.46061
bi	-9.46311
sho	-9.46515
ngazi	-9.46626
imp	-9.4665
suka	-9.47052
saba	-9.47236
nabafundi	-9.47566
dle	-9.47569
yazi	-9.47611
maqo	-9.47617
muka	-9.47667
sikhashan	-9.48138
waphuma	-9.48169
ekudl	-9.48193
indun	-9.48317
kukholw	-9.48414
ra	-9.48418
uyise	-9.48453
kwenzeka	-9.48564
esefik	-9.48634
soka	-9.48721
ethu	-9.48754
duze	-9.48974
laka	-9.48991
yizi	-9.49005
mabandl	-9.49488
siye	-9.49881
enhliziy	-9.50079
izinto	-9.50337
kunga	-9.50448
fakazi	-9.50678
lahlwa	-9.5075
ngaso	-9.51277
intand	-9.51414
bayi	-9.51689
makub	-9.51774
ndana	-9.5193
azare	-9.51948
ngeza	-9.52131
bonile	-9.52328
lezi	-9.52516
usuku	-9.52725
ngami	-9.52853
zibonakalis	-9.53065
ane	-9.53375
sana	-9.53405
udum	-9.53483
phulukisa	-9.53724
hambani	-9.5388
wayi	-9.5398
kosi	-9.54016
lingu	-9.54268
bamangal	-9.54292
ngisho	-9.54323
lony	-9.54496
nxusa	-9.54556
kwenze	-9.54579
phila	-9.54638
yayi	-9.54686
kwavela	-9.54821
kuyaku	-9.54888
liphu	-9.5492
ezine	-9.55196
wafa	-9.55695
sazi	-9.55735
matshe	-9.55894
thatha	-9.55941
wasi	-9.55955
esinagoge	-9.56015
emon	-9.56212
inhliziyo	-9.56279
mva	-9.56625
mbona	-9.57016
kabi	-9.5707
amad	-9.57139
h	-9.57273
amen	-9.57306
ezinga	-9.57323
ngqond	-9.5751
sizukulwane	-9.57517
owenza	-9.57529
bethu	-9.57592
sivumelwan	-9.57633
baze	-9.57667
umyal	-9.57707
mphefumul	-9.57839
nanga	-9.57863
esihlal	-9.57993
mehl	-9.58026
thole	-9.58357
lile	-9.58398
benga	-9.58505
kela	-9.58613
zibonga	-9.58841
isin	-9.58841
unina	-9.58931
ukwenza	-9.5896
nkulungwa	-9.58995
nango	-9.59025
ben	-9.59205
naphaka	-9.59208
etilong	-9.5929
abakholwa	-9.5961
yalo	-9.59701
ebus	-9.59803
langa	-9.59851
nakuba	-9.59921
thabatha	-9.59976
emihle	-9.60121
beni	-9.60227
njengaba	-9.60259
ngakholwa	-9.6032
nginga	-9.60326
ukum	-9.60376
sin	-9.60405
yenza	-9.60509
gibi	-9.60519
ngiku	-9.60586
kum	-9.60729
ami	-9.60738
sihawu	-9.60821
kangaka	-9.61127
indlela	-9.61196
kuna	-9.61412
jo	-9.61427
ngoko	-9.61746
ebona	-9.61878
iband	-9.62061
profetha	-9.62226
ngiyi	-9.6228
nceku	-9.62385
engena	-9.62543
khali	-9.62664
emba	-9.62719
esandl	-9.62724
ethun	-9.62846
thewu	-9.62949
amanga	-9.63326
ase	-9.6344
unga	-9.6348
zelwe	-9.63543
inyama	-9.63718
kwabant	-9.6407
wathatha	-9.64732
duduz	-9.6496
sakho	-9.64964
simu	-9.65066
kwezin	-9.65161
phatha	-9.65168
mu	-9.65354
kuno	-9.65386
baphendula	-9.65525
vula	-9.65588
nawo	-9.65648
kuvu	-9.65801
umnt	-9.65803
bem	-9.66177
landela	-9.66208
entab	-9.6627
ngalez	-9.66317
utho	-9.66359
hle	-9.66554
ncwadi	-9.6662
mnika	-9.66655
use	-9.66679
kungesi	-9.6685
mbethe	-9.6739
sila	-9.67492
mbhapathiz	-9.67622
mkhosi	-9.67896
kedoni	-9.67943
izizwe	-9.67974
vunyelw	-9.68007
awulu	-9.681
khethiwe	-9.68193
nenza	-9.68265
msindis	-9.68312
mlandela	-9.68325
hlanganyel	-9.68333
itshe	-9.68344
ha	-9.68373
ngokunjalo	-9.68725
sasi	-9.68773
ube	-9.69174
zaba	-9.69246
fiki	-9.6931
ungum	-9.69551
qonda	-9.69572
wele	-9.69596
ntand	-9.69645
kele	-9.70178
njenga	-9.70297
khi	-9.70794
bone	-9.71079
ezinhliziy	-9.71355
abafi	-9.71363
libe	-9.71407
ndodakazi	-9.7143
wona	-9.71445
khe	-9.71475
ndlela	-9.71477
enhle	-9.71843
ziyaku	-9.72582
mvusa	-9.72666
yisa	-9.7267
mesaba	-9.72879
lela	-9.73254
mangalis	-9.73296
busa	-9.73469
zakh	-9.73606
bafika	-9.73624
ngobu	-9.73755
ukulung	-9.73787
kugcwalisek	-9.74045
bemi	-9.74456
sukuma	-9.74483
namalu	-9.75182
hambi	-9.75191
okwa	-9.75195
shwa	-9.75255
liva	-9.75395
veza	-9.75395
jabula	-9.75395
okazi	-9.75507
qinisa	-9.75536
sezinyaw	-9.75547
amatha	-9.75604
ngithanda	-9.75631
linga	-9.75646
besaba	-9.7579
bese	-9.7581
ukuya	-9.76188
umbhal	-9.76203
kha	-9.7621
bufebe	-9.76246
zalwa	-9.76331
yeka	-9.76748
ukwahlulel	-9.76848
mar	-9.76878
khu	-9.76926
phuze	-9.77133
woza	-9.77514
kungalungi	-9.77625
ariy	-9.77653
mbuza	-9.77733
kholwe	-9.78019
ef	-9.78436
kunjalo	-9.78459
nizaku	-9.78745
ithi	-9.788
yane	-9.78824
wenze	-9.78915
komhlaba	-9.79032
phuza	-9.7907
kwalo	-9.79117
linda	-9.79131
mfihlakal	-9.79417
bezwa	-9.79422
incwadi	-9.79443
kufike	-9.79445
thimo	-9.79474
nembe	-9.79698
nithanda	-9.79745
masinagoge	-9.80031
zithombe	-9.80203
wela	-9.80251
kungena	-9.80483
febe	-9.80532
ngiye	-9.8058
lula	-9.80937
kufanele	-9.80951
betha	-9.81334
thini	-9.81391
bonakala	-9.81796
yayisith	-9.81819
mphendula	-9.81828
siyi	-9.8201
bhubha	-9.82041
enyam	-9.82386
niyazi	-9.82569
im	-9.82842
wayo	-9.83038
isitsh	-9.83505
▁;’	-9.83624
nababe	-9.83634
khululekile	-9.83636
rom	-9.83858
wawu	-9.83899
ingub	-9.84168
ngabona	-9.84186
buthe	-9.84394
khonzi	-9.84401
elwe	-9.84444
kwaku	-9.84473
phethe	-9.84531
kungaba	-9.84566
zonda	-9.85154
sikhonzi	-9.85182
sekel	-9.85232
ngikhuluma	-9.85249
ipha	-9.85702
esizwe	-9.85769
sabo	-9.86033
kw	-9.86335
isilo	-9.86478
on	-9.86701
dum	-9.8682
izinkw	-9.86846
ngenza	-9.86869
su	-9.86957
abapho	-9.86981
zile	-9.87111
ophila	-9.87273
okunga	-9.87309
yam	-9.87463
loba	-9.8752
phela	-9.87803
sengi	-9.8787
nabafow	-9.87956
phambene	-9.88132
lungel	-9.8814
phesh	-9.88245
boshiwe	-9.88772
sawul	-9.89159
ngemihla	-9.89338
kwezw	-9.89716
ngcolile	-9.90074
bakholwa	-9.90123
mawu	-9.90198
ngomkhu	-9.9024
njengoku	-9.90283
nothand	-9.90292
melana	-9.90394
len	-9.90722
nqum	-9.90972
thelisi	-9.90989
endlel	-9.91342
yilo	-9.91484
mandl	-9.91553
nto	-9.91645
ngibe	-9.91827
mbo	-9.91892
lwane	-9.91935
khula	-9.92158
susa	-9.92239
kolw	-9.92481
ngumuphi	-9.92482
funda	-9.92621
kariy	-9.92655
bebona	-9.92757
qala	-9.92962
isib	-9.92988
ningabi	-9.93144
mba	-9.93162
umvuz	-9.93199
owazi	-9.93216
chitha	-9.93325
ethile	-9.93515
ubi	-9.93998
ngingu	-9.94001
lahla	-9.94025
bonga	-9.94255
j	-9.94399
umkakh	-9.94427
khuza	-9.94556
ngezin	-9.9479
siyaku	-9.94835
mbamba	-9.94872
wasuka	-9.94924
ukuthul	-9.94946
akusikh	-9.9495
nitshela	-9.94952
zindl	-9.95149
dani	-9.95241
zom	-9.95311
lali	-9.95359
mbusi	-9.95381
ngenisa	-9.95438
anazi	-9.95516
seli	-9.95705
nezin	-9.95772
hu	-9.95777
bhapathiza	-9.95832
thembekile	-9.95905
nca	-9.95969
khuthazela	-9.96086
dabuka	-9.961
isithe	-9.96387
vule	-9.96428
imihla	-9.96451
ahla	-9.96453
okuningi	-9.96587
qondi	-9.9681
zini	-9.96839
ningaba	-9.96966
oza	-9.96984
kwawo	-9.97214
lungisiswa	-9.97221
kukhanye	-9.97227
ngilandele	-9.97248
benze	-9.97319
yemi	-9.97335
ukubona	-9.97469
into	-9.97524
siza	-9.97642
obu	-9.97671
bafumana	-9.97711
abathi	-9.97715
izibonakalis	-9.97722
isibonakalis	-9.97733
ise	-9.97816
ali	-9.98027
misa	-9.98223
zinhluphek	-9.98227
nabantwan	-9.98252
uyakuba	-9.9827
vuswa	-9.98449
ho	-9.9845
kuse	-9.98559
umkhumb	-9.98563
phu	-9.98569
okholwa	-9.98602
khubekis	-9.98672
kungu	-9.98812
ngaphezu	-9.98845
ngiyazi	-9.98986
isaka	-9.9901
anti	-9.99184
ungubani	-9.99247
kom	-9.99328
abazal	-9.99744
sise	-9.99919
odwa	-10.0001
imvu	-10.0033
r	-10.0055
lukhulu	-10.0087
nikwa	-10.0092
sakwa	-10.0112
kunguku	-10.0112
wema	-10.0126
yezi	-10.015
dala	-10.0157
nqoba	-10.017
phinda	-10.0194
zinkanuk	-10.0203
upha	-10.0216
bezi	-10.022
ebe	-10.0225
lelwa	-10.0235
fokazi	-10.0248
yekhulu	-10.0249
bambuza	-10.0258
bamanga	-10.0279
bali	-10.0288
landisa	-10.0294
lahlekelwa	-10.0294
sibonakalis	-10.0315
xway	-10.0325
c	-10.033
akusho	-10.0334
bathandeka	-10.0335
gqila	-10.0337
yok	-10.0352
thwa	-10.0366
nisa	-10.0374
njan	-10.0382
thele	-10.0413
weyo	-10.0441
tshela	-10.0454
babona	-10.0471
engum	-10.052
saya	-10.0538
bele	-10.0578
kwesi	-10.0578
umhlaba	-10.058
zinga	-10.0612
thethelelw	-10.0615
nesib	-10.0618
ezinhl	-10.062
ez	-10.0624
ukuza	-10.0624
sifundis	-10.0626
butha	-10.0643
hlangothi	-10.0653
masi	-10.0674
nhloko	-10.0698
ngawe	-10.0709
badla	-10.071
ekha	-10.0734
beb	-10.0746
yinkosi	-10.0747
guny	-10.0748
ntombazan	-10.0748
▁;”	-10.075
babusi	-10.077
kwesihla	-10.0772
hlushwa	-10.0793
ngozi	-10.0794
zela	-10.0795
lawa	-10.0801
manga	-10.0802
bakhuluma	-10.0805
naso	-10.0812
ngeze	-10.0822
kwama	-10.0824
baye	-10.0831
mthanda	-10.0833
asiya	-10.0846
washo	-10.0889
wama	-10.0907
ndulela	-10.0929
behamba	-10.0959
thobela	-10.097
p	-10.0977
lizwa	-10.0977
wamukela	-10.0979
naka	-10.0983
bazaku	-10.0993
nenze	-10.1022
memezel	-10.1043
nize	-10.106
iyaku	-10.1074
niye	-10.1087
nde	-10.1097
ziya	-10.1102
uhlala	-10.1102
okwe	-10.1124
sithanda	-10.1128
bangena	-10.1132
muhl	-10.1166
ngam	-10.1168
qonde	-10.117
bhapathizwa	-10.1178
nonina	-10.1193
kwenzile	-10.1206
phakamisa	-10.1231
hlo	-10.1238
size	-10.1244
zanga	-10.1244
seni	-10.1246
siphamban	-10.1248
ala	-10.1254
mibhal	-10.1264
sona	-10.1284
ngokwam	-10.1292
ntaba	-10.1299
jor	-10.1305
muzwa	-10.1305
sivini	-10.1306
zazi	-10.1317
ngenzi	-10.1317
bus	-10.132
besi	-10.1323
miphefumul	-10.1326
eze	-10.1327
khulula	-10.1328
kuzwile	-10.1332
ri	-10.1373
nta	-10.1381
sathi	-10.1384
aze	-10.1385
alifa	-10.1395
kuphikisa	-10.1399
ukukhany	-10.1404
kuyini	-10.1406
ngezwa	-10.1412
okuyi	-10.1443
lungisa	-10.1458
behlel	-10.1463
bethelw	-10.1488
ethanda	-10.1503
mthatha	-10.1519
yikhona	-10.1521
sendlel	-10.1529
sibo	-10.154
imiyal	-10.1546
buza	-10.1576
ebu	-10.1581
bubi	-10.1588
di	-10.1596
kwahlulel	-10.1604
ndi	-10.1632
lama	-10.1644
kuza	-10.1646
fisa	-10.165
zisa	-10.1668
d	-10.1695
babuye	-10.1709
yisi	-10.1747
iyu	-10.1757
mukeliswa	-10.1781
f	-10.1802
zala	-10.1802
besa	-10.1803
ngesib	-10.1805
lungisela	-10.1814
wesi	-10.1819
hane	-10.1829
ngasem	-10.1831
fela	-10.1844
nkonz	-10.1849
ngiphe	-10.1864
selwa	-10.1877
hambe	-10.1877
singa	-10.1892
hhashi	-10.1893
qoth	-10.1908
phelele	-10.1931
mhlambi	-10.1941
zenza	-10.1953
nele	-10.1957
basho	-10.1964
ngizwa	-10.1974
nen	-10.1988
kukhonza	-10.1989
sib	-10.201
kungenzek	-10.2027
ngiyani	-10.2027
esabi	-10.2032
semhlab	-10.2038
kwenziwa	-10.2056
nalo	-10.2058
yingco	-10.2059
oma	-10.2059
gijimela	-10.206
sala	-10.2064
olungi	-10.2071
isihla	-10.2084
wehlela	-10.2145
ngifuna	-10.2145
swa	-10.2172
zifundis	-10.2174
gatsha	-10.2182
ngco	-10.2185
umi	-10.2185
ngokwesi	-10.2191
thokozisa	-10.2204
bambe	-10.2208
nabase	-10.2211
mkhaphela	-10.2218
zase	-10.2227
liya	-10.223
lwen	-10.224
kor	-10.2242
yaso	-10.2242
bikela	-10.2264
mp	-10.2273
phiwa	-10.2341
ongena	-10.2354
bezwe	-10.2361
gcwalisa	-10.2361
uzakuba	-10.2366
ahlale	-10.2367
x	-10.2373
izind	-10.2386
sam	-10.2406
mqond	-10.2425
waze	-10.2432
eseshi	-10.2439
ntwan	-10.2441
ita	-10.2444
thola	-10.2445
othand	-10.2446
ayaku	-10.2448
awume	-10.2449
uze	-10.2458
kuqonda	-10.2461
lwesith	-10.2471
kubap	-10.2473
sawo	-10.248
shelwa	-10.2489
elish	-10.2495
bulo	-10.2499
izimv	-10.2503
ern	-10.2503
kunye	-10.2506
njengom	-10.2508
shesha	-10.2518
fundisi	-10.2525
dama	-10.253
unama	-10.2531
lani	-10.2533
zamazam	-10.2539
bulawa	-10.2541
rabi	-10.2552
izith	-10.2555
hlangabeza	-10.256
kap	-10.2561
mnike	-10.2572
emlil	-10.2589
zalo	-10.2593
ukhuluma	-10.2593
thukuthela	-10.2597
sase	-10.2612
zinkanyezi	-10.2618
omhlaba	-10.263
qeda	-10.2634
ning	-10.2643
ngokunga	-10.2647
nale	-10.265
shunyayelw	-10.2651
ngini	-10.2657
mbulala	-10.2658
uyazi	-10.2664
yilokhu	-10.2689
abangena	-10.2693
mkhiwane	-10.27
sihambe	-10.2704
bubele	-10.2706
oyaku	-10.2715
sokuba	-10.2717
phumele	-10.2739
bamba	-10.2748
ezindlebe	-10.2755
nendoda	-10.2765
fes	-10.277
nobus	-10.2773
ababi	-10.279
lenta	-10.2796
ju	-10.2798
ithu	-10.2807
usho	-10.2831
yiphi	-10.285
yile	-10.2865
alanga	-10.2871
uthanda	-10.2875
ninika	-10.2899
uk	-10.2908
mshay	-10.2909
lolo	-10.2929
isidum	-10.2939
ndu	-10.2947
bahamba	-10.2957
bonwa	-10.2963
nquma	-10.2972
kuvuk	-10.2975
abakhile	-10.2984
ezandl	-10.2984
lazi	-10.3002
es	-10.3009
ekwazi	-10.3009
akusi	-10.3012
oko	-10.3028
othanda	-10.3036
sishiyagalo	-10.3041
kuphil	-10.3044
niyala	-10.305
iceb	-10.3063
zibe	-10.3066
ukuyo	-10.3068
dabul	-10.3072
abu	-10.3073
manyal	-10.3084
ukuzwa	-10.3088
kwezi	-10.3114
nezon	-10.3116
kwamukela	-10.3125
mprofethi	-10.3135
ngokufanele	-10.3137
liyaku	-10.3159
nangama	-10.3161
yiyo	-10.3171
khathazeki	-10.318
gugu	-10.3183
mshad	-10.3183
eva	-10.3184
makez	-10.3184
ziphambek	-10.3184
kholekile	-10.3193
dela	-10.3196
asiyiku	-10.3197
nezinhlanz	-10.3198
oyi	-10.32
buhlung	-10.3205
baqala	-10.3224
kulokho	-10.3227
yize	-10.3248
ngise	-10.3251
mbiza	-10.3255
esinga	-10.326
uye	-10.3261
os	-10.3268
kuphumul	-10.3298
yasi	-10.3306
kukhulu	-10.3312
sipho	-10.3322
heb	-10.333
kwambulw	-10.3338
hlatshel	-10.3344
yima	-10.3345
lwase	-10.3346
ngulu	-10.3349
sokile	-10.3351
izinyo	-10.3354
eqinis	-10.3369
jona	-10.3371
emini	-10.3372
ilanga	-10.3381
yana	-10.3408
nobu	-10.343
khiphe	-10.3452
filip	-10.3454
thethelela	-10.3459
alu	-10.3463
livela	-10.3464
wakha	-10.3466
mene	-10.3471
khwelwe	-10.3476
akho	-10.3505
wabayal	-10.3513
bheke	-10.3519
bingelela	-10.3527
akayiku	-10.3531
nasezi	-10.3539
sadu	-10.3541
ukuhlakaniph	-10.3568
bede	-10.3597
onama	-10.3599
bhubhisa	-10.3604
sisw	-10.3609
kumbe	-10.3614
engu	-10.3624
bonakaliswa	-10.3633
kubi	-10.3641
khubek	-10.3644
okwenzekile	-10.3652
zimu	-10.3653
ndaba	-10.3677
ngisa	-10.3681
hlwanyela	-10.3683
azo	-10.3689
lom	-10.3697
ongum	-10.3727
mhawu	-10.3728
nibona	-10.3729
namukel	-10.3729
lokuba	-10.3732
ngathandi	-10.374
mnini	-10.3753
isisa	-10.3758
hlale	-10.376
feze	-10.3768
angina	-10.3775
bangaba	-10.378
ubula	-10.3788
ngokoku	-10.3803
dumisa	-10.3803
yimp	-10.381
ica	-10.3846
izimp	-10.3867
doni	-10.388
okwakhulunywa	-10.3893
buqili	-10.3898
qamba	-10.3898
cathul	-10.3899
musha	-10.3904
nzuzo	-10.3906
umfundi	-10.3915
nomunye	-10.3921
senza	-10.3923
hayi	-10.3924
siphuza	-10.3925
bakwa	-10.3934
umakhelwa	-10.3934
som	-10.394
makungabi	-10.3941
sizwa	-10.3944
ngingum	-10.3968
dale	-10.3978
ndwang	-10.3992
hlangana	-10.4002
hi	-10.4024
kwenziw	-10.4034
thwele	-10.4044
wali	-10.4051
siyakuba	-10.4051
ink	-10.4092
kubhujisw	-10.4093
mphakathi	-10.4096
mdumisa	-10.4113
wezi	-10.4121
zezi	-10.4126
khwe	-10.4129
nim	-10.4152
ncin	-10.4183
laza	-10.4191
enza	-10.4198
nakhu	-10.4204
ukwahlukan	-10.4207
guqul	-10.4209
okwesitha	-10.4218
mvini	-10.424
umye	-10.4246
ibe	-10.4268
gan	-10.4293
isile	-10.4294
bayakuba	-10.4301
esihle	-10.4308
minikel	-10.4309
aw	-10.4322
she	-10.4329
alusi	-10.4334
bamlandela	-10.4335
bekwa	-10.4341
andle	-10.4352
ar	-10.4354
bonakalis	-10.4374
nolwa	-10.4381
thandeka	-10.4386
njengezi	-10.4397
ngenk	-10.4406
cele	-10.4407
wawo	-10.441
ngokwa	-10.4419
liwe	-10.4439
kungaka	-10.4444
bengena	-10.4447
yiba	-10.4452
ngomli	-10.4461
ekufik	-10.4469
zindlebe	-10.4472
sekus	-10.4474
dalw	-10.4487
inte	-10.4494
ange	-10.4496
funyanwa	-10.4499
ezazi	-10.4509
ngwa	-10.451
ongwe	-10.4523
ngokufa	-10.4527
senu	-10.4552
elis	-10.4557
dra	-10.456
ngasho	-10.4567
zuza	-10.4593
nemini	-10.4609
kucela	-10.4614
imizi	-10.4616
sezi	-10.4621
kubonile	-10.4642
bengi	-10.4643
iqhu	-10.4663
2	-10.4667
guqa	-10.4667
tir	-10.4667
leka	-10.4668
phumela	-10.4668
yaluyal	-10.4669
andr	-10.4669
par	-10.4669
mfel	-10.4671
ngikhulume	-10.468
pro	-10.4682
wab	-10.4683
othe	-10.4684
kathath	-10.4684
lambile	-10.4685
busisa	-10.4686
xosha	-10.4688
qambi	-10.4693
ebandl	-10.4699
ngalaleli	-10.47
mpande	-10.4709
emikhawul	-10.4716
nane	-10.4716
ber	-10.4719
hlakaniphile	-10.4721
babil	-10.4737
eside	-10.4756
▁’	-10.4758
ufana	-10.4762
ambo	-10.4763
nishumaye	-10.477
makabe	-10.4775
yeli	-10.4782
okhokh	-10.4784
nas	-10.4801
kow	-10.4819
yibona	-10.4825
nezinyo	-10.4829
kuphi	-10.4842
ebi	-10.486
ayisithu	-10.4866
inga	-10.4867
yibamba	-10.4882
zabant	-10.4899
okhuluma	-10.49
uf	-10.4901
diya	-10.4918
umpho	-10.4918
boku	-10.4928
nasema	-10.493
umnikel	-10.4942
namahlon	-10.4964
ukwazi	-10.4975
khaphela	-10.4976
sile	-10.4986
qhel	-10.4991
lombus	-10.4993
bafa	-10.4994
esasi	-10.4999
ukuhluphek	-10.5002
ngemv	-10.5003
mela	-10.5004
bahlakaniphile	-10.5016
kulabo	-10.5024
kuvele	-10.5027
abani	-10.5032
silinganis	-10.509
waso	-10.5091
fundise	-10.513
misile	-10.5143
umqh	-10.5145
imbe	-10.5161
babuza	-10.5183
thith	-10.5184
ngele	-10.5191
ningena	-10.5217
gijima	-10.5223
cho	-10.5226
shilo	-10.5239
bakhonza	-10.5247
inxe	-10.5259
ukuthel	-10.5267
sisa	-10.5269
zithanda	-10.5272
qinile	-10.5282
nangezi	-10.5283
bahlala	-10.5294
ceb	-10.5306
bamukel	-10.5312
phiwe	-10.5321
hlanganis	-10.5328
ungesab	-10.5348
ohlezi	-10.5366
weli	-10.5369
bathumela	-10.538
lise	-10.5386
ngump	-10.5386
dukisa	-10.539
nilobela	-10.5392
encwadi	-10.5394
hlukene	-10.5397
nowa	-10.542
nginge	-10.5433
ub	-10.5434
thule	-10.5442
dli	-10.5444
singaba	-10.546
kukhala	-10.5463
enqab	-10.5464
adle	-10.5485
ekufe	-10.5486
salo	-10.5489
tshi	-10.55
hunyu	-10.55
1	-10.55
ezinkulu	-10.5501
kelwa	-10.5501
njengokulotshiwe	-10.5508
faka	-10.5513
yesi	-10.5514
sokwahlulel	-10.5514
tsheli	-10.5519
eru	-10.5521
ando	-10.5531
mzane	-10.5547
kuzingelw	-10.5553
khanyis	-10.5556
ngokom	-10.5556
hohlo	-10.5557
pi	-10.5563
neni	-10.557
kuboshw	-10.5576
wabanik	-10.5583
umnini	-10.5583
bamuka	-10.5586
yazini	-10.5586
unywa	-10.559
kuyakuthi	-10.5593
buyisela	-10.5611
uhlaka	-10.5611
ende	-10.5613
abezwa	-10.5615
imon	-10.5622
lesith	-10.5631
ukusindis	-10.5642
uyindoda	-10.5656
mihla	-10.5656
nginilobel	-10.5656
yenze	-10.566
sekuphele	-10.5667
enze	-10.567
mfundi	-10.5695
ses	-10.5699
umhawu	-10.5704
wakholwa	-10.5709
ozaku	-10.5716
wom	-10.5728
embona	-10.5739
uhambe	-10.5741
philile	-10.5753
ngamesabi	-10.5753
misela	-10.5756
sinagoge	-10.5763
ntombi	-10.5776
balekela	-10.5777
vuthulu	-10.5789
phonsw	-10.5792
qed	-10.5794
nifuna	-10.5799
awo	-10.5805
bamemez	-10.5815
ziwe	-10.5838
kune	-10.5859
buye	-10.586
siprofeth	-10.5873
fakazela	-10.5877
nanto	-10.5891
aya	-10.5921
ingena	-10.5921
yab	-10.5943
ithole	-10.5948
maba	-10.5956
nod	-10.5978
eliphezu	-10.5986
shumayele	-10.5992
ehamba	-10.6002
zesi	-10.6026
du	-10.603
zama	-10.6037
kwabase	-10.6037
nikele	-10.604
thunzi	-10.6062
izuze	-10.6072
ofuna	-10.6072
now	-10.6073
kwemi	-10.6077
odla	-10.608
zam	-10.6082
emizi	-10.6083
uyihlo	-10.6086
lotshiwe	-10.6105
egazi	-10.6124
gcwalisek	-10.6127
wehla	-10.6142
kusiza	-10.6154
makab	-10.6172
lelwe	-10.6173
khetha	-10.6175
thuka	-10.6192
ud	-10.62
isho	-10.6208
mkhumb	-10.623
ezon	-10.6238
esixuk	-10.6243
ebub	-10.6249
mnqum	-10.6254
ongu	-10.6273
andi	-10.6276
ezinye	-10.628
and	-10.6286
endun	-10.6291
zingela	-10.6291
cabang	-10.6297
angiso	-10.6298
abalungile	-10.6299
kulokhu	-10.6302
kuhamba	-10.6308
aso	-10.6315
hlis	-10.6316
dodan	-10.6325
yisibon	-10.6338
bawo	-10.6348
khulume	-10.6353
abafow	-10.637
ngalel	-10.6372
nzal	-10.6402
amata	-10.6402
uphi	-10.6407
gqok	-10.6409
apholo	-10.6413
fundiswa	-10.6415
adam	-10.6417
bongeka	-10.6421
kukhubekisa	-10.6423
nabap	-10.6425
lud	-10.6427
ngokuphelele	-10.6428
embathisa	-10.6432
umphathi	-10.6434
chith	-10.6442
kusebenza	-10.6445
umele	-10.6447
ensim	-10.6448
nezindu	-10.6458
zange	-10.6466
yazisa	-10.6468
nasem	-10.6471
zuz	-10.6482
mamukele	-10.6485
ungumprofethi	-10.6485
cindezela	-10.6498
kuthethelel	-10.65
kugcine	-10.65
nezinye	-10.6501
kulotshwe	-10.6502
dukiswa	-10.6503
mele	-10.6505
ziyi	-10.6507
mbethel	-10.6509
ukuzi	-10.6521
inama	-10.6529
endlebe	-10.6535
wezwa	-10.6536
ngikusho	-10.6552
ofe	-10.6552
kubonakalis	-10.6558
bel	-10.657
nakubo	-10.6573
ngithe	-10.658
amaziny	-10.6584
mani	-10.6592
yafika	-10.6594
angithandi	-10.6597
sihamba	-10.6603
phonse	-10.6616
izindl	-10.662
angala	-10.6628
ngadli	-10.6632
duka	-10.6644
nohlezi	-10.6648
ngowo	-10.6652
zishay	-10.6654
omnc	-10.6659
abenza	-10.6669
qaphelan	-10.6669
kusa	-10.6673
langazelela	-10.6676
okunjalo	-10.67
sisi	-10.6708
ngoka	-10.6709
enkazimul	-10.672
nombus	-10.6725
ezith	-10.6728
ngento	-10.6734
enca	-10.6735
sekufik	-10.6737
lila	-10.6739
akala	-10.6742
ukulwa	-10.6749
lwesi	-10.675
ekuse	-10.6751
babamba	-10.6753
ezindaw	-10.6757
enani	-10.6769
den	-10.6775
iyakuba	-10.6775
angisho	-10.6781
aphi	-10.6797
abahamba	-10.6801
ukungi	-10.6804
buya	-10.6806
yeni	-10.6806
ekuzwa	-10.681
sir	-10.6816
kukhulume	-10.6825
kuphuma	-10.6834
khiwe	-10.684
tilong	-10.6853
ibi	-10.6858
mdala	-10.6861
elik	-10.6869
kwaso	-10.6869
bangcolile	-10.6873
zila	-10.6876
nezilim	-10.6878
hlwanyel	-10.6905
neze	-10.6907
buyel	-10.691
kungalaleli	-10.6926
ulwa	-10.6935
kubonga	-10.6938
embi	-10.6945
eyaku	-10.6947
suke	-10.6961
ungene	-10.6962
meyo	-10.6965
bazenzis	-10.6965
niyi	-10.6973
nginama	-10.6983
shisekel	-10.7
uza	-10.7014
bizela	-10.7023
edwal	-10.704
nezinya	-10.7058
kubola	-10.7075
bamnceng	-10.7076
ziboshw	-10.7077
amas	-10.7081
akuvel	-10.7083
esihog	-10.7087
kokuthi	-10.7091
bapha	-10.7093
sifazane	-10.7108
akhay	-10.7109
baphenduke	-10.7121
miswa	-10.7122
kobus	-10.7143
mise	-10.7144
vumela	-10.7146
kumi	-10.715
sibusis	-10.7175
bamukis	-10.7178
kuyint	-10.718
ntab	-10.7198
ingani	-10.7199
kakhe	-10.721
zindlela	-10.7212
ondele	-10.7215
kokubi	-10.7223
hlela	-10.723
ngayiku	-10.7239
phinga	-10.7246
koze	-10.7266
nikelwa	-10.7267
bhe	-10.7268
sibani	-10.7276
fw	-10.7285
linganis	-10.7289
isiwe	-10.7297
fil	-10.7303
ekuling	-10.731
nya	-10.7311
yakwenza	-10.7316
khulumile	-10.7317
beli	-10.7325
likhi	-10.7334
phikisa	-10.7335
izitho	-10.7337
komo	-10.7343
hlatshelwe	-10.7346
mahlulel	-10.7346
mhlatshel	-10.7348
khathazek	-10.7363
bayizi	-10.7365
abhu	-10.7381
thiya	-10.7383
inkanyezi	-10.7395
endal	-10.7396
njengama	-10.7399
re	-10.74
aleksandr	-10.7409
cwebezela	-10.7409
gumbi	-10.7409
ngasoleki	-10.7409
okodo	-10.7411
kre	-10.7411
samukela	-10.7413
anothi	-10.7413
arki	-10.7414
fundile	-10.7417
sim	-10.7417
hlanzekile	-10.7418
sibosh	-10.7425
isela	-10.7427
sihlale	-10.7431
sebefik	-10.7431
zizukulwane	-10.7435
shiwo	-10.7436
menyiwe	-10.7442
siphile	-10.7444
okunye	-10.7452
angisiy	-10.7465
kungco	-10.7475
sela	-10.7478
lokwahlulel	-10.7479
basi	-10.7493
ngamafu	-10.7494
anikholwa	-10.7501
ulu	-10.7503
lamba	-10.7505
asina	-10.7507
khombis	-10.751
ngangi	-10.7511
aniso	-10.7514
ethandeka	-10.7516
khohlisa	-10.7517
gcoba	-10.752
emisebenzi	-10.7524
kwezinya	-10.7531
nginitshela	-10.7546
engiku	-10.7559
mbela	-10.7559
notho	-10.7569
thwe	-10.7572
thunyiwe	-10.7572
mafu	-10.7577
amalung	-10.7578
ngokuningi	-10.7583
inkon	-10.7589
bulale	-10.7591
kufumana	-10.7594
khuthalela	-10.76
luya	-10.7605
cabanga	-10.7606
kamu	-10.7615
senze	-10.762
safa	-10.762
inzal	-10.7633
sizaku	-10.7641
lis	-10.7643
sithombe	-10.7643
ngokubona	-10.7649
wavuka	-10.7656
sodo	-10.7657
ezixuk	-10.7674
nguwe	-10.7677
thenga	-10.768
yafa	-10.7709
wamukele	-10.7714
mbonga	-10.7739
iningi	-10.7749
kweza	-10.7752
wenyukel	-10.7755
namadoda	-10.7765
uthembekile	-10.7779
ukuma	-10.7798
uphonsw	-10.7816
lini	-10.783
kuthanda	-10.7832
ningabe	-10.7833
zawo	-10.7854
ehlo	-10.7859
qob	-10.7865
imini	-10.7884
ngasoki	-10.7888
mini	-10.7888
ngobus	-10.789
akubanga	-10.7901
ngezo	-10.7917
mkhonza	-10.793
lungiselwe	-10.7954
qondile	-10.7956
siphe	-10.799
angena	-10.8002
ndile	-10.8002
yinto	-10.8003
akwenza	-10.8014
mbhal	-10.8014
yamuka	-10.8034
nayi	-10.806
ntsha	-10.8072
bela	-10.8088
emnya	-10.8091
suse	-10.8094
sithel	-10.8109
ngesibo	-10.812
khonze	-10.8124
abangama	-10.8132
mbeka	-10.8133
esish	-10.8133
ngafi	-10.8154
shay	-10.8155
akenz	-10.8156
netha	-10.8166
wakubo	-10.8167
mile	-10.8182
okuqond	-10.819
onakho	-10.8193
hlanga	-10.8207
izin	-10.8209
mbul	-10.821
ezinyaw	-10.8224
engaka	-10.823
fun	-10.824
gqolozel	-10.824
kwalez	-10.8241
bile	-10.8241
usi	-10.8246
delela	-10.8251
khulumisa	-10.8269
wabafundi	-10.8275
bambulal	-10.8278
kungengoku	-10.8281
vik	-10.8284
neza	-10.8297
kwala	-10.8309
aboku	-10.8309
esingena	-10.832
zithel	-10.8322
yela	-10.8323
thembeka	-10.8323
mnt	-10.8329
sinda	-10.833
lobela	-10.8331
uvuk	-10.8335
anakho	-10.834
abethe	-10.8343
mak	-10.8344
libo	-10.8362
ngaboni	-10.8363
tro	-10.8363
nabanga	-10.8364
fihl	-10.8367
nyoko	-10.8369
nqunyw	-10.8373
yobu	-10.8374
ngenze	-10.8376
ngizakuku	-10.8387
etha	-10.8398
abela	-10.8405
okungena	-10.8405
ngiyakuba	-10.842
uyaphi	-10.8422
mphathi	-10.8436
kufa	-10.8449
umka	-10.8453
ngamadoda	-10.8459
lwes	-10.8471
mamukela	-10.8474
azenza	-10.8475
wasukuma	-10.8481
eyisi	-10.8481
ngabap	-10.849
ste	-10.8497
ababusi	-10.8506
ethemb	-10.8507
akuyiku	-10.8512
gay	-10.8519
hlanza	-10.852
qhutsh	-10.852
5	-10.852
nqamuk	-10.852
chasisel	-10.8521
chibi	-10.8521
ucez	-10.8521
ayese	-10.8523
lamukela	-10.8525
mbongol	-10.8528
mel	-10.8531
wammisa	-10.8531
dumaza	-10.8534
khana	-10.8536
izincwadi	-10.8537
jas	-10.8538
yizin	-10.8541
stefan	-10.8544
kukusindis	-10.8546
kuhambe	-10.8548
ngcweliswa	-10.8548
bungcwele	-10.8548
ngitshele	-10.8555
hlangulis	-10.8562
umnya	-10.8562
lamul	-10.8562
hleka	-10.8563
khulile	-10.8569
siba	-10.857
zigabisa	-10.8577
sikhundl	-10.8586
kubuye	-10.8586
yesaba	-10.8596
ngesihl	-10.8601
sine	-10.8602
ngokw	-10.8606
izaku	-10.8619
kaso	-10.8622
likhuluma	-10.8633
ziyisith	-10.8633
ngamado	-10.8634
bunzi	-10.8637
eniyakuku	-10.8641
khandleka	-10.8646
wayesebabiz	-10.8647
dumis	-10.8647
onqoba	-10.8657
okungaka	-10.8672
bakhuleka	-10.8676
yisho	-10.8682
izikhonz	-10.8697
miselwe	-10.8701
nte	-10.8702
phelelisiwe	-10.8707
dakwa	-10.8721
ongakholwa	-10.8724
senziw	-10.8725
kunale	-10.8731
bambelel	-10.8736
okom	-10.8737
angizang	-10.8745
bebe	-10.8751
ngim	-10.8761
sini	-10.8762
yaya	-10.8773
yesith	-10.8777
ekile	-10.8789
chithek	-10.88
embez	-10.8809
mathe	-10.8816
thandi	-10.8816
sizini	-10.8821
angazi	-10.8842
nxanel	-10.8849
wala	-10.8857
zipho	-10.8866
uthela	-10.8874
okufa	-10.888
nganhliziyo	-10.8882
bekezelela	-10.8882
kunja	-10.8884
ngaku	-10.8906
thwale	-10.8907
ngaqondi	-10.8914
muke	-10.8919
izink	-10.8925
abanjalo	-10.8936
swele	-10.8946
nxazo	-10.8948
duma	-10.8951
lenze	-10.896
bango	-10.8967
bafel	-10.8973
mbele	-10.8978
baphila	-10.8991
sigqila	-10.8992
kubulala	-10.9014
embethe	-10.9014
okoku	-10.9027
kuhlanganyel	-10.9035
indlal	-10.904
owaba	-10.9041
hlulela	-10.9052
philisa	-10.9055
sibone	-10.9058
ziba	-10.9061
okuphila	-10.9063
abafel	-10.9074
ngezind	-10.908
zisho	-10.9102
zidla	-10.9106
ngas	-10.9119
abangakholwa	-10.913
udle	-10.9139
lube	-10.9141
ziphendulel	-10.9153
ezwa	-10.9164
thukulul	-10.9179
hlabelel	-10.9184
bamyis	-10.9199
ningam	-10.9202
balandela	-10.9208
phindisel	-10.9241
mlalela	-10.9241
lingwa	-10.925
zona	-10.9265
ifu	-10.9271
funani	-10.9272
sekuyi	-10.9273
benyama	-10.9287
awusi	-10.9297
lindi	-10.9297
waphind	-10.9302
qaphela	-10.9306
izif	-10.9314
yom	-10.9328
yizwi	-10.9333
lathi	-10.9336
inza	-10.9346
owam	-10.935
mikhulek	-10.935
shisa	-10.9351
nezinto	-10.9352
yiso	-10.9353
okuku	-10.9355
qhweb	-10.9359
yalez	-10.937
ukubiz	-10.9383
nemp	-10.9396
okudal	-10.9405
nginoku	-10.9406
mbuzi	-10.9416
ding	-10.9418
ezinda	-10.942
enzela	-10.9422
wamangal	-10.9446
ngen	-10.9446
sendl	-10.9449
inkulu	-10.9457
hloniph	-10.9458
dinga	-10.9461
sekuf	-10.9469
ukusho	-10.9473
hloni	-10.9484
enama	-10.9519
kungcol	-10.9521
cebile	-10.9522
babule	-10.9523
nabangena	-10.953
khulelwe	-10.9558
ababizi	-10.9559
ngaziwa	-10.956
mfow	-10.9565
kwabuth	-10.9572
isifundis	-10.9575
ndiswe	-10.959
bheki	-10.9591
nesithu	-10.9591
ezimvab	-10.9594
akaze	-10.9598
ngeson	-10.9601
ukuphenduk	-10.9602
neliy	-10.9611
phithi	-10.9633
ngiza	-10.9636
hola	-10.9637
ziboph	-10.965
esithi	-10.9652
phuzisa	-10.9653
pholi	-10.9659
nesih	-10.9667
nhlan	-10.9667
elele	-10.9669
bafanele	-10.9678
balekele	-10.9684
seza	-10.9685
gco	-10.9686
ngent	-10.9691
thengisi	-10.9699
siwe	-10.9701
uyakusindis	-10.9705
impande	-10.9705
yin	-10.9714
ndiswa	-10.9715
yokulung	-10.9723
nezimp	-10.9735
gaba	-10.9745
nikhuleke	-10.9758
kukhulek	-10.976
engqond	-10.9763
avam	-10.977
gceke	-10.977
mbhinq	-10.9771
weqa	-10.9771
khuren	-10.9771
ngabhubhi	-10.9771
lahlekile	-10.9772
nakekela	-10.9773
minyanis	-10.9774
ngokwesith	-10.9777
kon	-10.9778
sekuhlw	-10.978
luva	-10.9781
ukuyobona	-10.9781
okuza	-10.9782
zisindise	-10.9783
ntshon	-10.9786
mthomb	-10.9786
ngqongqotha	-10.9791
zithoba	-10.9791
zany	-10.9793
qhuzu	-10.9794
ndisa	-10.9798
nezikhulu	-10.98
deki	-10.9809
nesishiyagalo	-10.9819
indwang	-10.9825
kise	-10.9825
limaza	-10.9827
yeba	-10.983
hlalisa	-10.983
bahambe	-10.9836
bathath	-10.9837
owahlulela	-10.9851
azany	-10.9855
leh	-10.9858
ngisindis	-10.9861
buni	-10.9862
abahlezi	-10.9868
ezingena	-10.9875
owasi	-10.9877
bamdumisa	-10.988
ingco	-10.9883
zenzis	-10.9889
kuswelekile	-10.9892
ngihawukel	-10.9894
ningab	-10.9896
bule	-10.9898
basuka	-10.9899
nithethelela	-10.99
wabayi	-10.9904
elise	-10.9915
shumayez	-10.9915
boba	-10.9915
sifanele	-10.9929
lwi	-10.9933
sebenzela	-10.9935
ngofakaz	-10.9938
bahlulel	-10.9942
liyi	-10.9943
ewu	-10.9946
khulekela	-10.9953
vumelana	-10.9953
sar	-10.9977
nkathi	-10.9978
olub	-10.9997
otha	-11.0009
naki	-11.0018
walo	-11.0027
ngeni	-11.0027
hleba	-11.0042
vikel	-11.0046
khalela	-11.0057
londoloz	-11.0059
wadabu	-11.0069
semnya	-11.007
kungenge	-11.0071
lobu	-11.0081
banika	-11.0094
imbal	-11.0097
yakwa	-11.0106
alf	-11.0107
nakwaba	-11.0122
babutha	-11.0126
angali	-11.0127
baph	-11.0128
mathun	-11.0131
uzi	-11.0135
ubone	-11.014
sino	-11.014
buthong	-11.0147
bonisi	-11.015
bangabi	-11.0157
ukuthanda	-11.016
ul	-11.0168
nokuqond	-11.0177
kushumayela	-11.0177
efa	-11.0178
umbon	-11.018
ziye	-11.019
abakhuleka	-11.0191
ngelika	-11.0192
beze	-11.0205
zivela	-11.0217
buzana	-11.0219
kun	-11.0223
wakhuphuk	-11.0223
tshala	-11.0231
ungaphing	-11.0237
nakini	-11.0249
ngabafundi	-11.0251
inyang	-11.027
ngamad	-11.0271
sebezw	-11.0309
thinti	-11.0312
nizwa	-11.0313
kungum	-11.0327
ngokwazi	-11.0329
aban	-11.036
siyo	-11.0363
benzi	-11.0374
amuke	-11.0378
yithanda	-11.0378
wayesem	-11.0396
ngibuye	-11.0406
esaba	-11.0408
simi	-11.0435
izim	-11.0448
mnikel	-11.0453
lungu	-11.0455
isabe	-11.0457
nothile	-11.0457
gcini	-11.0458
uyakuphi	-11.0462
zingulube	-11.0467
emikhulek	-11.0487
phumi	-11.049
duduza	-11.0499
akube	-11.05
kuziphendulel	-11.0508
bema	-11.0509
baleth	-11.0513
ndo	-11.0515
ngapheli	-11.0515
elimn	-11.0515
ohlis	-11.0531
buqinisile	-11.0531
ngiyakum	-11.0537
nenk	-11.0537
inye	-11.0542
kwabonakal	-11.0547
yithatha	-11.0553
hlukanis	-11.0579
okuyiz	-11.058
naseku	-11.0585
obaba	-11.059
engizaku	-11.0596
sengiya	-11.0597
yindoda	-11.0609
thande	-11.063
msind	-11.0632
okunje	-11.0635
ongesi	-11.0653
kusondel	-11.0655
ngeziny	-11.0664
kuvuny	-11.0667
okulotshiwe	-11.0667
njengokush	-11.0669
khiwa	-11.0692
dumile	-11.0695
zenzisi	-11.07
wabapha	-11.0711
uhlale	-11.0714
kuthwala	-11.0727
emse	-11.075
kuhlanjululwa	-11.0753
namathel	-11.0755
maninga	-11.0758
abacebile	-11.076
mukeli	-11.0763
dabukisw	-11.0773
izilim	-11.078
vimb	-11.0782
njengase	-11.0791
wabiz	-11.0791
zithiba	-11.0792
wayeseba	-11.0799
phuc	-11.0815
kwakunge	-11.0825
muphi	-11.0835
ayida	-11.0848
olwa	-11.0852
zincoma	-11.0859
ngumfundi	-11.086
ngina	-11.0862
kuhlwanyel	-11.0862
akazi	-11.0864
kulula	-11.0866
diliz	-11.0873
ngalob	-11.0877
inko	-11.0881
njengokwe	-11.0885
thengisa	-11.0896
abazaku	-11.0898
bengaba	-11.0938
lusiz	-11.0947
gcwal	-11.0949
sama	-11.0954
njeng	-11.0956
wobu	-11.0965
yinhl	-11.0972
kulahl	-11.0973
nokw	-11.098
akele	-11.0995
ila	-11.0995
ngabaza	-11.0998
bafike	-11.1002
mbulal	-11.1006
bagcwal	-11.1012
uthabath	-11.1013
ubani	-11.1025
hlephula	-11.1027
yawa	-11.1043
ivela	-11.1045
nezing	-11.1059
bathanda	-11.108
nise	-11.1081
afe	-11.1091
uzakuthi	-11.1097
eson	-11.1105
bonwe	-11.1109
kuswela	-11.1143
elihle	-11.1144
nhlobo	-11.1146
cim	-11.1158
zithi	-11.116
dunyisw	-11.1163
indlebe	-11.1163
betho	-11.1163
math	-11.1165
lulek	-11.1172
ngamukela	-11.1174
zakuba	-11.1177
kusithek	-11.118
abancin	-11.118
bets	-11.1189
nginitsheli	-11.1189
qaphele	-11.1193
zani	-11.1196
gedla	-11.1199
iziqa	-11.1199
noval	-11.1199
etaful	-11.1199
gingq	-11.1199
hlatshwa	-11.1199
gongol	-11.1199
phakanyisw	-11.1199
wavuma	-11.1199
zibekelel	-11.12
mkhathi	-11.1203
bathand	-11.1205
nodadew	-11.1205
inkath	-11.1207
elithi	-11.121
sicebi	-11.1211
phathwa	-11.1213
ungabu	-11.1213
lahlwe	-11.1213
anisibo	-11.1214
andulele	-11.1215
zinsukw	-11.1215
wabafundis	-11.1216
zinhluph	-11.1221
bhapathizelwa	-11.1221
basuth	-11.1222
nsim	-11.1223
zibonge	-11.1225
lala	-11.1225
siphambe	-11.1226
lobo	-11.123
hudulel	-11.1238
ngimi	-11.1245
esingesi	-11.1247
nangu	-11.1252
hlan	-11.1252
ngem	-11.126
benzela	-11.1271
thengise	-11.1278
mfula	-11.1279
badle	-11.1283
womile	-11.1284
lawod	-11.1292
eyenziw	-11.1295
nikhumbuza	-11.1305
macal	-11.1306
imith	-11.1309
lingi	-11.131
etshe	-11.1311
indaba	-11.1311
phuzi	-11.1314
kwakha	-11.1314
cindezel	-11.1317
ahambe	-11.1321
kuyakum	-11.1322
ufakazi	-11.1323
bangam	-11.1323
ngacim	-11.1324
bakhonona	-11.1334
yema	-11.1348
uyakuthi	-11.1348
utshani	-11.135
mthumile	-11.1364
bememeza	-11.1371
sihlephula	-11.1374
guquka	-11.1381
angiyiku	-11.1382
kuswele	-11.1384
abathandeka	-11.1388
nqobe	-11.1395
sethempeli	-11.1396
bashumayela	-11.1418
ngakwazi	-11.1422
ngabahlanganyel	-11.1427
wanikwa	-11.1433
abonakalis	-11.1446
obezaku	-11.1452
mphongol	-11.1453
misiwe	-11.1454
emgod	-11.1457
basindisw	-11.146
hlabathi	-11.146
isitha	-11.1461
nakwab	-11.1471
akwenzile	-11.1484
ukuvun	-11.1498
isiphi	-11.151
mhawukela	-11.1511
kungenga	-11.1513
phendul	-11.1525
kwenzele	-11.1525
isihl	-11.1527
izinhla	-11.1542
umahlulel	-11.1544
siyakuthi	-11.1549
dlela	-11.1551
bayibulal	-11.1554
okufanele	-11.1554
kuqonde	-11.1568
engikwenz	-11.1575
thethelele	-11.1585
mbon	-11.1598
mona	-11.161
ngabazi	-11.1615
ehlela	-11.1617
mntana	-11.1621
ngokum	-11.1628
langabi	-11.163
thusi	-11.1632
siyizi	-11.1657
samu	-11.1664
unec	-11.1676
asho	-11.1677
hlambuluk	-11.1683
holi	-11.1692
ngikhaphela	-11.1694
abaku	-11.1699
yinye	-11.17
nigcwalis	-11.1702
mayi	-11.1704
zingane	-11.1708
izinkulungwa	-11.1713
nezida	-11.1725
he	-11.1729
sesifi	-11.1732
ufanele	-11.1742
qiniswa	-11.1745
sebu	-11.1747
ayeli	-11.1758
ngaphi	-11.178
koniy	-11.1781
nakulo	-11.1783
luleka	-11.1792
sihawukel	-11.1802
babhapathizw	-11.1817
beno	-11.1817
bukhulu	-11.1818
funela	-11.1822
umus	-11.1827
zele	-11.183
khand	-11.1835
valel	-11.1849
babela	-11.1856
sitshel	-11.1861
zakufa	-11.1865
olunga	-11.1868
kwehlela	-11.1872
thembisa	-11.1877
kawu	-11.1878
nakuzwa	-11.1888
enqo	-11.1889
ondo	-11.189
phathi	-11.1894
kukhetha	-11.1898
ngowase	-11.1898
baphume	-11.1899
eyayi	-11.1914
iziny	-11.1916
yaliwe	-11.1917
riy	-11.1925
abesi	-11.1927
solwa	-11.1931
funyanw	-11.1938
benginga	-11.1946
yanga	-11.1949
kufunda	-11.1959
angisi	-11.1965
nokum	-11.197
sasinga	-11.1981
amukele	-11.2003
anika	-11.2003
mbonile	-11.2014
thokozis	-11.2027
fumani	-11.2034
kuzila	-11.2034
ezinkanuk	-11.2049
kababa	-11.205
okunc	-11.206
fanis	-11.2076
ngithokozi	-11.2083
wamanga	-11.2093
asid	-11.211
nezink	-11.2121
lwaba	-11.2138
ngokunye	-11.2144
ingum	-11.2155
babalek	-11.2162
hlali	-11.2166
akuna	-11.2169
uzakuni	-11.218
ukukhulul	-11.2189
kubonakala	-11.2204
siyana	-11.221
umba	-11.2223
ezindl	-11.2226
ochok	-11.2233
singabant	-11.2241
feza	-11.2241
emith	-11.2243
buyisan	-11.2244
lungisele	-11.2244
zab	-11.2264
empum	-11.2264
sil	-11.2268
umkhu	-11.2268
mboph	-11.2273
kwabanga	-11.2278
kuthuka	-11.2284
thukuthelel	-11.2286
ezintab	-11.2309
ungabi	-11.2311
akw	-11.233
khaphel	-11.2334
ubo	-11.2336
ndwe	-11.2371
ngcolisa	-11.2382
inyo	-11.239
sale	-11.2415
ngamath	-11.2432
zigcwele	-11.244
owesi	-11.2443
wayem	-11.2446
amafu	-11.2481
bavusel	-11.2494
angabi	-11.2498
abathe	-11.2499
fike	-11.2499
bhapathizwe	-11.2501
uvela	-11.2502
sola	-11.2509
nx	-11.2511
buth	-11.2512
kulandela	-11.2513
nilinde	-11.2517
ngamukeli	-11.2519
shiwe	-11.2527
esengen	-11.2537
linjenge	-11.2546
ari	-11.2547
nenhla	-11.2573
lingaka	-11.2575
okungco	-11.2576
akaso	-11.2591
baphulukis	-11.2593
ngakhulumi	-11.2607
ungasho	-11.262
nivam	-11.2625
bhapathizi	-11.2626
kutusw	-11.2634
owo	-11.2638
swela	-11.264
shu	-11.2653
zim	-11.2664
ngumbus	-11.2665
yis	-11.2668
ngiyakuku	-11.2672
babik	-11.2678
khuthalel	-11.2684
bamukela	-11.2686
mewu	-11.2696
shiye	-11.2698
kudlule	-11.2699
meli	-11.2719
nifund	-11.272
yalel	-11.2729
shwe	-11.274
hawukela	-11.2744
ningazi	-11.2748
ngobum	-11.2748
dlulile	-11.2756
zimp	-11.2764
esehla	-11.2768
esibi	-11.2771
niphum	-11.2776
phepha	-11.2776
ngukufa	-11.2786
bakhala	-11.2788
abayizi	-11.2801
ihlaz	-11.2801
bekile	-11.2812
nenya	-11.2819
ngatheli	-11.282
izindlela	-11.2831
ukhulul	-11.2837
sihlwa	-11.2841
ningaze	-11.2844
uliwe	-11.2847
uyakuvu	-11.2856
elinga	-11.2856
esivini	-11.2857
gomo	-11.2858
ezigc	-11.2859
wembe	-11.286
ezincek	-11.2861
uphume	-11.2865
adiy	-11.2865
van	-11.2866
ngcwelisa	-11.2866
pont	-11.2866
sambathek	-11.2866
funyaniswa	-11.2866
kuhuhek	-11.2866
mbhede	-11.2866
hlanjalazwa	-11.2866
khafulel	-11.2866
usulu	-11.2867
shiywa	-11.2868
valelisa	-11.2869
eseqed	-11.2873
kokudal	-11.2874
abern	-11.2876
bayishay	-11.2879
yehla	-11.288
zikhukhumez	-11.2882
endod	-11.2883
funisisa	-11.2883
elic	-11.2885
besahamba	-11.2888
engiyaku	-11.2891
wenzile	-11.2892
esambath	-11.2897
phunyuka	-11.29
sifik	-11.29
uthuli	-11.2904
ngingoka	-11.2905
nokubi	-11.2905
sesitha	-11.2907
ningahlulel	-11.2908
ngidumisa	-11.2909
yizwani	-11.2909
anifund	-11.2909
herodiy	-11.291
lokufa	-11.291
zeli	-11.2916
lokugcina	-11.2918
olekile	-11.2918
ngemizi	-11.292
sigcin	-11.2921
ngcwelisiwe	-11.2922
ngaphathi	-11.2922
iziphi	-11.2923
sahlukanis	-11.2927
ngiyam	-11.2929
lam	-11.2932
zibona	-11.2933
wayeba	-11.2936
izakukh	-11.2937
ngephu	-11.294
ayisishiyagalo	-11.294
ngenama	-11.2941
wababiz	-11.2942
pris	-11.2943
sesang	-11.2948
kwaph	-11.2956
akhuleke	-11.2957
wayengum	-11.2958
zilungisele	-11.296
ogw	-11.2963
vulek	-11.2968
nibuthan	-11.2973
yizinhlobo	-11.2976
oyisim	-11.2977
ngafuni	-11.2978
khazimulis	-11.2978
ubeke	-11.2979
senyam	-11.2982
akusiy	-11.2984
isigqila	-11.2984
ukuthatha	-11.2985
belusi	-11.2986
mnya	-11.2993
kungo	-11.2994
ekuphum	-11.2996
mesab	-11.2999
yesin	-11.3003
bathele	-11.3003
kungene	-11.3004
nangom	-11.3004
fundisiwe	-11.3006
wothand	-11.3006
elokugcina	-11.3006
njengesel	-11.3013
engingaku	-11.3025
yomp	-11.3034
ningangeni	-11.3035
obizw	-11.3037
bahawukel	-11.3039
mbisa	-11.3051
buyisana	-11.3056
sitsh	-11.3061
yipha	-11.3062
wesaba	-11.3066
yizimp	-11.307
kwenezel	-11.3071
kulungile	-11.3072
amahla	-11.3072
ayinike	-11.3073
mana	-11.3077
yinceku	-11.3093
nqume	-11.3094
nezithe	-11.3103
amu	-11.3104
akabe	-11.3108
ningethu	-11.311
vamile	-11.3116
obi	-11.3116
mkhaphel	-11.3123
wehlelw	-11.3131
dlule	-11.3145
tshani	-11.3147
nginika	-11.3153
inkokh	-11.3154
qinisela	-11.3155
umum	-11.3157
ngipha	-11.3159
buntwan	-11.3181
unja	-11.3183
khotham	-11.3186
hange	-11.3187
boshwe	-11.3192
abathath	-11.3195
njiwe	-11.3198
izazi	-11.3202
uyayi	-11.3211
nyakazisa	-11.3214
lize	-11.3216
nhloni	-11.3222
ukela	-11.3223
sebandl	-11.3225
phelelisw	-11.3227
uyakwamukel	-11.3228
lwabo	-11.3234
fikelwa	-11.3236
dlile	-11.324
qhwa	-11.3241
phanga	-11.3259
athen	-11.3264
londe	-11.3276
ufuna	-11.3276
nime	-11.3285
kushay	-11.3295
phelela	-11.3296
olahla	-11.3299
unguku	-11.3318
nikile	-11.3319
kweso	-11.3328
yinquma	-11.3328
ohlwanyel	-11.3334
ngenhla	-11.334
yison	-11.3348
sibalo	-11.335
bongi	-11.3351
kuseyi	-11.3359
bambamb	-11.336
sem	-11.3368
okuya	-11.3386
ngow	-11.3386
mzuz	-11.3388
sabel	-11.3396
owavus	-11.3401
ophe	-11.3407
nangokuthu	-11.3414
singabe	-11.3414
mam	-11.3414
nis	-11.3415
wambona	-11.3424
uthethelelw	-11.3446
ngifika	-11.3459
bube	-11.3476
ezinde	-11.3479
khathaz	-11.3484
ozibonga	-11.3487
wavela	-11.3488
buzisis	-11.3489
wababusi	-11.3509
kwenzekile	-11.3513
ululela	-11.3535
sisondel	-11.3535
vunyiwe	-11.3542
kungase	-11.3548
banike	-11.3553
abadla	-11.356
ziwa	-11.3563
ngokwen	-11.3575
siphila	-11.3599
kululek	-11.3601
njengabant	-11.361
ngingaz	-11.3611
pham	-11.3612
lindele	-11.3615
esinama	-11.3615
esise	-11.362
sidal	-11.3623
kakho	-11.3633
bashiya	-11.3647
kushilo	-11.3659
kwahlulelw	-11.3668
abagan	-11.3677
cil	-11.3706
njengam	-11.3711
akha	-11.3717
nibuza	-11.3733
zibophe	-11.3742
ngokwenza	-11.3744
ukwambul	-11.3746
bunga	-11.3748
ebengi	-11.3752
kuzaku	-11.3757
zakwazi	-11.376
okwam	-11.3763
angisayiku	-11.3774
ngesilo	-11.379
umntana	-11.379
esiyi	-11.3797
mhl	-11.3798
batshela	-11.3799
izela	-11.3808
ngishumayel	-11.3816
nyakaziswa	-11.3834
kuyis	-11.3835
namad	-11.3845
sekudlul	-11.3861
ngamalung	-11.3866
yangithanda	-11.3869
esephum	-11.3875
njwa	-11.3883
ubuye	-11.3885
ababez	-11.3896
abakhuluma	-11.3905
ngaphenduki	-11.391
beya	-11.3915
bemli	-11.3937
nganelis	-11.3939
khulek	-11.3942
njengesi	-11.3961
izwa	-11.3969
ngazalwa	-11.3981
sikhw	-11.3983
ukula	-11.3995
okwesith	-11.4002
khawul	-11.4004
nizonda	-11.4021
kam	-11.403
ngokuhle	-11.4032
ndeni	-11.404
ukisa	-11.4069
enzeki	-11.408
ungayi	-11.4112
ikha	-11.4115
emibi	-11.4116
ngokuso	-11.4119
ngezins	-11.4126
akuso	-11.4132
baphile	-11.4141
sifa	-11.415
emizan	-11.4157
basondela	-11.4158
phelelise	-11.4161
semihl	-11.4162
basha	-11.4166
abalizwa	-11.4174
kuchith	-11.4175
lisiwe	-11.4177
ngamac	-11.4177
luhla	-11.4184
lakwa	-11.4185
zifakazela	-11.4187
ihlezi	-11.4199
ngikhonze	-11.4205
yath	-11.4213
izimpi	-11.4216
yenziw	-11.4221
ngafa	-11.4241
semi	-11.4242
bashay	-11.4248
wanga	-11.4251
lwand	-11.4256
makunga	-11.4259
amasa	-11.4263
luk	-11.4268
yidla	-11.4279
kuchitha	-11.4291
hlaba	-11.4293
ukusi	-11.4296
lale	-11.43
bathandiwe	-11.43
zinyo	-11.4302
bhujisw	-11.4305
izelwa	-11.4309
kubekezel	-11.431
okulungi	-11.431
shoni	-11.4317
isih	-11.4348
uqinise	-11.4352
nifundisa	-11.4355
bekiwe	-11.4363
ungang	-11.4387
hlwa	-11.4398
bizele	-11.4399
ngihamba	-11.4401
mfumana	-11.4407
uzakungi	-11.442
hlwith	-11.4427
wayesethath	-11.4433
kuvam	-11.4433
esigc	-11.4437
ngabi	-11.4445
ongathi	-11.4446
kwabayi	-11.4451
waphenduk	-11.4456
bakhuleke	-11.4466
ny	-11.4469
ulungile	-11.447
ici	-11.4476
sakhiw	-11.4486
hlola	-11.4498
wehle	-11.4517
enc	-11.4534
okubonwa	-11.4544
kweba	-11.4568
okusha	-11.4598
yizon	-11.4601
kungak	-11.4607
uzakuza	-11.4609
wemi	-11.4628
dluli	-11.4629
nahlulel	-11.463
buze	-11.4646
lizwi	-11.4663
njengab	-11.4663
nitshele	-11.4677
ifike	-11.4692
isibon	-11.4692
ukuphelel	-11.4698
bathokoza	-11.4702
khathalel	-11.4706
zizwa	-11.4708
ngukulung	-11.4714
ukugcwal	-11.4724
dons	-11.4738
ngabafundisi	-11.4738
elibi	-11.4739
bacebile	-11.4749
nipha	-11.4758
cish	-11.4759
ezif	-11.4762
shiyi	-11.4763
zinhlanz	-11.4772
mful	-11.4773
klebhul	-11.4774
ngumprofethi	-11.4777
yihl	-11.4782
nezim	-11.4794
insiz	-11.4811
nimi	-11.4811
benja	-11.4815
sethu	-11.4818
nez	-11.4821
kubaph	-11.4826
athane	-11.4833
khohlisi	-11.4837
jabhis	-11.4838
kubonakalisw	-11.4841
ngikwazi	-11.4843
ngcwelise	-11.4845
ababemi	-11.4849
esifub	-11.485
bayakuni	-11.4853
ngombus	-11.4854
enyusel	-11.4854
sukw	-11.4863
libi	-11.4863
ashiyw	-11.4864
esevuk	-11.4866
linqaba	-11.4866
abavuma	-11.4866
pherg	-11.4866
4	-11.4866
gubuzel	-11.4866
ncintisana	-11.4866
nikhumbule	-11.4866
klolodel	-11.4866
nawodadew	-11.4866
sishwabene	-11.4866
yembatha	-11.4866
kufiphazw	-11.4866
ephafr	-11.4866
khumul	-11.4866
zihlambulul	-11.4866
yamukela	-11.4867
ithakal	-11.4867
zinganekwane	-11.4867
wenziwa	-11.4868
wayengaka	-11.4869
udadew	-11.4869
yamukele	-11.487
wayenamadoda	-11.4874
kwamukele	-11.4874
niyakuba	-11.4876
imikhu	-11.4876
zidle	-11.4878
dazuluk	-11.4879
eline	-11.4881
sithume	-11.4884
bahlulek	-11.4885
nabangalaleli	-11.4885
sard	-11.4887
alikho	-11.4888
sishiye	-11.4889
kwaphuc	-11.489
bhidliza	-11.489
benyukel	-11.4894
zabapho	-11.4894
ekamel	-11.4896
vunguz	-11.4899
nokuzi	-11.4899
nxib	-11.49
sanguluk	-11.4902
hlanzek	-11.4903
bakhubek	-11.4906
aris	-11.4908
entan	-11.4908
mfuma	-11.4914
dingek	-11.4916
pheme	-11.4917
iyakuzond	-11.4918
engazi	-11.492
obekuzaku	-11.4921
yichi	-11.4923
imibu	-11.4926
kujul	-11.4929
basuke	-11.4931
kwabalungile	-11.4935
zimi	-11.4936
kumfow	-11.4938
qinisekile	-11.4944
ngiyakwenza	-11.4945
sici	-11.4947
kulidl	-11.495
omi	-11.495
beqala	-11.4953
ngaya	-11.4953
kabana	-11.4953
mduduz	-11.4953
enginga	-11.4954
akasi	-11.4958
yitshe	-11.4961
qhoth	-11.4965
nansi	-11.4966
buzela	-11.4968
ngizakwenza	-11.4973
abenzi	-11.4974
nyazi	-11.4984
khishw	-11.4987
did	-11.4988
julile	-11.4991
kwelase	-11.4993
ukhathalel	-11.5001
masang	-11.5001
masinga	-11.5002
nibambelel	-11.5004
kump	-11.5008
zimisel	-11.5015
lulele	-11.5019
kubandezek	-11.502
qhubekel	-11.502
vivinya	-11.5022
nowoku	-11.5027
gcine	-11.5032
shanel	-11.5033
dede	-11.5035
bathunyelw	-11.504
kwenzelwe	-11.5041
okungayikwa	-11.5041
yizindl	-11.5042
iziboph	-11.5048
ushane	-11.5052
nikhulekela	-11.5054
edabul	-11.5054
okungaye	-11.5055
ningabaka	-11.5058
siyin	-11.5059
mngcolisa	-11.506
emibhal	-11.5064
hlisa	-11.5072
nginikhu	-11.5073
mukis	-11.5082
ukubhapathiz	-11.5082
kumiselwe	-11.509
nokufa	-11.5093
kudingek	-11.5095
engikusho	-11.5095
ilahle	-11.5102
waqhubek	-11.5103
qalekisiwe	-11.5104
aniyiku	-11.5105
ebhe	-11.5106
ongayiku	-11.511
abasho	-11.5111
enzal	-11.5113
engump	-11.5114
amthanda	-11.5117
ukukhulule	-11.5117
uyaphil	-11.5119
kholiwe	-11.5127
zenzile	-11.5129
wathola	-11.5131
banjw	-11.5133
esifanele	-11.5133
wahlukene	-11.5134
balamukele	-11.5135
lingena	-11.5146
izinka	-11.515
niswa	-11.5155
ngamas	-11.5157
obunga	-11.5158
nokuthanda	-11.5166
lima	-11.5171
ikhazimulis	-11.5175
umhum	-11.5181
nabesi	-11.5189
engali	-11.519
nyamalal	-11.5192
agcwalise	-11.5192
abasha	-11.5198
esingu	-11.5207
ukhulume	-11.5214
kuseza	-11.5219
myal	-11.5219
bewu	-11.522
abathanda	-11.5226
eziza	-11.5226
esese	-11.5232
fuman	-11.5233
wasithanda	-11.5237
kusilele	-11.5245
sifinyelel	-11.525
ezindlel	-11.5273
hambela	-11.5275
uden	-11.5281
eyihla	-11.5281
fenik	-11.5286
zise	-11.529
yahlulela	-11.5294
mangalelwa	-11.5294
zibuthe	-11.5297
kayiku	-11.5299
kujezis	-11.53
abangaba	-11.5302
engiyakum	-11.5316
kuhluphek	-11.5319
nasin	-11.5319
ulimi	-11.5335
vimbel	-11.5338
vuselela	-11.534
thandiwe	-11.5342
uyisi	-11.5346
isazi	-11.5349
yezinyo	-11.535
ziphi	-11.5351
zamanga	-11.5356
ash	-11.5358
avela	-11.5362
nokubekezel	-11.5365
mzingela	-11.5368
okungabon	-11.5371
wayengo	-11.5384
zenzi	-11.5388
roni	-11.5389
ngakwenza	-11.5397
kukhonz	-11.5402
neson	-11.5404
samuk	-11.5408
kokufa	-11.5414
wayengu	-11.5419
bathengisa	-11.5419
ngayazi	-11.5424
eliza	-11.5427
fakelw	-11.5443
zotha	-11.5448
bajezis	-11.5452
zithobe	-11.5455
yamukeliswa	-11.5464
nezind	-11.5466
owadal	-11.5466
kobu	-11.548
ethemba	-11.5482
nisindis	-11.5482
okuba	-11.5508
sikwazi	-11.5516
khulunywa	-11.5523
iphu	-11.5531
luthi	-11.5532
kulinganis	-11.5534
ukuyi	-11.5537
athath	-11.5542
ubutha	-11.5543
okus	-11.5544
ithathe	-11.5548
bonakale	-11.5552
bakhulule	-11.5554
hlanjululwa	-11.5563
anise	-11.5569
liphilile	-11.5574
ezelwe	-11.5575
abanc	-11.5578
yeki	-11.5582
anizang	-11.5589
bha	-11.5597
idili	-11.5598
ofu	-11.5599
bugqil	-11.56
zilinganis	-11.5605
nj	-11.5608
ngokuf	-11.5618
nihawukel	-11.5646
babulal	-11.5653
kwesa	-11.5654
nabayi	-11.5659
ziphathi	-11.5661
hlengwa	-11.5674
ngabuyel	-11.5678
umbu	-11.5679
umfan	-11.5685
zin	-11.5695
angifuman	-11.5728
singena	-11.573
welul	-11.5733
liyisi	-11.5735
singab	-11.5745
hlole	-11.575
ezingak	-11.576
kunjengo	-11.5761
zindab	-11.5771
wengu	-11.5779
kubhubh	-11.578
eyisa	-11.5785
kwakungesi	-11.5787
nishisekel	-11.5787
nikelwe	-11.5788
wayehlez	-11.5791
zenze	-11.5803
lungisisi	-11.5809
bengaka	-11.5812
abuye	-11.5822
hlile	-11.5825
bethele	-11.583
kuyihl	-11.5836
usus	-11.5838
okomo	-11.5863
ngomuhl	-11.5863
awuyi	-11.5871
owona	-11.5883
kufafaz	-11.5892
emp	-11.5897
bashayw	-11.5907
bayeke	-11.5912
fihliwe	-11.5912
akasiy	-11.5913
sifuman	-11.5914
uyale	-11.5923
jabhiswa	-11.5926
kuzakub	-11.5946
ingabe	-11.5948
engakholwa	-11.5949
okwenza	-11.5954
enziw	-11.5954
bab	-11.5956
wayeseqal	-11.596
iyakon	-11.5967
esingaka	-11.5971
hlwanyelw	-11.5973
abangasoki	-11.5973
finyelel	-11.5976
kuthela	-11.599
akukuhl	-11.599
yombu	-11.5996
aphulw	-11.6
sifaka	-11.6003
amnceng	-11.602
fungi	-11.6036
ngesen	-11.6042
mmangalela	-11.6059
ezingulube	-11.6063
wile	-11.6069
mlandele	-11.6079
sondel	-11.6087
angibang	-11.6092
jezis	-11.6094
ebukha	-11.6102
nababulal	-11.6119
baqonda	-11.6125
abeza	-11.6127
elungile	-11.6134
sikhulul	-11.6137
kwabelw	-11.6137
yakwahlulel	-11.6141
dukile	-11.6144
akubona	-11.6146
okuse	-11.6152
eningena	-11.6164
esebuy	-11.6168
delelwa	-11.617
kufihliwe	-11.6174
zihlobo	-11.6176
yibonile	-11.6178
kuding	-11.6187
ebuthakathak	-11.619
miyal	-11.619
bumpof	-11.6224
buyis	-11.6236
bengakholwa	-11.6238
nithokoz	-11.6253
ilin	-11.626
ombus	-11.6262
sizo	-11.627
ephi	-11.6275
ngamazi	-11.6281
engiba	-11.6296
phakamisel	-11.631
ngithand	-11.6314
bingelel	-11.6316
ekubona	-11.632
silungisis	-11.6332
azaku	-11.6336
kungavel	-11.6338
buhle	-11.636
ngiyisi	-11.6361
kangak	-11.6364
sindwa	-11.6381
bekuzw	-11.6387
abiya	-11.6409
ifika	-11.6425
abakhi	-11.643
obukhulu	-11.6437
kutamas	-11.6452
mzalwane	-11.6453
nobumn	-11.6463
kukhazimula	-11.6467
nakum	-11.6472
mpi	-11.6472
kuqinisek	-11.6475
badukis	-11.65
bambona	-11.6506
bamkhand	-11.651
yizwe	-11.6519
ngingesi	-11.6524
chok	-11.6529
yezwa	-11.653
hlanganisel	-11.6531
ilong	-11.6538
hlamba	-11.6559
yiz	-11.6562
siqhingi	-11.6565
nabath	-11.6573
angayi	-11.6587
ngathethelel	-11.6596
kwembatha	-11.6602
buyisel	-11.6602
isid	-11.6603
kukhulunywa	-11.6609
umile	-11.6616
kuthath	-11.6631
ufik	-11.6639
phendukel	-11.6641
khiwane	-11.6647
bonakali	-11.6661
sabona	-11.6661
senz	-11.6671
shuk	-11.6679
khokhel	-11.6681
asibeke	-11.6686
siphi	-11.6688
sebenzisa	-11.6712
wesa	-11.6717
ngakhe	-11.6738
asithand	-11.6744
ingaka	-11.6746
hluph	-11.6748
ngingena	-11.6749
hlolisis	-11.675
makani	-11.6751
thwala	-11.6757
kusas	-11.6767
ngenyukela	-11.6774
nginazi	-11.6777
banaka	-11.6784
engakaso	-11.6789
kwenzek	-11.6798
ngivela	-11.6804
esebu	-11.6805
bathenga	-11.6817
mnyam	-11.6817
mayib	-11.6825
isith	-11.6832
ngife	-11.6836
amnqabel	-11.6847
nikwenza	-11.6848
amah	-11.6856
akunaku	-11.6864
nezint	-11.6866
phathe	-11.6871
zikhohlisa	-11.6872
okwabant	-11.6881
yokuba	-11.6885
ukwamukela	-11.6886
phumul	-11.6889
neyesi	-11.691
abaphenduk	-11.6914
mth	-11.6914
aphume	-11.6916
untu	-11.6918
nogan	-11.6935
ngabad	-11.6959
viviny	-11.6961
khumb	-11.6963
nikiwe	-11.6968
ukukha	-11.6968
sithol	-11.6973
lulama	-11.6979
kiwe	-11.6986
nihlambulul	-11.6989
akuza	-11.6992
esiyaku	-11.7
iphile	-11.7002
fihlakele	-11.7002
mkhomb	-11.7015
nihl	-11.7016
ngifik	-11.7023
esitsh	-11.7038
guquk	-11.7038
sisindis	-11.7044
ngimangalelw	-11.7062
kubizw	-11.7063
alusa	-11.7067
lamukele	-11.7067
ezihlal	-11.707
ekufundis	-11.7078
ngithuma	-11.7092
wemba	-11.7094
thumile	-11.7096
tamas	-11.7099
ungebi	-11.7103
sibambis	-11.7108
bafe	-11.7111
liphi	-11.7126
lungis	-11.7127
zula	-11.7131
babulala	-11.7133
amakha	-11.7134
anani	-11.7136
nibikel	-11.7138
nompho	-11.7154
yabuye	-11.7175
ihlambulul	-11.7184
bezaku	-11.7206
vulekile	-11.7218
abathengisa	-11.7222
okuphelele	-11.7232
abaphili	-11.7236
nyathelw	-11.724
esang	-11.7246
singazi	-11.7248
khonona	-11.7258
asilahle	-11.726
anamathel	-11.7268
siqalekis	-11.727
esihlahl	-11.7276
bavumel	-11.7277
uyakwamuk	-11.7282
mbhubhis	-11.7283
nemizi	-11.7296
nangase	-11.7296
izidum	-11.7297
ufike	-11.73
isikha	-11.73
zidele	-11.7307
babulaw	-11.7313
bantw	-11.7317
miswe	-11.7319
nezitho	-11.7325
encek	-11.7333
ngenja	-11.7334
igax	-11.7334
ifik	-11.7335
mkhiphel	-11.7335
nasez	-11.7336
mcol	-11.7337
zokubu	-11.7342
ngis	-11.7345
ukwamukel	-11.7345
gxum	-11.7346
onesa	-11.735
profethe	-11.7355
umpheth	-11.7357
odadew	-11.7358
iqonde	-11.7358
akhulume	-11.7359
ngikwenza	-11.7361
lingwe	-11.7365
umangalela	-11.7366
ger	-11.7366
phuphuthek	-11.7366
tuseka	-11.7366
6	-11.7366
agcinw	-11.7366
amagw	-11.7366
avuke	-11.7366
gudluk	-11.7366
ivuke	-11.7366
mqamekel	-11.7366
ntshumayel	-11.7366
ogibe	-11.7366
siqashi	-11.7366
siqong	-11.7366
sivunguvung	-11.7366
tiberiy	-11.7366
mbuq	-11.7366
ncelisa	-11.7366
phakanyiselw	-11.7366
cunul	-11.7366
qongelel	-11.7366
xutsh	-11.7366
ziklabi	-11.7366
setshenzw	-11.7366
hlunyelelw	-11.7366
ngizingele	-11.7366
ungivum	-11.7366
ugob	-11.7366
umthen	-11.7366
mthathe	-11.7366
sikhulekele	-11.7366
ixha	-11.7367
ukugana	-11.7367
kwambulela	-11.7367
akhushul	-11.7367
ngabalingis	-11.7367
hemu	-11.7368
sihibe	-11.7368
laywa	-11.7369
bhula	-11.7369
bhekisisa	-11.7369
izahlulel	-11.7369
ngikhulul	-11.7369
akusayikuba	-11.737
enalizwa	-11.737
unyisw	-11.737
engenziwa	-11.737
lahliwe	-11.737
hlanzwe	-11.737
ukumth	-11.7371
iyakubiz	-11.7372
niqinise	-11.7372
yaluza	-11.7372
uzakwenza	-11.7373
halel	-11.7373
philisiwe	-11.7374
yenyukela	-11.7375
kungenziwa	-11.7375
thengela	-11.7375
shelwe	-11.7376
kungakabi	-11.7377
ayiyiku	-11.7377
simfu	-11.7377
awukhathal	-11.7377
ziqaphele	-11.7378
ubup	-11.7378
babengenaku	-11.7379
kuzwisis	-11.7379
wagcwal	-11.7379
enkanuk	-11.7381
thokozela	-11.7381
okuphind	-11.7382
rod	-11.7384
ekuphele	-11.7384
okuthandeka	-11.7384
yilethe	-11.7384
mataful	-11.7387
nimangalela	-11.7388
yivula	-11.7389
washay	-11.7392
sesifub	-11.7392
yindl	-11.7393
ukubuke	-11.7393
umhlanga	-11.7394
afune	-11.7394
akususw	-11.7395
nenxe	-11.7396
dabukisa	-11.7398
wamonyuk	-11.7398
nabakhile	-11.7399
usufik	-11.74
nembal	-11.74
abading	-11.7403
kuthunjelw	-11.7406
ganwe	-11.7407
nezinja	-11.7407
ezigcwele	-11.7408
hliwe	-11.7408
zamukele	-11.7409
indisel	-11.7411
sayikuba	-11.7411
senzele	-11.7414
nemith	-11.7415
kwalotsh	-11.7421
asenza	-11.7422
okumhlo	-11.7423
ngithinti	-11.7425
izikhw	-11.7425
ezitsh	-11.7425
owayefak	-11.7426
lungisisa	-11.7429
holwa	-11.7432
ngesithe	-11.7433
lithukulul	-11.7434
babengazi	-11.7435
nenhlan	-11.7436
esawu	-11.7436
ayesem	-11.7436
vilapha	-11.7437
ngahawukelwa	-11.7438
encik	-11.7438
siyakuvu	-11.7439
ahlukane	-11.7441
nginibekezelel	-11.7443
ukhulumela	-11.7445
uyahlan	-11.7447
endul	-11.7448
ngikulobel	-11.7454
yambul	-11.7455
niyakubona	-11.7457
nginike	-11.7457
nenzele	-11.7458
neziphi	-11.7459
okhal	-11.7459
bamfuna	-11.7461
hlephule	-11.7464
alishilo	-11.7466
asinike	-11.7467
lomp	-11.7468
lalise	-11.747
ngibeke	-11.7471
ikamela	-11.7473
humusha	-11.7473
amabhan	-11.7474
nyathela	-11.7475
uyabona	-11.7476
bafulathel	-11.748
wamamukela	-11.7481
libala	-11.7482
yokushis	-11.7482
elibu	-11.7487
ngasenaku	-11.7498
sitaladi	-11.7501
nomprofethi	-11.7501
dabukile	-11.7509
singama	-11.7513
abangayiku	-11.7513
bamlalela	-11.7516
esebona	-11.7522
zahlulel	-11.7524
ingafi	-11.7525
phahla	-11.753
nengwa	-11.7533
bayizimp	-11.7538
bamkhiphe	-11.7538
ngikhombis	-11.7539
beyizi	-11.754
nowesi	-11.7541
kuqondile	-11.7543
owayenom	-11.7544
nemiza	-11.7547
chichima	-11.7549
hloma	-11.755
afike	-11.7552
uyindl	-11.7555
esahamba	-11.7555
mayela	-11.7555
yokufa	-11.7556
wabakhiph	-11.7556
yathela	-11.7557
epheth	-11.756
nomahlulel	-11.7563
ungenis	-11.7566
nomzalwane	-11.7567
bonise	-11.757
kukhathazek	-11.7572
kayina	-11.7572
likhul	-11.7573
nezihla	-11.7574
bagcine	-11.7576
ilungel	-11.7582
ngishiya	-11.7582
ongamukela	-11.7583
namac	-11.7589
ongala	-11.7592
waphonse	-11.7592
isifu	-11.7595
ziphakamis	-11.7596
bengazi	-11.7599
ubonakalisi	-11.76
namafu	-11.7601
abasindiswa	-11.7604
sithandw	-11.7613
abathenw	-11.7615
badabu	-11.7616
esihlabathi	-11.7617
ebezaku	-11.762
semp	-11.7622
lingise	-11.7628
ophilisa	-11.7633
sesihlal	-11.7637
kungokwen	-11.7637
bakwenze	-11.7638
ningahlangan	-11.7639
hlotshis	-11.7639
bafund	-11.7646
elingaka	-11.7647
nabakhulu	-11.765
izinsiz	-11.7658
ungaka	-11.766
vunul	-11.7667
bayakwamukel	-11.7673
nihlale	-11.7674
nanges	-11.7682
beniyaku	-11.7684
hlupha	-11.7691
ngahlulela	-11.7692
owanibiz	-11.7696
kwabangena	-11.7699
yababe	-11.7707
esezim	-11.771
abakubona	-11.7717
ukushay	-11.7719
wakhula	-11.7721
niyakwamukel	-11.7721
kulinganiselw	-11.7726
ungow	-11.7727
isithand	-11.7735
nisisa	-11.7748
ungowaba	-11.775
enzile	-11.7751
langazel	-11.7751
unyoko	-11.7761
nabakhuleka	-11.7761
waphatha	-11.7762
sahamba	-11.7765
muki	-11.7769
elingcwele	-11.7773
yiphathe	-11.7775
ngembathis	-11.7777
nombha	-11.7777
impeth	-11.7779
ibilis	-11.778
lomemeza	-11.7788
ngahlulel	-11.7806
abakhonza	-11.7817
anda	-11.7818
uyakuma	-11.7821
olizwa	-11.7822
rakh	-11.7823
nyukela	-11.7826
sihle	-11.7829
nisiza	-11.7835
kuphuza	-11.784
nginguku	-11.7847
kubuthan	-11.7851
finyelela	-11.7854
okuphuma	-11.7856
wayeseza	-11.7856
baluleka	-11.7856
bamangalel	-11.7859
sisho	-11.7863
awuka	-11.7864
sivulele	-11.7866
qhube	-11.7867
asihamb	-11.787
chil	-11.7879
siphiwe	-11.788
sekuya	-11.7884
ohlangothi	-11.7884
ngifake	-11.7888
niphethe	-11.7904
kubekiwe	-11.7907
kungukufa	-11.7908
phathisw	-11.7909
kungokwa	-11.7914
uyison	-11.7916
sidlulile	-11.7929
nasezind	-11.7939
awuyiku	-11.7941
zafika	-11.7941
qondani	-11.7956
nabapha	-11.7967
ephelele	-11.7982
ababiz	-11.7983
ngizwe	-11.7987
enginilobel	-11.799
sikhuphuk	-11.7998
yisihl	-11.8003
balala	-11.8011
nilile	-11.8012
bahlambalaza	-11.8027
zikhulumel	-11.8029
ngavela	-11.8032
ngehl	-11.8032
ahlulele	-11.8034
kungaziwa	-11.8035
op	-11.8049
hlanganyele	-11.8053
ngiyindoda	-11.8062
benqabel	-11.8066
qiniswe	-11.8066
ahlul	-11.807
okhuthazela	-11.8072
phule	-11.8085
zibonel	-11.8091
baland	-11.8092
emfuy	-11.8105
ngizakukukho	-11.8105
thobele	-11.8106
menyezelw	-11.8111
uyakusi	-11.8115
akanak	-11.8117
nenhlam	-11.8121
wendlu	-11.8121
sibekele	-11.8122
ohlwanyela	-11.8122
angisa	-11.8124
ezimpi	-11.8128
bahlal	-11.8143
kufez	-11.8143
isif	-11.8144
kuhlakaniph	-11.8147
yink	-11.815
ngiyenza	-11.8155
mfane	-11.8155
azesul	-11.8156
dalelwa	-11.8157
baphelele	-11.8161
nokubong	-11.8168
aniswe	-11.8168
nidla	-11.817
ningikhumbul	-11.8191
njengemi	-11.8192
athan	-11.8195
abethelw	-11.8202
lwezw	-11.8202
uyakufa	-11.821
kuqhubek	-11.8212
ngehle	-11.8216
wangu	-11.822
sekuy	-11.8234
amathu	-11.824
ngumkab	-11.8263
ngend	-11.8265
sithibez	-11.8279
ngubutha	-11.8281
hlubuk	-11.8287
yafu	-11.8291
basola	-11.8291
kumpha	-11.8296
zinikele	-11.8304
yikuph	-11.8307
ngifuman	-11.831
aphila	-11.8322
bazuz	-11.8333
zobu	-11.8339
namhla	-11.8342
ngokwethemb	-11.8344
kudle	-11.8344
yizwa	-11.835
lezin	-11.8355
ukubong	-11.8363
mangali	-11.8366
songela	-11.8368
ungisa	-11.8372
qondakal	-11.8373
zungezi	-11.8376
alina	-11.8376
ayize	-11.8377
wahlukanisi	-11.8379
zilungile	-11.8383
ndela	-11.8385
kuhlw	-11.8385
sibusisa	-11.8399
bayeka	-11.8399
esiza	-11.8401
lingel	-11.8407
kokho	-11.8413
ungaze	-11.8417
kugcin	-11.8433
inyan	-11.8448
ch	-11.8459
sibona	-11.8482
ngidla	-11.849
ngesiphamb	-11.8509
kungokwam	-11.8518
enikhuluma	-11.853
ekul	-11.8532
sen	-11.8536
aphang	-11.8545
ufanis	-11.855
ngokuhl	-11.8551
noqh	-11.8552
niphendulan	-11.856
nginithand	-11.8565
ngikhiph	-11.858
busiswa	-11.8581
zebu	-11.8591
lilotshiwe	-11.8593
profethi	-11.8594
ywe	-11.8613
bakuzw	-11.8613
ninezin	-11.8632
ubheke	-11.8646
kuvusw	-11.8661
ezincwadi	-11.8689
nokwab	-11.8695
yikha	-11.8702
lwesin	-11.871
abapheth	-11.8724
ubonga	-11.8728
maqom	-11.8748
kubonwa	-11.875
yavela	-11.8755
besab	-11.8787
ngakuyek	-11.8792
ngokungazi	-11.8792
nosiz	-11.8834
kusibo	-11.8858
chachi	-11.8859
siqed	-11.8861
cwa	-11.8861
daba	-11.8866
ngabaph	-11.8884
nesabel	-11.8891
bengahla	-11.891
ongumf	-11.8913
adel	-11.8914
nemvu	-11.8926
zilethe	-11.8927
kusuthis	-11.8931
kuchachi	-11.8932
zimpond	-11.8948
kwezint	-11.8956
bamnikel	-11.897
nant	-11.8992
ngokubong	-11.8996
uswa	-11.901
zilind	-11.9012
mmukis	-11.902
hekile	-11.9021
zibonile	-11.9039
zihlakaniphile	-11.9054
ngil	-11.9063
omk	-11.9063
bathul	-11.9069
ngiphuzis	-11.907
esem	-11.9081
ngafung	-11.9086
amahl	-11.9087
asinik	-11.9093
ngangeni	-11.9096
ente	-11.9112
wathwal	-11.912
ngehli	-11.9144
okusindis	-11.9147
yakha	-11.9151
hawukelwa	-11.9157
yabuza	-11.9161
esezw	-11.9168
khazimula	-11.9175
nqol	-11.9177
silele	-11.9186
liwil	-11.9211
qinisek	-11.9233
khela	-11.9256
bamuke	-11.9257
baphind	-11.9264
wamphath	-11.9273
nangesi	-11.9276
sikhon	-11.9296
shunyaye	-11.9305
badlula	-11.9306
ngamah	-11.9311
nzisa	-11.9313
lokuzal	-11.9321
bahleka	-11.9344
nendu	-11.9344
khawulez	-11.9346
lizaku	-11.9347
bambo	-11.9349
zibone	-11.936
yiphu	-11.9368
neliswa	-11.937
ngenzan	-11.9397
fafaz	-11.94
yisishiyagalo	-11.9401
zwela	-11.941
ifund	-11.9412
nizingela	-11.9413
kuphume	-11.942
phulukisw	-11.9426
amhl	-11.9431
zwakale	-11.9438
athabath	-11.944
khuphukel	-11.9468
kuhlubuk	-11.952
ngithumel	-11.9529
kisi	-11.9536
nesihla	-11.9542
kulindel	-11.9562
kuphenduke	-11.9564
njwe	-11.9576
zungez	-11.9582
senize	-11.9592
kwenyuk	-11.9592
mpum	-11.9596
sop	-11.9599
ziz	-11.9606
wambo	-11.9616
bengin	-11.9639
zitho	-11.9639
bacebi	-11.9642
ngokukheth	-11.9648
nokuhleng	-11.9658
disi	-11.967
kubonakaliswa	-11.9675
okwesi	-11.9677
emhl	-11.9694
mkhiphe	-11.9694
ngikhuleke	-11.9718
okwezw	-11.9752
uphu	-11.9764
’	-11.9766
nywa	-11.9766
nishay	-11.9773
bunye	-11.978
kukhokh	-11.9785
khethi	-11.9814
sehla	-11.9819
onakale	-11.9837
entsh	-11.9842
zor	-11.986
ngangise	-11.9863
wahlul	-11.9868
ugcwalis	-11.9875
ondolo	-11.9882
wamad	-11.9886
lahlekelw	-11.9889
imim	-11.9903
bamh	-11.9905
wasipha	-11.9914
ningakwazi	-11.9915
bazis	-11.9925
qalekisa	-11.9945
kwakum	-11.9966
kukhazimul	-11.9967
khethile	-11.9986
nokungena	-12.0003
izihlal	-12.0007
bathethelel	-12.0018
khuphuk	-12.0028
zikhethel	-12.0033
sobu	-12.0041
jiswa	-12.0044
mgodi	-12.0064
angifumana	-12.0065
aduduze	-12.0073
kunxuse	-12.011
ungowom	-12.0113
wagul	-12.0122
ngalandel	-12.0128
nqolobane	-12.013
kungenjenga	-12.0144
nowesith	-12.0147
eziphel	-12.0151
shumayel	-12.0157
phelekezela	-12.0159
esekhulum	-12.016
neyezi	-12.0169
myeke	-12.017
sinama	-12.0172
nceng	-12.0179
ngant	-12.0188
esenikel	-12.0189
mibi	-12.0199
sinalo	-12.0206
ndise	-12.0208
msus	-12.0223
ngomun	-12.0226
kufund	-12.0245
kamela	-12.0245
zikha	-12.0246
kashi	-12.026
nokub	-12.0275
ife	-12.029
;	-12.03
sad	-12.0304
nokungcol	-12.0304
.	-12.0307
engumbu	-12.0308
abaphath	-12.0326
abaz	-12.0329
nkulu	-12.034
zinja	-12.0354
hlwe	-12.0355
nokungcoli	-12.0359
abahlakazekile	-12.0362
ngesizo	-12.0394
mngcolis	-12.0397
zehla	-12.0401
bazakuyi	-12.0409
ukukhuthal	-12.0418
uzakum	-12.0425
yithi	-12.0426
mukise	-12.0436
kwakuyi	-12.044
mletha	-12.044
nokuphulukis	-12.0442
kuchichim	-12.045
uyakuthath	-12.0457
nemv	-12.0457
kwahlukan	-12.0461
nazin	-12.0465
bababulal	-12.0478
sens	-12.0487
nesif	-12.0489
kukhandlek	-12.0496
sikhule	-12.0496
thotshis	-12.0499
asebenze	-12.0504
gijim	-12.0512
ungowe	-12.0513
zigabis	-12.0513
italadi	-12.0514
aniphe	-12.052
ngabafo	-12.0525
yahlul	-12.0526
zibamb	-12.0529
babesendl	-12.0541
wahlukan	-12.0546
bangaqondi	-12.0548
kusuth	-12.0552
izinhluph	-12.0563
ahluphe	-12.0566
ikamel	-12.0568
abangcwelisiwe	-12.0577
izingane	-12.0578
isida	-12.058
inhlangan	-12.0582
hlambalaz	-12.0589
kumesab	-12.0593
kwasebu	-12.0595
kwakhiw	-12.0606
buthanel	-12.0608
midum	-12.0608
abalala	-12.0612
lekile	-12.0622
imikh	-12.0624
ngemp	-12.0636
ziphendu	-12.0642
abasayiku	-12.0643
kuyakukh	-12.065
gangeni	-12.0653
esibuk	-12.0654
izakuvu	-12.0656
nababi	-12.0665
nqabel	-12.0666
uphenduke	-12.0668
yalisis	-12.0669
nilangazelel	-12.067
ekulung	-12.067
sithokoz	-12.0673
faki	-12.0674
ngonya	-12.0678
ngathembeki	-12.0679
nabahle	-12.0679
sok	-12.068
esihla	-12.0683
kulethw	-12.0683
nivusel	-12.0684
eziyizi	-12.0686
lishilo	-12.0686
akhohlw	-12.0687
kukheth	-12.0688
abulaw	-12.0688
muny	-12.0688
tshengise	-12.0689
eziqond	-12.0689
ngifuni	-12.0691
kwalel	-12.0694
anivum	-12.0694
esembethel	-12.0697
ushisw	-12.0698
uyiqamb	-12.0698
amvusel	-12.0699
7	-12.0699
9	-12.0699
cetshis	-12.0699
elaliq	-12.0699
galiy	-12.0699
izigidi	-12.0699
maviy	-12.0699
namagqu	-12.0699
namaqa	-12.0699
sitshekelwe	-12.0699
tert	-12.0699
xokozela	-12.0699
▁¦6:2	-12.0699
dlov	-12.0699
emigodi	-12.0699
zivuth	-12.0699
nqatshelw	-12.0699
cunuk	-12.0699
ikhihliz	-12.0699
ngibekezelele	-12.0699
zikholek	-12.0699
dunyazw	-12.0699
fet	-12.0699
herm	-12.0699
zihlobis	-12.0699
kubhidlik	-12.0699
ukuphamban	-12.0699
kuhlambulul	-12.0699
ezibhebhe	-12.0699
kuduke	-12.0699
eras	-12.0699
abayimangalela	-12.0699
salimon	-12.0699
nokushi	-12.0699
phaphama	-12.07
sisaswele	-12.07
engiwuphiwe	-12.07
mkhond	-12.0701
angizuk	-12.0701
njengabanga	-12.0701
zethembi	-12.0701
sasilalelwe	-12.0701
cansi	-12.0701
nilalele	-12.0701
camel	-12.0701
owalenza	-12.0701
njengokushiwo	-12.0702
balenza	-12.0702
awuseyi	-12.0702
njengezinyo	-12.0702
zithobis	-12.0702
ongowase	-12.0702
kumangalela	-12.0702
areth	-12.0702
nqunyelw	-12.0702
bamqhub	-12.0703
qhubek	-12.0703
akwethembela	-12.0704
zenzekile	-12.0704
bacebe	-12.0706
hlumelel	-12.0706
awufaka	-12.0707
thukuthelis	-12.0707
wawusu	-12.0708
okunike	-12.0708
ezinezin	-12.0708
kubaphathi	-12.0708
ngithobi	-12.0709
zithathel	-12.0709
yalusa	-12.0709
enhlam	-12.071
yibaphi	-12.071
nanko	-12.0711
nehlelw	-12.0712
ejwayele	-12.0712
kugcwale	-12.0712
awus	-12.0713
bakhandw	-12.0713
ogani	-12.0713
usikhulule	-12.0714
ungakhali	-12.0715
ngitshengis	-12.0715
bahlanganyel	-12.0715
yenyuka	-12.0716
ngezif	-12.0716
gaxa	-12.0716
mvumel	-12.0717
inhlanz	-12.0719
ngingowa	-12.0721
eyayimi	-12.0721
engalizwa	-12.0722
umkhulek	-12.0722
bekelwe	-12.0723
nimhlu	-12.0723
ondliw	-12.0723
lahli	-12.0724
klawudiy	-12.0725
ngolahliwe	-12.0726
elithulul	-12.0728
namakha	-12.0728
thenjiswa	-12.0728
yehlel	-12.0728
ifo	-12.0728
udaka	-12.0729
zahlukanis	-12.0729
ongenami	-12.0729
basebenze	-12.073
singes	-12.0731
zenzele	-12.0736
ngamlahl	-12.0736
yisiphi	-12.0736
alingcwelis	-12.0736
umkhwe	-12.0739
dilizile	-12.0741
isisu	-12.0741
lihlatshiwe	-12.0741
baphumul	-12.0745
ngikhazimulis	-12.0745
ungangihl	-12.0746
nigxil	-12.0747
engakuzwa	-12.0748
ngiyinceku	-12.0748
ngaluphi	-12.0748
wayesemuka	-12.0749
bakubik	-12.075
olungol	-12.075
hlonipheka	-12.0751
nasezinta	-12.0753
kududuzek	-12.0754
baqalekisiwe	-12.0754
ukuhlan	-12.0755
delelekile	-12.0758
beyakuli	-12.0758
engikwenzile	-12.0759
phahlile	-12.0759
kujwayela	-12.076
lihle	-12.076
ukukhahlel	-12.076
ezinjan	-12.0761
niyin	-12.0762
senginitshel	-12.0762
kwenzelwa	-12.0762
ubize	-12.0764
bere	-12.0766
khukhumal	-12.0767
ngokulinganis	-12.0768
iliba	-12.0769
eyopha	-12.077
bamehlis	-12.077
elingena	-12.0771
wenezel	-12.0771
bavalel	-12.0773
ambulela	-12.0775
juliy	-12.0775
sinen	-12.0775
bakhuphukel	-12.0776
uzakubona	-12.0777
ngishay	-12.0779
akwabe	-12.078
senhla	-12.078
ngibuza	-12.0781
ukushisekel	-12.0781
abakuthanda	-12.0782
ebud	-12.0788
zabutha	-12.0788
omningi	-12.0789
zakwenyuk	-12.079
wahlwith	-12.0792
nangen	-12.0792
kudunyisw	-12.0794
usilahl	-12.0795
ngathokozi	-12.0796
sikhulume	-12.0796
ngikuf	-12.0801
isitho	-12.0801
bedabul	-12.0804
engimkhonza	-12.0805
ngihlale	-12.0807
uzuze	-12.0808
nilithukulul	-12.0808
nhliziyombi	-12.0809
ikhumbuz	-12.0812
ngokwambul	-12.0815
ngikushay	-12.0819
fakela	-12.0821
hiya	-12.0821
ngumvuz	-12.0822
bungane	-12.0822
fr	-12.0823
abalalela	-12.0824
kwakunguku	-12.0827
njengabangena	-12.083
babuya	-12.0833
ezifanele	-12.0835
linike	-12.084
ibinga	-12.0842
yiqondis	-12.0844
bebutha	-12.0847
esikuzwile	-12.0848
hlakazekile	-12.0849
isikhw	-12.085
abamuzwa	-12.0851
bayim	-12.0854
nesifo	-12.0855
aniwu	-12.0857
zithibe	-12.0858
niphumul	-12.086
ork	-12.0862
kuklebhu	-12.0865
umlind	-12.0867
ungishiy	-12.0868
kusithekile	-12.0874
wasinik	-12.0878
nyathel	-12.0879
kulingana	-12.0881
xaban	-12.0881
angizi	-12.0883
khazimuliswa	-12.0883
isikhulu	-12.0885
kufik	-12.0887
ngiyanazi	-12.089
okuqini	-12.0893
ngiyawu	-12.0894
ayakuba	-12.0896
kubuyiselw	-12.0901
anginike	-12.0902
nezesi	-12.0902
ngenisi	-12.0906
kumahlulel	-12.0907
ngilandela	-12.091
nangezinye	-12.0911
bemangal	-12.0915
niluleka	-12.0917
babonakalis	-12.0919
kwakungo	-12.0924
nginibong	-12.0928
kunciph	-12.093
lukiy	-12.0931
kabaqond	-12.0931
ababes	-12.0931
zibonele	-12.0935
wuphiwe	-12.0937
baphath	-12.0939
sizakala	-12.0939
iyihlan	-12.0941
asihlambulul	-12.0942
mzuzwan	-12.0943
zibula	-12.0945
akayek	-12.0946
nginibhapathiz	-12.0952
yifa	-12.0959
livulekile	-12.096
basonde	-12.0964
mbonge	-12.0968
iyalid	-12.0968
kuphulukisw	-12.0969
bayakuthi	-12.0973
oswela	-12.0977
huma	-12.0988
beyakukhu	-12.0989
uyakuthatha	-12.0989
funeka	-12.0998
yaphul	-12.1
nokwahlulel	-12.1
welela	-12.1001
ngamaza	-12.1006
nesiphuz	-12.101
zikh	-12.1014
bunjenge	-12.1017
inento	-12.1018
bebuye	-12.1018
sizonda	-12.102
silandel	-12.1021
ahlulelwe	-12.1021
elim	-12.1022
yithumela	-12.1023
emiya	-12.1024
basukuma	-12.1027
boshelwa	-12.1028
ngiyisa	-12.1029
abadlula	-12.1032
sesilo	-12.1038
izikhu	-12.1043
awunaku	-12.1049
abahlanganyel	-12.1055
nisela	-12.1062
baphendukel	-12.1066
bembamb	-12.107
ithume	-12.107
ngikuthethelel	-12.1079
lahlanga	-12.1083
bumba	-12.1096
sicela	-12.1098
eyakuba	-12.11
ngithol	-12.11
besinge	-12.1101
zabuye	-12.1102
nangenk	-12.1105
iphilisile	-12.111
waphons	-12.1117
engashiy	-12.1118
kuphiwe	-12.1124
ngumbu	-12.1124
buphathi	-12.1125
zemp	-12.1127
ital	-12.1155
uneso	-12.1155
abakhel	-12.1158
yizihla	-12.1161
nabanama	-12.1162
ayivusa	-12.1163
mlindele	-12.1164
wayesesuk	-12.1165
ezivumelwan	-12.1168
ngilethe	-12.1172
ngacindezel	-12.1176
seniy	-12.1192
nikhulul	-12.1193
othembek	-12.12
bamqaphel	-12.1208
andela	-12.1209
seliph	-12.1212
wezwi	-12.122
ezimpond	-12.1224
akunikel	-12.1228
kufihlakele	-12.1229
nesithe	-12.123
lahlulela	-12.1231
bakhiphe	-12.1234
izelel	-12.1235
ney	-12.1242
akumisel	-12.1243
phatr	-12.1246
lime	-12.1247
usebenzile	-12.1252
lida	-12.1252
thunji	-12.1255
buwul	-12.1259
ongabu	-12.1264
ekula	-12.1265
kwec	-12.1275
ngibon	-12.1275
yisitha	-12.1276
nomp	-12.1297
khohliswa	-12.1302
wenyuk	-12.1304
meza	-12.1317
niphulukis	-12.132
ngab	-12.1321
enec	-12.1323
wubonile	-12.1324
iphakamisi	-12.1329
bahlazisa	-12.1335
uvukel	-12.1342
ongayikw	-12.1357
nihola	-12.1357
kwabakho	-12.1367
ziphons	-12.1369
mhlangulis	-12.137
ngehlelw	-12.1374
kuphelele	-12.1384
ngimbona	-12.1386
bakhukhumele	-12.1404
kufezek	-12.1405
imfu	-12.1414
akehle	-12.142
ekungen	-12.1424
mababe	-12.1437
ebayal	-12.1458
esiphil	-12.1461
engenalu	-12.1466
asizang	-12.1487
nokuva	-12.1495
wokusha	-12.1506
liqinile	-12.151
ukuphan	-12.1512
iyakushay	-12.1513
nembath	-12.1518
kuvamile	-12.1522
uyathand	-12.1525
okuzaku	-12.1527
selufi	-12.1527
ngakhulum	-12.1534
biziwe	-12.1553
yosu	-12.156
ngoweny	-12.1567
niphelelis	-12.1574
umth	-12.1576
ngikulobi	-12.1576
silindel	-12.1579
kunalo	-12.1585
seniya	-12.159
nakweli	-12.1601
zidli	-12.1602
likhulu	-12.1602
ngikhulumi	-12.1603
vuthulule	-12.1611
khomba	-12.1613
gwemel	-12.1619
iyakuthum	-12.162
bayakwahlulel	-12.1652
nabatheng	-12.1656
bayizith	-12.1689
kwempa	-12.1693
umshu	-12.1695
ngihamb	-12.1698
yigqolozel	-12.1703
sembel	-12.1704
yakubusiswa	-12.171
lokaz	-12.1717
emithi	-12.1723
babefik	-12.1725
wayithum	-12.1741
oyakusindis	-12.1741
aphambuk	-12.1748
layith	-12.1753
ichithe	-12.1757
ngiloba	-12.1769
ababem	-12.1779
kusekelw	-12.1782
ngazenzi	-12.1783
sizincom	-12.1808
kungokwakh	-12.1815
nibuye	-12.1816
baphonse	-12.1818
walandel	-12.1837
ngezindl	-12.184
siyiso	-12.1849
ukuphang	-12.1867
lwezin	-12.1883
kungayiku	-12.1885
sesis	-12.1887
wath	-12.1902
bathol	-12.1905
bazibek	-12.1915
ngidlul	-12.1928
sothand	-12.1972
bayakuvuk	-12.1993
mvumela	-12.2003
sihog	-12.201
makaf	-12.2018
isik	-12.2025
ngesik	-12.2033
okuhlwanyel	-12.2038
amaphik	-12.2055
ekiwe	-12.2066
sinawo	-12.2067
nomus	-12.2097
ngiphiki	-12.2109
iphele	-12.2119
njengakwab	-12.2131
ingelelwa	-12.2135
sezith	-12.2152
sebeb	-12.2161
enomo	-12.2169
baphendule	-12.2186
ngikukhuluma	-12.2212
abangab	-12.2222
esegcin	-12.2224
engow	-12.2232
nizonde	-12.225
samukelisw	-12.2255
yakusi	-12.2259
kufunyanw	-12.2264
ngabhapathiza	-12.227
bangikhonz	-12.2277
ufung	-12.2278
wayenemi	-12.2285
lokuling	-12.2302
kuyisibon	-12.2302
ababemlandel	-12.2312
balingwa	-12.2322
ngithath	-12.2338
ngayidl	-12.2342
nyuka	-12.2349
dili	-12.2351
sesihamb	-12.2352
bambisise	-12.2357
sesiqhingi	-12.2363
kuzwakal	-12.2383
ngokungalungi	-12.2406
basebenzisa	-12.2409
kwahlukanis	-12.2434
yengwa	-12.2434
zigcinel	-12.244
duku	-12.2473
khawuleze	-12.2473
behla	-12.2484
sasise	-12.2486
amabel	-12.251
bangaboni	-12.2515
ayenzi	-12.2538
ngokungaphez	-12.255
sibuthe	-12.2553
ngezenz	-12.2569
linjengel	-12.2579
ngibizel	-12.2588
niyakuthi	-12.2591
kubusiswa	-12.2601
bamfuman	-12.2628
umnewe	-12.2642
ngikha	-12.2646
bisa	-12.2657
jonga	-12.266
bangabant	-12.2677
ara	-12.2684
sencek	-12.2715
ubung	-12.2717
engaf	-12.2727
kunemb	-12.2732
bengath	-12.2733
besazi	-12.2751
esesishiyagalo	-12.2753
wayeselula	-12.2763
ezingaphe	-12.2766
kungeng	-12.2773
elimele	-12.2795
sabakho	-12.28
ngamukel	-12.2846
besam	-12.2854
bambisis	-12.2864
nganyakaziswa	-12.2865
bathobel	-12.2865
kuhlwanyelw	-12.2871
niphenduke	-12.2899
bammangalela	-12.2913
imind	-12.2927
ababhubhis	-12.2954
kusekho	-12.3016
magatsh	-12.302
njengaku	-12.3025
nesiphi	-12.3034
lalingu	-12.3037
nasikh	-12.3037
ahlukan	-12.3043
wakhw	-12.3049
abaqh	-12.3057
babuyis	-12.3076
zifune	-12.3097
iyakusuk	-12.3104
bahlabelel	-12.3127
obuth	-12.313
kubafo	-12.3133
ngikhulekel	-12.3157
nesabe	-12.316
behlis	-12.3182
njengabazenz	-12.3185
mdelel	-12.3208
ugcin	-12.3209
wasibi	-12.3228
imif	-12.3241
mbingelela	-12.3248
mbambe	-12.3258
abamele	-12.328
yishay	-12.3301
zigcine	-12.3307
abakhwelw	-12.333
nend	-12.3335
asinjeng	-12.3352
bafakazel	-12.3357
ngingab	-12.3369
kwemih	-12.3371
bebabi	-12.3372
sokub	-12.3374
uzakub	-12.3383
basiza	-12.3413
bening	-12.3428
yakunipha	-12.3452
ngukubong	-12.347
zihlal	-12.3476
bakhumbul	-12.3501
sisekh	-12.3503
uyachith	-12.3508
okushay	-12.3517
wabathath	-12.3562
emazw	-12.3564
esezaku	-12.3571
hez	-12.3577
zondelel	-12.3588
imin	-12.3609
ngiyib	-12.361
kungubu	-12.3617
hlambi	-12.3624
ikhathaza	-12.3639
lisusa	-12.3678
nginibon	-12.3705
bahol	-12.3707
nobuhl	-12.3785
akhwel	-12.3785
ongenaku	-12.3839
isifund	-12.3846
mbuyise	-12.3853
ngingenz	-12.3857
waleth	-12.386
yisith	-12.3864
nithengi	-12.387
bahlabe	-12.3885
ehlambulu	-12.3885
ukudl	-12.3892
selis	-12.3942
zikhuza	-12.3943
lisus	-12.3977
bavusw	-12.3982
ningamazi	-12.3986
sife	-12.3994
cindezelw	-12.4
ngingakwaz	-12.4005
thululel	-12.4008
rob	-12.4012
kungamesabi	-12.4019
siqonde	-12.402
engavuswa	-12.4037
ngifakazel	-12.4043
uyakubiz	-12.4107
iyifum	-12.4109
ezinyoni	-12.4128
bahlu	-12.4133
isibuy	-12.4142
nokuphuz	-12.4186
ngithume	-12.4191
kumenyezel	-12.4193
akuyala	-12.422
ngalotshwa	-12.4235
ebiz	-12.4314
badak	-12.432
ngalazi	-12.433
ngigcin	-12.4336
gweme	-12.4354
awavumel	-12.4364
esingam	-12.4372
ningakhubeki	-12.4381
zikhulume	-12.4397
nasemakha	-12.4412
ukub	-12.4415
phakamise	-12.447
isiqh	-12.4476
nokusol	-12.4482
kwabafundi	-12.4495
nibusis	-12.4498
ukumkhu	-12.4501
nikhale	-12.4502
unike	-12.4506
behl	-12.4508
nonile	-12.4522
ngininik	-12.4534
nikhathazeke	-12.455
ukuzindl	-12.4575
umiselw	-12.4575
hawukel	-12.4597
thuki	-12.4609
ngolungi	-12.4639
thunyelwa	-12.4639
olak	-12.464
khukhumele	-12.4643
hume	-12.4683
ningakwenz	-12.4723
yazondl	-12.4727
zinhl	-12.4727
saphil	-12.4741
wazinik	-12.476
thukulu	-12.4769
nemikhu	-12.48
phefumul	-12.4808
kudukisa	-12.4813
eningaku	-12.4819
yithabath	-12.4857
mbuz	-12.4866
nkanyezi	-12.4878
ezingaka	-12.4902
kufakaz	-12.4923
bokwal	-12.4935
maning	-12.4941
ngaphezul	-12.4949
landele	-12.4962
sekulung	-12.4964
ngiyakufaka	-12.4967
makungab	-12.4983
yivus	-12.4983
kuguqulw	-12.5012
ayifuman	-12.5023
siyal	-12.5023
nokweth	-12.5035
bathint	-12.5049
aqinise	-12.5059
uhlangul	-12.5078
wamenz	-12.5084
ngikunike	-12.509
sezimuki	-12.5092
lotshwe	-12.5094
bangenis	-12.5099
nhluphek	-12.511
baphele	-12.5111
kuthukuthele	-12.5118
qhingi	-12.5125
hlotsh	-12.5129
alethw	-12.5142
zasend	-12.5143
haqile	-12.5152
ayilungisel	-12.5168
ukwenzel	-12.5176
ahlushw	-12.5193
kwamukelw	-12.5196
olile	-12.52
nawom	-12.5202
nihluphek	-12.5208
uyakubonakala	-12.5212
kumlalel	-12.5226
isikhu	-12.5233
bengabakho	-12.5242
nasend	-12.5244
udukis	-12.5248
ilishumayela	-12.526
ningibon	-12.5264
ufakaze	-12.5266
salil	-12.5284
ukugcob	-12.5285
wambamb	-12.5289
nibiz	-12.5295
kungakholw	-12.5297
?	-12.5304
enabel	-12.5311
abathobe	-12.5313
wesink	-12.5318
bangahlambalaz	-12.5325
eliyu	-12.5327
arab	-12.5329
enhl	-12.5329
bekezele	-12.5336
yiphons	-12.5337
dabuki	-12.5344
abeleth	-12.5347
lokud	-12.5348
gwin	-12.5352
kuthokoz	-12.5354
wamhl	-12.5359
izibul	-12.5365
abaduki	-12.5368
khaph	-12.5377
esehle	-12.538
okucabanga	-12.5382
ado	-12.5384
khandlek	-12.5408
yezin	-12.541
phindis	-12.5419
zwakalis	-12.5431
nezif	-12.5434
esebeke	-12.5443
wathint	-12.5444
bamdumis	-12.5445
zincom	-12.5446
khumbuza	-12.545
qaphelisis	-12.5453
singatha	-12.5454
bakhumbu	-12.5473
ikh	-12.5474
khany	-12.5491
sizakwen	-12.5495
singasindi	-12.5495
aphulukis	-12.5499
emiful	-12.5501
nyiwe	-12.5507
mahluk	-12.5509
colisa	-12.5512
engayib	-12.5518
ngomnya	-12.5531
amthint	-12.5536
akathi	-12.5542
xosh	-12.5546
abashintsh	-12.5546
pr	-12.5546
nezihl	-12.5551
ngikuth	-12.5551
uphenduk	-12.5563
phelekezelw	-12.5581
ongamel	-12.5585
zabik	-12.559
ungash	-12.5591
esikucel	-12.5592
ezink	-12.5597
mdal	-12.5604
ejok	-12.5605
mnqob	-12.5607
inja	-12.5608
enyukel	-12.5617
phonsi	-12.5619
iyele	-12.5621
gxil	-12.5622
emakha	-12.5622
khunju	-12.5623
ekuthunj	-12.5624
efakazelw	-12.5635
uyakwehlis	-12.5636
ngibhapathiz	-12.5638
sibambisis	-12.5644
nangales	-12.5647
nikwenzel	-12.5648
hlazisa	-12.5648
sishi	-12.5648
ezingenam	-12.5648
imangalela	-12.5649
ziqed	-12.5651
hlakaniphe	-12.5653
hlanjulul	-12.5653
uyahla	-12.5655
umphik	-12.5656
sesondel	-12.5659
kunci	-12.5661
thethwe	-12.5661
for	-12.5663
njengesikh	-12.5666
inkanuk	-12.5666
yaphind	-12.5667
aphenduke	-12.5668
xwayis	-12.5669
ayinkulu	-12.567
ngokuzith	-12.5671
nimangale	-12.5672
uphendule	-12.5672
lidlulisel	-12.5679
okwahluk	-12.568
yagcwal	-12.5683
bahlakazek	-12.5684
thakatha	-12.5684
esidl	-12.5686
nxusela	-12.569
mvumi	-12.5691
celi	-12.5691
izinhlo	-12.5692
iphulukis	-12.5693
genk	-12.5693
afakaze	-12.5693
ihlume	-12.5694
jabulisa	-12.5694
lungisile	-12.5695
akusayi	-12.5695
kulungisel	-12.5696
ahlukile	-12.5696
akusu	-12.5697
kwesih	-12.5698
akhulunyw	-12.5698
ukwelak	-12.5699
ibulaw	-12.5699
nasemig	-12.5699
trif	-12.5699
▁¦12:	-12.5699
cwilis	-12.5699
siqwash	-12.5699
abamgwaz	-12.5699
anikhumbul	-12.5699
aqembu	-12.5699
ingagudluz	-12.5699
kuging	-12.5699
kugwal	-12.5699
kuqwash	-12.5699
kwabavun	-12.5699
'	-12.5699
0	-12.5699
bakuhlabel	-12.5699
baqale	-12.5699
baveze	-12.5699
bengavum	-12.5699
gwedl	-12.5699
jivaz	-12.5699
mncoma	-12.5699
ngaxegi	-12.5699
ngokuphindiwe	-12.5699
nizikhumbul	-12.5699
nqunyiwe	-12.5699
okwangehlela	-12.5699
tshulw	-12.5699
ugodl	-12.5699
xhwangu	-12.5699
yahluma	-12.5699
zigidigidi	-12.5699
ziqheny	-12.5699
elinqa	-12.5699
matende	-12.5699
nconyw	-12.5699
sebemmise	-12.5699
ungeqiw	-12.5699
zigodi	-12.5699
zishisw	-12.5699
bashisw	-12.5699
mklomel	-12.5699
okungayikuhlaluk	-12.5699
wayondliw	-12.5699
usamkhathaz	-12.5699
ekhakhasi	-12.5699
sidebesel	-12.5699
finyezwa	-12.5699
baphambukel	-12.5699
mbunganyel	-12.5699
sonakalisa	-12.5699
dalma	-12.5699
ngikuhlosa	-12.5699
luthungel	-12.5699
kwafipha	-12.5699
kahlulel	-12.5699
yanulek	-12.5699
yikriso	-12.5699
qhinga	-12.5699
azizuzel	-12.5699
zifinyez	-12.5699
ahumush	-12.5699
kadadew	-12.5699
nyukumal	-12.57
zithakazel	-12.57
xakek	-12.57
mmemile	-12.57
▁’;	-12.57
anisayiku	-12.57
baraki	-12.57
okubekelwa	-12.57
ukuphambuk	-12.57
bayibeke	-12.57
ngilikhazimulis	-12.57
akuhlambululile	-12.57
kufiphal	-12.57
lundiza	-12.57
ngilalele	-12.57
bepheny	-12.57
thengiswa	-12.57
abesehamba	-12.57
baxokozel	-12.57
kris	-12.57
umkamfow	-12.57
droni	-12.57
uphuluki	-12.5701
sezizakuphel	-12.5701
abakulungiselwe	-12.5701
ngasabonakali	-12.5701
bhoz	-12.5701
ngimenze	-12.5701
wangenzela	-12.5701
anyisw	-12.5701
amaphuph	-12.5701
esedlulel	-12.5701
ulande	-12.5701
njengabafow	-12.5702
bhobo	-12.5702
ngolulandela	-12.5702
bakuphiwa	-12.5702
zinjengezin	-12.5702
sihlom	-12.5702
kwesabisa	-12.5702
uthathe	-12.5702
inhlam	-12.5703
beniqhub	-12.5703
hweba	-12.5703
siduduzek	-12.5703
wamfaka	-12.5703
likheth	-12.5703
ukhuleke	-12.5703
badedela	-12.5704
ezijabulisa	-12.5704
wahlulelwe	-12.5704
ziphanyek	-12.5704
ngihube	-12.5704
antipa	-12.5704
fuzula	-12.5705
elingenziw	-12.5705
ohlake	-12.5706
ngiwuth	-12.5706
waholel	-12.5706
ngisezaku	-12.5706
wawunjengom	-12.5706
engowenza	-12.5706
hlasela	-12.5707
ngahlukanisel	-12.5708
ngethembi	-12.5708
zezifu	-12.5708
ngimzwel	-12.5708
ngobup	-12.5709
senabusa	-12.571
singalahlwa	-12.5711
engibathanda	-12.5711
hosho	-12.5712
wayiho	-12.5712
raha	-12.5712
niphathane	-12.5713
bahlehl	-12.5714
safir	-12.5714
onikhohlisa	-12.5714
akayikubanga	-12.5714
kukhulisw	-12.5715
ezandulela	-12.5715
ngokuhlamba	-12.5715
ngimfu	-12.5715
wayengangena	-12.5716
eshi	-12.5717
phinde	-12.5717
sinxusela	-12.5717
yelekelela	-12.5717
laling	-12.5717
hara	-12.5718
zikhuleke	-12.5718
liqhu	-12.5718
bamphelekezela	-12.5719
libhe	-12.5719
ngimthum	-12.5719
thunqa	-12.5719
ngijabule	-12.5719
ngilidlulisel	-12.5719
ukwehlis	-12.572
abangangcolis	-12.572
thengiselan	-12.5721
engiswa	-12.5721
esif	-12.5721
casha	-12.5721
liyaphi	-12.5721
akwethembis	-12.5721
bangad	-12.5722
ezilimaza	-12.5722
sp	-12.5723
nginivuse	-12.5724
esemfu	-12.5727
zezink	-12.5727
bahlalis	-12.5727
sikhukhul	-12.5727
ngingakubamb	-12.5728
emhlang	-12.5729
bangimangalel	-12.5729
eley	-12.573
esilungiselwe	-12.5732
yabakhanyis	-12.5732
wahlukanisel	-12.5733
kwabadumile	-12.5733
zilungisi	-12.5734
ithunyelw	-12.5735
ngiphendule	-12.5735
enomkh	-12.5735
yizif	-12.5736
jabule	-12.5736
esayenza	-12.5736
ukhuthazel	-12.5737
ancishwa	-12.5737
kiswa	-12.5737
nabaphathi	-12.5738
zithukulul	-12.5738
sabak	-12.5739
ningadi	-12.5739
maphuc	-12.5739
balalele	-12.5742
ngokwakhulunywa	-12.5742
izinhlobo	-12.5742
kwakuyizin	-12.5744
sithumile	-12.5744
yagxum	-12.5745
angathola	-12.5745
isiyalez	-12.5745
bakhuphu	-12.5745
sebedabul	-12.5746
ngxa	-12.5746
sekuzaku	-12.5746
azilokothel	-12.5748
ungowesi	-12.5748
akasho	-12.5748
ngibonise	-12.5748
akhazimulisw	-12.5749
nibabekezelel	-12.5749
akuthol	-12.575
wakhile	-12.5751
okusez	-12.5752
mahlukanisi	-12.5752
engikuzwa	-12.5753
yisifu	-12.5754
zingaphi	-12.5755
wehlele	-12.5756
engingayi	-12.5757
ehlelw	-12.5757
ingasayikukhul	-12.5757
esiphelele	-12.5759
akutheng	-12.5759
unju	-12.576
elibheke	-12.576
nemih	-12.5761
esenqum	-12.5763
izinso	-12.5763
nabaqambi	-12.5763
yayenziw	-12.5764
alimal	-12.5765
ongowe	-12.5765
uyakuzib	-12.5765
athobis	-12.5766
siyakuwu	-12.5767
silungisele	-12.5768
sekudal	-12.5768
engakabi	-12.5768
sesamukel	-12.5768
nganamukeli	-12.5769
nizidlul	-12.5772
abayisishiyagalo	-12.5772
esenyukel	-12.5773
ngilingis	-12.5774
ngazinqumel	-12.5774
awudi	-12.5774
ukukhuphu	-12.5775
kukhunjul	-12.5776
wakhul	-12.5777
nokokwa	-12.5777
ningakhathal	-12.5777
ewuf	-12.5777
yisibo	-12.5778
saniphath	-12.5779
kwabathengisa	-12.578
kungengokwe	-12.5781
awuhlwanyel	-12.5781
mmiselwe	-12.5782
elinde	-12.5782
mfulathel	-12.5783
yithumile	-12.5784
libalel	-12.5784
ninganik	-12.5785
wamgcoba	-12.5788
wethembisa	-12.5789
nithwes	-12.5789
kwehlele	-12.5791
bayimith	-12.5791
kabasayik	-12.5793
ngazindli	-12.5795
phathisiwe	-12.5797
umchi	-12.5798
alwenz	-12.5798
mikhunjan	-12.5798
wakubeka	-12.5803
akathanda	-12.5803
akusin	-12.5804
phosho	-12.5806
angizisol	-12.5807
bayihlanganyel	-12.5809
angicel	-12.5809
bunjengob	-12.5811
ngililel	-12.5812
yisiphe	-12.5816
anisiw	-12.5818
kubuki	-12.5818
sihaqi	-12.5818
yowoni	-12.5821
isimis	-12.5822
liyakum	-12.5824
nginxusele	-12.5826
ngizakwenz	-12.5826
xubani	-12.5828
siqinise	-12.5829
ekhwel	-12.5831
beyin	-12.5831
libazis	-12.5833
enabiz	-12.5834
bahlubuk	-12.584
obizelw	-12.5842
shintsha	-12.5854
zithule	-12.5855
okudili	-12.5859
bakuphik	-12.5861
abazuzi	-12.5872
ngezimpa	-12.5881
ngilibala	-12.5884
zamkh	-12.5888
azar	-12.589
niligcine	-12.5891
elingatheli	-12.5891
zinsiz	-12.5895
bagcwalis	-12.5898
simenz	-12.5899
yakhw	-12.5899
ngesid	-12.5903
kuwuthobel	-12.5904
bithi	-12.5906
inkamb	-12.5906
azulazul	-12.5913
njengokuswel	-12.5923
kwakul	-12.5929
ngiyanif	-12.5932
lisebenzis	-12.5932
kawush	-12.5933
okukuw	-12.5934
bakuvuma	-12.5937
asibamb	-12.5937
baqhube	-12.5946
dabukisile	-12.5954
nyak	-12.5955
akunikez	-12.5964
ishiyele	-12.5977
ikhokhe	-12.5981
balungisisile	-12.5987
ukuviviny	-12.5988
wabethe	-12.5988
kunilung	-12.599
yahlulel	-12.5999
bazigcine	-12.5999
ezisez	-12.6
akakheth	-12.6
ngamzond	-12.6005
wayengenak	-12.6005
sombha	-12.6013
nilahl	-12.6013
khathele	-12.6016
engamise	-12.6017
kulotshelw	-12.6025
ufakazelw	-12.6026
soqo	-12.6029
angamvus	-12.6032
zithotshis	-12.6035
basilaya	-12.6039
yezwakal	-12.6042
ukuland	-12.6043
eningababi	-12.6047
zihlonipheka	-12.6048
hloniphek	-12.6049
zihlakazekile	-12.6055
abasez	-12.6058
benezel	-12.6059
oluhl	-12.6063
oyakungi	-12.6065
kusasele	-12.6068
khalakathel	-12.607
vivinyek	-12.6072
babebahl	-12.6079
zakuyinqum	-12.608
lidons	-12.6081
okwelekel	-12.6086
akambon	-12.6093
bangifumana	-12.6094
simboz	-12.6097
abanja	-12.6099
enezel	-12.6101
ningambon	-12.6101
anisin	-12.6108
zinakekel	-12.6108
ungalib	-12.6114
sekubonakal	-12.6131
angiyek	-12.6132
kubulal	-12.6143
hlehlela	-12.6151
nokwanel	-12.6152
bemhaq	-12.6153
esokh	-12.6153
kuvimbe	-12.6155
ngamelan	-12.6155
walahle	-12.6156
njengemb	-12.6157
sasinawo	-12.6158
ngakulob	-12.6163
ungadelel	-12.6169
asibal	-12.6172
singabokukh	-12.6195
ukisile	-12.6205
hopho	-12.6207
kubalind	-12.6212
asaneli	-12.6214
azalw	-12.6223
ukuphile	-12.6228
uyakuy	-12.623
ongagani	-12.6235
lokumbel	-12.6236
beland	-12.6237
engiwakhulum	-12.6242
bengakahla	-12.6244
engalikhulum	-12.625
malung	-12.6252
ningamuk	-12.6264
basikhiph	-12.6268
lwesikh	-12.6272
bangazil	-12.6276
singabuy	-12.6278
ngizibona	-12.6278
abamaz	-12.6279
nginikheth	-12.6284
nezamb	-12.6284
bacasuk	-12.6289
amangalelw	-12.629
ningawamukel	-12.6291
sasind	-12.6295
sapheph	-12.6312
abiy	-12.6318
yokuvun	-12.6319
lenhl	-12.6324
enginiyal	-12.6325
ngithunyelw	-12.6338
uthul	-12.6339
ukukulob	-12.6343
ayesevul	-12.6345
zibekiwe	-12.6349
ngalith	-12.6351
uzikheth	-12.6353
bazise	-12.6357
uzakugcwalis	-12.6362
ukuzith	-12.6365
wufez	-12.6366
nangokuz	-12.6367
maningakho	-12.6382
hamb	-12.6383
okukhulunyw	-12.6385
zabakh	-12.6388
selidluli	-12.6412
nimthethelel	-12.6416
baligcin	-12.6427
siyakwenz	-12.6435
babengenam	-12.6435
madol	-12.6445
sokuphelel	-12.6446
ngilahlekel	-12.6452
guqulek	-12.6453
kwesab	-12.6458
zaphaka	-12.6471
ephil	-12.6477
nokuqalekis	-12.6481
hlakele	-12.6482
sebebuy	-12.6488
usindisw	-12.6502
usind	-12.6514
nifak	-12.6519
angasinik	-12.652
siyibonile	-12.652
nasekutha	-12.6523
zihlakazek	-12.6538
baphelelis	-12.6546
utshal	-12.6547
nakusol	-12.6548
obusu	-12.6555
ngokutus	-12.657
engingow	-12.6575
wembath	-12.6581
izenz	-12.6587
kwemif	-12.6605
esinc	-12.6614
engimis	-12.6626
eyisish	-12.6632
akahlal	-12.6666
kokuf	-12.6671
esazis	-12.6694
zinqolobane	-12.6704
owasiphi	-12.6716
elilungi	-12.6721
bangekwen	-12.6728
ngokukhulunyw	-12.6739
kwasez	-12.6747
uvamis	-12.6747
ekumuk	-12.6758
kuhlangan	-12.6774
”	-13.484
,	-13.5329
8	-14.8865
3	-14.8866
—	-14.8867
!	-14.8868
v	-14.8869
q	-14.887
:	-14.8871
t	-14.8872
g	-14.8873
